layers 7
layer 0 Dense
20 20
[-0.41049635 -0.05698587 -0.1738675  -0.05372409  0.4325352   0.295666
  0.23579302 -0.29690972  0.3628702   0.4321102   0.27930066 -0.01715069
  0.2279665  -0.07342044  0.1786857  -0.33394477 -0.12174898 -0.2696069
 -0.103401   -0.30355144]
[ 0.02065457 -0.5175048   0.4875451   0.44292656 -0.22648866  0.00933835
 -0.4202625   0.11113873  0.18624687 -0.19762336  0.46912846  0.03165681
  0.21382554  0.26960364  0.39631218  0.2059298  -0.34810802  0.47108337
  0.02152922  0.21275136]
[-0.46084774  0.00152667  0.4047721   0.39738852  0.37946552  0.37844762
  0.11660135 -0.1400068   0.06490865  0.43805313  0.15066546  0.19187762
  0.52998626  0.01517998  0.06337714 -0.15446036  0.11472096  0.37884533
 -0.50733966  0.18736541]
[-0.5424266  -0.25781992  0.06070121 -0.09811875  0.29208985 -0.11051881
 -0.1836212  -0.30314445  0.38274398 -0.04138793 -0.33058548 -0.12958863
 -0.12389258  0.1776671  -0.22256288  0.18177949  0.0222151   0.28511456
 -0.2970789   0.19680901]
[ 0.30065852  0.2276083  -0.21860579 -0.10910322 -0.2553237  -0.57773054
 -0.06193208  0.15059386 -0.2671717   0.39568326  0.06265385 -0.13874884
 -0.0496103  -0.32195464  0.02698543 -0.03994173 -0.05826774 -0.22222254
  0.01732399  0.0324292 ]
[-0.18207544 -0.21632718 -0.8257297  -0.2747207  -0.03809634 -0.2948713
  0.00690334  0.11100774 -0.39641708  0.04563719 -0.6756638   0.40909636
  0.09233902  0.20885906 -0.28749916  0.3971577   0.07245662 -0.3993536
 -0.09907993 -0.27499637]
[-0.12868018  0.48612377 -0.30290136  0.06661879 -0.11073151 -0.16602486
  0.48540798 -0.3380903  -0.16805705 -0.08208744 -0.68386054  0.2788093
 -0.47048435  0.15997897  0.09924157 -0.02749913 -0.44313952 -0.00538625
 -0.05983431  0.44735837]
[ 0.12055312 -0.11642139  0.30478945 -0.43821973  0.34254667  0.13614094
  0.3259454  -0.01284958 -0.16639982 -0.24573047  0.35397732  0.25483215
  0.00841201 -0.06603444 -0.19157033  0.25059927 -0.23350187 -0.15519264
  0.28632903  0.16019733]
[ 0.11595648  0.44565198 -0.2596988  -0.04418205 -0.12854049  0.04188021
  0.09293369  0.5595595   0.11779734 -0.33451018  0.09055745 -0.23861426
 -0.3113932   0.04347461  0.11291038  0.03389947 -0.15514736  0.26612756
 -0.09290396 -0.15328123]
[ 1.2950967e-01  3.1252864e-01  9.5503643e-02  1.5039654e-02
 -1.4408381e-01 -1.2031934e-01 -3.1204209e-01  1.8970738e-04
  1.7876041e-01 -9.3517572e-02 -1.0539514e-01  4.7065082e-01
 -2.9618239e-01 -5.4242665e-01 -2.0379037e-01 -6.1260051e-01
  6.4913017e-01 -2.7076486e-01 -1.4655070e-01 -1.3272420e-01]
[-0.28405213 -0.13201372 -0.15640937 -0.12336003 -0.3793799  -0.24513087
 -0.27469975  0.22484963 -0.03168942 -0.08135127 -0.21780597  0.20575711
  0.0663807  -0.39360443 -0.2681897  -0.33347517  0.10740337  0.10877226
 -0.3512328   0.2682984 ]
[-0.44125706 -0.21960814 -0.40578768  0.0670092  -0.22860995 -0.2823232
  0.00741407 -0.01532692 -0.7224969  -0.23475376 -0.25501674 -0.01367508
 -0.38949782  0.3482175  -0.37642756  0.37961113  0.27771556  0.24751401
  0.10451694  0.55142164]
[-0.1391677   0.31056952 -0.3316717   0.14242224 -0.16876443 -0.20638332
 -0.00585513  0.23339142 -0.01967432 -0.1926418   0.02694494 -0.02957918
  0.1528453   0.01195444 -0.42516482 -0.20539665  0.15093975  0.0318652
 -0.17593582  0.22817567]
[-0.25809148  0.23652717 -0.25825757 -0.2135715  -0.51957124 -0.32744747
 -0.06101727 -0.21264267  0.3075008   0.23578343  0.04254573  0.3967525
 -0.36853573 -0.43803898 -0.20126842  0.00240856  0.41556773 -0.32467172
 -0.20726106 -0.17711183]
[-0.02176867 -0.09716725 -0.19499202 -0.50667304  0.34005108 -0.08225468
 -0.14658077 -0.19532415  0.23627713  0.07574499  0.5648337  -0.07917158
  0.06819538 -0.16675788 -0.49117315  0.02287447 -0.12319435 -0.37657616
 -0.35205704 -0.02802297]
[ 0.11258873 -0.3134919   0.30569208 -0.42805043  0.14799249 -0.10417143
  0.38423017  0.45600852  0.44641644 -0.4273565   0.31917182  0.19819117
  0.18717924  0.21806015  0.04377887  0.6401486   0.40035045 -0.21481992
  0.40309653  0.4651119 ]
[ 0.11989268 -0.7480478   0.18955146  0.2333043  -0.22712193 -0.46840096
 -0.15167418 -0.12115461  0.18778238 -0.17372717 -0.4136519   0.02298724
  0.1642346   0.07656507  0.11908638 -0.3173386   0.03784152 -0.2979972
 -0.11664983 -0.25388318]
[-0.284992    0.04033706  0.4511384  -0.23642728  0.73676455 -0.6147347
  0.3407228   0.56532747  0.39901692 -0.35365972 -0.15207171 -0.07435601
  0.59664327  0.94957495  0.19706821  0.6318006  -0.60344017 -0.15058355
 -0.09711267  0.15375197]
[ 0.31431    -0.27143165  0.5285677   0.06359036  0.20080085 -0.07957911
 -0.2568826   0.24654733  0.46839395 -0.08809382 -0.77117854  0.57096696
 -0.7418077   0.15188444  0.92205095  0.14702854  0.9991299   0.8916948
  0.4698221   0.6992917 ]
[-0.14676206 -0.29980534  0.07034871  0.05416861 -0.31631255  0.6929867
 -0.36079288 -0.54209363  0.14801799  0.5038136   0.40452248 -0.4420694
  0.6168327  -0.37102398  0.70848393 -0.01755281 -0.7136989   0.1589914
 -0.25229684 -0.36830732]
[-0.12161906 -0.02724453 -0.05391723  0.04530436  0.07370216  0.07130717
 -0.06920274 -0.06022295  0.06039345  0.15429036  0.05558004  0.02899818
  0.04831501  0.05234646 -0.00401419  0.1698338  -0.03614662  0.06666413
 -0.06206061 -0.07748643]
layer 1 Activation
tanh
layer 2 Dense
20 40
[ 0.09088108 -0.22533043  0.02300866  0.08172428  0.02898187  0.34345937
 -0.1215679  -0.03251496 -0.21236803 -0.16934648 -0.04234204 -0.25555778
 -0.2481724  -0.18382697 -0.2050186  -0.15223338  0.24661972 -0.06362867
  0.13621514  0.17001301  0.03448897 -0.21026164 -0.03244378  0.12267739
 -0.15775728  0.14434995  0.06059202  0.23217335 -0.07083039  0.2191458
 -0.18660204 -0.18763284 -0.24544194 -0.0657634  -0.05906489 -0.0561811
 -0.12584409 -0.03274356 -0.22447924 -0.21508886]
[ 0.2690758  -0.06981699  0.13583155  0.35948205 -0.11225194  0.16402979
  0.14386038  0.20440884  0.18764848 -0.15845922 -0.3218924   0.11044065
 -0.04696466  0.28702337  0.09292045 -0.0121397   0.05717775 -0.26006475
  0.4107143   0.3231399   0.23995502 -0.10806815 -0.07088525  0.44644895
 -0.01641212  0.41726318 -0.16973424 -0.16814597 -0.19802006 -0.03347848
 -0.258596   -0.3032906   0.32837868 -0.2980886  -0.43697673  0.0425586
  0.06926578 -0.16539593 -0.16652565 -0.11336588]
[-0.19325492  0.04601399 -0.05900298 -0.09697451  0.16353048  0.27815092
  0.16374092  0.05277556  0.00149896 -0.0546876   0.10423179 -0.13336751
  0.13566944  0.12259208  0.05134427  0.03149334 -0.25923932  0.47594407
  0.2422825  -0.20501113 -0.11733964  0.242426    0.04263066 -0.3816409
  0.10862388 -0.23398982 -0.19840825 -0.13014124 -0.16070102 -0.2181769
  0.31864074  0.04730847  0.13247906  0.32274166  0.2944871   0.02230045
  0.310173    0.09925859 -0.06734121  0.27905905]
[ 0.10079961  0.02309858  0.20082562  0.18936558  0.213344    0.15090951
  0.13271472 -0.14763795  0.31225652 -0.14707668  0.14206831  0.20359668
  0.01021173 -0.23590824 -0.07323921  0.02731942  0.2735008  -0.10967921
  0.1721826   0.12920968 -0.15687524  0.18085383 -0.08699103 -0.13164428
 -0.29204577 -0.13636991  0.13947475 -0.24975564  0.0879405  -0.3360404
 -0.27554223  0.02629473 -0.11524773  0.1042942   0.00679344 -0.18465573
  0.16399549  0.18089771  0.13190356  0.23537116]
[-0.04529413  0.29776904 -0.15065031 -0.0271545   0.35665458 -0.17677361
  0.21860379 -0.07803264 -0.11442993 -0.17459357  0.48217317 -0.10646167
  0.1292784  -0.00897074  0.34132868  0.18971828 -0.5462878   0.1814502
 -0.08245201 -0.13119774  0.17980969 -0.18909839  0.07721873  0.17012094
  0.19236544 -0.22929502  0.27674666 -0.04547983  0.3517961  -0.09613746
 -0.26148498  0.34901088 -0.30763528  0.12177937  0.30963588 -0.23193459
  0.41056016 -0.11621276 -0.1137659   0.2379562 ]
[ 0.02004147 -0.02202542 -0.27634954  0.09240093  0.22734524  0.32910576
 -0.2361263   0.16668853 -0.2627028   0.24048425  0.1066328   0.15856099
  0.10081173  0.09247561  0.03604186 -0.27893898 -0.37373766 -0.28186277
 -0.15993182  0.00658686  0.09341431 -0.31681168 -0.2966589   0.00857152
  0.00707354 -0.4690245   0.20927015 -0.2176792  -0.41468784  0.37929472
 -0.2007992  -0.00155453  0.35063604  0.05719192  0.05358752 -0.07386812
  0.05769032  0.16051482  0.20187773  0.21445061]
[-0.4315393   0.11803309  0.04056983 -0.14428206 -0.03934102 -0.08506479
  0.38310832  0.28027344 -0.22428867 -0.21741009 -0.12060807  0.00092894
  0.26564354  0.24952774 -0.23103519  0.09958289 -0.13611378 -0.03774345
  0.07126052 -0.03089418  0.30493912 -0.12318008 -0.25657195  0.55186963
  0.13856651  0.19131991 -0.10660281 -0.27087542  0.10013119 -0.12206217
 -0.26026922  0.0026216  -0.08926295  0.06155162  0.1242855  -0.23059471
 -0.08021396  0.00126456 -0.29026547  0.07757422]
[-0.34489483  0.23737252  0.15418677 -0.2980082  -0.4307284  -0.23294139
 -0.23278078 -0.05714837  0.48078883 -0.27289626 -0.4209939  -0.15745343
  0.25131038  0.1399384  -0.08111975  0.32212138  0.06023174  0.24146426
  0.35992575 -0.10329457  0.25817305 -0.08706737  0.20932347  0.53832793
  0.10392413  0.37382707  0.15433888 -0.22084709  0.07897016 -0.18406829
  0.3329363  -0.08917135 -0.01560394  0.40157646 -0.31887808 -0.1971549
 -0.20029534 -0.27686483  0.23472671 -0.28066954]
[-0.22274728  0.19888124 -0.18283185 -0.23109373  0.03524882 -0.06882836
 -0.19474576 -0.09081648 -0.06416581 -0.11663512  0.1714951  -0.17863442
 -0.11642342 -0.21234812 -0.25889865  0.06006119 -0.04017026 -0.17998667
  0.01929956 -0.15078443  0.18205187  0.0695596   0.12089707 -0.35234782
 -0.22169472 -0.26316136 -0.00687278  0.04088927 -0.3884564   0.31833693
  0.20862454  0.07458503 -0.14443813  0.14196736  0.07836244  0.12656711
  0.23382717  0.10294054  0.22715965  0.10033885]
[ 0.11748023 -0.08148313  0.13947189  0.390505    0.22482623  0.10238715
 -0.10226131 -0.23066683 -0.01859912  0.06277856  0.17199376  0.0645007
 -0.30752537  0.24279165  0.22833882 -0.22449252  0.01300185  0.3297091
 -0.26161936 -0.26009268  0.23109634 -0.14379448  0.09104975  0.08522967
 -0.10606743 -0.28106046  0.17328903  0.20487684 -0.30338165  0.2606718
 -0.14153926  0.02705005 -0.00561256  0.14551073  0.10465119  0.16439873
  0.3576453  -0.2310424  -0.07293161  0.18471661]
[ 0.24127638 -0.04619997  0.13751337  0.33992833 -0.27900487  0.21704516
  0.07401869  0.4376398   0.01346377 -0.08987571  0.29126406 -0.33243063
 -0.30190524  0.32521403  0.14662951  0.23095313 -0.13947286 -0.14474668
  0.10400459 -0.27019644  0.3198191  -0.47857934 -0.1917024  -0.06007218
  0.3069937  -0.07500038  0.16152485 -0.24847697 -0.08309194  0.41848063
  0.17512964  0.08391472  0.44751564 -0.35062668 -0.24135862  0.51743495
  0.04837545  0.07412911  0.30131993  0.00883625]
[ 0.15321034 -0.25417355 -0.05347983  0.04198272 -0.16951157  0.28096667
 -0.05143841  0.03697133 -0.21831144  0.2663873   0.00572286  0.3066267
  0.17301905 -0.20130841 -0.15966229  0.32389155  0.19453588  0.08046181
  0.31832093  0.20443088  0.14996774  0.05732388 -0.1247298  -0.16743939
 -0.11858993  0.25962454 -0.19300893  0.03501306 -0.22322802 -0.05656343
  0.27416217 -0.05559714 -0.17936386 -0.03394956  0.02906897  0.04175313
 -0.2289521  -0.15307201  0.24779992  0.10840076]
[-0.2974957   0.20068762  0.02665297 -0.32661027  0.13475016  0.10767814
  0.08251523 -0.35707015  0.31628662  0.30674645  0.0957156   0.01284743
  0.15339024  0.06732639  0.0053142   0.05423735 -0.16119356  0.35442647
 -0.1906088   0.05342653  0.28876853 -0.11940139  0.20984967 -0.41399714
  0.03028913 -0.2984879   0.26976418 -0.10037235 -0.00131207 -0.21352322
 -0.04036185  0.16131721  0.44581914  0.1857156   0.04352199  0.26216552
 -0.4153919   0.22340627 -0.05119014  0.28951034]
[-0.29727936 -0.13408431  0.31568938 -0.31615174  0.13872048 -0.335497
 -0.17393135 -0.10661054 -0.04245002  0.19395797  0.45533884 -0.44294095
  0.46930394 -0.2750682  -0.16539393  0.5600678  -0.8032028  -0.07236317
  0.2077873  -0.48543316  0.5385849  -0.18388772 -0.03246909 -0.13139544
  0.06237295  0.19375053  0.09493824 -0.20085073  0.1711152  -0.1535597
 -0.04981831 -0.07240082 -0.06347346  0.30668053 -0.07849493 -0.32763568
  0.07972723  0.24121097  0.17435576 -0.1971629 ]
[-0.12980771 -0.14604697 -0.43731967  0.04752414  0.07299225  0.44525513
 -0.07383437 -0.03924958  0.4159991   0.26967728  0.30800846  0.07182691
  0.16662194 -0.07676226 -0.36159125  0.01173676  0.30544794 -0.26005057
 -0.11333701 -0.5191731  -0.2679982   0.06771707  0.14462073 -0.42217472
 -0.14070998 -0.51832914  0.19622993  0.35599595 -0.1473706  -0.40321648
 -0.18781443  0.06068614 -0.1992732   0.03503489 -0.11820508 -0.0604372
  0.16553368 -0.31085894 -0.23703928  0.38588262]
[-0.14674567 -0.19406922 -0.22667693 -0.37470093 -0.35181314 -0.25506786
  0.23016977  0.2875926  -0.08230811  0.097321   -0.05187159 -0.35283038
 -0.01609862  0.19673352  0.00259842  0.30916473 -0.14989802  0.22979078
 -0.11289664  0.20950513  0.37639183 -0.22090238 -0.158561    0.08697891
  0.07785776  0.23363277  0.22212264  0.11900603 -0.07730822 -0.17541276
  0.0522018  -0.10585024 -0.09162738 -0.11014011  0.2647405  -0.15467171
  0.11703581  0.18920937  0.10951734 -0.16981   ]
[ 0.15399627 -0.2860155  -0.0532237   0.22402644  0.13084574  0.23750895
 -0.31817377  0.35944322 -0.17712149  0.0035494   0.06953913 -0.06668039
  0.31015798 -0.04112127  0.2664743  -0.08262689 -0.3153061   0.12243683
  0.09201335  0.3392886  -0.1782563  -0.205227   -0.22659624  0.10320492
 -0.23210962  0.3142011   0.20304638 -0.25754902  0.11868233  0.06829742
 -0.02687189  0.14365454 -0.27576268 -0.24343793  0.15635039 -0.06810421
  0.30186397  0.17977718 -0.0850051  -0.36904368]
[-0.10651814 -0.24559948 -0.12439507 -0.01108726 -0.16242087  0.31399468
 -0.31046486 -0.20975514  0.08477437 -0.2637777  -0.16627048  0.33040482
  0.39680356  0.2665226  -0.12341014  0.23284884 -0.07608587  0.10924572
  0.19241707 -0.09803863 -0.03658094  0.16750774 -0.03471159  0.32276714
 -0.02360195  0.11846738 -0.16622324  0.29973078 -0.07131055 -0.06345066
  0.00121235  0.31259716  0.08717939  0.14565481 -0.00194427  0.20959337
  0.32456586  0.10153013 -0.22901426  0.13554265]
[-0.27366963  0.27990058 -0.10190383 -0.37086546 -0.28710273  0.273202
  0.12412682  0.03368726  0.18576162 -0.23913503 -0.05143709 -0.18221276
  0.32063952 -0.14035921  0.30449    -0.1412299  -0.07146997 -0.10554386
 -0.17597616  0.17527092 -0.2256389   0.10980713  0.2636329   0.30682015
  0.11301377  0.03181281 -0.05658638  0.18376063  0.23151025  0.1751342
 -0.18765348  0.0087715  -0.17237677 -0.02539534 -0.172509   -0.19283254
 -0.15353994  0.10767999  0.1730804  -0.1777278 ]
[ 1.48374224e-02  1.59596577e-01 -1.84579179e-01 -4.26321983e-01
 -3.15758944e-01  7.02402322e-05 -1.58643544e-01 -4.73940298e-02
  2.18694195e-01 -1.06097594e-01 -9.48219299e-02 -4.25564140e-01
 -9.90746357e-03 -1.55553833e-01 -2.07882792e-01  1.71910584e-01
 -2.13389724e-01 -4.56954390e-02  1.65132821e-01 -7.89884180e-02
  1.28513873e-01  1.58176925e-02  1.78217131e-03  8.59338492e-02
  2.39615031e-02 -7.80077130e-02 -7.06416443e-02 -2.55810115e-02
  2.42703602e-01 -3.57566327e-01  2.35624760e-02 -2.11085320e-01
 -2.04617791e-02  1.20547444e-01 -2.50223219e-01 -6.41366839e-02
  2.77412862e-01  2.69194752e-01  6.61473768e-03 -1.86040834e-01]
[ 0.16081423 -0.07120021 -0.0292194   0.02619884 -0.00838197 -0.02918645
 -0.00125907 -0.01513817  0.04061832  0.02512619  0.08473548  0.07947821
 -0.0465605  -0.07214053 -0.04287628 -0.0873517  -0.10040618  0.07587718
 -0.02101946  0.07878576 -0.01456897  0.05589705  0.00365504 -0.15404485
  0.01054412 -0.09237614  0.02318249  0.00949384 -0.09350398  0.1441048
 -0.03247096  0.05857187 -0.00124036 -0.09903011  0.0602354  -0.03712044
  0.05603105 -0.05589613 -0.04192894  0.08006527]
layer 3 Activation
tanh
layer 4 Dense
40 20
[ 0.11938323  0.11616803 -0.28168315  0.00375842 -0.15570758  0.3758392
  0.20202161 -0.0527597   0.07682388 -0.25775203 -0.28682235  0.11319637
  0.23484676 -0.22888908 -0.2690386  -0.45729762  0.06709697  0.11465054
 -0.0658516  -0.3569236 ]
[-0.3091457  -0.2675166   0.298623   -0.36433348 -0.11628224  0.01060324
  0.12105683 -0.09545758  0.13124688 -0.01818931 -0.02592476 -0.15376033
 -0.31683168  0.12052412  0.2034992  -0.07085579  0.07279469 -0.19470023
  0.05850324 -0.03565632]
[ 0.1599697  -0.24660596  0.06234461 -0.17518558  0.0946798   0.18918052
  0.00115694 -0.22579035  0.2679588   0.23711576 -0.01859665 -0.28535283
 -0.04069842 -0.11535597  0.15771532 -0.01567611 -0.29176226  0.11106337
 -0.23477657 -0.27703476]
[ 0.16435432  0.18295114 -0.17180872  0.06405239 -0.17246686  0.2080016
  0.26693484 -0.21015006  0.19060843 -0.28427076  0.09619118 -0.00034198
 -0.2930885   0.0793434  -0.31525233 -0.31488144 -0.22448193 -0.26711643
 -0.16872734 -0.2902106 ]
[-0.01405968  0.06596666  0.00247371 -0.30071622 -0.08233254  0.2329123
 -0.10445019 -0.31706136 -0.25172794 -0.17742915  0.25270167 -0.07579872
 -0.01292824  0.11684615  0.13684107 -0.29398218  0.00436206 -0.28239703
 -0.0530308  -0.14495674]
[-0.2472919  -0.22709355 -0.00691131 -0.11553006  0.29346108 -0.30065224
  0.21779746 -0.10132533 -0.20296064 -0.03908648 -0.06271311  0.20508994
  0.15644951  0.12858602 -0.4114613  -0.23156834 -0.11849373 -0.05120462
  0.24639077 -0.00156174]
[ 0.2506489  -0.12098897 -0.21879405 -0.01496473 -0.1085069  -0.28346753
  0.16201061  0.12220663 -0.23244168  0.11164998  0.03079212  0.3322988
 -0.18254535  0.01141514 -0.01755564 -0.02341267 -0.11773008 -0.12986343
 -0.15020198 -0.1183065 ]
[ 0.06521202 -0.14786488 -0.22165231 -0.19565192  0.03929547  0.17294385
  0.35641167  0.19785938  0.30259934  0.17105256 -0.02533603  0.21440566
  0.07774416  0.08806644 -0.20592488  0.23370022  0.23582038  0.0417744
 -0.232072    0.11587883]
[ 0.27321836 -0.26977292  0.32922244 -0.05625626  0.02179775  0.14115286
 -0.16293518  0.12910444  0.15280318 -0.17333126 -0.05021532 -0.28096595
  0.02901351 -0.14347981 -0.04756469 -0.00863452  0.28931734  0.08013202
  0.00962275  0.14362055]
[-0.07372287  0.21347126  0.0080943  -0.18432511  0.1504839  -0.01113357
  0.15331785 -0.07182328 -0.30944577 -0.10891752  0.11067556  0.13768655
 -0.33674383 -0.2380807   0.01735597  0.36683682  0.07783403 -0.19203751
 -0.09420106 -0.07538725]
[ 0.05627303  0.14193112 -0.31613934 -0.0433362   0.24884753 -0.2517824
  0.00701802 -0.06357319 -0.3129433   0.16525446 -0.04235658 -0.19432327
  0.3313451   0.03447785  0.25160795 -0.2614296   0.13117342  0.00717431
 -0.2210096   0.10516511]
[-0.17744294  0.1037033   0.43757248  0.09584048  0.17000692  0.33553427
 -0.3013767   0.18561958 -0.11293864 -0.10094404 -0.03288621 -0.2146237
 -0.35680133  0.3582822  -0.28859633  0.01004393  0.08711323  0.05084998
  0.1663938  -0.18339977]
[-0.19344963  0.11811678  0.12320205 -0.2749914   0.07563064 -0.3098601
 -0.06827286 -0.00309265  0.21721625  0.20416808 -0.15379047  0.29754943
  0.28902322  0.0716449   0.15406108 -0.12392972 -0.24141292 -0.0524511
  0.22554432  0.31247413]
[ 0.01099736  0.16930763  0.09865843 -0.13305438  0.34104168 -0.32621664
  0.08424014 -0.15861115  0.2785766  -0.09295473  0.08552327 -0.02194059
 -0.44421342  0.25134772 -0.08965557  0.24080242 -0.19856785  0.18790527
 -0.1464941   0.12744343]
[ 0.09962726  0.06986921  0.02592022  0.27356505  0.21768065 -0.22141513
  0.1151123  -0.22129539 -0.15672946  0.14801906 -0.22951096  0.07898702
 -0.28433657  0.10142784 -0.06432791  0.30003065  0.21955116  0.12234302
 -0.2827004  -0.19946244]
[-0.00199134 -0.08591402  0.13957511 -0.31112507  0.09179328 -0.41220838
 -0.05130636  0.03323304  0.20181677  0.25333354 -0.21143934  0.21195057
  0.20204334 -0.30058324  0.24084322  0.23568271  0.1506819   0.06427142
  0.17122683  0.0130331 ]
[-0.2728639  -0.36572325 -0.03268844  0.28663582  0.29172105  0.10754607
 -0.03480143 -0.19366641  0.35887682 -0.19802171  0.05124596 -0.24547818
  0.01956839 -0.30068034 -0.25141022 -0.25154462 -0.01212201  0.25809437
 -0.19859535 -0.29483792]
[ 0.07689688 -0.16088115 -0.07049163 -0.07470917  0.12486652 -0.12874584
  0.25082892 -0.21855266  0.05371114 -0.10523796  0.16811894  0.07527719
  0.25296703  0.17028376  0.22636288  0.1585614   0.13774976 -0.1398411
  0.19769844 -0.22926462]
[ 0.05603299 -0.14535053  0.12469709  0.05962753 -0.15815282  0.1017306
  0.12162661 -0.02737251  0.14175965  0.34807605 -0.1828681   0.29214233
  0.29136306  0.26840985 -0.02270726  0.07171057 -0.21690986  0.18949977
  0.2374573   0.10473929]
[ 0.3094672  -0.01734519  0.05382796  0.1685975   0.28686854  0.23742393
  0.20467183 -0.12965313 -0.10566669 -0.09466262  0.13949388 -0.24850701
 -0.01465848 -0.21461022 -0.07905426  0.10463767  0.09671853 -0.17032562
  0.10472629 -0.25880045]
[ 0.02107642 -0.08513781 -0.29048413 -0.17341189 -0.24290471 -0.36517578
  0.21946982  0.06054651  0.10014345  0.28909338 -0.07217536  0.25356576
  0.00463246  0.2229611   0.30226985  0.09153615 -0.02228766  0.05960523
 -0.23302291 -0.00503131]
[-0.09899256 -0.21752499  0.23108962 -0.20538041  0.10175098  0.25724968
 -0.35519418  0.14417732  0.10600862 -0.10564216 -0.12559697  0.13610478
  0.1497147   0.04326811  0.12237009 -0.10359867 -0.2597024   0.3161872
  0.1212479  -0.18964368]
[ 0.33832818 -0.23859333  0.1354817  -0.24461749  0.1949086  -0.23209094
 -0.04438895  0.02844824 -0.19874726  0.06921352 -0.1585505  -0.01540604
  0.31545424  0.00656911 -0.06401415 -0.02822347  0.25366324  0.0323677
 -0.22666498  0.01464662]
[ 0.17754215 -0.21285278  0.14343193  0.21920204 -0.30682352 -0.10507024
 -0.24222077  0.1462486   0.5561656   0.3833169   0.03906595  0.16063982
 -0.1506519  -0.08003745  0.0095611   0.1331161   0.25562716  0.08009827
  0.26852325  0.1174638 ]
[ 0.04968071  0.14259075  0.20722395 -0.01216676 -0.03853633 -0.40015256
 -0.07697953 -0.17220248 -0.13574103 -0.24114904 -0.22269362 -0.17278473
 -0.11884204 -0.14881879 -0.14336047 -0.040049    0.17531663 -0.18459685
 -0.21166663 -0.25114116]
[ 0.2538059   0.05389701  0.01513174 -0.03455464 -0.07213985  0.05596204
 -0.21171436 -0.22136988 -0.04855001  0.33928615  0.02778215  0.11587146
  0.27755535  0.03559639  0.17532086 -0.07420488  0.1959484  -0.20185873
 -0.16447337 -0.38475314]
[ 0.12144791 -0.06518499  0.00359301  0.26921317 -0.16745134 -0.15972996
 -0.07187764  0.01219196 -0.14732695 -0.19847265  0.00361128 -0.17633468
 -0.20676683 -0.22832811  0.3463597  -0.15002644 -0.16320112  0.3112149
 -0.12445863  0.11654699]
[ 0.10196355  0.0597067  -0.02502099 -0.16982837  0.03931574 -0.18772615
  0.14049862  0.10391732 -0.21068747 -0.20346735 -0.17274891 -0.25583458
  0.27357602  0.12522794 -0.23726365  0.12390619  0.04682507 -0.11753927
  0.03137969 -0.2902914 ]
[-0.16443685 -0.25919676  0.23050168 -0.01192975  0.22599925 -0.12184091
 -0.26997945  0.18191044  0.03124603  0.33542737  0.22424687 -0.17977376
  0.03845426  0.07245762  0.24824037 -0.3017873  -0.22280471  0.26245332
  0.03978807 -0.1870302 ]
[-0.22603978  0.288056   -0.31156218 -0.00974215 -0.02799522  0.08721154
 -0.02541416  0.12692726 -0.20974647 -0.02888875  0.07261216  0.01529945
 -0.09951805  0.00441864 -0.13191737  0.21232286  0.06102334  0.17835806
 -0.2172159  -0.35386902]
[-0.254362   -0.13223863  0.12973568 -0.09453008  0.25823277  0.11737803
  0.2268455  -0.1814966  -0.2104135   0.17613038 -0.17508397 -0.12842399
 -0.01347506 -0.00852801 -0.01112736 -0.240178   -0.08968479  0.11057505
 -0.08337584  0.0057246 ]
[ 0.22721967  0.2558579  -0.1730275   0.06451201  0.01523578 -0.192868
  0.02986017  0.27272227 -0.07698961  0.06353267 -0.1531168   0.29709163
 -0.06411676  0.16042057  0.11908206 -0.0307966   0.08775149  0.10008834
  0.23234345  0.0237374 ]
[ 0.25456697 -0.09499526 -0.18753535 -0.24848261  0.13684462 -0.22772144
  0.29232228  0.09749681  0.08230179 -0.17383409 -0.30332866 -0.05804544
 -0.1075622   0.00038244 -0.02655159 -0.07330322 -0.2133034   0.26873642
 -0.13308877  0.32209367]
[-0.04343572 -0.2942517   0.21716078 -0.1033265  -0.04904433 -0.28561676
 -0.13437718 -0.07010079  0.08205456 -0.04518417  0.06200678  0.04603171
  0.17549124  0.22788572  0.21308026 -0.23125988  0.09472751 -0.09797209
  0.18319207 -0.16773003]
[-0.21242182  0.14646368 -0.09645143 -0.2726773  -0.11977731  0.09774945
  0.14690578 -0.03352562 -0.40193155 -0.03487483 -0.26372945  0.14789645
  0.06050792 -0.34758097  0.2338868   0.0138735   0.10582869  0.18543911
  0.11657413 -0.23372246]
[-0.11551755 -0.04552322  0.05557383 -0.19092262 -0.0140402  -0.1654054
  0.30059543  0.17917275  0.08941163 -0.18115364  0.18396568 -0.11463241
 -0.29001507  0.07090788 -0.12048031  0.00096013  0.20354483 -0.06747396
 -0.25389713 -0.23568183]
[ 0.0145254   0.18292923 -0.0698429   0.15947539  0.11331678  0.22473897
  0.15045717 -0.09467622  0.01947092 -0.16039053  0.220296    0.23886338
  0.32780123 -0.24736814  0.11905064  0.00815661 -0.06588141  0.2516359
 -0.20385301 -0.15334657]
[-0.18470705  0.22384511 -0.1827743  -0.03506461 -0.04918357 -0.0864334
  0.00068629 -0.18058082  0.00386062  0.11269359  0.16404912 -0.18731815
  0.05752536  0.26912716  0.19366935  0.1105857  -0.09868212  0.00644788
  0.0859747   0.12387083]
[ 3.1212339e-02 -1.5283069e-01  4.7486100e-02 -6.0486771e-02
 -1.0859531e-01  1.6472806e-01 -8.8978462e-02 -9.3829371e-02
  5.5442661e-02 -1.2220262e-01  3.0489972e-01  3.5041460e-01
 -6.5525599e-02  2.1609534e-01 -2.0478936e-04 -7.5811692e-02
 -4.8287336e-02  2.3745459e-01 -3.2223997e-01  1.2506790e-01]
[-0.10771534  0.02188286  0.27187055 -0.18242438 -0.1760028  -0.19737531
  0.11595211  0.12385897 -0.26717758 -0.42959145 -0.11174028  0.1409827
 -0.16513878 -0.24815498 -0.20070559  0.25223807 -0.09853859  0.03642289
  0.3282182  -0.13161121]
[-0.01882632  0.00113529 -0.05662952  0.03324536  0.00866244  0.04496657
 -0.02230037 -0.09736092 -0.09345368 -0.05674893 -0.02516931  0.046511
  0.02425733  0.01093804  0.04251176 -0.0426533   0.0360423  -0.05853235
  0.05970766 -0.01633529]
layer 5 Activation
tanh
layer 6 Dense
20 1
[0.04833413]
[0.24902786]
[0.24125282]
[0.09340256]
[-0.06034791]
[0.16358611]
[0.13435973]
[-0.03101401]
[0.10552372]
[0.20561706]
[0.01241465]
[0.03283401]
[0.15626524]
[-0.00547586]
[0.22243416]
[-0.0096789]
[0.00633448]
[-0.0007792]
[-0.16175598]
[-0.10614167]
[0.01476323]
