layers 7
layer 0 Dense
20 20
[-0.09999651 -0.25492007 -0.14753026  0.4819464  -0.3285428   0.10935491
 -0.2972428  -0.39195704  0.21192315  0.20030099  0.19317745 -0.19755799
  0.04437855  0.11877201  0.11094967  0.3765275  -0.3470475   0.3127601
 -0.27110964 -0.1423649 ]
[ 0.35789305 -0.46138147  0.36733654  0.33026293  0.09665973 -0.17042413
 -0.17913415 -0.22769263  0.2351997   0.4028208   0.57287186 -0.36551732
 -0.07782167  0.1621449   0.20458062  0.40137875 -0.37323004  0.6165942
 -0.52749944  0.00826151]
[ 0.28763077 -0.56465286  0.2743011   0.49741492 -0.45695654 -0.34725332
 -0.09028817 -0.10546401  0.18950228  0.45792592  0.18918024  0.06378048
 -0.38751954  0.1862536   0.3830539   0.47220007 -0.04173735  0.21653971
  0.03476264 -0.25794354]
[ 0.54599994 -0.46809542  0.02335682 -0.10507898  0.27119693 -0.40916407
 -0.4412307  -0.08637545  0.23547702 -0.31426895  0.21642517 -0.5160802
 -0.06487782 -0.05679516  0.61630875 -0.01644211  0.15230457 -0.13383833
 -0.52561545 -0.36618745]
[-0.11280296  0.3756868  -0.205702   -0.32246035  0.09340952 -0.20880152
  0.08975084 -0.19177559  0.05427724  0.15240592 -0.2613219   0.22878185
 -0.04315443  0.16847637  0.39169452  0.03275858  0.3657918  -0.00331164
 -0.12493085 -0.17268997]
[-0.22331405  0.34360215 -0.5138782  -0.4104428   0.16545996  0.04157126
  0.12159035  0.2968548  -0.12558922 -0.4449817  -0.07312983  0.10811524
  0.18381888 -0.51298195 -0.33794656  0.3296373   0.69952387 -0.32270968
 -0.14360718  0.31920266]
[-0.01510672  0.45723766 -0.20000392 -0.25544     0.2284438   0.27558953
 -0.25428316 -0.04624456 -0.22525235 -0.40092254 -0.17285903 -0.31609458
 -0.37924513 -0.1910016  -0.08687036 -0.31793353  0.5619868  -0.37701362
  0.04318101 -0.06704305]
[-0.24532765 -0.07458163 -0.08055471 -0.00262369 -0.12683994  0.11378685
  0.07308047 -0.2029815  -0.04230069 -0.14748003  0.04237957 -0.17918049
 -0.16035102 -0.2600652  -0.18685204 -0.40824452  0.07608249  0.00741171
  0.34032977 -0.08416265]
[-0.4735714   0.57333624 -0.68853045 -0.2858861  -0.29969573 -0.05422688
  0.02440383  0.04091355  0.2181354  -0.39558524 -0.3877775   0.2994572
  0.4277632  -0.27072483 -0.37442243 -0.22462024  0.30153814 -0.11601853
  0.07368248  0.45310938]
[-0.30650774  0.27423564  0.23869364  0.23193991  0.29110932 -0.24428144
  0.15167053 -0.1500486  -0.10539658  0.36882618  0.19074671 -0.10932563
 -0.20139502  0.08005819  0.2484044   0.3791176  -0.33839893  0.05871332
 -0.31440586 -0.07826214]
[-0.25643635  0.11920852 -0.1397902   0.22791538 -0.06647306  0.02282941
  0.37489763 -0.44322017 -0.18905574 -0.24388458 -0.18736546  0.1828735
  0.06183229 -0.08901829  0.24781798 -0.32456106 -0.27185178  0.00627504
 -0.10422282 -0.00115496]
[-0.6295132   0.1503252  -0.5182561  -0.35823268  0.2989558  -0.338272
  0.38962808  0.4979056  -0.19975723 -0.4882128  -0.49672633  0.3658337
  0.24857426  0.09269471 -0.39162576 -0.30686298  0.5925877  -0.32630765
  0.7561124   0.86692756]
[ 0.28847045  0.72813535 -0.01699939  0.02193885  0.2692032   0.21213855
  0.45557448 -0.574531    0.05043626  0.08240099 -0.1619279   0.27201933
 -0.04165327 -0.13666713  0.15511052 -0.2884837   0.11153249 -0.28355902
  0.23006125  0.35446694]
[ 0.07573828 -0.19634089 -0.05497538  0.08224906  0.18055966  0.04322959
  0.16506474 -0.09890033  0.14671774 -0.01705542 -0.13165113 -0.06423388
 -0.547391    0.01172497 -0.09722687  0.16767639 -0.13962755  0.70042926
  0.2674042   0.00708648]
[ 0.08087946 -0.18321863  0.04793731 -0.2512685  -0.3464328  -0.04102634
  0.60155684 -0.21088429  0.2950189  -0.3035439  -0.24797004 -0.20236038
 -0.40472883  0.06192722  0.08140823 -0.18685135 -0.40155673  0.03223622
  0.25514472  0.28581953]
[ 0.79455113  0.51940006 -0.36465305 -0.30207166  0.22797592  0.537032
  0.35962853  0.2249525   0.3288048  -0.6198002   0.37191284  0.41510966
  0.622357   -0.37810388 -0.18127067 -0.32431418  0.1709629  -0.40033916
  0.27700716  0.6733959 ]
[-0.10174236 -0.6768399   0.19072478  0.32353544 -0.20039591  0.09506714
 -0.6316695   0.06554513 -0.3959745  -0.20067096  0.27666458 -0.27311254
  0.05461414  0.2651302  -0.22058584 -0.00344059  0.23497854  0.49157703
 -0.577266   -0.7240821 ]
[ 1.0195097   0.28259295 -0.78261685 -0.5082322  -0.874776    1.291033
 -0.38991374 -0.91233045  0.06287777 -0.38670924 -0.35267234 -1.0525281
  0.9666911   0.57420534  0.0864452   0.21461242  0.8657853  -1.3673801
  0.09869438  0.34255347]
[ 0.25788242  0.24508451 -0.3595379   0.5068905  -0.24975236  0.03153243
 -0.75967616  1.2194963  -0.05686401  0.28383976  0.0864936   0.21615891
  0.29072466  0.06187547 -0.76387715  0.3269552  -0.18036789  0.26809937
  0.1929553   0.41548848]
[ 0.07312477 -0.26295474  0.23523982  0.44428548 -0.3351319  -0.6036945
 -1.0315024  -0.90154725 -0.80039597  0.6057064   0.12724952 -0.80315953
 -0.23315911  0.52536505  0.03334551  0.57491744 -0.4564901   0.55389506
 -0.6686151  -0.6419184 ]
[ 0.2462011  -0.03766463  0.05067319  0.21032345 -0.09163806 -0.08679258
 -0.12749606 -0.05049781  0.07529468 -0.0595406   0.1567963  -0.14177129
 -0.13423817  0.17486005  0.13964462  0.13250595 -0.07917434 -0.03699752
 -0.19949298 -0.11266199]
layer 1 Activation
tanh
layer 2 Dense
20 40
[ 0.5517371  -0.03098761 -0.07882269 -0.03725326 -0.03359778  0.23864248
 -0.3036933  -0.15664034  0.2831548  -0.6756643   0.318173    0.41295728
  0.02660317  0.03929373  0.01769785 -0.23209132  0.406789    0.3082924
 -0.06163751  0.29258516  0.3297433   0.05107121  0.02726257 -0.18563429
 -0.06807426  0.10239628 -0.02987888 -0.29919475 -0.04691565 -0.097434
 -0.05770271 -0.22089238 -0.2357554   0.14178662 -0.3352488   0.17745006
  0.18875325  0.27426195  0.3327318  -0.22326617]
[-0.2610931   0.04971004 -0.17972964  0.05793313  0.1195711   0.18344937
  0.23283096 -0.14618261  0.16890506 -0.05157838 -0.10322575 -0.42681402
 -0.07152162 -0.23607865  0.03055004 -0.3256561  -0.6006013  -0.42978632
  0.06862284 -0.02047495 -0.32732776  0.3288876  -0.1817211   0.04176607
 -0.13013045  0.17880112 -0.02535986  0.24062096 -0.3681811   0.43687153
 -0.19066036 -0.2091635  -0.01769373 -0.00102081  0.2601246  -0.08767886
 -0.15538862 -0.20155306  0.5880324  -0.2929681 ]
[-0.01184383  0.3429014   0.22345376  0.15048827 -0.1823265  -0.28667897
 -0.04213139  0.13190112  0.03503006  0.32820046  0.13138868  0.18517776
 -0.06033757 -0.06168135  0.04298484  0.2801694   0.23288473  0.06164459
  0.04581138 -0.20234331  0.16979764  0.21671805  0.19500223  0.23063987
  0.03432113  0.10618277  0.12831157 -0.11582441 -0.02284727 -0.19883117
  0.08296493  0.03048762  0.05673067 -0.3839605  -0.18866599  0.03828445
  0.07230868  0.1979557  -0.10965675  0.1664311 ]
[ 0.09100801 -0.18631843  0.27140293  0.3671199   0.08432996 -0.07877771
  0.2122616   0.03540859 -0.17045638 -0.07533507  0.12553331 -0.06511631
  0.12372179  0.00914174  0.1891974  -0.04842277  0.22485659 -0.00916934
 -0.20837447  0.11279085 -0.13533679  0.03334776  0.10430882  0.01626505
  0.1035173  -0.00080297 -0.17044762  0.11707719  0.3094754  -0.15501301
  0.20692213 -0.39998883  0.00917654 -0.2707077  -0.17998573 -0.18085636
  0.02287784 -0.18037157  0.05348545 -0.18224874]
[-0.17611106  0.20615484  0.01452753 -0.26153395  0.00132963 -0.123337
  0.31364122 -0.00729241  0.23128073  0.22507304 -0.12457494 -0.3577445
  0.22757618  0.08198085  0.03445093  0.15088698  0.40297323  0.3431867
 -0.12141374  0.02574168  0.00104685 -0.3542083  -0.30801237  0.27726424
  0.04321768  0.2513786  -0.15302134  0.07764674 -0.27427188 -0.2791287
 -0.23457313 -0.262961    0.11854466  0.03496907  0.31133017  0.15057117
  0.2044765   0.03879392  0.35421783  0.00632036]
[-0.04604039 -0.57401776  0.10408012 -0.4249363  -0.10227013  0.20363516
 -0.01873339  0.06600419  0.14639036 -0.4401647  -0.30789784  0.3356319
  0.0968474  -0.50424206  0.21125956 -0.34535733 -0.18354471 -0.36918226
  0.37295318  0.92196625  0.05761255  0.07202572 -0.17455979 -0.01252995
  0.16492796  0.20566702  0.32561874 -0.19040756 -0.3952455   0.1488491
 -0.28473446  0.40701416 -0.20032266  0.05352085 -0.4709657   0.21482828
  0.21409237 -0.26784346  0.17770566  0.00221612]
[-0.33115575  0.51391065  0.14095257 -0.74993455  0.12367177  0.12721896
  0.24250413  0.08126675 -0.35582802  0.15737647 -0.30921647 -0.30666423
  0.00553249 -0.32870713  0.04059234 -0.1073271  -0.32105812 -0.2284339
  0.1080485  -0.28829563  0.04820284  0.49255273 -0.03021512 -0.3064494
 -0.06841216 -0.08717912 -0.24120945  0.38236743 -0.6836792  -0.07441972
  0.05287604 -0.04061598  0.20418599  0.27464816  0.25119728 -0.1554341
  0.05390611 -0.20466357  0.40461126 -0.23305485]
[-0.36605522  0.31642857  0.14274144  0.0166183  -0.01929453  0.2061346
  0.2684503  -0.22421554 -0.02704551  0.289645   -0.2268401  -0.6933172
 -0.18158825 -0.03642974  0.0894796  -0.4119721  -0.14608164  0.11613113
 -0.04617492  0.02815022 -0.50225574  0.25636724  0.10294367  0.00217946
  0.0705582  -0.21762142  0.19965145  0.532797    0.09149938  0.30389765
  0.0501898  -0.07105261 -0.28096613  0.33020845  0.24013008 -0.36450845
  0.04520567 -0.2847817   0.3407418   0.12496822]
[ 0.03775557  0.04687789  0.00662559 -0.24072416 -0.23846084 -0.00804235
 -0.43079332  0.15855943  0.15236226 -0.12161418  0.09882281  0.02923976
  0.08991616  0.10588536 -0.07860306 -0.02371342  0.161217    0.15089215
 -0.14665686 -0.12270167  0.20853052 -0.18571357  0.12221789 -0.03643777
  0.24265806 -0.27042338  0.23173475  0.10324737 -0.25257495  0.24216323
  0.15552476  0.16876474 -0.28605887 -0.0179459  -0.05631241  0.19650924
 -0.22461228  0.13443057  0.09524032  0.13427937]
[-0.01804953  0.24372625 -0.22358184  0.13437496  0.05871278 -0.09794671
 -0.08528049  0.29774085 -0.00673462  0.00685711 -0.09037992 -0.06301377
 -0.22379994 -0.00607259 -0.24926104  0.21948186  0.00477363 -0.00544474
  0.07324784  0.17456816 -0.04571174  0.00926064  0.00878363  0.27093574
 -0.11060256 -0.21120247 -0.2549559  -0.03720139  0.47042984 -0.20884575
  0.20336238  0.3252399   0.15520103 -0.26672876  0.05777845  0.06326617
  0.17579587  0.08913599  0.1232867  -0.00439935]
[ 0.0954595  -0.0795918  -0.22084899  0.21516189 -0.06863512 -0.08127562
 -0.1933297   0.01905145 -0.12044917 -0.1290277  -0.06266057 -0.03672629
 -0.0401127  -0.08192907  0.11969261  0.16235334  0.23862055  0.32409683
 -0.2638217  -0.34363264  0.34815308 -0.16799255 -0.17934768  0.06126467
  0.2121486   0.04726852 -0.06919318 -0.26534605  0.14052919  0.05273465
 -0.00538192 -0.22708651 -0.00588248  0.09005349  0.20919962 -0.18282175
  0.20633626  0.23025669  0.1711346  -0.05622884]
[-0.5596551  -0.2092954  -0.07438367  0.1162006   0.09323812 -0.32301256
  0.16063802  0.19981027  0.0829694   0.60743463  0.13197078 -0.6855412
  0.0275277   0.01104404  0.11305344  0.02773989 -0.08252373  0.17295286
  0.04092341 -0.33344248  0.02104553  0.03892322  0.20100677 -0.14004974
  0.07431109  0.37906814  0.04386866  0.5200175  -0.36987317  0.30224282
  0.3627657  -0.17251158 -0.02181081  0.11351755  0.27821273  0.15757039
  0.09922051  0.11361715  0.64632565  0.01895308]
[ 0.50325596 -0.6859248  -0.04842618  0.06962594 -0.3831242   0.16510782
 -0.02655967 -0.02665414  0.3024845  -0.19778022  0.10437235  0.12049511
 -0.01731164  0.1340607   0.370574   -0.5147693  -0.41991362 -0.04437571
  0.26380908  0.4028655   0.15031067  0.2915934  -0.26511604 -0.12153553
  0.24270408  0.13886285 -0.09302349 -0.05998464  0.12523405  0.4334753
 -0.01812061 -0.34686267 -0.29298198  0.3594336   0.17033914  0.40219128
  0.19171171 -0.23314315  0.3638331   0.19183394]
[-0.11199155 -0.00121143  0.18099193 -0.09639622 -0.06373039  0.16791554
  0.00123921  0.00603736 -0.21805575 -0.09111339 -0.19354078  0.3457679
  0.00059245  0.1266774  -0.0427756  -0.0974105  -0.35406795 -0.00605729
  0.38854003  0.00426641 -0.04806595 -0.2815381   0.38006568  0.08130755
 -0.12168723  0.00640997  0.03523819 -0.2856634   0.17563881  0.01393991
 -0.16052866 -0.20720012  0.00897448 -0.01559838 -0.0416101   0.14470178
 -0.16905758 -0.23304063 -0.34665334  0.09068139]
[-0.03682213  0.03536937  0.19880499 -0.3727705  -0.02887975  0.4111224
 -0.26037088 -0.03781788 -0.18717521  0.07988887 -0.02913592  0.20770396
 -0.21684179 -0.0269334  -0.21086642 -0.2677147   0.06926259  0.28095043
 -0.32922825  0.11597     0.12483898 -0.24084817  0.27833644  0.03151133
 -0.01486487 -0.1688432  -0.32443693 -0.17077428 -0.23101127 -0.15367863
 -0.126212   -0.09567801  0.04666227 -0.19723156 -0.330988   -0.36868185
 -0.14019005 -0.21995954 -0.10234988  0.16712156]
[ 0.12419041  0.09316368  0.05018747  0.23114401  0.26766083  0.17682274
 -0.23287626 -0.2517632  -0.11729196 -0.10837594 -0.04070325  0.18153068
 -0.20727406  0.02954402 -0.29036072 -0.29995438  0.08106404  0.18218203
 -0.04295521 -0.09560427  0.16968404 -0.39635295  0.30650434 -0.18758906
 -0.11467753 -0.21828039 -0.11074185 -0.05728446  0.5336945   0.09708989
 -0.04858099 -0.24080119 -0.2032553   0.11393093 -0.17924319  0.08346894
 -0.2800752   0.0197756   0.02511523  0.13314055]
[ 0.07150088 -0.43169114 -0.04139187 -0.4860588  -0.1931008  -0.3090024
 -0.14981087  0.31549633 -0.06197765 -0.26896814  0.02596084 -0.08921573
 -0.30731314  0.07525016  0.19665541 -0.19747603 -0.4129208  -0.16022396
  0.02510672 -0.04321308 -0.20342402  0.14287859  0.00873568 -0.42730072
  0.15966015 -0.15542081 -0.16885577  0.18861583 -0.28775513  0.37955374
  0.21391867 -0.12394711 -0.20321305  0.13145846  0.17580807 -0.08276603
  0.3798089  -0.25721103  0.36028847  0.0279108 ]
[-0.17543386 -0.23662634 -0.18683098  0.35945773 -0.06498218 -0.30138046
  0.4601834   0.03577674 -0.22592916  0.02777866  0.20519389 -0.25750086
 -0.25382146  0.057167   -0.15409237  0.24564347  0.2996537   0.05490197
 -0.27016285 -0.27011296 -0.30055964 -0.04854633  0.05500551  0.27822098
  0.17278942  0.00102977  0.33421335  0.08298402  0.22065605 -0.11918937
 -0.07750984 -0.1993963   0.35782108 -0.38646856  0.24587944 -0.0574389
 -0.13835417  0.4960351  -0.4258756  -0.33880883]
[-0.05526897 -0.30854997 -0.12049145 -0.23084065  0.12072815 -0.08634887
  0.3008537   0.05049502  0.12553829  0.21869694 -0.09584447 -0.3050321
  0.24187995 -0.3309367  -0.05561078 -0.23222594 -0.09071913 -0.14502871
 -0.10596728  0.15780193  0.02171049  0.14683856 -0.28546256 -0.47787786
  0.25158918  0.05890936 -0.2272526   0.3842425   0.10163914  0.14617863
  0.06791105 -0.29894677  0.307524    0.07924531  0.2125268  -0.19690488
 -0.01967682 -0.18726166  0.44765982  0.08202853]
[-0.2155557  -0.04746842 -0.00346436 -0.08271566  0.07951176  0.03965893
 -0.14665939 -0.07467186 -0.14201312 -0.06414571  0.08171073  0.03508412
 -0.00888565 -0.08671036  0.13260548 -0.09334685 -0.3888211   0.27672806
 -0.16808444  0.33707407  0.09022039  0.23102632 -0.07153015 -0.31799957
 -0.12120833  0.335283   -0.32905903 -0.00433065 -0.10176914  0.25561395
  0.09788633 -0.3818038  -0.14245349 -0.00917762  0.23255934  0.10404211
  0.21947178 -0.32633004 -0.0143177  -0.44389436]
[ 0.27367485  0.04637729  0.00204127  0.14501484  0.02797205  0.2752982
 -0.27421048 -0.10429232  0.04148998 -0.20954993  0.07663787  0.05316823
 -0.09076754  0.27371517 -0.00705145 -0.13165294  0.128167    0.29653242
 -0.13283893 -0.01641575  0.11294315 -0.40068987  0.13230716  0.20636639
 -0.12337407 -0.05347881  0.03440415 -0.09331704 -0.05465169 -0.08673741
  0.11836229 -0.02861093 -0.12013018 -0.05376256 -0.02597712  0.07130748
 -0.01833147  0.20696318 -0.08031295  0.00354955]
layer 3 Activation
tanh
layer 4 Dense
40 20
[-0.19179255 -0.1249987  -0.05158257 -0.00234512  0.11878284 -0.20386775
  0.00164852  0.05284775 -0.10937013  0.24606432 -0.13117146  0.3266605
 -0.00272362  0.25418463  0.26090053  0.0655484   0.25710952  0.282222
  0.03342028  0.25655764]
[-0.03297379 -0.01805045  0.17247102 -0.15209985 -0.05101085 -0.02622675
 -0.15495004 -0.01786197  0.39913383 -0.0498383   0.43230265  0.28273997
  0.26201677  0.18842289  0.20237847  0.20682573  0.3817983   0.13071977
  0.08133228  0.02578457]
[ 0.11491709 -0.08043981  0.0230257   0.07397267 -0.05379822  0.34412712
  0.3934933  -0.07667603  0.02063243  0.09850717  0.21173541 -0.03590807
  0.04587907 -0.2203055  -0.02996607 -0.14100239  0.4380928   0.15578787
 -0.04277784 -0.00341895]
[-0.04675752 -0.34621915  0.00156296 -0.13923593  0.19276215  0.16974325
  0.06779629 -0.04330335 -0.1697538  -0.1911536   0.03763688  0.28888613
  0.0348481  -0.22436981  0.1562938   0.19073828 -0.30772412  0.28473717
  0.2529204  -0.07696961]
[-0.06220209  0.04246113  0.20965591 -0.04438363 -0.23715395  0.01807297
 -0.25073293  0.1437133   0.2667425  -0.22567236  0.03422619  0.34923053
  0.20338337 -0.18565832 -0.2546189  -0.03695974  0.12337001 -0.08187291
  0.14742623  0.28818393]
[-0.17059514 -0.17981906  0.2606066   0.10918449 -0.08894919 -0.11368173
  0.3603494  -0.03461931  0.03966457 -0.048329   -0.05424716  0.13768108
  0.22319587 -0.21411322 -0.26680738  0.22363472  0.4579631  -0.32201862
 -0.10308955  0.28844097]
[ 0.12903593  0.29683137 -0.06250208 -0.01688394 -0.29994327 -0.2145028
 -0.23084614  0.22103155  0.38924333 -0.17613773 -0.1849213  -0.22596294
 -0.23763329  0.19575687  0.15135002  0.01098952 -0.5328291   0.33204767
  0.06462713 -0.04512557]
[ 0.06492908  0.07043824  0.15539066  0.19983077 -0.0484838  -0.21546082
 -0.18501168 -0.23171832  0.04312377 -0.02202697 -0.09396086 -0.01617991
 -0.05714485  0.18088783 -0.16272077  0.07970387 -0.4203759  -0.17877373
 -0.29183608  0.14933261]
[-0.02236157  0.07525975 -0.15081526  0.1112856   0.09606621  0.12069123
  0.2350947   0.11039452 -0.44168493 -0.00799767 -0.23205012 -0.10035246
  0.07587855 -0.02082551 -0.24214624  0.34020197  0.15994665 -0.17517827
  0.08158872  0.0317563 ]
[ 0.15687896  0.09797478  0.19052877  0.11602012  0.08705629  0.05559541
  0.211036    0.16446719  0.24177255 -0.16425136  0.02749978 -0.20357181
  0.08164275 -0.07095953  0.08577714 -0.00967537 -0.16446595  0.21609943
 -0.07285361  0.16605961]
[ 0.20894538 -0.17306872 -0.21071489  0.07552158  0.1225806  -0.06024933
 -0.11726834  0.08372126 -0.188061   -0.07556336 -0.1642655   0.03219708
  0.13747108  0.14292833  0.10822833 -0.14802752  0.03098174 -0.13165238
  0.33776176  0.30016062]
[ 0.24541488 -0.17290458  0.07562464 -0.07289808  0.17669953 -0.07761005
 -0.29216918 -0.2120556  -0.3612803   0.23128186  0.12030385  0.14278625
 -0.09640715  0.01436148 -0.21113816  0.2264992   0.32157215  0.1381199
  0.25985363  0.10035309]
[ 0.3003038   0.20940341  0.1411264   0.22545552 -0.24683413 -0.1476398
  0.09986166 -0.02297851 -0.21076931  0.05841268  0.13532297 -0.1508389
  0.08693771  0.04319523 -0.1268766   0.09286167 -0.21125312 -0.16762549
 -0.07877555  0.09102999]
[ 0.08569051 -0.23846781 -0.08812341  0.1251085  -0.14733326 -0.10594966
 -0.15435386 -0.19776613 -0.04969347 -0.1449562  -0.08953299 -0.14023004
 -0.1285868   0.11222301  0.15434784 -0.01361297  0.10583355 -0.21995316
 -0.01189249  0.16165613]
[-0.12228754 -0.0314731   0.00698342  0.11472168  0.22335769  0.0242262
  0.42292288  0.24662855 -0.01932181  0.14898674 -0.10361766 -0.29919922
 -0.17567241 -0.10334221  0.31884488  0.05655876 -0.2376049  -0.0436469
  0.03842707  0.00386902]
[-0.16277194 -0.15545988  0.15187082  0.13799621  0.11991634  0.20806874
 -0.1188551   0.16847798  0.2379294  -0.17599721  0.04622156  0.0697011
  0.27087468  0.2074673   0.11038145  0.12006838 -0.3403109   0.12224603
  0.24023245 -0.16144438]
[ 0.00959494 -0.22372061  0.03576457  0.11514894 -0.34086943  0.03627819
  0.01312627 -0.12743431 -0.33414426 -0.2434603   0.2998651  -0.06395767
  0.48797238  0.20014304  0.13144578 -0.0906881   0.16873941  0.24402569
  0.30417478  0.01122339]
[ 0.05949919 -0.260085   -0.18197438  0.1179353   0.19937666  0.2012327
  0.30134562 -0.0065698  -0.2557081  -0.19575752  0.25848272 -0.27614233
  0.1558689   0.15427892  0.13605192  0.2063765   0.28156608  0.17013036
 -0.21057718  0.35325035]
[-0.21991415  0.02567662  0.20536837 -0.06630106 -0.202097   -0.20599833
  0.12456295  0.00302098  0.06978058  0.28312218 -0.05924857  0.0867449
 -0.24193884  0.00719109  0.16054618  0.05311947 -0.09632939 -0.16268438
 -0.01771429 -0.3809607 ]
[ 0.26601726  0.05716353 -0.15136501 -0.16977899 -0.09950442 -0.08622866
  0.13655694  0.09134078 -0.3413478   0.381135   -0.00663153  0.13710572
 -0.1962974  -0.20801905  0.00544972 -0.00198295  0.22835691 -0.19872096
  0.14303696 -0.17730609]
[ 0.02805346 -0.18848562  0.13233922  0.26962695  0.09981999  0.07744193
  0.3411008   0.04774037 -0.20005348  0.20011973  0.20493007  0.22027296
  0.04068454 -0.02802034  0.04235309  0.06786183  0.21937756  0.23175329
  0.03696155  0.36317003]
[-0.07507832  0.30811197  0.1920417   0.13174473  0.12349266  0.02272252
  0.24719165 -0.17374064  0.33697018  0.24777356 -0.28497502  0.17390808
  0.13006245  0.22694448  0.2262943  -0.09247653 -0.02943319 -0.21013713
  0.11571662  0.11851583]
[-0.1278302  -0.2772094   0.02510731  0.33379516  0.20642474  0.00354557
 -0.08818027  0.13170703  0.04544251 -0.10918959  0.31208995 -0.2993536
 -0.04017104  0.10646418 -0.06817684  0.08771381  0.06237389  0.01455761
 -0.23181802 -0.24741349]
[-0.06211117 -0.32344764 -0.122048    0.10580666 -0.2821473  -0.16480917
 -0.18790385  0.1775096   0.04277793 -0.27121186  0.23088549  0.3169744
  0.30751097  0.05340489 -0.2742098   0.09333438 -0.35110468 -0.09755635
  0.19779062  0.08031938]
[ 0.2037312   0.02143911 -0.03560788 -0.1497689   0.22961296  0.07207552
 -0.05049388  0.12110299  0.04658133  0.17239307 -0.12703736 -0.28750297
 -0.06375637  0.12111038 -0.17792387 -0.05898768 -0.20108885 -0.03996629
  0.08646433  0.15342964]
[-0.08991007  0.07216221 -0.11165748  0.06382484 -0.2596154  -0.27178064
  0.07636278 -0.2612364   0.08273172  0.1700601  -0.1529479   0.24953179
 -0.03245852 -0.03455721 -0.1714426   0.14492333 -0.12323143 -0.09949085
  0.2295645   0.2052179 ]
[ 0.31114706 -0.1622638  -0.19685207  0.21698841 -0.19814414  0.16318408
  0.03328194 -0.26209584  0.01144959  0.12995274 -0.03904659 -0.04101966
  0.01506305  0.13256212 -0.12677535  0.01388618 -0.09097394  0.10958778
 -0.18110386 -0.16442268]
[ 0.15376447  0.21381661 -0.32904613 -0.1395088  -0.20267245 -0.13264118
  0.33016193 -0.1926971   0.45708734 -0.3107395   0.28395003 -0.12295513
 -0.2202967  -0.05558829 -0.03773031  0.43065584 -0.06766623  0.17029387
  0.21512707  0.11874878]
[-0.0639464  -0.31392425 -0.03674273  0.17516825 -0.29156828 -0.19249466
 -0.3985264  -0.16598697  0.01756928  0.26833138 -0.30768916  0.02260819
  0.3216948  -0.20944633 -0.23936825  0.0409314  -0.24745964  0.32974905
 -0.23011209 -0.1359904 ]
[-0.38071582  0.19146389 -0.29615116 -0.05325698  0.1380089  -0.12580872
  0.11796503 -0.00329171 -0.10479476  0.19756533 -0.28359684 -0.32087466
 -0.49650982  0.18885115 -0.02065439  0.1760501  -0.132152   -0.22341771
  0.19085369 -0.20482838]
[ 0.19453591 -0.00149343 -0.09560276  0.3139522   0.23846595  0.04128652
 -0.07941275 -0.00927871  0.03445195 -0.15745904  0.01045443  0.26346552
  0.01284322 -0.23143056 -0.37051046  0.17564636 -0.16401689  0.0676835
 -0.17862755  0.27077544]
[-0.13944252 -0.3031422   0.23556383  0.29472438 -0.12249674 -0.07088402
  0.28149444  0.10529672 -0.10633883  0.15853734 -0.14234541 -0.11234716
  0.07414404 -0.23963004 -0.08622558  0.15133193 -0.10850449  0.22672768
  0.30225307 -0.31168562]
[-0.14953706  0.1161131   0.30530027  0.08727042 -0.16823675  0.18877386
 -0.10800242  0.0725854   0.32469934  0.10596149  0.2790589  -0.18481247
  0.3243025  -0.06516247 -0.06194891  0.1186709  -0.38389426  0.39840284
  0.03383434  0.27811158]
[-0.14418142  0.00425474 -0.230884    0.03306171 -0.19068171  0.03837378
  0.21603018 -0.1057729   0.08719172  0.1970141  -0.22684373 -0.21518861
 -0.01955825 -0.06247411  0.14074643  0.03448913  0.33057767 -0.18244068
 -0.08483995  0.0286837 ]
[-0.12977692  0.16152853 -0.12478836  0.15094317 -0.3347537  -0.41222352
 -0.2876024  -0.15021458  0.3314532  -0.01952647  0.05061024  0.4167319
 -0.2011443  -0.18671142 -0.14871751 -0.09208166 -0.3705789  -0.09223637
 -0.32103696  0.27269804]
[-0.02946128 -0.20083256 -0.18075633  0.13734722 -0.05859209  0.12853882
  0.23461449  0.15221195 -0.31236747 -0.05811448 -0.23848373  0.1551333
 -0.24711843  0.20076093 -0.12065913 -0.2548555  -0.17876756  0.02137902
  0.15109394 -0.22882211]
[-0.04499141 -0.04491537 -0.29385418 -0.31542292 -0.30173948  0.09288467
  0.14976072 -0.07025638  0.09619937  0.28369325 -0.02539179 -0.16929466
 -0.03740625  0.24953638 -0.12482393  0.15405989  0.11570033 -0.01508587
  0.18846533 -0.2462762 ]
[-0.01573227 -0.22612391 -0.00295447  0.00847524 -0.23309486 -0.0213832
 -0.21745661 -0.13969386 -0.15274121 -0.4002561   0.21214785  0.21267065
  0.23468699 -0.11034308 -0.02685647 -0.30806214  0.09755178  0.366019
  0.26116988 -0.29823563]
[-0.20711431  0.35466734 -0.19546802 -0.23315783 -0.13516597 -0.25107878
  0.38439053 -0.1397306   0.14137366 -0.06990561  0.28616375  0.21912287
 -0.22271235  0.05327125  0.09626275 -0.01017063  0.03552194  0.13015631
 -0.153858   -0.1563438 ]
[-0.22590627 -0.196987    0.2554407   0.05523626 -0.2678817  -0.1392173
  0.18316638  0.19569081  0.2165426   0.20553745  0.11703151  0.2227858
 -0.28382987  0.06241874  0.25585714 -0.06707446 -0.01540462  0.00035004
 -0.29548538  0.02907986]
[-0.00445781 -0.12932782 -0.12491579  0.00784541  0.04948201 -0.02691335
  0.11985549  0.06973829  0.01170375 -0.13052227  0.17561539  0.0489802
 -0.05582551 -0.07519732 -0.05143594 -0.03677028  0.1520391  -0.10686279
 -0.04377986  0.05927369]
layer 5 Activation
tanh
layer 6 Dense
20 1
[-0.01818796]
[0.21360067]
[-0.07485982]
[-0.00475833]
[0.02540729]
[-0.01495651]
[0.088578]
[0.01377197]
[0.14454402]
[-0.13317275]
[0.16125554]
[-0.00487851]
[-0.10363999]
[0.00804146]
[0.02164798]
[0.00992519]
[0.09544084]
[-0.10072922]
[0.00541261]
[0.06110867]
[0.11052412]
