layers 7
layer 0 Dense
20 20
[-0.08732375 -0.01220573 -0.2473284  -0.2477358  -0.10448873  0.22947864
 -0.4776103   0.3189403  -0.09657437  0.07126673  0.14236566 -0.17085353
 -0.0299291  -0.3446881   0.04676896 -0.23177357  0.00770381  0.18428358
  0.35966268 -0.26219565]
[-0.11534267  0.03671819  0.39385393  0.27982673  0.2154277  -0.4725986
  0.26455602 -0.01765198  0.32063636 -0.00139188 -0.29853022 -0.09994462
  0.19714259  0.25709078  0.03247831  0.38295484  0.12344617  0.48729646
  0.02867647 -0.00419583]
[ 0.37271214  0.15701687 -0.31748027 -0.25100154 -0.20066638 -0.39378744
 -0.11311926  0.10431054 -0.10769587  0.13680202 -0.17003429  0.36739823
  0.03904716 -0.11143547  0.48507363 -0.33655143  0.12166557  0.49459255
 -0.2556411   0.33459634]
[-0.08576934 -0.36768964 -0.27149338  0.30551738 -0.05489671 -0.20889203
 -0.24496756 -0.30138102 -0.2003776  -0.16060552 -0.3126461   0.2277645
 -0.0525699  -0.15879476 -0.1835358  -0.21763265  0.18856384  0.2858378
 -0.21029553 -0.10658972]
[-0.26353493 -0.4497527   0.05743558 -0.2859854  -0.20713437  0.3457667
 -0.24369681  0.3406396   0.34841138 -0.1452591   0.10692247  0.13642827
  0.1183563  -0.22787759  0.0453947  -0.14465356 -0.31165263 -0.34876642
 -0.28159806 -0.28750905]
[-0.47680643  0.01609731  0.23538053 -0.00303458  0.14483507  0.15743922
  0.19371656  0.19053297 -0.10643586 -0.16412683  0.02620667 -0.18851936
  0.0602781   0.13745151 -0.20115049 -0.34934923  0.15957154 -0.28852955
  0.21237913  0.26397592]
[-0.14071116  0.05590741  0.32818815 -0.03118949 -0.14630528  0.12560883
  0.20359404 -0.09054101 -0.19154198 -0.08510438  0.11165858  0.0381372
 -0.24633375 -0.18882453 -0.12593442  0.33154616  0.1205043  -0.33300108
 -0.23575343  0.3226095 ]
[ 0.03124535 -0.20899612 -0.22147301  0.51331085  0.03162147 -0.25219163
  0.27826732 -0.31519082 -0.15653177 -0.46001786 -0.34006682  0.08954147
 -0.26626393  0.3986326   0.10905454 -0.3568917   0.2831647   0.07674351
 -0.08317565 -0.10873748]
[-0.07783002 -0.2949567  -0.3967016   0.04032911 -0.13475174 -0.09065854
 -0.43315277  0.42003188  0.32691646  0.01460592 -0.32547933  0.31309536
  0.02599097 -0.08779442  0.01304893 -0.04294335 -0.44028613 -0.19991599
 -0.32379976 -0.2625962 ]
[-0.05072564 -0.23422754  0.13555802 -0.19794132  0.347429    0.15393017
  0.00643439 -0.01218896  0.33793008  0.22891876 -0.36631474  0.11000892
  0.1973728  -0.01473659  0.4668021  -0.3258412   0.16314647 -0.21032563
 -0.16125114  0.10041586]
[ 0.44963974  0.21512653  0.2593077  -0.11238553  0.39471212  0.33936048
  0.20646122  0.20854387 -0.27012527 -0.39276522  0.2815168  -0.10706425
 -0.11324624 -0.14969441  0.24577974  0.14377502  0.32597405 -0.15006967
 -0.45868126  0.31233907]
[ 0.11614617  0.02136862 -0.06778828  0.42494854  0.0492174  -0.61599886
 -0.14778769  0.27771166 -0.18065976  0.2674129   0.27643663  0.15837815
  0.33545262  0.09578925  0.01589245  0.4340272   0.19596624  0.17414813
 -0.1532785   0.3438481 ]
[ 0.08423041 -0.25111264  0.46355343  0.00705654 -0.2546664  -0.1814845
 -0.36693248 -0.06080909 -0.19818383 -0.07002721  0.3981854   0.33306038
 -0.3377393  -0.231556   -0.0650579   0.07646628  0.05695169 -0.09637299
  0.41637942  0.08982757]
[-0.4658832   0.43350133  0.06053073 -0.12612593  0.28585878  0.06354555
 -0.3065778   0.22976522  0.08112741  0.45692053  0.04145512 -0.1880874
 -0.29960087 -0.19449098  0.09242606  0.10400029  0.28170013 -0.1274174
 -0.03639165 -0.06217092]
[-0.12431678 -0.10009056 -0.26319852 -0.27102923 -0.49774823 -0.12169778
 -0.17477107 -0.05170016 -0.10401009  0.31913418  0.11905793 -0.13598062
  0.3349999  -0.15935709  0.10593869  0.03795282  0.2467011  -0.28237686
 -0.00991845 -0.37630177]
[ 0.09344321 -0.13095976  0.29014987  0.01537159 -0.11704019  0.18120164
  0.03171683 -0.13277361 -0.19939944 -0.29153526  0.5070844  -0.3738224
  0.20579313 -0.5076306   0.0476501  -0.19479418  0.00810933  0.3085932
 -0.08930251 -0.14772442]
[-0.4953838   0.28818133 -0.1699127  -0.2526077  -0.3805488   0.01425415
 -0.28172037 -0.4483776  -0.01839312  0.29874584  0.02056032  0.17429844
 -0.11852907 -0.03062228 -0.30825058  0.02781037  0.23516333 -0.3083781
 -0.14793108  0.16201426]
[ 0.21732137 -0.12233113 -0.00976634 -0.09466507  0.10069519 -0.01354547
 -0.00731665  0.42884156  0.35912502 -0.5573899  -0.01319227 -0.07977772
 -0.42664018  0.05678581 -0.22850613 -0.0587279   0.04975061  0.22910172
  0.35812023 -0.30076173]
[-5.88195205e-01  2.93158978e-01  2.71568090e-01  2.95201778e-01
 -2.28539258e-01  5.45160961e-04  5.58622740e-02  1.18240245e-01
  1.89597309e-01 -2.69138366e-01 -3.55855882e-01 -6.58299625e-02
 -5.12176827e-02  5.13779700e-01  2.03409836e-01 -1.49268694e-02
 -6.72520027e-02 -4.56953377e-01 -1.06554613e-01 -1.68690875e-01]
[ 0.03111422 -0.12784858 -0.09013981 -0.0646197   0.21839933  0.08023697
  0.48583815  0.10242422  0.00222591  0.3978605  -0.42364872 -0.11300449
  0.27239236 -0.12703285  0.0191003  -0.11872512 -0.09479249  0.10593906
  0.26067394  0.23475479]
[-0.03003677 -0.0077981   0.04163775 -0.12070154 -0.03585882  0.0087431
 -0.00921144  0.02794077  0.0275469   0.06921003  0.00726201  0.03774287
 -0.00411669  0.06248021 -0.01815889 -0.00856433 -0.01014904 -0.02618631
  0.0329563  -0.00590417]
layer 1 Activation
tanh
layer 2 Dense
20 40
[ 0.09822647 -0.09141225  0.3686911   0.13357283 -0.13578157  0.2648803
  0.25998303 -0.21038733  0.18329714  0.19727544 -0.24228474 -0.12490331
  0.21962735 -0.23976667  0.23780486  0.14079341 -0.01811325 -0.03239805
 -0.08803476  0.2519946  -0.31212887 -0.22432083  0.24837075  0.16308331
 -0.11637808 -0.2740176  -0.0502781  -0.2566493  -0.22896914  0.0546346
 -0.12779786  0.03948453 -0.06750096  0.21999788 -0.04977232 -0.28253257
  0.29621163 -0.00925214 -0.21718968 -0.24399161]
[ 0.11540088 -0.19604623  0.08459597  0.24462366  0.1797002   0.30064481
 -0.12499004 -0.19666442 -0.21473809 -0.16703568  0.02220766  0.28558826
 -0.27575633 -0.24955761  0.1927672   0.02526174 -0.12909333  0.08589798
 -0.0598997   0.00860258  0.3753482  -0.33454067  0.0652198   0.16861339
 -0.08828918  0.1674952   0.12903751 -0.08481162  0.15519004  0.1908666
  0.20770869 -0.16439706 -0.13579859 -0.14211264  0.29362085  0.15567164
  0.0926046  -0.3233     -0.13110632 -0.22871332]
[-0.20450555  0.07079203  0.09465268 -0.07036109  0.05845185 -0.13828835
 -0.04438553 -0.10946555  0.05448872  0.21257746  0.16261448 -0.14054026
  0.00715237  0.08140076 -0.2530117  -0.01807194 -0.28527126  0.16179182
 -0.19786209 -0.18090065 -0.10678374 -0.00881499 -0.08718676 -0.29192743
  0.0272819  -0.327368    0.05304712  0.11559748  0.22691406  0.2796649
 -0.12109183  0.15542854 -0.01042296  0.0242189   0.29727003 -0.14459045
  0.17922124  0.10925247 -0.30455917 -0.03461262]
[-0.3553801  -0.02041216  0.37631276 -0.16550116  0.2396832  -0.05376866
  0.01006685  0.12764665 -0.27525097 -0.09738624 -0.02572249  0.14850841
 -0.20478807 -0.22709346  0.24182242  0.0668026  -0.27248654  0.07983784
 -0.26450717 -0.16825883  0.11783996  0.20895785 -0.15324554  0.07889549
 -0.02358416  0.04011488 -0.19295934  0.25567046 -0.22164786  0.2366464
  0.0811976  -0.30542162  0.04290401  0.23644763  0.21612866  0.26450458
 -0.09133067 -0.08623254 -0.216094   -0.11745747]
[-0.29151624  0.205088    0.34247583 -0.30863273 -0.05112465  0.09787291
  0.17567375  0.296922   -0.13132937 -0.04118363 -0.00403992  0.21200043
  0.05890176  0.11180326 -0.07362769  0.26455656 -0.03933708  0.12970838
  0.42779943 -0.28175098 -0.0088696  -0.08416802  0.3072939  -0.09806122
 -0.4053764  -0.064177    0.06282753  0.29299125  0.03962836  0.10432204
  0.362925   -0.15239936  0.16728221  0.00184396  0.19210677  0.2689322
 -0.14010009 -0.09439519 -0.16585398  0.14433835]
[ 0.1486818  -0.08714679 -0.15161984  0.03142195  0.25172377  0.03366772
  0.06462935 -0.06600498  0.14007497 -0.28383866  0.17307867 -0.13173905
  0.11720244 -0.24691394  0.17942975 -0.11735857 -0.05210174  0.25640845
 -0.11075512  0.05894485  0.11936758  0.02342737 -0.15852539  0.18020196
  0.23557892  0.15230969  0.18220323 -0.30044204  0.1538951   0.18144193
  0.4354531  -0.15821    -0.3779236  -0.33620152  0.02140868  0.0878728
 -0.07277668 -0.30666527  0.1089343  -0.22920987]
[ 0.21540934 -0.36922374  0.15567076  0.27202457  0.15397528  0.12176641
  0.18421884  0.37684295 -0.02196192 -0.1442786  -0.12247355  0.18071622
  0.1928661  -0.0881388   0.07784761 -0.28137088 -0.0403085  -0.12126243
  0.345195   -0.1548849  -0.17559855 -0.23559041  0.08729032  0.25120065
  0.13361882  0.18524784  0.17642786  0.00950398  0.16015488  0.09599747
  0.03906413  0.108302    0.16762094  0.1454548   0.12666066  0.20750643
 -0.17705187 -0.16435678  0.10814494 -0.23028043]
[-0.2918265  -0.0577648   0.26597953 -0.22348921  0.08815359  0.03632957
 -0.15193205 -0.1008537   0.17080572  0.09699009 -0.25374126 -0.11188839
  0.30537203  0.12870075  0.2966626  -0.15111117  0.1535608  -0.34082666
 -0.2740203   0.15305205 -0.1884052   0.00570554  0.20083255 -0.09372653
  0.33597904  0.19312875 -0.09769445 -0.08968104 -0.2595265   0.0204459
  0.10726291 -0.09254532  0.20666541  0.03990783  0.23136826  0.21051836
  0.2788746  -0.20198104 -0.20318922  0.21030514]
[ 0.2548345   0.23659465 -0.05434557 -0.25084692  0.03570782  0.02077647
  0.2546673   0.16297041 -0.18313247 -0.03413913 -0.18508503 -0.17956808
 -0.30195805  0.16431592 -0.24448222  0.23541947 -0.10970114 -0.05997801
  0.15598139  0.04755293 -0.18367745  0.26586255  0.26156047 -0.00129695
 -0.19221683 -0.03224825  0.12360593  0.12558156  0.00726345 -0.14431171
 -0.03784946  0.21056701  0.1349667   0.1779396  -0.08360739  0.14208207
  0.03525432 -0.24666014  0.01641216  0.29205424]
[-0.12654518 -0.04433882 -0.35858718 -0.01624953  0.07448034  0.1157114
 -0.15855992  0.10076944 -0.09886862 -0.01673576 -0.19479115 -0.32674986
 -0.28940466 -0.06376679  0.18742578 -0.15654798 -0.3430481  -0.29497573
 -0.07239252  0.07762174 -0.12939252  0.13895923  0.0030284   0.23100093
 -0.09507542  0.1072368  -0.1666862   0.0653358  -0.13198492 -0.15880132
  0.13451846  0.29048267  0.26583037  0.22042318  0.06314477 -0.03855925
 -0.22248963  0.00394309 -0.17393053 -0.12083969]
[ 0.24298204  0.17972153  0.19120447 -0.13768056  0.2719356  -0.2626378
 -0.06144616 -0.31640375 -0.21686566 -0.30983856  0.19462882  0.03235537
 -0.06362851  0.17498031  0.13552839 -0.10279405  0.00260416 -0.0149625
 -0.04803629 -0.14791936 -0.03716759 -0.14467633  0.30724278  0.2058435
 -0.1081021  -0.02921882  0.18709369 -0.2704052   0.41706842  0.2772554
  0.2645425   0.24628623 -0.21724832  0.04061254 -0.15026091 -0.05009097
 -0.11096966  0.21881269 -0.03479168  0.20331393]
[ 0.10846891 -0.12219703  0.07327795  0.19109009  0.06034588 -0.10018089
  0.04366319 -0.1371792  -0.12213168 -0.07256202 -0.12685324  0.11886808
  0.10198551  0.05779478  0.22478914 -0.00526504 -0.3127353  -0.34346527
  0.11633486  0.16699862  0.10977963 -0.25470126  0.17671527  0.0013453
 -0.12076886  0.10125774  0.02770734 -0.03595473 -0.13922971  0.25914094
  0.07735313  0.03212985  0.16242433  0.07952409 -0.2762989  -0.17181645
 -0.17899966 -0.24775377  0.23574772 -0.23009254]
[-0.04768524 -0.09282858 -0.12160442 -0.10018731 -0.29352695 -0.03207206
  0.11903138  0.00112475 -0.03456363 -0.23273285 -0.03055611  0.23556325
  0.1966901   0.31742537  0.06253813 -0.04989767  0.08955494  0.03237839
  0.0542128   0.26042128  0.26768845 -0.32272968  0.09674609 -0.21591522
  0.16272594 -0.2563021   0.18354194 -0.05068853  0.00454297  0.01552436
 -0.09398545 -0.26755732 -0.04306367 -0.04567615 -0.08111725 -0.1721296
  0.12441853  0.19266906  0.4244381   0.02884971]
[ 0.13268344  0.16459332 -0.25661254  0.04096775 -0.16609594  0.25079253
  0.04962917 -0.15506394 -0.2349664  -0.24846826 -0.28732824 -0.2654386
  0.36076158 -0.29888391 -0.05933611 -0.07041321  0.12233755 -0.07716383
 -0.05017982 -0.22034255  0.05843412 -0.19218445  0.13044716  0.08982157
  0.1018483   0.16167757 -0.19326651  0.13005419  0.08673596  0.26704624
  0.21067522 -0.24382684 -0.2491319  -0.3636799  -0.26175833  0.09088194
 -0.3745918   0.2008502   0.21248871 -0.17729667]
[-0.14626248 -0.12462609 -0.10445856 -0.17973188  0.34755865  0.08675197
 -0.0177487  -0.04197961  0.03696027  0.0017245   0.17841284  0.2755348
 -0.12359948 -0.1637733   0.12183527 -0.20074083  0.29377773  0.24856952
  0.03596115  0.09467812  0.10492989  0.08144621  0.1608394  -0.01282804
 -0.40946895  0.06415229  0.04497657 -0.2964675  -0.1226853   0.27546024
  0.08006883  0.15385307  0.00169886 -0.04630591 -0.12104077  0.02218732
  0.19179092  0.18454556 -0.07909943  0.06519654]
[ 0.21123955 -0.09079898  0.30181637 -0.04617662 -0.0320022   0.01229407
 -0.03143334 -0.19585074 -0.10493965 -0.10617097 -0.08348171 -0.08182168
  0.19497806 -0.10289903  0.23933417 -0.17884065  0.01325985 -0.01964208
  0.06281234 -0.20010969  0.0578106   0.20875002 -0.23292632 -0.10405739
 -0.00471985 -0.02237574 -0.11288898 -0.10177263 -0.07689523 -0.12239567
 -0.1525002   0.15803261 -0.17736481  0.14979753  0.10350555  0.01580013
 -0.26382095 -0.18860765 -0.07711933  0.09182681]
[-0.05713278  0.00061518  0.0133818  -0.010194   -0.19390513 -0.00223228
  0.03011382  0.10289082 -0.18194224  0.05295142  0.08365384 -0.04644096
 -0.05835342 -0.20848387 -0.19857772 -0.16151115  0.21593077  0.21912614
 -0.00507591 -0.2334757  -0.04708626  0.05048305  0.14705393 -0.1399738
  0.0045948   0.00798045 -0.08442643  0.320005    0.239319    0.1764859
 -0.21285112 -0.24663165  0.16306046 -0.12784418 -0.2117446  -0.06511515
 -0.06318921  0.0962121   0.23346633 -0.15015899]
[-0.03523661  0.01836719  0.07768816  0.04149152  0.19503917 -0.10448655
  0.15323137 -0.30654463  0.11768506  0.1119256  -0.24413592 -0.2130354
 -0.11995807 -0.09605416  0.25713176 -0.05003093 -0.0006437  -0.11387348
 -0.15899006 -0.27898496  0.24382561  0.18535297 -0.26609775 -0.24522698
 -0.1287702   0.21646233 -0.00916872  0.21639523 -0.07989029  0.13141017
 -0.29253498  0.30854467  0.13456228 -0.01179267 -0.15434067  0.10534737
 -0.16115099 -0.12551029 -0.14541952  0.11324925]
[ 0.07595706 -0.01551706  0.21935184  0.17146622 -0.22643843  0.13585892
  0.31367776  0.10153281 -0.23869243 -0.10504411  0.15582828  0.21460459
 -0.09814691  0.2048277  -0.04662039  0.19797449  0.25331417 -0.29580036
  0.09546227  0.1372478  -0.0884869  -0.04454648  0.24436088  0.06775128
  0.4167963  -0.03231116 -0.01126186 -0.2431595  -0.30927914  0.05538275
 -0.18853095  0.22854684  0.26029336 -0.03369737  0.01780467 -0.23874004
  0.26732728 -0.15451653 -0.19897544  0.05448544]
[-0.06775299  0.22121975 -0.21933462  0.09848274  0.3909319   0.24554528
  0.21569909  0.00551492 -0.13323711 -0.10625178 -0.39254186  0.15068506
 -0.11685084 -0.09185396 -0.2407669  -0.29199693 -0.08478085  0.13746794
 -0.06504414 -0.52045506  0.11515038  0.12982969  0.16342367 -0.07497247
 -0.10496712 -0.19953066 -0.3470394   0.39850965 -0.35455552  0.04941672
  0.10606616 -0.20647497 -0.290433   -0.18363458  0.14777802  0.17199539
 -0.17185    -0.05457313 -0.26524428  0.24902308]
[ 1.48768574e-01  1.93533674e-02 -5.03000803e-02  2.32714433e-02
 -4.81411926e-02  2.75438875e-02  2.34925393e-02 -6.81581199e-02
 -3.05725634e-02  6.93328213e-03 -1.55966971e-02 -3.96083156e-03
  2.23691575e-02 -7.18776323e-03  8.52806261e-05 -2.69904286e-02
 -3.93240387e-03  8.43528211e-02  1.13315554e-02  4.58871536e-02
 -5.92674240e-02 -1.90242846e-02  1.37179745e-02  5.72825409e-03
 -1.51073830e-02 -4.29332815e-03  4.05467041e-02 -1.09307975e-01
  4.32800092e-02 -1.60799740e-04  3.63623127e-02  4.45971452e-02
  6.48111384e-03  4.72892821e-02  1.22256223e-02  8.97451490e-03
  7.41915777e-02 -3.64941321e-02  6.82687908e-02 -1.70861650e-02]
layer 3 Activation
tanh
layer 4 Dense
40 20
[-0.28772163 -0.07616185  0.01495311 -0.00187526  0.05615491  0.09156743
 -0.06446415 -0.07490969 -0.02630394 -0.2281876  -0.02302455 -0.3084097
  0.16310641 -0.17487419 -0.31410077 -0.08338446 -0.17697649 -0.35056734
 -0.11720396  0.19359314]
[-0.29310027 -0.04489714 -0.09360408 -0.24220577  0.275269    0.11471779
 -0.05739981  0.19015105  0.03858567 -0.16497128 -0.23552245  0.15483168
 -0.02598281 -0.17850046 -0.08878843 -0.08024943 -0.0655404  -0.1272151
 -0.14140178 -0.12662362]
[ 0.18960555  0.18517162  0.29246333 -0.03501066  0.29172257  0.25076994
  0.16172194  0.28600666  0.19388151 -0.26850018 -0.1246405  -0.21719752
  0.14309923  0.18354265 -0.01819154  0.05752333 -0.3466825  -0.29255512
  0.14570412  0.04404101]
[ 0.24558024  0.10763784  0.13212281 -0.08457322  0.21738294 -0.17694871
 -0.07311741 -0.24119839 -0.18080272  0.009413    0.21851183 -0.20398118
 -0.18922272  0.01300011 -0.05280722  0.10821246 -0.12060134 -0.04415271
 -0.25223792 -0.24052691]
[-0.18777202 -0.4050484   0.02916983  0.24501994  0.2968936   0.03513994
  0.09626089 -0.04406635  0.0803055   0.00506543  0.02080798  0.17207068
 -0.15458195 -0.15970464  0.02380607 -0.19698814  0.2865482  -0.06550131
 -0.2016801   0.27642718]
[-0.23212744 -0.3469289  -0.18729013  0.22628781  0.01107013  0.04944359
 -0.19642638 -0.00723335  0.14264269  0.2815507  -0.3224595  -0.10175779
 -0.24542125 -0.06075754 -0.12308638  0.0342254   0.02832669 -0.41702268
 -0.14518112 -0.12614493]
[ 0.11826121  0.02924701 -0.11004114  0.23707765 -0.23854521  0.09401933
 -0.14828973 -0.25557956 -0.05883976 -0.06120467  0.09019863  0.1250685
  0.19282794 -0.18105689  0.19683774  0.19273107 -0.28966388 -0.018054
  0.21082862 -0.23992324]
[ 0.04164464 -0.1614785   0.079074   -0.19802092  0.07260451  0.3393912
 -0.13963233 -0.13194616  0.15988569 -0.05561547 -0.26005277 -0.29754865
 -0.03087347  0.03967327  0.1913431   0.25945053 -0.04599078 -0.06924046
 -0.07986904 -0.15868074]
[-0.21923617 -0.20452185  0.27033475 -0.18074378 -0.16340554 -0.11691468
 -0.01193425  0.12902918  0.10316899 -0.04806787  0.02936861  0.1333802
 -0.08677977 -0.07552024  0.08713782  0.24108739  0.06864979  0.08236945
 -0.13128226 -0.12429692]
[ 0.17160077  0.18046628 -0.01472613 -0.01321256  0.26715872 -0.11270119
  0.28682575 -0.18140563 -0.27951002 -0.09017016 -0.21835077  0.08666523
 -0.12027056 -0.01978931  0.3975537  -0.07214869  0.02646835 -0.20854661
  0.18017    -0.06926729]
[-0.09396699  0.36190268  0.16595264  0.28865454 -0.2114745   0.08568055
  0.13010897 -0.22950648  0.04676934  0.26332858  0.20340724  0.2737012
  0.06314123 -0.16022988 -0.16212562 -0.01236907  0.23429096  0.3687557
  0.24799718  0.16051602]
[ 0.13841784  0.00316193  0.11425639 -0.13212515 -0.1836426  -0.25651005
 -0.03452674  0.1583833  -0.1612197   0.28029943  0.01795531 -0.13162793
  0.05444903 -0.05940662  0.15620005  0.17385982  0.12261692 -0.14305711
 -0.12453531 -0.2601874 ]
[-0.23543505 -0.15268601  0.19221556 -0.23271132  0.29396158  0.2380871
  0.15751332 -0.22636935  0.04456983 -0.2913342   0.06210201 -0.35995504
 -0.09992021 -0.3351515   0.24461341 -0.13076065  0.01823847 -0.23633699
 -0.0801366  -0.26321757]
[-0.07736962  0.22673856 -0.00851536 -0.11973688 -0.16638917  0.01754467
  0.17733529  0.01032834 -0.12977712 -0.21504357 -0.09330411  0.19103202
 -0.09901528 -0.03555377 -0.16665943  0.3297289  -0.07208997 -0.11669411
  0.0719455   0.27873325]
[-0.13445948 -0.04796688 -0.08535131 -0.2824497  -0.02813892  0.23456477
 -0.14915341  0.32406178 -0.2255201   0.11592007  0.13276185  0.20895714
 -0.19119334  0.07438386  0.04623296 -0.25446293 -0.13601944  0.14367312
  0.05070033 -0.17223205]
[-0.10509155  0.29011393 -0.15686862  0.24889022 -0.11353864 -0.00977618
 -0.09713884 -0.06807886  0.12097511 -0.07418403 -0.2266462   0.2438661
 -0.05609813  0.12575029  0.3134804  -0.13369384 -0.02163334 -0.25526667
  0.09114553  0.2248749 ]
[ 0.26207778  0.19706582 -0.12892517  0.12853158  0.16608019 -0.04841162
 -0.07420264 -0.10675577  0.17985897 -0.13791466 -0.17222688 -0.18046418
 -0.10727632 -0.16070414 -0.14599526  0.0306856  -0.2619162  -0.27133176
 -0.20512266  0.03867266]
[-0.3301645  -0.28319153 -0.13745096  0.0286763   0.2526914   0.26767108
  0.09418293  0.07759004 -0.04144444  0.365244   -0.15436594  0.15831657
  0.08127968 -0.09625696 -0.29583085  0.21587673  0.14664534 -0.28352332
  0.15154491 -0.10623971]
[-0.21095029 -0.25111628 -0.12289923 -0.28276217  0.18587813  0.1383192
 -0.12945735 -0.11692989  0.01911419 -0.12237586  0.02075122 -0.33039376
  0.15577437  0.15367864 -0.24697527  0.24497299 -0.22450092 -0.2565889
 -0.09336555 -0.34553206]
[ 0.22207366  0.3049261  -0.13753907 -0.08762794 -0.33194032 -0.2563861
  0.14522499  0.00930148 -0.12717289  0.11560441 -0.34472516 -0.04874403
 -0.22018409  0.01056276 -0.22157761  0.35614797  0.17731085  0.10951821
 -0.14964917  0.16812567]
[-0.11819261 -0.11264896  0.27241522  0.23696639 -0.16645293  0.2576956
 -0.12844944  0.20205821 -0.15038592  0.2818565   0.10034143  0.22231457
  0.13185416 -0.19443347 -0.28654838  0.08765584  0.03078327  0.03615768
 -0.25728807  0.3466083 ]
[-0.17060968  0.30430838  0.19267997 -0.25658637  0.08542692  0.16898736
 -0.08833789 -0.06526554  0.26024154  0.13699828 -0.09482273  0.20590067
  0.1329309  -0.15770996  0.1958488  -0.06788085  0.19490379  0.35037822
 -0.22696319 -0.03451274]
[ 0.09895386 -0.27087674  0.23330496  0.01166178 -0.00561702 -0.00155621
  0.23497473 -0.2611181  -0.1154129   0.17559712 -0.11568483 -0.06897029
 -0.00422129 -0.29519582 -0.1119965  -0.12247226 -0.08385796  0.3029407
  0.18119943 -0.14813596]
[ 0.18488401  0.00100337  0.17140207 -0.05806207  0.10694395 -0.11870177
 -0.07758852 -0.18251409 -0.1600358  -0.20335527  0.19121341 -0.3530449
  0.23017609 -0.011723   -0.23917726 -0.25894135 -0.3661964   0.04466061
  0.08536115  0.03641366]
[-0.20734482  0.4406645  -0.19642894 -0.23753427 -0.28594384 -0.11472099
 -0.08483653 -0.01709594  0.15786752  0.0844163  -0.12955356  0.28761
  0.05034228 -0.09645429  0.19017075  0.06705192 -0.28185573 -0.06149829
 -0.06918204  0.14407621]
[ 0.14951545  0.17171927  0.0059632  -0.14329332  0.15185305  0.14716421
 -0.00685201  0.17913727 -0.08395449 -0.03747753 -0.01068367  0.07456002
 -0.16545255 -0.00099972 -0.00041385 -0.25058553 -0.20115288 -0.02250775
  0.260157    0.23996262]
[-0.10144079  0.18314394  0.22185147  0.21796763  0.01621473  0.27912945
  0.14461061  0.07655448  0.141435   -0.26578915  0.12967823 -0.04213578
 -0.25024095  0.39776775 -0.18149267  0.10109282  0.27374154 -0.3132021
  0.28969172 -0.03289486]
[ 0.24682741 -0.33918217  0.09335844 -0.04332419  0.22795902 -0.10672766
 -0.34124553 -0.04831633  0.15326206  0.2070554  -0.09938248  0.07403746
 -0.09043108 -0.2807356   0.32781625 -0.09325045 -0.1809765   0.04618898
  0.04161491  0.32189316]
[-0.3533448  -0.01504018  0.2467722  -0.16394159  0.10693733 -0.28766322
 -0.00712662 -0.15160288  0.19671227 -0.06512251  0.0623097  -0.22059712
  0.29288062  0.00214356 -0.39935726  0.00938029  0.18093266  0.16531359
  0.13104372 -0.33599004]
[-0.31616086 -0.36285177 -0.14662802  0.3126828   0.14184299 -0.18936352
  0.10395871 -0.13285017 -0.00241445  0.01924811  0.11317642  0.04161087
 -0.29149994  0.15586716  0.07390706 -0.10713028  0.04383342 -0.3540774
 -0.00590183 -0.24752592]
[-0.2982586  -0.33100885 -0.15564595  0.17477934  0.23745388 -0.2827522
  0.07667601 -0.159919    0.29151705 -0.19061981 -0.12429558 -0.14391363
 -0.05467265 -0.0309629  -0.11182516 -0.06759438  0.14314544 -0.24276711
 -0.2778587   0.04314796]
[-0.02394246  0.29339492 -0.01244647 -0.07663936 -0.09229863 -0.2688364
  0.09570459 -0.2791237  -0.03615841 -0.00152336 -0.26111272  0.05824202
  0.06476229 -0.00572565 -0.19738883  0.00186246 -0.35283688 -0.1853207
 -0.03452672  0.1979562 ]
[ 0.4026855   0.2647124   0.261873   -0.25949618  0.10456549  0.12285535
  0.05939211  0.12761024  0.16215403  0.18375915  0.17651016  0.15343939
  0.15414101 -0.3344288  -0.27241647  0.21088651  0.0834306   0.09715548
  0.13266729  0.1541382 ]
[ 0.24967831  0.01277336  0.10108872  0.07871887 -0.12690781 -0.08682413
 -0.14920029  0.07015938 -0.2216956  -0.16622819 -0.06786451 -0.0060979
  0.20718849 -0.08847497  0.01973417  0.21823072 -0.09364362  0.01376434
 -0.2384673  -0.09828986]
[ 0.03806222 -0.1729303   0.01744438 -0.17978263 -0.09613071 -0.05975679
  0.34503305 -0.16997004  0.10465415  0.2589877   0.22105984  0.18309018
  0.18490714 -0.36608618  0.03263731 -0.0546069  -0.24266572 -0.14277788
  0.25928426 -0.20651543]
[-0.05281926 -0.1907318  -0.1595126  -0.18684582  0.08677844 -0.33675006
 -0.13510117  0.03020983  0.04104021  0.34207302  0.169701   -0.02286194
  0.10526893  0.25552738  0.24723223 -0.3150102   0.07037884 -0.1584512
  0.02290156 -0.00792452]
[-0.09070502  0.16908047  0.23832749 -0.16474453  0.00105547 -0.12856273
  0.20486757  0.2646877   0.03370139  0.11274616  0.02433236  0.34409612
  0.14050798  0.00336912 -0.11913639  0.22573258  0.1567815  -0.28907612
 -0.20761117 -0.10226177]
[ 0.20257086 -0.17762244  0.14675097 -0.18046695  0.07872272  0.2479133
  0.25714353  0.29306185 -0.18672122 -0.17577425  0.11566591 -0.0261603
 -0.21409728 -0.04229565 -0.35074258  0.14297695 -0.02311539  0.19755958
  0.15026677  0.00652593]
[ 0.02931934  0.18555215 -0.25705904  0.08715414 -0.2436833   0.17578922
 -0.2381236   0.26410067  0.22118977 -0.15220177  0.22388437  0.18086942
  0.11632048 -0.11546852 -0.25536704  0.38083103  0.06146327 -0.11337852
  0.21198782 -0.11929315]
[-0.04585539  0.12437166  0.04310562 -0.26886642 -0.03097346  0.08748567
 -0.12705095  0.3975978  -0.03111556 -0.1188596  -0.06396911  0.31932446
 -0.30550754 -0.04652425  0.16689315 -0.24269988 -0.06407874  0.13454102
  0.229315   -0.10593685]
[-0.02022462  0.05462491 -0.02927332  0.01206587  0.00506089 -0.00064922
  0.04084432  0.02499784  0.07754735  0.06058348 -0.00293599  0.02856459
 -0.01240162  0.01302284 -0.00963     0.00257142  0.01556366 -0.00986904
  0.0030223   0.02865641]
layer 5 Activation
tanh
layer 6 Dense
20 1
[-0.15444006]
[0.17664061]
[-0.00453281]
[0.09264253]
[0.18647568]
[-0.04125243]
[0.01017399]
[0.16044082]
[0.04094945]
[0.10787613]
[0.02231918]
[-0.24626414]
[0.00476387]
[0.00288299]
[0.12491225]
[0.16755627]
[-0.09481255]
[0.09810343]
[0.0086135]
[0.07274503]
[0.02678145]
