layers 7
layer 0 Dense
20 20
[ 0.16840366 -0.61690855  0.22841074  0.4650276   0.27249968 -0.04995073
  0.2254294  -0.426762    0.34261888  0.30235463  0.4070047   0.16543454
  0.1377353  -0.24943975  0.26524776 -0.21285766 -0.44959253 -0.5589596
 -0.2989601   0.0580932 ]
[ 0.05383756  0.15966739 -0.26967686 -0.1578681   0.14379753  0.09302005
 -0.5228309   0.23105593 -0.07499041  0.3377045   0.08959931 -0.13160077
 -0.38297072  0.5120399  -0.01926406  0.06349105  0.15922433  0.26576945
 -0.35680106  0.02742637]
[-0.39686826 -0.24575908 -0.08189286  0.05840499 -0.00416499  0.187648
 -0.4340881  -0.26868156 -0.21610366  0.3382148  -0.4010786  -0.07844442
 -0.17384079 -0.1276617   0.21265662 -0.19908287 -0.21357694  0.27105984
  0.22175941 -0.31968686]
[-0.08079099  0.10706162  0.48691025  0.2896389   0.3077893   0.07737385
 -0.0841418  -0.22422093 -0.2058793  -0.10278051  0.38605002  0.16030343
 -0.09355576  0.23566933  0.05082395 -0.15559688 -0.3095275  -0.10253195
 -0.19715433  0.121384  ]
[ 9.0945654e-02  9.3464054e-02  9.1596849e-02  3.2295737e-01
 -1.2484647e-01  2.0976135e-01 -5.9778120e-02  7.3684849e-02
  1.5818644e-02 -1.4995641e-01 -1.2922743e-01  1.4308524e-01
  2.4130675e-01 -9.0514556e-02 -1.8412563e-01 -1.0837262e-02
  9.5936237e-05  2.8461257e-02 -4.1595522e-02  4.8798996e-01]
[ 0.04663219 -0.18117595 -0.16971354  0.11430138  0.10869328 -0.09467484
  0.12180629  0.38873923 -0.29069597  0.0023916  -0.25417444  0.02151375
  0.19880378 -0.01875664 -0.22087416  0.3311111   0.2757099  -0.16254863
  0.27751076 -0.13298538]
[ 0.02062321  0.04842237  0.16457166  0.28713855 -0.31163877 -0.22404374
  0.3939943  -0.18475813  0.0540932   0.17120245  0.25867894 -0.09903014
 -0.14639437  0.14627962  0.18795528 -0.00066189  0.15001552 -0.34654963
  0.3335331  -0.0619267 ]
[ 0.32393694  0.2940486   0.28011498  0.3109558  -0.43978497  0.24891306
  0.46886244  0.20561355 -0.07534473  0.2312754  -0.4605774  -0.20156528
 -0.10971297 -0.17292714  0.09387825  0.4665945   0.32861528 -0.18342789
  0.3608924  -0.388548  ]
[ 0.26128703  0.22713819  0.16466855  0.00568379 -0.07257334  0.03124468
  0.34043694 -0.41693726  0.06308515  0.12432905  0.39142305 -0.06567431
 -0.18230933 -0.35807544 -0.37862098 -0.04678614 -0.28294417  0.1347448
 -0.13119943  0.02743988]
[-0.18494406  0.04623308 -0.25155663 -0.13503489  0.08120742 -0.00683002
  0.2127324  -0.34276184  0.09539363 -0.21906854  0.09563357 -0.10696812
 -0.00750529 -0.04788389 -0.32956156 -0.2347364   0.2793852  -0.00601558
  0.31556222  0.2758653 ]
[-0.26664075 -0.15526462 -0.3253747  -0.28130594 -0.06998542  0.3087945
 -0.03307047 -0.19895893  0.10673454 -0.2864087   0.09398631 -0.40586683
 -0.08360022 -0.3686847  -0.2379857   0.2239455  -0.12939121  0.5247625
  0.15920478 -0.01501456]
[ 0.04577237  0.08647659  0.14154159  0.01373724  0.06490056 -0.2488522
  0.02192676  0.09460125 -0.25793314 -0.19429372 -0.5022636   0.26456574
 -0.00295091 -0.4140843   0.2862184  -0.25034395 -0.00658532 -0.35458457
 -0.05238013  0.11427633]
[-0.5233465  -0.25425935  0.14982532 -0.3780994   0.6000139   0.00248119
 -0.42692596  0.29886773  0.19918923 -0.35720104  0.42354578 -0.175697
 -0.3072563   0.426346   -0.17861526 -0.38192928 -0.38568318 -0.09073035
 -0.3323435  -0.12804629]
[ 0.20796521  0.36414137 -0.06366989 -0.15014817 -0.04986118  0.12049785
  0.09196945  0.15578243  0.20817831 -0.03392281 -0.2717733   0.01625574
  0.16225907  0.09026323  0.1838416  -0.2536262   0.35437638 -0.24913172
  0.32702968 -0.02706794]
[ 0.08614589  0.04513916 -0.2188655  -0.00206376 -0.04607085 -0.17680211
 -0.24761073 -0.41916233  0.22710043 -0.19610162  0.04413459 -0.03620968
  0.30156392  0.08312093  0.07950795  0.25807312 -0.26944953  0.1592324
  0.20174785  0.12130882]
[-0.19348353 -1.0375941   0.64748114 -0.34363714  0.6887628   0.11272271
 -1.1661022  -0.41912276  0.8671381  -0.4588071   0.9316089  -0.18803951
 -0.7516924   1.1973166   0.3016249  -0.13404104 -0.16845313 -0.6168704
 -0.3871576   0.20733045]
[-0.05480773 -0.06543379 -0.24695389  0.46508873  0.0291559  -0.17128049
 -0.0460094  -0.3883733  -0.21005723 -0.06252456 -0.18719615  0.24546492
  0.20341305 -0.06955854  0.07562678  0.10182435  0.09235462 -0.26699004
 -0.1201813  -0.0916126 ]
[-0.12602597 -0.03907318  0.29875854  0.13742955  0.39983222 -0.25459373
 -0.19475989  0.13395977 -0.23926523 -0.02848385  0.13718419  0.17151588
 -0.12871082 -0.17916994  0.45649    -0.35425192 -0.02196438  0.16549627
 -0.14888516  0.14317909]
[ 0.09383774  0.08755338 -0.2069414   0.13475215  0.06146298 -0.27533624
  0.13927667  0.27848434 -0.07889101 -0.3769194   0.31520823 -0.16945797
  0.12438472 -0.04303194 -0.02912919 -0.2226487  -0.31863144 -0.7076036
  0.05930262  0.21116479]
[ 0.29260966  0.10552154 -0.2873451  -0.07119117 -0.45789996 -0.08757553
  0.3808733  -0.14791074 -0.1871661  -0.13790296 -0.34444174 -0.08340477
  0.09045974 -0.45851842  0.2275564  -0.35009918  0.16567403  0.3595605
 -0.00591516  0.08244704]
[-0.03269095 -0.00794752  0.09170868  0.00520736 -0.0178102   0.08380806
 -0.09050632 -0.06403547  0.04247176 -0.05257904 -0.00191701 -0.10440104
 -0.02310535  0.07633045  0.10091575 -0.04867114 -0.0605118  -0.02391589
 -0.05567008 -0.02139311]
layer 1 Activation
tanh
layer 2 Dense
20 40
[ 0.01852792  0.25222084  0.1951585   0.02179915  0.09142207  0.10463446
  0.25151423 -0.07353732 -0.00780664 -0.29456213  0.21680044  0.09116542
  0.0844788  -0.36709008  0.11837707  0.01657242 -0.23623203 -0.36487803
 -0.02697573 -0.01047401  0.13937633 -0.18550247 -0.1951897  -0.01518564
  0.12564875 -0.14127402  0.1623884   0.20395932 -0.12779933  0.02414343
  0.05033872 -0.1355012   0.29955003 -0.15215786 -0.07245257 -0.11973997
  0.05588363  0.17394502  0.39092612 -0.02652008]
[ 0.26255202 -0.39765182  0.3947036   0.34053653  0.10527993 -0.05814088
  0.1889655   0.28862792 -0.33418897 -0.2919498   0.06123939  0.08599845
  0.0952846  -0.32523546  0.16338225  0.08530544 -0.18647161 -0.13327336
  0.10890328 -0.13603036  0.21082547 -0.14526342  0.03960445  0.16124919
  0.09942539 -0.13328548 -0.10497234 -0.27524158  0.22331882 -0.11645427
  0.01437385  0.23439728  0.08085081  0.06816377  0.16802149 -0.08290433
  0.3062959   0.19189312  0.35391223  0.00583069]
[ 0.05541267  0.35599992 -0.415944   -0.1400264  -0.10807923  0.36550856
 -0.1906862   0.03449804  0.16090609 -0.09741273 -0.22482648 -0.07186199
 -0.07868626  0.36683854  0.13792823  0.03113084  0.06115638 -0.13714716
  0.12169097 -0.11097204  0.11843835 -0.13091229  0.0816172  -0.03507382
 -0.38967657 -0.04242238  0.3008023  -0.04671141  0.09046181  0.10023537
  0.0903424  -0.09587863 -0.02974843  0.24428079  0.06421199  0.14002572
  0.06586503 -0.04320485 -0.16069196  0.10338716]
[-0.22574924 -0.01381304 -0.1919911  -0.4074233   0.08461033  0.15052556
 -0.04051326  0.03427922  0.29993185 -0.08512923  0.042255    0.10708416
 -0.00355267  0.04458244 -0.07311901 -0.00929561  0.1501014  -0.24646154
 -0.2322966  -0.15737683 -0.0775784   0.19448785  0.09485498  0.2138035
  0.07203451 -0.01876017 -0.00715321  0.35065046 -0.01568487 -0.29446918
 -0.32582387  0.12085008 -0.15649655  0.20966291  0.3711438   0.1721208
 -0.33535337 -0.16691414  0.18080293  0.19013435]
[-0.4553857   0.3353259  -0.12831323 -0.07649011  0.28114036  0.09348419
  0.19679455  0.13907525  0.03657125  0.29864338  0.14161102 -0.13014923
  0.13665557  0.22739261 -0.03938213 -0.25049567  0.26918954 -0.24626543
 -0.0857073   0.11151717  0.23137726 -0.29655758 -0.13760774 -0.19231175
 -0.00787737  0.09357516  0.36587942  0.36324564  0.03239697  0.24460572
 -0.1946346   0.1677949  -0.03871558  0.11476748  0.17028418  0.4322138
 -0.38732952 -0.16042449 -0.25094524 -0.05823535]
[-0.206697   -0.14014362  0.20625414 -0.03153232 -0.07671404  0.00977929
  0.01345791  0.30593398 -0.16230258 -0.15005016 -0.17890799 -0.22205268
  0.14428814  0.06147101 -0.03977232 -0.11525986  0.21849278  0.15259941
  0.13747272  0.07445558  0.24180683  0.24937746  0.03372495 -0.20592678
 -0.17673828 -0.18960188  0.04923739 -0.05135578 -0.20527032 -0.2700904
  0.01435348  0.01430074  0.00279324 -0.16009417  0.22010028 -0.01989867
 -0.22122201 -0.01936986  0.14108855  0.01015549]
[ 0.03149221  0.13638243 -0.00715508 -0.02581852  0.08515389 -0.34297612
 -0.07617729  0.1617734   0.07483311 -0.15858747  0.22568935 -0.20380065
 -0.3079101  -0.28949475 -0.09940325 -0.24630195 -0.29562253 -0.40713823
 -0.04909604 -0.03907827  0.10597277  0.35840523  0.09206885  0.18720698
  0.11785591  0.24664408 -0.06883324 -0.22542007 -0.27477157 -0.08410028
 -0.32538787 -0.09173367  0.2009316  -0.21249972 -0.0816572   0.1299092
 -0.1406551  -0.16640677 -0.15659411 -0.15278336]
[-0.04004664 -0.22954929 -0.01724793 -0.1777817  -0.07736561 -0.21052746
  0.11338192  0.30254483  0.0318256  -0.21109672  0.27558842  0.09654038
 -0.14608361 -0.1071671   0.26103887 -0.14215483 -0.10522479 -0.08399098
 -0.28197035  0.01958404  0.08831669 -0.30044332 -0.07526134 -0.06956682
  0.0515506  -0.06430369 -0.14325316  0.0345758  -0.20457615 -0.07565977
 -0.15251079 -0.15663366  0.0585504  -0.41142076 -0.01272161  0.2566812
  0.32106313  0.32850948  0.10801326 -0.08678149]
[-0.25621775  0.264419    0.11358742 -0.16400202  0.02845678  0.11217431
 -0.01148235 -0.14804704 -0.00610749 -0.05039203 -0.14774485  0.13019744
  0.09050547  0.04061116 -0.08932372  0.09813921  0.24846397  0.15656753
 -0.04160604 -0.08776557 -0.04707092  0.01245605 -0.1497869  -0.22263226
  0.08570901  0.00993354 -0.08699866  0.10403845 -0.11803765  0.15226246
  0.25512066 -0.30469188 -0.32205993 -0.324115   -0.22761434 -0.11484621
  0.17563322 -0.08453692 -0.23593454 -0.02374184]
[-0.36229244  0.2583146  -0.139027    0.15091741 -0.2160988  -0.10247216
 -0.20875609  0.1667554  -0.21687798 -0.02571282 -0.03688454  0.02822001
 -0.12926514 -0.04340745 -0.15285487 -0.17595837  0.27935046 -0.1495343
  0.01983418 -0.11501417  0.13689242 -0.00604235  0.14230637  0.11959478
  0.02419467  0.27533832  0.17084795 -0.15444946  0.1868456  -0.12787642
  0.16658595 -0.24142922  0.3416739  -0.17026806 -0.21550062  0.41650173
 -0.14160879 -0.03456343  0.08659454 -0.4022311 ]
[-8.02481323e-02  9.65503901e-02 -3.05000246e-01 -1.50163367e-01
  5.97030640e-01  3.78977388e-01 -2.25487381e-01  2.75323465e-02
 -4.45878096e-02  3.14051688e-01  8.14360566e-04  2.44126365e-01
  3.27549338e-01 -2.23184586e-01  2.91201144e-01  2.99874038e-01
  1.17164314e-01  3.35134238e-01  7.47724995e-02  1.66014284e-01
  6.17285669e-02  2.34669089e-01 -2.47278780e-01 -4.00202814e-04
 -1.35727391e-01 -2.32412338e-01  4.60920259e-02  3.23024511e-01
  3.09100091e-01  3.53590131e-01  3.50443453e-01 -4.49446477e-02
  9.31777954e-02 -1.71520382e-01 -1.55919909e-01  2.55723417e-01
 -3.05998504e-01 -3.45705837e-01 -2.21468598e-01  4.09922093e-01]
[-0.17675686  0.02146807 -0.26587167 -0.4134155  -0.08883747 -0.31071892
  0.19828853  0.20029512  0.16250277  0.15048808  0.09318117  0.01388657
 -0.05360318 -0.2561484   0.14585897 -0.19341706 -0.0136471   0.13261236
  0.17372905 -0.0224479  -0.00660542 -0.1829606  -0.03375861  0.11140566
 -0.23216672 -0.13387339  0.11797739  0.15457377  0.13249376  0.2005221
  0.07774715 -0.1670482  -0.21230108  0.08890984 -0.24844664  0.06290208
 -0.24229734  0.00902123  0.19715631 -0.13963532]
[ 0.31605285 -0.24577501 -0.00656375  0.11637018  0.01225824 -0.19197942
 -0.27521142 -0.05365606 -0.1037681  -0.13860083  0.06339329 -0.07557611
 -0.12255815 -0.00925922  0.01908127 -0.22552572 -0.24278858 -0.10576306
  0.07028281  0.1201082   0.10226043 -0.2728041   0.19554387  0.21571496
 -0.25814396 -0.16741261  0.27675003 -0.15674558 -0.14775494 -0.19291344
  0.07457014 -0.14808224  0.22356845  0.18649723  0.0374802  -0.16002288
  0.16330548 -0.01961742 -0.13322668 -0.04547536]
[-0.06562012  0.3115093  -0.1365138  -0.1749965  -0.1306998   0.14943606
  0.26591867  0.03078831  0.2449451  -0.12419425 -0.30879426 -0.16925873
  0.3623087  -0.05896683 -0.05673837  0.11828359  0.14537461  0.23908487
 -0.19262996  0.10767965 -0.36146888 -0.32811326 -0.07100257 -0.42763215
  0.20235133  0.14228952  0.22476313 -0.17304128  0.09367847  0.32559198
  0.18839821  0.19158521 -0.0455279  -0.17711629  0.2269426   0.09794815
  0.22822452  0.13107237  0.08552349 -0.08870976]
[-0.06496452 -0.0969412   0.26187986  0.001759   -0.26872256  0.29210043
  0.06706433 -0.28937173  0.18919455  0.02111637 -0.10524869  0.2974139
  0.1365671   0.03077852  0.17359427  0.1749914  -0.04942302  0.17593007
  0.21966709 -0.23231661  0.30898067  0.20552263 -0.07856113  0.17254908
 -0.08094464 -0.10966387 -0.20619796 -0.08256617  0.29791334 -0.00782334
 -0.24083899 -0.09454839 -0.17724407 -0.02823735  0.09800504 -0.13740745
  0.08435075 -0.2644113  -0.19547856  0.16402231]
[ 0.0507208  -0.07223424  0.37098157  0.25677437 -0.53372407 -0.18170826
  0.23563208  0.1830208  -0.05433383  0.10831793  0.04564126  0.07376558
 -0.1046154  -0.16957982 -0.35987005  0.03453727  0.23375244 -0.19781817
  0.07339747  0.15834445 -0.23084626 -0.25164193  0.22842582 -0.0625395
 -0.25217333 -0.07774181 -0.28002292  0.08895133 -0.02094567  0.04022901
  0.07544551  0.1172391  -0.10547846 -0.10107791  0.02417156 -0.14432961
 -0.06258114  0.10078132  0.18085267  0.10426557]
[ 0.35498804  0.0015434   0.21278058  0.52594084 -0.6717266  -0.33434376
  0.36550394  0.27431783 -0.11336879 -0.1576741  -0.15664642  0.20948504
 -0.13715582  0.06501417  0.14746006 -0.12772402  0.13553545 -0.24558535
  0.27277452  0.06184667  0.02903439 -0.14487357 -0.21900679  0.14985569
  0.2879905  -0.20375617 -0.24165094 -0.08870184 -0.00914968 -0.29944295
 -0.14117481 -0.2825476   0.1108394   0.17945987  0.06113337 -0.3634345
  0.02603465  0.2858596   0.290125   -0.14228147]
[ 0.05090682  0.06765676  0.19987111  0.46917027 -0.47778392 -0.0313683
  0.16612282 -0.01106761 -0.07032251 -0.10744003  0.2929987   0.18441658
  0.24659894  0.07100683 -0.3243417   0.22205487 -0.06131922 -0.02795551
 -0.24896297 -0.2275903  -0.10739581  0.12828954 -0.16276532 -0.29325357
  0.20994246 -0.22391625 -0.0237359   0.13090271 -0.23477079 -0.08496174
  0.1854051   0.14930043  0.3493551  -0.24321297  0.00724898 -0.16785616
 -0.26011875  0.18854252  0.04537445 -0.2129298 ]
[ 0.44098023 -0.43958414  0.45652473  0.215997   -0.2021638  -0.14605334
  0.24398804  0.43581218  0.08754992 -0.20187654 -0.34099707 -0.14765638
 -0.04133312 -0.16926873 -0.40043926  0.02416326 -0.0907563  -0.10532001
  0.3176621  -0.38282245 -0.03167344  0.16379648  0.23896007 -0.31043747
  0.01880534 -0.2395693  -0.26154226 -0.51773    -0.28567705 -0.02900464
 -0.12567712 -0.0716932   0.28572938 -0.11420532 -0.01095885 -0.05295335
  0.46533588  0.01853275  0.34573817 -0.27547973]
[-0.3147563  -0.19019307 -0.03610602 -0.15156467  0.3038525   0.23315875
  0.0524627  -0.14203496 -0.2709528   0.32978085  0.23879398 -0.06036067
 -0.22976932  0.17547038 -0.01398524  0.08750091 -0.01781137 -0.25621825
 -0.04920701  0.01336871 -0.23642243  0.08797318  0.18286885 -0.29262498
 -0.25615957  0.08606727  0.26180017 -0.24257593 -0.03653076  0.05520735
  0.08392318 -0.16060859 -0.1177746   0.21767065  0.21207659 -0.09448014
 -0.17914446 -0.22736855 -0.22242431  0.21986003]
[-0.17988434  0.09759773 -0.19338544 -0.1643269   0.03198757  0.06935938
 -0.01290364 -0.04625438  0.0439476  -0.00990852  0.02307981  0.04599066
  0.00375804  0.00049594 -0.0056996  -0.01370102  0.00491953  0.01244865
 -0.04431834  0.05874494  0.08699574  0.00618487  0.01894006 -0.00080134
 -0.01965057 -0.02643531  0.15398888  0.05490516  0.03687356  0.0149653
  0.03825267  0.01523124 -0.12405329  0.04630326 -0.03380321  0.16570169
  0.01609504 -0.13153867  0.00360219  0.02803293]
layer 3 Activation
tanh
layer 4 Dense
40 20
[ 0.15216082 -0.25504035  0.15029399 -0.1063      0.20677382  0.09904549
 -0.24793638  0.10018773 -0.26176935  0.08771311  0.0499619  -0.20227483
 -0.04229167  0.01717242  0.04860771 -0.1811062  -0.15116723  0.07524633
  0.26273307 -0.04986619]
[ 0.24646509 -0.06343371 -0.33147413  0.12762082 -0.3293104  -0.21235842
  0.08186758 -0.04610727  0.25654852 -0.11707169  0.17276312 -0.08007213
  0.28972095  0.25968316 -0.4132022  -0.18925272  0.17848696  0.32771763
 -0.03840027  0.06274687]
[ 0.29063904 -0.23037958  0.08235156 -0.33596367 -0.20810738  0.3133713
  0.1399664   0.09506034 -0.12784314 -0.06183541  0.30743846 -0.05580518
 -0.08211888 -0.24233939  0.3702326  -0.15167342  0.12588945  0.01309144
  0.06582257 -0.00373769]
[ 0.05569626 -0.17317246  0.31681433 -0.16668607 -0.15275992 -0.22697014
 -0.14298742 -0.19214967 -0.23876682  0.17955284  0.04440288 -0.35075086
  0.14729622  0.17375988  0.20026074 -0.32261837 -0.05395301 -0.369745
  0.26784077  0.02537482]
[ 0.05488169  0.15191382 -0.32703164  0.18856286 -0.24662594  0.2294137
 -0.2326333  -0.2792814  -0.16578835  0.10282599 -0.13229075  0.04211164
 -0.18226136 -0.2805579  -0.19748393  0.20030645  0.30469748  0.25599337
 -0.06132944 -0.12920943]
[ 0.19026525  0.22757003 -0.24421895  0.3603214  -0.2068491   0.12500095
  0.19375646  0.05391377  0.22274177  0.2944683   0.19803713 -0.05547172
  0.37142554  0.07592936 -0.37269306 -0.18257436  0.28014457 -0.20294032
 -0.37903836 -0.12686954]
[-0.05646908  0.21999587 -0.13693307 -0.3109951  -0.0471357  -0.20256859
  0.32046974  0.07431355 -0.2545926   0.05122718 -0.06752093 -0.20937604
 -0.07538462 -0.08803669  0.34373292 -0.12923308 -0.22069398  0.02948271
  0.3602709  -0.18423408]
[-0.10771727 -0.1744174   0.26734298  0.05646048  0.12856172  0.13651422
 -0.17507677 -0.03933676 -0.29512635 -0.3290443   0.2588546  -0.10946592
 -0.23643538  0.14314872  0.09463815  0.14925414  0.06007613 -0.03949912
  0.23897587 -0.31667957]
[-0.15640445  0.12721011 -0.35432747  0.01040886  0.20146507  0.19531608
 -0.25300115  0.04920964  0.33710718 -0.05496376  0.00903645  0.06076078
  0.12726341 -0.11407249  0.08854052 -0.24378267  0.23645248  0.03545601
 -0.24676755 -0.19340505]
[ 0.20093328  0.06378826  0.18570118  0.04709858  0.3049743   0.22225648
 -0.27970627  0.12954819 -0.02193189 -0.09514012  0.02227684  0.3107752
  0.24500641 -0.26075613  0.00125334  0.21090688  0.03965897 -0.03912381
  0.24528037  0.06354302]
[-0.33363712  0.08370962  0.22661136 -0.21013059 -0.03250135 -0.19791158
 -0.152829   -0.1561366  -0.03002629  0.16389038 -0.1013293   0.5371095
  0.12970093  0.08999824 -0.03469009 -0.05621891  0.08909083 -0.02214254
  0.04002024 -0.01906197]
[-0.06767585  0.20870426  0.05748434  0.0430952  -0.03349325 -0.0416483
  0.24393722 -0.16163553  0.08775406  0.06792625 -0.05915295  0.01982358
  0.10456146 -0.29492736  0.19170567  0.3019414   0.00244712 -0.10521671
 -0.11302823 -0.44449425]
[ 0.17107391 -0.02766967 -0.1977892  -0.1123436   0.23097442 -0.07458949
  0.03750129 -0.02478638  0.12292051  0.32702354 -0.23551561  0.0139893
  0.31511304  0.08462811  0.14638212 -0.17960854  0.32161683  0.06033253
  0.15227513 -0.24072148]
[ 0.31721416 -0.18300192  0.22940183 -0.04428041  0.20738585  0.13185285
  0.07210151  0.24500716  0.18869719 -0.01813557  0.01477781  0.2754765
  0.003974    0.06906606 -0.08887775  0.14288823  0.21849728 -0.091984
 -0.24150679  0.2883432 ]
[-0.18399547  0.08124177 -0.16387379 -0.0846086  -0.01415267  0.07715026
 -0.13189463  0.10718654 -0.14674287 -0.07802392 -0.30756912  0.30385554
 -0.32694894 -0.0493129  -0.20899239  0.2287842   0.04446488  0.13590963
 -0.22891158  0.282372  ]
[-0.20230402  0.22023976  0.03982581 -0.08237368  0.20004937 -0.02381661
  0.27621138  0.11858472  0.07285359  0.00622324 -0.21485984  0.2717295
  0.08098182 -0.23519446  0.11745669  0.07204921  0.00276665 -0.0855513
  0.2158023   0.10627772]
[-0.04743288  0.13125722 -0.34232467 -0.17285578  0.30532643 -0.07563007
  0.19521908  0.07994841  0.34106216 -0.21503676 -0.07855648  0.08604112
 -0.07722282 -0.3409377   0.04514217 -0.28616968  0.2548941  -0.25837407
 -0.15854645 -0.05397357]
[ 0.28868005  0.14014861  0.21779117  0.3661755   0.33262417  0.12151355
 -0.01400221  0.28099275  0.11177967 -0.14634022  0.21654144  0.10987425
  0.27389714  0.04762436 -0.08685486  0.14332898  0.29856285 -0.14641394
 -0.24905854 -0.05680275]
[-0.28531688  0.21654595 -0.07912307 -0.13715489  0.02680241  0.09061794
  0.11405543 -0.14553139  0.07544935  0.04764836 -0.24657622 -0.19984926
  0.04365595  0.13074508  0.1424265   0.09529805 -0.07936427 -0.18239306
 -0.01994463  0.08252358]
[-0.11575317  0.12646645  0.06998291 -0.08200005  0.23790896 -0.11717513
 -0.15052481  0.09454191 -0.06855101  0.06479442 -0.13437852  0.04049166
  0.07114178 -0.18192741 -0.15268676  0.23381868 -0.0034813   0.20089075
 -0.2319284  -0.28310728]
[-0.17339529  0.12479322 -0.10591769  0.27657926  0.06122908  0.25043687
  0.00616544 -0.12488195 -0.04588366 -0.32955578  0.3319502   0.25049973
 -0.10909253 -0.18105598  0.0482691  -0.10798619  0.12571771 -0.2094392
 -0.12334713 -0.14309537]
[-0.08629185 -0.21903922 -0.0737126   0.13486466  0.18899965 -0.01766765
  0.13788904 -0.32356247  0.10577974 -0.03139082  0.16972813 -0.13901944
  0.26689285 -0.17802328  0.13551567 -0.17821522  0.15246181  0.02335342
 -0.22085631  0.02128805]
[-0.09852681 -0.0210269   0.07947639 -0.02517408 -0.04340594  0.42749116
  0.00526457 -0.10191543 -0.06339373 -0.17987114 -0.11755753  0.01772041
  0.02039991  0.01394699  0.03461839  0.15583536 -0.06622433  0.05936002
 -0.0349047  -0.08044369]
[-0.2720614  -0.18128541 -0.04571079  0.01481499 -0.20620608  0.06296856
  0.19570823 -0.12902279  0.17747767 -0.08745797  0.16073419  0.10315232
 -0.19552371 -0.10030168  0.02926097  0.14554325 -0.00958757 -0.11904662
  0.08943891 -0.02195431]
[-0.16521856 -0.23550946  0.27339807 -0.12401     0.04380227  0.07258683
 -0.0915713  -0.11794014 -0.05526049  0.16217472 -0.24474779 -0.28053185
 -0.02525527 -0.09385797 -0.01272407  0.25074294 -0.24299796 -0.25469348
  0.27369082 -0.1901814 ]
[-0.17053787  0.15716664  0.01746035  0.14241664  0.20681828 -0.14336525
  0.08485374 -0.09026791  0.13768743 -0.11559596 -0.18803877  0.03711045
 -0.05003323  0.11029655 -0.0510481   0.12997706  0.0305961  -0.02523137
 -0.29633898  0.04110658]
[ 0.22939594  0.3409276  -0.23066829  0.1655286   0.29991925  0.07032044
 -0.13793334 -0.05190189 -0.22400843 -0.04754997 -0.3702894   0.16941485
  0.24322711  0.23466934 -0.22556779  0.21144617 -0.03691398 -0.28219342
 -0.20839536 -0.34328657]
[ 0.27522078 -0.00667355 -0.288234    0.2052207  -0.18798634 -0.09945586
 -0.02240516 -0.2349097   0.35407308 -0.10720295 -0.24903825  0.36141118
  0.0766287  -0.09200211 -0.30765453 -0.12644841 -0.04543125 -0.07897084
  0.1808563  -0.03791768]
[ 0.28820238 -0.08633048 -0.08581256  0.18751714  0.06304297 -0.10258754
  0.06631577  0.10175513  0.01602009  0.18567164  0.16316883  0.3207501
  0.17432949  0.01852106 -0.28258187 -0.16510633  0.23431343 -0.2929338
 -0.21864103 -0.2809379 ]
[ 0.04480445 -0.18551995 -0.138139   -0.10395434 -0.03421872 -0.2685423
 -0.04686512  0.11625822  0.26504567  0.2069637  -0.33890545  0.06190633
  0.27336428 -0.03518932 -0.24837111 -0.20517902  0.14604948 -0.14509876
  0.27721557 -0.05853486]
[ 0.27872097  0.29087847 -0.23097053 -0.22041093 -0.23847598 -0.202131
 -0.06762368 -0.15419152 -0.17135738 -0.35691017  0.1505384  -0.22959888
  0.14684865 -0.03799373  0.1832805  -0.23799984  0.23813963  0.17382179
 -0.07775767  0.17837185]
[-0.21377127  0.24738519  0.19153665 -0.02059892  0.22000995 -0.1785453
  0.13975969  0.1504909   0.03893044  0.23950557 -0.08522023  0.20196298
  0.11100914  0.33864656  0.07268608 -0.11600138 -0.18336815 -0.07519835
  0.20497653 -0.44927526]
[-0.25139314 -0.10915702  0.27264822  0.0727004   0.29800746  0.01700426
  0.22271407 -0.07670653 -0.05328675 -0.00467789 -0.24768981 -0.28000972
  0.0417289  -0.15582114  0.07410803  0.08854655 -0.10281914  0.2566197
  0.16887021 -0.01429407]
[-0.13456406  0.06345908 -0.08664215 -0.28498027  0.29428312 -0.29980043
 -0.13859189 -0.19566369 -0.20580196 -0.06808438  0.00408956  0.18740252
  0.22432192 -0.22822088 -0.11338249 -0.20334056  0.14302674 -0.18287097
  0.06139572  0.13411514]
[ 0.17329086 -0.01499043 -0.22576985 -0.2508272  -0.2753491  -0.37736085
  0.16839612  0.08445776 -0.29476926  0.45103496  0.1882337  -0.00465466
 -0.2281898  -0.00308162 -0.08184045 -0.13134558 -0.2173928  -0.18200617
 -0.04445933 -0.11022273]
[-0.27790725  0.25261927  0.13699834  0.3369941  -0.10391625 -0.3502837
  0.27461505 -0.0171206  -0.16209038  0.11221138 -0.24931975  0.10672822
  0.1624586  -0.18339077 -0.03896331  0.23556688  0.20809017  0.10719318
 -0.13884726  0.09798049]
[-0.22246256 -0.17598328  0.2836905  -0.06389021 -0.05425154  0.1624915
  0.06955005  0.30197766 -0.232082   -0.22649205  0.31837398 -0.3216994
 -0.3784586  -0.19662528 -0.14408544  0.05535536 -0.24574189 -0.28157014
  0.06050744  0.20931855]
[ 0.2949532  -0.3053363  -0.08407262 -0.28597298 -0.05432405  0.08372691
 -0.05716372  0.22484404 -0.12338436  0.21779105 -0.14720482  0.06896637
 -0.21274905 -0.16863187  0.31550154  0.18203507  0.05811651  0.01695224
  0.30961406 -0.19226827]
[ 0.03618833 -0.23609383 -0.07053729 -0.37075964  0.13781062 -0.10388842
  0.1859862  -0.22852144 -0.39739802  0.01949298 -0.13664888 -0.40906984
 -0.14729254 -0.11304367  0.04856067 -0.0724758  -0.07101803  0.09464252
 -0.08448717 -0.00305862]
[ 0.25137088 -0.05171456 -0.16285037  0.28154352  0.00037047 -0.09989756
  0.09248779 -0.10423278  0.18051769  0.0695932   0.09243647  0.11550448
  0.12241933  0.14354199 -0.27377346  0.08867746  0.08963168  0.07069813
  0.01685834 -0.12807368]
[-0.05533443  0.01218132 -0.07070877  0.11908625 -0.01805414  0.06372511
 -0.00830544 -0.01963158 -0.0152941  -0.04302312  0.00401893  0.06535814
  0.12944621 -0.03669873 -0.0096707  -0.01955348  0.00195935  0.01450051
 -0.10635658  0.07473998]
layer 5 Activation
tanh
layer 6 Dense
20 1
[-0.18477823]
[-0.3556987]
[-0.31297985]
[0.15409338]
[-0.0339058]
[0.00666211]
[0.0179714]
[-0.08712254]
[-0.11843441]
[-0.01885588]
[0.05674377]
[0.24281669]
[0.37002006]
[0.0033626]
[0.31401983]
[-0.01338116]
[-0.30279306]
[-0.00060466]
[-0.13966693]
[-0.00667616]
[0.05201942]
