layers 7
layer 0 Dense
20 20
[ 0.22601672 -0.20114984 -0.03697523  0.30379242 -0.19342114 -0.2891562
 -0.11136493 -0.11334191  0.24369071  0.5301171   0.2266501  -0.2225195
  0.38220137 -0.25693816  0.15399903 -0.01927493 -0.07520691 -0.03485473
  0.32275623  0.40146497]
[ 0.30285397  0.18680216 -0.33007282 -0.07080109  0.11800355  0.1099945
  0.3447263   0.12814757 -0.09752508  0.15217888  0.1721537  -0.01701197
  0.2815051   0.4721215   0.54954195 -0.35361764  0.18493134 -0.03729134
  0.31106526 -0.01624   ]
[ 0.30299222  0.3392532  -0.24641727  0.11380911 -0.4353522   0.20892088
 -0.20210926  0.35294142 -0.4023644   0.11216549 -0.03476817  0.32939336
  0.00611998  0.23400256  0.03473095 -0.18887152  0.11441634  0.4166363
  0.53668034  0.20553342]
[-0.09443702 -0.51220006  0.08416541 -0.2830734  -0.1337475  -0.21862257
 -0.3673166   0.08399738 -0.05748442 -0.17154017 -0.30566186 -0.42425156
 -0.19507177  0.25304765 -0.22840965  0.09139238 -0.33088306 -0.16903116
  0.0584053   0.3774149 ]
[ 0.27550396 -0.01262547  0.4058908  -0.0489247   0.07418703  0.07664722
 -0.01599356  0.31759948  0.07374874 -0.2278602  -0.15756176  0.33536646
  0.23717496  0.2854293   0.23793124 -0.2090943  -0.04182874 -0.4831109
  0.14112595  0.06780268]
[-0.03976988 -0.32317775 -0.05258325  0.37257886  0.02528027 -0.12660919
 -0.2686226  -0.09132685  0.19341652 -0.14802442  0.16672678 -0.16100204
  0.25639042 -0.34102517 -0.14091069 -0.24556492 -0.21483931 -0.27519095
 -0.16832916  0.05990036]
[ 0.34249598 -0.17199942  0.10204601 -0.00910875 -0.1716309  -0.5082316
  0.24411106  0.2924316   0.20327021  0.08170899 -0.00492015 -0.1957435
  0.25296086  0.09444828 -0.75602555  0.18862574  0.15393724  0.09695645
  0.03637495 -0.40042   ]
[-0.20394315  0.2782034  -0.00785044  0.46074146 -0.16568409 -0.3029765
 -0.1276963  -0.48760036  0.11752648 -0.33483496  0.24462916  0.12100737
  0.17229174 -0.08533212 -0.21867558  0.22750807  0.457386   -0.11532322
  0.0286754  -0.28132266]
[-0.23195699 -0.00956152 -0.2123591   0.03546206 -0.23809601  0.2345288
 -0.19711936 -0.01132257  0.26601154  0.23827016  0.5075515  -0.02447136
  0.09475753 -0.25023943 -0.10207278  0.35339916 -0.10343377 -0.20106573
 -0.33512947  0.07734107]
[ 0.3579428  -0.44266692 -0.34543604  0.15748394  0.22470807  0.4439055
  0.4176208   0.04059269  0.37656116  0.01619449  0.15397903 -0.2548605
  0.38429236  0.04743282  0.285641   -0.43166152 -0.04967852 -0.39747342
  0.3204474   0.16568664]
[ 0.35464936  0.1334103   0.58975387 -0.09048403  0.09323255 -0.06349194
 -0.61788315  0.28308555  0.2069859  -0.04204008  0.15369017  0.39612672
  0.30987066 -0.00695067  0.32884997 -0.31377473  0.13062254 -0.48372912
 -0.6167788  -0.23514627]
[ 0.14175054 -0.0417631  -0.40616402  0.1574382  -0.07361972  0.1158847
  0.17855066 -0.46841356  0.45034695 -0.02356055  0.07127815 -0.5174533
  0.04556641  0.18040825  0.03791445 -0.15291391  0.10115936  0.49037695
 -0.3474478   1.337442  ]
[ 0.121562    0.11497677 -0.11633548 -0.23057987  0.09931397 -0.33097818
 -0.16280054  0.02416662  0.3232429  -0.10538755 -0.06395722 -0.3511889
  0.24422531 -0.3392795  -0.30227986  0.16382475 -0.00913886  0.14600337
 -0.22699931 -0.03660902]
[ 0.01676273 -0.38015488 -0.1080841  -0.49490088  0.28076375  0.42933086
  0.39675644  0.258144    0.23738362  0.18169251  0.33869573 -0.28667274
  0.27247325  0.37285495 -0.1957609  -0.27982777  0.13774382 -0.39099598
  0.20051154 -0.09822863]
[ 0.6902427  -0.4228338   0.15380238  0.10807968  0.22576098  0.12052017
 -0.09109787  0.5944213   0.503379    0.36562142  0.34237957 -0.3691723
  0.58912885  0.3846279  -0.32533175  0.15626344 -0.10767794 -0.16540119
 -0.07495736  0.12432629]
[ 0.04468746 -0.1620353   0.31907624 -0.0012087   0.09507971  0.3240387
  0.20818591  0.02839402  0.57080525  0.20863532  0.41396815 -0.16111207
  0.02385244  0.20027378 -0.6773209  -0.0203601   0.01831603  0.15341046
 -0.8754745   0.9739356 ]
[-0.33276606  0.0795892   0.11306322  0.09071547 -0.50760156 -0.5849183
 -0.27022308 -0.14303125  0.41267383  0.29868427  0.43262148 -0.12955704
  0.02580236  0.04612962  0.09991074  0.21890508 -0.02230013 -0.46619546
  0.24245118 -0.01610239]
[-0.8450212   0.30236465  0.6787976   0.3027289   0.0649556  -0.6782425
 -1.011095   -0.56557447 -1.0296096  -0.36372715 -0.05479688  0.20525107
 -0.78778803 -0.41875225 -0.4279323   0.98929185 -0.55885977  0.425955
 -1.4904926   0.15357178]
[-0.70853955  0.05967271 -0.5032461   0.25553674 -1.0023746   0.20939419
  0.26772738 -0.6057433  -0.99157214 -0.01356427 -0.5788122   0.12448452
 -0.6655642  -0.17322658  0.5764272   0.05221038 -0.32628378  0.8506842
  0.98994815 -0.22341041]
[-0.47874206 -0.10760234  0.02397172  0.52779007 -0.4565487  -0.600125
 -0.56655073  0.09607851 -0.18529858  0.3281858   0.43519014 -0.26015577
 -0.26159793 -0.3673501   0.0232741   0.03104989  0.0778507  -0.18863161
  0.7934759  -0.59719944]
[ 0.04570483 -0.06765252 -0.04537743 -0.11965094  0.04308867  0.01778696
  0.00160943  0.04182477  0.04151653 -0.02463576 -0.11761328  0.01574144
  0.00780843  0.06991977 -0.10792827 -0.09601705 -0.10104775 -0.01064555
  0.11321433  0.07592501]
layer 1 Activation
tanh
layer 2 Dense
20 40
[-2.8299329e-01 -2.1807203e-01  1.3505314e-02  2.1840554e-01
  1.3192043e-01 -3.4951034e-01  1.1031182e-01  2.5347972e-01
 -2.3666051e-01 -2.3896955e-01  1.8528663e-01 -4.2037854e-01
  2.3009346e-01 -1.3076944e-02  6.1651938e-02  2.9613486e-01
  4.7191200e-01  5.4552159e-03 -5.6426734e-01  3.9957055e-01
  1.9598104e-01  9.7411662e-02  2.9590869e-01 -3.5974962e-01
  3.9633896e-02  2.4255849e-01 -1.2034443e-01  1.4192121e-01
 -3.4069601e-01  1.3354135e-01  2.8480855e-01  1.2305784e-01
 -2.3136972e-01 -5.0921044e-03 -1.7469318e-04 -1.2980542e-01
  8.7692820e-02 -2.2879903e-01  2.4480610e-01 -2.3218406e-02]
[-0.05958833  0.30442777  0.16358921  0.12694654  0.12663403 -0.25698915
  0.30112296 -0.35339594 -0.24801569  0.169283    0.15135989  0.40168473
 -0.24457447 -0.3100684  -0.17810366  0.12719513 -0.02130387 -0.14088655
 -0.02423301 -0.07246301 -0.1014186   0.03568015 -0.18953636 -0.032207
  0.27183917 -0.17516726  0.11630756  0.3889253   0.16376378  0.20191464
  0.14819586  0.23261915  0.21774508 -0.0453282  -0.00214256  0.30226797
  0.08563843  0.1288189  -0.15042078 -0.28081265]
[-0.23877488 -0.17986278  0.26111126  0.39329448  0.36463836  0.05646085
 -0.15982115 -0.3029179   0.03789761 -0.33917242  0.089806    0.2970145
 -0.22640277  0.19452323  0.27400616 -0.07357208 -0.15090823  0.09478141
 -0.22319625  0.08345035 -0.2787815  -0.04477516  0.05122319  0.0525145
 -0.01380522  0.09975903  0.1671831   0.2115955   0.27293077  0.04609086
  0.05388018 -0.21719518  0.06393939 -0.27431417  0.09394019 -0.16995086
 -0.3355392   0.47170004  0.06619919 -0.23304002]
[ 0.5129038   0.16384909  0.3805597   0.03712283 -0.01165613  0.3382193
 -0.39528048 -0.04774531  0.49362475  0.21059269  0.19436657  0.32192636
  0.05337794  0.18770756 -0.00905672  0.18354854 -0.12790978 -0.01078117
  0.26026556 -0.33576936  0.15090589  0.11274139  0.03078904 -0.0766352
  0.1942772  -0.16369818 -0.15207759  0.01314316 -0.16058865  0.24904016
 -0.05086868 -0.04012292  0.13805589  0.00078363 -0.12994832  0.07818959
  0.03346128  0.18704653 -0.51708865 -0.22893566]
[-0.210938   -0.30939627  0.26664546  0.08001494 -0.15829863 -0.34852612
  0.25279176  0.09354401 -0.33866453 -0.48175856  0.03665219 -0.10406926
 -0.20590153  0.3398374   0.16907403 -0.05365295  0.16501322  0.20804143
 -0.2091258   0.01183384 -0.51118326 -0.01200859 -0.08178671 -0.2811432
 -0.2684028   0.362685    0.23017472  0.20433043 -0.21069725 -0.12058346
  0.12517533  0.07928424  0.3401613  -0.45248878  0.28352615 -0.04327798
 -0.2641702   0.4059961   0.17809547  0.24893032]
[-0.51565135 -0.3283785  -0.19066112 -0.04042079  0.2984245  -0.5453497
  0.19448611  0.22429882  0.30340376 -0.19063748  0.2874447  -0.03062068
 -0.16799992 -0.10104911 -0.582736    0.14886227  0.37907618 -0.04202602
  0.14073192  0.49610364 -0.15976942  0.17535728 -0.09494966 -0.0868145
 -0.00793767  0.3935567   0.23643096 -0.05359051  0.10052158  0.20113796
  0.13491648  0.3282243  -0.05495992 -0.3234184   0.27318743 -0.3220419
  0.37295213 -0.20485273 -0.05321882  0.13667995]
[-0.24010216  0.1573386   0.1555165  -0.02292164  0.08743431 -0.61560833
  0.3553101   0.30736363 -0.04499711  0.03335978 -0.17310852 -0.28369775
  0.13919409 -0.19463898 -0.52888316  0.04864503  0.18786663 -0.13618463
 -0.03398189  0.26639926  0.05579648  0.29760897 -0.18752088 -0.33643448
 -0.01259644  0.2441469  -0.20112582 -0.1567142   0.14227067 -0.24228889
  0.2792612   0.29979664 -0.22267152  0.16230345  0.34200183 -0.16688237
  0.01503218 -0.15677908  0.3477687   0.19529904]
[-0.19469534 -0.05999736 -0.0544901   0.22518238 -0.10200548 -0.22503768
 -0.32432762  0.14759299  0.0378344  -0.20379801  0.21881452 -0.4366831
 -0.263659   -0.10965986  0.30392382  0.22111933  0.23406857 -0.09043845
 -0.15488555  0.17877677 -0.25756645  0.34965858  0.17073792 -0.26902133
 -0.20943062  0.27288786  0.21608424  0.43900853 -0.18666692  0.06803334
  0.4429029  -0.12751389 -0.1763628  -0.2286538  -0.34620333 -0.00999425
  0.06740023  0.29975876  0.4346105  -0.12882856]
[ 0.23971416  0.16824861  0.24302171 -0.24234226  0.1515281   0.13147986
 -0.25222638  0.24386585 -0.04604442 -0.06499172  0.06813112 -0.12915269
 -0.1897707  -0.29682282 -0.4258415  -0.20365593  0.41699168 -0.6625631
 -0.55809116 -0.04884626  0.43151662 -0.15629478  0.1744513  -0.3789253
 -0.05410788  0.41976652 -0.42211396  0.28565806 -0.06407085  0.27409467
  0.28093377 -0.3567079   0.14613584  0.2080687  -0.10061505 -0.11670289
  0.18289368  0.04734308  0.33059585 -0.26146293]
[ 0.26793817  0.02859231 -0.04000628  0.03963469  0.1764716   0.1567609
 -0.3816025  -0.14454281  0.21207653 -0.13766609  0.12003476 -0.38879612
  0.18760592  0.01203082  0.15340672  0.29035908 -0.13034123 -0.4340297
 -0.03999108 -0.05232964  0.5100254   0.01713987 -0.20032874 -0.12178743
  0.09077279  0.08844686 -0.28376767 -0.07110856 -0.11334688  0.13243766
  0.24983498 -0.22396249  0.29176334  0.43229955  0.00498676 -0.01491033
  0.03444446 -0.36854374 -0.07176599 -0.20640275]
[-0.01135283  0.06933496  0.3660905   0.09481961  0.01571688 -0.08791819
  0.17629558  0.22433603  0.4791668   0.16084488  0.17810155  0.2174413
 -0.11338907 -0.20063327 -0.07347225  0.22321829  0.38947117  0.05246387
 -0.07227962  0.29440895  0.42580974 -0.218487   -0.0419926   0.05582536
 -0.25264817  0.07959899  0.13295089  0.07402555 -0.1568506  -0.01078168
 -0.3292819  -0.12862772 -0.31138533  0.29046473 -0.3720462   0.3632115
 -0.18332     0.13337585 -0.3217504  -0.2702259 ]
[-0.05576713 -0.04659836  0.34894443 -0.1721665   0.27328452 -0.10075852
  0.18638958 -0.20806527 -0.44694036 -0.24606994 -0.04329244  0.2617772
 -0.20787066  0.14164731  0.16110209  0.02976613 -0.10336423  0.2191842
  0.14438422  0.09832443 -0.44444534 -0.05443676  0.08616209  0.05932181
 -0.03156828  0.3615451   0.29765147  0.22685818  0.01586622  0.2110345
 -0.30188408  0.25680497  0.04077388 -0.16125008 -0.13364084  0.03673501
 -0.15915203  0.44694287  0.06789392  0.03633733]
[-0.12623231 -0.31894854  0.305139   -0.1581571  -0.24796593 -0.05435678
  0.06821039  0.22568184 -0.04497761  0.01964763  0.10735436 -0.05651714
  0.18848951  0.0819716  -0.14110216  0.1871813   0.17823425 -0.48544872
 -0.05636018 -0.11277515  0.3885681  -0.06631109  0.20798488 -0.19641131
  0.07654265  0.32925665 -0.2909925   0.11587472 -0.412831   -0.12013805
  0.09164684 -0.06930766 -0.2137563   0.1607145  -0.4673668  -0.01138797
 -0.11128797  0.25089428  0.03652877  0.19522305]
[-0.3124628   0.15809575 -0.1815667  -0.11083427  0.29517624  0.01843586
  0.02393763 -0.18511604 -0.01519163 -0.14180355 -0.17321955 -0.38631365
  0.20121029  0.17883629  0.0007823   0.36862013 -0.020635   -0.27253202
 -0.4188182   0.20617421  0.13198914  0.0281744  -0.1842574  -0.19197543
 -0.25673017  0.36029273 -0.12096861 -0.20922628 -0.01218417  0.02085428
 -0.00810276 -0.04097489  0.14962412 -0.16751692  0.1188391  -0.30655077
 -0.24175087 -0.29995853  0.50158733  0.2616889 ]
[ 0.43857428  0.06060934  0.19708143 -0.3275464   0.19057444  0.14618194
  0.28578708 -0.17121181  0.0141064   0.0611878   0.01985528 -0.13126984
  0.2094384  -0.23782134 -0.18441941  0.22863944 -0.0589929   0.33846697
  0.08971675  0.12343213  0.28860554 -0.13975668  0.28575605  0.05919826
 -0.21516177 -0.28283235 -0.01521048  0.1768456  -0.13849185 -0.01361218
  0.11095087  0.11773061  0.0369812  -0.36849397 -0.12442005  0.01880991
  0.2766514  -0.3170122   0.30517954  0.09324502]
[-0.3798617  -0.04551977  0.3452315  -0.48950595  0.20968284  0.31280354
  0.17802663 -0.19639643 -0.0401669   0.13575277 -0.01279215  0.5878146
  0.11965055  0.31397384  0.37917054 -0.40638965 -0.1526207   0.04475146
  0.43957573 -0.0541659   0.2817758   0.04094152  0.06001925  0.07731759
  0.17716661  0.03285271  0.18889517 -0.33305466 -0.19674857  0.18621178
  0.16476758  0.2634092   0.08355338  0.03472252  0.1962619  -0.01229882
 -0.03311307  0.49858546 -0.08238943  0.0556996 ]
[ 0.06524564  0.06287213  0.18313648 -0.10969397 -0.07826367  0.22284797
  0.32604453 -0.1326323   0.13284992 -0.258568   -0.11726403 -0.1868317
  0.08117322  0.13139234 -0.27482197  0.30150244  0.15141992  0.2831537
 -0.12508024 -0.05771765 -0.10853444  0.11402573 -0.3722129  -0.13100626
  0.34701568  0.15467517  0.25611356  0.233554   -0.3090102   0.07851514
  0.0426935  -0.04842931  0.04905264  0.02125669 -0.22662275  0.30103958
  0.30003908  0.11518989  0.12644121  0.1317216 ]
[-0.17641808  0.0541837  -0.31706113  0.08315017  0.01993401 -0.06991557
  0.02865905  0.07382707 -0.22345985 -0.27109176 -0.36128926  0.19329056
 -0.01200445  0.21512304  0.01340232  0.00878961 -0.35386583  0.21071215
  0.39191192 -0.2699861   0.20343055 -0.15750214  0.10170036  0.00817412
 -0.25428396 -0.2343777   0.146245   -0.32149908 -0.14208062 -0.12533998
 -0.306474    0.22743906  0.23679169 -0.17561565  0.530766   -0.34877005
  0.30823871  0.01128694 -0.34579036  0.06212854]
[ 0.3868184   0.07311217 -0.31664255 -0.33231148  0.18647042  0.23839508
  0.02654912 -0.17630255  0.2498608  -0.03970613  0.24892303 -0.63186806
  0.04213639 -0.1312762  -0.30411297  0.37925082 -0.41779694  0.36544698
 -0.06772668  0.29390645 -0.11098526 -0.3469083   0.3902623   0.3827951
 -0.10415435 -0.42239022  0.05575653  0.13048081 -0.08150485  0.32574415
  0.31131646 -0.07062047 -0.06005381 -0.36274943 -0.32875666  0.4654262
 -0.1381626  -0.7366936  -0.01563336 -0.3595484 ]
[-0.00927504  0.19197772 -0.0402753  -0.0542824  -0.05412293 -0.01192548
  0.01942494  0.4145804   0.1793761   0.21100011 -0.05874746  0.00815392
  0.16276336 -0.03907289  0.16902483 -0.13819772  0.25407213 -0.71926516
  0.24566014  0.31947652  0.29132652  0.29126525 -0.13295229  0.01079554
 -0.03328855  0.13100493 -0.01253945 -0.13046141 -0.17300078 -0.13433713
 -0.03783697 -0.18978804  0.11047318  0.42496094  0.18391371 -0.33940756
  0.31160992  0.13757837 -0.447829   -0.08999009]
[-0.13565545  0.00842264 -0.13247833  0.102777   -0.02966314  0.0481139
 -0.06426501  0.01329048 -0.10656271 -0.00415041  0.03984082 -0.2518364
 -0.02305331  0.03846715  0.15867     0.09300743 -0.03770651 -0.04787917
  0.07453586 -0.04667481 -0.00979123 -0.00587111  0.0373332  -0.03068079
 -0.09041253 -0.07231503  0.03679886 -0.03495954  0.09205762 -0.03765267
  0.00787178 -0.08702476  0.05938886  0.08196206  0.09760725 -0.1556866
 -0.03009434 -0.1876736   0.18940262  0.03989686]
layer 3 Activation
tanh
layer 4 Dense
40 20
[ 0.26514634  0.31527442 -0.00054059  0.1816063  -0.10486449 -0.02325854
  0.1957736  -0.31704947 -0.02546635  0.09399904 -0.0106677   0.13940296
  0.38869965 -0.31930193  0.07996359  0.19957076  0.34053728 -0.14329945
 -0.00715509  0.33202323]
[ 5.34262042e-03  5.02391279e-01 -4.02365834e-01  1.08337745e-01
 -3.51565853e-02  8.07607248e-02  3.39553714e-01 -2.92435408e-01
 -1.05415799e-01  5.38786650e-01  4.04687133e-04  1.72519758e-01
 -5.82199097e-02  4.99442071e-02 -1.68336913e-01  2.37970762e-02
  1.41895533e-01 -2.57288903e-01 -7.64681026e-02  7.77987316e-02]
[ 0.3314652   0.3241236  -0.00585421 -0.10404463  0.23464125  0.35891572
 -0.19691531 -0.11634972 -0.2700234   0.09752849 -0.2573032   0.04103758
 -0.16455822 -0.34606758  0.20749459  0.2888605  -0.21844082 -0.11523115
 -0.1752197  -0.02363085]
[-0.22042531  0.04589799  0.221272    0.32606274  0.18351011 -0.14478903
  0.09255433  0.24456199 -0.02556807 -0.22132616 -0.00807961  0.01932638
  0.22082092 -0.01408342 -0.0241098   0.070574   -0.09031906 -0.07928016
 -0.2719685   0.28373513]
[ 0.21638082 -0.14031193  0.0835968   0.09075741 -0.10535516  0.07243506
 -0.18867409 -0.04106065  0.03516991  0.21427022  0.0205406  -0.18166168
 -0.08751912  0.11972564  0.1776091  -0.12519425 -0.14903271  0.1193961
 -0.20982967  0.13087144]
[ 0.13195506 -0.06307757 -0.07702174 -0.31369153 -0.17558783 -0.06987403
  0.5886129  -0.0599796  -0.12076653 -0.18924473 -0.19077612 -0.14127684
  0.36257416  0.26719958 -0.06043337  0.25409305  0.38033396 -0.28034505
 -0.14438227  0.25220442]
[-0.14390779  0.20451526 -0.01876181  0.22026005 -0.04559485  0.14738336
  0.2563653   0.0759809   0.30034336  0.31057394  0.19175811  0.2567828
 -0.32038406 -0.0741996   0.04391044  0.2785795  -0.26511395  0.18917511
  0.20398226 -0.49931243]
[-0.35746998 -0.36186078 -0.19387138 -0.26115465 -0.00370502  0.14860255
 -0.3532553  -0.0986967  -0.02534879 -0.15982352 -0.07515137  0.21516456
  0.3122317  -0.17191291  0.3838931  -0.37815675 -0.23988307  0.18263899
  0.20744954 -0.4530061 ]
[ 0.14475031  0.31138474 -0.00484493 -0.34396192  0.2383519   0.20141944
 -0.06598447 -0.14893532  0.04074117  0.24923654 -0.08002213 -0.27484205
  0.3070666  -0.18256524 -0.20346193  0.06059687 -0.04529338 -0.003599
 -0.17235745 -0.08617796]
[-0.14762154  0.33826324 -0.07708498 -0.29472426 -0.0830099   0.27853674
  0.20345512 -0.3559756   0.1343412  -0.04627538 -0.01545658 -0.00554136
  0.06813458 -0.3378772  -0.2866103  -0.0661694   0.19936949  0.15085542
  0.12910724 -0.34385785]
[-0.06144452 -0.0304832   0.15814036  0.17685089 -0.30018958  0.21500197
 -0.24639216  0.11490844  0.18680811  0.04319009 -0.34682524 -0.1260788
  0.11127458 -0.05926985  0.07731526 -0.2323387   0.00354067 -0.07678892
  0.1614902  -0.13558875]
[-0.03856879  0.19676298  0.01469109 -0.08543144  0.14733316  0.11115444
 -0.15220696 -0.32846466 -0.16076174 -0.10314685  0.44928232  0.07564683
 -0.06569383  0.1817104   0.22703907  0.25300467  0.01406681 -0.09847777
 -0.1466179  -0.37037563]
[ 0.0080374  -0.25684077 -0.16594543 -0.02487075  0.09042824 -0.07964218
  0.13711074 -0.0059115   0.0890243   0.3372755   0.2389744   0.15538234
  0.3514724  -0.025398    0.09011886 -0.1998446   0.09668759  0.22526775
 -0.09162463  0.10362659]
[-0.22853105  0.0166221   0.11084997  0.08601993 -0.13572437 -0.06705031
 -0.12455408 -0.02207732 -0.11923765 -0.29447395 -0.09306008  0.10955943
 -0.14698786  0.09807869 -0.33178493 -0.13529296 -0.21039486  0.2203573
  0.02079686 -0.0702266 ]
[-0.13402693  0.12276298 -0.16918369  0.23620749 -0.2369234  -0.12619253
  0.24967934  0.32993743 -0.31368086 -0.13945474  0.08982101 -0.41181183
 -0.0527063   0.29943788 -0.1287688  -0.15277822 -0.08882157 -0.00808009
  0.20287263 -0.02266993]
[ 0.04845933 -0.23673317  0.01416729 -0.14573671 -0.01279096  0.3136847
 -0.0910657   0.21743605  0.34737933 -0.03274696 -0.18076085  0.16998854
  0.3172301   0.05827178 -0.17050484  0.33352444  0.11275024  0.16638047
  0.09190388  0.35917914]
[-0.26868084  0.19783099 -0.2662688   0.11292748 -0.23201361  0.2816069
 -0.27394912  0.26011708 -0.05712779  0.02490383 -0.16656908  0.11195911
 -0.01246955 -0.35491395  0.45648006  0.14948158 -0.00707606  0.25727308
 -0.06895255 -0.2035481 ]
[ 0.24796303 -0.08604754 -0.23847075  0.20405373  0.25034297 -0.12320432
  0.01894012  0.01170348  0.33189487  0.27367392  0.19392551 -0.1656303
 -0.17387816  0.38048896 -0.02711898  0.15616995  0.08124068 -0.01552567
 -0.23105341  0.28264463]
[-0.15608521 -0.19625504 -0.23434135 -0.25366604  0.37731075  0.15254961
  0.50551534 -0.2709411   0.09765724 -0.04996492  0.25844735  0.02635274
  0.05382403  0.41452077 -0.40700454  0.1624937  -0.00425066 -0.01672342
  0.0939829  -0.16942115]
[-0.11299715  0.16397545  0.10075657  0.25543317 -0.23036653 -0.0132678
  0.03506589  0.01686909  0.32687864 -0.12348839 -0.12417717  0.24965398
  0.26177555  0.13989955  0.294064   -0.12678729 -0.20444542 -0.16308858
 -0.05788323 -0.02896414]
[-0.04471991  0.31552252 -0.31974572 -0.38744622 -0.04083964  0.11023028
  0.10824141 -0.16719516 -0.14475842 -0.14342834 -0.0804183   0.19252361
  0.37166047 -0.28474104 -0.15501085 -0.02083242 -0.01157638 -0.14227305
  0.03100851 -0.34762332]
[ 0.08233112 -0.3874249  -0.07463728 -0.04223876  0.02179185  0.17553401
 -0.24345192  0.11824383  0.02094776 -0.15659723  0.24382156 -0.04074655
 -0.00401451 -0.0133609   0.11278355 -0.25573945 -0.31162167  0.0368723
 -0.14332123 -0.303496  ]
[-0.09103331 -0.01704944  0.19905001 -0.19031087  0.02978482 -0.07152718
 -0.02955711  0.13990083 -0.03478567  0.13838492 -0.34978625 -0.01747544
  0.22285935  0.11691176 -0.18569903 -0.05631651  0.22554162 -0.3028829
  0.00985627  0.08243307]
[ 0.21178676  0.23409213 -0.02042259  0.20433629  0.25854945  0.15765901
  0.17756306 -0.06780765 -0.05239048  0.14749123  0.06171861  0.23509373
  0.01544326  0.3693792  -0.25402704  0.1146093   0.21856219 -0.02512355
  0.10450461  0.16200893]
[ 0.38448167  0.11022115 -0.07651752  0.17961393 -0.1737571   0.01975727
  0.17694171 -0.1910103   0.06379046  0.17598833  0.07385442  0.09056482
 -0.1142449  -0.19396506 -0.16081724 -0.09554137 -0.17847408  0.30457458
 -0.02008125 -0.07966264]
[-0.01475472 -0.27292737 -0.12116884 -0.3264136  -0.30176452  0.31279173
 -0.1349598   0.3276275   0.24878815  0.0425356  -0.06914557 -0.03667752
 -0.30683643 -0.07749745  0.11190111 -0.00959891 -0.24704497  0.18574885
 -0.21316786  0.05817092]
[ 0.13208286 -0.00405078  0.02440759  0.41628224  0.13401714 -0.24389967
  0.32257625  0.33221796  0.18594804 -0.3433611   0.3472801   0.11745731
 -0.09691332  0.13716413  0.08952761 -0.18043938  0.02981172 -0.28566834
  0.20463185  0.19245963]
[ 0.2575733   0.07464157 -0.11120354  0.32549655 -0.11280415 -0.21377502
  0.278685    0.3334141  -0.12930687 -0.22905938 -0.20587222  0.15005827
 -0.04098441 -0.2531101   0.10228614  0.25496998 -0.16284284 -0.18308412
  0.2168384  -0.19872388]
[-0.3063094  -0.14899036 -0.36228865  0.1533261   0.2602298  -0.17935523
  0.05319114 -0.21715252  0.16937612 -0.15756567  0.14839719  0.31050175
  0.02984644  0.02664793 -0.14221668  0.25414366  0.06168995  0.21115693
  0.09833311  0.03793945]
[ 0.18371122 -0.05759131 -0.25833637  0.0394217   0.10930043  0.05410494
  0.22774567 -0.10028651 -0.10137726 -0.0359441  -0.25746477 -0.0610789
 -0.11152278  0.00236167  0.08425178 -0.04525603  0.12063003  0.05262685
 -0.22276156  0.24188037]
[ 0.27063167 -0.17412305 -0.07923284 -0.13999352  0.05778427  0.33638963
 -0.16879101  0.14144315  0.04507094 -0.13365532 -0.26040077  0.1725789
  0.29108542  0.03975824 -0.12395356 -0.05626221 -0.31454682 -0.04075145
 -0.27081317 -0.04894585]
[-0.08415491  0.03644354  0.0479126   0.00602217  0.13869296 -0.13919725
 -0.20099574 -0.09913293  0.23275056 -0.06269082  0.21020597 -0.04942299
 -0.3119373   0.22469994  0.20695801  0.21190202  0.01303152 -0.17496155
  0.15036063 -0.31448594]
[-0.13183573 -0.155899    0.02744493  0.29425517  0.41657883  0.03586639
 -0.01558121  0.23222283 -0.21434806  0.08854343 -0.04721748  0.06447991
  0.02318564  0.11577526 -0.14193745 -0.24587102  0.08281097 -0.29468608
 -0.18195301  0.14262222]
[-0.2321901   0.25916007  0.18110518 -0.17684066  0.17722422 -0.0669015
  0.23708355 -0.07880474 -0.25781056  0.28200895 -0.09320903 -0.15517566
  0.16297084  0.11293007  0.39235574 -0.23644394  0.12391482 -0.20308656
  0.03134076 -0.36198008]
[-0.35907766 -0.19093916  0.11359467  0.13435462 -0.07676703 -0.19683057
 -0.16106595 -0.29499993 -0.31959495 -0.09463308  0.3897857  -0.0916172
 -0.40751314  0.16785708 -0.03496717 -0.24322945 -0.09367962 -0.34702218
 -0.1777164  -0.12605189]
[ 0.40042716  0.02559724  0.19070233  0.08571007  0.16972615  0.0330721
  0.44643426  0.08692812  0.29292095  0.19812213 -0.2895547   0.07390786
  0.04601924  0.04436137  0.19168152  0.26121113  0.39153156 -0.12732226
  0.12345489  0.18278685]
[-0.2468037   0.24824725 -0.01615756  0.14312403  0.29613847 -0.13948467
 -0.00135331 -0.3074967   0.1869192  -0.29876262 -0.04060281  0.28407836
 -0.17419408 -0.26769006  0.03389651 -0.14298984 -0.09740195 -0.18346825
  0.08175571 -0.32985568]
[ 0.06579966 -0.17394398  0.17866315  0.06347614  0.15340637  0.13025624
 -0.29135114  0.12588327 -0.27441484  0.26958779  0.33480185 -0.12172614
 -0.31308186 -0.02449872  0.27253467 -0.0128255  -0.4208711   0.01954168
  0.17165352 -0.2764649 ]
[-0.15697728 -0.33398992 -0.265835   -0.11974818 -0.3349672  -0.01953914
 -0.20597953  0.2171243   0.12319873 -0.16699435 -0.17092995  0.07994766
 -0.19801441 -0.08259128  0.12650809  0.15454121 -0.05880738 -0.2548117
  0.25874025  0.0924437 ]
[-0.25450224 -0.17015053  0.09960071 -0.00825892  0.11687232 -0.22396949
 -0.23211843  0.26089486  0.1669553  -0.15865028  0.3657107  -0.07164016
  0.06754507  0.23647806  0.04036405  0.21194297 -0.31487027 -0.24864288
 -0.2680995  -0.07847913]
[-0.09555306 -0.06922644  0.00426832 -0.02117909 -0.04292359 -0.0446344
  0.00747833  0.0990321   0.02921689 -0.03122402 -0.04215459 -0.0393007
  0.06651878  0.06210095 -0.06343749 -0.04531485  0.02679396 -0.01860537
  0.01138329  0.07850978]
layer 5 Activation
tanh
layer 6 Dense
20 1
[0.25353718]
[-0.20003356]
[-0.00581754]
[0.23953405]
[-0.20050395]
[-0.15254521]
[0.03717326]
[0.19101267]
[0.11817264]
[-0.07985207]
[-0.35327205]
[-0.11537086]
[0.277003]
[0.30543464]
[-0.2991723]
[0.03068396]
[0.31779352]
[0.00744075]
[-0.00697003]
[-0.2560892]
[0.02311748]
