layers 7
layer 0 Dense
20 20
[-0.11830822  0.33066034  0.18443373 -0.22672617 -0.3409313  -0.06008668
  0.21910493  0.50450915 -0.10929795 -0.1618736  -0.2541343   0.05089495
 -0.07547684  0.4501662  -0.03357839  0.23572123  0.16784112  0.30840522
  0.29883373 -0.49699676]
[-0.7105546  -0.30454257  0.14908129  0.64129305 -0.33375666 -0.09029841
  0.36964747  0.37150106 -0.3820266  -0.15725742 -0.00366247  0.0260304
 -0.23783402  0.3325431  -0.15025182  0.6952648   0.46924374 -0.25719354
 -0.33492175 -0.37463143]
[-0.40314263 -0.43271804  0.23356369  0.6670295   0.30961612 -0.44955754
  0.6289584   0.41746578 -0.1108459  -0.28448507 -0.3326734  -0.10279889
 -0.66679573  0.34853736 -0.50656104  0.7229034  -0.03744193  0.25394797
  0.07703744 -0.42623344]
[-0.53668505  0.11928532 -0.19135216  0.293175    0.13109791 -0.4326483
 -0.27069473  0.12159898  0.01202419 -0.26822534  0.09161612  0.2184476
 -0.09833547  0.4447794  -0.19466239  0.25436655 -0.09390157  0.37303475
  0.13009208 -0.18178996]
[-0.07695809  0.03601205 -0.19166    -0.0499864  -0.10107744 -0.1996035
  0.3577452   0.6862317   0.12244748 -0.25478122 -0.41360226 -0.04872693
 -0.062967    0.46968246 -0.12599654  0.11816696 -0.09048391 -0.2680121
 -0.32103103 -0.31741452]
[ 0.7291041   0.1050241  -0.26634684 -0.2939621  -0.43848494  0.00305216
 -0.37725502  0.18947408  0.10769677  0.38023382  0.19821304  0.17673804
  0.6221527  -0.423614    0.40443936 -0.07685305 -0.15074667  0.1797803
  0.15887906  0.40604392]
[ 0.04345653  0.6214688  -0.17265515 -0.8030037  -0.37210912 -0.13157465
 -0.41922405 -0.46903783 -0.07673129  0.37556422 -0.13383701 -0.37511122
  0.26596907 -0.44288945  0.4234486  -0.34027636  0.18571693  0.3346373
  0.3016015   0.34937766]
[-0.30357447 -0.5435991  -0.2870477  -0.09173038 -0.22514336  0.33246213
  0.00686928 -0.12040037  0.13463575  0.27501997  0.03126625 -0.0206517
 -0.01907986 -0.34969988 -0.08699495 -0.24900281 -0.7776452  -0.0109065
 -0.16005105  0.11745402]
[-0.10578749  0.48187596 -0.70988446  0.43736547 -0.15391755 -0.29146665
 -0.31308547  0.7864349   0.6036751   0.2644293  -0.28803653 -0.37022957
  0.40465602  0.688202    0.14858718  0.04210535 -0.3961957   0.55633074
 -0.09674152 -0.59606946]
[ 0.13953973 -0.4531483   0.02772162 -0.3065295   0.3358362   0.05762755
 -0.3630052  -0.7882414   0.05835344  0.27432513  0.32044488 -0.0228631
 -0.21967041 -0.77341545 -0.13497525 -0.1140784  -0.3094924  -0.5596085
  0.06419582  0.32600236]
[ 0.47210702 -0.14466515  0.18344788 -0.35000592 -0.00352919  0.1630778
 -0.33532977 -0.08816811 -0.05097948 -0.14927465  0.0711364  -0.28368893
  0.03614417 -0.5938462   0.1366977  -0.53557414 -0.35969847 -0.21987826
 -0.04661645 -0.0968129 ]
[-0.7898387   0.46649107 -0.5457799   0.7186527  -1.1818599  -0.12120845
  0.53747004  0.49487233  0.22310731  0.5517708  -0.18362647  0.28919533
  0.09292585 -0.07737508  0.09955166  1.1167907   0.01265807  0.5161229
  0.06696554 -0.50052243]
[-0.12198017  0.48188543  0.49135014  0.21682262  0.28909096  0.46809182
  0.00710706  0.12143769 -0.4211798  -0.2671647   0.07095243  0.56690824
 -0.12311705 -0.54766625  0.21425724  0.5545954   0.12629057 -0.17686225
  0.20218104 -0.1896692 ]
[-0.27810073  0.16391556  0.35422724  0.44032428  0.18044701 -0.35299683
  0.14377932  0.41276056  0.32609645 -0.6575214  -0.3352085   0.09251098
 -0.1863549   0.5394105   0.4329983   0.572376    0.47167078  0.04234089
 -0.1401726  -0.12299355]
[ 0.05552396  0.05074245 -0.35939527  0.5114366  -0.09932509  0.1473015
  0.01579299  0.7429464   1.1862088  -0.04409387  0.34406063  0.30996466
  0.3992887  -0.40312615 -0.44896078  0.06575122  1.4008471  -0.16049533
  0.03125251 -0.2597739 ]
[ 0.33386964 -0.14620821 -0.20168343  0.00738992 -0.05057077 -0.06134602
  0.4497045  -0.10015064  0.65176713 -0.10752829  0.18148896  0.34710586
  0.2350133   0.26045015  0.37603125  0.837584   -0.2930065  -0.34981117
  0.21707231  0.30212215]
[-0.20141755  0.05166091  0.16927476  0.28890896  0.0493901  -0.11141867
  0.08341064  0.32754737  0.14393063  0.21542266 -0.36387855 -0.4815895
 -0.01827814 -0.06811287 -0.0088081   0.46579328  0.6364393  -0.3485807
 -0.07026214  0.03848071]
[ 0.04341863  0.03700424  0.18576905  0.45138186 -0.47143415 -0.11887924
  0.3817917   0.08061974  0.14362133 -0.15854214  0.2440898   0.83497715
  0.5304482  -0.4652546  -0.6863798   0.16593732 -0.5263902  -0.23728235
 -0.06619167  0.2545012 ]
[ 0.09596588 -0.04472742 -0.14340948  0.15305439 -0.37066856  0.15897614
  0.24237053 -0.15743697 -0.5098586  -0.696486   -0.16222528 -0.09375445
 -0.70318115  0.4461916   0.83136106  0.06529497 -0.62031114  0.420915
 -0.23136814 -0.05965107]
[-0.2679284  -0.33324644 -0.3864206   0.0446277   0.05223588  0.44925886
 -0.719918    0.01553275  0.0461187   0.4159085   0.0472863  -0.12019651
  0.04241638  0.0974576   0.07392205 -0.5674262   0.02815687 -0.04101842
 -0.3728017   0.40048426]
[ 5.6191403e-02  1.3062181e-01 -1.3934748e-04 -1.1270827e-01
 -8.6766884e-02 -2.0524637e-01  3.4423992e-02 -1.1644428e-02
 -1.1213631e-01 -1.4757903e-01  3.8068540e-02  2.3474535e-01
 -2.4854761e-01  1.2671003e-02  2.1693689e-01  2.7012190e-01
  2.6610601e-01  3.9916702e-02  9.5606513e-02 -4.6478704e-02]
layer 1 Activation
tanh
layer 2 Dense
20 40
[ 0.09809315 -0.07074427 -0.17102064  0.1800634   0.08840233  0.19045836
  0.12682992  0.12761377 -0.08308856  0.29889515  0.08876454 -0.18538024
 -0.08011296 -0.18032973  0.06113588 -0.09514649  0.10251661 -0.1588524
  0.41948318  0.18902953 -0.17634721  0.13722442 -0.36154023 -0.13766725
  0.15065894  0.08859819 -0.4407702  -0.14458579  0.02891021  0.10837926
 -0.09412456  0.12212448 -0.03585378  0.03528141 -0.20820408 -0.08803783
 -0.18934518 -0.12791823  0.16761073  0.09211534]
[-3.2714364e-01  2.4470890e-01 -4.2604218e-04 -1.9962808e-01
  6.8520844e-02  2.6984483e-02  7.5589135e-02  2.1488373e-01
 -6.0462165e-01 -4.9203027e-02  8.3039604e-02 -2.7308619e-01
  2.5058333e-02  4.4000298e-02 -2.1209681e-01  1.6260466e-01
  1.6645333e-01 -3.2055387e-01 -7.2937332e-02 -2.8355289e-01
  1.6354229e-01 -2.7883482e-01 -3.1612897e-03  1.7042111e-01
  1.3516608e-02 -2.4331199e-01  4.2241126e-01 -4.4782791e-01
 -2.1698762e-01  2.3746029e-01  1.0324630e-01 -3.2175657e-01
 -1.1249246e-01  2.0221971e-02 -1.5573773e-01  2.6306480e-01
  1.4935341e-01 -1.0508458e-02  2.4747981e-01  1.4395860e-01]
[-0.08858411 -0.15115495  0.01906988 -0.00273092  0.1155437   0.05619664
 -0.1860796  -0.05360633  0.05696432 -0.11739091 -0.092058   -0.08606533
  0.01759658 -0.22105648 -0.09288885  0.24466017  0.09640277 -0.01126268
  0.19600023  0.05304523 -0.21834962 -0.16355288 -0.20495439 -0.16508706
  0.13744172 -0.38101816  0.02032567 -0.3054437  -0.18360111  0.10895707
 -0.22195768  0.0078929  -0.10469496 -0.19574139 -0.03829656  0.391645
 -0.06489967 -0.05599428 -0.14083254 -0.15669893]
[ 0.09580094  0.07232584 -0.07024845 -0.26615763 -0.19449575 -0.11046917
  0.2029389  -0.21776162  0.11607734  0.00858738  0.03107145  0.02717478
 -0.04751322  0.30967143 -0.15408848  0.15906453  0.00657478 -0.15921335
 -0.10371898 -0.04865382  0.14082637  0.21817532  0.36794436  0.32831398
 -0.05591609 -0.1076654   0.5233572   0.17946401  0.14272587  0.13140287
 -0.05934192  0.15878963  0.27033553  0.01918545  0.09084363  0.08882577
  0.04242042  0.15269154  0.20794232 -0.05493382]
[ 0.02857111  0.05240897 -0.07716119  0.14839958  0.17666689  0.2285646
  0.1406956  -0.00189984 -0.34400684  0.09454589 -0.0046711  -0.1513398
 -0.26958832 -0.26181674 -0.07936634  0.03726234 -0.1558718   0.2139046
 -0.10948741  0.176369   -0.23648462 -0.2680899   0.15971443  0.01786263
  0.1645026   0.10747447 -0.28026894 -0.14920875 -0.15017001  0.03122271
  0.0241467   0.07963265  0.13722657 -0.1162235   0.16512614 -0.08835049
 -0.14226352 -0.13682418  0.09501924  0.18153283]
[ 0.0583766  -0.54519916  0.09809006  0.4800109   0.00874005  0.266172
  0.34073564  0.15430889  0.19045962 -0.15143637 -0.16360134 -0.08192623
  0.03153937  0.15008286  0.0010949   0.15837228 -0.00304396  0.11049311
 -0.06403774  0.02930967 -0.07938213  0.18571578 -0.06604006  0.07344811
 -0.18010613  0.3362267  -0.17370994  0.5449729   0.02688467 -0.3735028
 -0.19032791  0.20772828  0.2973593  -0.1600174  -0.17022589 -0.25423688
  0.12182519 -0.05363173 -0.07729596  0.01835714]
[ 0.05475107  0.24962945 -0.10741194 -0.02263585  0.04779543 -0.06885437
  0.01129689  0.16788751 -0.06981272 -0.06112083  0.13231766 -0.06064168
  0.03839936  0.1359772  -0.12199956  0.32410192 -0.34712163 -0.35033503
 -0.03911266 -0.03625297 -0.21052414 -0.16580448  0.15122588  0.2595366
  0.24558523  0.12364122  0.02817283  0.06472907 -0.04657235  0.28360826
 -0.1096689   0.00852416  0.24074373  0.11379064  0.25453103 -0.08949736
 -0.13524126 -0.01495194 -0.15521821 -0.18347932]
[-0.1568057   0.4491773  -0.08409223 -0.46805662 -0.39350516 -0.10111854
 -0.0482146  -0.23904754 -0.31656975 -0.08286193 -0.07016379 -0.2693316
  0.41970864  0.42562747  0.07945069  0.5416539  -0.06077208 -0.14861694
 -0.31252533 -0.18947095  0.0098098  -0.25336504  0.5919626   0.44344312
  0.14736243 -0.19756052  0.39916852  0.18907805 -0.20743887  0.7945503
 -0.01813085 -0.08718631 -0.49101943 -0.26618317  0.3109486   0.302084
 -0.21923095  0.35816917 -0.47705615 -0.07608655]
[-0.30962765  0.1824777   0.16530867 -0.37002724  0.04675609  0.03504834
  0.22789721 -0.5117727  -0.47351405 -0.09924569 -0.2511449  -0.02008789
 -0.38096312  0.38568893  0.20556907  0.3430483  -0.25527257  0.16349132
  0.24618508 -0.09882009 -0.2618783   0.26802802  0.44382462 -0.15328313
 -0.2780038  -0.22792946  0.38657656  0.7983927  -0.06813736  0.31646663
 -0.07263815  0.23115069 -0.03487777 -0.13985327 -0.47974664  0.36377794
  0.20876497 -0.3261834   0.16168681 -0.19623871]
[-0.21604463 -0.34205726 -0.05736547  0.25409907  0.08170065 -0.38116652
  0.09365082  0.06133943 -0.09001832 -0.08728258 -0.13900523  0.23562959
  0.13522904 -0.04937927  0.13482781 -0.025459   -0.10397901  0.24389991
 -0.20049308  0.07547044  0.01001601  0.17988542 -0.05711224 -0.42566666
 -0.12139439  0.16543517 -0.16082652  0.49914536 -0.01570604 -0.20684479
  0.04021046 -0.12421812 -0.00667246  0.1832741  -0.33266637 -0.12244356
 -0.01704646  0.02791533  0.17921238 -0.15049285]
[ 0.06921887 -0.51332194  0.17737995  0.37217143  0.03932259 -0.12404498
 -0.21191207 -0.09024059  0.10922486 -0.04156154 -0.03225759  0.24540101
 -0.45752588 -0.08985607  0.34235704 -0.07903909 -0.00922355  0.0424352
 -0.23980092 -0.1952072  -0.02630717  0.1545383   0.12582901 -0.08109567
  0.20363195  0.17036414 -0.34867483 -0.271966    0.14947192 -0.21856306
  0.22141543  0.06255496 -0.15987405 -0.21160333 -0.00628058 -0.5620674
 -0.02108513  0.13669872  0.01186439 -0.19600877]
[-0.07261553  0.18097839 -0.16276966 -0.1063091  -0.38533345 -0.10917428
 -0.0475775  -0.15990904  0.02409668  0.25168934  0.21378183  0.07707967
 -0.07643031  0.13874999 -0.39089802  0.0304692   0.16988792  0.11411974
 -0.307031    0.09905339 -0.07470597 -0.24601611 -0.05574216  0.25770736
  0.11528647 -0.00566896 -0.06470369 -0.51476765  0.1542034   0.08574012
 -0.16720727 -0.2669089   0.12960312 -0.36532167  0.17223887 -0.11715802
 -0.21247104  0.25614592 -0.0612304   0.10533138]
[ 0.24767227  0.20087454  0.05011453  0.17355372  0.22842638  0.15736485
  0.01013001 -0.04706068 -0.27281678 -0.27779132  0.01614542 -0.2559093
 -0.28584227  0.01211112 -0.06209029  0.0841009  -0.11574147  0.12317531
  0.03235105 -0.04234214 -0.16072145  0.13390231  0.05403987 -0.26451954
 -0.01688777 -0.24304552 -0.09554651  0.38398084  0.22645412  0.17018929
 -0.21729904 -0.2603999  -0.10444355  0.19086477 -0.07500852  0.08108731
  0.05351913 -0.14348084  0.3484514   0.08169506]
[ 0.11180793  0.17118497  0.14782897  0.00588051  0.04128332 -0.19699733
  0.28758883 -0.47389957 -0.22599043 -0.17931134 -0.17627014  0.03907316
 -0.10090157  0.43531018  0.03200234  0.6157173  -0.4509169   0.10205749
 -0.22853296  0.16555358  0.23888433  0.21879555  0.08969551  0.00438023
 -0.00876704 -0.1447494   0.19845967  0.11678869 -0.0042791   0.2680477
 -0.24734686  0.44967955 -0.37955835  0.28745157  0.23749676  0.4384123
  0.06597274  0.04370394 -0.2653383  -0.3437144 ]
[-0.27475032 -0.02809614 -0.04731602  0.2073408  -0.06478316  0.1748656
  0.1435697   0.08048395  0.09484178  0.22778992 -0.19875146 -0.16652894
  0.33533216 -0.25804725 -0.02133624  0.06963157 -0.34008098 -0.14876282
 -0.00528688 -0.20696491 -0.21446249  0.0561057  -0.21244135  0.09261087
  0.40100712 -0.15188052  0.07355114 -0.04180827  0.15544233  0.17961653
 -0.17398186 -0.15477455 -0.12884142  0.21133672  0.200727   -0.06226855
 -0.07186916 -0.11253267 -0.04553981  0.11881936]
[-0.01037392  0.13519561  0.08030575 -0.14432897 -0.28352883  0.00513475
 -0.1533837  -0.05483794  0.06976923  0.03028937  0.12137711 -0.18427105
  0.29645768  0.02770948  0.03216733  0.37167323 -0.15297613  0.20135279
 -0.04240758  0.04680693  0.22783662 -0.18224534 -0.09933795  0.28252164
  0.17225632  0.07510597  0.37431738 -0.3620646  -0.07428144 -0.14843549
  0.17145039  0.15364167  0.09102514  0.10504094  0.35934928  0.22144784
  0.04049512  0.06232144 -0.31703922 -0.15803838]
[-6.70486540e-02  2.22532138e-01 -1.61865756e-01  9.54052957e-05
 -3.50571603e-01  2.17132613e-01 -1.34297282e-01  4.08396900e-01
  2.90752202e-01  4.77749288e-01  1.27763167e-01 -2.40327179e-01
  5.37588894e-01 -3.24722975e-01 -1.74461797e-01 -1.09761782e-01
  5.31771719e-01 -4.95948374e-01  4.53217402e-02  2.51509041e-01
  8.05164203e-02 -2.78123647e-01  1.14872135e-01  3.05987030e-01
  8.31491426e-02 -3.06013465e-01  1.21696964e-01 -9.96271908e-01
  1.20129287e-01  1.81770623e-01  6.65612370e-02 -1.37542740e-01
 -9.88425910e-02  4.08726605e-03 -2.52382588e-02  1.89097956e-01
  1.01106521e-02  4.22298223e-01 -1.60072982e-01  4.51890901e-02]
[-0.22391263  0.13095276  0.04700205 -0.21922499 -0.05933783 -0.16920505
 -0.1218098  -0.10502759  0.08356822  0.1840025   0.0604806   0.0042854
  0.1858887  -0.23977372  0.05512675  0.22005647 -0.39589813  0.02016932
 -0.25637028 -0.12586671  0.00494705  0.2270272   0.25403383  0.1232748
 -0.23523208 -0.12689333 -0.1809862  -0.2527376  -0.10597521  0.20385754
  0.04017379 -0.1231176   0.16414644  0.18617748  0.22840196 -0.2523699
  0.00892322 -0.03109988 -0.27727574  0.13872042]
[-0.25744373 -0.28515464 -0.09729949 -0.06063238 -0.29786998 -0.09517521
  0.19499153 -0.20078601  0.3785089  -0.07536175 -0.12939724  0.03794302
  0.12584075 -0.05575123  0.0636268  -0.06596364 -0.03176041  0.24939987
  0.09712479 -0.127643   -0.10631495  0.06051534 -0.13292173  0.0852466
  0.12395376  0.17830035 -0.16706087 -0.4247401  -0.01645181 -0.01919284
  0.186409   -0.04354388 -0.05538943 -0.17880683  0.07902613 -0.09906898
 -0.04278246 -0.06544925 -0.15587398  0.01649285]
[ 0.38993686 -0.32532576  0.23776181 -0.01265066 -0.0897638   0.18114144
  0.13855073 -0.30197993  0.3539845   0.1531219  -0.14089273  0.13219064
 -0.36792168 -0.11035555 -0.135432   -0.16799624  0.05888284 -0.00536877
  0.22594947 -0.01584663  0.18577217  0.31182593  0.17943515 -0.348153
  0.10438289  0.48096982 -0.44856787  0.08188192  0.06067881  0.02245695
 -0.03094842 -0.06391981  0.02113143  0.00991535 -0.0506294  -0.35427317
 -0.09488726 -0.24200308  0.0858368   0.03141288]
[-0.0408528   0.04643122 -0.0426475  -0.01388016 -0.08241087 -0.01272108
 -0.09335426  0.12341268 -0.07576245  0.11715774  0.0754533  -0.03620736
  0.04066701 -0.07159684  0.04296718  0.00529431  0.04635675 -0.11409205
  0.01310768  0.07508624  0.02846067 -0.23217946 -0.10616505  0.07158496
  0.01758633 -0.07599683  0.0254839  -0.6379252  -0.03616277  0.08695876
  0.110668    0.00439052 -0.20023437 -0.0191098   0.10233094  0.06315541
 -0.03916102  0.04866194 -0.06969661 -0.0485379 ]
layer 3 Activation
tanh
layer 4 Dense
40 20
[-0.04683825  0.25497326 -0.4341273   0.24039881  0.20529962  0.06883784
 -0.01889222  0.10516464 -0.13376409 -0.07879027 -0.04282234  0.08954105
  0.18839224 -0.11932649 -0.14073083 -0.21291445  0.25891745  0.05487213
 -0.17825636  0.00949204]
[ 0.07121882  0.04647067  0.391315    0.28124142 -0.259122    0.19965753
 -0.1257127  -0.08735894  0.12466192 -0.23933749 -0.00364474  0.03183449
  0.22610454  0.00311562  0.40894288  0.24959573 -0.02387067 -0.05152132
  0.03526374 -0.21175022]
[ 1.0660094e-03 -2.1187693e-02 -7.4695039e-05  2.9882637e-01
  6.1150230e-03 -1.0379348e-01 -7.9495005e-02  6.2301476e-03
  1.8986454e-02 -1.2422709e-01 -3.5198994e-02  4.3935108e-04
  9.4435610e-02  2.4241465e-01  4.0616080e-02 -2.3924413e-01
 -1.2982872e-01  5.1304311e-02 -2.2886734e-02 -4.3832917e-02]
[ 0.07242098  0.16129084 -0.42439577 -0.26976404  0.38360932  0.04976379
  0.13974981 -0.21272638  0.11961643 -0.17248316  0.2420159  -0.14822204
 -0.39139664  0.09398458 -0.51487786 -0.32421342 -0.03951118 -0.01773565
 -0.09977862  0.02817288]
[ 0.22892228  0.2101538   0.12837538 -0.04716112 -0.00685832  0.06290781
  0.03213432  0.17804678 -0.20575511  0.07245193 -0.12756462  0.12001175
  0.06486969  0.02694474 -0.14253658  0.11662063 -0.00873553 -0.12041323
  0.04558369  0.24813214]
[ 0.02035363  0.23182401  0.18732212  0.28555548 -0.07530991  0.07107349
 -0.09182945  0.06634707 -0.10400761 -0.07809495  0.10688829 -0.08904574
 -0.18704998  0.09353582 -0.11040313 -0.20440766 -0.08000109  0.18851899
  0.09043109  0.1785196 ]
[ 0.21481691  0.10942531 -0.04098626  0.01359675 -0.03345792 -0.11071282
 -0.05959214 -0.08934095  0.08952124 -0.09493645  0.05699911 -0.05943328
  0.03165222 -0.1778599  -0.10539513 -0.04585375 -0.11000942  0.1761179
  0.02521369 -0.06740092]
[-0.11248521 -0.12023485 -0.09615225 -0.05084264  0.13083562  0.01431327
  0.0426757   0.06101876 -0.169749    0.20301142 -0.1605541  -0.06162049
 -0.2706092  -0.03628346  0.00333872  0.06803951  0.07544475  0.1027911
 -0.14716467 -0.04873056]
[-0.05949639  0.09874793 -0.3063278   0.23630822  0.39109904 -0.00234926
 -0.3098402   0.03481004 -0.20420472 -0.22434892 -0.24380016 -0.03444561
 -0.32864845  0.12298962  0.11786378 -0.3497547   0.05445616  0.24416137
  0.25461745 -0.03123493]
[-0.21192731 -0.06807575  0.02245948  0.01505033  0.13087907  0.17121162
 -0.14492404  0.11981516 -0.183971    0.20449741 -0.3009599  -0.32781538
 -0.1190532   0.12099142  0.24742915  0.16155533  0.00629397  0.05143537
 -0.0238871  -0.00550851]
[-0.14215556  0.0026268   0.09398083  0.01462947 -0.09408151  0.01015532
  0.02940972 -0.04006988 -0.16308384 -0.02208754 -0.00491673 -0.05400549
  0.1867266   0.0866284   0.28947893  0.41385323  0.09700882 -0.28062403
 -0.06609344 -0.04524004]
[ 0.02896663  0.05611552 -0.28592235 -0.14151661  0.36372718 -0.08744463
 -0.19077352  0.02742707 -0.1019426   0.28522968  0.05343811  0.03729722
 -0.23819317 -0.14602773 -0.2006546  -0.22967584  0.04817244  0.13503867
 -0.10990792  0.13347924]
[-0.3746689  -0.18017994  0.15404586 -0.06918518 -0.28334808 -0.04696884
  0.2885459   0.16254845 -0.20815615 -0.15975088  0.08944058  0.4269324
  0.17760472  0.05418175 -0.11331943  0.36042947  0.2509771   0.06007022
 -0.18480608 -0.3350624 ]
[ 0.4263363   0.21423525  0.10104998  0.32782283 -0.12467003 -0.05974478
  0.1315521   0.0218634   0.5657372   0.04584384  0.01482111  0.3409806
  0.16460243 -0.08651386 -0.03403674  0.30979177 -0.30184397 -0.12131017
 -0.20208615 -0.11072198]
[ 0.07578234 -0.09812263 -0.07209682 -0.16691281  0.10438228 -0.03878481
 -0.08034571 -0.01301522  0.01293607  0.12416157 -0.13688517  0.20880857
 -0.18678465 -0.12141153 -0.20696555 -0.3185475   0.12263208  0.1081087
 -0.15912193  0.17481816]
[ 0.17516062  0.36997348  0.2873282   0.06477297 -0.27888358 -0.129266
 -0.15069975  0.32241407  0.4776748  -0.02291681  0.12877321 -0.10948253
  0.28498188 -0.04154651  0.02766259  0.30865276  0.05569834 -0.03288774
  0.03791558 -0.11525001]
[-0.23948964  0.05439774 -0.16577347 -0.1772865  -0.12865667  0.38319698
  0.3412269   0.03417139 -0.30789408  0.06142042 -0.02883952 -0.00396534
  0.06976256  0.04717416  0.179478   -0.33243284  0.11668287 -0.23353727
  0.0264753  -0.17345238]
[ 0.16325277 -0.09495745 -0.05945926  0.05762564 -0.07271862  0.12022778
 -0.05178498 -0.16016597 -0.1699894   0.19934261  0.08012789  0.09259415
 -0.01172489  0.03676721 -0.29823074 -0.2854278  -0.03053433  0.05840795
 -0.11139824  0.36494508]
[ 0.00851377  0.00214004  0.05925782  0.27983695 -0.131979   -0.34010446
  0.12280381 -0.03223368 -0.4773974   0.11494289 -0.12774241 -0.10873935
  0.26927546  0.05737563  0.14203039 -0.01660745 -0.09043194 -0.22515465
 -0.00455789  0.19104147]
[-0.06084514 -0.05699025  0.12069255  0.11445472  0.00124936  0.02764698
  0.12173942 -0.06814568  0.16081126 -0.10379989  0.16705577 -0.1993522
  0.0223637   0.17053773 -0.10932171 -0.19961135 -0.02722994  0.05305814
 -0.04497651  0.42739972]
[-0.08341461  0.27463257  0.11742314 -0.11497609 -0.01283371 -0.12405981
 -0.02714822 -0.00802283  0.09128255 -0.12336817 -0.20080185 -0.02784522
 -0.17338493  0.31383362  0.18583092  0.17629336 -0.08606554 -0.05063977
 -0.08547491 -0.20569567]
[ 0.11410046 -0.1467195  -0.13447496  0.0743425   0.17778815  0.07010459
  0.02021873  0.21578951 -0.17745143  0.06564061  0.17822598 -0.13086762
  0.04728849 -0.3173969  -0.2452406   0.05221014 -0.24233265  0.08854543
 -0.0308222   0.03822031]
[ 0.11229409  0.11816655  0.10194766 -0.00574089 -0.12695494 -0.07547039
 -0.05071887  0.12470418  0.42898038  0.14083499 -0.18711545 -0.20489343
  0.02249235  0.17653672 -0.2134727  -0.19614318  0.05327493  0.1658561
  0.17383984 -0.21691453]
[-0.23839405  0.06626175 -0.02203559 -0.2903985  -0.13067716  0.00846923
 -0.07267559  0.16152127  0.419396    0.02181523  0.06693514 -0.04414194
 -0.12197579  0.0137539   0.16279228  0.380291    0.03768794  0.10652335
  0.005641   -0.49917814]
[-0.26397803 -0.06958891 -0.2879734   0.24757913  0.08004118  0.02562424
 -0.16828817 -0.06598841  0.06790993  0.01587814 -0.10949838 -0.16792478
 -0.17671955 -0.16364145 -0.11251287 -0.21528725 -0.12460451  0.21099402
 -0.12934776 -0.08372898]
[ 0.1856513  -0.1178623  -0.136203   -0.13346727  0.23423247 -0.05370636
 -0.1453263   0.03783765  0.05449374 -0.08154403  0.19782336 -0.1335669
 -0.294363   -0.16313978 -0.27812758 -0.15143111  0.04474925  0.08562978
 -0.11082462  0.23455109]
[ 0.16067396  0.25539103  0.31360835 -0.07842203 -0.33053666  0.29541123
  0.19984515  0.0626189   0.24612977 -0.02925754  0.10146234 -0.12870225
  0.12605923  0.12881817  0.28822875  0.08061395  0.04938567 -0.23453648
 -0.10283637 -0.19788776]
[ 0.6786432  -0.15169445 -0.02020908  0.32400024 -0.17263953 -0.16393594
 -0.03717931  0.15667813 -0.04093345  0.17582648 -0.31234646 -0.23922771
  0.10050008 -0.32720035 -0.27947748 -0.09356726  0.09937572  0.05642888
  0.1954628   0.22543538]
[-2.4077605e-04  2.2465687e-01 -9.5330007e-02  7.7856116e-02
  2.0616847e-01  3.7019111e-02  7.8343824e-02 -3.5151190e-01
 -6.6877812e-02 -9.0086743e-02 -7.6655567e-02 -1.2647532e-01
 -2.0133038e-01 -1.3281405e-01  8.3802454e-02 -3.2879353e-01
 -1.5021688e-01 -1.8614131e-01  5.8821652e-02  1.3771240e-01]
[ 0.11965811 -0.10731374  0.36257127  0.13479215 -0.25695226 -0.01284374
  0.08550559 -0.0281838   0.21349457 -0.01326198  0.05488423 -0.13220368
  0.3624691  -0.14116839  0.28530198  0.26037014  0.10010292  0.19256169
  0.10117824 -0.13536617]
[-0.1272208  -0.14015214 -0.13053983 -0.2191647   0.08441868  0.04946608
  0.06638011 -0.27583444 -0.0215152  -0.14667268 -0.09748479  0.0834517
  0.07212885 -0.05599916  0.08476635 -0.0656376   0.08846058 -0.0577421
  0.02943458  0.1491615 ]
[ 0.10723373  0.10526824  0.10635448 -0.02300958 -0.03557955  0.08811349
  0.07577407 -0.11025921  0.20277168  0.05933493  0.06849499 -0.00896646
  0.35874227 -0.02978316  0.03217988  0.49703655 -0.13201378 -0.15866494
 -0.19297141  0.2703853 ]
[ 0.04256999 -0.07570142 -0.17347781  0.27604738  0.22802961 -0.11923146
 -0.08734663 -0.11629443 -0.22599249 -0.06799392 -0.06356072 -0.11703575
 -0.36783487 -0.16994318 -0.28052667 -0.00190603 -0.0481196  -0.1820039
 -0.04601214  0.06238674]
[ 0.15291914 -0.07595805  0.04458779  0.04071656 -0.02789952 -0.26506057
 -0.02780562 -0.21752435 -0.2023866  -0.05511446  0.16849037 -0.14641827
  0.02580954 -0.24074773  0.07490153  0.07460096 -0.24076474 -0.19227432
 -0.01891095 -0.14413103]
[-0.31483153 -0.15403095 -0.23815952 -0.05535994  0.05359636 -0.00626526
 -0.08141106  0.01604085  0.27448615  0.17793024  0.20000714  0.05777344
 -0.02196396  0.20303993  0.01448454  0.17362143  0.03136882 -0.15501267
 -0.15360156 -0.1820269 ]
[-0.04160521  0.02367355  0.4122315  -0.2522212  -0.4686151  -0.13620591
  0.0245482  -0.02865581 -0.00635914  0.20364258 -0.1645727  -0.13523245
  0.17740741 -0.05098174  0.19023328  0.05215955  0.01926645  0.11526852
 -0.11781957  0.00763562]
[ 0.0549093   0.05615932 -0.04265648 -0.10329089  0.02672008 -0.02724284
 -0.08465195 -0.11776553  0.1422674  -0.13097662 -0.24991262  0.22306103
 -0.24097891 -0.01520752 -0.23851444 -0.21222933 -0.16952462 -0.05565076
  0.1228056  -0.09700964]
[-0.32331827  0.16971035 -0.14200628 -0.15480828 -0.05631439  0.20705855
  0.06437536 -0.01901288  0.22474079 -0.07250845  0.11987489  0.07247876
 -0.20514852  0.02559956  0.10979692 -0.26630512 -0.24692965 -0.22645673
  0.21095341 -0.4261938 ]
[ 0.25931692  0.12147532  0.0752406  -0.11279306  0.01408273 -0.05546213
  0.10510745 -0.08714391 -0.23731762 -0.31638345  0.05082724  0.08950971
  0.00729497 -0.17314853 -0.104756   -0.04322828 -0.12713481  0.00816817
  0.04996087  0.23214847]
[-1.23105884e-01 -6.08712994e-02 -9.86297950e-02  2.03786910e-01
  6.33109808e-02 -2.54331559e-01 -2.19529233e-04  1.46583561e-02
 -3.05398166e-01  1.57466739e-01  3.05596623e-03 -1.34099200e-01
 -2.90466428e-01  7.31886998e-02 -1.98460937e-01 -1.09824784e-01
  6.32251427e-02  1.05634063e-01 -1.47598207e-01 -1.50898308e-01]
[-0.18532982 -0.07408409 -0.04792479 -0.07152484  0.09166916 -0.00332357
  0.04332911 -0.10206796  0.13327172 -0.00647761  0.11440664  0.06680489
  0.01823653  0.3047565   0.00396643 -0.0215361  -0.02456868  0.07333896
 -0.03456318  0.13617463]
layer 5 Activation
tanh
layer 6 Dense
20 1
[0.07268634]
[-0.0080266]
[-0.18965378]
[0.03167345]
[-0.2282799]
[0.00626916]
[-0.0056038]
[0.00409786]
[0.09567609]
[3.9927312e-05]
[-0.00604106]
[0.00890969]
[-0.1004549]
[-0.01761348]
[0.07957248]
[0.06650377]
[-0.00340946]
[-0.00648581]
[-0.00983003]
[0.15861441]
[0.08530261]
