layers 7
layer 0 Dense
20 20
[-0.14752336 -0.2597669   0.02767727  0.10188892  0.33405522  0.30449513
  0.02699594 -0.04084972  0.2940784  -0.09935991  0.43074524 -0.24518625
 -0.16967155 -0.12624432 -0.08317911 -0.2247067  -0.24867475 -0.28332597
  0.21545252  0.32293814]
[ 0.19478948 -0.20722921  0.06728049 -0.38491392  0.12744334 -0.14638153
 -0.07091771 -0.5358412  -0.19778807  0.05650845  0.41292566 -0.3487035
  0.22769493  0.14137837  0.1739321   0.65257114 -0.11832332 -0.3891824
 -0.22357707  0.38545817]
[ 0.3588202  -0.5266883   0.21130238 -0.08275219  0.11652661 -0.00259185
  0.228619   -0.55405056  0.00301089  0.15894598 -0.0724471   0.05440018
 -0.4202699   0.0031205   0.29812697  0.37528947 -0.2709017  -0.22939125
 -0.24473068  0.43959385]
[ 0.01159415  0.31580207  0.01252454 -0.07371403  0.2585842   0.14947282
  0.2774655  -0.23975551 -0.14745069 -0.03281708  0.01992908  0.25463718
  0.10171632 -0.19488358 -0.06104396 -0.12142307 -0.13660887 -0.31594276
 -0.2576971   0.10098295]
[-0.20680076  0.08528209 -0.14478515 -0.38185814 -0.15669096 -0.44660982
 -0.57425797 -0.09648065  0.1609323  -0.01525326 -0.18965755 -0.58742285
 -0.59635407  0.04677567 -0.564088   -0.1392892  -0.1318728  -0.09072388
  0.07398719  0.2780986 ]
[-0.40080813  0.44486818  0.3085458   0.21537746  0.18528308  0.3659691
 -0.21670152  0.17578042 -0.19042191  0.1951523   0.15187296 -0.08245151
  0.07680731  0.05792804  0.06891403 -0.06553012  0.02623135 -0.18137142
  0.21985783 -0.5582525 ]
[-0.16801532  0.6109457   0.11324701 -0.4262337   0.26253068  0.41301328
 -0.06367202  0.02380124  0.33974144  0.4663721   0.04811386  0.03066163
  0.2599584   0.5542913  -0.3712235  -0.5435771   0.06357069 -0.12228402
  0.07491049 -0.48840696]
[ 0.19625278 -0.56035405 -0.06116389  0.38856298 -0.7631939   0.07107621
  0.23527382 -0.11760883 -0.26536986 -0.07094361 -0.10876802  0.4497183
  0.40448526  0.00339008  0.11825675 -0.01670622  0.1897593  -0.19346786
  0.04693396 -0.401046  ]
[-0.23396437  0.29935974  0.19082154 -0.21504563  0.6542677  -0.39634567
 -0.1609658  -0.36713213 -0.546462    0.37814772 -0.05200582  0.04967159
 -0.1201739  -0.4725399   0.1729922   0.22874768 -0.40014967  0.20660485
  0.13565752  0.7157159 ]
[ 0.19166917  0.29444394 -0.02220825  0.00426495 -0.13750127 -0.29983658
 -0.2877846   0.05705595 -0.10581271 -0.24395223 -0.22488198  0.03373213
 -0.48917526 -0.16944233  0.18982223 -0.04746693  0.2894445  -0.13012344
  0.2659321  -0.22847883]
[-0.2397709   0.3361733  -0.36684275  0.02356028 -0.03899774 -0.6586194
 -0.61255145 -0.19874942 -0.5770258  -0.20272282 -0.40371236 -0.18548088
  0.11009659 -0.12211273 -0.408959    0.03372324 -0.5437438   0.33331865
 -0.16025007 -0.39954457]
[-0.637546   -0.03544374 -0.03508098 -0.09559049  1.7469423   0.18171322
  0.855552    0.5086421   0.01685374 -0.25612378  0.15889804  0.24332441
 -0.70361423 -0.3346124   0.16620311  0.30784246 -1.0431634   0.53996295
  0.38970083  1.4507984 ]
[ 0.1648697   0.0428105  -0.18913418 -0.22470824 -0.57690334  0.20346946
 -0.76225     0.1650091  -0.52943623 -0.16139886  0.17312329 -0.04838866
  0.30624825 -0.09065962  0.02722677 -0.09590943  0.7691944   0.04870985
 -0.32845128 -0.41213703]
[ 0.11845249  0.35305703  0.22650906 -0.07438506  0.3366322  -0.20121789
 -0.03239913  0.02828639  0.27167794 -0.13333338 -0.33042195 -0.06082755
  0.53161085  0.07004894  0.0563085  -0.17612731  0.20387353 -0.09764831
  0.16672866  0.27610818]
[ 0.09829739  0.09849688  0.30320314  0.20395981 -0.04133527  0.02085987
 -0.16774365  0.0781353   0.32662296 -0.2407539  -0.23168482  0.2975543
 -0.34581658 -0.14454153  0.02741889 -0.03489985  0.73257166  0.37071514
  0.22146922  0.45781043]
[-0.22490309 -0.53681093 -0.2807384  -0.04429238 -0.14817546  0.04894853
 -0.6301799   0.19954285  0.18711439  0.47105247  0.19385356  0.01185795
  0.45570016  0.40861577 -0.0944953   0.72247857  0.2565297   0.6647075
  0.20457901 -0.9309924 ]
[-0.3953187   0.23797968  0.10260732 -0.06346452  0.01942482  0.12452223
 -0.46198463  0.23183413 -0.36692798 -0.01691411 -0.05700164 -0.53435886
  0.23787482  0.4719147  -0.4733966  -0.36165723 -0.23657164 -0.58055866
 -0.5135313  -0.3464017 ]
[-0.0076469   0.13676196 -0.11861567  0.17448969  0.30668554  0.14579642
 -0.14579684 -0.02880086 -0.09146277 -0.13359696  0.45949563  0.06303547
  0.11290807  0.39203346 -0.2114767   0.05907203  0.1083441   0.41757214
  0.27992752 -0.27723637]
[-0.00165252  0.07179263  0.2183869   0.21765843 -0.10659667  0.38760716
  0.6918262  -0.08980694  0.55751497 -0.08315052 -0.2604669   0.29579315
  0.56633615  0.03897269 -0.02841535  0.48260212 -0.2914668  -0.03959781
 -0.23924993  0.2224426 ]
[ 0.18660647  0.01956505 -0.09760889  0.254276   -1.1833553  -0.0413244
 -0.49357095 -0.38784927 -0.07650856  0.5601184  -0.0816486   0.32745776
  0.71504295  0.1663472   0.07848569 -0.5616013   0.39353046 -0.9086487
 -0.66017234 -0.04764347]
[-0.00643378  0.11101009  0.13165106 -0.09024463  0.19698893  0.02436387
  0.2972844  -0.04321815  0.26420936  0.06139424 -0.07282044  0.06422214
 -0.05031918 -0.01389411  0.04172992 -0.04058499 -0.05747939 -0.15259951
  0.09939282  0.11928228]
layer 1 Activation
tanh
layer 2 Dense
20 40
[ 0.05342447 -0.10188152 -0.35198632  0.12727587  0.24349456 -0.17435843
  0.08944358 -0.16082126  0.06330629 -0.19282703 -0.15483096 -0.21927726
 -0.03357846 -0.04468682 -0.04178238  0.21456844  0.23718518 -0.14984131
 -0.2899961  -0.07280072 -0.2213731  -0.22676837  0.13779233 -0.16456577
 -0.15370347  0.08793624 -0.06547258 -0.06488727 -0.29192433  0.11657102
  0.26999906  0.12116642 -0.16559684  0.03429229 -0.12213399 -0.0812913
 -0.08262185 -0.02214063 -0.01789152 -0.19748043]
[-0.20813131 -0.2949596  -0.14974903  0.1307434   0.03014334  0.30433837
 -0.16856124 -0.25043     0.04145384  0.19852768 -0.05672762  0.3197059
  0.04841582 -0.06158114  0.0186181   0.2719459  -0.17307413  0.138842
 -0.25961584  0.17972046  0.08562951  0.23330338 -0.15448207 -0.09300601
 -0.0073327  -0.21564531 -0.14096151  0.40690902 -0.14373296 -0.16910636
  0.07796995 -0.0980904   0.04560745  0.14807507  0.03097089 -0.17622788
  0.02125225  0.0328863  -0.51992494  0.16002181]
[ 0.1933303  -0.00536913 -0.1161148   0.08830815  0.11216919  0.16859084
  0.04149231  0.05484691  0.08972483  0.35557047 -0.13992101 -0.21067804
  0.05854926  0.07890491  0.00900517  0.13407676 -0.00402695  0.04477716
 -0.33057228 -0.10848484 -0.1915976  -0.05956809 -0.07416618 -0.13787596
  0.07725394 -0.02381166 -0.0107154  -0.09781984 -0.20642081  0.22097343
 -0.35733813 -0.29201105  0.13278314  0.30859137 -0.03729199  0.07436605
  0.20924896 -0.13110971  0.01864729 -0.02471995]
[ 0.24782626 -0.24823694  0.29039133 -0.01788211  0.16485517  0.1041445
  0.14596336  0.16009815 -0.11662707  0.26829907 -0.01847331  0.06179197
 -0.18041086  0.11539681 -0.07887267 -0.01210618 -0.2874876   0.21325174
  0.06978428 -0.00606242 -0.23997371 -0.03831599 -0.10335248  0.16899335
  0.3240964  -0.22278132  0.16618238 -0.2511061   0.11460434  0.17931402
 -0.17145735 -0.10823277  0.07481312  0.1923782   0.04627596 -0.08541738
 -0.01824246  0.06286718  0.14997545 -0.07966898]
[-0.17475176  0.04552578 -0.06554206 -0.10441657 -0.05269853  0.45464525
 -0.30421838 -0.1920279  -0.08013023 -0.33575457 -0.01997109  0.15865931
 -0.02499115  0.12769113  0.21808879 -0.06524575 -0.16590601  0.13275951
  0.46444407 -0.14584452  0.20918503 -0.12253766  0.11438125  0.24355683
  0.18583858 -0.2535832  -0.17712522  0.6430843  -0.20198853 -0.42444122
 -0.34652925 -0.0634217   0.41685402  0.22042695 -0.07707839  0.1618817
  0.05254715  0.20470136 -0.38515452 -0.17983808]
[ 0.32525358  0.06917539  0.30450648  0.09668035  0.37509537 -0.36859417
 -0.01464411  0.16150056  0.25407296  0.04803921 -0.21792188  0.0382372
 -0.2831527  -0.13392396  0.02742363  0.05982247 -0.15611771  0.0047953
 -0.10194679  0.22613718 -0.44610828 -0.30011693  0.1480766  -0.02518387
 -0.15916592 -0.386535    0.25005582  0.28768924 -0.01958364  0.07321487
  0.07778677  0.23398924  0.10551446 -0.17275353 -0.12018782  0.22224525
 -0.19616573  0.05073147 -0.14281811  0.10039762]
[ 0.17057584  0.05587873 -0.45172536  0.14194787 -0.08208543 -0.11556162
  0.02446451 -0.24241696  0.10760182  0.06267542 -0.13669169 -0.02440688
 -0.3419876  -0.00428772  0.01949451  0.12439711 -0.24491984 -0.21794313
 -0.22096643 -0.01137312 -0.3158518  -0.20442119  0.3660632   0.18424474
 -0.0915021  -0.04840305  0.18338479  0.01665604 -0.26842532  0.15873702
 -0.36743426  0.19558284  0.46252385 -0.05222162  0.0881959  -0.01201966
  0.00943663  0.0417552  -0.3714477  -0.02605343]
[-0.02179718 -0.10285023 -0.20582677  0.02268207 -0.08180708 -0.19297694
  0.15346049  0.05149608  0.1927793  -0.14642692 -0.17727359 -0.22261912
 -0.0446732   0.12357209 -0.31792685 -0.2771444   0.29020467 -0.05282132
  0.14405791 -0.15976444 -0.04017935  0.12049885  0.18385006  0.15085824
 -0.01972127 -0.05489419 -0.05402194 -0.30882096  0.01065043 -0.04763921
 -0.12984698 -0.13225216  0.06460945  0.03615437  0.20122476 -0.00289635
 -0.21668987 -0.12749551  0.04148198  0.12494099]
[ 0.18695892  0.24785528 -0.33243328  0.28836876  0.02675555 -0.23787536
 -0.02076041  0.02799846 -0.06854214  0.24960591 -0.15868196 -0.22231556
 -0.19860448 -0.1338133  -0.2509708   0.22313277  0.18280496  0.15006721
 -0.11751851  0.00840852 -0.08333278 -0.2237107  -0.06643692 -0.16929244
 -0.08169895 -0.34450376 -0.21884564 -0.08621477 -0.16307224  0.17064022
 -0.10501184 -0.23281896  0.21737853 -0.10052551  0.0014141  -0.05578342
 -0.06948799 -0.10632424 -0.33938265  0.38919187]
[ 0.13400097 -0.02485232  0.29876605 -0.00700119 -0.08564831 -0.07336963
  0.1297691   0.18540987 -0.07244985  0.1033412  -0.10696261  0.22302252
 -0.12203409 -0.12468676  0.03818234  0.10761698  0.1250657  -0.01812335
 -0.18774475  0.17096666 -0.10177303 -0.21074504  0.27909815 -0.22242938
 -0.05781192 -0.0897874  -0.01307373  0.07726976 -0.16652337 -0.19499564
  0.12991063  0.16612193  0.07094758  0.21625504 -0.16778454  0.08114477
  0.24665138 -0.11833249  0.0594064   0.06497417]
[ 0.12853736  0.18444091  0.42650557 -0.08687621 -0.05891586 -0.24625108
  0.01577663 -0.27498618  0.15085219 -0.03214     0.16417292 -0.12798901
 -0.07494056  0.03134974  0.11914603 -0.16680801 -0.12724347  0.05449055
  0.05353973 -0.09617422 -0.01218516 -0.3711947  -0.3147207  -0.29483613
 -0.07243308 -0.0505674  -0.08816298  0.12720571  0.00290692  0.19608697
 -0.09114384 -0.21214065  0.05214739 -0.06890008  0.10256596  0.12549387
  0.20819643 -0.00384262 -0.35043323 -0.2302525 ]
[-0.05617365 -0.01335409  0.28899184  0.25291234  0.13230497 -0.23741652
 -0.29150876 -0.16898607 -0.11280864  0.08468894  0.09489945 -0.3112315
 -0.2831371  -0.16488223 -0.09529901  0.11265711  0.13829044  0.13913721
 -0.02879954  0.02487445 -0.1953003   0.00401652 -0.2088381   0.04249711
 -0.04460013  0.17735226  0.28094462 -0.07744556 -0.10370692  0.13537703
 -0.20103756 -0.13224746  0.16231683 -0.08111561 -0.0940765   0.42041504
 -0.17272992 -0.19048788 -0.1114931   0.15516616]
[ 0.11148024 -0.01127216  0.21774584 -0.07105885  0.09046409 -0.14880547
  0.12733771 -0.15621094 -0.20658717  0.04150699  0.0793473  -0.4636651
  0.16226748 -0.19968472  0.04018986 -0.24399547 -0.0851023   0.16572355
 -0.15565331 -0.14166276 -0.05157449  0.21230546  0.24316657 -0.29313418
  0.01275262 -0.20309193  0.04119934 -0.09528486 -0.31513673 -0.04241492
  0.1238569  -0.23816586 -0.42371774 -0.07724406 -0.05955296 -0.2372975
 -0.16431956 -0.42175198  0.11279207  0.38330227]
[ 0.20646492 -0.20973504 -0.19319789 -0.11366484  0.3785286  -0.06579083
  0.25628057 -0.01593541 -0.04915754 -0.1153219  -0.33691964  0.15406662
 -0.1809702   0.0899966  -0.26611128  0.0049164   0.04616455 -0.03282704
 -0.23880431  0.20682625  0.18772191 -0.00522102 -0.05100325  0.28367144
  0.0044822   0.09589823  0.29606414 -0.10321519 -0.0562029  -0.0574851
  0.06905818  0.09061877 -0.14011274 -0.30173984  0.17507172 -0.37424737
 -0.08830838  0.12664056 -0.11055689 -0.06359188]
[ 0.01833471  0.2640184  -0.01816892  0.23290871  0.15581919  0.14977565
 -0.3434579   0.14281628  0.09702811  0.00835694 -0.11956912 -0.04257791
 -0.16691     0.03756892 -0.02408088 -0.05910104  0.00579829 -0.04744359
  0.00047923  0.13936597 -0.27084082 -0.30785823  0.02875463 -0.06121272
 -0.00704866 -0.06835266  0.08199963  0.09253789  0.03411397  0.2404048
 -0.24298252  0.10034137  0.02237052  0.00403312  0.27118406  0.28213775
 -0.11314461  0.09734317  0.07482745  0.27140757]
[-0.17377533  0.00314055 -0.5021827  -0.02827766  0.15520172 -0.23356262
 -0.07249635 -0.14805642 -0.07404973 -0.1635024  -0.37120768  0.23517454
 -0.39770558 -0.16743265 -0.15997039 -0.17111622 -0.00171425 -0.01593283
  0.2772691  -0.04449672 -0.05411749 -0.3592098  -0.17141747 -0.04990767
  0.04390491  0.25214213 -0.14782466 -0.00632762  0.13181666 -0.16550717
  0.09111955  0.0494657  -0.15485516  0.17485441  0.13499641  0.33092538
 -0.12674247  0.02834744  0.12365696 -0.01734991]
[ 0.09658015 -0.35026446 -0.27619603  0.16568613  0.02695855 -0.01350257
  0.34384906 -0.07473914  0.11585112  0.26890188 -0.06240869 -0.11607024
 -0.0898276  -0.10928237 -0.15171021 -0.34905046  0.35694927 -0.17452918
 -0.41672117 -0.05731597  0.12935042  0.35091883  0.124483   -0.14670774
 -0.04379467 -0.27129063  0.44860274 -0.22475863  0.00611186  0.23038875
  0.13216536  0.13377698 -0.6949438   0.20606175  0.42063704  0.01987807
  0.08222215 -0.3795987  -0.08532852  0.4683735 ]
[ 0.26430032 -0.02026849 -0.3653653  -0.03815414  0.17127247 -0.04748093
  0.10586038  0.14551693 -0.01799882  0.01627208 -0.18636659  0.08303723
 -0.12099358 -0.02791787  0.04577504  0.36118165 -0.3229826   0.09450755
  0.4717245   0.23261993 -0.2843309   0.11408526  0.22397247 -0.01273452
 -0.1339355   0.25019482  0.18846063  0.00206174 -0.06062422 -0.15523188
 -0.104437   -0.22849862 -0.15937474  0.0536041  -0.17605412  0.11774229
 -0.00782516 -0.2126986   0.1981543  -0.38469118]
[ 0.23822513 -0.10268373 -0.27278984  0.04523085 -0.01483172 -0.0567011
  0.17023046 -0.04027595  0.11394315 -0.35995767  0.10793643  0.19698195
  0.22963268  0.0823187  -0.21382307 -0.12581965 -0.24809952 -0.04607422
  0.27132943  0.18293497 -0.06953536 -0.03034443 -0.24122916 -0.1290103
 -0.06483544 -0.14441931 -0.1696456  -0.00750335  0.12547374 -0.13269588
 -0.17850927 -0.06865757  0.11409077 -0.06329674  0.06125392  0.11860301
 -0.122944   -0.29977924  0.16996688  0.25179067]
[-0.11619686  0.20298974 -0.3062961  -0.08309839  0.02927323 -0.09530335
 -0.1554046   0.02470764  0.05472175  0.14719926 -0.18052225 -0.262065
 -0.02819878 -0.21684918  0.47982717  0.36771065  0.00264897  0.04168305
  0.14391471  0.32616112  0.07904147 -0.30116522  0.02985312 -0.2305226
 -0.07241581 -0.22098978 -0.41553158  0.15562612  0.03500078  0.00844681
 -0.63264894  0.17086804  0.7580075   0.36919782 -0.04922648 -0.29154512
  0.14964145  0.3794519   0.4235199  -0.19366327]
[ 0.1289164  -0.06802727 -0.06704684  0.03871381 -0.06562968 -0.00666015
 -0.11210687 -0.0884974   0.03678401 -0.06207977 -0.11252216  0.18809798
  0.1322714  -0.020024    0.07063998  0.06386556 -0.03991909  0.07046106
  0.35531342  0.02173099 -0.06934375 -0.0230407  -0.02720436  0.03962535
  0.11459697 -0.17297186  0.02814029  0.28745767 -0.17045635 -0.03912935
 -0.05837209  0.0251823   0.04719336 -0.10615411 -0.13091215  0.01651467
  0.25697798  0.14922358 -0.5954214  -0.17157196]
layer 3 Activation
tanh
layer 4 Dense
40 20
[ 0.12585635  0.18530591  0.29630047 -0.00988626 -0.10266874  0.06753413
  0.01317564 -0.15778978 -0.07544875 -0.01490808  0.1268511   0.17252997
 -0.04447931  0.36778307 -0.03090994 -0.37935245 -0.14946803  0.17484404
 -0.07709783  0.08538076]
[ 0.0339575  -0.27441475 -0.14138357 -0.15367928  0.06136297  0.02468006
 -0.08549072 -0.13192825 -0.03298712  0.12739775 -0.17966168  0.26105946
  0.13101283  0.17971732  0.1868219  -0.00139321 -0.26046598 -0.10214745
  0.3651489   0.2442531 ]
[ 0.20759156  0.06890876  0.05194985  0.0120795  -0.16428196  0.2455437
 -0.10793523  0.1260925  -0.10231629 -0.26794535  0.18206109  0.21338193
  0.10866781 -0.2850963   0.02560766 -0.23597252  0.15479235 -0.28997272
 -0.11316136  0.21626076]
[ 0.16464509 -0.09975565 -0.2491887  -0.05545031  0.01927527  0.03622393
 -0.04267774 -0.2505028  -0.0514437  -0.1051477  -0.08274542  0.1858316
 -0.03629624 -0.06759007  0.21531035 -0.26942787 -0.11914375  0.12175082
 -0.15787496 -0.19163506]
[-0.15774827  0.28467804 -0.20917735 -0.21825534 -0.14368364  0.06407364
 -0.00447393 -0.03360526 -0.07509639 -0.10581817 -0.17760709  0.00991199
 -0.37944022  0.2940753  -0.08296491 -0.3588738   0.25243893  0.04140014
 -0.22552204 -0.21919747]
[-0.04291202 -0.00208273 -0.02167145 -0.14821674 -0.07723605 -0.0871008
 -0.196329   -0.27398637 -0.11707284  0.18453188  0.07830236  0.3432625
  0.09005459 -0.42708522  0.18125963  0.33532825 -0.1465126  -0.17644368
  0.28218442  0.08940759]
[ 0.07584707 -0.18818751  0.31636977  0.1707476   0.06958873 -0.28840178
  0.00440961 -0.00791024  0.26635745 -0.1250455   0.18425845  0.05856051
  0.10747627  0.19372383 -0.05610515  0.15848613 -0.04703529 -0.28717563
 -0.08282697  0.25637186]
[-0.16739763 -0.25648087 -0.24905293  0.04065415 -0.133413    0.02756376
 -0.03534655 -0.13844348  0.21693227 -0.09266879 -0.12098925 -0.306731
 -0.2283254  -0.07512191 -0.12389751  0.29056665 -0.29181942 -0.13075039
 -0.02457409 -0.2650057 ]
[ 0.30399683 -0.04618585 -0.13563222  0.2261085  -0.12264024  0.12285222
 -0.0656603  -0.04165105  0.05959882 -0.04144102  0.0972247  -0.09425449
  0.26558745 -0.01267166  0.21923347 -0.08996048  0.04036913 -0.07983866
 -0.01416746  0.10561762]
[-0.09098683 -0.16726805 -0.10597321 -0.16947354 -0.11652394 -0.15984663
 -0.03329923 -0.27047968 -0.25084382 -0.20233175  0.00956     0.09587356
  0.15298966  0.05302908 -0.33967933  0.08874182  0.08256438  0.0394235
  0.05491763 -0.21697305]
[ 0.08973258  0.17847042  0.25700808 -0.14964056 -0.04005506  0.30120453
  0.19383594  0.30549306  0.21961747 -0.07512641  0.22939667 -0.0052286
  0.11644058 -0.3127927  -0.13610226  0.05597756  0.16011725  0.30438027
 -0.14293523  0.07604292]
[-0.11625613  0.00989862  0.24726294  0.22505383  0.0255887  -0.00404178
 -0.04144178 -0.19189414 -0.13893008  0.2810514   0.09856064  0.16660231
  0.1823921  -0.27551472  0.06913019  0.16307774  0.07854574  0.3456446
 -0.00921737  0.00985721]
[-0.10838032 -0.15427546 -0.02709225 -0.10176012  0.13520476 -0.1466753
  0.01197203 -0.03527727 -0.01385249  0.05084408  0.10220487 -0.1188481
 -0.18082389 -0.30240464  0.11454543  0.16195561 -0.23953219 -0.02004315
  0.07514759 -0.28175187]
[-0.08772267 -0.02063214 -0.1330571  -0.01076098 -0.03087582  0.19895303
 -0.06977145 -0.29793695  0.03042387  0.03986862  0.09050341  0.12241968
 -0.17275493 -0.0976103  -0.24106869  0.26336098  0.18116155  0.12322867
 -0.23621981 -0.10405738]
[ 0.00748752 -0.11513531 -0.18981877 -0.22606497 -0.08073504  0.20588374
 -0.1542072  -0.2932844   0.10256036  0.21106675  0.22510092 -0.07987764
  0.13321686 -0.18294036  0.14473099 -0.11528334 -0.11527766  0.2679393
  0.00208116  0.03988588]
[-0.16578417 -0.2258522  -0.01095758 -0.23744203 -0.05135084  0.00177328
 -0.08930431  0.11357864  0.06175054  0.37832245 -0.08130185 -0.13076954
 -0.14879198  0.1867881  -0.23466961 -0.08752798 -0.00976496 -0.17005467
 -0.28708887  0.05301493]
[ 0.00077485  0.213489    0.0684898  -0.04407485 -0.07335003 -0.1804762
 -0.28878182 -0.16088124  0.07403326 -0.30972314  0.19496132  0.02843916
 -0.01791673 -0.06529871  0.06609973 -0.07754014 -0.07765719  0.22917631
 -0.19299442  0.12358024]
[ 0.08846968 -0.29433385 -0.13494202  0.07357059  0.06468201  0.27956903
 -0.00432697 -0.21830788 -0.11301818  0.03148127  0.20618604 -0.06679815
 -0.1127191   0.09024756  0.26060522 -0.22044067 -0.03249744  0.0163085
  0.17659527  0.00261205]
[-0.12605248 -0.13639449 -0.06751216  0.28184167 -0.01762763  0.04743323
 -0.18138525  0.24075438  0.1390935   0.37469208 -0.06259114 -0.28347117
 -0.02314404 -0.10219173  0.34812632 -0.13592528 -0.05710778  0.03931939
 -0.11895856  0.13992235]
[-0.0211053   0.22056915  0.2239786   0.07635683 -0.21081568  0.06869875
  0.05194173  0.09952783 -0.24841924 -0.00786594 -0.02160454  0.18203326
  0.20165332  0.04496625  0.20214766 -0.0748956  -0.01275553 -0.11887582
  0.17618077 -0.14140104]
[ 0.02985152 -0.07254692  0.10947622 -0.16800104  0.02580127 -0.3479841
  0.1303615   0.0129512  -0.01077163  0.12107617  0.18429616 -0.16883886
  0.02161484 -0.24137881  0.23521811  0.28905955  0.28068727 -0.04668193
  0.13013124  0.25600183]
[-0.02394164 -0.0183086  -0.23264061  0.19210786 -0.10421488 -0.25307593
  0.20413874 -0.09167616 -0.03359355 -0.14187843  0.20936982  0.12800741
  0.05468697 -0.14808716 -0.07222103  0.32344666 -0.03501814 -0.12917195
 -0.07606091 -0.26870897]
[-0.11665297 -0.07945018 -0.349202   -0.23347534  0.1292419  -0.308001
  0.01646517  0.0927281  -0.02708285  0.06869248  0.0712092  -0.10574828
 -0.20330894  0.09627528  0.05256879  0.05513007  0.17862412 -0.30523366
  0.2599328   0.05976785]
[ 0.00108072 -0.11307315 -0.11951207  0.17826849 -0.17868221  0.03768264
 -0.08897021  0.24857268 -0.10374628  0.19113575  0.16401388  0.15251379
  0.14494161  0.13442206 -0.20640825  0.03569338  0.19482277  0.00695315
  0.17197333  0.02487118]
[-0.05869108  0.04898989  0.04937558  0.01448024 -0.08913101 -0.01090714
  0.12711723 -0.00377761 -0.01763971  0.04352033  0.14914699 -0.17228082
  0.0787435  -0.05616722 -0.01034643 -0.09686406 -0.0156847   0.12890804
  0.17947373 -0.11339169]
[ 0.02171053 -0.0324277   0.28051394 -0.24851942 -0.24043545 -0.10093387
 -0.20500286  0.11500546 -0.24089679 -0.11977156 -0.16619614  0.003262
  0.03217755 -0.05627718  0.26975998  0.31421822 -0.22862996 -0.19865963
 -0.02777378 -0.13075803]
[-0.02405606  0.03811526 -0.01520242  0.29037538 -0.12216219  0.27027956
 -0.03504708  0.12346104  0.03923335 -0.28871986  0.12599535  0.00393566
 -0.07075027  0.06325219  0.09001996 -0.3476426  -0.08724404 -0.09841586
  0.1363525   0.3048355 ]
[ 0.0576077   0.21572572 -0.16306819  0.12102439  0.22194028  0.34545234
 -0.19845863 -0.06077481 -0.1941663   0.06015059  0.37598634  0.1552948
  0.33696985 -0.07497127 -0.06807279 -0.0520254  -0.03478675 -0.10992771
 -0.25237638  0.02873019]
[-0.04107774  0.08728357  0.1026836   0.23367913 -0.14918925  0.14260235
 -0.09679592  0.24782558 -0.07838829 -0.16783464 -0.06519519 -0.17728506
  0.14855121 -0.10051489  0.05670852  0.12735091  0.03952479  0.02963986
 -0.03451468 -0.05214386]
[-0.15660943  0.04853585 -0.00380128  0.14061978 -0.03405355 -0.285317
 -0.29747176  0.35775557  0.15811656 -0.3243542  -0.10899469  0.03505422
  0.24165384 -0.03885897  0.22420079 -0.41663635  0.1168836  -0.0627289
  0.19763465  0.10099666]
[-1.7700589e-01  2.3825291e-01 -3.1913087e-02  1.1265199e-01
 -8.2382537e-02 -3.0788541e-01  2.1222433e-01 -3.2228395e-02
  1.0526987e-02 -4.2032641e-01 -5.9238672e-02 -9.9945821e-02
 -2.4862994e-01 -3.9020357e-01 -2.0671239e-01 -5.2134115e-02
  3.4833857e-04  1.8491583e-01 -2.0905475e-01 -2.2853626e-01]
[ 0.04693878 -0.19690204 -0.15369457 -0.05444074 -0.04973932  0.15208358
  0.00702159  0.18795933  0.22461613  0.00529577  0.1159886  -0.08710141
  0.16594572 -0.1211263  -0.16980328  0.01951354  0.13166434 -0.17633623
  0.00789978  0.05636152]
[-0.3375479   0.08308613  0.2447317  -0.30820858 -0.23239154 -0.06761413
  0.2918118  -0.15895784 -0.01336611  0.47126937  0.176613    0.02872567
  0.08907501  0.45767865 -0.18735756  0.16015787  0.09680804  0.04704592
 -0.15768537 -0.3927618 ]
[-0.01960878  0.07697543 -0.4190794  -0.06113271 -0.05993299 -0.00168088
 -0.2627468   0.22950052  0.10448314  0.06537718 -0.25544992  0.19356605
  0.15793227 -0.13733798  0.19273852  0.08027121  0.1151652  -0.05680616
 -0.03564679  0.17354357]
[-0.0103799  -0.15830643  0.10505631 -0.12167058 -0.24322303 -0.23051468
  0.01446316 -0.15277217 -0.03834163 -0.07041932 -0.26662102 -0.03558495
 -0.1783297   0.01029452  0.00074586  0.11167822  0.01528857 -0.22574636
 -0.38515934  0.0596348 ]
[ 0.15482685  0.09145487  0.2119813   0.26077825 -0.12917063  0.2789516
  0.27558312  0.11593216  0.01389161 -0.0004504  -0.24111092 -0.23887967
  0.15421869 -0.01837263 -0.14516246 -0.06581883  0.03348416 -0.22902137
 -0.19768098  0.08433843]
[ 0.19722138  0.3472596  -0.0878141   0.06745805  0.20794512  0.11366205
 -0.00539207 -0.15188342  0.05972064  0.11500372  0.07503467 -0.19808814
  0.01142157 -0.11642367 -0.09087784  0.04458868  0.03470382 -0.20449392
 -0.04881044 -0.22721112]
[-0.05765886  0.12804037  0.0767485  -0.02372846 -0.04857637 -0.12314261
  0.17977336  0.15953857  0.16235396  0.22394784  0.31024128  0.14686012
  0.23958142 -0.23230226  0.20542607 -0.03833091 -0.04514605 -0.20834284
 -0.27100804 -0.23629683]
[-0.02715025  0.33596808 -0.06188289 -0.3213577   0.07872053 -0.25905207
 -0.08014851 -0.0054456   0.15155798 -0.26796007 -0.2589199   0.13855822
 -0.05042229 -0.0063936   0.19002284  0.31489447  0.22481805  0.10687925
 -0.26870733  0.18924071]
[ 0.07215226 -0.14271572  0.163972   -0.25471035 -0.15012589 -0.3137143
 -0.10893264 -0.10964321 -0.12418335 -0.28715625 -0.15316457 -0.06323575
 -0.17907034  0.17812034 -0.0247391  -0.10943958  0.14509918 -0.12760787
 -0.04960455 -0.06880242]
[-0.08167313 -0.01924738  0.06461585  0.23118338  0.07631335 -0.04408325
 -0.04944588 -0.04453934 -0.12751943  0.14881429  0.1526224   0.0239246
 -0.00986712 -0.07021325 -0.06387062 -0.1375347   0.02118121 -0.0200486
  0.0253801   0.06795526]
layer 5 Activation
tanh
layer 6 Dense
20 1
[0.00044377]
[0.0020146]
[0.00362753]
[0.03131571]
[-0.00239646]
[-0.07985833]
[0.00625167]
[-0.01129419]
[-0.00074001]
[-0.13150279]
[0.02512324]
[0.00821394]
[-0.0683408]
[-0.07425131]
[-0.03905664]
[-0.10760628]
[0.00198075]
[-0.00527953]
[-0.00205086]
[0.03397826]
[0.16844817]
