layers 7
layer 0 Dense
20 20
[ 0.22042193  0.28958312  0.14010486 -0.01685437  0.17189837  0.53913105
 -0.10753305 -0.21346012 -0.05142542  0.31291434 -0.20824717 -0.12764546
  0.2709794   0.12703082  0.15154232  0.19075744  0.01966359 -0.18438146
 -0.09877864  0.30240408]
[-0.5863388  -0.06858191 -0.45049033 -0.52391565 -0.15682775  0.38501078
 -0.04275816 -0.24065614 -0.36403114 -0.47512507 -0.2567275  -0.38288122
  0.4629036  -0.18669082  0.3297368  -0.4149183  -0.07060233 -0.4232731
 -0.62292886 -0.06429867]
[-0.36886787  0.17356482  0.08987977 -0.26292893 -0.12858975  0.7027036
  0.15756473  0.06441128 -0.41016036 -0.22717802 -0.3674664   0.15048796
  0.22360551  0.03002938  0.36498776 -0.40308386  0.2682034  -0.0195895
 -0.75133026  0.10328099]
[-0.38904476  0.10143432 -0.38894737 -0.43332    -0.12043634  0.43457657
  0.27483243 -0.02398799 -0.3257364  -0.15671909 -0.2553603  -0.17160681
  0.08416499  0.24078326  0.10123868 -0.14832161 -0.00998683  0.0070156
 -0.3962649  -0.2920947 ]
[ 0.11505616  0.2492974   0.32956526  0.0703758  -0.06976531 -0.29409033
  0.15383987  0.52669656 -0.35546604 -0.35493696 -0.21412888 -0.5616198
  0.06486025 -0.13412613 -0.2645652   0.04877924 -0.06617022 -0.17344674
 -0.29185703 -0.09060244]
[ 0.7904277  -0.11848992 -0.2728595   0.28696352  0.22084697 -0.22904798
  0.2056295  -0.3624274   0.22026123 -0.04215039 -0.18248521  0.41956976
 -0.43475777  0.22368044 -0.43037733  0.08557186  0.09397032 -0.28539518
 -0.07123315  0.36282733]
[ 0.40809485 -0.42544055  0.18055707 -0.14511977  0.28298002 -0.5195006
  0.33951336 -0.24004255  0.07732193  0.24190429  0.2930382   0.25492647
 -0.55086774 -0.2467888   0.10472644  0.22970636 -0.23744434  0.04434191
  0.05574509 -0.00989473]
[ 0.7291347  -0.7368678   0.7758101   1.1548216   0.24751581  0.23679617
 -0.85380983 -0.5496134   0.80911213  1.3095157   0.15934591  0.5596983
  0.30783537 -0.09273405 -0.6167748   0.07741093 -0.1939828   0.6209643
  0.9010459  -0.41080472]
[ 0.781033   -0.26279297 -0.4021444   0.20159799  0.06393223  0.1246372
  0.02813953  0.15398969  0.9152734  -0.06143238 -0.29657638  0.01194403
  0.14293668 -0.50179493 -0.5298136   0.574842    0.160671    0.6309824
  0.534492   -0.72012955]
[ 0.42756516 -0.37929973  0.04328363  0.24303766 -0.02054901 -0.43038905
 -0.02415619  0.06778108 -0.2945577   0.11131661  0.02499042  0.57390535
 -0.2845228   0.50138354 -0.43287605  0.31077293  0.11559632 -0.14068662
  0.04298207  0.43556327]
[-0.46555984 -0.40040568 -0.20940864 -0.24530752  0.5650104   0.4794081
 -0.03590745  0.6025551   0.21349987 -0.09024483 -0.53341204  0.0642653
 -1.2473615   0.2899738  -0.102098   -0.47266257 -0.40532833 -0.30557927
  0.01118691 -0.6350123 ]
[ 0.509552   -0.71366316 -0.07741081  0.49045253  0.32629383  0.3926631
 -0.5884189  -0.6400397   0.82665753  0.17052688  0.23402102  0.57994306
  0.32071164 -0.2700889  -0.18995316  0.00171263 -0.09471472  0.38130417
  0.17966516 -0.5866855 ]
[-0.5995842   0.49834377  0.45494244 -0.11849093 -0.05650144 -0.22010301
  0.14346972  0.23638313 -0.8270161  -0.52307665 -0.11402353 -0.49164954
  0.14094104  0.29475918  0.31260154 -0.26925805  0.10426078 -0.02947641
 -0.3751473   0.4086623 ]
[-0.5379125   0.22578867  0.12850244 -0.22014129 -0.40829408 -0.1856446
  0.16301942  0.30804455 -0.14138673 -0.4735391  -0.49695957 -0.38454154
 -0.11084256 -0.14181435  0.5597298  -0.21798262  0.00379235  0.21124578
 -0.38123697 -0.08344506]
[ 0.597474    0.3176704   0.00303242  0.0787464  -0.3320344  -0.20158191
 -0.02862149 -0.16359462 -0.21880336 -0.19681562  0.22363316 -0.15141408
  0.7567121   0.11533593 -0.10808427  0.34926632  0.26756018  0.08882479
 -0.08833496  0.5193616 ]
[-1.7669121   0.34855485 -0.16499072 -0.23759538 -0.69727284  0.56966364
  0.33497646  0.43368924 -1.042654   -0.7413063  -0.16953355 -1.0398644
 -0.29619956  0.32012948  0.83214754 -0.49589828  0.13981344 -0.65315986
 -0.49571437  0.8752948 ]
[-0.02039198  0.628979   -0.1348932  -0.02584915 -0.4369348   0.20813714
  0.06828351 -0.25019637 -0.07108361  1.1462084   0.14118758 -0.7348417
  0.41553938 -0.38937342 -0.5526029   0.00234861 -0.61191     0.7137288
 -0.06968788 -0.11648404]
[-0.34169364 -0.03046088  0.37040582  0.5191905  -0.40209213 -0.11577883
  0.03914354  0.04380761 -0.0157419  -0.05577508  0.6695531   0.3286712
  0.01616025  0.13828215 -0.5580197  -0.41431743 -0.7163983  -0.378645
  0.12071989  0.25167564]
[ 0.41037259  0.66638255  0.22087672  0.07145367 -0.03634261 -0.08351836
  0.11783697 -0.49645177 -0.564767   -0.12061239  0.55459857 -0.09535982
  0.5227538   0.30366173 -0.54270434 -0.7739835   0.4974487   0.5392244
  0.00783295  0.7896298 ]
[ 0.5377848  -0.3570667  -0.21668863  0.68103427  0.12818134 -0.2748981
 -0.18704765 -0.6625276   0.44745478  1.5889016  -0.19593821  0.01508516
 -0.06352159 -0.01522431 -0.7670636   0.47277972 -0.8030546   0.44524577
  0.5565444  -0.2818456 ]
[-0.26488152  0.0736123  -0.33020437 -0.378331   -0.01813044  0.14042985
  0.3121917  -0.12700911 -0.3814248  -0.4057633  -0.08600138  0.01471097
 -0.16503192  0.12554109  0.30576682 -0.24362454  0.09653292 -0.34859225
 -0.35018432  0.2180411 ]
layer 1 Activation
tanh
layer 2 Dense
20 40
[-0.24905732  0.7664011  -0.43955737  0.21898796  0.5766146  -0.2519229
 -0.02616762 -0.51433855  0.3992338   0.20100291  0.4551235   0.6126613
 -0.334351    0.33624882 -0.31638858 -0.62938917  0.30646178  0.12325093
 -0.45903835 -0.06133671 -0.0834186  -0.58448434  0.7864598   0.36667237
 -0.12992427  0.498801    0.13833916  0.09446859  0.46909574  0.15878914
  0.20282975 -0.26525497 -0.03670013 -0.2653919  -0.14927915 -0.15123908
 -0.52234364 -0.33316815 -0.5514829   0.32103884]
[-0.19487232  0.03748484  0.02481176  0.07984152  0.00763114 -0.2690887
  0.1117489   0.48252198 -0.4878221  -0.2644266  -0.2592485  -0.30848897
  0.52569646  0.07668887  0.25245962  0.11962829 -0.06349204  0.06733592
  0.06189166 -0.15995453  0.29608765  0.2599824  -0.42670518 -0.01144341
  0.41829    -0.35506257 -0.10226846  0.21089683 -0.21615097  0.15652235
  0.323938    0.26867604  0.13022107  0.15718997 -0.14462058  0.09224851
  0.25327298 -0.06636219  0.32560176 -0.32946813]
[-0.10840125  0.2991399   0.04816648  0.0488161   0.18009116 -0.07124569
 -0.1570102  -0.23006234  0.19477443 -0.16435272  0.2596449   0.1222964
  0.05180337  0.14598255 -0.05639336  0.10270722  0.30060714  0.3929911
  0.16178378 -0.287675   -0.15347113 -0.19688672  0.18966028 -0.04770911
 -0.09240613  0.2362248   0.17019477  0.11729169  0.05173977  0.35149294
  0.12004542  0.07898054 -0.246327    0.01205418 -0.3230018   0.10310503
 -0.00264486 -0.02499403 -0.36502784  0.03435761]
[-0.08271752  0.33353347 -0.17499219 -0.4728751   0.45742333 -0.31191736
 -0.02213539 -0.31299058  0.08847584  0.18010345  0.10181634  0.04236905
 -0.16157286  0.31675652  0.05997667  0.05064268  0.3057045   0.13969351
 -0.01041554 -0.1723836   0.02846858 -0.3213246   0.4110054   0.1755751
  0.16831522  0.27811638  0.3763148  -0.04715578  0.01058074 -0.03760304
 -0.28627202 -0.09081002 -0.15450048 -0.39358333 -0.26598424 -0.12602346
  0.06012743 -0.2280845  -0.3057691  -0.1366611 ]
[ 0.05051888 -0.04353782 -0.18153687 -0.03063003 -0.06772687 -0.136948
 -0.24754766 -0.0061896   0.19972841  0.23000453 -0.06650191  0.1879219
 -0.35882014  0.0580755  -0.20982091 -0.03255741 -0.14401506 -0.06509844
 -0.06516685 -0.12679684 -0.09120377  0.14443053 -0.18019633  0.02127074
 -0.11069938  0.16236278  0.16434883 -0.00050486  0.05715269 -0.02414828
 -0.1143648   0.13443363 -0.05205914 -0.04471813 -0.2487477  -0.40417758
  0.04738143 -0.01382248 -0.05162308 -0.03213652]
[ 0.17803572 -0.33958843  0.09277607 -0.06896558 -0.16613917  0.30207875
  0.0039949  -0.02682523 -0.26008102  0.13315749 -0.20894304 -0.17012508
 -0.32710466  0.14558423 -0.15118627  0.19020595 -0.21476628  0.10514692
  0.21875097 -0.14938311  0.1900358  -0.04422588  0.14590536  0.09652312
 -0.29031152  0.16034764 -0.2620569  -0.00194481 -0.21146451 -0.2346607
 -0.1333102  -0.22095418  0.11763387  0.12529106  0.212748    0.04804394
  0.18743421 -0.09849478  0.04496938 -0.16315958]
[ 0.06182575 -0.30331284  0.15739036  0.3601917  -0.29044208  0.19666716
  0.13118671  0.30875522 -0.03854779  0.01027067 -0.33550093  0.02113346
  0.1924432  -0.12122814  0.00588824 -0.09540672  0.01602354 -0.29065967
  0.0023616  -0.01112526  0.09271116  0.06707304 -0.15956117 -0.05972055
  0.18114433 -0.49787053 -0.00745081  0.23656721  0.07871782  0.12453789
  0.2958045   0.44527417  0.20622846  0.07662134  0.4357337  -0.04272784
  0.10803296  0.15630661  0.43440163  0.07445329]
[ 0.22870898  0.31601065 -0.0469337  -0.05632824  0.08265078  0.15068549
  0.21052733 -0.23838042 -0.13946024 -0.0033042  -0.0396957   0.20385596
 -0.11882105  0.09356549  0.1226315   0.32412645  0.39607695 -0.15210299
  0.04293052  0.07359859 -0.23174271  0.21720369 -0.05380466 -0.06870753
  0.09244563 -0.03991729 -0.14458135 -0.05088698 -0.0899765  -0.19126903
  0.31296882  0.03683814 -0.14967734  0.24767926 -0.12353062  0.15085939
  0.09055414 -0.04839392 -0.03418395 -0.29218546]
[-2.1019582e-01  6.7748153e-01 -3.2965875e-01  1.9579001e-01
  4.3891791e-01  4.8249248e-02 -3.4097770e-01 -4.7188407e-01
  6.5381002e-01  2.1175662e-01  5.8039051e-01  2.6282063e-01
 -3.8431573e-01  3.5609511e-01 -5.1632836e-02 -4.3178153e-01
 -4.2475438e-01  7.0076096e-01 -5.1218486e-01 -6.4393564e-04
 -2.2962846e-01 -1.6131717e-01  3.6277056e-01  3.1328946e-01
 -5.1277548e-01  3.1944957e-01 -7.4876688e-02 -2.9123870e-01
  4.1423969e-02  2.4775219e-01 -2.8566298e-01 -3.2882426e-02
  1.9891396e-02  2.9353851e-02  1.7315386e-01  1.6898347e-01
 -4.5656732e-01 -2.5165725e-01 -5.3817594e-01  6.2221098e-01]
[-0.64521635  0.47719985 -0.5515772  -0.17475744  0.46312615 -0.23543173
 -0.4460531  -0.35711128  0.44187734  0.28502575  0.36877465  0.50532484
 -0.03805818  0.48504043 -0.26828656 -0.10538498 -0.3114241   0.7293393
 -0.1771469  -0.08266252 -0.20193072 -0.6046186   0.630335    0.25991374
 -0.04679757  0.6120323  -0.23366946  0.26596662  0.21183705  0.14299689
 -0.24338213 -0.12883759 -0.27760312 -0.11535008 -0.1414158  -0.18922281
 -0.73803437  0.0025582  -0.6480256   0.31110004]
[ 0.09675711  0.15552895  0.16785917 -0.15266247  0.13063075  0.01503552
 -0.17508388  0.05088827 -0.277957    0.01937462 -0.00117384 -0.18056388
 -0.06990854 -0.08693979  0.09669272  0.06893969  0.4632035   0.0419347
 -0.04808843 -0.27882785 -0.2469309  -0.10845392  0.18402867 -0.08751397
  0.00996838 -0.08499487  0.03676546  0.01063326  0.00837665 -0.05280526
  0.24543259 -0.02768281 -0.1204142  -0.17047183 -0.04854571 -0.24045157
 -0.1511773  -0.1584928   0.15144241  0.21789573]
[ 0.0861517   0.10982551 -0.34518605  0.26943073  0.13094184  0.0699662
  0.01887401  0.04503706  0.27062824  0.0769823  -0.0761937   0.0095824
 -0.11591264  0.03368612  0.31289488 -0.32791573  0.09324927 -0.01014697
  0.01134265 -0.09919135 -0.05267211 -0.08911079 -0.03978057  0.30465472
 -0.2180406   0.18865381  0.04818484 -0.13071294 -0.09548026  0.40426645
  0.04615523 -0.01885293  0.10291496  0.07098807 -0.0940043  -0.35126868
 -0.31706825  0.05224645 -0.2548506   0.4520249 ]
[-0.33791286  0.13588649 -0.19124791  0.12248298 -0.06387904  0.11814831
 -0.17215332 -0.00739153 -0.3262933   0.10824551  0.14857781 -0.01182948
  0.45475656 -0.24110281  0.3476202   0.21392936 -0.04079562  0.4896363
 -0.26677048 -0.11143676  0.07207444 -0.16532227  0.02325929  0.21025027
  0.09383214 -0.08409637  0.28870687 -0.11652296  0.1222968  -0.04709412
  0.07083955 -0.29136258  0.12037232  0.11334551 -0.6187264  -0.13377242
 -0.0146909  -0.08731847 -0.15862775 -0.19225864]
[ 0.15829691 -0.06866045 -0.23614335 -0.06640189 -0.44183052 -0.36546454
 -0.05767692  0.18866336 -0.28045207  0.04521017 -0.0731814   0.11274469
 -0.4556015   0.03948832  0.10448928 -0.20153056  0.26620534 -0.35126695
  0.07839209 -0.15997627 -0.17646171  0.08825239 -0.1891891   0.00081596
  0.00971053 -0.21952033 -0.03920602 -0.15605849 -0.29733172  0.06252753
 -0.176825    0.19513308 -0.04171435 -0.14150394  0.06316729 -0.23971786
  0.15992372  0.07661921 -0.0139695   0.25756043]
[ 0.29464865 -0.06519258  0.1374414   0.10976681 -0.11762686 -0.13284045
  0.1980266   0.15035382 -0.64143735  0.01586779 -0.15846343 -0.2435436
  0.11743489 -0.25198743  0.18294632  0.18098016 -0.12140335 -0.28462157
  0.06940213 -0.09705921  0.3470239   0.7010357  -0.1295075  -0.25158513
  0.02484218 -0.539997    0.00307302  0.09439429 -0.01193492  0.11666871
  0.10544036 -0.01629276  0.3220733   0.18190363 -0.02756324  0.23186794
  0.00137131  0.38326785  0.24989326 -0.20276006]
[-0.22229244 -0.1403865  -0.14767058 -0.0460028  -0.0295989  -0.03199512
 -0.06735006  0.10337535  0.0337786   0.22353804  0.26681867  0.12465394
 -0.24934645  0.2446999  -0.02578258 -0.10302735  0.17462073 -0.36072582
  0.0387759   0.4902471   0.16668004 -0.09929024 -0.00069784  0.14869253
 -0.14433019  0.19866847 -0.08940377 -0.0117866  -0.25355354  0.108041
 -0.09548974 -0.01235036  0.1002211  -0.14630178 -0.32244995  0.29775658
 -0.10963704 -0.01685089  0.0061517   0.11415907]
[ 0.29025394 -0.13397644  0.08496585  0.40502387 -0.23302542  0.01111882
  0.06807037  0.04754733 -0.28401732  0.05477178 -0.04423776 -0.12036624
  0.04421539 -0.1423836   0.04572202  0.2534986   0.10606157  0.09282172
  0.0083635   0.2726808   0.02278119  0.08544417 -0.2894499   0.1529276
  0.20401631 -0.382412   -0.0318349  -0.01584652  0.11361615 -0.01372182
  0.05754902  0.25823656 -0.14515717 -0.17971794 -0.22004445  0.26045102
 -0.0570952   0.23003493  0.24229808 -0.12191191]
[-0.40363318 -0.01103699 -0.45976967 -0.02725373  0.1522509  -0.24783647
  0.16509542 -0.01155614  0.26678607  0.18750232  0.38244933 -0.11524382
  0.05136131  0.03855785 -0.2338393   0.22254883  0.23382036  0.6675796
 -0.2579037  -0.15669088 -0.00114568 -0.32927257 -0.1693562  -0.21081007
 -0.2111282   0.11510345  0.46756494 -0.30802485  0.2451769  -0.4312851
  0.01463891 -0.17615159 -0.19939998 -0.27380073 -0.44945174 -0.14261062
 -0.23129998 -0.18474233  0.10645408 -0.11738979]
[-0.1965028   0.36578014 -0.464681   -0.18431003  0.19586954 -0.4578979
  0.07763364 -0.22497825  0.28846896  0.1174408   0.23829216  0.03499197
 -0.11879446  0.30120477  0.02726317  0.06342416  0.12448402  0.2415775
 -0.09232623 -0.2430311  -0.38358003 -0.3141207   0.40826818  0.03025781
 -0.09206733  0.64607936  0.3053903  -0.18471889  0.07658374  0.42319834
 -0.2734259  -0.2008677  -0.19585913 -0.03692725 -0.27645007 -0.28667682
 -0.06464846 -0.37510553 -0.0936803   0.0707296 ]
[ 0.27864805 -0.12637348 -0.03434891 -0.12162939 -0.35031694 -0.28548154
  0.44295868  0.21451385 -0.19349493  0.08057092 -0.09023897 -0.47128147
  0.46181262  0.07993256  0.14131719  0.08513714  0.55001277 -0.28328213
  0.02744283 -0.3176757   0.36997062  0.31101525 -0.16097951 -0.13191034
  0.45137632  0.14295776  0.18668154 -0.11810478 -0.12339047 -0.00931714
  0.04692073 -0.02535371  0.19101848 -0.1135424  -0.03857896 -0.11613544
  0.45486745  0.21373734 -0.02337391 -0.16018845]
[ 0.00882424 -0.583964   -0.00483481  0.16535068 -0.37738687 -0.00685894
  0.05456788  0.1067556  -0.4431912  -0.19256616 -0.35216013 -0.03138744
  0.11742953 -0.14257315  0.00634244 -0.04565847 -0.3570028  -0.35957497
 -0.01318332  0.1808104   0.09873761  0.02615714 -0.5145511  -0.16031878
 -0.01668079 -0.39123043 -0.11261389 -0.03214438 -0.00172564  0.0195703
  0.14785776  0.00505326  0.10273061  0.08858104  0.17197192 -0.03152868
  0.15921748  0.1206488   0.2950994  -0.02766221]
layer 3 Activation
tanh
layer 4 Dense
40 20
[ 0.06630431 -0.07303361 -0.10965569 -0.10954675 -0.31485623 -0.08689045
 -0.20807399  0.31448662 -0.0031686   0.32175487 -0.2900336  -0.15672112
  0.17754571 -0.17768228  0.25735766 -0.26862842  0.26313317 -0.02174283
 -0.46428433  0.403548  ]
[-3.1277305e-06  1.4710103e-01 -3.0085650e-01  4.2811421e-01
  7.3287580e-03  5.0614935e-01 -1.9277697e-02 -2.8650409e-01
 -1.2875076e-01 -2.1678539e-01  5.5234477e-02 -1.1176968e-01
 -4.7172430e-01  1.9357727e-01 -6.0318834e-01  2.3583139e-03
 -2.2501616e-01  7.3072292e-02  3.5116836e-01 -4.0793359e-01]
[ 0.0289364  -0.06659457  0.00545836 -0.21397595 -0.22671615 -0.09045687
  0.2533099   0.07425795  0.19165778  0.03971441  0.11614744  0.11536182
  0.09469782  0.01299467  0.31941772 -0.24775222  0.30075294  0.33096388
 -0.0469102   0.0522483 ]
[-0.00531255  0.0540333   0.46575376 -0.0678224  -0.21655722 -0.07063564
  0.23954529  0.29271755  0.10218293  0.08965054 -0.06286268  0.0909422
  0.06833491  0.11342485 -0.04473808  0.13222058  0.04821219 -0.1365172
  0.22819819 -0.18896994]
[-0.3272262  -0.2737465  -0.25697565  0.3118677   0.27532393  0.13706404
 -0.2908575  -0.10510437  0.05545881 -0.29818493 -0.05020348 -0.17818975
 -0.23086976  0.44354835 -0.5942313  -0.08841711 -0.4159334  -0.1183124
  0.22261705 -0.4599308 ]
[-0.14760415 -0.10866921  0.24015515 -0.02006994 -0.11170109 -0.19411789
  0.4105244  -0.14207499  0.21184553  0.01901847 -0.300186    0.21070111
 -0.11120878 -0.13418151 -0.32786217  0.00271148  0.03220168 -0.23475763
  0.08618134 -0.08434878]
[ 0.21467693  0.33398673 -0.31930026 -0.04102235 -0.24836832  0.07778162
  0.00683109  0.21825512 -0.28743002  0.18127914 -0.2622596   0.0229558
  0.2350459  -0.23501222  0.12657623 -0.21209942  0.17158782 -0.25178602
 -0.25011995  0.22120766]
[ 0.13972868 -0.32124233  0.14022654 -0.00258245  0.19898474  0.26541662
  0.6581374   0.03100972  0.02818856  0.23359063 -0.07972147  0.14506197
  0.46765    -0.20504628  0.36695412 -0.16604821  0.56405556  0.2193726
 -0.2496924   0.41400403]
[-0.28891873  0.06644882 -0.12776321 -0.12035932  0.39814347  0.26673403
  0.1029539  -0.31842902 -0.1438282  -0.12061508 -0.13236682  0.33720806
 -0.21422422  0.35902455 -0.41528317  0.2413506   0.08535618 -0.29659835
  0.29693872 -0.35427186]
[ 0.08279958 -0.1964766  -0.19534212 -0.0227052  -0.03620466  0.3449558
 -0.2597965  -0.25541347 -0.10243864  0.15535343 -0.03627673 -0.16685656
  0.08327059  0.03715984 -0.17213097  0.10795955  0.06230446  0.2558408
  0.12161434  0.15302023]
[-0.05216064  0.09700528 -0.05991661  0.11135767  0.04639909 -0.03094392
 -0.4140159   0.00082503 -0.01259703 -0.07214788  0.12072168 -0.07951675
 -0.14121589  0.30755413 -0.20567368  0.00630227 -0.30488592 -0.23554735
  0.27014238 -0.48536962]
[ 0.0740151  -0.22015226 -0.27396175 -0.02038805 -0.00341724 -0.15632066
 -0.3448233   0.08189253 -0.12499277 -0.28580296 -0.141076    0.07928243
 -0.12314845  0.24514651 -0.41454622  0.29756078 -0.20101741  0.04841188
  0.2779233  -0.28921184]
[-0.16473517  0.01613829 -0.11933567  0.31967998 -0.06698272  0.09849794
  0.4688221  -0.24287637 -0.12669148  0.07719493  0.39514333  0.04099473
  0.30444884  0.2585879   0.23665962 -0.12992315 -0.00840374  0.05761623
 -0.21652272  0.29702792]
[-0.4091909   0.133556   -0.15111592  0.10444956  0.28497565 -0.05163577
 -0.5174196  -0.32864252  0.28469765 -0.0871183   0.30978176 -0.28358275
 -0.1592413   0.3298152  -0.2842821   0.3024598  -0.4515887   0.09328062
  0.17381714 -0.20806791]
[ 0.23933703  0.03938979  0.17688157  0.13380001  0.06958848  0.22228946
  0.2656745   0.19977596 -0.02742026  0.09524705 -0.17222163 -0.00115903
  0.15435238 -0.22978279 -0.00235599 -0.26204616  0.28373942 -0.05766662
  0.01059479  0.08614904]
[ 0.18304606  0.32851213 -0.17542127  0.00547914 -0.00621785  0.21001989
 -0.03440538  0.02366216  0.33003902  0.30830798  0.1670326   0.17007548
  0.31558755  0.19116399  0.12237842 -0.19235203 -0.08889204 -0.29518166
 -0.14944987  0.01510459]
[ 0.02456495  0.2194231  -0.4479636   0.13737787  0.23867762 -0.13771373
  0.15293387 -0.23563983  0.00302868 -0.02404638  0.03234975 -0.24509905
 -0.02240295  0.02726077  0.36441422 -0.28564572  0.09379069 -0.23474005
 -0.08279919  0.08281947]
[-0.05487361  0.23328967  0.16278823  0.29301563  0.10536683  0.228321
 -0.20148113 -0.24239881 -0.22407106  0.00808758  0.22353993 -0.10448255
 -0.270347    0.63087773 -0.07487164  0.16873384  0.27618477  0.0590119
  0.5331159  -0.2694482 ]
[-0.03492311  0.3089372  -0.17431024 -0.14277172 -0.11198313 -0.20016009
 -0.07725169  0.1727513   0.2138497   0.01901537 -0.36038527 -0.01335364
 -0.17849252 -0.4459152   0.27200726 -0.21148755  0.5482773  -0.0847528
 -0.28821662  0.01327978]
[ 0.1432519  -0.17789367  0.17529613 -0.34500998  0.0653927  -0.1968223
  0.01147039  0.04891327  0.19718881  0.07099018  0.02247923  0.08287372
 -0.07457812 -0.07051359 -0.46116787 -0.01655842 -0.04740688 -0.08827236
  0.06158371 -0.07098135]
[ 0.1682251  -0.19721112 -0.04703831 -0.17791036 -0.06028263 -0.09046857
  0.1080595   0.26731816 -0.10774999  0.14554858 -0.07034583 -0.14493527
  0.06233571 -0.16413198 -0.05935688  0.05518255  0.08339103 -0.31113687
 -0.05144937  0.14054088]
[-0.01537869 -0.17257816  0.01633203 -0.2542394   0.0339914  -0.09015476
  0.32286686  0.30383474  0.2930877   0.29034907  0.07892276  0.1542132
  0.09095575 -0.5393304   0.2107473   0.258563    0.5534379   0.07457607
 -0.07634772  0.13545218]
[-0.02741786  0.15134934 -0.28315443  0.31899777  0.29416013  0.10742221
 -0.5991509  -0.3150135   0.05276415 -0.26077133 -0.24662784 -0.24499105
 -0.19658093  0.29031992 -0.6204197   0.09576443 -0.33094192  0.00099343
  0.16862005 -0.28419656]
[ 0.02539249 -0.13350782  0.09666236  0.33209285  0.2982674  -0.11308178
 -0.11490978 -0.37226275 -0.06011369  0.10815152 -0.13941856 -0.25323355
  0.01495649  0.10931814 -0.07373346  0.27112246 -0.27067885  0.0437982
  0.29221097  0.01205173]
[ 0.22684923  0.23043203 -0.32349133  0.21976182 -0.21887493 -0.18071994
  0.1657881   0.22056688 -0.28287306  0.23770146  0.19921915 -0.21848817
  0.3398268   0.03158391  0.31050614 -0.3375593   0.37765214  0.00909296
 -0.39027083  0.02166353]
[-0.33718595  0.01017762 -0.2861724   0.34046668  0.14660619  0.13785845
 -0.64893234  0.08388101  0.09359505 -0.3312485  -0.1258053   0.07784982
 -0.05595081  0.4140212  -0.2960427  -0.0593315  -0.27282605  0.00413364
  0.11391568 -0.04836389]
[-0.0642235   0.08524053 -0.25759438  0.391154   -0.20796804  0.38125062
 -0.13048589  0.25178266 -0.4418177   0.15405351  0.27276838 -0.16560493
 -0.02190854 -0.1612596   0.00236932 -0.08814573 -0.17772265  0.23202917
  0.2007671   0.146324  ]
[ 0.04529697  0.1179379  -0.15331388 -0.1387955  -0.03540713 -0.00714738
  0.00916189  0.17066854 -0.14406751  0.05695294 -0.03097389  0.22988842
 -0.18284638  0.04690949 -0.22679791  0.00353143  0.6009698  -0.06368049
  0.2246656   0.17987081]
[-0.08679164 -0.26267588  0.0345933  -0.06135649  0.08897562  0.34588245
 -0.05068515 -0.0866444  -0.13818125 -0.17601377  0.20422678 -0.00570661
  0.09272677  0.2721013  -0.20577    -0.06661842 -0.11762054  0.16629116
 -0.00758606 -0.05197459]
[ 0.16480279 -0.23498003  0.32081077 -0.00237847 -0.03983225  0.00319578
  0.2589059  -0.23457438  0.04322529 -0.14955811 -0.02046305 -0.04763819
 -0.2614096   0.15107326  0.18185188 -0.00322921 -0.04267779  0.20370401
  0.07752632 -0.22245006]
[-0.05015935 -0.03476657  0.3374796  -0.11354329 -0.28995883 -0.08198693
  0.15866747  0.38936615 -0.07274097  0.04512817  0.1702053  -0.00913649
  0.00882408 -0.08130756  0.19739844 -0.21114728  0.4174754  -0.09888873
  0.10744486 -0.07074875]
[ 0.29718634  0.17634888  0.09169074 -0.3824368   0.04481598 -0.05793566
 -0.2161327   0.05150835  0.18130252  0.02030391 -0.17643604  0.13670368
  0.08396976  0.10227691  0.71279794  0.01809415  0.59625137  0.13069223
 -0.08207296 -0.00910141]
[-0.11364489  0.13878542  0.01610956 -0.17651747 -0.10287027  0.02561225
 -0.08458015  0.12501952  0.21206489  0.07930797 -0.18541074  0.12209578
 -0.01922491 -0.12228324  0.21336104  0.03706059 -0.00264697 -0.19889784
 -0.07155702  0.09909508]
[ 0.16939779  0.17363894  0.00165382 -0.20509697 -0.11029909 -0.10808787
  0.20553917  0.05676733 -0.04150648 -0.04878039 -0.26097137  0.39691484
 -0.17634225  0.03976087 -0.08026551 -0.13189298  0.07951394  0.26686558
 -0.0051282   0.06698488]
[ 0.01745346  0.20532465 -0.17414644 -0.14377713  0.00047358 -0.03823597
  0.2766347   0.0559473  -0.19301274 -0.10719744 -0.26096854  0.20971581
  0.35847846 -0.04291669 -0.00186247  0.1381033  -0.16001797 -0.09262133
  0.02089501  0.22470105]
[ 0.02412132 -0.01144685  0.20257531 -0.11223941 -0.2250263   0.02093518
  0.03347214  0.19413047  0.26956597  0.3031704   0.10491928  0.11891542
 -0.10067383  0.0334215  -0.10475995 -0.16684753 -0.06004513 -0.09383772
  0.14293759 -0.23070526]
[ 0.27422267 -0.10959765 -0.19291553 -0.21751809 -0.1356736   0.00636258
 -0.00810322  0.3288659   0.01183064  0.41754255 -0.42174283 -0.04742675
  0.151737   -0.13648091  0.48837015 -0.29882848  0.28216594  0.16737545
 -0.36688086  0.38842177]
[-0.11989026  0.3619914   0.29918393 -0.34901232 -0.2312448  -0.03828643
 -0.10066365  0.45446512  0.23126525 -0.01665954  0.0791319   0.30324498
 -0.13958694 -0.27691066  0.28371787 -0.01907351  0.49087757  0.19952853
  0.05039703  0.17834716]
[ 0.03140678  0.1504725   0.3817849  -0.09841434 -0.0991458  -0.20517619
  0.67669344  0.1132545   0.16672295  0.23992883  0.20679253 -0.02476468
  0.35770005 -0.60655737  0.39514494 -0.17427492  0.4584874  -0.03212018
 -0.34285408  0.28885877]
[-0.05006348  0.19594233  0.16297062  0.25200468 -0.16915089 -0.17041557
  0.03903147 -0.32245657  0.03131486 -0.1721106  -0.15803641 -0.03628625
 -0.40196082  0.38673857  0.00082618  0.28898647 -0.19660011  0.21688072
  0.29342282 -0.21822272]
[-0.04505984  0.00903534  0.3485402  -0.05219417  0.00155906 -0.19968025
  0.35230577  0.01807563 -0.24043381 -0.08127788  0.05070069  0.16337778
  0.16377528 -0.10733344  0.29185513  0.1457638   0.06784385  0.00404025
 -0.02788865  0.06737083]
layer 5 Activation
tanh
layer 6 Dense
20 1
[0.02075305]
[-0.03671156]
[-0.06511745]
[0.03963294]
[0.04535224]
[0.05108437]
[0.03200674]
[0.08718993]
[-0.03074084]
[-0.04619695]
[0.0084861]
[0.05562706]
[-0.03181557]
[0.0386926]
[0.05932267]
[0.01505173]
[0.06996872]
[0.03570123]
[0.07440542]
[-0.08470081]
[0.23482609]
