layers 7
layer 0 Dense
20 20
[-0.26479888  0.24149533 -0.22698255  0.20380665 -0.32254288  0.09588329
 -0.07203645  0.26284704  0.12758386 -0.28032452  0.18115334 -0.0557859
 -0.02549907 -0.31727707  0.36611557 -0.05479511 -0.18427494 -0.00642697
 -0.098073   -0.29303843]
[ 0.04604267  0.08815891 -0.09455004 -0.04410186 -0.3628629   0.3423774
 -0.33187264 -0.16708928  0.37388733 -0.3998697   0.0864062  -0.35163248
 -0.22224297 -0.02864774  0.39326444  0.08326865  0.3397694   0.28539282
  0.3900838   0.22709404]
[-0.19457982 -0.440887    0.3305726  -0.42579547 -0.2594154  -0.14791057
 -0.38718086  0.13969047 -0.20107019  0.150349   -0.17909504 -0.0624825
  0.1583977   0.12525454 -0.3009519   0.4516928   0.11312375  0.37633643
  0.03452469 -0.2391365 ]
[-0.31131685 -0.3958641   0.21933372 -0.30246046 -0.25512502 -0.28693625
  0.06951983 -0.05507008 -0.31639314  0.3168537  -0.3910518   0.09219198
 -0.30100146 -0.19446373 -0.15246804 -0.02119095 -0.16688563  0.06877671
  0.30094814  0.17708926]
[ 0.01852132 -0.08040141  0.16564956  0.1867615  -0.07573454 -0.22780097
 -0.12451236 -0.08139367  0.07892101 -0.41137272  0.11769407  0.17581044
 -0.12538986  0.50403863  0.08140046 -0.06403416  0.15170723  0.2798637
 -0.03636957 -0.40116784]
[-0.15347143  0.09529809  0.14430541  0.5184026   0.32025573 -0.261588
 -0.37766615 -0.0953761   0.14000408  0.04142062  0.29252258  0.25292274
 -0.254691    0.24653421 -0.05160221 -0.19321536 -0.32899123 -0.26892045
  0.04599111 -0.03581976]
[ 0.45585147 -0.07266761 -0.42967385 -0.15065946  0.15961263  0.29072377
  0.253217    0.42142072  0.14036717  0.01982431 -0.05533997 -0.06031134
 -0.07135955  0.10854565 -0.33996361 -0.07594232 -0.03676854 -0.31796217
 -0.3477014   0.10859383]
[-0.03769139 -0.1705181  -0.24282208 -0.15933202 -0.28788576  0.27152023
 -0.28420806  0.11175224  0.09722407 -0.19538999 -0.09013312 -0.08656677
  0.36338848  0.08512171  0.0389119   0.14914264  0.1167463  -0.12426361
  0.27697483  0.31797668]
[-0.1921582   0.13862523  0.2780771  -0.33473396 -0.01792863  0.03358008
 -0.20406123 -0.24522658  0.3015609  -0.00689871  0.03546996  0.22404614
 -0.23994239  0.36815193 -0.03691001  0.26681262 -0.13964644  0.2522331
 -0.04396043 -0.0963129 ]
[-0.15555492  0.1347373   0.24220346  0.47845525 -0.28169033  0.16222946
 -0.04202374  0.3598716   0.09547386 -0.02317319 -0.4385599   0.38937962
  0.28937095 -0.1701469  -0.2729899  -0.10249891 -0.19166292  0.3395175
  0.06386276  0.00682949]
[-0.19407676 -0.190443    0.43182892 -0.20292222  0.02460349  0.25011042
  0.1330449   0.04924659  0.01242946  0.1376542   0.30259722 -0.2344847
 -0.31349605 -0.03805037  0.1479797  -0.11315706 -0.16430259  0.39348006
  0.3050976   0.32492602]
[ 0.7500432  -0.47218218 -0.09090113 -0.3287172  -0.3491939  -0.06382711
 -0.02286614 -0.6615861   0.41851625 -0.26762295  0.10544294 -0.07957814
 -0.17232276  0.13120829 -0.16675787 -0.5388242   0.42437777  0.09289576
 -0.28121972  0.09610385]
[-0.03585267 -0.05245708  0.10279901  0.09003897  0.0986739   0.03565045
  0.5440332   0.25389522 -0.17344838  0.47311434  0.10677145 -0.07991739
  0.12192769  0.18397108  0.16642807 -0.18486689  0.14241846 -0.16904671
  0.33175927  0.18417218]
[ 0.2793896   0.19720581  0.21471742  0.07692346 -0.08373111 -0.06608732
 -0.12766556 -0.23500922  0.05988299 -0.47779095  0.27917615  0.23896402
 -0.4613653  -0.38997674  0.22771727 -0.01310204  0.11184774  0.03470399
 -0.24116412  0.2686723 ]
[-0.2769842  -0.50348055  0.12259124 -0.11286159  0.3105778   0.4426713
  0.10316816  0.206605    0.26705906  0.3383422   0.10807523 -0.16331172
 -0.09201029 -0.18457645 -0.10199783  0.31052157  0.07151356 -0.12616684
  0.36443374 -0.21780849]
[ 0.04995863  0.1706826   0.34517014 -0.02720135  0.24523516  0.02061358
  0.12956518 -0.38507316 -0.13722827  0.16692474  0.2642475  -0.40705183
  0.28062668  0.17378418  0.10982643 -0.44274274 -0.14567141  0.3455912
  0.0309501  -0.18162791]
[ 0.5384113  -0.04405548  0.22217512  0.08474842 -0.28408873  0.25928476
  0.02146974 -0.4761349  -0.00868985 -0.05313213  0.33954403 -0.41130275
 -0.43355536 -0.09277181 -0.37789154  0.31277663  0.3921823   0.43275595
 -0.3784573   0.01593358]
[ 0.6781499  -0.2990273  -0.2911544  -0.598202   -0.00847189  0.23487042
 -0.16857252 -0.54408437  0.502592    0.3553488  -0.22033739 -0.822578
 -0.27456304 -0.01609281  0.46305418 -0.8873453   0.24800564 -0.47253826
 -0.11615552 -0.2732365 ]
[ 0.5781716   1.0356216  -0.23035423  0.4863798   0.18847567 -0.2611234
 -0.53906304  0.34069145  0.3784426  -0.7825485   0.08435185  0.02285256
  0.5253081  -0.16911493 -0.53427887 -0.5180947  -0.02569694 -0.14790788
 -0.6173055   0.17221715]
[-0.4028853   0.00469217 -0.35989842 -0.09309239  0.09337305  0.3736829
  0.43049717 -0.25436538 -0.14855525 -0.141002   -0.28115875 -0.00836055
  0.22434862  0.3185704   0.00719286  0.13856053 -0.28251928  0.09219348
  0.5338295  -0.15442996]
[-0.06571145  0.0004106   0.00050984 -0.01589664 -0.04428621  0.04601942
 -0.08630184 -0.0303383   0.0290316  -0.05386869 -0.03710132 -0.09481263
  0.0117263   0.01476544  0.05093082  0.0512163  -0.00942707 -0.03786714
  0.05214593  0.02980099]
layer 1 Activation
tanh
layer 2 Dense
20 40
[-0.3016479   0.03934903  0.04355603 -0.16438071 -0.17798625 -0.02470412
  0.07123949  0.08730801  0.2745378   0.2143086   0.42806494 -0.19145706
  0.1064362   0.31188458  0.12929907  0.06240608 -0.13048665  0.22546692
  0.44349945  0.14468317  0.08866946  0.04087291  0.14034046 -0.0652565
 -0.27122408  0.01844708  0.4778989  -0.22566415 -0.09887233 -0.25968572
  0.3495139   0.07200303  0.5024016  -0.22900027 -0.4302081   0.24661379
  0.3378628  -0.41072527 -0.07185097 -0.37913018]
[ 0.08084253  0.01895662  0.1954235  -0.01383651  0.06842028  0.2935332
  0.03313759  0.01906036 -0.09808179  0.1622056   0.48392195 -0.22634901
  0.19025452 -0.06481819 -0.23557307 -0.06780488  0.20408668 -0.258464
  0.06091919  0.07234138  0.26780364 -0.03383417 -0.09125248  0.2678325
  0.2689545  -0.26758215 -0.23010333  0.22901128 -0.02322204 -0.37352854
  0.1498044  -0.15567853  0.2808173   0.02679688 -0.45001918  0.0926301
 -0.15419582 -0.03603652 -0.23122604  0.03992214]
[-0.12720719 -0.19015563  0.02447241 -0.00648131 -0.31828722  0.11495432
  0.25618953 -0.15536861  0.23571885 -0.22300822  0.24960653  0.23472126
 -0.332138   -0.25032195 -0.23217887  0.05494781 -0.19239804  0.14601135
 -0.12385388 -0.33676592  0.19066596  0.20609061  0.16930026  0.1353363
  0.20568208  0.15671389  0.27057138 -0.02176582  0.26920268 -0.10098757
  0.00873988 -0.14155616  0.1371565   0.3030925   0.0167433  -0.25717053
  0.04826131  0.1564567  -0.22374596 -0.07653834]
[ 0.08724711  0.30085015 -0.10600463  0.0983679   0.07730901  0.14590678
 -0.01813226  0.09534062  0.18567064 -0.01225504  0.19179231  0.00063127
  0.2883314  -0.00722298 -0.1218923   0.02018658  0.37404191 -0.16001533
 -0.2188946  -0.20746836 -0.03927153  0.1536012  -0.41258714  0.06840718
 -0.3120194  -0.0014924  -0.16553819  0.4124788  -0.31076685 -0.2394729
  0.15025634  0.27390102  0.04035464  0.13849029 -0.27467045 -0.10349013
  0.19796993  0.36999428 -0.37092423 -0.3230068 ]
[-0.10797998  0.03620449  0.08954057  0.25850728  0.15702543 -0.23818026
 -0.11233707 -0.18352574 -0.23877822  0.26037112 -0.1950588   0.2531606
  0.11450189 -0.0554084   0.27143     0.2711755   0.2623625  -0.09280778
 -0.18695116 -0.05851148  0.0756334   0.22967005  0.27529246  0.18721376
 -0.02345276 -0.20728248  0.12958193 -0.04680736  0.15588401  0.01432148
 -0.13444497  0.15062828 -0.38417208  0.1019038  -0.03971413  0.13765098
 -0.0621757  -0.20492725  0.24208319  0.11247408]
[ 0.16323452 -0.18831195 -0.11508794 -0.24095437  0.03272032 -0.03598009
  0.2335345  -0.1248453  -0.278002    0.3303361   0.25618073 -0.21525429
 -0.05084884 -0.12142456 -0.17718022 -0.09957717  0.18201105  0.19473512
  0.21282956  0.12032267 -0.15075262 -0.19985336 -0.04077659  0.22138116
 -0.22682078  0.1202888   0.07407185  0.17936549 -0.24199492 -0.00461011
 -0.04652364  0.2497969  -0.11827992  0.02107548  0.07149669 -0.36370677
  0.19718406  0.21686451 -0.07217763 -0.05785679]
[-0.3022582   0.02706189 -0.2002085   0.2450815   0.20326759 -0.25852484
  0.11464178  0.20672862 -0.27814955 -0.00182143 -0.25749636  0.29994196
  0.19222637  0.19257754  0.14753701  0.05353426  0.13924794 -0.34015778
 -0.21526058 -0.22362076 -0.15103227  0.24998093 -0.24635454 -0.2387417
 -0.2115942   0.22456232 -0.07324257  0.06105028 -0.18822525  0.2785397
 -0.21132228 -0.01967125  0.02110911  0.17517832  0.21298608 -0.15507883
 -0.10758794 -0.09780212 -0.14308833  0.1951312 ]
[ 0.08466145  0.23080596 -0.27530482 -0.2376423  -0.16957128 -0.25593093
 -0.22809334  0.27244085  0.22024322  0.10810791  0.04793738 -0.27994004
  0.21743879 -0.10442411  0.1131119  -0.12529811 -0.2582082   0.25847125
 -0.5037349   0.23260021  0.02554843 -0.28225783 -0.09192714 -0.04984551
 -0.2355123  -0.30881804 -0.0701424   0.0732353   0.07637437  0.0038304
  0.0279414  -0.26516315 -0.34453523  0.24504259 -0.20204721 -0.11192943
 -0.12979592  0.38814718  0.20802294 -0.22123377]
[ 0.21577826 -0.21869332  0.3477781  -0.17138888 -0.04290641  0.14610673
 -0.13644385  0.00723669  0.22361788  0.2370838   0.09918121 -0.32732558
  0.15874918 -0.1361076   0.24101509  0.46778426 -0.14268693  0.19540077
  0.2606615  -0.19940375  0.24105063 -0.11692711  0.09323333 -0.11805693
 -0.08778597 -0.08112115 -0.31292468 -0.00124871  0.21963584  0.2688001
  0.20405872 -0.00713172 -0.23088686  0.07262061 -0.21487589  0.03662585
  0.17082936 -0.13344674  0.36571616  0.12384523]
[-0.23183297 -0.02701183 -0.0147258   0.05901562 -0.1821574  -0.3323215
 -0.12114188 -0.28468886  0.30523527 -0.30770528 -0.12713185  0.3515581
  0.1724247   0.14411783  0.30353454  0.27441755  0.24797095 -0.09072011
  0.11802053 -0.20796205  0.10756268 -0.29926822 -0.39699566 -0.24930842
  0.23765464  0.36476624  0.00110695  0.16125172  0.33430424  0.03488939
  0.20315579 -0.04138068 -0.34043926 -0.31187645 -0.16856465  0.21405186
 -0.02517191  0.27777156  0.2337022  -0.04012772]
[-0.4426218  -0.01462249  0.14522216 -0.202282    0.00171335 -0.19749378
  0.37787086 -0.0423445   0.28755587 -0.28903833  0.28847572 -0.1412829
  0.15513852 -0.2868013  -0.18388106  0.05310812  0.13105889 -0.32940236
  0.40040034 -0.28718203  0.302788   -0.16170998  0.18931666 -0.01273065
  0.06034729  0.01884565 -0.0011335   0.0270037   0.18577075  0.12950538
  0.05242774 -0.2081217   0.17948033  0.2790226  -0.3477232   0.24372877
 -0.1688702   0.1042683  -0.33032092  0.11830533]
[-0.08168068  0.1725009  -0.56700444 -0.1291552   0.22372419 -0.02552651
 -0.15070261 -0.10342374 -0.25322223  0.04061455  0.06691451  0.02418066
 -0.2533612  -0.35423735 -0.03655298  0.17557783  0.29252452  0.30062085
 -0.07979917  0.0958515  -0.32206276 -0.12153351  0.15782245 -0.09372064
  0.12585883 -0.26466843  0.24163434 -0.15069775 -0.00516857 -0.4194181
 -0.3162745  -0.00625787  0.19561002  0.20700197  0.09324668  0.01929248
 -0.05537287  0.22695768  0.2360099  -0.0529881 ]
[ 0.39138374 -0.05009652 -0.15227503 -0.07372393  0.1867347  -0.31437296
 -0.31555027 -0.1902009  -0.15733442  0.24908766  0.28927243 -0.44321084
 -0.03781337  0.29030907  0.12026808  0.05949977  0.18473938  0.25983435
  0.08456233  0.29965028  0.05205421 -0.27956802  0.2916991   0.0733081
  0.11692308  0.31393224 -0.11991116  0.27499282  0.24092662  0.11793834
 -0.00988632 -0.01392587  0.2813732   0.13126418  0.09997516 -0.01012199
 -0.32231364 -0.08075005 -0.03865648 -0.30465144]
[ 0.07732261  0.04781808 -0.2127859   0.05676926 -0.1655781   0.00611048
  0.15455905 -0.1292906  -0.21925752  0.05919969  0.08634559  0.01068251
  0.24237774 -0.1989535  -0.06393649  0.04713012  0.09274006  0.1813299
 -0.11468179  0.19703808  0.21707281 -0.2613793   0.14014128  0.26696837
 -0.3307658  -0.16570722 -0.18123347  0.30188826  0.08811776  0.30190226
 -0.05678093  0.30827233 -0.18331091 -0.23732437 -0.05768898  0.14609596
  0.09355046  0.26510003  0.23301049 -0.1409711 ]
[-0.36935133 -0.07965592 -0.08401154 -0.20547208 -0.25206226 -0.00668818
  0.13652454 -0.2232597   0.20300509 -0.11713198  0.18440415  0.15136297
 -0.096881   -0.058532    0.10017196  0.01968524 -0.23763739  0.1340916
  0.35689017  0.04803412  0.25949994 -0.19554558  0.09036818 -0.09196321
  0.28294975  0.31742612 -0.24897166 -0.07180431  0.15992092  0.32432544
 -0.04158496 -0.4120329  -0.3510195   0.10005857  0.04208359  0.00522424
 -0.34462947  0.13605863  0.13378249  0.06760293]
[-0.3503291   0.29773512 -0.14783052  0.21771644 -0.2150012   0.1611316
  0.08104376  0.3855189   0.07416268 -0.16720335 -0.42819518 -0.27468577
 -0.2810172  -0.39885873 -0.23100714 -0.22735015 -0.11069307  0.20150739
 -0.22370817  0.10342654 -0.2344522   0.26806918  0.31591165  0.15761681
 -0.0076912   0.05393093  0.17381111  0.11685379 -0.11003812  0.0164865
  0.14992912  0.14792484 -0.36168453  0.2324313   0.02159718  0.12075989
 -0.13245116  0.23056185 -0.3855224   0.22307864]
[-0.21726274  0.01051549 -0.23340824  0.19100153 -0.06389314  0.02035935
  0.04706006  0.2570939   0.2502169  -0.29504576  0.13251463  0.10582678
  0.02579482  0.26166567 -0.03332143  0.10795707  0.05276092  0.17949271
  0.25410512  0.05482015  0.11540149  0.2679685  -0.22935353 -0.13075955
  0.05577116  0.23674469 -0.19917564 -0.08612152  0.13619995 -0.00857189
  0.03054441 -0.05822436  0.27955416  0.2075475  -0.32438058  0.2892875
  0.18736385 -0.01704008  0.21499403  0.12864529]
[ 0.11320409  0.01484289  0.06534511 -0.10474754 -0.05833597 -0.18867034
  0.2344985  -0.2615804   0.26957956 -0.14598688 -0.12179904 -0.02456082
  0.12349249 -0.09674167 -0.21088351 -0.49211994  0.26650313  0.08971281
 -0.00907579 -0.09039489  0.12099178  0.01652919  0.09200341  0.3489977
  0.32458985  0.04482454 -0.1599413  -0.09563763 -0.21733001 -0.20997076
 -0.04986242  0.03704535 -0.23249003 -0.06880402 -0.09679697 -0.27496898
  0.01558469 -0.13132018 -0.24733067 -0.19208428]
[-0.22702713  0.1223452  -0.35208616 -0.22545241  0.13691816 -0.2964847
  0.15288624  0.1520049  -0.05007282  0.00230647 -0.40480107  0.14391586
 -0.12022781  0.2778338  -0.2789055   0.06068575  0.04885038 -0.0035096
 -0.23421481  0.02879777 -0.34189898  0.17738068 -0.06006192  0.01306143
  0.3215156   0.37517756 -0.25773108 -0.33212173  0.03605017  0.5866858
  0.22071454 -0.26663688 -0.11047673  0.06444851 -0.03046184 -0.5127536
 -0.43235666  0.05211915 -0.29105723  0.24845614]
[ 0.32535762 -0.0488982  -0.26486453  0.21208948  0.21762551 -0.27423385
 -0.11946533 -0.02997498 -0.20324874 -0.10847403 -0.05677801 -0.14891315
  0.11578747 -0.28047553 -0.22015142  0.09821833  0.29044485 -0.24899964
 -0.16689475 -0.06149147 -0.29999343  0.06593359  0.0013753  -0.108349
 -0.21226566 -0.22128515  0.10799428  0.01428162  0.2862432   0.25160825
 -0.23148295  0.11140718 -0.04421261  0.08897819  0.05464227 -0.28649557
  0.06174828  0.24234602 -0.22589219  0.2467839 ]
[ 0.0408189  -0.03505737 -0.12303942 -0.0233808  -0.12043005  0.00036965
 -0.00103093  0.03678989 -0.01226241 -0.01090179  0.01822183  0.00240883
  0.01658092 -0.04587258  0.0029352  -0.07215532  0.05089594 -0.03069709
 -0.00158707 -0.00371326 -0.0280879  -0.01460779  0.01106255  0.04253542
  0.0596205   0.00412368 -0.01112325 -0.01249184  0.01057174  0.03516935
 -0.04044079 -0.02797237 -0.07393249 -0.01358157 -0.01750715 -0.03844198
 -0.00789571 -0.01552019  0.01788799  0.06464135]
layer 3 Activation
tanh
layer 4 Dense
40 20
[-0.01121022 -0.3142521  -0.02955254  0.2333944  -0.05420968 -0.20932211
  0.09600962  0.30691347  0.24184763  0.07437532  0.27058256 -0.34410357
 -0.01930992 -0.11140089 -0.26688343 -0.28534558  0.17027715 -0.06444652
 -0.26681045  0.02049428]
[ 0.0983981   0.02791399 -0.19936214  0.11213838  0.01047223  0.16760829
 -0.02774411  0.2860818  -0.09657116  0.06907388 -0.00913575 -0.3125506
 -0.37979025  0.2181453   0.27232808 -0.10349734  0.23454323  0.33013704
  0.0283051   0.04871109]
[-0.07767688  0.21417925  0.11021271  0.08221441  0.00401213 -0.30327848
  0.18422356 -0.19148836 -0.10495375 -0.11982184 -0.09251663 -0.09958089
 -0.08506335 -0.19237518 -0.0786875  -0.07844315 -0.02003866  0.06082086
 -0.2957601  -0.30682367]
[ 0.17158885  0.05328412 -0.28503838 -0.18929581 -0.1593771   0.12679121
  0.16312252  0.10521912  0.13802911 -0.0076064   0.0087137  -0.3062583
  0.02303866  0.1922741  -0.15014455 -0.22296324 -0.26985434  0.08292369
  0.08701192 -0.0878155 ]
[-0.126813   -0.25518948  0.2478196   0.03683648  0.25017306 -0.02589567
  0.00174686 -0.15015225 -0.08321104 -0.02781767 -0.26369274 -0.22076333
 -0.24444836  0.19011147  0.01115509 -0.10814396  0.24236572 -0.09040622
 -0.01864627 -0.04640185]
[-0.18085834  0.05851135  0.07179092 -0.06321343 -0.31304705 -0.26555917
  0.23508959 -0.06459615  0.33101177 -0.05385099  0.29052645  0.11216868
 -0.28682122 -0.03855695  0.28285027 -0.30616692 -0.1185069  -0.1560734
 -0.09483062  0.2580394 ]
[ 0.22397286  0.14213938  0.17304993  0.3307665   0.17768295  0.21558909
  0.08486666 -0.17410004 -0.16346835 -0.21691014  0.20570536  0.36161035
 -0.3017185   0.08987555 -0.01844339 -0.01837891  0.27346623 -0.26243424
 -0.21742213 -0.27069545]
[-0.16743425  0.03919419 -0.31272998  0.22311695  0.24831548  0.20325433
  0.16818807  0.09362861  0.36406723  0.22362481 -0.33872554 -0.05836933
 -0.2695854   0.19647533  0.16762722  0.2686808   0.20977286 -0.25082612
  0.29532212 -0.17445949]
[ 0.18449602  0.13055986 -0.23824275 -0.32369742 -0.22778657 -0.20102346
 -0.05550407 -0.24593382 -0.24907446  0.04540705 -0.11133658 -0.08216955
  0.05945527  0.02017496 -0.05163816 -0.09491093  0.07739463  0.21045986
 -0.0314756   0.1634045 ]
[ 0.15148433 -0.06894063  0.12034584 -0.29961136  0.02252444  0.17741562
 -0.08339197 -0.21913868 -0.24728738 -0.02763504  0.07402829 -0.08784842
  0.22468778  0.19156337 -0.27006596  0.0398385  -0.23127718 -0.23463929
 -0.22783707 -0.15196998]
[-0.04030818 -0.2509989   0.3514664  -0.14009254 -0.31973174 -0.3524785
  0.34337315  0.10772011  0.06789599 -0.1723889  -0.1407991   0.22118297
 -0.1895168   0.16985202  0.26758248  0.33023357 -0.18555722 -0.15661207
 -0.21120298  0.21803677]
[ 0.03388623  0.32227287  0.13216764  0.13484322 -0.01386861 -0.23890348
 -0.05906042  0.18413566 -0.07011715 -0.01753962  0.2988417   0.17952244
  0.02198453 -0.3284475   0.06234521  0.14268534 -0.14600694 -0.19803743
  0.25522393  0.19700196]
[-0.14142336 -0.05972686 -0.15523924 -0.16597562  0.06262194 -0.27341035
 -0.04876979  0.21683583  0.11837909 -0.09632315 -0.19238403  0.09132201
  0.04682411  0.21234185  0.16891295 -0.1173145   0.14568467  0.07197993
 -0.17255518 -0.2500206 ]
[ 0.05664696 -0.00250733 -0.09944727  0.06119639  0.00208614 -0.14557816
 -0.11393356  0.1923398   0.0951822   0.12751709 -0.05076487 -0.06317077
  0.29446074 -0.2503225   0.25205058 -0.0476085  -0.1885063   0.18943799
 -0.31520995 -0.3181504 ]
[ 0.08285209 -0.17976083 -0.26454931  0.04187858 -0.01138454 -0.23014434
 -0.3354259  -0.00448796 -0.00935314 -0.08452967  0.09962836 -0.07940309
 -0.21938667 -0.01903288 -0.2213595   0.08946196  0.15764289 -0.08719292
 -0.17168947 -0.03838225]
[ 0.21612848 -0.1975042  -0.35995758 -0.13405901 -0.13680269 -0.28576788
  0.11733627 -0.17534776 -0.26295906 -0.2542218  -0.16811377 -0.1794412
 -0.01439107 -0.19820505 -0.20131823 -0.08294736 -0.20444478 -0.18468696
 -0.01616008 -0.23980373]
[-0.25599718 -0.0307022  -0.06192664  0.21929622 -0.00923008  0.02931889
 -0.21240142 -0.02300999 -0.26228413  0.07412031 -0.24032596 -0.0500708
 -0.18271355  0.350106    0.04073178 -0.17870174 -0.20974296 -0.16649508
  0.07460558 -0.05265882]
[-0.14660223 -0.13201818 -0.01949662  0.3077527  -0.11472048 -0.05222869
  0.17426388 -0.16053987  0.10302877  0.00585966 -0.16615887 -0.28327096
  0.16418564 -0.15471984 -0.18927607  0.17735308  0.10950682  0.09475337
  0.23563907 -0.0993861 ]
[ 0.04918367  0.11549519  0.29283616 -0.1664314   0.12264901  0.03786362
  0.12666275  0.35653096 -0.13902864 -0.13642444 -0.32851112  0.30042368
  0.26717716 -0.08086941 -0.03986505  0.15280582  0.10109033  0.3680314
 -0.31844836 -0.31489208]
[ 0.03050577 -0.11721645 -0.16414073 -0.01554177  0.16501069  0.08994782
 -0.010067    0.271223    0.10102542 -0.1276776   0.01865466  0.12427887
  0.30105004  0.0813467  -0.05368883 -0.26060367  0.10944911 -0.19358872
 -0.211941   -0.1379779 ]
[-0.07964692  0.22511041 -0.1616197  -0.09345557 -0.25652948 -0.29792157
  0.13658398  0.03162846  0.15668397 -0.01012555 -0.13742325  0.30648887
 -0.01708768  0.10353006 -0.16904071  0.2073917   0.07391445 -0.32452875
 -0.03857128 -0.13196819]
[-0.22423597  0.03918788 -0.02919385 -0.19479701 -0.17887059  0.00546089
 -0.096883    0.10529242  0.03976641 -0.03591124  0.24053422  0.28428927
  0.20013301 -0.01536169 -0.11579931 -0.28632492 -0.03490727 -0.00323295
 -0.23667604  0.27658153]
[-0.18295085 -0.05968048  0.2309623   0.22470202 -0.09659427  0.31197974
  0.05929009  0.13454352  0.17947991  0.05431645 -0.16644399  0.13664517
 -0.19435962 -0.1766724   0.09993482  0.14375418  0.04738884 -0.14278817
 -0.2417834  -0.02060729]
[ 0.23766725 -0.17356524  0.06399418 -0.2677132  -0.05891696  0.21156308
  0.14598456 -0.2092995  -0.13418955  0.22047548  0.17956923  0.11031681
 -0.19883877  0.19928657 -0.16114214  0.0300548  -0.23677891  0.1070545
  0.26534635 -0.20949647]
[-0.00866265  0.10021988 -0.18625955  0.26370257  0.179874    0.06765401
 -0.13548079  0.03413509 -0.26802334  0.15894067  0.17335384  0.20595482
  0.2317849  -0.28988364  0.29162318 -0.18067887 -0.04826958 -0.03635659
 -0.15536308  0.27900004]
[ 0.03426361 -0.12095202  0.07690274  0.13616516  0.22899821 -0.03662053
  0.1432859  -0.12991008 -0.39817044  0.26910073  0.02544037 -0.23191246
 -0.2128188  -0.1147159  -0.2758237  -0.00723659  0.21170281 -0.33890334
  0.0657591  -0.08884913]
[-0.15335539  0.1545572  -0.24111928 -0.30753082 -0.11295564 -0.20712757
 -0.11368052  0.08516352 -0.14583786  0.32219732 -0.0290924   0.0605183
 -0.00470547  0.19215348  0.21224138 -0.22719987 -0.28689435  0.21548964
  0.22935688  0.0625581 ]
[ 0.15267946  0.11312341 -0.09852355  0.15634096 -0.2109344   0.10365289
  0.12456799 -0.25365373 -0.03822105 -0.07481124 -0.2354674  -0.25545937
  0.27819955  0.19495913  0.25169265 -0.09924649 -0.19695403  0.20561469
 -0.3666887   0.19030897]
[-0.2105167  -0.1381935  -0.00468703 -0.1576094   0.16135795  0.16406104
  0.14477795  0.27146772  0.16120526  0.08825841 -0.23283768  0.0554342
 -0.19122805 -0.44662014  0.0677918   0.07834063  0.04899643  0.11580133
  0.0385406  -0.13194835]
[ 0.10951382 -0.18645     0.24279824 -0.05222385  0.11207198  0.27841434
 -0.12819636 -0.12341031 -0.37016794 -0.17207472 -0.05557249 -0.00372277
  0.38677114  0.12988633  0.15902518  0.07248887 -0.25849786 -0.01768047
  0.01836465 -0.3597393 ]
[ 0.25971878  0.12416998  0.06739116 -0.30890107  0.06529972  0.05486656
 -0.04096192  0.04091222  0.1291527   0.2939592  -0.21293361 -0.17518401
  0.19865237  0.10027712 -0.15462027 -0.18944518  0.27167645  0.15653498
 -0.20315683 -0.10640203]
[-0.29328457  0.13001086 -0.06121651 -0.12800127 -0.17290032 -0.18084988
  0.14156447 -0.0797215  -0.29644552 -0.29543397  0.30059013 -0.2852885
  0.02778816 -0.2527113   0.05045425 -0.05334226  0.13483381  0.16569552
 -0.25110823  0.08412139]
[-0.19316353 -0.05959505  0.2852108  -0.11659975 -0.00143112 -0.09773529
  0.30146107  0.15274791  0.32426298 -0.04287713 -0.2575238   0.27445403
  0.07441741 -0.10140133  0.22940856 -0.16129291  0.32041    -0.17367047
 -0.28702813  0.18025193]
[-0.27027074  0.16734782 -0.03745801  0.3467629   0.28290933  0.23380414
 -0.00518378 -0.15345287  0.12312814 -0.19260205 -0.20641902  0.07238716
 -0.21626826 -0.01733303  0.11219081  0.25283328 -0.1067673  -0.05233489
  0.19147253  0.27994964]
[-0.11152878 -0.12445562  0.12745662  0.2852272   0.3108544  -0.08593901
  0.02506962  0.01509094  0.09521528  0.09294297 -0.26984516 -0.00764779
 -0.05532422 -0.2061884  -0.2549767   0.06514914 -0.0598796  -0.3037218
  0.30235493 -0.13687049]
[ 0.14867711 -0.13745321 -0.18482774 -0.22362089 -0.25027138 -0.20977987
  0.10241093  0.08343309  0.0091117  -0.23303193  0.2030526   0.17957442
 -0.31220973 -0.29491544 -0.08032037 -0.10529535  0.09424016 -0.19064076
 -0.33501098 -0.05241897]
[ 0.03012497  0.23204651 -0.24170573  0.2217493  -0.29258248 -0.07741506
  0.14050192  0.21433914  0.3149899   0.1953092  -0.02036738 -0.17515607
 -0.20851465 -0.2556329   0.0894808   0.19635724  0.2625569   0.06540076
 -0.16245343 -0.01253863]
[ 0.18743439 -0.11820919  0.13153705  0.04309491  0.1746774   0.13355671
 -0.25057605 -0.2385234  -0.05494086 -0.19456165  0.10668476 -0.11384122
  0.17768544  0.19590163 -0.01553799 -0.24469593 -0.10535887 -0.15232603
  0.00669425  0.3630587 ]
[-0.12361389  0.14328483  0.01491392 -0.14884797 -0.25123012 -0.28166977
 -0.207227    0.1049009   0.10617832  0.10746613  0.20668405  0.13316806
  0.13013348 -0.33927378 -0.27190024  0.28542325  0.258532   -0.11525033
 -0.14205825 -0.27536163]
[ 0.13362385  0.00136649 -0.07903578  0.11298694  0.26742026  0.05823049
 -0.05131741 -0.2295635  -0.30849755 -0.21317625 -0.00235245  0.23046844
  0.3100862  -0.24003112  0.05677851 -0.16559775 -0.24350621  0.09604206
  0.36235663 -0.05293464]
[ 0.00962592 -0.02551664 -0.06116283  0.01050223  0.03489085  0.0011363
  0.0265823  -0.04047188 -0.00940488  0.05622232  0.04548087  0.04292911
  0.03875891  0.01230574  0.0117611   0.00389947 -0.03598941 -0.04494285
 -0.00559986 -0.01315208]
layer 5 Activation
tanh
layer 6 Dense
20 1
[-0.05150294]
[0.2924361]
[0.14998522]
[-0.14886416]
[-0.25051644]
[-0.18797196]
[-0.34484315]
[0.02043347]
[0.12437258]
[-0.23341708]
[-0.16224751]
[-0.35202292]
[-0.05690866]
[-0.3458665]
[-0.02583655]
[0.00467687]
[0.00837177]
[-0.00094826]
[0.33562338]
[0.33655515]
[-0.05138187]
