layers 7
layer 0 Dense
20 20
[-0.38346395  0.13378932 -0.17051081 -0.07314832  0.27808362  0.24922755
 -0.03153061  0.38530818  0.16281179 -0.2275224  -0.20522173 -0.05300489
 -0.05562166 -0.2623988   0.10743751  0.86709034  0.17123373  0.08537656
  0.2648448  -0.18081303]
[ 0.10744885 -0.37865236 -0.3705469   0.08944264  0.32437044 -0.29295188
  0.22376537  0.23564577 -0.13525456 -0.23845461  0.32891214  0.02411878
 -0.07590812 -0.13866408 -0.15681732 -0.36430305 -0.0700008  -0.05259192
  0.35382253  0.2204544 ]
[-0.17487654 -0.04091009  0.10655269  0.04150894 -0.06351233 -0.3675132
  0.0577946  -0.33985895 -0.11435971 -0.09806174 -0.03881013  0.12413508
 -0.2865653   0.31406355 -0.27401292 -0.04395536 -0.20195341  0.2363506
 -0.35544115  0.28677356]
[ 0.06423641  0.3638342  -0.00953807  0.02732137 -0.18436493 -0.33383182
 -0.29791445 -0.06230795  0.1038599  -0.0023411  -0.3358279  -0.5385191
  0.21620661 -0.32995802  0.35100436  0.50717926 -0.08515517  0.31567138
 -0.32581422 -0.05897338]
[-0.25246257 -0.08646193 -0.18860914 -0.5309573   0.6238276   0.33687752
 -0.3105003  -0.37778208  0.04362611 -0.13044274 -0.11818054 -0.6056766
  0.06319738 -0.10333668  0.09006798 -0.06816731  0.23441157 -0.52467257
  0.41378343 -0.00500861]
[ 0.14793491 -0.11862668  0.31211722 -0.06020558  0.02498585  0.21379942
 -0.00626761  0.19351286 -0.16608742 -0.01732698  0.05156586 -0.28394327
 -0.34023696  0.06412905 -0.32829955 -0.2584718   0.21925539 -0.36155003
 -0.32915395  0.2364744 ]
[-0.34639776  0.24282843 -0.17815855  0.34679675 -0.09933391 -0.29844448
 -0.23548442  0.28841156  0.03308946 -0.23664716  0.34759307  0.3096825
  0.34026432 -0.3736981   0.08272773  0.03435561  0.06993183  0.3301406
  0.1561836   0.17243248]
[-0.21559869 -0.7003159   0.44628996  0.2351982  -0.40614742  0.00764866
  0.59464014 -0.04825749  0.0119683  -0.11646067  0.42168048  0.9685207
 -0.00232108  0.01835863 -0.2541117  -0.52319413  0.06344239  0.11832283
 -0.15669008  0.44730946]
[ 0.4186465   0.2698452  -0.16966443  0.14314848  0.20852865  0.5163313
 -0.11146516 -0.38729113 -0.17556784 -0.51528716  0.5748999  -0.34426472
 -0.34168744  0.67055184  0.261337    0.4500235   0.40816057 -0.59251636
  0.40622455 -0.48830396]
[-0.04494699  0.61469495 -1.0550961  -0.625639   -0.28748727 -0.02787333
 -0.5112998   0.38627946 -0.23483022 -0.27714726  0.02026446  0.6343695
 -0.57884395  0.00676065  0.22055434 -0.278683    0.51756805  0.24326058
  0.319457    0.3336128 ]
[ 0.24225901  0.26529533 -0.0959703  -0.34613135 -0.13480608  0.22402354
 -0.5537484  -0.9468419  -0.5909928   0.513648    0.64950913  0.09515635
 -0.956548   -1.370569   -0.35076228  0.07333116  0.74192375  0.24556327
 -0.7359243  -0.3247511 ]
[ 0.27928996 -1.2022334   0.39263502  0.23447122 -0.17485829 -0.3498528
 -0.8244268   0.45085025 -0.12181424  0.01040444  0.29342934  0.98735374
 -0.11689525  0.05416613  0.27205148  0.32909602 -0.45058486 -0.4854947
 -0.78862417  1.1080421 ]
[-0.45399168  0.04521565 -0.02120195 -0.36435285 -0.35171208  0.19916424
 -0.07675935 -0.1293662   0.1112099   0.06542978  0.13947678  0.00441828
  0.23070265  0.3047137   0.17831957 -0.4811625   0.15279762 -0.12616344
 -0.09016731 -0.4477081 ]
[ 0.27061492 -0.11746631  0.14077133 -0.40309507 -0.14616355 -0.16879106
 -0.38034892 -0.66735137  0.07042708 -0.311224    0.3193737  -0.27398312
  0.5385525   0.07025513 -0.49130282 -0.1125975   0.18311313  0.55074
 -0.02664535  0.36927843]
[ 0.5234615   0.20047227 -0.14875911 -0.3731324  -0.06153297  0.0066015
 -0.14404805  0.44391298 -0.46478426  0.4212727   0.36319417 -0.02868288
  0.56994355  0.3148929   0.60510343  0.01584398  0.06861615  0.5759872
 -0.26937458 -0.03677985]
[-0.51439947  0.91696304  0.14707021 -0.34490457  0.22617441 -0.10884145
  0.7411678   0.03857977 -0.83145237  0.6749372   0.3252526  -1.1047186
  0.7756108   0.2559615  -0.8626378  -1.0158316  -0.23755722 -0.31974927
  0.00734574  0.72902805]
[ 0.07669368  0.25842768  0.030805    0.00608958  0.08864938 -0.2802614
 -0.21783206  0.31174028 -0.25247598  0.29630184 -0.07046597 -0.47961324
 -0.31099316 -0.40469807 -0.3322086   0.360283    0.04392272 -0.34309825
  0.18941589  0.2274209 ]
[ 0.4743744  -0.31128553  1.3945674   1.2260319   0.7493297   0.7269446
  0.639132    0.509675    1.0919527   1.0385057  -0.2954356  -0.7389829
  0.82384616  0.22629495 -0.23598947 -0.03245926 -0.74880856 -1.0288875
 -0.73482484 -0.92050683]
[-0.9859835   0.46402916 -0.08684067  0.8275885  -0.09359873 -1.4013221
  0.8802516   0.5855873   0.98468786 -0.76602596 -0.79685485  0.04923378
  0.4240275   1.4171629  -0.93118423  0.12975326 -0.9991531  -1.1897063
  1.379648    0.4107249 ]
[ 0.56242007 -0.88740677  0.6066271   1.4238929   0.03637999  0.16309248
 -0.39071983 -0.84020543  0.33816677 -0.52054816 -0.06763562  1.1981591
 -0.3795966   0.15176378  0.63781554  0.6798621  -0.09203261  1.3273649
  0.4949741  -0.53162616]
[ 0.06775024  0.12507144 -0.04501001 -0.1637098   0.02486249  0.01441506
 -0.2251662   0.22664584  0.03910515 -0.10918459 -0.28991053 -0.19741222
 -0.03035341 -0.15531886 -0.03256729  0.21349615 -0.04944543  0.14645782
 -0.03720838 -0.09354892]
layer 1 Activation
tanh
layer 2 Dense
20 40
[ 0.39474475 -0.00754528  0.07362252  0.47625417 -0.20590362 -0.11157377
 -0.15695542  0.24783204 -0.03936375 -0.38853213 -0.00393876  0.9477364
  0.06759973  0.08362656 -0.05289914 -0.27599585  0.04216433 -0.49537286
 -0.26716384 -0.07214257  0.21475235  0.68992    -0.21415615  0.01528054
 -0.02847533  0.0644002   0.09801292 -0.30246064 -0.11552498  0.18711215
  0.18773337  0.56783015  0.32679376  0.3104769  -0.5634992  -0.4632707
 -0.35228047  0.2707802  -0.6127823  -0.01488173]
[ 0.0406801   0.08441349 -0.19707477 -0.21848284 -0.71038675  0.5107345
 -0.18135649  0.9320849  -0.08452866  0.19097953 -0.0572615  -0.45548368
 -0.17169905  0.69000345 -0.82210535  0.11413998  0.44927326 -0.01923532
  0.45708683 -0.44832355 -0.1449504  -0.52197146 -0.22741733  0.06221384
  0.07323756 -0.06876629 -0.4708437   0.01584487  0.2803122   0.1458136
  0.02854096 -0.0873799   0.2892931   0.47386104  0.02512244 -0.0118701
 -0.04702998  0.51214653  0.08319736 -0.20951661]
[-0.13836522 -0.10452129  0.35329866  0.711657   -0.01021109 -0.29749683
  0.05215988 -0.24064323 -0.57436514 -0.11057924 -0.09066214  0.16760796
  0.5387036  -0.5839286   0.23052399 -0.27462032  0.4636247   0.27647483
  0.12809815  0.36237392  0.4028666   0.7868264   0.1486796   0.4306049
  0.17963903  0.09356645  0.6594914  -0.47550073  0.36815053  0.24422105
  0.09628749 -0.10784226  0.09762945 -0.11550611  0.73827946  0.21880206
  0.03960661 -0.23915818 -1.2150315   0.15387222]
[ 0.5473484   0.37739664  0.09457314  0.2888412  -0.6355641  -0.3645504
  0.04380847 -1.0004959  -0.2147712  -0.02414099 -0.41981027  0.48717898
  0.3117701  -0.4578831   0.32218692  0.29790086  0.4350318   0.62965924
 -0.4460447   0.25603697  0.35760862  0.6634834   0.8464569  -0.20002069
 -0.3071193  -0.1926549  -0.05853447  0.15706682 -0.95731235  0.67961997
  0.540468   -0.48310024  0.37415034 -0.12189055  0.8692659   0.28563085
  0.79341006 -0.16352986 -0.10664994  1.0858288 ]
[ 0.14230573 -0.18320079  0.65652156  0.07709511 -0.37825724  0.21123855
 -0.36699897 -0.48882508 -0.35076272 -0.12453344  0.3854789   0.96239275
 -0.0581341  -0.45798528 -0.17984179 -0.588844    0.34047514 -0.01023791
 -0.01491676 -0.67739075 -0.4723539   0.23946974  0.24155055  0.21302018
  0.13931987  0.32080236  0.65816456 -0.51955974 -0.18899937  0.4801043
  0.24906492 -0.34665552  0.1270712  -0.21859348  0.5020308   0.05259904
 -0.32455513  0.08358679 -1.2303159  -0.35824865]
[ 2.9824004e-01  2.5522658e-01  1.6185846e-02  6.0366935e-01
 -4.5801538e-01  3.3257362e-02  3.4472173e-01 -2.4976665e-01
 -5.4443562e-01 -4.6275389e-01 -2.0894261e-01  5.2260262e-01
 -3.6065205e-04 -1.1795082e+00 -2.1003228e-01 -2.5711680e-02
  4.9560305e-01 -1.0544425e-01 -2.0328462e-01 -7.1797766e-02
  3.6304095e-01  3.2902762e-01 -5.4817706e-01  2.0537172e-01
 -8.2523003e-02  4.7141865e-01  2.2012854e-01 -1.1187586e+00
  2.5937694e-01  3.4999880e-01  4.2188935e-02  1.7488983e-01
 -2.2913258e-01  1.9328931e-01  4.3298882e-01 -8.2917444e-02
 -3.9531618e-01  3.2273331e-01  3.9624959e-01 -4.5776281e-01]
[ 0.1842957  -0.47849146 -0.05680308  0.3704163   0.0416824  -0.01305848
  0.6298264  -0.6450492   0.30968115  0.6931074  -0.2496098  -0.21246697
  0.4097185  -0.32320654  0.04692356  0.19876966  0.52698934  0.77748185
 -0.1397282   0.180885   -0.4923454  -0.12116375  0.52153957 -0.32113707
  0.01726806 -0.22545396 -0.24424832 -0.01419165  0.09324402  0.3451321
 -0.5005218  -0.22700556 -0.24710986 -0.429754    0.57530355  0.11373577
 -0.24004854 -0.3677703   0.07632766  0.8700026 ]
[ 0.18785246 -0.5228421   0.35147426  0.14877275 -0.18907164 -0.01527361
  0.44152892  0.14493044  0.85714763  0.29297677  0.28094327 -0.34974098
 -0.50813764  0.21532564  0.20359072  0.183252   -0.48138362 -0.26475817
  0.04692371  0.12279113  0.11322486  0.21956071 -0.24938121 -0.3195792
 -0.13403384 -0.26416063 -0.6726133   0.33760813 -0.0868624  -0.18730992
 -0.31939238 -0.6039377  -0.02431806  0.24222142  0.26525164  0.5723098
  0.402815    0.39677304 -0.02152202  0.16673058]
[ 0.06420215 -0.14101954  0.84881437  0.00965972 -0.15962179 -0.00790804
 -0.87284917  0.08125464  0.2652583   0.2987728   0.00353014  1.0891939
  0.05701781  0.37981787 -0.1706072  -0.52750915 -0.6270844   1.0656459
 -0.09252241 -0.21214396 -0.06180035  0.04204875  0.37070274  0.08635473
 -0.23864226 -0.5281094   0.3276088   0.27373376 -1.2924626   0.2591306
  0.64470243 -0.714397    0.45669425  0.31047392  0.3389077   0.8194295
  0.43749234 -0.11645055 -0.2987914   0.60812336]
[ 0.4551209  -0.00496343  0.26719546  0.7466355  -0.6008664   0.05326991
  0.78520626  0.37956876 -0.09578384  0.5959138  -0.24549474  0.43367442
  0.4426394  -0.7095293   0.32293415 -0.8253353   1.3093234  -0.41068044
 -0.08327005  0.12715173  0.34126523  0.31811616 -0.478359    0.22742751
  0.24210161  0.74521846 -0.284527   -0.9465329   0.45022276  0.76855177
 -0.6609415  -0.17992197 -0.5411831  -0.14067172  0.9904572   0.20443544
 -0.5536516  -0.2567093  -1.1655638  -0.02388248]
[ 0.00331228  0.26007614 -0.68279785 -0.16636084  0.08409721 -0.018881
  0.3830001  -0.09858997 -0.62347096 -0.27463534  0.18244542 -0.17033961
  0.3425292  -0.63919073 -0.10819577  0.69900846  0.14192016 -0.28036317
 -0.01932366  0.3237306   0.42497352  0.27842593  0.10580076  0.0579602
  0.1504074   0.13162525  0.4484628  -0.23027301  0.22899798  0.01807974
 -0.02999609  0.5185004  -0.54483676  0.08879267 -0.5044707  -0.47889107
 -0.12230258  0.06184982 -0.4513116  -0.05126608]
[ 4.60327685e-01 -2.56433696e-01 -1.12385058e+00 -4.54215437e-01
 -4.07169342e-01 -7.24270284e-01  4.00774442e-02 -1.74984992e-01
  1.80709705e-01 -1.04116750e+00  6.81868672e-01 -1.89606771e-01
  2.55948722e-01  2.32379407e-01  1.68707058e-01  6.92140341e-01
 -7.19904661e-01 -1.11757636e-01 -2.31642142e-01  4.89064544e-01
  4.85900015e-01 -8.40140413e-03 -3.54945451e-01 -9.21989024e-01
 -7.28267506e-02 -7.82802003e-04 -7.22900033e-01  2.23773196e-01
 -5.80653213e-02 -5.74511349e-01 -3.17343086e-01  1.21868193e-01
 -4.35938329e-01 -1.56805590e-01 -5.88410735e-01 -1.45358909e-02
  1.27744645e-01 -4.86286730e-01  7.52185643e-01  2.80464351e-01]
[-0.20049104 -0.20820723  0.28299412 -0.24988917  0.10328259 -0.20995706
  0.1827154  -0.45675525  0.49086922  0.99694586  0.25048673 -0.4571753
  0.10653751 -0.09729809  0.0920407  -0.31651872  0.09307148  0.6715357
 -0.16157964  0.26226446 -0.33606982  0.15359238  0.5971387   0.4686366
  0.1061767   0.5607928   0.272849    0.29466233  0.45161927 -0.5435382
 -0.41219044 -0.24679476 -0.42995262  0.24834827  0.37542525  0.2082937
  0.689568    0.2582251  -0.00748301  0.5754123 ]
[-0.13313983 -0.31945667 -0.24626999 -0.07291417 -0.39903307  0.25901416
  0.19706455 -0.8838906   0.41555157 -0.22722961  0.21459532 -0.23373637
  0.11937253 -0.0679538  -0.46256322  0.44869548 -0.26754162  0.44634196
  0.06655172  0.26565853 -0.5803117  -0.15228222  0.28824413 -0.5724516
  0.2774145  -0.23864508  0.7935431  -0.30137768  0.19095132 -0.21444799
 -0.11447556 -0.31134447 -0.16183424 -0.01643762 -0.09943301  0.08860458
  0.08474398  0.12335572  0.22782044  0.76838005]
[ 0.5748963  -0.04432238  0.24709988  0.4853938  -0.966473   -0.25900596
 -0.6098834   0.5006509   0.37528637 -0.6743974  -0.09601243  0.66713405
 -0.37110955  0.11483578 -0.28596294  0.2226751  -0.07519013 -0.43108025
 -0.1976937  -0.18953769 -0.31262842  0.22261474 -0.08252893 -0.21805204
  0.21100624 -0.20548137 -0.35245344 -0.5996963   0.13999885  0.2767537
 -0.36567804  0.7565022   0.1981681   0.481926   -0.72292876 -0.3956746
 -0.5808222   0.15643424  0.03139636 -0.25147736]
[ 4.2285502e-01  1.3953224e-01  1.4394476e-02  1.9838931e-01
  3.1284335e-01  1.1427712e-01 -1.8496437e+00 -1.4455202e-03
 -3.0801094e-01 -2.1620539e-01 -8.5281894e-02  7.4498838e-01
 -3.7750044e-01  3.7122709e-01 -1.1339242e-01 -3.1648961e-01
 -4.7517666e-01  3.9606962e-01  1.9677779e-02 -4.7656155e-01
 -1.4709632e-01  8.0808461e-02  3.3721313e-01  1.1567115e-01
 -6.6869691e-02 -4.5484200e-02  4.3325686e-01 -1.0068132e-02
 -5.0910187e-01 -2.6029664e-01  1.2595510e+00 -7.9776958e-02
  9.4943595e-01  7.5199324e-01 -1.6749623e-01 -3.7407316e-02
 -3.2826941e-02  6.7678910e-01 -3.7220177e-01 -5.5058914e-01]
[-0.4226021   0.41141286 -0.6219988  -0.05755404 -0.22201116  0.36154863
  0.19108695  0.33370498 -0.25338697 -0.75890326 -0.16746056 -0.47002184
 -0.19252901 -0.07387922 -0.25928614  0.30295357  0.32469702 -1.0130718
  0.5791858  -0.15066676  0.58125794 -0.2655191  -0.2769665  -0.6413407
  0.3310567  -0.26993996 -0.08279403 -0.3557375   0.6019131   0.3569015
 -0.09240807  0.855893   -0.04178812  0.0687182  -0.05987223 -0.7997301
  0.15347473  0.25049478  0.19245163 -0.8180871 ]
[ 0.5242075   0.52296984 -0.33914956  0.11362884 -0.60490525  0.10238168
 -0.48498577  0.17921968  0.01789696 -0.44191185  0.19958775 -0.7223541
  0.4141838  -0.38350725 -0.26201922  0.47581205  0.00991946  0.40230477
  0.34292278 -0.01463016  0.6468915   0.29291663 -0.38354358  0.01396491
 -0.20565882  0.15772991 -0.19833411  0.05806446  0.37861788 -0.24278277
 -0.00722625  0.521562    0.6216234  -0.03413602 -0.6454977  -0.2929858
 -0.06274832 -0.17041834  1.3185875   0.5553147 ]
[-0.23587885 -0.3780305  -0.7419283  -0.57599354 -0.33204412 -0.2596549
  0.06866226 -0.6358021   0.13571943  0.00996416 -0.4446898   0.09224264
 -0.0860927   0.21644758 -0.8956471   0.83404934 -0.34654513  0.24026316
  0.32841378  0.25814337 -0.705856   -1.0632163   1.0329081  -0.8136044
 -0.1839469  -0.6934954   0.05935859 -0.11670522  0.23783584  0.07371914
  0.26085162  0.1501891   0.27284324  0.33827746 -0.21178657 -0.41535217
 -0.00555346  0.33283713  0.43151486  0.12286264]
[-0.49104887 -0.34174234 -0.17164454 -0.13377701  0.51730746 -0.0998025
  0.09191069  0.05496077  0.22678496  0.15075433  0.26536784 -0.87340456
 -0.28378025  0.08512904  0.44923982  0.11684138 -0.3091357  -0.52833635
  0.53642994  0.05256723 -0.38845527 -0.35594252  0.423019    0.0256586
  0.2198854   0.07055872 -0.30123636  0.6657964  -0.24803738 -0.83691674
  0.00882808  0.5069819  -0.43212828 -0.09117714 -0.17160337 -0.4279735
  0.45460135  0.07053059 -0.21016164 -0.3780612 ]
[ 0.34144834  0.11895726  0.46484968  0.33200794 -0.25250578  0.14253573
 -0.49025294  0.7980522   0.18012519 -0.14133956 -0.28369883  0.18056767
 -0.324884    0.5499735  -0.10942829 -0.48054472 -0.05727837  0.2252121
  0.06860847 -0.30472755  0.19011062 -0.01219608 -0.60865986  0.17313182
 -0.0827588   0.04600847 -0.20042706  0.20953518  0.21135862 -0.00816056
  0.17173186 -0.12161497  0.2658116   0.2616602  -0.15307698  0.14266863
  0.06742284  0.07571072  0.32418272  0.2031667 ]
layer 3 Activation
tanh
layer 4 Dense
40 20
[-0.31034476 -0.16443877  0.36344385  0.48640254 -0.210387   -0.31128472
 -0.48525515 -0.02651037  0.08728814  0.42787448  0.05303087  0.01768434
  0.24860767 -0.00391875 -0.347482   -0.31232777  0.1053291   0.10493881
 -0.11695048  0.01147367]
[ 0.23781645  0.08306796 -0.07940701  0.0703328   0.8211831   0.06327427
 -0.07200672  0.5398369   0.00955588 -0.073305    0.02687973  0.20614517
  0.18840484 -0.00525941 -0.14179265  0.6200498   0.2797338  -0.5485308
 -0.15220256 -0.43331423]
[-0.2835478  -0.05618914 -0.12146384  0.02381641  0.43299106  0.17775345
 -0.8903737  -0.6361232  -0.29268524  0.23806305  0.6108608  -0.11764611
 -0.5546421  -0.11694726 -0.0654968  -0.27181643 -0.17006747 -0.31613278
 -0.52941996 -0.31905   ]
[-0.29684877 -0.42962995 -0.22311994  0.26136807 -0.24464008 -0.13262914
 -0.6470267  -0.19707733 -0.09836521  0.45243058 -0.12593961  0.40011483
 -0.5168915  -0.1539762  -0.502467    0.07110821 -0.11169812 -0.21460503
 -0.3761172  -0.48455694]
[-0.08932047  0.19233951 -0.2825239  -0.3721217   0.22738296  0.54650426
 -0.15297984  0.26383457 -0.46976346 -0.37883586  0.00459195  0.08629111
 -0.2193163  -0.14935924  0.04766016  0.02530415  0.27266487 -0.9019754
 -0.15591532 -0.40032753]
[-0.12340861  0.18701914 -0.21858335  0.9355563   0.17629166 -0.21698587
  0.14809416  0.07703197  0.11393309  0.31360525 -0.37923315  0.14207283
 -0.4860473  -0.11584388 -0.24679768 -0.19909917 -0.4845743  -0.03245832
  0.07030055  0.25985315]
[-0.39068034  0.42692512 -0.1372939  -0.7127193   0.1709391   1.5517107
 -0.47956672 -0.34759572 -0.1941063  -0.81525075  0.3788176  -0.14862733
 -0.09990004 -0.36244628  0.26496997  0.20335948  0.43817222 -0.5013888
  0.06011359 -0.7423861 ]
[ 0.1453325   0.9834996  -0.42110804  0.12214413  0.46132675 -0.21704577
 -0.6081407   0.09953489 -0.049715    0.05335006 -0.26686585  0.6516686
  0.20833577 -0.36483887  0.43377903 -0.12036914 -0.20001872 -0.13191105
 -0.42925942 -0.43736792]
[-0.3190376  -0.05057573  0.01227277  0.06457924 -0.17416266 -0.00293642
  0.18985064 -0.7620668  -0.46199933  0.21551038 -0.08547401  0.44600803
  0.10656965 -0.06632812  0.12792973 -0.63172495 -0.17102133 -0.35400587
 -0.32632622  0.18248688]
[-0.25552633 -0.29744226  0.06457511  0.8485916  -0.15953016  0.20154333
  0.32149065 -0.8194133  -0.26430213 -0.08726994  0.48222515 -0.5096866
 -0.07162381  0.921484   -0.2160822  -0.20559497 -0.02475903 -0.21912757
 -0.01095758  0.77676004]
[ 0.03377823  0.22044653 -0.30974835 -0.46451283 -0.11362176  0.22411461
 -0.07529634  0.23642063  0.07098448 -0.09607632 -0.25345957  0.15651499
 -0.11201957  0.1896766   0.14983757 -0.34509033  0.13240097 -0.07206251
  0.3849459  -0.00257624]
[-0.08203939 -0.45396167  0.6078583  -0.73992276  0.01590944 -0.8061842
 -0.36519298 -0.6692711  -0.36664918  0.28774434  0.38693067 -0.10578583
  0.2858352   0.4775903  -0.1123162   0.40403453 -0.26615247  0.301749
 -0.3936514  -0.36503994]
[-0.31669483  0.02141796  0.39171672 -0.3562128  -0.05896829  0.53019685
 -0.14468168  0.2416658   0.1442166  -0.30087182 -0.29564455 -0.03535495
  0.17702962  0.13677464 -0.05373709  0.3100302   0.44396594  0.03611638
 -0.10776293 -0.06893891]
[-0.08867266  0.33791706 -0.40023762  0.05038684 -0.2665843  -0.33960482
 -0.11525145 -0.08151664 -0.10119607  0.43886548  0.4514812   0.68334395
  0.31954995 -0.362679    0.28972873 -0.39594644 -0.23332052 -0.29964682
  0.02536242  0.12068126]
[-0.3100872   0.06679603 -0.24128886 -0.27989396  0.2201186  -0.27532405
  0.02115154  0.2566447  -0.37536559  0.09322958  0.2457697   0.16713162
  0.7857631  -0.184785    0.06695814  0.35189435  0.45125508 -0.7410458
 -0.22309223 -0.8530221 ]
[-0.3993956   0.27254042 -0.37039918  0.1725434  -0.5032062   0.09015751
  0.4320099   0.45618382  0.25424024 -0.28696105 -0.29580382 -0.17806691
 -0.09706993  0.36716464  0.20618585  0.40389904  0.4655847   0.5539872
  0.12014804  0.6098703 ]
[ 0.12509257 -0.74023086  0.3134061   0.63290346 -0.22927701  0.17738144
 -0.5290054  -0.17805378  0.25347933 -0.16619585  0.30222818  0.54938245
 -0.66422176 -0.11764342 -0.18956977  0.718393   -0.147732   -0.09784527
 -0.37502968 -1.0593933 ]
[-0.67312616  0.5122236  -0.14845482 -0.1688666  -0.6446442   0.01739398
 -0.2739947  -0.37232634 -0.5774791   0.05814769  0.57592565 -0.22651546
  0.22596349  0.4090524   0.48902294 -0.438204    0.20168224  0.16468012
 -0.1021575  -0.3812699 ]
[ 0.33308247  0.32753688  0.13521457  0.7258049   0.17303212  0.04073698
  0.36190975 -0.03318997  0.24215303  0.06983082 -0.30567348  0.34705004
  0.02922733 -0.06202388  0.36423615 -0.11909886  0.02585252  0.17513058
  0.08905838 -0.05323082]
[-0.0782385  -0.15467386  0.04641902 -0.56354094 -0.23615552  0.16167898
  0.31548396 -0.05896481 -0.13649465 -0.1858027  -0.06368876 -0.531574
 -0.12751831  0.31157553  0.3001187  -0.15130574  0.30199215 -0.09470699
  0.08773769  0.34320047]
[-0.02407953  0.29968938 -0.23655342 -0.3755836   0.8117732   0.34756422
 -0.68678427 -0.10685614 -0.02006048 -0.13421471 -0.09662688  0.30253288
  0.48223263 -0.65915805 -0.13744354  0.28669232  0.40202048 -0.688473
 -0.42512435 -0.7785287 ]
[ 0.00456365 -0.8004625   0.16458835 -0.71146834 -0.31186768  0.35708407
 -0.41751754 -0.4424013   0.26443824  0.33560944  0.18889548  0.60456806
  0.1539314  -0.32162723 -0.42667297 -0.077613    0.27749416 -0.82146776
 -0.2308343  -0.19646569]
[-0.5509158  -0.49520984  0.5142032   0.18053575 -0.60329455  0.46819064
  0.69361544  0.2809597  -0.25227442 -0.06200355  0.11421467 -0.22128594
  0.11533396  0.25004223 -0.2945037  -0.00654098  0.14944841 -0.00302466
 -0.01685121  0.7420105 ]
[ 0.27865836 -0.39835992  0.19106409  0.2513742  -0.00230012 -0.18116204
 -0.5162317  -0.27838904 -0.5773736  -0.11405108  0.01137842  0.09132322
  0.2742179  -0.13282065 -0.3271064   0.32217115  0.22606075 -0.9505275
 -0.35703105 -0.42079115]
[ 0.42154077 -0.10247801 -0.02039959 -0.13262959 -0.03276972  0.4637403
 -0.06494545  0.32604286  0.20893797 -0.07321708 -0.10683818  0.10431521
 -0.5501598  -0.18386133 -0.10286136  0.63808525  0.1750998  -0.08733505
  0.01342411 -0.05455593]
[ 0.37201536 -0.4369929   0.306339   -0.2635977   0.43415987  0.23503233
 -0.5458973   0.19085823 -0.21084529  0.04109965 -0.18985346  0.3962816
 -0.40204477 -0.13654797 -0.45231655  0.54994327 -0.24491988  0.32507637
 -0.08504491 -0.5296302 ]
[-0.04859618 -0.25393716  0.099819    0.2785679  -0.05763663 -0.15572716
  0.12051065  0.7394886  -0.12578571 -0.1305925  -0.04726213 -0.3523979
 -0.2024554   0.29401928 -0.31413028  0.6600459  -0.10579978  0.53666866
  0.27665967  0.50438535]
[-0.73783255  0.53605723 -0.24172367 -0.20828654  0.00660269 -0.3021831
  0.8404789  -0.048776   -0.2674816  -0.4384874   0.17312777 -0.08963496
  0.62828076 -0.3287011   0.46429816 -0.838231    0.00359681  0.07343981
  0.47791573  0.33727455]
[ 0.30187473  0.41002718 -0.19913675  0.35637534 -0.19806875  0.550209
 -0.2415225   0.34487936  0.31670514 -0.39135188 -0.47303182  0.46201482
 -0.46927604 -0.42687118  0.013616    0.02420671  0.34990454  0.4213755
  0.10168341 -0.3343896 ]
[ 0.39576414 -0.38052133  0.42984077  0.14355648 -0.07075876  0.13267937
 -0.4482204   0.05825174  0.17655559 -0.05287816 -0.13346979 -0.4779898
 -0.2818826   0.24785167 -0.23363648  0.8938414  -0.13385701 -0.01356242
 -0.32849118  0.20078667]
[-0.1790271  -0.29762518  0.06321057  0.03436039 -0.35324526 -0.895051
  0.08584365 -0.22640668  0.0780398   0.50600797  0.20384659 -0.33962503
  0.45883086  0.24388088  0.11701612 -0.28413418  0.14177175 -0.1898339
 -0.14471544  0.13610981]
[ 0.6629161  -0.17531656  0.00324783 -0.31918058  0.20060211 -0.1267376
  0.20416668  0.8127784   0.2483613   0.34386072 -0.66315466  0.13425095
 -0.21182403 -0.33822078 -0.4543567   0.40807447  0.28441724 -0.23228233
  0.31808835  0.12456967]
[-0.04731767  0.01673115  0.33654714  0.55170673 -0.08395186 -0.849804
  0.22979803  0.03484107  0.11823171  0.57848406 -0.32586828 -0.49738267
  0.86747926  0.5006831  -0.05349778 -0.16913933 -0.3399135   0.00288839
  0.11692346  0.4877612 ]
[ 0.16092302 -0.31935433 -0.07543816  0.3741869   0.47315592 -0.634931
  0.15960486 -0.17822313 -0.26945686  0.87771857 -0.23151807  0.16274157
 -0.04013271  0.2753      0.4017662  -0.20526963 -0.13014908  0.30925095
 -0.1328328   0.16161509]
[-0.44046038 -0.6550447   0.76964223  0.5573125  -0.2729053   0.45108616
  0.03081475 -0.55114365 -0.05934731 -0.23784964  1.0041636  -0.1138456
 -0.321245    0.28904492 -0.01083909  0.0668056   0.32450834  0.10649946
 -0.73301774 -0.18326032]
[-0.3606852  -0.32749054 -0.3595457  -0.27231053 -0.10711149  0.00400953
 -0.1866423  -0.87750787 -0.55046403 -0.05159497  0.47549558 -0.56780595
  0.17027146  0.34736255  0.43136668 -0.19895847  0.00877594  0.15805393
 -0.04498263  0.2646244 ]
[-0.7447523   0.5367917  -0.1472484  -0.18784988 -0.66354007  0.02318286
  0.2761116  -0.11845051 -0.24962416 -0.10279436  0.44164693 -0.06946326
  0.01187882  0.16374506  0.45646188 -0.47809583 -0.17492391 -0.7185392
  0.07865509  0.27025664]
[ 0.10784347 -0.2466564   0.19617324  0.10056899 -0.08371184 -0.42658114
  0.41999984 -0.19171958 -0.0942162   0.5226974  -0.22493517 -0.1943775
 -0.41947645  0.11904613  0.296075    0.09332673 -0.5630802   0.37050593
  0.04212944  0.10609207]
[-0.6602192   0.6543788  -0.50976986 -0.47211382  0.19659558  0.43567213
  0.06152583  0.04749953 -0.19605431  0.19826385 -0.4959081   0.83545095
  0.12114131 -0.44975352  0.50578976  0.08374767 -0.2369594   0.3053322
  0.4957701  -0.3702565 ]
[-0.43813005  0.84683454  0.26921892  0.11044774 -0.30933502 -0.01654252
 -0.27689445 -0.16458513 -0.07702939 -0.24832946  0.5678183   0.05498875
  0.03987816 -0.35222405  0.32546163 -0.17922474 -0.09478193 -0.32425734
 -0.5942495   0.2155483 ]
[-0.04454565  0.14536485  0.02702078  0.42791894  0.08122485 -0.35425884
 -0.30811927 -0.18182105  0.00235603  0.24416916  0.09159932  0.29172477
  0.01919068 -0.14686877  0.14521733 -0.18179066 -0.15816993 -0.02024418
 -0.10758653  0.01616274]
layer 5 Activation
tanh
layer 6 Dense
20 1
[-0.12191369]
[0.23608434]
[-0.286954]
[-0.42065188]
[0.04321462]
[0.33062088]
[-0.4200511]
[-0.12820874]
[-0.38251805]
[-0.2785454]
[0.19855462]
[0.3734774]
[-0.09029114]
[-0.3964117]
[0.52366966]
[-0.13579343]
[-0.14589505]
[-0.10548737]
[-0.49051607]
[-0.15139]
[0.31588238]
