layers 7
layer 0 Dense
20 20
[-0.35493806  0.32175666  0.03178895 -0.25612038  0.13750163  0.50419855
  0.05255965  0.04909167  0.3591433   0.5886843  -0.07289311 -0.13499312
 -0.84989953 -0.5680054   0.19338726  0.2646941   0.76553327  0.1188738
 -0.32888138 -0.76251197]
[ 0.10478766  0.16692041 -0.8453818  -0.02272107 -0.08097084  0.15093254
  0.5418383  -0.4908221  -0.13794139  0.70210415 -0.90827924  0.21393003
 -0.1668909   0.3388511   0.5255179   0.11310109  0.57428485  0.513015
  0.9182727   0.28027543]
[ 0.42443484  0.08857422 -0.36372843  0.04257785  0.27831522 -0.339656
  0.38726345 -0.01664047  0.02307362  0.2715168  -0.39478344  0.5952771
  0.05071028  0.5512291   0.18350288  0.34933013  0.02502681 -0.07346098
  0.6765487   0.3862275 ]
[ 0.287759    0.5124774  -0.37538284 -0.16262269  0.15300567 -0.045674
  0.08668908 -0.2930744   0.3817492  -0.03275409 -0.31949702  0.23526022
 -0.53449506 -0.08359925 -0.33843634  0.35129064  0.05787838  0.04271088
  0.2525319  -0.1382165 ]
[ 0.91469455  0.01276336 -0.06366462 -0.24934332  0.2900335   0.47962576
 -1.3118277  -0.01605433  1.1309687  -0.88091993 -0.09705293  0.29575574
 -0.6715581   0.54350823  0.31572273 -0.4440831   0.32844746  0.04084559
 -0.15384635 -0.12144995]
[-0.13003026  0.09194529  0.28814062  0.2510628   0.24700077 -0.1324332
 -0.2365789  -0.09270559  0.01150938 -0.13055307  0.49101228 -0.12015995
  0.0683661  -0.31621614 -0.30784774 -0.23766933  0.11465608 -0.5154562
 -0.8499469  -0.60094136]
[-0.07339899 -0.0169063   0.11998866  0.02008706  0.2541181   0.35699615
 -0.7886057   0.2811751   0.17334944  0.12013669  0.62632865 -0.62892467
  0.48927853 -0.68718255 -0.4291084  -0.29448608  0.00377772  0.03306013
 -0.8125023  -0.94762135]
[-0.2439052  -0.5149053   0.4054618   1.0188091  -0.4557224   0.11029379
  0.6633431   0.27738872 -0.48677734 -0.07059893  1.1417456  -0.14214228
  0.83121306 -0.13906525  0.10020724  0.1275607  -0.5917182  -0.16136914
 -0.3477861   0.52481836]
[ 0.01944003  0.32633585  0.48887658  0.5435084   0.91122705  0.5286775
  0.7263019   0.0662429   1.025755   -0.8961739   1.0379127  -0.5695792
  0.52122283  0.48183927  0.6575345  -0.29441446 -0.7820461  -0.29821137
 -1.5790788  -0.26118535]
[ 7.1244150e-02  1.2986530e-01 -3.5402134e-01 -1.0422592e-01
  5.8665967e-01 -1.0566849e+00  2.3940983e-01 -2.8533243e-02
 -4.5791388e-01 -6.3594826e-04  7.1859270e-01  2.4508545e-01
 -8.9208877e-01 -1.2844642e-01  6.9797510e-01  5.4195944e-02
  1.9319697e-01  3.1362880e-02 -2.2181432e-01  6.4283973e-01]
[-0.0968539  -0.12410714  0.04170977 -0.19296762 -0.4537401  -0.13479699
 -0.41611072 -0.27861792  0.27909788 -0.18961787  0.86873746  0.09903992
 -0.00676882  0.5066306   0.47695884 -0.5439321   0.22497243 -0.5868909
 -0.7160932   0.31013238]
[-0.22575513  0.07071654 -0.21507365  0.58035535  0.06849216  0.29837623
  1.4508628   0.0775589  -0.5143766   1.3202803   0.80918324 -0.60992795
  0.53250486 -0.17165782 -0.24427584  0.12496921 -0.38279277  0.8116125
 -0.75074625  0.62151414]
[ 0.25810137 -0.18640275 -0.15098749 -0.6814402  -0.16176026 -0.4173741
 -0.40403575 -1.2057354   1.5200088  -0.9941133  -1.3433772   0.31595424
 -1.3645456   0.8694848  -0.61095744  0.68508935  1.1409386   0.2594882
  1.2110533   0.05502332]
[ 0.15437728  0.10243859 -0.5094389   0.08971425 -0.5250625   0.24371116
 -0.498927   -0.47530267  0.32569066  0.06198707 -0.39634705 -0.55226195
 -0.1395293  -0.5418057  -0.31314945 -0.0579209  -0.07199939  0.02110428
 -0.8902081   0.1647005 ]
[ 0.23301578 -0.15521668  0.05562072  0.5342954   0.43734106  1.3720745
  1.5140288  -0.07678766 -0.29688123  0.5146048  -1.7547362   0.7581475
 -0.2634304  -0.04264675 -0.04056576  0.07776107  0.17036721  0.32666507
  0.22877192 -0.45336238]
[-0.02230422  0.20235683  0.2433478  -0.5190729  -0.07073441  0.23411696
  0.13345039 -1.2684634   1.0933285  -1.2358758  -2.399862    1.319161
 -2.1387115   0.72143114  0.05933132  0.984728    1.6738371  -0.27905712
  1.5534539  -0.36420852]
[ 0.43307692 -0.28601217 -0.3763627   0.0836158   0.62537366  1.8511893
 -1.0718709   1.4567223   0.86992794  0.15771018  0.4588301   0.29047912
 -0.18222198 -0.5553802  -0.16290815 -0.27204865 -0.45790076  0.23552132
 -0.3929455  -1.5462104 ]
[-0.5645373   0.34241506  0.4979371  -0.4461684   0.57613385  1.3055843
  0.26849946  0.45552403 -0.09185085 -0.3093814  -0.45093063 -0.33314684
  0.61131644  0.38697213 -0.07213719 -0.1168548  -0.08729241 -0.2178117
  0.47544894 -0.77491266]
[-0.4137813  -0.03321659  0.4301034  -0.07647185 -0.28201342 -1.1727701
 -0.4978585   0.20175305  0.4007431  -0.35132343  0.18181673 -0.58007383
  0.03181021 -0.30808157 -0.08720338  0.353977    0.34417707  0.09040944
  0.13792996  0.40060353]
[-0.9530519  -0.37366644  0.70476556  0.55878204 -0.5084964   0.51064545
 -0.05207975  1.0856075  -0.1286079   0.52615243  2.1478946   0.7554615
  0.44951636 -1.5985562  -0.17762981 -0.2590651   0.04377537 -0.00397605
 -0.41085827 -0.54581344]
[ 0.09558244  0.5084803  -0.4274064  -0.33033156 -0.03885237 -0.15446155
  0.26824892 -0.04375989 -0.2279856   0.58772    -0.26259753 -0.11575101
 -0.19215466  0.04716623 -0.00865694  0.0203002   0.2261695   0.08594066
  0.2202648  -0.08451415]
layer 1 Activation
tanh
layer 2 Dense
20 40
[-0.22495034  0.2741754  -0.12539311  0.21702528 -0.01467621  0.28838176
 -0.13902506  0.05379098 -0.09377873 -0.01649009 -0.05593477  0.14161064
 -0.21728034 -0.20620972  0.20201874 -0.19839078 -0.10300547 -0.20331366
 -0.25818673  0.15874979  0.04260492  0.22823496 -0.4185829   0.0245203
  0.06410524  0.12994945 -0.23115437 -0.47171357  0.09649771 -0.00866954
 -0.00601728 -0.20506728 -0.32078698  0.24943833 -0.05543808 -0.07775017
  0.0772908  -0.20263669 -0.47695804  0.2958762 ]
[ 2.00753093e-01 -1.06175415e-01 -3.28875154e-01  2.81370315e-03
  2.60414958e-01 -6.45891502e-02  2.30796486e-01 -2.10704133e-01
 -1.08751744e-01 -2.76269078e-01 -2.08529085e-01 -4.52210568e-02
  1.98494405e-01  2.05811765e-02 -5.77509664e-02  4.93382841e-01
  3.05724312e-02 -2.01692790e-01  3.97582859e-01 -6.36271462e-02
  2.29789346e-01  2.82160461e-01 -1.08253665e-01  8.73934031e-02
 -3.69455367e-01 -2.84561723e-01 -6.16766624e-02 -1.98031098e-01
  5.93634434e-02 -1.69607460e-01  1.37577653e-01  2.39777103e-01
  4.68553975e-04  7.50892013e-02 -2.17903540e-01  1.16607338e-01
 -1.08294100e-01 -5.33790529e-01  2.52535909e-01 -1.25430942e-01]
[-0.13750587 -0.08450834 -0.06799579 -0.05308565 -0.06198009 -0.03891119
 -0.18405831  0.08634776  0.01640815  0.19751641  0.32040778  0.2752804
  0.01250743 -0.14956981 -0.36933157 -0.34635994  0.01943712  0.20732394
 -0.41537437 -0.43167642 -0.00903879 -0.11116811  0.01175539 -0.4031419
  0.00280492 -0.05073362  0.2005966   0.07068054 -0.05515088  0.2800352
  0.0180315   0.05518041 -0.02892825  0.05296646  0.21042246 -0.07273473
  0.20337974 -0.04273158 -0.0720081  -0.15906186]
[-0.11620162 -0.13194878  0.08307551 -0.06925484 -0.09099235  0.11760106
 -0.19806123  0.02488735  0.05551236  0.43654904  0.20674075  0.25762457
  0.10493127 -0.14866523  0.19303937 -0.2389166  -0.08633122  0.34577164
 -0.22180778 -0.3512476  -0.30942145 -0.5224965   0.01829921  0.08588032
  0.32422847  0.23137344  0.24364172 -0.24666858 -0.11035398 -0.4199853
  0.05339679 -0.00577263 -0.07230259 -0.11623358  0.18327364 -0.21463026
  0.32639036  0.3668412  -0.10718735  0.03407291]
[ 0.08463346  0.18440348  0.24456619  0.03540282 -0.05876809  0.20916474
 -0.09121998  0.01186886 -0.24761738  0.14937489  0.28531176  0.12951475
 -0.15852861  0.03465427 -0.10221375  0.00286919  0.06911888  0.22891344
  0.17288065  0.40717703  0.08442706  0.4288256  -0.14574212 -0.21822478
 -0.00162286  0.2100516   0.187614   -0.04385705  0.4811313   0.42739627
 -0.03191874  0.03614262  0.00570258  0.7196653   0.08401921  0.12336305
  0.13131405  0.1242891   0.0088825  -0.10108717]
[ 0.00643465  0.16918747 -0.06146957  0.05374308  0.13808882  0.16610521
 -0.20168933 -0.18306784 -0.13570353  0.09694762  0.25068742  0.24361888
 -0.1535066  -0.07620685  0.49823123 -1.0853776  -0.02132729  0.01233812
 -0.2469025  -0.1910833   0.04516742  0.14369352 -0.22507526 -0.77582145
 -0.04262601  0.40428033  0.08093598  0.18348606  0.21134955  0.6834832
  0.09023226  0.08050043 -0.4600036   0.18269135 -0.14175487 -0.1221043
  0.24112211 -0.308651   -1.1278187   0.19896844]
[-0.02280886 -0.27460805  0.08508525 -0.06999832 -0.22959408  0.00897998
  0.08538438  0.08680692  0.10710926  0.23870069  0.00504127 -0.0231076
 -0.13394853  0.03146605  0.41372317 -0.20284186  0.1394518  -0.2599597
 -0.10575118  0.55340755 -0.13555972  0.04037301 -0.09698951 -0.12868203
  0.04110663  0.13846985 -0.00486858  0.01126021  0.6520296  -0.10985454
 -0.25541544  0.3123209   0.16589902  0.48865747 -0.1355951   0.01490096
 -0.02615243  0.11116496 -0.26425087 -0.01030915]
[-0.17176715  0.01121604  0.21246175 -0.0620384   0.14423446 -0.11573596
 -0.61050606 -0.14458938 -0.0536488   0.3130411   0.19090034  0.5653116
 -0.4598794  -0.26352537  0.03930011  0.1362869   0.04945917  0.2930245
 -0.16500615 -0.19886418 -0.06654963 -0.22159915 -0.12465459 -0.08995841
  0.3163328   0.04772685  0.21968213  0.91250646 -0.1622475   0.08140601
 -0.06858259 -0.12215427 -0.00489957 -0.04337343  0.12590276 -0.08438048
  0.28107607  0.12812647 -0.1737414   0.03318994]
[ 0.11224712  0.12866916  0.51123637  0.14686164  0.06288145 -0.12759474
 -0.06202162  0.14201461  0.19806306  0.08439542  0.09492373  0.16191415
 -0.18233332 -0.27477062 -0.90709126  0.4425303  -0.13700122  0.23819247
  0.02151758 -0.20740683  0.12612471 -0.35387304  0.00912635  0.05877072
  0.08975009  0.04242923  0.04250944  0.03515844 -0.1593801  -0.46750984
 -0.17024061 -0.13067989 -0.01919287 -0.3037054   0.0197582   0.18340197
 -0.05446764  0.29201823  0.5539042   0.05182096]
[ 0.20401813 -0.29265153  0.00959736 -0.11569851 -0.12022836 -0.06916867
  0.44356337 -0.31178838  0.06707772  0.09169926 -0.22835822 -0.10258475
  0.5021187   0.15131052 -0.04863107  0.7963518  -0.10398781  0.18687347
  0.04780294  0.06989963  0.01223974 -0.36326796  0.2945799   0.52178603
 -0.01568406 -0.12128983  0.15561764  0.5155407  -0.18898614 -0.47674635
 -0.07030377  0.22947818  0.18892512 -0.48201776 -0.12893017 -0.21801643
 -0.10500196  0.2533393   0.60296446 -0.23259947]
[-0.25076774  0.04006907 -0.31619567  0.12425247 -0.07562217  0.07619703
 -0.1175819   0.08543994  0.05589668 -0.18560185  0.00898842 -0.05895712
 -0.2985652   0.09109356  1.0960028  -0.97953707  0.07137285 -0.51179314
 -0.19005626  0.4582387  -0.01908692  0.03613948 -0.21284507 -0.92443585
  0.02080909  0.07048482 -0.11244016  0.8236957   0.08554957  0.28071538
 -0.00882848 -0.1760355  -0.21130168  0.45001784 -0.05558511  0.02951816
  0.27674678 -0.1231735  -1.3760786   0.0341429 ]
[ 0.0402104  -0.18194447 -0.00615553 -0.08188048  0.00229574 -0.33050728
  0.01611649  0.11706571 -0.06278079  0.1652228   0.09634431  0.34484524
  0.2464114   0.0159663   0.14258206 -0.36255386 -0.10464909  0.18838175
 -0.19342174 -0.5915506  -0.03964601 -0.17975996  0.20227343  0.33124143
  0.01501147 -0.08249445  0.09335583  0.47666928 -0.04976727 -0.2890246
 -0.06812614  0.04938123 -0.02757419 -0.20165181  0.23048225 -0.07189906
 -0.04721409 -0.06227209 -0.19971319 -0.266644  ]
[ 0.27262816 -0.24716605  0.06687061 -0.06329314 -0.22182097  0.05652141
 -0.35639605  0.05200857  0.06446422  0.08419278  0.0155946   0.01204514
 -0.32094768 -0.16760789  0.89710486 -0.30074713 -0.08511598 -0.01347067
 -0.13008562  0.19043213 -0.03631532  0.1476707   0.09948593 -0.11752635
  0.14783299  0.2973752  -0.04392976 -0.31935868 -0.32377753  0.62932694
  0.2169488   0.12664819 -0.15152451 -0.09217053 -0.00999672  0.07084972
  0.06957467  0.24493572 -0.6031324   0.27871564]
[-0.11882568  0.21608646 -0.12734292  0.16698928 -0.08285125  0.18875049
 -0.2418207   0.1686693  -0.17586389  0.10967613  0.26238567 -0.2268833
 -0.13979232  0.22354066 -0.11307415 -0.11016318 -0.09261409 -0.00490595
 -0.01070969  0.39231548  0.01337636  0.04071595 -0.18634306 -0.2933887
  0.08282676  0.17794818  0.03961089 -1.0277431   0.02458159  0.3843093
 -0.15273917  0.10532168  0.12571375  0.0934824   0.05978921  0.2947773
 -0.15002461  0.16641575 -0.3711557  -0.07852644]
[-0.14435564  0.0058783  -0.09185911  0.05664164  0.1519601   0.03327477
 -0.24970505  0.26891488 -0.15338027 -0.12174809 -0.25940797 -0.04625076
 -0.06361394 -0.19520937 -0.10034354 -0.2057392  -0.0724391   0.08134034
  0.5856476   0.21512185  0.2729291  -0.21055001  0.23471771 -0.10728905
  0.06469234 -0.00995764 -0.13653286  0.12655798  0.24147059  0.07380628
 -0.1851848  -0.170092    0.04544528  0.43301645  0.12372901  0.0253602
 -0.12389184 -0.01464505 -0.00808657 -0.24033669]
[ 0.17088737  0.16151364 -0.12831034 -0.1231935   0.02532069 -0.07824146
 -0.14655292  0.0846218  -0.11537054 -0.27921423 -0.40077984 -0.32307717
  0.21023236  0.26397744 -0.44948435  0.03057687 -0.14516616 -0.20794517
  0.14025038  0.05922662 -0.04999888  0.30784515  0.15438001  0.05334596
 -0.04833958 -0.07271926 -0.07671583  0.11128223  0.2993335  -0.26746148
  0.17596823  0.23180093 -0.04581783  0.14846681 -0.23143007 -0.04355541
 -0.20443678 -0.19141687 -0.00336742 -0.0422792 ]
[ 0.19092195 -0.01755316 -0.45157433 -0.23115481  0.18986224 -0.05447313
  0.22993909 -0.13112596 -0.15903823 -0.22950171  0.04176103 -0.24396393
  0.07224476  0.04589827 -0.7171247  -0.20296769  0.05628298 -0.35685524
 -0.03813017 -0.03500039  0.139995    0.10867053 -0.00640918  0.06705563
 -0.12481281 -0.25987244 -0.12885004  0.36922383  0.2412767  -0.17476632
  0.17560907  0.02885445  0.14125529 -0.20092839 -0.17754172  0.02068602
 -0.39518905 -0.26886287  0.01849205 -0.27061108]
[ 0.17446952  0.15937284 -0.07863392  0.04698854  0.03188944  0.02023362
  0.07254542  0.04816226 -0.09516247 -0.04985821 -0.00881567 -0.2068788
  0.18939464 -0.13660766  0.04012277  0.29685566 -0.13407977  0.04136303
 -0.01316818 -0.11719582 -0.03713769  0.04288911  0.07846558 -0.19487529
 -0.09157507  0.08219198  0.05306423  0.02355545  0.29156548 -0.19685557
  0.10906131  0.00910074 -0.18138155  0.25961596  0.09584769 -0.09073768
 -0.10092977  0.02031611  0.16095662  0.31263456]
[ 0.15273063 -0.02634815 -0.21353765 -0.12156734 -0.07347296 -0.04029169
  0.28318566 -0.13212036  0.1946495  -0.14038157 -0.02789829 -0.11977192
  0.4410467   0.0220216  -0.1618018   0.3194077  -0.0843913   0.00616327
 -0.2862976  -0.543275   -0.56039685  0.20313473  0.26180565  0.61798686
 -0.19192629 -0.1514166   0.15965734 -0.5502732  -0.4601836  -0.4364666
  0.00567796  0.06156191  0.2806531  -0.63800067 -0.02397159 -0.00820686
 -0.11180449  0.04550335  0.32681662  0.0195021 ]
[-0.07797848 -0.10302427  0.04877255 -0.17800035 -0.05183555  0.06276169
 -0.04377097 -0.21332371  0.01766334  0.04054467 -0.09481452 -0.18301588
  0.05603992  0.23294161  0.42372486  0.13537714  0.04253411  0.0686508
 -0.14135873  0.141759   -0.19437474 -0.24042378  0.18311095  0.09531211
  0.06147309 -0.06821856  0.05536618 -0.57421327 -0.35783792 -0.52214915
  0.11641485 -0.1701843   0.45647147 -0.23637965  0.10804548  0.06058644
 -0.15121923  0.05711451  0.2790978  -0.3654808 ]
[ 0.18625426 -0.1962461   0.0400127  -0.07448983 -0.03219771 -0.13108169
  0.24030268 -0.04824198 -0.08468685 -0.02136587  0.0534737  -0.081204
  0.21487483  0.05703264 -0.3310552   0.643344    0.00609973  0.05269408
  0.22497408  0.03133893  0.34773657  0.1386631  -0.050872    0.35685194
 -0.13959433 -0.2399278  -0.00410412 -0.23434454 -0.07711048 -0.13597128
  0.06826384  0.19549477  0.00790263 -0.16422546  0.03403755  0.05055101
 -0.09817258 -0.23065719  0.63762456 -0.09840371]
layer 3 Activation
tanh
layer 4 Dense
40 20
[ 0.09540948 -0.15940002 -0.09092873 -0.02785324  0.08561371  0.04352503
 -0.06011453  0.04322409  0.1062364   0.02790957  0.03456551  0.00273038
  0.11649507 -0.05215539 -0.00989049  0.00982578 -0.07212697  0.16469865
  0.07630061  0.09766077]
[ 0.04366056  0.11886684  0.10424116 -0.09024154 -0.04107675 -0.10256839
  0.5619144  -0.12055617 -0.10872336 -0.07817759  0.05512187 -0.02101482
 -0.07094724 -0.11254548  0.03709975 -0.01496864 -0.09931333  0.13502344
 -0.3112897   0.02232504]
[ 0.00471114 -0.00954555 -0.12208611  0.0213003  -0.07653008 -0.06267343
 -0.04807367  0.02497611 -0.00861151 -0.03831729 -0.00301302 -0.07346974
  0.01246264  0.0104447   0.05793361 -0.01669466  0.00190888 -0.04432619
 -0.06527307 -0.0670336 ]
[-2.43459970e-01 -1.10326715e-01 -4.12915796e-02 -1.04695126e-01
  4.82898504e-02 -9.24877971e-02 -8.70817807e-03 -8.06524977e-03
 -5.66312149e-02 -1.03572607e-02  2.58207601e-02  5.05122580e-02
 -3.53355408e-02  7.93076009e-02 -7.57157058e-02  1.19488120e-01
 -1.16205774e-05  1.60710923e-02 -2.32334901e-03  5.27684987e-02]
[ 0.13510177  0.14244439 -0.02211248 -0.0047838  -0.02430064 -0.05376066
 -0.0467135   0.15170859 -0.08627014  0.00052094 -0.02060588  0.00822043
  0.14912246  0.07710212 -0.13765258  0.01485568 -0.03371242  0.00056354
  0.06893041 -0.05470061]
[-0.22966644  0.06972886  0.02311865  0.0237546  -0.13315473 -0.04222763
  0.27445763  0.17361811 -0.05117524  0.02519509 -0.0909832  -0.04529524
 -0.18612751 -0.02375262 -0.02868877 -0.01719176  0.00946259  0.00892402
 -0.13600878  0.09353771]
[ 0.24074581 -0.00411506 -0.00966409 -0.06461919  0.20128016 -0.02141414
  0.0266444  -0.23509505 -0.05116734  0.0599758   0.13797407 -0.10682096
  0.17598103  0.09135465 -0.06733331  0.01781313 -0.00315584  0.10052925
 -0.04546308  0.11700254]
[-0.13240069 -0.10628407  0.03334432 -0.17681175  0.10153917 -0.09292392
  0.04213501  0.11954398  0.02844851 -0.05863543 -0.02249126 -0.02317633
  0.0613714   0.11492325  0.0253874   0.19282049  0.0518571  -0.0720253
  0.06747708  0.00273509]
[ 0.02213958  0.03864681  0.05145541 -0.01132467 -0.01653032 -0.0279754
 -0.05960561 -0.17720793 -0.02531232 -0.01140927  0.04673297 -0.15872441
 -0.01312863 -0.00411749 -0.01806432  0.00929784 -0.03415089 -0.03088563
 -0.10755257 -0.0063554 ]
[-0.1672626   0.0345467  -0.17137302  0.01303454 -0.03689577 -0.05334693
 -0.07937406  0.13759653 -0.08275911 -0.09554044  0.00983875 -0.06182603
 -0.03179967 -0.01032887 -0.06154196  0.0227149  -0.05021226 -0.24373583
  0.02381434 -0.03426855]
[-0.14972007 -0.07986202 -0.17044365 -0.14431934  0.03941844 -0.04965074
 -0.0378303   0.1071796  -0.06527757 -0.08463484 -0.01425933 -0.02525727
  0.07178304  0.05796429 -0.12321585  0.17184113 -0.00215377  0.00036585
  0.13839887  0.00740593]
[-0.14981177 -0.06034586 -0.07405815 -0.05571129 -0.05141094  0.05166873
 -0.2535534   0.2930215  -0.16765206 -0.07836091 -0.02126079  0.1895542
  0.06021195  0.01338799 -0.15935443 -0.06948249  0.03775813 -0.17749943
  0.16278273 -0.18938832]
[ 0.4333687   0.01605732 -0.08250186 -0.15263677  0.30293873  0.13085143
 -0.03284362 -0.16437198 -0.0082267   0.08977916  0.1257766  -0.01991195
  0.11338244 -0.04786481 -0.06893269  0.0101207   0.12708145  0.10233619
 -0.115645   -0.00846438]
[ 0.07743374  0.10580994  0.0785794  -0.00271899 -0.01853262  0.0804059
  0.02927718 -0.02637844  0.06496478  0.01222056 -0.02435421  0.0413518
 -0.05669638 -0.03802492  0.03636146 -0.0346761   0.01219391  0.10234085
 -0.010265    0.00787398]
[-0.17696941 -0.4285113   0.5258386  -0.23296152 -0.14448732 -0.27747557
  0.06018941  0.02858403 -0.13890165 -0.10708209 -0.06234127  0.06501511
 -0.08199743  0.09764352  0.01233951  0.01467573 -0.04193411  0.09713037
 -0.16274185  0.06745662]
[ 0.16469646 -0.17057982 -0.41969818 -0.04809892  0.13599063  0.31166583
  0.12083837 -0.17121461 -0.07825874 -0.0991431  -0.0193074   0.01328959
  0.15351126  0.16419195 -0.15442817 -0.15483512 -0.05352785  0.03123227
  0.00439999 -0.14496572]
[ 0.03680741  0.06876305 -0.08076315  0.07468435 -0.01959302 -0.02361631
 -0.06065122  0.08414636 -0.05087515  0.01288081 -0.01308109 -0.00377382
 -0.07757168 -0.03202102 -0.01573555 -0.02704942  0.05497337 -0.10280444
  0.01366063  0.05958813]
[-0.07271246  0.06299993 -0.16647376  0.07495435 -0.06314485  0.17466801
 -0.10246462  0.09416782 -0.0363844  -0.15930621 -0.10479946  0.04821715
 -0.08898849  0.00759219 -0.06450809 -0.03955997 -0.01850715 -0.09121614
  0.04159045 -0.04614298]
[ 0.11304998  0.08707871 -0.0574994  -0.03646686  0.00663406  0.01932893
 -0.0231843   0.12933144  0.13679895  0.06396073 -0.04071941 -0.01015
  0.10160565  0.01100178  0.1555651  -0.10097673  0.00453572  0.32041773
  0.12342774  0.1270602 ]
[-0.23899963 -0.25474736 -0.09911232 -0.00564759 -0.10647366 -0.26662055
  0.13267237  0.13522762 -0.01343488  0.01310504 -0.06925783  0.04996322
 -0.01308597  0.02812202  0.13368325  0.04675797 -0.03328533  0.05513879
 -0.08685479 -0.04680492]
[-0.02323622 -0.12309541 -0.07858562  0.05048588  0.19139625 -0.01210693
 -0.24608082  0.08325417  0.19094536  0.17500986  0.03632642 -0.03210644
  0.07803345  0.10210113  0.09492099  0.00206972  0.07827037  0.19815668
  0.22772919  0.09286018]
[ 0.01542312 -0.05330379  0.10211028 -0.02041216  0.04153058 -0.10273077
  0.12503691 -0.03743813  0.08307079  0.2109094  -0.13201226  0.09974066
  0.05698048 -0.08728336  0.05244296 -0.17368822  0.03900551  0.23559567
  0.0720228   0.09773434]
[ 0.07762377  0.0742026   0.10388218 -0.01215331  0.00714457  0.10628214
 -0.10001422 -0.12359611  0.0677146  -0.07248084  0.05064465  0.07162184
  0.04558353 -0.15629742  0.10724838 -0.09390348 -0.07831387  0.00810395
 -0.01926303  0.01884865]
[ 0.09993727 -0.02971905 -0.3749459   0.01643196 -0.16392241  0.51325697
 -0.11421805  0.05002623 -0.08760214 -0.00184037  0.08194166 -0.05639194
 -0.0856213  -0.02097888 -0.34249213 -0.08369361 -0.23350118 -0.04083465
 -0.14147332 -0.17468722]
[-0.13542862 -0.03637921 -0.20721515 -0.00481155 -0.20180362  0.11724726
 -0.0099172   0.03309533 -0.16649106 -0.25707424  0.01088148 -0.23625045
 -0.09285715  0.13857865 -0.10343704  0.14344214 -0.00241303 -0.32501203
 -0.02815962 -0.15433934]
[-0.20976518 -0.0184231  -0.11555342 -0.05249676 -0.15825142 -0.00190106
 -0.0022313   0.0144154  -0.09021329 -0.21108599 -0.06972481 -0.06304239
 -0.0818957   0.17629519 -0.15267803  0.16495119  0.00540484 -0.18899278
 -0.02616648 -0.07301126]
[ 0.03806851  0.10336698 -0.06490305  0.04326332 -0.12437081  0.05130127
 -0.0101042   0.04778838 -0.14376259 -0.18967083  0.03189939  0.09804247
 -0.07542075 -0.03638352 -0.05526824 -0.16620703 -0.03285143 -0.11156006
 -0.01515536 -0.11416171]
[ 0.00409143 -0.24877273  0.7318278   0.01867306 -0.00916716 -0.44998243
  0.0402017   0.03142584 -0.19890809 -0.04197767 -0.12569815  0.0972014
  0.07691769 -0.04849695  0.01586807 -0.03896617 -0.23299807 -0.08486419
  0.09103281 -0.06256513]
[ 0.06512696 -0.30399823  0.02183339 -0.16215357  0.1794066  -0.41319162
 -0.0211153  -0.07265767  0.19698888  0.06977518  0.09180465  0.11495272
  0.18620652  0.0849837   0.30107504  0.00429375  0.01265562  0.22610508
 -0.06885999  0.0879938 ]
[-0.39812425 -0.41492987  0.32565877 -0.12610358 -0.01497075 -0.0831515
 -0.20103852  0.01195025 -0.04700842  0.01570258  0.00813033 -0.12730409
 -0.04598059  0.11063481 -0.00653157  0.1809739  -0.03280392  0.05267741
 -0.02384363  0.04531777]
[ 0.04690106 -0.12349442  0.04946195  0.04221172  0.00547612  0.1039454
 -0.15700808  0.05607393  0.02635045  0.10100941 -0.12322474 -0.03963651
  0.06997957  0.14617765  0.05317336  0.05753576  0.16974805  0.02470404
  0.14530776  0.06842318]
[-0.03508538  0.00980955 -0.0294828  -0.05836689  0.1337041  -0.02627271
 -0.10731255  0.10518235  0.25214478  0.17580631 -0.10091837  0.02754984
  0.08626367  0.04678742  0.12213531 -0.04137904  0.06915368  0.16581474
  0.18374228  0.22345233]
[ 0.03037438  0.20403047  0.04154551  0.03279971 -0.03083232  0.00963652
  0.16646445  0.02008183  0.02310624 -0.00849723  0.08730593  0.07391415
 -0.0655835  -0.1516513   0.11421733 -0.11472483 -0.13774516  0.05872231
 -0.04543218  0.10605071]
[-0.09957094 -0.35585067  0.3064684  -0.04244001  0.09745994 -0.48238415
  0.06264519 -0.10264772  0.21066879  0.10368086 -0.05746331  0.04325986
  0.12220869  0.00168834  0.3239154   0.05536361  0.08738346  0.0041026
 -0.16571489  0.07557859]
[-0.18147591  0.11475679  0.03050247 -0.01055278 -0.11356291  0.14661159
 -0.08738419  0.13536039 -0.12824173 -0.15289102 -0.04875662  0.15221739
 -0.11462636  0.2137063   0.01672202 -0.08689425  0.03673382 -0.21277393
  0.15283509 -0.13852042]
[-0.08891398 -0.11094059 -0.10231401 -0.16941887  0.16596262 -0.13994873
  0.08189985 -0.03020312  0.16256465  0.12760146 -0.12205283 -0.0409075
  0.20146222  0.10433595  0.10762096  0.18965428  0.14711697  0.14746615
  0.09345302  0.14517473]
[-0.11219738 -0.06294741 -0.16483486 -0.016422   -0.05220659  0.08204146
 -0.04070645  0.0218501  -0.19764365 -0.18754967 -0.11680171  0.03640122
 -0.00217883  0.22586419 -0.20241712  0.16383669  0.03069908 -0.3062337
  0.1499928  -0.08037103]
[-0.11140171  0.05620057 -0.1331067   0.0402458  -0.09065641  0.03055178
  0.03603206  0.05121405 -0.09451555 -0.28512117 -0.00366946 -0.01162663
 -0.18175225  0.02052336  0.01743361 -0.04915883 -0.0835585  -0.254688
 -0.1155651  -0.13609527]
[ 2.42324471e-01  4.47370827e-01 -1.36405385e+00 -9.78747103e-03
  1.13398366e-01  7.53413260e-01 -5.83450310e-02 -9.76236761e-02
 -3.47391702e-04 -9.35813859e-02  2.40985245e-01  1.26072228e-01
  7.65762990e-03 -6.37889327e-03 -1.02197058e-01 -2.97688544e-01
 -1.56939458e-02  8.71336088e-02 -7.82484859e-02 -3.36254984e-02]
[-0.06994813 -0.11194585 -0.00666711  0.02774403 -0.21238737 -0.00962786
 -0.01110483 -0.06282964 -0.08173773 -0.02444988 -0.0558297  -0.06189783
 -0.16599205 -0.12347195 -0.21086614 -0.03713287  0.05617062 -0.10165192
 -0.09322815 -0.00997804]
[ 0.02963719  0.08202647 -0.2462519   0.03854394 -0.00514501  0.09581432
 -0.11631101 -0.07337915  0.2583418   0.12058744 -0.07238363  0.17604381
  0.0542142  -0.1458585   0.0299955  -0.15632568  0.08594991  0.20100184
  0.04116608 -0.12953503]
layer 5 Activation
tanh
layer 6 Dense
20 1
[0.08084954]
[-0.04862883]
[0.10895369]
[-0.00474561]
[-0.03152699]
[-0.08028506]
[-0.01012558]
[0.0317945]
[-0.01733941]
[-0.03171851]
[-0.0119683]
[0.00801614]
[-0.00149599]
[0.01693212]
[0.00828555]
[-0.02185467]
[0.01275523]
[-0.06330176]
[0.02581595]
[0.00070267]
[0.2694707]
