layers 7
layer 0 Dense
20 20
[-0.7605915   0.80018556 -0.29586446  0.82209164 -0.13431028 -0.47914833
  0.7059224   0.6471606   0.02290896  1.1862389   0.9835625  -0.67725044
  0.93097293 -0.39317513 -1.1857251  -0.70891976 -1.3242978   0.56219053
 -1.3500108  -0.26998514]
[ 0.195557    0.27717793 -0.38634315 -0.4489883  -1.5196247   1.3482308
  1.1307001   0.82890886  1.1767664   0.60376346  0.80462277  0.34664848
 -0.98502105  1.3590932  -1.4128466  -2.2105932   0.5160479   0.42263588
 -0.35175392  0.50004953]
[ 0.15478452  0.85158277 -0.79923385 -0.82815695 -2.028077    1.7095624
  0.6265267   1.1739608   0.754693    0.8669713   0.63452417 -0.05840634
 -1.196903    1.1703367  -1.2101431  -1.9415944   0.7934072   0.39950362
 -0.582935    0.00260827]
[-0.8816904   1.3407513  -0.7361055   1.2247115  -0.6772919  -0.04544525
  0.8471614   0.28791052 -0.3693233   0.747995    1.0412161  -1.1138065
  1.462622   -0.3473446  -1.482109   -0.8946436  -0.97623426  0.04135417
 -1.410574   -0.1025398 ]
[ 0.3889148  -0.11576909  1.1660569  -0.81590366 -0.48831168  0.5318605
 -0.58091986 -0.9946803  -0.15957466 -0.35244414  0.2517882   1.5481069
 -0.89782447  1.0637975   0.37951672  0.4366851   0.6211681  -0.76430905
  0.3449417  -0.8109686 ]
[-1.6107068  -0.27435073 -0.23361814  0.8441698   1.202636   -0.43581584
 -0.06920394 -0.71139294 -0.50445324 -0.46350455 -0.10404439 -1.3624297
  1.7003256  -1.1613053   0.15287158  0.83969975 -1.5643681  -0.17772678
  0.05299546  0.7180878 ]
[-1.6855597   0.04967358  0.02016623  1.2394104   0.7688203  -0.4839489
 -0.19987832 -1.2132313  -0.77607703 -0.20514339 -0.24437189 -1.5948287
  2.1610973  -1.4844729   0.19569708  0.83555526 -1.8708969  -0.10731024
  0.11218636  0.39734402]
[ 1.5069045 -1.4099422  0.4583791 -1.3294202  1.7938017 -2.6089733
 -2.027995  -0.79161   -1.4364349 -1.2973505 -1.1291447  1.1298605
 -1.2935158 -1.385192   1.8465273  1.6843015  1.5758609  0.912939
  1.2466244 -2.049295 ]
[ 0.5558815  -0.50267     0.06588216 -0.40118134  1.2687584  -0.35296947
  0.08912691 -1.2268025  -0.5440644  -0.61792964  0.15493327 -0.4902343
  1.428688   -0.26632202  0.89011556 -0.06917482  0.20534162  0.45912275
 -0.16874593 -1.8278016 ]
[-0.43640134  0.36322954 -1.0260196   0.35915953  0.8466486   0.5657342
  0.42966738 -2.2767577  -1.0024341   0.6144317   0.6435173  -0.88649505
  0.0345658   1.3512821  -0.9996256  -0.40431997 -0.0225128  -0.19853517
 -0.88024515 -1.100848  ]
[-0.44702065 -0.04954261 -2.2867167  -0.06884651  2.2302182   2.6905725
 -0.0684841  -0.9909088   0.54878366  0.08512628  0.78805965  0.00727345
  1.4779959  -1.1905112   0.33344597  0.01973216  0.06470802 -3.6461272
 -0.34098896  1.3038707 ]
[ 0.50484484 -0.5488027  -0.36531773 -0.06667876  0.13791598 -0.08821508
  0.17869319  0.51832956  0.2010643   0.00657872 -0.0216831  -1.0292739
  2.225655    0.19240946 -0.88950515  0.5180305  -0.0423309   0.7201916
  0.26098648 -0.2695325 ]
[ 0.16197532 -0.43723732 -0.2347352  -0.5244165  -0.7026726  -0.38546705
 -0.1817584   0.20313337 -0.31873506 -0.23804644 -0.13251841  1.8144178
 -0.90339667  0.555382   -0.021266    0.64917004  0.12423175 -1.4646633
  0.51487434 -0.46441174]
[ 0.23231763 -0.40501094  0.8666051  -0.14717332 -1.2018893  -0.29440778
 -0.6615879   0.39856488  1.4697548  -0.18576628 -0.6182873   1.0691164
 -0.8525253  -0.06040785  0.18417275  0.5346419   0.319471    0.24395236
  0.39828008  0.9821755 ]
[-0.19184811 -0.25453082  0.2801585   0.14058657 -2.819008    1.8123263
  0.00561864  0.13675384  3.8854752   0.14561832 -1.2608455  -0.27438298
 -0.75610036 -1.5976073  -0.94769955  0.25102523 -0.29276055  4.2617545
  0.45251518 -4.572331  ]
[ 0.3934142  -0.738497   -0.9473295  -0.7876124  -1.9477216  -0.2922662
 -0.2999979   0.9487763   2.4808748  -0.762872   -0.9335415   0.38066283
 -1.6281062  -0.06906357 -0.14622477  0.86475074 -0.3515905  -2.326428
  0.13281281  2.4220607 ]
[ 0.26968452  0.17068514  1.4090505  -0.45596898 -4.8669662  -3.9038715
 -0.07444178  4.8611484  -2.9343662   0.01213984 -0.03007929  0.46605587
 -0.04029328 -0.20559223 -0.15820043 -0.61846465  0.30951944 -2.8720784
  0.12701613 -2.29718   ]
[ 0.05993257  0.2675975  -0.56965303 -0.1575694   2.7207522   2.682297
  0.28669348  3.4217172  -1.0476989  -0.07395243  0.00838182 -0.48409262
  0.5678758  -4.2326865   0.39817527 -0.3474388  -0.1528882   0.13311905
  0.07437225  1.9664521 ]
[-0.19646864  0.00618567  1.3587284   0.1414599  -1.8322014  -2.5423636
 -0.01652975  0.9135826  -2.824386   -0.07066227  0.41862607  0.29289657
  0.1449081   2.9277277   0.3583577   0.00958964  0.35417718  1.3036013
  1.1484618   1.5571715 ]
[ 0.26511    -0.3676671   0.11502369 -0.19151472 -0.05728472 -2.4816163
 -0.5642336   0.7731349  -4.086233   -0.28219986 -0.30514154 -0.50615954
 -0.6133496  -1.8169268   0.32379055 -0.74766505  0.5124887   0.8514055
 -0.0194776  -1.8934917 ]
[-1.5783366   1.6359028  -0.88860255  1.4040492  -0.65988344  0.9960784
  1.286838    0.4533391   0.7823152   1.3990792   1.086771   -1.3841791
  1.4768418   0.21509805 -2.0972872  -1.2931598  -1.6986638   0.1920185
 -2.0189853   1.1719046 ]
layer 1 Activation
tanh
layer 2 Dense
20 40
[-0.04980709  0.40582538 -0.25678268 -0.2578397  -0.45740938  0.6526745
 -0.18826377 -0.311303    0.25511733  0.38924488  0.54519916 -0.72955877
  0.46156734 -0.4592444  -0.39834693  0.79780316  1.0101414  -0.27336118
  0.28062865  0.47852355 -0.22516996  1.1661106   0.22987483 -0.4854067
  0.5773438  -0.49584794  1.1883837   0.42628276  0.9466977  -0.08333655
  0.7717489  -0.627907   -0.99959546  0.5358313   1.123966    0.6386425
 -1.236272    0.91496754 -0.72684443 -0.6693091 ]
[-0.21396771 -0.02219835  0.81334436  0.5565202   0.27089223 -0.18940087
  0.04611839  0.59599334 -0.46602944 -0.55862457 -0.39406753  1.3353852
 -0.29906246  0.41742203  0.541548   -0.67266387 -0.9574939   0.46743622
 -0.6557105  -0.34825584  0.08673442 -0.82200503 -0.9242016   0.4371608
 -0.64088696  0.83028406 -0.5017903  -0.97208136 -1.3620214   0.38811663
 -0.89126927  1.1503831   0.83632547 -0.68076843 -0.0144041  -0.6051907
  0.4379111  -0.67371476  0.8975275   0.6743303 ]
[ 0.3697031  -0.05685352 -0.12832431 -0.8844222  -0.20753688  0.37088165
 -0.19136171 -0.29079863  0.17742969 -0.76245356 -0.43039367 -0.774626
  0.3358322  -0.687774   -0.39466184 -0.13467751  0.46253145 -0.49131796
  0.82424045  0.37399092 -0.002476    0.10812514  0.5513392  -0.8828189
 -0.1279132  -0.99698675 -0.12237139  0.41567057 -0.02011531  0.24489972
  0.24320526 -0.52438277  0.504528   -0.8467078  -0.37183464  0.45716396
 -0.40360004 -0.04216451  1.0123765   0.44025454]
[-1.8645177e-02 -3.1537789e-01  3.8356099e-01  9.6025348e-02
  6.1953253e-01 -1.0930791e+00  2.2858380e-01  6.5202045e-01
 -4.1529989e-01 -6.8376255e-01 -8.0324614e-01  6.3107067e-01
 -5.1332277e-01  3.9370698e-01  6.6473788e-01 -1.1699535e+00
 -5.3735793e-01  7.2179824e-01 -4.3484679e-01 -7.1334434e-01
  9.3979764e-01 -5.1044929e-01 -4.1815805e-01  3.8869664e-01
 -1.5750143e-01  6.5264547e-01 -2.2913434e-01 -1.5129663e-01
 -7.5202626e-01  1.1170485e-01 -3.9561483e-01  4.0804705e-01
  9.5859396e-01 -4.6495813e-01 -5.4164791e-01  4.5522387e-04
  9.3927419e-01 -6.7982543e-01  4.6517234e-02  1.0783689e+00]
[ 2.097446    2.0150435  -0.04171038  1.4419271  -1.4981824  -0.2329675
 -2.0034363  -2.10016     1.9700912   0.16622876  0.20929535 -0.79670554
  0.16643846 -1.9407439  -0.46846035  1.8757149   0.58200055 -1.7606347
 -0.63442576  1.8182831  -0.25050214  0.30514178  0.16398357 -1.8913267
  0.00489826  0.22040682  0.27790102  0.17055184 -0.34315282 -1.3544571
  0.49070784 -1.2129614   0.15514116  1.7212299   0.5219791   0.18308817
 -0.7232943   1.669812   -1.4644661  -1.802473  ]
[-0.84316343 -0.57668763 -0.16241531  0.22017264  1.3143563   0.0152204
  1.7504623   0.39274898 -1.2131746  -0.5666693  -0.13103181 -0.09213479
 -0.18877399  0.66255325  0.18859228 -0.9701058  -0.23896319  0.40333587
 -0.58452725 -0.67990106  0.21553616 -0.33529505  0.0520607   0.17287803
 -0.30393928 -0.2648665  -0.0047487   0.1537365  -0.17408182  1.6075813
  0.524275    0.04828697  0.5182936   1.3756123   0.6537857  -0.38266605
 -0.89367545 -0.31482702  0.0208605   0.5872256 ]
[-0.14357571 -0.47477895  0.48878518  0.6557324   0.725256   -0.72870296
  0.3641339   0.6600249  -1.2479889  -0.7974587  -0.8187782   1.0780125
 -0.8321615   0.18941276  1.2659614  -0.6070643  -0.90640044  0.7871528
 -0.92673355 -0.23668659  0.8249696  -0.49704835 -0.9273596   0.40156153
 -0.6715974   1.5164953  -0.47175488 -0.9319891  -1.0001112   0.45641854
 -1.0513204   0.6777333   0.46883878 -0.2335299  -0.10545614 -0.44754258
  0.06953977 -0.21326168  0.5424291   0.531193  ]
[-1.9454     -1.476893    0.18016766  0.21943827  1.600016    0.16559
  1.5421873   1.5718151  -1.0579133  -0.9776919  -0.5572299   0.20783933
 -0.15928307  1.8363664   0.08276264 -1.1951905  -0.19498357  1.1713343
  0.50739413 -1.5179957   0.3637304  -0.5540918  -0.2552911   1.7928066
  0.00847483 -1.6176789  -0.22146009  0.26104268  0.27006757  1.4669604
 -1.023642    0.07831798  0.59250724  0.2676012   0.6188316   0.26378545
 -0.0512386  -0.31675038 -0.02976754  0.81684434]
[-2.4570506  -1.7110335   0.54721916 -1.4884512   1.6465397  -0.6795827
  1.5888929   2.4904683  -1.9762231   0.13749766  0.26926562 -0.8541213
  0.50517905  1.8082614   0.44103074 -1.7957405   0.0326406   1.1402373
 -0.34685662 -2.3955197  -0.62724835 -0.88418007  0.253775    1.7959832
 -0.21807733 -0.00251149 -0.2449442   0.85472035  0.6858878   1.9801389
  1.5389328   0.08576297  0.70862     0.8962826  -1.0464007   0.78365046
 -0.09439252 -0.56332225  1.0304791   0.8114956 ]
[ 0.03605298 -0.36187056  0.0750455   0.9222914   0.4219514  -0.16690788
  0.28207085  0.5135938  -0.7496463  -0.6936207  -1.2065643   0.9309208
 -0.90302414  0.5142534   0.7131983  -0.74783885 -0.78161937  0.9036064
 -0.68180496 -0.53550285  1.0465591  -0.98752254 -0.65002054  0.4319929
 -0.95445096  0.8093089  -0.7209669  -0.8033163  -0.8404599  -0.08315776
 -0.9590201   0.44951996  0.592602   -0.24974208 -0.6361629  -0.9812271
  0.2907569  -0.7279811   0.7022034   0.76597506]
[-0.8770959   0.24496359  0.3757931   0.901131   -0.47115514 -0.7248968
 -0.03314657  0.62847996 -0.22117704 -0.39415896 -1.2178236   0.9301586
  0.5221395   0.19855593  0.57421094 -0.8178851  -1.4074292  -0.12312055
 -0.46146083 -0.0894489   0.21792834 -0.43901804 -0.36297992  0.08246686
 -0.37759042  0.22305053  0.02691647 -0.24823377 -0.02851758  0.39176145
 -0.27696463 -0.15738924  0.24150385  1.0093808   0.2784682  -0.24868272
 -0.27414292 -0.00692844  0.7109031  -0.21181005]
[ 2.3750021e-01 -2.2237881e-01 -3.7021133e-01 -1.2234330e-01
 -1.2715007e+00  1.6384647e+00 -9.8593093e-02 -3.0501032e-01
  3.5670093e-01  6.6326481e-01  2.7894738e-01  1.4355686e-02
  4.5452185e-04 -5.9436208e-01 -2.8363192e-02  7.7796832e-02
 -1.0683505e-01 -6.0664326e-01  1.8716394e+00  4.3775329e-01
 -3.7303814e-01  3.8205338e-01 -9.0279169e-03 -5.7134569e-01
  6.2361735e-01  3.9681163e-01  1.9077251e-02  8.7717855e-01
  4.1285455e-02 -1.8669569e-01  8.6395107e-02 -2.2062735e-01
  2.0414510e-01  2.4443445e-01  7.9575872e-01  2.4449863e-01
 -6.0871589e-01  9.7398305e-01 -2.2996454e-01 -6.6401547e-01]
[-0.7254709  -0.1608346   0.4578067   0.7852094   0.84397274 -1.5151783
 -0.12490754  0.8969451   0.2234012  -0.7200614  -0.873947    0.8841895
 -0.512876    0.1305546  -0.33985707 -0.6450733  -0.15132111  0.31409964
  0.16287082 -0.45170826  0.0650531  -0.41809684  0.17483418  0.8043305
 -0.1851215   0.18085317 -0.45159385 -0.35902736 -0.3480995   0.70468026
 -0.158135    0.16618875  1.6422101   0.2858834  -0.70354927  0.08333965
  0.38902074 -0.9847816   0.5320915   0.957567  ]
[-1.7379395  -1.6953652   0.4536093  -0.95332414  1.6990254  -0.7999767
  1.20892     1.9671477  -0.70662975 -0.34788352 -0.10693529  1.0482866
  0.23828924  1.7410812   0.23094638 -1.2301083   0.13723232  0.96064645
  0.10375329 -1.7558057   0.41315028 -0.77619016 -0.27132607  1.7680557
  0.15305482 -0.07311174 -0.397109   -1.1041332   0.36224496  1.0971901
 -0.88733953  0.5735651  -0.03705218 -0.1819485   0.07615004 -0.6417874
  0.14612594 -0.42360356  0.05531339  1.2808845 ]
[ 0.67581254  1.1233153  -0.31915146 -1.3698016  -1.2530175  -0.6624349
 -0.8179806  -0.77241606  0.24779385  0.5521549   0.2974346  -0.97895914
  1.2642512  -1.0176071  -0.7346816   0.65487576  0.44699955 -0.74336874
  0.10565018  1.4783764  -0.4954392   0.5614534   0.12126327 -0.9125914
  0.60972476 -0.95149857  0.6709477   1.2866759   1.1225228  -1.1747085
  1.0494717  -1.6164991  -1.1180947   1.1469802  -0.29961506  0.7313871
 -0.21459553  0.30300042 -0.89692026 -1.0291945 ]
[ 0.43229023  1.3588178  -0.2911183  -1.1709131  -1.3554299  -0.22950436
 -1.492964   -0.82170784  0.46129835  1.4767975   1.7315959  -1.0993629
  1.0472102  -1.3834823  -0.21111238  0.7564993   1.043987   -1.2026229
  0.8182052   1.0627625  -1.9559543   0.33435872  0.14791791 -1.1705779
  0.60437226 -0.6151546   1.0040618   1.3794558   0.9042871  -0.46566737
  1.8634527  -0.97451633 -0.32277238  0.23722461 -0.6485907   1.4529351
 -0.19459665  0.79220116 -0.78368694 -1.3140676 ]
[ 0.8232991   0.01117676 -0.33927983 -0.08841345 -0.23025052  0.580912
 -0.55627394 -0.44879854  1.0532112   0.63936305  1.2826359  -1.1835766
  0.5133571  -0.8676888  -0.7590421   0.57020533  0.47551474 -0.77811617
  0.5036477   0.09793267 -0.36910105  0.4176972   0.53530836 -0.6278443
  0.2596704  -0.23169133 -0.293493    0.60738355  0.95559704 -0.6594529
  1.4249021  -0.7942438  -0.6529845  -0.22930522  0.7359846   0.6839057
 -0.922131    0.8797603  -1.0074049  -0.5625895 ]
[ 0.8678581   1.5158589   0.3839972   0.09712146 -1.1011239  -0.04270373
 -1.0293002  -1.6668205   1.8925081   0.46374565 -0.16926546 -0.1289418
 -0.39357325 -1.4651761  -0.3350767   0.93006694  0.25137368 -1.7361387
  0.40448773  0.4500681  -0.5421504   0.45707262 -0.13029586 -1.3194302
  0.05136807 -0.18832292 -0.15654315 -0.441973    0.10046906 -1.5593519
  0.5525764   0.39280993 -0.8928479  -0.8211658  -0.57557774  0.35221353
 -0.01259807  0.402197    0.24399428 -1.4593407 ]
[-0.03385285  0.21744731 -0.4992041  -0.6776079  -0.64004606  0.6674635
 -0.61656463 -0.931059    0.6044951   0.8699395   0.7982287  -0.9419529
  0.7534251  -0.5045023  -0.49793124  1.1237079   0.93806887 -0.5290362
  1.0909663   0.3764935  -0.47979248  0.6845385   0.3981602  -0.4121382
  0.28693077 -1.4029628   1.120449    0.90783685  0.94153076 -0.4811836
  0.86959696 -0.86992854 -0.9383399   0.84797364  0.5419392   0.7167299
 -0.1350152   0.75652593 -0.7500998  -0.20534152]
[-1.7421895  -1.6615568   0.4562266   0.2717387   1.2779644  -0.46204504
  1.4506966   1.3803378  -1.2612562   0.40198067 -0.18832628  0.24634022
 -0.15284683  1.2869326   0.15110403 -0.7812751  -1.0015689   0.5165355
  0.5751929  -1.6348901   0.74458617  0.17244595  0.09691585  1.5398477
  0.12462948 -1.0870321  -0.19646387  0.33249366 -0.01716261  1.4915534
 -1.2548238  -0.00365121  0.61166155  1.3746434   0.61799526  0.46342996
  0.845019   -0.04487814 -0.3442265   1.1272502 ]
[-0.14007227 -0.39855462  0.62988174  0.42122242  0.54503757 -0.50487804
  0.28284594  1.416778   -0.32642588 -0.8427072  -0.754276    1.2629751
 -0.42609933  0.9775238   0.72550315 -0.5816986  -0.694089    0.56073004
 -0.6073295  -0.84411716  0.5863704  -0.6180969  -0.63081634  0.85105497
 -0.64190257  0.8163784  -0.34428278 -0.7356447  -0.99942476  0.4832845
 -0.8364407   0.82567114  1.0381207  -0.52869946 -0.17278624 -0.73837554
  0.19016363 -0.71767503  0.6674443   0.6012246 ]
layer 3 Activation
tanh
layer 4 Dense
40 20
[ 0.11132707 -0.02341652  0.34693733 -0.1083209  -1.3876954   0.599179
 -0.2241513   0.7137556   0.08156641  1.693566   -0.12736113 -1.6791191
 -0.5310167   0.36078238  0.4425771  -0.26027063 -0.38895798  0.08220945
 -0.5599655  -0.3412534 ]
[-0.02442321  0.2616314   0.5148478  -0.13238569 -1.158773   -0.0641823
  0.235091    1.3311878  -0.06134519  1.2360173   0.16065662 -1.1491624
 -0.0571923  -0.24416418  1.0081153   0.12156152  0.09949171  0.76159
 -0.16182928  0.02942261]
[-0.7186787   0.573741    0.26195827 -0.48135427  0.16058215 -0.4533308
 -0.05359589  0.50209194 -0.521005   -0.95527446 -0.6638636   0.23430417
  0.7851848  -0.6006506   0.22096412 -0.3353788   0.6670096  -0.42538878
  0.5631693   0.56416017]
[ 0.5246996   0.08538434 -0.40671888  0.24342138  0.7107892   0.28271204
  0.3890621  -0.6164095   0.38264537  0.4105967   0.22800562 -0.2824385
 -1.3308195   0.07036617 -0.9123592   0.6729132   0.08342565  0.48379922
 -0.6903832  -0.5278127 ]
[-0.71335727 -0.22622164 -0.13780302 -0.25641638  0.8631515  -1.5812651
 -0.1478336  -1.4396538  -0.44436568 -1.4119741  -0.22523732  0.25817353
  1.1639515  -0.4659845  -0.17799602 -0.37982872  0.46234262  0.03903356
  0.93740416  0.385357  ]
[ 0.90421736 -0.36158657 -0.43729725  0.687458   -0.13674101  0.83697504
 -0.12114792 -0.46139598  1.2470115   0.698284    0.7163646  -0.03168796
 -1.2305359   0.36740386 -0.132483    0.03910989 -0.45381197  0.39432788
 -1.1350557  -0.6132915 ]
[-0.6856842  -0.31034702 -0.18485306 -0.21962251  1.1861775  -0.8691506
 -0.06439997 -1.0141109  -0.41527858 -0.806301   -0.04134072  2.1195512
  0.22781631 -1.2272758  -1.0501552  -0.01915027  0.22922838 -1.0548828
  0.35573778  0.02224669]
[-0.43977666  0.57186157 -2.2618241  -0.11575697  3.5732088  -1.8149556
  0.3430012  -4.3820677  -0.34256765 -1.187809    0.03159564  3.291905
  0.7808439  -1.9812958  -2.510432    0.57360035  0.16546486 -0.49841478
  0.99960244  0.11150704]
[ 0.5220712   0.63859254  0.53519374  0.21401066 -0.51231825  0.55825996
  0.09550005  0.5561992   0.11448768  0.8729047   0.3773511  -0.6330214
 -0.18942757  0.8348527   0.80745125  0.7462983  -0.22281799  0.1642759
 -0.07695718 -0.389025  ]
[ 0.79611945 -1.1076087   0.35734564  0.5949524  -0.66215366  1.0210652
  0.33       -0.03140492  0.72081137  0.67670655  0.6009448  -0.28639337
 -0.38697356  0.6148471  -0.12071573  0.5157955  -0.7501884   0.9971142
 -1.0894165  -0.39221007]
[ 0.23278117 -1.4807137  -0.584448    0.29418775 -0.28367984  0.42791295
 -0.71124786  0.25527427 -0.4696005   1.1404778   0.02290928  0.16960245
  0.36476097  0.13052012  0.47533804 -0.5448192  -0.19936901 -0.35120177
 -0.16689081  0.19224265]
[-0.27726418  0.17954415  1.1471437  -0.545463   -0.05915019 -0.40889406
 -0.67862594 -0.22656766 -0.11464418  0.11810397 -0.06614919 -0.5503146
  0.3161846  -0.42248636 -0.57705873 -1.1930726   0.15122291 -0.20769258
  0.38998225  0.09355438]
[-0.5948015   0.29369056 -1.2287738  -0.18931207 -0.9813248   0.5034478
 -0.16936795 -0.23695137 -0.0181636  -0.02085465 -0.33475435 -0.29713047
  0.02307803  0.26667285 -0.1292017  -0.04124358 -0.04920384 -0.53517455
  0.49721676  0.2526431 ]
[-5.9804034e-01 -1.8148941e-01 -1.8871475e+00 -1.9129144e-03
  1.0489166e+00 -2.0756352e+00  2.2734325e-02 -1.5464263e+00
  2.6805477e-02 -1.1304463e+00 -2.8667289e-01  1.8236325e+00
  7.3770756e-01 -2.7236400e+00 -1.1436247e+00 -3.1103733e-01
  2.2206201e-01 -1.0606922e+00  5.1644397e-01  4.6169016e-01]
[-0.67525446  0.06741752  0.31254983 -0.5399242  -0.08080572 -0.7935372
 -0.7388832   0.09784381 -0.83945066 -0.73672235 -0.5580997   0.09469436
  1.4060367  -0.4177083   0.504721   -0.61662525  0.43533573 -0.72442067
  1.1764815   1.0010931 ]
[ 0.6093531   0.76287997  1.1561989   0.03351412 -1.3130897   0.73517764
 -0.3587722   0.9695827   0.34789643  0.13502586  0.27581996 -0.61368394
 -0.21304168  0.91340977  1.2293053  -0.04050026 -0.05657301  1.3058826
 -0.86060596 -0.64848024]
[ 0.147273   -0.0193968  -0.11779623  0.43225887 -0.7103886   1.4795402
  0.27159154 -0.39153937  0.23204902  1.2449095   0.81570953 -0.5657766
 -0.7376401   0.7133107  -0.850944    0.25518215 -0.68857694  0.9160966
  0.20608455 -0.8373937 ]
[-1.2787183e-01 -7.1807784e-01 -3.0459219e-01  1.2731673e-01
  1.2794889e+00 -7.8857577e-01  6.6436303e-05 -4.3948671e-01
 -1.6733314e-01  1.2759446e-01  3.8772196e-02  6.0809308e-01
  1.2721354e+00 -1.0507071e+00  1.0086255e-01 -6.8910950e-01
 -1.6695308e-02 -3.4438109e-01  8.9757866e-01  8.2419895e-02]
[ 0.7157911  -0.10632847 -0.3334096   0.22631495 -1.0727628   0.875564
  0.4062914  -0.1489862   0.43488857  0.644082    0.6342014   0.45916456
 -0.82394207  0.71530503  0.8644552   0.9071936  -0.40910518  0.08818974
 -0.5992912  -0.65094066]
[ 0.5272233  -0.36901948  1.11986     0.37065396 -1.874472    1.8113984
 -0.23349902  2.859995    0.38885838 -0.21117774  0.16901083 -1.6623576
 -1.0067416   0.9762135   1.3288823  -0.67993647 -0.03781065  0.62403464
 -0.20251156 -0.2891957 ]
[-0.8287328  -0.27140844  1.0810894  -0.29420415 -0.14131698 -0.75156564
 -0.74474174 -0.4395524   0.11421071 -0.36409482 -0.14202061 -0.5099399
  0.6294547  -0.2799325  -0.6230469  -1.0433663   0.4259928  -0.09343317
  0.17661202  0.07537869]
[ 6.3414216e-01 -8.3226323e-01 -1.9041528e-01  8.0018198e-01
 -3.9144832e-01  5.4168183e-01  1.6307172e-01 -7.2570541e-04
  6.7355537e-01  8.2379931e-01  7.9963142e-01 -2.1184267e-01
 -5.7548648e-01  5.2922952e-01 -2.7051306e-01  4.5163232e-01
 -8.0286211e-01  5.9197402e-01 -1.0141948e+00 -7.9658151e-01]
[ 0.70260376 -0.17839442 -0.27946645  0.55322057 -0.38930446  0.862073
  0.2940158  -0.33281603  0.41151935  1.3371731   0.9446884   0.03686352
 -0.65289253  0.38428068 -0.01072778 -0.12330162 -0.7828023   0.89741343
 -0.6023714  -1.2390314 ]
[-0.03062328  0.06513505 -0.36098653 -0.10686241  0.8615398  -1.0427456
 -0.24974662 -1.6628389  -0.03031649 -1.0564586  -0.33080918  1.2477462
  0.4515511  -0.36163232 -0.82963437 -0.05632057  0.02741733 -0.3081226
  0.5198328   0.2344694 ]
[ 0.9477073  -1.0998558   0.16576424  0.39624006 -0.36138564  1.1773325
  0.36140016 -0.14341784  0.5396617   1.3464957   0.7806483  -0.37707543
 -0.5301635   0.72958857 -0.16621348  0.3230467  -0.7606738   1.133432
 -0.8468351  -1.0627466 ]
[ 0.18480425  0.8148695   1.1357805   0.6690716   0.13880584  0.05155127
  0.14600785 -0.25672442 -0.16238518 -0.54544485  0.34962267 -0.20387499
  0.4367581   0.3098375  -0.43893948  0.26814646 -0.32681087  0.7858829
  0.63832843 -0.04762693]
[ 0.7649533  -0.7810175  -0.10648043  0.5023714  -0.5845826   1.0795772
  0.37269494 -0.17161761  0.3290528   0.8259354   0.8024655   0.07950614
 -0.18803543  0.92432034  0.00862279  0.29335663 -0.67017776  0.76873213
 -0.9466207  -0.61084384]
[-0.06704594 -0.670537   -1.0383989  -0.39230898 -0.58861643  0.2060908
  0.01370813  0.8081231  -0.2094919   0.4480342  -0.34224993  0.1315459
  0.15518323 -0.02726558  0.38992503  0.29313755  0.40105295 -0.7838095
 -0.13381374  0.37715697]
[ 0.14924937 -1.0399657  -1.2509269  -0.12244811  0.705407   -0.3261025
  0.7462082   0.5307148  -0.16415879 -0.04443115 -0.0885962   0.9980674
  0.07947566 -0.41860795  0.34553862 -0.55540735 -0.01360994  0.5091772
  0.07272664  0.2079725 ]
[-0.49965277 -0.8501111  -1.3849634  -0.01738814  0.53895944 -2.340815
  0.24390537 -0.56229824 -0.2642438  -0.75038475  0.14179185  1.7410784
  0.4245612  -1.8168296  -1.1842785   0.0769879   0.2598038  -0.76045674
  0.7998576   0.49707586]
[ 0.61985016 -0.50323206 -1.0141803   0.25822505 -0.8597451   0.75213295
 -0.1284494   0.07092468  0.15438963  1.1627611   0.08944755 -0.4840466
  0.71851504 -0.04714097 -1.0827967  -0.3421322  -0.04399665  0.43477732
  1.0483223  -0.3237136 ]
[-0.38852626 -0.1801621   1.0336086  -0.17929578 -0.15864165 -0.38989046
 -0.7173501   0.11581974 -0.18584406 -0.24643281 -0.05000076 -0.34672874
  0.8809942  -0.01925499 -0.624824   -0.63132983  0.32405946 -0.53405017
  0.19926216  0.23223446]
[-0.3157594   0.78477085  0.62183565  0.00550064  0.68926996 -0.40093178
  0.37477925 -0.27782977 -0.01065151 -1.396299   -0.18998562  0.40574297
  0.4152251  -0.24904387  0.08764596  0.4307431   0.42182136 -0.41419488
  0.6908044   0.46525216]
[ 0.01412847  0.9590555  -0.15093285  0.17636538 -0.90910786  1.4565165
  0.44481763 -0.6509686   0.5377607   0.7920799   0.40265122 -1.0817868
 -0.41594625  0.87607944 -1.2002662  -0.12555778 -0.2693636   0.89539254
 -0.28598902 -0.78049016]
[ 0.436478   -0.607086   -0.05248298  0.7248113  -0.09984325  0.84225774
  0.50489587 -0.2443657   0.50113636  0.6333313   0.06560914  0.18406615
 -0.4173503   0.88476366 -0.50483286  0.4785633  -0.46044934  0.8595524
 -0.50261813 -0.00658359]
[ 0.15887581 -0.16368201 -1.0394487   0.34189934 -0.16943131  0.4019688
  0.7931053   0.35233217  0.15276064 -0.05448627  0.0155674   0.02523829
 -0.67921466  0.17768571  0.5296049   1.3982624  -0.2814179   0.22258915
 -0.3999483  -0.02892384]
[-8.9517766e-01  3.9576296e-02  8.3194757e-01 -8.1002158e-01
 -1.9799436e-04 -7.0149261e-01 -2.1914348e-01  2.8743875e-01
 -2.0391983e-01 -8.8729340e-01 -7.1962327e-01  1.0464202e-01
  1.2913570e+00 -4.7613713e-01  2.1263109e-01 -2.3448269e-01
  3.2155275e-01 -4.4656289e-01  7.5225979e-01  5.7285571e-01]
[ 0.64064014 -0.49607456 -0.34704     0.36404368 -0.70789135  0.96456116
  0.61074096 -0.28524512  0.71827465  0.89399904  0.19873497 -0.35075623
 -1.4887493   0.45449927 -0.12737176  0.7148288  -0.63379276  0.8862883
 -0.742852   -0.7058871 ]
[ 4.41682756e-01 -6.43714190e-01 -2.29888901e-01  8.83254281e-04
  7.68700540e-01 -1.06799388e+00  3.94381536e-03  9.01152313e-01
 -3.08401790e-02  2.39302188e-01  1.04571365e-01  1.04601145e+00
 -3.69128048e-01 -1.54308009e+00 -7.46311069e-01 -4.05035198e-01
  1.38131350e-01  1.22890577e-01 -3.29026073e-01 -1.72086954e-01]
[-0.5796399  -0.48645133  0.22452284 -0.1434852   0.80912113 -1.3561815
 -0.33862293 -0.38809896 -0.15241118  0.15282363 -0.08847884  0.4005246
  1.2286615  -0.3117792  -0.18863939  0.05437138  0.24487466  0.2170194
 -0.06162738  0.49539876]
[-0.7320113   0.29826286  0.5152758  -0.58284354  0.71192074 -0.95274574
 -0.44885975  0.421007   -0.49554783 -1.2394189  -0.9145395   0.3524658
  0.50517887 -0.8807053  -0.06236514  0.11092675  0.9962878  -0.8854506
  0.5717758   1.2172164 ]
layer 5 Activation
tanh
layer 6 Dense
20 1
[-0.7340232]
[0.6389597]
[0.67027205]
[-0.8448614]
[-0.2680193]
[-0.02719893]
[-0.7785338]
[3.8109198]
[-0.71483845]
[0.04016919]
[-0.8340263]
[-3.5585046]
[0.31846857]
[0.11550412]
[2.7514753]
[-0.82633007]
[0.7997426]
[-0.7877527]
[0.391947]
[0.99494374]
[1.1781989]
