layers 7
layer 0 Dense
20 20
[-0.44410518  0.01122885  0.4578736   0.06734974 -0.27491042  0.2799945
  0.07993813  0.03876739 -0.16308872  0.01437979 -0.1142663   0.54368585
 -0.09246583 -0.20614024  0.24940804 -0.16310138 -0.04203234  0.17050241
  0.24874553  0.04645128]
[ 0.18306953  0.32949287  0.27740943 -0.32004267 -0.36810225  0.09112737
  0.3755055  -0.1531508   0.288782   -0.28370622 -0.22946373 -0.36786705
 -0.1817872  -0.16200612  0.2845149  -0.2218752  -0.2704525  -0.05918735
 -0.34105316  0.18716103]
[ 0.31981498  0.2881099   0.1358239   0.26652867  0.09509674 -0.12277797
  0.10866949 -0.2404712  -0.36938262 -0.38420406  0.25784528  0.10286301
 -0.3670252   0.21467137 -0.3152064  -0.19663902 -0.33493072  0.2814464
 -0.371526   -0.16135661]
[-0.26870385 -0.00677247 -0.01976282  0.04140993 -0.82639295 -0.2339163
  0.246097    0.3634512   0.33139372 -0.05596932  0.09727055  0.78990525
 -0.25362185  0.4152893  -0.21129084  0.3590045   0.21691032  0.22024044
 -0.29319888 -0.00514254]
[-0.45278284 -0.01625448  0.22880265 -0.12561613  0.6214281   0.27225825
  0.11249201  0.2571013   0.04922385  0.28124496  0.24341518 -0.39091513
  0.21464644  0.07555011  0.45442864  0.577952    0.16521333  0.01866607
 -0.03337854  0.02137383]
[-0.0834839   0.24309772  0.17498225  0.2367512  -0.19105962 -0.32006466
 -0.31846747  0.29157436 -0.35950196  0.13066703 -0.0090473  -0.00541356
  0.18393463  0.19027507 -0.19679147  0.00122043 -0.2988863   0.18037432
 -0.15470736 -0.07980427]
[-0.24705562 -0.20564938  0.03596157  0.32897353 -0.15903816  0.0746474
  0.07547107  0.09798446  0.24004996  0.22390437  0.05116493  0.35755008
  0.12195808 -0.08567381 -0.06104714  0.28939152 -0.13344988 -0.32236972
 -0.2508226  -0.13206941]
[-0.17281598 -0.02077668  0.13349669  0.36742598  0.49272734 -0.23076676
  0.2293933  -0.16767962  0.06707975 -0.07101884  0.0380237  -0.5351319
  0.10037107 -0.25113374 -0.3477597  -0.9324272   0.11127716  0.11139745
  0.3007862  -0.26401   ]
[-0.4126882   0.12071056  0.27473694 -0.49029186  0.5592331   0.7314116
  0.2998606  -0.3136526  -0.08928861  0.72023463  0.74726003 -0.90625274
  0.5386436   0.7054095   0.87306035 -0.00599348  0.34553352 -0.01308675
  0.19898178  0.57069725]
[ 0.16801178 -0.327652   -0.6486074   0.58638823  0.97403157 -0.15332313
  0.55038613 -0.5272381  -0.06066309  0.84123284  0.4510095   0.28405136
  0.29878658  0.3168164  -0.02719435 -0.09254719  0.6244335  -0.10048583
 -0.27305692 -0.28983164]
[ 0.21139888  0.10261314 -0.21388826  0.61023724  0.07319203 -0.7545888
 -0.32993922  0.07557133 -0.17182001  0.06453029 -0.21830328 -0.36403728
 -0.54561985  0.4552119   0.66012645 -0.24197091 -0.12658836 -0.31971008
 -0.64221686 -0.08258022]
[ 0.40658075  0.41067326 -0.29369783  0.39539528  0.3380273  -0.11152587
  0.05312912 -0.92457443  0.40574056 -0.5905934  -0.63615674 -0.7032746
 -0.34147033 -0.23793322 -1.0461955   0.06911746 -0.95192564 -0.40157014
 -0.3985601  -0.8777275 ]
[-0.38770616  0.11516386  0.28853485  0.2067431  -0.4143836   0.05973292
 -0.00560161  0.19088952 -0.20959578 -0.27339935  0.36488274 -0.04308952
 -0.16546638  0.08863981 -0.21624528 -0.34060854 -0.1356875   0.31189948
  0.37954512  0.12341502]
[ 0.5654525   1.1745192   0.19817299  0.12223383 -1.1374967   0.2893451
 -0.17244938  0.50020826  0.41852608 -0.7664009   0.34158373 -0.01677795
 -0.00284644 -0.9915357   0.2284961  -0.05973693 -0.4003897  -0.2653847
 -0.21399105  0.94273984]
[ 0.22999729  0.19852814  1.2686087  -0.62151617  0.08891427  0.58962184
  0.67860496 -0.29047802  0.55728066  0.4946479   0.6046198  -0.27462193
 -0.60451263  0.18004218 -1.2435375   0.34922883  0.7773333  -0.75019395
  0.07651941 -0.06858782]
[-0.8377811   0.4130691   0.19314381  0.41506737 -0.15942681 -0.13568944
 -0.3345289  -0.2782842   0.0989048  -0.4672355  -0.1955771   0.26424202
 -0.63371944 -0.56806314 -0.57511437 -0.7363252  -0.4732168  -0.04817952
 -0.24416102 -0.5888792 ]
[-0.37652856  0.03808406 -0.34036347  0.424174    0.19858795 -0.22033305
 -0.61450684  0.07467747 -0.42814007 -0.30008087 -0.34666377 -0.68672305
 -0.32074848 -0.41528383 -0.45708385  0.11672947 -0.39510518  0.07001981
 -0.27643135 -0.11474399]
[-0.18729746 -0.6358954   0.61125475 -0.8634413  -0.5269691  -0.44759777
 -0.02307906 -0.26757926 -0.77102476 -0.08397668 -0.09937041 -0.5588336
 -0.8929468   1.033712   -0.02984768  0.32341272  0.15295014 -0.5551739
  1.3949678  -0.79614633]
[-0.13149361  0.36303416 -1.0800126   0.5422411   0.29606047 -0.6978646
  0.26302046  0.6391997  -0.15404253 -0.6266632  -0.5939209   1.1028309
  1.354203    0.03533074  0.60505486  0.09498306 -0.69815403  0.71193737
  0.8154325  -0.41318518]
[ 0.32308143 -0.1576162   0.49513307 -0.6409827   0.17681426  0.52312064
 -0.02808264  0.04974601 -0.53309166  0.47493663  0.40109935  0.16313785
  0.10660235  0.4422561   0.7256705  -0.28782544  0.4859917   0.56675947
  0.21993567  0.353418  ]
[ 0.01081544 -0.03358302  0.1336083  -0.08650529 -0.59116304 -0.12489973
  0.15797538  0.12412145  0.10868517  0.02792557 -0.07952712  0.43816388
  0.03623999  0.18228437 -0.0319403   0.27460352 -0.01288563 -0.02625314
 -0.03545431 -0.0578162 ]
layer 1 Activation
tanh
layer 2 Dense
20 40
[-0.03610801 -0.0558811   0.03758654  0.03443514 -0.39189956  0.35779214
  0.2598181   0.23423342 -0.21761209  0.28968096 -0.26762968 -0.04389721
  0.0564756  -0.18688516  0.3739174   0.28454477  0.23129627 -0.2896581
 -0.5214753   0.03029028  0.6094629   0.08216418  0.03996164 -0.00350366
  0.09068622  0.11767558 -0.06290292 -0.19912112 -0.3988933  -0.2624124
 -0.31769428 -0.02539474  0.34143597 -0.426966    0.06278277 -0.08209715
  0.37020057  0.23224485 -0.14161766  0.40035826]
[-0.23566295 -0.11642516  0.4161761   0.10689563  0.22429521  0.28942573
  0.4810544   0.17605548  0.07405825 -0.48434827 -0.15168169 -0.03349678
 -0.14504232  0.0479411   0.46015012  0.32490394  0.33983135  0.18536516
 -0.86224693  0.09105846  0.0662971   0.31902665  0.22812721 -0.11630841
  0.0953408  -0.1422264  -0.2609109   0.18960454  0.6501059  -0.42334968
 -0.32971114  0.07662141 -0.23444769  0.12907386 -0.375855   -0.07802282
  0.33676037 -0.11427177 -0.2639277   0.5656308 ]
[-0.02217186 -0.25247312 -0.06929955  0.2999977  -0.0199715  -0.13600153
  0.26456052 -0.42953765  0.51211375  0.77081203  0.2854293  -0.22631152
  0.24765988 -0.3022067   0.04583949  0.30022487 -0.34112313 -0.12948565
 -0.45317453  0.48231366 -0.13494226 -0.13509543 -0.41209272  0.55145377
  0.63411945  0.38596782  0.01259629  0.18573236 -0.5417428  -0.09974756
  0.06594187  0.29546645  0.30873534 -0.39707094  0.00661062  0.47478452
  0.569242    0.30192465  0.3258015   0.5502669 ]
[-0.37943062  0.36099863  0.0714931  -0.6653967  -0.29008302  0.10041112
  0.14865582  0.52944714 -0.15390298 -0.08006057 -0.21680392 -0.06833951
 -0.44421217  0.26444143  0.02031689  0.00565487  0.3764086   0.13632812
  0.82913196 -0.02146257  0.0419034   0.20247552  0.39510208 -0.27038455
 -0.46354404  0.1617168  -0.0649382  -0.19019555  0.8055175  -0.00768153
  0.16965449 -0.48224935 -0.8194768   0.05827575  0.24856374  0.11379848
 -0.6825896   0.12018573  0.01095781 -0.4760245 ]
[-0.16539316 -0.08834217  0.0915712  -0.1775232   0.22061709  0.23291846
 -0.2664618  -0.6547095  -0.5732295   0.38511303  0.2990654  -0.31705967
  0.3963211   0.65920025 -0.42574483  0.01805706  0.13640694 -0.43745077
 -0.06714985  0.01628399 -0.02458018 -0.02654713 -0.42858335  0.07296714
  0.17931347 -0.5756097   0.20825356  0.24061202  0.61272883 -0.5039433
 -0.10348649 -0.00970633 -0.04545284  0.2269287  -0.24268132 -0.08361174
 -0.31962794 -0.4592183   0.45793185 -0.13017483]
[ 0.04844209 -0.70377874  0.7066986   0.1011802   0.23864809 -0.30225256
  0.0333605  -0.03308829  0.31107098 -0.03042272 -0.23186542  0.03913227
 -0.099949   -0.08297679  0.70979995  0.83552295 -0.4788935  -0.11726155
 -1.0888747  -0.33681512  0.5933797   0.01288746  0.05803355  0.12319358
  0.1122558   0.3492796   0.2243243   0.06043053 -0.459879    0.09508643
  0.52553177  0.4471195   0.26763058 -0.17399585 -0.32220355  0.07862839
  1.146215    0.11196899 -0.25207248  0.62067413]
[ 2.5322714e-01 -3.8465589e-02  2.7569714e-01 -2.1143512e-01
 -7.1272247e-02 -1.0498271e-02  1.7473677e-01 -8.4141850e-02
 -2.8318882e-01  9.6869010e-01  1.9364400e-01 -1.6691893e-01
  4.0785035e-01  3.3347756e-01 -1.3946642e-01 -7.3404364e-02
 -3.6701500e-01 -2.7327418e-01 -1.7572445e-01  3.5426026e-04
 -3.4209833e-02  1.4900665e-01 -2.2359399e-01 -2.3283853e-01
 -2.4324462e-02  1.5905064e-01 -3.0562785e-01 -4.4639978e-01
 -5.2602649e-01 -1.4570719e-01 -2.8464696e-03  2.5017265e-02
  1.5741961e-01 -1.8077675e-02 -3.9483082e-01 -2.3440260e-01
 -1.4192638e-01 -3.1991866e-01  8.2016572e-02  7.1321929e-01]
[-0.1350323   0.05819004  0.34987798  0.10080952 -0.26509094 -0.3961042
 -0.03789193  0.6838377  -0.02961356 -0.03168568 -0.2648384  -0.16875476
 -0.43303224 -0.25115603  0.68450224  0.4443639   0.4638621  -0.21684645
 -0.285596   -0.04840371  0.45070148 -0.03249877 -0.23301026 -0.45517454
  0.1472333   0.35479406  0.26325607  0.06371606 -0.46227372  0.29830113
 -0.03777879  0.30312297  0.02775865 -0.14439261  0.03554954 -0.27344063
  0.13294022 -0.0746697  -0.4708455   0.35021675]
[ 0.0537514  -0.19621971  0.33017257  0.2966784   0.17000432  0.1800053
 -0.13598338 -0.1323043   0.16853072  0.5431219   0.13437131 -0.05656601
  0.15982519 -0.04644251  0.28788128  0.7385119  -0.15549007 -0.5091546
 -0.6121911   0.11409957 -0.31199747  0.22003663  0.10391433  0.13233277
  0.3173653   0.38041022  0.14704515 -0.7831711   0.24312858  0.3662325
  0.18188857 -0.14561737  0.19013251  0.11539163 -0.29136124  0.3014192
  0.34195226 -0.11443106  0.03072859  0.49797925]
[-0.10015094 -0.15308014 -0.1746372   0.26110208  0.57049626 -0.29313448
 -0.19002722 -0.3947421  -0.5281349   0.73502433  0.10368649  0.05150986
  0.21291657  0.22129777 -0.9910953   0.06148759 -0.3150476  -0.80351347
  0.02237199  0.0815738  -0.134562   -0.17910741 -0.3454845   0.45976138
  0.70756704 -0.59413016  0.59170103  0.00169043 -0.58033085  0.16199754
  0.42537934  0.04221827  0.45166725 -0.2459361  -0.1669167   0.4767903
  0.09434368  0.02815191  0.2258238  -0.28566873]
[-0.08221547 -0.24391094  0.40763807  0.36801916  0.38072926  0.21007745
 -0.11010191 -0.18583438 -0.04227899  0.24809249 -0.09550255 -0.04535678
  0.47030082  0.0864713   0.01852518  0.00909248  0.16763327 -0.86009926
 -0.20785321 -0.05592744  0.09778961 -0.36307472  0.17730138  0.5877231
  0.3318311  -0.3118756   0.5751403  -0.0418553   0.11936667 -0.0139446
  0.7609226  -0.22071378  0.6031776   0.0920416  -0.4389002   0.5888928
  0.27759895  0.23464783  0.12192895  0.10703981]
[ 0.3321743   0.06166733  0.31795827 -0.3432871  -0.06968505 -0.31982213
  0.05524914  0.4720553  -0.50273585  0.4321964  -0.7846855   0.07158645
  0.50494146 -0.4372416   0.36454216  0.11175155 -0.5686202  -0.36657932
  0.32872498 -0.21636936  0.31466624 -0.05701205  0.13540055 -0.35109606
  0.0784418  -0.06514377  0.35568935 -0.43523744 -0.518591    0.7743815
 -0.12029948  0.14043964  0.14849836  0.3107139  -0.5115658   0.30666623
  0.07179452 -0.26407722 -0.08837739  0.10006624]
[-0.16506271 -0.26787382  0.05796082 -0.06703921  0.5197422   0.0851955
  0.50488967 -0.28042552 -0.53961474 -0.04559702  0.35488114  0.43560463
 -0.50997365  0.5266384  -0.5982469   0.36440557  0.30840042 -0.20362586
 -0.29382247  0.5985042  -0.08016928  0.01541975 -0.31513068 -0.2906949
 -0.11007767 -0.43167213  0.10174188 -0.05991299  0.06343032 -0.30718353
 -0.30345348 -0.6078512   0.34375894 -0.25839466 -0.11995927 -0.06180531
  0.18903218 -0.6067779  -0.42462578  0.60761386]
[ 0.22577654 -0.2878191  -0.42036575  0.5002865  -0.20584309 -0.4586564
 -0.58698225 -0.32984906 -0.11463812  0.8934941  -0.37989098 -0.01465469
 -0.47963405 -0.08838413 -0.45425242 -0.502726   -0.51049685 -0.4178632
  0.91506654 -0.35707518  0.6621876  -0.42584953 -0.4623675  -0.621975
 -0.05020565 -0.7644889  -0.36456117 -0.58130604 -1.2593039   0.60305756
 -0.2390259   0.15039109 -0.35204718 -0.20277657  0.6144972  -0.14369047
  0.2489794   0.34620824  0.17865281 -0.4683124 ]
[ 0.45259777  0.55573744 -0.5202218   0.34786147 -0.08369342 -0.09200922
 -0.00420919  0.18421003 -0.37369898 -0.7633221  -0.17216395  0.08086642
 -0.4830358   0.57024294  0.1798943   0.85985166  0.46243724  0.84081274
 -0.18117413 -0.00341694  1.0332376  -0.20243715  0.3234649  -0.8164109
 -0.17957017 -0.2314279   0.18154103  0.23286842 -0.0881517  -0.41882986
 -0.9217748  -0.35486627 -0.7868155  -0.7385692   0.8507424  -0.70491654
 -1.0680293   0.2812056  -0.50820136 -0.67547256]
[ 2.4874482e-02 -2.9555729e-01  5.5375671e-01  2.7209353e-02
  3.3892345e-01 -5.1930028e-01 -8.5709020e-02 -1.8412098e-01
  3.9091760e-01 -4.5558348e-01 -3.3571810e-01  2.8789997e-02
  9.5078133e-02  1.9791783e-01  5.1105727e-04 -1.7141953e-02
 -2.1900174e-01  4.5226142e-02 -1.5727383e-01 -3.5167131e-01
 -4.0961537e-01 -6.7785852e-02  3.7163398e-01  4.9627486e-01
  1.8004300e-01  1.7738336e-01 -1.6658686e-01  3.4401849e-01
 -9.8037027e-02  5.9964591e-01  7.7060395e-01  4.1485342e-01
  1.0423027e-01  4.0415004e-01 -4.9823374e-01  4.6965954e-01
  3.5404555e-02 -1.3559009e-01  2.4752609e-01  4.5411848e-02]
[-0.13199759 -0.09068582  0.07376019  0.32812494  0.21604034 -0.46620193
 -0.1480208  -0.85425407 -0.21869436  0.29235372  0.12702909  0.24738483
  0.45447803 -0.13667354 -0.36910853 -0.16925614 -0.45728067 -0.5884717
  0.8925751  -0.2611982  -0.38449374 -0.14322117 -0.08017559  0.6528911
  0.6549727  -0.36572123  0.10052764  0.15148596 -0.44872323  0.06095676
  0.6753995  -0.04999313  0.6865278  -0.07717325 -0.01993353  0.4751728
  0.02967601  0.15378241  0.22950076  0.07104003]
[-0.11211212  0.04146126  0.03951456 -0.44820976 -0.17444532 -0.12864889
  0.17416179  0.27355376 -0.19492586  0.13400523 -0.2086653   0.16075447
 -0.48073074  0.03875735 -0.29608464  0.2559223  -0.04180796 -0.15039241
  0.26421684 -0.05394442 -0.06209964  0.04855195 -0.45017508 -0.48117366
  0.01857779 -0.31600845  0.18393286  0.14647335  0.0860448  -0.09851407
 -0.6054269  -0.4333315   0.09557095 -0.34032732  0.46528193 -0.43114787
 -0.33521572 -0.00605297 -0.23948975  0.19617574]
[-0.24356554  0.23510867 -0.11383027 -0.09781288  0.24670184  0.49887967
  0.2687738   0.77682686 -0.06717957  0.06271618 -0.14112931 -0.09620689
  0.21177118  0.14224027 -0.34676096  0.00984282  0.09481703  0.23446833
 -0.14706656 -0.0517055   0.45428917 -0.23106919 -0.20872322 -0.41525495
 -0.3522556  -0.10504113  0.3395894  -0.02198659  0.06894781 -0.32124573
 -0.35208264  0.11158902  0.35175297 -0.50391185  0.36876795 -0.1896846
  0.33408257  0.13851692 -0.48950234  0.01177482]
[-0.39540222 -0.69851357 -0.03347993  0.17457195  0.6727837  -0.341609
 -0.6111877   0.45763907 -0.2414168  -0.9318876  -0.41096503 -0.2992248
 -0.36927688 -0.12641892  0.7918396   0.6238311   0.7824591  -0.36249852
 -1.2524273  -0.2536198   0.7635622  -0.4911882   0.731603   -0.42959535
  0.0656045   0.21876706 -0.5403424   0.19850127  0.16423668 -0.51891464
 -0.4464186  -0.41907007 -0.03152443 -0.5450797  -0.93081266  0.21781857
  0.5898993   0.30004767 -0.54469556  0.8074411 ]
[-0.12173575 -0.26873702 -0.13616171  0.32907766  0.08411689 -0.51392484
 -0.29438192 -0.21104524 -0.45590055  0.2479771  -0.3742056   0.1994146
 -0.22269936 -0.00857615 -0.14747016  0.40585366  0.04370803 -0.22053413
 -0.05223753 -0.25023562  0.47549433 -0.4374748  -0.18638667 -0.13787673
  0.10032481 -0.3113691   0.23558639 -0.3437453  -0.74231654  0.21939202
 -0.31611824 -0.08315061  0.03405019 -0.08945347  0.3620227  -0.04040289
  0.39760718  0.35630035 -0.29937863  0.19886668]
layer 3 Activation
tanh
layer 4 Dense
40 20
[ 0.16692428  0.09871534  0.1264477  -0.2525839  -0.05251167 -0.06468928
  0.17642039 -0.04156692 -0.20035331  0.13104874 -0.18445389 -0.20426765
  0.24405728 -0.13544396 -0.20158845  0.0080877  -0.06558777 -0.46392006
 -0.26946056  0.3692588 ]
[ 0.260073   -0.22937518 -0.45763075  0.12819095 -0.30161363  0.20775256
 -0.35224387  0.35598373 -0.2530008   0.06675583 -0.01609412  0.09355889
  0.21005003  0.17601861  0.15428424 -0.15759863 -0.48663968  0.1941745
 -0.54005367  0.03391116]
[-0.24448699  0.24541053  0.45086387 -0.717313    0.14377874 -0.2762882
  0.14156196  0.468688    0.17567623 -0.5201741  -0.5110951  -0.29135108
  0.10421991 -0.02632011 -0.32736313  0.26442587  0.02374825  0.34299523
 -0.19944426 -0.09609338]
[-0.05477022 -0.16189922 -0.08068219  0.26599973  0.16496967 -0.07203718
  0.41355094 -0.18571052  0.11495623 -0.22527042  0.26070973 -0.86726964
  0.04619384 -0.6238174   0.13002947 -0.46833205  0.20775782 -0.01076467
  0.3178315   0.15893307]
[-0.04151868  0.1064572   0.20662448 -0.09888615  0.295295   -0.12235648
 -0.10506206 -0.10046342  0.09527376 -0.23134571  0.21221673 -0.04051045
 -0.07696884 -0.34269768 -0.2715122   0.07777414  0.20576435  0.1674149
  0.39026377  0.1238217 ]
[ 0.07945174  0.07166601  0.22685148 -0.32689708 -0.10090248  0.3546748
 -0.14518501  0.2106118   0.27490696  0.12487318  0.13303016  0.7032843
  0.367878    0.5491375  -0.5380368   0.20249587 -0.19876693  0.12553452
  0.04743124 -0.02909553]
[ 0.14046149  0.18184595 -0.05539398  0.19188145  0.04260232 -0.00600471
 -0.05617525 -0.06466791  0.23188727  0.11651502 -0.41003767  0.48604876
  0.2275029   0.59182465 -0.21564482  0.04927848 -0.4033196  -0.42648667
 -0.06164204  0.24030043]
[ 0.33705527  0.19087544 -0.24850182  0.1770087  -0.08330825 -0.08655901
  0.5919621   0.1999268  -0.39719692  0.43064612  0.04458188 -0.03647771
 -0.25063556  0.24753104  0.30193487  0.30390579 -0.29424572  0.5250954
 -0.39378074 -0.22006688]
[-0.08258785  0.07144131 -0.46829432  0.17382316 -0.28480437 -0.41691974
  0.19951445  0.47021455 -0.12879026  0.19673888  0.02774292 -0.2201646
  0.4634409  -0.08982099  0.2794746   0.3585835   0.33052945  0.09822889
 -0.23265958  0.31521234]
[-0.20885025 -0.5337477  -0.01108524 -0.25512204  0.5360796  -0.24503182
 -0.36833832 -0.39102527  0.11562563  0.21840002 -0.5045826   0.30099267
 -0.11235022 -0.20022276  0.18175395 -0.06040948  0.17428729 -0.42430952
  0.09294044 -0.02599221]
[-0.38769957 -0.12107706 -0.14615397  0.2422716   0.01925774 -0.31867462
 -0.01888983 -0.36754352  0.02236062 -0.16256829  0.16233     0.1514547
  0.22316317  0.14035381 -0.42933992 -0.21201886  0.04014446 -0.18600948
  0.15822983 -0.0133671 ]
[ 0.04823088 -0.20461674  0.06362239 -0.08367166 -0.05931377  0.06561905
 -0.29751828  0.10475948  0.1853217  -0.03980314  0.10741957 -0.27487728
 -0.4104151  -0.06942507  0.14869864  0.12039524  0.10694031  0.23813371
 -0.14892122 -0.06872208]
[-0.4840758  -0.14497991  0.50464976 -0.18902324  0.34046188  0.09505929
 -0.6225471  -0.08621392  0.01905157 -0.4785375  -0.02036889  0.34404916
  0.02000437  0.29543698  0.30872563  0.20167811 -0.08368924 -0.03020065
  0.34945318 -0.52056706]
[-0.06999937 -0.1795947  -0.18452814 -0.00086799  0.0834552   0.17043321
 -0.10500777 -0.3412806  -0.11985519 -0.12097258  0.17625362  0.3329185
 -0.34324637  0.37489665 -0.37851575 -0.27600822 -0.2154126   0.14559959
  0.26796108  0.08395724]
[ 0.6337322   0.354807    0.5600961   0.16934472 -0.01539292 -0.38739973
  0.24740805  0.17508131  0.4328187   0.09052718  0.25186968 -0.2282999
  0.06732593  0.03985154 -0.02610698  0.31156442 -0.45897165  0.39953384
 -0.70913243  0.34873444]
[-0.28973523  0.5384993  -0.2625523   0.11137374 -0.09026852  0.03223862
  0.19249673  0.23877564  0.22389247  0.14068136  0.2101813  -0.12182514
 -0.4512078  -0.282239   -0.37352598  0.28489274  0.11430898 -0.08725818
 -0.16964376  0.53161293]
[ 0.14907032 -0.09294204 -0.45442963  0.03852221 -0.43215194  0.4289309
  0.04112058  0.18517034  0.32769892  0.29877076  0.53357613  0.311086
  0.05465384 -0.29616848 -0.46540952  0.0572564  -0.10897791  0.53303045
  0.08304514  0.13966879]
[ 0.11257423  0.17626034 -0.4376009   0.361684   -0.307423   -0.1783164
  0.26200584  0.44838625 -0.25629368  0.6768016   0.19865653 -0.27238762
  0.18845585  0.20056567  0.23914969 -0.2652452  -0.23215291  0.29321572
 -0.50401783  0.23531874]
[ 0.708339   -0.68452126  0.12952735 -0.48630437 -0.56379116  0.00682299
 -0.39299566 -0.32852447 -0.5105508  -0.48098126 -0.4205106  -0.3313798
 -0.0205259   0.02241892  0.35200027 -0.67900634 -0.7985901  -0.17741476
 -0.34783655 -0.50071627]
[-0.10068101 -0.1259439  -0.00834123 -0.16517816 -0.0885092   0.11972164
 -0.23610152 -0.24037771  0.1818294  -0.0968445   0.26237622  0.14075142
  0.15343904  0.15930597 -0.12773177 -0.06008276  0.11780099  0.41310346
  0.16314879  0.26274505]
[ 0.8123067  -0.08521793 -0.2692206   0.076727   -0.06369535 -0.08863977
  0.00395834  0.18122931  0.053736    0.34684804  0.3271727   0.03535437
 -0.4196781  -0.3885823   0.3741394  -0.02057264 -0.144248    0.07222165
 -0.29258224  0.09399029]
[ 0.07510853 -0.06305444  0.11612915 -0.04974964  0.24781571 -0.33499515
 -0.12705524 -0.0576373   0.41600955 -0.13801865  0.05168169  0.63902223
  0.34914267  0.506457   -0.23529643  0.15357234 -0.04462236  0.10507195
  0.0727642   0.1278793 ]
[ 0.0772072   0.17225659  0.09262415 -0.02531524 -0.39306068 -0.2738554
 -0.01510082  0.19411603  0.40250334 -0.00686882  0.22480963  0.21405008
  0.20817108  0.4736276  -0.08560389  0.32474673  0.24216625  0.5370283
 -0.3415013   0.28125384]
[-0.1351395   0.01044825  0.45118555 -0.4126496   0.29355654 -0.34288344
 -0.20567802 -0.30286598  0.21638583 -0.2859892  -0.34589696 -0.20753132
  0.57887655  0.12854621  0.05349238  0.15433699  0.36891654  0.20084494
  0.4609723   0.10262738]
[-0.25444296 -0.08913758  0.42682654  0.20303579  0.252342   -0.1555822
 -0.16736355 -0.1816664   0.31006366 -0.5907628  -0.38658902 -0.45964244
  0.09186526 -0.2327859  -0.23270454  0.21350533  0.03847475 -0.2011508
  0.35448024  0.2379785 ]
[ 0.14971165  0.48807868  0.25899667  0.50937074 -0.27534467 -0.2362893
  0.42706522  0.3322088   0.20147151  0.25966656  0.28996605  0.06119384
  0.535283    0.27267155 -0.3111897   0.29627332  0.07401413  0.25096145
 -0.34586397  0.2815087 ]
[ 0.11922113 -0.08218693  0.27377775 -0.23757653 -0.01219543 -0.34159803
 -0.0714426  -0.02805049  0.14108188 -0.4353382  -0.26898226  0.11437616
 -0.25523144 -0.06304504 -0.01889914 -0.42016682 -0.17856254 -0.24815643
  0.06730062 -0.41538692]
[-0.3211431   0.01401821  0.18344314 -0.21220212  0.03389462 -0.17538089
 -0.16856278 -0.14066823  0.38357547  0.18459037  0.29838517  0.31966487
  0.41777948 -0.2179052  -0.01378413  0.0398321   0.19070637  0.26139897
 -0.01314179  0.2414187 ]
[-0.17009011  0.26551083  0.11700168 -0.31308472 -0.20615208  0.13591847
 -0.41884053  0.04798452  0.17176493 -0.3591981   0.45411158  0.38200957
  0.26671526  0.58843666 -0.73125976  0.3195136  -0.5394149   0.6540615
 -0.00616121 -0.03271582]
[ 0.34359327 -0.44107354  0.18346533 -0.08562944 -0.08129374 -0.199066
 -0.3838613   0.21971293 -0.43971062  0.08731361 -0.2602862  -0.11263894
 -0.5285936  -0.5528517  -0.00870508 -0.46216226 -0.0448445  -0.5212122
  0.11528961 -0.1733473 ]
[-0.06166756  0.19667722  0.14695334 -0.27652696  0.3753862  -0.29986212
 -0.52852595 -0.45070925 -0.31449893 -0.34278604 -0.06143065  0.09614095
  0.3156299   0.29752964  0.4427327   0.5599344   0.00999947 -0.09432466
  0.4618162   0.00478144]
[-0.20968613  0.39749378  0.11558596  0.09159397 -0.03740634 -0.2783025
 -0.02384004 -0.02646096 -0.02467577 -0.34676242 -0.49637648  0.22873682
  0.10794512 -0.05804108  0.13102695  0.24985427 -0.12451037 -0.29165882
  0.07747862  0.13493153]
[ 0.07806761 -0.4406917   0.09900489 -0.29777575  0.1949424  -0.35328338
  0.16853562  0.15228598  0.20498775 -0.4529581  -0.04985262 -0.00721484
 -0.23492502  0.09653769 -0.0130777   0.0514368   0.3084194  -0.02868655
  0.49273217  0.46513373]
[ 0.2192502  -0.16463475 -0.0963719   0.0377676   0.19630921  0.00473016
 -0.08744638 -0.19173293  0.2182274  -0.36545005 -0.04945473 -0.08856659
 -0.4315036  -0.35659638  0.12034001 -0.13872685  0.23079462 -0.45520657
  0.4768883   0.01009715]
[ 0.09678359 -0.15799716 -0.5609278   0.3868893   0.02601514  0.02747498
  0.1007815  -0.1397877  -0.29821235  0.5124881   0.17735243  0.40702984
 -0.23831007 -0.18257831 -0.06885856 -0.27599055  0.02322471  0.10073546
  0.01010654  0.05605041]
[-0.23262437  0.581604    0.13608292 -0.37716287  0.09472037 -0.33499762
 -0.4626101   0.14090256  0.13852565 -0.26366773 -0.22987363 -0.44750145
 -0.11454811 -0.21848962 -0.07528269  0.25233614  0.28042117  0.08655863
  0.43290073  0.2675913 ]
[-0.66907346  0.13197137  0.45840552  0.0769385   0.40731642 -0.5486882
  0.34530854 -0.46351722  0.28828967 -0.41800943 -0.12087715  0.1167285
 -0.30969116 -0.55508137  0.02105335 -0.00157131  0.54256016 -0.23298605
 -0.07187821  0.37862462]
[-0.14185351 -0.18469997  0.02091538  0.03550576  0.18364665  0.22821428
 -0.06975148 -0.3590757   0.2108586   0.00807287 -0.09476388  0.01181739
 -0.40679097 -0.21976201 -0.22998899 -0.4584517   0.03615085 -0.2619621
  0.13666824  0.3359238 ]
[-0.1264349   0.03293075  0.3829764  -0.41816202 -0.00964271 -0.07803896
 -0.48317695 -0.49128264 -0.40553746 -0.43473354  0.01251433  0.04494178
  0.34162858  0.3806755   0.1774582  -0.02638953  0.03561954 -0.00117053
  0.0150351  -0.26887083]
[-0.54925674 -0.13574986  0.0317577   0.4874596   0.6582501  -0.21288036
  0.55561984  0.28703657  0.29699913  0.36845928  0.35318577  0.47172773
 -0.29496816  0.44094607  0.01583335  0.15287855  0.09580088 -0.6624214
  0.15194327  0.39036906]
[ 8.94248560e-02  2.50545293e-02 -1.55194044e-01  1.81127205e-01
 -7.03483596e-02  1.31933719e-01  1.11163385e-01 -1.14743859e-02
  1.98922120e-04  9.37314779e-02 -2.13115335e-01 -1.87940583e-01
 -3.99126172e-01 -3.27985018e-01 -2.88564563e-02 -9.59512964e-02
 -2.07571313e-03 -5.53575531e-02  1.49795309e-01  6.65133744e-02]
layer 5 Activation
tanh
layer 6 Dense
20 1
[1.2283889]
[1.5401742]
[1.4138939]
[-1.1755644]
[-1.6544023]
[-1.6794343]
[-1.1224859]
[1.5399203]
[-1.5744652]
[-1.8251574]
[-1.3663727]
[-1.1718508]
[1.631981]
[1.6915425]
[1.3946881]
[2.072495]
[-1.1403408]
[1.4342806]
[-1.6168573]
[-1.4668378]
[1.1379982]
