layers 7
layer 0 Dense
20 20
[-0.01286553  0.241589    0.04324256  0.25927562 -0.00541988 -0.223666
  0.23489667  0.17836617  0.00877259 -0.03734012  0.5665587  -0.11135755
 -0.19782346  0.16598642  0.00424742  0.09296042 -0.08684964  0.22937477
  0.19283488  0.48595122]
[-0.05963551  0.42542058 -0.192842   -0.01456821  0.0049817  -0.13249266
  0.42068398 -0.11296417 -0.37608972  0.33969325  0.13742761 -0.18593693
 -0.0343684  -0.00962954 -0.24535356  0.34812897 -0.40733954 -0.02791906
 -0.74442035  0.27402815]
[ 0.23797315  0.34377128  0.10935792  0.42172682  0.22775912 -0.7608015
  0.37964246  0.47521266 -0.44077614  0.29114974  0.6950692  -0.02753223
 -0.31631756  0.30199888 -0.43921897 -0.14697927 -0.09370118  0.07506977
 -0.3600238  -0.09056627]
[-0.12648678  0.29675502 -0.05910959 -0.11284701  0.10575131 -0.5118229
  0.4667691   0.36251625  0.03637101 -0.0850307   0.4878022  -0.04098232
 -0.28876656  0.16203545 -0.19454935 -0.26730958 -0.48191336 -0.11084893
 -0.3642877   0.4259085 ]
[-0.19197872 -0.19799751  0.2448457   0.1438289  -0.17050794  0.39252198
  0.09490311  0.10717297 -0.16601539  0.13750583 -0.11132593  0.05315951
  0.3263356   0.15374929  0.09578556  0.67148083  0.08426836 -0.4292803
 -0.00116621  0.04905361]
[ 3.2989081e-02 -4.2770958e-01  1.6705473e-01 -2.4044149e-01
 -4.9607104e-01  4.5659915e-01 -4.6354246e-05 -1.2304316e-01
 -1.8996118e-01 -3.5385692e-01 -2.9500455e-01  1.1173440e-02
  4.7418672e-01  2.3369743e-03  5.8674198e-01 -2.6196405e-01
  6.5986717e-01 -2.6932266e-01  1.8276735e-01  2.8285712e-01]
[-2.2457303e-01 -1.8070117e-01 -1.3547406e-02 -3.0992073e-01
 -5.5663782e-01  2.8942463e-01 -4.3933722e-01 -2.7858824e-01
  5.1785934e-01 -3.9761990e-01 -8.3767548e-02 -1.5790750e-01
  5.5557835e-01 -2.4309401e-01  1.6658548e-03 -2.4433894e-01
  7.3115033e-01 -4.0115282e-01  2.4136977e-01  5.8456371e-04]
[ 0.10436271 -0.21631417  0.09140188  0.05059076 -0.30413625 -0.23251715
 -0.08571365  0.0926642   0.2025197  -0.17287454 -0.56539077 -0.29797608
  0.17104973 -0.03460044 -0.1933965  -0.35494953 -0.31541187 -0.02936728
 -0.01696595  0.06769951]
[-0.45816073  0.22838537  0.1267209   0.32747602 -0.27512905  0.2076297
 -0.12441177 -0.14643773 -0.22015439  0.00585231 -0.07820629 -0.40443552
 -0.09180692 -0.39030042  0.06344093 -0.16080876  0.21203226 -0.26375306
  0.37189993 -0.34759027]
[-0.37262824  0.5345548  -0.1105103  -0.45442256  0.39189562 -0.21859345
  0.09358597  0.01973374  0.01727934  0.31218252  0.2630314  -0.2653599
 -0.15429817 -0.26951262  0.23670071  0.3436211   0.17046387 -0.21736054
 -0.42431632 -0.06898402]
[-0.05700151 -0.10942997  0.49405232  0.10812742  0.02124645  0.21504918
  0.07922062  0.2052853   0.20640746  0.10896005 -0.07772671 -0.13362886
  0.37240863 -0.08614017  0.2518785   0.03360099 -0.61972857 -0.35612655
 -0.1530899   0.08022802]
[ 0.08893389 -0.3165281  -0.1519479   0.19285724 -0.56766343  0.444788
 -0.06837656 -0.34041864 -0.12190648 -0.5367172  -0.43396792  0.23809247
  0.3283941  -0.24066241  0.16935246  0.17933063  0.50024754 -0.294069
  0.92655814  0.36074188]
[-0.02548331 -0.16483855  0.05699776  0.40962386 -0.20109853  0.3123994
 -0.12094171 -0.5612018  -0.04198739  0.27541965 -0.27665904  0.00645691
 -0.00870247  0.07150228 -0.00301112  0.04837386 -0.30794278 -0.27211577
 -0.26203525 -0.43496123]
[-0.2464834   0.38767445  0.01143969 -0.3060433   0.07810951 -0.59964806
  0.07776911  0.40209353 -0.34231305  0.10068166 -0.09086059 -0.4506004
 -0.21655062 -0.2584705  -0.28913003 -0.01843819  0.16555327 -0.26913863
  0.12780178 -0.3100877 ]
[-0.14354165 -0.0219278   0.11949538 -0.23526616 -0.07238947  0.35532007
 -0.04483262  0.3427208   0.22605388  0.14751928  0.03302952 -0.00245877
  0.30279553  0.02360142  0.14798538 -0.25882015 -0.37270394  0.14362842
  0.08002405  0.03784632]
[ 0.30204645 -0.4445375  -0.2853082   0.20896843 -0.03282976  0.44222274
 -0.09086883 -0.09685298 -0.38239175 -0.6839101  -0.5742133   0.7427822
  0.35608444 -0.50489926  0.32539427  0.28389728  0.5324922  -0.01848681
  0.19569328  0.27087525]
[ 0.51028687  0.28209618 -0.18441038  0.09897766  0.58839583 -0.62948364
  0.16579232  0.4562296   0.04471401  0.1588459   0.57872367  0.4782632
  0.1663211   0.14800589 -0.23832701 -0.040043   -0.2326809   0.25652266
 -0.3544925  -0.04688314]
[ 0.2217684  -0.45174313 -0.28003594  0.38675115  0.11246272  0.50537336
  0.09011622  0.15514901 -0.3659102  -0.55012596 -0.02625888  0.8435384
  0.21743603  0.4669363  -0.58517253 -0.95932484 -0.76376003  0.31247923
  0.22752647 -0.0815241 ]
[-0.16747989 -0.05018919 -0.3909276   0.36307865  0.61494935  0.20013434
  0.06208246  0.12893069 -0.57717717 -0.6783542   0.23783271 -0.25501853
 -0.2522815   0.10400308 -0.9760985   0.4624979   1.139123    0.6332891
  0.46869567  1.0515382 ]
[-0.09216406  0.43276483  0.00976632 -0.05649903  0.7655525  -0.5325118
 -0.09137566  0.31837142  0.10377414  0.62378865  0.54056686 -0.8073357
 -0.11421359  0.24616426 -0.979269   -0.8639651  -0.7428807   0.05564862
 -0.33722118  0.01766371]
[-0.150662    0.16828188  0.03131327 -0.08289956  0.0978149  -0.11516448
  0.04846276  0.0848219  -0.05514167 -0.01267605  0.2543278  -0.10091655
 -0.10996148  0.06304068 -0.07350517 -0.08366489 -0.05597099  0.03371648
 -0.04631579  0.17729971]
layer 1 Activation
tanh
layer 2 Dense
20 40
[-0.17036463  0.1338605  -0.20162952 -0.22821207 -0.11211488  0.15784481
  0.10830139  0.24179511 -0.25733915 -0.05655014  0.03325116  0.01767882
 -0.0353628  -0.02106697  0.17197955  0.13465054 -0.12851006 -0.12700535
  0.23113146 -0.22658375 -0.04920228  0.16731541  0.04150084  0.21508065
 -0.18294087  0.16436787  0.11156987 -0.13296582  0.38479468  0.2687862
  0.18257722  0.04369851  0.09709685  0.03831692 -0.2560636  -0.10555365
  0.12669095 -0.2745686   0.1498902  -0.23503837]
[ 0.13705602 -0.13066912  0.42814377 -0.16397339 -0.02941168 -0.39296728
 -0.08976617 -0.04399963  0.15246883 -0.08764303  0.04048795 -0.08551832
  0.00104636  0.0674064   0.40550673 -0.20575212 -0.33650413  0.19427948
  0.06158853 -0.11339229  0.17816307  0.21375728  0.13876253 -0.3795771
  0.13551131 -0.17858662  0.42105895  0.11653139 -0.03409776 -0.13781464
 -0.19560732 -0.14842117 -0.18098868 -0.00444081  0.3472808  -0.08421681
 -0.23370986  0.49967077  0.15279862  0.08925609]
[ 0.07514609 -0.22595014 -0.05471959  0.17931314 -0.21891059  0.11051451
 -0.08576089 -0.04234061  0.07820302  0.12829189  0.0397191   0.09928671
 -0.2809068  -0.1690367  -0.07083682  0.21486942 -0.18630052  0.033625
 -0.24158113 -0.06595907  0.22622214 -0.22962917 -0.22987492 -0.03515924
  0.22304077  0.19662116 -0.01185928 -0.01388731 -0.16926235  0.1890252
  0.12261622  0.1473412  -0.21563874  0.25746167  0.11162666  0.04281242
  0.08440521  0.47028345 -0.10861801 -0.12448214]
[-0.00773099 -0.13096148 -0.2555165   0.09546449 -0.1257961   0.02662754
  0.17115389 -0.12499015 -0.18703756  0.11421624  0.1864882  -0.19138922
  0.0787004  -0.06416325  0.12924302  0.02587968  0.15003058 -0.05917469
  0.03732649 -0.15108557 -0.14432111  0.19568671 -0.2591195   0.19844776
 -0.25406104  0.06013456  0.01081427  0.22966342 -0.03781098  0.08435223
 -0.14493738  0.04232484  0.12441684 -0.12620346 -0.09831378 -0.17949136
  0.0286554  -0.00910641 -0.04649064  0.19245276]
[ 0.28417176  0.2469871   0.50037986  0.02380575 -0.5551035  -0.45462063
 -0.16219646 -0.21541154 -0.0839843  -0.1380662   0.1906363  -0.35273105
 -0.36231205  0.08355527  0.280504    0.36297765  0.6739159   0.01935405
 -0.41396612 -0.22509412  0.19715543 -0.07869489  0.509532   -0.3561222
  0.14066327 -0.29119062  0.30239525  0.0245032   0.3788384   0.2288966
 -0.2565001  -0.21665093 -0.20095095  0.08873951 -0.51309955 -0.00705067
 -0.34743536  0.52370447  0.26874942  0.01363827]
[-3.9388563e-02 -2.5200233e-01 -2.2587706e-01  2.3045976e-01
  1.2239370e-01  1.9274892e-01  3.0298978e-02  3.4290162e-01
 -4.5804249e-04  9.1871656e-02 -1.0006098e-01  3.3615348e-01
  2.0472634e-01 -1.3308010e-01 -4.1667703e-01 -7.7656843e-02
  8.0316722e-02  2.1096757e-02 -1.8703343e-01  7.9843491e-02
 -3.1871068e-01  1.8109860e-01 -1.4703254e-01  5.0512725e-01
  2.2382198e-01  1.5201141e-01 -2.9674774e-01  8.6094113e-03
 -1.9793570e-01 -4.1858402e-01 -4.2123221e-02  1.5076695e-01
  1.2791228e-01 -7.7944018e-02 -3.5331276e-01 -2.2422163e-01
  1.9029956e-01 -4.5485282e-01 -2.0434116e-01  1.6764209e-01]
[-0.06251478 -0.02468836  0.18480538 -0.06919833 -0.34313938 -0.25792262
 -0.2868198  -0.2702971   0.25101566 -0.07332673  0.09243639 -0.02933815
  0.06279839 -0.05529251  0.20547058 -0.20161651  0.0444338  -0.09185139
 -0.03239771 -0.32055807  0.29618067  0.172794    0.13862677  0.27726498
  0.09585828  0.10597303 -0.11646778 -0.04196122  0.16789277  0.26351425
  0.01690241  0.12598538 -0.27805918  0.00612414  0.25068623  0.02875824
  0.02407907 -0.19370385  0.29318383 -0.17632797]
[ 0.05728245 -0.48196265  0.17564732 -0.13278681 -0.28234538 -0.14329506
 -0.4332026   0.07539943 -0.25454223 -0.02104131  0.02556402 -0.12831697
  0.16018842 -0.21565399  0.15298052  0.2800364   0.09471072 -0.28275695
  0.04747209 -0.00677664  0.13643482 -0.00943414 -0.29846716 -0.12849306
 -0.1621969   0.14137243 -0.24633272  0.06467118  0.18141541 -0.08635857
 -0.01719448 -0.20182897 -0.02840463 -0.16771494 -0.24095197 -0.3973195
  0.01392342  0.19725375  0.15134625 -0.13974924]
[ 0.04532792 -0.30510598 -0.04300297  0.17533444 -0.04461541 -0.07401088
 -0.3814895  -0.08438164  0.01087849 -0.10998785 -0.15811118  0.16099188
 -0.02262376 -0.06852948  0.12003364  0.10518021 -0.08025388 -0.05880503
 -0.14787711  0.16617192  0.06203942  0.0481021  -0.07490589  0.11098196
  0.05046007  0.0461008  -0.08238328  0.10197988  0.14086719  0.17140234
  0.21348694 -0.09312599 -0.04540166 -0.15295252  0.20157929  0.08372797
  0.28055784 -0.14048934  0.13499188  0.04211811]
[ 0.27561072 -0.14752758  0.3448783   0.0136481  -0.20447947 -0.02010942
 -0.3307826  -0.07287309 -0.28169045  0.3394189  -0.30780935  0.26817524
 -0.03245105  0.07632082  0.30259845  0.116772   -0.14289394 -0.08346961
  0.27390385 -0.16881792  0.1543333   0.03008763  0.22665843 -0.4828388
 -0.01982057  0.2299196   0.21921426 -0.23825374  0.06837106 -0.12869464
 -0.01853516 -0.19824755  0.19697559 -0.07641298  0.26485524 -0.21954416
  0.13887298  0.43071383  0.1197495  -0.21302794]
[-1.93001270e-01  8.75194445e-02  4.69589800e-01 -3.12825322e-01
 -4.68360037e-01 -5.10906935e-01 -5.85645616e-01 -3.41776162e-01
 -3.20979767e-02 -3.77139717e-01  1.39789745e-01 -1.60382047e-01
 -1.63536906e-01  4.32161838e-01  2.73376793e-01  6.35058731e-02
  1.11082152e-01 -1.64275348e-01  2.04900593e-01  1.03285357e-01
  4.54829246e-01 -2.31932342e-01  2.88118213e-01 -2.67067999e-01
  2.57147476e-02 -3.87061685e-01  9.61773992e-02  3.34910870e-01
  1.14607856e-01  5.38988933e-02 -3.59352320e-01 -4.50104803e-01
 -4.32925105e-01  1.58579014e-02  3.36956531e-02 -1.55931571e-04
 -4.50013310e-01  1.56743407e-01  3.63110244e-01  4.98967282e-02]
[ 0.13474666  0.33006227  0.2529973   0.21799117  0.283677   -0.10072889
 -0.21289171  0.10041492 -0.12991096  0.01040013 -0.07168984  0.01327337
  0.31133628 -0.00466896 -0.04786734  0.1941437  -0.06258055  0.16566879
 -0.24160627 -0.15987453 -0.1909984  -0.21354854 -0.12607934  0.3934947
  0.15341365 -0.03939927  0.16667578 -0.00403931 -0.02421258 -0.08239153
  0.15917291 -0.01521093 -0.04454831 -0.02066115 -0.09240731 -0.07407194
 -0.04370934 -0.5035844  -0.11889485 -0.11564159]
[-0.13133304 -0.2792797  -0.36483094 -0.20493606  0.06538765  0.03508646
  0.02242905  0.26304853 -0.18019344  0.40154275  0.15626419  0.1994527
 -0.1560993   0.11312079 -0.36027852  0.13476507 -0.00389799 -0.08229923
  0.21591683 -0.1930146  -0.5310145  -0.06446786 -0.33165514  0.23255911
  0.04907366 -0.0801788  -0.38846695  0.0900347   0.03885582  0.01270295
  0.17368402  0.06869444  0.20707427  0.16030777  0.10906141  0.24031785
  0.20508318  0.11023964  0.26330048 -0.13501209]
[ 0.20551246 -0.09869912  0.12862134  0.1112226   0.00346547 -0.21756922
 -0.36255378 -0.05075593 -0.07558038  0.21594481  0.04566923  0.18680835
  0.00602862  0.01871919  0.1595612   0.12125485  0.02257036  0.21156614
 -0.2639163   0.24103278  0.10793686 -0.12383245  0.06405102  0.23502825
  0.31584445  0.04619994 -0.4658325  -0.29472548  0.01010601 -0.08864754
 -0.04757473 -0.06856809 -0.03054129  0.15865174 -0.3411553  -0.01133413
 -0.01995813 -0.23257765  0.32685325 -0.01358801]
[ 0.1963511  -0.12935072 -0.17807798  0.31826922  0.3633773   0.13267893
 -0.08949566 -0.15041102 -0.14836271  0.19393672 -0.03069322  0.02177917
  0.15089123 -0.03358883 -0.18646176 -0.13169488 -0.12789448 -0.13396388
  0.199748    0.2676137  -0.00913645  0.12423199 -0.09139526 -0.01407477
 -0.2675333   0.12329461  0.06053796  0.12459084  0.02321801 -0.0271271
 -0.2344319   0.1452188   0.0886062   0.29924682  0.3907742   0.17617883
  0.23822863 -0.2716812  -0.29172614  0.30678234]
[-0.12924829  0.37113172 -0.1383284  -0.0460601   0.09513538 -0.20379199
 -0.11226901  0.0886585   0.11472495  0.15841939 -0.17493461  0.1234172
  0.21655166  0.01917671 -0.162975    0.26881936 -0.46355012  0.06772674
 -0.2667332  -0.02293222 -0.2697028  -0.15945402  0.10565192  0.2961795
 -0.04298317 -0.2054955  -0.3010614  -0.19793016 -0.1203149   0.16066839
  0.03797468  0.34731042  0.00246943 -0.04952825  0.5516038   0.10073172
  0.09777387 -0.07981402 -0.0761463  -0.257966  ]
[-0.09854671  0.7141196   0.00302099 -0.16299006  0.570435   -0.07581361
 -0.21420863 -0.34152785  0.04087415 -0.15096626  0.12371318  0.00839869
 -0.16473821  0.00338682  0.23201254 -0.22793421 -0.42528352  0.03717685
 -0.1881152   0.2260694   0.21732736  0.06510692  0.3323317   0.55970657
 -0.5126298  -0.07866935 -0.02684638  0.3462011  -0.18117192 -0.40808222
 -0.35468137  0.19878024 -0.39925042  0.45373285  0.46405238 -0.22249717
 -0.04971622 -0.26448756 -0.56684214  0.10926347]
[-0.00754842  0.32881662  0.13937657 -0.14274001 -0.2264768  -0.05689849
 -0.3270559  -0.21958786 -0.12858643  0.13925967 -0.06942239 -0.06737014
 -0.09922805 -0.01712864  0.3289527  -0.18945046  0.26097962  0.10436016
 -0.13998698 -0.3247361   0.38013077  0.00695474  0.0482128   0.34617752
 -0.1506305  -0.03268482  0.1367703  -0.02424606 -0.22529817 -0.07736984
  0.07213814  0.08514771 -0.09834472 -0.14198634 -0.37771457 -0.00947769
 -0.01630281 -0.31466654  0.01385241 -0.10282989]
[ 0.19002767  0.13422157  0.17302328 -0.04583627  0.09144299  0.23826124
  0.1342725  -0.16619523  0.22821462 -0.15106815  0.06654193  0.12553799
 -0.1384664   0.12908575  0.12684657  0.01330734 -0.17885895  0.09209901
  0.12606469  0.08290724  0.24535725  0.02604909  0.37611225  0.28909793
  0.01627958 -0.287036    0.26260796 -0.08663689  0.09534678 -0.500083
  0.14213471  0.14505559  0.0892986  -0.10665189  0.01872541  0.19781849
  0.2319723  -0.27461362 -0.03216958 -0.19946268]
[ 0.15431882  0.3312447   0.08073694  0.27290133 -0.16465397 -0.35670614
 -0.14547291 -0.29493442  0.06531797 -0.00965708 -0.0937044   0.07181228
 -0.2616175  -0.1027694   0.04542855  0.1961225   0.3747373  -0.14321549
  0.13039762 -0.0903094  -0.06162298  0.05359825  0.2611662  -0.00341017
  0.20423399  0.14304116 -0.22068086 -0.08166312 -0.13496795 -0.13208552
 -0.26282838  0.25039598 -0.05736607  0.26216987 -0.27352044 -0.04254206
 -0.25824094 -0.33664653 -0.11927558 -0.00494938]
[ 0.0640607   0.09207672  0.35207978 -0.20498171 -0.20176019 -0.18869318
 -0.3259294  -0.24435739  0.09904756 -0.27848884 -0.02396378 -0.19387288
 -0.18682197  0.09417516  0.25158665  0.07500547 -0.03987595 -0.06402893
 -0.08594783 -0.09566031  0.33205083 -0.01915881  0.23877443 -0.00807774
 -0.06937462 -0.08935115  0.24230543  0.17427519 -0.0162972  -0.00074294
 -0.14799295 -0.09669072 -0.20435196  0.06989619 -0.03385327 -0.088439
 -0.31724393  0.04644357  0.04540302  0.00053644]
layer 3 Activation
tanh
layer 4 Dense
40 20
[ 0.19506578 -0.11847331 -0.11466604 -0.3407123  -0.10675392  0.25977615
 -0.02630555  0.09127305 -0.11855263  0.06071865 -0.06193256 -0.16652593
 -0.12310632  0.02287691  0.07014745  0.06323601 -0.31618053  0.04121598
 -0.0421008  -0.04489772]
[-0.21265328 -0.24839947  0.034314    0.3144551  -0.13653268 -0.09718043
 -0.18888627  0.2240366   0.41748247  0.26851556 -0.1095311  -0.07949272
 -0.15615323  0.02088921 -0.10856672  0.13951427  0.18930054 -0.21188232
  0.06733955 -0.12832464]
[ 0.18003431 -0.2271178  -0.29961327  0.19702661  0.12039425  0.03149554
  0.05043415  0.16847113  0.06239653  0.02526281  0.10267945  0.22643726
  0.2608562   0.29268733 -0.17015849 -0.2212875  -0.13208176  0.32813913
  0.08192728  0.10593043]
[ 0.08534925  0.27670226  0.18955593  0.01026603  0.12065175 -0.19718376
  0.2586568  -0.20725988  0.06829198  0.04282193  0.11076564 -0.14651358
  0.15392348 -0.01359367  0.05988208  0.10706936 -0.12131563 -0.21885027
  0.18722072 -0.15763609]
[-0.5506685   0.1209479   0.15863748  0.04482331 -0.183187    0.13199334
 -0.0824434  -0.15136217  0.23505566 -0.44285455 -0.00845042 -0.05248074
 -0.12222655  0.11567301  0.13828966  0.14544068  0.10973955 -0.33674937
 -0.22196078 -0.27089348]
[-0.40986282  0.24650079 -0.04894081  0.00399917  0.31046653 -0.08957377
 -0.06023443 -0.24333015 -0.33412752 -0.39950898 -0.11839025 -0.09254605
  0.13776144 -0.25957334 -0.13904129  0.27257365  0.22283472  0.21485257
  0.05961836  0.12649128]
[-0.20916604  0.26137865 -0.07049605  0.02998264  0.22281504  0.12365478
 -0.026873    0.24251741  0.1652081  -0.12034182  0.03407902  0.12399336
 -0.14928    -0.26672846 -0.17561632  0.03667171  0.17863186 -0.14833973
 -0.00369395 -0.08869364]
[ 0.269124    0.15434772  0.23594719  0.16352236  0.11868106  0.1224816
 -0.1274991   0.1021421   0.06403172 -0.43967962 -0.18223841 -0.20553264
  0.0651339  -0.34878996 -0.01471669  0.05260025  0.09132549 -0.13430746
  0.33124572  0.13306159]
[-0.34127584 -0.06472949  0.02412609  0.08288635  0.24299128 -0.07712872
 -0.15020664  0.18706465 -0.30769536  0.26725918 -0.05137957 -0.06654537
 -0.02171874  0.06276079 -0.20959702  0.04000441  0.02417587  0.20225327
  0.05025397 -0.36732453]
[-0.1378919   0.31573334 -0.03138827  0.19367136  0.26273885 -0.15566848
 -0.14769702  0.24204348 -0.05769778 -0.43610674 -0.1788473  -0.18941934
 -0.11299733  0.14395657  0.09693463 -0.16567637  0.08693533 -0.16710697
  0.20044248  0.14980905]
[-0.13801281 -0.01767403  0.2274209  -0.11438569  0.09589599  0.04284774
  0.27405226  0.19783671 -0.10870962  0.26529285 -0.03416762  0.11981194
 -0.15864863 -0.21452288  0.1369397  -0.20591554 -0.06086233 -0.11076961
  0.12230673  0.09361048]
[ 0.15114067  0.13733195  0.14484043 -0.10672681  0.0715116   0.18096626
  0.02196938 -0.00163417 -0.25059482 -0.22696681 -0.15685706 -0.07024675
 -0.16333246  0.02747871  0.20783184  0.12456208  0.24502385 -0.0911132
 -0.30523953 -0.09469944]
[ 0.12858483  0.21186918 -0.0167462  -0.0181174   0.18564653 -0.1032056
  0.10721865 -0.00936392 -0.09646556  0.04181536 -0.05718535 -0.0262949
  0.05291034  0.0458858   0.0992668   0.2156338   0.26013282 -0.05802026
 -0.30794984 -0.0945953 ]
[-0.03150498 -0.01542487 -0.16248976 -0.04228501 -0.02308245 -0.0631819
 -0.17466852  0.11356983  0.2809343   0.08149577  0.08769753 -0.14558877
 -0.02636033  0.12654436 -0.03920632 -0.06982235  0.07276032  0.02217806
 -0.04632768  0.05490813]
[ 0.13931562 -0.2568263   0.19375929 -0.26809052  0.22288154  0.24921757
 -0.24584785 -0.18038711 -0.12106095  0.21430449 -0.3109421   0.05399611
  0.13538255  0.26120183  0.13970302 -0.27933028  0.24505864  0.00070099
 -0.05978445  0.12546618]
[ 0.37969962  0.13708076  0.1301164   0.00476389  0.03242132  0.18714505
 -0.2418244  -0.20982674 -0.30667007  0.03874985  0.08188576  0.07400424
  0.19431052 -0.04957409  0.04726733  0.21501015  0.16287175  0.07512938
  0.16881338  0.31143743]
[ 4.68657076e-01  5.40699214e-02 -1.35172501e-01 -4.80649527e-03
  2.23777488e-01 -1.98409915e-01  9.69455317e-02  1.84826851e-01
 -1.22412942e-01  4.87398952e-02 -2.70794898e-01 -2.53946126e-01
  2.01530412e-01 -1.91043451e-01  2.09267251e-02 -3.65452796e-01
  3.09258252e-01  1.12893686e-01 -1.06024571e-01 -2.01362098e-04]
[-0.22204939  0.08687152 -0.00723409 -0.20060983  0.27299428 -0.22835411
  0.03943069  0.22560082 -0.207351   -0.08229121  0.01219702 -0.10814694
  0.14482497  0.0074071   0.28440717 -0.00200575  0.23339824  0.0644004
  0.06752738 -0.20144281]
[ 0.16351537  0.16431516  0.1678305   0.09271941  0.24442151  0.06959351
 -0.03600445 -0.23841684 -0.15171371 -0.08966696  0.15346563 -0.09572278
  0.17780882  0.15063839 -0.18226095 -0.13582715 -0.18207762  0.05891337
 -0.0795504   0.26510575]
[-0.22888257  0.05830638 -0.00671718 -0.02463234 -0.15964393  0.13263792
  0.3193774   0.01351244 -0.21446423 -0.05168912 -0.06946159  0.17190543
 -0.08865421  0.21264113 -0.23613605  0.05139847  0.04972625  0.09508574
  0.00088399 -0.0582396 ]
[-0.07971482 -0.3369662   0.325942   -0.04028684 -0.24933699 -0.03172828
  0.18821146 -0.05915646 -0.1852846   0.32304013 -0.10745642 -0.16411866
 -0.21971945  0.33301967 -0.23589164  0.10258172  0.26880068  0.33949724
  0.21712796  0.07012445]
[-0.17576692  0.02411688  0.02128688  0.15617533  0.11159936  0.01173946
  0.2600887   0.04611796  0.31822944 -0.00142886 -0.03838669 -0.00924479
  0.10188472  0.02961252  0.13550432 -0.142444   -0.02100729  0.0978851
 -0.08539542 -0.05030292]
[-0.01469096 -0.30537853 -0.0206679   0.04738281 -0.26892722 -0.09394846
 -0.09020905 -0.05297679  0.31422544  0.08560447  0.01865795 -0.04499328
 -0.12284458  0.23296204 -0.01571097 -0.20053715  0.29155084 -0.05072268
  0.12120423  0.10958712]
[-0.46691614 -0.25121373 -0.08112734  0.22979423 -0.16327564 -0.03086041
  0.29566783 -0.27798173  0.06418846 -0.41234392 -0.04279129 -0.22615705
  0.1575061  -0.28351548  0.03887265  0.18068825 -0.4099449  -0.36976606
  0.21809378 -0.1368059 ]
[ 0.09725647  0.22124077  0.16425017 -0.07023739 -0.11628956  0.18283154
  0.2100888  -0.18223648 -0.02210036 -0.06733833  0.03268003 -0.09236543
 -0.13740093 -0.02947555 -0.15627079  0.15428454 -0.12051983  0.24555567
  0.11699636 -0.26648143]
[ 0.27486926  0.0638603   0.11486346 -0.11774437  0.1180352   0.02682076
  0.250061    0.20065774 -0.26446882 -0.11747634  0.1549987  -0.0231864
  0.10760453 -0.09154668 -0.03089705  0.11773229 -0.16043639 -0.00703449
  0.10549465 -0.02396819]
[ 0.15254055 -0.1830246   0.25440237 -0.200634    0.1888872   0.16078526
  0.09924565 -0.05474352 -0.09184431  0.10617254  0.17224324 -0.23434828
  0.02058011  0.20725548  0.27935544 -0.19986175 -0.14017323  0.10341916
  0.22707671  0.04663157]
[-0.03200518 -0.08959679 -0.08110435  0.10229532  0.19238946  0.05607771
 -0.13649629  0.0633377   0.03131642  0.22332557 -0.1182237  -0.08452044
  0.09953562 -0.02809352 -0.02328246 -0.06284175 -0.21000093  0.05597007
 -0.10207652 -0.028988  ]
[ 0.3275984   0.13041757  0.08183977  0.00260717 -0.1228896  -0.19432743
  0.08024704  0.22660111  0.07185754 -0.08551196 -0.00319897 -0.19668508
 -0.07474545 -0.04716902  0.24017729  0.04176144  0.08121987  0.06593871
 -0.08194049  0.01934788]
[ 0.39699087  0.12334203 -0.01354236 -0.09089646 -0.0031034   0.01710526
 -0.1020785  -0.11154106 -0.16288719 -0.03595421  0.02007302 -0.15030105
  0.0508671   0.15040459  0.05433116 -0.20329216 -0.15733668 -0.11195984
  0.09220989  0.1412665 ]
[-0.06949211  0.18282749 -0.0040087   0.10058229  0.10745478  0.20072295
 -0.17283295 -0.08028121 -0.22052313 -0.43501505 -0.0667364  -0.04533884
 -0.22835705 -0.113139   -0.15745452  0.14005595 -0.31508198  0.2372512
 -0.15329985  0.1063431 ]
[-0.3168445   0.05857637 -0.02012247 -0.20522927  0.18248326  0.06895316
 -0.04544495  0.18351579  0.09026837  0.23727043  0.00164735 -0.25114968
 -0.16546449 -0.2593863  -0.01518699  0.05649451  0.14015326 -0.12579113
  0.05303873 -0.04798694]
[-0.14032269  0.2774211  -0.10836385  0.0638703   0.3154922  -0.0908225
 -0.17962688 -0.2924077  -0.04680356 -0.54831994  0.00360107  0.12753776
  0.01044418 -0.1795754  -0.17084537 -0.12037316  0.08742005 -0.01280568
  0.34240657  0.03673766]
[-0.00840243 -0.08248881  0.04779323  0.04857479  0.07730395 -0.05203536
 -0.13432065 -0.00331018 -0.34921172  0.1804398  -0.06472607 -0.01536016
  0.1005908   0.03587667  0.03727809  0.17199409  0.1738546   0.00459268
 -0.3135805  -0.13715148]
[-0.19830842  0.02969778 -0.01816934  0.27858585  0.00475222 -0.10173307
  0.26556212 -0.10406689 -0.23903506 -0.30986124 -0.01734654 -0.32290372
 -0.18054903  0.43478742  0.05995453  0.27296278 -0.14320773 -0.31506488
  0.09843898  0.03957398]
[-0.06882192  0.1983484  -0.1911568  -0.07763319  0.2243345   0.22439672
  0.16522637 -0.20561    -0.16552165 -0.21682222  0.22603282  0.33448088
 -0.17219596  0.01917343 -0.05063737 -0.12804845 -0.2939258   0.05492079
 -0.22448061 -0.11318111]
[-0.11839064  0.26448688  0.04687868 -0.10484236  0.12282588 -0.1587055
  0.0174354   0.30681536 -0.27523774 -0.30927208 -0.07313909  0.08468705
  0.15376632  0.15023258 -0.02277152  0.08628874 -0.14662713 -0.08070058
 -0.16663861 -0.21945639]
[-0.005147    0.00461387 -0.05708832 -0.07348485 -0.23326378  0.04490732
  0.01012003 -0.10890158 -0.2891546   0.2610652   0.00048302 -0.01466851
  0.3352638   0.22208095  0.1969228  -0.32977483  0.1878942   0.24318026
  0.16699854  0.09524481]
[ 0.38512406  0.19159363 -0.10958829  0.12066115 -0.04728454 -0.28593338
 -0.13191274 -0.09415099 -0.16479212 -0.11343082 -0.13104439  0.21691659
 -0.09785829  0.03362585  0.01834082 -0.04966774 -0.19088936  0.32232735
 -0.13788381  0.0549734 ]
[-0.15064023  0.10077553  0.09973374  0.01296846  0.27308148  0.15560962
  0.04892047 -0.10686453  0.10923509 -0.02047562 -0.3307166   0.09103058
 -0.19302097  0.13237599  0.07473303 -0.11586584 -0.06122193  0.12700288
 -0.03184185 -0.11752115]
[ 0.11477812 -0.22705235  0.01314064 -0.01788488 -0.01435349  0.0892159
 -0.02546786 -0.01749556  0.08511201  0.02895113 -0.03730815  0.01744999
 -0.02838909  0.06298013  0.04933397  0.03717802 -0.02001017  0.05618716
 -0.02683935  0.05546826]
layer 5 Activation
tanh
layer 6 Dense
20 1
[-0.05504749]
[-0.22738561]
[-0.00393353]
[0.01870175]
[0.06734028]
[-0.01747075]
[0.01145646]
[-0.00670565]
[0.0046025]
[-0.09583206]
[-0.0146456]
[-0.01413955]
[-0.00671058]
[0.08291943]
[-0.00345862]
[0.12935026]
[-0.00556167]
[-0.11586356]
[-0.003731]
[-0.01372496]
[0.04786357]
