layers 7
layer 0 Dense
20 20
[-0.45272198 -0.04442132  0.06538734  0.16456401  0.03773552  0.21394792
  0.00400147  0.25124174  0.22664823 -0.3883599   0.42236325 -0.04059388
 -0.02710166  0.04495718 -0.51272774  0.13496335 -0.06619383  0.06714317
  0.3092955  -0.29004532]
[-0.26491243 -0.02584386  0.02343547 -0.06063348 -0.2720459   0.32768714
  0.2527619  -0.04110116  0.02567184  0.14829314  0.03464934  0.3289222
 -0.14468072 -0.32185227 -0.37992322  0.0064339   0.24557662  0.28847325
 -0.02351248 -0.23784849]
[-0.20876296 -0.19400339 -0.37105376 -0.12736389 -0.03809136 -0.16971847
 -0.3541053   0.32607722 -0.33706993 -0.08115241  0.12616509 -0.08407873
 -0.357522    0.24720722 -0.10958982  0.01268998  0.3642109  -0.32905036
 -0.37324682  0.24220383]
[-0.12545466 -0.16731437  0.21357566  0.05675394 -0.0233917  -0.22114594
  0.1424805   0.3207389   0.13309334 -0.00821853  0.03660621 -0.08813984
 -0.04817825  0.22667006  0.22399014 -0.35667342 -0.12844023 -0.0424183
  0.47050118 -0.46931365]
[ 0.0353906   0.83367574  0.16088913  0.3138817   0.46781933 -0.4642409
  0.13576618 -0.2694001   0.4049272   0.14235711 -0.16417836  0.10412195
 -0.13096467  0.18283813  0.2065066   0.10868391 -0.09883425  0.03875044
  0.3361531  -0.0610928 ]
[-0.02217275 -0.20069307  0.16303688 -0.20295179 -0.33555594  0.2748428
  0.03331837  0.12554938 -0.25143343 -0.15938775  0.30060107  0.02749777
 -0.36307696 -0.1237264  -0.30821553 -0.04716176 -0.30858368 -0.11294505
  0.08068582  0.22921938]
[ 0.08881316  0.22901171  0.23987108 -0.0278385  -0.25773382  0.12147897
  0.3136124  -0.2498162  -0.3657319   0.16199875  0.17237496 -0.3050735
  0.32477915 -0.1770091   0.31148672  0.13535297 -0.37963715 -0.32324335
 -0.12197989  0.16913366]
[-0.19541304 -0.661161    0.21573745  0.32483333 -0.11855257 -0.08144155
 -0.1004895  -0.5360012  -0.0194248   0.02973936 -0.17096826 -0.2717013
  0.12838855  0.14241812  0.03974087 -0.10829312  0.33577707  0.28719133
 -0.58734334  0.6796487 ]
[ 0.16387415 -0.02988858  0.07767335  0.20163001  0.15994307 -0.04784435
 -0.27987355  0.19284351  0.20337076 -0.36427218 -0.20218489  0.35533115
 -0.600142   -0.26704872 -0.12885107 -0.13130642  0.04082943 -0.48062733
 -0.00623023  0.31393048]
[-0.24187851  0.07155596  0.8915285  -0.31927878  0.43316224 -0.28944424
 -0.2983994   0.09416617 -0.4134433  -0.43638718  0.43585074 -0.66519916
  0.08240359  0.11189003  0.13111866 -0.37144557 -0.7035877  -0.68839175
 -0.11671428 -0.2209498 ]
[-0.09387594  0.10028506 -0.01153398 -0.6217726   0.37699625  0.6567201
 -0.13715948 -0.13206236  0.2325765  -0.34429905 -0.5344956  -0.19775982
  0.17893033  0.39809006  1.1132492  -0.3863176  -0.2773379  -0.14105964
  0.03830589  0.01265702]
[-0.31639138  0.46195847 -0.2644657  -0.11123198 -0.5785045   0.97864336
  0.2370983  -0.9355387  -0.6305832   0.4377112   0.35866702 -0.3428924
  0.3609683  -0.13439839 -0.69487727  0.8822514  -0.09128901 -0.02755871
 -0.6437518   0.43646687]
[ 0.16133787 -0.21949184  0.3760736  -0.11390105  0.1679307  -0.43027556
 -0.42804623  0.26046428  0.1968349  -0.17022601 -0.25768942  0.2337074
 -0.20031063 -0.4661787   0.73968726  0.16695993  0.47098765 -0.01242037
 -0.14175545  0.37389904]
[ 0.79544526 -0.33629653 -0.3751026  -0.29931998  0.3602313  -0.06891203
 -0.12455388  0.1037427  -0.415221    0.45826352  0.09673632  0.32154462
  0.00958376  0.37211046  0.0672896  -0.37795475 -0.48062518 -0.861996
 -0.06920741 -0.2136464 ]
[ 0.01628819  0.24025626  0.02947761  0.5351917   0.30754992  0.2873004
 -0.7265697  -0.06229346  0.16773434 -0.23205642 -0.54783446  0.26798734
  0.1528954   0.50973123  0.14080389  0.59731215 -0.4506334  -0.13344422
  0.05506047 -0.02033547]
[-0.39963233  0.3690951   0.09971806 -0.06928001  0.05528893  0.6165984
  0.5968446  -1.0027214  -0.58347857  0.56767005  0.05619626 -0.8420949
  0.37634027  0.16954984 -0.44495305  0.46735683 -0.43373263  0.48606062
 -1.1706265   0.3349776 ]
[-0.04001575  0.7998561  -0.42411023 -0.6287359  -0.40087295  0.13724586
  0.21613242  0.02570434 -0.6648218   0.35066685 -0.38652682 -0.12871242
 -0.10096417  0.42610866 -0.11378167 -0.279252    0.00614099  0.04467448
 -0.01758568  0.27567768]
[-1.5010868   0.23791945 -1.0019913   0.8495958  -1.1562259  -0.10153082
  0.15444773  0.20051023  0.9627701   0.08843733 -0.81803614  0.565652
  0.4748403   0.1320669   0.42975864  0.4369012   1.2045175   1.4953538
  0.33330515 -0.3018935 ]
[ 0.66809887 -0.45560673  0.3697093   0.09789198 -0.56154877 -0.7734479
  1.6231909  -0.04119104 -0.6286751   0.78821355  1.3050754  -0.8851771
 -0.6155641  -1.1170129  -1.5020646  -0.44128725  1.277044   -0.03303801
 -0.0842532  -0.14836048]
[ 0.38676083 -1.3429743   0.46662366  0.3944801   0.7571448   0.03893184
 -0.08790608  0.21843553  0.44046178 -0.37737998 -0.40268344  0.2587502
 -0.38699177 -0.11111822  0.16255553 -0.4265182   0.06344832 -0.41371274
  0.61674565 -0.29638907]
[-0.02623733  0.05995131  0.12328857  0.05636331  0.01291432  0.0716969
  0.08555344  0.26871988  0.32199618 -0.19294995  0.07824018  0.0106353
 -0.11318532  0.0318361   0.03090466 -0.0521403   0.11671183 -0.00804672
  0.24926205 -0.3524234 ]
layer 1 Activation
tanh
layer 2 Dense
20 40
[-0.13094872  0.4507288  -0.15267299 -0.5039147   0.3565456   0.3024653
 -0.1312617  -0.54086775  0.32168263  0.31776342  0.31498253 -0.65527123
 -0.24133858 -0.11806668 -0.07665456 -0.32832572  0.32267082  0.31870067
  0.30806625  0.21247824  0.55972344 -0.62978226 -0.01600736  0.7808413
  0.03031322  0.2618459  -0.35405275  0.40073484 -0.2417139   0.41322827
 -0.41403964 -0.03286729 -0.4018676  -0.07836214  0.01866969  0.23663375
 -0.48821217  0.18038267 -0.21914274 -0.10182686]
[-0.52117103 -0.3234572  -0.273726    0.27265346  0.55793476 -0.10024217
 -0.22620234 -0.15403698 -0.10293469 -0.19498798 -0.25174716  0.11602716
  0.24732529  0.4151195   0.11148442  0.14383835  0.30275378 -0.12973008
  0.08429105  0.8100645   0.20793204  0.37292454  0.22804089 -0.640964
  0.01963416  0.22357547  0.16412033 -0.13904871 -0.2466781   0.23199275
  0.4220012  -0.11414889 -0.29435444  0.09389291 -0.19800474  0.36983928
 -0.19365351  0.29961985  0.04492338  0.14225797]
[ 0.14925092  0.14650014 -0.21813877  0.10874005  0.32023388  0.493135
 -0.17682417  0.46449432  0.06693832  0.04341649 -0.25093696  0.25485417
  0.04980228 -0.23567827  0.07868766 -0.45026034 -0.03456625 -0.2832511
 -0.23162165  0.13151023  0.3837534  -0.4586082   0.02675882  0.26528543
 -0.11940998  0.22568464 -0.52443725  0.4959547  -0.23414868  0.1610566
 -0.33400986  0.21002331 -0.18434832 -0.64109784 -0.02720753 -0.13335133
 -0.07126687  0.26494408 -0.20088883  0.21596415]
[ 0.41357836  0.02084335 -0.08530891 -0.57968    -0.37353343 -0.29134247
  0.1567468  -0.1337723  -0.65433264  0.5007922  -0.37373447  0.30545285
 -0.02871096  0.15488063 -0.14678368 -0.40803504 -0.5187428   0.10066808
 -0.11805108  0.1710163   0.3130723  -0.25935677 -0.18357415 -0.20661485
 -0.18901801  0.1932275  -0.02100942  0.18568912 -0.3081872   0.13708286
 -0.12479331  0.32624304  0.03784142  0.27772093 -0.10133841 -0.10354433
  0.07862233 -0.40945572 -0.25854373  0.03751278]
[-0.5799193   0.3029661   0.16317019  0.17455116  0.18064643  0.03156345
 -0.20932277 -0.6739257   0.55652547 -0.34932965  0.35725075 -0.6520718
 -0.5030506  -0.92441225 -0.0312364  -0.02671802  0.7778878   0.29432413
  0.38064486 -0.47837868 -0.41208205 -0.60502255  0.4467044   0.08843057
  0.42511696  0.50670385 -0.06108745  0.5922979  -0.60380137  1.0345353
 -0.16000062  0.06329472 -0.03869775 -0.96942675  0.24649328  0.15657194
 -0.79241085  0.1908142  -0.11047893  0.08370677]
[-3.2461867e-01 -5.3429312e-01 -1.3844267e-01  3.8985780e-01
  7.7354276e-01  5.3973027e-02  4.4982937e-01 -5.3040582e-01
  1.9372298e-01 -2.4172650e-01  1.1725239e-02  6.1596896e-02
  1.0475662e-03 -1.1591876e+00  1.4151439e-01  5.6115991e-01
  4.9320832e-02 -3.4981233e-01  4.8968771e-01  8.9766222e-01
 -9.6256077e-02  8.0326289e-01  3.1143865e-01 -2.4545963e-01
 -2.6143044e-01  4.2637283e-01  2.4206823e-01 -5.5076736e-01
 -5.0125557e-01  7.2664404e-01 -9.8683439e-02 -2.4198845e-02
  5.4667073e-01  7.7410035e-02  1.4758633e-01  1.5541975e-02
 -4.4277537e-01 -6.2717660e-03  2.6198027e-01 -3.9814240e-01]
[ 0.42755893 -0.09629086  0.09684926 -0.16460422  0.21840982 -0.11499394
  0.01558318  0.0237813  -0.32782713  0.3923522  -0.48655173 -0.15130682
 -0.1055956   0.6807913   0.03847221 -0.32090056  0.25821167  0.37296474
  0.39510107  0.3832029   0.0298321   0.06363049 -0.30360168  0.5430502
  0.33554146 -0.54888785 -0.05538084 -0.12958023  0.43348023 -0.8633706
 -0.37298316 -0.09519818 -0.17225637  0.5107572   0.2025661   0.01296067
  0.746183    0.11617336  0.20506775 -0.1299593 ]
[-0.29092386  0.59704745  0.49939668 -0.2429543  -0.71190554  0.41013196
 -0.04765879  0.10206824  0.9284316  -0.01692662 -0.10809862 -0.32701
 -0.0614059   0.1874218  -0.46640292 -0.09013503 -0.06775037  0.5296091
 -0.19031878 -0.59495133  0.33687735 -0.03855965  0.07670312 -0.2502054
 -0.4105709   0.20200497 -0.59704614  0.21488945 -0.1147911   0.3132757
 -0.50887233 -0.42246878 -0.66134083 -0.6671664  -0.5119945  -0.75221145
 -0.20838708 -0.48764518 -0.9489739   0.27686387]
[ 0.7822396   0.3854908   0.38407752 -0.4102648  -1.3380601  -0.52356964
 -0.218231    0.31315306  0.4614538   0.7001251   0.0428387   0.86548114
 -0.34508058 -0.04884193  0.42216936 -0.2074545  -1.2643251   0.5913185
 -0.45785585 -0.07175233 -0.25407693  0.7049746  -0.530071   -0.36967966
 -0.4570068   0.2580767  -0.5224474   0.21956518 -0.15569186  0.05532407
  0.0854136  -0.35275987  0.04432862 -0.30823255 -0.20006958  0.24419983
 -0.16201745  0.01393874 -0.1039301   0.18638816]
[-0.03161795 -0.19384639 -0.16595566  0.491511    0.44235358 -0.53353447
  0.03232218 -0.44567135  0.02788901  0.0192602   0.20297259 -0.40804416
 -0.01766445  0.6425342  -0.28842887 -0.09289581  0.5858738  -0.27021435
  0.44711328 -0.53780335  0.0198248  -0.20918158 -0.23328759 -0.01039653
  0.07765626 -0.5981695  -0.0623758  -0.5294085   0.4956654  -0.19523118
 -0.2185765   0.08526107  0.19404931  0.46633327  0.10261544  0.2848852
 -0.02256899 -0.00828141  0.43791375 -0.06298429]
[-0.06738667  0.26925582 -0.07167242  0.48374826  0.06601643  0.05845816
 -0.02276666  0.05424195  0.3027919  -0.02681056  0.16759826 -0.21861176
  0.4002643   0.6316159   0.5237818  -0.4576443   0.68916696 -0.3342288
 -0.10037602 -0.0333419   0.52108115 -0.50415856 -0.23359565  0.5460823
  0.26898926  0.4759527  -0.0312264   0.45953235  0.71090484 -0.7970891
 -0.29411834 -0.1133679  -0.10206603  0.45875704  0.01251165 -0.5557954
  0.45908666  0.6631684  -0.02730645 -0.4926934 ]
[ 0.06032129  0.38965973  0.02397131 -0.38373077 -0.10708312 -0.02112131
 -0.4853828  -0.31747133  0.30264243 -0.20231047 -0.24478921  0.48532474
 -0.09748688 -0.22475     0.47998482 -0.26051694 -0.00094153  0.22051442
 -0.62646693  0.21827988  0.18377645  0.21537769 -0.23306872 -0.32856703
 -0.43441042 -0.37058485 -0.2473867  -0.29828662 -0.40626442  0.7621773
 -0.12209581 -0.07715831 -0.24973527  0.13568439 -0.42067936  0.42665613
 -0.46337837 -0.19250083 -0.00765283  0.05977134]
[-3.2046297e-01 -4.0352303e-01  7.9074323e-02  1.7047094e-01
  3.4508887e-01 -3.0354008e-01  2.1860811e-01 -2.7276611e-01
 -3.2742375e-01 -2.4417961e-02  3.0910566e-01  1.3101643e-01
 -2.3274539e-01  1.9241424e-02 -3.3897227e-01  2.0000683e-01
 -1.0440363e-01 -3.3940500e-01  2.5665942e-01  3.2638052e-01
 -5.3751814e-01  3.3082664e-01  3.1847835e-01 -8.5237384e-01
 -2.5525615e-01  1.9553940e-01 -5.5397660e-02 -3.6396071e-01
 -2.3591135e-01  2.6209942e-01  4.8003137e-01  1.6328615e-01
  3.3469751e-01  1.6797797e-01  1.1773406e-01 -3.6676365e-01
  4.8064213e-02  4.1141969e-01 -7.6788388e-02  4.9035432e-04]
[-0.19329359 -0.33635348 -0.41332337  0.31866735  0.10689819 -0.27807602
 -0.13516375 -0.36729556 -0.07387821 -0.4285107   0.14563428 -0.08090823
 -0.23290174 -0.8550661  -0.37594804  0.3242354  -0.266328   -0.3577228
  0.03850144 -0.1173882  -0.7805982   0.8314816   0.36943626 -0.9207585
 -0.53399396  0.2476776   0.28481817 -0.12549652 -0.48987988  0.28009108
 -0.29540116  0.10066549 -0.1930827   0.1017715  -0.2503949  -0.04513641
  0.176574   -0.08447939  0.3181944  -0.2843376 ]
[-0.14704107 -0.19866075  0.14476003 -0.06889187 -0.6566728  -0.11732367
 -0.15611568 -0.10147987  0.3493722   0.2569768  -0.07900462  0.45597672
 -0.3266314  -0.4526016  -0.36591965  0.19550525 -0.3252601  -0.08183625
 -0.2797248   0.06257154 -0.29430652  0.46932474 -0.08705007 -0.58531994
 -0.7560418   0.49918577 -0.40477654  0.09544821 -0.28546292  0.0870674
  0.3072381   0.3017971  -0.23156574 -0.47306547 -0.59322333 -0.29091516
  0.04658318  0.00473646  0.8848681   0.3845576 ]
[ 0.31116742 -0.3455784   0.30897945  0.35341868  0.29621837 -0.0245118
 -0.10422986 -0.00827509 -0.01442634  0.05147087  0.393842   -0.12963176
 -0.3520071   0.0957865   0.02515026  0.00942038  0.09401357 -0.37690952
  0.05321457 -0.01188462 -0.336714    0.5538645   0.07492541 -0.28668004
  0.22216001 -0.48207211 -0.17928547 -0.2691538  -0.01553397 -0.63988733
  0.1710716   0.41485035  0.03581255  0.20059991 -0.08485387  0.30531603
 -0.04688423  0.39575782 -0.2903888  -0.07459314]
[ 1.2793773   0.21511821 -0.5331121  -0.514367   -0.85167295 -0.82278633
 -0.09308816  0.59396464  0.21390034  0.7405301  -0.48736626  0.27918312
 -0.16330804  0.82845026  0.39990005 -0.83519655 -0.27330527 -0.0807002
 -0.25182793 -0.23934326  0.2125497   0.00131264 -1.0883363   0.8314026
  0.0695561  -0.5862131  -0.152827   -0.46952954  0.95795447 -1.0392749
  0.43858042  0.48785868 -0.09169425  0.64557815  0.37940797 -0.05624355
  0.5345793   0.02227651 -0.1695343  -0.6132011 ]
[ 0.4906326  -0.26280773  0.2082363   0.03350472  0.09647507  0.49876833
 -0.2250408   0.58659    -0.2060502   0.3822693   0.03575576  0.73416036
  0.4046146   0.5138915  -0.30895883  0.13753204 -0.6391383  -0.13422365
 -0.17801242  0.45525074 -0.51029557  0.73826796  0.05256112 -1.026041
 -0.36857167  0.23723936 -0.17985128 -0.58572656  0.01183477 -0.27689222
 -0.11452606 -0.08738643 -0.01582089  0.5071113   0.04880209  0.03770303
  0.6016574   0.3451568   0.20194823 -0.0408072 ]
[-0.16131285  0.19810079  0.31967333  0.14899951 -0.423312    0.33359826
  0.00164447 -0.36242834  0.25139496 -0.33563203  0.02314486  0.17269811
  0.3149444  -0.09332119  0.18101762  0.24661785  0.4141896   0.43736315
 -0.38866538 -0.6213386  -0.17457378  0.15182133 -0.03400157 -0.0454629
  0.12629962 -0.22649284  0.12334548  0.064863    0.21222465  0.20750922
 -0.30912346 -0.20355995 -0.467635   -0.17156713  0.2007228  -0.62309575
  0.06223292 -0.44790035 -0.70294124  0.10212941]
[ 0.2315117  -0.4147646  -0.64786565 -0.14417554  0.12652954 -0.18580365
  0.62664896  0.31684923 -0.29756594  0.03059282  0.1529355  -0.06757321
  0.13738747 -0.26207134 -0.04633286  0.35078076 -0.11910737 -0.33706504
  0.44304624  0.38497135 -0.22697923 -0.1845357   0.31108916 -0.2370316
 -0.0860171   0.10365716  0.6077788  -0.14303082  0.1775096  -0.36313698
  0.21625791  0.3654704   0.574532    0.17311728 -0.03722531  0.9689188
  0.20281737  0.15548769  0.45404023  0.20417352]
[-0.09509662  0.276342    0.49636984  0.21708791 -0.10646341  0.06053713
 -0.3657689  -0.12518303  0.3218761   0.04777343 -0.17566898 -0.04379275
 -0.11992077  0.28031686 -0.06411465 -0.10881685  0.05831363  0.3674055
 -0.20251961 -0.24195825  0.34165066 -0.03501815 -0.12107825  0.12054142
 -0.1722089   0.12517959 -0.47754118  0.1689721  -0.02632146  0.19879152
  0.00782637 -0.30919102 -0.3396526  -0.2203912  -0.24450141 -0.6383175
 -0.13907814 -0.21267636 -0.70421195  0.10432688]
layer 3 Activation
tanh
layer 4 Dense
40 20
[-0.5311547  -0.49181423 -0.0987509   0.01094471  0.46237335  0.18239173
  0.418864    0.2237132  -0.03635354  0.09574088  0.05375808 -0.40799782
  0.18241352 -0.34935966  0.07591498 -0.46664602  0.31236714  0.6425515
 -0.39358518  0.5354843 ]
[-0.51023585  0.3330146   0.21186087 -0.3752728  -0.11801901  0.47824463
  0.3190686  -0.15750353  0.04547258  0.1067012   0.50420076 -0.00298894
 -0.08828777 -0.23557208  0.10834525 -0.05376114 -0.25456777 -0.23537222
  0.3239439  -0.02694844]
[ 0.5415383   0.24269223  0.41339207 -0.1228832   0.17151086 -0.02384481
 -0.02970464 -0.42087746  0.3140129  -0.16263312  0.4206311   0.03041361
  0.31855857 -0.11331814 -0.04105869 -0.1966332   0.3029931  -0.0531249
  0.27637887 -0.49431765]
[-0.4512621   0.02197722 -0.05572328 -0.02692829  0.19228356  0.19527483
  0.16914265 -0.1308197   0.38277903 -0.07430377  0.43082082  0.28591123
 -0.24333549  0.12770839  0.08872882  0.03588426 -0.2771669  -0.41804647
  0.44130164 -0.0300209 ]
[-0.3872991  -0.11434567  0.4865463  -0.09546855 -0.5901805  -0.10878052
  0.11873046 -0.31924945 -0.41109654 -0.3610882  -0.17908514  0.33075657
 -0.05757719  0.07936637  0.48739585  0.4602697  -0.26606846 -0.39879924
 -0.37880543 -0.31194013]
[ 0.34103248  0.33951196  0.17909756 -0.79319644 -0.02564985  0.2764542
 -0.39423352  0.07641634  0.356655    0.03042899 -0.02954118  0.1704459
 -0.3724247   0.21548815  0.09632407  0.41185817 -0.2346659  -0.26434082
 -0.17976174 -0.22292444]
[ 0.23124233  0.50706124 -0.2271944   0.14854749 -0.03094433 -0.4174653
  0.01737831  0.37584087 -0.49715334 -0.09538969 -0.13671546  0.25860387
 -0.24937336  0.16658588 -0.19384266  0.02160814 -0.08663725  0.32880285
 -0.33423653  0.34184828]
[-0.11540675 -0.14839962  0.0825222   0.25988388  0.2616735   0.207038
 -0.2899127  -0.20102109 -0.28546262  0.29059675 -0.04481273 -0.39636827
 -0.21148226  0.13534047 -0.13459809 -0.28404295  0.11874103 -0.06640402
  0.36187088 -0.25988758]
[-0.7414167   0.11193425  0.0146196   0.07874968 -0.00893661  0.43854985
 -0.3593168  -0.20466067  0.01134347  0.17029451  0.75981367  0.06412873
 -0.21588036 -0.11881914  0.2923443   0.05205776  0.21813588 -0.16553009
  0.2637547  -0.33923405]
[-0.21524349 -0.5984652   0.09479813  0.22640942  0.29832187  0.2649679
  0.3836898  -0.0209951   0.07116633 -0.04240812  0.21525382 -0.44843808
  0.20473933 -0.5608757  -0.02910336 -0.5344524   0.70306027  0.3054069
  0.44862035  0.27663943]
[-0.13609165  0.28664458 -0.2565401   0.1288609  -0.06350707 -0.07921471
 -0.2462627   0.26300678 -0.50563     0.3008134  -0.41448867  0.27619353
  0.01874197  0.24023125  0.11219848  0.09038746 -0.11118555 -0.12416462
  0.12525539 -0.33005545]
[-0.17782801 -0.26359978 -0.24304643 -0.48162377  0.11857852  0.40096834
 -0.08448505  0.02019388 -0.15594791  0.4499032   0.04779081 -0.35210127
 -0.08260495 -0.29891258 -0.03001234 -0.27288944 -0.38588023 -0.04815578
 -0.06182821 -0.23241404]
[-0.03380737 -0.3534097  -0.10781119 -0.14620928  0.09541342  0.05452721
  0.14252314 -0.04092597 -0.22337292 -0.0380507  -0.21502277 -0.28916556
  0.20926727  0.06102522  0.12922469 -0.39462832  0.23555036  0.13751341
 -0.21944162  0.04611948]
[-0.3107865  -0.5015885   0.36104253 -0.80747145  0.23068464  0.49988618
  0.28509372 -0.13911808  0.1605894  -0.05148781  0.0216448  -0.17574409
  0.18018088 -0.4079562   0.14748241 -0.15143025  0.32048786  0.2722121
  0.31579733  0.1335023 ]
[-0.13803956 -0.0810697   0.02950593  0.42455518  0.0755398  -0.0624456
 -0.12502162  0.36165074 -0.21628727  0.32806173  0.10839724 -0.21449012
  0.03807242  0.07138553  0.24735397 -0.00826411 -0.11915713  0.11180907
 -0.11638521 -0.15452181]
[ 0.4112883   0.00571488 -0.4844657  -0.12171546  0.4716274  -0.0864304
 -0.3591811  -0.4419406  -0.15249133 -0.1646804  -0.372545    0.13136747
 -0.44555476  0.41212875 -0.43377423  0.14633904 -0.5308561   0.05907335
 -0.05290486 -0.25082612]
[-0.1052149  -0.3620041   0.58068234  0.46816784 -0.34871536 -0.34031054
 -0.30432105 -0.02356422 -0.15728591 -0.0125522   0.3280658   0.16530451
 -0.02888752  0.53742826  0.44296196  0.48564836  0.18876371  0.22704977
 -0.49770567 -0.3701465 ]
[ 0.32719818  0.30209252 -0.25336275 -0.31678078 -0.09132378  0.25440323
  0.35312837 -0.22512949  0.31039053  0.05198774  0.6331033   0.32682678
  0.07822127 -0.1691305  -0.21643078 -0.03238877 -0.27914307 -0.41291037
  0.38341263  0.06755211]
[-0.175123    0.50754434  0.18680003  0.5826578  -0.2845158  -0.6075821
 -0.09620491  0.19454518 -0.04232294  0.137859   -0.8351009   0.6913098
 -0.00984106  0.14661336  0.3594079   0.5084195   0.1524461   0.42539892
 -0.50024265 -0.05591772]
[ 0.25488222  0.2560794  -0.05650522  0.17709476  0.09274168 -0.36110625
 -0.09746047  0.2030169  -0.07239877  0.16709256 -0.688448    0.02813208
  0.2649114  -0.49537173 -0.27229273 -0.28242034 -0.03578874 -0.55837125
 -0.47277495 -0.4587129 ]
[-0.4132278  -0.02533208  0.3400479  -0.25596213 -0.43105063  0.37033042
 -0.19026682 -0.07549264 -0.03871052  0.05707099  0.5063626  -0.07153434
  0.18399404 -0.1769506   0.24629064 -0.15731205  0.08166838 -0.37006968
  0.3927828   0.11066785]
[ 0.8459635  -0.5999539  -0.5054254  -0.00312715  0.56308156 -0.31598982
 -0.31204915  0.19280347  0.22097366 -0.43914422 -0.42829937  0.04251977
  0.05073997  0.5562855  -0.6874471  -0.2651451   0.45318416  0.25924584
 -0.44330022 -0.4692286 ]
[ 0.17088014  0.28033805 -0.26611015  0.29567662  0.10956252 -0.40472516
 -0.07689032  0.09143946  0.17929208 -0.14239524 -0.14286491  0.70985264
 -0.32853875  0.41002345  0.01804253  0.42469916 -0.563608    0.05570527
  0.26772383 -0.3112846 ]
[-0.67335093  0.730009    0.05373782 -0.21727952 -0.49997637  0.29477552
  0.49942777  0.13680059  0.02777219  0.6440103   0.41777104 -0.8687757
  0.05340739 -0.5130565   0.7064221   0.06475908  0.09346285  0.21897532
  0.16953048  0.19964135]
[-0.16507068  0.29268456  0.15988663  0.04426135 -0.46508187 -0.18633439
  0.01764254 -0.11726389  0.19127174 -0.1423812  -0.31821287  0.12588753
  0.5450456  -0.00794982  0.03314377  0.42835402  0.40406263  0.22529621
 -0.2938801  -0.33266926]
[ 0.05891205 -0.18092455 -0.29922283  0.01705489  0.03579288  0.19766097
 -0.38129303  0.0019328  -0.22996248 -0.02628755  0.10288775  0.0090365
 -0.1627336   0.06336437 -0.42381436  0.09347636 -0.21283476 -0.3705995
  0.2568907  -0.28557858]
[ 0.02955218 -0.1566595  -0.3120937   0.07871757 -0.43638104 -0.28432652
 -0.1277056   0.20326276  0.18954611 -0.08294895 -0.38615456  0.14343862
 -0.13728444  0.05199307  0.07688497  0.14325294  0.00323667  0.13904276
 -0.53492826  0.28726244]
[-2.71039933e-01  9.13548768e-02 -3.39315794e-02 -3.54495249e-04
 -1.15724735e-01  1.14607669e-01  9.86447781e-02 -1.36723563e-01
 -2.54454762e-01  3.97158831e-01  5.37269592e-01  3.94967198e-01
 -9.62470993e-02 -5.06481677e-02  2.18617409e-01  7.21563697e-02
 -1.72802433e-01 -4.70133156e-01  5.15842378e-01 -5.59490502e-01]
[-0.15604062 -0.2913867   0.50619906 -0.10411876  0.16765128 -0.3002849
  0.17938097 -0.18004249  0.10903569  0.34462467  0.07898518 -0.1690835
  0.37257773 -0.504495    0.7164238  -0.2138395   0.5426637   0.46922266
 -0.04584244  0.12572701]
[ 0.03915647  0.50164676 -0.5268569  -0.10951086 -0.26145372  0.04087572
  0.02804326 -0.02628807  0.22187163 -0.65400636  0.05384803  0.907507
 -0.42285153  0.67800856 -0.33646652 -0.0020719  -0.7357699  -0.5240746
 -0.05892077 -0.6367492 ]
[ 0.32115775  0.06444759 -0.09214738  0.4900688  -0.33131993  0.0079618
 -0.31835756 -0.10661375 -0.49736792  0.09603115 -0.06594396 -0.09595763
 -0.14305939 -0.10698627 -0.2758653   0.02788102  0.2051336  -0.11280382
  0.2540818   0.26687256]
[ 0.01290084  0.26675826 -0.49125823  0.63691676 -0.19713755 -0.13304663
  0.26137233  0.36916703 -0.24390204 -0.05976492 -0.3009284  -0.12570047
 -0.23175152  0.14007214 -0.04546166  0.14267471  0.15622967  0.20959692
 -0.3380804   0.3595058 ]
[ 0.17366892  0.31367725 -0.00404743  0.5395227  -0.44993997 -0.36752048
 -0.01409263  0.44421786 -0.6211828   0.15663227 -0.41838664 -0.18186294
 -0.41065165 -0.11611614  0.04129584 -0.28872734 -0.0278052  -0.24253544
 -0.03141081  0.26182944]
[ 1.2273312e-04 -1.7598343e-01  2.2079961e-01 -4.3341669e-01
  5.3844106e-01 -1.8056661e-01 -9.8425306e-02  1.2228105e-01
  2.5829035e-01  3.5179466e-01 -5.7230753e-01 -3.1431398e-01
  2.6804924e-01 -4.7378725e-01 -1.5640695e-01 -2.1364173e-01
  3.0848569e-01  4.4024563e-01 -2.8001729e-01  6.7250401e-01]
[-0.06257185 -0.05006367  0.06376906  0.4860992   0.02458076 -0.4103113
  0.05079559  0.46858472 -0.5061535   0.2536898  -0.4647448  -0.21203578
 -0.04615286 -0.07439613  0.07813054 -0.07819549 -0.06556863  0.43799862
 -0.10415414  0.41295186]
[ 0.20184307  0.37195566 -0.4800248   0.29345986 -0.1754289   0.07984207
  0.42189705  0.25431252 -0.552059   -0.00540726 -0.6482855  -0.11123286
 -0.07854972 -0.12966566 -0.05601554 -0.30027905 -0.32042933  0.12454454
 -0.4024159  -0.07574658]
[ 0.14460286 -0.36280474 -0.17854446 -0.5828499   0.07056223  0.01527252
 -0.00653118 -0.01722487  0.060869    0.42671683  0.10826918 -0.55968535
  0.6159194  -0.4810498   0.33976683 -0.34144402  0.46749896  0.12432515
 -0.4723576   0.13925578]
[-0.01088447 -0.12739655  0.19713888  0.21972889 -0.07233352 -0.01561705
  0.31953982 -0.31954208 -0.569898    0.27167213 -0.6735498  -0.59506994
  0.5146376  -0.05520097  0.09179442 -0.17203239  0.29436806  0.03252687
 -0.18167636 -0.3876715 ]
[-0.10400918 -0.02947038  0.22891228  0.44161022 -0.33051282 -0.55795205
  0.0250663   0.44576147 -0.0282726   0.07207994 -0.02708615 -0.43846944
 -0.12559234  0.15031393 -0.45305726  0.07368988 -0.12690412  0.07674521
 -0.23804381  0.14753415]
[ 0.30321246  0.2731505  -0.03326884 -0.08318791 -0.01936402 -0.07784116
 -0.14233012 -0.16400936 -0.20313582 -0.03498171  0.22316933  0.04069373
 -0.3476324   0.5365467  -0.23243015  0.08345015 -0.5777718  -0.26667744
  0.57546085 -0.62908816]
[ 0.03742831 -0.09918676  0.19439715 -0.20336147  0.20897287  0.18194889
  0.01025287 -0.17458254  0.25497445 -0.12161132  0.3548373   0.16747528
  0.12554576 -0.05449831  0.09362034  0.08082531  0.06971298 -0.04847388
  0.23095132 -0.09869936]
layer 5 Activation
tanh
layer 6 Dense
20 1
[0.7301537]
[-1.061141]
[0.83680254]
[-0.68437135]
[1.0492612]
[-1.0813912]
[-0.81563735]
[-0.76447934]
[0.6665509]
[-0.77500767]
[-1.5724833]
[0.8664389]
[1.0298679]
[1.3294935]
[1.0603433]
[1.0647775]
[1.4782041]
[1.0008898]
[-1.2134758]
[-0.819989]
[0.45820695]
