layers 7
layer 0 Dense
20 20
[ 0.2739573  -0.43104896 -0.07309263 -0.02013854  0.38074636 -0.19828817
 -0.08423349 -0.10402172  0.05067695 -0.4783316  -0.06041303 -0.2035806
  0.39211315 -0.15517373  0.3619385   0.27055562 -0.22052106  0.11221807
  0.23571935  0.03741892]
[ 0.15119457 -0.02875384  0.01358825  0.27879956 -0.4416236  -0.11465147
 -0.2881569   0.5213495   0.6716232   0.32240382  0.16406569 -0.20103234
  0.09443825  0.46453664 -0.0899891  -0.47257206 -0.6356943  -0.11105468
 -0.0304988   0.09082936]
[-0.2639791  -0.71633685  0.09846699  0.414623    0.00772952 -0.23188226
 -0.12073668 -0.06032097  0.42320636 -0.20261253 -0.47725248  0.2918222
  0.21680173  0.565047   -0.48804063  0.11332597 -0.6635968  -0.05653815
 -0.13385002  0.14885388]
[ 0.30594942  0.07390701 -0.4386694   0.25895652 -0.37582052  0.11483124
  0.06713368  0.15215297  0.20546463  0.20693451  0.34012255 -0.17526741
  0.26804778  0.01969436 -0.2434689   0.07756778 -0.0283902   0.27871588
  0.01107569  0.08567605]
[-0.04060113 -0.04102933 -0.37246546 -0.14532104 -0.05062109 -0.10906244
 -0.3824314  -0.24168165 -0.17776266  0.18177012 -0.06237659 -0.29685307
  0.05376866 -0.12361274 -0.21267569  0.19998765  0.05724574  0.20815936
  0.140117    0.02254018]
[ 0.10982759  0.48935992  0.05486587  0.18481904  0.23736705  0.20076811
 -0.03007226 -0.31142947 -0.17930384 -0.04098179 -0.09757283  0.05148053
  0.04897475 -0.12857322  0.13528381  0.40099615  0.09146031  0.18676928
  0.17712721 -0.12312283]
[ 0.42304844  0.25159642 -0.14222549  0.12218656  0.3340272  -0.41898546
  0.44232064 -0.08699887 -0.650954   -0.14743508  0.1805598   0.2522273
 -0.3763884  -0.45213708 -0.3027823   0.06568383  0.24538809 -0.20804738
 -0.28750452  0.40943286]
[ 0.12400047 -0.19262046  0.3505199  -0.03419152 -0.02240584  0.3139068
  0.5740057  -0.16234745 -0.35198233  0.32909974 -0.16261484  0.5140651
 -0.4341102  -0.20498501  0.15553829 -0.04314623 -0.03698615 -0.02527035
 -0.4594306  -0.09326385]
[ 0.14267196 -0.18867107 -0.11547127 -0.20711598 -0.19116627  0.3959694
 -0.20649725 -0.24296638 -0.08271705  0.42532042 -0.42967984 -0.16518894
  0.21249492  0.25910154 -0.11351138 -0.4461047   0.10665524  0.13469274
 -0.12005008 -0.10320849]
[-0.38874185  0.31638056  0.00082184 -0.1798815  -0.02515519  0.43630084
  0.32745847 -0.3461561  -0.0474738   0.2802802   0.47742215 -0.07380882
 -0.2990841  -0.5235479   0.09673861  0.02266542 -0.46344835 -0.59403574
 -0.08868252 -0.02328088]
[ 0.11797907  0.0626798   0.18353935 -0.71605384  0.12307512 -0.84136444
 -0.69788677  0.22077306 -0.56989944  0.45108157 -0.04691338 -0.63832515
  0.02687901  0.63899404 -0.15283844  0.28922978  0.6016375   0.43725476
 -0.4695139   0.6974897 ]
[-0.33587363 -0.13845782  0.13267018 -0.31242207  0.09163736 -0.15616721
 -0.9201877  -0.43229747 -0.32620665  0.53025734  0.06953193 -0.36192402
  0.503189   -0.65385073 -0.2958776  -0.44508052 -0.21875277  0.02374392
  0.13831215 -0.07929809]
[-0.45519754  0.7796681   0.34287804 -0.10729778 -0.22627214 -0.59674054
 -0.06013419 -0.21153212 -0.58024836 -0.32788518  0.22674492 -0.4256421
 -0.28454298 -0.02040487 -0.26939213  0.46910325 -0.32804942  0.22636652
 -0.3100339  -0.23763046]
[ 2.8682166e-01  1.8011235e-01  3.6697379e-01 -1.8920432e-01
  2.1246712e-01 -2.6361725e-01  4.1228506e-01  1.1899699e-01
  3.5530591e-01 -2.2533686e-01  3.3535698e-01  2.0599942e-01
  2.8341639e-01 -2.2417720e-01  3.7175933e-01  2.3818120e-01
 -2.9428455e-04  2.7741393e-01 -2.9274179e-02 -8.2721293e-02]
[-0.0609853   0.1627946  -0.4049566  -0.31238943  0.00350109 -0.21603283
 -0.01654813  0.37597033  0.15798953 -0.05271042  0.03684963  0.06181313
  0.40386656  0.20476037 -0.22055873 -0.00487413 -0.2291806   0.04988023
  0.08108369  0.21706669]
[-0.41949815 -0.4110911  -0.03147728  0.20741752 -0.11401661  0.35359773
  0.053604   -0.4938943   0.50181705  0.6089867  -0.8120089   0.7104705
  0.54081416 -0.1697124   0.06586418  0.01814037 -0.54250675 -0.71448094
 -0.18568058 -0.2783843 ]
[ 0.36267203 -0.35851634 -0.08375733  0.09492446  0.01827726  0.7655585
  0.52815    -0.08246759  0.00471671  0.41914156  0.14590593 -0.07047892
  0.3884533  -0.05405339  0.1306477  -0.35990512  0.3174011  -0.5374592
  0.41051787  0.01715149]
[-0.15891266 -0.18421195  0.6719359   0.8614798  -0.50357443 -0.38673204
 -0.12629434  0.75971985 -0.51363236 -0.7695944  -0.6898897   0.4292594
  0.00542773  1.2065818   0.20669308  0.19692752 -0.47275248  0.49674305
  0.30148983  0.11944655]
[-0.24772635  0.317494    0.25752425  0.82623154 -0.7843928   0.34042865
  0.4960226  -0.7876272  -0.20660287 -0.64274275 -0.45940718  0.51932675
  0.05661316 -0.63248026 -0.16361518 -0.08767081 -0.7505366   0.02596161
  0.39448008 -0.8777517 ]
[ 0.28166017  0.6138989   0.75584406  0.64566004  0.3595408  -0.54936767
  1.0826167   0.12822258 -0.26198727 -1.2193645   1.0167035   0.7902793
 -0.861512    0.15932931  0.5725998   0.75667465  1.122934    0.17366907
  0.15569484  0.4148999 ]
[-0.02870727 -0.0525258  -0.08464304 -0.06908266 -0.06118554 -0.1934995
 -0.17094572 -0.07452672  0.07146744 -0.02294279  0.00426125 -0.03505456
  0.09194184 -0.04133719 -0.07689395  0.09398397 -0.09745149  0.02048516
  0.0809961  -0.10294044]
layer 1 Activation
tanh
layer 2 Dense
20 40
[ 0.00168446  0.21329257 -0.05905683 -0.11107757  0.01777387  0.057553
  0.03301014  0.19187923  0.3407228   0.2276989  -0.30657426 -0.3952676
  0.13243204  0.24313407  0.18714742  0.21313475  0.19887266 -0.01197324
 -0.06807495  0.1839976   0.06694297  0.47482112  0.33937645  0.22110325
 -0.17030804 -0.07384766 -0.28998765  0.1742497   0.11717708  0.18794252
 -0.29466552 -0.02198352  0.05818448  0.01760712  0.22948878  0.21218279
  0.08206601 -0.1033152  -0.14193612  0.08841317]
[ 5.2292433e-02  1.0053708e-01 -1.5177742e-01 -1.4518905e-01
 -7.6941833e-02  1.9337270e-01  2.0242988e-01 -3.5342640e-01
 -3.2304761e-01  2.2705686e-01  2.9702845e-01  4.0705286e-02
  1.8188399e-01  3.0052894e-01  2.7824849e-01  2.7563405e-01
 -1.2046957e-01 -1.4197770e-01  1.7033547e-01 -1.1860683e-01
 -1.3536763e-01 -6.4200044e-01  2.3189989e-01 -1.5590787e-01
 -1.7613794e-01  3.4050813e-01  8.5049244e-03 -2.5858176e-01
 -2.1445292e-01  1.0347275e-01  2.5765499e-01 -5.2102558e-02
  2.6175869e-01  2.2283721e-01  8.1686996e-02 -8.8332452e-02
  1.8046194e-01 -2.6684173e-04  3.6877733e-01  2.5120658e-01]
[ 0.11691085  0.01519238 -0.29938233  0.3528323  -0.5324221  -0.2854416
 -0.13933313  0.26882005  0.3212104  -0.20685786 -0.5118027   0.34258953
  0.51283365  0.10627336  0.1560233   0.15890738 -0.21158077  0.29706126
  0.21209118 -0.07058928 -0.11812728 -0.2021066   0.04123579 -0.12243195
 -0.00843771 -0.06778601  0.3108401   0.1692191  -0.00872164  0.14521247
  0.20006941  0.2601565   0.00511077  0.05313758 -0.16944458 -0.01164484
  0.45302552 -0.21431391  0.44401145  0.33410525]
[-0.01158225 -0.25123253  0.02254125  0.0473681  -0.30036822 -0.5095435
 -0.2604957  -0.26498917  0.24509378  0.00216255  0.25989506  0.31340107
  0.02801341  0.07486839 -0.30423525 -0.14725536  0.24434206  0.1209897
  0.26363146 -0.23645267 -0.3642427  -0.20497192  0.12230284  0.00865507
  0.33039576  0.19147746 -0.00353226  0.33546403 -0.0664367   0.29443175
 -0.59750926 -0.34905112 -0.33499408 -0.00430224  0.08029806 -0.19149433
  0.10389601 -0.11034665  0.01999671  0.17107129]
[ 0.01653721 -0.03163558 -0.1722868  -0.1600756  -0.17732832  0.5447113
 -0.10248752  0.12170801  0.20254233  0.0371596  -0.3826375  -0.31361282
  0.2879927  -0.22031544  0.09907469 -0.2524849   0.11705934 -0.17416807
 -0.30908808 -0.1026005   0.45298705  0.01835421  0.04158858 -0.20874563
 -0.0194633  -0.02055523 -0.23241621 -0.16209339  0.0413604   0.1744074
  0.27430713  0.3231161   0.09509675  0.01340405 -0.16278125 -0.19274795
 -0.05859858 -0.00962168  0.16122974 -0.15904734]
[ 1.8153967e-01 -1.0295626e-01  4.8531777e-01 -5.0090182e-01
  9.4830520e-02 -3.2679316e-01 -9.8320823e-03 -1.4890285e-02
  5.0266910e-02 -2.1192776e-01  1.7316441e-01 -3.2509905e-01
  3.9466041e-01  2.0092562e-01 -3.2311544e-01  8.0962703e-02
  1.2585394e-01  9.0782195e-02  1.1432955e-01 -1.0435699e-01
 -4.4547117e-01  6.8348912e-03 -5.4916394e-01  1.9183931e-01
  1.5946057e-01  2.6588297e-01 -2.0460166e-01 -1.2839520e-01
 -2.0094806e-01 -8.8008295e-05 -1.2858757e-01 -5.1418954e-01
  8.3075397e-02 -1.9863108e-01  4.9583602e-01  2.1069449e-01
 -2.0711145e-01  2.4525142e-01  1.9379860e-01  2.1609135e-02]
[ 0.35892877 -0.34875903  0.1673222  -0.7202697  -0.72582775  0.11386009
 -0.03505575 -0.09282082 -0.02561152  0.23005661 -0.16197568 -0.3856134
  0.11100374  0.18842874 -0.11147165  0.07709061  0.13775155  0.21521145
  0.07390615 -0.32594502  0.01881204  0.20089836  0.46106473 -0.15225811
 -0.05812205 -0.34033784 -0.04603567  0.11415866 -0.17104165  0.15740156
 -0.36358464 -0.22403587  0.1103873   0.1596204   0.13158189  0.05120483
  0.07341564 -0.01835525  0.6091412   0.28814718]
[-0.07161935  0.16879462 -0.05267018  0.31569368  0.27130497  0.32556275
 -0.01075834  0.0667925   0.16377442  0.32322332 -0.13771732  0.3230576
  0.15408602  0.07719923  0.01421933  0.05246495 -0.02344494 -0.1654125
  0.10379613  0.21361087  0.19456173  0.14283822  0.16188899  0.49777654
 -0.20397085 -0.3154472   0.25898203  0.31807226 -0.17864093 -0.05572816
 -0.03506414 -0.01122878 -0.1179321   0.05560202  0.17861098  0.25888488
  0.08840346 -0.12961213  0.27499482 -0.06821407]
[ 0.01892975 -0.08102142 -0.0451085  -0.32588252  0.06929888 -0.38504693
  0.06638388 -0.0319295   0.11093556  0.0326066   0.19032532 -0.01343496
 -0.05936852 -0.172893   -0.19778623 -0.21801364  0.10214577 -0.04965223
 -0.22861421 -0.21206245 -0.22324581  0.5227442  -0.1563224   0.27683145
 -0.08999407  0.15500441 -0.21927384 -0.1904882   0.10984569  0.09482752
  0.10046303 -0.28551477  0.15146193 -0.01192972  0.24348687 -0.08173261
  0.11803749 -0.00284507  0.18925488 -0.08855429]
[ 0.44738835  0.28257263  0.22060622 -0.12472665  0.2153052   0.15100041
  0.09260486 -0.02692361 -0.05617294  0.11507024 -0.16982166  0.01702199
 -0.03016147 -0.31250718  0.08137302 -0.21414413  0.19632643  0.1634289
  0.06016344  0.26472726 -0.23012862  0.10295633 -0.53732926  0.10880847
 -0.2910139  -0.08525879 -0.43412235 -0.18021157  0.3306409   0.1753749
  0.4763431   0.1856077  -0.22386064 -0.40365708  0.0416434   0.21746047
 -0.29869142 -0.30987176 -0.25158554 -0.24460275]
[-0.04165546  0.12074525  0.16569178 -0.04980468 -0.33954567  0.55319995
  0.10610551  0.08878767 -0.42271248 -0.09221732 -0.13623986 -0.35808298
  0.26445308 -0.09173113 -0.04457597  0.13604607 -0.1421739   0.06440845
 -0.10519956  0.04911244  0.5465035  -0.34968576  0.28733033 -0.18358202
 -0.13551047  0.12388152 -0.23627225  0.04145079 -0.13558723  0.13004157
 -0.04270387  0.18145162 -0.24521267 -0.036611   -0.05237566 -0.21617685
  0.05623667  0.26479447  0.10324509 -0.08320096]
[-0.3888079   0.20294286  0.02881806 -0.22600895 -0.6803213  -0.43032783
 -0.04836445  0.22352923 -0.09592786  0.03907872 -0.37571722  0.32955262
 -0.00181839  0.11508531 -0.03928033  0.09015282  0.3230168  -0.0454056
 -0.0295257  -0.08791859 -0.10802096 -0.17487173  0.01345734 -0.2508593
 -0.1527631  -0.3846851  -0.03928933  0.144657   -0.2303689   0.10273305
 -0.34461668 -0.1884645  -0.07536047 -0.22489233  0.20376895 -0.2286533
  0.07470291  0.1286563   0.10733693  0.3664166 ]
[-0.1402036  -0.13387941  0.06294499 -0.268978    0.15082955 -0.5346851
 -0.2116808   0.19383599 -0.02786899  0.20575242 -0.2755917  -0.3458708
  0.08840637 -0.18707685  0.08020061 -0.21237025 -0.00089509 -0.26576182
 -0.23914222  0.11805061 -0.27056044  0.51992327 -0.4227724  -0.00285707
  0.05836365  0.14873867  0.25638455 -0.06839348 -0.01978162 -0.02482342
  0.2891592   0.26798978 -0.20749827 -0.21154694 -0.18046412 -0.17702886
  0.21661869  0.38130137  0.16139792  0.13230804]
[-0.10485911  0.07816593  0.10326429  0.53508896  0.46339345  0.26585618
 -0.17976916 -0.298461    0.16984679  0.21336359 -0.19048369  0.4724901
  0.02904179 -0.31884694  0.28144082 -0.37737367  0.354186    0.11736403
  0.21691014 -0.09824259 -0.03114389  0.24241406  0.3661341   0.5397908
 -0.02467025 -0.26435104  0.36826727  0.5382243   0.03689673  0.15819478
 -0.08892474 -0.18851171 -0.4193404   0.15932521 -0.17063472 -0.21218863
  0.16595514 -0.19176845 -0.2767668  -0.22190544]
[ 0.2635689  -0.01759942 -0.11749072 -0.2295412  -0.12965266 -0.29367843
  0.0522408   0.08920637  0.03287654 -0.2123818  -0.13354295 -0.00362589
  0.181736    0.11222769  0.08760566  0.17231643  0.11705477 -0.11269668
  0.28912815  0.21690762  0.07427236 -0.04896861  0.2177677   0.03449182
 -0.11814559 -0.2881701   0.20792122  0.06110251  0.36224538 -0.17100532
 -0.30109414 -0.2400612   0.20364518  0.1332135   0.40081596  0.04735007
 -0.0134807  -0.10340609 -0.20455523  0.14755176]
[-0.07820471 -0.05846373  0.14947055  0.23405407  0.19456807 -0.02321327
  0.25837237  0.08607834 -0.04053885  0.15422681 -0.16719781 -0.11911016
  0.1565491  -0.08740697 -0.10893201  0.27386874  0.3282591   0.21047509
  0.26925862 -0.19449802  0.3607459  -0.21446219  0.5168891  -0.144812
  0.00415986  0.18659237  0.24076098  0.16191065  0.02651356 -0.02084952
 -0.19820793  0.12109787  0.18166761 -0.22471432 -0.02389065  0.20274474
  0.07206825 -0.2486692  -0.26171002  0.27316937]
[ 0.20517622 -0.03940497  0.10288291  0.00820586 -0.2278225   0.44185337
 -0.28318515  0.20768842  0.558375   -0.21619669 -0.678999   -0.32724792
  0.43146837 -0.39649776 -0.22445394  0.38542435 -0.22244804 -0.05716173
  0.07132326  0.34738848  0.5481481  -0.09165812  0.31808996  0.18192267
 -0.16527261 -0.4356851   0.02555161 -0.01387339  0.29794037 -0.17855477
 -0.03920652  0.42894408  0.28063762  0.17854911  0.3641884  -0.09073827
 -0.15291746 -0.2864422   0.1452524  -0.21395522]
[-0.21679738  0.32908204 -0.08533211  0.0522994   0.2599764  -0.12735063
 -0.13029692 -0.18917625  0.17749648 -0.05276826 -0.24366772  0.31434166
  0.2154422   0.15223543  0.30150124  0.05042491  0.02335228  0.33062625
  0.2697171  -0.0448925   0.3820959  -0.07355286 -0.02779328  0.2935408
 -0.20113279 -0.128328    0.06459655  0.12875953 -0.34778398  0.08487906
  0.1883084  -0.02166129 -0.13092819  0.17491505  0.02092482  0.07975212
 -0.09592616  0.01058489  0.24113184 -0.08981383]
[-0.2687896  -0.15214106 -0.15279847  0.03179013 -0.03651891 -0.44525102
 -0.03425521  0.26943713 -0.20591532  0.2989803  -0.02541228 -0.3170098
  0.21335354 -0.3016978  -0.2891741  -0.12295229  0.05670536  0.11424954
 -0.14925575 -0.07104507 -0.00875863 -0.17583825 -0.19767152  0.05221749
 -0.15543067  0.10518205  0.27441525  0.21634167  0.07308215 -0.01756131
 -0.24159141 -0.08300009  0.01071315  0.04126613 -0.17098895 -0.05921252
 -0.25723243  0.08377576 -0.19363806  0.11089472]
[ 0.10486796 -0.23708247  0.06788671  0.00875393  0.05842476 -0.02316752
 -0.02611284  0.10148783  0.27706125  0.27807048 -0.23325755 -0.12461004
 -0.15649992 -0.16741621 -0.17137253 -0.24410695  0.24175462  0.18242534
  0.01022157  0.15125664  0.4380164  -0.17768185  0.02499877  0.23970643
 -0.42676175  0.25512245  0.17173317 -0.22962248 -0.17568389  0.06972687
  0.21211241 -0.07501264 -0.21019778 -0.05295868 -0.02937186  0.19063777
 -0.12381014 -0.10373874 -0.21407712  0.08873407]
[-0.06779165 -0.08749252  0.211399    0.04959702  0.15341178  0.18055026
  0.08621766 -0.08674989 -0.2827742   0.09665783  0.2107275  -0.0316759
 -0.02484448 -0.04639748 -0.03621965 -0.04323211  0.09567188 -0.01500629
  0.01116309 -0.02165089  0.12284951  0.0468296   0.07164084  0.06502027
 -0.04361615  0.06453969  0.04123457 -0.02676774 -0.05186652  0.02210181
 -0.13330886 -0.05846076 -0.13558692 -0.02113882 -0.05518666  0.04085847
 -0.04318437  0.21760961 -0.03986232  0.04345053]
layer 3 Activation
tanh
layer 4 Dense
40 20
[ 0.00867369 -0.23868367  0.326648    0.33657792  0.162064    0.10627963
  0.13173683 -0.17420577 -0.20078397 -0.0257086   0.27421016 -0.2985868
 -0.20188461 -0.02754425  0.21637931  0.14629026 -0.1562216   0.20790182
  0.18608867 -0.30083784]
[-0.04977956 -0.2665121  -0.2124107   0.06594281  0.23942287 -0.05998187
  0.21359357  0.2340377  -0.17712061 -0.02322735  0.06753809 -0.06185235
 -0.0403907   0.1783777  -0.33308303  0.02457039  0.33706093 -0.02662521
  0.07750458 -0.02280151]
[-0.10513824  0.06526176  0.03452137  0.2133201  -0.42237455  0.09870685
  0.21662116 -0.2033799  -0.03262581  0.03005539 -0.08221027 -0.18640529
  0.01384427 -0.12946773 -0.1840358   0.18949589 -0.22811468 -0.08006599
 -0.08103374  0.0086511 ]
[-0.28218752 -0.03054118 -0.41888866 -0.34870264  0.19650815 -0.38323513
  0.16160178  0.08569247 -0.2753663   0.06880083 -0.22856195 -0.2340836
  0.11221537  0.08324538  0.22797498 -0.33091256 -0.4039568  -0.17976901
  0.17920654 -0.13055687]
[-0.42208257 -0.04723912 -0.21823838  0.04028117 -0.3733142  -0.41185844
  0.05905756 -0.24837807 -0.12439222  0.2854959  -0.08551292  0.1389616
  0.11910459  0.28349113  0.1441006  -0.30983627 -0.20458692 -0.17397805
  0.06766295 -0.24079277]
[-0.37967992  0.21698096 -0.18356526 -0.09274542 -0.12193446  0.25207248
 -0.02858373 -0.02201881  0.00642352  0.1317897   0.0266049   0.08655544
 -0.21431729  0.13651209 -0.26088712  0.03311806 -0.2536553  -0.0912696
  0.22442389 -0.3929888 ]
[-0.20192961 -0.04687485  0.2510653   0.06052513 -0.16386124 -0.26699752
  0.07170215 -0.28359783  0.25157857  0.22058532 -0.02421049  0.22421618
  0.03523587  0.04778965  0.33046806  0.06027198 -0.20714377  0.17807513
  0.08791342 -0.20316382]
[ 2.1859007e-01 -1.8673423e-01 -9.2729583e-02  4.2376064e-02
  9.2491973e-05 -9.0585783e-02 -1.1270322e-01  1.0423564e-01
 -1.1560860e-02 -3.6756068e-01  1.0038532e-01  2.0693503e-01
 -1.6788934e-01  1.3884598e-01  4.5653142e-02  1.8309584e-01
  3.3375359e-01 -2.7408355e-01 -2.4736675e-02  9.9435881e-02]
[-0.02376067 -0.2826673  -0.2595433  -0.11603714  0.24638215  0.24598406
  0.20029175  0.24435806 -0.00186076 -0.19030766  0.31068492 -0.22796187
 -0.19827294  0.21736939  0.15136358 -0.30630496  0.31233042  0.39204955
  0.09256339  0.1961147 ]
[-0.23241861 -0.1646895  -0.13056126 -0.09389934 -0.21431686 -0.27651104
 -0.29811633  0.08871961 -0.14920814  0.26567015 -0.11672088  0.22207625
  0.23579575  0.24591647  0.23482113  0.10213901 -0.10094542 -0.21478902
 -0.16126753  0.12280924]
[-0.2869342   0.23222978  0.03909642  0.12357426 -0.16175282 -0.06577035
  0.04956112  0.20023783  0.0373549  -0.11322383 -0.07564437 -0.2721996
  0.35706484 -0.2101165  -0.22332342  0.19810867 -0.38701096 -0.39488742
  0.12163749 -0.15481324]
[-0.26368976 -0.01588177 -0.31300867 -0.0765976   0.13809146 -0.34906864
 -0.10281059  0.29028225 -0.18731666 -0.01487416 -0.09764685  0.11693013
  0.29869667 -0.00052409 -0.27380344 -0.37680927 -0.17529671 -0.14273153
  0.0580602  -0.00924983]
[-0.06365031 -0.32862702  0.20477317 -0.10440148 -0.00913699  0.20648813
  0.273428    0.27609092  0.32489306  0.2948084   0.03805856 -0.18709704
 -0.11843331  0.5044287   0.00308791  0.20062253  0.14914656  0.13554442
  0.26491487  0.07229409]
[ 0.04276792 -0.18770115  0.24256583  0.22263484  0.19409093 -0.32785696
  0.07210714  0.22571832  0.0835814  -0.3203555  -0.29698697 -0.17779535
  0.20014416 -0.32215607  0.17280824  0.1109121   0.03959723  0.02085545
  0.04546605  0.1035768 ]
[-0.29795256 -0.0313111  -0.2868993  -0.09116728  0.28465864 -0.24478519
 -0.2091093  -0.16487211 -0.13958725 -0.1262279   0.13457073  0.11446399
 -0.32975715 -0.27851784 -0.12127464 -0.17587498  0.29009187  0.09600628
  0.08087499  0.25724426]
[ 0.298627    0.30107155  0.1510654   0.07103056  0.29467848  0.12185333
 -0.30245066 -0.00814798  0.12048794  0.1762504  -0.11730616  0.1857607
 -0.08917446  0.45876542 -0.06284806  0.16652669  0.11011683  0.10615081
 -0.1478015  -0.16612357]
[ 0.26073873 -0.24960747 -0.16015452 -0.14288248 -0.41292816 -0.21931529
 -0.14728284 -0.11313806  0.04531031  0.12500489  0.15819342 -0.01371072
  0.25078657 -0.00703519  0.1900331  -0.0022479  -0.0156808   0.02797337
 -0.3234717   0.21160631]
[ 0.01218145 -0.15436423 -0.15081693  0.0723579   0.21291786 -0.07321487
  0.12121028  0.26152316  0.16801213  0.29417995  0.1744077  -0.19025493
  0.01950398  0.11059608 -0.08256847  0.20490865  0.02128359  0.25635856
  0.06689506 -0.01443606]
[-0.06602184  0.08186466  0.08526973 -0.23535632  0.08458094  0.05461439
 -0.00443     0.2897958  -0.16848356  0.24503513 -0.17665209 -0.34801307
  0.04339188 -0.18363912  0.16499318 -0.1957295  -0.21548147 -0.11019541
 -0.05731393 -0.25004095]
[ 0.11828518  0.09412579 -0.27335486 -0.02145547 -0.00789778  0.02167165
 -0.04609176  0.12317354 -0.1339623   0.14760645  0.18518622  0.10336869
 -0.22568251  0.15832254  0.12461703 -0.23566633  0.22383064 -0.22588232
 -0.06589203 -0.25729552]
[-0.01178097  0.01047031 -0.30260643 -0.33084458 -0.14048165 -0.35307893
  0.21561204  0.11391848  0.02860498 -0.2022281   0.3229536   0.39720133
 -0.15770765  0.4056789  -0.08402671  0.32536653  0.18894798  0.09895125
 -0.28484797 -0.22779384]
[-0.08437964 -0.32843795  0.24212252 -0.03136179 -0.26376307 -0.11461025
  0.26802555 -0.10448136 -0.22236119 -0.3139787   0.31943178  0.13485713
 -0.06949369  0.06626783 -0.10058542 -0.13540742  0.33862787  0.24852172
 -0.07126694 -0.08985688]
[-8.2284331e-02  3.6756799e-02  6.9498464e-02 -4.6443444e-01
  1.9854464e-02  1.5740443e-02 -2.1863899e-01 -2.1876891e-01
  5.0826490e-01  4.3650737e-01  1.9785231e-01  2.9973942e-01
  4.0645089e-02  3.5102129e-01  1.1906002e-01 -1.0234129e-05
 -2.5218278e-01 -2.1632964e-02  1.8142766e-01 -3.4440789e-01]
[-0.20346159 -0.19292991 -0.26644132 -0.22392932 -0.30560866 -0.1651809
  0.3334068  -0.17926042  0.03727979 -0.18906856 -0.09811891  0.1396925
 -0.01785121  0.11708043  0.05446863 -0.33457437 -0.3077604   0.1519827
 -0.14585136 -0.09152051]
[ 0.2788354  -0.05748297  0.06849229 -0.03684162  0.20328997 -0.1386098
  0.15002438 -0.09545265 -0.09671833  0.27581903 -0.15043603 -0.31969333
  0.258478   -0.23537034  0.27814674  0.04621746  0.10469461  0.18827617
 -0.11291125  0.22081825]
[-0.24244596  0.33515203 -0.19260897 -0.0686285   0.05083896 -0.2801857
  0.2603029   0.05985285 -0.19085851 -0.12949486 -0.01912847 -0.29582086
  0.05289977  0.25026187 -0.2895991   0.17289658 -0.28674558 -0.19225731
 -0.1013398  -0.03314141]
[-0.16726942 -0.27663422 -0.33763826 -0.30312398  0.04441519 -0.09301852
 -0.09870031  0.13962631  0.05217674  0.38139996 -0.03732461 -0.07983935
  0.24124625 -0.00200094  0.18985489 -0.2586175  -0.04914661 -0.0868774
 -0.04519753  0.33703786]
[ 0.12143832 -0.2658319  -0.26560813 -0.11190233 -0.05900002 -0.13596961
  0.1520075   0.05625729  0.18719654  0.3100756   0.06747102 -0.01769481
  0.25832474  0.25545657 -0.23008968 -0.26992735  0.07248793 -0.23211576
  0.2585803   0.19088568]
[ 0.06182342 -0.0121554  -0.02295496  0.02689988 -0.01062493  0.21451838
  0.11553388 -0.02957452 -0.08058045  0.02357947 -0.15000741 -0.20287262
 -0.11287244  0.14897181 -0.31990328  0.0446987   0.19898464 -0.07444443
 -0.13490814 -0.03639501]
[-0.01493287  0.18013203  0.18709949  0.00370571  0.01139238 -0.12060788
 -0.22706154  0.18766475  0.40126702  0.17661898  0.14697927  0.08915623
  0.04214322  0.13605708 -0.2525397  -0.14148562 -0.06028744 -0.05187175
  0.07099078  0.1941379 ]
[-0.32338855  0.26434124  0.15147178  0.21642643  0.33834115  0.06996918
 -0.17031552  0.01127805 -0.21119161 -0.280458    0.10287649  0.2002126
 -0.3665931   0.06616201 -0.12077457 -0.30950162  0.40209982 -0.26729786
 -0.26341927 -0.00251957]
[-0.09375312 -0.11336806 -0.01829747  0.12607126  0.24266097 -0.10597289
 -0.00644252  0.04665367 -0.19271731 -0.27909172 -0.00047728  0.2288683
 -0.00221145  0.0584179   0.14852205 -0.32985824  0.27016908 -0.20681746
 -0.17522731 -0.2932637 ]
[ 0.03536096 -0.04310654  0.07587281  0.16741529  0.260447    0.01163597
  0.10055794 -0.13242483  0.3054364  -0.36680278 -0.14222908  0.17477907
 -0.08040857  0.04988526 -0.06603836 -0.14266875  0.11147393 -0.10363951
  0.12129038  0.10503612]
[ 0.0711681  -0.2898554  -0.0307208  -0.25082114  0.04386673  0.0250558
 -0.03538143 -0.2230602   0.257661    0.08411603  0.19894096 -0.09914834
  0.03216823  0.20652153 -0.16950007 -0.07213151 -0.39721143  0.1973837
  0.23349208  0.16642988]
[ 0.24437834  0.09207534  0.21429224  0.01730754 -0.06234161  0.30143797
  0.2554753   0.15407948  0.19872847 -0.22356854 -0.05775936 -0.03225293
 -0.21161129  0.13937744 -0.09003179  0.24819621 -0.02348546  0.22433296
  0.25312853 -0.01850928]
[-0.04236145  0.06331471 -0.11300041  0.05187218 -0.06525186  0.1335841
  0.1971336  -0.02359687 -0.37405625  0.36277688 -0.13463105 -0.02979557
 -0.01952368  0.11138492  0.0905506   0.21751316  0.23058313 -0.12926649
 -0.35960498 -0.2272858 ]
[ 0.08343458 -0.18824272  0.2606916  -0.33747005  0.15817176 -0.12890954
  0.06001175  0.13944831  0.23794708  0.20952927 -0.23985061  0.04552656
 -0.04355533 -0.32464734 -0.00719006  0.00259094 -0.09247094  0.05828859
 -0.02230415 -0.14416134]
[-0.2004164   0.09110703  0.13712928 -0.04747841 -0.19357435  0.24167973
  0.18531449  0.20797752  0.27851176 -0.05637014 -0.0186825  -0.09861539
 -0.11399649 -0.2658951  -0.27801934  0.27794057  0.10314807 -0.10199352
 -0.18100524  0.13126601]
[ 0.29823616 -0.2829242  -0.17225175 -0.19057968  0.00883866 -0.01338406
  0.05508136  0.26928434  0.03661191 -0.21385825 -0.24268048  0.43787488
  0.25720906 -0.33209318  0.23886862  0.10136288  0.27494884 -0.16709441
 -0.09779453  0.1658884 ]
[ 0.4815536  -0.07011746  0.20044498 -0.18507086  0.05303768 -0.01481464
  0.13215347  0.23700061  0.41672593 -0.16518867 -0.14423516  0.06133131
  0.36526504 -0.33793217  0.10180275  0.30405545 -0.241952    0.12238873
 -0.16342717  0.10517079]
[-0.09397609  0.10853185 -0.09915684 -0.06258982 -0.11706138 -0.13592423
 -0.03103198 -0.02662421  0.08509747  0.04063037 -0.02156238 -0.01411801
  0.08293246  0.10821281  0.02988052  0.09017307 -0.04904316 -0.0348927
 -0.08652229 -0.06968243]
layer 5 Activation
tanh
layer 6 Dense
20 1
[-0.13769697]
[0.09900875]
[-0.11254116]
[-0.15226689]
[0.21909538]
[-0.06170707]
[0.0075596]
[-0.06785633]
[0.15488625]
[-0.06464811]
[-0.00547793]
[-0.11536011]
[0.1986367]
[0.03359621]
[0.00752527]
[0.15689647]
[0.12051699]
[-0.03098962]
[-0.01587973]
[-0.11042681]
[0.05670068]
