layers 7
layer 0 Dense
20 20
[-3.4299639e-01  4.5828515e-01  3.7358847e-01 -4.1117991e-04
 -1.3857114e-02  2.9711574e-01  2.0310158e-01  5.6739874e-02
 -4.2132191e-02 -3.3492520e-01  2.6833940e-01  3.0841908e-01
  2.3788159e-01  3.0617914e-01 -1.5089981e-01 -1.6857240e-01
  2.3032093e-01 -1.4232758e-01  5.4167021e-02 -1.6989315e-02]
[-0.12012     0.16510816  0.09344829 -0.13936733  0.04525786 -0.14672077
 -0.05767573  0.20611933 -0.3415946  -0.21026427 -0.1147074   0.37481266
 -0.38810351  0.30946478  0.54086024 -0.2104368   0.23330905 -0.27465796
 -0.15848152 -0.22385092]
[-0.29389733 -0.19842614 -0.03443077  0.02912566 -0.11115459 -0.50728124
  0.25547263  0.12351845 -0.05153795 -0.3771982   0.25226662 -0.05546792
 -0.10201169 -0.21416146  0.47247925 -0.41843727  0.02930083 -0.1214715
 -0.28897557  0.2124968 ]
[-0.19466221  0.38118666 -0.14152907  0.27412742  0.3584285  -0.27529183
  0.02852538  0.06734762 -0.43226454  0.02389904 -0.02374168  0.07495331
  0.21258207 -0.0742797  -0.26757178  0.30276033  0.29880118 -0.08949413
 -0.35848442 -0.02565436]
[ 0.19772787 -0.19378234  0.23659183  0.28962758  0.1599935  -0.01881536
 -0.08589821  0.25789744 -0.1632045   0.06228897  0.08843947  0.08141948
  0.055679    0.09262469 -0.03948496  0.14633676 -0.18084587 -0.13897835
 -0.2646969   0.35156298]
[-0.08260978  0.29872373 -0.08208975 -0.08299122  0.2911013  -0.07431251
  0.12371639 -0.10969017  0.22377111 -0.10816872 -0.03075519 -0.03636049
  0.34976983  0.26676312 -0.12458137  0.23501053  0.04663203 -0.21134329
  0.09238053 -0.10668881]
[-0.06463266  0.51232296 -0.15815893 -0.29543892  0.34059063  0.36870593
  0.01093095  0.3970051   0.4257649   0.33063075  0.1764945  -0.26874456
  0.19237441  0.35319456 -0.32595527  0.41126993  0.24090582  0.30786148
 -0.08684772 -0.19979662]
[ 0.2708349   0.0064849   0.35951957 -0.3092976  -0.09186412  0.15371192
  0.16783097  0.21722996 -0.06839213  0.29422504 -0.02240556  0.20737027
 -0.14915225  0.25905737  0.1233804  -0.14625114 -0.09053209 -0.07705268
 -0.31294167  0.11262759]
[-0.3402677  -0.08608368 -0.22071117 -0.41889125 -0.16804345  0.37650055
 -0.20796889 -0.03620582  0.4858072   0.27116984  0.14970896  0.06217441
 -0.08225188 -0.05451857  0.49191836 -0.21517614 -0.32917702  0.2336531
  0.33433214 -0.22820862]
[-0.36090392  0.25769547  0.41886112  0.15528724  0.30545905 -0.1549618
 -0.02435671 -0.19288126  0.18450744 -0.08123257 -0.07271177  0.404516
 -0.23982303  0.12077218  0.16928674 -0.44398594  0.17453344  0.21862695
 -0.31443194 -0.20896439]
[ 5.7269186e-02  1.1572907e-01 -1.6260168e-01  1.4565206e-01
 -2.1213524e-01 -8.4446043e-02 -2.1026636e-02  7.9487793e-02
 -1.8332949e-01  1.1784147e-01  4.8508388e-01  9.5826909e-02
  3.8655165e-01  3.1034735e-01 -2.9007788e-04 -2.7715874e-01
 -4.2971593e-01 -2.3759632e-01  3.8063219e-01  2.6609781e-01]
[-0.2191007  -0.13676777  0.3585484  -0.11835936 -0.12915844 -0.47175276
  0.25964588  0.48533872  0.2107597  -0.02150332 -0.11634445 -0.4131197
 -0.10069507 -0.19934534  0.23716357 -0.29982552 -0.15665874  0.15643825
 -0.50682753 -0.01112433]
[ 0.05924306 -0.31988335  0.37644327 -0.10121467  0.0485516  -0.08097941
  0.01038807 -0.09754997 -0.13055086 -0.39285538  0.09725168 -0.23200268
  0.07707064 -0.4770608   0.00712693 -0.4909318  -0.02297831 -0.01200537
 -0.09375662 -0.02542077]
[-0.4229843   0.1892994  -0.17473984 -0.03319988 -0.36772028  0.35800263
  0.36393997  0.17116979 -0.18347527 -0.16548131  0.10080907 -0.3390803
  0.4059472   0.3572618  -0.26824564  0.40229538  0.23367216  0.44666433
  0.44237265 -0.3385232 ]
[ 0.26290536  0.12118443 -0.25911438 -0.31564423  0.45532617  0.1386151
  0.29181415  0.1941303  -0.14258642  0.00212656 -0.45174503  0.062471
  0.18586843  0.12302645  0.08504751  0.26693884  0.39837492  0.13485762
  0.21803363  0.00688788]
[ 0.41047445  0.53902364 -0.2518482  -0.07153914  0.04508423  0.1350233
 -0.49783608 -0.64998084 -0.04399857  0.43417814  0.598847    0.18775654
 -0.14120239  0.18239418 -0.06896851 -0.16817193  0.29872796  0.04201841
  0.6885168  -0.09537718]
[-0.11318628  0.19964543 -0.34854046 -0.32395795  0.32266358  0.38067403
 -0.2447921   0.1891048   0.20887256 -0.07478427 -0.33988783  0.18801147
  0.1835888  -0.04032175 -0.00648771  0.23496522 -0.33374354 -0.30486807
  0.04560706 -0.18764672]
[ 0.04499776  0.07713284  0.2688379   0.09870318  0.3714092   0.11283411
  0.09453019 -0.01046572  0.40801287 -0.45610923  0.13265665  0.29158166
  0.16419172  0.0655755   0.49722946 -0.14291939  0.22823556 -0.31675532
 -0.26142582  0.07067955]
[ 0.29088658  0.00505437  0.21197918 -0.32114846 -0.4507532  -0.14768672
 -0.20776965  0.05032184  0.02662921  0.2172967   0.26827398  0.11321937
 -0.07999584  0.04097735  0.05683267  0.01297976  0.2823865   0.02363854
  0.27396563  0.3018804 ]
[-0.22648832 -0.22834621  0.27044004  0.28790563 -0.0135796   0.05193977
  0.4401414  -0.15940975  0.10314978 -0.2185757  -0.11429723  0.00757933
 -0.41413042  0.16781908 -0.21839984  0.3971696   0.18779086 -0.30373064
 -0.40482658  0.03062085]
[-0.06012679 -0.04159581  0.03388595  0.01988326  0.1887787   0.0153422
  0.01196006  0.04936763 -0.01956993 -0.01010439  0.02399053  0.00369083
  0.03199493  0.02175323  0.00616249  0.04367953 -0.0037861  -0.03241783
 -0.03332121  0.0286024 ]
layer 1 Activation
tanh
layer 2 Dense
20 40
[ 0.17279111  0.04438884 -0.05281707 -0.06226857  0.09996005  0.32444453
  0.19678947 -0.3130641   0.33292186 -0.28920734 -0.03503478 -0.28956008
  0.06430447  0.09427287 -0.05751393  0.22315857  0.34537786  0.28689352
  0.13744543  0.03603142 -0.10553917 -0.07241684 -0.02211189 -0.0461866
  0.0257955  -0.26129758  0.0869      0.24054585 -0.02306392 -0.27010447
  0.22234006  0.11714978  0.08081868 -0.00575286 -0.18801656 -0.26078308
  0.3030101  -0.3595682  -0.22389     0.1657025 ]
[ 0.05006031  0.04803647 -0.02956442  0.14913666  0.08346549  0.04447002
 -0.12544227  0.08358782  0.03121813  0.2832184   0.1127274  -0.05194716
  0.06140774 -0.28508732 -0.00425556  0.11819288 -0.30508977 -0.01795555
 -0.14497767  0.19051144 -0.1133754  -0.11743125 -0.01460678 -0.12653312
  0.05850547  0.3197677  -0.13339877 -0.14149855  0.12396159  0.12241141
 -0.29685518  0.15025073  0.29797676 -0.12322458 -0.09630968  0.25024864
 -0.12641688 -0.2564763   0.10499955  0.2824964 ]
[ 0.02161475  0.20099093 -0.36579043 -0.00498329 -0.3998044  -0.12721278
 -0.23409289  0.07679897  0.08511163  0.35107362 -0.13576715 -0.3521095
  0.1982617   0.21852815 -0.31533223  0.01255704 -0.06902104  0.11908947
  0.08793494  0.28232375  0.22912544 -0.04327415 -0.27431405  0.04587453
  0.12225106 -0.15092263 -0.34876087  0.25292736 -0.15968752 -0.2540063
  0.24480611 -0.33280697 -0.24965328 -0.04681805 -0.08684459 -0.34167022
 -0.28699827 -0.22460814 -0.37638035 -0.07103921]
[ 0.09907635  0.30326962 -0.08537945 -0.1470068   0.01664086 -0.23255704
 -0.09182075 -0.04975417 -0.2805403  -0.26046756  0.13804518  0.16549157
  0.03358265  0.13000943  0.01531331 -0.33104485 -0.10059117  0.10244638
  0.00782766  0.23009937 -0.25598022  0.02472745  0.12395986  0.22697249
  0.05534377  0.14434625  0.20108692  0.07833501  0.15215199 -0.08952888
 -0.29713306  0.4062096  -0.38417697 -0.295775    0.04101637 -0.21634461
 -0.2717417   0.06129725  0.21948767  0.20504196]
[ 0.26054665 -0.3229181  -0.09469993 -0.17071858  0.399101    0.06218379
 -0.00370013  0.21475314  0.01555131  0.14148222  0.1417303  -0.26409492
 -0.12547478 -0.19520496  0.19812746 -0.10820313  0.27418664 -0.1713983
 -0.33307     0.0434563   0.03939089 -0.12537214  0.3689527   0.15026668
 -0.12614593  0.16390742 -0.19020636 -0.0861553  -0.06829693 -0.08626607
  0.24252398  0.02306794 -0.11829534  0.05094137  0.06963992  0.15871665
  0.08313232  0.1765114   0.04619316  0.2774548 ]
[ 0.16699398  0.1938903   0.2674282  -0.14340039 -0.1125773  -0.23589222
  0.29690963 -0.27202877 -0.251816    0.24951227  0.2323662   0.01246883
 -0.15128724 -0.00887263  0.33055425 -0.07318246  0.2041726  -0.05256599
  0.28140426 -0.03650633 -0.00992896 -0.17636836 -0.18642081  0.12048406
 -0.27105382 -0.24715501 -0.01163775 -0.25529414  0.1353368  -0.21204756
  0.20585285  0.12436169  0.09992421 -0.01479278  0.08785515  0.13893098
  0.26526454  0.3217066  -0.02224878  0.17333475]
[-0.25496224 -0.33090577  0.28267255 -0.2514211   0.13929129 -0.08080593
  0.12790489 -0.12034915  0.06858271  0.24842629  0.12251799  0.26718986
 -0.12440912  0.28783822  0.15343723  0.09895885 -0.20049053 -0.17110598
  0.18109278  0.19958544 -0.21487175 -0.13556364 -0.05700267 -0.04679405
  0.32030755 -0.23310131 -0.09506019 -0.09385655  0.16300952  0.16402073
  0.0995267  -0.14515264 -0.06079916  0.12520914 -0.2913931  -0.1824364
 -0.2804412   0.31488878 -0.03037607  0.09173188]
[ 0.21565564 -0.07966707 -0.06449124 -0.15809436  0.29785144  0.2181316
  0.08336857 -0.24648815 -0.27564445 -0.31556225  0.22923027 -0.2545766
 -0.03939567 -0.06766482 -0.02731685 -0.12026763 -0.04319564 -0.30186504
  0.26610315 -0.0121703  -0.26745117  0.11773085 -0.08017121  0.09811654
 -0.18651992  0.04605712  0.22790767 -0.29552397  0.1263827  -0.15096769
 -0.14973989 -0.12965876  0.02354267  0.22373733  0.05034425 -0.26512268
 -0.25067577  0.12363531  0.19188194 -0.06144881]
[ 0.12485834  0.24108706 -0.10634918  0.31657043  0.19134644 -0.14546253
 -0.16615553 -0.07738343  0.31120756  0.01586702  0.12048187 -0.10490294
  0.0626265   0.27186897  0.06758127 -0.30225688 -0.27699944  0.25215524
 -0.30941966  0.19719425  0.01395611  0.1576834  -0.20126767 -0.02271849
 -0.18583864 -0.27428585 -0.2718297   0.01186664  0.24337673 -0.1375571
 -0.10606327 -0.3718148   0.05468069 -0.06975657  0.23206887  0.02859955
 -0.00860124 -0.1185605  -0.25226972  0.02306565]
[ 0.05279439  0.19928353  0.05019427 -0.21384212 -0.07498798 -0.26839268
 -0.06279693  0.21273534 -0.10577148  0.16595209  0.3282321   0.01488611
  0.11995018 -0.22559862  0.23029125 -0.16894431 -0.22665386 -0.06323159
  0.13438058 -0.3041545  -0.16152298 -0.12783144  0.0887137  -0.3512791
 -0.05218602 -0.28420955 -0.09738829  0.30406848 -0.08859051 -0.16708586
 -0.03718608 -0.34890315  0.04558433  0.13656695  0.1577925   0.03111548
  0.32766938  0.16756958  0.22815192 -0.00920964]
[-0.21014127  0.17806776 -0.15846215 -0.26870376 -0.3096144  -0.24192056
 -0.13759986  0.01379996 -0.01083475  0.10474904 -0.13263406  0.19260366
 -0.32516184  0.22005731  0.14914215 -0.06254847  0.13365816  0.21546538
  0.19587062  0.05480285  0.00315192  0.06819326  0.30685326  0.49696815
 -0.28697947 -0.14441822  0.2482489   0.2803696   0.05954042 -0.2521101
  0.06699207  0.10194019 -0.157522   -0.00633807  0.25308716 -0.03512149
  0.24424736 -0.16734885  0.12213618  0.11612784]
[ 0.19330168  0.19149561 -0.39059633 -0.20876859  0.3340964   0.27758923
 -0.3091059  -0.1428295  -0.04214578  0.260997   -0.08076926 -0.19891225
  0.14733595 -0.16639309  0.05085758 -0.20390218  0.12459246  0.06059891
  0.09975463  0.06653326 -0.16776119  0.27270415  0.02085066  0.23049732
 -0.13886566 -0.01745028 -0.18068293  0.38744816  0.02390703 -0.26009268
 -0.25041825 -0.24694653 -0.18793076 -0.16950604  0.42298895 -0.33708477
  0.19114852  0.09069534  0.16407798 -0.13251741]
[-0.26258555 -0.12138472  0.26356825 -0.05020654  0.32970154 -0.15140383
  0.1425401  -0.08933485 -0.11663421  0.09704892 -0.00697243 -0.15389639
  0.17829223 -0.3006637   0.17792298 -0.29811773 -0.34593722 -0.10897398
  0.11120488  0.07901077  0.1025013  -0.18437794  0.23462409  0.16278769
 -0.30008772  0.09245607  0.03056178  0.18612008 -0.2781233   0.03669748
 -0.0850473  -0.02597469  0.0696791  -0.31424177 -0.19572398 -0.29516593
 -0.00539416  0.16083194  0.16629876  0.22968806]
[ 0.08840044  0.04550044  0.19877867  0.26888844 -0.3584535  -0.30920267
  0.14345556  0.29950204  0.29079163  0.02748859 -0.30904824  0.11891717
 -0.1479564  -0.27059865  0.30702376  0.2322589  -0.01403832 -0.19191605
 -0.11998142 -0.31552258 -0.03351539 -0.07998368 -0.220302   -0.16200568
 -0.06090416  0.1384854  -0.22568013  0.16595659 -0.21283908 -0.04141662
 -0.12504034 -0.16451372 -0.25385016 -0.0077748  -0.33700144 -0.20077102
  0.17615639 -0.00235094  0.14600372 -0.06636096]
[-0.06589625  0.14793584  0.06307368  0.26567295 -0.22319399 -0.12854433
 -0.17656966  0.23923892 -0.02291138 -0.09763659  0.02606964 -0.4466387
  0.04165492 -0.2715329  -0.02243868 -0.23004086  0.20062375 -0.06517444
 -0.1612411   0.07805882  0.06174215 -0.12630355  0.25118595 -0.23782164
  0.22932635 -0.01579631 -0.19247401 -0.21596536 -0.29073173 -0.01946867
  0.02029308  0.09331402  0.06988116 -0.24999411  0.20317262  0.1784171
  0.04290388 -0.07100988  0.22553807  0.28117058]
[ 0.21862838  0.17694823  0.16859801  0.19730845  0.2899009  -0.13219136
  0.0854909  -0.29929346  0.04409561  0.07893136 -0.36801484  0.20084494
 -0.16912019  0.18737245  0.05506106 -0.06658663 -0.1563622  -0.19008833
 -0.11858314  0.23656066 -0.21934412  0.11643924 -0.2839238   0.37774956
 -0.27449512  0.24786487 -0.13229766  0.21888445 -0.08894891  0.47724044
  0.12635809  0.33505628  0.36246145  0.36051714 -0.3900224  -0.06005439
  0.06669694 -0.05417202 -0.21716228 -0.21293984]
[ 0.14339261  0.01046567 -0.15211119  0.12597445  0.157102   -0.24551027
 -0.07780453 -0.33800077 -0.1790336   0.13234429  0.04598036 -0.2189213
 -0.00083583 -0.3304292   0.06859409 -0.12072667 -0.2982695   0.25895572
  0.17108862  0.0058651  -0.01194546 -0.2683321  -0.19135275  0.15551789
 -0.10079822  0.08088763  0.22939014  0.10215539  0.28203157 -0.20439214
 -0.23783427 -0.33717203  0.11942947  0.29314733  0.15827172 -0.20416486
  0.26682842 -0.21390715  0.28706473  0.00284383]
[-0.0687779  -0.18975367  0.18533505 -0.3332537  -0.11976373 -0.08198678
  0.20099053 -0.2881454  -0.08244086 -0.07707207  0.31614602  0.3736706
 -0.22053924  0.28684685  0.3710049   0.1671348  -0.30937925  0.11883758
 -0.11791065 -0.03088438  0.0922187  -0.18830416  0.01259256 -0.24118644
 -0.21209502 -0.08912927  0.3055453   0.0850243  -0.13716866 -0.05334223
  0.11571652 -0.156966    0.04345521 -0.08995266 -0.05274513 -0.2570083
  0.24472536  0.28416333 -0.12233497 -0.02458515]
[ 0.14464512 -0.07728706 -0.09961812 -0.12799126 -0.21237102 -0.26659682
 -0.31564534  0.06145922  0.0361858   0.33404052 -0.2289386   0.11157163
 -0.1906463   0.08416399  0.26513824  0.08271743  0.3356781   0.3231527
  0.10022719 -0.32736057 -0.10879726 -0.15548302 -0.26734585  0.21240401
 -0.03509444  0.17511572  0.3296484   0.10442706  0.16203456  0.4279748
 -0.228216    0.03291342  0.02411625  0.13930938 -0.26754045 -0.01547238
  0.26566973  0.36967483  0.2510485   0.1494178 ]
[ 1.21413171e-01 -1.97667405e-01 -2.96124141e-04 -8.40204209e-02
 -4.30882156e-01 -4.55116779e-02  2.16426224e-01  3.16568725e-02
 -7.13372752e-02  2.31018707e-01  2.52376437e-01 -3.49820912e-01
 -7.84481093e-02 -7.38323331e-02  6.51284531e-02 -3.48813623e-01
 -2.79489160e-01  6.19664304e-02 -3.01811248e-01  7.93828741e-02
 -7.85992667e-02  2.83633977e-01  1.88365713e-01 -7.23295733e-02
 -2.21207999e-02  2.34285370e-02  7.61870891e-02 -1.43589243e-01
  1.57882243e-01 -1.12101495e-01 -1.27574518e-01  1.54353306e-01
 -3.30843121e-01 -6.71940744e-02  2.12983131e-01  1.23044670e-01
 -1.48492187e-01 -3.42910349e-01 -7.79340640e-02 -1.94220245e-01]
[ 2.7460504e-02  3.5780758e-02  3.8752526e-02 -1.8500160e-02
  7.9282410e-03  6.3719475e-03 -1.5700728e-02 -9.4117606e-03
 -2.6004685e-02 -5.8980333e-03  1.7937280e-02  7.3241875e-02
 -7.2105035e-02 -1.0862937e-02  3.2397166e-02 -4.9754746e-02
 -3.0486971e-02 -3.5407364e-02  6.8013787e-02  5.3198175e-03
  2.1714998e-02 -2.5691945e-05 -1.7496072e-02  8.6930484e-02
 -6.1491719e-03  1.0804834e-01 -5.1848176e-03 -1.4415821e-02
  8.1317611e-03 -3.0677766e-02 -1.8961353e-02  1.4200149e-01
  7.7072559e-03 -3.3917796e-02 -1.7944030e-02  3.1691371e-03
 -1.9044079e-02 -1.2328473e-02  4.3804061e-02 -1.1139843e-03]
layer 3 Activation
tanh
layer 4 Dense
40 20
[ 0.02677656 -0.30684754  0.05458969  0.27690408 -0.19813225  0.02574015
 -0.2079153   0.19902398  0.01565919 -0.30823702  0.29694644  0.19615155
  0.19915219 -0.16235656 -0.29427555  0.02789879 -0.3385758  -0.18315491
 -0.22130021  0.05852391]
[-0.16929315  0.14965433 -0.3217343   0.16747126 -0.13563846  0.06314223
  0.15663277  0.14401913  0.10364671 -0.16308852 -0.19502258 -0.04027125
  0.09260165  0.37114996  0.03945941 -0.06571997  0.26888996 -0.12126167
  0.2122824  -0.08616178]
[ 0.12965144 -0.1821881   0.1407848  -0.3393474   0.02477762 -0.21404861
  0.17779504  0.10978667 -0.10490421  0.0288783  -0.12451419  0.17015752
  0.23909207 -0.187692   -0.10501931  0.2238592  -0.13666171 -0.23533446
  0.00380553 -0.25505447]
[-0.09122645  0.02719561  0.02961205  0.03646864 -0.34555754 -0.06585843
 -0.18735579  0.03891339  0.1393442  -0.10761026  0.00163143  0.4315796
 -0.16692223  0.2545469   0.2632643   0.11764313  0.02292553  0.29207107
  0.0465955   0.06727938]
[ 0.13068976  0.23833011  0.35745364  0.09185735 -0.22545923 -0.19323221
  0.25986332  0.18257788  0.04664344 -0.09357499 -0.29286394 -0.14483948
 -0.19540992  0.05778082 -0.06734551  0.01204051 -0.30181363  0.21642625
 -0.00343604 -0.33472595]
[-0.21748877 -0.29325297 -0.00296621  0.00306483 -0.05840422 -0.19494143
 -0.08191278  0.2280363   0.05478691  0.00629221  0.1848583  -0.05632379
 -0.3074733  -0.26189858 -0.10804396 -0.2082968  -0.2635312   0.15906154
  0.10989338 -0.32799765]
[-0.09275975 -0.24919021  0.22657661 -0.22433397 -0.267149    0.30348238
 -0.18045257  0.04402641  0.10668937 -0.23728038  0.08499848  0.13815795
  0.27495813  0.24392983  0.01899436  0.09032708  0.12767145 -0.11870993
 -0.08561536 -0.22135183]
[-0.15064138  0.21545856 -0.32607135  0.24055612 -0.26687282 -0.17524792
 -0.00425953 -0.11014266  0.13888818  0.02028008 -0.12102783 -0.07252467
 -0.19017553  0.19185522  0.22994882 -0.21105048 -0.00605269 -0.0719595
  0.3210106   0.18253063]
[-0.00120117 -0.22788472  0.04910954  0.24416485  0.26976493 -0.28278738
  0.02597551  0.23350762  0.27642608  0.27102306 -0.1003713  -0.02546815
 -0.14289354 -0.17091024 -0.03314116  0.00031901 -0.15532905 -0.21493441
 -0.25750348  0.00925568]
[-0.2157303  -0.23899041  0.07294162  0.1012385   0.21391714 -0.20896155
  0.01381499 -0.25422615 -0.06630358 -0.11688847 -0.02529628  0.21108185
  0.22288173 -0.16511527  0.01612527  0.16457035  0.04674986 -0.29492813
  0.25346577  0.2778626 ]
[-0.10571553  0.02095348 -0.24282317  0.03003184  0.29681715  0.15627752
 -0.13593058  0.12772773  0.17745854  0.04382849 -0.00121892 -0.01684082
  0.21063119  0.17291781  0.11627265  0.19248112  0.13429295  0.23528542
  0.26137704  0.06826298]
[ 0.2873671  -0.00547472 -0.03017665  0.01962059 -0.24042153  0.30056512
 -0.12629662  0.1497888  -0.0449562   0.10608158 -0.00709178  0.25824496
  0.30972403  0.01747704 -0.30190888 -0.34444645  0.20442092 -0.29459527
  0.03369265 -0.1991255 ]
[-0.16738507  0.28270504  0.09306537 -0.19911176 -0.28207126 -0.18433423
  0.17776576  0.2225921  -0.01222335 -0.33196792  0.02703247  0.0620627
 -0.2996805   0.08359045  0.2982145  -0.05004838 -0.2647289  -0.0748544
 -0.07884948 -0.00527507]
[ 0.23185991 -0.21910791 -0.30712906  0.16243428 -0.28165102 -0.01840376
  0.1811659   0.13944021  0.24339299 -0.08386772 -0.17650096 -0.00164635
  0.06545057  0.11949068  0.2263711   0.14885402 -0.27362797 -0.2478669
 -0.30221567 -0.13010943]
[-0.09792485 -0.08366884  0.00270745  0.06491192 -0.01551496 -0.30203035
 -0.10528271  0.02514597  0.20748283  0.3332778  -0.2348882   0.1455424
  0.28473338 -0.3211023  -0.21241967  0.04490556  0.18948796 -0.15858315
  0.24490371 -0.23405877]
[ 0.13238978  0.04969893  0.13028039  0.01810364 -0.09695887 -0.16881496
  0.25973275 -0.1013454   0.2633757   0.0787985  -0.06313969  0.2861661
  0.17820641 -0.06173768  0.18142053  0.2068342  -0.2106637  -0.1319912
  0.08389089  0.07392511]
[-2.7578732e-01 -1.7597912e-02  1.6478342e-01  2.0840064e-01
 -1.5913802e-01  3.6657479e-02 -2.0377952e-01  1.9684830e-04
  2.8186101e-01  1.9817868e-01 -1.5812440e-01 -1.4277230e-01
 -6.6039008e-03 -3.3282939e-02  1.1048001e-02  1.8765754e-01
  5.2408569e-02 -7.8444824e-02 -2.5853252e-01  1.4133732e-01]
[-0.32320362 -0.23735397  0.16905244 -0.14842638 -0.0753122   0.24496263
 -0.10329234 -0.14495917  0.21997613 -0.28764948  0.0952916   0.1706013
  0.31397274  0.07650024 -0.15352558 -0.17539522 -0.12170698 -0.06794167
  0.21064007  0.31941187]
[ 0.00869032  0.15092762 -0.27147415 -0.19659576 -0.13217689 -0.23245412
  0.20727809 -0.33494458 -0.12232347 -0.08583526 -0.24251717  0.11304905
  0.12666908  0.07053802 -0.01436533 -0.2304818   0.03107912  0.08716085
 -0.2395909  -0.27750513]
[-0.19411753 -0.18331505 -0.2520611  -0.20254937  0.06238072 -0.00858186
  0.22807278  0.26104927 -0.19795711 -0.25296527  0.10237373  0.22852683
 -0.15690003 -0.03380944 -0.07083767 -0.13221537 -0.05631321  0.04847059
  0.3152056  -0.11995446]
[ 0.14759284  0.08060349 -0.12688547  0.06615929 -0.09652565 -0.11231179
  0.23062587 -0.13749003 -0.12252326 -0.27149078 -0.00939211  0.37232924
  0.10037252  0.22099485 -0.14579324  0.18138294  0.3475348   0.2840362
 -0.34171197 -0.19969861]
[ 0.10154008  0.14063336 -0.23323467 -0.021447    0.10828093  0.24870461
  0.03264713 -0.03230252 -0.01120332 -0.2837402  -0.21058509 -0.00704615
 -0.15852226 -0.13427474 -0.1406121  -0.00046864  0.16929738  0.18762834
  0.17741424 -0.168423  ]
[ 0.06378717  0.13293767 -0.03300459 -0.27330673 -0.05854514  0.2908147
 -0.1815993   0.02159743 -0.01022925 -0.01413507 -0.27044353  0.20768471
 -0.08795352 -0.12550436 -0.18010587  0.10080992  0.23738045  0.15945463
  0.00455549  0.2951132 ]
[-0.09692391  0.29045197  0.3014479  -0.33281454  0.20727983  0.21066481
  0.258524    0.10533585 -0.34274954 -0.31432143  0.26846653  0.04119906
 -0.24574387 -0.11503582 -0.2708333  -0.15452883  0.1336438  -0.2450572
  0.04068231  0.19825508]
[-0.19579609  0.0821894  -0.133253   -0.06552512  0.07659204 -0.03476936
 -0.15292479 -0.23621975  0.23975053 -0.18716514  0.18160942 -0.14070435
 -0.09258417  0.31534624  0.37664372  0.00910574  0.00657045 -0.24136062
 -0.02823551 -0.07870653]
[ 0.10932085  0.10683889 -0.26769933 -0.16949771  0.26738128 -0.17881002
  0.04562076  0.09898251 -0.09232203 -0.258019   -0.10450707 -0.13267966
  0.34431303  0.20072542 -0.06513021  0.1493529   0.11848488  0.24632984
 -0.12015508  0.03483891]
[-0.10525954 -0.07793437 -0.08619229  0.146784    0.16788697 -0.02829137
 -0.02695172  0.03139569 -0.17533933  0.22890633  0.14183387  0.05676221
  0.10367157  0.00972865 -0.2947113  -0.20733255  0.03297367 -0.14892718
  0.03505829 -0.10057817]
[-0.05538046  0.20086412 -0.1251733   0.1903361  -0.18027376  0.04098879
  0.27331808 -0.03834765  0.17423804  0.06183086  0.18219216 -0.11353631
  0.03527037  0.13078123 -0.08069985 -0.24502803 -0.13427287  0.30092934
  0.02873572  0.17724055]
[-0.09852768  0.06384411 -0.03463454 -0.287412   -0.04152968 -0.07516813
  0.0488978   0.19666827 -0.04798957 -0.12763242 -0.14631215 -0.01429462
  0.10580623  0.16572101 -0.31342915  0.10131541 -0.00736269  0.12118955
  0.26242554  0.0335661 ]
[ 0.36537984 -0.23238066  0.0474125  -0.14620517 -0.19203858  0.2771122
 -0.21036988 -0.1464872  -0.18776903 -0.15250412 -0.22737098 -0.03958525
  0.31073457  0.02758395  0.04576061 -0.06838731 -0.1725972  -0.23522466
  0.340195   -0.25309065]
[-0.3299387  -0.1847402  -0.0708083  -0.19269817  0.2171989   0.12859985
  0.15395361 -0.02643816  0.12595117 -0.12416211 -0.04015934 -0.30437946
 -0.08624271  0.11263192 -0.13448527  0.31178603  0.32051626 -0.31155276
 -0.05255332 -0.18992   ]
[ 0.29860738 -0.17800489  0.20849892 -0.29899272 -0.13922334  0.04584014
  0.0132652   0.02089541 -0.23487656  0.13203672 -0.08514113 -0.1838774
  0.0806353  -0.09098181 -0.04220065  0.01473475  0.33292672 -0.15156339
  0.06137735  0.06131562]
[-0.2954516   0.32439795  0.06350961 -0.16210073 -0.20823775 -0.17731707
  0.08108237 -0.2639057  -0.3671409   0.26458982 -0.05498311 -0.11508191
  0.3088289  -0.2294329  -0.24817885  0.2927065  -0.03120457  0.07790045
  0.19309892 -0.251836  ]
[-0.1398607  -0.06400193  0.03921292 -0.13989498 -0.10273606 -0.26631513
  0.09610538 -0.20576917  0.1924729  -0.01313747  0.12542534 -0.05496687
  0.35356256 -0.28626722  0.07607216 -0.13441211  0.09168144 -0.24252199
 -0.19777985 -0.19378631]
[-1.4874589e-05 -2.3200402e-01 -1.8802543e-01  1.7797537e-01
 -2.0641078e-01 -2.0801382e-01  2.6687694e-01  1.0586741e-01
 -6.4583160e-02  3.3890791e-03 -2.1474753e-02  6.5855277e-03
 -1.9439678e-01  2.6275891e-01  5.4196082e-02  2.2268705e-01
  4.5932889e-02  9.9351972e-02 -2.3617347e-01  1.4417848e-01]
[-0.24841368  0.3436382   0.09881192 -0.06263019 -0.19093245  0.01618925
  0.12815592 -0.14235559 -0.02433822  0.11468719 -0.16277161 -0.12259106
  0.06884193  0.01681214  0.06336375  0.2809646   0.06525169 -0.02862495
 -0.19730845  0.18607272]
[ 0.05348412 -0.00910508  0.22716412  0.36393943 -0.32924566  0.14021766
  0.1095136  -0.00820401  0.2189687  -0.09398482 -0.24422723 -0.20865221
  0.32491422  0.03685786 -0.27638164 -0.28550655  0.22312881  0.3160699
  0.24251264  0.01331665]
[ 0.26184204  0.19410504  0.32862565  0.341308   -0.07693607  0.1620877
 -0.05475541 -0.29183245 -0.29764518  0.20620428  0.20738882  0.13999133
 -0.18463309 -0.14441448  0.02084757  0.02831829 -0.07197987  0.16476056
  0.12608866  0.00976286]
[ 0.00481372  0.2370904  -0.1461883  -0.01682169 -0.19049343 -0.2289268
 -0.12331659  0.05142727  0.08026659  0.28225496 -0.11174175 -0.34497303
  0.24859026 -0.17649913 -0.3810608  -0.23076494  0.14107706 -0.24981232
 -0.06107244  0.21860097]
[ 0.26853332 -0.21692978  0.3091739  -0.11214009  0.09788196  0.0235796
 -0.16987275  0.19694553  0.14758402  0.19394629 -0.28921956  0.04577727
  0.09753189  0.17520875 -0.07706723 -0.0613945   0.04600325  0.05270696
 -0.1183797   0.00226686]
[ 0.02492918  0.01945911 -0.00936275 -0.02613873 -0.00648271 -0.00269171
  0.01524882  0.00790049 -0.02100759  0.00272948  0.00556037  0.01101364
  0.0258239  -0.00370906 -0.0303368  -0.03116747  0.00447233  0.01174303
  0.01730896  0.01274848]
layer 5 Activation
tanh
layer 6 Dense
20 1
[-0.36236966]
[-0.14144629]
[0.29760495]
[0.40861544]
[-0.03226355]
[0.02112882]
[0.01988634]
[0.09841273]
[-0.445146]
[-0.07532143]
[-0.3389841]
[0.00947601]
[0.3926933]
[-0.13759804]
[0.2194407]
[-0.21610822]
[0.05450302]
[0.20191836]
[-0.08357476]
[0.31330043]
[0.00546018]
