layers 7
layer 0 Dense
24 20
[-0.64363986  0.7450638  -0.826285   -0.65927094 -0.6117521  -1.0959353
 -1.9104639   0.6809759   1.7257957   1.1412913  -1.475099    0.06998751
 -0.8027306   0.72093815  1.321787   -1.9113065  -1.3517923   0.21686123
 -0.34174573 -1.6640211 ]
[-0.5615275   0.6847931  -0.39024618 -0.36142847 -0.26137224  0.2581594
 -0.22521728 -0.14050958  0.6643891  -0.02984584 -0.6886966   0.11328494
  0.16040821  0.47194287  1.0862739  -0.6280705  -0.8856279  -0.2295994
 -0.6717381   0.1741517 ]
[-0.41118178  0.6457146  -0.35091245 -0.55949855 -0.9140801   0.21498753
 -0.14050937 -0.24897614  0.887651    0.5942955  -0.12661831  0.13391551
 -0.23201178  0.4109583   1.0125579  -0.4140976  -0.576312   -0.17815067
 -0.2854276   0.38756126]
[-0.7559777   0.84637797 -0.50378036 -0.08308583 -0.7568503  -0.40226066
 -0.5777698   0.56666327  1.2234204   0.43637282 -1.1991029   0.23254333
 -0.21293452  0.03040146  1.3428553  -1.2145394  -1.0097463  -0.16636549
 -0.8600747  -0.65313596]
[-0.01167474  0.00609825  0.2154976  -0.8434834  -0.14196442 -0.6928755
 -0.7333965  -0.03139811  1.172174    1.0983402  -0.99134564 -0.99934036
 -0.85916305  0.40744928 -0.03372582 -1.0212911   0.15061843  0.4331196
 -0.12996858 -1.4342687 ]
[-0.25272945  0.01899112  0.13481268  0.08089395 -0.32977405 -1.056792
  0.4663268   0.6628467   0.03760986 -0.08778249  0.36981913 -0.14583172
  0.48317087 -0.43312487 -0.26380593  0.22024211 -0.16897859 -0.9000793
 -0.13423619 -0.18591769]
[-4.0545297e-01  4.4084573e-01  1.9982629e-01  3.8140097e-01
  2.9291376e-01 -1.0416999e+00  3.2046932e-01  8.8583988e-01
  1.2937327e-01  4.1457757e-02 -7.1109518e-02 -5.8184034e-01
  1.5780200e-01  2.4286816e-01  4.7696941e-02  2.2329755e-04
 -8.6159515e-01 -6.6836530e-01 -8.1161626e-02 -3.3913356e-01]
[ 1.3720965  -0.8380902   0.8939213   0.8957722   0.98115385  1.0352355
  1.1107181  -0.724757   -1.5738983  -1.3751459   1.3272337   0.47366926
  0.9689401  -0.902579   -0.8151665   1.8090214   1.867252    0.4459931
  0.4773965   0.8445793 ]
[-0.09684071 -0.5367606  -0.00729417 -0.30431566  0.18828033 -0.2850764
 -0.69866425 -0.03857372  0.8910152   0.9186928  -0.643573   -0.30044028
 -0.21058333  0.09112053 -0.03776587 -0.5496265   0.35021076  0.87464726
  0.01081493 -0.72786754]
[ 0.03023918 -0.5297055  -0.01793178 -0.17101437  0.29808548 -0.1271074
 -2.90505    -0.09218241 -0.22331148 -0.15494445  1.5765246   0.59173685
  0.03097109  0.1564466   0.22754838  0.04474146  0.20410636 -0.56097776
  0.13705148  0.06281686]
[-0.02814785 -0.0969106  -0.22849645  0.24443728  0.22794524 -0.5666802
  0.11115062  0.1262865   0.6252069   0.43246552 -1.2416272  -0.08540016
 -0.46813655  0.06637634  0.23693684 -0.48571345 -0.20439291  0.62101245
  0.09733951 -0.58348906]
[ 0.56027776 -0.69783837  0.7680442   0.55413526  0.99436665  0.26508167
 -0.46638158 -1.0112687  -2.6516235  -0.9683474   0.41701493  1.1890558
  1.001308   -0.7541361  -0.05155646  2.6958542   1.2673451   2.2347507
  0.80284166  0.750008  ]
[-0.02575589 -0.62777305  0.47836348 -0.02465246  0.01531766 -0.34102696
 -0.6615566  -0.08271113  0.01957285  0.47199538 -0.42264295  0.14842907
 -0.3423376   0.45822993 -0.23075888 -0.67155385  0.40174833  1.3307611
  0.31290585 -1.0438342 ]
[ 0.03792537  0.0690695  -0.3329623   0.5084424  -0.03665715  0.48181686
  0.61160934 -0.02801388 -0.48466772 -0.21845992  0.250922    0.749737
  0.65418917 -0.34089878  0.05197567  0.48571208 -0.7453157  -0.34006304
 -0.03550901  0.29896006]
[ 0.1895265  -0.13524775 -0.22428098 -3.9645283   0.28760776 -0.65024173
 -2.5097446   0.20723778  2.5802567  -2.227967    6.307492   -5.7248373
  1.260003   -1.922171   -4.4579806  -0.11077533 -2.1850922   1.3391778
  0.01968991  3.8399029 ]
[ 1.174896   -0.1770347   0.5792779   1.9107492   0.73999363  1.0806677
  1.0340561  -0.8958487  -2.8696063  -1.2844192   1.7102828   2.258797
  1.240035   -1.7042264   0.62463677  2.9135416   1.6237286   0.96383625
  0.5680843   1.370211  ]
[ 0.14888598 -0.02857598  0.38798887  0.21330696  0.34871227  0.10395532
 -0.21632698 -0.07441821 -0.61441475  0.14273618 -0.16739209  0.37811202
 -0.4414698   0.36617997 -0.01066523  0.03609433  0.9082132   0.02302604
  0.42655954 -0.15331152]
[ 0.03193343 -0.408845    0.26181448  0.07661462  0.23429444 -0.5100854
 -0.0172575  -0.06092755  0.2962681   0.6642578  -0.6332314  -1.1188943
 -0.44471133  0.45567766  0.02369357 -0.4932695  -0.0083887   0.9856383
  0.18733974 -0.06983112]
[ 0.19649933  0.07093238  0.04844747  0.7017934   0.0227839   0.514417
  0.18399246  0.19633088 -1.1156944  -0.4990661   0.02317287  0.81353545
  0.60385203 -0.72947013  0.3834871   0.83676404  0.26498786 -1.6723653
 -0.15386593  0.8251526 ]
[ 0.4421813  -0.7855178   1.0840472   1.2412783   0.5888968   1.160437
  0.2664611  -1.0474279  -2.3406825  -0.53090674  1.6095551   1.5973554
  0.4236494  -0.47587743 -0.33924037  1.8704062   2.0077143  -0.16890606
  0.7021754   0.4806065 ]
[-0.1365472  -0.534347    0.46333984 -0.2783177   0.45434716 -0.08254737
 -0.65566844 -0.26738     0.49814126  0.37240392 -0.5291569  -0.17293717
 -0.43860114 -0.03823777 -0.46480787 -0.35163924  0.35231906  0.72248286
  0.48316237 -0.55496407]
[-0.29912683 -0.18402888  0.15198791 -0.27331704  0.2884619  -0.5360225
 -0.62408334 -0.07422142  0.5708403   0.9058184  -0.94557726 -0.13379224
 -0.48478016  0.5108289   0.23963602 -0.6798161   0.44330436  0.8328125
  0.10082105 -0.37662345]
[-0.4601324  -0.03962825  0.2909313   0.07029559 -0.09949676  0.09352049
 -1.6596894   0.33603156  1.0446204   0.8427557  -0.40069553 -0.19215405
 -0.9441524   0.65129584  1.5140178  -0.9231728  -0.30342796 -0.28666273
 -0.05907798 -2.8510766 ]
[ 0.40004483 -0.10334767  0.15005872 -0.24505496 -0.02687947 -0.28301278
  0.0485849  -0.57020354 -0.23386428 -0.26183453 -0.36407954  0.02436957
 -0.1995608   0.05219046 -0.43000886 -0.02333803  0.66544867  0.49483994
  0.5959499  -0.3866503 ]
[-0.55069137  0.42245823 -0.51594424 -0.15249054 -0.40000167 -0.33222762
 -0.20857778  0.40378726  0.5464669   0.28904074 -0.31626174  0.0195517
 -0.06739366  0.20140539  0.5585196  -0.55385995 -1.0627292  -0.59875107
 -0.5560397  -0.18062302]
layer 1 Activation
tanh
layer 2 Dense
20 40
[-0.45481643  0.10342972  0.4550572  -0.02089597  0.3804221   0.70608103
  0.02979667 -0.4566942  -0.05369157 -0.28897572 -0.49539146  0.284455
  0.5174783  -0.29134712 -0.7533016  -0.51759505 -0.8730978   0.30184454
  0.04990924  0.42912513  0.65250915  0.2873761   0.06532913  0.20150246
  0.54998565  0.05632186  0.14888605  0.24399854 -0.823967    0.5239956
 -0.4394376   0.3442279   0.82565105 -0.5267587   0.23597613  0.26247472
  0.3440089   0.22986202  0.09811182 -0.3507637 ]
[ 0.62154293 -0.33433884  0.04818963  0.08008491 -0.465086    0.15631047
  0.02782248  0.9502147   0.0078784   0.18186815 -0.2581979   0.26139164
 -0.8695356  -0.01058458  0.5165992  -0.09192342  0.87174106 -0.00480364
  0.1125055  -0.24736887 -0.33622557  0.01005016 -0.7229894  -0.12164696
 -0.92506593 -0.14598484 -0.0177634  -1.3114654   0.86181986 -0.5140859
 -0.11153737 -0.53685427 -0.36930463  0.6889886  -0.65441954  0.02778154
 -0.1535657  -0.09746096 -0.48374787  0.29250297]
[-0.57817835  0.41271287 -0.0837267  -0.33517623  0.39579636  0.32277802
 -0.17632617 -0.16750075  0.3975728  -0.38313723 -0.02963579  0.42246598
  0.82138115 -0.44307914 -0.41232693 -0.4575689  -1.012646    0.1037749
 -0.09301553  0.27749085  0.5215609   0.46013203  0.40703076  0.444681
  0.94223225 -0.01815058 -0.31997073  0.22586825 -0.2288194   0.3099617
 -0.6655171   0.6966285   0.8939278  -0.1636215   0.06524321  0.27059576
  0.07162863  0.62089854  0.30623507 -0.542623  ]
[ 0.14277129  0.42502546 -0.45681575 -0.17935792  0.7064912  -0.04547673
 -0.27643758  0.8456722   0.81169325  0.16136573  0.6362881  -0.6862007
  0.07472504 -0.5920582   0.12659241 -0.0038099   0.07775649  0.5691695
 -0.59354705  0.18308856 -0.16108146  0.46914476 -0.23579167  0.22609228
  0.07122409  0.0185155   0.18037738  0.72395486  0.31722844  0.16413051
  0.7470257  -0.3350785   0.50760543 -0.40795058  0.5236369   0.01676167
  0.24400209 -0.13030957  0.24058785 -0.78210974]
[-0.630644    0.0136015   0.08648953  0.46866187  0.35823148  0.09378578
 -0.1868542  -0.38155457  0.23765163 -0.5385811   0.3508638  -0.05888428
  0.508731   -0.14311129 -0.55462885  0.17712136 -0.6101717  -0.05251194
 -0.02372364 -0.05273865  0.04287011  0.40389112  0.73044014  0.02545227
  0.6649131   0.61473316  0.14926255  0.67978007 -0.49392515  0.413129
 -0.23292889  0.13845262  0.4416733  -0.37083614  0.48819545  0.15423214
  0.25663567 -0.1673539   0.6411687  -0.31947526]
[ 0.25262797 -0.4463522   0.12864776 -0.01708715  0.55359936  0.3659147
 -0.2814527   0.21101357 -0.25198278 -0.17552707  0.35126927  0.04449927
 -0.32054594 -0.58940995  0.08674239  0.2514592  -0.26347157  0.03969669
 -0.09067321  0.2398274   0.37192497  0.38340196 -0.5004311  -0.2188109
  0.12527171 -0.53430575 -0.10912497 -0.16320984  0.11336479 -0.12729312
 -0.16574866 -0.02996584  0.45116782 -1.1060039   0.6861563  -0.1912294
  0.29312095 -0.17079407  0.05792322 -0.62749225]
[ 0.7457293   0.6386269  -0.5331744  -0.5939803   0.56766343  0.6207561
 -0.29479027  0.70049924  0.84615004 -0.38034606  0.522663    1.0014173
 -0.6560238  -0.08161147  0.2933383  -0.3362829   0.15889083  0.3502966
 -0.5470344   0.72645575 -0.31240517  0.37726772  0.26815274  0.53631574
  0.02033628  0.9609155   0.19428939 -0.26823038 -0.14801903 -0.13466406
 -0.4365964   0.41408762 -0.1408027   0.09639587 -0.4980607   0.48804817
  0.6230505   0.95844406  0.44217643 -0.37228528]
[ 0.5079262  -0.21894065  0.18790556 -0.26287812 -0.41121107 -0.00272663
  0.08169254  0.36718008 -0.21148463  0.11991743 -0.7443204  -0.4457706
 -1.0147172   0.32937366  0.7608113   0.23755173  0.15216991 -0.23812404
  0.30484655 -0.14985782 -0.24180582 -0.5255452   0.21290548 -0.5780967
 -0.66800076  0.01206111 -0.12334687 -0.595882    0.7780231  -0.69667476
  0.39726228 -0.42832997 -0.02885374  0.10289028 -0.18613149 -0.30342296
 -0.1930816  -0.28174585 -0.5596308   0.48604295]
[ 0.39100626 -1.7924639   1.8084666   0.70156217 -1.6799325  -1.1626819
  1.7197824  -0.04978086 -1.8064427   1.259884   -1.6646473  -0.21606964
  0.29634732  0.6119986  -0.28394902  1.9578086   0.60039747 -0.47280234
  1.337822   -0.99544305  0.31725147 -2.068485   -0.5057297  -1.8514484
 -0.8517329  -2.153685   -0.18956545 -0.94095975  0.66285133 -0.32211563
  1.6428083  -0.6018409  -0.9006759   0.62493604 -0.6393715  -1.6876411
 -2.0452938  -1.9655668  -1.4516926   1.888856  ]
[ 0.5976943  -0.13662277 -0.3608841   0.349055   -0.8080021  -0.221256
  0.14799657 -0.00681975  0.57425535  0.1074829  -0.25131646 -0.23015583
 -0.34810475  0.6373916   0.05066848 -0.04574106  0.61227155 -0.45128754
 -0.76434886 -0.40343618 -0.6436963  -0.36920455  0.07260663 -0.658897
 -0.23783182  0.45515123  0.05126598 -0.06973314  0.4119486   0.34836972
  0.7827187  -0.27506664 -0.9345624   0.36421126  0.85425544 -0.02854827
 -0.3207222  -0.24184257 -0.04994723 -0.08863803]
[-0.47728142  1.2656493  -0.6414503  -0.64391506  1.4309815   1.1339796
 -1.7596918  -0.27750865  0.64862996 -0.95725435  1.5143172   1.7702016
 -0.31945258 -0.03658233  0.5575412  -1.4321817  -0.22475928 -0.05160784
  0.7595203   1.1726277   0.6035144   1.5118653   1.1745452   1.5258268
  0.5090353   1.8509824  -0.01905444 -1.1127636  -0.40656918 -0.7180406
 -1.8766512   0.7207749   0.72423345  0.34428433 -1.5917581   1.3061409
  1.4619589   1.2597679   1.1844491  -1.6902604 ]
[ 0.26148313  0.6156849  -0.8680053  -0.80836445  0.966357    0.46337283
 -0.62965953  1.2403505   0.92047787 -0.15380262  0.59300244 -0.13314462
 -0.96548355 -0.27809635  0.27277437 -0.9996942   0.24387749  0.32656124
 -0.65875673  0.99826264 -0.23410924  1.0813516  -0.12449836  0.6124947
 -0.34278256  0.7814691  -0.06520717  0.00211814  0.20860799 -0.49346355
  0.3095279   0.21265069  0.5089255   0.20700942  0.1779262   0.91544193
  0.9750601   1.0806811   0.08017576 -0.57633924]
[-0.06603343 -0.3108654   0.6072381  -0.60453206  0.029855   -0.09543648
 -0.10244554 -0.15584742 -0.11813118 -0.34679076  0.48402885  0.04138644
  0.7543095  -0.9708017  -0.29382703  0.5084764  -0.51373225  0.4963545
  0.15584669  0.76528263  0.8727253   0.18579026 -0.78530777  0.09998705
  0.31351414 -0.01368017  0.26849848  0.20892517 -0.22315115  0.01663366
  0.16534418 -0.12690201  0.7331276  -1.0517871   0.14743653 -0.09391068
  0.20670097 -0.31049895 -0.40564167  0.23050128]
[-0.8611162   0.11171558 -0.15628834  0.42200524 -0.62436396 -1.2085518
  0.2756747   0.2529538   0.20844728  1.1958721  -0.26383     0.09599715
 -0.87475824 -0.38087687  0.63570046  0.1266382   0.5606102  -0.9836656
 -0.4170606  -0.6560809  -0.8385138  -0.42158002  0.7117669  -0.48289913
 -0.6792048  -0.16351151 -0.77524155  1.2671885   0.7025681  -0.70980006
  0.22328795 -0.5087055  -0.506038    1.2822007  -0.12487811 -0.05713587
 -0.45340905  0.04584077 -0.44380465  0.47852382]
[-0.1535559  -0.53714645  0.55960083 -0.3818908  -0.11630319  0.5726232
 -0.24885441 -0.1484972  -0.37232718 -0.024241    1.0411136  -0.63968754
  0.40984046 -0.56345654 -0.2346438   0.9475184  -0.614891    0.97319853
 -0.9153426   0.7252361   0.6235316  -0.7327539  -0.54670364  0.20013498
  0.7746296  -0.32612094  0.7982507   0.08771449 -0.50818807  0.27451465
  1.263861    0.8436088   1.1063931  -0.6346843   0.966108    0.32113147
 -0.34512392 -0.6329785   0.16263089 -0.00270333]
[-0.12814613  1.9163808  -1.824168   -1.2223048   2.090912    1.6867366
 -2.0000036  -1.1219004   1.9368393  -1.7171385   1.1775595   1.272287
  0.3971686  -0.61906105 -0.09608068 -1.4087044  -0.8522319   0.75283116
 -1.2854766   1.2426795   0.54626125  1.8616283   0.13549459  2.0064018
  1.1923069   1.7042207   0.4920274   0.5114267  -0.76626915  0.4201249
 -2.4056482   0.7432442   1.4561727  -0.6161058  -0.46241948  1.3522083
  2.3492696   1.8631296   2.0862355  -1.6598353 ]
[-0.4804953   0.65417564 -0.81867087  0.24874772  0.9138583   0.38313776
 -0.70745313 -0.1738418  -0.16196524 -0.70581     0.43897134 -0.44116727
  0.3276855  -0.20772785 -0.15579695 -0.5562438  -0.2889099  -0.16757894
 -1.1129975   0.18277411 -0.4661943   0.90718687 -0.0228713   1.3574538
  0.7772297   0.74812853 -0.3064497   0.47546506 -0.83053684 -0.02507455
  0.41666046  0.21677534  0.24970411  0.23678671  0.1619394   0.8757069
  1.0514226   0.60042983  1.0722334  -0.43782404]
[-0.5817592  -0.48827755  0.13666187 -1.1409688   0.04619849 -0.3151719
 -0.47910413  0.11966342 -0.6408575  -0.00179866  0.18083288  0.07023712
 -0.03634539 -0.8017893   0.29879004  0.12570785  0.48383325 -0.85329187
 -0.23798464  0.80107665 -0.3694573   0.5131802  -0.63017005 -0.02769468
 -0.00397063 -0.47184202 -1.0731026  -0.02870313  0.2658099  -0.47022218
  0.15768138 -0.213927    0.7314688   0.40671864 -0.3068607   1.1328145
  0.4773096  -0.05928008 -0.19781749  0.15668614]
[-0.5721983   0.31231603 -0.33295497 -0.21529081  0.6686813   0.17309265
 -0.4390768  -0.37978685  0.17499141 -0.33617035  0.08019345 -0.13731858
  0.6596396  -0.5746597  -0.43420517 -0.11489704 -0.37209982 -0.24041827
 -0.49315858 -0.19119743  0.01149741  0.3790305   0.02019206  0.6418132
  0.4090023   0.2096694  -0.2281346   0.42813632 -0.1265654   0.7604277
 -0.4626134   0.02627615  0.3570849  -0.29426503  0.11637589  0.39828202
  0.5233805   0.42099023  0.81210834 -0.35517943]
[-0.26718155  0.95790064 -0.30315635 -0.79742396  0.60397685  0.63595796
 -0.9575934   0.32757467  0.04364033 -0.3696374   1.254235    0.7716348
 -0.25571173 -0.3071565   0.08290477 -0.9471379   0.02549779  0.41952747
  1.5970085   0.8806465   0.6563989   0.40133908  0.62343013  0.49268627
  0.1449703   0.6493492   0.07848866 -0.4819757   0.23635422 -1.118541
 -1.4260122   0.47130987  0.7126856   0.13840681 -1.450457    0.84838223
  0.3049512   0.45562947  0.507473   -1.1982276 ]
[ 0.4780503  -0.11058754 -0.15673307 -0.3801809  -0.40951312  0.1918228
  0.00522105  0.45645934 -0.38247538  0.15243255 -0.3823749   0.00406041
 -0.80534446 -0.07425118  0.62457514  0.3125287   0.69685763 -0.30180308
  0.10869998  0.16659862 -0.3424093  -0.2209245  -0.34865716 -0.18630868
 -0.6694437   0.11355714 -0.08060402 -0.84082687  0.7191735  -0.617341
  0.20523106 -0.3146951  -0.34266403  0.6267841  -0.389325    0.22207639
 -0.3407134   0.21602489 -0.32118863  0.8071007 ]
layer 3 Activation
tanh
layer 4 Dense
40 20
[ 2.8513339e-01 -8.1423029e-02 -3.8987396e-03 -8.5323077e-01
  8.0213356e-01 -3.6088116e-02 -6.2160170e-01 -5.8526185e-04
 -8.0800974e-01 -1.2020288e+00 -2.2659351e-01 -6.0273659e-01
 -5.0479972e-01 -1.3366650e-01  4.4006437e-01  1.4805833e+00
  5.3261831e-02 -3.6285576e-01 -1.7316781e-01  1.5484264e-01]
[-0.12830715 -0.6167828   1.0556378  -0.04326368  0.0552871   0.77385503
 -0.3342239  -0.25634456  0.09996851  0.9260481   0.54803914  1.575253
 -1.2122449  -0.4579809  -1.0050678   0.1308055   0.76388747 -0.03552859
  0.11625114  0.5060924 ]
[-0.145405    0.2877557  -1.1231503   0.42075396  0.05219994 -0.05514832
  0.29183707  0.13897309 -0.11258033 -1.0881016   0.40172252 -0.54955184
  1.1434696   0.9442918   0.04210715 -0.02472295 -0.5691083   0.18032748
  0.12552588 -0.04502917]
[ 0.4010503  -0.36107844 -0.8187596   0.55714715 -0.7186883   0.01953592
  0.12894633  0.1668355   0.37484038  0.50504535 -0.29421252  1.0420243
  0.16347797  0.19665007  0.46681038 -0.13184072  0.21265176  0.01738542
  0.45278692  0.12986785]
[-0.3560755  -0.35932535  1.4189366  -0.2413537  -0.26553267  0.09583808
  0.05026468 -0.7125694   0.2976643   0.83202684  0.6129068   1.642922
 -0.37252513 -0.52685755 -0.7890157   0.04177662  1.1083103   0.10455834
  0.565058    0.41197807]
[-0.7750144  -0.19995236  0.39494056  0.65751004 -0.6026156  -0.33591002
  0.41724575  0.2047798   0.14315157  0.4633657  -0.19588327  0.8113112
  0.6532778  -0.7595324  -0.18775974  0.00415767 -0.48902038  0.13355525
  0.6473905   0.15018706]
[ 0.2606634  -0.00837429 -0.46693653  0.33266255  0.23251314 -0.4095894
  0.47672105  1.1377751   0.27735785 -0.78900605 -0.40045056 -1.5367255
  0.44739434  0.04095335  0.88371205 -0.28851965 -0.7588387   0.32420367
 -0.48883188 -1.0266774 ]
[ 0.3133778   0.37853882  0.5486162  -0.5819831   0.31632844  0.14149635
 -0.8539629   0.6037031  -0.79757607 -0.16093549 -0.42523375  0.50927293
 -0.12277088  0.23131227  0.09966753  1.3416629  -0.91510916 -1.2707827
  0.18750355 -0.3014411 ]
[-0.3447121  -0.6277974   0.8116979  -0.13311772 -0.18962714  0.7951331
 -0.17335218 -0.6454833  -0.34640908  0.51267445  0.8027167   0.8561792
 -0.38963664 -0.1355634  -0.21697925  0.31208417  0.7374445   0.19892007
  1.4367346   0.2836267 ]
[ 7.12140739e-01  4.01963592e-01 -6.06636479e-02 -7.80450344e-01
  3.42338800e-01  1.31425068e-01 -5.09532809e-01 -4.64745462e-01
 -2.32544988e-01 -2.44380936e-01 -7.95289699e-04  1.97575334e-02
 -9.87014294e-01  6.40791416e-01  4.81024116e-01  1.36781424e-01
  1.16581544e-01 -9.76418257e-02 -1.16054595e+00 -1.42380998e-01]
[-0.03169899 -1.1695234   1.2518975  -0.25063774  0.2218565   0.04990702
 -0.255792   -0.59653044 -0.18528953  1.061558    0.7150704   0.4563302
 -0.52561367 -0.7581535  -0.6571893   0.32931226  0.45792168 -0.5127117
  0.5122526   0.654126  ]
[ 0.13734217 -0.62055784  0.72946167 -0.10677003  0.41207394  0.54479986
 -0.07972091 -0.2611914  -0.14148843  0.8599668   0.3756547   0.8267757
 -0.3209262  -0.19955772 -0.01807942  0.47868448  0.10290239 -0.37476426
  0.18709041  0.29871798]
[-0.61006725 -0.45968944  0.20572312  1.5979174  -0.8068532  -0.27550837
  0.6220688   0.08223481  1.1869226  -0.22447622  0.08895648 -0.38727915
  0.0200639  -0.65153605  0.5055685  -0.7894211   0.2803481   0.9624992
  0.31114733  0.44018137]
[ 0.45252085 -0.22847584 -0.40211898 -0.3148557   0.04585878 -0.5567444
 -0.16738509  0.7221055  -0.04596037  0.6854602  -0.2846611  -0.5139809
  0.00830276 -0.16811265  0.61254835 -0.04386681 -0.71909136 -0.06236396
 -0.36053884 -0.21116725]
[ 0.58422714  0.17595172 -0.28592634 -1.3552083   1.0507132  -0.00981891
 -0.9641914   0.02494865 -1.1429092   0.1982642  -0.33188835  0.65990216
 -0.19689727  0.3153481  -0.5050871   0.9318173  -0.14890033 -0.54660535
  0.03158044 -0.31113687]
[ 0.25609598  0.2595552  -0.7131908   0.06282668  0.240591   -0.7465914
 -0.10823973 -0.07248548 -0.31409124 -1.2508669   0.1503317  -0.9746341
  1.1428047   0.5123527   1.3486749  -0.26049286 -1.071921   -0.455029
 -0.3447578  -0.1631606 ]
[ 0.55684316  0.5902675  -0.13051042 -0.23483181  0.31607017 -0.4051891
 -0.60227925  0.67746437 -0.480013    0.3923991  -0.48847193 -0.06417762
  0.15543559  0.11214112  0.07385375  0.24629174 -0.41276288 -0.34238347
 -0.74911994 -0.23126023]
[-0.77297693 -0.77265865 -0.17535228  0.7855741  -0.57196087 -0.43380034
  0.55456036 -0.26837587  0.26975557 -0.08960792  0.38286257  0.5008649
  0.2745408  -0.20241952  0.36544293  0.32893857  0.27128944  0.1326419
  1.212166   -0.00178394]
[ 0.04699366  0.01283108 -0.24720484  0.22818226 -0.3981327   0.3309092
 -0.4541688   0.30647606 -0.3975761  -0.71782637  0.04313114 -0.21856388
 -0.92249316  0.34458587  1.1197278   1.4154328  -0.13242796 -0.8752981
  0.37870306 -0.07196736]
[ 0.2417307  -0.17964926  1.4063942  -0.3706751   0.22370058  0.5098958
 -0.41773462 -0.6231647  -0.64091337  1.2343196   0.33286452  0.9117676
 -0.39268774 -1.0514349  -1.0384321   0.18471393 -0.21898678 -0.6626574
  0.09690195  0.4889751 ]
[-8.2084495e-01 -7.7907562e-01  3.2253382e-01  1.1161480e-01
 -4.9593365e-01  4.0078938e-01  5.1753491e-01 -2.6950419e-01
  3.3730473e-02  3.9010125e-04  7.1929508e-01  2.8545070e-01
  3.0703402e-01 -2.4046233e-01 -1.2330403e-02  1.4608748e-02
  5.2351177e-01  1.2104017e-02  6.2770325e-01  6.0660720e-01]
[-0.24927439 -0.43260732  1.6549616   0.05959827  0.27980864  0.72704184
  0.02114902 -0.4943753  -0.215961    1.1421555   0.23696955  0.43208513
 -1.2476465  -0.19759065 -0.9699404  -0.1653929   0.31155294 -0.07561738
  0.30263475  0.6936268 ]
[ 0.49541616 -0.07523245  0.09504448  0.3264216  -0.6143044   0.74876624
  0.26667994  0.34072086  0.3850706   0.34336174 -0.46844313  0.70424306
  0.08228727  0.7059892  -0.2592816  -0.5505239   0.25920606  0.44932172
  0.5673687   0.18232955]
[ 0.11656614 -0.35816708  0.8784133  -0.08330657  0.17402248 -0.15649019
 -0.21297346 -0.35837007  0.26295286  0.96861523  0.75747186  1.0458007
 -0.5126376  -1.708139   -1.633458    0.23880662  0.6252354  -0.29673457
  0.41808146  0.15759508]
[-0.44547114 -0.47085142 -0.2991435   0.94772476 -0.4773366  -0.08985572
  0.7692265  -0.06580961  0.24873844  0.39918506  0.22802784  0.19452651
  0.49764937 -1.0132298   0.30609354 -0.5171627   0.5177069   1.235607
  1.0095773  -0.00626842]
[-2.0526817  -0.24522251  0.5847871  -0.01681153  0.21720473  0.5331025
  0.1864247  -0.72185737 -0.01130397  0.5979075   0.6336332   0.94921035
 -0.6791244  -0.8523174  -0.7963936  -0.532988    0.45197058 -0.2515589
  0.46464574  0.96070457]
[-0.68147063 -1.039138   -0.34918204 -0.00620032  0.12516676 -0.44789773
  0.4905318  -0.92713016  0.02189223 -0.08626819  0.48450935  0.6615516
  0.38055736 -0.9246406   0.24596737  0.11637902  1.2484771   0.13426468
  0.57027     0.56317985]
[ 0.1616705  -0.10348079  0.49324614  0.34723574 -0.73661023  0.34048682
  0.456445   -0.3006662   0.48245406  0.5711266  -0.24716797  0.24422416
  0.35082167  0.05602682  0.10671219 -0.18486188  0.1600673   0.27174664
  0.32152915  0.06617106]
[ 4.0692770e-01  1.0896970e-02 -2.2761723e-01 -1.3586402e+00
  8.8110799e-01  3.3322805e-01 -5.9657556e-01 -3.9388928e-01
 -1.0108920e+00 -3.6505815e-01 -6.2963969e-01  1.6760898e-01
 -3.9260978e-01  9.2735910e-01  8.8608071e-02  1.3045385e+00
  3.8164178e-01 -4.3203354e-01 -7.5589603e-01  1.5249735e-04]
[-0.2409074  -0.3056511   0.15465374 -0.08196261 -0.5872689   0.31580755
  0.68462926 -0.4814836   0.10309752 -0.09245172  0.36360186 -0.39130482
 -0.17293663 -0.824664    0.02611288 -0.9552404   0.55427825  1.1963904
  0.4371732   0.5242205 ]
[ 0.6950968   0.19750592 -0.3421795   0.62240994 -0.3340119  -0.4058719
 -0.10125031 -0.03708886  0.23285912 -0.9184895  -0.6011114  -0.41801897
  0.90017253  0.32501802  1.3097237   0.03425393 -0.30599058 -0.25487876
 -0.07112232 -0.5130542 ]
[-0.8186805   0.04401532  0.10186795  0.1632925  -0.36633375  0.19771218
  0.25282896 -0.6625781   0.21888258 -0.30082542  0.4288028   0.5079049
  0.00559793 -0.27693933 -0.0848529  -0.35785294  0.60020524  0.7554923
  1.109139    0.57424444]
[-0.09565169 -0.37347952  0.7412525  -0.12272394  0.00963138  0.64870125
 -0.29375154 -0.1442271   0.36131832  0.50113887  0.13006264  0.45871836
 -0.27220175 -0.14875853 -0.35827595  0.04258502  0.36414495  0.20200017
  1.3723136   0.10818204]
[ 0.8474398   0.9779224   0.21024968 -0.22022066  0.14305986 -0.36572263
 -0.29452676  0.25989485 -0.4102783   0.44124112 -0.28621534 -0.21502589
  0.24233611  0.6250646  -0.284847   -0.43639052 -0.39655712 -0.3273426
 -0.6411059  -0.34201813]
[ 0.23514117 -0.08544677  0.36768395  0.3225579  -0.4044576  -0.2987834
  0.51688117 -0.18282641  0.38923785 -0.36561847  0.05279194 -0.16127107
  0.62252444  0.24553779  0.60944575 -0.23918205 -0.2536681   0.7411883
  0.24004357 -0.4146797 ]
[-0.14817692 -0.5693518   0.96920145 -0.42453232  0.46298283  0.68992555
 -0.04164436 -0.26488325 -0.68716496  0.86418194  0.25740957  0.60563314
 -1.0295012  -0.7496193  -1.2842509  -0.11551706  0.7600013  -0.2307783
  0.33488917  0.8436545 ]
[-0.23753254 -0.57003504  1.4106483  -0.09871686  0.44745597  0.6406153
 -0.04728481 -1.0775099  -0.21042538  0.7894317   0.3550916   1.1950951
 -1.0875871  -0.9765372  -0.7526584   0.1049368   0.5756714   0.49625212
  0.26695457  0.6355139 ]
[-0.760197   -0.14755058  0.83041126  0.19575393 -0.06984569  1.0431706
 -0.14365229 -1.1845605  -0.44496515  0.39699823  0.94707537  0.823655
 -1.4078442   0.28765205 -0.94981986 -0.37569347  0.9454281   0.06784403
  0.7609724   0.8356975 ]
[-8.3483843e-04 -1.1512409e+00  3.7143114e-01  2.2615929e-01
  3.2881860e-02 -2.3037541e-01  9.2449862e-01 -1.5958923e-01
 -8.0530997e-03  1.2640074e+00  2.0866424e-01  8.9475489e-01
  6.2426275e-01 -1.2064860e+00 -7.5436509e-01 -1.4186621e-01
  2.1826003e-01  5.3049332e-01  7.6544392e-01  6.7550004e-02]
[ 0.2565107   1.2770004  -1.0257721  -0.11978217  0.04924604 -0.54401994
 -0.17616689  0.92511076  0.12053287 -1.2232337  -0.9951945  -1.612453
  0.7899998   0.28726497  0.24970224  0.00602475 -0.6185552   0.10330146
 -1.5294104  -0.84685016]
[ 0.3546551   0.02610951  0.21331447 -0.99280244  0.8391943   0.25713006
 -0.6438871   0.24793595 -1.0386807   0.08256138 -0.07488989  0.70153654
 -0.22960949  0.2178926  -0.47477156  0.6753123  -0.13535409 -0.7805061
 -0.45487413  0.05449075]
layer 5 Activation
tanh
layer 6 Dense
20 1
[-2.9766216]
[-3.0820377]
[3.406383]
[-6.882656]
[6.8097377]
[3.0232942]
[-5.8908205]
[-3.037783]
[-6.279604]
[3.5915809]
[3.0747056]
[3.2170782]
[-3.4394782]
[-3.1020586]
[-3.7195842]
[5.917656]
[3.0578866]
[-5.9417605]
[2.979517]
[3.1083207]
[7.0898466]
