layers 7
layer 0 Dense
20 20
[-0.3344873  -0.45172215  0.34328     0.31865364 -0.04732242  0.30619708
 -0.0103701   0.27218628 -0.13997228  0.06666632 -0.12423836  0.28282002
  0.13757877 -0.27317876 -0.07082146  0.03430168  0.13707983 -0.1625618
 -0.2673016  -0.19191906]
[-0.0056987   0.25105825  0.11301997 -0.25480524  0.20642127  0.24414393
  0.17764595  0.21857573  0.14899658  0.5050928   0.02265458 -0.12939951
  0.16871533  0.24461702  0.39213806 -0.38676623  0.37806523 -0.10187839
  0.09828193 -0.05143757]
[-0.23227668 -0.23164003 -0.00844716 -0.12462824  0.02783438  0.15097664
  0.37452924 -0.05421166 -0.12100063  0.48450682  0.24641424 -0.03915142
 -0.17690547  0.25121832  0.17879763  0.11941924 -0.20681438  0.19902235
 -0.38629138  0.23018228]
[ 0.283472   -0.06809143 -0.24118766 -0.42765155 -0.1489687  -0.04828684
 -0.1618457  -0.18991184  0.29484573 -0.32101977 -0.47944456  0.11689325
  0.42845932 -0.4104935  -0.29110265 -0.3412289  -0.27647915 -0.11329528
  0.01346686  0.01984522]
[-0.36944565 -0.21086785  0.31100464 -0.35044837 -0.15503053  0.06143575
 -0.22008657  0.03461854  0.01281531 -0.2836557   0.20679581 -0.12471045
 -0.03295524 -0.14055316 -0.1253068  -0.06408477 -0.25449973 -0.23843613
 -0.16464423 -0.1673294 ]
[ 0.358126   -0.23865025  0.06648162  0.4436803   0.0313421  -0.08973923
  0.14356323 -0.10438857 -0.23611273 -0.4869794   0.20651346 -0.23619291
  0.09619993 -0.26257235 -0.03972267  0.33017328 -0.0658871  -0.24346915
 -0.25859544  0.25382954]
[ 0.08431949  0.154119   -0.05343424 -0.2587197   0.00876486  0.00788924
 -0.08694905  0.09472803  0.32646292 -0.16826312 -0.12052036  0.23379031
  0.35785195 -0.39457342 -0.42739895 -0.2483501   0.0552478   0.4168588
  0.30474138 -0.19039439]
[-0.13599306 -0.12213942  0.23596518 -0.07031652  0.20889844 -0.24780567
  0.17629571  0.2596807   0.05469653  0.10470746  0.29405066  0.05142581
 -0.2687535   0.34297013 -0.2734914   0.20522824  0.04014487  0.22383004
  0.00690812  0.2567336 ]
[-0.0678371   0.02512167  0.20685762  0.2793469   0.13077475 -0.3056374
  0.23517817 -0.16467224  0.09772995 -0.10571679 -0.29677925 -0.04904289
  0.47157738 -0.2166088   0.25456914  0.4026389  -0.04252034  0.03874216
  0.16226971  0.18807283]
[-0.27020726  0.27127403 -0.21811785 -0.29366004  0.05668347 -0.16526778
 -0.2722948  -0.32352138  0.02254426  0.08633765 -0.19931313 -0.21140614
 -0.08373317  0.02229453  0.02312802 -0.19652504  0.23143843  0.18395892
  0.1495269   0.27094227]
[-0.12548093  0.11960843 -0.12130404 -0.10656989 -0.12370871  0.3052971
 -0.05296658 -0.18785676  0.08363906 -0.2687212   0.21226293  0.17692202
  0.22211257  0.07953267 -0.02381243  0.06848448 -0.22515407  0.35590032
 -0.09989116  0.3462782 ]
[-0.05389861 -0.2772327   0.3296142   0.20306808  0.33861655  0.18634394
  0.2055639   0.3493379  -0.05608286  0.28844404 -0.46753225  0.24498907
  0.42367578 -0.35438877 -0.10444918 -0.0497785   0.1408086   0.00731554
 -0.04834234 -0.35086793]
[ 0.17367177 -0.32519332  0.03129196 -0.20362288 -0.20898864  0.23363142
 -0.17922941 -0.18888722  0.22389384 -0.15152219 -0.29784396 -0.13015297
 -0.3244882  -0.14853802  0.13927008 -0.24892442  0.44908282  0.34677997
  0.0965066   0.12230191]
[-0.14936118  0.3083177   0.13735247 -0.00193041  0.11485738  0.26798782
 -0.16607226  0.04329452  0.26496795 -0.20259698 -0.07776097 -0.4136053
 -0.05257589 -0.21915954  0.15236554 -0.1499687  -0.1100148   0.29981855
  0.0413027   0.06043392]
[-1.4447704e-01 -6.0431575e-03 -5.7700466e-02 -3.8353071e-04
 -1.5610689e-01  1.3895029e-01 -2.3966394e-01 -1.1563130e-01
 -8.4817924e-02 -3.5406762e-01 -2.0144597e-01 -5.3745054e-02
 -1.5951557e-01  1.9450346e-01 -3.3890679e-02 -4.2125079e-01
 -2.3867889e-01  2.1282357e-01  1.6222151e-01  1.6570526e-01]
[ 0.34955424 -0.11406875  0.32708222 -0.39566734 -0.01026886 -0.16686182
  0.08527896 -0.33509892 -0.27311918  0.45691022  0.25469875 -0.20435135
 -0.32402226  0.01628876  0.1767174   0.22736156 -0.23098025  0.49884155
  0.30786332 -0.13472314]
[ 0.20571728 -0.03146192  0.01064442 -0.07253636  0.21053065 -0.27675703
  0.19384126  0.31648687 -0.09042082  0.12000358 -0.01242035 -0.35437423
 -0.24651963  0.36207584  0.13203868  0.28238362 -0.02774532 -0.261626
  0.04118437 -0.15689519]
[-0.16960675 -0.12823334 -0.11948553 -0.21468458  0.183124   -0.03284455
  0.00509414 -0.04551621  0.16326253 -0.10635525 -0.44906795 -0.19611003
  0.0042464  -0.02961439  0.1281141  -0.4441543   0.12150709 -0.27641028
  0.28828296  0.24521796]
[ 0.13204981 -0.3227029   0.20852134 -0.2014574   0.2821745  -0.03432548
  0.22131373 -0.17907079 -0.32986674 -0.32690188  0.25709125  0.27715898
 -0.08114306  0.3202695  -0.312042   -0.14740908  0.27124178  0.32444668
  0.04908301  0.32844824]
[ 0.28937995 -0.31064186  0.09446183 -0.27089018 -0.07680472 -0.38746315
 -0.15098485  0.06811123  0.4416197   0.08562404  0.21078315  0.1763965
 -0.21960753  0.29269058 -0.09702435  0.26458484  0.197775    0.36337197
 -0.1264938   0.26825976]
[-0.01962685 -0.02882517 -0.06580878 -0.08007088 -0.07156065  0.08334878
 -0.00877434 -0.00195193 -0.01816681 -0.08596939 -0.10086717  0.02865733
  0.04001216 -0.09905375  0.00442047 -0.05119602 -0.01744594 -0.015931
 -0.06332535 -0.12743741]
layer 1 Activation
tanh
layer 2 Dense
20 40
[ 0.11543078 -0.16476351  0.23923944  0.27000546  0.06938314  0.27936044
 -0.29963556 -0.26191154  0.04292768  0.24997777  0.0006955  -0.08119541
  0.1244712  -0.10768716  0.22363019  0.03605531  0.22513887  0.23092905
  0.3003051   0.30692866 -0.12773278  0.26447293  0.20016229  0.08636346
  0.27548322 -0.00454226  0.23001353  0.12308419 -0.06545783  0.10048512
  0.07794889 -0.24857837 -0.2653276   0.06481088 -0.04303651 -0.19581324
 -0.07451686 -0.07416825 -0.16804084 -0.13990964]
[ 0.04226064  0.184297    0.16174273 -0.25543877 -0.03906654  0.05090127
 -0.15852411  0.11972179 -0.23270796 -0.12172297 -0.03553855  0.14825937
 -0.07973002  0.12919886 -0.25265563 -0.16977075  0.07279333 -0.20604837
 -0.04832966 -0.08914644 -0.00674444 -0.14201483  0.33602104  0.01835727
  0.24478431  0.06119286  0.1018921  -0.36212888  0.07650804 -0.18257166
 -0.15822001 -0.00908544  0.18619335 -0.14874709 -0.23679796 -0.17039996
  0.16184975  0.08243988  0.11812026  0.09404084]
[-0.10806473 -0.1215483   0.1036764   0.07125153  0.1742858   0.12563515
  0.19271     0.22999968  0.1725195   0.1829455   0.19588709 -0.2253556
  0.06273547  0.15625721 -0.01057582  0.17516446 -0.03150969 -0.3076681
  0.2586189  -0.07846233 -0.07290946  0.13425718  0.36286002 -0.08829996
 -0.12139518 -0.00370664 -0.16047682 -0.23395447  0.23128349 -0.08044405
  0.24349728  0.19844063  0.19254884  0.1780242  -0.01724734  0.18667296
 -0.01622429  0.07589669  0.11114247 -0.22010952]
[-0.27491793 -0.23635441 -0.2382446  -0.40222207  0.422318    0.07438011
  0.12921312  0.07165436  0.2617459   0.28062207  0.12901798  0.10775221
 -0.2727837  -0.03772816 -0.283706   -0.02565728 -0.1979569  -0.0163949
 -0.083868    0.1420987  -0.21846451 -0.04043622  0.13702944 -0.1272693
 -0.13807794 -0.3564582   0.14055158 -0.0180692   0.1444071  -0.14533725
  0.03425568 -0.10317068  0.24399814 -0.22488067  0.01832251 -0.08078085
 -0.0101434   0.11167384  0.03839114  0.25801808]
[ 0.1651061  -0.11305937  0.34473225 -0.14793693  0.1415394   0.23237498
 -0.07320163  0.1775989  -0.24972953 -0.15112068 -0.27048662 -0.17871317
 -0.3645572   0.24281201 -0.1897629   0.01743779  0.05469814  0.00886862
  0.26527306 -0.17456152 -0.13617565 -0.23250781 -0.28925607 -0.08408971
 -0.10663661 -0.08867358  0.12818988  0.09457504 -0.14169453  0.10161825
 -0.3270569   0.2513735   0.00693227 -0.09524231  0.17972596  0.09364805
 -0.20377907  0.04381352  0.17333192 -0.02870405]
[-0.1671848   0.03981517 -0.2627407   0.04039544  0.1394888  -0.01741673
 -0.26705185  0.04457808  0.08734697 -0.1260939  -0.27839592  0.31009963
 -0.21392842  0.07066432 -0.06968629 -0.50509715 -0.247681    0.3114566
 -0.06570373  0.4159281   0.02614904  0.3836386  -0.25985104 -0.39546835
 -0.14716561 -0.0678555   0.14453852  0.06840344 -0.19639066  0.06477195
  0.11230735 -0.17990033 -0.26777282  0.04486535  0.23582241  0.3109027
 -0.1988509  -0.13027725 -0.22563064  0.06852292]
[ 0.05556104  0.15259603 -0.14945474  0.23213458  0.15284571  0.10212577
  0.08781903  0.0186926  -0.16275875 -0.3340021   0.22899064 -0.163454
 -0.04594671 -0.06116816 -0.2752388   0.12226364 -0.00204595 -0.24943303
 -0.267438   -0.14317897  0.00765609 -0.13393642  0.19363573  0.05828616
  0.2102849   0.15941025 -0.18610127 -0.30349642 -0.26186198  0.02915004
  0.08992101  0.2090686  -0.17990519 -0.14961784  0.2244295   0.10459462
 -0.03776718  0.02676509  0.268114    0.32777497]
[ 0.19584699  0.28258997  0.21850896  0.07969889  0.13958032  0.06332561
 -0.15941381 -0.18252148 -0.03713967 -0.28844646 -0.11171017 -0.00333841
 -0.03039591 -0.10922494 -0.25997606 -0.00069326  0.33922774 -0.21553259
  0.23221307  0.08730756 -0.09265191 -0.13211364  0.0904796  -0.2260615
 -0.3088548  -0.22035816 -0.06353872  0.11392303  0.13454355  0.25095606
 -0.16716705 -0.00078148 -0.11944479  0.20914891 -0.19061726 -0.28728622
 -0.21103503  0.2688746  -0.22132349 -0.08024262]
[-0.31950137 -0.00368367  0.07459211 -0.03807261 -0.17905058  0.27557528
 -0.01087406 -0.2395214  -0.22594172 -0.01180237 -0.2774083  -0.18225329
 -0.20584258  0.10419851  0.08719509 -0.37135255 -0.17061345 -0.23299526
 -0.20743458 -0.08739628 -0.23457827 -0.22018263 -0.03087893  0.11447278
 -0.04549018  0.01645533 -0.21900502 -0.22042857  0.17751667 -0.09086908
 -0.08879569 -0.17002651 -0.2854217   0.15218504 -0.27364957 -0.2336797
 -0.3104863  -0.2648814   0.01212195  0.07089958]
[ 0.10388868 -0.12058776  0.13510914  0.1814475   0.25736845 -0.20941482
 -0.26215523 -0.31970182  0.15513419  0.10328258  0.09365184  0.1049688
 -0.1763993  -0.27857915 -0.06092228 -0.1843267   0.11877384 -0.20401111
 -0.3093623  -0.26181057 -0.17901538 -0.12379818  0.17043167  0.26558626
 -0.20084588  0.13544525 -0.10343535 -0.00364202  0.3754301   0.00766168
 -0.11105533 -0.00175823  0.09422427  0.06041628  0.05608147  0.1619594
 -0.16365917 -0.0556123   0.0479639  -0.03862561]
[ 0.19246547 -0.25503445  0.09809729  0.21363072  0.2742026   0.29301682
 -0.1375754  -0.11831315 -0.12883525  0.03432355  0.15851836 -0.5178187
 -0.29444975 -0.24905664 -0.18072674  0.16340318 -0.11899718  0.08064111
  0.1926651   0.14121367 -0.24020109 -0.02761906  0.25532869  0.14079674
  0.33836314 -0.03505971 -0.19177708  0.01738971  0.30804613 -0.07603697
  0.04669334 -0.0036633  -0.24241534  0.27503464 -0.21536903 -0.01974445
  0.0792331   0.19782834 -0.13709974  0.12545699]
[-1.27430186e-01  2.46079266e-01  7.46833440e-03  2.71319330e-01
  3.93555537e-02 -1.39813051e-01 -1.12668708e-01  2.09099427e-01
 -2.74995178e-01  6.81624189e-02 -1.18401147e-01 -2.05915377e-01
 -2.00755522e-01 -1.07617952e-01 -3.59013021e-01  1.21737391e-01
 -1.32361799e-01  6.20755088e-03  1.52294561e-01 -4.58478667e-02
  1.03269242e-01  1.23917848e-01 -1.02092735e-01 -3.42092961e-01
 -2.87818283e-01 -2.65586346e-01 -2.35081417e-04  1.22102737e-01
 -1.56463727e-01 -2.11679656e-02 -2.11161785e-02 -1.93064392e-01
  1.62190080e-01 -1.11169152e-01  8.22785348e-02  1.16741143e-01
  3.13497335e-01 -1.67310119e-01  7.02133104e-02  3.35359007e-01]
[-0.06391815  0.2515788   0.03604421 -0.3032277  -0.09597619  0.12756127
  0.15290539  0.27037162 -0.13820007  0.4540561   0.11327262 -0.02226247
  0.43242797  0.16658963 -0.33947295 -0.23476243  0.1297394   0.03204422
  0.28419146 -0.07168551 -0.2192985  -0.08696815  0.09097034 -0.41282594
 -0.04678145  0.13811632  0.41279575  0.09115648 -0.3425483   0.06564961
  0.00122962  0.0750168  -0.22409272 -0.2193184  -0.09657658  0.22503589
 -0.30739665  0.01317791  0.26343971 -0.21580052]
[ 0.2399608  -0.15893841  0.13522369  0.16001344 -0.30122298  0.21947862
  0.10506675 -0.23223145  0.04347491 -0.30643487  0.16065145 -0.32266185
 -0.07801073  0.11671241  0.12846932  0.3585394  -0.0597492  -0.04980024
 -0.21578637 -0.27068222  0.26291656 -0.03358617  0.21352684  0.14574154
  0.1647981  -0.18478607  0.04554155  0.13918748  0.37661457 -0.24078709
 -0.2941798   0.07998138 -0.16840713  0.01602659  0.02542549  0.09842542
 -0.09835578  0.16177894 -0.2756498  -0.3344456 ]
[ 0.00120035  0.03463271 -0.05270208 -0.19908912 -0.03015828  0.23373929
 -0.18522552  0.18943027 -0.17147364 -0.2601955  -0.13610291  0.18261059
 -0.08984953 -0.21624991 -0.17317916  0.19286999 -0.08806864 -0.10370089
  0.26925856  0.1122746   0.01674142  0.10186776  0.1591181  -0.07518249
 -0.12112001  0.16912326 -0.02290221  0.15828335  0.0968073  -0.16595457
 -0.041526    0.1148686  -0.1288825   0.24448515 -0.2755097   0.09322383
 -0.16497345 -0.09121812  0.08498645  0.2784161 ]
[-0.13131912 -0.04375408  0.5010197  -0.20543398 -0.01761468 -0.18045998
 -0.12212017 -0.06923962  0.18021594  0.1908845   0.07225597 -0.44121563
 -0.27677712  0.07541822 -0.1534028   0.23970433 -0.10622302 -0.3070567
 -0.08088864 -0.2411884   0.17409064 -0.16384329  0.20546377 -0.03719464
  0.14439374 -0.1998652   0.22307892  0.24452062 -0.12576409  0.1944745
 -0.06208983  0.31083885  0.24158597  0.21885076  0.3067134  -0.08912428
  0.03442643 -0.10923892  0.13060068  0.21064481]
[ 0.04459986  0.02755715 -0.10226345  0.16653268  0.12588555 -0.21806334
 -0.00862896  0.19100592 -0.3548077  -0.22506063  0.32356277 -0.19327435
  0.12701388 -0.00977845  0.24168693  0.08807465 -0.3080476  -0.04875838
 -0.04262273 -0.28804255  0.11685645  0.23258725  0.31688026  0.23755279
 -0.22268154  0.07056382 -0.03364253  0.11437146 -0.1641416  -0.28381014
  0.02223677  0.43355545 -0.13256215  0.05639438  0.32851824 -0.06642567
 -0.03293978  0.19245048 -0.26452032  0.08935113]
[-0.10978597 -0.061149    0.0669597   0.10660324 -0.0571276   0.1384705
  0.1682911  -0.03539419  0.19072948  0.04392644  0.18815798 -0.34824428
 -0.06160986 -0.32568955  0.07789765  0.16087465 -0.3466535   0.14149432
  0.001928    0.04090877 -0.02768244  0.15175273 -0.12901671 -0.14294614
 -0.17168678 -0.16936196  0.00748203  0.19976372  0.07603928  0.00909946
 -0.07313523  0.02222094 -0.2531486  -0.05962713  0.09407903 -0.23328738
 -0.21154933  0.07342394 -0.01266352 -0.23308623]
[-0.06850971  0.14722297 -0.28846958 -0.11184606 -0.10300928 -0.29300654
 -0.2601503  -0.1261184  -0.01410636 -0.33674076  0.00327638 -0.05278649
 -0.1472536  -0.05655373  0.15176038  0.30064577  0.11898362  0.12335748
 -0.20429787  0.02998018 -0.04652265 -0.32091597 -0.04374894  0.02780865
  0.23215051 -0.21106254  0.25934422 -0.2923584   0.23403466  0.27195126
  0.13669553  0.34849027 -0.30996984 -0.28883794  0.26397786  0.04321743
  0.06555558  0.00971417  0.03258857 -0.14576952]
[-0.05592534  0.07604038  0.1624468  -0.3021495  -0.19536377 -0.04836894
  0.19289373 -0.18897149  0.03878917 -0.3259313  -0.26234907 -0.17793714
 -0.24931951  0.1765866   0.19438562 -0.16795033  0.17239973 -0.01779819
  0.14741036 -0.13541764 -0.1739657  -0.30185148  0.00678932 -0.29528853
  0.06886077 -0.01088119 -0.12422169  0.18499386  0.08329443  0.00603954
 -0.07108165  0.44035405  0.25181818  0.03844709  0.01922589  0.176397
  0.07762362  0.19387852 -0.2601476  -0.07479576]
[ 0.02644938  0.0469302  -0.12318239  0.02505324 -0.05522987 -0.01495591
 -0.0148911   0.00323563 -0.00823718  0.07376697 -0.03632172  0.1523886
  0.09168913  0.06031117  0.04731861 -0.02792472 -0.02470219  0.03063781
  0.01372588  0.03817011 -0.03099     0.05138189 -0.08031969 -0.0889068
 -0.02271867  0.04015013  0.03720001  0.01575853 -0.03640275  0.00167502
  0.04412821 -0.21569535  0.00578964  0.02622311  0.0093787   0.01643655
 -0.00538489 -0.01237902  0.02872214 -0.01639654]
layer 3 Activation
tanh
layer 4 Dense
40 20
[ 0.12578593 -0.10884586  0.03040073 -0.23765334  0.07149325  0.16913018
  0.10675234 -0.23074684  0.12881078  0.02163714 -0.18920483 -0.10528815
 -0.14574486 -0.20513505  0.10620599  0.1700155   0.2368683   0.23039511
 -0.33754075  0.1759914 ]
[-0.16230407  0.27804503  0.10435686 -0.11471815  0.08836567  0.04504027
  0.24701531 -0.00254348  0.12382945  0.12103184  0.12633157  0.02967577
 -0.21267797 -0.13813953 -0.17093456 -0.16646625 -0.02143512  0.18547414
 -0.29915878 -0.05268456]
[ 0.10760444 -0.28536466 -0.17709385  0.10855267 -0.05712263  0.06355262
  0.03558967  0.271177   -0.2177097  -0.24094988  0.08391786 -0.25758177
  0.25139692  0.3063053   0.28145176 -0.10133474  0.20290053 -0.29309684
  0.00552794  0.07170911]
[-0.25280386 -0.00112618 -0.08559999  0.1717102  -0.12155731  0.01206029
 -0.20761247 -0.04571665 -0.11769611 -0.05518654  0.19056675 -0.30040082
  0.1253414  -0.05038217 -0.30244792  0.07334995  0.0881622   0.19900286
 -0.09020554 -0.13543957]
[-0.03287842  0.08135889  0.05979705 -0.10916631  0.07752115  0.06972341
  0.21808538 -0.12652077  0.23495057 -0.04558039  0.10796237 -0.30640605
  0.21588966 -0.05068055 -0.05177914  0.28942972  0.31782892 -0.20518002
 -0.24867503 -0.14915986]
[-0.20436932  0.04219425  0.14953564  0.07198098 -0.22934678 -0.33397692
  0.3217116   0.26109645  0.20634057  0.06493784 -0.23892026 -0.21407092
  0.16179179 -0.05278447  0.26303574 -0.31090117 -0.22243111 -0.16153425
  0.19043973  0.08041324]
[-0.27766904  0.22565341  0.15882067 -0.06013557  0.29501495 -0.23796377
 -0.25175637 -0.19750829  0.11872604  0.22218737  0.00436361  0.01690882
 -0.23913777  0.15359743  0.16906016 -0.01398894 -0.25081903  0.02190467
  0.09062427  0.2137414 ]
[-0.04902953  0.04466942 -0.02086889 -0.25030586 -0.00247631  0.04130485
  0.32638705 -0.33389103  0.3172533  -0.25281695  0.3207096  -0.17884237
 -0.13627891 -0.27506277  0.14293909  0.23779282  0.11922561  0.05793918
 -0.18660896  0.12904726]
[ 0.00679784  0.04663461  0.19687776 -0.15427737 -0.16368708  0.09777722
  0.09161925 -0.07315765 -0.20141298  0.20407069 -0.23199628  0.21207817
 -0.02915205 -0.07560875  0.07847428  0.05711416 -0.32624632 -0.24403383
 -0.09302572 -0.02766588]
[ 0.21289542  0.25010887 -0.28430152 -0.20325017 -0.24701706 -0.16931888
  0.14459363  0.0810443   0.13587739  0.07036924  0.3369154  -0.12254982
 -0.10479313 -0.29678652 -0.29011956 -0.02221724 -0.30653203  0.2792902
  0.03007561 -0.2146489 ]
[ 0.1500063   0.07253288 -0.03025015 -0.20493966  0.25069863 -0.03868568
 -0.17676258  0.27013806 -0.11437076 -0.20232016  0.11483211 -0.31037495
 -0.09953575  0.12131127 -0.21539547 -0.14327984  0.14200379 -0.09405854
 -0.08788832 -0.0311243 ]
[-0.16958454  0.29095742 -0.02945856 -0.05898842 -0.2990839   0.04180499
 -0.17006287 -0.24041492 -0.20619246 -0.2858754   0.13738695  0.31592357
 -0.02831175 -0.33192497 -0.27085042 -0.09552491 -0.16529062  0.13010591
  0.06881995  0.00181192]
[-0.21685936 -0.04955246 -0.06601221  0.2905154  -0.13530308 -0.21955584
 -0.19270025  0.06563923  0.05374762  0.07895146  0.3646397  -0.1769467
 -0.11540261  0.05827332 -0.18619967 -0.3156293   0.06089983  0.33980343
 -0.36960515 -0.2529688 ]
[-0.18323171  0.28415757 -0.18236558 -0.14671645  0.1718385  -0.1495799
  0.02346245 -0.02180616 -0.01186641  0.12939961  0.24571656 -0.1984626
 -0.26152915 -0.09519566  0.0979268  -0.01390081 -0.0984357   0.15446661
  0.24559677  0.16582033]
[ 0.07776041 -0.3137989  -0.08647935  0.0349276   0.29539472  0.19638215
 -0.13417004 -0.24810831 -0.10730151 -0.14668429  0.09226175  0.20387675
  0.17680219  0.24368982  0.05670112  0.33075976  0.15950231  0.35479274
 -0.22001494  0.304188  ]
[ 0.34102052  0.03105887 -0.10919498  0.04115419  0.00260693 -0.3097841
  0.05469207 -0.32790652 -0.02336999  0.08574034 -0.31270614 -0.33730328
  0.3117049  -0.10614718  0.0421338   0.2866543   0.28350312  0.05340881
  0.04846055 -0.24591364]
[-0.0963774   0.29778376  0.05158249 -0.0113279   0.03106208  0.06285378
  0.13188866 -0.10325684 -0.09783217  0.15849319 -0.05718388  0.03252095
  0.02240344 -0.00210756 -0.00840145  0.06900206  0.17465751  0.05481785
  0.2804692  -0.28715467]
[-0.18499766 -0.15644889  0.03288866  0.31823444 -0.06416417 -0.22569536
 -0.15348986  0.20289871  0.13707891 -0.01976308  0.14390416 -0.1807384
  0.15119919  0.15921894 -0.25967684 -0.10263186 -0.1117036   0.08249463
  0.16125587  0.2544077 ]
[-0.13831492  0.2329054  -0.19856113  0.22295953  0.03003103 -0.26128554
 -0.03970852 -0.17760228 -0.2855923  -0.14840597  0.04263233  0.02195743
 -0.19319403  0.03188862 -0.25393057 -0.30756405  0.1125871  -0.11359398
 -0.40133542 -0.01277373]
[ 0.11990654  0.06598319  0.07405163  0.02533649 -0.3215979  -0.09190965
  0.13617729  0.17571363 -0.23520951  0.29082102  0.2968942   0.06942076
  0.16706589  0.2069481  -0.26639497  0.05603562  0.15258615 -0.19565147
  0.11533532  0.12806831]
[-0.15429191  0.19045122  0.12186036 -0.19050515 -0.06550603 -0.10417312
 -0.06962769  0.09281945  0.03310368  0.10521345 -0.31492963  0.17151946
  0.15430725  0.09255945  0.19361593 -0.0013319   0.1077162  -0.11206645
  0.10301606  0.04699967]
[-0.06452249  0.23061803 -0.0578859   0.27652138 -0.35865745 -0.1942446
 -0.22550184 -0.2064401   0.11616934 -0.23779924  0.19638647  0.25047714
 -0.08060698 -0.10094104  0.03800803  0.15577877  0.12501322  0.29589918
  0.06960104  0.3512489 ]
[-0.09552959  0.04375671 -0.26104337 -0.02921299  0.15585491  0.02348483
 -0.30287442 -0.12501638 -0.14971457  0.12961398 -0.03394161 -0.192325
  0.15868114  0.11964286  0.38100296 -0.06126302 -0.04865963 -0.11553867
  0.29101864 -0.06090443]
[ 0.25602892  0.01862111 -0.08699768 -0.190623   -0.00060608  0.09963937
  0.18599086  0.20439439  0.16651042  0.34250802 -0.3133002   0.14542983
  0.2400046   0.07297509  0.2627693   0.28636706  0.04678075 -0.04788859
  0.0531193  -0.07223843]
[ 0.32132256  0.25792333  0.2716332   0.10680415 -0.11757166  0.12305795
  0.23244889  0.28457156 -0.28554818 -0.15224195  0.27526316 -0.35026756
 -0.28592    -0.04061751 -0.04084156  0.01435457 -0.13078952 -0.32882956
  0.3210846  -0.20032057]
[ 0.30118284 -0.1073886  -0.04288245 -0.01030994 -0.25922114 -0.1926503
  0.09161006  0.2813241   0.00456194  0.10119677 -0.14385776  0.20580614
  0.32261032 -0.16477443 -0.21999225  0.08883608  0.00036067  0.22838953
 -0.07515725  0.19948249]
[ 1.0023979e-01  2.9123336e-01  9.7785378e-06  8.8706821e-02
 -2.1098977e-01  1.0913541e-01  2.3097873e-02 -1.4650473e-01
 -2.1159554e-02 -3.2960575e-02 -1.1766920e-01  7.8332253e-02
  1.6912551e-01 -3.2582849e-01 -1.1194669e-01 -2.1442454e-01
 -1.8325390e-01  1.9573089e-01  1.0484796e-01 -6.5364584e-02]
[-0.2852154   0.10620809  0.25818247 -0.35519248  0.20336972  0.14349522
  0.0435453   0.07062273  0.20251818  0.32531714 -0.304719   -0.249467
  0.2766934   0.09497025 -0.30398628  0.09825166 -0.27955645  0.04999786
  0.14313486 -0.27774027]
[ 0.15435348 -0.05143303  0.1078189   0.33170468 -0.19072978 -0.08881921
  0.11460794  0.16350426 -0.05282783 -0.1983321  -0.3519447  -0.1350733
  0.09741784  0.2986404   0.24094936  0.15684019 -0.2545784  -0.2528616
 -0.2064814  -0.3181654 ]
[-0.20104451 -0.09834033 -0.1633638   0.02961249  0.19948748  0.05651242
 -0.22196105  0.06713312 -0.06406689 -0.00976926  0.21959093 -0.23983006
  0.10469396  0.22079049 -0.07047684 -0.20631301 -0.07444347 -0.01162822
 -0.00630116 -0.11948971]
[-0.01959875  0.05962927  0.31936657  0.25529733 -0.23583412 -0.24795361
 -0.14906512 -0.2418296   0.13301699 -0.23341995  0.4337755  -0.10572501
 -0.04324611  0.18173377 -0.09476468  0.01156424 -0.17481646  0.0815341
  0.14690585 -0.3564831 ]
[ 0.15235108 -0.08734404 -0.16747496  0.2909223   0.25067386 -0.2761231
 -0.26620877  0.09737654  0.26642242  0.13026737 -0.05332169 -0.2936382
 -0.10106264  0.13609426  0.3111605   0.10912468 -0.09824854 -0.37865576
 -0.31449848 -0.05002866]
[ 0.06678604 -0.02438231 -0.16042206  0.11185436 -0.14018464  0.24022867
  0.06538012 -0.15174778  0.27424067 -0.27431145 -0.13331072  0.07280084
  0.24804397 -0.22639832 -0.01380393  0.14736061  0.34786576 -0.02723014
  0.26153663 -0.11211865]
[-0.04951061 -0.33720368 -0.00597544 -0.12827745 -0.10279872 -0.25226974
  0.2770773   0.12210757 -0.28545287 -0.20157261 -0.2682202   0.2276989
 -0.29961258  0.05576083 -0.2332185  -0.23801072 -0.19930594 -0.04007339
  0.12181576  0.09502234]
[ 0.12747276 -0.23235902  0.24954268 -0.1402489  -0.09384675  0.25920296
  0.19338956 -0.01631121  0.2702954  -0.06985468 -0.21276607 -0.28131318
  0.08365012 -0.17173645  0.04745463 -0.26286936 -0.1660461   0.0517312
 -0.02349372 -0.16993734]
[ 0.1906778   0.04352324 -0.23988977  0.12245748 -0.02315369 -0.24115394
  0.16159098  0.08883949  0.16851401  0.09032508 -0.300098    0.181844
 -0.01920876  0.04371587  0.0042144  -0.106666   -0.04602501  0.2467773
  0.12459657  0.29536244]
[-0.12598617  0.3855196   0.05681561 -0.20811878  0.15575154 -0.24640682
  0.14874558 -0.12609503 -0.08721077 -0.10809158  0.10568672 -0.22596052
 -0.01949707  0.03227102  0.0477768   0.03433694  0.17314509  0.17738588
 -0.17149457  0.0250456 ]
[ 0.01212612  0.21044268  0.26952323  0.20686905 -0.28096378 -0.1953104
  0.08775119  0.02310641 -0.10117267  0.01942705 -0.00641774 -0.03269231
  0.06825349 -0.14612637  0.19926928  0.01427727  0.1255941  -0.11909903
 -0.02957043 -0.00955541]
[-0.20912732  0.04031113  0.20123349 -0.13383693 -0.19795851 -0.09607337
  0.07558849  0.02519754  0.25570196  0.15253922 -0.02308987  0.00157689
  0.2650077  -0.25647277  0.3767214  -0.13611989 -0.12875219  0.19767343
  0.28732163 -0.19506925]
[ 0.2186436   0.03190934  0.24876662  0.2413756  -0.15100262  0.15211108
 -0.19319241 -0.29185876 -0.00235515 -0.07250413  0.33611223 -0.18982543
 -0.22150293 -0.18264283  0.27162987  0.26164782 -0.2885057  -0.119548
 -0.13167469 -0.2764977 ]
[-0.03173491 -0.01178347  0.01118062 -0.01062116 -0.05900521  0.02740268
  0.00770066  0.02875446 -0.0111461   0.01859716  0.00690774  0.00731852
 -0.03161609  0.01159258 -0.05604133  0.01411567 -0.02169785  0.066298
 -0.03755587  0.0062037 ]
layer 5 Activation
tanh
layer 6 Dense
20 1
[-0.2623584]
[-0.13898909]
[0.00521204]
[0.00544184]
[-0.31217307]
[0.06121505]
[-0.00582128]
[0.11571254]
[-0.08348429]
[0.00571996]
[-0.48108286]
[-0.22736798]
[-0.07081776]
[0.18375431]
[-0.23561002]
[0.31421405]
[-0.07338704]
[0.44149822]
[-0.01105238]
[0.03249253]
[0.03254356]
