layers 7
layer 0 Dense
20 20
[-0.7565372  -0.2569701   0.2171334   0.11051039  0.53315604  0.27115005
  0.07724238 -0.16471308  0.16490306  0.22408341  0.2241199  -0.174387
 -0.20852087  0.04451383 -0.27398494 -0.03332236 -0.39066583 -0.39065304
  0.22322477 -0.0868    ]
[-0.3172238  -0.19552957 -0.02770662  0.27421623  0.3666333  -0.40338257
 -0.14023155  0.45929113  0.4821667  -0.25780085  0.02975893  0.7098376
 -0.8079091  -0.6843403   0.1858378   0.3715892   0.15247391 -0.5438771
 -0.05521417  0.116021  ]
[-0.02221879 -0.26501092 -0.40943053  0.28395024 -0.13906233 -0.11610136
 -0.30542898  0.8360606   0.49987754 -0.92010075 -0.13605206  0.33846393
 -0.37277326 -0.3923374   0.33496007 -0.24472788  0.2856154  -0.41039076
  0.03331857  0.22909822]
[-0.21325009 -0.01570966 -0.23524892  0.27678868  0.59433407  0.03786559
  0.0550863  -0.02575463  0.15559813 -0.12135185  0.07005412 -0.35708874
  0.08325993 -0.16244607 -0.26764476 -0.00112168  0.15379131  0.19675806
  0.4738742   0.02445302]
[ 0.15422502 -0.21345972  0.4900931  -0.24481513  0.16264299 -0.08979026
  0.16246344  0.1050104   0.03693372 -0.09080853  0.0774336   0.16981655
 -0.01930522  0.13196526 -0.22405975  0.34556648  0.16638768 -0.28367776
  0.26658875 -0.1237651 ]
[-0.06250377  0.439622    0.16949043  0.02092997  0.07089262  0.04798068
  0.5181776  -0.47623533 -0.57869494  0.730426   -0.287298   -0.6890736
  0.27135226  0.16398175  0.17711352 -0.47493774 -0.5673809   0.33944404
  0.27691382  0.10668605]
[-0.28751913  0.326515   -0.08070093 -0.3116846   0.00397099  0.15845749
 -0.12411623 -0.60810155 -0.2910454   0.6272577  -0.3795788  -0.3705824
  0.5107595   0.50072896 -0.01380017 -0.42916417  0.11488429 -0.00267884
  0.67592037  0.2801832 ]
[-0.25695074  0.11890036 -0.12419657 -0.22248882 -0.524522   -0.23072244
  0.22595984 -0.13215855 -0.4488144  -0.31480107 -0.5560668  -0.01901692
  0.42835677 -0.105286    0.42533693  0.2503888  -0.22253904  0.10368358
 -0.11947858  0.02163339]
[-0.12343491  0.01595653  0.17254418 -0.03651409  0.351727   -0.23034824
  0.12283389  0.03544898  0.25969735  0.13133566  0.34817737  0.61907357
 -0.06130002 -0.5666811   0.36987436 -0.2778694   0.1649064  -0.2269414
  0.44353878  0.37056574]
[-0.44640297  0.17415638 -0.29166943 -0.5662948  -0.6372653  -0.083836
  0.02338611 -0.32331216  0.07464381 -0.70201516 -0.41263455 -1.1659515
  0.35598275 -0.32621098 -0.1424679  -0.14965834  0.10231104 -0.34102383
 -0.16593724 -0.05015644]
[-0.00485225 -0.31005228  0.11138982  0.03873722 -0.07764121  1.0350167
  0.11705244  0.34375548 -0.7011442   0.25505254 -0.3297069   0.651968
  0.5285137  -0.46101636  0.3942416   0.67910695 -0.22298425 -0.61246556
 -0.80796343 -0.53225636]
[-1.149859   -0.5064627   0.8423062  -0.68049616  0.16572551 -0.15061593
 -0.34790003  0.33337718  0.07725742  0.14494596  0.1809743   0.17771785
 -0.12256677  0.19864132 -0.27130443  0.17785737  0.37671244  0.04979232
  0.35610098  0.22582954]
[ 0.87418675  0.07279339  0.01111351  0.0741818  -0.334996    0.69907004
 -0.5781451  -0.7387317  -0.18549839  0.77162254 -0.47518787 -0.7436367
  0.6966257   1.1571864   0.30560285  0.84426725 -0.7279409  -0.01013148
 -0.3125131  -0.47847563]
[ 0.16009265  0.32427153 -0.33644485 -0.22416787  0.2946247   0.10111742
  0.17598647 -0.15474333  0.02759508  0.05150077 -0.22951326  0.08516836
 -0.08336229  0.02676626 -0.3012677  -0.29328775  0.10078383 -0.1604125
 -0.10296027 -0.11196081]
[-0.10980383 -0.05028815 -0.04697772  0.0290734   0.12694031  0.35006425
  0.05224608 -0.04647594  0.2564434  -0.10755816 -0.00932553  0.11243658
 -0.49653453 -0.06351128 -0.2366661  -0.35576308  0.03205711 -0.3165555
  0.03395202 -0.07116839]
[ 0.02239635 -0.9235002   0.08620486 -0.93607354  0.3550549  -0.47552532
  0.59241766  0.59121054  0.11646917 -1.0128094  -0.00154642  1.0314981
 -1.2408727  -0.4952582  -0.3249476   0.03946022  0.4903383  -0.32285783
 -0.6214071  -0.29202962]
[-0.4744758  -0.04644068 -0.29956043  0.19681884  0.07537671 -0.27439648
 -0.15160437  0.33485857 -0.21676601 -0.83073014 -0.13015677  0.2811854
 -0.41319576 -0.8224921  -0.3777949   0.15931371  0.5460242   0.5214304
  0.2183377   0.29715797]
[-0.15613298 -0.44511917  0.67401385  0.17274271  0.10118895 -0.11949785
  0.38554585  0.6501969   0.354927    1.3342725   0.37928146  1.1405693
 -0.38883117  0.7159678   0.32018867 -0.14590834  0.39445278 -0.471023
  0.5045294   0.49204573]
[-0.10176983  0.60145247  0.18012883 -0.59811586  0.5278257  -0.74630773
  0.14817406  0.1449172   0.4245555  -0.65709424 -0.26410618 -0.8523145
 -0.48762357  0.65747035 -0.95511794 -0.12876993  0.6703349   0.23706171
  0.8654444   0.66457015]
[ 0.12667678  1.0483164  -0.16464113  0.5748847  -0.4917033  -0.14217646
 -0.01430671 -0.8055933  -0.3299192   0.73678803 -0.28989837 -0.08071414
  0.82859844  0.5852558   0.62608135 -0.12669742 -0.35752457  0.4611058
 -0.46586922  0.06970715]
[-0.04984207 -0.23819643 -0.06858475  0.10749039  0.1440543  -0.0282809
 -0.00163853 -0.04444652  0.07678874  0.16591424  0.15656605 -0.15209019
 -0.06485768 -0.01951046 -0.14090529 -0.11106021 -0.05821652 -0.01242053
  0.05026282 -0.08898314]
layer 1 Activation
tanh
layer 2 Dense
20 40
[ 0.04788527  0.25684604  0.4354519  -0.19631891 -0.04810492 -0.09255709
 -0.07172124  0.01715198  0.1755838  -0.26886111  0.1589686  -0.02113227
 -0.14708295 -0.10433794  0.03313366  0.250236    0.00493073  0.02473382
  0.11379462 -0.00531068 -0.283474    0.07418574  0.15269123 -0.02788989
  0.30619     0.34871426  0.23114398 -0.41025177  0.0784497   0.3129701
  0.15836188 -0.09228858 -0.04906351  0.15278402 -0.01279485  0.24948196
  0.02755853  0.07759655 -0.23196073 -0.18116228]
[ 0.17543189 -0.0284571   0.7252237  -0.13232328 -0.02534401  0.3777363
  0.23576243  0.03255249 -0.13436651 -0.23967499  0.0016145   0.07656675
  0.2018839   0.18655714 -0.18668143 -0.06719956 -0.36753765 -0.06341027
 -0.0220866   0.18107486 -0.32448304 -0.0700865  -0.24492137  0.13331722
  0.39045775 -0.1601967   0.21165857  0.2422034  -0.11011249 -0.05903658
 -0.4186338  -0.14974335  0.4781489  -0.08673724  0.01655352  0.47480905
  0.25088516 -0.00616291  0.27982867 -0.17019096]
[-0.1442673   0.12716606 -0.32754618 -0.0932721   0.3696739  -0.03963144
 -0.22149146 -0.0523066   0.14681359  0.15819703 -0.23817888 -0.26184684
 -0.02878958 -0.11312056 -0.01912808 -0.19995946  0.10356386  0.17661898
  0.11589684 -0.07120965 -0.28106564 -0.2713016   0.60255396  0.07665232
 -0.00299479  0.14843237 -0.15239052  0.13841037  0.23520009  0.15371308
  0.09606661 -0.1819896  -0.19046886 -0.26886788  0.19798453 -0.15041263
  0.05384767 -0.18963948 -0.31382936 -0.15951708]
[ 0.3026996   0.03916707 -0.065302   -0.35849282 -0.2251874  -0.30607536
  0.01192631 -0.11954471  0.09715372 -0.08689329  0.29629412 -0.31530917
 -0.10835575 -0.28528547 -0.09343234 -0.014531   -0.05467974  0.3123054
 -0.22180857 -0.24947643 -0.45218346 -0.03613727 -0.05581465 -0.24156159
 -0.19299704 -0.16698751  0.09072985 -0.14609183 -0.24497508 -0.03166186
 -0.04189563  0.41926825 -0.1779782   0.19025584 -0.24569714  0.36214936
 -0.13972136 -0.03070082  0.08865702  0.13724723]
[-0.22779098 -0.16691127 -0.60536784 -0.32699504  0.24635044 -0.250353
  0.02512525 -0.2669      0.41575548 -0.29083678 -0.24048746  0.20768581
  0.01276653  0.17990397  0.24850713 -0.10131499  0.23903237  0.18870619
 -0.32912156  0.07052772 -0.07152141 -0.04469597 -0.2740468   0.08918523
  0.11558834  0.17646125  0.0117291   0.1747647   0.2979945   0.10581266
  0.3026333   0.26401153 -0.09559281  0.33590624 -0.38142657  0.07264899
 -0.057275   -0.16172451 -0.18144138  0.01227337]
[-0.10934447 -0.2039431  -0.10466836  0.0693804  -0.05781792 -0.36314917
 -0.23908387  0.20714648 -0.07808711  0.1422008   0.3999071  -0.00373615
 -0.06737722 -0.03015489  0.27538076 -0.01026324  0.42328733  0.18093887
 -0.24686345  0.17575994  0.14142512 -0.13316284  0.31194118  0.27998066
 -0.28557318 -0.10373271  0.25731543 -0.29080486  0.03022406 -0.16977793
  0.2722197  -0.14409232 -0.19087933 -0.05410199 -0.2044581  -0.0438621
  0.10269992  0.1116645   0.07881567  0.14893967]
[-0.31793657 -0.0526066   0.2793783   0.15103738 -0.00234428  0.30071315
 -0.19976246  0.16570278  0.14444065 -0.00049224 -0.15077583 -0.2095698
  0.17025916 -0.46491295 -0.13788103 -0.33070314 -0.16739367  0.08316034
 -0.02473077  0.01372685 -0.10234027  0.14128157 -0.07371792 -0.32816622
  0.09422439 -0.05062337  0.12286834  0.15167505 -0.14220189  0.09133752
  0.08278823 -0.10013663 -0.07575826 -0.16333887 -0.02978985 -0.05410603
 -0.10194556  0.06251621  0.21985891  0.16973907]
[ 0.03507673 -0.26007125 -0.02317764 -0.00416853  0.37482542 -0.32368392
 -0.2544708   0.02042281 -0.08352948  0.23847672 -0.0744721  -0.05513028
 -0.02121289 -0.03629256  0.2845341  -0.03510686 -0.17132412 -0.32696936
 -0.02860329  0.06307799  0.18806756 -0.02432976 -0.07439931 -0.05783684
 -0.33250505 -0.04534088  0.21924634  0.07365017  0.07853405  0.13792646
  0.1088125   0.29412317 -0.11501855  0.17072007 -0.13148016 -0.26973838
 -0.15724127 -0.2609964  -0.25223112 -0.14799039]
[-0.14756237 -0.09047358 -0.36121252 -0.24992147  0.18103756 -0.16231176
  0.31231394  0.04084335 -0.16028292  0.01530932 -0.34697488  0.0707809
 -0.01435578 -0.13059624  0.11286877 -0.12615767  0.25240493  0.15057732
  0.12324143  0.24550039  0.37205607  0.22252885 -0.2521395   0.02440394
  0.17357023  0.24312977 -0.07244577  0.1017928   0.21256222  0.11149019
  0.06941164 -0.05641103  0.02973025 -0.01704854 -0.17842431  0.05705255
  0.051711   -0.1292716  -0.20083019 -0.05221335]
[-0.43969852 -0.16627295 -0.3407907   0.21200015 -0.09222382 -0.17310596
 -0.24987556 -0.24681756  0.30136797  0.13074923  0.662118    0.09633115
 -0.38794437 -0.55656636 -0.02209534 -0.28242368  0.23058508  0.00180961
 -0.41277623 -0.09584906 -0.3581088  -0.12977052  0.48832315 -0.063967
  0.5681489   0.28317842  0.398727   -0.22879575 -0.05588517 -0.05861352
  0.09719934 -0.5609918  -0.41951242 -0.17691022 -0.2892712   0.49203572
  0.10597757  0.02810704 -0.18479037 -0.0685951 ]
[ 0.02123581  0.12699075 -0.25371808 -0.09977502 -0.08305972 -0.2823173
  0.05100883 -0.18201686  0.01763168  0.2801482  -0.02216149  0.11607666
  0.20392074 -0.39178565 -0.05936028 -0.06078249 -0.03772361  0.23626967
 -0.32555342 -0.08799718 -0.10010577 -0.21786882  0.0922251  -0.24494857
 -0.26468992 -0.12014528 -0.03279904 -0.11253268  0.11080174  0.10215264
  0.12902294  0.02287323  0.09604304  0.06153679 -0.2431706  -0.03999303
 -0.0765048  -0.36651862  0.13896048  0.17431311]
[-0.4671384  -0.02877754 -0.39748198  0.34522006  0.46194583  0.2130055
 -0.7967793   0.21613406 -0.0054886  -0.21333651 -0.29416302  0.1638249
 -0.29084384 -0.20632446 -0.20440538 -0.15551838  0.02542324 -0.24810731
  0.08618299  0.03822262  0.41090307  0.06114756 -0.19205303 -0.08532023
 -0.6202674  -0.5518295   0.02372207  0.13095152 -0.1173522   0.16812904
  0.15190725  0.10962413  0.03364523 -0.51610315 -0.03080434  0.07408174
  0.11825771 -0.3689388   0.3187455   0.43321055]
[-0.21046126 -0.03877141  0.5328479   0.13790037 -0.19783889  0.13862902
  0.13794662  0.21430501 -0.13992734 -0.2616412   0.51827073  0.04253304
 -0.19988684 -0.07337588 -0.22563982  0.03572909  0.00778509  0.17528465
  0.15704036  0.24283898 -0.30739853  0.23269543  0.42204434  0.02652037
  0.17960247  0.14051065  0.20802109 -0.42950913 -0.06855056 -0.39367083
 -0.470516   -0.16048984 -0.0439756  -0.10468404 -0.02013229  0.21342693
  0.05527929  0.12773868  0.06758311  0.25580838]
[-0.00776464 -0.03670759 -0.17145385 -0.08975111 -0.07036766 -0.24436149
  0.30163753 -0.5046936   0.03503325 -0.01260429  0.3565701   0.08525879
 -0.14519109 -0.23279634  0.13094075 -0.09768137 -0.38687265 -0.35913652
 -0.07347997  0.04928609 -0.633102   -0.05098697  0.39105415  0.02711005
  0.72929853  0.72123945 -0.1472336  -0.14774635  0.21262233 -0.09807174
  0.03522072 -0.2785006  -0.26533702 -0.12904161  0.23077674  0.11534499
 -0.2657044  -0.05653442 -0.10453355 -0.20803992]
[-2.18689904e-01  7.56128132e-02  2.39993766e-01 -1.01820670e-01
  1.55552905e-02  1.05363794e-01 -1.57351524e-01 -2.23089769e-01
 -7.78164249e-03  8.38276893e-02  3.51348341e-01 -1.69390246e-01
  1.13100670e-01 -6.20654635e-02  7.01857805e-02  1.63084254e-01
 -1.08886175e-01 -2.11240560e-01  9.17054266e-02  2.02204749e-01
 -1.97424427e-01 -4.44332894e-04  2.68794894e-01 -3.95756215e-03
 -3.08247745e-01  5.95771410e-02 -4.55895402e-02 -1.12440012e-01
 -2.66450226e-01  6.06354363e-02 -2.89585646e-02  3.13919425e-01
 -4.63211656e-01 -3.64504486e-01  2.01140568e-01  3.58752549e-01
  1.80346929e-02 -4.11577988e-03 -2.74366420e-02 -4.16517369e-02]
[-0.38901487 -0.20150997  0.02923036 -0.10642768 -0.06032333 -0.1782344
 -0.23472859  0.48235938 -0.1433362  -0.17536186  0.066967   -0.10081028
 -0.34284908 -0.1410699   0.00050667 -0.06884456 -0.06127193  0.11001233
  0.01203634  0.04143923  0.2690925  -0.10707293  0.49262223  0.21333843
  0.2439282   0.167755    0.09666576  0.032752   -0.04381514 -0.03618789
 -0.10284013 -0.09516869  0.02114584 -0.4040823  -0.20847073 -0.01679998
  0.3192033   0.06155535 -0.34007138  0.1870179 ]
[ 0.24861458  0.15131901 -0.10445794 -0.21177024  0.18541811  0.19476889
  0.2844032  -0.11083537  0.37573034  0.16464783 -0.39553314 -0.2180411
  0.17381215 -0.02423066 -0.04398037 -0.05379162 -0.40468356 -0.28896767
 -0.14007334 -0.07913975  0.00052451  0.03135617 -0.18483423 -0.40998492
 -0.23109376  0.2621557  -0.24196534 -0.06617106  0.01182059  0.29016942
  0.09392922 -0.16020384  0.13830082  0.21015508  0.2968697  -0.02761983
  0.02585162 -0.09074017  0.02864913 -0.21807288]
[ 0.40009457 -0.25432935  0.29395583  0.24334876  0.03630622  0.20007236
 -0.10391688  0.17322077  0.12805793  0.21016502  0.2639138  -0.00242334
  0.22162256  0.22419864  0.13730851 -0.20899655 -0.19972259  0.09558232
  0.16020803 -0.299853   -0.10781841  0.24761814 -0.56509763 -0.19975562
  0.39901432  0.01135486 -0.1485153   0.08214133  0.01311163  0.16637531
 -0.19494028 -0.13871522  0.4017286  -0.1840815   0.28693599  0.32267776
 -0.15439059  0.3037053   0.3029769  -0.19564585]
[ 0.3305211  -0.07384804 -0.53401256 -0.04896474  0.2768      0.22640587
  0.12698047 -0.5505253   0.04408651  0.05664969  0.02458875  0.17282821
  0.25322235 -0.23793896  0.17729793 -0.20381877 -0.04185518 -0.330619
 -0.27168697  0.0975073   0.09992477  0.17664167 -0.06999876 -0.16724315
  0.25233194  0.4814862  -0.14301163  0.20666945  0.427248    0.24835852
  0.33972538 -0.09218793  0.00889028  0.31045    -0.3283564  -0.16985162
 -0.20832448  0.07350853 -0.04611154 -0.04126   ]
[ 0.21646601  0.0189822   0.39740938  0.03003526  0.28734252  0.05967396
 -0.21066704 -0.29756233  0.12280104  0.17953259 -0.302083    0.10389318
  0.47750935 -0.21472661 -0.0102454   0.04883105 -0.36381513 -0.26177976
  0.02857844  0.10232423 -0.15805274  0.18878658 -0.10819623 -0.12701376
  0.15797342  0.1588716  -0.15996882  0.3680449   0.02107702  0.24897699
  0.01753941  0.25487062  0.27245778  0.01029223 -0.16843732  0.21006511
  0.13630152 -0.03499821 -0.14837135 -0.3014437 ]
[-0.07644268 -0.04886863 -0.11663838 -0.23331377 -0.08169295 -0.13866563
  0.1785151  -0.03614959  0.13972935  0.02705829  0.05813709  0.09595966
 -0.02842192 -0.07790434  0.10062536  0.0340834   0.17290479 -0.00507221
 -0.25583836  0.00621023  0.12790906 -0.04228158 -0.0992248  -0.0418872
  0.01650002 -0.10830931  0.00715972 -0.10229495  0.1214582  -0.0035982
  0.31605008  0.53723294  0.02977871  0.1631449  -0.03199116  0.07906176
 -0.04523307 -0.13266675  0.02601879  0.05073509]
layer 3 Activation
tanh
layer 4 Dense
40 20
[-0.03068794 -0.02496203 -0.27292824 -0.07348642 -0.0643556   0.15040062
 -0.01268546 -0.15241796  0.2146312   0.23087083  0.02540656  0.27413705
  0.03377963  0.19191903 -0.1147802  -0.29272327 -0.04532941 -0.17814343
 -0.04260064 -0.17895435]
[ 0.2067809  -0.04496064 -0.15392134 -0.01275831 -0.21791661  0.2089418
 -0.2980376  -0.07021707 -0.17378816  0.10504588  0.22289054  0.15129597
 -0.19945525 -0.07592624  0.03377501  0.1927561  -0.16348544  0.0774309
  0.01495082  0.12689655]
[ 0.30691376 -0.17914921 -0.31728312  0.01231859 -0.3159484  -0.28949034
 -0.26126006 -0.21314588 -0.18821727 -0.18514273 -0.23328461 -0.16402934
 -0.16162054 -0.06002987  0.03734241 -0.22375862 -0.08058567 -0.17755306
  0.1979824  -0.21602044]
[ 0.0661744  -0.15703702 -0.17205548  0.0246571  -0.13290544  0.15954618
 -0.2077048  -0.2231433   0.21685204  0.11594658  0.16023824 -0.0917192
  0.01801736  0.12284071 -0.17200513  0.28722382  0.3754018   0.15247078
  0.16350156  0.10937812]
[-0.3308937   0.23275581 -0.07231499 -0.09859952  0.13693216  0.1329417
  0.10795803 -0.20161071 -0.07174482 -0.0803773   0.16839795  0.05514393
  0.09931666 -0.04583124  0.0742498   0.21324813 -0.0614015  -0.25081125
 -0.1844299  -0.17975189]
[-0.0593794   0.04316534 -0.16959703 -0.04062328 -0.19790462 -0.24665976
 -0.39709982 -0.3459252  -0.28881872 -0.07112444  0.04255437 -0.2395696
  0.17706546  0.0156122  -0.2674163  -0.10381199 -0.24702613  0.05179039
 -0.05921997 -0.10523896]
[ 0.05964275  0.21556908  0.3011345  -0.02899651 -0.0611106   0.1538465
 -0.26344284  0.25233963 -0.01534934  0.02924795 -0.28148934  0.20153596
  0.20194498  0.10368908 -0.25807938 -0.2745582  -0.01592042  0.04648446
  0.14026153  0.23063022]
[ 0.11319505 -0.01355772 -0.1906711  -0.05562946  0.22332186  0.27408466
 -0.3043599   0.1352753   0.25237903  0.16474663 -0.184675   -0.22797863
 -0.23100969  0.11644506 -0.06122369  0.20191874  0.07012898  0.1252688
 -0.09452029  0.2262427 ]
[-0.3018017  -0.09273241  0.2939761   0.05544994  0.08731715 -0.05661468
 -0.05780343  0.02593869  0.24443385 -0.19182654  0.10101491 -0.14475088
 -0.13429365 -0.04197321  0.04550259 -0.17045882 -0.09597651 -0.02295444
  0.07552671 -0.19835319]
[-0.37641433  0.11737638  0.20485015 -0.10726037  0.18771371  0.07072255
 -0.22194545 -0.02664199 -0.09699123 -0.10530576  0.06234144  0.11727396
 -0.11252384  0.21288429  0.00474731 -0.19592929 -0.35157028  0.01145828
 -0.08740824 -0.00095966]
[-0.21024826 -0.18216828  0.14687896 -0.1632742  -0.06682429  0.04674531
 -0.2738379  -0.16626373 -0.20534925  0.08341794 -0.41655114 -0.28634867
  0.05249638 -0.25078523  0.0457428  -0.11333016 -0.01584437  0.25169447
 -0.05688091 -0.09740087]
[-0.10459585  0.14971913  0.14888817 -0.17739795 -0.12296593 -0.23988011
  0.05351688  0.20102246 -0.08710674  0.11920193 -0.13567911  0.12304321
 -0.03349126 -0.07571401 -0.18120378  0.09327167  0.36310068 -0.2524725
 -0.05991874  0.04150164]
[-0.10211856 -0.11382174 -0.2070988   0.3485109   0.06893294  0.10576233
 -0.11346219  0.05104651  0.25677177  0.15368836  0.25071675  0.21788369
  0.03134125 -0.02474272 -0.17168325 -0.27339864  0.12058932  0.06112123
  0.05313555  0.04074308]
[ 0.31736502 -0.22857773 -0.32959768  0.118725   -0.1639009   0.01456076
 -0.11555975  0.2320825  -0.13021956  0.22080666  0.11366363 -0.21728155
 -0.00361638 -0.09552932 -0.11655203  0.01971596  0.18078557 -0.04770968
  0.30811676  0.06004191]
[-0.04031991  0.14363539  0.11233978 -0.02945621 -0.03433209  0.04067274
  0.27568686  0.15341432 -0.282055    0.07149523  0.13540632  0.15350853
  0.21547988 -0.05791864  0.15624101 -0.19200411 -0.02027808 -0.21715562
  0.05262257  0.07393062]
[ 0.17871669 -0.05819915 -0.22394817  0.13670355 -0.19891927 -0.23059824
 -0.36565897 -0.09785078 -0.06494496  0.36011586  0.09159244 -0.13987131
  0.20134589 -0.01382177  0.1640689   0.05358412 -0.20928377 -0.16494341
  0.10559444  0.09238966]
[-0.06192565 -0.22664471  0.16793236  0.0279398  -0.03236064 -0.03884357
 -0.04562379  0.43970862  0.20236415  0.08761383 -0.20103377 -0.23128061
  0.2808338   0.14449275  0.20581709  0.3023647  -0.16291195 -0.22349624
  0.14157511  0.24584353]
[-0.10325959 -0.0098109  -0.17058612  0.15267171 -0.07267621  0.13283117
  0.25824478  0.29484916  0.23359452  0.09074535 -0.3938972   0.01691749
  0.2354062   0.18468247  0.13915609  0.05294484 -0.07004291  0.28346428
  0.00097226  0.10985721]
[ 0.24487615 -0.25621438 -0.30248013 -0.09769661 -0.2001188  -0.24750032
 -0.21697585 -0.39396578 -0.2778032  -0.06342055  0.07155286 -0.15802085
  0.20973094  0.07328875 -0.13808139  0.16366054  0.29160917  0.01288338
 -0.10980219 -0.21076217]
[ 0.32070526  0.34625354  0.16947256  0.19383    -0.13143797  0.04865976
 -0.06057491  0.01712124 -0.17230247  0.11134913  0.2490104   0.11181889
  0.15048067 -0.24168332  0.29154414  0.12412895 -0.25250763  0.13375998
  0.13068774 -0.07283336]
[ 0.22573403  0.11451146 -0.28549433  0.10984384  0.17072329 -0.25124186
  0.08663796  0.20177293  0.01905259  0.16246727  0.13502836  0.1121894
 -0.18502691 -0.2828795  -0.10201122  0.16178478 -0.20617315 -0.13935353
 -0.03241352  0.4284811 ]
[ 0.21182974 -0.07294071 -0.1655821   0.02886106 -0.40923202  0.31793624
 -0.06538433 -0.08159732  0.06720042  0.10547705  0.19422355 -0.02214158
 -0.14992116  0.13781342 -0.01478876 -0.22657058 -0.13662384  0.129869
 -0.06532327 -0.08433092]
[-0.13906732  0.11325126  0.03911484 -0.12561236 -0.15563618 -0.07646256
 -0.14824742 -0.40994912  0.00703563 -0.10947673 -0.03889539 -0.11157312
  0.3100149  -0.14282794  0.40527248  0.32655886 -0.14095789 -0.30577213
  0.35121936  0.4005538 ]
[ 0.2496481   0.11647885  0.03342799  0.06550677  0.15567592  0.09994702
  0.07739201  0.07753965  0.3019876   0.01008154 -0.2728526  -0.02742096
 -0.2114278   0.2010795  -0.15809312  0.24150993  0.26686758 -0.06193149
  0.26403317  0.21434425]
[ 0.33195937 -0.09017905  0.30700582  0.19421418 -0.06594151 -0.31173566
 -0.06323941 -0.396033   -0.09293353 -0.3553364  -0.25019664  0.35135302
 -0.10795874 -0.24637242  0.3039996  -0.46361834 -0.05391939 -0.05315362
  0.07636089  0.18359931]
[-0.0252212  -0.2962848   0.14910977  0.0415845  -0.2773947   0.17458381
  0.12962697 -0.11614052  0.24423374  0.00916884  0.134826    0.274226
 -0.10533351  0.18960656  0.06412388  0.0086486   0.22201197  0.2609737
  0.19192313  0.14931014]
[-0.09471432 -0.05515721 -0.05882047 -0.2627227   0.09490788  0.17948772
 -0.21459192 -0.04721743 -0.15167648 -0.22059411 -0.1001368  -0.24125887
  0.26655328  0.38691062  0.25455824  0.1145066   0.31025624  0.02320952
  0.09606403 -0.22786516]
[ 0.01733872 -0.14328812 -0.06107724  0.02953754 -0.20283876 -0.21661696
  0.27387413 -0.11066858 -0.07406154 -0.0843114   0.16452886  0.13547686
 -0.3982643   0.13475628 -0.40962303 -0.25520927 -0.18414527  0.1657451
 -0.16657127 -0.02272829]
[-0.19524838 -0.2608202   0.1150073  -0.20724575  0.12596112  0.07749875
  0.10359748 -0.03913987  0.00918319  0.18507443  0.24708657 -0.0723957
  0.06296616 -0.09954437 -0.05901379 -0.13350216  0.0945948  -0.25549015
 -0.27348578  0.31703278]
[ 0.03287338 -0.2020345   0.39000252 -0.25240678  0.1572287  -0.14893734
  0.1613959   0.16614027  0.23279312 -0.12079925 -0.04314449  0.38998133
 -0.02529048  0.06567215 -0.19873919  0.16677512 -0.17132683 -0.16448282
 -0.03011634 -0.28742412]
[-0.34995958  0.10190825  0.19007626 -0.02019215 -0.19211048 -0.04081792
  0.14945394  0.25293303  0.182926   -0.02960397  0.07051967  0.30098182
 -0.12088235  0.00494062  0.16918789  0.13549392 -0.12612678 -0.3018652
 -0.04052498  0.10874537]
[ 0.001015    0.23483077  0.17613241  0.00068331  0.1394416  -0.2665443
 -0.19243757  0.36333334 -0.23819885  0.09105512 -0.08468682  0.14645566
  0.27082154  0.14501314  0.0981367   0.03554893 -0.35319787 -0.15631884
  0.12430487 -0.17415296]
[-0.02932931  0.19428006 -0.14581068  0.02416672 -0.05194308  0.09045805
 -0.01631091 -0.14695391 -0.20724986  0.34076712 -0.07101054 -0.10123092
 -0.24436595 -0.17184052 -0.29494    -0.22261278  0.18106483 -0.10503894
 -0.16654895 -0.00529419]
[-0.08306155 -0.21181801  0.00791704 -0.2212147   0.26301447  0.20705405
 -0.11361916  0.4432927   0.16880728 -0.08937745  0.13640293  0.0627003
 -0.06125411  0.00177821 -0.02164249 -0.4013556  -0.07903206  0.13190635
 -0.05862634  0.16280161]
[ 0.24128795  0.30874124 -0.27634776  0.06050184  0.07244637 -0.06515823
 -0.13064183 -0.17746566  0.04527853 -0.1547733   0.10473894  0.15188187
 -0.21312636  0.24844201 -0.22420965 -0.21590014  0.11371662  0.22448035
 -0.0953948   0.18879908]
[-0.23594329 -0.25997707  0.07600106  0.09196267  0.05420741 -0.01354225
 -0.16861723 -0.10417068  0.35951734 -0.16829564 -0.1079463  -0.23426975
  0.0236953  -0.0224904   0.03233618 -0.19254422  0.00337449  0.11730602
  0.00634158 -0.36301208]
[ 0.17782131 -0.01109703 -0.22344013 -0.10189971  0.29716718  0.04053031
 -0.14132696 -0.18513301 -0.09057886  0.08619936  0.19148944 -0.1905015
  0.22791475 -0.06463285  0.2318276  -0.10840928 -0.2847984   0.06626505
  0.04389742  0.15002236]
[ 0.25773373 -0.17968494 -0.193448    0.02766071  0.10949375  0.0693354
 -0.1108062  -0.08588071  0.03257771  0.2715354  -0.04701849 -0.14588818
  0.17007804  0.1912173  -0.12302362 -0.13175242  0.17417933 -0.10449874
  0.07652006  0.08951505]
[ 0.27268252 -0.15126708 -0.29121476 -0.00511804 -0.38781667  0.20467404
 -0.03580855  0.22889428  0.04103326  0.03438542 -0.1329524   0.02616112
 -0.27826026 -0.26331714 -0.10440934 -0.09577734 -0.16185851  0.04436121
  0.07407075 -0.25374603]
[-0.20439754 -0.29568052 -0.2770434  -0.20545192  0.03504811  0.29088938
  0.2756865   0.07768426 -0.01831495  0.22244594 -0.05679117  0.02067664
  0.21793938  0.04865561  0.29163253  0.15761201 -0.22357245 -0.11201316
  0.22876626 -0.10643942]
[-0.00042706 -0.06988196  0.16893704 -0.13351643 -0.01882702  0.02540391
 -0.09363049  0.10614979 -0.01425155 -0.04087469 -0.10284799  0.11350168
 -0.03873817 -0.0262097   0.07766145 -0.14360602 -0.05064945 -0.03323696
  0.03972901  0.02378324]
layer 5 Activation
tanh
layer 6 Dense
20 1
[0.02209962]
[-0.01415122]
[0.12257078]
[0.00461346]
[-0.02421112]
[0.00733135]
[-0.03410917]
[-0.12050644]
[0.00594052]
[-0.00216873]
[-0.09452851]
[0.08161017]
[0.0244092]
[-0.02698214]
[0.08098497]
[-0.09391013]
[0.04440927]
[0.00167584]
[0.00062837]
[0.0690821]
[0.01722284]
