layers 7
layer 0 Dense
20 20
[ 0.3694454   0.11653685  0.25439632 -0.13534352  0.5616394   0.1375978
 -0.0538375  -0.2766962   0.19464241  0.04852534  0.2674288  -0.18075183
 -0.15841609 -0.25313354  0.1935919  -0.2140703  -0.12373164 -0.18186647
  0.264407   -0.2740238 ]
[ 0.477134   -0.10906106 -0.26586705 -0.4391665   0.49863866  0.24784334
  0.2285312   0.15769546 -0.08715904 -0.20498379  0.2645923   0.11470353
 -0.21562825  0.37512448 -0.38402283  0.24887463 -0.47878245  0.39739683
  0.14120159 -0.0128382 ]
[ 0.50563884 -0.38628358 -0.7300926  -0.61226374  0.42900407 -0.35425413
  0.41948584 -0.32265243  0.07092907  0.07276734 -0.16583268 -0.23051727
 -0.31463125  0.08814104 -0.4841162   0.05886963 -0.46794182 -0.1117018
 -0.02205414  0.31507292]
[ 0.48805058 -0.05017144  0.47306916  0.19906889  0.24444816  0.23865645
 -0.27662602  0.09826779 -0.12364953  0.04667383 -0.0989923   0.17450069
 -0.36683384 -0.40220582 -0.14987606 -0.4637842  -0.18339866  0.29588923
  0.3848437   0.14256912]
[ 0.00768658 -0.47367483 -0.03082141 -0.32576188 -0.3693081  -0.13274866
 -0.14067635  0.46220022  0.52079636 -0.07614192  0.04521878  0.39493126
  0.18930878  0.14953549 -0.10857289  0.6512986  -0.16720985  0.1664542
  0.51225996 -0.40374666]
[-0.26397303  0.05582264  0.21116062  0.61813235 -0.3000406   0.22192843
 -0.8196405  -0.06628881  0.15165983 -0.03482435  0.2165853  -0.43793243
  0.15919688 -0.04939714  0.02660439  0.52868354  0.42834264  0.13130838
 -0.06237008 -0.03774315]
[ 0.16025701  0.09203074  0.6009703   0.45427668 -0.74928564  0.17793952
 -0.47569537  0.09334758  0.2245092   0.18094681 -0.1098039   0.07554464
  0.00978707 -0.04453278  0.09717215  0.4580427   0.33530742 -0.3376695
 -0.345206    0.11653878]
[-0.8843746   0.39967182 -0.26250768 -0.00957002 -0.03218801 -0.01557868
 -0.17735754  0.12860397  0.01090324 -0.42569697  0.25180632 -0.5625654
  0.21509326  0.18787126  0.2740633  -0.86583185  0.03977365  0.07215022
 -0.2297948   0.02520447]
[ 0.17118968 -0.6446116  -0.35609236  0.04905356 -0.21471521 -0.00311313
 -0.36940354 -0.7349541  -0.28134802 -0.22588103  0.1268435   0.6396375
  0.3213981  -0.61052847  0.715283   -0.925253    0.02732401  0.19887167
  1.096585    0.40935948]
[ 0.74663085  0.38295293 -0.5649124   0.16102163 -0.15054442 -0.6058329
  0.07929327 -0.74768054 -0.41237423  0.03925775  0.32247588 -0.28627712
 -0.00654406  0.23672968 -0.43500546 -0.08862502  0.09070835 -0.18237354
  0.7011875   0.1800103 ]
[-0.6502937   0.29747576 -0.79665023  0.34515518 -0.05621387 -0.9271266
 -0.09223707 -0.29879084  0.7726649  -0.25421607  0.3970975  -0.19200224
 -0.29463637 -0.99944264  0.02801385 -0.08523349 -0.79920816 -0.20246336
 -0.25540286  0.40837574]
[-1.1205531  -0.97225595 -0.5197698  -0.35211036  0.73787504  0.68700105
  0.39779714 -0.01240376  0.44757852 -0.5347242   0.8803274   0.53516763
  0.42106572 -0.7718244   0.18703192  0.09769344  0.34503302  0.87319607
  1.1463027   1.065671  ]
[-0.1568409  -0.17228241  0.3553768  -0.06199645  0.7279074  -0.15054317
  0.38583484  0.8243141   0.7395984   0.24472636 -0.25778806  0.5712416
  0.33023918 -0.03636671 -0.46136042  0.12654303 -0.3615647  -0.07091901
 -0.22994366 -0.23296963]
[ 0.21753526 -0.5865802   0.0229675   0.0230625   0.41959742  0.01290052
  0.49089557  0.10314105 -0.16347142 -0.01180588  0.09870873 -0.6730324
  0.17109205  0.15951422  0.6503371   0.1571221  -0.77110916 -0.47677994
 -0.05457143 -0.95294905]
[ 0.44256365 -0.1772916   0.28252363  0.72372097  0.41448832  0.31211495
 -0.34792882  0.02896607  0.08569777  0.00829317 -0.45752054  0.5549124
  0.6572991   0.17199841  0.19630142 -0.15236889  0.46035647  0.36402014
  0.2665041  -0.18477513]
[ 0.27794853 -0.34313253 -0.78896433 -0.5460633  -0.7101838  -0.5670651
 -0.36544612 -0.42193064  0.5386033   0.97859764  0.09929878  0.35258463
 -0.8587134  -0.05932044  0.7666825  -0.3809555  -1.6794438   0.6211628
 -0.6896107  -0.8606346 ]
[ 0.4600948   0.46073756 -0.03820034 -0.57346034 -0.25193983  0.07816117
 -0.08886436  0.70997995  0.20366372 -0.31492245  1.0190303   0.8709433
 -0.20266733 -0.6364672  -0.36672726  0.04531018 -0.17005002 -0.30935448
  0.96486497 -0.44851118]
[-0.27798322 -0.19692348  0.31942007 -0.51495993 -0.5026833   0.3931168
  0.18307301  0.5973227   0.41785625  0.4145809  -0.7241653   0.66582406
  0.06158019 -0.56817394  0.41139683 -0.9675298   0.17921418 -0.17359656
 -0.4734322   0.68027794]
[ 0.368912    0.5958466   0.44378448 -1.058457   -0.45007795  0.7490622
  0.48874322  0.5531006  -0.7678638   0.31838286  0.13795523 -0.3283714
 -0.384236    0.5580301   0.6698217  -0.06826216  0.6662259   0.03043439
  0.13323192 -0.2893294 ]
[-0.06646931  1.219189    0.52767473 -0.02273488  0.61823905 -0.03837569
  0.16284561 -0.19344303 -0.31060326  0.14971799  0.02201862 -0.6267071
  0.2296666   0.56813085  0.07180767 -0.7192959   0.15891887 -0.44572818
  0.12861325 -0.44914258]
[ 0.24833117 -0.11574718  0.10060346  0.21974564  0.03771493 -0.09198406
 -0.06150722 -0.1252518  -0.03424431  0.23095094 -0.16458723 -0.07167069
 -0.3139428   0.0460135  -0.19045326  0.2745164   0.00135422  0.01381372
 -0.14174765  0.08737512]
layer 1 Activation
tanh
layer 2 Dense
20 40
[ 0.2462393   0.15488985  0.4479384   0.14646623  0.44520953 -0.28438628
 -0.05004273  0.11379588 -0.03107254 -0.35156393 -0.20882818  0.32881492
  0.30919465 -0.22216246  0.10475288  0.30899516  0.26353085 -0.14231679
 -0.00845151  0.1736529  -0.2836567   0.28269172  0.21863812  0.2868569
  0.34379536  0.267528    0.46276066 -0.06997398 -0.02006645 -0.2750838
 -0.0519511  -0.36410332  0.05850537  0.00464721  0.06835525 -0.07551233
 -0.06425411  0.20732686  0.23105264 -0.19508836]
[-0.341326    0.1203455  -0.35407937  0.07937297 -0.16008328  0.38906676
  0.03111884 -0.5816859  -0.11266886 -0.4303491  -0.05719167 -0.10376764
  0.04556827 -0.19741955 -0.1309157  -0.03975197  0.58320045 -0.01135135
  0.16163373 -0.32547018 -0.601879    0.4673598   0.3624172  -0.39089152
 -0.666932   -0.1142186  -0.31368285 -0.08298483 -0.14841658 -0.01984215
 -0.11709161 -0.16978528  0.21994114 -0.25442603 -0.10483624 -0.01657459
  0.3349693  -0.42451614 -0.31118363 -0.24780735]
[ 0.27317542  0.16026792  0.05899008  0.04904141 -0.1402635   0.2253425
  0.34774408 -0.22115384 -0.01917614 -0.33687946 -0.2015697   0.0743835
 -0.2531021   0.28263098  0.3599377   0.0468179   0.4560868  -0.04015709
  0.13516589 -0.02669143 -0.3111749   0.40458637  0.535221    0.11771642
 -0.23461396  0.25116274 -0.07892107 -0.2851631  -0.09204292  0.42477882
  0.28981796 -0.44078434  0.15539737 -0.20592009  0.11697361 -0.2891178
 -0.25076333 -0.26345447 -0.12867889 -0.29125172]
[-0.3665715   0.12589338 -0.14842226 -0.2807099  -0.10525345  0.3361174
 -0.05639087 -0.46124285 -0.21763913 -0.31988966 -0.06687219  0.0348294
 -0.31362107 -0.03086817  0.10278294 -0.0964535   0.33728963  0.05289464
  0.23482695  0.14151679 -0.09909748  0.19712916  0.28315386 -0.33958662
  0.41071886  0.02585594 -0.18024054  0.07769479 -0.20234738  0.38413042
  0.4871388   0.04255861  0.14430945  0.08763661 -0.11816985 -0.17418256
  0.3415987  -0.02477027 -0.05395511 -0.18297829]
[-0.08560711 -0.12167908  0.23051131 -0.14145416  0.30837587  0.06110561
  0.14476873 -0.1918199   0.14204977 -0.01180994  0.15708834  0.04157107
  0.28622177 -0.10501533  0.08942301  0.2652028   0.39995888  0.13276371
 -0.0557011   0.21049239 -0.46615314  0.36353084 -0.00780808  0.20546547
  0.2888681   0.20118727  0.18568519 -0.5213261  -0.02981289 -0.1698887
 -0.09215751 -0.41291612  0.17586164 -0.15506575  0.12269974 -0.23108822
  0.45993045 -0.14005698 -0.10644858  0.1351534 ]
[-0.11067805  0.12092824 -0.00055226 -0.32639694 -0.02616661 -0.00142462
 -0.13374254 -0.1268663  -0.1024076   0.03147735  0.16445765  0.11439694
 -0.12124192  0.1354017  -0.26862568 -0.09155014 -0.09413265 -0.10528521
 -0.0338462  -0.04864672  0.09547201  0.1241826   0.01886422 -0.28864503
 -0.22724828 -0.25236472 -0.23830427  0.16471249  0.11497261  0.0990917
  0.26537022  0.15489306 -0.26336876  0.25486544  0.04230744  0.06316306
 -0.21513632  0.13447288  0.0458668  -0.06227647]
[ 0.00428747 -0.30056718  0.20265564 -0.04623937 -0.07724513  0.0151497
  0.1182034   0.08164134 -0.0434876   0.05224118  0.0032543  -0.17659673
  0.08161791 -0.17329952  0.27336025 -0.19252624 -0.08851349  0.27375743
 -0.13840963 -0.26044235 -0.04032791 -0.2142541  -0.30441004 -0.06221782
 -0.26973104 -0.23482274 -0.25680426 -0.3901482  -0.04358197 -0.08157767
 -0.2142994   0.1614472  -0.03218439 -0.12492763  0.01003629  0.19339654
 -0.21272114 -0.00890754  0.03358473 -0.07967976]
[ 0.28753206  0.22789654 -0.01875859  0.08056663 -0.17920057 -0.11707355
  0.319472    0.42338768  0.29617295  0.12910362 -0.14534664 -0.059046
  0.02273082  0.38743806  0.24334708 -0.00970194 -0.12346689  0.11525089
  0.2603902  -0.03509239  0.05128979 -0.40485153 -0.2431725   0.32066402
 -0.47901005 -0.0538237  -0.45950454 -0.31129122  0.10655732 -0.267311
  0.31518596 -0.16254018  0.17790985 -0.19334376 -0.27917513  0.06427842
 -0.5149441  -0.06189987  0.06646332 -0.01368445]
[-0.17725055  0.34775656 -0.05947071 -0.12332827 -0.34520063  0.04965012
  0.30248946  0.33643606 -0.23851186  0.05005782  0.08241063  0.3039748
 -0.05955515  0.35368955  0.2243189   0.09032678  0.26396927  0.22893794
  0.01754761  0.00921001  0.1955031  -0.15390837  0.08471651  0.04308812
  0.25709718  0.19638544  0.22153307 -0.34243825  0.1515015   0.03533027
  0.32591066 -0.28138548 -0.06729288  0.209437   -0.26149487 -0.06696177
 -0.3461948   0.12132257  0.07506645  0.20398067]
[-0.08771148  0.00081063  0.00515419 -0.13914996  0.33568853 -0.2836633
  0.26343754  0.1372951   0.12975836 -0.2258503   0.05119927  0.06305059
 -0.14505555 -0.38533926  0.06627592  0.037626    0.04554901 -0.03079678
  0.10185208  0.1419556   0.16171767 -0.08672193  0.32158232  0.00662218
  0.35432038  0.5732019   0.28152466 -0.24114768  0.00312152  0.14322473
 -0.13434406 -0.23227806  0.16470481 -0.03816303  0.254275    0.25507316
  0.23017234  0.1584252   0.12317573 -0.07238828]
[ 0.03641254 -0.22380604  0.06715614 -0.05916276 -0.1505773   0.13991976
  0.02412394  0.13668853 -0.00391975 -0.06072064 -0.15750127 -0.03826512
 -0.07829347  0.3324344  -0.09876038 -0.11053938  0.156087   -0.44050843
 -0.19195233 -0.23488863  0.11258237  0.12730794  0.20552965  0.04190572
 -0.4289762  -0.2978226  -0.21771774  0.6821092   0.13309987  0.18594909
 -0.19662434  0.21614964 -0.03974593  0.1015787   0.27609262 -0.1996226
 -0.1456262  -0.02975714 -0.03960199 -0.03036989]
[ 0.3212495   0.11106281 -0.03171708 -0.10096682 -0.15993243 -0.422191
  0.37325037  0.28804633  0.02506491  0.00179918 -0.13493758  0.06725632
 -0.19267845  0.3409959  -0.02090912 -0.13001324 -0.2686333   0.1251685
  0.3514652   0.08340452  0.4428968  -0.47351554  0.26936182 -0.03811032
  0.46917522  0.23677818 -0.09772941 -0.30384606 -0.3300961   0.08190848
  0.2502544   0.04731388  0.09182967  0.05039308 -0.7871859   0.28783655
 -0.17675462  0.05074655 -0.08579154  0.33153796]
[ 0.01367758  0.34003022 -0.44286665 -0.12543373 -0.40520954  0.15487152
  0.01539004  0.20924902 -0.21856609  0.05227102 -0.14601451 -0.23593749
 -0.27773497  0.08961078 -0.03180042 -0.79676205 -0.03967557  0.43260145
 -0.08119594 -0.16080007  0.04684292 -0.05215226 -0.17017326 -0.01185245
  0.03475909 -0.14432761 -0.18433191  0.16117391  0.00231991 -0.16863385
  0.22835927  0.44723743  0.15175201  0.0453274  -0.2823452   0.4154439
  0.17729086 -0.29135653  0.01484892 -0.23233771]
[-0.29307732 -0.53381056 -0.13348387  0.46935445  0.24197382  0.26192048
  0.30743507  0.23200788 -0.06908325 -0.01792226  0.01137538  0.02719812
  0.28808194 -0.24718972  0.06873279  0.44204545 -0.33291668  0.03944766
 -0.343876    0.21112788 -0.51513267  0.45017666 -0.08852305 -0.02010687
  0.49473852  0.07645449  0.25099218 -0.2549946  -0.06741676  0.04682409
  0.22056068 -0.00259522  0.04975002 -0.06730905  0.0778495  -0.01514235
 -0.01401308 -0.1746864  -0.23978211  0.12900366]
[ 0.34774053  0.01853891 -0.27436256  0.26344705 -0.18791507  0.04578156
  0.11327431  0.03082582 -0.26103655  0.1051585  -0.02784952  0.17018196
 -0.16620962  0.12707971 -0.04912828  0.35559624 -0.5343186  -0.38470605
 -0.12266143  0.0581717   0.07888434  0.05777566 -0.17345814 -0.34691644
  0.21326056  0.10512726  0.21888283  0.29089046 -0.17018238 -0.08898371
 -0.13681233 -0.06828032 -0.2676614   0.06799649  0.12078861  0.12111387
  0.19038539  0.1235775   0.06624428  0.18246512]
[ 0.27617    -0.04028177  0.1904034   0.13885926  0.21076311 -0.06970299
  0.20820399  0.23016913 -0.02295214  0.07404662 -0.20721123  0.18651478
  0.13143209 -0.08092258  0.12211641 -0.22000846  0.03044491 -0.06724245
 -0.10333087  0.20045036 -0.11327089  0.14464223  0.03121239 -0.08081573
  0.0099861   0.2632569   0.16156429 -0.2373983  -0.03878389 -0.05250586
 -0.12052003 -0.27782252  0.32173342 -0.00665298  0.10107362  0.07430633
 -0.26779264 -0.16941693  0.10350251 -0.17125659]
[-0.16479842  0.04594624 -0.2773179   0.19051568 -0.1908544   0.17107262
 -0.2674532   0.21130171 -0.2842946  -0.1375499  -0.06283569  0.05088669
  0.2043914   0.23901463 -0.15144917 -0.38152272  0.26943144  0.08227666
  0.26731288 -0.17674331 -0.1063815   0.39083883  0.20216165  0.09418728
 -0.5693865  -0.23791207 -0.71690273  0.05382938  0.23297733 -0.08406245
  0.11881153  0.38736343  0.33192748  0.19679914 -0.27813524  0.1004532
  0.47040007 -0.09219661  0.03267103 -0.10176104]
[ 0.34161133  0.14362842  0.21716052  0.01050073 -0.2735617  -0.13529563
  0.1276916   0.03964033 -0.09139085  0.12831546  0.34431693 -0.11311951
  0.05538394  0.05653688  0.2898105   0.07957735  0.00377239  0.23789635
  0.0054053   0.05616491  0.04297661 -0.21071723  0.08761492  0.04969737
  0.42113018  0.02532851  0.3333598   0.1966355   0.02888546  0.11580564
 -0.46215802  0.09567885 -0.24534942 -0.02104566 -0.17083459 -0.25664717
  0.03264143  0.06904825 -0.00855563  0.2063948 ]
[ 0.18937176 -0.23890355  0.2067351   0.39651728 -0.03209233  0.24267334
  0.2845129  -0.3649199   0.16439612  0.07195917 -0.01175331 -0.08182671
  0.04147454 -0.0649697   0.36060438  0.2835155  -0.07430965  0.20857656
 -0.03790255  0.24560367 -0.18733747  0.07879169 -0.01592056 -0.25347283
  0.12317482  0.4885766   0.6204059  -0.455069    0.00505747  0.25206882
  0.18698777 -0.22730692  0.241803   -0.14519273  0.36539537 -0.11873417
 -0.26735207  0.10549666  0.01916686 -0.24130666]
[-0.04534266 -0.03127347  0.05360597  0.29984963  0.30054808 -0.09501681
  0.46840897  0.01802539  0.24067652 -0.06092696 -0.21002612  0.33265096
 -0.1613344  -0.0062899   0.46879032  0.10597463 -0.05790558 -0.05443754
 -0.2827749   0.278055   -0.16031513 -0.10027297  0.33897936 -0.05403611
  0.4605022   0.5440258   0.48236212 -0.38813037 -0.03639803  0.03890048
  0.5567066  -0.39237595  0.2144743  -0.06629861  0.03798598 -0.0615571
 -0.2874869  -0.00746634  0.03028801 -0.11537492]
[-0.02448542  0.14296976  0.43700433  0.09650642  0.04346423 -0.11005795
 -0.01976007 -0.16040666  0.00959079 -0.22951303 -0.07413673  0.01438595
  0.1297608  -0.00980612  0.05314888  0.08385798  0.29760128  0.06779619
  0.04360129 -0.08942816 -0.14379525  0.09187925  0.25079134  0.09881975
  0.05758639  0.12041245  0.18175146 -0.0888488  -0.07356838  0.01724892
 -0.00835436 -0.20478347  0.02673861 -0.03329284  0.06252299 -0.07392192
  0.13713299  0.18249165  0.03490138 -0.06776324]
layer 3 Activation
tanh
layer 4 Dense
40 20
[ 0.08650987  0.00763456 -0.09290192 -0.12465528 -0.08898071 -0.15509857
  0.00086254  0.32514825 -0.11054528  0.1819855   0.15285443 -0.07950842
 -0.26164812  0.1094373  -0.17934579  0.06893735 -0.1419695  -0.22861339
  0.05377631  0.23017451]
[-0.12036858  0.1486713  -0.07032418  0.1969673  -0.00638231  0.0843843
 -0.13710795  0.21654789  0.09417454 -0.09870158  0.563489    0.10993496
  0.14437866 -0.27584335 -0.10794922  0.23509145 -0.04933328 -0.1850143
 -0.03801675 -0.16226237]
[ 0.05018457 -0.04893031  0.2549031  -0.10397678 -0.03903582 -0.21528047
 -0.04889148  0.29356316  0.01188294  0.25231418  0.05697068 -0.00683447
  0.17656492 -0.14187111 -0.51767474 -0.01097085  0.1936247  -0.14571431
  0.12240084  0.03752302]
[ 0.14225104 -0.12400539  0.00855854 -0.1579331  -0.15405773  0.27922124
 -0.13615373  0.08786262 -0.09196304 -0.16686665 -0.27597287  0.12550822
 -0.14871791 -0.25046977  0.03123791 -0.38161385  0.07233214 -0.1124807
  0.00975538 -0.0892343 ]
[ 0.13538168 -0.1031309  -0.10308238 -0.12476788  0.404461    0.13544646
 -0.09352373 -0.03205493 -0.04593088  0.18204919 -0.26345146 -0.18443063
  0.01066425 -0.0971367  -0.4201098  -0.13332914  0.00456377 -0.10467343
  0.23071451  0.09919553]
[ 0.03239845  0.19476745  0.13132437  0.23414718 -0.1769294   0.11988933
  0.07199616 -0.50525266  0.05308216  0.07986535 -0.26277778  0.17238267
 -0.12026653  0.21465482  0.24693567 -0.17839079 -0.02904794 -0.24485023
  0.13116013  0.04023406]
[ 0.30466542  0.32976702  0.15213168 -0.29677156  0.10003615 -0.01754879
  0.02810712 -0.04645922  0.04903235 -0.41922385  0.2614585  -0.08770329
  0.17793474 -0.01673316 -0.15370333 -0.2084868   0.22663276 -0.09770117
  0.06968617  0.10835369]
[ 0.13517804 -0.08208225  0.23870614 -0.432289    0.18502477 -0.20002729
 -0.08977418  0.4047425   0.07291997 -0.21196869  0.1835788  -0.26221988
  0.07892999 -0.260614    0.0809333  -0.12808084 -0.12124176  0.11061486
  0.10162139 -0.18273842]
[ 0.10035253 -0.17050382 -0.11631021 -0.2536748   0.03277694 -0.28855821
 -0.0023148   0.16852026 -0.07687702 -0.05320222  0.06681105  0.13440278
 -0.24584197  0.01785678 -0.14069341 -0.04910678  0.27327475  0.1450499
 -0.04273046  0.22171141]
[ 0.1194061  -0.1363474   0.21931303 -0.21039712  0.26921645  0.12801422
  0.22354202 -0.03432398 -0.16556872 -0.10906781 -0.06318258 -0.23122564
  0.19804493  0.39447436  0.40255296 -0.02654155 -0.04228798 -0.16269253
  0.20925559 -0.17290626]
[-0.045454   -0.1419147   0.07868203 -0.13201687  0.0381089  -0.01494194
  0.05124079 -0.10393099 -0.10756433 -0.0366459  -0.19546941 -0.06647523
 -0.05309433  0.23530337 -0.00950907  0.28259057  0.1325395  -0.015782
 -0.15897635 -0.03424944]
[-0.02159778  0.00882946 -0.25643703 -0.02220407  0.24583164  0.22175455
  0.17309108  0.17872699  0.03018901 -0.16251917  0.2318909  -0.05496185
  0.12707905 -0.04230498 -0.2555025   0.10604677  0.06308842 -0.09313619
 -0.18573232  0.09365809]
[ 0.11374149  0.02762575  0.12868917 -0.19247194 -0.21271032  0.14543945
 -0.22183627  0.16832207 -0.11550105  0.2540405  -0.46989787 -0.03981671
 -0.03292029 -0.45568642 -0.22496976 -0.25752434 -0.06852102  0.00525005
  0.10781126 -0.0644865 ]
[-1.6883577e-01  3.3927754e-02 -7.0703886e-02  5.8675122e-02
  3.0573064e-01 -9.1817990e-02 -3.1636766e-01  2.7121246e-01
 -1.8125165e-01 -2.2006810e-01  3.8232717e-01  2.4285223e-01
  2.2442914e-03  7.3710799e-02  3.8357639e-01  6.6886492e-02
  3.8923923e-02  4.9969129e-02 -2.0374572e-01  1.0141032e-04]
[-0.00383471 -0.11351895 -0.25174358 -0.11472958  0.25052     0.1368038
 -0.0006468  -0.03432763  0.04841769 -0.00047178  0.11148217  0.16638844
  0.06989447  0.02950291 -0.13379095 -0.26931682 -0.01166776 -0.00262624
  0.0065693   0.00063701]
[-0.262815   -0.3522685   0.29602855 -0.1907294   0.19719207 -0.27324635
 -0.05316246 -0.08162493 -0.10511131 -0.13338031 -0.30169198  0.28970978
  0.10922617  0.20922661 -0.44163328  0.02506235 -0.00659635 -0.02643848
  0.09219417 -0.21299928]
[ 0.04461982 -0.16341768  0.17983672  0.44382358 -0.06669762 -0.09048907
 -0.2640098  -0.2989546   0.33363435  0.32771447 -0.01026975  0.15486372
  0.07520536 -0.18674815 -0.29259112 -0.20855202  0.04456984  0.11052475
 -0.21181251 -0.30860043]
[ 0.04154133 -0.19445711 -0.15136549 -0.10835949 -0.06182199 -0.05515481
  0.06155726 -0.08719862 -0.04341353 -0.11089685  0.09536222 -0.07584475
  0.03686772 -0.17921735  0.01596263 -0.03251702 -0.17492455 -0.20786905
  0.05945368 -0.06398245]
[-0.14292793  0.09662568  0.10830809  0.16525358  0.15782931  0.27161655
  0.13803737  0.27420056  0.01567577 -0.26824594  0.36393344 -0.15927704
  0.16941991 -0.3949608   0.02018494  0.05590401  0.29560047  0.11128142
  0.12396989 -0.09615947]
[-0.01623498  0.02914982  0.22702105 -0.2392116   0.25272605  0.02981763
  0.09760007 -0.3568911   0.14027399 -0.2817095  -0.13513851  0.26422903
 -0.13319702  0.34967545 -0.21502726 -0.07477767 -0.22987446  0.17681068
 -0.14901412 -0.06600596]
[ 0.13146406 -0.05655533  0.23464085 -0.10879416  0.03366046  0.21046223
  0.00412533  0.09289685 -0.08948509 -0.20819001  0.21606539  0.02643493
  0.06602293  0.4313285   0.22381936  0.28415862  0.14394309  0.06460635
  0.13657208  0.03789956]
[-0.23704492 -0.00152049 -0.05135723  0.24607952  0.12592     0.13237429
  0.06441432 -0.14510922  0.12972954  0.23383561 -0.38635907  0.17193861
 -0.03348993 -0.32293335 -0.21562992 -0.3039617  -0.06072981 -0.07011392
  0.14198129  0.05880279]
[-0.09910057 -0.16512744  0.03561716  0.29254413  0.02860427  0.00295817
 -0.01345748  0.02201723  0.24229233 -0.00358555  0.30865416  0.02328044
  0.05658518 -0.08729985 -0.38524947 -0.10615511 -0.07481366  0.02846588
 -0.01442391  0.07282523]
[ 0.119409    0.15253629 -0.05734059 -0.2666684   0.18764222  0.14476071
  0.1244207   0.4081462  -0.21416226  0.14017123  0.16182095 -0.20668823
  0.03368922 -0.2818598  -0.30094966 -0.01781278  0.11150676 -0.1472386
  0.02839085  0.06184845]
[-0.02488744  0.14197442 -0.04597533 -0.4362186  -0.24084039 -0.15405439
 -0.12501691 -0.01828675  0.13128632 -0.6127354  -0.22289802 -0.17202827
  0.06788841  0.42579418 -0.42586946 -0.03682281 -0.04859484 -0.14949219
  0.12644853  0.17316219]
[ 0.22219974 -0.06527188  0.19499788 -0.1291069  -0.11752579  0.29626733
 -0.19063102  0.01538794 -0.05404085 -0.3872203   0.2184217  -0.2016344
  0.06369708 -0.08755983 -0.48256478 -0.01474631  0.09598652 -0.14319059
 -0.25767097 -0.1281589 ]
[ 0.26331    -0.05596872 -0.23158172 -0.4674414   0.10860234 -0.32631618
 -0.0328491  -0.09931084  0.0329781   0.04757267 -0.07265159 -0.02255521
  0.05498108  0.48208022 -0.673901   -0.03742865 -0.05729184  0.22952676
  0.01396161 -0.08714257]
[ 0.18744624 -0.12249434  0.21717586  0.163842   -0.22916017  0.19520329
  0.01996053  0.3277744   0.25875664  0.43178177 -0.19411097 -0.35871753
  0.13023315  0.31020686  0.35195628  0.04902105 -0.238009   -0.1329343
  0.01454498  0.29703176]
[-0.01646475  0.14709733 -0.05619385 -0.12904948  0.0195906   0.02879119
  0.07104576  0.1392748  -0.25693458  0.15408018 -0.07568223 -0.15869299
 -0.2353192   0.05261867  0.10911436 -0.18029374  0.1258026   0.10687593
  0.07747031  0.11260414]
[-0.11125226  0.10396466  0.02165349  0.4176536   0.1989748   0.20971574
  0.01893135 -0.42954472  0.26187712 -0.0821033   0.10194524 -0.22629233
  0.1905909   0.2634541  -0.03389814  0.00545791 -0.06666347 -0.16834904
  0.17141433 -0.15675846]
[-0.11441543 -0.02698939  0.13361163  0.18910848 -0.19494826 -0.06865627
  0.124425   -0.14988439 -0.08117275 -0.29915234  0.3832863   0.2063593
  0.10622243  0.03314979  0.02313552 -0.24614598  0.09046486 -0.1452319
 -0.02718167 -0.03576475]
[-0.03092406 -0.08655757 -0.09545691  0.03277558 -0.30201775 -0.24895498
 -0.10255568  0.10551634 -0.05882673 -0.00638736 -0.18818597 -0.21554434
 -0.12494578 -0.11992688  0.47126985  0.18742876  0.08516194  0.07543091
  0.03959385  0.04692342]
[ 0.08483048 -0.01596272  0.10562304  0.18156187  0.16963468 -0.10492098
  0.11171642 -0.2976937   0.1424228  -0.10250607  0.14848262 -0.22747886
  0.03041358 -0.25875115 -0.1143062  -0.26295227  0.10948633 -0.28829116
  0.0270382  -0.05924176]
[ 0.05697932 -0.19421859 -0.2428663  -0.0355964   0.0385433   0.12511629
  0.12352429  0.1328675   0.24034078  0.08766328  0.06812984 -0.32885987
 -0.04183712  0.35884085  0.2552209   0.29971242 -0.08803131 -0.27565804
 -0.20691511 -0.164782  ]
[-0.17423306  0.22168551 -0.02423371 -0.16023642  0.1446285   0.0451682
 -0.13357008  0.10614282  0.06537724  0.3131476  -0.44533753  0.18736206
  0.22610062  0.02266013 -0.12632737 -0.17947772  0.1491073   0.13751464
 -0.20899862 -0.10710768]
[-0.04038454 -0.0705941   0.20885697 -0.22053891 -0.29799023 -0.09459011
 -0.06636377  0.24413364 -0.00141251 -0.19250986  0.15985084  0.14021756
 -0.13948666 -0.26073593  0.13913119 -0.1942902  -0.2560145   0.06299871
  0.1684512  -0.04954323]
[-0.1614005   0.13498035 -0.10686761  0.38725248  0.14501898  0.21393177
  0.2634004  -0.3991377   0.11644194  0.16853282 -0.389752    0.23558962
  0.00209281 -0.10785497 -0.04134846  0.30187362  0.19221503 -0.25140086
 -0.05498757 -0.11771888]
[-0.07385805  0.0306471  -0.02270262 -0.1728108  -0.08947989  0.23646455
  0.0823475   0.39496     0.16158141  0.1325871   0.03551466 -0.14520825
  0.0077828   0.13130738 -0.30613643  0.18682636 -0.23529607  0.15494691
  0.17638019 -0.01523079]
[-0.0052116   0.1395464   0.1398348  -0.29064557 -0.1730412   0.18443844
  0.14300047  0.5148949   0.0894559   0.15083647  0.10246675 -0.48290673
 -0.13895029  0.04643538 -0.22505744  0.15786298  0.03808801 -0.09009352
 -0.10393126 -0.14923362]
[-0.06629714 -0.11759655 -0.16088997 -0.2079144  -0.18592633  0.18705781
 -0.22953461  0.02666245  0.02854951 -0.15304048 -0.11671746  0.20387356
 -0.14802651  0.27698982  0.05442436  0.29699138  0.09841188 -0.05145197
  0.19685161 -0.01185195]
[ 0.00295259 -0.02989807 -0.01764949  0.16727786 -0.01929879  0.00904525
  0.02040878  0.16093206  0.17829452  0.13841811  0.0822923  -0.04067168
  0.01766424 -0.14845055 -0.2782062  -0.02267159  0.05605492 -0.05414747
 -0.09591396 -0.02457239]
layer 5 Activation
tanh
layer 6 Dense
20 1
[0.0295641]
[-0.02262503]
[0.00335327]
[-0.11496235]
[0.00548145]
[0.01693829]
[-0.02042515]
[-0.11270204]
[0.04605608]
[0.09858274]
[0.09552372]
[0.01736812]
[0.0145883]
[-0.06074465]
[0.2515667]
[0.086417]
[-0.01722784]
[0.00872643]
[0.00117396]
[0.00040861]
[0.22751483]
