layers 7
layer 0 Dense
24 20
[ 0.9167358   0.907231   -1.1790444   0.87257975  0.89062893 -0.677244
  1.9141273   1.3675992  -1.5460972   0.08380328 -0.2893317   1.7672312
  0.914263    0.79232395 -1.2212147  -1.8601583   0.0726924   0.40018466
  1.4231188   0.81627536]
[ 0.5081039   0.38080224 -0.69163144  0.25572902  1.2239753  -0.43344083
  0.89576364  0.35760605 -0.6996852  -0.5120205  -0.04458269  0.3935757
  1.0777047   0.23459323 -1.2002159  -0.65307784 -0.7409516   0.31308877
  0.6403975  -0.6127233 ]
[ 0.9372574   0.12152373 -1.3077756   0.4431872   0.84556973 -0.690253
  0.46236756  0.57977134 -0.26604202  0.05512424 -0.249332    0.52857095
  0.58758396  0.2978247  -0.97525996 -1.1456196  -1.0844522   0.6142353
  0.780546   -0.5926687 ]
[ 0.87793076  0.96990556 -0.6037045   0.15866557  0.9627402  -0.6098065
  1.1727575   1.2696333  -1.288551    0.11223283 -0.78917956  1.3202116
  0.7462936   1.1363307  -0.75959516 -1.1156917  -0.26935032  0.46782959
  1.1880702   0.13652743]
[-0.10214256 -0.54346216  0.499684    0.04489001  0.3034985   0.49559763
  0.7145634   0.9704391  -0.6293762   1.3510532  -0.03325397  0.62614614
  0.31666908  0.10947887  0.3677481   0.4132219  -0.35554862 -0.69691557
  0.14957672 -0.05402867]
[ 0.47601017  0.9267184   0.27332246  0.7564407   0.10534911 -0.4539268
  0.30676502  0.77770525 -0.36166722 -0.35985288 -0.46551776  0.77974075
  0.64756167  0.5839492  -0.21639438 -0.33101407 -0.09986369  0.222401
 -0.13198337  0.7899802 ]
[ 3.5354525e-01  5.2074838e-01  3.4290791e-01  6.5549254e-01
  1.8701280e-02 -4.0645579e-01  8.4365904e-01  5.9288985e-01
 -2.0157355e-01 -7.0516676e-01 -7.6216698e-01  2.5683606e-01
  3.8284281e-01  2.6754424e-01  3.9630060e-04  2.3116482e-02
  4.3502349e-02  2.2534023e-01  2.2775105e-01  8.4871429e-01]
[-1.2095811  -0.77441293  0.92262596 -0.49426207 -0.8136733   0.251201
 -1.9430013  -1.8896184   1.4932356  -0.01466038  0.97687054 -1.5482882
 -1.1597985  -1.025902    1.085537    1.7067677   1.40335    -0.74930406
 -1.2972859  -0.42336884]
[-0.06021408 -0.3768967   0.36373144 -0.45222223 -0.34015515  1.0016357
  0.02663925  0.11470158 -0.6393218   0.9819416   0.1240133   0.3549739
 -0.41480887 -0.12043536  0.5906094   0.15928134  0.29584357 -0.76302576
 -0.08789394  0.2772116 ]
[ 0.28410488 -0.21760878  0.28202105 -1.8372374   0.3841072   0.21164872
 -0.3905835  -0.98780537 -0.11005541  0.38775662  0.3279021  -0.2562982
  0.11203051 -0.1909507   0.29035527  0.8794819   0.48310816 -0.46371052
  0.10881291 -1.1340334 ]
[ 0.18986037 -0.4562436   0.43053442  0.79840726 -0.10337605  0.51392895
 -0.05149705  0.5968143   0.1495948   1.1484978   0.31939968 -0.06210659
  0.31598607  0.15882865  0.44672674  0.39172983 -0.5359456  -0.74650544
  0.4341642   0.5813767 ]
[-0.67765635  0.10063288  0.3542729  -0.5579508  -0.42318994 -0.38028762
 -1.4354565  -0.28088194  0.927888   -0.65894884  1.5071948  -1.5273962
 -0.5614788  -0.5671765   0.28466994 -0.19255285  3.4447732   0.1486662
 -0.8054104   0.09825692]
[ 0.09230277 -0.49417317  0.3554913  -0.0989033  -0.13806866  0.8562968
 -0.15097235 -0.01766353 -0.13372871  0.38436878  0.48962578  0.0131087
 -0.24496445 -0.38884857  0.36943927  0.23778804  0.6204133  -0.60466486
 -0.02540294 -0.01164077]
[ 0.12039855  0.3430069  -0.22267973  0.40869087  0.0728782  -0.7247093
 -0.19407292  0.11209348  0.24227563 -0.9158275   0.21001014 -0.06304606
 -0.02574437  0.36624897 -0.22462747 -0.23299995  0.10483183  0.45443213
  0.2600218   0.33331594]
[-0.04735961 -0.25839522 -0.2330173  -4.4235187  -0.14781716 -0.3518904
  0.23797742 -3.880771   -4.1908603  -0.09895691 -5.1450434   0.7498101
 -0.29884672  0.6543527  -0.42186683 -0.41344517 -1.2380579   0.50062984
  1.215072   -4.791057  ]
[-0.76149476 -0.22859068  0.90589166 -1.174188   -0.5632854   0.01310464
 -1.8243333  -1.9114051   1.795328   -0.40238023  2.585015   -2.0507605
 -0.59940076 -1.1205535   0.9371758   0.722622    3.032052    0.2899833
 -1.5240607  -1.1804038 ]
[-0.37505737 -0.74809575  0.48057172 -0.34898034 -0.07559794  0.80121386
 -0.37283427 -0.07228045  0.6002109   0.32486343  0.757375   -0.3643512
 -0.60207367 -0.9524414   0.60691875  0.82248974  1.3348715  -0.8041214
 -0.71519846 -0.25317952]
[ 0.18789454  0.1473125   0.16988195 -0.25951722  0.35793245  0.7729984
 -0.01357359  0.10080847 -0.16569205  0.86394066 -0.14830782  0.0537913
 -0.19972737 -0.3637347   0.30385867  0.15891583 -0.4955286  -0.67735094
 -0.08922517 -0.0693973 ]
[-0.0204756   0.6865866  -0.06849895  0.69799405 -0.34084842 -0.8682041
 -0.53665656  0.00210523  0.81728226 -0.7248658   1.0153837  -0.4501505
 -0.16790116  0.17823754  0.07600387 -0.5081163   1.1447868   0.74058324
 -0.71117103  0.50311106]
[-0.9086041  -0.8774748   1.2090901  -0.72907436 -0.77068096  0.5096408
 -1.3600079  -1.0590943   1.4669614  -0.06615917  1.9175156  -1.588385
 -0.9966583  -1.3469341   1.0837198   1.0749152   3.4223752  -0.41095316
 -1.1532229  -0.7974626 ]
[-0.7399825  -0.6015132   0.7378793   0.18625592 -0.7955403   0.7495777
  0.22461644 -0.28866446  0.01155004  0.59046733  0.1204218   0.12757884
 -0.796207   -0.244895    0.61604214  0.37765762 -0.05912036 -0.78592944
 -0.14561865 -0.06747402]
[-0.4816425  -0.31527165  0.14957193 -0.05644191 -0.29364875  0.38429865
  0.2438582   0.64355415  0.02022717  0.77755874  0.57552826  0.19172211
 -0.72241974  0.08399744  0.22755682 -0.2302722   0.3576881  -0.8061982
  0.44092658  0.26991275]
[ 0.10981856 -0.5419772   0.4016797   0.38221008  0.06634346  0.43285254
  0.2806116   1.1977756   0.17410232  0.91618514 -0.09535626  0.2552232
  0.1771569  -0.15601945  0.24504742 -0.25467327 -0.24687544 -0.83213466
  0.02078577  0.63732034]
[-0.30786192 -0.30036625  0.5634253  -0.37185124  0.01270996  0.73557067
 -0.24910809 -0.00274664 -0.00772844  0.61235577  0.07615813 -0.49356455
 -0.3358529  -0.31862125  0.68193996  0.2686889   0.6263439  -0.37729764
 -0.1533104  -0.23381236]
[ 0.8261142   0.59137046 -0.7560046   0.2507171   0.855567   -0.5759283
  0.7117113   0.6484501  -0.66882336 -0.27347404 -0.43997973  0.6880309
  0.9273473   0.7605976  -0.80742604 -0.92861843 -0.7397137   0.6448673
  0.53920186  0.26389346]
layer 1 Activation
tanh
layer 2 Dense
20 40
[-0.5560974   0.20534985 -0.34103563 -0.75301474  0.6850166   0.43875393
 -0.23309544  0.5812141  -0.041773   -0.3537208  -0.37296197 -0.22456132
 -0.65814257 -0.39964744 -0.45190188 -0.43249503 -0.4125514  -0.17067389
  0.43951878 -0.33959204  0.10676887  0.31481084 -0.04819057 -0.2794864
 -0.8146841  -0.85655826  0.5589602  -0.17183281  0.60023683  0.44664535
  0.5773184   0.90685576 -0.3118523   0.12656674 -0.21207397 -0.50665796
 -0.1237751   0.71439195  0.6180563   0.77277994]
[-0.5469845  -0.07254888 -0.8656356  -0.51982516  0.11967992  0.26547423
 -0.18173686  0.686596   -0.17442822  0.04038655 -0.03902136 -0.18382908
 -0.06845293 -0.44142714 -0.24728547 -0.25363928 -0.25001353  0.6272013
  0.35049006 -0.7135968   0.9528573   0.3269884  -0.39593247 -0.44250196
 -0.5477564  -0.5744908   0.41170126 -0.05338601  0.6400198   0.21743563
  0.25072834  1.2920597  -0.2837509  -0.3655732  -0.01820627 -0.38185108
 -0.13887289  0.5563111   0.49014062  0.43378562]
[ 0.06743752 -0.9901697   0.31988204  0.31110978 -0.64224136 -0.51774853
  0.3661122  -0.5091356   0.75310946  0.53949213  1.0845549   0.21300682
  0.30572075  0.4339995   0.84355295  0.7070513   0.8292914   0.36666456
 -0.52498317 -0.14734378 -0.45980987  0.02394552 -0.08473143  0.33783782
  0.7843612   0.5708839  -0.5648789  -0.97707474 -0.33031857 -0.6109121
  0.16460356 -0.278436    0.47083056 -0.5776834   0.93658215  0.39754823
 -0.77989626 -0.47639018 -0.48393822 -0.5994977 ]
[ 0.01447434  0.18219477 -0.27101395 -0.1470269   0.7823838  -0.05153088
 -0.40704316  0.0033114   0.1435162  -0.6422737  -0.12882903  0.08608498
  0.06004583  0.1340321  -0.23027883  0.3314987   0.14381935 -0.11751536
 -0.15223828 -0.21457776 -0.54305285 -0.7486272   0.43202013 -0.22754757
 -0.48123103 -0.2969846  -0.03368055  0.48690116  0.4488169   0.5505185
  0.27826595 -0.10733465 -0.37992167  0.41825244 -0.11566237 -0.39252213
  0.10568282  0.12999609  0.31251088  0.35194656]
[-0.6650399   0.519162   -0.05795775 -0.6807737   0.71922356  0.64857894
 -0.43271562  0.44451386 -0.5943728  -0.37280792 -0.5041352  -0.56891423
 -0.9325346  -0.14681798 -0.92185915 -0.25344718  0.00794699  0.02492535
  0.35173494  0.2944747   0.19562764  0.45709482 -0.29819462 -0.20204927
 -0.43810633 -0.81037843  0.19720966  0.09232582  0.6115124   0.4377238
  0.36366096  0.5273215  -0.70501304 -0.00350141 -0.70287925 -0.34258673
  0.14183027  0.42257082  0.3593731   1.0521319 ]
[ 4.0460655e-01 -1.0818647e-01  5.9500980e-01 -1.0642646e-01
 -3.2887989e-01 -4.7304782e-01  7.7257872e-02 -1.9776982e-01
  8.2774746e-04  4.8985767e-01  1.9884413e-01  3.3708464e-02
 -2.5459614e-01  4.8658600e-01 -9.6818067e-02 -3.9218104e-01
  4.2628571e-01  5.2636515e-02 -7.2278810e-01  1.0000138e+00
 -4.1853166e-01 -3.1011537e-02 -1.7734751e-01  8.0375537e-02
  7.1004570e-01  7.4426430e-01  2.4012536e-01 -2.8856081e-01
 -2.1348526e-01 -3.4395623e-01 -5.7776767e-01 -6.8875659e-01
  1.6870746e-01 -2.0472504e-01  1.0567154e-01  6.0724360e-01
  1.7914937e-01 -6.5656370e-01 -3.4856376e-01 -6.6843075e-01]
[ 0.25851178  0.6899071  -0.89574087 -0.7536526   0.5685491   0.86420345
 -0.90152276  1.4045262  -0.75945675  0.00527242 -1.2068647  -0.5843936
 -0.89958376  0.01321194 -0.38887557 -0.747586   -0.78017205 -0.5603572
  1.0748619  -0.75441116  1.6105571   0.4191308   0.2180374  -0.8408158
 -0.91401815 -1.32837     0.7444452   0.43506503  0.9970165   0.5295982
 -0.34830162  1.8368028  -0.69004     0.24626    -0.74908245 -0.36054823
  0.48511246  0.7488732   1.1073139   1.3255568 ]
[ 0.09396005  0.20538454 -1.0196362  -0.86344236  0.9749977   0.55995226
 -0.9607373   1.4183227  -0.15174001 -0.65516806 -0.75617564  0.09869785
  0.1397332  -0.6350593  -0.7665608  -0.0943718  -0.12743862 -0.8346562
  1.0661924  -1.2576905   0.03881026 -0.95583844  0.8416471  -0.87748224
 -1.3604898  -1.3368936   0.58744067  0.35727146  0.94883984  1.8784606
  0.24526736  1.0894935  -0.73764604  0.28046948 -0.27936512 -0.84509623
  0.12638976  1.3422123   1.0642035   1.6346717 ]
[ 0.01226188 -0.3788374  -0.01518285  0.2731564  -0.87916464 -1.3024447
  0.6009634  -0.96991473  0.72509766  0.19946662  0.89871174  0.5186024
  1.0824689  -0.09085523  0.22125688  0.14865981  0.54333115  0.9949623
 -1.0169312  -0.19366843 -1.1743243  -0.26658648 -0.26880804  0.42102098
  0.96429425  1.0798253  -0.2896806  -0.03674424 -0.49009982 -0.03429108
  0.5148347  -1.1283531   0.5395913   0.00894539  0.24956651  0.5472383
  0.00771926 -1.0046525  -0.1913082  -1.351128  ]
[ 0.27881178  0.27405196  0.06853512  0.45387822 -0.5184203  -0.61846566
  0.1254851  -0.88746226 -0.1946889   0.3569625   0.1450145   0.20667358
 -0.03545744  0.8147907   0.24010906 -0.20299229 -0.27504703 -0.31977895
 -0.9684731   0.51016134 -0.44372198  0.05823517 -0.19371091  0.13083245
  0.8770334   0.8520629  -0.40924767  0.41935787 -0.742804   -0.530232
 -0.3397355  -0.9619517   0.5310469   0.02362701 -0.24850366  0.34080297
  0.08760676 -0.7799139  -0.52011275 -0.6748914 ]
[ 0.58741194  0.37387413 -0.83551705  0.13372959 -0.0542444  -0.9014254
  0.17012475 -0.48896518 -0.4632339  -0.40885374 -0.21998367  0.3201281
  0.6364924   0.6166473  -0.04063685 -0.029442   -0.22395976 -0.06973563
 -0.6256512  -0.7889891  -0.65364724 -0.46276215  0.01259722  0.25510758
  0.669545    0.72946656  0.16278374  0.80072397 -0.12422426  0.27452505
  0.28063846 -0.600348    0.21935724  0.37150168 -0.27309975  0.03006
  0.6284635  -0.7045925  -0.11113166 -0.5388958 ]
[ 0.13260575  0.7283751  -0.10068284 -0.333775    0.07908277  0.71619606
 -0.2024996   0.45422    -0.4556185  -0.11867296 -0.5739366  -0.6297819
 -1.1867323   0.629504   -0.9485357  -0.85118645 -0.32089475 -0.79312617
  0.7105526  -0.38545588  1.075554    0.2544595   0.23810448 -0.5426197
 -0.82928646 -0.49582803  0.3517302   0.30236802  0.07790629  0.6781656
 -0.3294128   0.9389377  -0.7023523   0.31007054 -0.7294482  -0.2982563
  0.40338168  0.6219855   0.82790637  1.0096605 ]
[-1.0374737   0.7376066   0.1477682  -0.74089795  0.39822146  0.47889236
 -0.7272086   0.8213143  -0.7886556  -0.19953807 -0.755407   -0.21946554
 -1.2892661  -0.42237222 -0.34444344 -0.76812667 -0.8088615   0.1453154
  0.5174944  -0.12319969  0.7229027   0.87703735 -0.6500836  -0.4992639
 -0.68275785 -0.4679528  -0.5077754   0.38130465  0.5386428   0.28029478
  1.2695901   0.27544945 -0.8327576  -0.06820734 -0.19133803 -0.77625793
  0.3663273   0.55571216  0.69850785  0.9287148 ]
[ 0.12001175 -0.00453365 -0.7478045  -0.61826026  0.228674    0.7775136
 -0.62144446  0.45668775 -0.4535744  -0.00569145 -0.33065823 -0.77697486
 -0.24522997 -0.48482335 -0.47585863 -1.0136029  -0.1393898   0.33770856
  0.7970139  -0.05069333  0.33765468 -0.18986586 -0.09108587 -0.2592178
 -0.29798573 -0.69992     0.99893063  0.26969758  0.49633458  0.2297705
 -0.44659472  0.48816648 -1.0557613   0.77224183 -0.6050549  -0.38699064
  0.61167353  0.52260745  0.33151153  0.35087726]
[ 0.33713624 -0.8386264  -0.01268596  0.6479118  -0.8091397  -0.4363526
  0.35483888 -0.7337307   1.3594383   0.32691732  1.3321642   0.22377396
  0.9935628   0.31894273  0.81835985  0.3648676   0.92171824  0.08668827
 -0.5492562  -0.13766998 -0.2151361   0.41251272  0.09586892  0.2540024
  0.5951924   0.672857   -0.12153878 -0.93622434 -0.25761476 -0.6195878
  0.14110804 -0.15168394  0.790776   -0.6331375   1.3412628   0.25708643
 -0.60240346 -0.63722384 -0.5185208  -0.95618236]
[ 0.27489537 -0.52476144  0.73659337  0.3458154  -0.20135573 -1.1094656
  0.32824552 -0.7505591   0.7040519   0.5439003   0.6466258   1.0169519
  0.7211716   0.441256    0.33404088  1.1114665   0.8476902  -0.07701926
 -0.93720096  0.9911124  -0.61174005  0.12521504  0.35663968  0.35906455
  0.7531008   0.63402635 -1.120291   -0.94799167 -0.71782374 -0.80673087
  0.07582837 -0.4239173   1.0691346  -0.32258943  0.50814164  0.6888833
 -0.3768512  -0.7464562  -0.5901196  -0.67552793]
[-9.17638689e-02 -3.72363359e-01 -8.80810246e-02  4.96496260e-01
 -4.15704846e-01 -3.35141391e-01  1.53329670e-01 -5.77267170e-01
  4.00402933e-01  7.55552277e-02  5.05419493e-01  1.04225390e-01
  6.46472633e-01  3.19887280e-01  3.35705072e-01  1.12453125e-01
  5.43164968e-01  4.69615489e-01 -4.27657604e-01 -4.68971394e-02
 -8.16065788e-01  4.19957697e-01 -1.84504122e-01  2.84077466e-01
  3.40745687e-01  4.64496642e-01  3.49114242e-04 -3.72488409e-01
 -2.38323510e-01 -4.09647971e-01  3.98980349e-01 -4.04983938e-01
  6.53811455e-01 -6.69202268e-01 -4.21245508e-02  1.63537845e-01
 -2.26858884e-01 -4.89003152e-01 -1.57904148e-01 -7.26809859e-01]
[-0.75521564  0.26525602 -0.5452049  -0.5182961   0.32956824  0.5296298
 -0.24385548  0.80133873 -0.20677418 -0.2770109  -0.33060566 -0.45007545
 -0.48019993 -0.47881332 -0.8738913   0.32035607  0.04671018 -0.03707891
  0.30914322 -0.85636187 -0.09188394  0.07731166  0.26726672 -0.23337771
 -0.65285707 -0.2852323   0.4246005   0.07950673  0.487737    0.7273561
  0.53234136  0.6319523  -0.26817334 -0.56873745 -0.3243992  -0.33939803
  0.04631719  0.60998863  0.2752981   0.5817332 ]
[ 0.3451603   0.613636    0.22065674  0.04230562 -0.5778382   0.02694586
 -0.05737099 -0.13987152 -0.60521585 -0.02357731 -0.5114583  -0.3238512
 -0.965417    0.6967401  -0.75801337 -0.12468963 -0.7389951  -0.43296584
 -0.29925528  0.3922045   0.46743786  0.06535903 -0.24823493  0.05882894
 -0.08600953  0.19164197 -0.05865574  0.09816597 -0.43030533  0.25038064
 -0.1814346  -0.01900048 -0.25434738 -0.03998009 -0.605269   -0.06545812
  0.35077193 -0.02557689  0.13995889 -0.17965703]
[-0.31291315  0.4304239  -0.17590232 -0.2123992   0.10420009 -0.52190125
  0.05872146  0.2737573   0.24757357 -0.10617492  0.07747249  0.34607366
  0.4104695  -0.18208799 -0.07993772  0.17155592  0.00751147 -0.10726355
 -0.35117504 -0.00108589 -0.8452808  -0.8910887   0.834667   -0.19117498
  0.11645525  0.15540321 -0.09879685  0.5253225   0.15708442  0.7782705
  0.35339063  0.27458543 -0.19272415 -0.03237478  0.00262459  0.23525698
  0.14634459  0.03330192  0.38710892 -0.04582039]
[-0.315672    0.8164441  -0.59043443 -0.53356457  0.36535814  0.19785497
 -0.1083183   0.6205253  -0.6423868  -0.5425944  -0.80439025 -0.30652976
 -0.24851555 -0.42773244 -0.4569602  -0.66255426 -0.8253002  -0.27190602
  0.24887395 -0.31544563  0.7496135  -0.1564574  -0.36243188 -0.45295453
 -0.35175598 -0.47916365  0.623582    0.62742347  0.45371056  0.15056849
 -0.3098405   0.6242075  -0.34087825  0.6329333  -0.7051252  -0.36069465
  0.45392668  0.3568041   0.39651006  0.39549524]
layer 3 Activation
tanh
layer 4 Dense
40 20
[ 0.5077841  -0.21471734  0.08167042 -0.16052996  0.37490848 -0.19489147
  0.28424695 -0.14441468 -0.44927365 -0.17230418 -0.25379008  0.12126742
 -0.15609586 -0.56593823  0.3219165   0.14162938 -0.29346898 -0.19080047
 -0.40706256  0.6227417 ]
[ 0.23356208  0.5450613   0.92409444 -0.9253696   1.076926   -0.13794331
  0.77563155  0.48159993  0.46547252 -0.55642587 -0.4938689  -0.5499496
 -0.3918971  -0.5410331   0.9342024   0.49713734 -0.4556538  -0.47922894
 -0.7397717   0.57859087]
[ 0.5386146  -0.40430325  0.22647545  0.0958595  -0.40724403  0.31146958
  0.5378464   0.26360396 -0.07585769 -0.5093678   0.00177626 -0.31692675
 -0.14353459  0.1393647   0.19509302 -0.11714707  0.3427617  -0.04479739
 -0.67016715  0.2880692 ]
[-0.4151054  -0.8050364   0.07110782 -0.44511822 -0.21657072  0.14432225
 -0.20520203 -0.5604809   0.3423493   0.366904   -0.00730692  0.19348073
  0.01735401 -0.09045481  0.05031396  0.28375384  0.17192087 -0.18760799
  0.23844916  0.13803625]
[ 0.03444184  0.21246168  0.1065267   0.0862731   0.15596305 -0.06541666
  0.01298961  0.06084849 -0.14234962 -0.36873835  0.29811516 -0.50304097
 -0.06530671  0.12617812 -0.29207703 -0.4671582   0.02652819  0.05241262
 -0.29251912  0.04070833]
[ 1.0109922   0.5195856   1.024359   -1.1741216   0.21162231 -0.85438
  0.5557359   0.6933131   1.261687   -0.97222644 -1.2218277  -0.69600713
 -0.53888583 -1.2769711   0.7764247   1.046682   -1.1474894  -1.0968173
 -0.7527095   1.1002146 ]
[ 0.01961912  0.13620986  0.19497618 -0.11360028 -0.20729655 -0.16629007
  0.12473036  0.01526692  0.12603445  0.31522906 -0.06775613  0.30215994
  0.15093768  0.36575678 -0.3552775   0.35755253  0.06122251 -0.3430889
  0.5662155   0.20582996]
[ 1.5235031   1.1542633   1.6753155  -1.2793189   0.578407   -2.0379136
  1.8389459   1.1479334   1.2268616  -1.1509228  -1.1704509  -1.7286816
 -1.2352077  -0.8342851   0.3515135   0.9251587  -1.4612187  -0.88650715
 -0.9329314   0.7817008 ]
[-0.20252223 -0.67587155 -0.84862596  0.9923491  -0.7570955  -0.21224588
 -0.4129296  -0.18439527 -0.4378777   0.22477798  0.69739234  0.8858939
  0.71506816  0.33500585 -1.2216479  -0.40339613  0.16533324  0.7700287
  0.36463675 -0.44499272]
[-0.42288485  0.2138565  -0.08685017  0.38996258 -0.26905358  0.52012295
  0.06770932 -0.00176397 -0.09989084  0.45152676 -0.0778238   0.1317779
  0.05138812  0.2430306  -0.24222632 -0.18394814  0.16393948  0.20667075
  0.28105912 -0.84529686]
[-0.71292555 -0.45405504 -0.53116065  0.50331616 -1.4651934  -0.11703604
 -0.44098747 -0.5937245  -0.32109383  0.80240005  0.7605058   0.32781488
  0.44063377  0.74248594 -1.8043768  -0.4689968  -0.05914021  0.59783214
  0.6852256  -0.90365565]
[ 0.08199909 -0.10346431  0.4460935  -0.11462769 -0.01089347 -0.6008952
  0.25503567  0.07358969  0.1898559   0.11916867  0.50015247 -0.12783727
 -0.07075287  0.17544328 -0.57744855  0.34443897 -0.199728   -0.2713898
 -0.05090282  0.1677364 ]
[ 0.27239382 -0.11474434 -0.18798642  0.6970235  -0.48031655 -0.05752792
 -0.18782596 -0.5841855  -0.13864458  0.33620453  0.60355777  0.30974355
 -0.02643935 -0.29343972 -0.90864486  0.22962207 -0.18669547  0.06220844
  0.23344572 -0.10267821]
[ 0.3238198  -0.44984806  0.0581236  -0.22059529 -0.20882626 -0.10806595
  0.07158298  0.19006257  0.14687136 -0.12275837 -0.0846996   0.09313068
 -0.35364014 -0.10551352  0.24466838  0.2564353  -0.60566187 -0.04371689
 -0.12503542  0.09757543]
[-0.01103745 -0.09966499  0.38789827  0.3058174  -0.8046156  -0.66338164
 -0.19686863 -0.16588621  0.29239148 -0.1013166   0.26502895  0.07452472
 -0.03141757 -0.09738913 -1.1436855   0.14403653 -0.54165953 -0.11448703
  0.04242398 -0.7880536 ]
[ 0.6780073  -0.1937373  -0.19244027  0.0433341  -0.73528916 -0.50811464
 -0.09178017 -0.40797704  0.44263822 -0.01394568  0.15118447  0.52634645
  0.02771977 -0.3397133  -0.79780376  0.5372689  -0.04469012 -0.16066818
  0.01039615  0.6883036 ]
[-0.1386743  -0.81495446 -0.6954177   0.6972291  -0.66403335  0.1258486
 -0.23232174 -0.35018915 -1.0059222   0.6097781   0.8404824   0.3062611
  0.3306783   0.4920992  -1.1996816  -0.33812043  0.2070958   1.0207944
  0.46181712 -0.30869275]
[ 0.41985512  0.3264805   0.23357157 -0.23135094  0.15938208 -0.6976734
 -0.22657318  0.5667747   0.30499727 -0.37329432 -0.23869753 -0.33311707
 -0.1251158  -0.4254292   0.492576    0.29482758 -0.6156683  -0.36721945
 -0.3985146  -0.288832  ]
[ 1.2422839   0.8270739   1.5441433  -0.53111553 -0.02899529 -0.9560783
  0.7855625   0.9760994   1.0382096  -0.9325597  -0.93732774 -1.0228686
 -1.2261502  -0.87999547  0.82053345  1.1421213  -0.60316825 -1.1508791
 -1.1515112   1.1174116 ]
[ 0.25903356 -0.04359698  0.73787785  0.05510445 -0.46325305  0.32499483
  0.38729417  0.20748663 -0.1416521  -0.37201196 -0.09732535 -0.11868794
  0.06069153 -0.12431424 -0.03671827  0.35630837  0.2320234   0.5784684
 -0.375538    0.2703797 ]
[-0.14389396  0.4704614   0.49230427 -0.22534914  0.17692453 -0.99682814
 -0.08067705  0.23720111 -0.09637926 -0.06041745  0.1238438  -0.74033153
  0.06603266 -0.03731855  0.6565155   0.13354658 -0.5309376  -0.5960751
 -0.11488572  0.16778667]
[-0.47996816 -0.06948145  0.34088427  0.22131737  0.05001854  0.5486758
 -0.17585406 -0.04752485 -0.03706557 -0.06297728  0.01359872  0.51205224
  0.19790573 -0.01823785  0.3094709  -0.3799599   0.2124908   0.2661332
  0.18344453 -0.6240769 ]
[ 0.4180456  -0.11775714 -0.13119963 -0.17830889 -0.10102774 -0.30305904
  0.5086134  -0.1723893   0.3423393  -0.19322155 -0.2055508  -0.31670368
 -0.3398727  -0.17833878 -0.25575584  0.21547318 -0.04152116 -0.27415934
 -0.09317673  0.7761087 ]
[ 0.07719199 -0.08927314  0.11181293 -0.19688319 -0.33155838  0.14947523
  0.834605    0.5584741  -0.08353913 -0.03462828 -0.06801993 -0.06581466
 -0.35665107  0.18179655 -0.30171064  0.3123503  -0.41270143 -0.16544253
 -0.32234383 -0.04023344]
[-1.505646   -0.7863811  -0.912897    0.94048715 -0.44205418  2.1516702
 -1.3936106  -0.84059006 -0.69003606  0.98871034  0.8480402   0.7217516
  0.74664557  0.8060459  -0.35880134 -0.829698    0.75213355  1.1897972
  1.005534   -1.3674958 ]
[-1.6507471  -0.9710582  -1.3612815   0.9921523  -0.8130087   1.8730962
 -1.4137512  -0.91889054 -1.0126032   0.8891405   0.45598322  0.7432387
  1.1428239   1.2278688  -0.49245477 -1.0875397   0.8118878   1.3910495
  1.3031046  -1.8147192 ]
[-0.3222125  -0.07606373 -0.1104169   0.11090852  0.15552832  0.06452696
 -0.14684416 -0.0538755  -0.47166485  0.08816975  0.2113979   0.46463954
 -0.39448595  0.3806133  -0.02622774 -0.42113122 -0.24391343  0.40885845
  0.12486593 -0.2680866 ]
[ 0.57929265  0.59930545 -0.10635576 -0.771145    1.006955   -0.25575203
  0.44345927  0.37935656  0.53824735 -0.3313801  -0.19385    -0.208662
 -0.4353924  -0.76440996  0.8355463  -0.30423987 -0.57086736 -0.71696585
 -0.83985347 -0.32445464]
[ 0.06024588  0.6742674   0.32286194 -0.17455412  0.48798144  0.22928704
  0.03578557  0.1469462   0.09740686 -0.21719366 -0.27846482 -0.61050874
 -0.37595084 -0.08007669  0.31314424  0.07079928 -0.3522598   0.07246274
 -0.6473608  -0.37772325]
[ 0.100677   -0.10201937 -0.10935359 -0.36123487  0.36523205 -0.89526474
  0.29149464 -0.09831781 -0.13980162 -0.03679827 -0.2792029   0.08961421
 -0.3194723  -0.25051004 -0.28817275  0.07283536 -0.14132982 -0.45562503
 -0.17736803  0.30678725]
[-0.37211415 -0.04439179  0.10034093 -0.159502    0.23649018  0.3814116
  0.1992607   0.2181279  -0.11890198 -0.4283091   0.27850074  0.6355302
  0.23060584  0.49040848 -0.17293437 -0.29156715  0.2580442   0.4589169
  0.09008913 -0.48124534]
[ 0.7693328   0.75161624  1.4162486  -1.0898703   0.6126747  -1.7311802
  1.4364972   0.44206253  1.1911517  -0.48169065 -0.8847331  -0.77129966
 -1.143385   -1.4646757   1.0881672   1.0685056  -1.4447117  -1.4331992
 -0.6422046   0.59836906]
[ 0.14374769 -0.8331333  -0.56365687  0.90310633 -0.02477906  1.1494793
 -0.60909504 -0.9181713  -0.7696234   0.9919078   1.2433568   1.1293172
  0.65470904  0.71662545 -0.1641872  -0.94821453  0.76549894  1.106333
  0.8953716  -0.05864097]
[ 0.46598655  0.36198467  0.34533784  0.13429913  0.30136046 -0.19717154
  0.06216883  0.05982637  0.00988999 -0.28955296 -0.38501433  0.30142274
  0.35615817 -0.23572516  0.26242098  0.14360091  0.06753246 -0.40350708
  0.19392116  0.62200034]
[-0.27961016 -0.6806469  -0.5347439   0.82340634 -1.0322607  -0.12397155
 -0.06003263 -0.46712837 -0.79259455  0.40781504  0.36601362  0.20238337
  0.6807663   0.29237202 -0.90961516 -0.35034692  0.48457855  0.42001897
  0.04112224 -0.38425773]
[ 0.98727053 -0.7010515   0.08554091  0.00962923 -0.17460911 -0.22940212
  0.32551953 -0.02793453 -0.44554147 -0.23738971  0.07650923  0.5108141
  0.6356227  -0.2966829  -0.15026006 -0.20394251  0.291332    0.4686131
 -0.08560695  0.37897852]
[ 0.2945723   0.28301227  0.81466305 -0.2618503   0.3270402  -0.6659915
  0.7111224   0.4363017  -0.22595263 -0.605305   -0.8509385  -0.28924844
 -0.73404443 -0.48151612  0.04204965  0.274407   -0.4623436  -0.20524956
 -0.3393525   0.14664045]
[ 1.5000085   0.5891451   1.7256833  -1.1607467   0.50596416 -1.9574634
  0.8752122   0.6421302   0.8905768  -0.7848529  -0.9323209  -0.6600599
 -0.76301277 -0.91066337  0.4410627   0.99414265 -0.783145   -1.0920095
 -0.8697038   1.422236  ]
[-0.0097187   0.42844668  0.1420143   0.00594077  0.22727422 -0.10415185
  0.5185684   0.2704881   0.20911804 -0.48119947 -0.50650007 -0.6254038
 -0.4474469   0.07528838 -0.16208825 -0.1729438  -0.4874528  -0.0423905
 -0.5267153  -0.432812  ]
[ 1.9418348   0.14227796  1.142106   -1.4032642   0.50206435 -1.8449663
  1.4884628   0.9191987   1.1693878  -0.99994665 -0.8334266  -0.7501703
 -1.0523934  -1.3717811   0.391016    1.2878746  -1.5223808  -0.9690985
 -0.85266966  2.2384224 ]
[ 0.27732456  0.6565185   0.16353521  0.12597373  0.757319   -0.42011955
  0.34086314  0.5945206  -0.27778    -0.3120995  -0.09831324 -0.6537235
 -0.07456113 -0.06291873  0.42835587 -0.07672373 -0.27435887 -0.03218748
 -0.13518867  0.25214225]
layer 5 Activation
tanh
layer 6 Dense
20 1
[-3.2677028]
[-2.8597772]
[-2.9856231]
[2.9739604]
[17.650131]
[3.1886516]
[-3.0890267]
[-2.9262714]
[-2.9338078]
[2.9594939]
[2.9781628]
[2.9389985]
[2.9733365]
[3.0368404]
[17.779816]
[-3.0138116]
[2.9853625]
[3.1552706]
[2.9338477]
[-3.0764754]
[18.84212]
