layers 7
layer 0 Dense
20 20
[-0.31922373  0.20176706  0.32120633 -0.20525551 -0.21710452  0.08606804
  0.3189986  -0.1503273  -0.33410168  0.30491218  0.2765369   0.0195138
  0.06334116  0.36271536 -0.31509605 -0.1411254  -0.23207106  0.07931376
  0.36761978 -0.20442379]
[ 0.31041613  0.06087028 -0.31010887  0.3595946   0.08418422  0.10489994
  0.30019227 -0.03654987  0.16664866 -0.1416512   0.02598396  0.3545756
  0.44050106 -0.01107935  0.20246494  0.21164164  0.19889677 -0.1677787
  0.21629801 -0.21100526]
[ 0.31237513 -0.06880771  0.00822371  0.06909464 -0.24442731 -0.28769287
 -0.23426308  0.13866267  0.10870992  0.06665121  0.28455144 -0.18028551
  0.42505482 -0.50481796 -0.28540355 -0.35365036 -0.2922113   0.10925085
 -0.15394512  0.01571071]
[ 0.3378944  -0.19208516 -0.1407224   0.4447579   0.35806042 -0.14039999
 -0.25321144  0.4315946  -0.03565294  0.15297316 -0.03556666  0.10287506
 -0.40256864  0.04471224  0.09528788 -0.32004994  0.30948487 -0.23303515
  0.11416287  0.03398499]
[ 0.22160825  0.01382319 -0.34153083  0.0939196  -0.01067441 -0.11556711
 -0.26129767  0.08158229 -0.19714315 -0.36155418  0.04251104  0.04346045
 -0.1323757   0.20554419 -0.21320355 -0.15870625  0.11910858 -0.08716629
 -0.15457612  0.30361006]
[ 0.16338722  0.2159665   0.02629421 -0.18517305  0.12965699  0.31445485
 -0.0451494  -0.38731304  0.13710842 -0.00155903  0.0679525  -0.08784334
 -0.29271868 -0.19058134 -0.2110988   0.42833516 -0.05503066  0.09384402
 -0.11099512 -0.26629218]
[ 0.35886428  0.02908051  0.18461621  0.09758448  0.2730563   0.05035599
  0.16838346 -0.22669214  0.014815    0.29795736  0.45942548  0.05409342
  0.22296147  0.20838778  0.37852407 -0.22940323  0.45881942  0.10389907
  0.2693321   0.29339632]
[-4.5388407e-01  2.4507737e-01  1.5711439e-01  3.3478835e-01
  1.3658531e-01  4.5460314e-02 -4.8054278e-01 -3.5393080e-01
  1.9508509e-01 -5.0806906e-02 -3.8502272e-05 -1.9887590e-01
  1.9433124e-01  1.4020319e-01 -3.2804120e-01 -3.2088834e-01
  1.9364022e-01  2.0467633e-01 -4.6893841e-01  1.1801048e-01]
[ 0.36554     0.07399965  0.27822447 -0.12442284 -0.16453466  0.04680816
  0.19329034  0.2859432  -0.09760333  0.00536499 -0.03848501  0.5167416
 -0.03568806 -0.3257964   0.21300435 -0.0112747  -0.19937147 -0.5354797
  0.40602154 -0.21400148]
[ 0.30699325 -0.01644393  0.1012132  -0.18835087  0.20463575  0.24760607
 -0.1144841   0.2672912  -0.24712647  0.00677524 -0.12370569  0.29611215
  0.31744412  0.00144448 -0.27521762 -0.02299157  0.02115041  0.40429604
  0.09591983  0.19837736]
[-0.00638792 -0.42777777  0.1383387  -0.12212899 -0.1850712  -0.09644408
  0.27299199  0.33673432 -0.531341    0.3612738  -0.35323894  0.08571979
  0.04354747  0.35487786 -0.27747753 -0.2912785  -0.0344404   0.15285684
 -0.18774322 -0.40832   ]
[ 0.31808987 -0.0045775  -0.3387158  -0.07828416  0.3148979  -0.31660149
  0.12859188  0.3097648   0.34992036  0.13336273 -0.00373578  0.45167574
  0.3918923  -0.08683956  0.11304443  0.07537936  0.18194543 -0.08601885
 -0.02826151 -0.14834398]
[ 0.10840851  0.04394476  0.20948222  0.25940594 -0.3238083   0.36395144
 -0.04282881 -0.2997069  -0.07825206 -0.04816807 -0.06259812 -0.28930283
  0.2886912  -0.06634339  0.36298475 -0.1934755   0.425333    0.3027915
 -0.00170726 -0.27451095]
[ 0.25868288 -0.27472174 -0.02732172 -0.19244458  0.0168443  -0.4222538
 -0.30436006  0.19478445 -0.02613201  0.15559587  0.2867016   0.10791227
 -0.01318694 -0.13086785  0.12963678  0.35217214  0.0874304   0.1735264
 -0.15370966 -0.21981212]
[ 0.3311055   0.18532586  0.0703736  -0.18572734  0.1047067  -0.23783882
  0.27125445 -0.34664142  0.327754   -0.09870188  0.21456802 -0.09345783
  0.22492102  0.18211032  0.09258074 -0.21084262 -0.00796161  0.27001977
 -0.10178079 -0.03157787]
[ 0.03212651  0.37679127 -0.06790916 -0.34986147  0.19277093  0.0501935
 -0.20639107  0.29366797  0.21999264  0.07385068  0.38512847 -0.15774888
 -0.15488628 -0.28382593  0.2948608  -0.2616475  -0.33130434 -0.28043023
  0.0227432   0.2988805 ]
[-0.20761922 -0.2803121   0.26085123  0.05986116  0.16689347  0.02549575
  0.11892579  0.19299208  0.15298544 -0.19200534 -0.36669388  0.06988111
  0.3065427  -0.24166359 -0.40106267  0.0128896  -0.34885746  0.06219493
 -0.30142093  0.5367343 ]
[ 0.20366333  0.373483    0.15033823  0.36355683 -0.26235217  0.19040614
  0.36594012  0.04852507 -0.4258806   0.28390357 -0.00145701  0.41709715
 -0.06037191 -0.03053948 -0.14069228  0.38594535  0.25518084 -0.30421734
  0.12403814 -0.04697482]
[-0.15596591  0.42576033 -0.21999423 -0.2925799  -0.04128368  0.10720337
 -0.5772703  -0.27668816  0.3709032   0.28761053 -0.40376046 -0.34058252
  0.19792363 -0.1370261   0.46077308 -0.30594465 -0.23315273 -0.6517357
  0.1702407   0.11254023]
[-0.3868273  -0.28983462  0.30453026 -0.31916532  0.08242512  0.43915942
 -0.11517972 -0.17774765  0.23328862  0.47056648  0.25789583 -0.3732818
  0.37267914  0.00926029 -0.12942831 -0.11442151  0.49915993  0.30685213
 -0.31469777  0.11542226]
[ 0.05019247 -0.00186031 -0.0488666   0.01386862 -0.01863183  0.02589789
  0.074961    0.02270095 -0.09842806 -0.0642679   0.04864761 -0.0612795
 -0.03959722 -0.03396564  0.00445578 -0.03244125 -0.05208647  0.03450269
  0.0266141   0.03486005]
layer 1 Activation
tanh
layer 2 Dense
20 40
[ 0.23951152  0.18283486 -0.06910756 -0.17792109 -0.2312082   0.29045638
  0.14543025 -0.11352428 -0.10710124 -0.11309528  0.03659593 -0.05720038
 -0.19178353  0.44550335  0.05206447 -0.01109564  0.39201108 -0.05150317
 -0.29002205 -0.01510695  0.21908392 -0.14529987 -0.16584334  0.1391949
 -0.33464557  0.04073386 -0.28370145  0.2524542   0.27022246 -0.10734843
  0.10311941  0.16812864 -0.1153371   0.14705493  0.21714686 -0.06949081
  0.33374578  0.03134008  0.35896897  0.16769   ]
[-0.12830135  0.19316064 -0.30762833 -0.05551387  0.54700226  0.19607782
  0.02685448 -0.07436893  0.14113253 -0.21238145 -0.17798197  0.14805855
 -0.02230413 -0.1999237   0.12668154  0.05431195 -0.06764489  0.11024883
  0.17900454 -0.04445886 -0.17162983 -0.22610386 -0.34606123 -0.02471754
  0.16040835 -0.1103067  -0.17428763 -0.06331904  0.10592767  0.18503153
 -0.0258708   0.24925713 -0.3185118   0.29394865 -0.23439905 -0.44464278
 -0.20389713 -0.33681318  0.17756326  0.19648549]
[-0.20290966 -0.27845556  0.03258336  0.3897602  -0.20077209 -0.07667895
  0.27861384  0.32455632 -0.09552794  0.21580285 -0.06119218  0.08063915
 -0.03844047 -0.199642    0.27080742  0.2670798   0.2140155  -0.2624713
 -0.11019964  0.12297723  0.18233307  0.21293396 -0.27543837 -0.26392892
  0.12650889 -0.06741785  0.26760533  0.21689054 -0.17982793 -0.07582411
  0.00299198  0.10645019  0.18987493  0.192281   -0.06909601  0.0972199
 -0.0332959  -0.34485236  0.02523338 -0.10736603]
[-0.03138024  0.11781409 -0.16485666 -0.2054072  -0.3591228   0.10454232
  0.29511815  0.05483134 -0.11801942 -0.31671247 -0.19991674  0.23569494
  0.2609035   0.24519433 -0.22508559  0.1958844   0.17159478  0.06946295
 -0.16748299  0.03663962 -0.13775863  0.14945696  0.2778313   0.30441916
 -0.01794043  0.4426852  -0.09083758 -0.23267551  0.08423232  0.0258033
 -0.0629914   0.26304406 -0.20668502 -0.30813605 -0.09951283 -0.08673342
  0.08114911 -0.30686986 -0.04804894 -0.32714674]
[-0.26276016  0.14256698 -0.10917702 -0.06024557 -0.04175124 -0.00921268
  0.14547917 -0.07436857 -0.05690869  0.27609378 -0.12092321  0.07291437
 -0.12775941  0.25746143  0.2978289   0.3238361   0.12480005 -0.17930955
  0.06011181 -0.10127524  0.13172944  0.2424329   0.17029564 -0.06080972
 -0.17465155 -0.15066916  0.20417179 -0.05856351  0.2106343  -0.00495591
  0.1779307   0.05630809 -0.20358896 -0.14518076 -0.12709329 -0.00794717
 -0.14956254  0.04906872  0.2495327  -0.04893646]
[-0.01635033 -0.13719083 -0.11208557  0.12337073  0.25148326 -0.1271151
 -0.28039506  0.07244938  0.0786083   0.15968964 -0.22324498  0.18941072
 -0.01349772 -0.07004092  0.11842271 -0.16817778 -0.36184335 -0.2566771
  0.3352209  -0.21413483  0.12718773  0.30043262  0.2914198  -0.15160999
 -0.21478839 -0.2437415  -0.10177301 -0.03324663 -0.22736035  0.01572085
  0.08735306  0.1887391   0.19749187  0.15860225 -0.21920016  0.05122553
  0.28867275  0.19798289 -0.14266779 -0.23881726]
[-0.09833831  0.21269684 -0.31583136 -0.2270256  -0.30398652  0.19381979
 -0.20393746  0.0551523  -0.05632067  0.15808858  0.09985036  0.19230777
  0.00736411 -0.06397386  0.31584975  0.22493851  0.36315003  0.02467281
  0.07827812  0.10003025 -0.11709326 -0.2374056   0.08820554  0.22179942
 -0.25492612  0.4733399  -0.26858598 -0.15306705 -0.29960138  0.07705224
  0.32926536 -0.19525097 -0.11111046  0.13352972 -0.07084345 -0.2641569
  0.4483376   0.24127777 -0.07776605  0.3931675 ]
[-0.0065809  -0.08275426 -0.14148252  0.15383594 -0.0651355   0.23482832
 -0.09723862  0.01736456 -0.34525657  0.06113673  0.12609746  0.16276722
  0.3255007   0.41057113  0.37597424 -0.19233336 -0.12830535  0.12990126
 -0.02685595 -0.2657813   0.19173251 -0.22232771  0.22955778  0.06472233
 -0.03151457 -0.04488955 -0.32890105 -0.20293178 -0.0810395  -0.32279563
 -0.24858823  0.31707114  0.17774342 -0.07674939  0.31063822  0.2765799
 -0.1915171  -0.01141602 -0.36660868  0.53784376]
[-0.25589046  0.105575    0.09501141 -0.1579563   0.17475107 -0.3366977
 -0.25967354  0.24219663 -0.00379583 -0.00733581 -0.08526149 -0.0908765
  0.21089499 -0.41353804 -0.12870899 -0.23833443 -0.02880268 -0.16920605
 -0.09183146  0.10151741 -0.12866598  0.10126    -0.2553605  -0.137386
  0.17035006 -0.35387254 -0.10784854  0.1822914  -0.16983114 -0.0614933
 -0.08906435 -0.10698798 -0.15345186  0.28719023 -0.2710082  -0.23792441
  0.07515853  0.05926819  0.2637062  -0.00216539]
[ 0.07498222  0.3523475  -0.16073845  0.258891    0.19196956 -0.13701274
  0.22492093 -0.20474428  0.01754385 -0.32917067  0.21722378  0.01791988
 -0.10783284 -0.3482221   0.00829323  0.08136755 -0.27015242 -0.12379455
  0.00492361  0.05640555  0.12359139  0.3126501  -0.28857923  0.0243259
 -0.14123271  0.24333459  0.13908356 -0.00154023  0.16958563  0.2464899
  0.12400153  0.0635215   0.22670469 -0.02277672  0.05071891  0.31717968
 -0.01586169 -0.2917604   0.05902898  0.02272158]
[ 0.02958675  0.07733195 -0.16123147 -0.03368792 -0.15064119 -0.10755477
 -0.13512056  0.14909375 -0.22605614  0.16588198 -0.12285436 -0.2696472
 -0.23423068 -0.35369876  0.03353071 -0.0671259   0.10429919 -0.16672207
  0.1774636   0.18396758  0.18090463 -0.02857063 -0.15516238 -0.3627182
  0.27028352  0.08448529  0.07143032 -0.02477568  0.22076221 -0.13760196
  0.04264556  0.06151988 -0.01222585  0.24414751  0.16341266 -0.13262522
  0.03318993 -0.0953901  -0.03329898  0.34231558]
[ 0.2090341   0.06723794  0.20224884 -0.14130543 -0.23253803  0.3863378
  0.26602197  0.22191882  0.00716581  0.01547291 -0.17326792 -0.05119873
 -0.01172779  0.25838348 -0.13473219  0.24465236  0.42418492  0.22351286
 -0.3709974  -0.09793638 -0.12215158 -0.05549114 -0.13309482 -0.02481713
 -0.11045051  0.23131238 -0.45466402  0.3416275  -0.1461208  -0.39717484
 -0.07408229 -0.15197194  0.17885704 -0.07823954  0.34226292  0.15068597
 -0.15294267 -0.20325284 -0.27522096  0.524677  ]
[-0.1444711  -0.13946833 -0.17244393 -0.18594697 -0.05190083 -0.29024035
 -0.00238819  0.27386266  0.28260502  0.08340382  0.03381483 -0.19928196
 -0.20117062 -0.18302843 -0.07306291  0.12584902  0.02133707  0.2992671
 -0.05703599 -0.17373975 -0.12598136  0.155646    0.09078164 -0.28715333
 -0.0027917  -0.2760923  -0.29589036  0.27269796 -0.17449602 -0.07939649
 -0.2907698  -0.31244436  0.09077225  0.04994465  0.04556906 -0.09987628
  0.30613595  0.1038164   0.14879104  0.21394965]
[ 0.01823403  0.3475685  -0.12315628 -0.10077778 -0.51912796 -0.06838083
  0.01430893  0.49407873  0.14741899  0.1828948   0.308845   -0.04047751
 -0.16808993 -0.18428537  0.22382322 -0.19436438  0.19666171  0.24778566
  0.16098745  0.1869072   0.26823273 -0.02834011  0.03598198 -0.18396913
  0.08311663  0.36507112  0.26819855  0.01190671  0.06439761  0.04883403
  0.15997826  0.0201707  -0.26342052 -0.00165909 -0.08307787  0.08049908
  0.12526429 -0.34203017  0.012359   -0.22554632]
[-0.21654807 -0.25748637  0.2574463   0.09609101  0.23795173 -0.08417317
 -0.0728843  -0.3527573  -0.04847334 -0.20017968  0.09113751  0.21369605
  0.11237246 -0.13285786 -0.17113811 -0.23858818  0.01304242  0.22968124
  0.09212177 -0.40515405 -0.2680889   0.14844988 -0.00098201  0.25470576
 -0.24037072 -0.02742111 -0.15990803 -0.21885638  0.01027266  0.08972236
 -0.09799778 -0.20551413 -0.04764215  0.20644885 -0.20489517 -0.27847937
  0.11689764 -0.2538636  -0.15177046  0.08431501]
[ 0.03091451 -0.22662218  0.14322083  0.0908341   0.02548268  0.2240856
  0.15697815 -0.12438776  0.08055464  0.01739764 -0.06660803  0.07552865
  0.19676049  0.3787338  -0.20811337 -0.24650867  0.18599139 -0.06288949
  0.1767623  -0.01332468 -0.19539896  0.28288275  0.06331136  0.16643225
  0.14783792  0.21026278  0.070949    0.00793594 -0.08869147 -0.26268047
  0.04472264 -0.05850907  0.04109104  0.15269661 -0.0155442  -0.07115619
  0.11286887  0.19480127  0.16807419 -0.13590679]
[ 0.34277567 -0.11557878  0.22201572  0.33527696  0.13055274  0.02113484
 -0.3888763   0.51925224  0.0725437  -0.0819522   0.360059   -0.12398376
 -0.2764354  -0.6026882   0.10803332  0.10055308  0.10202075  0.30614823
 -0.15411016  0.22552086  0.38871387 -0.15526506  0.03356079 -0.00941825
  0.0400846   0.4171398   0.20057333  0.06997321  0.09773785  0.42409724
  0.11310909  0.1491203  -0.00345342 -0.36491856 -0.36993158  0.03266998
  0.2761905   0.04959168  0.01145131 -0.15429391]
[-1.03070818e-01  2.60909319e-01  1.04578987e-01  5.92380524e-01
  1.27149150e-01  3.97110954e-02  1.94657862e-01  4.91295993e-01
  5.50474215e-05  1.46966979e-01  2.39587188e-01  3.70344818e-01
 -3.47558498e-01 -1.64806053e-01  3.74703616e-01  1.61975905e-01
 -1.99501008e-01  1.23468176e-01 -1.84422627e-01 -1.79150537e-01
  1.48419872e-01  1.04872368e-01  1.01715706e-01 -2.75958143e-02
 -9.27056223e-02 -1.38304844e-01 -6.03194349e-02 -1.23273484e-01
 -5.59161827e-02 -2.08089784e-01  1.23163283e-01  7.17360750e-02
 -3.06827992e-01  1.29169807e-01  2.88342178e-01  2.01621652e-01
  2.33951449e-01 -7.27270544e-02 -1.10677630e-01 -3.83253574e-01]
[ 0.22397827 -0.20222573  0.22196653 -0.27743992 -0.10071728 -0.09367727
 -0.27414137  0.06057162 -0.12579614  0.01777174  0.02940572  0.21859169
  0.20317538  0.16928539 -0.15614484  0.04966534  0.1835661  -0.04772859
  0.17432313 -0.24452367 -0.35529396 -0.18195234  0.31373757  0.43263832
  0.00505539  0.06136703 -0.22273774 -0.10752854 -0.12033975 -0.1064002
  0.03294351  0.31043607 -0.1728679   0.1398009  -0.08480234 -0.3634084
 -0.30893832  0.15365155  0.04626202  0.2649408 ]
[-0.4116215  -0.14672107  0.18675637 -0.3370641  -0.17501676  0.27935869
  0.2471626  -0.37548357 -0.17368835  0.23288062 -0.19017017 -0.24190237
  0.13937916  0.07223982 -0.13201992 -0.16821994 -0.14978682 -0.257058
  0.3213345   0.01715922 -0.2527263  -0.06021891 -0.09209918 -0.03516824
  0.17449802 -0.256903   -0.3635144  -0.1988637   0.04396995 -0.24984604
 -0.2710671  -0.18947034 -0.24066304  0.20284063  0.3097902  -0.20187724
  0.25964928  0.10451191 -0.18127045 -0.14712866]
[ 0.04284339  0.06858364 -0.00484217 -0.04407082 -0.01592182  0.00232574
 -0.05683252  0.01019188 -0.0271973  -0.05556592  0.07658166 -0.00942025
  0.01650465  0.08172023  0.05604198 -0.01344336  0.01078416  0.00943129
 -0.03713894 -0.09268516 -0.01199518 -0.1277471   0.02016444  0.11858818
 -0.02653623  0.03134666  0.03829313 -0.06234996  0.0082763   0.04140873
 -0.04285046  0.04795143  0.00885096  0.00052591 -0.00415295 -0.07221986
 -0.13266547 -0.05216418 -0.02405396  0.06761753]
layer 3 Activation
tanh
layer 4 Dense
40 20
[ 0.04858524 -0.26548633  0.04818255  0.02784656 -0.20593174  0.11348213
 -0.16973923  0.1296003  -0.20577644 -0.23119545 -0.20330556  0.0522441
 -0.13792802  0.23017357 -0.25936222  0.08011401  0.20949672 -0.0273353
 -0.27110827 -0.06042079]
[ 0.31271607 -0.17242926 -0.01615066 -0.28626204 -0.15561806  0.04388868
  0.07295594 -0.11875023 -0.20804079  0.2630031  -0.23209983 -0.28200898
 -0.24357349  0.17089796  0.07919329  0.19085522 -0.00535097 -0.00130879
  0.13317801 -0.08555862]
[ 0.22703637 -0.2139801  -0.16501535 -0.30691463  0.09293225 -0.09884124
  0.2278947   0.05431921  0.00968128 -0.02977294 -0.04153836  0.20476498
  0.28152248  0.02245469 -0.17720929  0.06233788 -0.08732025 -0.3314883
  0.03212744 -0.08710507]
[ 1.6930889e-01  7.0797190e-02  2.2952095e-01 -3.0229020e-01
  2.4680197e-01 -1.4679328e-01 -3.0438954e-01  3.7791695e-02
  2.2609903e-02  3.6352503e-01 -2.3535721e-01  3.6206546e-01
 -6.1356250e-02  1.7661738e-01 -4.5933014e-01 -1.2753546e-01
  4.0277457e-01  8.3599649e-02 -1.6184442e-04 -4.3716539e-02]
[ 0.14726225 -0.2385114   0.2795791  -0.3230736  -0.22072825  0.23305956
 -0.03456114 -0.16249427  0.04877641 -0.14369169  0.28024608  0.1704834
  0.04848455  0.1459724  -0.23081948 -0.3357785   0.00655254  0.19475324
  0.1568907   0.00631431]
[ 0.13743237 -0.11313673  0.19934712 -0.05083606  0.29640803 -0.15028404
 -0.37012115  0.42867318  0.11092771 -0.19576472 -0.12950985 -0.4340424
 -0.29147395  0.20311071  0.16466509 -0.08814894 -0.18086961  0.09544064
 -0.24792959  0.13433264]
[ 0.0545116   0.1261757   0.13081704 -0.21901129 -0.22569323 -0.0891109
 -0.3724223   0.3792134   0.096784    0.09803158  0.2963615  -0.19756393
 -0.17047273 -0.06831285 -0.09619568 -0.2358866  -0.28007695 -0.14632809
 -0.10532307 -0.17668813]
[ 0.23900786  0.39794835  0.22413255 -0.11332427  0.00138071 -0.06959032
 -0.21830669 -0.17860198 -0.04449089  0.26398334 -0.27928194 -0.24027096
 -0.1995454  -0.15232287 -0.08704893  0.17588063 -0.07244083  0.20084414
 -0.16460423  0.17572325]
[-0.27491876 -0.01376989 -0.20976327  0.24601878  0.03200037 -0.0273331
  0.24875772 -0.1087883   0.2875657   0.25189584  0.18018787  0.07078496
  0.34010342  0.07523467 -0.22246645  0.09065215 -0.26096633 -0.25817218
  0.10474173  0.20681024]
[-0.05778572 -0.09832819 -0.12209343  0.06630768  0.03631482 -0.33550334
 -0.16092329 -0.20940854  0.14235182  0.0405879  -0.05565652  0.24028726
  0.16478619 -0.2778724   0.30303046 -0.18086493  0.04693466 -0.2707416
  0.2816847   0.05016518]
[ 0.07312811 -0.11062799 -0.02141469 -0.1040668   0.01255736  0.069176
 -0.13302647  0.06174595 -0.13889661 -0.05331375 -0.1445194   0.34475002
 -0.0501791   0.02848729 -0.14964253 -0.05388502  0.20545647  0.31560668
  0.04863727  0.02439266]
[-0.20957452  0.1149728  -0.14151913  0.34827867  0.07835998 -0.14829591
  0.22788075 -0.18184085  0.2826039   0.02561999 -0.1622095   0.0604073
 -0.04593446  0.12007233 -0.28441083 -0.06596103 -0.01175428  0.18166807
 -0.2564773   0.1377142 ]
[-0.11534967 -0.27206308  0.1522192  -0.19413464  0.14369403 -0.08083396
 -0.08777495  0.20110843  0.09360746  0.13953927 -0.01847721 -0.26208913
 -0.06584995  0.14332813  0.34866005 -0.21250232  0.223288    0.0962557
  0.17881167 -0.11952887]
[ 0.2998485  -0.376273   -0.22894178 -0.24845874  0.08510558 -0.3023573
 -0.17641771  0.41029668 -0.18552853  0.0474008  -0.22771864 -0.32731324
 -0.12734234 -0.12713288  0.33536655 -0.3387672  -0.03782338  0.01088925
 -0.040988   -0.11662082]
[ 0.01724557  0.11034244 -0.17914174  0.15788712 -0.04984733 -0.12310593
  0.00278499  0.18126851  0.04194794  0.13864511 -0.19735076 -0.25571746
 -0.26135597 -0.14304085 -0.23020513  0.26109397  0.02004682  0.30496567
  0.00329525 -0.04305802]
[-0.07688385 -0.22814196  0.02465659 -0.01467834  0.22643247 -0.33550692
 -0.04913535  0.0488621   0.32897118  0.09098405  0.1813709   0.21537325
 -0.28594756  0.1509157  -0.2991593   0.04250412 -0.28728795 -0.16180484
 -0.04716374  0.13368796]
[-0.14513138  0.18914889 -0.04970055  0.2107954  -0.04228299 -0.25162685
  0.2005572   0.3002206   0.1950457   0.16540875  0.05493681 -0.33401346
 -0.2580257   0.3043597   0.12020228  0.0131323  -0.21133894  0.11675211
 -0.14260869 -0.01182204]
[-0.1826343   0.35779333  0.14768709 -0.18239143 -0.21448588 -0.03851373
 -0.00426972  0.02479296 -0.21842858 -0.15306665 -0.0368472   0.08479831
  0.30617014 -0.27708903 -0.30409774  0.28324515 -0.15539385  0.23529017
 -0.08847272  0.17549643]
[-0.32329506 -0.28381497 -0.13979253 -0.1486003   0.2133484  -0.03819236
  0.30490845 -0.138451    0.2086553   0.02407417 -0.05589788 -0.11854155
 -0.07580478 -0.06458074  0.16084345 -0.25812054 -0.06695987 -0.03492587
  0.02115949  0.2678333 ]
[-0.27198654  0.25298858  0.03405771  0.18716982  0.26414984 -0.16623731
 -0.2519986   0.06754847 -0.29663563  0.05568399 -0.0447431   0.00416666
 -0.21403295 -0.16498505  0.10120233 -0.18416229 -0.2027122  -0.09509219
 -0.21247043 -0.01395629]
[-0.14763466  0.2681018  -0.10409214  0.07385752 -0.04708952 -0.25351548
 -0.10687315 -0.08043889  0.20113192  0.24281196 -0.20747049  0.03083831
  0.04254072  0.28168315 -0.18744425  0.12112691 -0.17315347  0.22473328
 -0.04207163  0.06696335]
[-0.17192431  0.20489994 -0.19715972 -0.29786667 -0.06209745 -0.17807843
  0.05258336 -0.19049948 -0.0092974   0.23212253  0.2496905  -0.11356945
 -0.05082553  0.00811342 -0.23171858  0.09065492  0.21911408 -0.00348567
  0.07789319 -0.1975203 ]
[ 0.25860748 -0.23468888  0.09660221  0.19839366 -0.2040529  -0.26456842
 -0.24951312  0.18897493  0.19596653 -0.05300381 -0.13446176 -0.14800479
 -0.07487181 -0.01960168 -0.26164815 -0.08988707  0.2957044   0.14885822
  0.00139147 -0.10660125]
[ 0.17269218 -0.2907591   0.02950656 -0.0957249   0.01339005 -0.08452984
 -0.03287498 -0.25604436  0.00538844 -0.27292284  0.16820979 -0.05839756
 -0.05537771 -0.02535447  0.09257621 -0.26702935  0.26897934  0.21159855
  0.0173021  -0.03663056]
[-0.09819522 -0.01517467  0.0190764   0.3017429  -0.15183994 -0.09480527
 -0.26273602  0.10492682 -0.279417    0.04299067  0.05129267 -0.26252896
  0.21794696 -0.23466377 -0.14957196  0.10682785  0.1526905  -0.13377786
  0.09521365 -0.15957735]
[-0.0630723  -0.00388218 -0.07572573  0.04167333 -0.16517942 -0.14540555
 -0.08594708 -0.07105836 -0.19014512 -0.2884211  -0.07473677 -0.04356606
 -0.15824018  0.03902631 -0.09452486  0.20225264  0.05543348 -0.03875069
 -0.09435834  0.07776563]
[-0.29830173 -0.10609015 -0.17580028  0.29582822  0.29067755 -0.01598809
  0.25066847 -0.12974177  0.18548107 -0.11652408 -0.12163868 -0.23912248
  0.06403746 -0.16483699 -0.28479806 -0.15633796  0.4087026  -0.14292286
 -0.26298186  0.14012964]
[-0.07962223  0.26730576  0.11113845  0.06989837  0.2483587  -0.26157984
  0.24612013 -0.07380134 -0.0501077  -0.19259521  0.19524546 -0.20602983
 -0.08347727  0.21369363  0.06270275  0.16548955 -0.28511328 -0.23617256
  0.22086751 -0.1106407 ]
[ 0.20869458 -0.14343444  0.25341415  0.04592963  0.21718329  0.06525514
  0.26060775 -0.02007478  0.3098685   0.1949047   0.1389369   0.19150583
 -0.18087392  0.11060443  0.17424998 -0.21897021  0.07877701  0.09240033
  0.14443643  0.217982  ]
[-0.07993473 -0.02480819  0.24784489  0.09965864 -0.03680185  0.06573864
  0.24414907 -0.41654173 -0.04630327 -0.1572104  -0.12198351  0.14539246
 -0.08489331  0.00435536 -0.1378102   0.17897393  0.11188041 -0.17729305
 -0.2904203   0.24247721]
[-0.01749557 -0.03830018  0.1717905   0.35733598  0.18498991 -0.18900478
 -0.20396502 -0.05469043 -0.24590321 -0.19416921  0.0687764   0.18589765
 -0.0720829  -0.15571305 -0.02720626 -0.19206557 -0.07636447  0.19505194
 -0.21446311  0.33049947]
[ 0.0856232  -0.16399767 -0.3316472   0.23742992 -0.14794905  0.11449305
  0.3327601   0.0581264   0.23227613  0.0072133   0.20314151 -0.03652589
  0.0443306  -0.09658621 -0.24312904  0.15428227 -0.08416392  0.25604936
  0.02020243  0.26700816]
[-0.0766004  -0.20921458 -0.04938141 -0.20147309 -0.16109872  0.10335135
 -0.24223167  0.01922538  0.0896694  -0.03711758 -0.13215129 -0.31691003
  0.11164866 -0.0635443   0.00891363 -0.19631813  0.24502994  0.2271337
  0.27326852 -0.34028473]
[-0.26914826  0.1529782  -0.00538463 -0.31124294 -0.10777994 -0.11764376
 -0.02351766  0.24825397  0.26632643  0.02650171  0.2801725  -0.18779805
 -0.02834355 -0.0161911  -0.07285007  0.01089491 -0.389454    0.15061657
  0.2949403   0.23484008]
[-0.28032932  0.1344664   0.20046052 -0.1733593   0.03673382  0.24619538
 -0.30239978  0.32709658  0.28972986  0.3075395   0.03110551 -0.17041004
  0.29101914 -0.05064462  0.3489245   0.22952268  0.11811214  0.2256628
  0.25610173  0.0829148 ]
[-0.17844139 -0.3861593   0.02783025 -0.14195058 -0.00864722  0.2502628
 -0.2625242  -0.18133558  0.14944918  0.29917008 -0.23268904  0.12175193
  0.30684885  0.33438405 -0.1658803   0.24905416  0.00174714  0.12921323
 -0.14176334 -0.3404655 ]
[ 0.03442099  0.2701713  -0.17852375  0.11344277 -0.05186145  0.22791182
 -0.23427138  0.02290419 -0.19366398  0.1170771  -0.06695744  0.19438039
 -0.01796296  0.15216234 -0.22898489 -0.27854463 -0.15109722 -0.07241707
  0.08722314  0.1812841 ]
[-0.07870265  0.25413442 -0.01066178  0.15317406 -0.2054003  -0.09873096
  0.18324746  0.18353516 -0.14126395  0.29281107  0.21053827 -0.18574663
  0.2611352   0.32679507 -0.11637314 -0.3282399   0.06661297  0.13829362
 -0.114958    0.06309222]
[-0.24703948  0.23994704 -0.16525744  0.07163972 -0.00947145 -0.06211625
 -0.05977648 -0.15384895 -0.06307196 -0.14839467 -0.1180101   0.15928191
  0.15780468  0.23656203  0.22478952  0.11983546 -0.06233358  0.21906257
  0.20636663  0.1687418 ]
[-0.04100497 -0.3070627   0.14249718  0.22937845 -0.0599071  -0.04259917
 -0.02307383  0.25396416 -0.07755604 -0.20553826 -0.03511879 -0.32138383
 -0.2567949   0.07239451  0.04989034  0.26556614 -0.17805412  0.15977305
 -0.18747257 -0.23533979]
[ 0.03399438 -0.05444878 -0.01304635  0.00232747 -0.01488451  0.00945041
  0.04629467  0.00755543 -0.0044094  -0.04183259 -0.03921709 -0.01567321
 -0.00875317  0.05267338  0.0098557   0.00943629  0.03905906  0.04375006
 -0.03330387  0.01454546]
layer 5 Activation
tanh
layer 6 Dense
20 1
[0.30950996]
[0.35323513]
[-0.18021323]
[-0.26312077]
[-0.044255]
[-0.36768273]
[0.3638579]
[-0.310181]
[0.00471407]
[-0.416669]
[-0.38443947]
[0.16314499]
[0.3823185]
[0.01579807]
[-0.3679021]
[-0.280972]
[-0.44883662]
[0.25716972]
[-0.32286778]
[-0.4043975]
[0.03022638]
