layers 7
layer 0 Dense
20 20
[-0.3695077  -0.10380337  0.14758451  0.6353265   0.5719135  -0.23601861
 -0.26745698  0.09985607  0.04681366 -0.04149993 -0.10483755  0.16934939
  0.14592865 -0.36777255  0.05444985 -0.36316946  0.22309479 -0.20196462
 -0.03432121 -0.1448077 ]
[ 0.10714348 -0.6053866   0.19016515 -0.12780099 -0.05078181 -0.10617055
 -0.9215756  -0.5403774  -0.41493535 -0.5139934  -0.19518718 -0.03870068
 -0.73506796 -0.24365605  0.16823457  0.9181155   0.03324077  0.6468068
 -0.34551477 -0.33796442]
[-0.02172402  0.05860706  0.35070792  0.07234866  0.14169443  0.08398081
 -1.0447725  -0.4192644  -0.48945057 -0.49360484 -0.5622934   0.29873857
 -1.0122737   0.3699983  -0.3863249   0.6570452   0.04567101  0.4604399
  0.10764977 -0.59943163]
[-0.07080823  0.25663584  0.11099712  0.26861554  0.5024117   0.3544623
 -0.01282017 -0.23317207  0.30693305 -0.37167627 -0.3977608  -0.02838631
  0.09762019  0.20286526 -0.10082926  0.10809697 -0.03415245  0.4218243
 -0.1720885   0.20568335]
[ 0.33446398  0.05783556 -0.02729039 -0.17720518  0.20113848  0.16520259
 -0.18942672  0.00276614  0.26027003  0.08998442  0.0795398  -0.17864968
  0.01754023  0.18872099 -0.01291665  0.25146705  0.09197053  0.32474262
  0.17510253 -0.18016046]
[-0.14852896 -0.06218777 -0.5553186   0.28504428  0.39237294 -0.10341195
  0.57491577  0.9074221   0.5503642   0.38783294  0.27998766 -0.29206368
  0.9606458   0.33748278  0.4788797  -0.37695152 -0.07437044 -0.39292967
  0.30053627  0.8640425 ]
[ 0.06283585  0.48259634 -0.15623668  0.14178668 -0.33984622  0.31195575
  0.69907624  0.5955107   0.23443997  0.31291348  0.12844707  0.2510892
  0.7076109  -0.18729798  0.12429218 -0.80902046 -0.02324054 -0.13148157
  0.22509822  0.19893938]
[ 0.11946057  0.30840704 -0.1143075  -0.370017   -0.49287423 -0.31529897
 -0.09196139 -0.22251794 -0.36865458 -0.19292647  0.12851222  0.24082805
 -0.20527431 -0.1779815  -0.49890342  0.19977918  0.01789013  0.06434161
 -0.44169575 -0.41406956]
[ 0.5214467  -0.19249116 -0.33752593  0.3818679   0.11058337  0.26145354
  0.05303934  0.08594775  0.24418063 -0.18343753  0.63648367  0.19873638
 -0.22550273 -0.32072476  0.08533525  0.5379219   0.05575939 -0.02581012
 -0.20004372  0.28398365]
[ 0.23750138  0.23570895 -0.01959359 -0.10257553 -0.08927786 -0.14043988
 -0.3782293  -0.4382167   0.27498296 -0.24095432  0.7237234  -0.07543881
  0.52540344  0.39283502 -0.04595061 -0.66650385  0.09789168 -0.53022325
 -0.11003669  0.00947949]
[ 1.1703533  -0.29299343 -1.1635967  -0.14313114 -0.13583589  0.03716572
 -0.8014977   0.06225993 -0.24186195  0.53200424 -0.05465138  0.9832052
  0.09832235  0.26881772 -0.02000962  0.25389808 -0.50140625 -0.256843
  0.5939684   0.72811717]
[ 0.4567296  -0.02338661 -0.4808788   0.4832351  -0.31285465  0.5214489
 -0.09057638 -0.2175461   1.0493488   0.02496578  0.93110937 -0.5693963
 -0.06658263  0.43842345 -0.34763336  0.49454486 -0.46303645 -0.37344053
  0.13933852 -0.43119732]
[ 0.28226787 -0.02353272  0.04966451 -0.80964774 -0.48344582  0.35515636
  0.3146      0.37006557  0.34042564  0.57209414 -1.1056999  -0.22917244
  1.1541818   0.23276259 -0.96374744 -0.4230052   0.05848094  0.14155711
 -0.5724163   0.04259296]
[-0.54219997  0.19145145  0.19464236  0.23599252 -0.1595395   0.16454421
  0.53901845 -0.14548577 -0.18288073 -0.14570846 -0.20857376  0.132362
 -0.18422796  0.31556055  0.02204533 -0.20995426  0.25712392 -0.12698239
  0.3855461   0.32459208]
[-0.51246    -0.32449812  0.4191709  -0.2592322  -0.00700692 -0.1723517
 -0.1804877   0.05686587  0.1201649  -0.20924243  0.30497885 -0.13935034
 -0.21502134  0.12930934  0.25656268  0.01814623 -0.0218929   0.40073836
  0.13475706  0.27744588]
[-0.89171946  0.06467802 -0.0967367   0.2155212  -0.18243304  0.15277633
 -0.7370605  -0.46717447 -0.43608046 -0.39161366  1.0890031   0.2619957
 -0.6836873  -0.14969344  0.36917767  0.51705015 -0.00306233 -0.57604927
  0.46683505 -0.46788478]
[ 0.28641725  0.17080607  0.07338454  0.63999665  0.04879007 -0.19049013
 -0.03605141 -0.7586679  -0.5912444  -0.19005843  0.25893226  0.20086946
 -0.82546514  0.19563869  0.49647072  0.437961    0.07538393 -0.32353544
 -0.05643847 -0.1812907 ]
[-0.03598385 -0.20641607  0.2317283  -0.19598453 -0.05083835  0.3635967
 -0.11561494  0.30315298 -0.17700855 -0.09223564 -0.8712546  -0.01990373
 -0.83320385 -1.0115027  -0.7986695   0.58991003  0.12564437  0.8352948
 -0.1854036   0.46310574]
[-0.34851614  0.95434797  0.7357019  -0.41826692 -0.33673787 -0.3097002
  1.1862503  -0.30766496  0.4013559  -0.57135195  0.7911504  -0.92884624
 -0.06790379  0.14676675 -0.6679472  -0.12926555  0.36801878  0.06211263
 -1.1856188  -0.71576166]
[ 0.4655939   0.15441395 -0.42038953 -0.78931713 -0.45006523 -0.00312219
  0.24125491  1.0591409  -0.62286216  0.11958118 -0.39379632 -0.43043637
 -0.07511149 -0.65797615 -0.25036612 -1.590482   -0.35412547  0.38747835
 -0.11827399  0.49895525]
[-0.15067303 -0.06743176  0.24117461  0.21520789  0.14824772  0.01069728
 -0.04727269 -0.00449272  0.13480185 -0.16231364 -0.02344527 -0.04971825
  0.01478916  0.09112167  0.16295841 -0.07478912  0.10463071  0.13588265
  0.10167508  0.02518457]
layer 1 Activation
tanh
layer 2 Dense
20 40
[-3.0933950e-02 -4.2154768e-01  7.1113847e-02  2.2266261e-01
  1.6557487e-02  1.9000426e-01 -5.9755319e-03  3.0322570e-01
  1.2467446e-01 -9.9536344e-02 -1.6021171e-01  6.9043860e-02
  3.0619007e-01  4.4090778e-01 -4.6865144e-01  1.4194598e-02
 -1.1377826e-01 -3.1153408e-01  1.2704806e-02 -1.7363882e-01
 -1.6676016e-01  1.4647612e-01  2.3905894e-01  5.1961720e-01
  1.9748889e-01  3.8577717e-02  3.5463803e-04 -1.4439175e-01
  2.0238450e-01 -3.2362950e-01  6.5108009e-02 -2.6199099e-01
  1.1817245e-01 -1.4060590e-01 -2.1868616e-01 -1.7947577e-01
 -1.9629584e-01 -3.6410417e-02 -2.8868474e-02 -2.2054927e-02]
[-0.3628476   0.20792331  0.08020734 -0.31347218  0.23757063 -0.07128029
 -0.16807723 -0.06186247  0.2758637   0.25905707  0.25318295  0.00272326
 -0.03020014 -0.05230952 -0.15741837 -0.06564471  0.00672979  0.26987126
 -0.01687668 -0.28319392  0.37400895 -0.05992194 -0.20671633  0.38246056
 -0.28695676  0.13105898  0.03822078  0.21534379  0.11223456 -0.03649284
  0.23444621 -0.32683071  0.00303677  0.03892948  0.07326841  0.17624356
  0.38463086 -0.20178077 -0.19562753 -0.31310365]
[-0.22549395  0.06730664 -0.04923379  0.14768529 -0.09462248 -0.12902829
 -0.17409974 -0.09490722 -0.12032504  0.06582487  0.06602415 -0.10383746
 -0.7068572  -0.12219279  0.02884638 -0.20601787  0.56471705  0.15797848
 -0.27388766 -0.2220109   0.22603141  0.6655611  -0.265788    0.09385611
 -0.20792529 -0.25825223  0.06503515  0.27695537  0.01897693  0.06031613
  0.14458764 -0.20824385  0.1523163  -0.0010404   0.19833578 -0.08901466
  0.33261254 -0.24367642  0.15784162 -0.15613617]
[-0.17803997  0.18657212 -0.26560178 -0.0740918  -0.05789366  0.14568062
 -0.01007567 -0.00550519 -0.17455687 -0.07031226  0.14723186 -0.2489106
 -0.2329218  -0.00205198  0.6031074   0.33519047  0.00904987  0.08477332
 -0.1224546  -0.06359439  0.01541873  0.03932577  0.0719234  -0.57723826
  0.08742269  0.13560028  0.01698337  0.08018504 -0.61971164  0.45897517
  0.31800708  0.3535532  -0.01034826  0.51575494 -0.3773131  -0.37126815
 -0.1790686   0.2603418  -0.33199045  0.2801142 ]
[-0.05622979 -0.00871468 -0.03101979  0.22559568 -0.28144225  0.03915513
 -0.08067232  0.07471852 -0.05644951 -0.02030973  0.08438334  0.0368591
 -0.24287514  0.4486709   0.27235702 -0.02381621  0.26443946  0.06018317
  0.27382758  0.091387    0.10227571  0.05757708  0.13735676 -0.16468725
  0.02085865  0.20857145 -0.03910599 -0.14854975 -0.12133436 -0.05171351
 -0.21664289  0.37244424 -0.01520124  0.6291255  -0.39641312 -0.13749592
  0.09002143 -0.01156956  0.02321467  0.117924  ]
[ 0.20883287 -0.19401696 -0.00780821 -0.2719559   0.16522932 -0.05446368
  0.12424897  0.04596864 -0.28439468 -0.09748982 -0.28513795 -0.10017974
  0.12301379  0.06374287  0.2807389   0.06591609 -0.27861828 -0.18693565
  0.09178999  0.17339106  0.02951148 -0.1715589  -0.10954296  0.06153688
 -0.13719957 -0.22523558  0.2836585   0.01766563  0.0832277  -0.16711211
  0.06825057 -0.13969712  0.05230024 -0.05143801 -0.24831651  0.3200766
  0.31234154  0.07446425  0.07170279  0.19079635]
[ 1.29405502e-02  3.15216601e-01  1.02528423e-01  5.91558255e-02
  1.11715354e-01  6.83119074e-02 -3.24616730e-01 -1.00770988e-01
  4.24014717e-01  1.51059061e-01  2.60352910e-01  3.23544621e-01
  5.82248643e-02  7.40564167e-02 -1.38969511e-01 -4.87354323e-02
  3.67282629e-01  2.71083992e-02 -1.59997135e-01  2.25720674e-01
 -7.34141767e-02  8.15439671e-02 -2.08305135e-01  5.08403718e-01
 -3.47364403e-04 -3.99121583e-01 -9.78149176e-02  4.20813560e-01
  1.57979324e-01  3.18293899e-01  1.07398421e-01 -2.37444434e-02
 -1.35736363e-02 -2.52404720e-01  2.92811304e-01  1.31540433e-01
  2.14522347e-01 -3.56838167e-01  6.15555465e-01 -8.59356821e-02]
[ 8.90023932e-02  3.02011464e-02 -8.10485482e-02 -8.23717751e-03
 -2.35395923e-01  2.22609583e-02  2.80971974e-01  3.25586557e-01
 -7.87751153e-02  1.28073636e-02 -1.02206919e-04 -5.76275922e-02
 -1.78363353e-01  1.83039755e-01 -1.26137763e-01  1.11813456e-01
  2.53855556e-01 -1.68165877e-01  1.08121037e-01 -1.05888292e-01
 -3.56837034e-01 -4.42704670e-02  3.52139957e-02  2.27839857e-01
  1.17916979e-01 -3.09323072e-01 -8.63305628e-02  5.10847457e-02
  1.25517875e-01 -2.99075909e-04 -2.37057786e-02  1.08891450e-01
  9.06536058e-02  3.72300223e-02  4.01335070e-03  1.99563757e-01
  5.26998043e-02  1.94175676e-01  2.30793003e-02  8.29629824e-02]
[ 0.04482768 -0.38100663 -0.03279148  0.06451964  0.32449174 -0.1319036
 -0.3941515  -0.08857213  0.14403397  0.07187895 -0.17738202  0.35701576
  0.18370758  0.1541514  -0.17210819 -0.12054519  0.20151617 -0.10421298
 -0.4248459   0.15282391  0.01256046  0.1993509  -0.2755386  -0.05764122
  0.22749352  0.5111544  -0.25183442 -0.21260707  0.08835463  0.02167449
  0.01666151 -0.10831924  0.14365578  0.2185064   0.0092319   0.32795313
  0.22469135 -0.09472396  0.12487584  0.25021368]
[ 0.13622627  0.19713561 -0.08076642 -0.06032948  0.18889077  0.15908998
  0.15929937  0.08117539 -0.33434904 -0.0765627  -0.03022115 -0.1269894
  0.00232065  0.20877777  0.13867575  0.4092206  -0.14854752 -0.2634353
  0.03296104 -0.07929049 -0.10774951 -0.41039017  0.1906626  -0.18678434
 -0.30149534  0.06196595 -0.01311331  0.00203146  0.22426252 -0.17489041
 -0.13035646 -0.16878842  0.28074998 -0.14743675  0.13200054 -0.0429724
 -0.3960454  -0.01316874  0.1429813   0.06015134]
[-0.17440559  0.24447876  0.17381327 -0.2222083   0.6000457  -0.16024508
  0.17234324 -0.45818314 -0.12747574 -0.30646276 -0.05567613 -0.19514276
  0.03501286 -0.7037504   0.2687851   0.27284792  0.18212163  0.4731002
 -0.1523804  -0.01142251  0.45173082  0.5248615  -0.21564078 -0.12372404
 -0.13378638 -0.18891257  0.12165775  0.41115743 -0.09359821  0.20145549
  0.3740836   0.3150214  -0.01213269  0.36765325 -0.04555023 -0.3106803
  0.60167694 -0.04162735 -0.02576094  0.15476614]
[-0.14882006 -0.02472277  0.13375242 -0.20265998  0.2397713  -0.1144077
  0.3896374   0.43532917 -0.05077383  0.25374582  0.22596042 -0.28803658
  0.43477017  0.42273512  0.00679647  0.08539398 -0.31846997 -0.11210452
  0.13177101  0.13196616 -0.14517312 -0.43604523  0.5474355  -0.33763754
  0.07541748 -0.04406795 -0.11398843  0.08218377 -0.02388951 -0.01220954
  0.21342133  0.07812592  0.11515193  0.171527   -0.4639843  -0.06120811
 -0.12689114  0.18944176 -0.30049375  0.17578922]
[ 0.2003773  -0.37787583 -0.12006986 -0.28166425  0.1697772  -0.10470472
 -0.3608512   0.15397757 -0.25763592  0.18463577  0.1422255   0.14951816
  0.11548854  0.09261859 -0.1408564   0.17728725  0.33249646 -0.09547547
 -0.02239217  0.02049748 -0.259946    0.3097426   0.03438103  0.24190201
 -0.14814925  0.9289702   0.02724163 -0.37634018  0.4471268   0.04981758
  0.08102696 -0.26218653 -0.00778998 -0.25821763  0.06942491  0.449342
 -0.4757427   0.06137654 -0.05965241  0.16785164]
[-7.37805292e-02  1.35564119e-01 -2.09697798e-01 -1.86919555e-01
  1.42664328e-01 -9.64765772e-02 -3.34785998e-01  1.05687268e-01
  1.06269687e-01  1.63340136e-01 -2.80688494e-01 -2.74061233e-01
  5.38763255e-02 -2.79248446e-01  9.22241881e-02 -1.26736999e-01
  2.06228256e-01 -2.06805021e-01  1.08079903e-01 -2.62908936e-01
  2.21950874e-01 -5.41049019e-02 -2.20609665e-01  2.15387002e-01
  1.60248727e-01  5.50520778e-01  6.97241724e-03 -6.09534569e-02
 -1.17825344e-04 -2.58420020e-01  1.02686230e-02  2.44290411e-01
 -2.71161377e-01 -1.43641800e-01 -1.75703973e-01 -3.09153527e-01
 -4.77150470e-01  9.83031020e-02 -1.55222505e-01 -3.46841253e-02]
[-0.03246178 -0.0625502  -0.3324249   0.12920196 -0.00358515  0.16183676
  0.27051893  0.20623133 -0.44588676 -0.40571427  0.10846885 -0.30938366
  0.02623607 -0.1173161   0.4576893   0.41880304 -0.11574244 -0.11928029
 -0.18862334  0.06649245  0.04115067  0.13490513  0.01546962 -0.10678406
 -0.15035485  0.20148304 -0.26345947 -0.02363091 -0.3857476   0.06510229
 -0.05625649  0.04366455  0.2898975   0.23713928 -0.49873656 -0.5164151
 -0.4556874   0.25978822  0.14792937  0.26049402]
[ 7.8883237e-04  2.7979773e-02 -4.0637843e-02 -1.5226600e-02
  8.5323215e-02 -8.3799735e-02  2.9323724e-01 -4.5391232e-01
 -7.7888563e-02 -9.0680927e-02 -2.8349863e-02  1.5413442e-01
 -1.3823448e-01 -2.4473049e-01  3.1087019e-02  2.9820123e-01
 -3.6630166e-01  8.7993026e-02 -3.7977645e-01  1.5104137e-03
  3.2767829e-01 -2.2322190e-01  8.3979905e-02 -9.0073293e-01
  4.3816708e-02 -6.1409557e-01  2.6701665e-01 -2.9907393e-01
 -3.4918374e-01  2.3623039e-01  3.1643340e-01  3.2854337e-01
 -3.9394569e-02  1.2527627e-01 -1.0403529e-01 -5.3652883e-01
 -2.6249087e-01 -5.5346131e-02 -3.1246534e-01  3.6153996e-01]
[ 0.14740787 -0.16676164 -0.16463429 -0.10244386  0.03222051  0.07921642
  0.16584113 -0.11800428  0.28528693 -0.06840935  0.09825297 -0.0811373
  0.05849694 -0.10322268  0.25202692  0.24458148  0.14830336 -0.11655974
 -0.06646071  0.1861325   0.3947255   0.04110078 -0.23707914  0.01652308
 -0.16687797 -0.03689152 -0.27847987  0.1628865   0.02269138  0.33523375
 -0.22557689 -0.05808672 -0.03699841 -0.14459576  0.0507477   0.02928429
  0.05780681 -0.15858796  0.1880571  -0.15654698]
[ 0.15032952  0.09464293  0.01619052 -0.15008722 -0.42881566  0.1758681
  0.16276702  0.2023133  -0.1915081   0.16553013 -0.20717402  0.20068981
 -0.00771177  0.38338497  0.04597976 -0.01714313  0.38129118 -0.0873477
 -0.01503434  0.41658613 -0.0434614   0.12771904  0.11674099  0.0796527
 -0.23238784 -0.4802481  -0.03038965  0.26815346  0.18099518 -0.01594434
  0.00955735  0.01059839  0.07970513 -0.01881673  0.17033388 -0.15818399
  0.03695456 -0.08559978  0.10718474  0.32859764]
[-0.01792167 -0.35991403 -0.05536757  0.0664198   0.12070427  0.12177848
  0.38286722  0.27024072 -0.20916219 -0.00921325 -0.16146213  0.06408606
  0.17209013  0.48423448  0.23329206  0.13276595  0.0414358   0.08227406
  0.02051541 -0.12036439  0.20752718 -0.4416094   0.14962934 -0.16024965
  0.2610662   0.11895786  0.04425444 -0.10747518 -0.20033565 -0.27054477
  0.09291095 -0.07419918  0.03036137 -0.17410198  0.07196252 -0.24989837
 -0.13791573  0.08383802 -0.21727699  0.10206425]
[ 0.13159612 -0.11276673  0.04202659  0.07157484 -0.1789791   0.01297582
  0.5154885  -0.14790714 -0.4326526   0.07750673 -0.15938608  0.05344789
  0.06460321  0.33219752  0.07547207 -0.04888721 -0.39587024 -0.33981863
  0.38425586  0.12193034 -0.27627486 -0.45500702  0.05842996  0.32258636
  0.07610299  0.37110585  0.28783268 -0.3200076   0.0767663   0.02152205
  0.29215539 -0.16703233  0.01258802  0.11437011  0.01490561 -0.27826232
 -0.0820437  -0.13646732 -0.40796584 -0.25273222]
[-0.0231893  -0.00586603 -0.14332756 -0.00179816 -0.063492   -0.03228247
 -0.1675592  -0.05610374 -0.12586132 -0.10687427 -0.08858269 -0.10476716
 -0.00666068  0.27881697  0.3119665   0.14571752  0.03980422 -0.02257975
  0.08149051  0.11502516 -0.01303791  0.01731598 -0.17633158 -0.00533886
 -0.03540901  0.18523256  0.02342593  0.06671333 -0.12798716  0.1107185
  0.01147808  0.09943812  0.03690357  0.3641247  -0.10924105 -0.09450599
  0.10905748  0.00072732  0.07390869 -0.06109776]
layer 3 Activation
tanh
layer 4 Dense
40 20
[-0.19854298 -0.13292477 -0.20491402  0.09657216  0.24778992 -0.01885204
  0.06673446 -0.07247785 -0.00472872 -0.06113587 -0.0446768  -0.17867178
 -0.2544455   0.03424634 -0.21069886 -0.02826857  0.05255739  0.30309358
  0.20404358  0.02572804]
[ 0.06107699 -0.18742119 -0.0834885  -0.15671101 -0.21568766 -0.13369314
 -0.13814436  0.40877777 -0.31456694 -0.15853468  0.13327426 -0.32604912
 -0.08190146 -0.15806265  0.19594732  0.27178177  0.30025873  0.00058084
  0.06698861  0.13371758]
[ 0.13794327 -0.11341361  0.1909743   0.15193106 -0.15962328 -0.00702591
  0.03106216  0.12694672 -0.01497362 -0.29289135  0.34593052  0.12779711
  0.1620467   0.04568325  0.08371498  0.10221036  0.04997935 -0.17254302
  0.14002605  0.21431375]
[-0.12730314  0.07217547  0.11046031  0.08524914 -0.10291974  0.2262138
  0.16559279  0.23759581  0.04264411 -0.0550021   0.0016397  -0.03926582
 -0.18500097 -0.01553871 -0.06485166  0.13420148 -0.17607574  0.0621227
 -0.04080977  0.2770852 ]
[ 0.20452942  0.12740482 -0.02392022  0.14228202 -0.02481833  0.23367369
 -0.03223605  0.02090829  0.15725023 -0.2392906   0.2946867   0.2923506
  0.15584135 -0.07179956  0.01192618  0.16322698  0.02105845 -0.1617028
 -0.1283397  -0.25921094]
[-0.10910565 -0.13979022 -0.06313632  0.07523211  0.08133771  0.14101413
  0.16683084 -0.07171755 -0.32695842 -0.12498841  0.04393157 -0.00521647
 -0.25284728  0.01638665  0.00226152  0.11188116 -0.0076755  -0.20021726
 -0.10132906 -0.06632411]
[-0.30892727  0.19886625 -0.22714666  0.22757386 -0.2365305   0.16369183
  0.19711758 -0.01137121 -0.09631663 -0.23336655 -0.13374425  0.08926092
 -0.07769106  0.11991312  0.30198652  0.11791369 -0.06948014  0.11951961
  0.04427496 -0.02698525]
[-0.24947682  0.08878377 -0.2771776   0.13875166 -0.08233786 -0.14040214
  0.4388895  -0.5399188  -0.12687436 -0.10788199  0.4140027   0.0504811
 -0.16882607 -0.01375837  0.17811345 -0.2215495  -0.07686611 -0.12538978
  0.23585144 -0.09565312]
[ 0.27545252 -0.27499402  0.20227572 -0.04717043 -0.22785214  0.04991296
 -0.18179819 -0.07103753  0.07681417 -0.02708476  0.19489424  0.14268057
 -0.28018457  0.2698773  -0.20589186  0.11363222  0.20785822  0.091506
 -0.30502898 -0.1148437 ]
[ 0.07154369 -0.06296945 -0.18348357 -0.19510281  0.1246793  -0.1362369
 -0.10183515 -0.2733903  -0.0558618  -0.03258074  0.07030778 -0.12648548
 -0.12256762  0.04528964  0.11782169  0.00891227  0.010656    0.17286114
 -0.02078985 -0.09742197]
[ 0.14860718 -0.1364726  -0.10142551 -0.00697875 -0.35654756 -0.43684125
 -0.30843133 -0.1651622   0.01115038 -0.17213719  0.09640861  0.17216873
  0.01950169  0.20856306 -0.00426744 -0.15518457  0.251834    0.12856601
  0.22603431  0.04839166]
[-0.15557793  0.09802416 -0.17802018 -0.00539612  0.13364978  0.14267293
 -0.30491054  0.11910678  0.07426398 -0.21697353  0.2633671   0.03784563
 -0.15351044  0.03008438  0.24598256  0.11095092  0.32647926  0.13729979
  0.11536418  0.20921406]
[-0.0757676   0.16514365  0.24917959  0.09218569  0.04331824  0.23406625
 -0.12590033 -0.04435335 -0.08180768  0.18776281  0.19575632 -0.26895428
 -0.19350092  0.12465719  0.17828311  0.23958339 -0.13540849 -0.19737591
 -0.0267861  -0.2781508 ]
[-0.26717636 -0.187795   -0.3500379  -0.15172698  0.22392662  0.34028205
  0.02088229 -0.3569293   0.14846344 -0.21478334 -0.17209183  0.18469656
  0.13607225  0.09913536 -0.01632616  0.26664817  0.1169009   0.02990447
 -0.12974708 -0.1371829 ]
[ 0.13775487  0.09159634 -0.04992022  0.01610742  0.22539328 -0.24410376
 -0.08948747 -0.28087565 -0.0917882  -0.16809979 -0.42274618  0.1938231
 -0.1467277  -0.04288919 -0.04845551  0.00294533 -0.08431836  0.31355295
  0.25310993  0.04106167]
[ 0.04213181  0.01423048 -0.18987727  0.00927601  0.20880133  0.2476039
  0.3366721  -0.08730827  0.08294094  0.21330003 -0.20707014  0.10040038
  0.03818304  0.02110464 -0.0030599   0.05359085 -0.16937183 -0.24825431
 -0.0227962  -0.21601234]
[ 0.31300214  0.03585675  0.2577279  -0.21087691 -0.31397837  0.03836307
  0.04011421  0.35526046 -0.1447406  -0.10481288 -0.15932623 -0.12850271
 -0.12309691  0.14920354 -0.02099411 -0.3998524   0.02353155 -0.08256044
 -0.224237    0.2246772 ]
[ 0.36922866  0.0301403  -0.03306426  0.09262374 -0.3394821  -0.05403106
 -0.19851117  0.333583    0.35128093 -0.11550899 -0.15456258  0.17248096
  0.02061921 -0.1202885  -0.2598568  -0.08598702 -0.14644477 -0.05277965
  0.19477016  0.25432733]
[-0.11345993 -0.14768763 -0.16505452 -0.02268508 -0.20409252  0.07492086
  0.11708874 -0.20393263  0.17068097  0.09037289 -0.01943966 -0.1063853
  0.01517768  0.08577443 -0.15887828  0.03921946  0.05552147  0.0741221
 -0.2735431  -0.11482067]
[-0.24818091  0.20425367  0.13159943 -0.18840644 -0.00894271 -0.2506101
 -0.02166645 -0.01469675 -0.20610121  0.1946457  -0.2393027  -0.07409046
  0.08478956  0.05881813  0.30637398  0.1726988   0.10501198  0.01069535
 -0.22962214  0.23583893]
[ 0.29185838 -0.23245287  0.02321752  0.22031529 -0.21451016 -0.20288861
  0.03067349 -0.1598116   0.17385861  0.02226009 -0.11515328 -0.2643141
 -0.18669584  0.1149973   0.23312014 -0.23187897  0.11577672  0.24544227
 -0.3001068  -0.07331572]
[ 0.24392366 -0.13907623  0.2781017   0.23735045 -0.13391994  0.2250111
 -0.10222647  0.02982892  0.06551062  0.06234137 -0.28306395 -0.11722276
  0.24380599  0.15802969  0.0623244  -0.34596795 -0.0363948  -0.21857807
 -0.07728055  0.22884865]
[-0.28749266 -0.17284682 -0.08018523  0.18081735  0.14564356 -0.04717324
 -0.05013909  0.1038903  -0.00842035  0.09775174  0.217991   -0.05332733
  0.1084711  -0.03879098 -0.02102466  0.01943247  0.0462738  -0.3278498
  0.16942747 -0.17250927]
[-0.3116621   0.25748092  0.15021813 -0.28043932 -0.35591856  0.24627763
 -0.19233721 -0.3198285   0.332923   -0.07517794  0.28319073 -0.12368786
 -0.04092549  0.0818377   0.1164112   0.1299815   0.230777   -0.20676923
  0.09091231  0.00497524]
[ 0.02743746  0.18861546 -0.10131861  0.21338311  0.1995195   0.04159172
  0.15514593 -0.14928658  0.36219576  0.08220949  0.12242666  0.20389687
 -0.06472778  0.19435443 -0.07258155 -0.06478096 -0.10718137  0.08857641
  0.27844167 -0.04341263]
[-0.41219658 -0.14308481  0.29106537 -0.30503407  0.30124116  0.14441855
  0.1415758  -0.51279664  0.02402361  0.09329534 -0.03590323 -0.02091934
 -0.12131182  0.16470902  0.13375127 -0.03210984  0.09180874 -0.1255754
 -0.04057182 -0.16531244]
[-0.01558345 -0.14372857 -0.1931      0.18448457  0.09481363  0.02782072
  0.06797919  0.09504138  0.30950934 -0.05883946  0.0041618  -0.22035089
 -0.21167263  0.22382177 -0.06030815  0.06858738  0.04774722  0.12425991
 -0.18502922  0.13397343]
[-0.14561465 -0.05098361  0.1574399  -0.15755266 -0.3676528  -0.28220478
 -0.27396968  0.38894117  0.02897806 -0.0705424  -0.0364671  -0.00391367
 -0.12329014  0.04366298 -0.28568524 -0.00493177  0.2132907   0.01550882
  0.19138609  0.19372118]
[-0.08745902 -0.06258798 -0.2703561  -0.25999683  0.01565859  0.06254549
 -0.24787442 -0.32419822  0.11782505 -0.09666561  0.5221864   0.17493245
  0.10383132 -0.03320418 -0.353197   -0.06695393  0.1742661   0.09239681
  0.15369557  0.2390187 ]
[-0.07613608  0.28366864  0.12383188 -0.16556795 -0.07008132 -0.10972811
 -0.35500905  0.28944224  0.15137067 -0.15707919 -0.32278603  0.09818847
  0.12130816 -0.02445976  0.00285184 -0.05130007  0.01870112  0.18731874
 -0.11054564 -0.04980136]
[ 0.2848966  -0.07322392 -0.14911497  0.07988977  0.20914821 -0.09462106
  0.02055299  0.02246254  0.06184623  0.00824764 -0.05390813 -0.2080582
  0.10536386  0.13005936  0.08279101 -0.17733091 -0.21286553 -0.3289132
 -0.01846478 -0.32949343]
[ 0.27122113 -0.02411337  0.15603346  0.01978144  0.07090421  0.02147288
  0.1538539   0.32345742  0.18941611  0.11544263 -0.18386455  0.33267638
 -0.04162794 -0.08714899  0.30929807  0.09705192 -0.30202597  0.12118863
  0.30055043  0.02421471]
[ 0.01865354  0.08261909  0.12557834  0.02058323 -0.00600713  0.1291613
  0.17261176 -0.0652692  -0.00462698 -0.01516116 -0.07275472 -0.16231762
 -0.1395706   0.09091773 -0.26536313 -0.06152171 -0.01653962 -0.10094804
 -0.04003054 -0.00718825]
[-0.07160007 -0.13026364 -0.16850169 -0.12983839  0.0346092   0.1747222
 -0.03222801 -0.00622274  0.06280077 -0.13961104 -0.42526075 -0.14225303
 -0.10860644  0.13078806 -0.09439234  0.14919963 -0.07718153  0.01821662
  0.27923438 -0.06304056]
[-0.00835891  0.12564379 -0.18602589 -0.2794528   0.04971693 -0.29520422
 -0.17875658 -0.02910984 -0.06432144  0.23592311  0.2853005   0.24851121
 -0.17807491  0.06702517  0.01964033 -0.28271502  0.2811113  -0.08075961
  0.1258617  -0.17798841]
[-0.01745976 -0.0135586   0.11388316 -0.26537648  0.11979881 -0.26933512
 -0.08266988 -0.09755095  0.02154843  0.09658368  0.28552023  0.01229929
  0.07040764 -0.17903443  0.32956916 -0.0963451   0.1271367   0.166327
 -0.15426682  0.15693192]
[-0.22358704  0.09611885  0.2487774  -0.2513642  -0.09115201 -0.30519554
  0.06705783  0.12623267  0.1605367   0.11640718 -0.20220776 -0.0052889
 -0.19292484 -0.18026488 -0.19482815  0.23673409  0.00979239  0.32469994
  0.25262266 -0.00973192]
[-0.11470149  0.16800882  0.32315597  0.2589741  -0.13080484 -0.14959767
  0.35188007 -0.34008718 -0.01003754  0.00426278 -0.20989293 -0.04317224
  0.11367056 -0.13851476 -0.271804    0.05283137  0.01467497 -0.22765963
 -0.05278976 -0.02335763]
[-0.00988709 -0.104278    0.19014046 -0.3188813  -0.18069337  0.01092134
 -0.19733402  0.30929878  0.00796688  0.23392233  0.13164954 -0.02852319
  0.20394675 -0.09130532  0.16283678  0.11872885  0.12189961  0.10636119
  0.22883175  0.2331876 ]
[ 0.14897725 -0.18578467  0.04958415  0.21058859  0.558158    0.14594266
 -0.2485822   0.09432626 -0.119441   -0.1465512  -0.24349727 -0.12852597
 -0.09783694 -0.09103967 -0.14699692 -0.25321004 -0.279859    0.19132221
 -0.05022232 -0.14307538]
[-0.11057766 -0.01663848  0.06345075 -0.08980426  0.15237063  0.1016449
  0.08485056 -0.11879077 -0.16386956 -0.00829459 -0.12529583  0.04327426
  0.0167418  -0.0562021   0.02114859  0.00293703 -0.05657097  0.06728768
 -0.0101582   0.08780225]
layer 5 Activation
tanh
layer 6 Dense
20 1
[-0.10998543]
[0.00169073]
[0.06619981]
[-0.10810813]
[0.05142648]
[0.0502966]
[0.00075823]
[-0.09201176]
[0.00729249]
[-0.01554891]
[0.11549665]
[-0.01140513]
[0.00121149]
[0.02627046]
[0.00086378]
[-0.07146721]
[0.00818725]
[0.00362248]
[-0.01530276]
[0.07060079]
[0.0389887]
