layers 7
layer 0 Dense
20 20
[-0.29715076  0.21846607  0.17174688 -0.14713675 -0.09595711 -0.1566028
 -0.06605238  0.39478546  0.27247146 -0.16084848 -0.00141717  0.12854518
  0.22167647  0.23264484  0.02383674  0.17505972  0.31974727  0.03633791
 -0.21377581  0.25759414]
[ 0.46139586 -0.09066724 -0.02045488  0.36267853  0.01371788  0.2791743
  0.21309364 -0.07333371  0.28815094  0.42931443 -0.02549013 -0.3021441
  0.5808757   0.2830146   0.0914126  -0.48369572  0.0108749  -0.08551404
 -0.52074003 -0.37089944]
[ 0.44946757  0.11710636 -0.03008992  0.20022957  0.16244003 -0.37575066
  0.5723682  -0.12316193 -0.3986359   0.57061154 -0.4334612   0.41273335
 -0.04125706  0.25776148 -0.3652881  -0.15496546 -0.5545456   0.0105692
  0.05613492 -0.10759702]
[ 0.18028246  0.26159692 -0.4311129  -0.1829376   0.3858307   0.4424865
  0.29205355 -0.3228515   0.06133797 -0.06349626 -0.41142687 -0.00383303
  0.08942454  0.12944846 -0.10614539 -0.3025854   0.24263798 -0.23548241
 -0.09593335  0.16147637]
[ 0.33660564  0.0737736  -0.16761255  0.13999987 -0.33251968 -0.15965667
  0.30090636 -0.3592018   0.36359534 -0.6005312  -0.13030419  0.38480768
 -0.00820472  0.19117829 -0.0514475  -0.11063778  0.08801157  0.10109121
 -0.35373595  0.01319607]
[-0.3627485  -0.07889393 -0.02210478 -0.27876496 -0.2693101  -0.11021069
 -0.18796578  0.03173475  0.2913666   0.23259376  0.29889518 -0.24539675
 -0.3823234  -0.4283152   0.356582   -0.16154514  0.17777368 -0.23211123
  0.25551343 -0.04398445]
[ 0.133484   -0.21183336  0.23510161 -0.21921797 -0.2974705   0.00105909
 -0.03476523  0.16906944 -0.04464976 -0.08202313  0.3291778   0.18719132
 -0.3383615   0.2533219  -0.32110423 -0.13576259  0.37697658  0.52476835
  0.01137127  0.14225802]
[-0.0626903  -0.43291962  0.48477295 -0.4866941  -0.07519744 -0.41839495
  0.14917153  0.28861734 -0.684926   -0.19002213  0.77624774 -0.2470999
 -0.2570073  -0.4837846   0.31084308  0.12610449  0.19028436 -0.26646677
  0.07090221 -0.00612822]
[-0.14326738 -0.2529447  -0.31491366 -0.0415747  -0.23583923 -0.0818017
 -0.3655311  -0.44593287 -0.20524196 -0.23027126  0.16448675 -0.29556128
 -0.3709232  -0.40056914 -0.10249344 -0.31536177 -0.04512949  0.17920433
  0.06563738 -0.08809055]
[ 0.6103367   0.33419362 -0.09443157  0.24026719 -0.24866433 -0.32578543
  0.0920418  -0.06912222  0.02839657 -0.5410394   0.2012742  -0.25864497
 -0.03528989  0.26510468 -0.04854133  0.27008754  0.3956616   0.26391682
  0.04438294  0.08850966]
[-0.65765536 -0.2715364   0.13898379  0.31781396  0.23852055 -0.02186051
 -0.26621947 -0.2623486   0.10432052  0.03615667 -0.03016818 -0.27010468
 -0.6033824  -0.2242953   0.13743931  0.3082706  -0.4809488   0.01707346
 -0.1355303   0.10802168]
[ 0.7946844  -0.08443154  0.12144812  0.6623898  -0.17653605 -0.48476163
  0.29520768  0.18850045  0.4313244   0.05823492 -0.51449496  0.43499407
 -0.35646808 -0.09808154 -0.1940218   0.27715725 -0.21500206 -0.38333184
  0.05520604 -0.49567625]
[-0.03767313 -0.03534653 -0.12221994  0.1722067  -0.16072065 -0.13396218
 -0.02065365  0.05965074 -0.2360704  -0.42784023  0.15960132  0.12993294
 -0.14259699 -0.39433593  0.45285356 -0.07212378  0.27096018  0.5423671
  0.14579526  0.28740963]
[ 0.1698715   0.05735539 -0.01334246  0.14973761  0.15745972 -0.07396587
 -0.0545447  -0.20698278  0.43586192  0.1372901  -0.4793293   0.18134001
  0.47860327 -0.32772732  0.10247754  0.23273323  0.07700443  0.39027542
  0.07836583  0.15130258]
[-0.481534    0.01483294  0.07363697  0.32045108 -0.42460805  0.11399581
  0.01354368  0.11392527  0.09853047  0.45900792  0.19529386  0.03150922
  0.6162741  -0.06311031  0.35247117  0.14436193 -0.1092036   0.3808798
 -0.15249994  0.51077306]
[ 0.5746591   0.2311203  -0.03402437  0.44993308 -0.2537447   0.07739512
  0.14266644  0.3041743   0.69247293  0.3677974  -0.31872773 -0.16329429
  0.26278204  0.09069152  0.32562035 -0.13230665 -0.3339988  -0.69913566
 -0.08190491 -0.5321841 ]
[ 0.6613734   0.29787326  0.73988545  0.28272763  0.36846438  0.10253228
  0.34024414  0.21945718  0.16623269  0.15090813 -0.04788183  0.01804118
  0.60488904 -0.00832919  0.4232731   0.2141317   0.3223644  -0.4773817
  0.02262979  0.12962015]
[-0.5480376   0.10764538  0.3515303  -0.19775178 -0.06942289  0.50792736
 -0.17773326  0.21202444 -0.03036265  0.4380471   0.18227093  0.51426435
  0.06547032 -0.09261834  0.04598903  0.40112862 -0.6600808   0.16959395
  0.15942958 -0.9241932 ]
[ 0.7337121  -0.13822903 -0.14805044 -0.48718232  0.00856054 -0.53516406
  0.2850853   0.39062294  0.06526884 -0.44145963 -0.05818424  0.5819311
  0.14394951 -0.24124949 -0.94024605  0.24676125  0.94840086  0.10619689
 -0.1167723  -0.27622536]
[-0.9822912  -0.23568983  0.5335539  -1.2301812  -0.2904958   0.3877085
 -0.8919825   0.26121172 -0.9756164  -0.3245736   0.54514474 -0.60684174
  0.13561648 -0.10596523  0.14840248  0.6384184   0.9849105   0.9831127
  0.8139088   0.8232342 ]
[-0.07029052  0.15032226 -0.12896582 -0.00773603  0.13362005  0.03264159
  0.07462352 -0.02713233  0.17038569  0.31079978 -0.2479977  -0.13628344
  0.04818512  0.1122051  -0.04606435 -0.07727247 -0.15423688 -0.05404513
 -0.00842311  0.09143144]
layer 1 Activation
tanh
layer 2 Dense
20 40
[-0.49148676 -0.1234555   0.01132973  0.11752039  0.6121501   0.5758794
 -0.01746142 -0.06088892  0.05932847  0.04973903 -0.05744532  0.07583252
  0.03798477 -0.13069007  0.09773289  0.17457627 -0.3935775  -0.51520103
 -0.09879985 -0.33940977 -0.00084929  0.02959272  0.24522673 -0.12724374
  0.42906493  0.03981225  0.11540306 -0.3155617  -0.16206673  0.41074908
 -0.041116    0.1993363  -0.34760103 -0.05211618 -0.1527336   0.05043628
 -0.27967903  0.14724624  0.11708875 -0.09440797]
[-0.08319231 -0.20483403 -0.08933732  0.00081015  0.01143761 -0.11484013
 -0.04944963  0.16469291 -0.44530874 -0.1893533   0.07834824  0.06383788
  0.18513018  0.35161987 -0.00876824  0.14234424 -0.11308976 -0.18827927
  0.07927265  0.06279394 -0.13389333 -0.10990538 -0.0890809   0.16091308
  0.38137734 -0.02273327  0.05705471  0.03679887  0.11653997 -0.26726273
  0.11126375 -0.05544341 -0.01592869  0.14963461  0.24852128 -0.23573333
 -0.30172336  0.36864176  0.23767607 -0.15279974]
[ 0.34582195 -0.02818222  0.24159805  0.11920488 -0.13778688  0.1458831
 -0.0746397  -0.09745543  0.29426733 -0.09280134 -0.15127422 -0.0551635
  0.03816167  0.14133142  0.38358638  0.1834352  -0.19770251 -0.04250483
 -0.07985402  0.05725522  0.04977542  0.21798559  0.31786403 -0.30590564
  0.0939873   0.37336975  0.14598973  0.16429842  0.07161717 -0.10329615
 -0.2464508   0.18639885 -0.18716805  0.03286634 -0.18950634  0.11320698
  0.2177937   0.01833324 -0.2810609   0.24580215]
[-0.30050153 -0.14073879 -0.21253549 -0.08268329  0.55709434  0.09436846
 -0.01930904 -0.42706716  0.12357974  0.19928841  0.2681791   0.17507207
  0.29512793  0.06812043  0.43214914 -0.1868412  -0.25726825 -0.27012593
  0.061072   -0.06918816  0.03076353 -0.2558676   0.04985926  0.00195083
 -0.3911297   0.14975065 -0.3256114  -0.23020366  0.33827507 -0.44881088
 -0.17280191  0.22905757 -0.38348     0.18644254 -0.09380086  0.09328858
  0.05795813  0.298277   -0.2599564   0.07598747]
[-4.81998660e-02 -6.84878081e-02  1.38101965e-01  2.08265856e-01
 -1.99919492e-01  1.53227653e-02 -1.20901026e-01 -1.21157438e-01
 -2.85370588e-01  3.76783237e-02 -8.91734138e-02 -6.06522933e-02
 -4.41225395e-02 -8.95524919e-02 -1.13674574e-01  1.46829173e-01
 -2.85865009e-01  1.70291245e-01 -1.17471203e-01  1.68909624e-01
  1.80506408e-01 -1.65421873e-01 -1.94972441e-01 -2.09721997e-01
  2.03215405e-01 -1.30049646e-01  1.19422682e-01 -4.26427931e-01
  5.23911953e-01 -1.97035328e-01  7.02057077e-05  1.16852418e-01
 -1.73603892e-01 -1.31341279e-01  2.50839770e-01 -3.01939458e-01
 -7.48137757e-02  2.77801882e-03  3.95306140e-01  2.76818901e-01]
[ 0.03458038  0.16284002 -0.19937956  0.10827389 -0.31818712 -0.13278705
  0.01976864  0.09292994 -0.2893176  -0.08046085  0.2172425  -0.22095965
  0.09787493 -0.07542729 -0.09918211  0.09341814  0.13744527 -0.18901621
  0.00897896  0.4473131  -0.00901431  0.00473184 -0.04051256 -0.22457507
 -0.12876314 -0.33820415  0.24189378 -0.37175697  0.18009917  0.12565783
  0.08576769  0.00155171 -0.08780902  0.2575297   0.13893187  0.15312059
 -0.2539313   0.19310252  0.05830386  0.14992388]
[ 0.18093087 -0.16922885 -0.221015   -0.24441133  0.1033337   0.27000266
 -0.08365177  0.16727398  0.17923501 -0.02841011 -0.13752113 -0.15312004
 -0.27702767 -0.22971468 -0.07072866 -0.12737086 -0.11417793 -0.10122702
  0.24144313 -0.10965087  0.10168003 -0.1261422   0.05938326  0.07800457
  0.15081139 -0.21757612 -0.20033953 -0.08028153 -0.29020834  0.04070265
 -0.09383219  0.09728452 -0.2768173  -0.16623195 -0.11735848 -0.15281837
 -0.14889084 -0.05990202  0.07409054  0.10589122]
[-0.05286846  0.03812074  0.17684205  0.07925501  0.00939225  0.1957257
  0.14091082  0.17666365  0.34244126  0.24013601 -0.21615529 -0.21867509
  0.14250863  0.11554177  0.19298458  0.11098941  0.29432508 -0.02619805
  0.3601229   0.00585525 -0.03733814  0.01909877  0.18185163 -0.2663687
  0.2233782   0.35762718 -0.12559462  0.39015588  0.00097546  0.18860063
  0.3336982  -0.35568014 -0.00941522 -0.30941132  0.28248373 -0.20942013
 -0.08758946 -0.09935302 -0.24688476 -0.02872073]
[-0.18072067 -0.19375741  0.05041165 -0.2011301   0.35438624  0.23838039
  0.17145485 -0.03863255 -0.32991156  0.25190386 -0.17087644  0.0543046
 -0.19014275 -0.45385024 -0.24326435  0.05759798  0.04463341 -0.08336281
  0.14631815 -0.05142187  0.23178163 -0.27926677  0.19462535 -0.20573115
  0.13258971 -0.32994097 -0.30936468 -0.38502985  0.21172987 -0.21024536
 -0.01742369 -0.01327155 -0.18130404 -0.2185016   0.20626092 -0.14965996
  0.13034138  0.46435222 -0.28567618 -0.01930812]
[ 0.1793264  -0.00417056 -0.15139824  0.1396711   0.08360145 -0.1513745
 -0.2250174  -0.34505013  0.19141363 -0.06496497  0.13970271 -0.16882779
  0.4091651   0.406787    0.12420654 -0.10360192 -0.33737865  0.01034882
  0.196538   -0.01597793  0.11559742 -0.3527694  -0.3995035  -0.15916727
  0.13883875 -0.06695797 -0.20998667 -0.25460544  0.58058304  0.19074117
  0.26846236  0.12450983 -0.06075951  0.12017551 -0.1871983  -0.26441076
 -0.22793075  0.42785525 -0.15066847  0.00604739]
[ 0.26564723  0.33063307 -0.07460359  0.12774786 -0.3460093  -0.1965695
  0.19901608  0.05008681  0.00339762 -0.27495262  0.2885864  -0.11214656
  0.16760272  0.12184823  0.08290828  0.10884622  0.3496929  -0.18688011
 -0.01498086  0.2699108  -0.35419554  0.05273039  0.15482976  0.14375307
  0.06885561  0.21339992  0.1428344   0.21225758  0.19598036 -0.3012821
 -0.28411645 -0.4576193   0.33458427 -0.11976188 -0.01251442  0.34765044
 -0.2518233  -0.10147813 -0.45051718 -0.04800772]
[ 0.10730343 -0.14593582 -0.02194656  0.10306104 -0.23281294  0.2068745
 -0.01490341  0.11221451 -0.07747965  0.05060089 -0.23822005  0.01167978
 -0.09057885  0.08004022 -0.13947313 -0.02983481  0.09229837  0.15497361
 -0.014734   -0.2966444   0.1033213  -0.05717706 -0.03444849  0.26987702
  0.11871173  0.19344483  0.14696057  0.21365167  0.08397326  0.05468104
 -0.08177078 -0.00038673 -0.19173114  0.09786026 -0.23079123 -0.06112967
 -0.05746322  0.24141942  0.07734439  0.35182163]
[-0.45032763  0.16968197  0.11375109 -0.08076627  0.15798548  0.14692488
 -0.13851623  0.19051853 -0.19774951 -0.2458838   0.2977752  -0.12581901
 -0.21246341 -0.18596323  0.16879909  0.30773476  0.23129076 -0.38625768
 -0.11106807  0.02398054 -0.15540408 -0.2002213   0.22275193 -0.38604888
  0.3445469   0.03287684  0.1268101  -0.27758136 -0.04324322 -0.04100605
 -0.03722369 -0.20820238 -0.37898204 -0.34198123  0.10352628  0.18250334
 -0.04711815  0.18822224  0.23855567  0.19426379]
[-0.29042745 -0.22839111  0.1667692  -0.16356105  0.14205123  0.02349007
 -0.24629907 -0.17074527 -0.16838817  0.13779362 -0.07344985  0.13595995
 -0.13691324  0.04875179  0.1303121   0.2577755  -0.24715102  0.08502614
 -0.00262558 -0.13895552  0.11061576 -0.2237195  -0.30297163 -0.39252537
  0.09485016 -0.18391165 -0.03536395 -0.15202425  0.32042745  0.06268911
  0.17710412  0.23423357  0.1225838  -0.01826622  0.28867993 -0.32412794
  0.25298753  0.05489418  0.04234202  0.10913122]
[-0.1514582  -0.2772636  -0.2875924  -0.04305029 -0.04016128  0.08113571
 -0.33136645 -0.27148223  0.2133256   0.1028536  -0.10007142 -0.04672953
 -0.04066114  0.25298217  0.14856327 -0.10861635  0.2681053  -0.22968104
  0.16100615 -0.12217853  0.10086586 -0.2315337  -0.28774375 -0.28953353
 -0.18264951  0.14664553 -0.33095482  0.31691447  0.31442752  0.2385631
  0.07023304  0.16494554 -0.1525368  -0.30104426 -0.33303675  0.13689665
  0.20603874  0.12748475  0.04757505  0.14370745]
[ 0.03989    -0.1855704   0.47566086 -0.01580086 -0.30463952  0.40086615
  0.1568609   0.42051852 -0.03212261 -0.0725479   0.09417515 -0.18988524
  0.33686873  0.3124579  -0.06756907 -0.04062963 -0.18820591 -0.11494523
  0.1483751   0.02464596  0.00135506 -0.10014985  0.05133644 -0.4439055
  0.3490319   0.04205816 -0.07904494  0.10709137 -0.10841399  0.27139732
  0.00822807 -0.2216028   0.20290737  0.03212762  0.08967606  0.27444738
  0.15461488 -0.24259134 -0.08022995 -0.02951132]
[ 2.1916601e-01  2.4519186e-01  2.3995276e-01 -7.6979911e-03
 -3.7069911e-01 -2.2279637e-02 -3.4114212e-02  3.3810943e-01
  1.7277138e-02  1.5170619e-01  1.6237658e-01  3.2256719e-01
 -3.0983961e-01 -1.3081948e-01 -1.8825588e-01 -2.2159471e-01
  6.5631963e-02 -5.4815784e-02 -4.0564202e-02  8.4751040e-02
 -1.0614534e-01  3.6237586e-01  9.4907641e-02  2.9492563e-01
 -1.9731490e-01 -2.3770601e-01 -6.2402807e-02  1.9230711e-01
 -4.5311180e-01  1.5237054e-04 -1.5388384e-01  1.1387537e-01
  1.4169210e-01 -1.3798973e-01  5.3665861e-03  4.0857013e-02
 -5.5336960e-02 -3.3507738e-01  5.6533697e-03 -1.4577521e-01]
[ 0.23793061  0.21863835 -0.13052897  0.1593218  -0.16874678 -0.01945047
 -0.04320397  0.02669744  0.14081797 -0.03685091  0.03903456 -0.2796957
 -0.14205539 -0.18267919 -0.14307116 -0.11989427  0.35172296 -0.03687554
  0.00913248  0.2335456   0.02414378  0.13106586 -0.13738778  0.03570485
 -0.14448075  0.00203458 -0.0514488  -0.19104037 -0.03934638  0.11392638
 -0.01694601 -0.08746185  0.13170758 -0.02889163 -0.29716578 -0.07809967
 -0.00901273 -0.03145187  0.08483598  0.21344776]
[-0.09800766  0.06835395  0.181052    0.36607268 -0.03320279 -0.00363448
 -0.09375066  0.31002033 -0.10848016 -0.05878398 -0.24144576  0.08016739
  0.24934238  0.12373979 -0.03387327  0.1413403  -0.04975791 -0.12632002
  0.00265846 -0.2366831  -0.20818286  0.1115315  -0.0291596   0.02145988
 -0.01158002  0.293447    0.2561133   0.12452801 -0.18091103 -0.04752332
  0.16341265 -0.23567656  0.26661748  0.02006171 -0.23063233 -0.05446355
  0.31133902  0.19505829  0.09884713 -0.05713917]
[ 0.39634818  0.15773264 -0.46829295  0.28768188 -0.33570698 -0.2856861
 -0.11881801 -0.02033168 -0.05435807 -0.22842486 -0.10733383  0.03648646
 -0.13275307 -0.2639447   0.11676988  0.27943468 -0.04148184 -0.27010804
  0.19087544  0.3840352   0.16902794  0.2258649   0.06503665  0.18588775
  0.01251105  0.12216766 -0.21209092 -0.22797275 -0.45922604  0.09965706
  0.06048452 -0.25738287 -0.15290071  0.1345865  -0.04480067 -0.29473487
  0.2938065  -0.3113723   0.25184155  0.16125111]
[-0.2305626  -0.08184996  0.06712838 -0.08933643 -0.00312992 -0.06670321
 -0.10046447 -0.05087382 -0.09571937  0.02118773  0.0245232   0.05157848
 -0.04035905 -0.12567446 -0.12372874  0.15712614 -0.15439093  0.06683015
 -0.09877364  0.15837678  0.06467724 -0.02329659 -0.09733503  0.07022921
  0.16803215 -0.29832545 -0.00582777 -0.35019934  0.00310923 -0.09304532
  0.10053266  0.25899357 -0.01405234  0.07493785  0.1650177  -0.15485254
 -0.06640924  0.10465433  0.15060276  0.02445383]
layer 3 Activation
tanh
layer 4 Dense
40 20
[-0.25780877  0.49284092  0.37244707  0.06994532  0.06758535  0.10018089
  0.02153787 -0.01158527 -0.13008821 -0.20731853 -0.33240417 -0.0617119
  0.22162428 -0.03000193 -0.31524733  0.12949698  0.12554273 -0.29424208
 -0.06233879 -0.04656975]
[ 0.10920084 -0.09736513  0.11669727  0.10650584  0.37497965  0.18737832
  0.3338995  -0.10479279  0.25076324  0.1650603   0.1482654   0.14439769
  0.24357313 -0.03017354  0.03757475  0.11280741  0.09037526 -0.20913957
 -0.07337861  0.2527785 ]
[ 0.16844505  0.0239321   0.2628442  -0.3312148   0.04152976 -0.1832872
  0.20508642  0.30858627  0.07251278 -0.05200546  0.28139234  0.36913428
  0.19777049  0.03083364 -0.09068584  0.07013496 -0.11828623  0.01339098
  0.31578368  0.17455707]
[ 0.17295276 -0.1522817  -0.08500058 -0.06735513  0.01473026  0.36493888
  0.2396888  -0.20140581 -0.19766602  0.23153938  0.05284204 -0.20987652
  0.04757352  0.18981579 -0.3623457  -0.07939491  0.44334504 -0.37101027
  0.10855844  0.02638514]
[ 0.09366229 -0.08495675 -0.01973505 -0.20796752  0.05865639 -0.4309113
 -0.37663987  0.09295907 -0.3589761  -0.2443633   0.3053283  -0.44114524
  0.32950628  0.16595422  0.17941321 -0.11315643 -0.40056568  0.5152314
  0.01301082 -0.10296355]
[-0.0592364   0.2754871  -0.11821541 -0.24705479 -0.11679693 -0.04841481
 -0.305872    0.18950014 -0.18973073 -0.00263681  0.10605481  0.08932456
  0.02094292  0.1479416  -0.14290123  0.0145112   0.18711127  0.23734769
  0.35161045  0.18258351]
[ 0.2248558   0.25385875  0.04291536  0.14226604  0.22130752  0.21044621
  0.24343993  0.02544932 -0.10385238  0.17298774 -0.18198182  0.21004675
 -0.03596419  0.0788501  -0.20099014 -0.07953243  0.3950454   0.08944836
  0.24043876 -0.02593403]
[-0.00288752 -0.06944301  0.19432944  0.03406115 -0.03400666  0.538317
  0.03292913  0.27098015  0.1517056  -0.02708364 -0.1443959  -0.23901187
 -0.23266321  0.39329085 -0.0495711  -0.04991442  0.0651283  -0.1582836
 -0.17966516  0.01780257]
[-0.20456451  0.18247648 -0.06305183 -0.1672274   0.3946662  -0.25371152
 -0.12257647 -0.14661503  0.00203065  0.22997992 -0.02769624  0.2907704
  0.2720633   0.06335075 -0.34161958  0.36780307  0.26791868 -0.04100215
  0.00171304 -0.1504413 ]
[-0.07598287  0.06906672  0.10261738  0.11276951 -0.3404781  -0.06095453
  0.1188325   0.07228613 -0.1037955   0.03701003  0.15062921  0.2974161
  0.11863997 -0.22830519 -0.11034397 -0.03251252  0.1126895   0.13627057
  0.20801699 -0.16218208]
[-0.29232582  0.31451395  0.0583613  -0.02167969  0.08314408 -0.1701029
 -0.06966127 -0.10129049 -0.00936714 -0.01927584 -0.28239822  0.0373463
  0.05739446 -0.21843658 -0.07556529  0.23013182 -0.3891103  -0.08389594
  0.03279766 -0.07741545]
[-0.04924835  0.02989412 -0.16734128  0.1935081   0.10266732 -0.35495538
  0.15592304  0.06861814 -0.11361814  0.22426972  0.11614101  0.166671
 -0.10213393 -0.03495567  0.18452156 -0.17808975  0.09743986 -0.13396843
  0.2031886  -0.5585766 ]
[ 0.05294093  0.14844854  0.13361342  0.26976734 -0.09000955 -0.2598739
  0.06596605 -0.24469267  0.202325    0.3058745   0.21420269 -0.12504381
 -0.25793052  0.24756244 -0.15922695 -0.05940387  0.25569877  0.12356354
  0.04702153 -0.1775007 ]
[-0.16641712  0.00418767  0.06467237 -0.10720509 -0.09705467  0.20827264
 -0.06688155  0.14036496 -0.18149239  0.0692502  -0.00847003 -0.04582478
  0.02392659  0.430965   -0.47065213  0.27387884  0.15559149  0.24329847
 -0.06095783  0.1516402 ]
[-0.04106113  0.09663372  0.14730674  0.08879371  0.01477566 -0.07344554
 -0.06943726  0.13446255  0.14270829 -0.04745857 -0.25019455 -0.04207227
 -0.06708097  0.07757363 -0.46592113  0.35245347  0.05913033  0.08384396
  0.21960768 -0.01341445]
[-0.02683858 -0.16907364  0.02506388  0.12445322 -0.26370534 -0.2045887
 -0.18300831  0.21793215  0.11228302  0.09974624  0.19338496 -0.22276096
  0.08520418  0.07111673  0.023242    0.11220974 -0.16865194 -0.00933358
 -0.05788563  0.2355258 ]
[-0.24468434 -0.15345581  0.06311221 -0.00655577  0.46858406  0.30325064
  0.05708177 -0.36081654  0.02221399 -0.13608265 -0.28493872 -0.13738833
  0.16464765  0.03613372  0.01828841  0.34052593  0.1723183  -0.28326076
  0.10804079  0.3189461 ]
[-0.1476685   0.06251578  0.00700651  0.17018825  0.07297602 -0.0934011
 -0.19028714  0.3178953   0.16718355  0.19697592 -0.02939269 -0.01699037
  0.29122993 -0.12989566  0.49721733  0.13339104 -0.01541403 -0.13770105
  0.09610413  0.19335105]
[ 0.06691664  0.1911932   0.00360274  0.00061777  0.1247713  -0.04445016
  0.04097106 -0.17867284  0.05259912  0.14757727  0.04517719  0.22472493
 -0.44327632 -0.02999275 -0.3149083   0.09299234  0.06924098  0.07824501
  0.24208285 -0.05380858]
[ 0.06704413 -0.09720456  0.07414808 -0.06583972  0.3653746  -0.14749041
  0.32157907  0.08654635  0.12723592 -0.04290836  0.17964275 -0.11632416
 -0.04619098 -0.12422961  0.20729212  0.06940585 -0.10940805 -0.23642027
 -0.26858243 -0.20841236]
[ 0.29810327 -0.14859338  0.41742212  0.01876738 -0.38340056 -0.53103286
 -0.1432095   0.04638998  0.16947353  0.30830792  0.12382155 -0.05350376
 -0.0742198  -0.18878883  0.2870428  -0.08031847  0.11880827 -0.08214493
  0.07181351 -0.41861472]
[-0.06184873  0.3752408   0.17477946 -0.22946765  0.49362588  0.06651246
  0.24010824  0.19931352 -0.12525791 -0.17586032 -0.26158494  0.0330864
 -0.18020847  0.15769698  0.20017995  0.07502382  0.4309357  -0.16693906
 -0.14710784  0.12514482]
[ 0.05770927  0.2165922   0.04959051 -0.0614746   0.13562015  0.26005545
 -0.06849572  0.2054644  -0.04770891  0.02807353 -0.17789342 -0.02222209
  0.26843926  0.35020477 -0.21095634  0.29344824  0.30888158  0.17519733
  0.21481434 -0.05385109]
[ 0.21429864  0.13585787 -0.19052191 -0.14161088  0.12069963  0.37534982
  0.10501096  0.21389246 -0.21133576 -0.3461372  -0.26230812  0.06493393
  0.07612254 -0.08098673  0.48593688 -0.20685868  0.0816299  -0.08310629
  0.02228211  0.17908545]
[-0.09884363  0.16657032 -0.08486863 -0.04466821  0.04771063 -0.24188799
 -0.15100756  0.42493287  0.11398856 -0.00465951  0.17339    -0.2531824
  0.13202345  0.32513422  0.13955346 -0.03172556 -0.33919182 -0.09960996
  0.00544137  0.11538347]
[ 0.25445107  0.21282025 -0.28938502  0.2243311   0.15812926  0.17344019
  0.18648495 -0.43189886  0.11768568 -0.08382403 -0.17861876  0.12428113
  0.04921557  0.41514915 -0.29145953  0.2388173   0.35366052 -0.12989935
  0.21212788  0.24203227]
[ 0.25077596 -0.16577241  0.18207839 -0.13328202  0.09377179  0.1298472
 -0.00875137  0.2045901   0.13872394 -0.06981431 -0.08460791  0.14749242
  0.24408865  0.05679541 -0.12684272  0.08718458 -0.10712121  0.16035874
 -0.18048917  0.39856997]
[ 0.18202917  0.14516367 -0.27624166 -0.3444848   0.22438672  0.07924991
 -0.2017745  -0.3109293  -0.10860552  0.07557452 -0.23472954  0.16356045
 -0.14832188  0.20735231 -0.3209698   0.41361913  0.49614942 -0.0646027
 -0.10696547  0.37563902]
[-0.05332568  0.07897334  0.23861113 -0.34408805  0.07317771 -0.51017094
 -0.5611485  -0.3904251   0.13748272  0.06297159  0.09553203 -0.20838529
 -0.17887987  0.0582649  -0.15248974 -0.2902527  -0.00135476  0.16176514
 -0.1326923  -0.2978477 ]
[-0.21510477  0.07073995 -0.00193609  0.10349145  0.07041299 -0.18649994
  0.10658626 -0.1750096   0.19952548  0.26514453  0.11724883  0.08285632
  0.14133637  0.03087371 -0.20593669 -0.06966221  0.06551161 -0.0193342
 -0.03817604  0.12373882]
[-0.15180454 -0.33504426  0.02494961  0.11403998 -0.084916   -0.10372857
  0.03233873 -0.2503696   0.01847518  0.1522085   0.23881786 -0.26392928
 -0.02962271 -0.1029643  -0.07867866 -0.2752973   0.17942476 -0.14810053
  0.04461207  0.03785099]
[ 0.09625836  0.01059119  0.16342598  0.21452132 -0.51194793 -0.21639152
 -0.0135865  -0.05066598  0.002363   -0.07633524  0.28357074 -0.02913697
  0.16305844 -0.20695066  0.31799465 -0.2540219  -0.12507261  0.17620562
  0.12095895  0.04379932]
[-0.25453004 -0.42710567  0.219308   -0.05711043  0.35819396  0.4955958
  0.21838965  0.2352034  -0.18987758  0.09189548 -0.34074056  0.32628435
 -0.18778075 -0.1222589  -0.03113406  0.04850048  0.27713925 -0.10088651
 -0.10883545  0.30466565]
[-0.04988569 -0.12246298 -0.00429845  0.20113204 -0.13674429  0.01691235
  0.11230179  0.39302987  0.10053973 -0.0706038   0.0067742  -0.20875521
 -0.10810665 -0.00529778  0.5827261   0.15582065  0.05440861  0.04306274
 -0.16239545 -0.07840971]
[ 0.02614065 -0.06128565 -0.32085955 -0.21446858 -0.5148933   0.0651166
  0.15795435  0.2659994   0.06763733 -0.10593547  0.01996405 -0.22326137
  0.26699838 -0.00870733  0.06641731 -0.08578113 -0.20156007  0.07397506
  0.01956821  0.22295111]
[-0.10646398 -0.07840025  0.14613831  0.00935662  0.02551988  0.280002
  0.25975394 -0.40795133  0.11909564 -0.0880388  -0.34751105  0.00923394
  0.09004087  0.31179672 -0.21057579 -0.00750144  0.5653674   0.05787914
 -0.12033674 -0.18871121]
[ 0.12471917  0.31391084  0.09531686 -0.25394773  0.12653093 -0.06271696
  0.13994229 -0.29559872  0.15335307  0.06227673  0.12884623  0.1887217
 -0.1663942   0.05859566 -0.21369304  0.22970302  0.23814999 -0.217202
 -0.22758579 -0.2800441 ]
[-0.062304   -0.30638587  0.15545106 -0.00923248 -0.03579893 -0.15540443
 -0.33471686  0.06439038 -0.09211187  0.06203181  0.43035722 -0.13963641
 -0.0980876  -0.13737595 -0.19884455 -0.14439309  0.03326635  0.49487928
  0.09827483 -0.05976423]
[-0.27087182 -0.1453703   0.08915632  0.23549263 -0.18281531  0.04609413
 -0.06793474  0.2431337  -0.1421303  -0.27830037  0.11174117  0.05471398
  0.08774675 -0.07218927 -0.0397579   0.02759169 -0.40607995  0.13328506
 -0.22351235  0.27188057]
[ 1.5863833e-01  9.8712847e-02  4.5306291e-02  3.0306596e-02
 -2.4205597e-01  4.1861582e-01 -5.3024805e-01 -1.5906643e-02
 -8.8493675e-02 -1.4801677e-01 -1.4634103e-04  1.5168541e-02
  1.4205223e-01  2.0485826e-01 -1.3443086e-01  3.5821989e-01
 -7.8313157e-02 -7.5966534e-03  1.1621723e-02  8.7838978e-02]
[ 0.01039118  0.01069412  0.04267457 -0.01836234 -0.06985959 -0.06408558
 -0.04665717  0.2113748   0.05139926  0.05291172 -0.01129896 -0.0202668
 -0.03467526 -0.19835745  0.12146343 -0.17039266 -0.06361087 -0.07115299
  0.03718944  0.05741016]
layer 5 Activation
tanh
layer 6 Dense
20 1
[-0.00137962]
[0.01880028]
[-0.00590466]
[0.02440042]
[0.0188857]
[0.03541686]
[-0.03083736]
[0.02200568]
[0.01764991]
[0.01046726]
[-0.12148061]
[0.04846288]
[-0.00332567]
[-0.27986187]
[0.00206803]
[-0.03495591]
[0.14223027]
[-0.1441865]
[-0.01959736]
[0.04634097]
[0.11978956]
