layers 7
layer 0 Dense
20 20
[ 0.28724033  2.5613759  -0.18495545 -0.5097862   0.5932397   0.539021
  0.25458193  0.40680724  0.5845113  -2.3875735   1.6016105   0.3647221
  0.22266065  0.48362678 -0.8521471  -0.45544928  0.46605796  0.40734065
  0.04766944  2.4029174 ]
[ 0.71094745 -0.07239851 -0.7446437   0.11964063 -0.33185974  0.12577404
 -0.7195112   0.33960345  0.5600492  -0.02681244 -0.03932243  0.6580111
  0.6008566  -0.94047254 -0.2172098   0.21097478 -0.40637788  0.7511436
  0.31551978 -0.27814433]
[ 1.2819605   0.19310014 -0.4477413   0.33012235 -0.18748312 -0.05184872
 -0.51177067  0.5119673  -0.08330647  0.19462948  0.18903682  0.61901766
  0.04307536 -1.1070251  -0.76875657  0.7552046  -0.13772456  1.0162078
  0.10775979 -0.5147984 ]
[ 0.19068974  1.0408574   0.03459286 -0.30142415  1.078667   -0.03195094
  0.19468383  0.1353199   0.24494898 -1.5918921   0.95695144  1.006746
  0.08251669  0.1084054  -0.2235297  -0.2105474   1.1575615   0.88226956
  0.90044     1.3588784 ]
[-1.305458    1.9362557  -1.0392424   1.0808784   0.40038928 -0.66867024
  3.3015063   0.813569   -0.09119576 -0.7106406   0.9317536  -0.14572722
 -0.38645303  1.9279764   1.4190916   0.3247149  -0.4026866   0.4425649
 -1.5035002   2.1406562 ]
[-0.41692972 -0.38826147 -0.38840547 -0.02312657  0.38079908 -0.7957727
  0.15866867  0.20340928 -0.9916626   0.08454368 -0.55256814 -0.64531565
 -0.4413305   0.53148246 -0.16666792  0.06775659  1.2195133   0.06540224
  2.0859797  -0.4424681 ]
[-5.8217126e-01 -4.0888357e-01  5.0053876e-02 -5.1459444e-01
  2.3577239e-01 -9.0679824e-01  7.0090473e-01 -2.6590002e-03
 -1.0258455e+00 -3.6924861e-02 -5.0721943e-01 -2.2891323e-01
 -5.8221626e-01  1.0034151e+00  1.7571496e-03  3.5133243e-02
  1.7270837e+00  8.3209521e-01  2.3469450e+00 -6.2242365e-01]
[ 0.07295178 -0.2913215   1.3311496   0.03205814 -1.5771654   1.7511232
 -0.24938402 -0.83921325  0.5720601   0.39891154 -0.36206853 -1.2190036
  0.08533149  0.03877812 -0.2775848  -0.6483632  -1.2352971  -1.8477193
 -0.7280262  -0.5116786 ]
[-0.36157587  2.5335302   0.5384841  -0.62725925 -0.5055523   1.430272
 -0.21118975  1.7218491   0.75562817 -1.1141356   1.1935102  -0.20999484
  0.48773763  2.2830963   0.4279022  -2.2187655   0.71579754 -0.59655076
 -0.48860693  1.0723716 ]
[ 0.23745975  0.07707136 -0.7331719   1.2370989   0.3595859  -1.592633
 -0.8339336  -1.3909204  -0.64574945 -0.21634917  0.04425754 -0.27027386
  0.1423755  -0.7543615   0.43207005  1.432738   -0.04884249  1.4960153
  0.87020403  0.14686818]
[ 0.3039942  -0.55908525 -1.3588681   0.4057183  -0.59067327 -1.0207125
  0.54217994 -1.5715185  -0.97377497 -0.7555201  -0.40642062  0.10098273
 -1.4039112  -1.3281431  -1.1680591   0.60922813 -0.13862422 -1.0589942
  1.836813    0.40350932]
[ 0.6189994   1.178143    2.767267   -1.9666111  -1.1340916   2.1291602
 -2.4225895   0.6524333  -0.7209538   0.84303284 -0.7380525  -0.43980142
 -1.2736214   2.4269192   2.1771734  -3.0938597  -0.3056815  -1.0407146
 -2.188164   -2.2674277 ]
[ 0.12366416  1.9830916  -0.45008478  0.84799194  0.7532763   0.5409913
  1.2366973   0.37841943  1.3993169  -1.6911498   1.7430899  -0.31981996
 -0.9105246   0.6905496  -0.38317573  0.23496047 -0.09751686  0.1412733
 -0.7568057   0.60652816]
[ 3.7831492  -0.9680825   0.9972109  -3.1785731   0.01627692  0.37868276
 -0.37802276  0.58936656 -0.82283276  1.5841968   0.9285498  -0.09541449
  1.6411301  -1.1605797   2.533221   -0.06903434 -0.2533575  -0.21241243
 -1.8606266  -0.28294387]
[-0.6382949   0.33308867  0.35912192  0.4806742   0.06100912 -0.2656571
 -0.88655645  1.6451011  -0.25158414 -0.8142441  -0.19427441 -0.14133348
  3.3886933   1.2713363   0.8080147   0.9057987   0.05760361  1.0861439
 -0.83095413 -0.56174636]
[ 0.74842876  2.0049553   1.1981696  -0.50205415 -0.61126053  0.704384
  0.8677052  -1.3825587   0.9217093  -0.5974026  -0.22426215 -0.4664768
 -4.0051126   0.8883947   0.23976636  0.0649763  -0.01140068  1.4588017
 -0.3250274   0.48554656]
[-2.6382387   1.0985782  -0.3827321  -0.501879   -0.46492517  0.79600555
  2.125284    0.5405399  -1.3107218  -0.5090675   2.1364517   0.5259757
 -0.33806223  1.0276935   0.41305918  0.07783429 -0.5604124  -0.09559641
 -1.5805517   1.8913445 ]
[-2.3612864   0.24353145  1.04806     1.1326362  -0.3826384   0.19323985
  1.0825189   1.5442837   1.1217244  -0.7049826  -0.28440815  0.22769715
 -1.7076973   1.787356   -2.3118498  -1.1615441   0.5238801  -0.6526506
 -0.54033446 -0.4766546 ]
[ 0.5318242  -0.03298079  1.9644331  -1.0949401   0.345619    1.3590866
  1.4952328  -0.27133858  1.609598    1.2519982   1.633951   -0.14281188
 -0.7702763  -0.20685737  1.5558218  -1.6566852  -0.1146921   0.6329249
  0.13909455  0.7871214 ]
[-0.4205745  -0.3864512  -0.32219946 -0.33141804 -0.87336934  1.8758503
  0.062279   -0.96328026  1.0923953  -1.0914732   1.4128882  -0.8742185
  1.313585   -0.34627938 -0.874157   -0.46080837 -0.60873306 -2.1970077
 -0.08254004  1.3386078 ]
[ 0.7895115  -0.08141024 -0.45353004 -0.07411496  1.1511626  -1.5161943
 -0.17486359  0.324061   -0.33352214 -0.25834262 -0.2679404   1.1788169
  0.21698578 -0.6606816  -0.2984913   0.42523614  1.1799393   1.049045
  1.1625386  -0.01977676]
layer 1 Activation
tanh
layer 2 Dense
20 40
[ 2.2422526   2.1414664   1.6646672  -0.6213992   1.5165937  -0.06478918
 -0.7010162   0.1267131  -0.5892946   0.3292007   0.80175966  0.40140513
 -0.2040342  -0.7731948  -1.6813934  -1.2361647   2.2878697   0.37881103
  1.2889373  -0.2861038  -0.29152417  0.9536803   0.85287094 -1.315867
  1.4233637  -0.03174794 -0.6366087   1.3279228  -1.652105   -1.3076158
 -0.821363   -0.570655    0.61154246 -1.4555521  -0.2329867  -0.40547636
  0.0121417  -2.4207242   0.04427662  2.9346614 ]
[ 0.51297396 -0.33954462  0.12767512  0.10416124  0.06918791 -1.0890261
 -0.15745169 -0.00377598  1.6868496  -0.2037833   0.06185263 -0.91830564
  0.49734956  0.8304478  -0.71512246 -0.30471647 -1.2144427  -0.54650414
 -0.7920399  -0.51877654  0.27123725 -0.09645419 -1.2254648  -0.05204527
  0.6404987   0.06205079  2.1037323  -0.9289972   1.7528752   0.7867071
  0.5911516   1.2440046   1.7811285  -0.22313227  0.04568616 -1.3548846
  0.24507831  1.957257    0.90290284 -1.3100269 ]
[ 1.0695809   0.610117    1.8246167   0.07239468 -0.04686867 -1.2810802
  1.5437558  -0.2451071   0.5852074   0.6834151  -1.9656516  -1.5489434
 -0.01849851  1.6594269   0.14971703 -0.06168791  0.7370223  -0.9016567
 -0.47356403 -1.2510998  -1.6978054  -0.16758089  1.6147527   0.9078391
  0.20434254 -0.376317    0.82129705 -0.6456576   0.11757175  0.00224983
  0.32107747 -0.95670164  0.188719   -0.73520863 -0.63221276  0.85275245
 -0.13901566  0.14993304 -0.5873916   1.0761238 ]
[-0.98956263 -0.2606893   0.6562328   0.27362207 -1.3989304   1.4231852
 -0.60023886 -0.63892585 -1.0606213   0.22119053  1.4907123   0.5359833
 -0.9705372  -0.5360946  -0.6399659   0.00750686  0.5660319   0.57309324
 -1.7917124   0.22459035  0.2385012   0.93668914 -1.2347406  -0.14680116
  0.5457808  -0.02077827  0.30500242 -1.0269818  -0.3322     -1.4689361
  0.53063375  0.520987   -1.8425442   1.6066115   0.07108504  0.08244153
 -0.22133574  1.2223226  -2.263581   -0.8710012 ]
[-0.5363901   0.3336159   0.23371986  0.44555306  0.09871578  0.38522726
 -0.14646488  1.0136509   0.01105667  1.3417189   0.25499162  0.6383684
 -0.5579368  -0.64858747 -0.7689603  -0.71328366  0.27806178  0.43752566
 -0.6210368   1.0331504   0.55035454  0.58090246  0.39802825 -1.2207048
  0.95808494  0.6164055  -0.50657976 -0.55583245  0.4721501   0.10825488
  0.447655   -0.5111917  -0.56279194  0.28409111  0.8251578  -0.641518
  1.0817835  -0.6042452   0.44596267  0.3002474 ]
[ 1.2629641   0.5605808   0.6680343  -0.3028439  -0.32853922 -1.2932634
  0.6719904  -0.13211687  1.7186818  -1.258632   -1.7651827   0.17504567
  1.0306422   1.7743436   0.04241875  1.1173012  -1.2810396  -1.3795602
  0.49993274 -2.4718907  -1.5697148  -0.56856877 -0.14754392  1.2554563
 -0.23291928 -0.18118773  1.0151389   0.11871565  1.8026916   0.5057275
  0.7755403   0.56896704  0.89701575 -0.78374237 -0.358316   -0.19558187
 -0.4240602  -0.17490399  0.66747904 -0.14735872]
[-0.5510167   1.7943517   1.3277041   0.01449478 -0.52848256 -1.0022435
  0.16929427 -0.16147444 -1.3390616   0.30000907  0.82628125  0.32723278
  1.041823    0.7570737   0.14779668 -0.41444582 -0.1877943   0.2978302
 -0.9416044  -0.11770175 -0.29449478 -1.0091534  -1.4540828  -1.4704531
  0.03172526  0.01613376  1.0319133  -0.67987376 -0.41646168  0.08247305
 -0.90437454 -0.4605947   0.21741948  2.0635974   0.16650791 -0.7173539
 -0.0149153  -0.34322205 -1.0259005   0.12423834]
[ 1.0410742   0.0753783   1.1004156   1.0830375  -0.11789428 -0.97247183
  1.5264791   0.63548434  1.4244144  -0.38439736 -0.69462985 -1.3347896
 -0.9160981   0.173806   -1.5915542  -0.54106545 -1.4453117   0.5056075
 -0.40962148  0.26286998 -0.10026187 -0.12110914  1.1843107  -0.5137309
  1.144745    0.6045746   1.3234781  -0.9321182   1.4955541   0.16234279
  1.3511777   0.3718645  -0.44899952 -0.4870089   0.43663514  0.82894754
  0.5535041   0.55241287  0.33803436 -0.96030194]
[ 0.49338654  1.6544908   0.58556694 -0.2791038  -2.269077   -0.314421
  2.2405372   0.64782554 -0.07586504  0.6671003  -0.9756804  -0.357337
  0.6140109   1.5711074  -0.663777   -0.78317773 -0.40348944 -0.93483835
 -0.9408153  -1.7112265  -1.5321151  -0.56059873 -1.0183712  -1.6876688
  0.73250055  0.17356871  1.4344141  -1.2015313   0.9572806   0.4760751
 -0.84388274 -0.24582134  0.5076522   0.11893214 -0.50855976  0.33248547
  0.05388011  0.23658265 -0.5103591   0.6636049 ]
[-0.74260944 -0.09166648 -1.0413058  -0.810923    1.363098    0.25138873
 -1.2217544  -0.67659974  0.22680962 -0.5333163  -0.3494319  -0.27029976
 -0.02106643 -0.04165529  1.8851147   0.6192978   0.15761505  0.80048966
  0.978396   -0.31143966 -0.7899366  -1.6233586   0.9310052   0.7836044
 -1.7468752  -0.5798414  -1.1608169  -0.21491797 -0.47886798  0.46020612
 -0.611778   -0.21578954 -0.8291633  -0.47658777 -0.3799602   1.3789855
 -0.1785399  -1.3289167   1.9928688  -0.00367514]
[ 0.70649207  1.0310608   0.9913114  -0.24007423 -0.5423289  -0.2160733
 -1.4483459   0.3168033   0.53564906  0.57174075  0.441753    1.3865455
  0.4268666  -0.15516491 -0.01307474 -0.5495332   0.6428718  -0.3832006
 -0.23515895 -0.5024758  -1.2021564  -0.63992286 -0.08804582 -1.043043
  0.03703786  0.07724093  0.19570348 -0.12039786 -0.69312954  0.685951
 -0.9675869  -1.0481154   2.2548413   1.0455872   0.12215057 -1.9736493
  0.0298201  -0.9585796  -0.70405126  0.08436078]
[ 0.15945427  0.57571006 -0.3177551   0.5527063  -0.22726317  0.6231043
 -0.2474955   1.1288228   0.10767279  0.799898   -0.03716134  0.67739135
 -0.5627933  -0.19453372 -0.615564   -0.92553824  0.574287    0.52444935
 -0.49601087  0.44901922  1.024682    0.47050926  0.94560033 -0.91456425
  0.9566478   1.2326477  -0.6438582  -0.01489527 -0.2055963  -0.51794845
  0.16160825 -0.9858715  -0.01984258 -0.13779251  1.3440007  -0.3716993
  1.062971   -0.29953575  0.07557662  0.51591706]
[ 0.26479897  1.047686   -0.21183139  0.09625243 -0.68904334 -0.17771654
 -0.15842451  0.10273387 -1.5902662   0.6236282   0.15315248  0.2877713
  0.2711854  -0.36121127 -0.15896207 -0.14423135  1.1529624   0.5279413
 -0.02962421  0.03842652  0.60274106  0.5291648   0.5244835   0.6164115
 -0.13823484 -0.20344763 -0.13017814  0.38122857 -1.3865479  -0.1079229
  0.30719227 -0.37083617 -1.142723   -0.7489393  -0.60210454 -1.0690175
  0.02886628 -1.7939454  -1.4893426   2.4472878 ]
[-1.1445123   0.5846185   0.25006583  0.01588635 -0.98640996 -2.2918603
  0.36560404 -0.41244227 -0.36884552  0.4807959   0.1599125  -0.70779866
  1.4139926   1.6881729   1.4278436  -0.33481416 -1.5144956  -0.03663371
 -0.82726824 -0.5853838  -0.00810487 -1.2024277  -0.39483514  1.1121894
 -1.3964525   0.1590699   0.9782548  -0.10906379  1.4021201   2.0406902
  0.44884446 -0.8277927   0.2827972   1.8817011   0.41764936 -1.9051077
  0.05660345  0.6426768  -0.91699344 -0.39000916]
[ 0.8460583  -1.7342268   0.5574192   0.24650164  2.2201126   0.67149365
 -0.4524316   0.25992355  1.2937129  -0.5460834  -1.4538292  -0.6067147
 -1.4631746  -1.0268599   0.31394863 -0.27591956  0.61950904  0.22688307
  2.1599412   0.8471401   0.31589508  0.05150582 -0.5090455  -0.9836221
 -0.26725304  0.14852402 -0.18934804  1.1154327  -0.3044282   1.7873223
  0.45919213  1.8642862  -0.321412   -1.6948318   0.04576164  0.65473044
  0.26006567 -0.795819    2.3168705  -0.51994836]
[-0.49683002 -1.690732   -1.0478551   0.5452636  -0.11392137  0.31202868
 -0.9264129  -0.30554625 -1.1894078   0.5675145   1.7182304   0.67949075
  0.95611274 -2.7430046  -0.5355084  -0.46124634  1.0438458   1.1565431
  0.85187805  2.4176917   1.6718885   1.1144826  -0.40575275  0.13967685
  0.22993332  0.37771484 -0.14443517  1.5093486  -1.1468062  -1.2944492
 -0.06488166  1.9808205  -1.0945681   0.14594673  0.05735338 -0.1558492
 -0.03801022  1.0633824  -0.4378486  -0.54813266]
[-0.03731082  0.3393946  -0.25142625  1.0786569  -0.84002346 -0.17290506
  0.18027674  1.0064206  -0.48259306  0.4319801   0.16793804  0.53724945
 -0.46503535 -0.7115508  -0.34406883 -1.0768504   0.48293412  0.4345736
 -0.4236045   0.95555276  1.1635605   0.94013953  0.7794365  -0.6837292
  0.80357784  0.7607128  -1.1576993   0.02713814 -0.9087594  -0.45883542
  0.5126133  -0.9209402  -0.3400124   0.6331739   1.0013651  -0.27020475
  0.82095885 -0.30484816 -0.35075918 -0.0300137 ]
[-0.4925811   0.31873357 -0.09799574  0.6581754  -0.41703194 -0.04496582
 -0.6638887   0.42191553 -0.2579993   1.2078649   0.46775022  1.1665355
 -0.26242965  0.53414774 -1.034117   -0.77365535  0.00860907  0.5356242
  0.06626793  0.32267496 -0.09432612  0.575441   -0.00361603 -0.59897363
  0.49744597  0.19780615 -0.46149075  0.19235405 -0.15132637  0.27703622
  0.21148239 -1.0410333  -0.82989347 -0.08011536  0.2575414  -0.7768149
  0.16846062  0.07839685 -0.37361634  1.5231029 ]
[ 0.22558683 -0.6637996  -1.0516922   0.8914734   0.21887845  0.28110304
  0.30079785  0.6304684  -0.04168254  1.0370405  -0.39174938  0.7754873
  0.77085894 -1.8279395  -1.8825212  -1.4848995   0.16153508  0.00760862
  0.18349256  1.6164868   1.385115    1.8409134  -1.0898646  -0.74843884
  1.3561735   0.29513514  0.65303975 -0.29783174 -0.12869611 -0.8545881
  0.49821955  0.91980666  0.8036859  -0.63934183  0.55647475  0.58637685
  0.3037151   0.2600619  -0.38509467  0.6050506 ]
[ 1.2446097   0.6075062   0.29500997  0.24765131  0.28979373 -0.24655741
 -0.80959713  0.470185    0.70595026  0.38357416  0.7605391   0.35381293
 -0.12677099 -0.35558617 -0.945556   -0.48265973 -0.394074   -0.459716
 -0.26373512  0.37267333  0.28992113  0.35753375 -0.214628   -0.4236614
  0.8223555   0.29788172  0.4896007  -0.6239492   0.3700505  -0.30761737
  0.0597638   0.13769822  0.9848851   0.41829765  0.14524728 -1.1067882
  0.01908659  0.19188873  0.8457979  -0.60727656]
[ 0.00354408  0.8551325  -0.49335992  0.5974988  -0.30249855  0.34879556
 -0.30528966  1.4397275  -0.2785666   0.78600895  0.15083712  0.6215305
 -0.390087   -0.39254323 -0.96062595 -1.232242    0.31287965  0.5167871
 -0.44602987  0.7871015   0.8521205   0.7257567   0.80310696 -0.76237255
  0.8181835   1.2138721  -0.6808592   0.12172619 -0.14988297 -0.38810652
  0.19807851 -1.0297436  -0.20219563  0.21591619  1.222776   -0.4469826
  1.2201804  -0.42033654  0.39000833  0.39612797]
layer 3 Activation
tanh
layer 4 Dense
40 20
[-1.0591002  -0.03264888  1.5054626   0.06420418 -0.57440054 -0.20731433
 -0.6536219  -0.10392386 -0.4862895   0.38881493 -0.24130484 -1.2218149
  0.70177466 -0.5529217  -0.38830644 -0.3283685  -0.24469392  1.1641226
  0.2549794   0.05657517]
[-0.7593359  -0.525747    1.4155476   0.1020027  -0.73484296 -0.2771492
  0.23028044 -1.1089005   1.9810178   1.1811085   0.11456153 -1.4745077
 -0.40636146  0.22182882 -0.01281911 -0.5256135   0.09065562 -0.9018282
 -0.11671926 -1.4824767 ]
[-0.252011    0.08977392 -0.02841117  1.2284927  -0.32917404  0.0425851
 -0.3320046  -1.023032   -0.22045901 -0.32291758  0.7474649  -0.21531124
 -0.25170562 -0.478071   -0.3439522  -1.9524138  -0.08848011  0.1555016
 -0.71693957 -0.56850964]
[-0.10022203  0.4238961  -0.12281229 -0.118936    0.73297864  0.50475395
  0.08727463 -0.01609869  0.1975236   0.68959427 -0.26615107 -0.28416502
  0.006814   -0.42462325  0.7663356  -0.08916564 -0.86657184  0.60228896
  0.13170813 -0.11358857]
[ 0.3171813   0.7185931   0.04458905  0.80529195 -0.62000144  0.5008479
 -0.83592695 -0.27612108 -0.0809371  -0.7183045   0.06881566  0.26498106
  0.8981866  -0.2566016   0.3780929   0.5150394  -0.3303863   0.50735235
 -0.7801121   1.2526819 ]
[ 0.9634794   0.06348855 -0.1405809  -0.11014128  1.430292    0.40330485
 -0.06528965  1.0165926   1.0944184  -0.8876222  -0.66659224  0.26697463
  0.639287    0.43506423  0.5147195  -0.50840056 -0.39747804  0.6393681
 -0.73218834  0.07403216]
[ 0.03703392 -0.42509052  0.46779084 -0.16394848 -0.26984638  0.349925
  0.00421605 -0.00832433  0.00114177 -0.11364323  0.13234077 -0.93930495
 -0.88634324 -0.09380646  0.32068092  0.47160333  0.13915181 -0.32681403
  0.9050697   1.1310477 ]
[-0.5723857   1.1091356  -0.1367189  -0.23579927  0.41740063  0.4627631
 -0.11384071 -0.21261904 -0.14792694  0.5578393  -0.45722985 -0.0873472
  0.0195985  -0.10988472  1.4643259  -0.21991827 -0.9020537  -0.10877784
 -0.08796818 -0.1681481 ]
[-0.51915085 -0.08478219  0.2816537   0.17117117 -0.8270437  -0.4794639
 -0.31357515 -0.52397144 -0.5650033   0.33153057  0.63905615 -0.868357
  0.35116285 -0.87415737 -0.3914788   0.4124584   0.41828412  0.4333775
  0.7130778   0.982846  ]
[-0.09513853  0.593724   -0.5407658   0.04036532  0.8975574   1.0186999
 -0.1108273   0.35387853  0.06096461  0.42032397 -0.46079224  0.13074362
 -0.28686738 -0.09569878  0.31303126 -0.3244888  -0.11408587  0.07540063
 -0.36066258 -0.33273846]
[-0.32979512 -0.60243917 -0.98359364 -0.0322171   0.6210881   0.50225353
 -0.11537805  0.3557515   0.4480044   0.4367877  -0.29948565  2.0115805
 -0.00456707  0.1704028  -0.36666343 -1.1875838   0.74402094  0.09973998
 -0.6513928  -1.0968355 ]
[ 0.22495589  0.37096375  0.26131442  0.5388223   0.28798676  1.1682009
 -0.05784054  0.30107605  0.42287332 -0.25967747 -0.43537444  0.2025987
  0.15451466  0.21397263  0.11081956 -0.20430304 -0.22137074  0.5818149
 -0.6395831  -0.05058275]
[ 0.29624265 -0.08607637  0.3329796  -0.27062652 -0.56688714  0.55565584
  0.10683725  0.33426464 -0.48646164 -0.16901506  0.5907115   0.13051756
 -0.62668794  0.19962193 -0.12510078  0.7646763  -0.5885613  -0.49593958
 -0.0121536   0.11122993]
[-0.5380514  -0.5430613   0.507617   -0.00847258 -1.8811792  -0.5501578
 -0.13254662 -0.4203262  -1.8693774   0.8078633   1.2739375   0.06640569
 -0.76341456 -0.02220922 -0.5467073   0.04200192  0.25084415 -1.3007997
  0.18237823 -0.8281522 ]
[ 3.2125964  -1.1628925  -0.65681374  0.38803414 -0.40532237 -0.11427226
  0.6720444   0.0958642  -0.36407295 -3.370634    0.5849695  -0.35273507
 -0.22981627  0.21075886 -0.27173004  0.62106943  1.0369582   0.38441157
 -0.28652704  1.4738492 ]
[ 0.6003907  -1.2721083   0.2493817   0.13908872 -0.07163281 -0.4108762
  0.53027725 -0.32320186 -0.2965126  -0.62739986  0.19010125  0.09713138
 -0.07294898  0.38807017 -0.5635454   0.09370576  0.49684379  0.13673271
  0.136718    0.75800914]
[ 0.27108788  0.3673016  -0.06093485  0.947248    0.4291262   0.59725046
 -0.6357787  -0.12915404  0.32446644 -0.21334444 -0.06872164  0.2196379
  1.2183677  -0.01798156  0.16681704 -0.58834034 -0.5693954   1.0341779
 -1.3937387  -0.49138027]
[-0.09890879  0.28148478 -0.5510117   0.31591967  0.38266692  0.8673502
 -0.00577726  0.02246823  0.2181813   0.42266572 -0.45923823  0.11662831
 -0.36526734  0.68037677  0.06547154 -0.93170786  0.29535338  0.43134594
 -0.10185467 -0.05375832]
[ 0.27249214  0.37176967  0.11282002  0.86847395 -0.17132875  0.21705534
 -1.1992178   0.16371161 -0.21790162 -0.22465882  0.26631984 -0.5768159
  0.81968015 -0.8841562   0.04133729  0.43415448 -0.16457084  0.05084176
 -0.3576432   0.73593545]
[-0.93037504  0.05169316 -0.5157608  -0.04942886  1.6585665   0.10767518
 -0.10005307  0.17418219  1.627762    0.89120895 -1.2220261   0.06149457
  0.33630744  0.31989768  0.19699924 -0.33140302 -0.26616913  0.25362867
 -0.22962417  0.0444809 ]
[-0.43574673  0.2017237  -0.48792386 -0.2614283   1.0018125   0.07542594
  0.08756136  0.26048335  0.97277087  0.59121823 -0.93247527 -0.15023704
  0.46021685  0.199927    0.09852676  0.37491453 -0.4969053   0.5347567
 -0.12625018  0.311853  ]
[-0.75742066  0.43429437 -0.05640135  0.1236528   0.33210862  0.13843581
 -0.6947961   0.45432398  0.40626943  0.36047423 -0.62992394 -0.0561964
  0.65217406  0.19531202  0.11889085  0.63637817 -0.08865707  0.50818115
  0.04769927  0.23291543]
[-0.42607042 -0.2282335   0.3524852   0.70377254 -0.03963281 -0.44383878
 -0.2198639  -0.28168663 -0.10936292  0.10802551  1.0461981  -0.20423688
 -1.1205292  -0.8787113  -0.20974497 -0.85314924 -0.39941037  0.39891592
 -0.00565157 -0.7836378 ]
[ 7.9914051e-01 -6.5279186e-01 -4.0253391e-05 -1.9440950e-01
 -4.1275027e-01 -1.0609853e-01  1.0232209e+00  1.9411506e-01
 -1.6787271e-01 -6.8840343e-01  4.6881720e-01 -3.3903828e-01
  8.5465237e-02 -9.0312056e-02 -6.2834239e-01  1.1043848e+00
  1.2311930e-01 -5.1735586e-01  3.7757540e-01  8.1859267e-01]
[-2.747516    1.1673324   0.14085156 -0.57618666  0.2029561  -0.32847095
 -0.35367048 -0.23784445 -0.05220816  2.1808038  -0.54526937  0.3079435
  0.41553286 -0.5526078   0.53144574 -0.76648164 -0.6922106  -0.23054172
  0.15760465 -2.0110412 ]
[-0.46134144  0.94589657 -0.05359415 -0.20796265  0.47591192  0.505718
 -0.26668242  0.18444547 -0.06957648  0.5544949  -0.22361834 -0.31846967
  0.2004147  -0.10990501  1.2348112   0.01685807 -0.85122824  0.30727887
  0.01126293 -0.33351445]
[ 0.30072942  0.108309   -0.6368059  -0.6223607  -0.4102972  -0.20143801
 -0.119976   -0.14611097 -0.3628347   0.26309562  0.7293565   0.13410638
 -0.6813678  -0.04592926 -0.18041721 -0.12357036  0.5346111  -0.48755416
  0.28178734  0.5713736 ]
[ 0.01612907  0.18962567  0.14182682  0.4482038   0.2399556  -0.02040797
 -0.62746733  0.30239332  0.13069887  0.18212451 -0.26868019 -0.5183507
  0.2941961  -0.3514638   0.32174343  0.10925464 -0.6604447   0.48076668
 -0.7014668   0.23007081]
[-0.3683164  -0.34732935  0.01492333 -0.88242614 -0.7004301  -0.93663275
  0.6203077   0.1779314  -0.5258617   0.06225127  0.3675035   0.11322935
 -1.1716974  -0.02130158 -0.282514    0.40863967  0.06535598 -1.3108028
  1.4604254   0.5322476 ]
[ 0.13353674  0.45478842 -0.53940237 -0.51479626 -0.8462169  -0.7401705
  0.49888432 -0.7204631  -0.67749774 -0.37150544  0.8553385  -0.28747067
  0.13205577 -0.7290994   0.2828965   1.0208635   0.10795633  0.07296665
  0.36846638  0.29314274]
[-0.31017104  0.12643436  0.49111515 -0.16796683  0.20801213 -0.11775707
 -0.38849804 -0.07708358  0.14904816  0.15818278 -0.07530871 -0.07160363
 -0.7158517  -0.75543773  0.12190551  0.17338756 -0.00973096 -0.45490095
 -0.02473442  0.30169448]
[ 0.07355762 -0.25031063 -1.6130639   0.03317292  0.36148342 -0.04830696
 -0.04428582  0.46852738 -0.677603    0.00371982 -0.35407597  1.3608172
 -0.03947809  0.54654455 -0.06697439  0.26951468  0.42484352  0.06223316
 -0.06944741  0.80332637]
[-0.6698216   0.16786772  0.6701295  -0.10084067 -0.7252524   0.36673597
 -0.20603207  0.36573207 -0.82896507  0.60272646 -0.01408465 -0.57424134
 -0.01917898 -0.26937222 -0.39983872  0.81357104 -0.32931814  0.14146793
  0.5551507   0.9534714 ]
[-0.8484516  -0.33342493 -0.56773114 -0.7147498   0.2740349   0.5287363
  0.706619   -0.07704975  0.22622406  0.6671242   0.26775154 -0.06384782
 -1.1703476   0.7161313   0.35221434 -1.3080213   0.75433415 -0.47174427
  0.48556206 -1.4873321 ]
[-0.6251121   1.0663116  -0.03099409  0.19140987  0.6637327   0.21325096
  0.12975118  0.13865373  0.23065296  0.66298366 -0.35263315 -0.2708295
 -0.16654252 -0.4014674   1.3956462  -0.42450905 -0.9669176   0.3120468
  0.22210422 -0.3100984 ]
[ 1.5379990e-02 -1.8543394e-01 -3.6255801e-01  2.2500311e-01
  1.5333749e-02  6.2502339e-04 -2.7284173e-02  4.4765425e-01
  1.9015591e-01 -6.2922752e-01 -5.2422732e-01  1.9694409e-01
 -3.1803259e-01  6.1349496e-02  2.9051300e-02  3.8722193e-01
 -2.7147621e-02  3.5128337e-01  6.4192224e-01  1.3702872e+00]
[-0.56464916  1.0672013   0.12967469 -0.22892441  0.4490747   0.48458126
  0.03386571 -0.21420014 -0.19476408  0.5445696  -0.30661792 -0.1338786
  0.07518739 -0.42209965  1.2832564  -0.02632972 -0.8101026   0.01236638
  0.02927081  0.02647844]
[ 0.24533074 -0.36728242 -0.70086867 -0.9411198   0.06889293  0.5255675
  0.44714996  0.88867944  0.06498879  0.18590882 -1.0512685   0.3325755
 -0.19080405  0.8148994  -0.45888183  0.30424628  0.04614227  0.484378
  1.0370191   0.97086847]
[ 0.57607335  0.58643895 -0.42668316  0.77469796 -0.11822657 -0.16242115
 -0.27634418  0.0611934  -0.4070035  -0.30791366 -0.30047086 -0.03307518
  1.3525714  -0.54349434  0.49392936  1.3439015  -0.05442733  0.7379916
 -0.05050676  1.3075528 ]
[-0.6394634   0.49019188  0.2597176   0.30607888  0.59671175 -0.63541406
 -0.518042   -0.5166587   0.4585259   0.6160842  -0.5926484  -0.37927338
  0.7687817  -0.12326358  0.33106506 -1.4387035  -0.05621481 -0.09915086
 -1.2084327  -1.6768025 ]
[-0.45385343  0.8004363  -0.06076965 -0.09027085  0.3384233   0.421892
 -0.10872754 -0.01634903 -0.01958049  0.4126293  -0.37475199 -0.22942011
 -0.01615861 -0.3026694   1.0073543  -0.1271765  -0.5849936  -0.00509204
  0.09885427 -0.1913951 ]
layer 5 Activation
tanh
layer 6 Dense
20 1
[0.94450027]
[1.1322495]
[-0.0979074]
[-0.04945439]
[0.23661368]
[0.03362933]
[-0.02724109]
[0.03015093]
[-0.30585197]
[-1.3842063]
[-0.07252327]
[-0.07576968]
[0.09863595]
[-0.04528742]
[1.232807]
[0.34706855]
[-0.5197412]
[0.04676864]
[0.11702302]
[1.1704617]
[0.8719212]
