layers 7
layer 0 Dense
20 20
[ 0.1464128   0.05451627  0.02460809  0.28362423  0.12218001 -0.3974135
 -0.4428822  -0.08598841 -0.03081005  0.09307146 -0.22010946 -0.0926077
 -0.11985171  0.21016574 -0.07620664 -0.13841207 -0.18818714  0.17847843
 -0.12382185  0.21391864]
[-1.2828623e-02 -2.5787675e-01 -2.7087861e-01  5.6335616e-01
  3.4495899e-01 -2.9133376e-01 -3.2954894e-02 -7.0408747e-02
 -1.6521493e-01 -2.2633712e-01 -4.1969776e-01  2.9013366e-01
  9.4070470e-01  3.2482192e-02 -1.3407120e-01 -3.1945238e-01
  2.9296239e-04  1.5546891e-01  7.9899296e-02  2.9321960e-01]
[-0.07712395 -0.32547107 -0.1493031   0.4029048   0.2075634   0.0364627
 -0.03317395  0.3017753  -0.04626703  0.2583575  -0.16759902  0.589182
  0.5478949   0.1942443   0.18991737 -0.11284864  0.22038227 -0.11446118
  0.48741516  0.21957378]
[ 0.3046579   0.25076807  0.09549342 -0.2515719  -0.07186589 -0.08998883
  0.11374153 -0.23376411 -0.10011639  0.04914725  0.14016974 -0.21098368
 -0.17485821 -0.04919623 -0.09633715 -0.05363564 -0.27498963 -0.28161407
 -0.27923542  0.17887373]
[-0.02776845 -0.26667798  0.1686468  -0.14792326 -0.32258806 -0.25803095
  0.42777473  0.18732114  0.2392105  -0.33373517 -0.131877   -0.02594666
  0.07206217 -0.20749213  0.21754487  0.22341771  0.2214195   0.14932437
  0.12876545 -0.08551688]
[-0.581494    0.01789984  0.22786988 -0.23740795 -0.21611477 -0.16201317
 -0.385964   -0.50884134  0.43133792 -0.25089544  0.06532003  0.19314273
 -0.5957368   0.21971525  0.4137379  -0.24053565  0.15668382 -0.37899578
 -0.45847365  0.12942886]
[ 0.03145812  0.30985013 -0.16887291 -0.5546159  -0.39745763  0.17745417
 -0.11254045 -0.4458316   0.78498924  0.314742    0.06341541 -0.25609586
 -0.14581777 -0.3323958  -0.0490213  -0.2139868  -0.06697696  0.08830979
 -0.5486661  -0.25223565]
[ 0.19246605  0.22779192 -0.13770407  0.09552739  0.2758755   0.18790796
 -0.09470974  0.11414675 -0.1722504   0.34876055 -0.04364773 -0.37591627
 -0.02839402 -0.38115734 -0.291917    0.29237837 -0.16790067  0.32884705
  0.3484021  -0.27517128]
[ 0.15188742  0.23148479  0.17357716  0.36090812  0.51945275  0.08185793
 -0.4207329   0.03268528 -0.13548316 -0.1345602   0.31418973  0.16502196
 -0.22250693  0.12593633  0.35550627  0.02722906  0.37681937 -0.45053932
 -0.41302067  0.5120123 ]
[ 0.29793903 -0.01578728  0.11382788 -0.10170572  0.1886407   0.19171368
  0.39703795  0.15352197 -0.04678062  0.258281    0.29542935  0.34946248
 -0.5581084  -0.01912345  0.3721446   0.18295747 -0.2105508  -0.19723135
 -0.0551413   0.01402887]
[ 0.34983715  0.5366761   0.30326885 -0.40193364  0.41519287 -0.20878534
  0.03672544  0.59937584 -0.15202792 -0.16491161 -0.11865237 -0.2021786
 -0.38608408 -0.45711595 -0.14935456  0.00589205  0.30455077 -0.35140386
 -0.0802921  -0.07900581]
[ 0.09407136  0.86529696  0.10468226  0.686162    0.7729336  -0.30065286
 -0.77335864 -0.33951816  0.36379108 -0.16352421 -0.19313757 -0.24523208
  0.39845425  0.71831167  0.22669792  0.27727786 -0.01348797 -0.0364028
 -0.34059745  0.5810788 ]
[ 0.18051551  0.03752674 -0.24001242 -0.52279496  0.12454274 -0.09294553
  0.3211732   0.08398396 -0.5349826   0.12474646  0.08057839  0.16734895
 -0.12128725  0.25441077 -0.35584295 -0.24721244 -0.14740232 -0.11968687
 -0.08515246 -0.29542834]
[-0.32448015 -0.15379216  0.28481126  0.63714397 -0.3825297   0.5155177
 -0.16470602  0.04958144  0.02211414 -0.33138242 -0.00750604 -0.09864877
  0.2357224   0.43152705 -0.10194839  0.12089197  0.4053528   0.16415417
  0.03832849 -0.25764117]
[ 0.03982822  0.22469151 -0.15785423  0.1339649   0.25581622 -0.16607596
  0.01776978  0.01147087  0.20625366 -0.07524887  0.17912875  0.11975501
  0.35034713 -0.33655912 -0.22578853 -0.2909835  -0.4020433  -0.3817777
  0.18912338  0.0250216 ]
[-0.05697604 -0.41953686 -0.12098125 -0.07673205 -0.09418923 -0.02087562
  0.45989695 -0.13145392 -0.29076865 -0.23208804 -0.4215688   0.22729698
  0.11017936  0.23786864 -0.49848038  0.30864972  0.446011    0.23652418
  0.02206649 -0.46758664]
[ 0.03742215 -0.05496375 -0.30140412  0.02409188 -0.38877302  0.12316203
  0.16627759 -0.20271839  0.2603011   0.06587436 -0.06487186  0.0447651
  0.02221149 -0.26843426  0.18455501 -0.1396126  -0.09272281 -0.0971599
 -0.3199137  -0.27248642]
[-0.12503298  0.06670824  0.24943088 -0.16437848 -0.2762981  -0.27896863
  0.3649053  -0.23988004  0.094936    0.5158055  -0.3383541  -0.01252967
  0.48547342  0.12026905  0.08388334  0.327072   -0.38486126  0.0190265
  0.14702311  0.21351248]
[-0.00193739  0.05054431  0.11810328  0.29860464 -0.12075508 -0.2988469
 -0.03845052  0.30433786 -0.20020488 -0.13931242 -0.10801374  0.00984443
 -0.2642285   0.3557172  -0.1642841   0.02823788 -0.12346403 -0.06051152
 -0.24852833  0.06841022]
[-0.2800293  -0.37843117  0.4658696  -0.36559838 -0.43208167  0.19749668
  0.45007455  0.4862832   0.07394966  0.5507309   0.14167641  0.28352946
  0.08914274 -0.29684252 -0.21200278 -0.5246047  -0.11500587  0.4344777
 -0.19045992 -0.5609724 ]
[ 0.05318443  0.0069538  -0.02612994  0.00480244  0.06709094 -0.08808945
 -0.1805967  -0.01493474  0.06359051 -0.00045481 -0.00020815  0.08963234
  0.12245478 -0.06923348  0.04790177 -0.0059963   0.01146253 -0.04077398
 -0.06894043 -0.03569718]
layer 1 Activation
tanh
layer 2 Dense
20 40
[ 0.00883092 -0.19185728 -0.16577707 -0.2417686   0.12572326 -0.28697652
 -0.10028153  0.2371507  -0.03136522  0.0115596  -0.34241772  0.1184198
 -0.22537765  0.23375669  0.06454825 -0.21411772  0.10653852  0.02626362
 -0.32188675  0.08254957 -0.14728452 -0.11339109  0.09762558  0.04201148
  0.11896562  0.2885738   0.04999266  0.13855349  0.29886833  0.23665206
 -0.24933593  0.10984713  0.15902025 -0.10513471 -0.01169384 -0.04539385
 -0.2020206   0.21783903  0.07851411 -0.35220766]
[-0.17519492 -0.00729317 -0.12562016 -0.32809764  0.0227755   0.12252554
  0.24163164  0.16802537 -0.07449615 -0.02698455  0.02431503  0.3784634
 -0.01646172  0.14717111  0.2189476  -0.5048502  -0.16202198 -0.01073368
  0.21195869  0.00147262  0.18650249 -0.17675194 -0.14009887 -0.08930958
 -0.4052529   0.00534991 -0.01647432  0.46626064  0.04193408 -0.05726407
 -0.14093445 -0.22896653 -0.06133737 -0.0579375   0.02449003  0.17199403
  0.08191261  0.08106008 -0.11613424 -0.2994434 ]
[ 6.79311156e-02  6.54840022e-02  1.42606994e-04 -2.03698337e-01
  2.37961233e-01  1.31955370e-01  5.51292673e-02 -1.38205335e-01
  2.86807060e-01  1.23253413e-01  1.36819154e-01 -9.94953215e-02
  1.14247454e-02 -2.09633306e-01  2.24032655e-01 -3.88462245e-01
  2.63050854e-01  9.37913656e-02 -6.55729249e-02  1.19041331e-01
 -2.14402974e-01  1.47528812e-01  4.57817763e-02 -3.88840996e-02
 -2.33721003e-01 -2.14069650e-01  2.31794402e-01  3.26379776e-01
  1.18299656e-01 -5.97061776e-02 -2.44798474e-02  1.78362727e-01
  1.99767753e-01  2.44273782e-01 -1.87367722e-01 -1.10567901e-02
 -1.91176943e-02 -2.15942949e-01 -2.86328495e-01  4.18000817e-02]
[ 0.22506003 -0.05891424  0.26353857 -0.48094285  0.22023015  0.27913296
  0.24601862 -0.0740274   0.10024775 -0.16648906  0.13373353  0.5108214
  0.17879361  0.07413638  0.11498885 -0.10948376  0.1162321  -0.13383272
  0.0970057   0.1890388   0.12372093  0.00921937  0.13520844  0.33783287
  0.05955034 -0.21102007 -0.03430564  0.44995654 -0.06548025 -0.31510502
  0.02910183  0.06217876  0.2546352  -0.12220074  0.00061809  0.06844496
  0.04638342  0.20633066 -0.23809002 -0.17772318]
[ 0.05326093  0.19948258 -0.0338238  -0.09159492  0.09138213  0.02450314
  0.20901139 -0.3546966   0.03693637  0.06328256 -0.19412248 -0.15247798
  0.21292344  0.1446234   0.24758841 -0.3123566  -0.2650396  -0.08685633
 -0.08602592  0.03564964 -0.02501843 -0.11636779  0.04486927 -0.04128724
 -0.07765831 -0.07791753  0.18983021  0.18751082  0.01313348  0.00049672
 -0.09550702 -0.27734485 -0.29133412  0.29106298  0.11239538 -0.2857778
  0.00681234 -0.22868977 -0.24484687 -0.27998567]
[-0.13034695  0.12244247  0.22195663 -0.08050395  0.09527116 -0.06815442
 -0.0049069  -0.10053721 -0.29295954 -0.3354027  -0.24486592 -0.20811535
 -0.03119617  0.04628178  0.04208272  0.00705786  0.0774778   0.23364742
  0.14774427  0.03233619 -0.07807981 -0.01335508  0.26295632 -0.23728628
 -0.30526626 -0.05559291  0.23367994 -0.35214463  0.25321054  0.03719712
  0.20321824 -0.33864784 -0.07390475  0.15356736 -0.4096455  -0.08609414
  0.01941942 -0.05305835 -0.12074356 -0.02709394]
[ 0.00480968  0.12835686 -0.11960492  0.21094987  0.09513536 -0.11429481
  0.05127632 -0.18789054 -0.06446782 -0.18033063 -0.12420561 -0.00903221
 -0.09334981 -0.14477092  0.26968285  0.2801553   0.3431502  -0.11500939
  0.05274117 -0.37880334 -0.29725647 -0.221602   -0.10498966 -0.23566616
 -0.04324436 -0.260618    0.24288961 -0.3760649  -0.0888055  -0.09644383
 -0.26067117 -0.27494425 -0.2654233   0.0796857  -0.19134006  0.01377719
 -0.0684156  -0.23001003  0.18154836 -0.214831  ]
[-0.10889705  0.07832582 -0.01297443  0.46863052  0.13144587 -0.25971377
 -0.13953926  0.07673611 -0.0658801  -0.22354446 -0.21922986 -0.19580942
 -0.07382054  0.01547284  0.27951163  0.31254455  0.07288067 -0.2250959
 -0.05075825 -0.32899678 -0.29001853  0.24961542  0.06116123 -0.07838245
 -0.2295971  -0.09635919  0.1046303   0.17184278  0.11396233  0.18559022
  0.14777453  0.20741253 -0.17928068 -0.02151848 -0.12751281 -0.13419934
  0.13298427 -0.33740145  0.1331509   0.12041472]
[ 0.02131459  0.33172408  0.01555486 -0.31377685 -0.25094968  0.19935568
 -0.03842907  0.15417361  0.26734364 -0.35425177 -0.03025132  0.13936469
  0.04980077 -0.17700592  0.30659688 -0.18112583 -0.10401954  0.05959918
 -0.1391331   0.17490794 -0.13641173  0.09380863 -0.32885608  0.2475434
 -0.00967089 -0.12454019  0.32365584  0.02144559 -0.17609547  0.16724467
  0.23623867 -0.02925593  0.00680095 -0.17473626  0.01816772  0.22558899
  0.08809461  0.2207957   0.19383642  0.0626977 ]
[ 0.09763288 -0.18046547  0.0482098   0.42334306  0.2102115  -0.20902394
 -0.2344683  -0.03754357 -0.2032187  -0.05494184  0.11638903 -0.03900517
  0.00582332  0.30857107 -0.11261155  0.2533712   0.02739467 -0.23503828
  0.10749157 -0.35004017  0.06924322  0.29276565  0.10865194 -0.21553981
  0.05395446 -0.19737989  0.04927871 -0.29329565  0.01842752 -0.23800187
 -0.2913008   0.10419407 -0.10280925  0.21275951 -0.09956691 -0.04657962
  0.34495875  0.24355072  0.0019744   0.13752267]
[-0.29610732 -0.0163977   0.11732772  0.11498646  0.2436581   0.13063684
 -0.2591617  -0.12004977  0.15900417 -0.1575277   0.06324759 -0.2401149
  0.02113182 -0.2048533   0.08016194 -0.17459667  0.28210598  0.01254397
 -0.1544278  -0.08712156 -0.00574876 -0.2687557   0.16166954 -0.07228805
 -0.32038003 -0.1982822  -0.04823885  0.10208832 -0.261539    0.13384937
  0.34049588 -0.07533912  0.27138394  0.16808574  0.18910933 -0.10679536
  0.04048586  0.05484191  0.11954404  0.23596269]
[ 0.2131414   0.10829715  0.10323809  0.14949375 -0.05663809  0.03101124
  0.08203735 -0.19550483 -0.00675111  0.15798993  0.10374455  0.1521378
  0.13199079 -0.13570629 -0.0787358  -0.07979965  0.22594766  0.04372176
  0.23597322 -0.06307493 -0.13052085  0.27275527 -0.07780063  0.27593848
 -0.24757499 -0.00043988  0.10396965 -0.28196502  0.14978646 -0.01804367
 -0.19428428  0.17184824 -0.3063737   0.09221701  0.18100072  0.28566945
 -0.2669699  -0.14540184 -0.00523314 -0.02367285]
[-0.0380729  -0.13356818 -0.12456402  0.28171518  0.12352055 -0.15437785
 -0.09164865 -0.00044573 -0.00579437  0.05395049  0.06874835  0.03571003
 -0.2418867   0.03551742  0.17781255 -0.06204727 -0.17950784 -0.06221155
 -0.2752221   0.16409168 -0.2549974   0.3214987  -0.17913245  0.24662635
 -0.21544003  0.01795669 -0.10650541  0.3019376   0.02606235  0.17861332
  0.23772356 -0.12783165 -0.10892353 -0.31834376 -0.20768546 -0.14707881
 -0.19244054 -0.17294168 -0.11310173  0.22809294]
[ 0.02350051 -0.12408756 -0.13372228  0.05376541 -0.16748442  0.28514147
 -0.08697317 -0.04626502  0.15688714  0.10393089 -0.01689332 -0.18304154
 -0.2579125  -0.22394785  0.28677225 -0.18613276 -0.1877974   0.00479265
  0.1013782  -0.22807613 -0.23181328  0.03997134  0.08870628  0.20270972
  0.17854458  0.27282804  0.2919774   0.01258525 -0.14542758  0.1516128
 -0.1742475   0.23677586 -0.05443332 -0.2081971   0.21922597 -0.16759138
 -0.05908153 -0.2334291   0.10631368  0.16487475]
[ 0.06766428 -0.14951296 -0.26419064 -0.07487672  0.25405732 -0.18198998
  0.26767293 -0.00479028  0.2951736   0.29842243 -0.03524184 -0.27536786
 -0.17359935 -0.03254383 -0.1497532  -0.13758363 -0.2631044  -0.08906026
 -0.16816841  0.21000788  0.23670432 -0.15690958 -0.19114463 -0.2982896
  0.02001415  0.03708873  0.08218814  0.13837795 -0.2757747  -0.28171155
 -0.11258641  0.32904434 -0.37542394 -0.08345085  0.13826706 -0.14065231
 -0.06490457  0.08957121  0.1046374  -0.32636276]
[-0.00776603  0.2389735   0.04171568  0.06268743  0.0147645   0.00525668
  0.110645    0.17268662 -0.01789602 -0.04998555  0.1794571   0.12794583
 -0.12973982  0.18894146  0.16887385 -0.196771    0.03448007 -0.06465293
 -0.15514722 -0.13355714  0.01920581 -0.15084253  0.10798144  0.33222657
 -0.32112095 -0.12841561 -0.01494223 -0.03270452  0.13553888  0.13814916
  0.06018782  0.03931528 -0.17637391  0.07683588 -0.19950172  0.07577563
  0.22001989 -0.06076637 -0.28082317 -0.39506575]
[-0.17392865 -0.03342725  0.1585614   0.10922559 -0.30436233 -0.02488112
 -0.26454487 -0.18999599 -0.24116623  0.13689114  0.17075069 -0.24958766
 -0.04659004 -0.30851588  0.07068651  0.14353125 -0.11133912 -0.15352647
 -0.17198546 -0.16478671 -0.24553983 -0.16265456 -0.10517899 -0.17686328
 -0.0276103  -0.09543397 -0.0754008  -0.10386789 -0.06513397 -0.26669395
  0.19376649 -0.15410799  0.101476    0.3417784   0.35673     0.0178957
 -0.22497432 -0.19307457  0.10652936  0.1368024 ]
[ 0.02302289 -0.03908953 -0.1232096   0.12225154  0.4594418  -0.12315469
  0.26223603  0.07114695 -0.31286308  0.13154198  0.06029552 -0.34757882
  0.36592284  0.13758072 -0.1627894   0.41930988 -0.00576765  0.27661842
 -0.13993733  0.32604143 -0.04734544  0.22893918  0.1203384   0.12600817
 -0.07700092 -0.26408973 -0.01836188  0.10453771 -0.02993355  0.11921851
  0.21207252 -0.04193116  0.2920072   0.30335882 -0.08308151  0.29330584
  0.1985217  -0.00057393 -0.07954067 -0.13706231]
[-0.25286403 -0.24384075  0.220231    0.15076576  0.14163756  0.1134316
  0.05987932  0.02108767 -0.21320389 -0.13875715 -0.19638391 -0.27245215
 -0.01434759 -0.16139396  0.20408784  0.01406483 -0.16644754 -0.05175713
  0.02102895  0.14238317  0.0570031   0.07455702 -0.27078754  0.02610372
 -0.22440518 -0.35472953  0.05917437 -0.15374677  0.35876313 -0.0605922
  0.3820357  -0.3357912   0.24158531 -0.27154887 -0.33963287  0.11364149
 -0.2398053  -0.18361603  0.12713361  0.2189292 ]
[ 0.01226294  0.24613927  0.1796142  -0.2410496  -0.31773272  0.23341666
 -0.11884877 -0.3220769   0.32732892  0.04489548  0.25094604  0.10282426
  0.16155596  0.1934694  -0.20549768 -0.16985919 -0.11732134 -0.0591601
 -0.22547589  0.29847032 -0.15520975 -0.00894548 -0.41872936 -0.1066808
  0.14773652 -0.06767945 -0.12232468  0.4834049  -0.20903762  0.04472928
  0.22154057  0.06190227  0.06590587 -0.05357491  0.13368468 -0.1529718
 -0.22208273  0.28184852 -0.17884497 -0.30773067]
[ 0.13752246 -0.03834477 -0.04014158 -0.12111004 -0.0006186   0.00203421
  0.00171016  0.00190723  0.15551661  0.01062207 -0.01375983  0.22716513
 -0.0463396  -0.04742355 -0.00836408 -0.1268009   0.02296446  0.01708587
  0.00047787  0.04994471  0.0282607   0.0232147  -0.01054158 -0.03293891
  0.06876595 -0.00390248 -0.01052577  0.12253761 -0.06465202  0.04212188
 -0.08313067 -0.08882578  0.05229573 -0.05356657  0.00107366  0.0470823
 -0.07376903  0.12260035  0.00297402  0.08887849]
layer 3 Activation
tanh
layer 4 Dense
40 20
[-0.10678351 -0.11292662  0.09318728 -0.13496564 -0.18930262  0.17964555
  0.19552642 -0.08883628  0.01385183 -0.25116107 -0.00569497 -0.13263735
 -0.15164198  0.08024402  0.0288752  -0.15283534 -0.02231479 -0.04908779
 -0.2247344   0.00922907]
[ 0.119269    0.1891791   0.39404178 -0.2176504   0.0129311  -0.07020275
 -0.16586162  0.01440416  0.2115391  -0.2313143   0.10274842  0.11836194
  0.08876085  0.05504409  0.29532653  0.06362344 -0.34088728 -0.14742978
  0.19790508  0.0172764 ]
[-0.12662253  0.08564692  0.0553812  -0.14867641 -0.00715675 -0.11543279
 -0.07131694  0.2404445   0.01284627  0.17837858  0.22710164 -0.0741684
 -0.18255785  0.32196468  0.22408724 -0.09712253 -0.15940484  0.31209552
  0.32055473 -0.11324696]
[-0.18005267 -0.2265915  -0.09372198 -0.00917321 -0.21017256  0.12480257
 -0.22568813  0.22550319 -0.1536701  -0.04641833  0.02125634  0.28135082
  0.00305046  0.21300222 -0.20751151  0.29449978  0.12163442  0.01791994
  0.00401078 -0.01511839]
[ 0.07494828  0.01453253  0.06562372  0.1764474   0.00540873 -0.0652796
  0.1003089   0.14333197 -0.07580272  0.18211731  0.24782415  0.3443803
 -0.12755014  0.26358664  0.12466595 -0.12595265  0.17072527  0.20246074
  0.08514158 -0.15893081]
[ 0.11574426  0.27100202  0.22425535 -0.00467492  0.0356342  -0.2700516
  0.189901   -0.35984424 -0.24077554  0.08483913  0.24852692 -0.2669812
 -0.3157773  -0.02192267  0.18158549 -0.1699246  -0.12384185 -0.014547
  0.03619466  0.17828882]
[ 0.00425982  0.3289184  -0.12782747 -0.14975868  0.23990397 -0.16552317
  0.32876068 -0.02066505 -0.04051646  0.15378644 -0.1507859   0.03113438
 -0.32945317 -0.29144356  0.23692875  0.15367913  0.12664661 -0.2371951
  0.24772067 -0.24565822]
[-0.06094809  0.13792622 -0.07504299 -0.39192307  0.16380906 -0.3635627
 -0.036532   -0.15271951  0.00242675  0.40433455 -0.14377242  0.15956129
 -0.11463924 -0.18624732 -0.12029742 -0.02508471 -0.07827547  0.09188335
  0.13978413  0.1552451 ]
[-0.07295597  0.08876241  0.16435656 -0.11344441 -0.22713743  0.25420323
 -0.14665413 -0.24526867  0.13506478  0.04716945 -0.23747663 -0.13208777
  0.07998902  0.07829913  0.3695442  -0.10165174  0.11953745 -0.11783987
 -0.14606564 -0.12743719]
[ 0.1736366   0.15641303  0.10872696 -0.10288455 -0.00089278 -0.02207666
 -0.06262386 -0.15959239 -0.23049384 -0.22970243 -0.29478908 -0.1853294
  0.06328639  0.03248253 -0.2106175   0.11521054  0.04549983 -0.08942515
 -0.09853798 -0.16820827]
[-0.13788755  0.13915727  0.07730712 -0.23740691 -0.12583646 -0.24561232
  0.08907046 -0.26253468 -0.28154972  0.14067873  0.05760476 -0.1560222
  0.07227887  0.17814346 -0.16711606  0.1264434  -0.08667184  0.01802623
  0.02097579  0.10942591]
[ 0.04233703  0.18064116 -0.20406184  0.23702636 -0.04130384 -0.11721452
 -0.1664608  -0.26256278  0.14220035  0.22683825 -0.22329424 -0.12273835
 -0.06910536  0.18057472  0.3444069  -0.21893978 -0.23521934 -0.33473635
  0.05631338 -0.11489464]
[-0.16763796 -0.03589426 -0.02668015  0.09372004  0.01502162 -0.17319776
  0.12837033 -0.20870285 -0.02289651  0.12257648  0.21263319  0.00276011
 -0.11552713 -0.10366058  0.03279944  0.06920551  0.1205012   0.37406993
  0.19625652 -0.21110211]
[-0.0069005   0.331965    0.19365607 -0.18321617 -0.22530907  0.21752766
  0.28802878 -0.2187815   0.05046046  0.25190753 -0.02756048  0.18062103
 -0.19318216 -0.0037015   0.06086647  0.14212757 -0.31170908 -0.13046162
 -0.21642338  0.20272176]
[ 0.10068686  0.12730785 -0.34886757  0.01636869 -0.0226589  -0.24439223
 -0.00644711  0.16823567  0.3648508  -0.01683868  0.06729634  0.21205512
 -0.19289592 -0.14243162 -0.13873199  0.0587402   0.18128057  0.06532188
 -0.22192435 -0.2735823 ]
[ 0.00805924  0.03852841 -0.37019196  0.16216071 -0.05040716 -0.17684875
 -0.05087751 -0.20807943  0.194724   -0.1552373   0.17629807  0.25316834
 -0.24532641 -0.00755589 -0.4069578   0.21289061 -0.11317962 -0.15521252
 -0.09839395  0.09236518]
[ 0.1655194   0.15164168  0.18493994  0.2727892  -0.01704288 -0.08380284
  0.08390144 -0.00316062  0.04379936 -0.23167795 -0.06907456  0.1146345
 -0.18755549 -0.10318664  0.0392726  -0.21333632  0.27396923 -0.14538866
  0.08329516 -0.17051701]
[-0.02721136  0.18007296  0.1893122  -0.20727627 -0.23223956 -0.1807186
  0.11310162 -0.11804005 -0.03801257 -0.07538104  0.00486432 -0.08124669
  0.07918917  0.19052769 -0.04027966  0.04154069  0.06647374 -0.36260137
  0.22941314 -0.02692966]
[-0.06120312  0.23338127  0.04744522 -0.08758793 -0.17093928  0.14616734
 -0.19598795 -0.06082441 -0.19705437 -0.1344951   0.06128806  0.05994976
 -0.07112565 -0.13948049 -0.10200478  0.08075619  0.27623972 -0.03003497
  0.15586288 -0.33692443]
[-0.06775653 -0.23905104 -0.06685253 -0.20571676 -0.17882736 -0.3279822
 -0.05833006 -0.2763464  -0.0044702   0.29981935  0.09845018 -0.03332797
 -0.20535083  0.12074977  0.23464121 -0.22674751  0.13393429 -0.20625721
  0.09359602 -0.27026635]
[-0.07348327  0.04831916 -0.09210675 -0.05067532 -0.0233577   0.1821881
 -0.26279983 -0.27795398  0.0714888  -0.17545442 -0.25628155 -0.0113742
  0.31649095 -0.1659948   0.28376067  0.11590321 -0.01802238  0.20978536
  0.00194797 -0.24984607]
[ 0.11231102 -0.06307153 -0.22511218 -0.02662844 -0.33909404 -0.30498067
 -0.07759096  0.11559514  0.27592742  0.08509116 -0.2055497   0.26469755
  0.25959077 -0.19702402 -0.05292886 -0.0301227   0.25445643  0.24777092
 -0.15997753  0.20909777]
[-0.19025241 -0.2916868  -0.17426057 -0.01222329  0.21292235  0.13630673
  0.2997045   0.14992224  0.29021215  0.20655695  0.25300553 -0.11959374
 -0.2869865   0.17503048 -0.29866657 -0.255725   -0.18202488  0.03107253
  0.21037999 -0.21902087]
[-0.13693449  0.15313576 -0.14307556 -0.14739677  0.09383327  0.18059368
 -0.2089595   0.1063785   0.24763338  0.24922682  0.05550722 -0.0156388
  0.2357515   0.04736806 -0.28167215  0.04917885  0.03889814 -0.24754749
 -0.25613004  0.15644011]
[-0.03221145 -0.27824712  0.1238934  -0.1511694  -0.08576487  0.2999277
  0.15094925 -0.01372286 -0.07828774  0.10431673  0.11132884 -0.07767461
  0.2963918   0.30971962 -0.04942497 -0.31649587  0.10539848  0.14117377
 -0.22946808 -0.03930182]
[ 0.159988    0.17510514  0.08497475  0.04854327  0.11420637 -0.18164617
 -0.08831504  0.04989886  0.06585295  0.06986861 -0.15567824 -0.12575428
 -0.08964558 -0.10853803  0.09618891 -0.41243038  0.2442225  -0.00741786
 -0.10618305 -0.06572045]
[ 0.16015081 -0.05241679 -0.02759358 -0.12421802  0.06200252 -0.08409619
  0.08935297 -0.16296062 -0.12917788 -0.16294126  0.3289719   0.13772185
  0.29596624 -0.15242271  0.19593354  0.10203252 -0.09320284 -0.0118472
  0.21468617  0.00167521]
[-0.17011799 -0.15896311  0.1762542   0.15965182 -0.02384695 -0.3502756
 -0.05769695  0.14386761  0.07721943  0.19137998 -0.15430845 -0.40311736
 -0.1359289   0.29218447 -0.0203757  -0.10074899 -0.04286849  0.12073484
  0.1579742   0.26486996]
[ 1.7561910e-01 -6.3938469e-02  1.6773494e-01  2.1489252e-01
  1.0255522e-01  3.3044180e-01  1.9025412e-01  2.0464094e-01
  2.6092408e-02 -1.0283889e-01  2.5432608e-01  1.6381603e-01
 -1.9496030e-01  1.7167778e-01 -1.5428326e-01  1.3578914e-01
 -2.5399864e-01  8.2350686e-02  6.9394000e-02  1.5004975e-04]
[-0.17415486 -0.22422087 -0.117817    0.25960127 -0.25421038  0.0916319
 -0.05442688  0.00470797 -0.06309778 -0.37693515 -0.06485619 -0.20036662
 -0.11967891 -0.06513577  0.20413259 -0.15497355  0.15192574  0.11204879
 -0.10655247  0.0915553 ]
[ 0.00627821  0.03979843 -0.0473055   0.21939884 -0.27089375 -0.09368878
  0.21818654  0.00526246  0.06466685  0.15172593  0.38085833  0.11187378
  0.22451821 -0.01082246  0.01657767  0.3323063   0.1227544   0.14445698
  0.29601446 -0.10968754]
[-0.06083997 -0.17504835  0.3025038   0.22652008  0.02870728 -0.2554355
 -0.02102084 -0.23929544  0.14990734  0.00466224 -0.12029475 -0.14612705
 -0.11535514 -0.04139866 -0.26774997  0.00668265  0.07252577 -0.00787667
 -0.11604661 -0.05204818]
[ 0.11445316 -0.07026816  0.322003   -0.09553382 -0.37422878  0.18584922
 -0.13421765  0.13476592  0.11202206  0.35961697  0.03350842  0.07171916
  0.11977907 -0.24548402 -0.08418445  0.18586752  0.08386479 -0.13143454
  0.1372368   0.21714236]
[-0.02455924  0.17809555  0.29670933 -0.21958087  0.30765492 -0.11566722
  0.10914512  0.37359357  0.14310105 -0.19967312  0.30255282  0.1621999
 -0.04568858 -0.03450788 -0.2385687  -0.24323592 -0.07943891 -0.08548582
  0.2939884  -0.11522356]
[-0.03361203  0.19160251 -0.05950592  0.3107647   0.14250432  0.0677895
  0.19171184  0.15827307 -0.16873331  0.00261128 -0.2085292  -0.33906895
 -0.1808766  -0.17922366  0.21506491 -0.16116643 -0.13289355  0.28506666
 -0.02946927  0.1690193 ]
[ 0.13044694 -0.22151415 -0.14390606  0.18736899 -0.20327853  0.00132935
 -0.19127099 -0.2529254  -0.18825431  0.02686545  0.12598784 -0.01975918
 -0.04127869 -0.09098586  0.06569912 -0.08637463 -0.14227995  0.09447541
  0.10347935 -0.34690493]
[-0.35083872 -0.12376309  0.28447303 -0.10201024 -0.24515593  0.18665178
  0.3019989   0.10789832 -0.09775399  0.26353845 -0.07222178  0.27749524
  0.21481454  0.17566147 -0.1406159   0.31736365 -0.13854422  0.19642387
 -0.02995709  0.10724484]
[ 0.18426426  0.13188492 -0.12374282 -0.1934109  -0.11216234 -0.21650848
 -0.12119368 -0.3558033   0.27448758 -0.30205014  0.21739422 -0.11943664
 -0.25432825  0.18788984  0.13890046 -0.28647193 -0.21170211  0.08411033
 -0.22333744  0.10185236]
[-0.28489357  0.18667927 -0.18567373  0.19691466  0.30522788 -0.04208865
 -0.3063502  -0.05938213 -0.00204235 -0.023204   -0.19380741  0.2706604
 -0.27100003 -0.08550441  0.10983801 -0.18688929  0.18959981 -0.08994047
 -0.31984285  0.16149834]
[ 0.25948948  0.11715138 -0.23506437  0.04104956 -0.30830187  0.00841206
  0.17826234 -0.10304389 -0.02943497  0.12999399  0.03889623  0.21678649
  0.0771648   0.26164144  0.24122705 -0.16749614 -0.32720667 -0.29380906
  0.26195285 -0.23868296]
[ 0.0154019  -0.05552301 -0.02194386  0.03857343 -0.07238154  0.06789207
  0.02300592 -0.07115307  0.00186366 -0.06297044 -0.03200303 -0.00444836
 -0.03398915  0.01553801 -0.02506279 -0.09077391  0.0295852   0.0136172
  0.02534375  0.04357756]
layer 5 Activation
tanh
layer 6 Dense
20 1
[0.01153936]
[-0.02098384]
[-0.04640135]
[0.01673085]
[-0.09035113]
[0.07635868]
[0.02816532]
[-0.15372284]
[0.01623221]
[-0.06006252]
[-0.17643555]
[0.30229437]
[-0.02657397]
[-0.00172004]
[-0.21282984]
[-0.27878603]
[0.0077578]
[0.0296191]
[0.23518595]
[0.06404958]
[0.06155584]
