layers 7
layer 0 Dense
20 20
[ 0.23536606  0.6066461  -0.02023192  0.44894743 -0.14029966 -0.17483085
  0.60215855 -0.50021696 -0.12420157 -0.24017149  0.39461496  0.08480935
  0.17413434  0.22027433  0.1358269  -0.10305055 -0.29829666  0.4526685
 -0.18329261 -0.1931985 ]
[-0.32330364 -0.26475286 -0.15590796  0.26092148 -0.33331275 -0.0695383
 -0.05265898  0.13521135 -0.15001312 -0.14793761  0.23378503  0.1395852
 -0.27205718 -0.16446531  0.37086326 -0.11852437 -0.26556426 -0.38324687
 -0.1667724   0.1396485 ]
[ 0.17888314 -0.15125296 -0.04881692 -0.13821846  0.18337     0.33819252
  0.04346976 -0.08552071  0.14281619  0.354661   -0.34193417  0.29757392
  0.19004387  0.0888114   0.21375483  0.0472984  -0.25957358 -0.3020784
 -0.23791756  0.33121163]
[-0.04809313  0.03144169  0.34385106 -0.13620803  0.25183392 -0.10503929
  0.7445879  -0.27829555 -0.3731242  -0.35035062 -0.11891608  0.39409155
 -0.01115235 -0.31430668  0.40048164 -0.35448417  0.3801352   0.32615858
 -0.24278459 -0.21039273]
[ 0.31836793  0.459133    0.39715883 -0.28243977 -0.21738335  0.16123578
 -0.08358806 -0.49952933 -0.5279544  -0.6951343  -0.13371614 -0.12144141
  0.43581477  0.17799672  0.03313046 -0.10218073  0.03244805 -0.30107123
  0.4695013  -0.12675837]
[ 0.2697878  -0.16645457 -0.1498953   0.02319366  0.18436038 -0.01209319
 -0.2734623   0.17401361 -0.19693026  0.37098324  0.0294812   0.14785552
  0.3289982   0.05256709 -0.22971176 -0.01549274  0.05219635  0.32920122
  0.27519572 -0.23306783]
[-0.20158581 -0.30595303 -0.29338735  0.03906673 -0.36188248  0.2791283
 -0.28582457  0.12193078  0.3256703   0.04236454  0.20301926 -0.00122157
 -0.14434433  0.1041601   0.25809562 -0.12126741 -0.16213042 -0.21652019
  0.30089974  0.04546899]
[-0.37144628 -0.71788424 -0.3686938  -0.5812082  -0.18966138  0.09344418
 -0.09266254  0.67776513 -0.00153171  1.2739121  -0.07393373 -0.08929289
 -0.68174386 -0.00787917 -0.05796821 -0.0715722  -0.62305313  0.01854943
 -0.09218382  0.05066491]
[ 0.01106229  0.20334013 -0.31071842 -0.07868364 -0.00568454 -0.3484034
 -0.6252416   0.16645272  0.20202479 -0.08374174 -0.07954798 -0.11468971
  0.5444823  -0.0711397   0.4308159  -0.0209661  -0.43935978 -0.11134028
 -0.50572246  0.08060496]
[ 0.5828094   0.15984969 -0.10181609  0.4561675  -0.18003692 -0.62971157
 -0.17514214 -0.10453299  0.41158316 -0.26660523  0.10621583 -0.42210394
  0.12530085  0.10001668 -0.20683052  0.19638033 -0.06579819 -0.3186745
 -0.26398605  0.28362364]
[ 0.02964831 -0.07654046  0.41983056 -0.08394442  0.3383684   0.00390708
  0.08318803 -0.04625092  0.1522787   0.09162775  0.0635946  -0.09378993
  0.10662728  0.260962    0.5623786  -0.37038234  0.4070057  -0.21259002
  0.01183529  0.18541065]
[ 0.16754466  1.8584615   0.60496    -0.2147241   0.09072839  0.98977774
 -1.0615605   0.3958772   0.27263275  0.6582671  -0.14290105 -0.4650054
 -1.1027489  -0.18903035 -1.2343872   0.4432782   0.4386404  -0.10260008
  1.059218    0.74844337]
[ 0.03689677 -0.18310179  0.77744275 -0.1923643   0.12023804  0.11392728
  0.2124761  -0.16734125 -0.6839259   0.56024826  0.839006    0.21971191
  0.56045514  0.51932484 -0.027576    0.7202404   0.05503551 -0.3415018
  0.59051156  0.19671436]
[-0.4170624   0.64046407  0.2938343   0.54155254 -0.2644429  -0.4522712
 -0.21807867 -0.60437375  0.49549648 -0.04029561  0.56569505 -0.81593174
  0.2511117   0.2511467  -0.21509634 -0.66007286  0.31439582  0.6895229
 -0.30553296  0.12941137]
[ 0.5029813  -0.7929325   0.2744243   0.00133001  0.6457513   0.13214467
  0.09284713 -0.95021206  0.05545905  0.43947828 -0.30448264 -0.02650759
  0.1698559   0.5596167   0.1899422   1.14916     0.73748857 -0.00298046
 -0.13940914  0.02596649]
[ 0.16684358 -0.94327056 -1.6149007  -0.49822363  0.69456345 -0.08317239
  1.512045    0.89557046  0.88087994 -0.03457202 -0.3413688   0.14381455
 -0.9389063  -0.00994685 -0.46499324 -0.4759755  -0.0719853   0.12572306
  0.72934765 -0.3790613 ]
[-0.3049537   0.11160713 -0.24403046 -0.00278633 -0.43935385 -0.1115601
  0.27229303 -0.17285804  0.32168046 -1.0577943  -0.04007855  0.13359578
 -0.600739    0.29112622 -0.01260339 -0.21207467  0.67869467  0.18810381
  0.617744   -0.07125896]
[-0.22560723 -0.9884188   0.02576428 -0.69761103  0.30308816  0.90486455
 -0.30447873  0.35156503 -0.63185513 -0.7971144  -0.75253356  1.1359029
 -0.0870182  -0.7044162   0.23971203  0.73911494  0.01182365 -0.64476
  0.8425802   0.4904702 ]
[-0.9495997   1.523463    0.2546241   0.48777393 -1.3290021   0.69581974
  0.00997067  0.55728036 -0.00770002 -0.34854507  0.61692196 -0.47060958
  0.06860106 -1.248844   -1.0739598  -1.1653012  -1.0238998  -0.9513346
  0.00547941 -1.476504  ]
[-0.21220128 -1.3197145   0.23543467 -0.4338529  -1.148748   -0.65956104
  0.19562234 -0.10212606 -0.53334075  0.5409096  -0.00943912  0.7383312
  0.3909278  -0.15096958  0.6030904   0.12793064 -0.54856116  0.18460068
 -1.2276788  -0.52558094]
[-0.03286317  0.47655663  0.10818329  0.15660053 -0.00727954 -0.085025
  0.34071612 -0.2097783  -0.05936047 -0.3031199   0.01403994  0.12955795
  0.16383359 -0.00544614  0.14155854 -0.09769778  0.03767639  0.01089366
  0.03196432 -0.21023947]
layer 1 Activation
tanh
layer 2 Dense
20 40
[-0.11653712  0.24463268  0.14001848 -0.3066291   0.01963216  1.052548
  0.54400146  0.37932423 -0.14367372 -0.31677967  0.18258855 -0.9777991
  0.25089332 -0.4929758  -0.29080522 -0.37285206  0.54085267  0.1599338
 -0.8047242  -0.34614542 -0.22078766 -0.74551183 -0.17045733  0.37119836
 -0.8218433   0.6074721  -0.4263631   0.1881021  -0.4250402  -0.2559086
 -0.12095578  0.57918704 -0.43947676  0.17266169 -0.21605442  0.5563674
 -0.29423776 -0.86924213 -0.4653782  -0.7237021 ]
[-0.45871347 -0.38064528  0.04085303 -0.38514394  0.92917657  0.09738849
 -0.6053942   0.23368025  0.23276134  0.32403713  0.32914948 -0.5351244
 -0.24666853  0.3581572  -0.35110888  0.6653429   0.30241868 -0.48091108
 -0.1007692  -0.0746353  -0.48704326  0.05667763  0.40538725 -0.31831104
  0.04766019  0.34715724 -0.3361069   0.32979482 -0.440405    0.17345752
  0.04082488  1.1433141  -0.03118182  0.00939884  0.42818335 -0.36715266
 -0.92156154 -0.3294014  -0.51190466  0.5759331 ]
[ 0.08611058 -0.51732665  0.31647402 -0.18972094  0.06906138 -0.11176638
 -0.08474886 -0.7551594  -0.11127199  0.7912943  -0.51526326 -0.45993355
 -0.49837327 -0.76346475  0.448781    0.8152093  -0.23811229 -0.19168249
 -0.89921963  0.18289934  0.37645453  0.5384433   0.02074024  0.7958713
  0.08453353  0.17417674 -0.2892935  -0.01344176 -0.05775715  0.24430555
 -0.51892936  0.6738079   0.09686955  0.18538934 -0.55736184 -0.30796608
 -1.1771158   0.8629272   0.11248054 -0.16497184]
[-0.2508781  -0.09634796  0.36807916 -0.70064133 -0.35564876 -0.28960085
  0.20102772 -0.242438    0.16209812 -0.05768672  0.08563073 -0.4970532
 -0.12812655 -0.38544163  0.00514861 -0.06321321  0.47431368 -0.06211476
 -0.75070024  0.25893724  0.24494903 -0.01777299  0.3833868  -0.44153357
 -0.02163597  0.01061718 -0.19019563 -0.20689142 -0.4784753   0.04760831
  0.3392196  -0.4604358  -0.60722244 -0.36438552 -0.5762614   0.24242628
 -1.1166395  -0.19086128 -0.341589    0.12680873]
[ 0.03085712  0.2905594   0.7330976   0.26377815 -0.14342795 -0.18987267
  0.01548411 -0.334007   -0.10213923 -0.21628411 -0.27932802  0.10837576
  0.26489368  0.02163756  0.36457846  0.5948009  -0.4823585   0.47333947
 -0.1912168  -0.05191102  0.38049352  0.3474709  -0.33240712  0.37638775
 -0.58148354  0.24500768  0.05824906 -0.41310775  0.4196429   0.14328548
 -0.23484331  0.3503715  -0.5224458  -0.23552808 -0.0471976   0.84157574
  0.03614546 -0.05208068  0.29810247 -0.35377586]
[-0.48363394  0.3331125   0.5559614   0.2999455   0.44519374  0.23061149
  0.3121377   0.8136557  -0.49826044 -0.01507255 -0.3215151  -0.10236432
  0.8945593   0.109716    0.14816234  0.8742182   0.19910097 -0.05508406
  0.31655246 -0.08517525  0.10389297  0.08993153 -0.5891466   0.44608638
  0.43326825 -0.75199914  0.05241824 -0.30404377 -0.46095955  0.08307197
 -0.08656508  1.2419524   0.48813912  0.27389193  0.11576901 -0.7498701
  0.55320966 -0.28022358  0.24415049 -0.04218459]
[-0.33912593  0.08109821  0.6741755  -0.5338659  -0.12494925  0.0691582
 -0.40895337  0.03860493  0.5660745  -1.1514379  -0.5643575  -0.8144001
  0.14749171 -0.2098104   0.04183592 -0.51987344  0.05083089  0.42321822
 -0.44295302 -0.2258923   0.15263037  0.00595019  0.29424626  0.03122119
 -0.56388545 -0.88915056 -0.29545385  0.36785707 -0.01207381  0.05375901
 -0.32183427 -0.39068806  0.03343954 -1.1170473  -0.2780621   0.21321805
  0.27540463  0.17134611 -0.19118914  0.35010123]
[-0.343645   -0.6899177  -0.11113661 -0.23359422  0.57180965  1.1153152
  0.2202706   0.29084253  0.18847974  0.2868281   0.15086481  0.63541293
  0.1227309   0.12170614  0.30569902  0.5491314   0.14550245 -0.55105996
  0.77058613  0.56785667  0.72866017 -0.00418967 -0.26603982 -0.62685305
 -0.03421709  1.9531897   0.35000283 -0.18868417  0.4786548  -0.2740702
  0.34900638 -0.16174482  0.38577253  0.29020986  0.49213305 -0.94129914
  0.656198   -0.58844215  1.0866585  -0.56067055]
[-1.014523    0.46327776  0.10390183 -0.89763224 -0.10896381 -0.9218749
  0.4031345  -0.00854932  0.3982425   0.5269887   0.15678899  0.7472911
 -0.50396836  0.22489205 -0.48224667 -0.8969529   0.12162207 -0.18614173
  0.84459585 -0.25652733 -0.06326613 -0.47618562 -0.3769989   0.02539973
 -0.17725375  0.16894303  1.0024295  -0.65198016 -0.87330586 -0.27303082
 -0.57257825 -0.07500041 -0.6449134   0.31314358 -0.11501284  0.44225532
 -0.6634733   0.43009812 -0.82573617  0.27958888]
[ 0.7888698  -0.21779168 -1.0786947   0.2128509  -0.87323505 -0.1588753
  0.02619768  0.42096406  0.06717566  0.6906585  -0.29265884  1.3048487
  0.28406188  0.44911492 -0.10411692 -0.78369    -0.2607947   0.08769292
  0.19583963  0.86869234  0.56849    -0.16141686  0.04106708 -0.01053762
  0.84625244  0.53665423 -0.27616444 -0.00905907  0.5767782   0.017579
  0.42190227 -0.627442   -0.07402577  0.5727862   0.4328006   0.7916634
 -1.3245798   1.4526559   0.29560706 -0.75506747]
[-0.56591225 -0.82738346  0.7100976  -0.59688693 -0.12017477 -0.58602726
 -0.12290193  0.7612379   0.31052294 -0.50257355 -0.6882896  -0.14442949
 -0.7646789   0.5353807   0.23199914 -0.35447776  0.47972548 -0.5824347
 -0.66924775  0.6030447   0.04465986 -0.05712336  0.08282689 -0.06039492
  0.33538678  0.12272739  0.3457743  -0.00540716  0.34929627  0.6269629
  0.45697352 -0.9023751  -0.17960113 -0.24499162  0.67546934 -0.10731856
  0.09327621  0.17262174 -0.04505915  0.7625179 ]
[ 0.8980863   0.419596    0.47105035  0.32901213 -0.39941904  0.8165313
  0.40386367  0.12312386 -0.16240723 -1.2031093   0.12398445 -0.6950426
  0.8290106  -0.57411116  0.04674507  0.20566814 -0.74486095  0.9566364
 -0.67057496  0.10907865  0.37189713  0.8461755  -0.04679113 -0.584877
 -1.1433153  -0.22973754 -0.52299935 -0.42662218  0.32650122  0.18824053
 -0.45257872  0.8284018   0.6534989  -0.18333891 -0.4165457  -0.7451509
  0.88809294 -0.9632582   0.616416    0.12109818]
[ 0.27026424 -0.30198735 -0.4457866   0.3272272   1.4249817  -0.33275956
 -1.0721812  -1.4754105   0.07383825  0.66322446  0.77381915 -0.5699852
  0.31711584 -0.2889972   1.1668637  -0.0980863  -0.94214827 -0.30391616
  0.27822295  0.06666435  0.1390138  -0.22602083  1.4913225   0.940762
 -0.44512022 -0.08096924 -0.46790978  0.7111837   0.426739    0.20915696
  0.7202375  -0.55464005 -0.13680501 -0.5903058  -0.14967254 -0.11027829
  0.390664    1.0446346  -0.11210445  0.74231845]
[-0.47698408 -0.36058578  0.59280586  0.19755204 -0.53553    -0.03518671
  0.2695317   0.5094627  -0.28260806 -0.11949678 -0.23350936 -0.08958955
 -0.5058157   0.13720892 -0.17457932 -0.05436704 -0.08553645  0.5670901
  0.65699357 -0.95355076 -0.3322023  -0.6523589  -0.44872546  0.98890543
 -0.5193783   0.07459159 -0.17351525  0.15616119  0.67179525  0.44781452
 -0.99561197 -0.3307417  -0.32541692 -0.16652346 -0.0777467   0.48339483
 -0.21331969  0.05149623 -0.8300817   0.09866267]
[ 1.2917359  -0.14883216 -0.46481144  0.31296158 -0.42873403  0.2500014
 -0.48600024 -0.74630284  0.18461117 -0.5922456   0.02191152 -0.36891633
 -0.39047045 -0.52185476  0.43453604 -0.33422723 -0.43374354  0.12255891
 -0.14600036  0.35252526 -0.03581191 -0.04022584  0.3044751   0.31946573
 -0.36953172 -0.25209835 -0.21028498 -0.20330791  0.18388194  0.2944864
  0.11362129  0.39099264  0.26214075 -0.65916777 -0.43942168  0.61299956
  0.29254806 -0.24648228  0.26944926  0.13276063]
[ 0.44195503  0.6782413   0.2771286   0.17991905  0.23232791  0.4722761
  0.18044324 -0.25629747  0.35232908  0.72903466 -0.35891664 -0.19858447
 -0.00793757  0.45331308  0.16677406  0.6539005   0.18071055  0.39611986
 -0.03268395 -0.42238244  0.1893274  -0.5618737   0.19147927 -0.0375902
 -0.31779563 -0.02397618 -1.2018474   0.33808026  0.3875937   0.5164128
 -0.41995186  0.42872292  0.17706883  0.08619438 -0.25616044  0.16592279
 -0.4042564   0.76183313 -0.2203152  -0.4661386 ]
[ 6.5445028e-02 -2.8387696e-02  1.7048343e-01 -7.2658956e-02
 -1.4284368e-01 -6.1309522e-01  4.9833972e-02  6.7941494e-02
  3.7645102e-01 -3.4454304e-01 -5.0883240e-01  1.6328290e-01
 -5.6351942e-01 -7.8718722e-01 -7.0179224e-02  5.1743823e-01
 -6.2188381e-01  5.2660525e-01  2.2761087e-01 -9.6158111e-01
  3.2135937e-04 -1.0363102e-01 -2.9512051e-01  5.1074314e-01
 -6.6683680e-01 -9.6845353e-01 -3.8093677e-01 -8.4784940e-02
  7.1290039e-02 -1.3132802e-01 -1.1293635e+00 -1.3113122e-01
 -7.5441509e-01 -5.7360496e-02 -6.5463507e-01  1.1619004e+00
 -2.0249173e-01  6.2528938e-01 -6.9909656e-01  7.9169050e-02]
[-0.1535168   0.0325833   0.20141464  0.5472622  -0.12436549 -0.589152
 -0.15266053  0.1040655   0.40056494 -0.22681977 -0.20881025  0.07824402
  0.26182392 -0.0554218   0.06961232 -0.6569361   0.1091966   0.00535072
  0.3296247  -0.78831613 -0.6658331   0.2865107  -0.4037801   0.03137659
 -0.05488378 -0.18563285  0.44022748 -0.32424888 -0.14640763  0.4704963
 -0.37207624  0.05729907 -0.11016489  0.13321225 -0.49141657  0.5862576
  0.53405094  0.26118943  0.11422585 -0.16007996]
[-1.1693479  -0.28874278  0.5553829  -0.22911704  0.31355307  0.16174445
 -0.35637158  0.526832    0.128215    0.27136782 -0.52083796  0.07343085
  0.1131195  -0.10745258 -0.01010158  0.2769807   0.09955815  0.16689017
  0.30293208 -0.6952067   0.23619927  0.31569135 -0.33222884  0.1141504
  0.15968584 -0.5119753   0.07064263 -0.0966406  -0.46261865 -0.3014748
 -0.32204348  0.23390418  0.33830005 -0.05397041  0.5253156  -0.4410103
  0.16377038  0.24767303 -0.6650855   0.13969846]
[ 0.19840498  0.21263799 -0.19386692  0.1497126  -0.25375542  0.20852087
 -0.33492967  0.8396215   0.05649558  1.2552533  -0.27316487  0.1068233
  0.21717808 -0.26579094 -0.8456336   0.62728554 -0.2681171   0.15593907
  0.4426103  -0.8755286   0.28807095 -0.24599361 -0.02495016  1.0883356
  0.341772   -0.0472713  -0.13772018 -0.60874087 -0.12701061  0.3853833
 -0.92807543  0.7284516  -0.38218218  0.5950913  -0.17081286  0.5758165
 -0.78396064  0.10521501 -0.42924133 -0.15550452]
[ 3.26615036e-01  1.12400278e-01  5.03051877e-01  7.57966787e-02
  1.07937977e-01 -7.50005171e-02 -1.34292528e-01 -6.41318083e-01
 -1.39527455e-01 -4.90528405e-01 -6.58225194e-02 -5.39345682e-01
  1.07213698e-01 -4.84880984e-01  3.97062629e-01 -8.27259496e-02
 -1.28960580e-01  1.97359279e-01 -8.96074951e-01  6.67943037e-04
  1.88062862e-01  1.38535544e-01  3.45473021e-01 -2.67877042e-01
 -1.25364408e-01 -1.49873629e-01 -8.44379142e-02 -5.71855865e-02
  4.37433362e-01 -2.09820159e-02  2.98092693e-01  5.24922609e-02
 -2.46080860e-01 -3.40189666e-01 -4.61758643e-01  2.76764959e-01
 -1.49728954e-01 -1.12439789e-01  2.22518459e-01 -1.24764785e-01]
layer 3 Activation
tanh
layer 4 Dense
40 20
[-0.17997524 -0.01782822 -0.37457767 -0.22159189 -0.18715654  0.00100074
  0.4678359   0.08114658 -0.37615862  0.0288207   0.5434353   0.2206972
 -0.03288785 -0.24022661  0.27459875 -0.33216354 -0.665592   -0.30813137
  0.04314766  0.34044275]
[ 0.29019955 -0.3275362  -0.24058507 -0.23434623 -0.24115616 -0.38802776
  0.03426779 -0.1946098   0.05450992  0.2464805   0.13101602  0.78725994
 -0.18619399 -0.412142    0.19981393  0.00903816 -0.16679284 -0.38370016
 -0.50638604  0.7900412 ]
[ 0.00678881 -0.753054   -0.23372304  0.24274494 -0.27758613 -0.3578928
 -0.29772747  0.01529287  0.26320553  0.34485412 -0.2569689   0.2788099
 -0.28561127 -0.00177861  0.08983042 -0.35112223 -0.40037888  0.01309349
 -0.03452741 -0.6250558 ]
[-0.43488458 -0.19889951 -0.35085106 -0.17908856 -0.17512178 -0.17753153
  0.6073287  -0.34245566  0.2236628  -0.01622116 -0.02242281  0.18671693
 -0.0195964   0.5985189  -0.11304351  0.41202617 -0.5777753  -0.23061998
 -0.19160676  0.05217845]
[ 0.40648565  0.43800747 -0.2012353   0.2892304   0.18793239  0.06370771
 -0.18007013 -0.5511307   0.48960626  0.35268885 -0.21770443  0.6069862
  0.24817607 -0.45692244 -0.36781266 -0.13737859  0.1686238   0.38616902
 -0.2646241  -0.13001314]
[-0.38122332  0.90645826  0.34902748 -0.22681658 -0.03994039 -0.32947233
 -0.00819652 -0.11408769  0.302838   -0.28693083 -0.62253594  0.2668687
 -0.84985656  0.08005963 -0.55992186  0.26010776 -0.37566856 -0.00462243
 -0.69195396 -0.5285779 ]
[-0.6774703   0.2677379   0.68310267 -0.20660913 -0.20602281 -0.13001224
  0.04288421 -0.4651623  -0.64557624 -0.04903403 -0.34582645 -0.26527888
 -0.41424832 -0.00471028  0.23863381  0.38391632 -0.7114775  -0.1640198
  0.01629324  0.3682162 ]
[-0.35310674  1.2105441   0.08747715  0.33738875  0.35823616  0.18073702
 -0.2141557  -0.00799914  0.07752233 -0.13937902 -0.11999214  0.09448436
  0.02653805 -0.56236154 -0.22324982  0.18916851 -0.05334612  0.30132467
  0.56662905  0.55414563]
[ 0.10655308 -0.10832716  0.31671926  0.21340895  0.10176859 -0.16756205
  0.05020396  0.03269158  0.19890939  0.28621772 -0.0215774  -0.23257929
 -0.3268262   0.24979264 -0.41662148  0.26031968  0.11992326  0.13664952
 -0.129572    0.05885156]
[-0.16441481  1.0515302   0.26607716  0.13527384  0.29847977  0.25662664
  0.22227518  0.14988708  0.410816   -0.00206228  0.4825433  -0.28501487
  0.59218943 -0.3245983  -0.09052593 -0.3382046   0.04305772  0.00808507
  0.2548575   0.47933012]
[-0.07949069 -0.18691091 -0.6571264   0.26137242  0.29007307  0.27989495
 -0.39996773  0.24535657  0.28933012 -0.09224384 -0.29393566  0.13547757
  0.30843946 -0.00814049 -0.22626384 -0.05894433  0.02288331  0.27782643
  0.2025937   0.3628037 ]
[-0.43542606  0.61799324  0.4733216  -0.28934827  0.58802867  0.43306875
  0.4749586   0.3312487  -0.09053824 -0.55872744 -0.14614949 -0.428261
  0.1842273   0.34077355 -0.28685352  0.25784147  0.49510399  0.49107206
 -0.0323455   0.25472644]
[-0.13266678 -0.3327914  -0.14008284 -0.14566432 -0.72302467 -0.29083565
 -0.35385567 -0.33636275 -0.1903133  -0.568423   -0.22309816  0.4410826
 -0.23882633 -0.43421933 -0.33520505 -0.8610582  -0.22634217 -0.03079303
 -0.20036039  0.21719836]
[ 0.27396446  0.32931492 -0.29410878 -0.32886627  0.0298275  -0.05552524
 -0.01644852  0.13652627 -0.06725666  0.24138606  0.07490189 -0.13145965
 -0.43969202 -0.29755136 -0.23077437 -0.02816629  0.08034289  0.02145912
 -0.45283195 -0.0034051 ]
[ 0.21375509 -0.63908315 -0.09669692 -0.23123634 -0.01185003 -0.18109357
 -0.40265802  0.34780222  0.46019238  0.13057859 -0.18311898  0.07877855
 -0.07205777  0.20758511 -0.04771559  0.04683803  0.0618316  -0.04112685
 -0.02603672 -0.0782307 ]
[ 0.20142634  0.7110308  -0.07689516 -0.3871298  -0.70774394 -0.33070698
 -0.1181891  -0.53483814 -0.20808603 -0.36007968 -0.2987849   0.38195875
 -0.26223835 -0.02963338 -0.32975748 -0.27569148 -0.4000693  -0.10312815
 -0.28414026 -0.03381866]
[-0.17433487  0.24508083  0.76396793  0.35578743  0.4696442   0.11008073
 -0.45480877  0.3156803   0.48158678 -0.07923321 -0.01870943  0.08742643
  0.0521699  -0.8637843  -0.33033413 -0.569629   -0.36176753  0.34747866
  0.5352381   0.03608558]
[-0.06681062 -0.31519002 -0.19002603 -0.0034414  -0.1364977  -0.10403764
  0.20852283  0.39116535 -0.43061447 -0.11269385  0.08465466  0.1226986
 -0.41132814 -0.70440835  0.47242117 -0.20298058  0.06528571 -0.09236775
 -0.28062233  0.18292868]
[-0.1401437   0.41874126  0.43461812 -0.42145848  0.12362437  0.23270252
  0.34694237  0.4565932   0.11341669 -0.4949026  -0.47353512 -0.46014756
 -0.09048577  0.41938233  0.06065547  0.32882094  0.41454828  0.02575124
 -0.15297475  0.3546167 ]
[ 0.39557332 -0.09524404  0.19922628  0.34644705 -0.4121466   0.6147888
  0.09697168 -0.22905138 -0.22722143 -0.55575573  0.31351918 -0.40251637
  0.21064511 -0.29447964 -0.0966457  -0.30911538 -0.19345267  0.08544894
  0.8171981   0.28487533]
[ 0.42380285  0.86126244  0.01381153  0.03349321 -0.07400258 -0.10516591
 -0.14602724  0.09396889  0.1301727  -0.18802902 -0.01036647  0.27777642
  0.07799264 -0.6007063   0.03596509 -0.05746379  0.1690869  -0.26148203
 -0.2635042  -0.4230833 ]
[ 0.36545032 -0.01903465  0.3449416  -0.0450832  -0.01212955  0.16747333
 -0.14633204  0.01565657 -0.4004168   0.31652415  0.03890823 -0.13302395
 -0.19106622 -0.46568322 -0.3021911  -0.27686173 -0.49845994 -0.12037258
  0.205136   -0.10910966]
[ 0.5847303  -0.6037954  -1.2506377   0.28385293  0.17313842 -0.10214797
  0.19121784 -0.08580726 -0.41559446  0.12239874 -0.00816836 -0.3771275
 -0.27178216  0.32711944  0.0593381   0.14079946  0.20074898  0.5071082
  0.25779912 -0.6016237 ]
[ 0.61450946  0.83187026  0.13121326 -0.15307371 -0.5551327  -0.15707551
  0.28078097  0.15598495  0.8041528  -0.07099824  0.24738273  0.21868716
 -0.30730656  0.33904788  0.4658256   0.31350777 -0.02874505 -0.51704
 -0.11001674  0.02759725]
[-0.1659004   0.42623404  0.3949949   0.19806543  0.34182265  0.4245873
 -0.29780596  0.143087   -0.07366191  0.09974676  0.42807564 -0.44929573
  0.6930845  -0.40172064 -0.18503654 -0.36307722 -0.4480633   0.10694857
  0.14972532 -0.15129986]
[-0.6860529   0.4213154   0.41888088 -0.03374707 -0.06010256  0.1673693
 -0.092336    0.00085712  0.04557081 -0.23141946  0.00732984 -0.04836948
  0.12418071  0.13164559  0.45509648 -0.41649267 -0.25093648 -0.05287232
  0.10286139 -0.4852724 ]
[-0.56456214  0.28786445 -0.07143445  0.16091312  0.08598474  0.4821329
 -0.33164957 -0.16882715 -0.09340563 -0.50237656  0.04629242  0.45705688
  0.5682045  -0.41918424 -0.29078224 -0.6390287   0.00839508  0.49341854
  0.43045565  0.44337818]
[ 0.3740999  -0.4030143  -0.8229436   0.08498269  0.27196366  0.12623845
  0.05535661  0.0130328   0.508708   -0.04862505  0.05950398 -0.28727752
 -0.4969164  -0.16246788 -0.2956092   0.04724879  0.30739278  0.18046457
  0.11386406 -0.1211604 ]
[ 0.13897532 -0.11532997 -0.2240698  -0.07201327 -0.3473771  -0.44312465
  0.05907087 -0.08970217 -0.46095666  0.37169108  0.31728065 -0.4064061
 -0.2960896  -0.15219945  0.05779274  0.13662945 -0.18816149 -0.03108378
  0.05002382 -0.5080227 ]
[-0.14097428  0.10593569 -0.5952136   0.04377365  0.4908203   0.06324561
 -0.01436831  0.5468013   0.02321001  0.07465335 -0.15313828  0.08334769
 -0.10691456 -0.09706751 -0.21564028 -0.37409517  0.09248081  0.4663967
 -0.1245141  -0.36183506]
[-0.03849587 -0.4038144  -0.27907363  0.47703877  0.06054237  0.32448193
 -0.612526   -0.33773154 -0.14712155 -0.19856447  0.30422422  0.07739995
  0.21236499 -1.0033532  -0.35319358 -0.42533633  0.00860298  0.5572303
  0.61889845 -0.31517157]
[ 3.3302906e-01  2.5474414e-01 -7.9363875e-02 -2.0723966e-01
 -2.2248434e-01 -1.8236293e-01 -5.2348393e-01 -1.5674962e-01
 -2.2701499e-01 -2.2413290e-01 -5.3164387e-01  6.5480417e-01
 -5.6284273e-01  4.0616336e-01 -2.5730681e-01  4.1021818e-01
 -4.9061069e-01  2.2633187e-04 -5.9732425e-01 -2.9266524e-01]
[ 0.18917294 -0.03402007 -0.21839756 -0.49720985 -0.08860782  0.53113747
  0.3100713  -0.19463645 -0.04381956 -0.3207512  -0.35446194  0.07872418
 -0.1878781  -0.02470337 -0.18774498 -0.08848323  0.2812974   0.34459105
 -0.5269341  -0.0760735 ]
[-0.45204374  0.74762595  0.2956723  -0.01820247 -0.88396704 -0.18294066
  0.25898284 -0.22231326 -0.00866206  0.06454135  0.42133152 -0.517746
  0.2527463  -0.11204716  0.5933363  -0.07256817 -0.41401166 -0.2456504
  0.16733006  0.3305091 ]
[-0.18111636  0.5003183  -0.02661509  0.10876589 -0.02436173  0.14558136
  0.13318717  0.41337457  0.4683442   0.1449912  -0.16208856  0.15832572
 -0.21314545 -0.26698846 -0.54047394  0.25359264  0.13405351  0.32314065
 -0.30317152  0.04226864]
[ 0.42139488  0.23830771 -0.12953731  0.43607578 -0.59134203 -0.36500782
 -0.23501739  0.24584208  0.05831782  0.46996853  0.46807408 -0.21359672
  0.022251    0.13774337  0.02811977  0.5666004   0.24815519 -0.61630595
  0.851572    0.10494795]
[ 0.20423788 -0.32227948 -0.31915143 -0.22303319 -0.5169555   0.4101474
 -0.15887387 -0.6434708  -0.89539236 -0.2719997  -0.34292692  0.42803794
  0.8734994   0.17031267 -0.13570409 -0.24071786 -0.5306482  -0.01442921
 -0.28931022  0.18147424]
[-0.13977881  0.17190868  0.2924378   0.09946332  0.22873984  0.30540428
  0.45417422  0.38005105  0.2974783   0.0044246   0.2790093  -0.34354597
 -0.37818632  0.2900466   0.39190236 -0.21659605  0.1955433  -0.09092549
  0.04883032 -0.59293586]
[-0.41686016 -0.22476338  0.07956959  0.1006443  -0.5792344  -0.25871906
 -0.05987855 -0.38132536 -0.23174185 -0.28091142 -0.16185124  0.54970497
  0.5638048   0.12255883 -0.22241153 -0.28078485 -0.46525833 -0.747718
 -0.32416335  0.17003566]
[ 0.46957922 -0.46670446 -0.58367324  0.25794816  0.27285194  0.07851637
 -0.03980277  0.2362906  -0.16384712  0.16614957 -0.21922734 -0.5613132
  0.10460331 -0.7267534  -0.2500448   0.01536132  0.37896356  0.32270202
  0.02381632  0.3852624 ]
[ 0.04829641 -0.3815852  -0.3071739   0.22231391 -0.08454267 -0.18782043
 -0.20596562 -0.15377049  0.03774987  0.10019445  0.17173631  0.03104353
  0.0843522  -0.12337505  0.09231994 -0.22058494 -0.1866669  -0.20251481
  0.11883315 -0.2564048 ]
layer 5 Activation
tanh
layer 6 Dense
20 1
[0.91987646]
[1.0680586]
[0.70853186]
[0.71028054]
[-0.4989771]
[-0.5233777]
[-0.4213969]
[-0.407722]
[0.19346741]
[0.4745101]
[0.54299855]
[0.32459906]
[0.29232818]
[-0.23478647]
[0.35640603]
[-0.35396203]
[-0.38866377]
[-0.43161988]
[0.4519126]
[0.9188524]
[0.37687942]
