layers 7
layer 0 Dense
20 20
[ 0.14649124 -0.06708389  0.01070399 -0.06337514  0.26500097  0.33726987
  0.33040282 -0.1557632  -0.08955451 -0.05559285 -0.12064785 -0.14098492
  0.19890651  0.00744339 -0.01701706 -0.02295598 -0.13720159  0.1635964
  0.0335772   0.04365572]
[ 0.01464149  0.4376481   0.0431788   0.2395814   0.03783604  0.4705981
  0.05510648  0.24877244 -0.24087949  0.05888942  0.01349775 -0.05087197
 -0.0721287   0.09960694  0.06502549  0.76773363  0.36331862  0.21676427
 -0.13205636  0.00573879]
[-0.45680127  0.4990474   0.22177437 -0.3470788   0.39413124  0.2908414
 -0.17586458  0.7704317  -0.4071073  -0.2822202  -0.08950118  0.18135539
 -0.11509001 -0.31722382  0.5437473   0.09885436  0.11047715  0.06068528
 -0.41837123 -0.7247996 ]
[ 0.23289967  0.3157371   0.08200011  0.43838146  0.10869692  0.02673998
 -0.08176919 -0.24196394  0.34563065  0.15918587  0.21237901  0.12868255
 -0.24075386  0.04611391  0.5761834  -0.13538292  0.26702842 -0.32573408
  0.02306544  0.11871739]
[ 0.24033245 -0.30517218  0.24634114 -0.31757998  0.09785359  0.47653353
 -0.00249496 -0.30079603 -0.08171493 -0.34112307  0.26480588 -0.05441073
 -0.09299758 -0.29833788 -0.24573518  0.18938564 -0.05153738 -0.26938292
  0.02902986  0.25910568]
[ 0.1122165  -0.47704902  0.07041986 -0.22021827  0.05488518  0.17314169
  0.2726641  -0.04516232  0.1938156   0.35959238  0.00947075 -0.00535362
  0.17035043  0.4555232  -0.08151472 -0.07327834  0.13068384  0.17507248
  0.34752056  0.36102214]
[ 0.2800042  -0.42943802 -0.08445993  0.38243902 -0.10839035 -0.21572894
  0.35763252 -0.79898554  0.3680309  -0.07358159  0.35957766 -0.4747573
  0.37650946  0.02224175 -0.15555006 -0.30973706 -0.21763675  0.34551975
  0.16153325  0.10287467]
[ 0.0208742   0.24196777 -0.29331142  0.35895437 -0.13143104  0.1190766
 -0.14197053  0.35786587  0.03944349  0.3442061   0.18648769 -0.21530403
  0.08017984  0.08918733 -0.6496318  -0.02730611 -0.19366643 -0.0937774
  0.05292747  0.2191979 ]
[-0.50365055  0.5530707   0.05924929 -0.22616327  0.45361665  0.24719907
  0.33918354 -0.2706977  -0.22643015 -0.47768894 -0.2441309  -0.46489266
 -0.37671995  0.12996507 -0.3431076  -0.14045025  0.08984642  0.09506761
  0.05321354  0.3544432 ]
[-0.1532282   0.35278982  0.01538424 -0.20227192  0.01166889 -0.52927476
 -0.39368066 -0.03286568  0.23601556  0.06003439 -0.2533485   0.03876279
  0.0414455   0.08566457  0.4210556   0.35291937  0.21448363 -0.11293106
 -0.2307661  -0.36671278]
[ 0.09545866 -0.24715173 -0.11917353 -0.02447021  0.2885073  -0.47620055
 -0.05431303  0.09725275 -0.30688637 -0.01116781 -0.20950037  0.04621288
 -0.07941673  0.10804018 -0.3594698   0.50240606 -0.04972536  0.18791617
 -0.2708291  -0.2870316 ]
[-0.42266232  0.22540262  0.2448634   0.4111294   0.3733197  -0.1634461
 -0.1862488  -0.16073255  0.6219278   0.52219045 -0.6766854  -0.48419133
  0.1482742   0.19396932 -0.10073109  0.09150069 -0.6636886  -0.62717265
  0.06678294  0.6776791 ]
[-0.17468196 -0.2228451  -0.3279482  -0.02305056 -0.0369199   0.12745872
 -0.20596765 -0.14273125 -0.27666843  0.06206841  0.2299994   0.4268896
 -0.1588406   0.17934455  0.28083652  0.51026356 -0.22967055 -0.04889156
 -0.4517478   0.42577764]
[ 0.31115124  0.04932451 -0.17839897  0.10602513 -0.10782558  0.32739624
  0.5086864  -0.31871814  0.13714512 -0.40466142  0.08647215 -0.16877806
 -0.25893804  0.31783602  0.07257632  0.39908367 -0.12666358  0.10994824
  0.08686513  0.46167397]
[ 0.1602776   0.17422879 -0.19807076  0.07554383 -0.14970748  0.20616223
 -0.20608729  0.02079418  0.10045625  0.11864558 -0.1940257   0.01647575
  0.3325511   0.19717324  0.5324417   0.38627592  0.33611268  0.05040236
 -0.4404837   0.06225267]
[ 0.4512502  -0.08110673 -0.03235707 -0.3725127  -0.2958074  -0.3347449
  0.08425167 -0.06335828 -0.8119236  -0.452635    0.6259422   0.23724446
  0.00714064  0.07850994 -0.12845163  0.0750291   0.02790183 -0.28573117
 -0.377211    0.8362372 ]
[ 0.16837199  0.06750636  0.08053401  0.5115453   0.09191513  0.29004997
 -0.40058815 -0.2591766   0.41027436 -0.16608575  0.28995734 -0.1385308
 -0.06027484 -0.0423749   0.37513632 -0.31482083  0.13339065  0.42972395
  0.14081511 -0.4003577 ]
[-0.39856288 -0.06851099 -0.15438879  0.02968715 -0.41421965  0.30089802
 -0.12740773  0.09955744  0.31707382  0.09322266  0.43052134 -0.0633554
  0.36122206 -0.2702494  -0.40113372 -0.3184643  -0.11110105 -0.18018614
 -0.18762851 -0.22912814]
[ 0.15451898  0.10835858  0.03643934  0.16941895  0.18421    -0.33846432
  0.23673142 -0.6567466  -0.18684815  0.45689243  0.3300742  -0.28806007
  0.14477749  0.09560347 -0.00896706 -0.8396591  -0.44340464 -0.22015236
 -0.2586828   0.04263316]
[-0.28415212  0.02895133  0.14246005  0.07310767 -0.27129954  0.10320795
 -0.29664287  0.35401383 -0.45541912  0.264178    0.1268089   0.06939825
  0.03786393 -0.0315959  -0.23589969 -0.7262885  -0.5107058  -0.18096767
  0.34791487 -0.7460125 ]
[ 0.03008486  0.05333744  0.06108038 -0.03317265 -0.17060225  0.09197392
  0.00101938  0.06538036  0.14989793 -0.02328201 -0.13666908 -0.06408186
  0.05259145 -0.0806582   0.17821307  0.14501819  0.01390477 -0.03117041
  0.04957248 -0.08980848]
layer 1 Activation
tanh
layer 2 Dense
20 40
[-0.10021257 -0.3623256  -0.04175577 -0.23947263  0.03659894  0.19760978
 -0.26575923 -0.01912178 -0.2824177  -0.01400767 -0.08737822  0.16894136
  0.1272312   0.08190779  0.24348968 -0.20568654 -0.17974268 -0.20538448
  0.08812883  0.14366789  0.12315321  0.17808881 -0.00540671 -0.22710964
  0.15896292 -0.01523983  0.29874924 -0.03337419  0.08668036 -0.12726116
  0.11104068  0.04466163  0.13695541  0.03143638  0.06388394 -0.01334108
  0.05611015 -0.17401335 -0.06064426  0.04000361]
[ 0.01972592  0.32297203 -0.25911817  0.04005281  0.08541396 -0.13436083
 -0.103742    0.09400272 -0.0913377  -0.02874146  0.19925474 -0.01497101
  0.20684323 -0.12531708 -0.21455614 -0.17072664 -0.3134162  -0.13118124
 -0.10261815  0.20091222 -0.2297604  -0.211479    0.13348208 -0.28925008
 -0.09845594 -0.1429656   0.01755527  0.0441902   0.06470432  0.0068771
  0.15507826  0.24199593 -0.03456885 -0.22236484 -0.0160184  -0.07600354
 -0.01093913  0.11718795  0.09710477 -0.21645951]
[ 0.18747717  0.00501651 -0.07361659  0.07237243  0.18236826  0.20685701
 -0.07615073  0.2507514   0.05867205 -0.00239482  0.11696707 -0.11459859
  0.06041331 -0.07999856  0.05051789 -0.01229229 -0.03425274  0.10891762
  0.04568321  0.27938706  0.14297934 -0.08812569  0.14036073  0.20770422
  0.03372812  0.01043988  0.09357353 -0.00345941  0.11190952  0.12606004
 -0.04576541  0.08687999  0.06299426 -0.06052178  0.00831033 -0.1331619
 -0.11665355  0.06719375  0.00521202 -0.2245706 ]
[-0.20006837  0.22399044 -0.10636953  0.08241996 -0.24287735  0.35073245
  0.19160558  0.2130526   0.22106843  0.16356562  0.02618811 -0.00705129
  0.01608299  0.1295243  -0.0342161  -0.12697627 -0.10805669  0.15832086
 -0.06647699  0.03245139  0.23130476 -0.1180076   0.15559907 -0.27730185
  0.04917084  0.10731651 -0.3150586   0.01437126  0.30754536  0.21787767
  0.04709313 -0.11082163  0.12732555  0.06586267  0.00770736 -0.04390405
 -0.08662086 -0.04713896  0.11992302 -0.08885422]
[-0.0030349   0.11178538 -0.14563523 -0.05487688 -0.05394153  0.20958355
  0.10797966  0.15405652 -0.04306489 -0.00376978 -0.02252345  0.10717006
  0.01008388 -0.03674758 -0.22496192  0.12692216  0.3420283   0.15932463
  0.11950157  0.0069191  -0.19205292  0.06490465  0.08523396 -0.16033298
  0.02711801 -0.07393123 -0.07356301  0.24138744 -0.10002599 -0.01860169
 -0.01944591 -0.1891683  -0.28825408  0.04370249 -0.15511045  0.02357518
 -0.12383479  0.13457818  0.03504212  0.0790683 ]
[ 0.16662267  0.12334283 -0.02931117  0.00176504 -0.09461727 -0.203258
  0.03758358  0.07839218 -0.18901303  0.2644802   0.06802867 -0.16904756
  0.14198762 -0.23305218 -0.00611053  0.23088692  0.17927767  0.3255291
 -0.067111    0.02407701  0.20257887 -0.09210734  0.08493759  0.26301616
  0.06483653 -0.06227391 -0.03925436 -0.20022686  0.30783024  0.08662376
  0.33021182 -0.15141696  0.13737316  0.36282033 -0.14385122  0.00078901
  0.02547747  0.1584285  -0.33342823  0.19344273]
[ 0.13832954  0.0459399   0.2266546  -0.26793715 -0.00368555 -0.04982467
  0.1975605   0.04431839  0.23761947 -0.15079576  0.18990129 -0.13496414
 -0.1190835  -0.2273351  -0.08377846 -0.06348582 -0.16380239 -0.11022165
 -0.073575    0.20810424 -0.0120809  -0.16924085 -0.27715075  0.03302832
 -0.10770214  0.18859786 -0.06521282  0.009558    0.01051049 -0.14239709
  0.10727249  0.15430811 -0.16901784  0.07837455  0.08988449 -0.01401917
  0.06231117  0.09508598  0.10103844  0.15280989]
[-0.14803125  0.03054225 -0.1110694   0.2205991   0.13781402  0.1867779
 -0.00646327 -0.3540903   0.1524709  -0.0460018   0.05322535 -0.23391977
  0.027845   -0.1285453   0.05004326 -0.22414438 -0.2179111  -0.15902378
 -0.12596981 -0.18366565  0.05639759  0.17509627  0.10844877 -0.11951295
 -0.25324142 -0.10590784  0.1262113   0.11874217 -0.00197151 -0.12255615
 -0.13138297  0.033759   -0.06196181  0.16846265  0.20973037 -0.26731065
 -0.0310175   0.03525343 -0.19898775 -0.11818734]
[ 0.1881132   0.15786815  0.24515137  0.19648741 -0.01614821  0.05015629
 -0.09371392 -0.27601677 -0.00540093 -0.15537882 -0.00445502  0.12269069
 -0.04311552 -0.23850591 -0.05628113 -0.36777735  0.2992497  -0.13132112
 -0.08282398  0.24480073 -0.12291198  0.08695435 -0.14885181 -0.08860371
  0.07391176  0.00410485 -0.24995118 -0.20759594 -0.4291277   0.12767506
  0.10575896 -0.25948173  0.04867862  0.10599393 -0.04124421  0.14089853
  0.02278387 -0.00904075  0.02895242 -0.19863574]
[-0.26180214  0.07476576  0.10749678  0.18465257  0.02932157 -0.00433962
  0.15216121  0.20162113 -0.09184007  0.08760141 -0.0178792   0.0148678
 -0.00967484  0.06221142  0.10104332 -0.34509706  0.21488926 -0.0314281
  0.11087424  0.09315095 -0.0475266   0.05060365  0.04066939 -0.01388174
  0.14005803 -0.11853727 -0.19765662  0.29667485  0.15597677  0.19680393
 -0.08094091  0.07689462  0.2865455  -0.08410223 -0.09004663  0.17546923
  0.31752422  0.3095855  -0.07258333  0.30164853]
[ 0.16628021 -0.30528978  0.21958286 -0.07755081  0.02532008  0.03859724
  0.05407435  0.09808668  0.20155142 -0.24190436  0.0009722   0.21348837
  0.09463586  0.20339979  0.21818216 -0.0223721   0.03103497 -0.22225064
 -0.00626588 -0.15887235 -0.03760843  0.26112434 -0.22277634  0.23334813
 -0.05839403  0.30008197  0.03361054  0.20945624  0.13671076  0.21880874
 -0.1539234  -0.19638322 -0.04838884 -0.29219902  0.16632962  0.2148224
 -0.16206433  0.18112667  0.18740723 -0.09962373]
[ 0.22948205  0.07260238  0.03275207  0.14294626 -0.06813794 -0.0118456
 -0.10336269  0.02542504 -0.1393196  -0.01946912 -0.3024278  -0.19060183
  0.20092985  0.36182633  0.36967677  0.11355247  0.25514418  0.05976796
 -0.10586052 -0.03207169 -0.16418675  0.10989011 -0.18549958  0.01212387
  0.16659269 -0.09805307 -0.11207827  0.0077077  -0.01947398  0.0024968
 -0.19830771 -0.04793156  0.13427398 -0.2164589   0.15485644 -0.03577156
  0.02861652 -0.1198947   0.21390562 -0.17104308]
[-0.11273154 -0.19805014  0.15835355  0.02774668  0.05170596  0.26464024
  0.14818968  0.31715265 -0.1786272  -0.18912564 -0.0323882   0.0529188
 -0.00336735 -0.03618971  0.26640892 -0.08066291 -0.01815067 -0.03961592
 -0.08979347 -0.02488309  0.17301446 -0.00762584  0.0689653  -0.12075666
  0.29130664 -0.13745457 -0.0181072  -0.1752766   0.20495825 -0.00666475
  0.10679311 -0.10800238  0.13562335  0.01249712 -0.14722286 -0.05085989
 -0.03108669 -0.2580447  -0.06640116  0.3253274 ]
[ 6.43939748e-02  1.43492788e-01  3.76083404e-02  1.49408713e-01
  1.97382703e-01 -1.26945540e-01 -6.93286061e-02  1.98196188e-01
 -6.83339164e-02 -6.78072358e-03 -2.85216549e-04  1.35419577e-01
  1.52733535e-01 -1.15439385e-01 -1.54232591e-01 -7.44107598e-03
 -1.58127934e-01 -9.55481902e-02  9.48441774e-02 -1.99263319e-01
  6.07316196e-02 -1.50759250e-01  9.71075445e-02  2.02718168e-01
  1.89243004e-01 -2.09795624e-01  5.20355813e-03  4.43630852e-02
 -1.39860377e-01  3.08936179e-01 -1.08087569e-01  1.93080395e-01
  3.44503224e-02  2.25032985e-01 -2.09574014e-01 -1.34019345e-01
  1.47033930e-01  1.47470385e-01 -1.84431955e-01  1.16250524e-02]
[ 0.08622886 -0.10926309  0.20798226  0.09313488 -0.04281253 -0.13004386
  0.04814977  0.20467855  0.18484935  0.07907907 -0.1075697  -0.22219421
 -0.00969735  0.0897901   0.18071546  0.12004203  0.20054872  0.2086729
 -0.02489568  0.32886928 -0.29712853  0.10612307  0.03694387  0.28163514
 -0.24802141  0.24079192  0.0320142   0.19376853 -0.04798485 -0.251743
 -0.31770623 -0.10471213 -0.32826495 -0.01934725  0.4076301   0.06397805
 -0.00718315  0.25271735 -0.07205553  0.12157653]
[-0.10329601  0.04788624 -0.23944408  0.1680446  -0.08841008  0.11186533
  0.33650187 -0.01289679  0.15955688 -0.08112584 -0.02432088  0.11061533
 -0.13192497  0.1438087   0.2745942   0.07323079  0.3717221   0.14542057
 -0.28489155 -0.05337327 -0.19712609  0.07223231 -0.02018289  0.1564188
 -0.03226328 -0.06366119 -0.06478196  0.3324754  -0.42924342 -0.01362826
  0.19771597 -0.11683029  0.02008117  0.0563512   0.2886445   0.01618074
 -0.15739587  0.26236987  0.15014891  0.01298658]
[ 0.01121967 -0.10600124 -0.16688901  0.23169272 -0.02149652 -0.21784492
 -0.17989765  0.00100494 -0.00397265  0.17086643  0.24204618  0.07097913
  0.10850282  0.02235059  0.03678995  0.0712697  -0.0156309  -0.16652402
  0.00921774 -0.14949082  0.26675388  0.12186709 -0.19827956 -0.20480809
  0.13140671  0.00170556  0.12292292 -0.20767723 -0.03760472  0.00115647
  0.19756337 -0.21726438  0.05339546  0.12219379  0.11136123 -0.15223086
 -0.45680434 -0.14537258  0.1585308  -0.31199774]
[-0.18273456  0.00121447  0.2130544   0.00132592 -0.01258361  0.087123
  0.06757923 -0.150674   -0.01013706  0.12802652  0.208884   -0.00820489
  0.03706036 -0.05917076  0.23708446  0.11499457  0.3403789  -0.18453108
  0.21225108  0.04823221  0.20916437 -0.16281542 -0.00776189 -0.01123161
  0.15440129  0.30195037 -0.03176445  0.19069706 -0.16096422  0.16037533
 -0.1548934   0.07874318 -0.13173309 -0.05809301 -0.17531554 -0.31213668
 -0.07184485  0.18506195  0.13596681 -0.06286965]
[-0.16048035  0.09517378  0.12828197  0.16659366 -0.04291511  0.11671354
 -0.15960646  0.16166349  0.01548843 -0.13048133 -0.09777419  0.07501261
 -0.26535863  0.18194917 -0.18983491  0.17801267  0.02017661  0.1002418
  0.09107822  0.15204448  0.12753221  0.02241131 -0.1460813  -0.15177678
  0.09034096 -0.06963724 -0.19643848 -0.12152182  0.18068954 -0.02811019
 -0.27030817  0.19452319 -0.35859153  0.10050943 -0.22520855  0.10022541
 -0.0108587  -0.06395364 -0.11335257 -0.19772367]
[-0.17974615  0.09771508  0.06315532  0.20544575  0.2187977   0.2672649
  0.15555239  0.04873113  0.20468464 -0.28968868 -0.02700973 -0.05803619
 -0.13053848 -0.0003843   0.00389023 -0.34160316 -0.30569187 -0.2509282
 -0.16097169 -0.11476148 -0.12075276  0.22308634  0.27493098 -0.19172259
 -0.11606723 -0.12757054 -0.07708092  0.13545081  0.01810153  0.12112463
 -0.16891214 -0.02542136  0.1250051  -0.0984963   0.01918785  0.18016648
  0.0020897  -0.24516019  0.15404266  0.04077218]
[ 0.00827604  0.04462069 -0.0087479  -0.039639    0.08344731 -0.00200237
  0.02964651  0.00766831  0.0365767  -0.08816568  0.0002088   0.06513391
 -0.00384984 -0.03078879 -0.02225769 -0.11832671 -0.02640289 -0.0086064
 -0.04660323  0.04274615 -0.06198858 -0.03760447  0.0659302   0.00765146
 -0.18936309  0.03741501  0.0245495  -0.0119457  -0.01858236 -0.05390266
  0.07442287  0.00475352 -0.02528153 -0.08893289  0.10404179  0.02029041
 -0.06291297  0.01442175 -0.02471247 -0.0524458 ]
layer 3 Activation
tanh
layer 4 Dense
40 20
[-0.14623532 -0.12939206 -0.02737733  0.13167924 -0.00705781  0.09465112
 -0.13679565 -0.01190266 -0.04908426 -0.01830492 -0.0898096  -0.1653361
 -0.0756789  -0.07048488  0.20360057 -0.24390106  0.13685076 -0.2512525
 -0.16733508 -0.32060117]
[-0.3578768   0.04841141  0.01490363  0.04765178 -0.28318897  0.09629358
 -0.22738779 -0.12927572 -0.02630112  0.12750907  0.0941612   0.05974396
  0.17778997  0.0009161   0.07599667 -0.02824912  0.1908135  -0.12326618
  0.18133701  0.08936252]
[ 0.18466324 -0.17946394 -0.05248418  0.49488878 -0.19400565  0.21007085
  0.04111679 -0.1991649   0.05783806  0.10558311  0.02451955  0.03349295
 -0.04908517 -0.1806601  -0.17191057 -0.22723697  0.18510671  0.01131926
  0.06865638 -0.19535266]
[ 0.299576   -0.03693093  0.28572688 -0.11114196  0.1464862  -0.1853748
 -0.04128619 -0.00292583  0.11637444 -0.15684296 -0.05763258 -0.02019211
  0.19259015 -0.15692712 -0.21354815  0.24747646 -0.08081792  0.2521096
 -0.0545142   0.07824351]
[ 0.04708055 -0.1850851  -0.11302356 -0.12474264 -0.10905411 -0.23578112
 -0.06519382  0.12581778 -0.04575811 -0.02813717  0.18302329 -0.17618196
 -0.0039269   0.01257096 -0.16702202 -0.08494146 -0.05136246  0.02521847
 -0.08821134 -0.06146171]
[ 0.15886414  0.04735814  0.23882435  0.01522277  0.10249872  0.17042741
 -0.00526612  0.18863805  0.14722905  0.04927404  0.08229692 -0.1198992
  0.1248519   0.05659238 -0.05503456  0.17484662 -0.14037675 -0.23610543
  0.06010489  0.2748595 ]
[-0.21328257  0.02461293  0.00580811  0.21750642 -0.08593012 -0.28417203
 -0.07592451  0.10748207 -0.04294754 -0.11126046  0.22362116  0.04389594
  0.10785647 -0.17920506 -0.3054049   0.2939737   0.30003026  0.04452715
 -0.1736543  -0.07876447]
[-0.04301417 -0.1383575   0.22478162  0.25030378 -0.17431681 -0.170984
  0.33153766  0.08846774 -0.23151651 -0.01781577 -0.00860077  0.05372209
 -0.24624874 -0.14171502  0.32677534 -0.18407044 -0.05891939  0.14428465
 -0.03754254  0.2101288 ]
[-0.0723473   0.11057562 -0.07410265 -0.02688596 -0.08386485 -0.01044928
 -0.02200875 -0.07709461  0.29407534  0.05514203 -0.05893914 -0.11274058
  0.0396741  -0.082758   -0.07192978 -0.20746376  0.15786275  0.03989667
  0.13790205  0.09819836]
[ 0.11774555 -0.07904186  0.2879032  -0.18733223  0.07822445 -0.13653222
  0.07136226  0.02727758 -0.11422808 -0.04600773  0.20753466  0.29876864
  0.23554035 -0.21635677 -0.00129908  0.2470554  -0.17393617 -0.02771494
 -0.18049285 -0.20637019]
[-0.02223111  0.19999368 -0.03654167 -0.23009908 -0.12853782  0.20639285
  0.04884813 -0.18198733  0.2299175  -0.05693137 -0.34324333  0.12154143
 -0.04254818 -0.05588682 -0.1594585  -0.227098   -0.1483539   0.09306467
 -0.09765435 -0.04725535]
[-0.17111668 -0.0724213   0.26740432  0.07073984 -0.06330609 -0.2682599
 -0.07121138  0.1846167   0.33094764 -0.12573405 -0.064082   -0.04402486
  0.17364395  0.09691848  0.25631624 -0.06880345  0.15342371  0.11160173
 -0.2687774  -0.2502524 ]
[-0.13297544  0.08418158  0.04007123 -0.0297562   0.00635366 -0.12884273
  0.0239402   0.2553581  -0.15194024 -0.10999171  0.17522503 -0.1021988
 -0.15676086 -0.05596478  0.14634706  0.04250286 -0.06527962 -0.03903567
  0.15697955 -0.07704288]
[-0.00266128  0.15152556 -0.03833031 -0.00342925  0.20777877 -0.19772172
 -0.03980124 -0.00602916  0.08228091  0.05407436 -0.15534826 -0.11285258
 -0.28243747 -0.13299529  0.1878278   0.06507685 -0.14363568 -0.25427464
 -0.14005685 -0.0764902 ]
[ 0.1397127  -0.04200893 -0.25950134  0.3616307  -0.00172756  0.1812448
  0.02587668 -0.06790721 -0.35454428  0.07123632 -0.27446207  0.03426038
 -0.03909808  0.13143331  0.03973324 -0.06943792  0.2726231   0.1445182
  0.10966939 -0.1288637 ]
[-0.00510321  0.04996996  0.11689411  0.15617591  0.30184314  0.25647706
  0.02626526 -0.12961845  0.05495146  0.02330519  0.21822073 -0.09153017
  0.15498383  0.07605019 -0.01810426  0.276786    0.00636362  0.06700285
 -0.03065649  0.07400224]
[ 0.34027204 -0.33126858  0.41160202 -0.12402409  0.33393726 -0.19216362
  0.01030484 -0.07262131 -0.08364967  0.02308929  0.167939   -0.07561014
  0.21726242  0.1087044  -0.20338659  0.28730574  0.25295183 -0.08289357
 -0.17695831  0.1542599 ]
[-0.18400666  0.2050817   0.44593322  0.05273387 -0.13273388 -0.03767737
 -0.08809256 -0.04905203  0.04448624  0.08723856 -0.35908434  0.11791465
 -0.07890997  0.03476893  0.16493748  0.20123833 -0.2599694   0.26620215
 -0.03879553  0.19172254]
[ 0.15490803  0.07882852  0.06562665  0.02657502  0.13852638  0.15228617
 -0.17766246  0.10532696 -0.10552879  0.19684954 -0.30389374 -0.07329242
  0.28974125 -0.0981742   0.25551215  0.11063126  0.1221062   0.18545572
  0.03087598  0.24320082]
[ 0.25298187  0.1127336   0.42211208 -0.13790375 -0.2339517   0.13566846
  0.00263097 -0.18456249  0.16766424 -0.03529425  0.16777146 -0.06431893
  0.2147607   0.16910036 -0.07944017 -0.28976715 -0.3344308   0.09485623
  0.20160303 -0.08949497]
[ 0.06925353 -0.01217734  0.09556251  0.15335904  0.22293332  0.21539973
  0.01019576  0.06387573 -0.02025894 -0.05318677  0.2211999  -0.20119174
 -0.24758795 -0.0670985  -0.03253271  0.35531494 -0.22432525  0.09962068
 -0.14332728  0.16472343]
[ 0.2267192   0.05186426 -0.03374746 -0.10552629  0.15268764  0.1240376
  0.12615803  0.32356226 -0.07263216  0.00647651 -0.14814745  0.23867714
 -0.1258468  -0.14762379 -0.2620994   0.02378605 -0.3006184   0.07185687
  0.30250123  0.2777309 ]
[ 0.11963944 -0.1564263   0.25731656 -0.18955097 -0.15261191 -0.11423514
  0.04636919 -0.20589739  0.18015224 -0.19392459  0.21369563 -0.18310486
 -0.14036936 -0.07946713 -0.3229186   0.03513327 -0.2335643   0.08639718
  0.2118869  -0.06034474]
[ 0.13079995  0.06997707  0.02217329  0.05813719  0.2971706   0.15366189
  0.04920195 -0.18955539  0.02804158  0.03066734  0.05791383 -0.13079846
  0.25407913 -0.16152306 -0.18575874  0.00396809  0.15068075 -0.05375075
 -0.11202248  0.07143064]
[-0.0488192   0.04155913 -0.05679886  0.08374289 -0.02458713  0.0193492
  0.12625831 -0.17818691 -0.19108458 -0.19670053 -0.0527803   0.13469763
 -0.10202227 -0.01029088  0.27201283  0.1498153   0.04151283  0.19612513
  0.20548418 -0.0914897 ]
[ 0.08423887 -0.10516532  0.13419849  0.19205621  0.10722068 -0.05544167
 -0.09111518  0.20873308  0.06182024  0.13914813  0.18297504  0.18428117
 -0.05062689 -0.24114421  0.27054164 -0.19981387  0.2152324  -0.11688942
  0.24643818  0.1662931 ]
[ 0.13210471  0.14422023 -0.30077842 -0.03653236  0.21246    -0.05486498
 -0.13673645 -0.18597454 -0.09659477  0.11539456  0.1039445   0.18208435
  0.00764726 -0.15148431  0.22161187 -0.20414667  0.24304983  0.1209532
 -0.13425967 -0.08445178]
[-0.32885382  0.14608793 -0.43499377  0.0078674   0.0307846   0.216467
  0.08079561 -0.19778368 -0.1638595  -0.13192603  0.04651576 -0.12015931
  0.20435426  0.07370275 -0.05659198 -0.09220936 -0.12687322  0.08727966
  0.16824594 -0.17969865]
[ 0.11360096 -0.03533552  0.16498639  0.304608   -0.06001101 -0.14579448
 -0.1995015   0.09295325  0.3483951   0.1890436   0.09654322  0.01733802
  0.16136001  0.10387523  0.19455387 -0.00518075 -0.15641347 -0.17367215
 -0.09630735 -0.05099818]
[ 0.01859634 -0.01741611 -0.04837923  0.08026339 -0.01813451 -0.27354407
 -0.07188535  0.17771114 -0.15064327 -0.10870357 -0.25985917  0.01814922
 -0.05195784 -0.25231737  0.0160138   0.3165181  -0.12068911  0.15482102
  0.06767911  0.05553148]
[-0.24807926  0.19246492  0.34623694 -0.00137419 -0.17164128  0.26694795
  0.05107718  0.27689898  0.15505609 -0.00115852 -0.03912276 -0.07733883
 -0.26324636  0.06535078 -0.20200896 -0.08367115 -0.25608996 -0.2627041
  0.02211959 -0.06727597]
[-0.31441626  0.08037558 -0.19475114  0.1120937   0.10332146  0.00192273
  0.00858586  0.16085175 -0.00480609 -0.03379844 -0.01500423  0.00833446
  0.23740263 -0.09420358  0.30349016  0.12547728  0.03487094 -0.14928187
 -0.19155462  0.06565676]
[ 0.30652848 -0.1743303  -0.22515595  0.17084473  0.02204819  0.05491615
 -0.05013015  0.06516392 -0.21451668 -0.0008651  -0.17540082  0.24648805
  0.15535106  0.10816328 -0.31544587  0.1332438  -0.08853892 -0.11034432
 -0.26636246  0.04066368]
[-0.04118882  0.20708513  0.29789332  0.01975419  0.05524791  0.1112098
 -0.18792367  0.14222577  0.2569001   0.06758822 -0.18301988  0.10349619
 -0.11222517 -0.00251167 -0.12565058  0.09565879 -0.24469686  0.14887767
 -0.27565098 -0.2181926 ]
[ 0.1749537  -0.16819258  0.19176774 -0.11646891  0.13465846 -0.23525935
 -0.08672921  0.11872964 -0.04525356  0.06908653 -0.10391685  0.01437439
  0.06811579 -0.13856927  0.09586055 -0.26206204  0.32001367  0.08414225
  0.07375491  0.09109715]
[ 0.13333747  0.00250264 -0.2595795   0.22524375 -0.18805379  0.16606157
  0.20726763 -0.1489258  -0.23992099 -0.03269723  0.00583962  0.11045394
  0.2159373  -0.09261426  0.14765483 -0.16044033  0.01061117  0.18545297
  0.12178216  0.02057097]
[-0.10373677 -0.11269532 -0.03046895  0.24222639 -0.13687712 -0.25842172
  0.12762198 -0.14402282  0.17806779  0.03284901  0.03286118  0.19076067
  0.02420248  0.03773294 -0.02732572  0.3174897  -0.03491079  0.24375245
  0.03512219  0.1342166 ]
[-0.06051169 -0.00609106  0.33994904 -0.14328398  0.21470714 -0.05354773
  0.12705496  0.03287152  0.18591648  0.23992659 -0.10848714  0.01593447
  0.10195581  0.11254529  0.04915701  0.06575329 -0.23677161 -0.03517548
 -0.06307491  0.20285599]
[ 0.1542444   0.0175369  -0.20211753  0.07539503 -0.05520969 -0.16966422
 -0.09142279 -0.09279263 -0.03954459  0.09778084  0.00172687  0.12345919
  0.17881428  0.08290428  0.09182277 -0.18400332  0.30776963  0.27429724
 -0.11660241 -0.26597828]
[ 0.24520664 -0.17764032 -0.29882893  0.41478556 -0.12755184 -0.01434174
 -0.04240391 -0.24413328 -0.15823339  0.07904074 -0.1281633  -0.30618796
  0.06280015  0.09317323 -0.27762702  0.1076759  -0.05756389 -0.06916478
 -0.02231471  0.19708726]
[-0.03470526 -0.06470663  0.05259429  0.00717335 -0.04411245  0.03061727
 -0.01526913  0.02082192 -0.02021117  0.00136329  0.00482878  0.00725829
  0.00289151 -0.00511958  0.00110593 -0.07858652  0.04567203 -0.01753501
  0.00041688  0.05642112]
layer 5 Activation
tanh
layer 6 Dense
20 1
[0.05378493]
[0.0075226]
[-0.07118858]
[-0.0654297]
[-0.08935645]
[0.04611647]
[0.00415229]
[0.00813883]
[0.03955665]
[-0.00041211]
[0.00192805]
[-0.02186752]
[-0.00605534]
[0.01396293]
[0.03001885]
[0.07906362]
[0.04265751]
[-0.00420249]
[-0.00119046]
[0.02170759]
[0.04719718]
