layers 7
layer 0 Dense
20 20
[-0.10868036  0.39998013 -0.21858335 -0.18923473 -0.45773527 -0.43589696
 -0.06204408 -0.22522849 -0.10218218 -0.1695332   0.1733928  -0.2257841
  0.2455074   0.3455457   0.53994924  0.0044345  -0.27033144 -0.00774432
  0.11557347  0.16673185]
[-0.19870839  0.5038813  -0.12500581  0.15479657  0.49525976 -0.24732247
  0.29400736 -0.18102188  0.1850124  -0.0802754   0.13395657 -0.944744
  0.365048    0.92608297  0.35995483  0.24369287 -0.19816747 -0.5751893
 -0.38384032  0.37113455]
[-0.05198158 -0.10997738  0.21502858  0.732575    0.15770286 -0.30670354
  0.43650803  0.28444812  0.50566983 -0.06637174  0.11167656 -0.62428933
 -0.2707163   0.937353    0.03288298 -0.32307214 -0.32037774 -0.4915273
 -0.1959262   0.06539573]
[ 0.1413459   0.07113541  0.19495633  0.17693299 -0.3372669  -0.5817305
  0.18033814 -0.03804984  0.41615218 -0.2404409   0.13261561  0.33133855
 -0.16666824  0.3342252  -0.16000763 -0.47826272 -0.7476702  -0.08821214
 -0.01900129 -0.05668864]
[-0.08800797  0.21601789  0.1823148  -0.10475677 -0.09355076 -0.27536264
  0.03994623 -0.2943082  -0.30446473  0.41796172  0.03681156  0.03292174
 -0.22925937 -0.54517335 -0.7038111  -0.08575436  0.07633316 -0.16588323
 -0.0765464   0.41589117]
[-0.19996859 -0.5309903  -0.3604883  -0.15908481 -0.3727275  -0.22985063
 -0.30380553  0.17818257 -0.36247894 -0.09086283  0.10143667  0.41658872
 -0.03557378 -0.29917565 -0.14562279  0.08103723  0.41685626  0.45203608
 -0.38022447  0.0118798 ]
[ 0.06053548 -0.15633877  0.07480176 -0.14562702 -0.22766127  0.20947021
  0.21896397 -0.11708023 -0.40980354 -0.34868586 -0.19727567  0.43273705
 -0.12044465 -0.849977   -0.06600354  0.03240253 -0.12883465  0.10743901
  0.3250103   0.18544634]
[ 0.20406364 -0.10016216  0.15043853 -0.11529522  0.37013194  0.55954295
  0.3561078   0.28010416  0.02487331  0.10929416 -0.09184761 -0.04474453
  0.06373192 -0.09099139  0.05601268 -0.02525655  0.17280738 -0.04256629
 -0.40283075 -0.16603264]
[-0.14262183 -0.27019387 -0.21816297 -0.01494158 -0.5210604   0.05679219
 -0.1206729   0.11213908 -0.67342913 -0.24653146 -0.2546847  -0.06215142
  0.31786665 -0.19971842 -0.01778461  0.1807779   0.44727847  0.0716847
 -0.12930723  0.29033524]
[-0.54515463 -0.6209275  -0.51344216 -0.22320457 -0.18294986  0.14383394
  0.1328213  -0.29936802 -0.16874163 -0.14797966  0.6225305   0.01348253
  0.09566978 -0.14363159  0.58348787 -0.43440917  0.25288528  0.00402592
 -0.2077063   0.39327502]
[-0.42874053 -0.07203436  0.13839471 -0.25757894 -0.11728766 -0.03767761
  0.16331664 -0.39197272 -0.07966911  0.21996765  0.36677614 -0.5506314
 -0.03048036  0.02047357  0.06938858 -0.02403365 -0.13412558 -0.2359656
  0.34442434  0.10680382]
[-0.06658423 -0.87746465  0.53668797  0.3923702   0.30670235  0.88439965
  0.03945046  0.06398162  0.21689406  0.6681268  -1.20707     0.6254069
 -0.18930969 -0.85964036  0.33571428  0.91242313  0.5378557  -0.02243022
  0.39052907 -0.5388563 ]
[ 0.18691806 -0.25714746 -0.00147039  0.22100863 -0.00460288  0.43111038
  0.08150778 -0.10070226 -0.5391612  -0.03821915 -0.03309142  0.03265847
  0.00762709  0.19164893 -0.1675191   0.08499903  0.32666272 -0.7347434
  0.12902416  0.13916269]
[-0.11125118 -0.16722596 -0.3110616   0.31791413 -0.17428255  0.06951988
 -0.18199901  0.14569898 -0.23595767  0.07020593  0.01092619  0.03290832
 -0.21869808 -0.28507018  0.34732613 -0.14389972  0.07760614  0.39995435
 -0.4883316   0.131501  ]
[ 0.33803213 -0.26692802  0.24727143  0.00574574  0.30006534  0.2619258
 -0.24067357 -0.42451409  0.2273938   0.4424496  -0.09430754 -0.66669303
  0.06605214  0.20710716  0.43985954  0.18850969  0.34941456  0.01764879
  0.24576093 -0.10108686]
[ 0.5253095   0.04141807  0.26439774 -0.43142453  0.25586087  0.39434052
 -0.12585571 -0.07779761 -0.54061085  0.5730838  -0.68238705  0.44021964
 -0.23107128 -0.6395877  -0.90893525 -0.08372151  0.21819477 -0.7725531
  0.36588138 -0.14377491]
[ 0.10293119  0.61095035  0.17625073  0.31779194 -0.01186872 -0.31515074
  0.13298039  0.0727119   0.6806939   0.2560087   0.3651949  -0.66062427
 -0.3519233   0.09236557 -0.24269721 -0.61093974 -0.61060274  0.77634674
 -0.2623153  -0.23528486]
[ 1.4230075   1.0608134   1.1530387   0.3595324  -0.08856555  0.13513696
  0.62308264 -0.53239477 -0.15369529  0.1036837  -1.195987    0.4344108
  0.02142705  0.92496026 -0.63492715  0.850666   -0.04803351 -0.6757036
  0.74183136 -0.67603797]
[-0.5844136   0.53243625 -0.44823152  0.13557929 -0.85306567  0.02692403
 -0.37961838 -0.08797769  0.00385149 -1.2122593  -0.17131142  1.4492167
 -0.33507955  0.31304544 -0.39249358 -0.66178966  0.2038615  -0.11256048
 -0.8068101   0.49744746]
[-0.3723613   0.76088834 -0.06715649 -0.1757638   0.07997764 -0.81965554
 -0.43580472 -0.12113803  0.02577802 -0.6738843   0.506904   -0.80771405
  0.16946428  1.3031734   1.0117683  -0.5168969  -0.6386792   0.31794313
 -0.06981226  0.38852736]
[-0.0302525   0.08575242 -0.01697051  0.08458649  0.06876114 -0.14422843
  0.07613274  0.09745081  0.13983849 -0.25590634 -0.15970768  0.09950446
  0.04997473  0.40805447  0.0535387   0.00463324 -0.22943833 -0.05732019
  0.04828744 -0.02987888]
layer 1 Activation
tanh
layer 2 Dense
20 40
[ 0.4473434  -0.36985344  0.6047425   0.30451396 -0.0377843  -0.28467846
 -0.555583   -0.08735223 -0.11736213 -0.03176075  0.0615482  -0.82690245
 -0.0678329   0.42445374 -0.00402353  0.28513137  0.1727459  -0.08466186
  0.13190275  0.21733017 -0.22805537 -0.11078291 -0.16156225  0.07937286
 -0.07717314 -0.10167289 -0.09750271 -0.01085309 -0.07491465  0.17486878
  0.05341601 -0.31947258 -0.20599577  0.35093156 -0.02203838 -0.17104042
  0.21617284  0.09070226  0.07207318  0.08875427]
[ 0.49058756 -0.39857897 -0.23332804 -0.2291785   0.45761684 -0.53670365
 -0.44303152 -0.19026154 -0.07870006  0.0310906  -0.4364898  -0.48385555
 -0.57491    -0.05008646 -0.11782397  0.23418464  0.00812794 -0.4859532
 -0.04933777 -0.34331867 -0.03418543  0.6084858  -0.21327053 -0.21570922
 -0.26629102 -0.08972685 -0.35140234  0.15261579 -0.57656413  0.04112099
 -0.0892538   0.01318579 -0.076412   -0.06602442 -0.18893625 -0.36021614
  0.06530444 -0.01019841 -0.05352826  0.29286373]
[ 0.32664576 -0.1350257   0.54539883  0.22760426 -0.1783696  -0.35565108
 -0.02412405 -0.00435813  0.10061627  0.08875749  0.10665097 -0.44323605
 -0.04493077  0.29376417  0.23924203 -0.06311221 -0.11606432  0.3243241
 -0.18346469 -0.00603476 -0.34974054  0.23553704  0.02262922  0.20930721
 -0.17269461  0.05326856 -0.06071106  0.24693428 -0.07149664 -0.10244722
  0.1837799   0.0022852  -0.42549804 -0.06410708 -0.04466755 -0.07269695
  0.33982155  0.3615648   0.20287788  0.09194766]
[-0.15424398 -0.06870408  0.12143831 -0.17566429 -0.05881416  0.1143413
 -0.00589197 -0.14448626 -0.06450947  0.02175854  0.05791118 -0.22959095
 -0.01821456  0.55106187 -0.11782528  0.11208308  0.2151004   0.18692055
  0.12647647  0.0279311   0.29579684  0.02808567 -0.34752604  0.23616728
 -0.23782022  0.10995648  0.00323146 -0.18208574 -0.28464955 -0.05801581
 -0.21012242  0.11689043 -0.10257274  0.5046891  -0.2513145   0.00132135
  0.06412157 -0.01912381 -0.11258828 -0.20443918]
[ 0.30643782  0.05447173  0.22035396 -0.18836235  0.17131877 -0.03775937
 -0.13217224  0.2074346  -0.10220589 -0.07121377  0.07836191  0.0891794
  0.25515136  0.07159121  0.16011657 -0.06341901  0.10883306  0.19919597
 -0.20921424 -0.02267504 -0.31339288  0.1778401   0.24002965 -0.17543441
  0.23077671 -0.08961314  0.21961346 -0.01743867  0.00940627  0.36648378
  0.22132967 -0.1990502  -0.17376013 -0.06710139 -0.14225543 -0.04313829
  0.17953463 -0.13705856 -0.02078795  0.13421318]
[-0.10098293 -0.12988187  0.60759366 -0.04313348 -0.27634883  0.3767016
  0.11863506  0.09768451  0.07714819  0.09080364  0.24006154 -0.05649375
  0.2769926   0.19241735  0.13306218  0.0841433   0.2610014   0.24571487
 -0.09584665  0.11618143  0.15466051 -0.21603166  0.37750405  0.27190876
 -0.29691935  0.12990475  0.26207295  0.23374632  0.36487782  0.7121711
 -0.11108972  0.13584317 -0.2307361  -0.3766356   0.40654537  0.04560437
 -0.04072706  0.211448    0.21584041 -0.13871545]
[-0.04756365  0.04774041  0.3493605   0.0859917   0.25531262  0.09998725
 -0.33866075 -0.21099602 -0.04743476 -0.09847287  0.01128323 -0.2914076
 -0.04149413 -0.00102357 -0.17360052  0.30701488  0.12021367  0.19252601
  0.01949096 -0.11000171 -0.21238905 -0.06386098 -0.10008264 -0.3264866
 -0.09836346 -0.08174844  0.03219847 -0.2234499   0.06905416 -0.0426712
  0.46916148 -0.19810852  0.08055236 -0.20929965 -0.06521183  0.00162842
 -0.08781403 -0.13933928 -0.19431573  0.14803591]
[ 0.09791538 -0.26834488 -0.03859069 -0.0307058  -0.03432114 -0.08405576
  0.30494612 -0.2905667   0.14620084  0.09909344 -0.09296144  0.15128963
  0.01030266  0.21869695 -0.01934406 -0.07059105 -0.11960004  0.07340237
  0.06065192  0.00206142  0.3847171   0.24318857 -0.21656904 -0.29860193
 -0.04253779  0.3831401  -0.04340819 -0.17845841  0.15729198  0.37282366
  0.13888653  0.02532446  0.3088836  -0.05382052  0.27011296 -0.04362708
 -0.17766547  0.12349698  0.18152429 -0.24019524]
[-0.07972775 -0.1118908   0.14251375 -0.21304841  0.46417558 -0.5328407
  0.03686904  0.01571729 -0.2096427  -0.23978713 -0.12855884  0.09220587
 -0.30048817  0.07993041  0.08567381  0.1748301  -0.10629433  0.33646682
 -0.12273681 -0.1386599  -0.24137084 -0.01374326 -0.09266925 -0.24008495
  0.00970729  0.08602192  0.00875054 -0.32942766 -0.4717177  -0.350145
 -0.06596333  0.2021398   0.06682936  0.5337449  -0.22634083  0.01513137
 -0.17954472 -0.26673672 -0.13795654  0.0551991 ]
[ 0.0279991  -0.2538141   0.22955716  0.29007113 -0.1354232   0.2184449
  0.0845835   0.22485569 -0.02127903  0.29988208  0.34756517  0.2788507
  0.00819994  0.34742275  0.21569344 -0.11688124 -0.02772383  0.40688542
  0.2940663   0.05775681 -0.47735557  0.10226027  0.00867543  0.2251191
 -0.5338348   0.04823085 -0.3638928  -0.19102924 -0.12994148 -0.11670288
 -0.09742006 -0.20683719 -0.24219166 -0.12191142  0.30768925 -0.13947695
 -0.01863754  0.12218687  0.14433838 -0.04363906]
[ 1.64741322e-01  5.38907573e-03 -4.03827339e-01  3.35109346e-02
  1.05692580e-01  1.05276741e-01  1.40904441e-01 -2.57151365e-01
 -4.30955999e-02 -1.21894248e-01 -1.61755815e-01  3.01121205e-01
 -3.22645128e-01 -1.78972989e-01 -1.93172749e-02  1.66982651e-01
  5.23251370e-02 -3.23139131e-01  1.55401900e-01 -2.12112769e-01
  1.89949468e-01  6.08796021e-04 -2.49979615e-01  2.50610828e-01
  6.18315279e-01  9.39222169e-04  1.59594655e-01 -7.09571689e-02
 -3.36473078e-01 -1.03853717e-01  2.27739841e-01  3.24586868e-01
  2.61749953e-01 -2.94659715e-02 -1.21859744e-01  1.93446353e-01
 -2.73286194e-01 -2.37664595e-01 -7.83049017e-02  2.50124093e-02]
[-0.68862617 -0.07867812  0.14850876  0.15868656  0.33451423  0.6107177
  0.5925142   0.0947355   0.13701686  0.308591   -0.11090732  0.49090302
  0.51307034  0.09678904  0.17907503 -0.0576655   0.4085686  -0.05822543
 -0.03836489  0.18722515  0.2559076   0.2791645   0.04802284  0.30377248
 -0.5551143   0.3544876   0.1653657  -0.15682207  0.45655343 -0.28520456
 -0.07460592 -0.08357203 -0.176214    0.08636456  0.3156623   0.09912964
 -0.02459705 -0.10063128 -0.01555203 -0.22226387]
[-0.11248626  0.01913634  0.1420391  -0.3406205   0.0611349  -0.06859038
 -0.08783283  0.09857558  0.10800592 -0.04418091 -0.04781909 -0.01095857
  0.14284098 -0.15421583 -0.01514349 -0.02351748 -0.03177441  0.25175476
  0.0194332  -0.19206223 -0.00693766 -0.02262741 -0.2551877  -0.12315015
 -0.0751994  -0.22480734  0.32425284 -0.23567735  0.08609557 -0.07443172
  0.27494818 -0.02388563  0.0843758   0.0334414   0.10790835  0.32542711
 -0.10234083  0.10469978 -0.10229116  0.22513525]
[ 0.50055677  0.1402572  -0.46939105 -0.47634938  0.19259174 -0.6194332
 -0.27343842 -0.14462556 -0.11754658  0.09574202  0.2989615  -0.526209
 -0.13233157 -0.1732072   0.22824328  0.26345488 -0.36338165  0.07624863
  0.19015568  0.18253116  0.2338576   0.04269302  0.05508444 -0.02358715
  0.49778894 -0.1528799   0.0323771   0.18095946 -0.34465858 -0.0188105
  0.3797229  -0.16300681  0.20986804 -0.24533889 -0.31073812  0.1538267
  0.25513634  0.03288047 -0.09629688 -0.21411596]
[ 0.0389732   0.08599254 -0.5524623  -0.6122826  -0.13896675 -0.44647065
 -0.24350438  0.1035742   0.12640624  0.01313819  0.07540894 -0.26796323
 -0.2135594   0.09346581 -0.06235714  0.06468914 -0.10679246 -0.25899526
  0.16779782  0.10749952  0.14873469  0.04395262 -0.3452772   0.02878765
  0.50985795  0.15686853 -0.18659401 -0.09569272 -0.4461125   0.0218424
  0.10754965  0.17307854  0.2804929   0.18491599 -0.28107017  0.03511396
  0.1705344  -0.22475915  0.16215514  0.03562934]
[ 0.39634368 -0.2796805   0.43298224 -0.03601119 -0.34951437  0.21750417
 -0.02908387  0.18943584  0.27818778  0.14399965  0.14659432 -0.16677375
  0.2361563   0.3734673  -0.05946989 -0.23082873  0.16360435  0.63409525
  0.11886296  0.44929042 -0.47836536 -0.08071661  0.06588478 -0.02158961
 -0.0980351  -0.16900688 -0.14432955 -0.07074159 -0.06141763  0.09451228
  0.2862263   0.03249228 -0.26114178 -0.03442234  0.08447894 -0.02779076
  0.06019693  0.14612281 -0.15402931 -0.17179874]
[-0.24555185 -0.01326513  0.2940115   0.36994743 -0.2029638   0.57194775
  0.2021434  -0.03867161  0.38941705  0.04742016  0.203145    0.3337845
  0.18564819 -0.08988975 -0.29921228 -0.07912377  0.17229402 -0.21316068
 -0.13866329  0.3889601  -0.10204396 -0.16045715 -0.14614257 -0.14583707
 -0.26227215 -0.3183765  -0.18451993 -0.09834314  0.12342019  0.27466443
 -0.24347135  0.0114061  -0.16172762 -0.552019    0.14674059  0.17036529
 -0.12675367 -0.02877193 -0.25653097  0.04690329]
[-0.58988434  0.23108017 -0.6770947   0.00708556 -0.22648288 -0.22764076
 -0.06615102  0.06338398 -0.16773398  0.31773332  0.01684201  0.23989624
 -0.283178   -0.4238105  -0.0210925   0.02575452 -0.17995961 -0.19824263
 -0.19415581 -0.23286459  0.13846879  0.596294   -0.33684868  0.12009174
  0.1205235   0.07657792 -0.17415303 -0.14596307 -0.21263032 -0.04351634
 -0.32838464 -0.07124934  0.23584263  0.2993896  -0.367856    0.07092258
 -0.06806257 -0.02443182 -0.32364517 -0.35767055]
[ 0.59991586 -0.48925525  0.1171019  -0.02572875  0.0102991  -0.24261384
 -0.35511878  0.17464234  0.0413737  -0.10239168 -0.05005742 -0.17850117
 -0.01317072  0.40094632 -0.13046943 -0.30659446 -0.16140106  0.09331147
  0.40380302  0.02934488 -0.48473713 -0.41366073  0.1047255  -0.07390909
 -0.00346312 -0.15771534 -0.38304314  0.23184358  0.2710459  -0.21882352
  0.40356818 -0.10815426 -0.01971136  0.03662228  0.01787995 -0.13200912
  0.0483563   0.06770762  0.30785075 -0.10299036]
[ 1.2910607e-01  2.7484319e-01 -1.4274885e-01 -8.4830567e-02
 -5.7074964e-02  3.2653955e-01  2.6255026e-01 -1.6009152e-01
  7.7299982e-02  6.6780478e-02 -2.4674684e-01  2.7302134e-01
 -3.3151150e-02 -4.7984102e-01 -1.9665396e-01  8.7642856e-02
 -2.4897646e-02 -9.5386364e-02  9.4855733e-02 -1.2644236e-01
  3.4856716e-01  1.0974460e-01 -1.7062563e-01  3.0854329e-01
  1.7904137e-01 -3.0894846e-01 -2.3168719e-01 -1.5219826e-01
 -4.4017412e-02  2.7701977e-01 -3.5289106e-01 -3.0441874e-01
  1.0449693e-02 -4.1740292e-01  3.9328188e-01  1.4607408e-02
 -2.1710448e-02 -5.6233606e-05  8.2085840e-02 -1.1599025e-01]
[ 0.1626325   0.02275557 -0.26672143 -0.2700614   0.17616476 -0.24986544
 -0.00499976 -0.09038115 -0.02800497 -0.0756048  -0.20112741 -0.13149093
 -0.11421925  0.00591624  0.06515727  0.0524804  -0.12221415 -0.04984722
  0.12551612 -0.05845078  0.01633211 -0.01078196 -0.04045266 -0.03321843
  0.24566045 -0.09605298 -0.02794157  0.04558083 -0.16632682 -0.33967954
  0.11480068  0.11718223  0.10787138  0.25561818 -0.38789663 -0.10331953
  0.00252508 -0.10281263 -0.00560744  0.11274216]
layer 3 Activation
tanh
layer 4 Dense
40 20
[ 0.18992801 -0.15556738 -0.03552027 -0.06494991 -0.27656645  0.14849566
 -0.13339998 -0.12941921 -0.08172    -0.04731245  0.32881895  0.45624492
 -0.23658344 -0.1746929  -0.21088147  0.19855218 -0.1398493  -0.3053876
 -0.13981237  0.03080541]
[-0.00991801 -0.05717173 -0.1131744   0.22910926 -0.02590066 -0.13741745
  0.0371669  -0.01003807  0.13685213  0.05361616 -0.10096554  0.10724118
 -0.01463531  0.2735304   0.18194963  0.2406906   0.18053167  0.26585254
  0.02659255  0.14366654]
[ 0.17469932 -0.04564957 -0.2409206  -0.37498894  0.45927024  0.22849266
  0.25957003  0.05987546  0.10537172 -0.16223124 -0.39689583  0.00303035
 -0.12244098 -0.34237644 -0.08362011 -0.05788445 -0.18625794 -0.12153649
 -0.09853321 -0.03345526]
[ 0.22952887 -0.09814613 -0.12441947 -0.09868396  0.20223507 -0.00714321
  0.18622336 -0.07298979  0.00689274 -0.2543834  -0.03407187 -0.2527327
 -0.3085243  -0.15824628 -0.14277679  0.3145845  -0.0378688   0.23605724
 -0.3033137  -0.31896847]
[ 0.27710387 -0.02584542  0.12738173 -0.22331722 -0.23328431 -0.01238639
 -0.07532887  0.14016597  0.3061069  -0.18425144 -0.26521412 -0.19251221
  0.19177209 -0.21334368 -0.08686192 -0.18623859  0.06677596  0.15588222
 -0.16314125 -0.1468435 ]
[-0.48563224  0.11692032  0.1964442  -0.2475056   0.52101904 -0.0433338
  0.17803651 -0.20695575 -0.11805082  0.08522248  0.12481109 -0.3725988
 -0.19363804  0.11204196 -0.12219918 -0.12459765  0.10348458  0.21406433
  0.11768413  0.14750727]
[ 0.06406137  0.20087181  0.00992771 -0.3162352   0.07221813 -0.18435885
  0.350217    0.09649315  0.01985053  0.3174583  -0.09722193 -0.36971653
 -0.16201386  0.28740686  0.18146516  0.17265387 -0.22095071  0.330126
  0.07655198 -0.15028155]
[-0.16259913 -0.13309133 -0.14050174  0.13829902  0.32082304 -0.09720967
 -0.09620477  0.06616592 -0.07988264  0.01559174 -0.10996053  0.04875496
  0.03538261  0.17924532 -0.16034769  0.02877223  0.1321512  -0.07510914
 -0.18287311  0.15045938]
[-0.12217594  0.29206514 -0.00222227 -0.30711454  0.01529523  0.06070755
  0.07857199 -0.18348001 -0.13341382  0.1811641  -0.16574164  0.18900493
  0.08165543  0.15268514  0.10497457 -0.12532476  0.25331992 -0.06293148
  0.19089466  0.03739711]
[-0.19298373  0.05302918  0.02112134 -0.41474357  0.08867927  0.16775748
 -0.23075347 -0.13993922 -0.15548551  0.29726836 -0.21126316 -0.17613542
 -0.10931266  0.01924192  0.27601242  0.20605063  0.1740718  -0.06809013
 -0.06098045 -0.19370718]
[-0.08285461  0.09634188  0.07469948 -0.20522822  0.19837105  0.16161548
  0.07678516  0.20145234  0.05122712 -0.10544239 -0.04528821  0.20841183
 -0.08025136  0.0544736  -0.04313719 -0.19643521 -0.26222768 -0.2345415
 -0.09605129 -0.01630866]
[ 0.1554222  -0.01912916  0.11108302  0.11991389  0.20217015 -0.353272
  0.24852392 -0.26996863 -0.11691334  0.01039018 -0.03068539 -0.12964876
 -0.12456821 -0.00808057 -0.16588688 -0.32165974 -0.09069416  0.41137055
  0.28025112 -0.17825754]
[-0.3306519   0.05933901  0.182031   -0.21693425 -0.01923767  0.02337734
  0.4005972   0.03279331  0.15392305  0.3305428  -0.37045708  0.01148867
 -0.08016215  0.09943195 -0.10554157  0.24293986 -0.01929215 -0.12974511
 -0.21340156 -0.09699374]
[-0.30164763  0.00436859  0.18301225  0.05843613  0.06648415  0.15709662
 -0.08572932  0.05687588 -0.00055279  0.3384478   0.05521971  0.02825859
 -0.21491703 -0.20378019 -0.23647408 -0.14655274  0.00395443 -0.3236077
 -0.15057133 -0.11052933]
[ 0.22290376  0.10060509  0.15126513  0.12615375 -0.02824344 -0.06865728
  0.05439003 -0.06947676  0.19831048 -0.02357305 -0.2890949   0.09729039
  0.02352252  0.03314863  0.02885789 -0.16096526 -0.14861885 -0.14144108
 -0.30736268  0.28417593]
[-0.11301183  0.07429604 -0.02100932  0.05347214 -0.24559505  0.08940686
  0.11444598 -0.05219705 -0.02545371 -0.24672918 -0.10566333 -0.2759511
 -0.12055586 -0.16876122  0.18599707  0.01404657 -0.17753369 -0.0874849
  0.05753454 -0.0270542 ]
[-0.16494356 -0.1472893  -0.09300647 -0.15005791 -0.0011894   0.22535963
  0.16616786  0.14370896  0.00388534  0.2908739   0.11159088 -0.29117197
 -0.00058862 -0.07617353  0.1681835  -0.15345767 -0.00520886  0.05279839
 -0.07258246  0.03090439]
[ 0.29311097 -0.16307697  0.00240532 -0.2547899   0.28207034  0.06599507
  0.17071408  0.17650361 -0.23290195  0.2878124   0.19416824  0.17226668
 -0.06430622  0.13448006 -0.21515626 -0.2081824  -0.18795384 -0.24745612
  0.18562926  0.01546861]
[-0.19976667  0.07207231  0.16858776 -0.05768292 -0.26694506 -0.2863618
 -0.03512136  0.10559496 -0.30444002  0.02152903 -0.07411806  0.5192299
 -0.16469379  0.02298961 -0.23713598 -0.25709453  0.07648316  0.16593774
 -0.12730196  0.05600473]
[-0.15248784 -0.0346635  -0.10653014 -0.01456058  0.00579368  0.01588801
  0.16392702 -0.00041827 -0.03290917  0.09530899 -0.24760553  0.05031103
 -0.10169557  0.038178   -0.01105209  0.09720129 -0.00887148 -0.27181348
  0.10332184  0.06980705]
[-0.2275993   0.09131189 -0.26664743  0.2818503  -0.380907    0.15852205
 -0.13292703 -0.13664992 -0.07216492 -0.05647453  0.13196418 -0.20994613
 -0.02283743  0.30855715  0.09958939 -0.04848428  0.15024751  0.35491446
  0.15634756  0.10980292]
[-0.17082877  0.12689477  0.05935394 -0.28921765  0.10626034  0.10018684
 -0.16144384  0.11906167  0.11185225 -0.24645981  0.34187144 -0.41501778
  0.07499164 -0.08577454  0.33150905 -0.01264617  0.01825769  0.06663783
 -0.21437596 -0.16355327]
[ 0.1491836  -0.11902698 -0.03132206 -0.27346107  0.09237804  0.31402627
 -0.06303772  0.18837778 -0.09434288  0.1809828  -0.18200193  0.1109269
  0.1025243  -0.06880266 -0.08368339  0.05128337  0.18526638 -0.04046079
 -0.06125382  0.02753042]
[-0.20060085 -0.11345189 -0.13560812  0.10521667  0.12422718 -0.13172603
  0.02461345 -0.0289999   0.01444863 -0.26408494 -0.17462194  0.18131699
  0.15896437 -0.10476653  0.1981882   0.12808475 -0.0947165   0.13939194
  0.00028127  0.0436846 ]
[-0.03503828 -0.15209599 -0.21661143  0.31887528 -0.37952337 -0.19982536
 -0.18280782  0.04498708  0.11277716 -0.23708022  0.07799755  0.36055624
 -0.08167894  0.29462767 -0.24658789  0.05134095  0.15573293 -0.16635303
 -0.01204934  0.11263272]
[ 0.1908001  -0.14627244 -0.17489755 -0.02550046  0.01196701 -0.11057135
  0.2292153   0.16740756 -0.05041541 -0.06113179 -0.06253273 -0.3525397
 -0.03036556 -0.06890795  0.29789805  0.12780766  0.07622942 -0.08060209
 -0.1753356   0.19367985]
[-0.09402751  0.22161265  0.20118484  0.23874877 -0.15843788  0.10359038
  0.4076673   0.21274811  0.06141504  0.2844174  -0.1550544   0.0015175
 -0.15231624  0.12687667  0.1316493  -0.10029994  0.00401541  0.28133148
  0.05761172 -0.04226382]
[-0.19427918 -0.00538968 -0.18741056 -0.20841803 -0.31929556  0.17126763
  0.11713509 -0.19739437 -0.14388572  0.15128313  0.02218184  0.29623133
  0.06817263 -0.19364722  0.19164449 -0.23675531  0.09712826  0.06667337
 -0.06587587  0.23779827]
[-0.25148436 -0.27013507 -0.20289762 -0.308886    0.18044926 -0.03846618
  0.42993933 -0.1474312   0.1996519   0.19919963 -0.2387954  -0.26536772
  0.28196192 -0.08192313 -0.30412757 -0.1438938   0.05711614  0.25482813
  0.08553423  0.2599289 ]
[ 0.3205619   0.1546066   0.05665322 -0.20559414  0.29482085  0.13810307
  0.22263335 -0.12746467 -0.28314945 -0.10405318 -0.1760443  -0.02601999
  0.14444034  0.32431656  0.18373299 -0.12428341 -0.11879911 -0.32013756
 -0.27219233  0.18318056]
[-0.21053399  0.10867669 -0.29390347  0.09705399 -0.15842764  0.00467019
  0.19511399 -0.12650558 -0.2377049   0.15307657 -0.02313221  0.35951686
  0.00290779  0.04828371 -0.2969394   0.06920002 -0.08686858 -0.23735653
 -0.08216726  0.06166253]
[-0.03947273  0.15045615  0.05722891  0.18338598  0.03178529 -0.22555295
 -0.2328648   0.19909348 -0.07616802 -0.04425921  0.08034893 -0.10539947
 -0.11142699  0.16499013 -0.10846968 -0.0195624  -0.18076706  0.07594219
  0.1446859  -0.1894782 ]
[-0.1917758  -0.01763497 -0.00155594 -0.08303848 -0.23193417 -0.22242165
 -0.03645565  0.20198594 -0.09351111 -0.3204321  -0.2093678   0.15210083
 -0.34697652  0.3077852  -0.17552364 -0.21649043  0.01768729  0.16325225
  0.09339789 -0.17825726]
[-0.05039031 -0.12795003 -0.06997924  0.04658723 -0.40968993 -0.27050424
 -0.27065733 -0.2635975  -0.09154453  0.18532614  0.2199689  -0.41956565
  0.02806909 -0.09732439 -0.16757156  0.15139675 -0.07965109 -0.10412221
 -0.11930817  0.27926123]
[ 0.08266642  0.32246163 -0.02907665  0.16046646  0.3037138   0.10041399
  0.02007455  0.2779824  -0.05507779  0.05962824 -0.1425186   0.1523013
 -0.19116157 -0.25936162  0.1305585   0.00413537  0.01547788  0.16445881
  0.09386066  0.16769396]
[-0.07182039  0.15643755  0.17964001  0.22806457 -0.02455783 -0.16939831
  0.34547365 -0.04279644 -0.02624736 -0.11969194  0.01045068  0.11543205
  0.04166842  0.041038    0.09800847  0.25532874 -0.2854792   0.00467396
  0.21439531  0.01272658]
[-0.32213315  0.11937135  0.2365857  -0.1439255  -0.05816434  0.09612086
 -0.00337597  0.1937152  -0.06451225  0.20956562  0.18734415 -0.00927524
  0.04048933 -0.10587489 -0.05301507  0.21493974  0.15912612 -0.11361338
  0.14450948 -0.19080743]
[ 0.09170178  0.13926674  0.03107265  0.05958466  0.09188873  0.04800993
 -0.07793479 -0.14834353  0.06580985  0.24761052 -0.05346079  0.19736654
 -0.01225413 -0.21127732  0.07159276 -0.03660529  0.01993454 -0.22498351
  0.13708882 -0.1790869 ]
[-0.24738602  0.10034638 -0.00949699 -0.33080748 -0.03759143 -0.02254035
  0.22858423 -0.05763188  0.24693291 -0.04622486  0.02200819  0.33796948
 -0.18950395  0.02835022 -0.12640287 -0.14253873  0.00361976 -0.1544043
  0.10796738 -0.05806329]
[ 0.1813006  -0.17211811 -0.00224205  0.2533162   0.03420616  0.21177214
 -0.12842466  0.14454573  0.00746221  0.03736111  0.1791514  -0.03807423
 -0.07362957 -0.13289498 -0.23095274 -0.0393151  -0.05519741  0.12928048
  0.00626875 -0.10625553]
[-0.02007831  0.01017134  0.02221165 -0.08229618 -0.15574953 -0.11931536
 -0.09404963 -0.00381398  0.03286834  0.04101762  0.04406775 -0.04712613
  0.09414429 -0.06448315 -0.09301114  0.01306749 -0.06259321  0.1863892
  0.01869197 -0.03070893]
layer 5 Activation
tanh
layer 6 Dense
20 1
[-0.03371231]
[0.01084138]
[-0.00080721]
[-0.03163949]
[0.10663551]
[-0.08627166]
[0.06969967]
[0.00735632]
[-0.00114695]
[0.04671197]
[-0.06085974]
[-0.07039996]
[0.00104151]
[-0.10093578]
[-0.10900206]
[0.01218417]
[0.00761733]
[0.08720252]
[-0.00502259]
[0.01647135]
[0.13532041]
