layers 7
layer 0 Dense
24 20
[-1.4122447  -1.5034108   0.2218017   1.5017238   0.5059186  -0.62083673
 -1.9676663   0.8108502   0.70262176  0.66783774  1.562306   -0.7212455
 -0.59695464 -0.5825078   1.2755448  -0.7043101   0.3190657   0.7427362
 -0.4692914  -0.6714828 ]
[-0.01311027 -0.55937606 -0.0280273   0.4415691   0.5535047   0.13492608
 -0.35028517  0.38362873  0.62679154  0.1059292   0.14271602 -0.02653647
 -0.27918452  0.26716205 -0.18005697  0.20125927  0.7450703   0.32255766
  0.16823788 -0.8729221 ]
[-3.7789521e-01 -3.9148459e-01  9.2470594e-02 -9.0865530e-02
  5.0360590e-01 -1.8098386e-01 -1.1414796e-01  2.0245413e-01
  9.2365479e-01 -3.3401500e-02  2.8390899e-01 -7.4885988e-01
 -3.8199776e-01 -3.3675852e-01 -5.4025281e-02  2.5580749e-01
  1.1783605e-01  5.8580118e-01  3.3241193e-04 -3.2435516e-01]
[-0.8568582  -1.0747844  -0.0736197   1.1378334   0.5203232  -0.19750988
 -0.6565814   0.868162    0.6200706   0.02726054  0.54407126 -0.23835391
 -0.76076186 -0.6577713   0.5857116  -0.676547    0.50588006  0.4272203
 -0.0542587  -0.13914284]
[-0.7208915  -0.95044804 -0.5350264   1.077515    0.19879442 -0.90376806
 -1.2385079   0.91353387  0.34174386 -0.1671628   0.87586874  0.16032119
 -0.33548012 -0.5195159   1.2154126  -0.24776852  1.0548048   1.0675436
  0.5568386   0.5483627 ]
[-0.17793518 -0.27634668  0.54233277  0.1987509  -0.05696035  0.20374256
 -0.19033733  0.18088134  0.21419671  0.43444657 -0.13886288 -0.26916778
  0.0293708  -0.49704126 -0.03242736 -0.538536   -0.47137898 -0.85334885
 -0.4641523   0.24905662]
[ 0.36125538  0.03130565  0.51397794 -0.09746573 -0.00275127  0.33384985
 -0.14244244  0.3331846   0.09776226  0.04273189 -0.44699067  0.38554633
 -0.31136256 -0.4066779  -0.29651564 -0.75143373 -0.38045514 -0.4590409
 -0.5647848   0.5278327 ]
[ 0.84284073  1.7652144  -0.01131228 -1.540503   -0.67683053  0.2585824
  1.7782803  -0.6393719  -0.9376817  -0.7484     -1.3062565   0.8226917
  0.49285814  0.64117616 -1.1090007   1.1302729  -1.2393048  -1.40922
  0.09718895  0.76778674]
[-0.50048614 -0.28835413 -0.8837093   0.50308716 -0.1781858  -0.7204906
 -0.24306162  0.55743057  0.01698196 -0.5821552   0.96197575  0.24565333
  0.5452894  -0.5407279   0.4724673   0.19901039  0.38101593  0.42328098
  0.27869594  0.06429709]
[-0.42647314 -0.32224956 -0.32342947  0.49388674  0.00992598 -0.20641504
 -0.22061512 -3.6257453  -0.45803815 -0.0926776   0.7558573   0.17277284
 -0.15381326  0.998258   -0.72655404 -0.15459673  2.245694   -1.0737289
  0.8294165   0.26187116]
[-1.1088994  -0.59444505 -0.6991837   0.3733341  -0.02586747 -0.25004837
 -0.46364668  0.7619874   1.3358916  -0.24670127  0.6746567   0.26979452
  0.09457335  0.46183223  1.0663097   0.453708   -0.07831377 -0.31644616
  0.09028479  0.31290862]
[ 1.0577974   1.7773677   0.5686492  -1.5756472  -0.46705782  0.31307003
  1.7686328  -1.4895961  -2.1046035  -0.14995162 -0.72017723  0.40401947
  0.47791523  0.56520116 -0.18490256  0.15124463 -1.8170103  -0.834796
  0.6276462   0.43622246]
[-0.5776672  -0.55679846 -0.39609355  0.5548533  -0.06161387 -0.38687122
 -0.12952481  0.3758428   0.5293506  -0.64463466  0.9073319   0.6631391
  0.15806551 -0.44223875  0.03946912  0.2057756  -0.07437774 -0.33158502
  0.0626297   0.23305081]
[-0.00097222  0.38610816  0.789779   -0.47291523  0.19088474  0.96148545
  0.53358555  0.53655946 -0.03377533  0.3419702  -0.79424405  0.08591139
 -0.24228604 -0.13990928 -0.00318722  0.09615622 -0.7198346  -0.71615577
 -0.6253618  -0.16593295]
[ 3.5965736  -0.01918646 -0.37145293 -0.07709909 -0.18088143 -0.3053895
 -0.45375296 -0.48327142 -2.7674935  -0.16997333  0.58976495  0.15609121
  0.12366313 -4.0391984  -6.1855927  -0.23743515  4.5043535   4.4411445
  0.3300296  -0.23744862]
[ 0.12003808  1.9303194   1.3473665  -2.0829673  -0.31588364  0.80176044
  1.8022367  -0.8024546  -0.32957423  0.18197869 -0.57704884 -0.13432555
  0.7693231   0.76504016 -1.586506    0.16739613 -2.9628832  -2.5831847
  0.16018358 -0.51288325]
[-0.7393818   0.17964555 -0.21051854  0.05347317 -0.49938458  0.09452663
  0.06208509 -0.75880605 -0.18004222 -0.20892732 -0.10291743  0.24498327
  0.40988383  0.08969354  0.17857917  0.4855654  -0.49718484 -0.21625747
  0.537782    0.36431968]
[-0.03712523 -0.3133219  -0.37048262  0.31140828 -0.14201033 -0.2920795
 -0.2886248   1.2159647   0.32141614 -0.3675853   0.1283559   0.12571476
 -0.17319715 -0.6072584   0.33175665 -0.35194737 -0.01255865  1.1723104
  0.16778629  0.44491416]
[ 0.7023438   0.8296004   0.5409243  -0.69289666  0.15922385  0.6352019
  0.6778029  -0.9859516  -1.1691366   0.31212378 -0.19527046  0.13578446
  0.10640691  0.7257464  -0.03273653  0.23346691 -0.747876   -0.9818142
 -0.13834244 -0.5773285 ]
[-0.06741843  0.7833327   0.0228627  -0.848099   -0.5727861   0.4631191
  0.9752439  -0.4046652  -1.022264   -0.42042974 -0.42345393  0.6415097
  0.58489484  0.8672903  -1.0833184   0.6629322  -1.9762647  -1.9348613
  0.29550505  0.84120077]
[-0.5026985  -0.46853742 -0.52288055  0.14224783 -0.5070414  -0.79374087
 -0.3809137   0.01623449  0.18110283 -0.40103117  0.08284769  0.61402166
  0.28402525 -0.30896947  0.4748638   0.5165841   0.4398314   0.20914234
  0.33637697  0.5104791 ]
[ 0.2495858  -0.69801176 -0.5606739   0.3623187  -0.57504857 -0.7680916
 -0.6073349   0.3129362  -0.03014526 -0.56647044  0.49601686  0.43750247
  0.0096595  -0.87825084  1.1930251  -0.13057686  0.18606195  0.7565486
 -0.30930883  0.35489702]
[-1.094677   -0.70864975 -0.7951164   0.99589175 -0.17369798 -1.3293685
 -0.87070745  1.0743046   0.5937977  -0.2019814  -0.08765854  0.23291914
  0.090919   -1.0536685   1.7586663  -0.12015393 -0.3580976   1.1004384
  0.4554112   0.17154466]
[-0.02990299  0.2252558  -0.27086142 -0.03377032 -0.09247232 -0.25120667
 -0.12295105  0.56388944 -0.17443846 -0.45426083 -0.05112977  0.457077
  0.35616112  0.01910006  0.16392593  0.5053099   0.5113527   0.11647481
  0.49315104  0.23623396]
[-0.02986574 -0.4620786   0.28417292  0.37104753  0.5516177   0.05289131
 -0.42168057  0.24397661  0.3975831   0.37600824  0.2532691  -0.47935453
 -0.5496538  -0.25673294  0.19622748 -0.5540353   0.15904222  0.3886036
 -0.40340006 -0.41737482]
layer 1 Activation
tanh
layer 2 Dense
20 40
[-0.19441399  0.59912926 -0.05736273 -0.5351727   0.12818563  0.12164471
 -0.1290975   0.9218227  -0.44386995 -0.38487902  0.01064259  0.06557379
 -0.32821906 -0.37121063 -0.19483992 -0.11724374  0.0762888   0.3681807
 -0.10292497  0.18533196 -0.74103665 -0.10102945  0.36226556 -0.37975764
 -0.6138986   0.29334718  0.3308329  -0.41069862  0.38094416 -0.41935426
  0.11216456 -0.4088777   0.606276   -1.4354892   0.6527747   0.91851664
 -0.27613154  0.18422025  0.40516433 -0.4086627 ]
[-0.77688855 -0.973542    0.6967244  -1.5288742   1.259677    0.20813309
  0.49328554  0.8813104  -0.7034116  -1.0474219   0.76619923 -0.07749352
 -0.30076838 -0.6495055   0.31378815  1.2044121  -1.1089708   1.0416688
 -1.0753574   0.58198184 -1.1807402   1.2941152   1.1765189   1.2108674
 -0.89307415  1.2071918   0.84281254  0.9257911   0.93633914 -1.4348129
  0.5354363  -0.8102708   0.6281393  -0.93477035  0.6794437   1.2319561
 -1.1987623   0.7093762   1.27389    -1.2225233 ]
[ 0.5326433  -0.39882085 -0.27369633  0.32256818 -0.23265362 -0.95007277
 -0.44356805  0.22431861 -0.6129177   0.3878062  -0.03510154  0.5493088
  0.9098682  -0.02624098 -0.3058451  -0.7539792  -0.00593703 -0.2757459
  0.22042106 -0.30450115  0.078476   -0.06435727 -0.32585528 -0.23596776
 -0.85871613 -0.5950173  -0.03669805  0.6444192  -0.4005972   0.2811825
 -0.48086405  0.32960778 -0.3398923   0.1884839  -0.2102191  -0.38116592
  0.74651885  1.0070946  -0.17375317  0.261507  ]
[ 0.60271317  1.0103841  -0.6347405   1.2698101  -0.96807027 -0.16201754
 -1.1325068  -0.7927389   0.58119124  0.8483378  -0.38354474 -0.3246683
  0.25948846  1.148589    0.28375146 -1.014       0.72463083 -0.77045476
  0.88160616 -0.5735689   0.52734184 -1.5103744  -0.6456791  -0.41944534
  1.2157719  -0.8192323  -0.5230125  -0.38488743 -0.60595393  1.1414204
 -0.5270078   0.6019177  -0.61172885  0.83204794 -0.7697742  -1.0148708
  0.8103756  -0.39215687 -1.1509935   0.5817753 ]
[ 0.40740624 -0.18496853  0.34424874  0.4783899  -0.10291485 -0.8431924
 -0.01369869  0.2942624  -0.5784534   0.23991212 -0.5576374   0.58868486
 -0.34013215  0.22202319 -0.3142213  -0.14089268  0.0618413  -0.12183686
  0.63673365 -0.18723433  0.07827031 -0.1313969  -0.08695295  0.19305146
 -0.20170254  0.01362594 -0.16094026  0.30746013 -0.44883087  0.6518524
  0.3379716   0.58258003 -0.55151325  0.28789225 -0.10817086 -0.24703656
  0.20622303  0.39636776 -0.56717896 -0.05135044]
[ 0.4416303  -0.4851809  -0.8272003  -0.15113096  0.00905495 -0.55232173
 -0.1930719   0.0237384  -0.5491618  -0.2980872  -0.0257326   0.89720553
  0.372768    0.25157273 -0.5645714  -1.0573971  -0.26010403 -0.4510236
  0.83295673 -1.0964514   0.44535762  0.3638893  -0.48054457  0.10304656
 -1.0509409  -0.9698734  -0.47196892  0.16394137 -0.9684653  -0.03605155
 -0.26962665  0.62185544 -0.7205117  -0.36610702 -0.41234398 -0.5167342
  0.9915831   0.88578844 -0.8079537  -0.09878327]
[-0.70916253 -1.3382369   0.8296575  -1.631313    1.655333   -0.31632861
  0.86689514  0.65150213 -0.83184236 -1.275588    0.5565133   0.3610489
 -0.48461685 -1.183499    0.04426828  1.1888139  -1.1347893   1.1966057
 -1.3006812   0.5661201  -1.2114472   1.6759771   1.0033991   1.3801157
 -1.2080706   0.9191039   0.708487    0.91052294  0.7953963  -1.3641099
  0.8601045  -0.51330453  0.5409569  -1.2995722   0.7224528   1.5633796
 -1.2898215   0.57246405  1.2685894  -1.0203047 ]
[-0.54624426  0.2016901  -1.08381     0.9038578  -0.36453223  0.01208944
 -0.43513668 -0.39774278  0.45613006  0.79725724 -0.27920792  0.09205539
 -0.04145613  0.1806318  -0.3801289  -1.0498325   0.6359152  -1.0308094
  1.4627129  -0.75972223  1.1945596   0.31909388 -1.0814251   0.15249126
  0.9203051  -0.9447232  -0.9173675  -0.07035854 -1.2048539   0.8835578
 -0.2939762   1.091354   -1.2011385   1.1711276  -0.96655995 -1.2605596
  1.114155    0.70936763 -1.1283848   1.1534504 ]
[-0.2840532  -0.64739907 -0.56040865  0.5752851   0.07495324 -0.15101568
 -0.07019723 -0.40878695  0.6239232   0.02232194 -0.19368216  0.18433699
  0.4553715   0.26872632  0.09725534 -0.5422448  -0.54108316 -0.05725186
  0.3350051  -0.21355933  0.37859777 -0.09034606 -0.6300764  -0.09114064
  0.32840845 -0.59554875 -0.74657786 -0.30292642 -0.27012965  1.1004742
 -0.36064237  0.49351323 -0.5806468   1.1890682  -0.7837833  -0.6718955
  0.5214182  -0.19486064 -0.22021523  0.8875554 ]
[ 0.35579488  0.3535175  -0.30004877 -0.06104622 -0.03437689 -0.40614057
  0.15286994  0.30230793 -0.19704211  0.18992113 -0.72095114  0.39534774
 -0.40470356 -0.12030478 -0.46960023 -0.361913    0.18825053 -0.6992906
  0.2481249  -0.33537364 -0.04867866 -0.02552428 -0.66019857  0.05799628
 -0.5070984  -0.26034352 -0.13408546  0.32406738 -0.40768236 -0.06389316
 -0.02969453  0.49836895  0.02650178 -0.35387278 -0.28799808 -0.288002
  0.91871744  0.4827695  -0.53676575 -0.13602862]
[ 0.03283332  0.67997956  0.04295408  0.526739   -0.58792037  0.24732688
 -1.065511   -0.6718598   0.5734539  -0.00122825  0.14183532 -0.4893902
  0.33286026  0.45166284  0.1965003  -0.16401336  0.2928855  -0.36322507
  0.1711195  -0.05468154  0.33321688 -0.14136915 -0.17148225  0.07267617
  0.8677448  -0.01169062 -0.2488637  -0.24465738 -0.24783045  0.8865522
 -0.33430645 -0.18429911 -0.23257382  0.8365942  -0.95538294 -0.41431567
 -0.18210554 -0.6336691   0.04720427  0.1690702 ]
[-0.7173341  -0.05292048  0.2969898  -0.75987554  0.87121576  0.3332314
 -0.15896311 -0.4127229   0.10537042 -0.54791677  0.43318343  0.01411665
  0.56548154 -0.10983583  0.7146108   0.17872408 -1.094802    0.23695298
 -0.48309612  0.22692959 -0.5266449  -0.30089128  0.56081575  0.22852479
  0.5322966   0.45212987  0.3857379   0.14397086  0.6834691  -0.05858947
 -0.02413699 -0.45338005  0.26192847  0.06600652  0.14504084 -0.32636714
 -0.20354772 -0.24444292  0.46309164 -0.69682205]
[-0.39585003 -0.0198008  -0.09994159 -0.8763037   0.03244411  0.77472264
 -0.08194342 -0.3901695   0.58263195 -0.70687824  0.58285725 -0.43854174
  0.3538099   0.13567649  0.5624205   0.416399   -0.02878196  0.24583937
 -0.58619195  0.09300034 -0.35284564  0.3230852   0.4501626  -0.24038586
  0.15689053  0.5049617   0.30367842 -0.14566858  0.22530255 -0.25622734
 -0.3634512  -0.38869327  0.21675417 -0.10026451  0.14889888 -0.02619069
 -0.40553963 -0.4499827   0.4848498  -0.47151044]
[ 0.45768118 -1.1383611   0.5044216  -0.3146624   1.1227739  -0.53312236
  0.8001648  -0.3937651  -0.53423274 -0.8200525   0.11034587  0.833028
  0.5882519  -0.00427441  0.36068523 -0.04436097 -1.1920007   0.06270798
 -0.6790705   0.43855816 -0.19998138 -0.28292638  0.5497474   0.62502897
 -0.8090196   0.33890396  0.8589637   0.18556996  0.44967476  0.25172433
  0.9263202  -0.5920501   0.12169565 -0.16533637  0.24884756 -0.40239513
 -0.23650296  0.525952    0.48786676 -0.22849707]
[ 0.36757526 -0.10481513 -0.7573826   1.4596453  -0.53481936 -0.5888035
 -0.40703687 -0.55315167  0.89954954  0.3068115  -0.05873663  0.4732638
  0.49724948  0.83375233  0.44298327 -0.9858654   0.09489072 -0.786376
  1.4056906  -1.2348467   0.5999137  -0.2646609  -0.9135366  -0.42330134
  0.76808226 -0.80911285 -0.82251906 -0.25381693 -1.2103033   1.5170937
 -0.11914077  1.1067696  -1.3052224   1.9683403  -0.9925087  -1.2160891
  0.95040727  0.12355378 -1.2169503   0.56160897]
[-0.75725144 -0.28934416  0.4212634   0.18600519  0.9889339  -0.0266257
  0.03078336 -0.48475292  0.1358378  -0.6361467   0.61483705  0.2966908
  0.68015254  0.1092996   0.63428295  0.14286646 -0.6153225   0.1980528
 -0.3377496   0.1460157  -0.22047253 -0.39061636  0.54170203  0.5184615
 -0.04138138  0.26827592  0.19392689  0.03655383  0.18606557  0.37608567
  0.36537752 -0.3934049   0.01598673  0.46576208  0.275379   -0.5131272
 -0.29103842 -0.10852481  0.44234437 -0.55565125]
[ 0.24483643  1.0472862  -0.6072588   0.5067955  -0.8608366   0.40683797
 -0.9341214  -0.16157615  0.020779    1.1996808  -0.25173703 -0.81453073
 -0.22597453  0.20993014 -0.3890609  -0.557656    1.2890097  -0.6014674
  0.8114491  -0.9717361   0.6834401  -0.72488457 -1.0457848  -1.3895911
  0.39673513 -0.3819361  -1.0491588  -0.13926204 -0.6402829   0.35279307
 -0.69050276  0.96842974 -0.43565592 -0.11767115 -0.4838104  -0.12723906
  0.85423    -0.74719685 -1.1292341   1.3133454 ]
[ 0.5048913   1.1426661  -1.671509    0.36908635 -1.2805539   0.8669763
 -1.3984356  -0.21134083 -0.3405412   1.0997174  -0.8084906  -0.3139369
  0.23587394  1.0389975  -0.9502171  -1.393172    1.7286891  -1.7621356
  1.1158915  -1.5640006   1.2275745  -1.0783616  -1.1290463  -1.6186523
  0.14366496 -1.1169081  -1.5376143  -1.0566276  -1.2492504  -0.1112003
 -1.8249604   1.5346491  -0.10575258 -0.561619   -1.4795071  -0.2136586
  1.7834338   0.332798   -1.4610476   1.3837613 ]
[-0.08578467 -0.15678875  0.08741502 -0.5847818   0.4905569  -0.2634978
 -0.37231952  0.12228176  0.31425366 -0.08511351  0.40800345 -0.35966685
  0.00686187 -0.14245844  0.384729    0.36359605 -0.2909603   0.16657868
 -0.32849535  0.49182135  0.41754335 -0.37006786  0.00586001  0.21889786
  0.70671576  0.19486792  0.0710962   0.2346421   0.20566994  0.03151943
 -0.02236057  0.02018289 -0.14396405 -0.18932463  0.140182   -0.1486157
 -0.10755    -0.62368584  0.6648635   0.4831632 ]
[-0.513784   -0.26587838  0.17156562 -0.3970367   0.10361867  0.70064807
  0.31191367 -0.54711527  0.4527219  -0.35813606  0.42919496 -0.6787353
  0.40116534  0.01360076  0.5844439   0.11235802 -0.45745495  0.3546305
 -0.7170779   0.41682878 -0.37381876 -0.00612221  0.3440979   0.33315423
  0.28031248  0.29774588  0.19921233 -0.15215686  0.49040076 -0.8147938
  0.22556828 -0.3521935   0.44466838 -0.20989518  0.2793669   0.16943671
 -0.5059118  -0.67794293  0.37565228 -0.18605256]
[ 0.70480573 -0.04114602  0.33883533  0.4432762  -0.29385757 -0.1982132
 -0.12740703  0.2044139  -0.21080361  0.20646667 -0.3370772   0.12536849
 -0.424271    0.00370483 -0.26676083 -0.3899057   0.18363933 -0.49831277
  0.2331592  -0.2793338   0.15845181 -0.2954649  -0.19135195 -0.0465794
 -0.37800485 -0.09541184 -0.26988032 -0.06924105 -0.2133054  -0.15552619
  0.07749796  0.28687903  0.05373775 -0.02063491 -0.09138738  0.14895345
  0.18861917  0.36515453 -0.25977525 -0.07866903]
layer 3 Activation
tanh
layer 4 Dense
40 20
[ 0.47503546  0.585647    0.1251309   0.21286207  0.3490575   0.561301
 -0.40335134 -0.5575224  -0.27842817  1.4141555  -0.5363536   0.2149603
  0.14354444 -0.32132033  0.08751215  0.1354436   0.43507317  0.1639356
 -0.3203177   0.6362847 ]
[ 0.5153948  -0.22353843 -0.29518276  0.6918753   0.2566895   0.25755134
 -0.33111954 -0.09396358 -0.92700744  0.81090873 -0.0295307  -0.9646956
 -0.11335434 -0.14511743  0.2841914   0.79237616 -0.60661983 -0.03012454
  0.2821815   0.5067699 ]
[-1.1228904  -0.3923693   0.12121674 -0.28294468 -0.4821607  -0.47689244
  0.60497576 -0.32273608  0.45370704 -0.26237255 -0.4879803   0.04661085
 -0.45370403 -0.01877675 -0.40494198  0.18517768  0.6983927  -0.42352477
  0.098024   -0.14473824]
[ 0.5644418   0.6209737  -0.66395867  1.365637    0.6233145   0.6828655
 -0.597968   -0.8440761  -0.20516732  0.8126282   0.2070531  -0.5788179
  0.35412714 -0.6531287   0.4437329  -0.5813842   0.07510738  0.37108254
 -0.35180473  0.8368222 ]
[-0.48173788 -0.8250664   0.13984486 -0.88010454 -0.17839164 -0.28553176
  0.31993753  0.46210784  0.8705469  -0.2783763  -0.6687388   0.88368416
 -0.38631448  0.29464844 -0.33656776 -0.32938728  0.74088895 -0.35774523
  0.18238801 -0.629836  ]
[ 0.30415365 -0.66149503  0.6214823  -0.23071024 -0.36446926 -0.19108924
 -0.301861    0.15618557 -0.20455176 -0.12978026 -0.00976167  0.4118528
 -0.36450672  0.73169017 -0.2629759   0.9252666  -0.7705069  -0.2997198
  0.64535147 -0.35109007]
[-0.7099203  -0.09199563  0.21811113 -0.3179713  -0.30896223 -0.3017584
  0.5036845   0.33251345  0.26710543 -0.62744445 -0.32764265 -0.03859686
 -0.433397    0.26063827 -0.3186913   0.04272099  0.5257166  -0.2749551
  0.25872675 -0.3758825 ]
[-0.9850182   0.14683773 -0.00146054  0.3334769  -0.13864273  0.07142603
  0.07215561 -0.29625556 -0.04019506 -0.38675252  0.12757991  0.04118078
  0.12307544 -0.49656123  0.10384785 -0.10265561  0.10712888 -0.67998266
 -0.05784407  0.0043621 ]
[ 1.2489170e+00 -3.0109763e-01  5.9974246e-02  1.8587396e-02
  1.6164976e-03 -1.0503190e-01 -8.1490263e-02 -1.3634844e-01
  4.2642251e-01  3.2064685e-01 -1.1810618e-05  1.6949992e-01
 -6.0787576e-01  1.5753387e-03 -3.2436314e-01 -3.3391193e-02
 -2.3444834e-01  4.9451143e-01  3.3498484e-01 -1.2065764e-01]
[ 0.95000756  0.53364015 -0.51286846  0.64482313  0.36635247  0.5755633
 -0.10789108 -0.9498153  -0.8481389   0.84781367  0.30707482 -0.9003601
  0.69278455 -0.53417575  0.02636486 -0.26020136 -1.3089521   0.16466852
  0.11830047  0.69576836]
[-0.49812162 -0.26512793  0.13675173 -0.92379004 -0.1578931  -0.3498542
  0.14412853  0.25199983  0.7640868  -0.29109442 -0.39126784  0.29695386
 -0.40967095  0.24884263 -0.6568157   0.10923269  0.5947952   0.17069733
  0.05435851 -0.10817597]
[ 0.07475995  0.17120759 -0.43623802 -0.04003041  0.42118752  0.4004376
  0.07449026 -0.15963262 -0.08119896 -0.08392777 -0.20829646 -0.6000684
 -0.5645225  -0.40882748  0.32352883 -0.5095076  -0.21920553  0.10560745
 -0.30186078  0.00572702]
[ 0.36628795 -0.12406421 -0.23261952  0.86842823  0.26584172 -0.09133145
  0.43170187  0.40217447  0.01503438 -0.34483117  0.02590448 -0.2211104
 -0.3852382   0.14414625  0.20972094 -0.40164006  0.1492424   0.73111194
 -0.20593049 -0.10060015]
[ 0.73302674  0.37857243 -0.0651842   0.41584656  0.5673403   0.5366546
 -0.04007756 -0.8089912  -0.33623537  1.1065688   0.11666749 -0.22499567
 -0.32003364 -0.14814402  0.19940059  0.37021366  0.11423914  0.19503196
 -0.38323963  0.4005814 ]
[-0.37017417 -0.42681372 -0.12667038 -0.280335   -0.12932616 -0.36725184
 -0.03401874  0.09717058  0.52399015 -0.078729    0.02962105 -0.04560611
 -0.01855547  0.07108635 -0.55133235 -0.26127422  0.59809446  0.22643393
  0.2772564  -0.15593155]
[-0.8849033  -0.8426841   0.7518927  -0.7861262  -0.57348484 -0.15059054
  0.06230149  0.3426023   0.1321217  -0.03576431 -0.1301428   0.3360406
 -0.98253495  0.80891764 -0.65165865  0.9243349  -0.34843212 -0.724038
  0.6450669  -0.34182662]
[ 0.6384138   0.7910725  -0.56582534  0.12027144  0.0175375   0.31351703
 -0.33797818 -0.9722279  -0.8694773   0.18513384  0.05500786 -0.70644224
  0.34929037 -0.1714133   0.48158017 -0.09317058 -0.95610315  0.15397482
 -0.3570143   0.7247314 ]
[-0.5747075  -0.74290705  0.5954399  -0.97318655 -0.6266528  -0.92932963
  0.5986634   0.4855925   0.22008382 -0.274832   -0.40848035  0.6563239
 -0.8428782   0.90001976 -0.30187753  0.62651634 -0.1669273  -0.33793613
  0.26910928 -0.4784191 ]
[ 0.785312    1.1255298  -1.0090932   0.43377674  0.47390062  0.4820545
 -0.8332887  -0.57897985 -0.01590892  0.32673687  0.3864053  -0.81521827
  1.0146832  -0.87861884  1.1991321  -0.9395521  -0.2176742   0.39296314
 -1.2648137   0.8581799 ]
[-0.48145843 -0.45711106  0.53129816 -0.6356445  -0.38112283 -0.16047254
  0.32211265  0.554847    0.5076229  -0.77755463 -0.36620146  0.9656236
 -0.7550296   0.6209232  -0.73806846  0.7879286   0.2618265  -0.69708574
  0.8759836  -0.69251895]
[ 1.3082765   0.01745527 -0.9652894   0.15923443  0.32903704  0.25170058
 -0.04119406 -0.3492638  -0.44065168  0.21352127  0.17914553 -0.880412
  0.36595365 -0.03306666 -0.05354526 -0.52504134 -0.73323387  0.49854288
 -0.24697669  0.3709233 ]
[-0.661684    0.3153564   0.48511046 -0.24526031 -0.49526802 -0.3942554
  0.17879209  0.11384843  0.18665421 -0.68409544 -0.13120314  0.2561592
  0.09581758  0.6948964  -0.04709219 -0.13964497 -0.33800837  0.26816142
 -0.3195556  -0.5860275 ]
[-1.0772018  -0.609472    0.6158383  -0.9652047  -0.06896777 -0.23760724
  0.63041586  0.99250895  0.78240573 -0.20337977 -0.5989441   0.8728534
 -0.6605499   0.61059797 -0.76250523  0.35090104  1.3519913  -0.1450633
  0.33992732 -0.5243411 ]
[-0.45703766 -0.50097567  0.4485992  -0.5960422  -0.4460271  -0.27878553
  0.2005887   0.6982051   0.85129076 -0.9275227  -0.5088054   0.4070535
 -0.02495096  0.26894292 -0.02643105 -0.4450843   0.2678471  -0.11371309
 -0.08044408 -0.46161273]
[ 1.100884   -0.10914632 -0.21676713  0.22950289 -0.165953   -0.10273887
 -0.05660414 -0.21486741 -0.18587987  0.28831202 -0.1552109  -0.8407811
 -0.4569775   0.3422828   0.16727647  0.13332894 -0.55792546  0.2074812
  0.07327644  0.1128163 ]
[-1.2172214  -0.28091276  0.15616468 -0.64112985 -0.8773399  -0.5992569
  0.9704254   0.24762282  0.2539687  -0.18198662 -0.18849196  0.43026567
 -0.69340247  0.552855   -0.9024735   0.5697384   0.36951253 -0.39345688
  0.87368053 -0.01758997]
[-0.7559641  -0.6369482   0.49499795 -0.66184336 -0.5234633  -0.12373441
  0.5136375   0.38696396 -0.09901617 -0.37223732 -0.5031921  -0.05945922
 -0.6876896   0.4891994  -0.03960183  0.45895016  0.16407493 -0.7003808
  0.62062657 -0.42425624]
[-0.31269765  0.2500182  -0.52091223 -2.094117    0.16567121  0.48502985
  0.17733555  0.18261443  0.39029706  0.10761933 -1.2609801   0.29901868
 -0.67301536 -0.03187908 -0.22745045  0.10652286  0.26662156 -0.20046392
 -0.2012105  -0.11739451]
[-0.9542129  -0.629259    0.5919883  -0.48329365 -0.6586352  -0.36140582
  0.55681956  0.21796514  0.2023108  -0.20901066 -0.4307689   0.5203883
 -0.7795968   0.8468489  -0.95479923  1.0810943   0.6199654  -0.32629296
  0.89949346 -0.41190854]
[ 0.32528913  0.26238468 -0.801122    1.0670393   0.39550072  0.29718533
 -0.26081032 -0.22172013 -0.17419165  0.6828658   0.5308782  -1.0169505
  1.2359813  -0.6258735   0.669441   -0.29122272  0.30634576  0.18811059
 -0.4181991   0.5064288 ]
[-0.91562176 -0.33907405  0.05943832 -0.7395986  -0.34408203 -0.2039301
  0.24241705  0.4163269   0.45166653 -0.33778414 -0.36597064  0.33281446
  0.00748568  0.07753468 -0.29088417  0.08352502  0.5753772  -0.34802654
  0.21675667 -0.18925112]
[ 0.7941634   0.5917724  -0.64119214  0.659636    0.36998495  0.4927012
 -0.6553611  -0.22050714 -0.41016498  0.28371164  0.4513036  -0.90083873
  1.2209368  -1.1224804   0.4742899  -0.46839398 -0.6718197   0.5274863
 -1.0751172   0.90129334]
[-0.18690147 -0.2545483   0.49790418 -0.19382654 -0.5925832  -0.32042718
  0.52539665  0.4774887   0.22648045 -0.48103514 -0.18248542  0.6809987
 -0.29248372  0.4297638  -0.45676675  0.43243155  0.09990621 -0.6395941
  0.30451912 -0.08136324]
[ 0.08687413  0.54065216 -0.73886883  0.7979171   0.3853052   0.98484254
 -0.75446105 -0.5438439  -0.36107233  0.72696894  0.45790294 -0.87944824
  0.42292714 -0.77279925  0.580033   -0.8062175  -0.23073775  0.03714471
  0.0107084   0.5107238 ]
[-0.77199644 -0.31935304  0.35492316 -0.85190666 -0.76307636 -0.23068278
  0.47859743  0.15773676  0.24894245 -0.33105743 -0.388957    0.25345415
 -0.66151917  0.40157074 -0.21087891  0.32217315  0.11110752 -0.5196203
  0.6212725  -0.56336886]
[-0.8718572  -0.6185977   0.42610264 -0.45743135 -0.47500464 -0.28720644
  0.26508343  0.20620747  0.33975115  0.58231556 -0.43118253  0.31723022
  0.4176726   0.65526485 -0.20372361  0.93149847  0.39062446 -0.17627704
  0.16707377 -0.2095009 ]
[ 0.80711627  1.2861085  -0.4752006   1.0590159   0.31743962  0.83896184
 -0.7867491  -0.59490395 -0.4220435   0.42845994  0.75948274 -0.985419
  1.925994   -0.6754963   0.70323706 -1.6120094  -0.44494578  0.44512007
 -0.91109365  0.6025542 ]
[ 0.10486923  0.16267163 -0.19435449  0.18970382  0.52502215  0.14154063
  0.00735034 -0.4053841  -0.3263321   0.24119277 -0.12770525 -0.44086012
 -0.3872704  -0.28690496  0.18365514 -0.7228473  -0.04583278  0.28257072
 -0.4095596   0.3198678 ]
[-0.5442805  -0.9890252   0.39972976 -1.5235846  -0.36187145 -0.95442545
  0.56347835  1.2772168   0.9367225  -0.5059551  -0.9992087   0.99131954
 -1.2302201   0.72451633 -1.2483102   1.584886    1.3923059  -0.35157
  0.6961198  -0.34255072]
[ 0.34145197  0.63673764  0.07251887  0.27457955 -0.03616153  0.21316196
  0.07826389 -0.65930253 -0.6500176   0.6176865   0.83315104 -0.76832193
  0.6838601  -0.40432927  0.44487095 -0.10634337 -0.36499205  0.06205338
 -0.338585    0.3526215 ]
[ 0.05803256 -0.17778872  0.22231212  0.13082525 -0.19228591 -0.18079567
  0.25627625  0.52925813  0.13618937 -0.25983277  0.08989514  0.0684896
  0.39122325 -0.04226377 -0.01848016 -0.19213921 -0.1253961   0.19344057
  0.0098089   0.13622926]
layer 5 Activation
tanh
layer 6 Dense
20 1
[-0.23184614]
[-0.5034444]
[0.43199578]
[0.5968383]
[-0.28900263]
[-0.3990152]
[0.43441552]
[0.4231319]
[0.37802458]
[-0.34146127]
[0.527939]
[0.6044365]
[-0.4958938]
[0.5883713]
[-0.41656032]
[0.44238275]
[0.29293376]
[-0.25567263]
[0.48889482]
[-0.4472052]
[6.3354926]
