layers 7
layer 0 Dense
20 20
[-0.01093731  0.04755219 -0.4174344   0.26440033  0.39416632 -0.12066782
  0.28696254 -0.15180472 -0.14527369  0.18319143  0.05533226 -0.07374511
 -0.24902332  0.11930384 -0.12946811  0.01344466 -0.11632109  0.22384512
 -0.23113723 -0.23578645]
[ 0.3676168  -0.72903687  0.06706937  0.20653443  0.0210341   0.10258059
  0.11233862 -0.0657365  -0.18439405 -0.00347322 -0.13147414  0.639942
  0.0876071  -0.19863515 -0.11984382 -0.1557812  -0.23639688  0.36670783
  0.34786043  0.17669442]
[ 0.13516933 -0.4307549  -0.18960233  0.3668086  -0.13214879  0.46620554
  0.02929904 -0.21534252 -0.41387984 -0.32489392  0.1515595   0.11398168
 -0.18033159 -0.18276055  0.14964578  0.01821152 -0.23546432  0.20759451
  0.18958363 -0.20422283]
[-0.23173296  0.12146357 -0.5000754  -0.12846781 -0.32976314  0.0465734
  0.00920678  0.2901207   0.2480896  -0.3455685  -0.26012933  0.4039622
  0.23259914  0.0545867  -0.27696663 -0.02780725  0.08639849  0.19208618
  0.1857857   0.11033537]
[-0.01394129  0.1893904  -0.2625372  -0.25123376  0.33524558  0.25321192
  0.10394904  0.17652988 -0.22850293  0.18929832  0.08327064 -0.00567757
  0.3031611  -0.20809181 -0.17212053 -0.31148094  0.05109326  0.14010842
 -0.10264985  0.02257469]
[-0.00924322  0.4179594   0.10451223 -0.2019323   0.05287513 -0.39271688
 -0.42742792  0.55110884  0.4111404   0.318412    0.05742823 -0.34963188
  0.12113678  0.26125035 -0.33386207 -0.26882157  0.03994366 -0.31457037
  0.12988687  0.3203605 ]
[-0.7376236   0.08231352 -0.05929224  0.32175812 -0.5288583  -0.03401536
  0.07265247  0.34359172  0.56950116 -0.09825932 -0.33045378 -0.18773699
  0.13627663  0.644384   -0.3512773   0.17654389  0.01388767 -0.46179458
  0.13421199  0.00708104]
[ 0.14872468 -0.00854481  0.31312045  0.28995615  0.07600032  0.18442409
 -0.19137357  0.26119208 -0.44283217 -0.11571822 -0.3210379   0.0846521
  0.2761912  -0.01233425 -0.33808932 -0.14110601  0.07695216 -0.3354593
  0.08062307 -0.13601607]
[ 3.5525104e-01  1.3560785e-01  5.7631429e-02  3.1530976e-01
 -1.8000543e-01  3.2542548e-01 -1.4237636e-01 -1.3736992e-01
  1.2741712e-01 -1.1013958e-01 -2.1166238e-04  1.0348843e-01
  3.2346198e-01 -3.8161494e-02  4.7939056e-01  7.8864306e-02
 -2.0321526e-01 -4.8307329e-02  3.0316824e-01  2.1632811e-01]
[-0.4506302   0.05818004  0.223159    0.3668942  -0.4570938  -0.02321941
  0.20478386  0.40234715 -0.19473113 -0.12206624  0.1501212  -0.04253659
  0.03260854 -0.23266275  0.16800989 -0.04202113 -0.3259246   0.148846
  0.13756903  0.42904884]
[-0.17805372  0.45319045  0.07853322  0.00647832  0.38665843 -0.70049554
 -0.40696138  0.19021483 -0.76698977 -0.40907913  0.25352216 -0.11663863
 -0.43748623 -0.5331851  -0.67377985 -0.4431301   0.0703043  -0.11197461
  0.79325193 -0.09976506]
[-0.09959829 -0.26637882 -0.34278286  0.14386453  0.2830415  -0.02856234
  0.07643265  0.05976533 -0.2629149   0.44261652 -0.14554156  0.18700399
  0.13980442  0.1440294   0.29290617  0.2849179   0.48013663 -0.35251808
  0.06227626 -0.19435497]
[-0.6810269   0.63879234  0.4147097   0.0894286  -0.01029155 -0.6701677
 -0.20474003 -0.4992476   0.37864047  0.3456783   0.6189786  -0.5816587
 -0.38604352  0.41357437 -0.6169292  -0.5234844   0.64978033 -0.2789525
 -0.20021215 -0.44334695]
[-0.21414737  0.10471699 -0.36958542  0.401654   -0.33131206 -0.01494568
  0.12928152  0.11306973 -0.26659954 -0.19736078  0.00541046  0.07922149
  0.06965344 -0.29922283  0.07397153 -0.06938187  0.37137175  0.24495472
  0.19559109 -0.13576363]
[-0.14432782 -0.29582864 -0.02113451 -0.13024543 -0.1718039  -0.07614454
 -0.15233976  0.01558761 -0.01319071 -0.16477917  0.21456389 -0.2949805
  0.19269253  0.14402287 -0.23836723 -0.09069485 -0.17602764  0.48299888
  0.21643943 -0.03431015]
[ 0.13350624 -0.7846059  -0.159172   -0.04918852  0.294408    0.7028364
 -0.34525725  0.20398778 -0.2070484   0.01321194 -0.01319535  0.3374375
  0.21875364 -1.10368     0.7038105  -0.00984034 -0.42149508  0.24023212
  0.07386044 -0.10553551]
[ 0.31288475 -0.19181442 -0.28377682 -0.26120046 -0.15233813  0.6246717
  0.11648278  0.42405486 -0.2416644   0.25050342 -0.24981098  0.5303787
 -0.10081952 -0.2561517   0.36741745  0.5630639  -0.45002207  0.11315759
  0.39138964 -0.07695498]
[ 0.5887889   0.17121235 -0.0309023   0.03875211  0.70373034  0.18795387
 -0.5647036  -0.47788635  0.07118429  0.13209467  0.18578452  0.08941504
 -0.08727253 -0.24043736 -0.02907047 -0.13614479  0.33441162  0.5906054
  0.3191792  -0.37193832]
[-0.235697   -0.30533993  0.04580477  0.19240601 -0.08256737  0.54971254
  0.5933552  -0.16424151  0.50288314  0.6601472   0.43815452  0.19791773
  0.65813434  0.7901407   0.23045774  0.7452027  -0.39900583  0.11242043
 -0.8627622  -0.03332311]
[-0.6157844   0.74180895  0.70481503 -0.2814923   0.11650725 -0.35100713
  0.12976691  0.15560396 -0.5352072  -0.133906   -0.22277322 -0.53524655
 -0.3062239   0.47856343 -0.2364448  -0.29683816  0.39850006  0.00630717
 -0.48749584  0.07233933]
[-0.04533211 -0.10718621 -0.03283424 -0.02441396  0.00019347  0.00180091
  0.00148736 -0.01022692  0.03413022 -0.01274298  0.02936375  0.03441036
  0.08379158  0.03007983 -0.03543892 -0.15892684 -0.01069067  0.05408783
  0.1351535  -0.05003261]
layer 1 Activation
tanh
layer 2 Dense
20 40
[ 0.08453427 -0.18377028  0.13869992 -0.16596505 -0.22159068  0.26684836
  0.04281806  0.1888717   0.33132774  0.03977216 -0.07635578 -0.17052287
 -0.10356192 -0.18786775 -0.20187697 -0.6150884  -0.01785031 -0.19106299
 -0.12260672 -0.09110661 -0.00832282 -0.04456625 -0.14070824 -0.12590702
  0.18931589  0.00676865 -0.15220563 -0.07478798  0.16116656 -0.15930231
  0.28223482  0.10690746  0.06332256 -0.0658937  -0.10228242 -0.12224845
  0.20742066  0.062877    0.23976125  0.27358627]
[-0.16939636  0.04670829  0.07122842 -0.0618104  -0.01473799 -0.2674614
  0.01771135 -0.3603103   0.07682502 -0.30922958 -0.2374662  -0.09495457
 -0.03217161  0.24313164 -0.16858822  0.17545062  0.17323893  0.06029629
 -0.31148884  0.15810975 -0.05502307  0.26836208  0.21153831 -0.0400461
 -0.1825215  -0.03124558  0.12090735 -0.07669427 -0.14650926  0.28000578
  0.07436955  0.11721672 -0.56126726 -0.1610358   0.09451061  0.18542686
  0.40899703 -0.0596303   0.05336582  0.07351732]
[ 0.20389628 -0.0472974   0.02134234 -0.10455021  0.15425442 -0.20635651
 -0.2468709  -0.20154744  0.07498387 -0.12480166 -0.14127687 -0.12776557
 -0.11103997  0.21743913  0.07911018 -0.03521534 -0.14307168  0.25190723
  0.26027754  0.08597745 -0.27601472 -0.21593457  0.14650355  0.23198685
 -0.5866414  -0.24957979 -0.2713174  -0.00478258 -0.09694009  0.14549527
 -0.09375115 -0.06410896 -0.29020724  0.2410217  -0.03139464  0.19473508
 -0.10659505 -0.11073813  0.03481169  0.17176253]
[-0.12049931 -0.0945271  -0.14643116  0.29354838 -0.05820781 -0.19693474
 -0.30526736 -0.20790668  0.0971778   0.24550052  0.1071995   0.14001822
 -0.0038308  -0.06338814 -0.01474095 -0.09323553  0.10550643 -0.14898624
  0.08609094 -0.23680106 -0.17380548 -0.05570082 -0.13354293 -0.12225068
  0.09535126 -0.20746948  0.16023844  0.24179383 -0.18666217 -0.16321667
 -0.42278633 -0.1014374   0.16599117  0.04829931  0.20322107 -0.13556424
 -0.0576066  -0.13442498 -0.14760046 -0.10294339]
[ 0.2531065   0.23229207 -0.18762311  0.05331811  0.14548784 -0.2359312
 -0.04602548  0.1401637   0.24351196 -0.31218326  0.23325561  0.2502901
 -0.02523625 -0.2402993  -0.29916954 -0.41711912 -0.17442279 -0.14314009
 -0.19715433 -0.29528496 -0.00587887 -0.07027849 -0.25585037  0.04958546
  0.29251263 -0.01000642 -0.237707   -0.01824806 -0.16691445  0.07812031
  0.05488323 -0.04955744  0.08944919 -0.18861657  0.21891901  0.10055193
  0.20214106  0.0692998  -0.28999394 -0.24125524]
[-0.1168015  -0.09582155  0.29025617 -0.15926342 -0.28969255  0.16954546
  0.02783251  0.3006872   0.05963174  0.03243779 -0.05105599  0.2767293
 -0.12448646  0.24079376  0.22828491 -0.29905415  0.02757328 -0.36478883
  0.3627235  -0.19838388  0.16872849  0.19211757 -0.26399207  0.4228997
  0.14698942  0.54286546  0.11063548  0.25573838  0.1604166   0.01705193
 -0.06981636 -0.27150068 -0.1622477  -0.01181787 -0.07958587 -0.39193156
 -0.4115721   0.19800961  0.09103547 -0.12350099]
[ 0.11180329 -0.00469535  0.04622503  0.03723241  0.04764772  0.10935811
  0.41416    -0.12901539  0.08093397  0.30802307 -0.10431624  0.01518148
  0.06617064 -0.0160408   0.24218203  0.425401   -0.1958806  -0.10614476
  0.04009102 -0.00250938 -0.18705006  0.05576165 -0.05860208 -0.00974719
 -0.02546757  0.07955262 -0.0672389   0.22103332  0.11917911 -0.02651553
  0.1438305  -0.06065081  0.28869915  0.00532228  0.06538766 -0.06176466
 -0.19738348 -0.29572225  0.05491121  0.02246494]
[ 0.21578634  0.02781172 -0.0943604   0.00940587 -0.08297175  0.32554775
 -0.0832708   0.03622944  0.1446345  -0.02428093  0.37498713 -0.02673187
 -0.04235772  0.23807372 -0.21139964  0.36997113 -0.10316188  0.16349782
  0.46325877  0.02422556 -0.1935494   0.20597787 -0.11847221  0.27788195
  0.13943186  0.13973394  0.29690853  0.18476099  0.04227266 -0.02324535
 -0.39421934  0.01406475 -0.1602042   0.07744095 -0.06668301  0.06016548
  0.06891044  0.02917182  0.09799439  0.01219372]
[-0.16499607  0.05392996  0.28348672  0.16936548  0.01901894 -0.09304959
 -0.10761099  0.22998703  0.10681079 -0.2395314  -0.00810781  0.02887728
  0.1466111  -0.23190194  0.05723431  0.19971295 -0.05467385 -0.02451404
 -0.14652194 -0.12696879  0.20462082 -0.08174662  0.00163825  0.16552721
 -0.16013336  0.10883024  0.27707395 -0.16111453  0.07186773 -0.0822883
  0.10529109 -0.32755134  0.25035468 -0.00646054 -0.18664075 -0.0257956
 -0.06141753  0.05867187  0.17578426  0.00328756]
[-0.10780837 -0.1629679   0.13976707 -0.00369326 -0.17070925 -0.32392433
 -0.06727087  0.24398164 -0.13905703 -0.11374757  0.03591647 -0.14731206
  0.14818262 -0.24551249 -0.07958552 -0.09070297 -0.01032004  0.03113437
 -0.07808697  0.20207126 -0.12346825 -0.33362257 -0.31579572  0.13976698
  0.06379478  0.17786899 -0.18217486 -0.03500432  0.21288794 -0.05992391
 -0.01813068 -0.29216367  0.13810423  0.17775412 -0.2771108  -0.33836734
 -0.1092261  -0.01852227  0.12675965 -0.09481888]
[-0.08667939  0.12245703  0.073185    0.216065   -0.16003188 -0.09036012
  0.26521036 -0.10541343 -0.04174405 -0.13652113 -0.09749511 -0.20303434
 -0.0130826  -0.16631     0.25005776 -0.11242233  0.04822459  0.18851978
 -0.06432269 -0.21955617 -0.07559198 -0.0896638   0.09025079 -0.206329
 -0.17752707  0.07858998 -0.10921372  0.2655835   0.1543256  -0.21127255
 -0.22238418  0.19415238  0.18125588  0.11918361  0.16316192  0.00110068
 -0.18901657  0.4107166  -0.178243   -0.2574163 ]
[-0.05056931 -0.3559974   0.29706967 -0.18959257 -0.20286721  0.22668715
  0.06092075  0.15533943 -0.26775342  0.03922457 -0.01647549  0.07295067
  0.04117674 -0.1284775   0.21537738 -0.10313088  0.09125464 -0.22898833
 -0.2431146   0.07473424  0.0656976   0.2303955  -0.2176953   0.19146647
  0.26446527  0.02411995  0.11279967  0.04970087  0.19642678  0.21252677
 -0.00686119  0.1073713  -0.17899674 -0.25069135 -0.14860865  0.1280049
 -0.1963591  -0.15391976  0.25413033  0.11818678]
[-0.12713172 -0.04566794 -0.04520665 -0.1415891  -0.50136137 -0.25308472
  0.25704473  0.19108994 -0.27830556  0.31813747 -0.0229238  -0.03127533
  0.12124995 -0.23667638  0.02049251 -0.39299756  0.14478616 -0.07831883
  0.4224329  -0.11542932  0.15022153  0.07562079 -0.32685477  0.00533929
 -0.0692415   0.22648816 -0.03656598  0.00309942  0.32276025  0.09983411
  0.1280755  -0.03716502  0.15828453 -0.13261361 -0.18820108  0.05816018
  0.04668853 -0.19375089  0.2550054   0.1413509 ]
[-1.72132388e-01  1.90513164e-01 -2.47710541e-01  3.37809175e-01
 -5.88797987e-01 -4.36243445e-01  5.19914180e-02  2.22821355e-01
  3.15343030e-02  2.94030637e-01  4.57657091e-02  1.54593170e-01
  9.74733084e-02 -1.27276763e-01  5.95475025e-02  5.40433347e-01
  3.85098159e-02 -9.58342254e-02 -1.94643378e-01 -1.74818665e-01
 -1.23694010e-01  6.56399056e-02  8.69103521e-02  6.31736293e-02
 -2.70313323e-01  1.52845159e-01 -2.43957952e-01 -5.54522909e-02
  1.45652473e-01 -1.47174090e-01  2.06431985e-01 -1.18290715e-01
 -4.12684605e-02  1.25623196e-01 -1.88584272e-02 -6.41125664e-02
  2.31438506e-04  1.28996044e-01  1.20672032e-01  1.86502971e-02]
[-0.13561907 -0.34561986  0.14679658  0.07007141 -0.34776455  0.23956095
  0.32163092  0.3526351  -0.28291377  0.20271653 -0.09620172 -0.02182509
  0.07760902 -0.23092797  0.28290245 -0.34995958 -0.01930952 -0.42988703
  0.3344904   0.00961104 -0.31064838  0.10953596 -0.11880491 -0.02074101
  0.07695199  0.05577028  0.11718858  0.25356182  0.23466447 -0.03866027
  0.2521691  -0.00335787 -0.0206465  -0.37600148 -0.13666207 -0.3792663
 -0.0532413  -0.10019404  0.37816685 -0.19965416]
[-0.14228015 -0.20367311 -0.06172381 -0.05356591 -0.42462248 -0.07262909
  0.09849356  0.02543326 -0.03296518  0.26594803 -0.15939486 -0.09075313
 -0.11867313  0.1612746   0.03752248  0.05052193 -0.14123514 -0.34737074
 -0.14669499 -0.00875893 -0.087688    0.02086776 -0.11515967 -0.02770795
  0.21522094  0.0276384   0.05972188  0.20982386 -0.00783833  0.0173365
  0.25944644 -0.17950432  0.27597818 -0.10909787  0.00965127 -0.2726899
 -0.19210371  0.09345865 -0.17853476 -0.2007734 ]
[-0.05148269  0.11199382  0.05698068  0.20523337 -0.03999972 -0.17938754
 -0.09480565 -0.45242298 -0.02332722  0.22451544  0.01820578 -0.31853274
 -0.16319014 -0.20495969 -0.18892187 -0.43157056  0.24535361 -0.0527105
 -0.41370046  0.05943315 -0.05797492 -0.2304994  -0.05862262  0.14153779
 -0.30267075  0.17512114 -0.16597772 -0.29771203 -0.21255808  0.27103546
  0.3408007   0.2786366  -0.03662172  0.01948783  0.0697353   0.0382724
  0.09601811 -0.04847299 -0.3701167  -0.20023   ]
[ 0.00155233  0.06143659  0.22123152  0.23592107 -0.1222485   0.12145303
 -0.15603511 -0.07222036  0.13693032  0.27756315  0.16737497  0.09022603
  0.02397323 -0.262459    0.1331294   0.00197217 -0.15675923 -0.06335595
 -0.14721407 -0.10885418 -0.1859342  -0.09489866  0.0776699   0.12242702
  0.3149427   0.19168763 -0.10689836 -0.06923649  0.19915855  0.26094216
 -0.05372888  0.12073518  0.17881055 -0.09107852  0.20184748 -0.15916583
 -0.13183536 -0.00597545  0.22362466 -0.04100477]
[ 0.1129832  -0.25680465 -0.17080024  0.23760158  0.32713816  0.3099719
  0.1583969  -0.13415915  0.08244775 -0.2113812   0.09576534 -0.04835164
 -0.05357645  0.2581838  -0.5030718  -0.30275488  0.02892171  0.29417947
  0.00991495 -0.01608489  0.14483052  0.10992441  0.23044252 -0.15035115
  0.13765122 -0.272268   -0.217781    0.03785512 -0.18971042 -0.01886106
 -0.31122333 -0.1884983  -0.34662405 -0.00848932 -0.04906081  0.01700153
  0.06162202 -0.13708311 -0.26646006 -0.21297996]
[ 0.18147819 -0.19668618  0.16064763 -0.2601437  -0.11413689 -0.14308633
  0.11879709 -0.01564366  0.14879869  0.17836933  0.18120079  0.04136119
 -0.23838452 -0.01733722 -0.16297124  0.53650504  0.0691359  -0.0388415
  0.26798418 -0.19321075 -0.00103321  0.21644306 -0.03193282  0.03127876
  0.21393025  0.28197312 -0.16691877 -0.15825394  0.09326922  0.37936226
  0.04559233  0.06999093 -0.14734943 -0.01804073  0.02316113 -0.1929824
 -0.12426806  0.0620639  -0.20113944 -0.32756346]
[-0.07643096 -0.07308341  0.00292626 -0.01437536 -0.09222635  0.04630573
 -0.05856764  0.0664092  -0.12231898 -0.03331325 -0.11861902 -0.03941101
 -0.01031115 -0.03448038  0.05613714  0.30674273 -0.00176056 -0.00706328
 -0.1173874  -0.05216489  0.0607986  -0.06189557 -0.01138479 -0.00771906
  0.13357964 -0.07069991  0.01999858  0.07801154 -0.07328141 -0.10140194
  0.06349979 -0.02633285  0.06848682  0.05085664 -0.06135476 -0.0162652
 -0.00204908 -0.03440274  0.00233714 -0.06245466]
layer 3 Activation
tanh
layer 4 Dense
40 20
[-0.30923364 -0.19715314 -0.32888547 -0.00824594 -0.24812366  0.17844597
  0.29552966 -0.112169   -0.06154962  0.11968648 -0.0442615   0.08904789
  0.07665926 -0.11350603 -0.11153319  0.15582752  0.06012349  0.1331146
 -0.14161216 -0.11638151]
[ 0.05959023 -0.27202347  0.354897   -0.11589106 -0.0834968   0.03593898
 -0.11434589 -0.22312209  0.09525113 -0.10312227 -0.05767177 -0.13193186
  0.25231662 -0.26276845 -0.23138227 -0.22077923  0.05464385  0.11951463
 -0.15598966  0.33198065]
[ 0.03736462  0.02553669  0.2422719   0.09661646 -0.10484552 -0.24457364
 -0.13470149 -0.03846909 -0.28444347  0.19743802 -0.0900714   0.22016539
 -0.02158431 -0.00732408  0.08475935  0.28823453  0.29124135  0.2468965
  0.18235621 -0.16997772]
[ 0.275202    0.14136668  0.15404232 -0.3523784   0.05316404 -0.02153755
  0.08891715  0.1398752  -0.13675442 -0.12992395 -0.19233815 -0.04549079
 -0.33124304 -0.29628736  0.04325303  0.04117797  0.10325392 -0.22252315
 -0.04237667  0.09362118]
[-0.32834822  0.15944536 -0.2454531  -0.3314558  -0.07438292 -0.07509969
 -0.1674854  -0.39552766  0.02214621  0.21575536  0.16178802 -0.2947629
 -0.06600046 -0.18662764 -0.37539122 -0.32118988 -0.3360671  -0.02074734
  0.13921449 -0.10692273]
[ 0.09393875  0.45919675  0.04713893  0.06233931  0.28900537  0.23671
 -0.24748535  0.06453408 -0.1129705   0.05590047  0.11648437  0.21550956
  0.16413486 -0.06801894 -0.23085943 -0.00132136  0.00176643 -0.24742793
 -0.08676822 -0.14510587]
[-0.05591371 -0.2400624   0.32386887  0.17102174 -0.22219564  0.1313627
  0.20688754  0.1766082  -0.3392967   0.09376173  0.04095014 -0.26882812
  0.01729282 -0.15626791  0.1482255  -0.13486528 -0.02763383 -0.10154334
  0.08847756  0.175569  ]
[ 0.0440072  -0.2432478   0.20150864  0.28934026 -0.15791807 -0.13099837
 -0.22822028  0.2315652   0.05597851  0.13113119 -0.03233198 -0.29378006
  0.2991022   0.35066336  0.24332044  0.2752388   0.29195365 -0.1596285
  0.21015908  0.2055978 ]
[-0.03728662  0.08902443  0.13007611  0.04240685  0.01021628  0.30942917
 -0.05411598 -0.25001407  0.22654413 -0.13398904  0.16436341 -0.05349053
  0.14399035 -0.28581515 -0.19353394  0.29026768  0.11787869  0.00526912
 -0.03369723  0.05098004]
[-2.1431221e-01  3.2264447e-01  2.3413657e-01 -3.0824617e-01
 -1.1601866e-01 -9.3477704e-02  1.6981696e-01  3.6893815e-01
  1.9915229e-04 -5.7965856e-02 -2.5441691e-01  2.0665859e-01
  2.9994041e-02 -1.1858820e-02  4.0354079e-01  2.8140831e-01
  1.6135590e-01  2.6077139e-01 -6.7642398e-02 -6.3375250e-02]
[-0.2157457  -0.05671825  0.23200046  0.02356705 -0.06594761  0.09054755
  0.04482078  0.01625234  0.30871192 -0.00474605  0.06339242  0.00782245
 -0.00285958  0.10026151  0.04177876 -0.01655629 -0.21135801  0.1126394
  0.01154701 -0.19235897]
[ 0.05297884  0.0961785   0.06468955  0.1128502   0.2172866   0.01781652
 -0.1907553   0.08279251  0.02598961 -0.25996625 -0.23645046  0.22855711
 -0.3223727   0.1010431   0.17798601 -0.10709224 -0.08316082 -0.16777097
  0.31619227 -0.21525687]
[ 0.25856388  0.2544201   0.24900861  0.00342171  0.26110506 -0.2157355
 -0.094505   -0.11641006 -0.38633025 -0.10279021 -0.15311593 -0.01075188
 -0.01410638 -0.12674637  0.10696283 -0.18826778 -0.1230275  -0.03162692
 -0.27368313 -0.0647856 ]
[-0.33693376 -0.09009846  0.09007898 -0.02031803 -0.12026384  0.29136118
  0.19362193 -0.10872684  0.10511168 -0.15074232 -0.23516259  0.0385825
 -0.11635269 -0.10302825 -0.06216849 -0.2117457  -0.33339462 -0.0557295
 -0.21511203 -0.1366567 ]
[-0.02215745  0.19857813  0.3788595   0.00073923  0.00134059 -0.2056541
  0.01073635 -0.11808886 -0.37606016 -0.27426785  0.08457685 -0.2099779
 -0.12233005  0.23364009  0.18342665 -0.22029878  0.28181666  0.22306618
 -0.11788226  0.15199037]
[ 0.08771056  0.05932709 -0.24103887 -0.07150879 -0.21827598 -0.2928806
  0.40850228  0.18608885  0.3319867  -0.01017545  0.14493771 -0.34414718
  0.20277669  0.13046667  0.31470886  0.12689309 -0.08332643 -0.13970488
  0.270104    0.02785247]
[ 0.1753636   0.10784476  0.06586897 -0.09643029 -0.15599816 -0.00821132
  0.09362296 -0.02113943 -0.04278203  0.0489824   0.02071716  0.09238914
 -0.19968921  0.13054691  0.05875952 -0.05249505 -0.10778286 -0.28393564
 -0.2920004  -0.11517806]
[-0.18140128  0.08454509 -0.31548476 -0.05385865  0.17360774 -0.00339312
  0.27194867 -0.33338314 -0.2164167   0.23480643 -0.08463115 -0.24071373
  0.06623441 -0.31219053 -0.23799266 -0.01775534 -0.0691601   0.10348639
 -0.22118104 -0.1921939 ]
[-0.4441014  -0.26670092  0.34192008 -0.17535917  0.16676441  0.34313944
 -0.08008294 -0.10031692  0.09978731 -0.05675781  0.15618914 -0.16070393
 -0.04715225 -0.26277936 -0.12209605  0.01670438 -0.22164214 -0.13386282
 -0.01895631  0.25713116]
[-0.22834872 -0.3166126   0.00090889 -0.01990361 -0.17743582  0.12690651
 -0.174066    0.15160306  0.19395317 -0.05876616 -0.17696984  0.08289604
  0.2115838  -0.07312796 -0.00738523 -0.3035144  -0.30606797 -0.19048414
  0.10301086  0.17443347]
[ 0.10503785  0.14018787 -0.05460574 -0.34953186 -0.21660241 -0.05098364
 -0.08582777 -0.07423286 -0.31623265 -0.09078574 -0.08629505  0.02114656
  0.22250813 -0.15791234 -0.11028629 -0.11095741  0.10417502  0.10617541
 -0.27113724  0.14680791]
[-0.2312533   0.26020843  0.01663412  0.12835647  0.30375177  0.06436957
  0.09401808  0.24109223  0.19039638 -0.19094805 -0.19380078  0.03374199
  0.04202502 -0.1862815   0.08280597  0.19079173  0.24709052  0.00926004
  0.11956527  0.32270142]
[-0.07333075  0.150165    0.00224092 -0.2944897  -0.31081617 -0.03720494
  0.02027038 -0.27196488 -0.20154835  0.22699057 -0.2885598  -0.13750534
 -0.29139268 -0.3058497   0.15720314  0.24647456 -0.27159593  0.08751631
 -0.22718424 -0.3005251 ]
[ 0.1347508  -0.10816834 -0.1843691   0.2388461   0.24593419  0.21004409
  0.05984985 -0.01892468 -0.17573056 -0.12351348 -0.04125748 -0.07974516
 -0.15739448  0.28086615  0.27852222 -0.12203405 -0.08442502  0.04196535
 -0.364812   -0.13567387]
[ 0.23131983  0.4145633  -0.00564606  0.18430085 -0.04511121  0.04101734
 -0.10366723  0.05422009  0.03342339 -0.24061608 -0.28688908 -0.16908489
 -0.17673607  0.3084118   0.13411261  0.14630464 -0.14848185  0.27926764
 -0.25890154  0.0394317 ]
[ 0.03302198 -0.06017519  0.2660684   0.17672053  0.22646871  0.1464808
 -0.02414823 -0.01440563 -0.12848605 -0.29462394 -0.04857979 -0.0287466
  0.0240776   0.11231276  0.13327312 -0.04200205  0.35264388 -0.05933395
  0.04649164 -0.1484261 ]
[-0.18735541  0.2953573   0.1016891  -0.149574   -0.24823509 -0.33291382
  0.22450395  0.15676828 -0.14137512 -0.04594309 -0.04642842 -0.02277659
 -0.14299828  0.2150261   0.11488525  0.09316676 -0.19024603  0.15519224
  0.15960242 -0.0709664 ]
[-0.14845347 -0.0521331   0.10981601  0.371755    0.24552256 -0.23137745
  0.07210658 -0.09376816 -0.07689154 -0.0608152   0.26355913 -0.00715915
 -0.21009009  0.1227887  -0.0612106  -0.00702575 -0.1875611  -0.19824192
 -0.1003625   0.01500675]
[-0.04402848  0.2630523   0.19220486  0.08157935  0.04489542 -0.22918451
 -0.05303459  0.19204013 -0.2986167  -0.3821545   0.16713004  0.07043299
  0.2504768  -0.19460782  0.11929987  0.28203052  0.32879212  0.05576199
  0.13052209 -0.00064803]
[-0.11221473  0.11509018  0.17269422  0.00745327 -0.22428335 -0.05557061
 -0.23880152 -0.10929995  0.13002232 -0.21783797 -0.028384    0.02944255
 -0.2774424  -0.28971463 -0.14526339  0.03674978 -0.14390446 -0.06680344
  0.14638823  0.30464956]
[ 0.31563792  0.15085907  0.19386776 -0.10756911 -0.18353572 -0.01945856
 -0.09760848 -0.1285063  -0.2513748  -0.07286499  0.23413175 -0.16535899
  0.02402497  0.12294047  0.19856939  0.21270707  0.34593678 -0.20318682
 -0.09960199 -0.05531226]
[ 0.06177402 -0.00103818 -0.03775209 -0.30010843 -0.18487519  0.3178144
  0.26082414 -0.30380854  0.17913151  0.28206035  0.26481572 -0.06571463
 -0.24483272  0.13615172  0.04524823  0.00884529 -0.25427026  0.01822429
 -0.24095477  0.2700078 ]
[ 0.23170282  0.02463718  0.19184789 -0.18418829  0.16775322 -0.34788677
 -0.06750922  0.14319931 -0.14371437 -0.07067597 -0.2211119   0.15160021
 -0.26379603  0.18572107  0.09443974 -0.03047819  0.39238855 -0.20473984
  0.2299489   0.14274825]
[-0.02416813 -0.42011827  0.17587185 -0.18839824 -0.28557688  0.04860098
  0.01316381 -0.06556933  0.13248144  0.2602677  -0.08253733  0.09716485
  0.20325586  0.15631658  0.18280049 -0.24938902 -0.24378632  0.2420459
  0.38401556  0.12126087]
[ 0.02523926 -0.05226587 -0.19629382 -0.18999763  0.01265882  0.22306868
  0.24936403  0.04303997  0.0806848  -0.13849917 -0.28833905  0.09471451
  0.13212602 -0.28045928 -0.13932699 -0.12422252 -0.02008764  0.03620232
 -0.1462966  -0.15476511]
[ 0.11798456 -0.08021304  0.1750226  -0.1810366  -0.18763837  0.14095798
  0.23131855 -0.2250206   0.15192783  0.32988825 -0.14279911  0.0713593
 -0.00658639  0.03177737 -0.15522763 -0.2542365  -0.25603417  0.20430917
  0.12984599  0.18880172]
[ 0.13393284  0.16916722 -0.06771843 -0.07519159 -0.31133974  0.1848893
 -0.03757695 -0.05416177  0.33417368  0.20007257  0.14192495  0.0962828
 -0.24257673 -0.17692599 -0.22283144  0.10262301  0.03888469 -0.23647243
 -0.16819146  0.17648767]
[ 0.23849186 -0.01611441 -0.09191385  0.16470355  0.26401973 -0.06622924
 -0.18113354 -0.2923252  -0.01505243  0.17323446  0.2517909   0.01953503
 -0.04876164 -0.03529786 -0.24047339  0.19745094  0.10600889  0.11032247
  0.15699857  0.23832646]
[ 0.02443387 -0.06586178  0.07320555  0.10355118  0.20091337  0.10797711
  0.29127058  0.19293198 -0.13828434 -0.19594057  0.0500391  -0.10330807
  0.27000296 -0.01746275  0.20297134  0.32687297  0.2913002   0.12980618
  0.09347145  0.05061928]
[-0.12902834 -0.10108709  0.28714803 -0.13436612  0.0304601   0.20910141
  0.02229869 -0.18410188  0.10236049 -0.05256175  0.1398872   0.23020096
 -0.27498007  0.03755202  0.03013165  0.1830163   0.1597817  -0.10397711
  0.08416232 -0.05425923]
[ 0.10290956  0.04688945 -0.03752333 -0.02084999 -0.01121561 -0.12705176
  0.03387517 -0.05026349  0.05010993 -0.0633555   0.00395729 -0.00769167
 -0.01475545  0.01479961  0.16054626  0.01744108  0.11771043 -0.00371089
  0.00185354 -0.01212013]
layer 5 Activation
tanh
layer 6 Dense
20 1
[0.08902022]
[-0.06293153]
[-0.0747169]
[0.08368531]
[-0.07859043]
[-0.18247649]
[0.08288208]
[-0.15427192]
[0.14828883]
[-0.0652434]
[0.0002589]
[0.00841307]
[0.01256473]
[-0.19377904]
[0.221887]
[-0.07476727]
[0.13062717]
[-0.0102202]
[-0.02142916]
[0.0123927]
[-0.03790338]
