layers 7
layer 0 Dense
20 20
[ 0.27199385 -0.18483967 -0.05417329 -0.14392905  0.01699961 -0.16583556
  0.12075628 -0.22180943  0.02843175 -0.1500487   0.02405716 -0.1070367
  0.04380814  0.25271285  0.09351859  0.41958088  0.35125425 -0.37112436
  0.16866918 -0.2802948 ]
[ 0.01806273  0.119573    0.33009693  0.17868888 -0.18406294  0.5360592
  0.15281728  0.24835485  0.05485773  0.02891337 -0.31988406  0.3222436
 -0.01406051  0.31430238  0.03683259  0.15476248 -0.21368349  0.38240644
 -0.01059001  0.08486518]
[ 0.08111275  0.35626572 -0.18016194  0.3187304   0.26512113  0.23226488
 -0.23431428  0.035028   -0.23561738 -0.09620519  0.1835763   0.18319663
  0.46037236  0.4596913   0.05508739 -0.13563372  0.1340963  -0.01770766
 -0.17667532 -0.302875  ]
[-0.07195727 -0.24767818 -0.01445943  0.39417553  0.31434172  0.45810613
  0.16049439 -0.09534684  0.31485915  0.10344443 -0.3183585   0.07091374
  0.24412799 -0.17762302  0.02918864  0.18948944 -0.30404788  0.05818879
 -0.21201156 -0.30260673]
[ 0.02639139 -0.35397252  0.4260145   0.1994835  -0.44329512 -0.02412763
 -0.2751825   0.2947223  -0.23939031  0.18786608 -0.04715502  0.3231328
  0.2681708  -0.18311812  0.21626578 -0.29941815 -0.08589991  0.10134908
  0.29712233 -0.34215158]
[-0.04892474  0.10992707  0.35565543  0.09769502 -0.01620623 -0.02496717
  0.19104142  0.42765695  0.16476311  0.05347973 -0.42358968 -0.24354722
 -0.0540288  -0.35535175  0.08012385  0.23651256 -0.17867355  0.17661111
  0.0714635  -0.22260708]
[ 0.3245857   0.03734661  0.1676673   0.10351226  0.25205925  0.18264802
  0.2193622  -0.20691456  0.30649525 -0.08869936 -0.4160897   0.01038331
 -0.18374163  0.19178055  0.267172    0.38520172 -0.25269398 -0.21930137
  0.08153626 -0.20903844]
[ 0.22028631  0.15118392  0.08380066 -0.11111072 -0.09197938 -0.18871064
 -0.43197012 -0.22798227  0.04006293  0.16317397  0.21189542 -0.07198413
 -0.31337845 -0.3959902   0.0165178  -0.08536579 -0.16819805  0.03792639
 -0.38132828  0.3451866 ]
[-0.18315277  0.3865439  -0.352665   -0.11075749  0.17085727  0.3307156
  0.35302785 -0.24886028 -0.04842921 -0.416702   -0.3424696   0.02541192
  0.07771406 -0.07990552  0.23359573 -0.00831505 -0.3290307   0.26912534
 -0.2385796  -0.21396467]
[-0.01620919 -0.1572558   0.12002907  0.04370404 -0.21692048  0.00773364
 -0.3112534  -0.20284773  0.2520393   0.32516477 -0.23058474  0.1164562
 -0.38934556 -0.0444946  -0.36833972 -0.3552019  -0.01486678  0.31785464
 -0.2589232   0.3312001 ]
[-0.19315244 -0.0210161  -0.01987918  0.21536171  0.08019254  0.17554116
  0.27357614  0.24696307 -0.24876659  0.22297457 -0.39250028 -0.45155954
 -0.02945498  0.38969663 -0.16253527  0.04619918  0.11522727  0.20003411
 -0.44118968 -0.3967158 ]
[-0.29050422 -0.2927685  -0.23935038 -0.05564518 -0.05871645 -0.03071343
  0.49529418  0.24314277 -0.30043447  0.14934573 -0.1583956  -0.22428088
 -0.23840062  0.37308764  0.3204925   0.06521598  0.17833096  0.26173154
 -0.17877018  0.05281081]
[-0.1379715   0.37407866 -0.3024661   0.08526962 -0.07344414 -0.09247786
  0.19465984 -0.25605297 -0.12009137 -0.14047024 -0.09861108 -0.02840624
 -0.20428698 -0.08086232 -0.20294319  0.3281175   0.222723   -0.14627531
 -0.06786183 -0.11083338]
[-0.0510951   0.34895822 -0.08855286  0.1921733   0.15323637 -0.01507001
  0.33081427  0.30156875  0.2555369  -0.3185611   0.06694379  0.12165299
  0.41145462 -0.52525055  0.27640137  0.3798366   0.01181085  0.09789597
  0.36317495 -0.358537  ]
[-0.32359043 -0.29370657  0.22399949 -0.27514988  0.02842978  0.25501552
 -0.3806197   0.38462147  0.27735865  0.1229669  -0.2979559   0.1805284
 -0.14690611 -0.00524348  0.44847518 -0.05604444 -0.2163182  -0.18475352
  0.3443114  -0.13575383]
[-0.4971283  -0.38020983 -0.1750728   0.20902592  0.04649324 -0.2614869
 -0.03431882  0.13198291 -0.27920917  0.2788481  -0.16848537  0.26616767
 -0.26528543 -0.02947601  0.01925688 -0.03432655  0.3422325   0.23066534
 -0.09168858 -0.08922644]
[ 0.1518074   0.3525926   0.42241463 -0.09211554  0.20398493 -0.00773702
  0.03543622 -0.37415123 -0.22818862  0.13098305 -0.16756797  0.23290658
  0.16576734 -0.1872739  -0.5669398  -0.01981811 -0.0187053  -0.25882888
  0.05674793 -0.28039625]
[ 0.08052064  0.17761451 -0.12589404 -0.21185373 -0.16267206  0.24470992
  0.05364218  0.09863152 -0.1953154   0.01976833  0.07811442  0.1040655
  0.18255423 -0.2899349  -0.0917251  -0.06057517  0.12273226  0.10565238
  0.11940041 -0.0739744 ]
[-5.5546254e-02 -2.5204614e-01  9.0793632e-02  1.4472893e-01
  1.2693350e-01  9.7432218e-02 -1.3907467e-01  7.7722050e-02
 -1.2494904e-01  3.8095352e-01  1.3405783e-01  8.6124711e-02
 -9.3698777e-02 -2.7766550e-02  1.5559529e-01  9.9253863e-02
  2.6444369e-04 -1.5692465e-01  1.2272875e-01  6.3032575e-02]
[ 0.10246661  0.21129888  0.0691685  -0.1830161   0.4899676   0.10759518
 -0.36085516 -0.08472338  0.00678663 -0.10220706 -0.2765709   0.01820562
  0.22096583  0.19232278  0.41915485  0.2925737  -0.0082658   0.03427682
  0.02277731 -0.01202127]
[-0.08693079 -0.06757851  0.055517    0.05629899  0.06036842  0.06727907
  0.13501163  0.07884166  0.02734332  0.03323301 -0.02012137  0.01548746
  0.10360305  0.052778   -0.01457603 -0.00847299 -0.00190201 -0.08905851
  0.00608794 -0.0242129 ]
layer 1 Activation
tanh
layer 2 Dense
20 40
[-0.02640999  0.26276523 -0.13195544  0.19684209  0.18933319 -0.23566693
  0.29023334 -0.12193759 -0.3125233   0.01109509 -0.11101469 -0.0139725
 -0.19702283 -0.1073637  -0.08275695 -0.11297314 -0.23718509 -0.2523584
 -0.2087923   0.10933088 -0.13114901  0.00293394  0.17192212 -0.16875368
 -0.05841599 -0.02173243 -0.2553698   0.09698571  0.03896415 -0.05466274
  0.2051576  -0.2523487  -0.12421542  0.16771828  0.21363914 -0.23215543
  0.11093795 -0.00641076 -0.17605323 -0.00331736]
[ 0.06492106 -0.15709375 -0.35161677 -0.02458783 -0.0205624   0.07710148
 -0.12991591  0.17455763  0.170205    0.13633908 -0.22524692  0.16122629
  0.07704121 -0.239558   -0.16985692  0.05406871 -0.11164472 -0.16535798
  0.09049278  0.01040473  0.18017447 -0.23966755 -0.20767498 -0.0515355
 -0.19672062 -0.00901717  0.06988612  0.00406515 -0.26803657 -0.23495886
 -0.1179162  -0.03841106 -0.21232665  0.05539909  0.08274476 -0.23088153
  0.11947908 -0.27169272 -0.11921714 -0.21964604]
[ 0.0391617  -0.24484375  0.12319922  0.27649212 -0.16875188  0.30295414
  0.16385897 -0.2034236  -0.29281166 -0.04743662 -0.1130658  -0.11534809
 -0.11478026 -0.01851415 -0.22724381  0.25247446 -0.12337475 -0.1581679
 -0.02634469  0.07013508 -0.10533825 -0.16207562 -0.01316915  0.29263687
 -0.03210721  0.09274852 -0.21276492 -0.19250558 -0.1489157   0.272222
  0.11659418  0.15595156 -0.02699305 -0.21176513  0.17305394  0.0385062
  0.16088884 -0.10276961  0.24366651  0.2898459 ]
[-0.10374442  0.05943783  0.21806356 -0.16832462 -0.15187539 -0.14087246
  0.26764384 -0.10873343 -0.19108564 -0.14844728 -0.241122   -0.43927857
  0.23279826 -0.0530698  -0.12108706  0.08173298  0.28847837 -0.14951967
  0.22461079 -0.04703614  0.22914526 -0.12370131 -0.18387453 -0.08372148
  0.09553776 -0.12993582  0.26782274  0.13072057  0.06125177  0.23050922
 -0.03275314  0.1674907   0.27367756  0.01587091  0.16651042 -0.0413935
  0.10763238  0.07157065 -0.14338917 -0.16050193]
[ 0.26658106  0.2513842  -0.27936786 -0.00683694 -0.05029439 -0.15529102
 -0.08306334 -0.0836908  -0.04752883  0.10706338 -0.1673879   0.10308468
  0.12712862 -0.20845988 -0.22439066 -0.21491817 -0.11362977 -0.23889998
 -0.2239542  -0.23060802  0.3731419  -0.19213422  0.16274713  0.34775034
 -0.17065407  0.07131139 -0.18187241  0.07995377 -0.11425825  0.23915178
 -0.11141963  0.20322789  0.00295302 -0.13285285  0.07540747  0.04775436
  0.20402965  0.10319569 -0.03864061  0.24670115]
[ 0.13540894  0.21156015 -0.25492045 -0.24830285  0.23437224 -0.34639275
 -0.03186254  0.00941033 -0.18554376 -0.16970846  0.05189466  0.36818838
 -0.11691878  0.14299268  0.16316235  0.12316199 -0.03927712  0.1274143
  0.2379068  -0.07210786 -0.07697927  0.09154513  0.20584255  0.21029915
  0.21906188  0.2789198   0.10490459  0.00124701  0.09392297 -0.10670336
  0.28476638 -0.09414254 -0.15676905 -0.2078695   0.35337478  0.18728274
 -0.19461738  0.17807738 -0.01238887  0.20821275]
[ 0.04056404  0.217337    0.08021659  0.15331474  0.06899159 -0.11284091
  0.12683035 -0.27362937  0.16110392 -0.2500032   0.2575352  -0.19072913
  0.29322246  0.01266987 -0.32602495 -0.24675985  0.18123809 -0.17854995
  0.12887135  0.18717538 -0.0754222  -0.25425157 -0.25125384  0.12008282
 -0.37461862  0.01833678  0.1740142  -0.02111518 -0.03657865  0.16372067
  0.14141811  0.29530817  0.0780491  -0.0046812   0.21811934 -0.03241655
  0.08429211  0.20770337 -0.10366277  0.09736763]
[-0.24178223 -0.15649243  0.20063077  0.07453341  0.14003386  0.02539871
  0.05984957  0.24295524  0.19103521 -0.23066333  0.09053402  0.03766771
  0.13453157  0.18548976 -0.30699077  0.2342728  -0.10854742 -0.03152533
 -0.15432943 -0.0379296  -0.05472998  0.01444765 -0.31990394 -0.0345045
  0.16658849  0.02164419  0.03293081 -0.03129953 -0.13654765 -0.08856847
  0.03529091  0.16593875  0.17114937  0.22086796  0.04506556  0.12284911
  0.07353067  0.25202337 -0.23872635 -0.07688566]
[-0.1551057   0.3031207   0.10332922 -0.2717608  -0.01530143 -0.23189113
 -0.20605114  0.15378469 -0.21922849  0.1077534  -0.03894893  0.29397857
 -0.03246394  0.2050936  -0.07104669  0.27572373 -0.22684672 -0.1800016
 -0.3236375  -0.04944384  0.07387821  0.34242356 -0.02805047  0.12646164
 -0.3321881   0.2109163  -0.08278572 -0.13905793  0.16838399 -0.205026
  0.18611632 -0.05040613  0.07368595 -0.03575242  0.01084959  0.06885941
  0.20831731 -0.19407092  0.2566095   0.15359382]
[ 0.14304626  0.23946936 -0.17048693 -0.01437059  0.04808109 -0.1879477
  0.0695923   0.2761961   0.21021077 -0.03449259  0.12432476  0.0073915
 -0.22687635  0.22770865 -0.0945638  -0.24275477 -0.23420873  0.01719764
  0.21750316  0.06970606 -0.2670935  -0.14301294  0.1384168   0.09922621
 -0.04066893  0.1965857   0.14877824  0.02332865 -0.17658472  0.27245003
 -0.04860996 -0.27812222 -0.10127962  0.2341942  -0.19053295 -0.077844
 -0.00073194  0.16249797  0.20255053  0.16126256]
[-0.19220716  0.18890463  0.19827102  0.129669   -0.02311888  0.02103356
  0.00935399 -0.10944354 -0.08554073 -0.16627637 -0.1238459  -0.2108653
 -0.3342285  -0.285999   -0.04906545 -0.06105866 -0.21021877 -0.0091304
 -0.37230653  0.15301354  0.3144782   0.14542432 -0.25460908 -0.10422693
  0.10434324  0.31518787 -0.01705274 -0.15409596 -0.07600265 -0.17628884
 -0.09348537 -0.10875179  0.18856788 -0.2741885  -0.07831725 -0.1951988
  0.1585492  -0.17744376 -0.22843827  0.04286799]
[ 0.32019126 -0.00471762  0.14798231 -0.23409437 -0.20976445  0.05577828
  0.10427687 -0.17362744 -0.2542386   0.18979822  0.21418846  0.20008445
  0.31730592 -0.02028307 -0.08201043  0.17965555 -0.29666466 -0.20442005
 -0.18586257  0.19719441 -0.02423993  0.18204817 -0.12729232  0.20422404
  0.3513459  -0.13906625  0.31915003  0.11480331 -0.02910214 -0.0617698
 -0.30557206  0.03537088  0.07425067  0.42095187 -0.15968685 -0.26600325
 -0.06049665  0.03864485  0.3290595  -0.04539542]
[ 0.07148137  0.08309619  0.3644854  -0.00879007  0.28595647 -0.02274515
 -0.00932777  0.07318518 -0.16487966  0.04647455  0.14625168  0.07861816
  0.3788271  -0.07374009 -0.4467854   0.00749944  0.34856907 -0.10659682
 -0.2511748  -0.07881796  0.31811997  0.212605    0.12609793  0.24592885
 -0.33424324  0.2249804   0.28024197 -0.19787678 -0.14604135 -0.10425857
  0.15984015  0.08248559 -0.03690374 -0.26073456  0.27562594  0.2642566
 -0.08847438  0.29878056 -0.04617275 -0.1806191 ]
[ 0.2307798  -0.06667916  0.0337682  -0.3271391   0.2638339  -0.17367986
 -0.27792704 -0.04801108  0.10947351  0.17223474 -0.01683281 -0.03315034
  0.02544292 -0.1824138   0.17011476 -0.3264983   0.03775429  0.28124976
  0.0724453  -0.13786006 -0.13077359  0.18640338  0.20362099 -0.03190086
 -0.12895271  0.2903712   0.02243991  0.35377136 -0.1379878   0.11919644
  0.04541117  0.03146664 -0.21882977  0.08510724 -0.22105525  0.06755243
 -0.17803238 -0.31327817 -0.18152092  0.08860417]
[ 0.12908918 -0.35949057 -0.3536349   0.19452159  0.04931005  0.01915332
  0.18289727  0.11766391  0.1245305   0.40852135 -0.0385521   0.06864402
 -0.01997358  0.2064643  -0.13315034 -0.18018743  0.34457633  0.04528181
 -0.07637613 -0.40417442 -0.20688327  0.3895122  -0.32741177  0.20578404
  0.07292857  0.17148283  0.29879633  0.23995577 -0.13808163 -0.27130193
 -0.04351564  0.252275    0.10424632 -0.37291804  0.4180943  -0.32168892
  0.0765705  -0.02618705  0.52141714  0.01401851]
[ 0.09792815  0.25025773 -0.08885044  0.04394237  0.44282833  0.13975565
 -0.01219784  0.19985436 -0.01524907 -0.08581142  0.23171026  0.3896114
  0.27757338  0.12716295 -0.13753012  0.23464738 -0.01724082 -0.00587588
 -0.33235177 -0.36008793 -0.0095274  -0.06284381 -0.1419042  -0.23322049
 -0.2749222   0.16264817  0.18616264  0.07638248 -0.03431111 -0.3070959
 -0.06464256  0.23516749 -0.01971981  0.21049987  0.23898491 -0.21650678
 -0.16491663 -0.00727818 -0.18979618 -0.1556559 ]
[-0.11933029 -0.220189    0.23091604  0.08715476  0.02868847  0.19544788
  0.17915829 -0.12096306 -0.06750541 -0.05186025  0.16178875 -0.21156655
 -0.24260134  0.19739273  0.09186884 -0.11002392  0.1836954   0.2621406
  0.01126681 -0.2787631   0.06818354 -0.08808477 -0.06642382 -0.13103047
  0.25515446 -0.10840007  0.06324744  0.0686888  -0.11083449  0.11569518
  0.12431289 -0.072604    0.13715737  0.08173352 -0.13682085  0.15982305
 -0.01783547 -0.1400205   0.16909312 -0.1687168 ]
[ 0.00192818  0.18624616 -0.23983307  0.22520143 -0.1080147   0.1429509
 -0.10934405  0.093908   -0.19043139  0.24852324  0.21967852  0.17838968
  0.06684072  0.1901777   0.0156559  -0.17483842 -0.17432383  0.305339
  0.08117632 -0.14838521  0.23989221  0.01933059 -0.07225112 -0.12815145
 -0.02454361 -0.14202198 -0.2347527  -0.04616212  0.08730835 -0.08841916
  0.24124244 -0.04246774 -0.26436612  0.26461506 -0.07397118 -0.07086955
  0.24545817  0.01090479  0.15986502 -0.18584378]
[-0.00440062 -0.21581452  0.05099634  0.12806231  0.25108323  0.1395487
 -0.12852031  0.09728934 -0.16742131 -0.10588289 -0.27132973  0.06633262
  0.07409523  0.21420048  0.24314708  0.30779356 -0.25596705 -0.38858327
  0.10546362  0.15454742 -0.01925946  0.30434957 -0.35334036 -0.04317858
  0.05662016 -0.1883244   0.31976992 -0.12485822 -0.33458468  0.24070126
 -0.14995351  0.02829039  0.3008732  -0.27543142  0.14767449  0.3477925
  0.28552532 -0.0497849   0.490864    0.4191953 ]
[-0.21473429 -0.00874241  0.06714316 -0.18901278  0.25110888  0.134454
  0.28922108  0.00239225  0.2446422  -0.02297888  0.3139762   0.24105938
 -0.18562059  0.06738195  0.1367577   0.09778145 -0.30857474 -0.17418253
 -0.2938469   0.04775444 -0.10049659 -0.07432521  0.0695335  -0.31860057
  0.29336932 -0.34108114  0.07356501  0.37763867 -0.115966   -0.20862734
 -0.12961933 -0.01675724  0.2930209   0.07317207 -0.04621073  0.11851695
  0.12802115 -0.1822239  -0.12683547 -0.02652445]
[-0.04143294  0.01122523  0.06471582 -0.0820618   0.03890978 -0.06289355
  0.02880912  0.01047219 -0.02306681 -0.09220173 -0.04995715 -0.00749286
  0.09211361  0.07089272 -0.03524108  0.04801823 -0.03945483 -0.03529706
 -0.0053895  -0.07980479 -0.05103547  0.04403293  0.02984721  0.14098208
 -0.07308338  0.06680783  0.02650058 -0.09904999 -0.00104154  0.05184221
  0.0989987   0.02546437 -0.00436293 -0.06280467 -0.03759801  0.05672362
 -0.01407341  0.05288961  0.0290166   0.03088249]
layer 3 Activation
tanh
layer 4 Dense
40 20
[-0.06415325 -0.22863416  0.05562551 -0.20125301 -0.17565992  0.20443176
 -0.15063113  0.11746633 -0.05455474 -0.14735192  0.24132267 -0.28530684
 -0.05999236  0.2431953   0.15105686  0.21657023  0.14340834 -0.15174623
 -0.22675847 -0.24479939]
[-0.29723853  0.00469798 -0.1069932  -0.24175438 -0.24501495  0.13715595
  0.16147433 -0.16111638 -0.14976041  0.08899993  0.26131418  0.3351146
  0.04177151  0.27939692  0.20374905 -0.24015054  0.23597023  0.16436106
 -0.06240541 -0.27169102]
[ 0.26798213 -0.09581099  0.04138376  0.03275023 -0.3089678  -0.23345439
  0.27013773  0.07409893  0.21901496  0.03098501 -0.19422905 -0.18979934
  0.22180267  0.05609792  0.10378416 -0.22606044  0.34262106  0.23360229
 -0.29560417 -0.03502653]
[-0.00598823 -0.1357123  -0.25293893  0.09507011 -0.09469643 -0.24167436
 -0.0795263  -0.0835901  -0.29223004 -0.03758565 -0.33864915 -0.01916196
 -0.2896154  -0.06881552  0.07226759 -0.21996842  0.19702573  0.21700534
 -0.0566927   0.12484225]
[-0.21584895  0.05409721  0.01258906  0.02740771 -0.14342324 -0.21596584
  0.33208203  0.10978756  0.33602968  0.0245685  -0.19697036 -0.25908643
  0.1513852  -0.02799529  0.16396712 -0.15726599  0.17569853  0.10543573
  0.1804627   0.07875535]
[ 0.08866015  0.2911481  -0.13700818  0.17921655 -0.33419654 -0.12449545
  0.02710383 -0.07353912  0.15783992  0.16740467  0.07388218  0.17359316
 -0.2255352  -0.18194374 -0.23128863 -0.07253169  0.15638399 -0.24336362
 -0.19086416  0.01339761]
[-0.16244808  0.21837941 -0.17735624 -0.20240757  0.09616448 -0.13154522
  0.22570723 -0.10067577 -0.12493     0.26034796 -0.14198604 -0.24688521
  0.21356648  0.06477981  0.04950438 -0.09607062 -0.2581486   0.05831913
  0.20843783  0.02842358]
[ 0.02870549 -0.21831506 -0.055774   -0.01592653  0.06119146 -0.07225234
  0.02021433 -0.1834749   0.18517327  0.01569237 -0.12918417  0.28406346
 -0.00931026  0.21277468  0.11427918 -0.16580203 -0.34241366 -0.05181067
 -0.3052279   0.17077404]
[ 0.17335296 -0.01570481  0.22149685  0.250343    0.21088026  0.2471763
  0.02374901  0.00971147  0.17227669  0.08573368 -0.00693328 -0.12026922
 -0.04017352 -0.03005359  0.19978188  0.18389112 -0.07429     0.16261342
  0.07625604  0.17517668]
[-0.14845353 -0.2754443  -0.25009546  0.1668552   0.18145272  0.21789308
 -0.01118778 -0.26758915  0.27696952  0.1292753  -0.11784275  0.16125724
 -0.18635313 -0.20120448  0.28885773  0.18343866 -0.14432426 -0.13845026
 -0.09319711 -0.18199761]
[ 0.00792252  0.03090602 -0.11465784  0.04378069  0.09697281  0.14799623
  0.04582991  0.06636956  0.15588672  0.14047992 -0.18352887 -0.06504232
  0.20248295 -0.14474413  0.10239519 -0.03451333 -0.11707561  0.24691972
  0.35512286  0.07676437]
[ 0.06961153 -0.21521986  0.06453716 -0.21780592  0.17911203  0.06721576
 -0.24067037  0.1721233   0.22808273  0.01293142  0.23755468  0.28592116
 -0.11599958  0.08263247  0.09077873 -0.00490505 -0.33644724  0.12330605
 -0.1262124   0.27794078]
[ 0.01167702  0.20233965  0.21980327 -0.23081055  0.24399728 -0.02588462
  0.06407981  0.03340662  0.13682689  0.20951442 -0.04131373 -0.15290023
  0.24866201  0.14015326  0.30216908  0.24101947  0.35107905 -0.0599142
 -0.13077828  0.00150419]
[-0.10594349 -0.05390533 -0.21046308 -0.05941956 -0.11134866 -0.23531434
  0.12049598  0.33836952  0.15856807 -0.06194837 -0.19904159  0.04352517
  0.05739949 -0.27489722 -0.20048968 -0.21825454  0.09083027 -0.2091403
 -0.32773453 -0.3277956 ]
[-0.11285848 -0.02802758 -0.1284317   0.09912059  0.15005448  0.30701515
 -0.02555099 -0.22577955  0.05136482  0.12490439  0.03129986 -0.14689988
  0.25267515 -0.11968885 -0.21572712 -0.18335749 -0.35700035  0.00789454
 -0.118714   -0.09714083]
[-0.12689483  0.10727566  0.26644167 -0.19279173 -0.09316009  0.27664205
 -0.2617512  -0.03122444  0.24969617  0.28374976  0.04592212 -0.05339102
 -0.12243606 -0.31040415 -0.04887342  0.04492475  0.2192165  -0.05090174
  0.22566235  0.08805648]
[-0.28943276 -0.20723505  0.09953602  0.16381976  0.25096717  0.20261365
 -0.04335734 -0.06880385  0.04513939  0.24051581 -0.24065393  0.08355531
 -0.1970092   0.2726765  -0.0307544  -0.10645002 -0.05268069 -0.07976507
 -0.35727608  0.1703659 ]
[ 0.04652651  0.19913782 -0.08547261  0.18849291 -0.11066353  0.2410881
 -0.04539856  0.1608025  -0.12532833 -0.17903468  0.01836669  0.01203321
 -0.07805178  0.02019981 -0.05813419  0.16043378 -0.13347344  0.18317668
  0.08379225 -0.34128913]
[ 0.10060381  0.27606165  0.21542703 -0.2835996  -0.04285812 -0.01888572
  0.1270481  -0.0548437  -0.27386153  0.05576933 -0.03730965 -0.26040247
 -0.26274014 -0.20821825  0.00264216  0.18284608 -0.13863438  0.2403746
 -0.04519882 -0.26352036]
[-0.07684006  0.26334807 -0.06165883 -0.32298294 -0.15257886  0.2568982
  0.14110823 -0.17917901 -0.04276027 -0.20399772 -0.07542248  0.27646917
 -0.19228262 -0.25358537 -0.33665228 -0.27341413  0.23675276  0.21468808
  0.19441023 -0.17388321]
[-0.08375198  0.01793735 -0.16964562  0.22868334 -0.17882934 -0.29288426
  0.07721735 -0.17058185 -0.25344974  0.18083158 -0.21962176  0.04967338
  0.07381127  0.30691302  0.20755889 -0.08183204 -0.10635064  0.1839866
  0.00210071  0.20290485]
[ 0.20230083  0.03480786  0.33069506 -0.17181166 -0.08665527  0.02333275
 -0.30225414 -0.02275934  0.23118865 -0.07924213  0.15368862 -0.11665015
  0.08743902  0.08945582  0.05458806 -0.09205692 -0.25715137 -0.3682942
  0.2016814  -0.14715335]
[ 0.33717924 -0.06581659  0.27959648  0.20460215  0.31811854  0.21240762
  0.06573324  0.063098    0.23683998 -0.19141297  0.16097365 -0.29063296
  0.17283382 -0.23923555 -0.37108764 -0.21689114  0.05088443  0.08029608
 -0.15677807 -0.24791676]
[-0.04103082  0.26828977  0.22900507 -0.26983163  0.2742555  -0.00109511
  0.14689578  0.1655304   0.01531318 -0.14837162  0.16677694  0.24819788
  0.22262648  0.28723136 -0.24997543  0.04236485 -0.07459929  0.219219
  0.08737768 -0.19444038]
[-0.03086102  0.31067216 -0.22507516  0.09395967  0.23978382  0.25777388
  0.02839341 -0.19298972  0.29377586 -0.08300106 -0.18543254 -0.09778629
  0.07587671 -0.3092702  -0.16009204 -0.24929374 -0.3037303   0.25275546
  0.19343194  0.11133122]
[-0.00648765  0.2471319   0.1193269  -0.08498266  0.17948647 -0.31253105
 -0.06525413  0.2504855   0.22200984  0.30953994  0.09021105 -0.27101678
  0.22375531  0.07515508  0.08135279 -0.19177009  0.15635714  0.052428
  0.01086211 -0.25586012]
[ 0.04691399 -0.21371233  0.25481415  0.1094411   0.17961067 -0.24554029
 -0.2846356   0.00316005  0.27351952 -0.09018841  0.07753141 -0.19390792
  0.27349657 -0.15831213  0.10489579  0.28680158  0.2195466  -0.16977364
 -0.16102074  0.05058912]
[-0.22132677  0.22672105 -0.19499642  0.16405249  0.1632874   0.2774049
  0.00130131 -0.30777168 -0.08371625  0.1472401   0.08911795  0.27156717
 -0.26878488  0.29835668 -0.1490481   0.33311766 -0.20819522 -0.23615298
  0.06675562  0.0453693 ]
[ 0.01254388 -0.28449762  0.18061455  0.05210164 -0.16298576 -0.16187383
  0.04414403  0.087309   -0.14501488  0.11688215  0.19380613 -0.10344081
 -0.004109   -0.08446417  0.19602749 -0.2532377   0.02017729  0.09930159
 -0.13920195  0.1861242 ]
[-0.2851885  -0.02031905  0.10574967 -0.34719607  0.10976522  0.00249745
  0.14317584 -0.07049672 -0.19771898  0.11487885  0.25694486 -0.21934648
  0.19087617  0.32531255 -0.10535556  0.26239574  0.30722097  0.11578992
 -0.1374008  -0.10620738]
[-0.18019775 -0.0154547   0.22364984 -0.11795744 -0.08153764 -0.24165939
  0.19097574  0.3239556   0.19631626  0.00540339 -0.18790296 -0.03757925
 -0.07422197  0.02900211 -0.33424357 -0.21425308  0.15703058 -0.21663769
 -0.3095905  -0.03512532]
[-0.22391847 -0.2679969   0.00561706  0.20785421  0.23197082  0.10170089
  0.10295049 -0.0409314   0.2636735  -0.08592515  0.00395129  0.2929399
 -0.2565553  -0.0079328   0.07881308  0.0346413   0.19332719  0.12792443
 -0.23827483  0.1769103 ]
[-0.17957696  0.00276651  0.07197031  0.16266726  0.27947798  0.03039617
 -0.17290504  0.01896547  0.17844573 -0.09670863 -0.2114085   0.10090992
  0.22487599  0.15151443 -0.2853493  -0.22549154  0.09090208 -0.16534808
 -0.07772227  0.06615823]
[-0.10762104  0.14291865 -0.21774594  0.04223626 -0.03465804  0.1765831
 -0.04029338  0.18354899 -0.17281635  0.16759153 -0.05813184 -0.2115108
 -0.19929911 -0.08599051 -0.18299444  0.18959403  0.31718585  0.04180451
 -0.01974436 -0.16729772]
[ 0.0336197   0.04819004 -0.33763438  0.0181096  -0.13370115 -0.30733433
  0.18451655  0.13752995  0.24657068  0.16054104 -0.23410088 -0.22873954
  0.15392537  0.04065029  0.2513804  -0.18865444 -0.14151081  0.19218048
 -0.28881574 -0.23707463]
[ 0.0036859   0.05187085  0.35107067 -0.18489623 -0.01281016  0.32653788
 -0.02065245  0.25937155  0.03549894  0.14341128 -0.14844315 -0.09110969
  0.03489519  0.10096433 -0.17073466  0.15236825  0.02926756  0.02310426
  0.13820167 -0.15879546]
[ 0.01351131  0.19345714 -0.06456109  0.19354635 -0.1471041   0.03168313
  0.06901923 -0.10390887  0.38005394  0.10118707 -0.13417743 -0.23838928
  0.21094407 -0.1901366  -0.24502121 -0.06781337 -0.24682938 -0.20146826
  0.02968432  0.07371923]
[-0.10665641  0.16789487 -0.09958737 -0.25695658 -0.25792286 -0.28421295
  0.16586234  0.10738444  0.06438687  0.11149631  0.19553803  0.27422717
  0.11636157  0.27799556 -0.2552788  -0.23754016  0.16461778 -0.31561387
 -0.316995    0.13319464]
[-0.0338001  -0.05901017 -0.2006502  -0.27969047  0.12704484 -0.14463586
 -0.22775303  0.25613505  0.26722232 -0.2604854  -0.06286699 -0.26861963
  0.21184394  0.16653724  0.19223578 -0.06311729 -0.22541383 -0.15012483
  0.3049     -0.2557113 ]
[-0.07248261  0.23713468  0.17505354 -0.05834764  0.12025283 -0.224838
 -0.04987589 -0.15114468 -0.01942722  0.06373348 -0.09040336 -0.0303991
 -0.15739489 -0.2155776  -0.31975824  0.01196365  0.21613188  0.19956525
  0.19167493 -0.18155147]
[ 0.01391096 -0.02527644  0.03292315 -0.06115634  0.01741929 -0.05284784
  0.03537722  0.06411029  0.03844351  0.03424096  0.02746944 -0.02122648
  0.06269546  0.04182989 -0.04220773  0.02891518  0.0364953   0.01887025
  0.01501452 -0.03312029]
layer 5 Activation
tanh
layer 6 Dense
20 1
[0.27600202]
[-0.3511823]
[-0.43087247]
[-0.33211756]
[0.03156415]
[-0.1574791]
[0.33882865]
[-0.3652817]
[0.4291425]
[0.15833335]
[0.19895934]
[-0.09273051]
[-0.28813127]
[0.30875078]
[-0.2897093]
[0.09464941]
[0.23563582]
[0.09604653]
[0.32066926]
[-0.00990334]
[0.02161009]
