layers 7
layer 0 Dense
20 20
[-0.02169631 -0.14224409  0.60916877  0.03423283  0.2254567  -0.62764144
  0.72334796 -0.08899655 -0.51270247  0.14420399  0.22161226 -0.18389022
 -0.18906009 -0.91159    -0.18069667 -0.31221682 -0.04131898  0.11438605
  0.18938047  0.13625076]
[-0.29750797  0.10644513  0.06074151  0.32505912 -0.15865164 -0.1630515
  0.15486741 -0.1939033   0.20348448  0.00926262  0.13571137 -0.38086712
  0.16012627  0.38068944 -0.00622541 -0.07516581  0.17297333 -0.1065647
 -0.35007942  0.2833507 ]
[ 0.06946921 -0.02146727 -0.2727624   0.37228984  0.08916652  0.12857652
 -0.19775872  0.35645163  0.2821262   0.05299398  0.22938144  0.32029635
  0.23258209 -0.15383355  0.12590414  0.20232242 -0.26917222 -0.28855532
  0.17395389  0.26440936]
[ 0.39271256 -0.2753082   0.664372   -0.24161924  0.6102024  -0.00759826
  0.36971173 -0.2316109  -0.6520289  -0.17898256 -0.05293866  0.3273047
 -0.27677777 -0.31399506  0.22934268 -0.6511511  -0.11386489  0.18122476
  0.34538913  0.39967152]
[-0.00955467  0.4390793   0.17843913 -0.03481871 -0.11144931 -0.51992506
  0.01560229 -0.34283057 -0.05257475 -0.21956742  0.14556837 -0.03112965
 -0.17906787 -0.02078189  0.16841722 -0.6104403  -0.09579392 -0.03953215
 -0.32509372  0.13351853]
[ 0.07278973  0.03996381 -0.28099996 -0.01980665 -0.27983963  0.24741518
  0.10197785 -0.08659488 -0.34090662  0.3237204  -0.31288826 -0.1454054
 -0.28768402 -0.2866522   0.06813547  0.13687283 -0.18512267 -0.16843893
 -0.18845935 -0.05733252]
[-0.20045263  0.2004183   0.22257292  0.29674911 -0.1704774  -0.00627527
 -0.27627885  0.22820413 -0.25245905 -0.03570229 -0.11352208 -0.2258035
  0.15147716  0.02000028 -0.2017258   0.291201    0.23746812  0.28846085
 -0.2321846  -0.01415467]
[-0.5961539  -0.58204377 -0.7128201   0.5459792  -0.30984032  0.89412576
 -0.40971714 -0.05727695  0.5490463   0.04986784 -0.22438495  0.19721954
  0.4269945   0.17497027  0.04815942  0.43892038 -0.417053   -0.42909917
 -0.18534943  0.01043693]
[-0.5426838   0.21997556 -0.26528454  0.40248412  1.0138359  -0.03679638
 -0.021215   -0.26185644 -0.04462948 -0.82261616  1.0655725  -0.38627625
  0.71109104 -0.5401241   0.3691126  -0.5193053  -0.22081764 -0.46402088
 -0.63573617  0.70497566]
[-0.41917366 -0.01312512 -0.15394622 -0.02130272  0.20236476 -0.07781543
  0.67295945 -0.46211213  0.06090115  0.7775038   0.7994989   0.03293611
  0.5464945   0.12092885  0.14484563 -0.01058021  0.43931982  0.3894961
  1.2703097  -0.5704565 ]
[-0.51957184  0.11796866  0.04198065  0.50131    -0.12249348 -0.06290317
 -0.37140477  0.6485458  -0.12630698 -0.06280691  0.21643758 -0.05977293
 -0.562347    0.13554673 -0.25788152 -0.01417062 -0.09226768  0.5509878
  0.65926015  0.75401264]
[ 0.18269306  0.1781646  -0.7966666  -0.19022048 -0.34856722  1.1743852
 -0.16852292  1.65219     1.2326442   2.014053   -2.524872   -0.06744395
 -0.11736082  0.7037321  -0.2046677   1.7088106   0.68853414  0.05578898
  0.45671365 -1.7745625 ]
[-0.31085417  0.11083395 -0.23618297  0.43518162  0.94432986 -0.5724547
  0.24485773  0.00129846 -0.3991784   0.49508438 -0.5059351  -0.52757096
  0.33325472  0.6474513   0.53332007  0.14511897  0.97590494 -0.5028986
 -0.11188503  0.08175793]
[-0.38708693 -0.05595269 -0.14987947 -0.03190287  0.08959457 -0.0774432
 -0.32027534 -0.17046794  0.08070648  0.36805364  0.45463717  0.5893588
  0.6437589  -0.28715837 -0.5798846   0.03036097  1.0627939   0.40225857
 -0.9291857  -0.2624529 ]
[-0.50066155  0.03468268  0.11284845  0.6000739  -0.10703641 -0.02211868
  0.21811444  0.18730424 -0.09802355 -0.1463067   0.08239241  0.9431205
 -0.55752766  0.10500256  0.8910278  -0.05659341 -0.06004826  0.4974929
 -0.4153299   0.14405826]
[-0.31171808  0.34407583 -1.165671   -0.20734598  0.8426501   1.8006228
 -0.38898575  0.1190038   1.9823339  -1.014891    0.522514    1.290015
  0.15399659 -0.36802876 -1.4805418   0.6817398  -1.6050656   0.18149748
  0.36376768 -0.44707787]
[ 2.1777318e-01  7.9059243e-01 -3.5247433e-01 -8.3314560e-02
 -9.3565345e-01  3.9274812e-01  3.8222855e-01  3.9925852e-01
 -2.2261810e-01  1.2403351e-01 -2.9260156e-01  2.9042852e-01
 -1.2428797e-04 -6.8173790e-01 -8.6189903e-02  1.8998681e-01
 -2.7153537e-01  1.7721938e-01  4.0108579e-01 -1.8416151e-01]
[ 1.2537529e+00 -1.3331553e-01 -2.0831195e-01  1.0084124e+00
  8.4627513e-04 -1.8769231e-01  2.7771559e-01  6.2733692e-01
  7.9876237e-02 -8.2465589e-01 -5.3476745e-01 -4.8529950e-01
 -1.1769388e+00  4.9424991e-01  4.7269133e-01 -4.6331622e-02
 -1.1476917e+00 -1.2168133e+00  4.6654490e-01  3.3521080e-01]
[ 1.4618237   0.0552805   0.1402073  -1.7720351  -0.3026534  -0.08757119
 -0.07053941 -0.97192824 -0.08704168 -0.35521194 -0.36923632 -1.1842577
  1.3464142   0.39750558 -0.86027664 -0.13835053  0.00634874 -1.1182432
  0.11472495 -0.86603904]
[-0.15107927 -1.1683136   0.3801145   0.1139003  -0.2853105  -0.9685624
  0.3425461  -0.804162   -1.0957614  -0.48299387  0.64564365 -0.7221651
  0.33293954  0.00487206  0.63488686 -1.1306235   0.9610708  -0.32576874
 -0.31147903  0.87932384]
[ 0.2805436  -0.07048639  0.590302   -0.2690634   0.1547957  -0.44604117
  0.05870417 -0.07947894 -0.28994986 -0.158582    0.13138731 -0.09234345
 -0.24475192 -0.01158069  0.07707081 -0.32537282  0.03563587  0.12003359
  0.1262263   0.11304077]
layer 1 Activation
tanh
layer 2 Dense
20 40
[-1.4283259  -0.17296758 -0.10675781  0.50535154  1.0576806   0.37311724
  0.16321672 -0.40683872 -0.13160859  0.19342706 -0.17167716  1.2422395
 -0.58197814 -0.08232976 -1.0563407  -0.34257096  0.11727566 -0.39910084
  0.07085663  1.2549108   0.61907876  0.2821267  -0.39200184  0.3764855
  0.61738294  0.43326956  0.11897373  0.13193157 -0.06120187 -0.45603377
  0.03693802  1.503152    0.32509878 -0.95668256  0.67142874 -0.02111262
 -0.1403719   0.4470686  -1.2924377   0.18476823]
[-2.28778481e-01 -4.41748574e-02  2.31534857e-02  3.60635996e-01
  5.88110238e-02  6.20488942e-01  2.47417629e-01 -4.60089408e-02
 -2.03314200e-01  3.73626351e-02  6.50414407e-01  1.92619100e-01
  2.69551516e-01 -3.71491581e-01  1.62277129e-02  1.36050001e-01
  4.86454628e-02 -1.75312296e-01  2.38569956e-02  7.74237096e-01
  8.44577253e-01 -5.90099335e-01  6.40276551e-01 -1.91683806e-02
 -5.25046349e-01  1.12024486e+00  6.50632977e-01  1.83958992e-01
 -2.08625793e-01 -6.34122342e-02  7.46945888e-02  1.18289664e-01
  8.37976158e-01  5.03828600e-02 -6.78423464e-01  8.03749822e-03
  2.63121438e+00  2.31956661e-01  3.67504835e-01  2.32889177e-03]
[ 0.00470079 -0.3057936  -0.2256667  -0.15800793  0.328237   -0.9857352
  0.08093561 -0.10782298 -0.41776362 -0.7785867  -0.9569341  -0.4605391
  0.53527236  0.54328734  0.27263418 -0.36795118  0.09893467 -0.7371443
 -1.0581738  -0.57749224 -0.70725197  0.5135686  -0.04930287  0.187947
  0.4182417   0.9231187  -0.96113884 -0.9366736  -0.98220474  0.7005698
  0.22025724  0.21039695 -0.7775643  -0.54837203 -0.15370055  0.43950766
  1.1156505   1.2531737  -0.51289594 -0.17332436]
[ 1.130544    0.17383093  0.958583    0.6106867  -0.32231405  0.3142087
 -1.1164268   0.08633282 -0.23635784  0.51497436 -0.2086104  -0.25216556
 -1.0532637  -0.28911436  1.60211    -0.17827095  0.43835387  0.541743
  0.11433184  0.41988254 -0.32039568 -0.2377129  -1.7477014  -0.29128772
  0.21863772 -0.40559587  0.6470316   0.8372978  -0.21089542  1.2586849
 -0.65705526 -0.8673053   0.03905552  0.37212014  0.19179206  0.25283295
  0.33400342 -0.02770072 -0.30632788  0.5483841 ]
[-1.1414245  -0.47071669 -0.05728179  0.5479377  -0.27053753  0.3946774
 -0.28952974 -0.02500596 -0.00914633 -0.42787775  0.40909413  0.6633606
 -0.5240326   0.18282296  0.30778068 -0.08839805  0.604893   -0.71939874
  0.01119137  0.6912056   0.46900728  0.04940949  0.9293053   0.34675857
 -0.6942129   0.27448496  0.28020748 -0.44607258 -0.702626   -0.00462733
  0.0475327   0.25589553 -0.06161774  0.4508387  -1.0447308   0.10529933
  0.1373338   0.80060107  0.8773373   0.7594605 ]
[-0.16796997  0.7179231   0.02021731  0.5950251  -0.6520478   1.5541501
  0.01866851 -0.05721236  0.49591285  0.46058002  1.2870932   0.42849264
 -0.02974665 -0.11206542  0.07304162  0.23350543 -1.463486    0.80309105
  1.3627563   0.5330712   0.4435235   0.2828334  -0.16528794  0.53253144
 -0.20979774 -0.7976322   1.7397434   1.1263808   0.6462485  -0.71126336
  0.41773215 -0.12482712  0.8528401  -0.07161655 -0.5647674  -0.45317084
 -1.2928877  -0.9523307   0.1033001  -0.47635317]
[-0.36807787 -0.4739984   0.03955308  0.0680599   0.03330725 -0.03638592
  0.13612354  0.03770149  0.15578438  0.08049318  0.00230709 -0.10552364
  0.5357521  -0.11748625 -0.03774951  0.31678662 -0.16931608 -1.1611996
  0.0692465  -0.11016668 -0.02049579 -0.09613591 -0.47673765  0.24264841
  0.49380252  0.49037212  0.44138214  0.19903836 -0.5219277   0.52422315
 -0.67249733  0.5128768   0.0892863  -0.25353417 -0.10674453  0.15208176
 -0.1687696   0.33932155  0.17499545 -0.5001526 ]
[-0.23899332 -0.93426776  0.3223707   0.35452527  0.08873849  0.37909022
 -0.5479629  -0.0331885  -0.6177347  -0.6387524   0.01318974  0.24383736
 -0.6224153  -0.44762528  0.18678974  0.4667151   0.5759432   0.03415653
  0.4728      0.8697681   0.25549203  0.11686286 -1.0165695  -0.89181453
 -0.34748     0.8246456   0.53225243 -0.92515725  0.14219834 -0.07381667
 -1.1635942  -0.16796146  0.64244986  0.56710845  0.03975442  1.0292673
 -0.07250954  0.06146966 -0.5608632   0.10085949]
[-0.57010263  0.3191604  -0.329406    0.25742993  0.39506376  1.5069818
  0.9057197  -0.49968517 -0.19885302  0.7925074   1.3134338   0.39650857
  0.2864708  -0.35522103 -0.7341474   0.7368601  -1.3823686   0.7217659
  1.3358481   0.8511853   1.5844135   0.58537954  0.59979165 -0.0097606
 -0.6700499  -0.46025842  0.8052193   0.8932801   0.56027454 -0.6310231
 -0.4480898   0.45140263  0.95319796  0.08298191 -0.6351696  -0.22564247
 -0.60565364 -1.1337119  -0.22004461 -0.40933478]
[ 0.8031705   0.9495676  -0.7147388   0.0744184  -0.63281983 -0.08648171
  0.38589814 -0.19005963 -0.85526544  0.4520204  -0.13487293 -0.5312005
  0.45031136 -0.8611506   0.9721939   0.4835991   0.7139643  -0.31052664
  0.38464704 -0.3426978  -0.11434482 -0.20556185  0.9457602  -0.9613533
 -0.5683654   0.09975959  0.46106935 -0.60980755 -0.78419363  0.3320391
  0.52969646 -0.3737935   0.22823314 -0.97596765 -1.0133678   0.37772834
  0.44368136  0.0347053   0.770701    0.08487274]
[ 0.81475395  0.8356594  -0.5330524   0.24950574 -0.95277303  0.11750782
  0.5095814  -0.2492002  -0.5114425   0.513912   -0.0571021   0.02419148
  0.56356525  1.1359876   0.9784424  -0.83976054 -0.64758766  0.06016359
 -0.4993555  -0.74049443 -0.27300224 -0.09101786 -0.4876411  -0.41939756
 -0.15263277 -0.45342413 -1.1835598  -0.08026393  0.4955057  -0.3755138
 -0.36310777 -0.6668282   0.17981692  0.8165386  -0.5248587   0.35647503
 -0.02669591  0.02620526  0.8284798   0.41537   ]
[ 0.2589975   0.23766704 -0.1520213   0.33908224 -0.12764367  0.42310396
  0.26740018 -0.00438083  0.9364553  -0.56571394  0.7226473   0.508657
 -0.22493863  0.32838905  0.20910545  0.22151767 -0.64447767 -0.2211707
 -0.16402173  0.32625014  0.12291429  0.17813854  0.43852013 -0.4014673
 -0.37106892  0.9921845  -0.12375132 -0.02103755  0.0852435  -0.01667845
 -0.7017844  -0.4409305  -0.01311731  0.6295463  -0.5466131   0.6233066
  0.04624597  0.01898256  0.7358592  -0.21020745]
[-0.1656723  -1.035814    0.7738454  -0.3894831  -1.0388527  -0.13235615
  0.4697253  -0.22972466  1.0660746   0.27475813 -0.2661614   0.751551
  0.16625576  0.17741694  1.0754508   0.80142134 -0.1574426  -0.40792158
  0.27450502 -0.68114185 -0.29465368 -0.3016496   1.3190873   1.0223538
  0.3556606   0.32628918 -0.02406861  0.57811874  0.01622102  0.07080343
  1.8950012  -0.2903147  -0.08726439 -0.22717354  0.19245447 -1.1552595
  0.03177094 -0.2717758   1.7154061   0.96883065]
[-0.1966853   0.0269984   0.11275373  0.01890853 -0.3090742  -0.3570186
 -0.49995163  0.10130917  0.16274586  1.2586181  -0.03138204  0.5421605
 -0.2933114  -0.5201027   0.15569748  0.05221824  0.45898458  0.24606848
 -0.21713202  0.4971515   0.0302888   0.2246516  -0.1995847  -0.18812148
 -0.18795949  0.07663703 -0.4697237   0.5082544   1.2976239   0.05934411
 -0.06806412 -0.43694663 -0.279525    0.10262701 -0.3440454  -0.04894369
 -0.01146642 -0.6509239   0.80704755  0.33473402]
[ 0.41844434  0.62829685  0.08938564 -0.11580677  0.1516868  -0.635797
 -0.56949836 -0.22714092  0.9123432   0.04723998 -0.5582378  -0.8930951
  0.08024374 -0.23038915 -0.14435194 -0.37378836  0.51021796 -0.3204322
 -0.25108132 -0.3046383  -0.02702539  0.04337642 -0.30929384  0.009308
  0.08340274  0.32795006  0.22724134  0.18514958  0.6225092   0.84902704
 -0.09441798 -0.11106005  0.0982864  -0.21289293  0.57625693  0.3600193
 -0.04098757 -0.35203788 -0.65345633 -0.450192  ]
[-0.4993867   1.2163304   0.01337029  0.2654745  -0.23455414  0.52937335
 -0.3304776  -0.3263304  -0.51609397  1.0590585   0.6968211  -0.97926074
  0.48239094 -2.1191006   0.0933913   1.1599234   0.62043685  0.8952981
  1.5249615  -0.08668521  0.7749215   0.50550735 -0.31239215 -0.35943133
 -0.9296637  -0.83438194  1.6143991   0.67398757  0.9922849  -0.39611876
 -0.16113915  0.33088997  1.2046714  -0.49491447 -0.89286864 -0.06069359
 -1.5235023  -1.4421587  -0.329756    0.06119791]
[ 1.1253808  -0.9094451  -0.4794773  -0.52074254 -0.4731929  -0.4580716
  0.27453944 -0.38296005 -0.06281914 -0.18858717 -0.8185554  -1.1605064
  0.46362564 -0.68336844  0.6571679  -0.6247384   0.8531779   0.7685904
 -0.12506488 -1.2575537  -0.2062854   0.08646907 -0.0302234  -0.7239261
  0.31525055 -0.11837404  0.51364356  1.4147629  -0.436985    0.15213072
  0.47505274 -0.32414085 -0.2168465  -0.6680006   0.11870226 -0.09500114
  0.08688024 -0.14513977  0.35345832 -0.15156385]
[ 1.1563153  -1.5794935  -0.9621495   0.4249151   0.08048964 -0.27050173
  1.2338077   0.30829743 -0.979886   -0.63151664  0.42747343 -0.98874396
  0.74390805  0.02519224  0.79366535 -0.00538912 -0.250951   -0.6169818
 -0.47308886  0.40675056  0.28962988  0.63166606  0.02985702 -0.95230806
 -0.01483158  0.27373725 -0.634994   -0.02136183 -0.1532428   0.23044023
 -1.4547777   0.18290858  0.4837385   0.37385932 -1.7293013   1.1420983
 -0.3215471   0.34475538  0.60949093  0.18438515]
[ 0.31822237  0.4368668   0.01350418 -0.33994764 -0.04068591  0.39459625
 -0.09891504 -0.11695844 -0.56561077 -0.111142    0.13187891  0.08604079
  0.20313604 -0.07643621 -0.12153305  0.00993146 -0.11544251 -0.19155705
  0.32605156 -0.04950022  0.02339012  0.1301668   0.41497752 -0.50442004
 -0.25499415  0.25469917  0.37453324 -1.2670063   0.11906928 -0.18389195
 -0.02591343 -0.06611028 -0.05217184  0.59907824  0.39012143 -0.01369636
 -0.07506761  0.10005757  0.30262583 -0.20041308]
[ 4.9086711e-01 -6.5445822e-01  9.5826492e-02  3.2458159e-01
  2.0914955e-01 -1.0247740e-01 -2.5990772e-01 -4.4762227e-01
 -9.8309541e-01 -5.7516825e-01 -3.4798694e-01 -2.9759288e-01
 -7.9933196e-01  4.4611058e-01 -3.4027961e-01 -4.6153325e-01
 -5.0822157e-01  7.6121062e-01 -4.6937522e-01  2.1700138e-01
 -2.6399657e-01 -1.9444865e-01 -1.0200233e+00 -6.2296832e-01
  6.7544633e-01  8.6994535e-01 -6.5262783e-01  5.0829318e-03
 -1.0092118e-01  1.7597015e-01 -4.4004542e-01 -4.5610912e-04
 -1.2210307e-01  3.3504751e-01 -9.4280154e-02  5.2359658e-01
 -1.3860832e-01 -2.3708345e-01 -4.1590196e-01  8.6351800e-01]
[-0.29380623 -0.3774842  -0.05090261 -0.2715046   0.15574294 -0.7993394
  0.14448789 -0.31596178 -0.2027408  -0.8066072  -0.89899147 -0.15363541
  0.1561597   0.5539207   0.07031875 -0.44462937  0.3282321  -0.57625896
 -0.81484973 -0.5175079  -0.25225073  0.7565152   0.25850126  0.0133963
  0.5320939   0.68474907 -0.7751042  -0.96843547 -0.6947789   0.5688761
  0.0460199   0.5759408  -0.6406514  -0.02582716 -0.02677178  0.31672946
  0.78942734  1.004397   -0.25119615  0.13669473]
layer 3 Activation
tanh
layer 4 Dense
40 20
[-0.16498807 -0.43696955 -0.07488481 -0.55374265  0.4911978  -0.48019063
 -0.35572535  0.370892   -0.13743299 -0.16968617  0.73119783 -0.35019085
 -0.6585428   0.2805776  -0.70399636  0.18961939  0.4125415   0.47624308
 -0.41314933 -0.11926609]
[ 0.17057954  0.23017327  0.0874298   0.04242532 -0.10452896  0.15953667
 -0.55471545 -0.5203787  -0.06223499 -0.2417379   0.6881771  -0.13237733
  0.01431971 -0.2226724  -0.4084648   0.39290923  0.313961   -0.21374267
  0.671878   -0.36807457]
[ 0.24828888  0.20586386 -0.0340704  -0.29807714  0.3304368   0.24715877
  0.07768657  0.19921021  0.29837716  0.03210502  0.4056706  -0.23635603
 -0.22988002 -0.01382665 -0.11119609  0.40535942  0.09603665 -0.36439493
 -0.39822772 -0.41843113]
[ 0.13018437  0.38025442  0.27468094 -0.42017147  0.04116458 -0.01155788
  0.17891936  0.10272985 -0.31515843  0.38727474  0.12895778  0.45168903
 -0.01359002 -0.60688287 -0.3305163   0.15483703 -0.2270847   0.21139841
  0.0109867   0.1902006 ]
[-0.00892987  0.23611137  0.36907083  0.3407877  -0.2329479   0.23215267
  0.744536    0.22326101 -0.39802846  0.47623968 -0.3638301   0.38560113
  0.57471406 -1.0124248   0.311348   -0.39606977 -0.4683664   0.0663238
  0.5091746   0.11584506]
[-5.2727032e-01 -1.5497351e-01  4.2922273e-01  8.4364124e-02
 -5.8658636e-01 -3.5222349e-01 -5.1494330e-01  9.3934655e-01
 -4.3059295e-01 -3.4480426e-01 -1.7921891e-03 -1.3338143e-01
  5.3635746e-01 -1.8046068e+00  4.1605645e-01  3.9146766e-01
  2.3559798e-02  2.5357777e-01  1.6622993e+00  2.4099301e-01]
[-0.48233005 -0.45028245 -0.16972195  0.03290885  0.06833349 -0.5162407
  0.30687436  0.42416954  0.17707878 -0.03749988  0.04818091  0.3490994
  0.69739413 -0.40461057 -0.03148744  0.17937492  0.01514657 -0.03079852
  0.43139654  0.80277133]
[ 0.08243217 -0.00712419 -0.13798735 -0.05427347 -0.149459   -0.03805051
 -0.6598588  -0.13702771 -0.02936789  0.12388874  0.10933877 -0.19367981
 -0.02036542  0.2782984   0.0910845  -0.17986381  0.10168867 -0.02625887
 -0.14262086  0.33015668]
[ 0.12082132  0.09153594  0.08798042 -0.07382077  0.7243649   0.05626858
  0.18263468 -0.6561826   0.04802024 -0.33063892  0.4755988  -0.7828073
 -0.11454851 -0.21154565 -0.04913911  0.610028    0.19779833 -0.17383426
 -0.4366385   0.22430825]
[ 0.17313175  0.14601113 -0.21726865 -0.184384   -0.68581206  0.38240135
 -0.4049383  -0.20109776  0.14651197 -0.44160053  0.2761575  -0.58201176
  0.04292582 -0.56900424 -0.5822917   0.38159364  0.94823885 -0.25564665
  0.73374516  0.2596465 ]
[-0.27377784 -0.399769    0.48770797  0.2015482  -0.25836504 -0.25483555
 -0.09254014  0.4486166  -0.59414864  0.230072    0.4295311   0.17713863
  0.2473118  -1.5958883   0.28241372  0.4415291   0.11661342  0.63143724
  1.6347466   0.8630313 ]
[ 0.09059912  0.39880982  0.25100774  0.50502974  0.22251019  0.44530085
  0.26887894 -0.11294292  0.50568175  0.14295019  0.30559617  0.05610538
  0.48555186  0.10121262  0.4417705  -0.4709821  -0.4566185  -0.34810928
  1.0494511   0.29995522]
[-0.38944682 -0.37458408 -0.22790416  0.1803436  -1.2942463  -0.49662572
  0.14479879  0.74997073  0.01103329  0.57209194 -0.20080002  0.12151694
  0.50197935 -0.8758193   0.0298472  -0.12859057 -0.4252258  -0.00555598
  1.1419421   0.812177  ]
[ 0.5844399   0.4598608  -0.4186383  -0.24754897  1.078066    0.2400605
  0.20826268 -1.5138987   0.08729029 -0.04407278 -0.33026707 -0.09525709
 -0.33964723  0.41951203 -0.07188743 -0.37717566 -0.3599748  -0.5171573
 -0.91764134 -0.7352151 ]
[ 0.06711496 -0.04677569 -0.59481585 -0.50393677  0.19263949 -0.18485868
 -0.20130481 -0.58492166  0.1348258  -0.10410143 -0.00270614 -0.04915291
 -0.86247885  0.7174506  -0.36156952  0.45484337  0.265725    0.35887372
 -0.70968354 -0.43685466]
[-0.08280872 -0.24569817  0.18792364 -0.00907887 -0.46584886  0.07270522
 -0.4584625   0.5817419  -0.4442599  -0.15204419  0.19116391 -0.5403932
  0.23723494 -0.10229843  0.395203    0.24440986  0.400747   -0.06869102
  0.42940083 -0.07551886]
[ 0.22841714  0.4084392  -0.21441811 -0.38919285  0.03783149  0.21623185
  0.32069847 -0.8271918   0.40607408  0.07646085 -0.16231342  0.71290195
 -0.4492572   1.3773901  -0.2780556  -0.590854   -0.32966784 -0.28379455
 -0.6040836  -1.3792698 ]
[ 0.3463494  -0.02695169 -0.2585776   0.21793464 -0.6670367  -0.15651338
 -0.3203766   0.09411395  0.34161484 -0.6354063   0.6882467  -0.56841105
 -0.01065123 -0.5224559  -0.33186018  0.25424457  0.46371314  0.04732058
  1.0986909   0.5629468 ]
[-0.05059773 -0.27983657  0.07143871  0.21747547 -0.8365047  -0.20122017
 -0.59745634  0.9165762  -0.39257404 -0.28616303  0.46321434 -0.05956845
  0.05892223 -0.89593494  0.17838515  0.50665885 -0.25938544  0.30526274
  1.4919183   0.41276306]
[ 0.07263596  0.08261439  0.09493344  0.04767705 -0.7752637   0.17769364
  0.01130051  0.14068574 -0.17123802 -0.23136209 -0.26872584  0.0346898
 -0.28145367 -0.7539346   0.2100303  -0.2954484  -0.07726702 -0.17351176
  0.93647885  0.65353584]
[-0.124577   -0.43633732  0.4758017   0.16413976 -0.68023485 -0.4861606
 -0.16818523  1.025874   -0.3745272  -0.17173287 -0.09141947 -0.14247175
  0.24154945 -0.50983256  0.1340112   0.40122896 -0.06177965  0.39007983
  0.6593374   0.63799495]
[-0.18033065 -0.03592923  0.12362073  0.08570766 -0.22645389 -0.05477604
  0.80879945  0.25596687 -0.17277035  0.11751164 -0.08772507 -0.21851134
  0.15134665 -0.07168504  0.10802019 -0.02151329 -0.06502433  0.12777519
 -0.06423881 -0.01383667]
[-0.3447446  -0.39800432 -0.5080477  -0.44621372 -0.11925691  0.05677107
  0.06063405  0.13351412  0.35677844 -0.19306056 -0.38876942  0.26956794
  0.47879446 -0.617851   -0.01487888 -0.18701518 -0.2885508  -0.30972853
  0.03829455  0.05045125]
[-0.34298968 -0.1346565  -0.16681819  0.39151528  0.6519242   0.31657144
 -0.6151113  -0.3111357   0.53060675 -0.30458373  0.43702838  0.3491257
  0.2809112   0.8943024   0.19793382  0.47746256  0.14382608 -0.1428487
 -0.5420233  -0.7487967 ]
[-0.08384285 -0.01167235 -0.22563471 -0.43394247  0.611255    0.23059589
 -0.08246442 -0.3653515   0.1800903   0.3255159  -0.16683057  0.09960319
 -0.27301198  0.9459716  -0.3479352   0.01830325 -0.15273811 -0.28854918
 -0.5970901  -0.25012815]
[-0.4581949  -0.20488138  0.20202813 -0.04182935  0.6143116  -0.43437526
  0.60224175 -0.01184177 -0.49594247  0.647963   -0.63867277  0.8612592
 -0.01072071  0.54852885  0.52192616 -0.97247005 -0.41692674  0.16252573
 -1.1244864  -0.27228388]
[-0.38889828  0.14216919  0.1444265   0.43010232 -0.91459423 -0.3640673
 -0.6424933   0.7700618   0.07399829 -0.41619167  0.5915801  -0.3101109
  0.45698625 -1.0834764   0.09288713  0.5866889   0.15836154 -0.12246803
  0.3175917   0.52943546]
[ 0.178648    0.32679167 -0.43877754 -0.32759547 -0.4945594   0.308317
 -0.66565204 -0.07954399  0.12344469 -0.12426799  0.48954502 -0.30610815
 -0.07790496 -0.5247349  -0.20913701  0.5929191   0.5522555  -0.5262663
  0.9317655   0.4092169 ]
[ 0.21383578  0.38737905 -0.46555138  0.18384182 -0.6312202   0.07336149
 -0.4655099   0.28660837  0.32950774 -0.43713528  0.4747729  -0.2387421
 -0.09729639 -0.3156183  -0.38438314  0.599012    0.64514065 -0.5779197
  0.96165586  0.7208631 ]
[ 0.24852169  0.14620961  0.03923035  0.04021389  0.2225951   0.22046813
  0.6134497  -0.37518993 -0.24376321  0.05272113 -0.3203308  -0.30433005
 -0.05502565  0.64650965 -0.08103669 -0.5160777  -0.14080721  0.08596974
 -1.0190171  -0.48696414]
[-0.15015364 -0.07449992 -0.32649976  0.31805345  0.13532947  0.5861799
  0.11276487 -0.36116034  0.1891204   0.19576867  0.03229687  0.24762392
  0.48667058  0.08767278  0.20720619 -0.3402426  -0.04770677 -0.59244883
  0.11050967 -1.2232152 ]
[-0.17509782  0.06667721  0.32445875  0.52771336  0.04364569  0.17708561
  0.8080919   0.23157786 -0.20741984  0.5875076  -0.41813344  0.5197691
  0.7586412  -0.05853692  0.44320133 -0.6476078  -0.25960797 -0.40240678
 -0.1123767   0.44110164]
[-0.51117444 -0.1975518   0.2023249   0.29089913 -0.29405174  0.03175501
  0.0137014   0.2909645  -0.28001133  0.03394176  0.05301442 -0.4038852
 -0.00402638 -0.81331927  0.11158865  0.3455083   0.054306    0.29579797
  0.9773516   0.05619111]
[ 0.37494543  0.24486458  0.17239362 -0.46732378  1.0484439  -0.20774542
 -0.7241155  -0.7132055  -0.30151683 -0.30510816  0.55232036 -0.38779667
 -0.41238847  0.20333922 -0.202451    0.1365123   0.3830842   0.1403163
 -0.15967615 -0.02199154]
[-0.31392393  0.5529988   0.4645901   0.6141418  -0.29149508  0.57687515
 -0.5074289   0.346373   -0.26146913 -0.41775954  0.30671477  0.23012266
  0.75589406  0.20983337  0.6237402   0.3822818   0.32291722 -0.5465508
  0.02519011 -0.556081  ]
[-0.05720181 -0.44510886  0.08710286 -0.09514178 -0.02889336 -0.30607128
  0.38794047 -0.08186121 -0.08054167  0.25339326 -0.01421398  0.04818713
 -0.24142419  0.33702925 -0.09333788 -0.47497207 -0.47581482  0.32719168
  0.42312843  0.2881479 ]
[-0.25531402 -0.24936084  0.48044854  0.3620186   0.33976984 -0.23211697
  0.6687145  -0.23431991 -0.37695032  0.6025926  -0.2651113   0.6470151
  0.2749031   0.6525882   0.17398603 -0.32862642 -0.42651376  0.2823173
 -0.74558747  0.13760716]
[-0.376925   -0.29894093  0.17754325  0.2587468   1.0344937  -0.39063317
  0.12072454 -0.26841655 -0.24587142  0.45206493 -0.41604874  0.4858809
  0.18657145  0.9858412   0.3650952  -0.52438927 -0.5633125   0.23180073
 -1.0900642  -0.83716935]
[-0.19619584 -0.03110048 -0.09673394 -0.9449632  -0.5047958  -0.25972793
 -0.42844126 -0.13317113  0.33781672 -0.07100414  0.26150787 -0.23524842
 -0.65932727  0.22553936  0.133775    0.43788588  0.3817568  -0.14450411
  1.1655335   0.02533171]
[ 0.01024855  0.01918932 -0.0641019  -0.14650445 -0.02742869  0.15871948
  0.12822966 -0.51695716  0.01747822  0.13596448  0.04673066  0.41855276
 -0.11130799 -0.14047015 -0.05187623  0.2695681   0.17226733 -0.08348922
  0.10603551 -0.57665133]
[-0.18044159 -0.15110265  0.2939613   0.10944837  0.56605166 -0.15588017
  0.48812336 -0.21248426 -0.23205747  0.35598084 -0.35952643  0.38736013
  0.13139665  0.5151023   0.3713864  -0.30940893 -0.31966555  0.21779843
 -0.88229954 -0.47069007]
layer 5 Activation
tanh
layer 6 Dense
20 1
[-0.78999937]
[-0.8221198]
[0.86978716]
[0.785626]
[-1.3113052]
[-1.0066758]
[0.9464167]
[0.9656709]
[-0.91144955]
[1.0168597]
[-0.9291243]
[1.2106047]
[0.7329395]
[-1.6156031]
[0.84142137]
[-1.0518135]
[-0.9323673]
[0.9567955]
[1.6295657]
[1.298271]
[0.80696285]
