layers 7
layer 0 Dense
20 20
[-0.21633577 -0.7816864  -0.4543329   0.12331736 -0.16905633  0.03013433
 -0.04037527  0.25915077  0.15576026  0.55733716  0.2585403  -0.5797578
 -0.03554484 -0.48886874 -0.27776387 -0.24170901  0.05453774 -0.11189777
 -0.4437721   0.36602622]
[-0.08160415  0.09000108 -0.00626319 -0.43780497 -0.6923141   0.02732916
 -0.5603929   0.18852644 -0.46570456  0.5968034   0.33333015 -0.10579188
 -0.03117272  0.6882555   0.2769693   0.47977018  0.26700184  0.21641918
  0.20384282  0.56646335]
[-0.35274625 -0.06337645 -0.21582651 -0.43768516 -0.12723333 -0.17143801
 -0.41937825 -0.4335392   0.22834124  0.656742    0.67123014  0.00799208
 -0.02096841  0.02281536  0.20810871  0.33534685  0.38308483  0.6458334
  0.35688707  0.0014211 ]
[-0.434914   -0.45681554 -0.46205714 -0.0240363  -0.13468722 -0.02064415
 -0.3077601  -0.14832917  0.02781152  0.50757664 -0.2303973  -0.21770644
  0.27078602 -0.4018558  -0.44991553  0.00796981 -0.19993956 -0.16794541
 -0.10184511 -0.27482367]
[ 0.2514129  -0.59988534  0.12543014 -0.32094872 -0.05704471 -0.10743269
  0.236325    0.8523934  -0.48367614  0.21511571  0.40853274  0.31067175
 -0.25241932 -0.13030635 -0.42686743  0.05913108 -0.07092967  0.2421143
  0.6472073  -0.34846246]
[ 0.30545083 -0.3006048   0.36752248 -0.18666022  0.29548857  0.34013298
  0.18359596  0.20363124 -0.06332492 -0.42053768 -0.6347296  -0.26084703
  0.53039914 -0.46830025 -0.41298538 -0.43226165 -0.40443605 -0.23311315
 -0.6027518  -0.37150916]
[ 0.36182627 -0.34377962 -0.10528447  0.31946036  0.49787408  0.45661706
 -0.12513012 -0.16014172  0.23849145 -0.81821376 -0.15320264  0.30286813
  0.26772395 -0.69657815 -0.21547815 -0.00798502 -0.07647116 -0.7614865
 -0.24004576 -0.07773943]
[-0.10816403 -0.48320517  0.785075   -0.05307549  0.10283627 -0.27491966
  0.6033667  -0.5495737   0.5736636  -0.47139907  0.04797214  0.34769112
 -0.09805654  0.20032352  0.3473363  -0.40292025 -0.08124535  0.09490374
 -0.45000032 -0.12872566]
[ 0.29607686 -1.1798825  -0.2991127  -0.83148235  0.4282882   0.69897085
 -0.8718159  -0.26041716  0.0430504  -0.07990394 -0.9968431  -0.13002525
  0.48453525  0.42504087 -0.20953727 -0.7515514  -0.29069144  0.21430638
 -0.0903492   0.2502751 ]
[ 0.44652852  0.00229652  0.2725305   0.03519872  0.74914074 -0.63689333
  1.2842426  -0.761939    0.31208548 -0.4294987   0.29068306  0.4404218
  0.7836496  -0.98150545 -0.09244093  0.55552226  1.2100109  -0.03218586
  0.6745861   1.085809  ]
[-0.6091052   0.8462933  -0.05574914 -0.8716257  -1.5211045  -0.39280334
 -0.45426157  0.28221065 -0.35375935 -0.10538612  0.95497936 -0.61214155
  1.5559503   0.73836344 -0.44060323  0.20987706  0.17343189  1.0513754
  0.6246575   0.81180054]
[ 0.30637047 -0.6710473   0.10630432  0.08247165  0.96263856  0.33293864
  0.02904972  0.80081224  1.6875402  -0.9760322   0.456327   -0.54320294
  0.5647925  -0.19007869 -0.04125757 -0.51701546 -0.06010827 -0.6015821
 -0.3439391  -0.2932925 ]
[-0.3120717  -1.3455888  -0.09381962 -0.05956753 -0.17405988 -0.13555259
  0.22482744 -0.43144283 -0.22859205  0.16649261 -0.04954606  0.21519196
 -0.22338869  0.31945252 -0.5486036   0.03003257 -0.01008277  0.05960746
 -0.08324477  0.19464996]
[-0.0731169   0.15069379 -0.34047455 -0.7869336  -1.2942151   1.1732806
 -0.3043008   0.42938018 -0.5956623  -0.701368   -1.2142214   0.2605931
  0.0293972   0.7338079  -0.1676089  -2.546447   -2.3411236   0.08144111
 -0.7481695  -1.1536582 ]
[ 0.7747322  -0.5602092   0.17026849  0.89008147  0.51932615  0.18079673
 -0.2344886  -0.07060705  0.52618974  0.5908143  -1.6753999   1.1627841
 -0.6362637  -0.3774288   0.726837   -0.8134499   0.25472707 -1.6558852
  0.09339298 -0.17932394]
[-0.7689185  -1.3422546   0.4224282  -0.24816    -0.3734273  -0.12874874
  1.2783515  -0.37659967 -1.1681439   0.97124183 -0.0082602   0.26900542
  0.20468555 -0.339165   -0.3395512   0.7235094   0.09382753  0.6467883
 -0.7294115  -0.1165408 ]
[ 0.07524221 -0.17955011  0.63517815 -0.02247272 -0.0531221   0.10975058
  0.18336701  0.65111405 -0.6351267  -0.9605806  -0.10124032 -0.58980215
  0.07385912 -2.0786812  -0.392188   -0.05171823  0.10787617  0.25971815
  0.77656215  0.19595395]
[ 0.018479   -0.21879905 -0.13135768  0.6738623   0.17327225  0.48833108
 -0.45053378  0.24736544  0.0146169   0.71461755  0.6369578  -0.2218476
 -0.36771536  0.14536847  0.2490895   0.5768524   0.06251174 -0.10669008
 -0.04652099  0.02057225]
[ 0.17122294 -0.02816231 -0.1254042   0.3397903   0.5436702   0.13280888
  0.06113716  0.2763104   0.2536165   0.00839456  0.3740804  -0.11192315
 -0.5374857   0.20553207 -0.22563116 -0.3116023  -0.26729646  0.34649792
 -0.4984763  -0.07921474]
[-0.12933241 -0.50414455  0.70444995  0.40151137  0.48163685  0.10642031
 -0.5082872  -1.0330784  -0.22184305 -0.5013994  -0.13411574 -0.41333392
 -0.54050684  0.5312977   0.08730339 -0.09028762 -0.1273965   0.56269544
  0.19191183 -0.34789115]
[-0.14021266  0.3104524  -0.4244136   0.0535017  -0.22609285 -0.03743958
 -0.27154866  0.13562837 -0.15981653  0.545015    0.12177641 -0.10367209
  0.093447    0.07386129  0.08443384  0.11874495 -0.07215595  0.03706459
  0.00107384  0.05529694]
layer 1 Activation
tanh
layer 2 Dense
20 40
[-7.63213336e-01  2.76952595e-01 -1.79086611e-01 -1.92604437e-01
  2.23923326e-01  1.67418286e-01 -8.73958617e-02 -1.12189844e-01
  6.48893490e-02  5.65656237e-02 -6.36145651e-01  1.07787885e-01
 -5.67533374e-01 -1.31463334e-01  1.66650742e-01 -1.78117212e-02
 -3.12911868e-02 -3.56004208e-01  2.67643124e-01  8.86206478e-02
  4.45360243e-01  3.51645768e-01 -3.22690487e-01 -4.48859066e-01
 -4.31790084e-01 -1.70173153e-01 -1.68267354e-01 -4.39522326e-01
  5.21823801e-02  6.49459958e-02  3.93830776e-01  4.14003015e-01
 -2.85443187e-01 -2.36018732e-01  2.85332441e-01  5.33175096e-02
  6.31411502e-04 -8.25697556e-02 -1.74426083e-02 -4.89946790e-02]
[ 0.6235731  -0.19410628  0.8619275  -0.65873224  0.41963354  0.18125919
  0.04203821  0.05520554  0.1852786   0.3389061   0.21394362 -0.56053567
  0.03852858 -0.7853458   0.20226291  0.24482931 -0.18139973  0.8648618
 -0.53889996 -0.19681996 -0.10322653 -0.95726514  0.05375943 -0.16122644
 -0.37447417  0.36066347  1.0226825  -0.41965747 -0.35018212  0.23451704
  0.20089667 -0.54806644  0.2018971   0.6894334  -0.01508827 -0.60023785
  0.7904185   0.07526873 -0.13980065  0.16593233]
[-0.2123317  -0.2352573   0.10526375 -0.43085778  0.51927525 -0.13939658
  0.34914052 -0.10895908 -0.20960133  0.01744198  0.47096226  0.11266546
 -0.10439396  0.10966551 -0.05139675  0.408325    0.55794847  0.29738256
  0.27467957  0.08091731  0.7404876  -0.05271561 -0.455102    0.30603585
 -0.40474835 -0.9873608  -0.07159755  0.41009888 -0.51253366 -0.40960363
 -0.34340513 -0.12898721 -0.90580815 -0.10521442  0.8269585  -0.14134333
  0.12161092  0.28387278  0.07919206  0.17810552]
[-0.78160244  0.1331457   0.29963055 -0.5458616   0.25511146 -0.4436035
  0.24752748  0.3548665  -0.71152055  0.14230613  0.15717171  0.2862316
 -0.1157595   0.3802892   0.14776552  0.01322602 -0.07804702 -0.35396528
  0.19571574 -0.5542368  -0.25489315  0.39111838  0.01043212 -0.14618638
 -0.23025225  0.22426857 -0.6929462   0.44770393  0.00318711  0.12166047
 -0.09849775  0.0063296  -0.08200644  0.47941703 -0.13205001 -0.3688981
 -0.24396034  0.18374126 -0.19027168 -0.44479564]
[-0.13670848 -0.32198757  0.4445769  -0.4472634   0.42388648 -0.18843439
  0.11495904 -0.23511127 -0.04248717 -0.00391461 -0.63143194  0.33978227
 -1.2253394   0.18994574 -0.42121992  0.6026621   0.11241774 -1.1597931
  0.7758459   0.7248703   0.23088032  0.43883744  0.18902098  0.46925792
 -0.48915792 -0.44628412 -0.8093893  -0.1920356   0.02292938 -0.15864183
 -0.13388537  0.06203195 -0.14322871  0.16661574  0.33839077 -0.53087276
 -0.39998156  0.3537435  -0.5130806   0.23706652]
[-0.10895616  0.09828264 -0.304918    0.2632083  -0.08125083  0.14466298
 -0.07312312 -0.40988392 -0.01456867  0.05281623 -0.03050432 -0.05728229
 -0.17046402  0.38259166  0.21555993  0.07948761 -0.21449338  0.02300066
 -0.17623451 -0.02304826 -0.10627389  0.09019659 -0.01481666 -0.3189774
 -0.13182524 -0.03703821 -0.19968237 -0.29153886 -0.20149004 -0.12870075
  0.16090031 -0.26639336  0.06871983  0.16975778 -0.28052673 -0.19313921
  0.1031453   0.07198631 -0.26637688  0.07000847]
[-0.49161816 -0.5135707   0.771461   -0.10752118  0.02374578  0.04860597
  0.07554048 -0.1528899   0.14529613  0.2127326  -0.354082    0.23013262
 -0.4798197  -0.751741   -0.63948596  0.20926443  0.29386723 -0.4074002
  0.52351946  0.40955248  0.14900188  0.0190311  -0.13175602  0.54199475
 -0.42046717 -0.20155345  0.33587712 -0.44859487  0.06312605  0.7330417
 -0.19271971  0.04905928 -0.3051234  -0.20072213 -0.07900143 -0.0124688
  0.1172834   0.3844186  -0.07458615 -0.0808754 ]
[ 0.23594983  0.25526184 -0.28232396 -0.17817877 -1.0759312   0.19957876
  0.3640105  -0.3515324  -0.16872403  0.11154765 -0.7029559  -0.40318218
 -0.06163359 -0.20365243  0.71202904 -0.10613338 -0.30625752  0.1962938
 -0.07519262 -0.628721   -0.06556972  0.03590994 -0.18871504 -0.6372069
 -0.3055735  -0.03467568  0.01900924 -0.05508668  0.12909205  0.1553834
  0.30735675 -0.43256032 -0.06660648  0.2648003   0.18088609  0.17536542
  0.22974406  0.28569472  0.02892553  0.12168451]
[-0.2765163  -0.11548118  0.5801632  -0.26345506  0.7127507   0.20365974
  0.3904154  -0.33868513 -0.5918101   0.28973156 -0.10163169  0.45242745
  0.31513822  0.12239906 -0.6879714   0.2620383  -0.32355613  0.19655776
  0.3088574   0.55645895 -0.18371004 -0.05938976 -0.30563787  0.08023451
 -0.22807233  0.30338097 -0.3083377   0.02062474 -0.03010591 -0.08777741
  0.07040913  0.07913441  0.4502663  -0.13454857 -0.30241585 -0.13505661
  0.30204955  0.07535398 -0.1705115   0.21430248]
[-4.42247748e-01  2.32098643e-02 -1.65110528e-01  2.01198399e-01
 -2.26205036e-01 -2.03163654e-01 -7.07600042e-02  3.93645942e-01
  2.74990469e-01 -8.47041160e-02 -4.33861285e-01  3.38764153e-02
 -5.69988430e-01  8.01749170e-01  8.54247133e-04 -5.76784670e-01
 -8.50814432e-02 -5.50110340e-01  2.42173299e-01  5.32473445e-01
 -7.12323785e-01  7.01600552e-01  1.54274568e-01 -3.43171477e-01
  4.78080153e-01  4.38636243e-01 -6.59947991e-01 -3.05866718e-01
  1.20378971e-01  4.53896075e-01  4.48780000e-01  4.14160043e-01
  3.84631187e-01 -1.12798944e-01 -4.25918043e-01 -3.05291265e-01
 -9.20961976e-01 -4.39128041e-01 -4.38414931e-01  1.03620373e-01]
[ 0.8487625  -1.1804106  -0.28089857 -0.7009413  -0.7839595   0.53576076
 -0.18485722 -0.03213105  0.16814284  0.1514896   0.5270324  -1.2676924
  0.4416219  -0.5245861   0.13734782 -0.27456072  0.13629928  0.516093
  0.42961442 -0.39940083  0.19101986  0.29448298 -0.1191518   0.6349743
 -0.16158797  0.08535787  0.04074255 -0.5855214  -0.3719772   0.3299553
  0.3505373  -1.6662204   0.2260287  -0.14096081  0.09885502  0.5313714
 -0.79845524 -0.09691703  0.12415688  0.40032914]
[-0.5347679   0.25629508  0.00468917 -0.23457052  0.14228722  0.14409067
  0.13173454 -0.15143278  0.62276167  0.16898403  0.01513124  0.5567498
 -0.5243931   0.18273996 -0.0653667   0.6887108  -0.13308804 -0.7892406
 -0.30598277  0.1985631   0.13378708 -0.01650701 -0.11936197  0.34727713
 -0.18974745 -0.00939196 -0.2163816  -0.12025481  0.07102806  0.03762503
 -0.26129133  0.745071    0.17172953 -0.1880635   0.06198081  0.2676809
 -0.02958039 -0.07591625 -0.07383773  0.34383798]
[-0.23275231 -0.12550516  0.17663978  0.07144411 -0.8242671   0.63721764
  0.00760055 -0.00231195  0.39887568  0.26524654  0.39433047  0.13008885
  0.97878003 -0.69400626 -0.73236954 -0.584773    0.22398813  0.24857755
 -0.7333083   0.14924313 -0.39487153 -0.00101534  0.2698353   0.41204277
 -0.09699371  0.0633742   0.57078934 -0.3690313  -0.01679086  0.18254456
  0.5261089  -0.365064   -0.25745746 -0.63818246 -0.03615356  0.7463742
 -0.27985606  0.2582775   0.42240593  0.38929638]
[ 0.3658403  -0.2981489  -0.4227005   0.28725508 -0.38053286 -0.08157245
 -0.41205072 -0.19842184  0.06398932  0.03359887  0.28662574  0.20848064
  0.4395919   0.57034695 -0.08478779  0.14821534  0.00375889 -0.14120035
 -0.6325373   0.14764228  0.42742607  0.02804774 -0.01137742  0.5026596
  0.11474621 -0.43586123 -0.12071353 -0.06684358 -0.24457432 -0.29869124
  0.16938572  0.29836392 -0.395184   -0.28906608  0.32648596  0.6037375
 -0.09796956 -0.17483766  0.08624964 -0.27521905]
[-3.99127126e-01  2.97151744e-01  1.47209063e-01 -1.17647007e-01
 -4.68824916e-02 -1.09753378e-01  1.65580865e-02 -1.08453140e-01
  1.11496091e-01 -1.45661876e-01  3.47509354e-01  1.69121221e-01
  9.54625569e-03  2.27674276e-01  6.19130611e-01  2.10088030e-01
  3.05209965e-01 -4.90629375e-02  1.21666737e-01 -2.88738962e-02
  5.72610319e-01  4.04605240e-01  1.88991353e-01 -3.50330144e-01
 -2.60878265e-01 -4.10298377e-01 -4.92152154e-01 -6.57469267e-04
  2.19046488e-01 -6.24126971e-01 -2.95127004e-01  4.53433275e-01
 -7.66816497e-01 -1.78854391e-01  2.28220731e-01  9.35773738e-03
  5.46115190e-02  1.17345974e-01  2.51306385e-01 -1.97398782e-01]
[ 0.11456914 -0.1088734   0.42351878 -0.44774896 -0.5126753   0.05703968
  0.13136508  0.17600463  0.29049638 -0.0779686   0.06954838  0.1927636
  0.03699493 -0.38324547 -0.16391173 -0.3280458  -0.06216285 -0.5571895
  0.20596969  0.27989715  0.08763019  0.9775371   0.17190447  0.86023295
 -0.17586456  0.0528953  -0.6027825  -0.44960892  0.1812437   0.33137265
  0.12947515 -0.38733324  0.09348952 -0.64123607 -0.5143115   0.02955845
 -1.0983009  -0.00383524  0.2924182   0.02639061]
[-0.75947154  0.1919587   0.3451803  -0.9899551  -0.08974867  0.18020484
  0.29132333  0.7007084  -0.215175    0.1964835   0.79646885  0.30558684
 -0.17411837 -0.20180503 -0.49831554 -0.33333942  0.1392066  -0.2322469
  0.25103274  0.0337493  -0.07686549  0.69788635 -0.10787962 -0.01913059
 -0.5124868  -0.15217617 -0.9431983  -0.55872977 -0.14021476  0.3868099
  0.55951756  0.02201898 -0.11289383 -0.5256457   0.15624344  0.59406036
 -0.8029244  -0.06238623  0.2880949  -0.125959  ]
[ 0.5426696  -0.8399086   0.03396981  0.38553664 -0.5481026  -0.14425103
  0.16471754  0.249239    0.36818698 -0.37301704  0.27303782 -0.8233598
 -0.01610623 -0.24809681 -0.07510579 -0.05965882  0.1305262   0.59324473
 -0.24825223  0.1281816   0.12851503 -0.32403448  0.14475235  0.47309276
 -0.39814046 -0.1520737   0.55201113 -0.47717696 -0.12491759 -0.46128985
  0.28169358 -0.6287872  -0.1592819  -0.19256678  0.39800176  0.22346592
 -0.13984008 -0.19214444 -0.09920426 -0.26765764]
[-0.2952401   0.35294363 -0.30543816 -0.40314406 -0.2345774  -0.39113972
 -0.21475948  0.35385656 -0.2953111  -0.30181003  0.55346245 -0.07372721
  0.38951522 -0.8485822  -0.14235468  0.13601536  0.09880992  0.0046003
 -0.19195119  0.04272042  0.13703865  0.26589385 -0.15249926 -0.0535558
  0.04770564 -0.13187231  0.34681723  0.37864462 -0.09125727  0.06143543
 -0.10798081 -0.00992039  0.1265407  -0.58343416  0.18957184  0.36511716
 -0.10949065  0.17105086  0.3787502  -0.02866055]
[-0.19533308 -0.0647805   0.14095652 -0.5453798  -0.5028704   0.08169761
  0.21629983  0.12348355 -0.1611609   0.04585989  0.5238421  -0.05730284
  0.11675014 -0.5199798  -0.47244397 -0.1037889  -0.03176572 -0.3492382
  0.28023216  0.3212138   0.03371093  0.27896637 -0.4255597   0.57248104
 -0.15245317 -0.11380229 -0.03091933 -0.30297574  0.0604256   0.48819354
  0.4023191  -0.4616725  -0.3043383  -0.5589132   0.01944996  0.18972342
 -0.20630014  0.09255325  0.12425254 -0.13200293]
[-0.05182287  0.03833995  0.01477319  0.21592388 -0.08545674  0.22367746
 -0.4204579  -0.27380505  0.02303557  0.12494496 -0.10351808 -0.05249288
  0.19829878 -0.15490538 -0.01276631 -0.441555   -0.56028056 -0.09864389
 -0.21907857  0.32585108 -0.8480352  -0.00249805  0.1915985  -0.15124772
  0.380877    0.8637081   0.12724222 -0.12912492  0.21475852  0.54943204
  0.39766225  0.05150854  0.9380089  -0.00207024 -0.69910735 -0.02870112
 -0.01091672 -0.10486478 -0.02867396  0.01233413]
layer 3 Activation
tanh
layer 4 Dense
40 20
[-0.6324023  -0.3424422  -0.73072267  0.24979924  0.1797969  -0.36421123
  0.03241485  0.32964844  0.24402677  0.2416322   0.17675306  0.20715992
 -0.05312475  0.5093104  -0.08891615 -0.06343512  0.13605413  0.420165
 -0.0907728  -0.08489391]
[ 0.49879295  0.28925237  0.24927561  0.12652215 -0.12128197  0.3242252
 -0.2579622   0.23955368  0.04193266 -0.29080215 -0.47720918 -0.4756598
 -0.08068386 -0.44314125  0.05238479  0.06785616  0.21348335  0.18479885
  0.12277363  0.16968219]
[-0.26758525  0.09894029  0.2641835   0.12560341 -0.16852327  0.4197434
  0.35457796  0.02188915 -0.24405493  0.00999979  0.41223785  0.701508
 -0.03081523 -0.53516805  0.4260232  -0.3692749   0.18646222 -0.16749392
  0.04453689 -0.30603185]
[ 0.20883961  0.3500888  -0.07269766 -0.07998905  0.37260622 -0.551361
 -0.42086995  0.06697731 -0.25373006  0.11715301 -0.20043024 -0.48206857
 -0.14936222  0.297627   -0.6526358   0.45196345 -0.16057058  0.21514486
 -0.25188026  0.01157293]
[-0.2913944  -0.01170654  0.00466241 -0.03760439 -0.20012698  0.21592796
  0.39854187 -0.01166824  0.28597334  0.1154668   0.2897389   0.22253634
 -0.48331407 -0.37856796 -0.0263776   0.40997294  0.6171317   0.05769087
 -0.09133496 -0.03273974]
[-0.17136663  0.04459916  0.04287591 -0.04467856 -0.08298856  0.12008471
  0.15635116  0.12400653 -0.12927388  0.3351259  -0.09698808  0.1347892
  0.01712417  0.2285163   0.07378682 -0.48100078 -0.45286644 -0.08947883
 -0.12035428 -0.26414287]
[ 0.16745259 -0.2100161  -0.14231637 -0.0647707  -0.10906146  0.25710392
  0.03260704 -0.20307918 -0.11838328 -0.19081427 -0.00697767  0.09626981
 -0.21389423  0.0196343   0.17481129  0.12436505 -0.1014981  -0.08202924
 -0.07285599  0.2411275 ]
[ 0.1749852  -0.06883799  0.02349471  0.07375132 -0.1274336   0.20148627
 -0.04499716 -0.09663038 -0.2276768   0.03325953  0.00176969 -0.140856
  0.10361699  0.27188137  0.46166256  0.14371394  0.11596558  0.05788945
  0.01041069  0.06980842]
[-0.30084836 -0.07576153 -0.15652703 -0.31827644  0.2265931  -0.37028542
 -0.12288438  0.22091562 -0.230206   -0.19201477 -0.0592831   0.2694008
  0.49285108 -0.17017739 -0.16012934 -0.33446512 -0.29559833 -0.13443054
 -0.27248615 -0.37647223]
[-0.03905839 -0.0405385   0.30555403  0.37883484 -0.25961494  0.09385995
  0.05999843 -0.03836052  0.11031058  0.08559568 -0.06804919  0.5420074
 -0.09016707 -0.06903538  0.27424467 -0.07636419 -0.3066585   0.05907142
 -0.24343318 -0.2613595 ]
[ 0.7768286   0.07809621  0.38929865 -0.02538263 -0.16512983 -0.30700174
 -0.00138759  0.02080641  0.13726053 -0.00200583 -0.08772675  0.30615035
  0.189416   -0.02310413  0.47444227 -0.19058743 -0.20134236  0.08358517
 -0.21678337 -0.03526203]
[ 0.35825318  0.1849713   0.43306768  0.15110126 -0.05044099 -0.10438833
 -0.31161022 -0.08957419 -0.19417273 -0.29386917 -0.15156388 -0.52197003
 -0.32308105 -0.37648565  0.20781362  0.21330836  0.02095034 -0.32986587
  0.10660593  0.50624347]
[ 0.67889476  0.26959503  0.4351988   0.10503925  0.04491069 -0.27039933
 -0.2550905  -0.3764888   0.16562337  0.18235855  0.02366874 -0.10174444
  0.12925941  0.63352764  0.36430964 -0.20609145 -0.24441783  0.22040948
  0.09630975  0.27910557]
[ 0.0461782   0.3866759  -0.20789395  0.02764766 -0.19218296 -0.41566178
 -0.4472294  -0.06563308 -0.07535753 -0.20492542 -0.623138   -0.9638946
  0.07637628  0.6495703  -0.3006707   0.37523505  0.00098569  0.08151256
 -0.04487008  0.024853  ]
[ 0.1582139  -0.06424997 -0.100871    0.11123133 -0.01386498 -0.1379144
 -0.28239053  0.03623692 -0.10467509  0.20430961 -0.16536875 -0.22662224
 -0.26806238 -0.11440304 -0.36565772  0.08535504  0.535029    0.63174546
  0.0228789  -0.17386197]
[-0.26231045 -0.47319815 -0.3278196  -0.03110542 -0.0470135  -0.286855
 -0.09131502  0.19546007  0.32627448  0.0393074   0.329102   -0.15397134
 -0.31856516  0.00698417 -0.3046036   0.33457237  0.11408524 -0.22635552
 -0.03486782  0.42304707]
[ 0.22474046 -0.40881148 -0.09210868  0.11830486 -0.02400701 -0.00205556
 -0.09948062 -0.19849713  0.09569413  0.17062813  0.07987835  0.19385032
  0.20302704  0.27759936  0.19620998 -0.03577618 -0.02836698 -0.23122683
  0.15914004  0.16611862]
[ 0.31361917  0.11757878  0.16095793 -0.11786572  0.04795571 -0.48226023
 -0.05303235  0.5834672   0.2540875   0.21583614  0.29299417  0.2532527
 -0.42887032  0.6310541  -0.40855455 -0.5362659   0.19737878  0.43987924
 -0.5074548   0.294385  ]
[-0.21542779 -0.2893376  -0.5018753   0.06912271 -0.11809187  0.4113109
  0.37731525  0.12734914  0.07381223 -0.3938303   0.38696742  0.42366913
 -0.32719183 -0.4578939   0.27850696  0.14726458  0.33690614 -0.14693363
  0.32903627 -0.16907537]
[-3.9902240e-01  4.9963102e-02 -5.7387743e-02  6.0416691e-02
 -1.8125458e-04  3.2880276e-02  2.1560021e-01 -4.1556500e-02
 -2.8337786e-01 -1.1699787e-01 -1.4759293e-01  2.2695783e-01
 -8.1912749e-02 -2.6474515e-01 -7.4925199e-02 -1.7524142e-02
 -2.4795175e-02 -3.9802667e-01  1.5019536e-01 -3.1156084e-01]
[ 0.3265118  -0.47844124 -0.4815954  -0.2427704   0.07090566 -0.10398602
 -0.25900385  0.01337543 -0.03261047  0.14996071  0.33611026 -0.3560129
  0.0833276   0.19849558 -0.4888012  -0.10446227 -0.35567805 -0.05143895
 -0.10350966  0.4711332 ]
[-0.09668501  0.3311046  -0.32305714  0.3103178   0.04488268  0.0959885
  0.29078045 -0.47731078 -0.26863903 -0.12229305 -0.18574038 -0.41881597
  0.5723908  -0.4911164   0.8357659   0.45967892 -0.21258532 -0.30292338
  0.06090899  0.17500366]
[-0.06381036  0.2758767   0.3266885   0.20923382 -0.18301792 -0.2652139
 -0.03508819 -0.2430034  -0.03486883  0.11265358 -0.01037714  0.38093695
 -0.28412193 -0.10602905  0.31188324 -0.04563636  0.22603768  0.09740125
 -0.05860468 -0.26030424]
[-0.67115    -0.04794838 -0.43933406  0.27301976 -0.12293955 -0.3896516
  0.0674096   0.0012824  -0.22496293  0.19836141  0.36087018  0.4945956
  0.3950824  -0.05430165  0.31871775 -0.14313313 -0.48942125 -0.25173333
 -0.13921271  0.27528086]
[-0.3103774   0.17119965  0.00665004  0.10058388  0.25823125 -0.37959614
 -0.10314598  0.04605525  0.00321306  0.07448186 -0.1949095   0.11157765
 -0.26765624  0.12396624  0.16522552  0.23036374  0.3766651   0.28808233
 -0.08207574 -0.35067964]
[-0.50785726  0.36866537  0.12005547  0.0014416  -0.18012857 -0.0894946
  0.01689719  0.05766617 -0.16082299  0.14970125 -0.41900676 -0.0776214
 -0.03478248 -0.41350803  0.00552178 -0.5401169   0.41022596  0.24073799
  0.03366013 -0.53360176]
[-0.311562   -0.12764989  0.11920436 -0.04161024  0.18646623 -0.01512372
 -0.20654464  0.4026476   0.16748115  0.37041786  0.43759233  0.41794512
 -0.8297459   0.46195945 -0.2092325  -0.43314296  0.23991686  0.41160274
 -0.06668992 -0.33710846]
[ 0.11060289  0.06878683  0.13722786 -0.15627043  0.24275556 -0.01150139
 -0.23753232  0.21328987  0.39846155  0.3581164   0.11248961 -0.15458657
 -0.20994793 -0.12499268 -0.06675155  0.32155183  0.28848165  0.1147255
 -0.19112535  0.2307158 ]
[-0.01736744  0.36133817 -0.10578891 -0.19458808 -0.25678992  0.2209381
  0.06290103 -0.02693919 -0.38528326 -0.406691   -0.2164599   0.24102469
 -0.13322993 -0.19941032  0.31244543  0.07929258  0.30708998 -0.00677351
 -0.05768887 -0.13170657]
[-0.08677384  0.2325937  -0.19933324 -0.12293805  0.01654912  0.46652347
  0.29098392 -0.1695288  -0.02331186 -0.14193413 -0.23118132  0.55852586
  0.18640707 -0.0857343   0.73240006 -0.34728867  0.12211363 -0.10978273
 -0.13946272 -0.1836318 ]
[ 0.05840292  0.31455442  0.10848206 -0.24463257  0.17320251  0.27345267
  0.19804697 -0.261031   -0.42837062 -0.21008241 -0.20466189  0.30938917
 -0.12381073  0.38534895  0.34321362 -0.30027032 -0.37071675 -0.00967076
 -0.21899302  0.00695308]
[ 0.42578468  0.4387077   0.1885554  -0.27485397  0.05971135 -0.3224359
 -0.74521875  0.05003043  0.17991085 -0.03269247 -0.30686268 -0.6522926
  0.0952998  -0.38760844 -0.26953492  0.82430583  0.4368164  -0.35158306
 -0.03633139 -0.06085158]
[-5.0818324e-01  4.7583517e-01  1.7215043e-01  1.3374229e-01
  4.0999716e-03 -2.9927058e-02  3.9535224e-01 -2.3554500e-02
  3.0879783e-02  2.3969036e-01 -4.3823895e-01  4.3058166e-01
  1.6502821e-01 -2.8905940e-01  1.5142927e-01 -3.5265112e-01
  3.8326424e-04  3.3132863e-01 -4.3481257e-02 -4.3550038e-01]
[-0.27931675 -0.18170452 -0.09277008 -0.11564342 -0.07311935 -0.04471685
 -0.32962322  0.23230429  0.17782839  0.1826581   0.30222538 -0.24198967
 -0.4150668  -0.18329148 -0.36055496  0.00212492  0.12053619  0.34608468
 -0.07040495 -0.2731267 ]
[ 0.32152832 -0.28156424 -0.16026315 -0.3142375  -0.34272248 -0.11657725
 -0.14800791  0.31367093  0.23438366 -0.12006923  0.35291758 -0.36949253
  0.19952035  0.51370394 -0.30157354 -0.08740731 -0.35980508 -0.14950845
 -0.13496974  0.4548065 ]
[ 0.32992786  0.09586174  0.0613528   0.0804671  -0.28492782 -0.3920418
 -0.06463403 -0.33520994 -0.27978724  0.31925428 -0.3932078   0.27757275
  0.46273246  0.38429385  0.11109763 -0.21011186 -0.16984135 -0.12231461
 -0.29668513  0.07552505]
[ 0.05835343 -0.00130127  0.51523256 -0.22529136  0.17572586  0.07142093
 -0.03454222  0.5463341   0.18106338  0.49600694  0.3623312   0.02321558
 -0.5685239  -0.13213576 -0.5432807  -0.2774775   0.25694716  0.29467377
 -0.14864334  0.07684298]
[ 0.24224968 -0.3295834  -0.15295401  0.24659032 -0.05618222  0.29352805
  0.12445594  0.27842745 -0.1410327  -0.01017145  0.05371     0.139236
 -0.13650185  0.01132374 -0.2905353   0.00985903 -0.1287204  -0.27845943
  0.06556816  0.05472867]
[ 0.44027892  0.1950527   0.5006881  -0.1330029  -0.25550088 -0.19159743
  0.08761504 -0.06618531  0.11564434  0.37971553 -0.19613601  0.2704245
  0.39163938  0.27116686  0.29256284 -0.14865336 -0.07659333  0.06990254
  0.0866008  -0.09860253]
[-0.12654923 -0.05565928  0.16504474  0.05686499  0.0936722  -0.04271137
  0.04927022 -0.17639095 -0.44524723 -0.08537421  0.05421893  0.19803292
 -0.23362234  0.20524897  0.01996462 -0.28821456 -0.31989515 -0.02798254
  0.06361733  0.02469884]
[-0.2683109   0.28791124  0.13398889  0.03720253  0.0156693   0.13961037
  0.21008092  0.06303606 -0.0324836   0.0131733  -0.21743076  0.24931175
 -0.07842155 -0.40804744  0.11294079 -0.27041122  0.18889013  0.1502218
 -0.07878418 -0.3436163 ]
layer 5 Activation
tanh
layer 6 Dense
20 1
[0.2643048]
[-0.20266216]
[-0.06105586]
[-0.01245457]
[-0.01275933]
[0.07712775]
[0.13630694]
[0.01346497]
[0.00957018]
[0.03661029]
[0.2502105]
[0.00639564]
[-0.03063011]
[-0.15802878]
[0.0266173]
[-0.13673258]
[0.11835616]
[0.21638066]
[-0.01369043]
[-0.30741924]
[0.1982435]
