layers 7
layer 0 Dense
20 20
[ 0.19047648 -0.02539504  0.03668255  0.22583121  0.14915167 -0.06823672
 -0.04615419  0.13679887  0.25647706  0.02578232 -0.28981563 -0.13629583
 -0.07453359  0.29787335  0.17019822 -0.17965     0.16590922 -0.08941914
 -0.1415657  -0.10767218]
[-0.22492678 -0.06186153  0.1059248   0.3984265   0.05130088 -0.26998267
  0.21703812 -0.00976392  0.20006654 -0.22324055 -0.46019402  0.18600817
 -0.30737287 -0.24683812  0.12998706 -0.08950968 -0.10824335 -0.14668831
 -0.302291   -0.21989645]
[-0.06307926 -0.14663371  0.20940425  0.15591061 -0.4639212  -0.11656922
 -0.30062035 -0.15572906  0.22962484  0.15168202 -0.26764128 -0.1958058
 -0.39239758 -0.31771073 -0.3254259   0.0404755  -0.066088    0.00790118
 -0.17963615 -0.02346588]
[ 0.12899175 -0.13094226 -0.08452626  0.2642698  -0.03720886 -0.18904491
 -0.08710503 -0.17490555  0.1358274   0.08657408  0.12500942 -0.03389316
  0.19174278 -0.20122893 -0.03061979  0.0436672  -0.22641091  0.17660245
 -0.38584092  0.12485862]
[-0.2563114  -0.16414025  0.23432921  0.35253373  0.32840738  0.25041875
  0.3504003  -0.06814172 -0.24107233  0.02509269  0.12149344 -0.01854245
  0.4824162   0.00058937 -0.09070371 -0.15491098 -0.3536208  -0.0213012
  0.04074829 -0.38997683]
[-0.20749778 -0.01310136  0.2931756   0.07046591  0.21924852 -0.01212671
  0.17442088  0.29677615  0.05356141 -0.12745844 -0.28538093 -0.08748994
  0.08201783  0.15636565  0.1574569   0.00934073 -0.24464925  0.14840053
 -0.29035476 -0.27930918]
[-0.22332719  0.25234798 -0.15593459 -0.32355732  0.54537034  0.3097321
  0.38856515  0.322728   -0.1895133   0.11863416 -0.32692444  0.26604593
  0.23059295 -0.1947017  -0.06504437 -0.13581024 -0.07237977  0.33991075
  0.01359788 -0.415687  ]
[-0.14741391  0.25154707 -0.04384312  0.20623475 -0.00084962 -0.01534404
 -0.14184774  0.17330618 -0.22137928  0.3813051  -0.2320537  -0.38179246
  0.19083428  0.0047779  -0.13420507  0.27867344  0.25002986  0.174083
 -0.00801747  0.16285959]
[-0.10357676  0.39585847 -0.04407859 -0.12051375 -0.13258153  0.18336463
  0.00917177 -0.46054864 -0.34201103  0.02218238  0.39149827 -0.23666115
  0.24508317 -0.27570203  0.27033675  0.2192944   0.06039215 -0.2987619
 -0.05288884 -0.28962916]
[-0.24484058  0.26355544 -0.27842882  0.03801279 -0.06039541  0.15548207
 -0.1675618  -0.31199905 -0.2509597   0.25027278  0.20856397 -0.14032538
  0.29531133  0.2227951  -0.37605998 -0.16926597 -0.20062283  0.18195124
  0.14296518  0.1497551 ]
[ 0.03321651 -0.14514314  0.24986938  0.02171752  0.2807319   0.25665304
 -0.30097082  0.16744626  0.32650226  0.01067489 -0.29425335 -0.01627486
  0.23574713  0.39570346 -0.04889147 -0.22055063 -0.14168793 -0.27943107
 -0.08098774  0.37411103]
[-0.4495304   0.14824145  0.00472047 -0.307356    0.10688512 -0.28922036
 -0.01846222  0.2861797   0.25496632 -0.40290108 -0.3148189   0.20104581
 -0.38851854 -0.02760785  0.09070668  0.34906948 -0.09819232  0.07421155
  0.3153457   0.30747092]
[ 0.41210496  0.30744496 -0.11948442 -0.3887347  -0.22105351  0.35512275
  0.2054191  -0.07826717  0.10700156  0.12107988  0.13501653 -0.11738332
  0.0423892  -0.13484773 -0.30219668  0.04079428  0.3163234  -0.31237832
 -0.2612909   0.13607949]
[-0.12916191 -0.08984579  0.19482894 -0.04181924  0.06617554  0.1368961
  0.01289262  0.1785677  -0.03793598  0.19571519  0.06498498 -0.04122427
 -0.04466243  0.2074742  -0.18985094 -0.26545122  0.31888738 -0.35488406
  0.1758638  -0.15464526]
[-0.24774906  0.15434848  0.48919323  0.35161558  0.51595473  0.10730211
 -0.40029266 -0.19383466 -0.34677815  0.01255726 -0.11943872 -0.06151792
 -0.06067577  0.26502267 -0.10682107  0.22603145 -0.11577396 -0.18467431
  0.03107138  0.50473   ]
[-0.30530614 -0.04881535  0.3029282  -0.28148156  0.04960288  0.3479462
  0.13513583 -0.25167486 -0.3207421   0.17801812  0.01085752 -0.2170315
 -0.00578795 -0.03287648 -0.16544014  0.12825231  0.17148262  0.21222034
 -0.23297809 -0.40513533]
[ 0.38659394 -0.37035826  0.2208047   0.27885345 -0.25997466 -0.28567058
 -0.04575279 -0.12919994  0.09080991 -0.4493134   0.42917225 -0.0501527
  0.03195377 -0.0705734   0.15683472  0.31087214 -0.12401187 -0.30653125
  0.13455217 -0.14989576]
[-0.22392544  0.05442012  0.24902388  0.3672452  -0.20988433  0.16367109
  0.19015123  0.26761526  0.36779884  0.12052491 -0.37580642  0.2163022
 -0.07750711  0.27351722  0.40097672  0.11034891  0.2816278   0.03086042
 -0.4244366  -0.04434583]
[ 0.12247434 -0.21754968 -0.33745262  0.08039936 -0.507439   -0.0260167
  0.31608742  0.12593491  0.21988784 -0.05777154 -0.19472133  0.00307859
  0.3487696   0.27933204  0.36698166 -0.19071938 -0.25024006  0.06259976
 -0.18578461 -0.22758213]
[-1.2405476e-01 -9.8037116e-02 -3.2168591e-01  2.8497484e-01
  9.8220102e-02 -1.5735020e-01 -2.2293594e-01  4.2214471e-01
  7.4449696e-02 -1.1817027e-01 -2.1499284e-01  3.9662772e-01
 -3.0960172e-01  3.3849671e-01 -3.2712567e-01  3.0695182e-01
  2.5337958e-01 -1.4887299e-04  1.1685095e-01  4.0475437e-01]
[-0.08948904  0.00548081 -0.05302151 -0.01128788 -0.11647633 -0.01487443
  0.03109865 -0.01625966  0.00914271 -0.01301763 -0.10810922  0.0182307
 -0.02006372  0.02981921 -0.01204256  0.02809934 -0.02695917  0.0043954
  0.00681175  0.03764092]
layer 1 Activation
tanh
layer 2 Dense
20 40
[-0.05766203  0.2391752   0.02198435  0.09983877  0.17606895 -0.01844517
 -0.02162374  0.21919885  0.3086101  -0.09533769  0.1963745   0.04635269
 -0.10895161 -0.12389115 -0.183661   -0.18949394  0.10042134 -0.08946121
  0.02053117 -0.27361482  0.23930521  0.21742748  0.12373909 -0.280312
  0.12241337  0.12787375  0.19707829 -0.1605634  -0.10611756  0.0056664
  0.06118294  0.2220919  -0.26980627 -0.10750432 -0.2713995  -0.12722425
  0.0576608   0.29604483  0.19033138 -0.17328332]
[ 0.26744473 -0.10529422 -0.33979577 -0.13710657  0.31228685 -0.29219818
 -0.28140563  0.16946366 -0.09440209 -0.1722953   0.21778114 -0.03435642
 -0.19627453  0.21973875  0.19887869  0.24650952 -0.11557141  0.20899735
  0.2214608  -0.25839356  0.24650274  0.04193322  0.22754589  0.17369115
  0.1227887   0.06957602 -0.20638095 -0.04814392 -0.15834194  0.18722977
 -0.05423667  0.23920456 -0.20428625  0.02227747  0.04594252  0.19214107
 -0.23042656 -0.02895284  0.19500613  0.19701402]
[-0.24418797 -0.12562643 -0.08169413 -0.12176245 -0.0394107   0.28108543
  0.2483161  -0.20993537  0.04398388 -0.02236033  0.08568612  0.23142436
  0.2631122   0.29409638  0.26712498  0.21197449 -0.04782549  0.2709615
  0.00821655 -0.01287333 -0.20853831  0.05405926  0.05891511  0.30345654
 -0.24395938  0.2811062  -0.0692988  -0.31141952  0.05823968 -0.01984272
 -0.0595892  -0.25619972  0.1522346   0.25612536 -0.09306667  0.22090039
  0.287472   -0.25394508  0.15510663  0.21273226]
[ 0.38751367  0.21380487  0.21383035  0.00578954  0.09843013  0.25908875
  0.25432846 -0.36182338 -0.29967988 -0.13837953 -0.11299811 -0.3067702
 -0.07791275 -0.00590815 -0.55749166  0.01404348 -0.00434528 -0.06062829
  0.00407963  0.29380295  0.12341734 -0.06333662 -0.13249652 -0.4133907
 -0.10622098  0.28239834  0.15463     0.09578219 -0.18997298 -0.14045511
  0.09765381  0.04376673  0.12830889  0.03717801 -0.03875674  0.09810848
  0.15434492  0.46811283  0.250537   -0.14743169]
[-0.12742302  0.28117952 -0.03878658 -0.149716    0.27020925  0.07459657
  0.10033692 -0.01608655  0.28443497 -0.23427041 -0.31834978 -0.27857912
 -0.03646284 -0.19372691  0.21091795  0.31516424  0.14966106 -0.2916409
  0.13889122  0.02854405 -0.13337407  0.13040613 -0.03882607 -0.22796313
  0.04953693  0.27142242  0.05568575  0.02759863  0.20667692  0.13010824
 -0.12111852 -0.00582729 -0.3134915   0.09238105  0.2910133  -0.23491243
 -0.19364108  0.16056497  0.05436532  0.27823225]
[-0.01371361 -0.00608611 -0.11573313 -0.28960633  0.31252933 -0.00110681
  0.2134583   0.19762331 -0.05868624  0.00358762 -0.05936052  0.00353522
 -0.18135032 -0.05257984  0.12278018  0.05487089  0.01767156 -0.12973215
  0.2896585  -0.23151577  0.32322237 -0.11345939 -0.19454898 -0.03795459
  0.10353186  0.17384331  0.01271154  0.14688674  0.07353073  0.25294968
  0.14924252  0.14924489 -0.02229496 -0.02721193  0.20541     0.0525104
  0.11374564 -0.34249267  0.0742613  -0.24937826]
[-0.24639675  0.28545043  0.032667    0.13872336  0.03144084  0.3053199
  0.04852076  0.35559845 -0.11289415  0.20236164 -0.1715581  -0.11414228
 -0.06819306 -0.25624928 -0.337904   -0.06978802  0.30653864  0.21478134
  0.01415693 -0.23335677  0.01760538 -0.17627831  0.09496246  0.07350852
 -0.1263511  -0.08880673 -0.00816234 -0.05249465 -0.04688245 -0.17801566
 -0.23412278  0.22878991  0.12292878  0.13036361 -0.2703525  -0.05191325
 -0.18804757 -0.22550629  0.35159883 -0.13475023]
[ 0.2475782  -0.23646407  0.06430462  0.25579655  0.24303311  0.15918161
 -0.27435037 -0.049505    0.24029955 -0.3188856  -0.21403077 -0.24100445
 -0.06623377 -0.02923623 -0.26993144 -0.12659563  0.276072   -0.23999453
  0.2129343   0.07763346  0.283465    0.20078795  0.14625959  0.04018936
  0.10401783  0.10230555 -0.351957   -0.02081067 -0.3694377  -0.16385952
 -0.2435838   0.17792934 -0.07948767 -0.11760232  0.03525862  0.21720652
  0.304536   -0.23364444 -0.19332527  0.16241059]
[ 0.24206531 -0.20797627  0.19359182  0.25687763 -0.01871667  0.19061564
  0.19513738  0.0493651   0.14731306 -0.3292777  -0.01195372 -0.10204559
  0.05115572  0.01944    -0.24221487  0.06124216 -0.27564508  0.12487534
 -0.02388006  0.1875365  -0.18969302  0.32088587  0.201928   -0.07161003
 -0.00864558  0.2573022  -0.2631195   0.03691878  0.03438472 -0.24123953
  0.17432399 -0.1755404  -0.30653098  0.0139848  -0.12495214  0.0374831
  0.20481086  0.32038245 -0.22996375  0.27942234]
[ 0.17150001  0.21019354 -0.25152138 -0.03533035  0.4029165   0.11326289
 -0.02014112  0.18737444  0.06856064 -0.11336303 -0.24547674 -0.03360285
 -0.3194863  -0.25983435  0.03382871 -0.16232163  0.06681602 -0.17461699
  0.11820922 -0.15366508  0.05214007 -0.12959012 -0.30208012  0.1393031
 -0.36566922  0.24031915  0.19271207  0.10193589  0.12059817  0.38627356
  0.11085506  0.24360494  0.20695813  0.20298    -0.00283532 -0.08160055
  0.25895888  0.10119514 -0.22625524  0.23715265]
[ 0.00926292  0.19508345 -0.03507074 -0.1538581  -0.20238474 -0.08070204
  0.29456314  0.31428322  0.2415479   0.18512443 -0.07674649 -0.01297469
 -0.08155829  0.07799435  0.01494543  0.15750775 -0.02310068  0.15790549
  0.06825788 -0.06511925 -0.1032226  -0.2489149   0.3877779   0.21437685
 -0.14499336  0.16198096  0.3276097  -0.04784828 -0.18103012  0.26974228
 -0.17644615  0.14408466  0.08999408 -0.23019217 -0.21178885 -0.20850687
  0.13289689 -0.24892099 -0.20125885 -0.14793988]
[ 0.23270702  0.19927025  0.15211038 -0.11188217  0.02928868 -0.02417217
  0.1003432   0.00794577  0.3085035  -0.02866687 -0.24075508  0.10411246
  0.20228134  0.02654245 -0.0968655   0.13296972 -0.24863395 -0.04220647
  0.12063343 -0.10710168 -0.15381172 -0.02321434  0.02985082 -0.19762418
 -0.24361406 -0.28613323  0.10545362 -0.2789838   0.27079332  0.04414215
  0.00906515  0.12830196 -0.08722398  0.15808776  0.24632455  0.00646869
  0.23261733  0.25804982 -0.33400998 -0.00493236]
[-0.00618219  0.11970019 -0.20100132  0.0183195  -0.36938623  0.15732898
 -0.26058376  0.21569456  0.11299855  0.19146247  0.24428448 -0.03364658
  0.15545224 -0.25327045  0.25409633  0.16871066 -0.26395124  0.11928861
  0.28867713  0.15813582 -0.0608355  -0.03132581  0.15557873 -0.3468795
 -0.03624928 -0.18194191  0.19898513  0.2561293  -0.15801437  0.15498516
  0.26352948 -0.23617859  0.01856451 -0.35694814 -0.13429725 -0.34534392
 -0.16211908  0.14576642  0.21359695  0.05084633]
[ 0.2079176   0.200025    0.24926227 -0.02527335 -0.09675067 -0.21278676
  0.2386209  -0.07411212 -0.10014518  0.18008584 -0.09030183  0.1652254
  0.15339874  0.2665331  -0.10999735  0.04289049 -0.06417615  0.31891167
 -0.14074902 -0.12246075 -0.23532753  0.3078726   0.17860976 -0.18285087
  0.12817483  0.20400737  0.13465476 -0.2564341  -0.01174351 -0.01648237
 -0.00480247 -0.26817104 -0.02224151  0.17854165 -0.23857419 -0.06163419
  0.14992167  0.2031066  -0.28486556 -0.04368989]
[-0.17947026  0.05065894 -0.26730478 -0.0588638   0.258743    0.06738896
  0.07318398 -0.00400405 -0.06914762  0.17619367 -0.14279315 -0.00869735
  0.0468848   0.17440526 -0.27211043 -0.05380328  0.20350923  0.09411785
 -0.03135371 -0.16809997  0.34700915 -0.07811256 -0.29906252  0.01474029
  0.05541924  0.22425771 -0.20005928 -0.06229326  0.05703387 -0.29282486
  0.00844497  0.27191517 -0.01808323  0.1159348  -0.12860654 -0.09558964
 -0.29905125  0.25408635 -0.16868389  0.15169123]
[-1.83829576e-01  4.06504646e-02 -1.71298191e-01  1.92859843e-01
 -2.16936409e-01 -2.82154679e-01 -2.24936247e-01 -1.38207436e-01
  1.02894872e-01 -6.08112477e-02 -1.19381152e-01 -2.52675027e-01
  6.11947067e-02 -1.53160825e-01 -6.85278773e-02 -1.18429542e-01
 -2.31490374e-01 -1.70137480e-01  1.46870255e-01  1.27577454e-01
  1.46696791e-01 -7.63503695e-03 -1.40954345e-01  2.69036740e-01
  1.90294951e-01  1.99494690e-01 -8.03446844e-02  1.42138273e-01
  7.16049969e-02 -1.60687808e-02  1.45142025e-03  1.21215485e-01
 -2.40207106e-01 -1.25831366e-01  9.50953327e-05 -2.56728858e-01
  1.33543998e-01  2.87018120e-01  2.55409360e-01  2.41582468e-02]
[ 0.3675794  -0.2261887  -0.26777896 -0.20018017  0.27625188  0.01628398
 -0.31879303 -0.24709389 -0.08723313  0.15893891  0.291136   -0.22139022
 -0.18326671  0.24094178 -0.14031288  0.22988246 -0.01745237  0.05315494
 -0.06240257 -0.03391715  0.15760997 -0.02929765 -0.39281204 -0.1613052
 -0.09488292 -0.0636018   0.14969727 -0.2879916   0.24161915  0.04104142
  0.15804766 -0.21659893 -0.12366501  0.07202148 -0.0701569   0.2586527
  0.26209086  0.12647428 -0.23222628  0.13250704]
[ 0.04694856  0.15499057 -0.2312557   0.13577133 -0.13177097 -0.04452625
 -0.21825548 -0.09705483  0.06951914 -0.1634157  -0.10129724 -0.25271675
 -0.2174703  -0.17104152 -0.1034424   0.23220396  0.15620993  0.15382168
 -0.14229713 -0.03380841 -0.0453813  -0.11865403  0.14555356  0.01548047
 -0.199804    0.03946641 -0.16627239 -0.0124559  -0.09363086 -0.00894308
  0.19746429 -0.09372573 -0.19586955  0.18197083 -0.09058808 -0.12382463
  0.01801504  0.07772462  0.08952308  0.25092125]
[-0.06864455 -0.05787095 -0.05239155  0.07631639  0.14568587 -0.06623904
 -0.21514295 -0.04410504  0.33928886  0.03692688 -0.22198446 -0.15466692
 -0.14182207 -0.15701571  0.07731119 -0.08779547 -0.24231414 -0.00553824
 -0.16716413 -0.08424631 -0.20520963 -0.14824884  0.28733543  0.22248952
 -0.30239505  0.02765998  0.29394135  0.14322276 -0.04402781  0.3202078
 -0.26168996  0.12511231 -0.13686554 -0.04305035 -0.28449577 -0.20305942
  0.12974803 -0.31380054  0.25255358 -0.2892376 ]
[-0.28572658 -0.07553083  0.08706451 -0.14314324  0.28186733  0.11199662
  0.209901   -0.26280874  0.22483073 -0.18101077 -0.20134436  0.29577607
  0.30658805  0.25923106  0.13656422 -0.12329637 -0.1096417  -0.04919499
 -0.25535607  0.09644037 -0.30216706  0.18176223  0.11543421  0.00437944
  0.18856987  0.29347524  0.29249278  0.1011116  -0.06884842  0.17101057
 -0.3191069  -0.3067007  -0.21285394  0.11798204  0.08562741 -0.16421373
 -0.25245875  0.20963769 -0.08503976 -0.26983595]
[-0.01508652  0.00090872  0.00497857  0.01459898 -0.03876968  0.00282075
  0.02858873 -0.04658339 -0.00644358 -0.0915471  -0.04605624 -0.00850391
  0.03234945 -0.02310291  0.03114513  0.00575291 -0.01059645 -0.03540133
 -0.03517711  0.02413098  0.03527354  0.02069875  0.0277316   0.02701835
  0.08840654 -0.0108699  -0.02208792  0.00318357  0.1541624  -0.16453417
 -0.03060574 -0.00394217  0.01045584  0.00695721 -0.01525298 -0.02306685
 -0.01411577  0.0319562  -0.06922285 -0.00885257]
layer 3 Activation
tanh
layer 4 Dense
40 20
[ 0.24238071  0.25051728  0.28627262 -0.10876001 -0.17232643  0.14470656
  0.07818263 -0.33283    -0.2618935   0.03703751 -0.2875225   0.16439542
 -0.2867496   0.22090782  0.09620341  0.23771513 -0.06864475  0.10724625
 -0.20067903  0.12079691]
[-0.01118585 -0.12093502  0.0657748  -0.19509685 -0.11685507 -0.0436429
  0.09921262  0.01532749 -0.01489838  0.19648565 -0.1845604  -0.07911163
  0.3682023   0.29639465  0.09012115 -0.06568088  0.22219053 -0.08699471
  0.19239186 -0.23761113]
[-0.03466273  0.02731469  0.24534757 -0.26066467 -0.1720957  -0.10510731
 -0.02168331 -0.33593103  0.04419535 -0.18361755 -0.04959517  0.08382734
 -0.10769047 -0.03414662 -0.24873626 -0.25307825 -0.08149852 -0.19296938
 -0.30265933 -0.04740833]
[-0.10765508  0.21207543 -0.1635522   0.02411135 -0.29850557 -0.16796273
  0.2620359  -0.08771481 -0.0671889   0.3074545  -0.22377725  0.1917707
  0.24573667 -0.02900412 -0.14235228 -0.12886651  0.2502793   0.22929054
 -0.25889692  0.296776  ]
[ 0.31699997  0.16613203 -0.22642055  0.15936118 -0.0798528   0.10260594
  0.18852265 -0.00458432  0.23384057  0.16776644  0.25118926  0.22466518
  0.22160344 -0.01070668  0.13888125  0.26411247 -0.04778565  0.22193933
 -0.16294362  0.30273116]
[ 0.06974977 -0.12902173  0.23337604 -0.24126083  0.08451245 -0.27563682
 -0.14683962 -0.09652939  0.08655545 -0.18386593 -0.24095897  0.02472289
 -0.15468653  0.03962531  0.2279217  -0.03449113  0.05078859  0.23253874
  0.01776376  0.06164031]
[-0.2475819   0.1713109   0.16630065  0.2088949   0.14290348 -0.07307713
  0.0477204   0.21808872  0.01906176 -0.11099546 -0.0956913   0.00767389
  0.02136784  0.15965332  0.1076287  -0.11309357 -0.05056017 -0.16237025
  0.22786015  0.07413884]
[-0.11644691  0.2150894  -0.24047443 -0.00715235 -0.08951761 -0.2665858
 -0.16731714  0.18472463 -0.28982744  0.17845462 -0.26812476  0.02721366
 -0.1912225   0.09331056  0.07775412  0.14498182  0.10137901 -0.14322476
 -0.27508825 -0.08028554]
[ 0.22942668 -0.07231616 -0.13363694 -0.0798116  -0.01317535 -0.24509722
 -0.05783124 -0.28312394  0.2539084  -0.11696651  0.1677484  -0.06726771
  0.11167766 -0.17602423  0.18081427 -0.10261159 -0.04304759 -0.05942543
 -0.16769832  0.25645143]
[-0.03273924  0.04618551 -0.11030091 -0.09525336 -0.03725553  0.247721
 -0.2724079   0.20251597  0.11499337  0.06733092 -0.00312836  0.3233478
 -0.04103709  0.00138885 -0.03722212  0.22097023  0.06633864 -0.07648032
 -0.19039363 -0.02783572]
[-0.33817142 -0.2641833   0.1741861  -0.24755786  0.05270335 -0.23397212
 -0.11401355  0.00612475 -0.02730292  0.1538309  -0.27408218  0.01819176
 -0.021419   -0.18633673  0.03751019 -0.00247981  0.12592538  0.18159957
 -0.07832497 -0.17631097]
[ 0.17279021  0.00603073  0.17182472  0.03082728 -0.06864625 -0.04802506
 -0.292298   -0.24477877 -0.10833222 -0.2337752   0.25955114 -0.16403174
  0.2230865  -0.05477798  0.04818881 -0.03517313 -0.21203925 -0.07894903
  0.25773317 -0.22585176]
[ 0.0024771   0.09585092 -0.05657588  0.05098564  0.1456565  -0.26609588
 -0.0998143   0.14985539  0.2395453  -0.1732967  -0.09100761  0.06131615
  0.30539104 -0.16810457 -0.3337846  -0.25788802  0.12497395  0.08336059
 -0.2085718   0.30829197]
[ 0.21098249 -0.19016688 -0.35537818  0.1285393  -0.15087764 -0.02656366
  0.23486592 -0.21011072  0.1522804  -0.21781053 -0.33858326 -0.0721243
 -0.07798967 -0.13057081 -0.04008184  0.20857634  0.03732383 -0.29684326
  0.20649002  0.21828827]
[ 0.31915462 -0.09010583  0.01003704  0.00860797  0.036109   -0.14911783
 -0.13750233 -0.10067207  0.17049994  0.20419239 -0.23443457  0.26103443
  0.15963747 -0.2673394   0.01684029  0.11452492  0.3204339   0.02609485
  0.05050813 -0.24434808]
[ 0.27346203 -0.21233706 -0.21314655  0.064056   -0.28692564 -0.06895027
  0.32362342 -0.11507016  0.20924313 -0.0078479  -0.04700196  0.09453048
 -0.01340358  0.13250758 -0.20845135  0.03222359 -0.26053655 -0.36358458
  0.23857763  0.20010047]
[-0.33384553  0.06351985  0.0237279   0.24485885 -0.18094793  0.13352422
  0.0170276   0.09655767 -0.22462675 -0.0462143   0.18716693  0.16923152
 -0.20901297 -0.00512462  0.23166448 -0.09266708  0.16160361  0.13620482
 -0.1833945   0.2049232 ]
[ 0.03387958 -0.27451596  0.23359993 -0.08418791  0.00454576  0.05851852
  0.13922147 -0.02861604 -0.21127823  0.01440457  0.23442903  0.07216881
 -0.23740976  0.27604246  0.17348374  0.23741731  0.04988413 -0.12303568
 -0.16999145  0.00775885]
[ 0.22672392  0.14040682 -0.27039838 -0.15355138  0.30927688 -0.0072686
  0.22265626  0.02470565  0.3345816   0.23590696 -0.14208223 -0.00187904
 -0.02605142 -0.1037599  -0.13894567  0.2830588  -0.13449849 -0.14194112
 -0.21736784 -0.1232241 ]
[ 0.08250887  0.19710486  0.08196278 -0.00698915 -0.10829686 -0.11648159
  0.23874709 -0.15704782  0.0034907  -0.11892708  0.09864496  0.23926376
  0.23983473  0.02593158  0.10982466 -0.21100898  0.22572753 -0.2501068
 -0.14861159  0.28577343]
[ 0.193874   -0.22951172 -0.28035346 -0.21727708 -0.22700436 -0.10298882
  0.10267017  0.01739915 -0.23908687  0.26787248  0.04846447  0.27278614
 -0.15807512  0.04694223 -0.13091435  0.02937325  0.16108471  0.16288237
  0.09592418  0.11653719]
[-0.02080286  0.14159706  0.08302313  0.06222006  0.02288676 -0.0217032
  0.1889714  -0.16848607 -0.2614956   0.12413231  0.14136855 -0.00967215
 -0.22969659  0.00504292  0.02408458 -0.14250298  0.12878488  0.12771341
  0.12554328  0.10900334]
[-0.19308008 -0.16916506  0.37730917 -0.09805172  0.22382    -0.16387337
 -0.04194029  0.18540166  0.05130859 -0.10606139  0.10324778  0.04331407
 -0.24939647  0.13795686 -0.24494743 -0.28290954  0.21869333 -0.29459414
  0.2937796  -0.15051055]
[-0.03337028 -0.1288297  -0.22983766 -0.0523036   0.2891245   0.04998342
 -0.00065355  0.05691939 -0.23859836 -0.13026081 -0.1365418  -0.09092715
 -0.00431146 -0.22049958  0.0593675  -0.01400677 -0.05864023  0.13829224
  0.01018179  0.22760604]
[ 0.15427133 -0.00787928 -0.057498    0.27129248 -0.25510982 -0.082467
  0.02076835  0.1396866   0.1245529  -0.05912886 -0.25346655 -0.05066692
 -0.07492479  0.28985384 -0.07411755 -0.04897105 -0.04447747  0.00448854
  0.18594205  0.19409218]
[ 0.2466602   0.03331851 -0.02506561  0.01705667  0.17421098 -0.13871229
 -0.01906086  0.10998303 -0.15684621  0.0690316   0.20471473 -0.08484133
 -0.20821294 -0.08963393 -0.37214148 -0.22162959 -0.01736963  0.21648514
  0.02174931 -0.1661965 ]
[ 0.04823306 -0.18664515 -0.20714441  0.14343478  0.28273782  0.08832301
 -0.0248985   0.30649987  0.1843774  -0.19185169 -0.02182183 -0.20250686
  0.07482627 -0.26416564 -0.18860987 -0.26046678  0.05299294  0.3104924
  0.0409437  -0.08990087]
[-0.16151948 -0.22952484 -0.16636512 -0.10615762  0.1690541  -0.13812198
 -0.2116042   0.14132532  0.1531971   0.18853442  0.02767533 -0.30164987
 -0.26666734 -0.3425743   0.33065706  0.13324215 -0.02817949  0.0069982
  0.08091703  0.16563733]
[ 0.2747142  -0.00596874  0.01448186  0.10520407  0.18870479 -0.08756044
 -0.17763704  0.1521778  -0.07235662  0.00086524 -0.17780952  0.10186271
 -0.01473904  0.03299821  0.18788949 -0.09753668  0.31537947 -0.23340847
 -0.16746086  0.15208109]
[ 0.12187716  0.15845424 -0.12414738  0.10545274  0.0328374   0.00936145
 -0.20183349  0.2740729   0.19606428  0.1694096  -0.19973738 -0.15615635
  0.1626528  -0.3462862  -0.22944012  0.23908038  0.00459742 -0.03238614
 -0.2511413   0.05181001]
[-0.19928138 -0.10101058  0.2550887  -0.09227969 -0.19401313  0.05469412
 -0.20681806 -0.2316168  -0.2603938   0.03220611 -0.12750354  0.10383829
  0.25543725 -0.24280876  0.1327031   0.05872986 -0.07731406 -0.16690132
 -0.06249351 -0.23943512]
[-0.29211918  0.06493372  0.2975972  -0.15711024  0.07886345  0.3245714
 -0.17464453  0.3257927  -0.15601484 -0.12607735 -0.06389781  0.06396256
 -0.11375581  0.07245016 -0.08107158  0.21670674 -0.24241126  0.22236106
  0.24227318  0.25003698]
[-0.30100518 -0.21778104  0.00169709 -0.22954912 -0.24106249  0.08329067
 -0.2515772   0.11539674  0.25625548  0.14238107  0.03972057 -0.01302753
 -0.20840599  0.09692511  0.09367565 -0.26820377  0.05660396  0.3735469
 -0.27340418  0.014771  ]
[-0.27022672  0.15735674 -0.1854826   0.25649756 -0.12920444  0.13189887
  0.31123358 -0.15274124  0.25449684 -0.26319236 -0.04879915 -0.25571772
 -0.19514154  0.11408535  0.21304904  0.11528396  0.08503076 -0.17355129
 -0.27362293  0.28105742]
[-0.0234786   0.2139542  -0.02210873 -0.16683921 -0.03148433 -0.01701513
  0.23752017 -0.29393837  0.02474371 -0.15456343 -0.34902346 -0.18985564
 -0.0093143   0.09575232 -0.0240326   0.0164166  -0.13474484  0.178476
  0.38557866 -0.19423245]
[ 0.0662472   0.1555134   0.07235387  0.28678337  0.15880562  0.0679141
 -0.12495857  0.2686274  -0.33965036 -0.08557632 -0.16713099  0.01506768
 -0.0532182   0.00575351  0.07067227  0.18150249  0.0834621  -0.20845006
  0.07970586 -0.27764034]
[ 0.00393696  0.09114908  0.20304222 -0.04888372 -0.18944478  0.19053909
  0.02987839 -0.12346876 -0.14473298  0.08133755  0.11553471  0.23027878
  0.3026     -0.1140907  -0.00334512 -0.01824005 -0.35028312  0.26180577
 -0.16178188  0.20644552]
[-0.26962045  0.01667545  0.23697813 -0.05088632 -0.09582922 -0.16432388
  0.21929011  0.26845503 -0.28684336 -0.01769374 -0.24998102 -0.11758436
  0.11290741  0.08469326 -0.029015   -0.25888407  0.12227014 -0.3019282
  0.17975752  0.35832787]
[ 0.14764988  0.1247722   0.14120133 -0.23907612  0.20707294 -0.24549216
 -0.3289018  -0.01714779 -0.12089298 -0.07255447  0.28743607 -0.29982045
  0.20688513 -0.00434808 -0.04489648  0.26384005  0.01709298 -0.15283889
 -0.25569642 -0.28788713]
[ 0.05841723  0.17252456  0.08253265  0.25370076  0.05741667 -0.20220147
 -0.01417803 -0.12237147  0.21513991 -0.23641138  0.1031774  -0.10048362
 -0.00795928  0.07528887  0.07336242  0.2581818  -0.02016683  0.04927459
 -0.07953724  0.24187407]
[-0.01002339 -0.00341432 -0.00775482  0.01765198  0.00529866 -0.00701311
 -0.00888173 -0.0158493   0.01513954  0.01238662 -0.01019014  0.01137567
  0.00120362  0.02458894 -0.04948251 -0.0413931  -0.00624516 -0.036624
  0.01560449  0.02269305]
layer 5 Activation
tanh
layer 6 Dense
20 1
[-0.28222245]
[-0.08871596]
[-0.09920075]
[0.3437369]
[0.3461386]
[-0.2383582]
[-0.42871687]
[-0.3353433]
[0.04824768]
[0.1001892]
[-0.00167379]
[0.24758615]
[-0.00286162]
[0.18858027]
[-0.0082445]
[0.35222054]
[-0.05020775]
[0.00357512]
[0.18957268]
[0.1699635]
[-0.00107182]
