layers 7
layer 0 Dense
20 20
[ 0.20916189  0.43778068 -0.38095465 -0.06940673  0.19110332 -0.12849921
 -0.2901922   0.04020148 -0.38936096 -0.13790971 -0.12317841  0.19412588
 -0.38802263  0.1268178  -0.25989622 -0.14247315  0.29764232  0.3223817
 -0.09645841 -0.09737229]
[ 0.00374286 -0.00138476  0.12591748  0.07484102  0.22839999 -0.00325235
 -0.07521487 -0.3277577   0.211453   -0.28474545 -0.06848773 -0.1621228
 -0.36179444 -0.03638034 -0.34756094 -0.258536   -0.29701126 -0.20104627
  0.3034012   0.11224542]
[ 0.10764603 -0.29983783  0.24165511 -0.29380837  0.14111236  0.32363173
 -0.04283988 -0.33601484 -0.24473971  0.03561613  0.13256566  0.14924982
  0.20569493  0.08476831  0.32120207  0.11201992 -0.1103759   0.39676526
  0.22261073  0.20770478]
[ 0.20319867 -0.25289753 -0.08585356  0.07124531 -0.35691002  0.3004347
  0.33997348 -0.03531315 -0.24555315  0.13058433 -0.17734474  0.20586015
  0.27168542  0.27543223 -0.26586735 -0.20200422  0.31924418  0.10510857
 -0.22658467  0.2986602 ]
[ 0.02427521  0.08321168 -0.31471246 -0.22337006 -0.18923509 -0.00080933
  0.15263411 -0.2643882   0.03236972 -0.23913103  0.31000564  0.43289137
 -0.2823469   0.20232017  0.34364727 -0.2743761  -0.15066709 -0.04560572
  0.3499039   0.23132648]
[ 0.2962627   0.3953287   0.26446792 -0.22791816  0.10709696  0.12169687
  0.07309843  0.2005838   0.10188822  0.02937382  0.3314372  -0.42506823
 -0.15120202  0.18223017  0.38057134  0.00224948 -0.30473375  0.15276587
  0.15639032 -0.08851653]
[ 0.25860345  0.34386483  0.09964059 -0.09283003  0.40701807  0.14775498
 -0.08143142 -0.10540646 -0.18270512  0.37093243 -0.18616757 -0.3199436
  0.19878419  0.30884704 -0.19573475  0.00499251 -0.3461227  -0.23748256
 -0.27522016  0.33268836]
[-1.4880782e-02 -9.9966593e-02 -2.0201084e-01 -3.1562850e-01
  3.0308789e-01  4.5490950e-01  1.8061498e-01  1.5339033e-02
 -2.1358833e-01  2.1332219e-02  5.6794398e-02  3.9441702e-01
  2.9226858e-04  2.6194781e-01 -2.8068689e-01  2.0187676e-01
 -2.1721078e-01  2.7368233e-01  1.1605252e-01 -3.0193052e-01]
[-0.11606233  0.26057804  0.05879068  0.26767972 -0.0322679  -0.26894328
  0.19576035  0.27536833 -0.2823357  -0.36314875 -0.24624148 -0.1425217
 -0.10580464 -0.07223275 -0.21931352 -0.24502     0.00230454 -0.26449674
  0.10182007  0.06333559]
[ 0.058845    0.32337162  0.22594054 -0.05861541 -0.20365706 -0.07634913
  0.03731122  0.1266331  -0.00702478 -0.20274504  0.10168333 -0.2284826
 -0.14647816 -0.02159685 -0.11485553 -0.24201171 -0.28660917  0.07286086
 -0.01096185  0.11032673]
[ 0.1481191  -0.2695145   0.16158201 -0.03477987 -0.15961497 -0.03270204
 -0.32228044 -0.33367407  0.35533974 -0.04950809  0.2848944   0.29120964
  0.07625002  0.1986973  -0.18805537  0.19842803 -0.35989872 -0.42236862
 -0.23406589 -0.25054395]
[-0.11078873  0.09492248 -0.5154141  -0.1667617  -0.08681472 -0.3980326
  0.20007446  0.02024765 -0.16136186 -0.31522185  0.08970409 -0.38855612
  0.07634964  0.35946447  0.03960477 -0.2545625  -0.35549825  0.24898884
  0.34066606  0.18300019]
[-0.15427554 -0.01290107  0.2759963   0.20770179  0.23023403  0.3138093
 -0.34826383  0.304181    0.1266652  -0.26405355  0.18970227  0.03397533
  0.33692986  0.3161641  -0.04631694  0.14383054  0.07391476  0.15842551
 -0.23815237  0.302899  ]
[-0.23734558  0.37283117 -0.22955722 -0.02620403 -0.08183361 -0.11097638
 -0.22778706 -0.11456258 -0.08061687 -0.1761637   0.31940126  0.10862836
  0.0749708  -0.31749433 -0.40649498 -0.02584502 -0.02609351  0.24098954
 -0.40018848  0.35246578]
[-0.37335655  0.31477857 -0.01965661 -0.3068343  -0.3729457  -0.52226233
  0.06435502 -0.13395488  0.10046444 -0.08231637 -0.14886941 -0.15471609
 -0.05663863  0.3124882  -0.24917935 -0.36818725  0.07738639  0.45421836
 -0.10010297 -0.13496916]
[-0.3500983  -0.10477163 -0.46330282  0.2719412  -0.11259822 -0.0530996
  0.11459596 -0.39121547 -0.13822418 -0.01346191  0.26398876 -0.29414195
  0.15548636  0.38884652 -0.07483847  0.07375167 -0.01501851  0.21119384
  0.40982985  0.07614862]
[-0.2636072  -0.00902789  0.01280316  0.40584418 -0.38993338 -0.13897996
  0.1966155   0.20035355  0.28674045  0.13395579 -0.3499695  -0.20218864
 -0.28043872 -0.15454273 -0.3051791  -0.46207678 -0.11016966 -0.24238016
  0.02740208 -0.14682907]
[ 0.27978227  0.15050307 -0.02896259  0.15274525 -0.33357656  0.09266981
 -0.01621212  0.21017231 -0.43215972 -0.22527802 -0.01298708  0.1672124
  0.1686413   0.1281771  -0.23390038 -0.16490418 -0.02421894 -0.29645845
  0.29933023  0.30105484]
[-0.00251748  0.17516768  0.02069651 -0.07235449  0.06066989 -0.01429854
 -0.05449591 -0.2618014  -0.09544182  0.20946018  0.05303923  0.2987614
  0.20474775 -0.2148775   0.13805199 -0.30618748 -0.28624985 -0.09725918
  0.04788871 -0.38469067]
[-0.06958772 -0.12196298  0.37819153  0.10634837 -0.2144693   0.26635563
 -0.28616154  0.09786334 -0.05900152  0.05218928  0.14264262 -0.05277831
  0.27436495 -0.36306062 -0.23691383  0.34906128 -0.04598051  0.32701162
 -0.12661037  0.09036158]
[-0.00341041  0.08739887 -0.08302604 -0.02224763 -0.00231741 -0.04387452
  0.01161448 -0.0096647   0.00217323 -0.0446967   0.01144326 -0.06934882
 -0.06686706 -0.00952229  0.00534992  0.09502205 -0.00036308 -0.05762493
  0.01114746  0.03835874]
layer 1 Activation
tanh
layer 2 Dense
20 40
[ 0.24913774  0.20942812  0.11879196  0.2329725   0.2667473  -0.12079898
 -0.15529042  0.20679697 -0.11717813 -0.2397027  -0.30774558 -0.0157211
 -0.20035988 -0.2282899  -0.08470393  0.27843657  0.24875006 -0.08755106
  0.18637991  0.05078911 -0.064485    0.14324416  0.17281012  0.20542224
 -0.10269065 -0.02873656  0.16147429 -0.04356693 -0.00886953  0.15092666
  0.05655633 -0.21238907  0.22251453 -0.15903461  0.10167988  0.25474402
 -0.21644786  0.30133197  0.04368521 -0.17937873]
[ 0.11595106 -0.05203951 -0.03519977 -0.24791268  0.08423107 -0.19531852
  0.08996332 -0.01172791 -0.02247604  0.09827216 -0.25102124  0.04793866
 -0.039427    0.30385554 -0.14186235 -0.04382687 -0.02841621  0.13985676
 -0.00434743 -0.32539985 -0.14715217  0.12547776 -0.07659341  0.0283206
 -0.034205    0.12568131 -0.10127418 -0.22213094 -0.02572443  0.06219606
 -0.19060493  0.14428875  0.12671663  0.28519958  0.101404    0.325938
  0.23256312 -0.06479169  0.06026214  0.06048144]
[ 0.14015815 -0.10660311  0.11769126  0.01772891  0.02639958  0.03390857
  0.20344426  0.16040614  0.0792162  -0.05816235  0.3149103   0.36776176
 -0.1821296   0.1995323   0.21966442 -0.14584719  0.06499036  0.02852609
  0.25684243 -0.15139922 -0.29370967  0.20139548  0.06303885  0.17703052
  0.32038906  0.2486795  -0.22005917  0.33751115  0.18203862  0.22202821
 -0.16223772 -0.31917015  0.16583133  0.2719308  -0.17842287 -0.14899608
  0.13006586  0.30051228  0.21266988 -0.16707523]
[ 0.03899994 -0.21669039  0.03461294  0.18679911 -0.02614902 -0.03747178
 -0.11644936 -0.16517621  0.25538105  0.13751216 -0.03267197 -0.01835285
 -0.299672    0.17269912  0.0451268   0.1826045  -0.24120994 -0.01992005
  0.21369842 -0.22384515 -0.24775733 -0.15183239 -0.12254779 -0.1101819
  0.29289716  0.1684534   0.12944272  0.02356029  0.1898038   0.20657566
 -0.01303159  0.20823193 -0.24451384  0.05344269 -0.29236656  0.03798974
 -0.12512037 -0.07033802  0.13776925 -0.0564885 ]
[ 0.00339765  0.29767734  0.32420725  0.096315   -0.20062524 -0.2276642
 -0.08923826 -0.25322673 -0.00058244 -0.07990236  0.2415573   0.11804031
  0.17540646  0.09193849  0.1067264  -0.08294385  0.07395019 -0.27028316
 -0.12883924 -0.31773847  0.07341771  0.29302114  0.04624868 -0.23103264
 -0.32469162  0.36268485  0.24336174  0.4375813   0.08004583 -0.19784889
 -0.23868857 -0.05759403  0.00382737 -0.10688643  0.26406842 -0.25902495
  0.2019216  -0.01182809  0.19319212 -0.18402968]
[ 0.1134009   0.05414248  0.02729757 -0.37760833 -0.07962491  0.30576688
  0.16764176 -0.27655974  0.10904844 -0.18722269 -0.01284034 -0.16564511
  0.06239914  0.15161733 -0.11894505 -0.1737661  -0.06015046 -0.09134207
  0.11453298 -0.23059757  0.25138715  0.08517184  0.43620807  0.10480539
  0.15201315  0.06602257  0.37244585 -0.19207148 -0.36943722  0.32887802
  0.0199515  -0.420035   -0.13846262  0.320081   -0.12248569 -0.00965037
  0.17424262 -0.18925777 -0.1289236  -0.2310764 ]
[ 0.17140593  0.20090812  0.05312686 -0.27810335  0.12230778 -0.25834575
 -0.21406955 -0.00497958 -0.27030808 -0.0321875  -0.05665442 -0.00614385
  0.361314    0.06025121 -0.18869269  0.13235813 -0.14450034 -0.09936901
  0.10125785 -0.05912282  0.1596512  -0.13849692 -0.08636092  0.06297477
  0.03548403 -0.23750055 -0.10597955 -0.02448741 -0.10211692 -0.19351353
 -0.22959253  0.07860653 -0.3302803   0.12406699  0.11270276  0.16951153
  0.12773553  0.00743494 -0.39795306 -0.14011575]
[ 0.08935747  0.01930074  0.180558   -0.07494923 -0.2587042   0.06938187
 -0.16249773  0.03476717 -0.11052363 -0.24045663  0.15579627 -0.11546888
 -0.19131589  0.00234494  0.17507516  0.28826872 -0.13713945  0.2770139
  0.12607332  0.17207056 -0.10034762  0.21423455  0.01931177 -0.06763212
  0.16437274  0.02816016 -0.15844989 -0.02156583 -0.02508266  0.18066712
 -0.09569316  0.32225597  0.06000416  0.00274738  0.01262054  0.03771588
  0.24507003 -0.34693542 -0.26369178 -0.04966338]
[-0.29654503 -0.01311338  0.068211    0.01569535  0.3118514   0.04766487
 -0.18101256 -0.09693116  0.18070972  0.2337474  -0.15380648 -0.02102387
  0.29576147 -0.24838336 -0.2894821   0.2644867  -0.22129448 -0.12996207
 -0.1940211  -0.05179795 -0.2344658   0.2874002  -0.19102201  0.09829704
  0.09154223 -0.21649043  0.15598144 -0.04555899 -0.32648727  0.08660991
  0.22583038 -0.16729851 -0.24193177  0.13267435  0.13070561 -0.18757507
 -0.15397768 -0.26891652  0.14754415  0.06822214]
[ 0.31565738  0.23376787 -0.25193834  0.17020491  0.08100984 -0.08243927
  0.30367142 -0.05712503  0.08010773 -0.15446492 -0.26475522 -0.13703385
  0.24548036  0.25369108 -0.07756647 -0.03796749 -0.16280927  0.08536232
  0.11165286 -0.20470724  0.17478059 -0.18923537  0.30690187 -0.02191895
  0.17994273 -0.18500485 -0.03737969  0.13674164 -0.21545488  0.11135023
  0.0348793  -0.2528663   0.24911597  0.10921016  0.2384375   0.20538643
 -0.25478807  0.1379372   0.01783047  0.28424904]
[ 0.02009868 -0.09157409 -0.21654755 -0.2507221  -0.02550555 -0.15504317
  0.26865444  0.12338238  0.11425274 -0.28181022 -0.01889285 -0.21718077
  0.03121109 -0.2161133   0.15129556 -0.03436368 -0.10502178 -0.06447051
  0.20232813  0.14570382  0.15884572  0.06488595 -0.11205833  0.20794524
  0.0441156  -0.08985502 -0.11347816 -0.04885152  0.2810966   0.2654897
 -0.26571757 -0.29174268  0.20303385  0.09999416 -0.29648075 -0.01432448
  0.21498714  0.02538314 -0.11362494 -0.0737099 ]
[ 0.26410967 -0.01107555 -0.03289077 -0.32201678  0.03903924  0.0480817
  0.10527248  0.03647258 -0.04046851  0.05031239 -0.21430372  0.28629965
 -0.22485296 -0.29679182  0.12922524 -0.2556528  -0.2031565   0.3470244
  0.24883579  0.17037077 -0.05104034 -0.34792832  0.18601315  0.24289341
  0.00999624 -0.21890222  0.20942454  0.19146404 -0.21160331  0.09950481
  0.04022572  0.19677563 -0.08990996 -0.11559866 -0.24703233  0.02047045
  0.05520829  0.10524061  0.23619744 -0.14434639]
[ 0.2698922   0.2318976  -0.29904407 -0.14937535 -0.03981244  0.1278975
 -0.02810341 -0.27783686  0.11866593 -0.10524631 -0.17813928  0.21600278
 -0.2372597  -0.09697509  0.13593437 -0.04256862 -0.26786637 -0.16854005
  0.19801791 -0.12570098  0.13359857  0.09649725 -0.1559673   0.01212374
 -0.19477302 -0.03931502  0.03114918  0.20823176  0.08598858 -0.25084376
 -0.3366313  -0.17293702  0.01550806  0.02254678 -0.05336582 -0.33309332
  0.2098274  -0.13232224  0.03082909  0.21759439]
[-0.200001   -0.19003166 -0.11545279 -0.22056243  0.04171039 -0.11048932
  0.32068816 -0.13020578  0.12192799  0.04490338  0.10328365  0.14693514
 -0.15731192  0.14610761  0.05713146  0.30902705  0.00299243  0.03930419
 -0.1672247  -0.24588743 -0.05387306  0.20679651 -0.381644    0.20050204
 -0.03952722  0.23489791 -0.00487407 -0.08456402 -0.13801196 -0.2663537
  0.18877836 -0.0431556   0.1361396  -0.03806222  0.09362075  0.2245114
 -0.23791371 -0.21043792  0.1956374  -0.03289074]
[-0.1893469  -0.16126925 -0.22655806 -0.15355526 -0.2928894  -0.11179801
 -0.1636294   0.15037774 -0.07690404  0.01110452 -0.03146305  0.04499925
  0.08907006  0.07157166  0.09813799  0.28655344 -0.36790764  0.254705
 -0.1337744   0.22861664 -0.22471248 -0.20408455 -0.06247891  0.02441642
  0.25519222  0.31440386 -0.11833265  0.22469883 -0.11613456  0.08659939
  0.0097641  -0.19723505 -0.23045367 -0.10487413 -0.12017175 -0.14030012
 -0.12616923 -0.19087341  0.12882492  0.26322934]
[ 0.08739893 -0.2553267   0.05518635  0.17489877  0.13033895  0.12060025
  0.15297107  0.03333404  0.24566576 -0.10597109 -0.08878317  0.08837525
  0.214312   -0.06942283  0.21397027 -0.09935904  0.18148036  0.14483619
  0.23627563  0.2550176  -0.04989265 -0.33932504  0.39098462 -0.17639573
 -0.31804615  0.21517344  0.1078027   0.0044987   0.05107911  0.04095227
 -0.117369   -0.2694144   0.28093225  0.31620234  0.0677405  -0.10310262
  0.11223573  0.35369623 -0.1613526   0.19217502]
[-0.21735781  0.34595537 -0.09670534  0.19144697 -0.10588015 -0.19578867
 -0.2369246  -0.17171402  0.19168508  0.01058634  0.16629338 -0.16939835
 -0.13414532 -0.2629526  -0.32940534 -0.00274108  0.32843193 -0.16537224
  0.15566519  0.05682895 -0.30602252  0.21039023 -0.10229718 -0.34636685
  0.0172495  -0.3176971   0.09481575 -0.1882007   0.19467363 -0.01013536
 -0.17288958 -0.0668778  -0.00451043  0.18219845  0.10533705  0.26554644
 -0.18183857 -0.2657715   0.16840129  0.08517594]
[ 0.19506584  0.3937827  -0.11613922  0.34307864 -0.04269319  0.12324073
 -0.26544452 -0.03398531 -0.23888122  0.10041156 -0.08597899  0.21918379
 -0.0423807   0.0770956   0.07176678  0.03049201  0.02412013  0.2542811
 -0.04493096 -0.32544148  0.11557037  0.19521809 -0.0143772  -0.32764906
 -0.18414837 -0.25240654 -0.00061966 -0.04638843  0.04099047  0.19195849
 -0.13466766  0.06879981  0.23122248 -0.3308624  -0.16780327  0.3295256
  0.23498537 -0.2323422  -0.26875314  0.22770707]
[ 0.23686792  0.10420903 -0.05056849  0.06112107  0.04087119  0.23435847
  0.20228574  0.23126718 -0.02616727  0.10414544 -0.24816267  0.06269293
  0.1279376  -0.2033252  -0.17679326 -0.290644   -0.00120296  0.01832966
  0.0754906   0.05091319 -0.20379177 -0.04215851 -0.11510997 -0.04646103
 -0.17405808 -0.04231595 -0.00114686 -0.00364573 -0.13302629 -0.07457601
  0.26217133 -0.07717857 -0.14138444  0.12901264 -0.2749904  -0.08389968
 -0.25878945 -0.19713771  0.02819542 -0.12477496]
[ 0.0632509  -0.13237078 -0.04825619 -0.15727852  0.1286645   0.02800836
 -0.34745204  0.01528977  0.23760362 -0.0372935   0.14054    -0.3200021
 -0.06939206 -0.09400661 -0.01371223 -0.1451213   0.28092682  0.02428699
  0.0240173   0.05616219  0.12712403  0.28038263 -0.33074316 -0.23319322
 -0.11483587 -0.26141682  0.20942132  0.09889919  0.3159907  -0.07615688
  0.03888387  0.08826376 -0.01695827  0.10285015  0.11203632 -0.06190573
  0.10699239 -0.26382828  0.02937728  0.16580045]
[ 0.00074419  0.00398484 -0.00749601 -0.02588379  0.0281477   0.0393749
 -0.02514197  0.01670202  0.08788434 -0.00871859  0.006369    0.0270744
 -0.0011361  -0.0424135  -0.00691732  0.00185863  0.06971901  0.04513023
  0.00596206  0.00142341 -0.01646386 -0.01019433 -0.11428057 -0.01675845
 -0.00877325 -0.01005372 -0.01177011 -0.07269356  0.04578677  0.02448424
  0.01698655 -0.04963528 -0.00287289  0.00049589  0.04097107  0.00975609
  0.00058041  0.02503685  0.04399977 -0.00210187]
layer 3 Activation
tanh
layer 4 Dense
40 20
[-0.1079922  -0.3192716  -0.07757238 -0.24281438 -0.12275095  0.14202744
 -0.23193668 -0.13066956 -0.06593672 -0.16826911  0.27347213 -0.2525873
  0.19390923 -0.19649112 -0.133059    0.07682773 -0.16313465 -0.16960411
 -0.00692176 -0.23767792]
[-0.16411884 -0.15539618 -0.13388285  0.0638043  -0.1694265   0.03469237
 -0.13505648  0.17445634 -0.25112835 -0.2327733  -0.32740277  0.14889753
  0.2722003  -0.0474301   0.2928894  -0.02719765 -0.01514623 -0.21876706
  0.17787759  0.28243983]
[-1.8214789e-01  2.7808672e-01 -3.2414004e-01  2.1242338e-01
 -1.2708624e-01 -1.9527045e-01 -2.4655880e-03 -1.3016012e-01
 -5.7554033e-02 -1.7339061e-04  2.4258415e-01  5.3620255e-03
 -1.6077347e-02  8.6438216e-02  2.2916478e-01 -9.0081878e-02
  7.6740213e-02  2.6660961e-01 -3.5774150e-01 -2.0687719e-01]
[ 0.23921534  0.1497003   0.19368272 -0.16980812  0.29673254  0.17076579
 -0.08604185  0.07100745 -0.21371081 -0.11882281  0.08820111 -0.30642933
 -0.13485329 -0.13865317  0.1287854  -0.01040359  0.09424724  0.23181805
  0.28504223 -0.29955116]
[-0.07238849  0.22001784 -0.11821509 -0.12715831  0.02178669  0.05835344
  0.01342096 -0.05708646  0.03820431 -0.04307935  0.21181719  0.19170319
  0.03897697 -0.23621742  0.02141954 -0.31062776 -0.02644904  0.03053157
  0.1103413   0.1614718 ]
[ 0.2361449   0.18631032  0.02707813 -0.0232903  -0.01522318 -0.23054132
  0.21928693  0.30986813  0.18883798  0.02852511 -0.17121299 -0.24043845
 -0.183718    0.12168802 -0.30664    -0.2220423  -0.15100354 -0.1004167
  0.13650234 -0.15013696]
[ 0.12526271 -0.32561627  0.13334547  0.12109698  0.34307134 -0.0703021
  0.05421302 -0.20657748  0.05739875 -0.26237375  0.06632426  0.12543635
 -0.00690057 -0.09735399 -0.27716506  0.10990801 -0.12042686  0.16458291
 -0.1945072  -0.16361159]
[-0.2831708  -0.22249316  0.21075307 -0.17543282 -0.29796547 -0.12751445
 -0.0420941   0.01833937  0.02120474  0.29709184 -0.08337598  0.15693021
  0.18312122 -0.23809092  0.2698671   0.2108657   0.27788192 -0.03804297
  0.24027127  0.20224468]
[-0.04533128  0.19297604  0.2937758  -0.18045655  0.20553915 -0.07137992
 -0.12874497  0.18728699 -0.02417762  0.26393119  0.08151862 -0.27185306
 -0.19388168 -0.08986216  0.03135948 -0.31955588 -0.20938866  0.18829088
 -0.2877248  -0.17057543]
[ 0.14110763 -0.09935289  0.14862974 -0.31433657 -0.20081736 -0.21774723
 -0.15442146  0.17133774 -0.21597286  0.13402443 -0.2505422  -0.18127745
 -0.12533724 -0.0646892   0.14354952  0.08506007  0.11895303 -0.1817072
 -0.01302977  0.09035771]
[-0.3355365   0.23641886  0.17172132  0.09491505 -0.07608947  0.23360479
  0.276209   -0.14543127  0.16568999 -0.18047604  0.11260725 -0.11739781
 -0.2509532  -0.18250136  0.0491105   0.21764013 -0.19898288  0.14409728
  0.17541222 -0.19464558]
[ 0.08504163  0.17689054 -0.20283362  0.26693472  0.12273548  0.12667674
  0.04646763 -0.21105693 -0.04546225 -0.29699078 -0.02884277  0.07462472
 -0.26538193 -0.23939662 -0.18565029 -0.05402535  0.01584064  0.2709744
  0.18701582 -0.02858532]
[ 0.02155513  0.18718514 -0.03259966  0.14450295 -0.19942215 -0.08132424
  0.03460224 -0.10766318  0.21161014  0.07786669  0.11295724  0.16386805
  0.13815123  0.28727025 -0.03990339  0.29909304  0.06772685  0.3220365
 -0.15149659  0.2179563 ]
[-0.21263042  0.00329832 -0.2693199  -0.16116767 -0.36976025  0.1455329
  0.3040476  -0.27214092 -0.27198392  0.21983048  0.21054022 -0.2507916
 -0.19036862 -0.10168611 -0.23113638 -0.02424302  0.1902078  -0.02725667
 -0.09463202 -0.27409995]
[-0.16358829 -0.03928383  0.25634003  0.24379247 -0.00551865  0.35717526
 -0.08222881  0.23870076  0.20190616  0.08648672 -0.0892731  -0.03107968
  0.31728727 -0.22045435 -0.19994171 -0.07486805 -0.25058895  0.0108751
  0.07247788  0.09162728]
[ 0.19419439  0.23834193 -0.32730642  0.01797707 -0.08121043 -0.05118324
  0.10263232  0.11825418 -0.01801569  0.25306562  0.13032225  0.06739876
  0.21235158 -0.019447   -0.14009902  0.17181766  0.08825105  0.16634399
  0.08226911  0.1378622 ]
[-0.28839964  0.26906535  0.05079005  0.03243261 -0.0649817  -0.2990298
  0.02038616 -0.12461042 -0.21415415  0.02973819 -0.12845977 -0.18277055
 -0.10257036 -0.02063244  0.21611276 -0.267472    0.16119665  0.01986523
  0.07937837  0.3347783 ]
[-0.18648644 -0.05820796  0.23186746  0.15188518 -0.11265524 -0.3106584
  0.14560096  0.05273804 -0.19061731  0.25151703 -0.12915573 -0.17216635
  0.17667063 -0.08020352  0.14809918 -0.05464986  0.19632271 -0.25119254
  0.09340481  0.23983781]
[-0.328529    0.22418055 -0.11271554 -0.23594128 -0.00494926 -0.18159701
 -0.09352386 -0.09279577  0.19587475 -0.14277868  0.09823967  0.03385512
 -0.06494042  0.05770762 -0.15363985  0.07492915 -0.11256336 -0.16728497
  0.09404144  0.02402096]
[-0.09445907  0.12329435  0.12196636  0.3771425   0.3563595  -0.22639833
 -0.22572485 -0.1406169   0.03082154  0.01300761  0.06578096  0.13198252
 -0.08387633  0.24189465  0.23918767  0.24708374  0.31277877 -0.0575112
 -0.07771288 -0.1751298 ]
[ 0.07241733 -0.02177433 -0.10414879 -0.28623506 -0.05348209 -0.00226093
  0.08272246  0.21220724  0.16931872 -0.08157265 -0.26248795 -0.2971135
 -0.27926698  0.18994871  0.21139556 -0.07879993 -0.29858097 -0.04741959
  0.30779412 -0.00112788]
[-0.22754632 -0.19256893 -0.17502135 -0.28552476 -0.03207577 -0.11956768
 -0.20134275  0.18143028 -0.35519546  0.24436204  0.04479185  0.0386662
  0.05088139  0.1538539   0.212686    0.12817615  0.22506839 -0.0525395
 -0.13971253 -0.1143564 ]
[-0.26108938 -0.16395065  0.01069663 -0.17300338  0.11758351  0.26484826
  0.30877107 -0.14019701 -0.16540991 -0.28249592 -0.18864924 -0.33879068
 -0.13833271  0.09346322 -0.04122672 -0.14324789 -0.3358538  -0.11004289
  0.24130772 -0.14710946]
[-0.22442354 -0.19869868  0.14592367 -0.18919985 -0.22342424  0.02193628
 -0.09954593 -0.35090694 -0.1325787   0.2002837   0.16496961  0.24080545
  0.30385733  0.20834006  0.04536268  0.11661305  0.14057425 -0.00349341
 -0.11174928  0.04637792]
[ 0.16648182 -0.11555001 -0.14778958  0.27403182 -0.32044786 -0.02495709
  0.05785666  0.13080034 -0.07185938  0.16425335  0.28633785 -0.21963236
  0.24915852 -0.14223917  0.0514809   0.27861345 -0.11273061  0.09899215
 -0.29329333 -0.00829331]
[ 0.2651246  -0.07477653 -0.16141346  0.04002371 -0.19068503  0.13718325
 -0.18780719  0.04314676  0.29166162 -0.2670485  -0.0907663  -0.1658947
  0.02003092  0.28419873 -0.10137699 -0.03328086 -0.01937964  0.20637417
  0.26185915 -0.10177349]
[ 0.05253328  0.13404962  0.24396609  0.04313817 -0.13291784  0.24074996
 -0.24710487 -0.17631309  0.06051669  0.0971533  -0.30377123 -0.00962217
 -0.08078292  0.26810852 -0.24272925 -0.24375454  0.17300984  0.08950567
 -0.22687478 -0.05001257]
[-0.06117618 -0.29773393  0.13613784  0.11745305  0.24322243  0.0664286
  0.20951903 -0.22749475 -0.06452395  0.03386583  0.19724534  0.25522113
  0.3150495   0.00459333 -0.2730507   0.04298908 -0.29068372 -0.08140147
 -0.31262565 -0.02381781]
[-0.21297269  0.26007983 -0.1334578  -0.19087075 -0.01011355 -0.14264715
  0.13763496  0.25760734  0.18631291 -0.21281232 -0.29859483 -0.14724647
  0.17756857 -0.03262287  0.3426465  -0.23802404 -0.03916789  0.2642264
 -0.16156204  0.05543029]
[-0.1738026   0.15490392 -0.20630088  0.18812414  0.17984122  0.27165663
  0.22425063 -0.01804187  0.15128203 -0.15168059  0.14386351 -0.03355959
 -0.07542654  0.15985745  0.2824889  -0.32993352 -0.01187423 -0.03948526
 -0.04656269 -0.27623177]
[ 0.12492784 -0.22694375 -0.04497598  0.00896832  0.07254806 -0.12137761
 -0.2721906   0.00921551 -0.20116864  0.14987907 -0.07398026  0.32252547
 -0.00089862 -0.19998136  0.04386376  0.16077483  0.03485561  0.23922747
  0.18859568 -0.07970078]
[ 0.21707012  0.0833106  -0.16640839 -0.15035173  0.24704766 -0.07415756
 -0.17711088  0.31292522  0.08407776  0.09102596 -0.03222296 -0.30442485
 -0.22126478 -0.17880736  0.28982055 -0.08299318 -0.07152908  0.28739616
 -0.08350093 -0.18247001]
[ 0.11311704  0.1517799  -0.2983106  -0.22613168  0.21558085  0.0324829
  0.31968316 -0.08129653  0.10602019 -0.14052896 -0.11294619  0.18779069
 -0.26140383  0.05120007  0.02918576  0.2030369  -0.15961283 -0.12734233
  0.25396305 -0.24707383]
[ 0.24322426 -0.00485157  0.06502241 -0.01861636  0.24957657  0.20285286
 -0.25637543 -0.2169313  -0.27490607 -0.2532027   0.03098118 -0.14675504
  0.13894558  0.1567198   0.09751946 -0.19609976  0.31614715  0.11035334
  0.09719762 -0.00307541]
[-0.05575075  0.2993309   0.02628949  0.1856351  -0.25159705 -0.15204522
 -0.10452519  0.26950502 -0.3127494   0.03165623  0.01934223  0.05636202
  0.31199104 -0.25193468 -0.25189966 -0.21820736  0.23901635 -0.3115984
  0.22381033  0.2170255 ]
[-0.26304984  0.02618775 -0.3651917   0.07195393  0.1007007   0.1920649
  0.29443341  0.1728851   0.11481974 -0.16064103  0.17303365  0.24363062
  0.13008425 -0.27065048  0.09853417 -0.05544394  0.10453594 -0.03936663
  0.16043527  0.15484937]
[ 0.13262951 -0.16269049 -0.1784321  -0.14335857  0.07105859  0.22149824
 -0.3378365  -0.23502049 -0.21372211 -0.24903402  0.13991344 -0.17648052
  0.16044436 -0.2053624  -0.04817594  0.12975323  0.13214265 -0.24899784
  0.11900596  0.19638179]
[-0.30399966  0.06566764  0.00869262  0.06276423 -0.2513132  -0.14497876
 -0.2987871  -0.25094274  0.30703047  0.089921   -0.2819146  -0.2471387
 -0.00413031  0.22450785  0.17455074 -0.2501536   0.15646584 -0.17173003
  0.21519874 -0.11448624]
[-0.06841941 -0.0806049  -0.2321538   0.2094191   0.29488406 -0.01795857
  0.2757163  -0.33001643  0.2678912   0.28324744  0.09688783 -0.2618831
  0.2041334  -0.15576942  0.12049955 -0.08930055  0.2831659  -0.02338219
 -0.27487445  0.32351676]
[-0.00242504 -0.09474815  0.03320745 -0.19582666  0.09188785 -0.19428249
 -0.0567033   0.00840452  0.14764847  0.15058504 -0.15719068 -0.19591181
 -0.09669577  0.08461612  0.32901797 -0.21022682  0.05931438  0.1707132
  0.21790309  0.23897094]
[-0.00690813  0.01768007 -0.02442769 -0.00673673 -0.00775759 -0.00583628
  0.01053119  0.00480851 -0.00952833 -0.00098156 -0.0036369  -0.00053343
  0.00238035 -0.01179204  0.0153719  -0.00261393 -0.00238373 -0.00640766
  0.00208212  0.01050962]
layer 5 Activation
tanh
layer 6 Dense
20 1
[0.23575951]
[0.37709835]
[0.01355348]
[-0.06688682]
[-0.01148836]
[-0.00849198]
[-0.00510162]
[-0.27207872]
[-0.03073139]
[-0.06810431]
[-0.16762377]
[-0.08912215]
[0.19145922]
[-0.25284547]
[0.1797732]
[0.19182022]
[-0.0750989]
[-0.3598555]
[-0.17902721]
[-0.3014446]
[0.00754857]
