layers 7
layer 0 Dense
20 20
[ 0.14576045  0.26870522  0.09614871 -0.01551144 -0.34893414 -0.12060472
 -0.24466251 -0.19298542 -0.10409069  0.2852718   0.17959403  0.38951465
 -0.3966178   0.46067688  0.1531633   0.20116575  0.37486047 -0.2734489
  0.22083436 -0.323351  ]
[ 0.24529739  0.3677457   0.32759392  0.09694646 -0.08632211 -0.3415977
  0.04977475  0.2373593  -0.14968081 -0.03889802  0.38829836  0.28338957
 -0.0286705   0.48456898  0.0436606   0.21998255  0.28891864 -0.2323344
 -0.03764842  0.192888  ]
[-0.23288116  0.2093608   0.3976366   0.24688736 -0.2013744   0.35379204
 -0.34328684  0.15343744  0.32205525  0.27665117  0.03798714  0.38275588
  0.0026855   0.5305102  -0.24475694 -0.5000038  -0.33259386 -0.19389443
 -0.2051913  -0.35759205]
[ 0.4380688  -0.34092575  0.3725405  -0.07480799 -0.11825681  0.1913319
 -0.11948911  0.18518807  0.29381165  0.17524262 -0.19203582 -0.07397046
 -0.3264632   0.2525508  -0.1258457   0.3330211  -0.13320537  0.29735965
  0.19775707 -0.12867948]
[ 0.15374084  0.29492414 -0.14365828 -0.03806084 -0.21325243 -0.23937707
  0.55296236  0.19070943 -0.45642003  0.19152509  0.00260183 -0.04482462
  0.18842375 -0.0221316   0.25772512  0.5070548   0.47211984 -0.2640119
 -0.02582127  0.02847794]
[-0.02904393  0.18352817 -0.22856417 -0.15905383  0.06284978 -0.14117563
 -0.40587977  0.24461138  0.41620484  0.23247468  0.21321203 -0.10547987
 -0.2124905   0.50523764 -0.43904203 -0.19574402 -0.3257226   0.2833607
 -0.00681456  0.11189763]
[-0.06107948 -0.31304544 -0.3062363  -0.12863941  0.31223294 -0.3071101
  0.05005975  0.3251736   0.13129917 -0.17354944  0.17300889  0.30328703
  0.01260893  0.18089436 -0.33306593  0.01161585  0.2452493   0.30390292
 -0.22938542 -0.10950819]
[-0.42448744  0.32756177 -0.08548343  0.22232617 -0.25265136 -0.08004279
 -0.2521082   0.18402341 -0.13899326 -0.00044206  0.18769358 -0.09846201
 -0.097178   -0.16017434  0.14665495  0.27683043  0.05222969 -0.04947475
  0.18465829 -0.16194089]
[ 0.09713154  0.46468452  0.23205562  0.21972883 -0.14582127  0.01946096
 -0.29430065 -0.38040775  0.13988549  0.44794464  0.21828343 -0.01630214
  0.3277346  -0.03181412  0.04690499  0.1693996   0.06784553  0.21546704
 -0.35005528  0.05548109]
[-0.11881205 -0.60036135  0.01634527  0.43864912  0.22897786 -0.29843748
  0.3199738   0.24604587  0.07735458 -0.21994545 -0.3182507   0.32716072
 -0.4109214  -0.2468319   0.18840495 -0.4648956   0.09548534 -0.15428138
  0.39587057  0.42988795]
[ 0.01157785 -0.29192787 -0.11864782 -0.10648135 -0.17176484  0.3789945
 -0.04783347 -0.02230221 -0.03335005  0.15357238 -0.12612088  0.4390598
  0.08966632 -0.3452444   0.38191336 -0.4515949  -0.5995203   0.3921216
 -0.3216542  -0.14493142]
[-0.8622753  -0.26674137 -0.45449913 -0.3260095  -0.22657995 -0.37250653
  0.8472009   0.29241633 -0.23116943 -0.33903098 -0.09631386  0.7320349
 -0.05079619 -0.46082228 -0.08323243  0.56260073  0.1679959   0.27195743
  0.5434068  -0.41649783]
[-0.16302511  0.10708258 -0.06589069  0.11055834  0.02211213  0.44977623
  0.3604445  -0.44712     0.04833254  0.17168453 -0.08834165 -0.46963543
  0.302897    0.08593487  0.39090648  0.22525214  0.57141066  0.01594119
  0.02016043 -0.02601665]
[-0.0481517   0.42278293 -0.20381878  0.55669916 -0.58544177 -0.10953479
  0.4204216   0.37348133 -0.02101491  0.22677691 -0.31257743  0.08173865
 -0.12060327 -0.3034621  -0.06302007  0.18441784  0.03813954 -0.06236563
  0.2918866   0.37640467]
[ 1.70364395e-01  4.24085200e-01  2.85042096e-02 -1.18098604e-02
  1.36523992e-01  3.40199143e-01  8.67431983e-02  1.05660874e-04
  5.46638742e-02 -2.00335637e-01 -6.32636696e-02  2.64731526e-01
  4.17261422e-01 -2.75396168e-01  3.33784729e-01 -1.38617963e-01
 -4.10007566e-01  3.73220176e-01 -2.21308410e-01 -1.17594607e-01]
[-0.36650896  0.02951002 -0.1871781  -0.5349915  -0.16959193 -0.76521134
  0.25266522  0.56124204 -0.5388783  -0.6149545  -0.32796934  0.7867923
  0.17705475 -0.6838621  -0.11711517  0.44599158 -0.29790097  0.05226996
  0.9149847   0.45582074]
[ 0.37906    -0.24390818 -0.10905772 -0.3006766  -0.6782218   0.21472315
  0.5724366   0.1073771   0.06794082  0.12883618 -0.48201972 -0.07689402
 -0.05539586  0.11649258 -0.06347501  0.4441076  -0.25752428 -0.6210928
  0.2923649  -0.02870026]
[-0.05541608  0.3102108   0.06921645 -1.185579    0.271728    0.23119617
 -0.3218697  -1.0095612   0.54316133 -0.6455733  -0.01763515 -1.3830124
 -0.05419183 -0.30862096 -0.34875575  1.1800472  -0.08642428  0.6414779
 -0.46583062 -0.8460966 ]
[-0.00524189  0.01225451  0.39592487 -0.6309339   0.36924264 -1.1063156
 -0.41548175  0.65390986 -1.0271572   0.21080856 -0.7519652  -0.921777
 -0.9870443   0.3070715  -1.2758338   0.26864317  1.1199241  -0.67561615
  0.00531256 -0.03134377]
[ 0.49549258  0.11002536  0.15139115  0.40798616  0.41980404  0.5768618
 -1.1678864  -0.5884115   0.28731477  0.62034345 -0.15545447 -0.35820693
  0.23726292  0.53769106  0.48485833 -0.6595669   0.09983636 -0.0788693
 -0.24491012  0.12831002]
[ 0.06111794 -0.0451296   0.06018732 -0.00250071  0.09665453 -0.04745482
 -0.01235004  0.03165632  0.26478893  0.00643881  0.11319028  0.0394882
 -0.11054334  0.21065357 -0.10870931 -0.13655838 -0.13891889  0.05865
  0.03149198  0.03287426]
layer 1 Activation
tanh
layer 2 Dense
20 40
[-0.303053   -0.15918884 -0.2674179   0.12306657  0.23370491 -0.08770553
 -0.33910766  0.65430003  0.10505527 -0.20032163  0.17047794 -0.15281674
  0.4328025   0.13010608 -0.2584591   0.34051535 -0.55131346 -0.22834374
  0.04231965 -0.20162116 -0.64308935 -0.10255885  0.0064747   0.06162814
  0.31772146 -0.11994661  0.3986307   0.35519427 -0.30537894  0.05102744
 -0.35093054 -0.23191142  0.455946   -0.12103728  0.34174246 -0.08970039
 -0.12320477  0.20704828  0.14497484  0.36786127]
[-0.19252546  0.29005334  0.11567362 -0.08444428  0.2490557   0.3177776
 -0.10640576 -0.25483868  0.00157786  0.28653133  0.22840881  0.07635212
 -0.28044614 -0.03486256  0.07180626  0.32713166 -0.32036248  0.06727633
  0.02760231 -0.02299499  0.22715524 -0.27992597 -0.09988587 -0.2430425
  0.08943313  0.08959856 -0.09455594 -0.14692016 -0.06878214 -0.08172319
 -0.13167974  0.0069432  -0.33163726  0.16347936  0.2308677  -0.04801172
 -0.04433234 -0.09310449 -0.30949062 -0.23957022]
[-0.17647392 -0.31238323  0.03963121 -0.26543424  0.01545287  0.09479173
 -0.11018483  0.5006343  -0.24054182 -0.22215481 -0.31467026  0.15105355
  0.01374942  0.04397886 -0.07995262 -0.23317456  0.03063344  0.2718549
 -0.0797044  -0.10041072 -0.38817057  0.03190766  0.0096216  -0.04902789
 -0.1566901  -0.21229401 -0.17965001  0.11109397  0.05936445 -0.06184528
 -0.16943076 -0.07846816  0.13301061  0.103156   -0.2483779  -0.29150525
  0.09851909  0.27340108 -0.01016204 -0.08657826]
[ 0.14145601 -0.46463895 -0.05113266 -0.03968175 -0.42429653 -0.1216268
  0.11359365  0.43413165  0.4522209   0.19838561 -0.17594627  0.1951535
 -0.12442645 -0.11616537  0.17841044  0.8763627   0.09541254 -0.28190494
 -0.27248663 -0.6270517  -0.5126906   0.23345456  0.50744855  0.18145207
  0.587566    0.65167624  0.1388255   0.47761458 -0.36034438 -0.7021428
 -0.13782872 -0.41796368 -0.4289382   0.5070116   0.43478605 -0.32237276
 -0.3258901  -0.24255906  0.38367     0.09312969]
[-0.21468979 -0.12298963 -0.17910919 -0.31005502 -0.15007706  0.28674755
 -0.02745868 -0.43010092  0.25634247  0.27882785 -0.29892328  0.03918437
 -0.33612877 -0.02637588  0.06239062  0.15221924 -0.14282446 -0.2357013
  0.02437225  0.14982507 -0.02448971 -0.0444713   0.23805416 -0.03837694
  0.22972156  0.0828947   0.1243706  -0.01656074  0.24326661  0.11646604
  0.2727303   0.19022647  0.05392451  0.13231157 -0.25714037  0.04999437
  0.00502171 -0.12657648 -0.34626198 -0.10332027]
[ 2.2624734e-01  2.5599861e-01 -3.3426851e-01  2.3014814e-01
  6.0321718e-01  3.7941042e-01 -5.3103387e-01  3.8169029e-01
 -1.0220154e-01 -3.3879125e-01 -2.8339136e-01 -4.1588610e-01
  6.6910952e-02 -3.9087197e-01 -4.1826808e-01  5.2545595e-01
 -4.9074808e-01 -3.3410165e-01  4.3580917e-01 -1.0003680e+00
  1.5391481e-01 -4.9517325e-01 -4.0583309e-02 -4.4283744e-02
  7.1436667e-01  2.5701338e-01 -1.8801937e-01 -5.8496628e-02
 -4.8597810e-01 -1.8446451e-01  1.1549487e-01  6.1304361e-02
 -2.5965819e-01 -4.0274251e-01 -2.5914434e-01 -1.3174586e-01
  3.4659909e-04  6.6606736e-01 -1.7416978e-01  5.8017910e-01]
[ 0.3977081  -0.3182498   0.3688182   0.6008767  -0.34650964 -0.23217845
  0.5256557   0.08550293 -0.28039548 -0.20989382  0.22477706  0.02116155
  0.10274544  0.11049058  0.04014486 -0.08152809  0.24339502  0.03883607
 -0.06306729  0.1368823   0.5112574   0.38345855 -0.576177   -0.14880693
 -0.54141295 -0.17002714 -0.19344002 -0.15756318  0.3562194   0.16545671
  0.07746237 -0.11175792  0.06230478  0.08865686 -0.18155731  0.11385479
 -0.0674561   0.580355   -0.01817113 -0.37460807]
[ 0.55916256 -0.39216727  0.3268418   0.16074395 -0.78414553 -0.37536174
  0.5638101   0.16710955  0.45868003  0.1337855   0.4273795   0.3937051
  0.19312209 -0.03476773  0.3848212   0.13045649  0.68542683  0.20229185
 -0.55750036  0.42228648 -0.04103761  0.18435569  0.01251271  0.21341744
  0.00800043 -0.09564468  0.33446774  0.23822641  0.36093584 -0.37903762
  0.36168316 -0.35066447 -0.3290404   0.14851668  0.00881534  0.2316803
  0.35575652  0.16814333  0.09874059 -0.16796362]
[-0.05846577 -0.07402199 -0.27703062  0.3396871   0.13768317  0.226671
 -0.5028213   0.11804835 -0.38094503 -0.3034464  -0.40323135 -0.27294403
  0.54746014 -0.2490633  -0.18290104  0.3088314  -0.2564111  -0.08841342
  0.11399364 -0.08260578 -0.39020246 -0.02319664  0.05769245  0.1193274
  0.39045972  0.02262774 -0.06096071 -0.23718634  0.02674845  0.37129554
 -0.27149642  0.28914955  0.08168802  0.1284284  -0.42605585  0.10882669
  0.16324453  0.5700938  -0.2420887   0.10190797]
[ 0.0723225   0.00356959 -0.2874934  -0.27549523  0.08588035 -0.00082094
 -0.03437025  0.07047509  0.31697038  0.01038075  0.11011446  0.12623513
 -0.07964949  0.4111659   0.09153358  0.2825718  -0.16751985  0.00708275
  0.10378401  0.10342456 -0.39909092  0.19995433  0.1559405  -0.06314359
  0.35181066  0.05036778  0.05651266 -0.21225633 -0.11277264  0.08378049
 -0.00910439  0.13607788 -0.15537663  0.05066764  0.2630949  -0.08146919
  0.1418929  -0.27407068  0.13329145  0.11485485]
[ 0.18202873  0.06476161 -0.18878675  0.09078164  0.2160929  -0.17352945
 -0.24767315  0.201775    0.06166622  0.10493836 -0.37624317  0.1288663
  0.27594885 -0.02609199  0.22939758 -0.10947083 -0.33940393 -0.16427882
 -0.02874683  0.22573197  0.30745292 -0.39774388 -0.37570482 -0.001593
  0.09666993 -0.17754951 -0.0006636   0.07291088 -0.21694352  0.21653956
  0.17950803 -0.1508071  -0.27671084  0.0370844  -0.11307362 -0.06924946
 -0.19532748  0.13805932  0.22973275 -0.00688061]
[ 0.99507785 -0.14563604  0.09698106  0.78229564 -0.5653075  -0.25388008
  0.6555009   0.44481537  0.03536382  0.35538462  0.24438313  0.18025169
  0.14339802 -0.1247555   0.3665085   0.36194238  0.07379455  0.3004749
 -0.51682776  0.29558852 -0.03819399 -0.12449187 -0.39696434 -0.11703425
  0.12609968 -0.01533751 -0.32049826 -0.07883687  0.14263445 -0.37559906
  0.56227016  0.09711877 -0.2846573   0.16511282 -0.4648586   0.05890374
  0.3185809   0.54869795 -0.39950338  0.08770255]
[ 0.06348874  0.18242462 -0.21422891  0.21382461  0.2824334   0.24575883
 -0.12481365 -0.09248014 -0.22518271  0.1622576   0.11980888  0.18026358
 -0.53634816  0.24175553 -0.10599043 -0.12909111  0.12524351 -0.23458281
 -0.26886466 -0.31299993 -0.05939031 -0.34141788 -0.5482579   0.06343533
  0.01703736  0.09215749  0.03156178  0.01469686  0.20310958 -0.24261795
 -0.09511273  0.20478861 -0.23904575  0.18736115  0.05702081  0.28973857
  0.29610243  0.09298328 -0.11072771  0.17823015]
[-0.6243506  -0.42549804  0.08252026 -0.3755701   0.11030062 -0.47543368
 -0.30466062  0.61716837  0.3358194   0.04830188 -0.22262089  0.07884414
  0.40650308  0.15819438 -0.19030936 -0.34341565 -0.46697873  0.5971806
 -0.14125663  0.18941496 -0.770981   -0.12106137  0.80327666  0.18954547
  0.29354095 -0.32872036 -0.18862292  0.06375325 -0.0970723   0.01243566
  0.08805531  0.09547984  0.29332644 -0.5589631   0.452444   -0.299385
 -0.35830858 -0.28521183  0.06389185 -0.3393627 ]
[-0.15708785 -0.06711883 -0.41632462  0.39349952  0.35623923  0.21171354
 -0.1291112   0.20939466 -0.1154848  -0.1034722  -0.3593062   0.25973925
 -0.08701409 -0.36338788 -0.11870964  0.5119267  -0.14236636 -0.41807547
  0.23506981 -0.5559186  -0.3235906  -0.22598714  0.08600456  0.14047045
  0.3310907   0.25966358  0.24455602  0.28732944 -0.05292742 -0.2579494
 -0.3032318   0.35183552 -0.02329297  0.17007102 -0.29832986  0.1604325
  0.13189685  0.01323012  0.22982094  0.3036723 ]
[-0.18305986  0.15715489  0.08814294 -0.29120702  0.1145431   0.02502135
 -0.19614972  0.3270295  -0.5258488   0.00377905  0.09424634 -0.15861514
 -0.20743445 -0.1841556   0.02984509 -0.63237125  0.20841768 -0.16812001
  0.17630585  0.3252353   0.592032    0.24275054  0.08726556  0.1767948
 -0.4546605  -0.1458285   0.03072859 -0.13431743  0.04975969  0.52870774
 -0.02143562  0.3651163   0.5031045  -0.24726255 -0.07802483  0.22998562
  0.03699475  0.04675763 -0.13414429 -0.46384978]
[-0.41202453  0.28986764 -0.04240443 -0.74081004 -0.38873252 -0.4429056
  0.307168   -0.20459472  0.1373495  -0.31476125 -0.26980287  0.02332239
 -0.09268108  0.36047146  0.07783415  0.00354927 -0.14217696  0.1504218
 -0.01770066  0.5507059  -0.3218836   0.24176583  0.60537386 -0.02652858
 -0.4672577  -0.19303255  0.07440463  0.00181191  0.42611784  0.03433257
 -0.3114077   0.04081244 -0.03084151 -0.0942673   0.95536506 -0.31956825
  0.15381181 -0.9077952  -0.05657506 -0.06299699]
[-0.356836   -0.10207905 -0.02790862 -0.10823052  0.11246854  0.36057076
  0.08636591 -0.09537823 -0.5216081   0.03409303 -0.01251454 -0.14213559
  0.26233697 -0.00210515 -0.18834867 -0.25791654 -0.5345712  -0.22773573
  0.1907524  -0.3199358   0.09783305 -0.30356812 -0.32310048 -0.36935323
  0.19098571  0.2366397   0.09769484 -0.3269714  -0.25802302 -0.19994864
 -0.43342558  0.09327259  0.04702964 -0.21114478 -0.13462164  0.01446961
 -0.04965314  0.49224466  0.19993685 -0.17242189]
[ 0.40636855 -0.08022916 -0.05204915  0.00182385 -0.05572831  0.00645002
  0.22934039  0.25482652  0.24768849  0.08776955  0.29280588  0.40218183
  0.23742026  0.01834671  0.16795516  0.08002803  0.06101887  0.25822994
 -0.19923976  0.26653913 -0.02122459  0.15049787 -0.13156779  0.06897394
  0.04593452  0.17739908  0.30990943 -0.04448711  0.09817294 -0.22596067
  0.32173946 -0.2251157  -0.07851269  0.20154093 -0.10220572  0.12001341
 -0.1169808  -0.26779282 -0.13665527 -0.13985151]
[ 0.0361774  -0.29891074  0.2699673   0.03323671 -0.05839449  0.25260574
  0.02528379  0.22889486  0.30258954  0.0935656   0.10844165  0.1724029
 -0.36772916  0.30503488  0.05063426 -0.057583    0.10279372  0.09728518
 -0.10632299 -0.02597376 -0.13746516  0.24435724 -0.24129872 -0.12808248
 -0.09723072  0.04679606  0.03301839  0.50742525 -0.11636986 -0.34403542
  0.2983091  -0.22488394  0.0045552   0.25984177  0.42244846  0.18258229
 -0.06366219  0.05415421 -0.1710195   0.22969627]
[-0.16147251 -0.00333875 -0.18171953 -0.17167424 -0.02722602  0.04859563
 -0.160287    0.33606175  0.09449808 -0.25836223 -0.08365287  0.02959153
  0.48250753 -0.00794    -0.09267042  0.09817626 -0.17902751 -0.00584963
  0.01930677  0.12968463 -0.23862518  0.0935412   0.19463788  0.08178462
  0.27070615 -0.08215538  0.0364111   0.15547997 -0.13165271  0.07970326
 -0.14800616 -0.01503245  0.16548052 -0.14108428  0.18126675 -0.25259116
 -0.13662454  0.00905982  0.1438987   0.00437713]
layer 3 Activation
tanh
layer 4 Dense
40 20
[ 0.24886926 -0.3752141  -0.13154331 -0.4340038   0.11753333  0.3598354
  0.11305507 -0.07806984 -0.25190526 -0.07777062  0.16035436  0.03676017
  0.42126873 -0.0491911   0.18670614  0.13553686  0.2471049  -0.25347832
  0.09415419  0.42273867]
[-0.08944395 -0.14080393  0.19570394  0.1817962   0.26754823 -0.00830833
 -0.30947447 -0.3828734   0.08469532 -0.06858742 -0.2266962   0.20456366
  0.106155    0.328741    0.31643584 -0.2701634   0.17565113 -0.11065312
 -0.37735277 -0.00700637]
[ 0.18612602  0.39899093 -0.124343   -0.21603422 -0.04013636 -0.3923914
 -0.1608788  -0.20512874 -0.06449831  0.06727516  0.07377873  0.0461785
  0.21901245  0.20336731 -0.00946482  0.1346078   0.06036417 -0.20857535
  0.17181972  0.28496993]
[ 0.35257453 -0.28045064  0.09777446  0.03717562 -0.05365375  0.12228567
  0.01608737  0.01445318  0.04006314 -0.1753488   0.15522704 -0.30297065
  0.09417861  0.36799192 -0.14813346  0.07713072 -0.121395   -0.05277296
  0.4958509   0.27898607]
[-0.15502779 -0.23664744  0.11967721  0.27434027 -0.02195163  0.2621212
  0.16457738  0.16192955  0.0921351  -0.03043007  0.41150957  0.4870681
 -0.13304223  0.03382154  0.15415645 -0.23040035 -0.26829383  0.4477377
 -0.3358025   0.03786363]
[-0.37642473 -0.2553279   0.03853523 -0.29965025  0.24795042  0.24194804
  0.0036169   0.24664137  0.2752338   0.1653757   0.00658961  0.30316204
  0.18176931  0.08261804 -0.04092733  0.06241333  0.06414872  0.3460524
 -0.11219014 -0.22859977]
[ 0.32325092 -0.16496962  0.10018358 -0.22959664 -0.21735075 -0.14483519
  0.28654945  0.1296765   0.15753312 -0.32532507 -0.3226698  -0.45932463
  0.2436041  -0.07323038 -0.20888363 -0.24770452  0.2825468  -0.21236807
  0.24718475  0.30335647]
[ 0.23270033 -0.19309257 -0.08137605 -0.40123928  0.2657683  -0.04843175
  0.412112   -0.18947735  0.07008242  0.39031178 -0.18253872 -0.3203972
 -0.44552186 -0.2652589   0.20709074 -0.2995501   0.22872129 -0.22210032
  0.2819437  -0.13885663]
[-0.13264084  0.13460673 -0.09444232 -0.13979588  0.25286773  0.09248658
 -0.02633679  0.08649704 -0.38564765 -0.21206193 -0.14971845 -0.35429364
 -0.3274204  -0.24185649 -0.07256707 -0.17981003  0.2547094  -0.16776875
  0.03889579  0.21917662]
[ 0.02698804  0.17922805  0.27770337 -0.21730365 -0.11076225 -0.0826469
  0.04746234 -0.06270476  0.0025533  -0.20853572  0.08822321  0.11947456
  0.3463169   0.0596117   0.12511665 -0.09097099 -0.2599631  -0.04551745
  0.25379574  0.15078266]
[ 0.43686023 -0.21457677  0.12268278  0.12226307  0.10261185 -0.31181806
 -0.09925676 -0.1634617  -0.3131261  -0.02252036 -0.09042715 -0.05882193
 -0.15117638  0.23450184  0.3487867   0.06890367  0.44513682 -0.11095615
  0.17529741  0.21066552]
[ 0.081835   -0.21242489 -0.2648903  -0.27003026  0.13704889  0.24889566
  0.3184802   0.15155652 -0.37810287 -0.00466649 -0.287606   -0.24791797
 -0.01476034  0.18905881 -0.3361723   0.13416478  0.02698077  0.04051875
 -0.05714166  0.07315668]
[-0.13894993 -0.15099423  0.36131686  0.21792394  0.10802641 -0.07633337
  0.43504804  0.16655774 -0.20791657  0.47004995 -0.06628808 -0.09170046
 -0.43321732 -0.53523505  0.07316338  0.27469626 -0.22095242 -0.02983918
  0.16539991 -0.28597546]
[-0.20774953  0.25749916  0.11317042  0.16296561 -0.17911935 -0.4582036
  0.19969165  0.15007061 -0.3227509   0.0123909  -0.2353902  -0.19569276
 -0.3011527   0.2373538   0.00158189 -0.04695145 -0.41372082 -0.16462977
 -0.18726397  0.2645384 ]
[-0.09676362  0.33615872 -0.190312   -0.27647027 -0.09831285 -0.08390982
 -0.02804032 -0.0793694  -0.39642844 -0.18887618 -0.15631187 -0.17296456
  0.14913592  0.35592335 -0.10058959 -0.09988638 -0.20068923 -0.25518355
  0.24763928 -0.07243648]
[-0.04603251 -0.32996655  0.1081466  -0.30509815  0.23069489  0.2731165
 -0.22112922 -0.03975116 -0.51518804  0.00218253 -0.24315818  0.06672297
 -0.30976966 -0.07562725  0.19215643  0.22170462  0.41781458 -0.23833862
  0.3100552  -0.22019728]
[ 0.48330128 -0.1389042  -0.27217677  0.09694403 -0.1242507  -0.1657492
 -0.08685888 -0.0764544  -0.1157406  -0.26157737  0.06563057 -0.2617206
  0.02884223  0.01320514 -0.00590946 -0.2217782   0.01716945 -0.16151373
  0.23669049  0.19226347]
[ 0.3528971  -0.02119534 -0.05291363  0.19771306 -0.04670001 -0.01382146
  0.48696262  0.10786716  0.01689278  0.22578886 -0.193812    0.08743513
 -0.04869583  0.04133925 -0.35121325  0.01961641  0.13431849 -0.11771575
  0.07003438  0.2843487 ]
[-0.04464034 -0.03567192  0.24084088  0.36783034 -0.04884934  0.24427788
 -0.08080127 -0.02761467  0.22967236  0.1423404   0.42817044  0.39969686
 -0.08286311 -0.10012856 -0.11950602 -0.37209392 -0.0523371   0.36303788
 -0.352905    0.07883711]
[ 0.05313308  0.3274934   0.01821934  0.22567396  0.04457154 -0.57483065
 -0.02909924 -0.01389269  0.33476853  0.12013382 -0.33800617 -0.4208125
 -0.04898565  0.20312414 -0.37076783  0.24212548 -0.31402308 -0.11878265
 -0.11199489  0.27814466]
[ 0.42172557 -0.22474879 -0.07139364  0.3197338   0.3205006  -0.31911755
 -0.6610176   0.24237174  0.5221964   0.3465523   0.40450373  0.02906328
 -0.04825127  0.52072835  0.1514305  -0.18545866 -0.05359131  0.07746702
  0.25750148  0.3169711 ]
[ 0.15908706  0.1344228   0.04432275  0.22875868 -0.36998594 -0.068287
  0.05238699 -0.21511424 -0.25257865  0.17366101 -0.4053496  -0.21459596
 -0.02377535  0.1503299   0.0753968  -0.09424533 -0.0063103  -0.21567471
  0.09614199 -0.06881847]
[ 0.03219903  0.27990144  0.07669096 -0.01330881 -0.03815735 -0.3553805
  0.0993965  -0.05926633 -0.24705607  0.00514442 -0.30293402 -0.19128712
 -0.26237464 -0.46791363  0.09012169  0.2819271   0.01413812  0.26658303
 -0.07430441 -0.28719217]
[ 0.13782485 -0.02329712  0.16281784  0.05698976 -0.12992173 -0.14796463
  0.14555351  0.04165259 -0.07794558  0.083873   -0.20049755  0.0507095
  0.11329359 -0.34449512  0.1260669  -0.1845277  -0.05688927 -0.16166112
  0.0306031  -0.12224583]
[-0.20650777 -0.25110915  0.24057886 -0.25454834 -0.02375973  0.2586503
  0.45291105 -0.10362872  0.10504864  0.1585793  -0.21792747 -0.07884657
 -0.39651027 -0.36816433  0.41288134 -0.28875777  0.01203314  0.04442903
  0.2623039  -0.34386447]
[-0.31618264  0.1410613  -0.08432491 -0.1578747  -0.12354339  0.02590941
 -0.41768777  0.1856986  -0.16642453 -0.3247587   0.10244508  0.19182743
 -0.02868401  0.06657635  0.05724725  0.1198279  -0.23765157  0.14151394
  0.18398513  0.00933866]
[-0.18647085  0.03789117 -0.0717051  -0.13002189  0.10753086 -0.3194848
  0.15739083 -0.22453101 -0.40231973 -0.138158   -0.06874129  0.10403702
  0.10139092 -0.19796437  0.12695827  0.073677    0.40229145 -0.07528883
 -0.10206644 -0.13245724]
[-0.18052776 -0.15706684  0.13523875  0.01823471  0.05449793  0.16815303
 -0.06712135 -0.07966344 -0.41207582 -0.27510396 -0.20987864 -0.14599699
 -0.4003802  -0.08217924 -0.2728294  -0.10222255  0.25695586 -0.08662649
  0.2978639   0.09644777]
[ 0.12389921  0.1995148   0.13556865  0.15298346 -0.3057626  -0.27821073
 -0.29364678  0.03137217  0.10471772  0.12050463 -0.40344658 -0.4411435
  0.23497114  0.34534863 -0.28751263 -0.21448411  0.26809865  0.07476615
  0.04749291  0.25974214]
[-0.13612866 -0.19034965 -0.01813063  0.26690313  0.07104263 -0.4129921
 -0.02150021 -0.02215068  0.13613328 -0.21462715  0.2123323  -0.27988315
 -0.1133395   0.04739087 -0.31578878 -0.2014652  -0.443887    0.2433071
 -0.26717287 -0.04539763]
[ 0.32595003 -0.36972752  0.01027478 -0.12666304  0.33624288 -0.02798062
  0.38807377 -0.279535    0.01163695 -0.19636682 -0.14969379  0.06567476
  0.00931486  0.12538204  0.16371265  0.38588804  0.22584932 -0.3871075
  0.15563829  0.43379346]
[ 0.00736279 -0.18612431 -0.15988253  0.24813375  0.08355362  0.4658132
 -0.15625267  0.30684668  0.40088597  0.05865265  0.00420678  0.02793965
  0.20502326 -0.01692626  0.23221786  0.01274636 -0.18299478  0.0534145
 -0.3445691  -0.13815382]
[ 0.2150218  -0.09200466 -0.32524616  0.13291323  0.1552886  -0.17707422
  0.27227834 -0.0132277  -0.12077197  0.238653    0.30977505  0.01383997
 -0.03118939 -0.55134857  0.11153365 -0.00366381  0.02033645 -0.3522184
 -0.30153003 -0.2679741 ]
[-0.13335724  0.11712862 -0.04199667 -0.16827364 -0.22254449  0.08533251
 -0.03614176 -0.02830404 -0.38023934 -0.09221045 -0.2796763   0.19167972
  0.24764334 -0.05054705  0.31650946  0.40598655  0.04205135 -0.16092594
  0.2584119   0.2559303 ]
[-0.4364556   0.22942622  0.09717477 -0.12210297  0.02411111 -0.18106738
  0.10708255  0.08252702 -0.33424044 -0.3344788  -0.28505436 -0.24949034
 -0.22941302 -0.1559582  -0.25881973 -0.09542036 -0.00443081 -0.09019943
 -0.075416    0.00209377]
[ 0.18660375 -0.08527548 -0.01777893 -0.02140347 -0.26507074  0.18305378
 -0.30717558 -0.01513332  0.1411563   0.16337734 -0.2087167   0.18907885
  0.2420576   0.2178416  -0.03206867 -0.00822134  0.14371829 -0.07496897
 -0.22162853  0.3151877 ]
[ 0.2939869  -0.22890933  0.16348039 -0.30976492 -0.2999421  -0.12535225
 -0.05059457  0.16561764  0.03811409 -0.10740885  0.09401494 -0.13796462
  0.05941321  0.3011391  -0.22703704  0.01246734  0.15387037  0.20130025
  0.09791904  0.2314695 ]
[ 0.1219942  -0.40827546  0.34363317  0.16570398 -0.04242231  0.59009993
  0.24122794  0.200719    0.02179304  0.28547132  0.3256323  -0.07735943
  0.13360155  0.24960549 -0.0092978  -0.02824941 -0.23680103 -0.02482571
  0.5604915  -0.08658625]
[-0.21134731  0.00061096 -0.08934843  0.15437569 -0.29472435  0.10340139
 -0.07957432 -0.22000517  0.00965978 -0.1014156  -0.19853057 -0.24802768
 -0.06062669 -0.42274535  0.26504984  0.11120406 -0.05113587  0.0924866
  0.01605757 -0.00869705]
[-0.15882127 -0.408806    0.16299853 -0.2992807  -0.03308135  0.12190849
 -0.31483233  0.16480428 -0.10800801 -0.25554684  0.1594951   0.18775146
 -0.0981303  -0.30389854  0.33805022 -0.04668874 -0.22167294  0.13877368
  0.22544478 -0.05004388]
[ 0.01930541 -0.03435412  0.04779496 -0.00848895 -0.02327561 -0.02532483
  0.1225317   0.02705282 -0.00662703  0.0865605   0.01659696 -0.10398409
 -0.23142585 -0.31780323 -0.03978851 -0.01499929  0.04437364 -0.03821793
 -0.03862992 -0.08893708]
layer 5 Activation
tanh
layer 6 Dense
20 1
[-0.21428691]
[-0.28873616]
[-0.02174421]
[0.39299282]
[0.01752046]
[-0.21806183]
[0.1450651]
[-0.00998254]
[0.10757632]
[0.31573758]
[0.3708137]
[-0.30498412]
[0.26402897]
[0.17749909]
[-0.05745889]
[0.02576362]
[-0.00044847]
[-0.35236531]
[0.44210497]
[0.29817382]
[0.10732637]
