layers 7
layer 0 Dense
20 20
[-0.13374704 -0.07795446  0.10698111  0.16151498  0.26024836  0.18639536
  0.07875191  0.01997701 -0.06398992 -0.08720993 -0.04072006  0.14007567
 -0.00543779  0.01632013  0.08931127  0.24721166 -0.11878875  0.09773907
 -0.13414784 -0.17797773]
[-0.20499323  0.2766228   0.37856674  0.2959994   0.36653844 -0.00317618
 -0.08895641 -0.30670023 -0.1103528   0.48605344  0.02983466  0.06224878
 -0.38522443 -0.3698263   0.23781207  0.09000086 -0.4909065  -0.23474835
  0.08650658 -0.14277618]
[ 0.1806983   0.04468596  0.35580835  0.46316835 -0.1445598   0.17435978
 -0.27164492  0.31515762  0.096155   -0.21443197 -0.29097497  0.2396318
  0.17032382 -0.10516281  0.30997604  0.39415434 -0.02129033  0.15045933
  0.19133098  0.57177365]
[-0.18149564  0.02508158 -0.22937313  0.12177655 -0.3605487   0.21687414
  0.19167246 -0.3819284   0.11247148  0.16726197 -0.3498522   0.3860692
  0.17839086  0.19450471 -0.16810627 -0.27666086  0.2238274  -0.2144743
  0.3360495  -0.1346319 ]
[-0.34381345 -0.11563404 -0.10197663  0.13262726  0.3529699   0.23887722
  0.09187233 -0.31834495 -0.40436372 -0.16144587  0.16452436  0.05454848
 -0.06269518  0.26084772  0.12166659 -0.07289567 -0.22466698 -0.28738073
  0.28025737 -0.00078898]
[-0.24080421 -0.1809057  -0.46982145 -0.321764   -0.26679924  0.14613979
 -0.46927682 -0.23070823 -0.10870904  0.03896836 -0.05050722  0.31930265
 -0.06796662 -0.17349796  0.36903962 -0.26905766  0.13073239  0.2598777
 -0.14829771 -0.40382108]
[-0.35056672  0.19519825 -0.05420011 -0.22329186 -0.26506212 -0.23713312
 -0.4974627   0.36648044 -0.03644775 -0.1524894   0.4346831   0.38501734
 -0.09793444  0.02466424  0.06065765  0.23556359  0.2975951  -0.09865684
  0.352517   -0.04906851]
[-0.3194238   0.01771982 -0.01940746  0.06585751 -0.10151566 -0.5034793
 -0.14785296 -0.09403607  0.16953762  0.11516362  0.37156236 -0.09796685
  0.37158144  0.30604792  0.24292338  0.1452435   0.13074861 -0.38783202
 -0.22382672  0.16363443]
[ 0.43714154 -0.21584679 -0.12715298  0.05382219 -0.209126    0.14927217
 -0.24882682  0.1247251  -0.10493047 -0.30466592 -0.49587178  0.06379013
  0.1503411   0.40763837 -0.30531144 -0.10381181  0.43615875  0.37754932
  0.3173543   0.22955818]
[ 0.25674802 -0.09097805  0.32745624 -0.29242724 -0.03882697 -0.04910839
 -0.02833068  0.2913904  -0.10832715  0.35233825 -0.17382888  0.14676459
  0.26597297 -0.12939122  0.10695544  0.25147948  0.14377654  0.2780788
 -0.05338073  0.23340468]
[ 0.19328852  0.3359147  -0.11671598  0.236792    0.35617617 -0.10530119
  0.254096    0.09988362 -0.04133898 -0.3368899   0.30570886 -0.3468734
 -0.20547268  0.17049715  0.25123087  0.05153079 -0.2918262  -0.27814126
 -0.2255083   0.36130223]
[ 0.46002263  0.02906815 -0.26706252  0.87344486 -0.26845595  0.5549154
 -0.38881534  0.06655548 -0.37721223 -0.42492828  0.12796992  0.22749534
  0.20444727 -0.13022135 -0.04261057  0.18507394  0.04477704  0.516903
  0.29097152  0.241609  ]
[-0.2493721  -0.03855849  0.24373452 -0.30626664 -0.07660006  0.1287913
 -0.13015088 -0.32570413  0.3252032  -0.15563828 -0.0023715   0.19309272
  0.28776956 -0.30104142  0.20859934  0.27017674 -0.15545785 -0.43257514
 -0.06289306  0.11271632]
[-0.2706366  -0.32723624 -0.04155304 -0.2429496   0.05393563  0.26198247
  0.17612243 -0.27953357  0.20260258 -0.25299275 -0.15381551 -0.01589582
  0.02243558 -0.24433883 -0.05147295 -0.13613753  0.25148997  0.2807287
  0.18806162 -0.28822374]
[ 0.21837443  0.1894663   0.2763222  -0.51431316 -0.04510716  0.3397226
  0.19789834  0.0016344  -0.02655459 -0.07738218  0.32480296 -0.22334409
 -0.01321007 -0.13173573  0.14488515  0.30611166 -0.10762659  0.1769201
 -0.30514905  0.26392642]
[-0.22965923 -0.31679472  0.0005486  -0.25279614 -0.26197308 -0.04102637
 -0.26765126  0.29200852  0.19439769  0.25864938 -0.41862097  0.20915149
 -0.14193131 -0.20882913  0.00090314 -0.3156869  -0.00455667 -0.13778836
 -0.17413595  0.05625526]
[ 0.27225465  0.27502367 -0.31603092 -0.14651904  0.08145782 -0.4338898
 -0.1957786  -0.2920351   0.13206594  0.390146   -0.28511882 -0.10899349
  0.04471287  0.3372314   0.1314675   0.24031915  0.16288613 -0.25941682
 -0.3082281  -0.1653936 ]
[ 0.28423333 -0.06253359 -0.26298785  0.12835154 -0.05954781  0.2226201
 -0.03843772  0.21552327  0.35448343 -0.24127825  0.00634192 -0.19211392
  0.11935715 -0.1879363   0.22132352  0.03607103  0.08558667  0.04690446
 -0.120975   -0.07912008]
[-0.14208534  0.14244688 -0.03324394 -0.17478181 -0.06774511  0.03611201
 -0.31403434 -0.39664623 -0.02098576 -0.42732406  0.21140262 -0.14896263
 -0.15672617 -0.16805801 -0.15096122  0.07464977 -0.07420658 -0.10137463
 -0.00045332 -0.24673575]
[-0.26087502  0.07602472 -0.286929   -0.3448229   0.24909313 -0.31644914
 -0.46571228 -0.3379015   0.22579601 -0.25219375 -0.18650778  0.1028601
 -0.09580852 -0.06607223 -0.31322065 -0.17944334  0.2768268  -0.45774278
  0.06657202 -0.09311549]
[ 0.09089202 -0.0108618  -0.02850228 -0.06957845 -0.02835554  0.12835635
 -0.02815208 -0.00182253  0.01448608 -0.11425521  0.06297809  0.01939621
 -0.0383517  -0.0696128   0.06543648  0.01100641 -0.00909664  0.01606223
  0.08342891  0.06210163]
layer 1 Activation
tanh
layer 2 Dense
20 40
[ 0.19779086 -0.13061476  0.25792933 -0.0687508   0.08217472 -0.08601304
  0.3610118  -0.21765593  0.10158718  0.09812836 -0.09442753  0.2538426
  0.22913443 -0.2690154   0.19669917  0.29301664  0.03068102  0.24682058
  0.1812284   0.07079565 -0.23281045  0.1463422   0.22031952 -0.27345905
  0.10279136 -0.00775625  0.0234945   0.01674043  0.10654952  0.22133583
 -0.2796807  -0.3150808  -0.14235672  0.0284447  -0.00762033 -0.17214143
 -0.0031852   0.07655627  0.24359669  0.18875769]
[-0.11633523 -0.25779906 -0.15185115 -0.06032749  0.22963579  0.10250183
  0.22016504  0.08648981 -0.13027345  0.42176566 -0.2585533   0.21690974
  0.00338991  0.21274696 -0.3236368  -0.26011682 -0.14355902 -0.05104964
  0.27705464  0.12346366  0.2132256   0.06374043 -0.23812301 -0.28896946
 -0.24720165 -0.04709936  0.02837392 -0.02412807  0.26880553 -0.13703072
 -0.07533084 -0.11692215  0.15530638 -0.18184572  0.21957329  0.26743233
 -0.03436296 -0.24290505 -0.07018372  0.10611682]
[ 0.25224197 -0.1669158  -0.03229678  0.05594477 -0.3142773   0.25196669
 -0.04206922  0.2260356  -0.22317666  0.06219216 -0.10267739  0.24039972
  0.27183077 -0.00106053  0.32507363  0.29111207  0.06600662  0.0704647
  0.20925726 -0.2222836  -0.15135212 -0.04223555 -0.07997632 -0.11637364
 -0.12856692 -0.3360888   0.0863755  -0.15640765  0.23455286  0.10538163
  0.11064593 -0.04910086 -0.08454651 -0.23314443  0.20551233 -0.18849759
 -0.03320888  0.12486894 -0.11740012 -0.03718284]
[-0.0146767   0.28581536  0.11521969  0.13806522 -0.17617649 -0.04780101
  0.34754875  0.16277854 -0.01892826  0.1772257   0.25024703 -0.25389412
 -0.05511441  0.05129196  0.00558047 -0.23472793  0.20030995  0.16701989
  0.04683151 -0.18174618 -0.32232517  0.12023121 -0.06872296 -0.04195096
  0.00571169 -0.01433899  0.04398929 -0.25512487  0.23904541  0.09435809
  0.31327188  0.16210216 -0.12596345  0.09042627  0.18508215 -0.30538577
 -0.20063974  0.00924684 -0.14515966  0.33528364]
[ 0.32074115 -0.15496683 -0.252731    0.31860632  0.00821437  0.14528216
  0.07054938  0.11306828 -0.32119593  0.10206328 -0.18980339 -0.04134133
  0.23029192 -0.15753755  0.18107352  0.16295643  0.06121078 -0.12055781
 -0.30266386  0.23085879 -0.0154132   0.13996233  0.06797031 -0.06574453
 -0.2177725   0.0784952   0.2244618   0.08731391  0.0862764  -0.3115224
 -0.22212021 -0.2021016  -0.26736617  0.1520887   0.08101203  0.2674453
 -0.04611605 -0.10010681 -0.05476715  0.2804487 ]
[-0.4139876   0.07657402  0.2492754  -0.28745118 -0.25727612  0.19345422
  0.24424674 -0.33077288  0.22199112  0.24415398 -0.08323748  0.05557161
  0.05304096  0.10716796  0.33858725  0.20225836  0.18109283  0.03786682
  0.02783827 -0.37527642  0.01615425 -0.14662594  0.16813537 -0.02937657
 -0.20100452 -0.034287   -0.08717512 -0.0744827   0.19281115 -0.03332518
 -0.15784436  0.10973026  0.3138666   0.23288625 -0.13962248  0.05636165
  0.11684719  0.2602468   0.12212607  0.30305806]
[ 0.21009533  0.02091701 -0.10717224 -0.36089385 -0.20325549  0.03912633
 -0.15572515  0.07987414 -0.0538501  -0.13946652  0.06340863  0.04493855
  0.2935835   0.31623036 -0.12166355 -0.08013454  0.09377164 -0.25929362
  0.20629914 -0.11537593  0.01340207 -0.11986654  0.01880305  0.2296379
  0.17069209  0.2672529   0.00617457  0.11947889 -0.23349792 -0.21013457
 -0.17186879  0.02528062 -0.09937089  0.07837962  0.0049545  -0.11367004
  0.01167467  0.13481729  0.0934467   0.244594  ]
[ 0.02014699 -0.09501383 -0.31542385  0.06703965 -0.00491483  0.25439364
 -0.01612916 -0.23818971 -0.05425319 -0.03675678 -0.1916421   0.0531528
  0.04772918 -0.23562278  0.20358351  0.08298025 -0.20008232  0.03542502
  0.01644963 -0.09900113  0.11490223  0.22451748  0.03441212 -0.23572753
 -0.01717734 -0.17370938  0.20134866  0.3016667  -0.10506637 -0.13105182
 -0.08708303 -0.3456814   0.0691539  -0.18324749  0.02317413 -0.23077524
 -0.00073869  0.09184858  0.08354802  0.14709383]
[ 3.14791083e-01 -7.89464265e-02 -2.81336736e-02  1.41847506e-01
  7.50778094e-02  1.03848882e-01 -1.41367922e-03  1.52069613e-01
 -1.49109334e-01  1.09379858e-01 -1.79257080e-01 -4.85503115e-05
 -3.60159725e-01 -2.04185154e-02 -1.71384975e-01  2.26568982e-01
 -1.14641987e-01 -1.27686039e-01 -3.05946648e-01 -6.70104325e-02
  7.80318826e-02  1.67455480e-01  2.49026075e-01  7.08203018e-02
  8.89649391e-02 -1.93640098e-01 -2.65231013e-01  7.09136948e-02
 -1.16017815e-02 -2.26254284e-01 -2.52028793e-01 -1.83182776e-01
 -2.04121783e-01 -1.83432519e-01 -1.48261368e-01  2.71714479e-01
  9.76206511e-02 -8.75847936e-02  1.41320512e-01  1.01019502e-01]
[ 0.25588447 -0.01829996  0.14846252 -0.20962536 -0.28653008 -0.2945603
  0.08531418  0.05389382 -0.0154066  -0.22921224 -0.09416174  0.20779051
  0.10212686  0.09515685  0.0591993   0.0795939   0.00326461 -0.27220395
 -0.08762974  0.22932543 -0.19523814 -0.06459647 -0.19981417  0.12179674
 -0.00683002  0.01625353  0.36936048  0.14760031 -0.21897171  0.19149303
  0.09623629 -0.27161026  0.157827   -0.06183095  0.06994382 -0.19840248
  0.14723763  0.04571866 -0.27145177 -0.19515616]
[ 0.15766671 -0.13987261  0.16086134 -0.00270775  0.07716853  0.16036522
 -0.04328433  0.10053093  0.17151852  0.03406999 -0.30697766 -0.08489287
  0.27602524  0.28518748  0.28233075 -0.3031675  -0.0203512   0.11700318
 -0.00849052 -0.23665883  0.01169651 -0.08243489  0.11770096  0.22292423
  0.16535963  0.18919101  0.27335057  0.03020296 -0.10843103  0.26299912
 -0.12387399 -0.30356315 -0.15701261  0.06172604  0.11916692  0.00651256
  0.06031892  0.2818714   0.19527873 -0.2585633 ]
[-0.23896119  0.2546889   0.19677493  0.0981721  -0.33639097  0.25789195
 -0.12779406 -0.26824388 -0.03775393  0.22209379  0.21267271 -0.27134696
  0.16858396 -0.25740564  0.22419395 -0.17366691  0.26700747 -0.24130903
  0.14153793 -0.112785    0.2830474   0.0157938   0.25496948 -0.14697954
  0.00464328 -0.00093104  0.01714624 -0.21367073 -0.22951068  0.16615024
 -0.05428549 -0.13621546  0.35807928  0.21406439 -0.26903683  0.2341187
  0.04359504  0.25706252 -0.11590936 -0.19614942]
[ 0.0138329   0.07566181 -0.21761964 -0.15811379  0.08831823 -0.14856134
  0.23495091  0.23218033 -0.02017129 -0.1881094   0.11664476 -0.03838225
 -0.33039525  0.1542826  -0.17872627 -0.2612945   0.08094722  0.3080806
 -0.17386226  0.05245902  0.08172727  0.285335   -0.18384007  0.09848204
 -0.30666098  0.08815195 -0.27727196  0.12974496  0.09315696  0.28717265
 -0.19699807  0.0745243   0.02004767  0.10320511 -0.02349756  0.12015412
 -0.15330105 -0.06849779 -0.2383004  -0.00321677]
[-0.02514835 -0.09552699 -0.06739796  0.08144761 -0.24821615 -0.19784886
  0.12582026 -0.12048312  0.12224998 -0.03841828  0.31848842  0.11218677
 -0.24183202  0.24062519 -0.18092625 -0.25026634 -0.02378763  0.30028737
 -0.00311254  0.251436   -0.22438224  0.22970478  0.09700409 -0.07913388
 -0.03778181 -0.04766898  0.30693018 -0.19645798  0.06793989  0.08035358
 -0.07659388  0.22361642  0.12639579 -0.08267955  0.1739912  -0.27391243
  0.07124271  0.15299909 -0.03726772  0.06919353]
[ 0.06463777 -0.06104934 -0.04247304 -0.26339412  0.16544668  0.06789604
 -0.2024771  -0.20925957  0.00774369  0.02195146 -0.24220759 -0.19318816
  0.03398352  0.15798041 -0.25895375  0.29337195  0.1251387   0.0572059
  0.01904307 -0.10157062  0.16034456  0.2917246   0.11801116 -0.07349562
 -0.11334693 -0.04189955  0.14529012 -0.0634021  -0.24512243 -0.15802057
  0.07569823 -0.03178393 -0.1826223  -0.11669465  0.2325939  -0.0363737
 -0.05666871 -0.02855135  0.04609215 -0.02117649]
[-0.18187334  0.00493533 -0.13101412 -0.01167137  0.25715718  0.20774285
 -0.07375896  0.134644   -0.11171062  0.07262643  0.06180095  0.01087033
 -0.11052432  0.07818847 -0.15269846 -0.01754363  0.06801051 -0.20604669
 -0.07716669 -0.06050771  0.2216839  -0.04248396  0.03659184  0.09478213
  0.24605536  0.25952458  0.20662563 -0.12315604  0.2413394  -0.14819527
  0.03677863 -0.14617619 -0.18988602  0.02626231  0.01465013  0.11986294
  0.18196876  0.08975871 -0.1331481   0.25684673]
[-0.2094333   0.23116134  0.13615075  0.03330292  0.2031271   0.00057338
 -0.06614154 -0.2065368   0.05119248  0.09182959  0.15360473  0.1446382
 -0.22308555  0.14501688 -0.12521812  0.1004091   0.11333342  0.35009792
 -0.3088544   0.16576837  0.09838141 -0.12028684  0.27613378 -0.28292844
  0.01504025  0.26766327 -0.24592873 -0.25100973 -0.11306577  0.15535279
 -0.155798    0.12087555 -0.06893041 -0.04411954 -0.03261656 -0.28398833
 -0.34461346  0.25078836  0.16742226  0.09691535]
[-0.3348575  -0.28258935 -0.10957376 -0.33596334 -0.30546504 -0.1630316
  0.22461522 -0.12175675  0.12948307  0.18873835  0.03626915 -0.3346689
 -0.23894277 -0.07169174  0.08746081 -0.12099917 -0.21982059  0.11964497
  0.05301603 -0.3451784  -0.0067971  -0.13794929 -0.03679284 -0.3191026
  0.01892867  0.20918775  0.22308093 -0.01517051 -0.02060876  0.312956
  0.06261557 -0.053581    0.01143442 -0.12386704  0.00635485  0.21823491
 -0.19865832 -0.125401    0.32584634  0.36043996]
[-0.2205186   0.3896423   0.16620411 -0.1451394  -0.16828588  0.07822581
  0.13098402 -0.13520557  0.33116475 -0.20247966 -0.04197405 -0.04249466
 -0.22647755 -0.03269521  0.08543261  0.22822607 -0.1278218   0.06686152
  0.07613368  0.1645784  -0.08439583  0.16472597 -0.14436509 -0.1900898
 -0.07538068  0.17926262  0.1764018   0.12013422 -0.02885326  0.37697563
 -0.02902972 -0.16996454  0.3270099   0.22731481 -0.1845801  -0.23223001
  0.20798568 -0.22053206  0.21278897 -0.26290968]
[-0.1630195  -0.08758778 -0.08867064  0.24140024  0.26412326 -0.13666189
 -0.20594126  0.20367394  0.19047949  0.31230012  0.25259578  0.10366914
  0.1059446  -0.21617635  0.09459648  0.148671   -0.0025164   0.16827215
  0.04352938  0.05997589 -0.05130221 -0.22880517 -0.16735911  0.27095008
  0.05510254  0.09624792  0.14006546  0.16643706 -0.26910815 -0.01139745
 -0.06140997  0.11002731 -0.05652264  0.04101334 -0.10026857  0.03033514
  0.19294967 -0.31524357  0.18295982  0.16066758]
[-2.48936713e-02 -3.55346352e-02  2.73660440e-02 -1.00750647e-01
 -3.38343494e-02 -2.05817111e-02  1.00983910e-01 -3.42134126e-02
  7.10219331e-03  1.36923075e-01 -5.84221911e-03 -9.78414193e-02
 -5.73781726e-05 -1.30739082e-02  3.27041037e-02  6.37416616e-02
 -2.11309269e-02  1.26039311e-02  5.26243867e-03 -4.09753025e-02
  2.73204949e-02 -3.41978855e-02  3.62841524e-02 -1.07678985e-02
  3.60899940e-02  8.84703174e-03 -8.52327272e-02 -1.62690058e-02
 -1.72297619e-02  1.80265997e-02 -4.51794900e-02 -1.60339102e-02
  4.09099050e-02 -2.04890016e-02 -2.11094152e-02 -1.75598972e-02
 -8.25923402e-03 -2.25268025e-02  4.43990575e-03  2.25944705e-02]
layer 3 Activation
tanh
layer 4 Dense
40 20
[ 0.30245432  0.03090003 -0.21295384 -0.14906394 -0.21862414 -0.36860073
 -0.03280004  0.32773337  0.24544287 -0.24590485  0.04690048 -0.23778541
 -0.18208107  0.23272039  0.14646195 -0.272396    0.0523442  -0.08764755
  0.04497346  0.13209935]
[ 0.26710925 -0.13766676  0.04719211  0.07701844  0.3074593   0.08613219
  0.1833252  -0.3097215   0.23949997 -0.09897216 -0.03295478  0.24649762
  0.16149606  0.20325528  0.05316252  0.00432127  0.27341545  0.01670593
 -0.03971441  0.08978193]
[ 0.33271253  0.29221004  0.19678462 -0.13162501  0.0078862   0.21738149
 -0.09917286  0.05311012  0.21536887 -0.16430126 -0.16847043 -0.12016673
 -0.20523427  0.20194313 -0.08404402  0.15142384  0.19040412  0.1331949
  0.22388937 -0.2739504 ]
[-0.15139543  0.10868859  0.23304327 -0.17443389 -0.10620493 -0.32757178
  0.26319653  0.15486065  0.03289542 -0.17501216 -0.09930073 -0.28384838
  0.16947755 -0.32240936  0.18537891  0.28156024  0.21264242  0.14426525
  0.09928657  0.18247572]
[-0.0219215   0.17283815 -0.10995232 -0.09530421 -0.20186189 -0.04432841
  0.08237292  0.20248455  0.18455121  0.2967686   0.2187213  -0.07410602
 -0.05457549 -0.1314755   0.23892471  0.23708263  0.12859994  0.04918374
 -0.17441466  0.09608755]
[-0.24866147  0.03782957  0.13152713  0.26242992 -0.09698501  0.05138998
 -0.2317101   0.25081545 -0.22946118  0.29201442 -0.3070337  -0.00758069
 -0.16745879 -0.15015759 -0.05245995 -0.03071734 -0.17408273 -0.17495352
  0.03678725  0.07599888]
[ 0.21324065 -0.26559475  0.3073126   0.24923283 -0.14283404  0.25367418
 -0.25928295 -0.3054637  -0.04742502 -0.05367845  0.0881302   0.17632507
 -0.10913728  0.17198388 -0.23195533 -0.28394562  0.12252162 -0.18598576
  0.0894022  -0.01311292]
[-0.10845797 -0.20726293 -0.08103655  0.21792848 -0.04266537 -0.2984698
  0.16781203  0.11908927 -0.26550117 -0.00651084 -0.13477333  0.04624296
  0.12323093  0.08968729  0.11989324  0.26006487 -0.06225462  0.14316668
 -0.07034963  0.3077357 ]
[ 0.22968529  0.13976538 -0.3231898   0.02347301 -0.08288398  0.05223861
  0.20170566  0.00443216 -0.08473991 -0.2975154   0.20522913 -0.12523776
 -0.1909999  -0.08023936  0.13174066  0.24273159  0.19177556  0.0286869
  0.04458752 -0.17811015]
[ 0.18722934 -0.12460715  0.34923327  0.21662138  0.1966982   0.06311767
  0.09696624 -0.14142907 -0.27100125 -0.00835455  0.24778202  0.11785833
 -0.02953496  0.15732485 -0.30216834  0.03350389 -0.12165619 -0.25194138
 -0.03402319 -0.0557332 ]
[-0.23307405 -0.13988498  0.19681023 -0.16653855  0.2257842   0.02623916
 -0.20945711 -0.12320659  0.18956125 -0.05411554  0.15401062  0.0558609
  0.15139954  0.07523819  0.31862965 -0.23236272 -0.27508584  0.11217134
  0.22877796 -0.11500715]
[-0.27384067  0.2543102  -0.17442954  0.3513014   0.11504339  0.05648817
  0.07556378  0.20043518  0.07427628 -0.19083491 -0.02167967  0.20411512
  0.0073651  -0.25217625 -0.21665487 -0.01116415 -0.29383764 -0.14066744
  0.15579149 -0.05519519]
[-0.13464513  0.17119218 -0.14395627  0.23008879  0.20196797 -0.23151365
 -0.21687622 -0.14293827 -0.32389462  0.25170907 -0.29547974  0.08157847
  0.24063186  0.09968541  0.03658789  0.32859087  0.02655491 -0.13043167
 -0.02622476  0.03882336]
[-0.03282193 -0.12738246 -0.03863525  0.09206507  0.20970562 -0.3161423
  0.24271505  0.2803861  -0.05202007  0.14250495 -0.04940574 -0.01710299
 -0.06690122  0.08188605 -0.11908692 -0.17156066  0.22989804  0.15954518
 -0.2687581   0.16253829]
[ 0.05998708 -0.04007545 -0.17558308 -0.00296351  0.16086662 -0.20044264
  0.250358   -0.30193314 -0.08347219 -0.3421486  -0.19786632 -0.26965556
 -0.21524237  0.1934137  -0.1029643   0.07548688 -0.14811495  0.38668278
  0.11418609 -0.3543184 ]
[-0.13196398  0.23444714  0.11530965 -0.14047797 -0.23037487  0.25337604
  0.20973253 -0.04080436 -0.31077003  0.01280859 -0.08012623 -0.06813744
  0.13012658  0.17564997  0.11764268  0.02292685 -0.04147675  0.02183113
 -0.01960835 -0.14048442]
[-0.26562193 -0.20511435 -0.33078742  0.06061183 -0.03706435 -0.02965588
  0.21991856 -0.18252704  0.18180427  0.04565922 -0.05563942  0.15325138
 -0.21386111  0.03015127  0.22176224 -0.18864466 -0.0715715  -0.18751493
  0.24023722 -0.19063558]
[ 0.24010909  0.2711105  -0.10298023 -0.14585094  0.15164554 -0.11527984
 -0.29225385 -0.09985261  0.14346915  0.04515565  0.13610388 -0.18905275
 -0.01399742  0.12514295  0.36245272 -0.00683692 -0.08929155 -0.13435176
 -0.04795593  0.14215459]
[-0.30502924 -0.11992596  0.12183769  0.10099448 -0.24225315 -0.02762554
  0.23462018 -0.21657631 -0.08286269  0.02080615  0.2016457   0.26542562
 -0.06343457  0.33284682 -0.19146988 -0.01894776 -0.21452747 -0.09955978
 -0.00118743 -0.02097603]
[ 0.2297829   0.00053374 -0.01247907  0.01943986  0.13543166 -0.05818446
 -0.01031802  0.09196435  0.23148428  0.09498757  0.02451789  0.25315464
  0.10025702 -0.07363886 -0.15270238 -0.16704498 -0.11285265 -0.2734429
 -0.01745913  0.10334264]
[-0.21756631 -0.1558247   0.15757602  0.13986495 -0.23849852  0.2573951
 -0.15280883  0.20797668  0.00771257 -0.14597316 -0.03989325 -0.08335974
 -0.27898094  0.22216064  0.1580982  -0.21017654  0.0783733  -0.07124212
  0.19044395  0.17579019]
[-0.03933825  0.13318731  0.15265556 -0.07090121  0.10242005 -0.30062404
  0.07061686 -0.22479272 -0.02688906 -0.07605029 -0.11959378 -0.017635
  0.07260958 -0.124793   -0.16020034  0.1948025   0.11171868 -0.14297697
  0.12900013 -0.20301078]
[-0.11541208 -0.02323852  0.11585934  0.2533924   0.15774277 -0.09023003
 -0.00628959 -0.15712129  0.13241735  0.20673843  0.3221037  -0.12159466
 -0.02353994  0.0335299  -0.26034695  0.09307623 -0.02822122  0.20135252
  0.25445637 -0.35407877]
[-0.2953228  -0.08667477 -0.04935236 -0.17220484  0.24999848 -0.15852122
 -0.08890509  0.18750031 -0.20148864 -0.12283646  0.0878642  -0.14335258
  0.27382174 -0.21501836 -0.29943404  0.1872615   0.24325633  0.21890393
 -0.2507973  -0.32517433]
[-0.2637697   0.31454486  0.05827503 -0.00153588 -0.16430417 -0.04669403
  0.01357167 -0.314282    0.19617534 -0.13209969 -0.15196311  0.26557758
 -0.06826681  0.05617222 -0.19612046  0.24285536  0.04079883 -0.19124153
  0.1648277   0.2462776 ]
[ 0.19783457  0.17465346  0.24346958 -0.03200426  0.33564278 -0.08908205
 -0.2541274   0.14110422  0.25959846 -0.0540133   0.07154761  0.09766738
 -0.05279895 -0.1089571  -0.17474559 -0.07262526  0.16290268  0.04573359
 -0.19177909  0.31713572]
[-0.21088095 -0.25733778  0.35712215  0.31236815 -0.24392    -0.24690647
 -0.10824493  0.224895   -0.08247818 -0.00718241  0.02676925  0.19648868
 -0.29798368  0.19895938  0.11525118 -0.11000887  0.05267559 -0.17489652
  0.11471511  0.25315368]
[-0.26027787 -0.2376852   0.10617329 -0.23507978  0.3080174  -0.17999376
 -0.32245308  0.1388381  -0.30654642  0.12939152  0.25140986  0.0079871
  0.0242404   0.33254686  0.13006623  0.26642537  0.1265876   0.1353169
 -0.17749088 -0.06492963]
[-0.08165196 -0.15336671 -0.13690768  0.21455275  0.17757097 -0.05780045
 -0.08052689 -0.06825332 -0.07646216 -0.28330746  0.21370669  0.11522207
  0.18225074  0.13019273 -0.07668749 -0.09236037  0.09690748  0.11837001
 -0.0829746  -0.00377339]
[ 0.22028288 -0.12273608  0.20918182  0.16187422  0.14862214 -0.08041623
 -0.24386299  0.09385682  0.20665899  0.08524776  0.02646464  0.09983405
 -0.30321273  0.20917569 -0.04717566 -0.13375227 -0.11600785  0.26320922
  0.10111842  0.29045427]
[ 0.2620753   0.17775747 -0.0674375   0.20674847 -0.24523276  0.27276906
 -0.177137   -0.12023351 -0.03652777 -0.22164951 -0.24313782 -0.2521496
  0.07708365 -0.18188156 -0.11115289 -0.02031947  0.12383083  0.25006568
  0.34856972 -0.21754757]
[-0.22116548  0.02148872  0.38239735 -0.16032177 -0.11780796 -0.2587501
  0.05715059  0.06320696  0.11629242  0.04480558  0.2926242  -0.07933749
  0.25038224 -0.17405924 -0.27732238 -0.19605102 -0.26059404  0.31443232
  0.21083522  0.12224358]
[-0.06439234  0.28736892  0.02029121  0.28926116  0.08839937  0.26380798
  0.13989928 -0.30276754 -0.2286572  -0.22144125  0.21591371 -0.31377056
 -0.08024988  0.03668029 -0.04285007 -0.07555905 -0.19935112 -0.11275733
 -0.29194134  0.24612115]
[-0.2787286  -0.26825052  0.06767163  0.28993452 -0.09036184  0.31486446
 -0.40109217 -0.08362043 -0.09355378 -0.08366539 -0.2873393   0.17381
  0.03527422 -0.08740533  0.20692101 -0.03563575  0.13925418  0.10218249
 -0.26479074  0.04363767]
[-0.21964766  0.14999579 -0.03929086  0.25310177 -0.00124546 -0.07830518
  0.22548518  0.22964604 -0.11628706 -0.14166759 -0.20637836  0.1664916
  0.11295346 -0.20215407  0.2032979  -0.13294342  0.0681161  -0.25473085
  0.1246798   0.2143386 ]
[-0.13160473 -0.14729281  0.14839074 -0.11030398 -0.12843609  0.19894499
 -0.196465   -0.04616166  0.12728797  0.02228269 -0.09809935  0.08197376
  0.14218965 -0.0181582   0.2394094   0.05905626  0.25458893  0.03195507
  0.02258385 -0.28643367]
[-0.20584522 -0.16264336  0.14123857 -0.2418435  -0.25296625 -0.17837612
 -0.12073693  0.0553122  -0.30674547 -0.07539515 -0.1570947  -0.12703261
 -0.00887244 -0.15261371 -0.22071052 -0.11084168 -0.1953961  -0.03720405
  0.07249408 -0.20543118]
[ 0.2707043  -0.25006297 -0.01704513  0.20403802 -0.05016641 -0.15604834
  0.21107088  0.2249198  -0.06040229  0.21284774  0.06890812 -0.0390483
  0.04389703 -0.12239098 -0.13512547  0.10366294 -0.18168999  0.20421644
 -0.12659812 -0.16621387]
[ 0.08532529  0.0268839  -0.18780719  0.18616098  0.05887515  0.00969853
  0.14129055 -0.07581031 -0.23858139  0.18691738 -0.16406041  0.00630469
  0.06399869 -0.03175304 -0.19749726 -0.05489878  0.2330347   0.17029586
  0.02061135  0.196101  ]
[ 0.25131994 -0.00597883 -0.2539399  -0.24179308  0.10873631 -0.03072573
 -0.09181487 -0.1160327  -0.07964761 -0.08457538 -0.23401965  0.18483949
 -0.18104161 -0.02844714 -0.06843808  0.20932773  0.03437401 -0.14562094
  0.10062815  0.11564984]
[-0.02815774 -0.04271318 -0.03453756  0.03182348  0.04627238  0.07380706
  0.01701104  0.01114446  0.03992203  0.06577531 -0.04090221 -0.02868732
  0.01953921  0.04119498 -0.04973705  0.04034677 -0.0554733  -0.03766327
  0.0152909   0.04289723]
layer 5 Activation
tanh
layer 6 Dense
20 1
[-0.0742697]
[-0.09565456]
[-0.00190028]
[0.01469921]
[-0.00785681]
[0.13028659]
[0.01380362]
[0.19343154]
[0.18010825]
[0.0195917]
[-0.08917367]
[-0.24665552]
[0.23104686]
[0.23868187]
[-0.12852757]
[0.0965573]
[-0.03538426]
[-0.21938324]
[0.00572977]
[0.01651771]
[0.04459622]
