layers 7
layer 0 Dense
20 20
[ 0.13087389  0.11040637  0.00705007  0.17411011  0.25586063 -0.1017896
  0.39599884  0.04658237 -0.13375582  0.29095477  0.13273546  0.20719384
  0.16505183  0.1394411   0.16909678  0.16613077  0.24452367  0.17632201
  0.1052203  -0.2956304 ]
[ 0.1833271  -0.1869622   0.24843977  0.13196434  0.06960526 -0.03422765
  0.01703891  0.37875122 -0.32336956 -0.4729988  -0.04689648 -0.6073385
  0.07241131  0.41592443  0.21504736  0.19806167 -0.0477871  -0.01274945
  0.21256691  0.38749623]
[-0.49855024 -0.42589253  0.3349461  -0.0135091   0.36223045 -0.03133143
 -0.00563782 -0.32041883 -0.3379432  -0.44692704  0.3584553  -0.312313
 -0.08226125  0.41517657 -0.02468851  0.15831609  0.33623785  0.10964049
 -0.29433137  0.2101504 ]
[ 1.39418736e-01  8.47434849e-02 -7.90594965e-02 -3.56794506e-01
  5.12387815e-05  2.68828034e-01  3.23529899e-01 -5.61217479e-02
  1.75551757e-01 -1.43324122e-01  1.17774494e-01  3.36120933e-01
  2.04762727e-01  1.04587518e-01  1.29763722e-01  3.36834951e-03
 -2.68621564e-01 -2.67358273e-01 -2.16084957e-01  1.81122079e-01]
[ 0.30576786 -0.00228849 -0.34479317 -0.2203494  -0.09332149  0.25397736
  0.29612592  0.22575204 -0.21216114 -0.25267348 -0.1490743   0.2772666
  0.40703997 -0.14956252 -0.4199026   0.19731887 -0.11706553 -0.13701811
 -0.08218753  0.1641565 ]
[ 0.11475634  0.39631367 -0.44111064  0.19609553 -0.24685334 -0.17232405
  0.10089004 -0.3171309   0.22040096 -0.21306667 -0.03282705 -0.1843753
 -0.02745328 -0.2834907  -0.09888811 -0.2741101  -0.31599632 -0.21818951
  0.07895962 -0.19218142]
[-0.17222993 -0.04271428 -0.00168638  0.17200504 -0.21160105 -0.05493873
  0.2670648   0.02057844  0.12082864 -0.15755951 -0.1051525   0.32336026
 -0.12155674 -0.21243957 -0.35178113  0.11581428  0.29976982 -0.22700681
  0.34289008 -0.36248225]
[ 0.23749784  0.26254985  0.348165   -0.02098802 -0.37560406  0.2859835
 -0.08634324 -0.16985935  0.2448133   0.00929886 -0.31716228  0.31388226
 -0.13702953 -0.10005605 -0.20353061 -0.21966982  0.04135875  0.3272187
  0.1015561   0.31150118]
[-0.06540121 -0.32085025  0.15584084  0.03538045 -0.07514213 -0.02727347
 -0.21049207 -0.23336534 -0.018245   -0.19790396 -0.4447545  -0.11114874
 -0.24956478  0.01268706  0.3408306  -0.11264021 -0.1346527  -0.25917292
 -0.27728382 -0.21271138]
[-0.30620226 -0.35508835  0.3295231  -0.15225855 -0.2773953   0.2169028
  0.11390287  0.02969267 -0.05500121  0.03785314 -0.37584737  0.21092951
  0.00553985  0.03519148  0.01309043  0.21405885  0.15936793  0.12420002
 -0.39202246  0.06767973]
[ 0.18169555  0.03296013 -0.11564463  0.39746866  0.4180285   0.08543474
 -0.33193162  0.3056965   0.13240924  0.27164626 -0.22209546  0.09469123
 -0.394663    0.2869886  -0.08407908 -0.26068056  0.28425986  0.33597293
 -0.17530777 -0.20890597]
[-0.05780873 -0.07667776 -0.10794555 -0.00149621 -0.14391504  0.09525292
  0.03867946 -0.08156021 -0.45700353  0.15197517  0.08586884 -0.61502784
 -0.1337204   0.03982003 -0.50962174  0.1926406   0.16372804  0.24088347
  0.06256305  0.27819523]
[-0.20348746 -0.10504927  0.27563307  0.35034505 -0.16564266 -0.08802824
 -0.15520239 -0.03540314  0.01496898 -0.29340312 -0.20970576 -0.1294545
 -0.23329154 -0.01146957 -0.1444052   0.22295737 -0.28689986 -0.03275942
  0.12095652 -0.35224563]
[-0.08061986 -0.20050423 -0.06717645 -0.3525286  -0.22525387  0.38003048
  0.26508072  0.2181455  -0.1109489   0.39286467  0.13176078 -0.5882802
  0.13377257 -0.29023296  0.5202285  -0.1769047  -0.6083461  -0.6983491
 -0.22014502  0.27015123]
[-0.5129691   0.5280856   0.21675313 -0.15971772  0.44843897  0.5228111
  0.03612334 -0.44100416 -0.24789467 -0.3040379   0.4038871   0.53499985
  0.00545211  0.2393265  -0.13084953 -0.10033914  0.3581982  -0.20732261
  0.19236352 -0.3089694 ]
[ 0.21592648  0.03894753 -0.11397511 -0.21856692 -0.26142237 -0.31602553
  0.29660153  0.05227941  0.47560215 -0.07082095 -0.3473475   0.49033242
  0.08171874 -0.26375648 -0.22067647 -0.2120946   0.39860216 -0.5554184
 -0.43232745  0.34666649]
[ 0.02190816 -0.2383909  -0.27787906 -0.22799344  0.19286321  0.03559647
  0.1484588  -0.20729259  0.1167061  -0.14443615  0.41358498 -0.06501944
  0.41349027 -0.28188682  0.3292692   0.10727646  0.20581107  0.34436598
 -0.01855627 -0.1064992 ]
[ 0.09890354 -0.10161939 -0.05473877 -0.11351136  0.1475779  -0.1787367
  0.33640653 -0.2224186  -0.29428035  0.04725466  0.08855072  0.24204773
  0.1945887  -0.2550095  -0.07153219 -0.18151833  0.2543883   0.08455937
 -0.22019015  0.10013544]
[ 0.2110151  -0.46323946 -0.394683    0.19534859 -0.13261631 -0.26847252
 -0.04302214 -0.48177722  0.00653664 -0.20419396  0.20762767 -0.02197123
 -0.14876579  0.10160337 -0.3005995   0.26951417 -0.15133183  0.32738027
  0.12083109 -0.16277027]
[-0.26410505  0.20041388  0.26810098  0.24997634 -0.10796621 -0.24497941
  0.31364274  0.09761252 -0.30006215  0.0602245   0.1335344  -0.24911754
 -0.49148378  0.26414838  0.07555284  0.06083029 -0.29907304 -0.07404803
  0.30049175  0.13174115]
[-0.04945449 -0.02742527 -0.00243315  0.01283953  0.02493439 -0.01874681
  0.01581788 -0.09612603  0.00851303 -0.00786402 -0.03600861  0.00601356
 -0.01508197 -0.06929498 -0.01074454 -0.10979286  0.06389356 -0.07707039
  0.0442944  -0.00428516]
layer 1 Activation
tanh
layer 2 Dense
20 40
[-0.09581605 -0.22047472  0.390931   -0.02396555  0.03423107  0.14671946
 -0.35630986 -0.06256009 -0.11808175 -0.0376647   0.06005188  0.13341378
 -0.04072689  0.11444076 -0.3069902  -0.10870048 -0.12665352 -0.0359051
 -0.13397856 -0.10329387 -0.23255289  0.26503527 -0.18062007 -0.23957658
 -0.25161147  0.1672476  -0.14163974  0.30412772 -0.27457544  0.06519137
 -0.48840803 -0.24081351  0.11074033 -0.00996374 -0.11417461  0.07068893
 -0.35667157  0.39091888 -0.04326933 -0.27745202]
[-0.04557077  0.07826444  0.16242626 -0.02266886 -0.22880569 -0.07564677
 -0.12453554  0.33267215  0.06840357  0.24922436 -0.16110776 -0.27789766
 -0.08638188  0.06743909  0.25823373  0.25457835 -0.21515459 -0.09420601
  0.24776365 -0.29509673  0.2808851  -0.26506272 -0.22232065 -0.13686554
  0.29882056  0.21969081 -0.23644966  0.14730018  0.286901   -0.00444977
 -0.05114238  0.08438108  0.10962591  0.1732971   0.18744107 -0.06856574
  0.2982108  -0.1684276   0.07369017 -0.17036086]
[ 0.0154687   0.07133041  0.19303021 -0.18923384  0.0653248  -0.3583687
 -0.09865349 -0.02339491 -0.07482409  0.01536645 -0.15012471 -0.13786702
  0.10933568  0.3226124   0.09812744  0.23026446 -0.00970038  0.0402654
  0.09180813 -0.0663049   0.16305864 -0.03165803  0.23498881  0.12594081
 -0.02347364 -0.00934145 -0.03152398 -0.25209495 -0.24353217  0.0176799
  0.2653071   0.24888606  0.05846729 -0.16966537  0.0283393  -0.12418235
  0.20333157  0.15036544 -0.09659706  0.03197012]
[ 0.30948228 -0.04608928 -0.03354809  0.12333661  0.11540817 -0.10141215
 -0.27250656 -0.05864462  0.24521066 -0.02635168  0.19107823  0.19809492
  0.16318065 -0.18428323  0.14518192 -0.20561388  0.20209979  0.20675342
 -0.29759887 -0.02106359 -0.01413382  0.15815416  0.16178796 -0.13629444
 -0.22779532 -0.23880859 -0.21148986  0.18086909  0.2936951   0.0668193
  0.01066069 -0.13285093 -0.17692389  0.11152831 -0.33420634  0.02681354
  0.16591759 -0.02714679  0.07996787 -0.19665487]
[ 0.17533882 -0.25152332 -0.1851448   0.20320354  0.09671993  0.22421609
  0.20275815  0.1271845  -0.32475552 -0.25809664 -0.07450441  0.10166685
  0.27596596  0.32708773  0.0888166  -0.30273932  0.23991725 -0.15572484
 -0.06614556 -0.31312042  0.39438912  0.1468468   0.34710336  0.08317646
 -0.23597746 -0.19802369  0.03384249 -0.1312345   0.03581218  0.23970954
  0.21926992  0.0674586   0.22228454  0.22435464 -0.13897252  0.17933498
 -0.00453598  0.11983639  0.1921083  -0.13181123]
[ 0.10835158 -0.05667168 -0.16641021 -0.13142389  0.05808713  0.17127189
 -0.12433762  0.2738814   0.11879839  0.11064661  0.10990048 -0.09253078
  0.15504389  0.29210275  0.29752338 -0.03261729  0.25084046  0.2995297
  0.32314396 -0.1255881   0.09971145  0.21992609  0.37099347 -0.16359438
  0.30621234  0.2535393  -0.1541503   0.02308788  0.23218085 -0.11098297
  0.03728459  0.1305215   0.262401    0.24082385 -0.11306884 -0.05512339
 -0.26200256  0.10634653 -0.15903021  0.10485954]
[-2.7265745e-01  3.2708988e-01 -1.6760176e-01 -1.6829988e-01
 -1.9229767e-01 -1.0811805e-01  2.3016113e-01  5.9124015e-02
 -1.8385649e-01 -7.5752743e-02 -3.0482361e-01 -2.7428699e-01
  7.5675376e-02  5.4901004e-02 -9.2523493e-02 -2.1177338e-02
  2.3449463e-01  1.5737709e-01 -1.4829841e-04  4.3006491e-02
  1.8898816e-01  2.3704110e-01  1.2956560e-01 -7.9460368e-02
 -1.3957563e-01  2.3651794e-02 -3.1059204e-02  1.1007790e-01
  1.3195154e-01  3.5409990e-01 -1.6701347e-01  2.0868820e-01
  2.8665420e-01  1.0093148e-01 -1.3469876e-01  6.3682094e-02
 -2.5039611e-02  1.5093589e-01 -1.6289186e-01  1.4596879e-01]
[-0.05623227  0.04131716 -0.1973393  -0.27412105 -0.28114206  0.35469216
  0.12815776 -0.2471487   0.05186453  0.14565657  0.05581161 -0.17251024
 -0.04543876 -0.11277483  0.15442526 -0.34296355 -0.14645438 -0.08653132
  0.15232542 -0.09707218  0.09022051 -0.10440732  0.25284883 -0.07920755
  0.23379879  0.01731286 -0.24877664  0.20660685 -0.17037553 -0.24087219
 -0.0866989   0.21104272 -0.08499485  0.25229758 -0.16289294  0.0569306
 -0.30028513 -0.11415289 -0.0759199   0.26110584]
[ 0.14555807 -0.15621507 -0.08812731  0.20217444  0.11412782  0.29679245
 -0.22452985  0.16190092 -0.0883107  -0.22964336 -0.05000059 -0.19106093
 -0.27953207 -0.24956165 -0.45119095 -0.15986966 -0.06354404 -0.19486369
  0.07521671 -0.05111009 -0.31130192 -0.04044082 -0.1564615   0.1724796
  0.05107116 -0.23001316  0.27171212  0.1797775   0.13399197 -0.03725746
 -0.18344225 -0.23331647  0.09019302 -0.10477559  0.18086062 -0.00391596
 -0.41611516  0.21043876  0.09396038 -0.23524645]
[ 0.2543711   0.10853606 -0.06142914  0.09579115  0.09456503 -0.01116304
 -0.1330226   0.029596   -0.24587604 -0.07121744 -0.26419133  0.06561106
  0.01708155 -0.1949182   0.10745484 -0.4063852   0.13485703 -0.02774918
 -0.1625629   0.18203397 -0.01907079 -0.10897297 -0.27894494  0.13074099
  0.08340774  0.15638338 -0.12972593  0.05709802  0.33609512  0.26690656
 -0.20953001  0.14773087  0.22378531 -0.00652701 -0.14402546 -0.20908628
 -0.17798087 -0.2298675  -0.12771033 -0.29133826]
[ 0.04116912 -0.15121788  0.07237301 -0.2566301  -0.13677628  0.2862161
  0.17171526 -0.26627898  0.08634432 -0.2771714   0.23886618  0.19886833
 -0.09728013 -0.19403131  0.247749   -0.14672127 -0.08486585  0.1525054
 -0.22293559  0.17756648  0.19499208  0.16073106 -0.33814353  0.03513816
 -0.07680393  0.25034568 -0.2973977   0.18032518 -0.1647554   0.0131004
  0.3139373   0.21183619 -0.05776932  0.1088821  -0.00695829  0.0439078
  0.21329464 -0.27755198  0.26387727 -0.12290697]
[-0.22070535 -0.23353413 -0.267848    0.27409595  0.24960026 -0.22991021
  0.3022648  -0.09059972  0.21213543 -0.17221767  0.06743699  0.10013998
 -0.22451507  0.3664587  -0.14820726  0.218915   -0.00353649  0.18091762
  0.2582648   0.24969587  0.37312418 -0.25780794 -0.2785514   0.20064798
 -0.03941888  0.19217828 -0.19858244 -0.32229933 -0.19371065  0.16740781
  0.26913154  0.25621387 -0.31521982  0.2726623   0.03583172  0.03426804
  0.20566137 -0.08084232 -0.06727808  0.21440554]
[ 0.14356306 -0.08723179 -0.03547562  0.17559372 -0.02636064  0.1796031
 -0.02319424  0.2540099   0.05050161  0.01793434 -0.0524315  -0.07615648
 -0.25944877  0.32763338 -0.23981264  0.19864179  0.24981487  0.07052901
  0.00206959  0.17417057  0.17065273 -0.09738982  0.19848347 -0.01823666
  0.20390241 -0.2738396  -0.26256818 -0.02852254  0.3323146   0.11611842
 -0.21285224 -0.03164473 -0.08611041  0.23543246  0.14296629 -0.31745282
  0.1891457  -0.05986974  0.21240802 -0.10329975]
[-0.17369914 -0.00435986 -0.18173203 -0.01953939 -0.3063523   0.13001801
 -0.13527893  0.28785276  0.05398463  0.17733003  0.13326353 -0.09226007
  0.1281415   0.24030668  0.05376702 -0.04037179  0.25777638  0.14133437
 -0.25739753 -0.05080741  0.23732372 -0.02756185 -0.12102281 -0.31033847
  0.15031217  0.14949225 -0.18902485 -0.01858865 -0.2296632   0.22613566
  0.02991685 -0.23576187 -0.02014558 -0.06369445 -0.05736365 -0.22329575
 -0.07677224  0.01030235 -0.21254607 -0.26857218]
[ 0.25577176  0.16497199  0.00974899  0.10475012  0.13484906  0.34187096
 -0.3585791   0.13477357 -0.09658268  0.06813435  0.09275404 -0.18325244
  0.0259054  -0.18155189  0.07905689 -0.32019922  0.2721798   0.00588168
 -0.13195309  0.22899765 -0.06756246  0.02436731 -0.28802648 -0.15405999
  0.22590229  0.20740905 -0.04129573  0.34845608  0.09129571 -0.03325284
  0.28469434 -0.32549483 -0.24222864  0.05985573  0.08402165 -0.01015482
  0.2902402  -0.1400213   0.29776156  0.00592659]
[ 0.27823728  0.16955334  0.27307433  0.20241602 -0.14671782 -0.02809778
 -0.24859169  0.11818497  0.03174008 -0.15005584  0.18675493  0.13006519
 -0.17918488  0.18665563 -0.25735167 -0.009952   -0.19971053 -0.01448181
  0.21092698 -0.16940364  0.02463413  0.14638843  0.23343298 -0.0456292
 -0.29485652 -0.18928772  0.00536634 -0.29465798 -0.08110618  0.05477983
 -0.1477023   0.14876655 -0.17895591 -0.2988637   0.01862976  0.25978267
  0.01777648  0.09443702  0.07530776 -0.02564981]
[-0.17422333 -0.2171168  -0.00998565  0.31217715  0.2658716  -0.19408539
 -0.04468189  0.20986249 -0.1456615  -0.3098473   0.11647127  0.13149099
  0.14585057  0.30669487 -0.2678997   0.1534496   0.3101514   0.10920709
  0.11020352 -0.3063048  -0.02013125 -0.20630592  0.27002838 -0.19660404
 -0.14451604  0.30523208 -0.10779098  0.20950237  0.09416912  0.21185279
  0.36751074  0.12651448  0.00149653  0.13148947  0.12140232 -0.04529428
  0.0559989  -0.15976171 -0.10466197  0.04993124]
[-0.00681886  0.02862852  0.08570026  0.12446931 -0.25087652 -0.52525795
  0.04143692  0.31444997 -0.20818537  0.02404235  0.14339226 -0.0590024
 -0.14523591 -0.32096085 -0.03403642 -0.20171899  0.31642395 -0.03965855
  0.10453891  0.2239259  -0.00687038  0.177106    0.35247916  0.04980727
  0.11474863  0.28514305 -0.03880766  0.09796496  0.24456912 -0.30260438
  0.15281266  0.09857658  0.49336594  0.1933832  -0.4812534   0.04693855
  0.02769965 -0.04769445 -0.04703641  0.11060079]
[ 0.21525851 -0.09437177  0.05629404  0.16512941  0.154521   -0.13156356
 -0.28379628  0.26560053  0.09765662 -0.27910218  0.23010017 -0.04820932
 -0.26407808  0.24451418  0.12430789 -0.25057173  0.1290245  -0.12841733
  0.17522217  0.1023104   0.34908354  0.16013448 -0.23616332 -0.22279038
 -0.19328246 -0.2791528   0.02001708 -0.13110425 -0.15094137  0.25256723
  0.11349357 -0.10736408  0.03682609  0.25069767 -0.2179161  -0.00632737
  0.0224674  -0.27585977  0.03991948 -0.30574968]
[ 0.04691498  0.13214286  0.09654465 -0.22264744 -0.01847478  0.32410374
 -0.19438979 -0.33848634  0.37210765 -0.21352874 -0.23150003 -0.1394845
 -0.24406669 -0.04450012 -0.23655273  0.0800929  -0.26878974  0.28555083
 -0.03038942 -0.01812468 -0.05184635 -0.03974012  0.22373667  0.13674466
 -0.25192443  0.2226429   0.11243478 -0.14995176 -0.1962342   0.20131685
 -0.19169173 -0.2375541  -0.24293606 -0.15896338 -0.1432344   0.27491066
 -0.09374608 -0.13269168  0.08748554  0.21402189]
[-0.0202977   0.02201105 -0.03654786 -0.00715416 -0.02237525  0.09035812
 -0.01412828 -0.00580899 -0.19280839 -0.01728886  0.01436658  0.00827137
  0.01678617  0.05275053  0.03392465 -0.03372502 -0.00870053  0.05567194
  0.03624241 -0.01861934  0.09496711 -0.00041823 -0.09336815 -0.01011387
 -0.02068111  0.00170876 -0.09454329  0.02255653  0.04876054  0.05296531
  0.03582167 -0.00146456  0.04277536  0.00927239  0.00879028 -0.01755746
 -0.02657512  0.04552144  0.02742564 -0.00477345]
layer 3 Activation
tanh
layer 4 Dense
40 20
[ 0.28414458 -0.1541671   0.03712445 -0.21883182 -0.12058683 -0.34770212
 -0.09607727  0.15770651 -0.09006333 -0.03318819 -0.29190472 -0.20085625
 -0.06145582 -0.16004036 -0.08199184 -0.20814274 -0.21728055  0.1266425
  0.26854715 -0.2821909 ]
[ 0.25857788 -0.252127    0.27441955  0.07361475  0.02428821  0.11561239
 -0.09274813  0.09512396 -0.11260241 -0.11052482  0.30352134 -0.04375283
  0.10709924  0.06372168 -0.3312679   0.07067015 -0.01963232 -0.11406177
 -0.2242977  -0.21590215]
[ 0.30811244 -0.11761361 -0.26934648 -0.19092505 -0.04108969 -0.25167677
  0.2656658   0.26386526 -0.05711652  0.16984336 -0.2005428  -0.05927385
  0.07958777  0.19952467 -0.08166683  0.13298292  0.05206866  0.2434125
  0.27597728 -0.18543948]
[-0.1469226   0.14872538  0.0348505  -0.1685797   0.10364704 -0.12072483
 -0.2719811  -0.17074457  0.2162202   0.3408955  -0.06916247  0.17930505
 -0.0285574   0.21048746  0.08791254  0.02343729 -0.20283012  0.2383736
 -0.13226463 -0.04189534]
[-0.00827833  0.0778528  -0.19856614 -0.18777332  0.25301275 -0.26960766
 -0.20146687  0.1918343  -0.17486826  0.20783834 -0.23069823 -0.27599558
  0.08133768  0.19746053  0.01043305  0.07987142 -0.20735246 -0.24437523
 -0.24649844  0.10119408]
[ 0.04403202 -0.30142242 -0.02905802  0.23506992 -0.04624992  0.05993744
  0.17755578 -0.19417493 -0.30864972 -0.18569364  0.2817998   0.23958564
  0.2674798  -0.17704031 -0.145295   -0.28841335 -0.16008292  0.2406383
  0.26693338  0.12124544]
[-0.18027943  0.04033235 -0.17110601 -0.1204008  -0.18656453  0.27690557
  0.27802306 -0.38326663  0.09057367 -0.12053472 -0.14612538  0.27710703
 -0.21303053 -0.20774423 -0.28435063  0.20553541  0.25642958  0.26773483
 -0.29591185 -0.24243851]
[-0.04088895 -0.07193851  0.01647632  0.02923551  0.06173696 -0.14481387
  0.20369737  0.08029148  0.12214138 -0.0550529   0.21263859  0.30121484
 -0.2676335   0.28254902  0.22507097  0.07024488  0.32278493 -0.21391568
 -0.2280356  -0.05842793]
[ 0.2634418   0.27958834  0.18828811 -0.09982642  0.1882635  -0.24768092
 -0.12856853  0.13361694  0.00513685 -0.2611348   0.09696957 -0.0520351
 -0.14412598 -0.10704406 -0.20015603 -0.15235211  0.09764154 -0.09409396
 -0.2556088   0.13712469]
[ 0.39595708 -0.05876876  0.16840383 -0.20113872  0.23784317 -0.10136337
  0.40538257  0.17202364 -0.4034577  -0.11310439 -0.00101789  0.03715865
 -0.16866317  0.18745211  0.18798178 -0.08723865 -0.05393011 -0.27155384
 -0.057843    0.12613037]
[-0.17221977 -0.08128176 -0.20685126 -0.12526028 -0.02231211 -0.3047621
 -0.09308532 -0.2946409  -0.35649067  0.00799543 -0.4116463  -0.12887506
  0.19248268  0.29759598 -0.13729915 -0.31916133 -0.01451284  0.1126271
 -0.05586617 -0.05832676]
[-0.23475742  0.19373134 -0.24283867  0.22703157 -0.27577803 -0.15998581
  0.14864033  0.02248534 -0.15460572  0.20239785  0.2063771   0.030363
  0.40160015  0.15999761  0.03551078  0.20526955  0.19227771  0.28277552
  0.04319482  0.08743361]
[-0.19446222  0.20396852  0.23917796  0.14583108  0.1752018   0.11609039
 -0.2651599   0.265775    0.12314024 -0.10768684  0.01466995 -0.15787408
  0.22313571  0.0084731  -0.04482549 -0.05680368  0.18129322 -0.14185771
  0.05004413  0.1298748 ]
[-0.15964414 -0.04937967  0.20416334  0.03124923 -0.07159898  0.32177326
  0.22711524 -0.11374298  0.2713425   0.12234291  0.2259981  -0.0869831
 -0.18911733 -0.18065728 -0.04134206  0.31297198  0.13631804  0.33515686
 -0.30130413 -0.02775348]
[ 0.3089098   0.07563417  0.22159682  0.25256452 -0.02801328  0.035514
  0.1279251   0.16725366 -0.05974041  0.23767781 -0.07776132  0.018396
 -0.2783603   0.2539402  -0.19130734 -0.17155159 -0.2268805  -0.07508706
 -0.2265048   0.10220675]
[-0.21533634  0.26968443  0.0629814  -0.25924346  0.2741591  -0.07289648
 -0.25722328 -0.10701907 -0.1217634   0.12635912 -0.20683467 -0.1457048
  0.27320823 -0.07056478  0.30683792  0.18169366  0.2596774   0.02598422
 -0.27577364 -0.1911789 ]
[ 0.20344877  0.03715093  0.27570215  0.19247673  0.10559472 -0.06534354
  0.11572911 -0.06760559  0.3092624   0.31451315  0.10362361  0.12394419
  0.22936517 -0.17449805 -0.11319231 -0.00761373  0.3211782   0.28332824
 -0.01223682  0.04154861]
[-0.18527228 -0.1112654  -0.07372627 -0.0021721   0.15958695 -0.32085818
  0.06725369 -0.27934012 -0.02162248  0.21034023 -0.16299997 -0.16652407
  0.07344542 -0.13750006 -0.03996114 -0.27487972 -0.17359175  0.2598153
  0.30156478  0.07884087]
[-0.05872235  0.25935176  0.20325176  0.1775658   0.3066992   0.31440866
  0.14149192 -0.02722771 -0.02434051 -0.24460997  0.02473311  0.13607281
 -0.18277992 -0.14293708  0.18839985  0.26135293  0.05065532  0.13782193
 -0.10320157  0.25707456]
[-0.17288837 -0.00670492 -0.06094369 -0.30757073 -0.23960829 -0.18457681
  0.19171356 -0.20596363  0.24987791  0.01018963  0.15413487  0.06197172
 -0.08745782 -0.14570902 -0.16252965 -0.18650845  0.12259744  0.2304504
 -0.05576642 -0.15384696]
[ 0.19475117 -0.04302773  0.19411018  0.30951786  0.23881015 -0.13773575
  0.04307172 -0.02989818  0.1764954  -0.0727057   0.01814494 -0.06040746
  0.09960833 -0.2722413  -0.29787803 -0.11401723  0.1443977   0.27993658
 -0.34846416 -0.23990111]
[-0.01140111 -0.06338301 -0.1637008  -0.14620428 -0.25820157 -0.2333479
  0.1202613   0.1309667   0.10012939 -0.10079512 -0.10078825  0.08689564
 -0.30982405  0.08589429  0.34773538 -0.21001478 -0.07298561 -0.06908028
 -0.05767773  0.07696621]
[-0.26018077  0.17368118  0.14241917  0.06413225  0.20131089 -0.24268712
  0.04011177  0.12492689  0.14834069  0.34910133 -0.38251695  0.25193557
  0.07366826  0.16045707 -0.12580541 -0.13122202  0.19928406  0.17634422
  0.18004785 -0.04463954]
[-0.05898119  0.06626203  0.04772164  0.02159096  0.08249416  0.01879187
  0.13438942  0.08949411  0.17914724 -0.19286011  0.140248    0.01168268
 -0.23896672  0.2743427   0.06422465 -0.01841659 -0.21096307 -0.05968019
 -0.24628764  0.19864242]
[ 0.11290425  0.28239304 -0.07022638 -0.22545904  0.14074728  0.10292807
 -0.05246205  0.01224584  0.17957953  0.14893337  0.27045774  0.14863779
 -0.11273867 -0.2533068  -0.06201715  0.01858605  0.12626003 -0.20121422
 -0.06594391 -0.04019857]
[-0.04147775  0.04679333  0.12358178  0.16598985 -0.0968921   0.13398288
 -0.2531047   0.3110932  -0.01876573 -0.01379205  0.04732674 -0.17820564
  0.19268867  0.07281861  0.29044408  0.25854787  0.24917655  0.00330639
 -0.24444948 -0.17635581]
[-0.2544018   0.16617978 -0.08744982 -0.2941171  -0.2580572  -0.17381364
  0.2692452   0.21297896 -0.33166215  0.19456868 -0.01424193 -0.16429128
 -0.24985166 -0.03217217  0.21514784 -0.27674097 -0.16328488 -0.04569001
 -0.08944967  0.09549591]
[ 0.15491496 -0.11767976 -0.25649017  0.26255995  0.12887858 -0.30251893
 -0.08796623  0.10946069 -0.21060139  0.3408208   0.2959424   0.01139556
 -0.16877511 -0.09737816  0.09034112 -0.29316893 -0.14009075 -0.16271763
 -0.08356692 -0.26448157]
[-0.31909212  0.15288755  0.08052225  0.25326228  0.28966615  0.29994944
  0.02434015 -0.17587565 -0.21027562  0.0847178  -0.25307068 -0.09340654
  0.01594999 -0.21054234  0.20659949 -0.1594322  -0.01244796  0.23469211
  0.23318599  0.30811056]
[ 0.02213929 -0.01649098  0.05522969  0.33545575 -0.2750001  -0.05006458
 -0.0881876  -0.19976252  0.3682477   0.21088652 -0.00480462  0.29827318
  0.2263314  -0.35455862 -0.18436748 -0.16336328  0.16414791  0.17890784
 -0.06168742  0.0724005 ]
[-0.32196888  0.15281475  0.29499215 -0.03475395 -0.07254536  0.20946167
 -0.23076473  0.33564314  0.3171283   0.2530288  -0.17264718  0.25197154
 -0.17210983 -0.15873899  0.0952705   0.11257159 -0.10883213 -0.18759698
 -0.08734728 -0.24447598]
[-0.32235903  0.24541296 -0.23506622  0.19962625  0.11710362 -0.07094093
 -0.12861086  0.23287518  0.02936694  0.26006347 -0.07348213  0.19251345
  0.10744387 -0.18637618 -0.03188266  0.11192621  0.2370575  -0.20687307
 -0.2296644  -0.30247223]
[-0.12640962  0.17018391 -0.13123295  0.13666087  0.15563783  0.19528769
  0.13540943  0.32714313 -0.13958631 -0.09676619 -0.2268008  -0.17488109
 -0.07113683  0.12015279 -0.26164195 -0.11888535  0.1694712  -0.14777738
  0.01081264  0.14856578]
[-0.22906797 -0.00306218 -0.17764926  0.15608074  0.16060236 -0.08831494
 -0.11227819 -0.06089239  0.11581608  0.00194416  0.15694512 -0.1583172
  0.2303339  -0.03742676 -0.19376972  0.0728238   0.3789477   0.2731842
 -0.26836565 -0.25260141]
[ 0.01234144 -0.16712289 -0.19375359 -0.25985193 -0.28699127 -0.22340766
  0.00919879 -0.29586     0.27217838  0.0916189   0.07049558  0.14190704
  0.22249399 -0.04821569 -0.22881112  0.07018445 -0.22246224 -0.2606403
 -0.37429932 -0.31903455]
[ 0.1460492   0.19769065 -0.08636336 -0.15107936 -0.03284309  0.12565948
  0.11160961 -0.10584765 -0.04061056 -0.33320805 -0.06207034  0.24063537
 -0.05989461  0.16250655 -0.23953086 -0.0434898  -0.03871407 -0.14128661
  0.11938134  0.27102798]
[ 0.13718677  0.25865313  0.3028649  -0.2840984   0.0882868   0.04810029
  0.07955576 -0.22165643  0.00426978  0.00644182  0.0709962   0.18108226
 -0.26650783 -0.30312595  0.21294035  0.04985129  0.23643455 -0.09702741
 -0.06743915  0.18306574]
[ 0.20402028 -0.24581145 -0.00301103  0.11898479 -0.17029533  0.1871716
 -0.08030429 -0.00120108  0.12737492 -0.22669794  0.20502877 -0.16531603
  0.08010181  0.24227534  0.10749155 -0.21807379 -0.22642228  0.03575789
 -0.2567599   0.09295941]
[-0.0705319  -0.01106854  0.16195455  0.2543703   0.32247922 -0.01170693
 -0.27173647 -0.16690595 -0.02150569 -0.21499161  0.26334763  0.07234069
 -0.23443337 -0.23397587 -0.20765339 -0.04846271  0.20657921  0.19223182
  0.25091735  0.1048497 ]
[ 0.11563607 -0.0391244  -0.10336731  0.03592303 -0.16902646 -0.14402063
  0.2145845   0.3207436   0.11008437 -0.0599676   0.1153838   0.03118814
  0.2421138   0.06206498 -0.38692904  0.13829854 -0.03936769  0.01537132
 -0.08581226 -0.17738019]
[-0.02105674 -0.02273967 -0.0081141   0.07642006 -0.02064459 -0.02408721
  0.01128148 -0.05194464  0.01018683  0.01520019 -0.02004452  0.0042822
 -0.01055953 -0.02445074 -0.00522786  0.01535646 -0.01000825 -0.01427264
 -0.02076964 -0.00132137]
layer 5 Activation
tanh
layer 6 Dense
20 1
[-0.1031286]
[-0.34806436]
[-0.34639716]
[-0.3500453]
[0.23938634]
[0.00630235]
[-0.08722617]
[0.26469076]
[0.01896269]
[-0.0435717]
[0.06885228]
[0.25767133]
[0.16114476]
[-0.28207478]
[-0.03928991]
[0.08725946]
[-0.1614838]
[0.1806262]
[-0.27918243]
[0.25000793]
[-0.00028087]
