layers 7
layer 0 Dense
20 20
[ 0.27757534  0.36804616 -0.17533094 -0.03224032  0.3013331  -0.05021
  0.22957976 -0.00882437 -0.056692    0.26609614 -0.25888446  0.21063168
 -0.11342248  0.11263117 -0.01357669  0.04828374  0.16441178  0.27405193
  0.18168023  0.10823352]
[ 0.15657045 -0.3606604  -0.04976612  0.24236478  0.079932    0.16961335
 -0.37247506 -0.20583802 -0.02632453  0.24132997 -0.00108605 -0.14354059
 -0.343542    0.21184434  0.24304396  0.15679102  0.17873216 -0.30128223
 -0.33284715  0.05335925]
[ 0.3237609  -0.21358134 -0.02680732  0.20482124  0.38253868 -0.2531771
  0.20956677  0.30246437 -0.34345582 -0.08219627  0.07950353 -0.2908792
 -0.04026216 -0.25972056 -0.04533124 -0.36182323  0.33774328  0.1535768
  0.06991781  0.03173203]
[-0.2370472  -0.09013442  0.08405347 -0.1685855  -0.25212494  0.22280754
 -0.03667609  0.27121952 -0.1966525  -0.31279576 -0.02050064 -0.19329108
  0.18489584 -0.00638579  0.14277293 -0.26286867  0.24395202 -0.11890137
 -0.33512563 -0.00114261]
[-0.10501262 -0.00750515  0.01144651 -0.17267755 -0.1926749  -0.14727904
 -0.30343148 -0.04232003 -0.29336566 -0.16879705 -0.20010243  0.2844355
 -0.21624887  0.29204574 -0.04161011 -0.34859106  0.03344169 -0.24307528
 -0.18784076 -0.07197106]
[-0.22220682  0.20701993 -0.04559626 -0.18741407  0.1033071  -0.3835718
  0.02618407 -0.28369722 -0.24121322  0.01966995 -0.10667895  0.3465304
  0.0838469   0.2672765  -0.3213564  -0.21179092  0.19747466  0.01773816
  0.40793532 -0.2504382 ]
[ 0.09375115 -0.22461124 -0.06996816  0.36988238 -0.26371986 -0.23131715
 -0.304016   -0.1305365   0.10027523 -0.13769941 -0.20584175 -0.1329739
 -0.39651018 -0.37061095 -0.07881349 -0.19566213  0.29118365 -0.3201584
 -0.25346833  0.20834142]
[ 0.22622196 -0.3385736  -0.24198408  0.36230424 -0.06294959 -0.24179155
 -0.28865564  0.2560489  -0.2563627   0.02650655 -0.1948212  -0.16468938
  0.1679303  -0.35656995 -0.33072713 -0.30643597  0.02248155  0.20397316
  0.2744771  -0.01413281]
[ 0.04540423  0.01413741  0.28666013  0.07520369  0.36197397  0.14577425
 -0.16655752  0.18346624  0.06862331  0.25131762 -0.18598624 -0.22680043
 -0.01600546  0.11492673  0.20870475  0.27174857 -0.17743602 -0.08494934
 -0.03464916  0.1569105 ]
[ 0.23275633  0.23172536  0.20367526  0.12642382  0.18391167  0.05257729
  0.16719198 -0.1842758  -0.13586688  0.17816052 -0.19098867  0.1523174
 -0.29609364  0.03525857  0.15960987 -0.13726309  0.10895905  0.37699053
  0.17626466 -0.12656814]
[-0.15540895  0.04510654 -0.26275793  0.23089334 -0.25427812 -0.18997636
 -0.06012936  0.27240914 -0.09461787 -0.16898584 -0.2828557  -0.2400784
  0.02166138  0.09141516 -0.1288242   0.3477751  -0.20544872 -0.49186808
 -0.2584452   0.17008501]
[-0.24827999  0.34980914  0.32382426  0.19950059 -0.15753897  0.14700668
 -0.19995563 -0.29085696  0.06343118 -0.02853563  0.04011093 -0.06265125
 -0.23983279 -0.08618027  0.4526437  -0.44842237 -0.1913797  -0.12947284
  0.20531541 -0.15086886]
[-0.28773174  0.11226743 -0.03009312  0.00929641 -0.25712013  0.12898415
 -0.0102121  -0.09567615  0.14444669  0.10212786  0.46736312 -0.24527876
 -0.02327489  0.31802064  0.3381748  -0.05604697  0.2318316   0.33467242
 -0.3155341   0.41230118]
[-0.57081807 -0.01401043  0.16189493  0.26130575  0.17698373  0.40714535
 -0.5631736  -0.27491027  0.02034975  0.23802449  0.24199973 -0.4434526
  0.375926    0.29788613  0.02162508 -0.02949506  0.1722629   0.07959897
  0.30080447 -0.25494832]
[ 0.2481856   0.351924    0.3149914   0.08940133  0.28261322  0.39302576
  0.23785445  0.2321363  -0.04908198 -0.17171142  0.15386868 -0.22906333
  0.00464881  0.13441983 -0.24447684 -0.41717365 -0.05246832  0.45021087
  0.25443032 -0.56756204]
[-0.29461044 -0.15986167  0.13419718  0.24682747  0.17554867 -0.42621002
  0.24690132 -0.43879926 -0.4295831  -0.00408992 -0.16945934 -0.25429717
 -0.41748223  0.00831781 -0.5376027   0.6423172  -0.27077943 -0.09107657
 -0.914988   -0.6414679 ]
[-0.06821691 -0.26649     0.374281    0.0835264  -0.14866172 -0.18958375
  0.25653645  0.14831491 -0.1820012   0.11954792 -0.25744718  0.34966937
  0.16727522 -0.03968873 -0.23924056 -0.13796014 -0.1400827  -0.09473151
 -0.1361956  -0.08589882]
[ 0.3819271  -0.35911694 -0.4710176   0.20823902 -0.21364973  0.14379263
  0.352113    0.04631108  0.1909806  -0.17418182  0.37734988 -0.17171042
 -0.18415195 -0.05498607 -0.14163722  0.05880501 -0.2454924   0.10860687
  0.3667256  -0.24994898]
[-0.29465872  0.02886807  0.06296889  0.0236933  -0.34844318  0.20634861
  0.01625523 -0.21623513  0.27504155  0.06263578  0.22475657 -0.08822113
 -0.24219516 -0.10352074 -0.15568312 -0.16645019 -0.17855245 -0.350555
 -0.50090075  0.26991463]
[ 0.14965636 -0.44280794 -0.00066318 -0.35096034  0.10727938 -0.12284872
 -0.12768908  0.35202459  0.08004612 -0.24203283 -0.09543403  0.35299098
  0.08535639  0.26015252  0.15978093 -0.31577605  0.04487232  0.01422258
 -0.09227858  0.14125524]
[ 0.04171882 -0.03240179  0.04602031  0.00302119  0.00529321 -0.03949556
 -0.02495389  0.00970362 -0.04218848  0.00943597  0.01175898  0.03117869
 -0.03897014 -0.00241382  0.0275662  -0.09478055 -0.08332727  0.05486476
  0.07047338 -0.03598544]
layer 1 Activation
tanh
layer 2 Dense
20 40
[-0.17523795 -0.221491    0.09331018 -0.16470256 -0.19269124  0.0547698
  0.27303922  0.10696334 -0.00127648  0.08899328 -0.17201844  0.14840142
 -0.12911552  0.20046373  0.16994168  0.19336113 -0.17644301 -0.23484254
 -0.0744051  -0.14094062 -0.16046824 -0.12038957 -0.11877954 -0.28966668
  0.10194733 -0.11785851 -0.33314568 -0.06278342  0.10758345  0.36489785
  0.12679765  0.1395297  -0.0158971   0.24563238 -0.27867454  0.10799576
 -0.30309495  0.05479139  0.30457515  0.21064025]
[-0.04977644  0.01176617 -0.1848459  -0.13428816  0.1766541   0.08045775
  0.18726216  0.1406687   0.23866528 -0.27112296 -0.19906086 -0.08872465
 -0.11986899  0.29137996 -0.06790558  0.2415413  -0.16201076  0.00419452
 -0.30532944 -0.07165914 -0.0120576  -0.14952783 -0.25382656  0.17660762
 -0.26224118  0.23855439  0.08057412  0.17312972 -0.28102028 -0.4468318
 -0.06402091 -0.13492921  0.10954107  0.03876799  0.16757376 -0.10841054
  0.1402938   0.22965327  0.19504282 -0.05084963]
[ 0.13109805  0.01729742  0.00457281 -0.32134342 -0.02746252 -0.286183
  0.0228077  -0.29637724 -0.17332527  0.21118265  0.10881942  0.03629943
 -0.16446348  0.07935406 -0.18306069 -0.1588695  -0.2119741   0.01949054
  0.26537094 -0.36785096  0.32368955 -0.03769587  0.08061754  0.00497794
 -0.27681437  0.13312554 -0.00110557 -0.02169118  0.1892436  -0.34033075
 -0.10342984  0.07402788  0.08276379 -0.24981381  0.3116851  -0.23527828
 -0.29325908 -0.13840489 -0.12636128 -0.34061772]
[ 0.22610047 -0.21271335 -0.19190402 -0.09129263  0.17181534 -0.07995526
 -0.16454315 -0.00901435 -0.10483952  0.09499019 -0.07457726  0.12024061
  0.00619916  0.19602217 -0.10239615  0.25923696 -0.02282558 -0.07273658
  0.22744015  0.16002755 -0.18122745  0.20998374 -0.05655808  0.05003664
 -0.09767745  0.25944385  0.2728032   0.08413042 -0.16010335 -0.00523925
 -0.255776   -0.14183125  0.15480518 -0.0316023   0.18449551  0.18392925
  0.07422774 -0.04091014 -0.08247805  0.12435077]
[ 0.07150464  0.41356456  0.42401415  0.02993074 -0.0817629  -0.30690557
  0.00102912 -0.31880713 -0.027369   -0.13872571  0.16849238  0.15189463
 -0.300411    0.06135137 -0.10535936  0.26023883 -0.25435233 -0.14524798
 -0.25322232  0.146497    0.34966123  0.30244634 -0.02874725 -0.27570572
  0.3708572   0.02396964 -0.01292862  0.12954195 -0.09468935 -0.2042824
  0.12227206 -0.10239869  0.27286392  0.20257866  0.19174834  0.29994804
  0.17338078  0.12800375 -0.2637259   0.34545353]
[ 0.26437712 -0.2618916  -0.20627521 -0.08052918 -0.09681873 -0.26728612
 -0.05514619  0.09155594  0.20224817  0.20766664 -0.03144188 -0.06658369
 -0.15536755 -0.15615797  0.1613641  -0.04120144  0.00226802 -0.31402987
 -0.11960617 -0.14510031 -0.08349244 -0.14767636  0.02140807  0.03669509
  0.10715093 -0.22228718 -0.22696452 -0.3449987  -0.08341141 -0.18385479
 -0.20420465 -0.22153494  0.00813929 -0.07433873  0.21345615  0.06871514
 -0.18985993  0.26709178 -0.29750276  0.01828372]
[-0.07146007 -0.07680888  0.2747541  -0.2586696  -0.01107745  0.29206848
 -0.1678973  -0.25019425 -0.19263795  0.2506907   0.03483931  0.25127566
  0.22522311  0.2955773   0.14067766  0.30570838 -0.01398504  0.08658225
 -0.29953256 -0.00376932 -0.00930995  0.22559929  0.2702465  -0.2126371
 -0.24308349  0.10121449 -0.313201    0.27572423  0.03091558  0.07721634
 -0.21265161 -0.20738883  0.00126479  0.04726269  0.06722613  0.06682522
 -0.02851346  0.18671772 -0.24662903 -0.19854006]
[-0.00732724 -0.27067977  0.360466    0.1201532  -0.08066562  0.09841598
 -0.04272651 -0.10401967  0.19168784  0.14504997 -0.20980896 -0.18210031
  0.12028848 -0.26270062 -0.11407048 -0.07488965  0.16712384 -0.32308426
 -0.25482053  0.01892746  0.2356673   0.1818525  -0.31051886 -0.299805
  0.27851158 -0.10750354 -0.17099014  0.26116514  0.23402181  0.3747521
  0.23094179  0.28233302 -0.14494862 -0.1465966  -0.21375939 -0.12200892
  0.13854446 -0.26214638 -0.07877307  0.29996368]
[ 0.16193919  0.11682031  0.16005862  0.15184726  0.04219396  0.01752443
  0.00127342 -0.03469461 -0.19278963 -0.15274332 -0.18757048 -0.01079696
 -0.11919634  0.15590361  0.23915803 -0.22358316 -0.32972533  0.02028028
 -0.32508036  0.12986279 -0.13142031 -0.12575558  0.00741788  0.02653467
  0.15838405  0.05758005  0.2235827   0.37454012 -0.01431381  0.18489848
  0.11914637 -0.10903917 -0.06001025  0.01010725  0.2806322  -0.04559542
 -0.21374284 -0.22548617 -0.22655948  0.16705668]
[-0.14430283  0.06565182  0.1507586   0.22298387 -0.04324894  0.21966015
  0.3483055   0.26284885 -0.17205364  0.2961922   0.28141803  0.1116268
  0.17964049  0.06869668 -0.12938036  0.08642935  0.3322502  -0.2585237
 -0.02509019 -0.18705343  0.15369591 -0.08767445 -0.17670286  0.14029135
  0.04234191  0.13016829  0.21024042 -0.15500046  0.25964084 -0.24985193
  0.03226047 -0.18485658  0.03053958  0.11494016 -0.03551685  0.30838126
  0.13499197 -0.06865568 -0.14103432 -0.4497393 ]
[-0.03965604  0.12166635  0.2842286   0.22671571  0.2366068  -0.26791558
  0.16294152  0.09528027  0.0541738   0.19990966  0.26984206 -0.23905738
 -0.16818221 -0.3187805  -0.25432855 -0.24240462 -0.01778136 -0.05634651
 -0.21487223  0.08145232  0.292153   -0.05376503 -0.01302048 -0.171765
 -0.09445041 -0.08524553  0.25033775 -0.02625378  0.28683007 -0.17819208
 -0.08584675 -0.05257992  0.16009894 -0.17187563  0.21918987  0.07308541
  0.05548272 -0.2890542   0.10573266  0.02461708]
[ 0.01933151 -0.28970468 -0.20198004  0.33692393 -0.18746002  0.24201293
 -0.13441783 -0.08010919  0.41492283 -0.03101573 -0.13037248  0.06263587
  0.0580692   0.14574903  0.10784236 -0.12373573 -0.21617141  0.19817899
  0.21766272  0.16787666 -0.01347743  0.22464392  0.03133001 -0.2754152
  0.02159149 -0.30697525 -0.15441985  0.07739364 -0.20412908 -0.10172177
  0.26122177 -0.15714271 -0.07953136 -0.10841506  0.14920084 -0.09928785
  0.24827142  0.34664035  0.22745982  0.10369965]
[-0.19944829  0.07173569 -0.09985402  0.253544   -0.14949176  0.02163158
 -0.00387609  0.15377092 -0.2377881   0.3004215   0.21749857 -0.05321388
 -0.33409697 -0.21139012  0.25328988  0.1806895   0.07879776 -0.20576404
 -0.1482284  -0.13772337  0.15226077  0.31359267  0.10353569 -0.05108803
  0.19838873 -0.12740965  0.29758134 -0.33632016 -0.02875597 -0.1886227
  0.21879344 -0.32290664  0.01365723 -0.18960123 -0.20487972  0.37081748
  0.11378004 -0.16534664  0.15308683 -0.179685  ]
[-0.2947754   0.05266003 -0.22094463  0.12844455  0.031591   -0.10409307
 -0.29248238 -0.05695796 -0.29514515  0.1336964   0.19550574  0.17957197
  0.08544919 -0.04000866  0.09884333  0.15190548  0.1806133  -0.2079248
 -0.19245023 -0.2386438   0.24474417  0.10310493  0.00594225  0.20827602
 -0.08107487  0.03948603  0.1546827  -0.29305136  0.08005562 -0.01025113
  0.29086754  0.08319479  0.32917547  0.29297706  0.02064205  0.10736636
 -0.02877209 -0.05715287  0.03105458  0.30524027]
[-0.36771467 -0.3038574  -0.18872681  0.25846988 -0.36802167 -0.26574036
 -0.21467464  0.03246918 -0.3089103   0.10277268 -0.26085213 -0.01571239
  0.23714928  0.03540958 -0.0896607  -0.18469486 -0.08581591 -0.08092251
  0.00816381 -0.23572165 -0.07250135 -0.11374412  0.17519729  0.13861565
 -0.13845319  0.22903582  0.16926469  0.20968711  0.06403936  0.10922216
 -0.01107167  0.2705816  -0.20706001 -0.2724214   0.16064443  0.09599558
  0.11645143 -0.05862776  0.31501707 -0.09187716]
[ 0.15827493 -0.2213464  -0.11126371  0.24001111 -0.01625165  0.22583264
 -0.20175312 -0.28907958  0.07435801  0.16457805 -0.2828672   0.13146159
 -0.05484905 -0.14383583  0.24229097  0.30829632 -0.01550738 -0.23267962
  0.1308302   0.04358867 -0.25871494  0.15937337  0.13610157 -0.05409332
  0.05417012  0.24937087 -0.18490714  0.18531306  0.15372495  0.11918043
  0.01912178 -0.27088776  0.22239201  0.1693437   0.14772666 -0.38931242
  0.10933226  0.33379218  0.18294732 -0.2647284 ]
[ 0.3191646   0.1749793  -0.04324277  0.15713994 -0.07564464 -0.16632964
  0.04822505  0.09558593  0.01252823  0.19209191  0.08154888 -0.04621566
  0.25246128  0.2002906   0.09384423 -0.22025506 -0.12614757  0.0114447
 -0.2842117  -0.03317266  0.16342653  0.23082778 -0.15914305  0.07815409
 -0.13595852 -0.22523211  0.21314575 -0.30808452 -0.13289818 -0.01693739
  0.09246984 -0.33022264  0.12091698  0.2089096   0.24142833  0.06772374
  0.03892768 -0.12633559  0.10643961  0.10198318]
[-0.21722147 -0.16273658  0.07680172 -0.3834198  -0.0879783   0.2831508
 -0.11812469  0.07088073  0.20419954 -0.11259161 -0.16147062 -0.24088317
 -0.30027878 -0.09622958  0.2703127  -0.1395396  -0.08017477  0.05924748
  0.27195114  0.08186284  0.09351976 -0.03657939  0.1352023  -0.18630691
 -0.1927858   0.14686199  0.13302952 -0.01544566  0.04201402 -0.14201517
 -0.30289587 -0.2020413   0.17832875 -0.13430655  0.09428261 -0.1941695
 -0.382341    0.10484377  0.07681423 -0.07227089]
[-0.2692056   0.0714438   0.22331013  0.04308904 -0.11602605 -0.20645371
 -0.06126707 -0.18169819  0.14101733 -0.21951681 -0.20159163 -0.01043263
  0.06846771  0.30052686  0.08164441 -0.29601803 -0.09018442  0.2026694
  0.22272605  0.15728916 -0.00249211  0.16809459 -0.32165128 -0.16079406
  0.03646936  0.06520151 -0.18819194  0.08583759  0.04113567 -0.0883861
 -0.09960105  0.27282315  0.13685264 -0.14685275  0.00876488  0.10405141
 -0.3359815   0.12667245 -0.23940936  0.09763775]
[ 0.04075902 -0.4168332  -0.31624007  0.26630765 -0.35556734  0.20129518
  0.46781212  0.15591483 -0.16348575 -0.07163492  0.02555219 -0.35529748
  0.34834713 -0.3182029   0.21867926 -0.2986158   0.00754501 -0.1907545
  0.08621483  0.0971816   0.19664478 -0.17664646  0.24732089 -0.19519438
  0.09068836  0.08563823 -0.33598623  0.46608225 -0.20342746  0.4854976
  0.33370343 -0.09830633  0.04096764 -0.16700661  0.19769283  0.10437692
  0.09036389  0.0998312   0.09820223  0.22773199]
[ 0.00078137  0.02173621 -0.00334344  0.02134479 -0.04524188  0.01509722
 -0.10583051  0.00985739  0.07081801 -0.0141159   0.01659082 -0.03115928
 -0.00687373  0.02233361 -0.01185053  0.00723795 -0.01616316  0.02016421
 -0.02015357  0.00891138  0.02164868 -0.04197685 -0.02763962  0.00171021
  0.00573687  0.00087284  0.00487822 -0.028719   -0.00132461 -0.03702718
 -0.01038375  0.0268399   0.03746794  0.02942704  0.00847078  0.00450084
 -0.05081081  0.04673035 -0.03231298  0.15384427]
layer 3 Activation
tanh
layer 4 Dense
40 20
[ 0.08248414  0.04740572 -0.2844545  -0.07777583 -0.08767568 -0.3119011
  0.11261384  0.10782419  0.18620113 -0.21811704 -0.14402556  0.25005475
 -0.07083089 -0.12518512 -0.2613279  -0.30392742  0.04970956  0.15252489
  0.360731    0.27136907]
[ 0.16135643  0.06025378 -0.06039217 -0.17016126 -0.14467506 -0.17796218
  0.01611442  0.19392037  0.23297746 -0.00461994 -0.30675134  0.26933885
  0.03623564 -0.30581695  0.0795888  -0.06633376 -0.2873493   0.07537797
  0.05300164  0.26648682]
[ 0.03289533 -0.1054308  -0.17979291 -0.09180072 -0.10995186 -0.0308325
  0.28288898 -0.08198208  0.02339958 -0.27308917 -0.16835275  0.17973939
  0.14286691  0.30864167 -0.23368475  0.20273067 -0.15075597 -0.26055577
 -0.32291493  0.26910442]
[-0.1136665   0.0608273   0.19636072 -0.10475979  0.1528217   0.2476552
  0.070478    0.19369826  0.23553753  0.02330616  0.05593887 -0.13763979
  0.16844364 -0.02379072  0.28762883 -0.04553468 -0.10216935  0.04527126
  0.08922333  0.09600974]
[ 0.04510846 -0.03239829  0.280123    0.21682815 -0.14465591  0.21066229
 -0.31346273 -0.21011552 -0.06132439 -0.33204228 -0.17784874 -0.1066815
 -0.18650998 -0.07171709 -0.03130347  0.2425542   0.15121122 -0.22093627
  0.3956116   0.0023895 ]
[ 0.04668503  0.2783895   0.09647397  0.16187018  0.09143246  0.12758248
  0.16768761  0.10503837  0.05331347 -0.19728012  0.17218249 -0.30510226
 -0.04022779  0.13299337 -0.27114958 -0.19045377  0.04450934  0.04587034
  0.03892007 -0.07143606]
[ 0.18478306 -0.0027612   0.00998641  0.4021946   0.41912845 -0.09118342
  0.2813928  -0.13708864 -0.1638871   0.36863798 -0.1240484  -0.01630007
  0.07778901  0.17530859  0.11022475 -0.1668663   0.23225696 -0.29161933
 -0.25784668 -0.15644786]
[ 0.07753029  0.05683726 -0.05463619  0.28044906  0.06451127 -0.06751341
 -0.19925936 -0.21149132  0.29265246 -0.00753354  0.13836862  0.05277606
 -0.21139742  0.1855937   0.23276202  0.17076892  0.20098493  0.26079684
  0.15072519  0.11956608]
[-0.07707563  0.12793307 -0.21186435 -0.02637669  0.03666311 -0.34810507
 -0.291591    0.3105866   0.31014007 -0.21491909  0.18503506  0.10678012
  0.18076485 -0.2190653  -0.33336177  0.18254411 -0.22157334 -0.09118505
  0.2296904  -0.14225969]
[-0.0999733  -0.04184436 -0.09820464 -0.13845505 -0.09410656 -0.24717247
  0.17407846 -0.1244598   0.33229646  0.04290117 -0.07140744 -0.01279789
  0.22562681  0.1831848   0.15388024 -0.22070564 -0.0438819   0.01665455
 -0.20270865  0.13145998]
[ 0.01583841  0.13631399  0.18695356 -0.24970835 -0.23771791 -0.19951548
  0.13272534 -0.044991    0.0534602   0.15085481  0.14636059  0.16161034
 -0.14108844 -0.09447495  0.09352645 -0.16630055  0.02575617 -0.09987816
  0.19148405  0.01737888]
[ 0.17297964  0.11104099 -0.07841064 -0.01659685 -0.2409529  -0.14740275
  0.15213647 -0.13170677  0.14354962  0.18225574 -0.2320756  -0.27584758
 -0.14293355  0.2535974  -0.11732005  0.10167687 -0.11565562 -0.2937275
  0.08815006 -0.07684832]
[-0.1436978   0.13689591 -0.08495688 -0.02269712 -0.10777708  0.27167425
  0.01463284  0.21441492  0.07728162 -0.19248311  0.3370631  -0.3242917
 -0.11150328  0.1084665  -0.16042693 -0.10290338 -0.17610177  0.23372357
 -0.22764006  0.16036698]
[-0.09603813 -0.30125514 -0.2169178  -0.28840208  0.02656731  0.18982144
  0.17275009  0.26470014 -0.12439737  0.15347034 -0.1124979   0.04158103
  0.26909646  0.00891156  0.09597825 -0.3087096   0.21609335 -0.21573539
  0.02366257 -0.33545062]
[ 0.18508287  0.09717864  0.02530769  0.06342669  0.1983759   0.14007744
 -0.08471393  0.10048567 -0.09063609  0.1513123  -0.00237595 -0.0409439
  0.0081458  -0.2273213   0.14130381 -0.07354885  0.12785132 -0.14532118
  0.22656369 -0.02201415]
[-0.20203641  0.19729513 -0.13023257  0.2479827  -0.11284032 -0.32271174
  0.21140869 -0.25230905 -0.09428106 -0.1014406  -0.10754309 -0.33354685
  0.12523994  0.22759257 -0.28184298  0.07519259  0.03775145  0.23632504
  0.3874815  -0.03227154]
[ 0.27154487 -0.12355775 -0.01270063  0.29569778  0.05808941  0.12681422
 -0.15715553  0.08772206  0.07384529 -0.26159573 -0.23316346  0.16743128
  0.01672149  0.1370323   0.04229309 -0.24740359 -0.11135895  0.10460241
  0.02650049  0.31490868]
[ 0.27804375  0.22421755 -0.07477526 -0.15388097  0.00984722  0.03045746
 -0.17861821  0.28204265  0.1571994   0.12585762  0.042332    0.10337162
 -0.00383854  0.01301481  0.1794963  -0.02910646  0.04166944 -0.12483281
  0.21493478 -0.24256419]
[ 0.23630266 -0.20703803  0.05373971  0.18911839 -0.26330736  0.3361008
 -0.27946028  0.05291235  0.122435   -0.15037161  0.26018935 -0.0396172
 -0.14904366  0.00119125  0.12444162  0.22630171  0.17430605 -0.05374135
 -0.24746922 -0.01366314]
[ 0.06959179 -0.01831932  0.05157116  0.28793383 -0.05261065  0.15530261
 -0.2870223   0.23875512  0.29744846  0.01400242  0.05355811 -0.06917795
  0.10933506 -0.06442825 -0.00738717 -0.2544851  -0.13966951 -0.07283987
 -0.20915258  0.22292875]
[-0.2171055  -0.2374748  -0.10424642  0.07600202 -0.23715517  0.00988406
 -0.17961356  0.13539004  0.2148895   0.03232774  0.00312791  0.0494388
  0.06661153 -0.04080742 -0.07115132  0.16034886 -0.15254296  0.09370109
 -0.24912645  0.25434843]
[ 0.241597   -0.24627747 -0.26110074 -0.10391182  0.135578    0.21429884
  0.2855843  -0.301636   -0.08669586 -0.00496244 -0.39741385 -0.02360966
  0.07986841 -0.01305203 -0.21876478  0.0456198  -0.11809174  0.05331026
 -0.12368739  0.20544074]
[-0.27069765 -0.06015608 -0.11071625  0.32867014 -0.0392287   0.34945467
  0.04703224 -0.21775359 -0.00708585  0.31003162 -0.07069269 -0.10601716
 -0.08333839  0.20878011 -0.13436365 -0.0940247  -0.23640838 -0.21973717
  0.03071072 -0.17570585]
[ 0.09914213  0.07573987 -0.21036701 -0.21000522 -0.09021175  0.22407332
 -0.30543977  0.18490362  0.19254878  0.0019026  -0.08947094 -0.1359923
 -0.25862652 -0.29416287  0.07315474 -0.23606437  0.00291477  0.02464557
  0.176398   -0.02596702]
[ 0.21973081 -0.08815543 -0.24809818  0.09645671  0.16262792  0.13701545
  0.26815623 -0.17498505 -0.03927483 -0.13033764 -0.23155825 -0.05376989
 -0.15197061  0.17319341  0.20793903 -0.01342639 -0.09601528 -0.2432102
 -0.16527627  0.29281357]
[ 0.2073482  -0.23465902 -0.28437975  0.22783977  0.03835033 -0.02309388
  0.15317206 -0.15614703  0.13201569  0.27008647 -0.3036686   0.24443923
 -0.2713079   0.25237906  0.02424847 -0.24942526 -0.10597835 -0.26909825
  0.18305756 -0.06463774]
[-0.07619584  0.10925359 -0.08338055 -0.23491529 -0.03035585  0.09817381
 -0.10265236 -0.01014546  0.26227003 -0.04497606 -0.10862019  0.12386405
  0.25199258 -0.00361057  0.06510471  0.08939008 -0.05721795  0.20731257
 -0.18183523  0.11602573]
[-0.34227213  0.10250391  0.23098914  0.18553968  0.33533376  0.07787879
 -0.26254967 -0.3055548   0.02792884 -0.10755457  0.16809821 -0.08196588
 -0.3168342   0.24557723 -0.21265104 -0.0046164   0.31503186 -0.01411592
 -0.22699963  0.09561361]
[ 0.03802497 -0.21895565 -0.22882475 -0.00034583 -0.04644353 -0.04717628
  0.15111114 -0.0619324  -0.06933733 -0.19413614  0.20551988  0.1457845
 -0.07855546  0.07613417 -0.18014975  0.23924671  0.14680177  0.1653461
 -0.29410467 -0.01489486]
[-0.09444439 -0.1224602  -0.0087851  -0.16131344  0.33065465 -0.22455536
  0.31799328 -0.27081692 -0.19462124 -0.26725754  0.20763832 -0.14107798
 -0.26688656 -0.1106696  -0.12412055 -0.15060255 -0.04565127 -0.12110875
 -0.09915271  0.20624675]
[-0.2877229  -0.15846343  0.08452275  0.07621802  0.28142264 -0.24694473
  0.19742787 -0.19280478  0.25213417 -0.3211508  -0.01579184 -0.27623475
  0.09802771  0.28151545  0.10090086  0.20681734  0.08793299 -0.0463507
 -0.29300538 -0.11169266]
[-0.14862211 -0.30630016 -0.06404771  0.32551143  0.08255604  0.31212425
 -0.22784421  0.2202548  -0.13862102 -0.13950667  0.17097236  0.09144248
  0.32076252 -0.00255622  0.25084588 -0.21202289 -0.17881708  0.15028185
  0.07339805 -0.21335717]
[ 0.09501937 -0.03385669 -0.02572583  0.116009   -0.31116766  0.04493086
  0.15706147  0.04663209  0.18634395  0.2607433   0.04021231 -0.0249699
  0.11309976 -0.01349797  0.27012223  0.01783704 -0.0900673  -0.02406584
 -0.1260912  -0.13819966]
[ 0.00374441  0.00098328  0.21685262 -0.24805461 -0.12895656 -0.14823684
  0.21864422  0.25057343  0.29929003  0.02493686 -0.02384745 -0.16075686
 -0.29177642  0.10368624 -0.04436088 -0.15371916  0.0329082  -0.07039405
  0.0874842   0.04722002]
[-0.02165727  0.36731905  0.15245289  0.0293841  -0.10251354  0.07883879
 -0.02138945  0.22786821  0.12500732  0.1891826  -0.1777377   0.09975105
 -0.17182831 -0.2816242   0.12464738  0.12670954 -0.25351283 -0.17982209
  0.28777027 -0.19000529]
[ 0.26457837  0.07890286  0.01499908  0.00254251 -0.19697425  0.25872093
  0.13654922 -0.23376834  0.23750606  0.18946914  0.15287746  0.28710538
  0.02709598 -0.18912327  0.13903882  0.2934176  -0.07057989  0.31052512
 -0.2681415   0.25910822]
[-0.06979993  0.17937295 -0.02324051  0.21781863 -0.06774525  0.17781398
  0.23986816  0.23836084 -0.02857829 -0.13212182  0.04443268  0.0254586
 -0.3001609   0.17496972  0.14043425 -0.0766827  -0.22387137 -0.14077574
 -0.06983406 -0.27339005]
[-0.21145606  0.10119005  0.08919259 -0.10329682 -0.24620019 -0.18805961
  0.14147034  0.2804894   0.05458048 -0.10655484  0.2304273   0.01886656
  0.08447837  0.19274335 -0.20147012 -0.28777358 -0.16168126 -0.15453167
  0.29480267 -0.15544583]
[-0.27346587  0.00149508 -0.02710154 -0.22065996  0.01633029  0.00880975
 -0.12728307  0.03242739 -0.26898298  0.25283137 -0.01810196 -0.1037793
 -0.08627507  0.3162225  -0.10485011  0.10416652 -0.15808967 -0.26767737
 -0.22479188 -0.06975621]
[-0.11661938  0.09005605  0.02121893 -0.2482623  -0.05037678  0.14759278
  0.19796695 -0.1062405  -0.2498564   0.09621013 -0.08454551 -0.22797862
  0.30810073  0.23791029 -0.13988881 -0.03577399  0.31202087 -0.08036228
 -0.33645156  0.34827915]
[-0.02919907  0.00142274 -0.00733373 -0.02231146 -0.02577249 -0.00227151
  0.00058897  0.01283356  0.00747189  0.00525053 -0.00809463 -0.01545324
 -0.02067857  0.00033319 -0.00381202 -0.01605007  0.00723573 -0.00437416
  0.03768042  0.00930737]
layer 5 Activation
tanh
layer 6 Dense
20 1
[0.30222046]
[0.21568874]
[-0.08700838]
[-0.18246248]
[-0.35765374]
[-0.03486905]
[-0.24464075]
[-0.2731814]
[0.01773891]
[-0.36481205]
[-0.30567986]
[-0.26219645]
[-0.21220013]
[-0.244465]
[-0.25559744]
[-0.3617863]
[-0.01150998]
[-0.00875194]
[-0.42727667]
[-0.4109357]
[0.00761121]
