layers 7
layer 0 Dense
20 20
[ 0.18885809 -0.26135117  0.24362895 -0.17470631 -0.21311529 -0.37883356
  0.2871015  -0.34954894 -0.01824607 -0.5346649  -0.25680023  0.18530942
  0.21576251  0.15051334  0.48451856  0.50609976  1.0422478   0.18246254
  0.18120155  0.05577396]
[ 0.05454446 -0.29642835  0.32505757  0.4730268   0.10467276 -0.7482444
  0.83584636 -0.27166465  0.3439605   0.48554805  0.07435624 -0.17242211
  0.7692297   0.06692264  0.32303336  0.5674663  -0.28195655  0.2915604
  0.02975956 -0.49892804]
[-0.6272498  -0.34703875  0.5676495   0.2832562   0.33337417 -0.2829578
  0.541778   -0.112051    0.3976748   0.33192    -0.3016478   0.41955772
  0.98833853 -0.2722364   0.55590564  1.0868722  -0.50329804  0.14786877
  0.5591542  -0.03161835]
[-0.15440886 -0.43511486  0.10939135 -0.24503441  0.26720637 -0.16031024
  0.32295918 -0.06520066 -0.05702438 -0.34097195  0.03961236  0.31246138
 -0.24561018  0.56333625  0.3726938   0.5392021   1.0715121   0.34956393
  0.2376762  -0.36847526]
[-5.02859242e-04  3.39191228e-01 -1.19243629e-01 -1.77144736e-01
 -9.74139497e-02 -5.00378251e-01  1.46084875e-01 -5.20881832e-01
 -1.19258404e-01  3.90228063e-01 -1.60134852e-01 -3.74649286e-01
 -9.39627215e-02 -6.89483702e-01  2.65119672e-01  1.14426106e-01
 -2.13856846e-01 -1.59374684e-01  7.25735903e-01  2.70722002e-01]
[ 0.38650507 -0.36305234 -0.6362879  -0.22938547 -0.1949554   0.51177543
 -1.082133    0.05087393 -0.51687276 -0.02426091  0.11359491 -0.2071771
 -0.8735589   0.5349017  -0.5446607  -0.72429365  0.74165547  0.33326024
  0.32177767  0.61926854]
[ 0.12790655 -0.3825773  -0.5642893  -0.6140866   0.09702827  0.45785517
 -0.5739969   0.06158256 -0.8042419   0.03795926  0.14407058  0.00123828
 -0.34713346  0.35102212 -0.2383476  -1.0674521   0.537649    0.08867821
 -0.046793    0.32334086]
[-0.16966084 -0.17369227  0.28963557 -0.15856402 -0.35008383  0.8224684
 -0.40467376  0.41857383  0.17349799  0.48453414  0.22362769  0.52824134
  0.10096762 -0.32907355 -0.31654534 -0.74679005 -0.25279334 -0.22558828
 -0.90741736  0.256521  ]
[-0.20225172 -1.0029724  -0.9956327  -0.23781393 -0.5747861  -0.04250581
  0.02722481  0.7442005  -0.7483713  -0.31475708  0.44724417  0.41047296
 -0.5623299  -0.2763267  -1.242367   -0.878248   -0.7058822  -0.41395256
 -0.25141945  1.1960726 ]
[ 0.06844386  0.39396673  0.36883745 -0.44404224  0.45854545 -0.12376027
  0.517216   -0.256515   -0.18838224  0.08883522 -0.2160029  -0.19052668
  0.07284755 -0.14616725  0.2933662  -1.047632   -1.0008862  -0.17773256
 -0.08051357 -0.29232085]
[-0.24054368  0.01559588 -0.34655675 -0.1956692  -0.17637976  0.46698314
 -0.10618234 -0.32082674 -0.0658026   0.17240934  0.49781108 -0.47765368
  0.28887576 -0.0265996   0.6243127  -0.7122651   0.7689715  -0.13724433
 -0.17575607  0.00587787]
[ 0.31043053  0.61748457  0.5510526   0.20768529  0.00427612 -0.146784
 -0.6824923  -0.6335358   0.8462843   0.17289342  0.5577438  -0.4820484
  0.24721703 -0.15388706  0.34119672  0.73783284  0.41162956  0.7085583
 -0.3423976  -0.5028206 ]
[-0.44128907  0.7343642   0.06818257 -0.46034104 -0.19107549  0.51953137
  0.04705741 -0.07527293  0.09892152  0.5525292   0.25650573 -0.21513702
 -0.11445516  0.15361725  0.2269014  -0.6351064  -0.34679854  0.33884194
  0.34535944 -0.45399976]
[ 1.3168697   0.38216203  0.31850365 -1.1001086   0.05727012  0.8176586
 -0.69650716  0.57941675 -1.3695145  -1.3588881  -0.5919773  -0.5589426
  1.3743026   1.5222124  -0.4520449   0.8158791   0.5299391  -0.24835302
  0.5663364  -0.10479331]
[-0.22657464 -0.56735075  0.05674525 -0.29649997  1.369646   -0.00351927
  0.23925877 -0.9874793   0.321909   -0.23087478 -1.5970286  -0.9471577
 -0.13454011  0.00447694 -0.31517404  0.70479745 -0.59442353 -0.46060255
 -0.04574689 -0.13074166]
[ 0.82721627  0.7930994  -0.65229577 -0.75641274 -0.19858497  1.365479
  2.099553   -0.0904669  -0.43644705 -1.0291065   0.6128262  -0.5229514
  0.7289227   0.980564    0.9149846  -0.39474347  0.89969033 -0.00391052
 -0.3393059  -0.28284872]
[ 0.02895312  0.46398434  0.3436607   0.08575862  0.69762635 -0.44350523
 -0.72454536 -1.0411136   0.7512073   0.20196299  0.26476425 -0.31811583
  0.6655456  -0.13710774  0.38285932  0.5335868   0.31500852  0.22360837
  0.5676799  -0.7493084 ]
[-2.1128304  -0.40208828 -0.5558442   2.5476863  -1.2294655  -0.12409315
  0.37286118 -0.5893706   1.5433942   1.2361331  -0.05998066  0.07234083
 -1.4024204  -1.3889852  -0.01218089  0.9290291   0.46716237 -0.02551447
 -1.1262859   0.10324749]
[ 0.15983714  1.0938361   0.2670619   0.08586852 -0.40684932 -1.7789009
 -0.12204327  1.3078927  -0.14867449  0.5709058   0.53289014  1.6353338
 -0.3987354   0.16133086  0.01710388  0.06175916 -0.19862364  0.6162142
  0.17033899  0.05321133]
[-0.18521348 -1.5761333  -0.5786387   0.07357974  0.25083444  1.0607772
 -1.5711104   0.44653723 -0.06208142  0.36402667 -0.15782313  1.4334044
 -1.2354652   0.2869835   0.06540876 -1.0078708  -0.7100155   0.2952929
 -1.0604297   0.3878676 ]
[ 0.1659863  -0.11774766 -0.05368889  0.11967545 -0.03101624 -0.30301836
  0.10030201 -0.05277783 -0.2104814  -0.35915467 -0.13906896 -0.08211261
  0.07438812  0.321809   -0.01913975  0.28995708  0.28305185  0.04586168
  0.19851704 -0.04963219]
layer 1 Activation
tanh
layer 2 Dense
20 40
[-0.8575286   0.11402846 -0.6814487   0.19619498  0.7925394   0.71876776
 -0.9132765  -0.20116201  0.44958425  0.09623721 -0.02858778  0.21211894
  0.21235931  0.21044263  0.27279207 -0.21370578  0.02258896 -0.12910733
 -0.00606258 -0.09044604 -0.16878411  0.2588462   0.02532483  0.3280621
 -0.00954321 -0.24682276  0.0854397   0.15213282 -0.17372657  0.06103586
 -0.37149948  0.7515571  -0.11063754 -0.13876686  0.14786288 -0.39767545
 -0.59310037  0.14239869 -0.7009862  -0.63081396]
[ 0.20291373 -0.23721474 -0.53187567 -0.42739898  0.99733865  0.23251785
 -1.0771025  -0.13835065  0.12942217  0.76151013 -1.131062    0.2201636
 -0.67145985 -0.15899053 -0.21908984  0.12790695  0.3275431   0.28992137
  0.05681665  0.15641218 -0.02805063  0.5010308   0.45447394 -0.12260295
 -0.02208111  0.03581663 -0.19691937  0.06028119 -1.215438    0.03594597
  0.2976744   0.6754495   0.25872588  0.6763054   0.31469527 -0.5802623
  0.5451471   0.1362546   0.09525043 -0.56947196]
[-0.11055174 -0.15520275 -0.04317878  0.08858634  0.5965385  -0.06940947
 -0.18323709 -0.19506508  0.1302576  -0.16568844 -0.05039894  0.45335808
 -0.3820929   0.09120388 -0.15870713  0.1736633  -0.07566744  0.07287075
 -0.11738118 -0.08324661  0.18533325  0.01840337  0.19327904  0.21114978
  0.35817677  0.03184487  0.11813168 -0.26033324 -0.21850276  0.2284099
  0.11563303 -0.08089306 -0.08111727  0.14162791  0.0638485   0.10890038
  0.19694489 -0.18449967  0.18418    -0.2643383 ]
[ 0.4421723  -0.490519    0.6086841  -0.21629918 -1.1541003   0.45333531
  0.46353355 -0.09931444 -0.6497361   0.32611555 -0.27933574 -0.4502139
  0.10156364 -0.0932641   0.1305217  -0.20720056 -0.40538383  0.33207017
  0.41744307 -0.20456244  0.10917626 -0.3661368   0.19073306 -0.74991125
 -0.63270986  0.3595518  -0.11523044 -0.70049113 -0.7551732  -0.17891982
  0.47815147  0.5956353   0.71509755  0.3406932  -0.03110758  0.53705746
 -0.16552195 -0.00636131  0.6219397   0.23643526]
[ 0.20692739  0.90222895 -0.26641577 -0.6378295   0.6048137   0.165671
 -0.11483777 -0.45838556 -0.45197025 -0.24139646  0.01744824 -0.14589201
 -0.281612   -0.21041514  0.03553801 -0.02660652 -0.41984528  0.20362519
  0.0536408  -0.6514918  -0.16071305  0.63671505 -0.5269588  -0.39341953
  0.29549694  0.23447558 -0.05617385 -0.7075799   0.0821188  -0.23910601
 -0.11249761 -0.43772727  0.41053462 -0.11252638  0.48018748  0.37099716
 -0.97901654  0.34204143  0.06433672  0.18149865]
[ 0.09416249 -0.40542546  0.0309096  -0.24168664 -0.61599743 -0.25383836
  0.07506223  0.35413408  0.2387441  -0.6223698   0.73031414 -0.64368993
  0.0801998  -0.04867436 -0.16449974  0.06421204 -0.02290878  0.07488143
  0.14976756 -0.08151083  0.09235152  0.06408621 -0.24110001  0.826304
  0.16991873 -0.19528821  0.2244833   0.43084097  0.9253244   0.13553648
 -0.43417287 -0.59744585 -0.3934138  -0.05607812  0.1522614   0.24584399
  0.1836703  -0.01111302 -0.07628846  0.42294064]
[-0.08935652  0.48129103 -0.2711442  -0.17622998  0.11460947  0.44827068
  0.66789573 -0.48541957  0.1154701  -0.35468882  0.08997211  0.31551874
  0.38183546 -0.1028702  -0.11088109 -0.08701533  0.05948971 -0.03874151
  0.22129099  0.21681482  0.00906439  0.03385808  0.03183097 -0.2789064
  0.84889936 -0.03961511  0.09420393  0.27724382  0.26247856  0.15212971
 -0.39437827  0.20115027 -0.16336346 -0.43194497  0.02501588  0.55228996
 -0.48796585  0.07017834 -0.47784844 -0.06855356]
[-0.86453784 -0.49208453 -0.72130424  0.45361495  0.7316761   0.75399476
  0.18769282 -0.37566197  0.10708864  0.50461835  0.01963896  0.47234058
  0.5545785  -0.13252896  0.6324935  -0.1427788   0.6498458   0.01056165
  0.08573436  0.6823837   0.14064366 -0.2293893   0.76225024 -0.3277517
 -0.43011233 -0.4722042   0.3344788   0.6983969   0.14088929  0.20120919
 -0.20727354  1.241839   -0.43277735  0.6299963   0.07770389 -0.0389423
  0.34324518  0.02437956 -0.00675413 -0.35254726]
[ 0.81379384 -0.160887    0.6219913   0.25566432 -0.6399437  -0.22197145
 -0.23102035  0.36394805 -0.26329258 -0.27118143 -0.17905739 -0.05738302
 -0.14145327  0.1378678  -0.44613135  0.02148772 -0.33497894  0.13190188
 -0.22152834  0.15321502 -0.15908499  0.09185558 -0.13450919 -0.25584632
  0.27620408  0.40895405 -0.07971622 -0.27719966 -0.44826457  0.16467136
  0.10035469  0.02056397  0.2392144  -0.42649212  0.09722097  0.10444861
  0.04311271 -0.12626097  0.6279085   0.21938887]
[ 0.45420453 -0.09173927  0.308148   -0.257126   -0.5913791   0.07185247
  0.3068827  -0.17150293 -0.40316948  0.10595366 -0.20406234  0.35750118
 -0.13598514 -0.15750857  0.28251156  0.18054712 -0.43361038 -0.24939787
  0.14362705  0.57160175 -0.15277936 -0.31906635  0.07756428  0.01508826
  0.19280772  0.3204358   0.02164849  0.08617596 -0.1221861  -0.17286922
 -0.11682954 -0.04316911  0.48652503  0.30806828  0.32298782  0.10732391
  0.20427755  0.00223118  0.41331893  0.28330246]
[ 0.09897699 -0.72864145 -0.04730058  0.21415286 -0.0430836  -0.11023575
 -0.35443544  0.5158281  -0.3236116   0.5864504  -0.5033358   0.5818374
  0.00142469 -0.32184684  0.3317471  -0.2411473  -0.09058229  0.01277724
 -0.05511533  0.2551146   0.1372951  -0.2297042   0.19674672  0.49407017
 -0.2035444   0.20156467  0.10671331  0.02510621 -0.73765194  0.13644445
  0.34839314  0.36579022  0.34579626  0.329506   -0.24197093 -0.29859215
  0.8485839  -0.03262891  0.42803794  0.3050493 ]
[-0.17854793 -0.5869945   0.02890089  0.02853048  0.30542448  0.5756265
  0.25440958 -0.01647259  0.39853644  0.6615192   0.01112304  0.723347
  0.20896702  0.03692105  0.06270418 -0.20219511  0.12184484  0.09307666
  0.24705979  0.5871688   0.13134786 -0.44005594  0.40860623 -0.22003627
 -0.18719801 -0.13747756  0.15733784  0.03124164  0.38208944 -0.26676172
  0.24336138  0.7776827   0.00307709  0.33461207 -0.06022856  0.00442842
  0.5357738   0.1179633   0.41427082 -0.37875587]
[-0.4350837   0.05269381 -0.32711574  0.38576278  0.29008174  0.5741242
 -0.70656204  0.10764756  0.2538426  -0.2919571   0.26396737  0.01961865
 -0.16503307  0.1500589  -0.29774687  0.03936702  0.54852563 -0.01075203
  0.00669032 -0.43049413 -0.28361464  0.18448046 -0.37465402  0.34038913
  0.08683515 -0.14603361 -0.07961052  0.52547634 -0.5428687  -0.11099995
 -0.47309008 -0.4316688  -0.59079576 -0.01718254  0.12636162 -0.36989692
 -0.04900368 -0.13710393 -0.527904   -0.24824141]
[-1.1660045  -0.23531957 -0.86201197  0.33645546  0.39433342  0.2831401
 -0.25406092 -0.42264947  0.5423807  -0.04277825  0.4782039  -0.35117784
  0.20257491 -0.0379963  -0.16470511  0.03878884  0.24207644 -0.13063575
  0.18747245 -0.64150596  0.24146986  0.79176587 -0.3624387  -0.15525107
 -0.48268285 -0.86750716  0.12383015  0.5157846  -0.1791786  -0.04451155
 -0.36199898  0.29971236 -0.7835394   0.00595933  0.00491556 -0.15406764
 -0.6694118  -0.17701839 -0.38468194 -0.2666863 ]
[ 0.07292303  0.25244677  0.1747444  -0.29416344 -0.41503596  0.13155237
  0.51133823 -0.40099418 -0.35795724  0.49500325 -0.68117183  0.19874458
 -0.05758753 -0.02521326  0.08376959 -0.28022313 -0.40511134  0.2985352
 -0.09903876 -0.75027275 -0.32882634  0.468148   -0.22693099  0.1682223
  0.11382759  0.48409805  0.33412033 -0.50173503 -0.8855819  -0.20662436
  0.55597353 -0.20453179  0.32995713 -0.13119376  0.6115582   0.31096163
  0.05960228  0.14387469  0.1393948  -0.1684489 ]
[-5.9955204e-01  2.5031552e-01 -4.1543987e-01 -3.0367282e-01
 -4.2894953e-01 -5.2609104e-01 -6.7268111e-02 -6.6484970e-01
  1.1214898e-01  2.7731812e-02 -4.9735498e-01 -8.5232329e-01
 -7.7014583e-01 -3.9263375e-02 -2.0104377e-01  1.6716143e-01
  3.1776559e-01 -1.1360566e-01 -2.5933420e-02 -8.0515260e-01
 -3.2945791e-01  4.8621964e-01 -3.0015096e-01 -9.7433764e-01
 -3.4515969e-02 -7.0840918e-02  8.5533172e-02 -1.8550895e-02
 -1.3443844e+00  1.6592033e-01  1.6984552e-01 -3.7872750e-01
  1.5598722e-04 -1.6606766e-01  4.1908631e-01 -1.1700709e-01
 -4.2471200e-01  1.4900145e-01 -2.3535161e-01 -2.8119555e-01]
[ 0.18581529 -0.17050485  0.4190667   0.05693264 -0.28216216  0.3592212
 -0.26295307 -0.70712715  0.25423566 -0.25842208 -0.01285534  0.10246559
 -0.39691767  0.3485391  -0.46638083  0.2941946  -0.15968181  0.13017838
 -0.00570801 -0.02193093 -0.24600028 -0.14007221 -0.12305591 -0.6069124
  0.39441654 -0.08764618 -0.41552874  0.09684271 -0.5545152   0.38259852
  0.06194055 -0.31067523 -0.06446838  0.3354956   0.5525269  -0.18783201
  0.3487465   0.10983297  0.2542765  -0.17988116]
[-0.44426662 -0.73065555 -0.11457751  0.05685293 -0.32829204  0.2523991
  0.10134004 -0.20547259  0.30790007 -0.04803051 -0.35258833  0.7512109
 -0.23704758  0.05797803  0.1408205  -0.10837011  0.42725083 -0.01220396
  0.18573315 -0.19397719 -0.05074624 -0.26706952 -0.05412627 -0.15249225
  0.5312957  -0.6126748   0.03673098  0.04297145 -0.15523264 -0.23833491
  0.0348715   0.44438726 -0.09163065  0.1610037   0.10002878  0.13787721
 -0.55689234  0.05669688  0.2375718   0.22971408]
[ 0.12648651  0.1277628   0.23239057  0.02199806  0.5344811  -0.1809232
 -0.25966123  0.13903844  0.42517743 -0.23828904  0.15493439  0.4601978
 -0.39653432  0.46553162 -0.32890832  0.14195399  0.34377143  0.09901585
 -0.03195934  0.03569047 -0.2672325   0.4171379  -0.3801374  -0.82217443
  0.4642398  -0.0847756  -0.11248344  0.38721177 -0.09569993  0.5100205
 -0.39709038  0.3314924  -0.45483375 -0.26721805 -0.04866364 -0.09137522
  0.2658261  -0.20697567 -0.7267505  -0.02628103]
[ 0.4085977   0.19385155  0.15804987 -0.14417289 -0.19099021  0.1251548
 -0.08596689  0.5927598  -0.14653687  0.13865897  0.05444298  0.07814261
  0.23360534 -0.19912876  0.05545056 -0.04757084  0.28420052  0.04215167
 -0.10919875  0.0901879   0.00429308  0.12948765  0.16257024  0.05007588
 -0.5042807   0.28385833  0.13023072 -0.318822    0.29999864 -0.03279746
  0.36258364 -0.00545084  0.17822357  0.13863964 -0.2476141   0.14305072
 -0.10570357  0.11875889  0.01559823  0.02206404]
[-0.33740622  0.29930696 -0.13168025 -0.07183574 -0.09789979  0.25748956
  0.4360313  -0.5433459   0.04084952 -0.07331258  0.11671316  0.20143445
  0.09954458 -0.05222925  0.02648859  0.09339634 -0.21721716  0.01880995
 -0.07434491 -0.10807762 -0.09664732  0.1087578  -0.10282642 -0.23470789
  0.6229402   0.01525507 -0.13864312  0.26536727  0.11296222  0.01798997
 -0.28495708 -0.00248366 -0.17876714 -0.20187569  0.21610631  0.3542608
 -0.37086856  0.11163805 -0.29626757  0.01000141]
layer 3 Activation
tanh
layer 4 Dense
40 20
[ 0.33221444  0.05528414 -0.27003592  0.56524396 -0.13573478  0.20547724
  0.5559063   0.3079846   0.13286023 -0.15126088  0.13606422 -0.0708568
 -0.23471321  0.24679314  0.03191593  0.08625335  0.05164608  0.03206643
  0.6574067  -0.42131576]
[ 0.14158106 -0.34681612 -0.22183451  0.07685456  0.36099157  0.3795747
 -0.18799192 -0.163107   -0.19359258  0.39884993  0.38618577  0.13964137
 -0.23535842 -0.2895715  -0.41294602 -0.01049238 -0.11472116  0.02602333
  0.04938047 -0.36328804]
[-0.10795828 -0.2509392  -0.4465925   0.3957701  -0.05670071  0.3210014
  0.32683063  0.1679768   0.04755697 -0.18427771  0.31848708 -0.07502337
 -0.03991197  0.08478322  0.27916464  0.36485222  0.02838431  0.16516252
  0.29388732 -0.4635461 ]
[ 0.04642868 -0.0347764   0.06905849 -0.36483443 -0.36574727 -0.06310039
 -0.287637   -0.43369782  0.04762995 -0.22924146  0.01237129  0.36864135
  0.6196609  -0.06953333  0.23833415 -0.2903805   0.17183423 -0.10729539
 -0.3571362   0.37776554]
[-0.2923202   0.03753702  0.7763777  -0.36825168 -0.37570778  0.11785018
 -0.7258559  -0.4855428   0.13423507 -0.13978283 -0.19924045 -0.16544972
  0.10553836  0.47284532 -0.65968776 -0.67517143 -0.1961849   0.07980438
  0.2829813  -0.13676596]
[ 0.2046944  -0.06411627 -0.13179052 -0.42216164 -0.01948483  0.01941
 -0.46862343 -0.34693253  0.04372197  0.35176075 -0.40399885 -0.27182198
  0.14874226  0.25952333 -0.19345425 -0.25617278  0.26020908 -0.05248956
 -0.11865814  0.03281853]
[ 0.15678123  0.0792673  -0.2401365   0.388499    0.26403442 -0.25794947
  0.41972983  0.3949842  -0.20429458  0.05250272 -0.57753295 -0.14318492
  0.12392236 -0.07699112  0.0261435   0.594885   -0.05321497  0.13958815
 -0.18353878 -0.00636447]
[ 0.24047843  0.01334825 -0.06116395  0.32622927 -0.36226305  0.09518547
 -0.04306792  0.07738055 -0.2083291  -0.04404667  0.36151803  0.10501321
  0.07393254  0.37659016  0.55436116  0.16578856 -0.0843228   0.14698155
  0.03183912  0.01161685]
[-0.02963528 -0.21733826  0.2780353  -0.41766614 -0.04419835 -0.04144826
 -0.20548435 -0.15394859 -0.06874733 -0.02869181  0.02428043  0.41325483
 -0.34475064 -0.05718577  0.13981822 -0.3876536   0.00789464  0.1091227
 -0.10644002  0.9785439 ]
[-0.08475632 -0.07288898  0.21097316 -0.05571936 -0.34648982 -0.27418908
 -0.48737708 -0.08853977  0.13536794 -0.6159876  -0.3129818  -0.19486412
  0.2715854   0.4021106  -0.38822016  0.42314267  0.13490061  0.21279714
  0.18963268  0.20532265]
[ 0.03280398 -0.15842584  0.09246743 -0.00223917  0.13663796 -0.13148947
 -0.3090874  -0.1663238  -0.28723428  0.23449521  0.07022192  0.04913468
 -0.27931952 -0.31724146  0.32074964  0.02399029  0.20527837 -0.04053113
 -0.32879344 -0.0145129 ]
[ 0.21863025 -0.04897934 -0.27580708 -0.1783304  -0.441414   -0.41856644
  0.19472027 -0.11645935 -0.46367612 -0.418325   -0.2051076  -0.3461121
 -0.04985768  0.05403808 -0.17418696 -0.5318237   0.21281967  0.11255158
 -0.01417407  0.01646953]
[ 0.06991612  0.06168771 -0.16232581 -0.3285214  -0.30539367  0.05070091
  0.20776618  0.31768245 -0.41253895 -0.0931125  -0.4657564  -0.18775968
  0.20093305  0.01258545 -0.01659174 -0.04893358  0.43483093  0.04217326
  0.21236034 -0.19001906]
[ 4.6380695e-02  2.2399640e-02  4.5686804e-02 -6.5991312e-02
  9.1070193e-05 -7.0180809e-03 -4.1169301e-02 -4.3419945e-01
  1.5792902e-01 -1.9840869e-01  7.3820949e-02  2.8310409e-01
  1.3513307e-02 -1.2138806e-01  2.1827372e-02 -1.9094366e-01
  4.9059361e-02 -1.1936794e-01 -3.0380374e-01  4.6565604e-01]
[-0.08497837 -0.04958976  0.0664629  -0.11089026  0.00271378 -0.18406212
 -0.47997478  0.01847826 -0.25806335 -0.06472953 -0.12569714 -0.25873736
  0.1377058   0.23428501 -0.11618331  0.3263216   0.13919428  0.04967162
  0.27935186 -0.35233748]
[-0.18786709 -0.06746545 -0.06430476  0.2785987  -0.00315624  0.08266144
  0.33770186 -0.12130933  0.09608053 -0.10783075  0.1423938   0.36296698
 -0.33124056 -0.189166    0.02750132 -0.10362098  0.01600582  0.07455079
  0.08839648  0.2877265 ]
[ 0.14725068  0.13949023  0.2480778  -0.25082365 -0.10906595  0.2387414
  0.11924873 -0.19437742 -0.18658568 -0.05886438  0.21657343  0.06983876
  0.12531868  0.08290616  0.13982768 -0.12448578  0.18652236  0.14561167
 -0.27087003  0.30029923]
[ 1.21680766e-01  3.07813491e-04 -8.03183243e-02  2.22784802e-02
 -7.37125129e-02  3.80876102e-02 -1.34970788e-02 -9.57031026e-02
  1.13400437e-01 -6.21532276e-02 -9.08457264e-02 -9.51740444e-02
  2.04552531e-01 -3.30812894e-02 -1.65220164e-02  6.33148402e-02
  1.59172073e-01  5.00522973e-03 -4.94355142e-01 -1.17142096e-01]
[-0.12698707 -0.09842841  0.0667569   0.09809334 -0.17040521  0.05272545
 -0.10642668 -0.15522008 -0.1066324  -0.11799422  0.07468782  0.25039935
  0.28417325 -0.09220563  0.0333801   0.01062492  0.34767568 -0.06644368
 -0.66554374  0.76444334]
[-0.17394145  0.3263995  -0.56026554 -0.06069782  0.07328285  0.24386366
  0.16292658 -0.12988782 -0.09369196 -1.0531797  -0.00950019 -0.43655077
  0.46862164  0.57686687  0.41888434 -0.85693026  0.04786954  0.08213787
  0.73591775 -0.33377558]
[-0.01155742  0.28238085  0.09447838 -0.02512662  0.04147726 -0.01842511
 -0.22459204  0.0880543  -0.15773682  0.1619767   0.01530625 -0.23724522
 -0.00894284  0.20634066  0.13249905  0.09436344  0.19558682 -0.07798596
  0.39484525 -0.36321616]
[ 0.18551047 -0.13009836  0.25299463 -0.18415938  0.16423482  0.07406737
 -0.5869403  -0.31955326  0.08504665  0.48658076  0.10082991  0.19577545
  0.22912757 -0.27506244 -0.39243603 -0.103781    0.0908452   0.15203783
 -0.32898974  0.19196598]
[-0.25982314 -0.10349627  0.11453384  0.1012343  -0.07743891  0.13546279
 -0.15700838 -0.04207794 -0.16508174 -0.38243356 -0.16819336  0.01625714
  0.3474269   0.40965283 -0.03482886  0.031439    0.3058233  -0.21425177
 -0.07300159  0.0653158 ]
[-0.11003939  0.02485291 -0.10434656 -0.2330006   0.0411259  -0.01740025
  0.15914862  0.49967906 -0.64473784 -0.22420408  0.13972354  0.08122864
 -0.0895401   0.08397817  0.95071465 -0.30117294 -0.14907038 -0.17052993
  0.34942323  0.1653716 ]
[ 0.01160021  0.19519323 -0.24772528  0.13507569  0.11506146 -0.00272213
  0.2648938   0.10650435  0.07866218 -0.11220142  0.2118614  -0.23600635
 -0.43715256  0.00309437 -0.4782883  -0.37202942  0.21034214 -0.04139687
 -0.38308093 -0.13933602]
[ 0.05265089 -0.19223496 -0.14338557  0.28967524  0.18088493  0.12568654
  0.46675405  0.3369086  -0.00556941 -0.2295445   0.06910871 -0.44936922
  0.13955036  0.08253017 -0.1408219   0.40344372 -0.23953393  0.01532496
  0.13864312 -0.76800394]
[ 0.08854939  0.09621938  0.07111175 -0.08115858 -0.09888208  0.19392726
 -0.17051823  0.12263118 -0.24672595  0.15095675 -0.10926216 -0.18553722
  0.16120692  0.2390543   0.02749203  0.16737008 -0.09853573  0.05323637
  0.08245438  0.01818385]
[-0.1671262  -0.20306468  0.31521738 -0.32211277  0.21422638 -0.13220778
 -0.02758674 -0.25212884  0.07667596 -0.2953009  -0.10927522 -0.0571007
  0.3534419   0.0831769   0.27007174 -0.30628437  0.16697955  0.16835707
 -0.14837407  0.31642047]
[-0.04935647 -0.17695661 -0.2009585  -0.2602373   0.70764714  0.32700774
 -0.14741068  0.24695446 -0.45848283 -0.2541809  -0.45634553 -0.16737689
  0.27229786 -0.71613026  0.11710381 -0.28238696 -0.3361168  -0.19346797
 -0.2670095  -0.08379901]
[-0.21091987  0.06170077  0.11679773  0.05009699  0.06741924  0.01815703
  0.0771346  -0.2719494   0.17000864 -0.40798324  0.05364131  0.39779913
  0.01346082  0.03503699  0.11087424 -0.04320605  0.16177064  0.17532878
 -0.36018446  0.3872825 ]
[-0.12867829  0.22354347 -0.22587135  0.01135741 -0.26499748 -0.16268836
  0.0879581   0.03683532  0.13348827 -0.31900308  0.05771238 -0.18547049
 -0.14044183 -0.04135253 -0.06774408  0.3036373  -0.11186455 -0.05976306
  0.25752825  0.01548773]
[ 0.01418262  0.26079896  0.19774978 -0.38690007 -0.47655737 -0.03698918
 -0.6623041  -0.4108692  -0.27094582 -0.08942224 -0.59202236  0.1441272
  0.3257653   0.19593503 -0.5169947   0.13999414  0.22535774  0.01210508
  0.28908104 -0.2547775 ]
[-0.00845684 -0.16159809 -0.5267665   0.601371   -0.24054277  0.22244684
  0.21922061  0.11359974 -0.13255271 -0.01235208  0.10422856 -0.33460507
 -0.10352641  0.29240313 -0.38393998  0.60438263  0.12257865  0.12678331
  0.7482958  -0.43574366]
[-0.18188372  0.00430569  0.21576358  0.19214891 -0.07019351  0.08866187
 -0.29898387 -0.26339176  0.15040383 -0.35909867 -0.02092584  0.14860855
  0.06701881  0.06843488  0.00812124 -0.0582972   0.1765849  -0.19607033
 -0.17995353  0.01616463]
[-0.08600365 -0.26252222 -0.05330653  0.09215786  0.10290633  0.19832878
  0.10492276 -0.13979506  0.26636466 -0.01104865 -0.17177097 -0.07904027
 -0.188003   -0.14942412 -0.27427652 -0.3286223  -0.1422509   0.16721064
 -0.20427918  0.37159127]
[ 0.24754418 -0.2035258  -0.09931926  0.29828742  0.22545011  0.11885454
  0.1151821   0.01114585 -0.02434769  0.2926527  -0.44308296 -0.06750865
 -0.207111   -0.16721353 -0.00212168  0.43122396 -0.05644574 -0.18180692
 -0.07307234 -0.2964325 ]
[ 0.20502976 -0.02782019 -0.06953017  0.45833948 -0.47616577 -0.42957604
  0.1549771   0.25340483 -0.05978448 -0.6901483  -0.11704475 -0.05694913
  0.31314492  0.22245534  0.1042251  -0.00392504 -0.3154297   0.17309257
 -0.28507733  0.34904492]
[ 0.16362484 -0.09810882 -0.13973132  0.07987134  0.0760128  -0.05448588
 -0.45334184  0.04047351 -0.05628196  0.2600128  -0.05136033  0.11159185
  0.04322818 -0.04379817 -0.12656963  0.06153942 -0.00793604 -0.05142766
 -0.14133586  0.36768764]
[ 0.15272634  0.00564688 -0.20084998  0.2678643  -0.1231757   0.22632058
  0.2059894   0.10259956  0.3538159   0.18634954 -0.20898566 -0.2218144
  0.13414773  0.1729594   0.29823446  0.19578534  0.12721652  0.08495487
  0.14328972 -0.19535255]
[ 0.00745737 -0.19766662 -0.21476361  0.35448286  0.10836884  0.15915209
  0.5032566   0.08129714  0.00588015  0.2759862   0.31437445 -0.17256795
 -0.14415576 -0.04422444  0.22582048  0.41516516 -0.09537462 -0.11208551
 -0.04365956 -0.41806623]
[-0.04442243 -0.02501657 -0.3067009  -0.15655322  0.22886826  0.07388889
  0.19086264  0.11524836  0.04852329 -0.0845004  -0.1716109   0.07460705
  0.131884   -0.29137486 -0.35584584 -0.23353621  0.05601854  0.177881
 -0.12756586  0.3001492 ]
layer 5 Activation
tanh
layer 6 Dense
20 1
[0.0219346]
[-0.00325375]
[-0.12606145]
[-0.05574924]
[0.11363839]
[-0.02934283]
[0.01689987]
[0.00576133]
[-0.09682453]
[-0.03293677]
[-0.13305752]
[0.00294021]
[0.00321382]
[-0.06586014]
[0.26545694]
[-0.08322094]
[-0.00424641]
[-0.00270223]
[0.0156098]
[0.02455368]
[0.26927465]
