layers 7
layer 0 Dense
20 20
[ 0.19913544 -0.00511778 -0.4402595   0.2506021  -0.45448425  0.19992596
 -0.5330953  -0.3277131  -0.40252647 -0.01031022 -0.17519939 -0.25651777
  0.05117787 -0.10600592  0.23817146 -0.03046715 -0.02029114 -0.07840096
  0.12903273 -0.15092926]
[-0.09430113 -0.353642    0.01265784 -0.3459276   0.21881028 -0.38414526
 -0.03265655 -0.7763565   0.32317322 -0.6736455   0.12260438 -0.5223413
  0.22475849  0.00129516 -0.18864709  0.05852496  0.0037509   0.05593836
 -0.07896128  0.25246015]
[-0.37982693  0.03568244  0.56264037  0.22483934  0.47891313  0.12911831
 -0.12084935 -0.20967054  0.15875074 -0.9359145  -0.3651505   0.01803389
  0.03888368 -0.5871526  -0.34422204 -0.2952439  -0.1373248   0.3942948
  0.26976523  0.12574913]
[ 0.22306603 -0.01113697  0.18081963 -0.06935535 -0.44657046  0.2721546
 -0.2610499  -0.12970912  0.18722038  0.36230645  0.2950758   0.2176334
 -0.21467829  0.23260595  0.00311633  0.28019607 -0.02485292  0.12690572
 -0.35634488 -0.39063805]
[-2.6532796e-01 -1.1725345e-01 -7.3945485e-02  1.6080368e-01
 -2.5772256e-01  3.3429220e-01 -1.3559912e-03 -2.1870388e-01
  5.7776805e-02 -2.0331028e-01 -1.7981754e-01 -3.8201511e-01
  1.9634311e-01 -4.3421382e-01  2.1527238e-01 -3.3878707e-03
 -1.8408755e-05  4.4832242e-01 -1.2280907e-01  1.1631563e-01]
[-0.12410235 -0.10856114 -0.21008    -0.15794109 -0.147311    0.27944717
  0.10237643  0.04664854 -0.3454599   0.9545632  -0.2820271  -0.18266986
 -0.51325595  0.0061992   0.2709662   0.29297638  0.1960619   0.10994561
 -0.36577    -0.10885452]
[ 0.39381403 -0.25391784 -0.48976123  0.17851561 -0.50190604  0.1925084
 -0.09088055  0.5942098  -0.13560924  1.0068625   0.034205   -0.10773138
 -0.17682268  0.24210472 -0.00217377  0.00791003 -0.11262856  0.06004155
 -0.13946676  0.18410543]
[ 0.23408632 -0.04922022  0.17092295 -0.49127305 -0.08390273 -0.41193813
  0.3313622   0.22931582  0.08206027 -0.0244897  -0.25995216  0.01853697
  0.38719574 -0.26935962 -0.16695088 -0.31561434  0.12911929 -0.18961287
  0.00353326  0.3865378 ]
[-0.777293   -0.32862973 -0.53624773 -0.12169603  0.05743228  0.38641542
  1.004272    0.49497867  0.10225713  0.29355156  0.27847692  0.54176337
  0.28768626 -0.26573697  0.33029068  0.7252767   0.98819274 -0.57183653
  0.3676761  -0.11025426]
[ 0.1367021   0.08636511 -0.42003447 -0.39222583  0.16498627  0.09102009
  0.4279705  -0.22537391 -0.18827777  0.18197933  0.11538938 -0.18844487
  0.48770148 -0.03341193 -0.3111466   0.00081994 -0.1300303  -0.05528872
 -0.06406105  0.19338398]
[ 0.40033463  0.3410111  -0.2433917  -0.05174327 -0.12137273 -0.2420862
 -0.16342989  0.40540895 -0.10685357 -0.03766502  0.2887631  -0.208011
  0.21462965 -0.00097152 -0.13355859 -0.1752427   0.28194517  0.29242593
 -0.03893802  0.04100408]
[ 0.62050056  0.34523344  0.83011943  0.10557822  0.25478896 -0.63496214
 -0.5649776  -0.7339153   0.22888139 -0.51921445 -0.36943612 -0.19986169
 -0.01857847  0.10515232 -0.48465386 -0.66825396 -0.3094317   0.7390787
 -0.14722084  0.5480144 ]
[ 0.26435322  0.2175011   0.33141544 -0.21641842  0.44310948  0.00397187
 -0.45081702  0.2190991  -0.03476625 -0.29614034  0.09564662 -0.33759135
  0.2572189   0.07564218 -0.15113863  0.16539909 -0.6731898   0.26468304
 -0.21361338  0.18458527]
[-0.5138426   0.7501901  -0.38217834  1.2027957  -0.14786348 -0.08487468
  0.1325031  -0.22415122  0.44472444  0.51160455  0.12110095  0.5326546
  0.40877908 -0.21567625 -0.3226946  -0.5329791  -0.35482246  0.26135105
 -0.17570253 -0.58479816]
[-0.15590556 -0.22395833  0.22023983 -0.01692788  0.35566655  0.18499556
  0.1092848  -0.22569117  0.50992066  0.9021253   0.12547742 -0.56617594
 -0.22545399  0.20138225  0.5948844  -0.7900061  -0.12246774  0.15792756
 -0.1275024   0.20582795]
[ 0.41347468  0.24405794  0.19430754  0.02660413  1.0429624   0.41112527
  0.00667928  0.3275082   0.7108579   0.33989733 -0.14605047  0.603071
  0.9362301  -0.7841532  -0.25403562  0.8313922  -0.62644416  0.50996894
 -0.0997244   0.2666646 ]
[ 0.45301753  0.25885457  0.2206609   0.13449658  0.27887854  0.10895427
 -0.46699426 -0.36855894 -0.01740021 -0.1505302   0.24687575 -0.22911689
 -0.09439007  0.36566666 -0.47462833 -0.96257937 -0.06286791  0.06266408
 -0.20557687 -0.03206507]
[ 0.2825604  -0.710381   -0.04217806 -1.1854285   0.66191286  0.10222897
 -0.07026194 -0.04321575 -0.09668999 -0.35726294  0.5268847  -0.55060387
 -1.2980837   0.90245414  0.37475204  0.7517369   0.04308423 -0.54172367
 -0.17312707  1.085684  ]
[-0.26743653  0.12667376 -0.08120494  0.26109898 -0.93904877 -0.10480676
  0.16767572 -0.19917467  0.12490155 -1.1020983   0.28160614 -0.26826003
 -0.1102046   0.3153023  -1.0300847   0.4340395   0.12460387 -0.4991198
 -0.6590593  -0.89740354]
[ 0.20607978 -1.3621098  -0.66752255 -0.5979556  -1.1528497   0.3167785
  0.68957937  0.74443555 -1.0549408   0.547166    0.32287663  0.29196927
 -0.26065663  0.56639075  0.2923732  -0.83617395  0.8934658  -0.83769894
  0.7050587  -0.9940638 ]
[-0.13510546  0.02890272  0.05731415  0.14951558 -0.05461071  0.01129854
 -0.19650279 -0.123243   -0.05861052  0.07554872  0.08376571  0.05857705
 -0.08896323  0.06925556  0.08666391  0.13091531  0.09809407 -0.06433167
 -0.00044568  0.09273645]
layer 1 Activation
tanh
layer 2 Dense
20 40
[-0.07821811 -0.25654358  0.05330177 -0.05194088  0.27214584 -0.04176488
 -0.05448126 -0.06402142 -0.01575254  0.04779523  0.08041403  0.31704074
 -0.18930177 -0.07477053 -0.05977261 -0.39414135  0.16573125 -0.16003491
  0.21155915 -0.40377006  0.3118201  -0.1953052   0.13970038  0.2772014
  0.20717402 -0.11637196  0.3045365  -0.16515093 -0.3570149   0.01436635
  0.3220648  -0.08710545 -0.39606145 -0.23562256  0.10483085 -0.11630595
  0.1817205  -0.12911265 -0.07826734 -0.2052137 ]
[-0.01513822  0.28031296  0.37789142 -0.31395218 -0.09212137 -0.0434457
  0.0628354  -0.27207285 -0.25726807  0.02679253 -0.16984774 -0.28368434
 -0.55779403 -0.02830012  0.02952047  0.00895214  0.03167198 -0.13788925
  0.4841748   0.13979422 -0.4381286   0.09012592 -0.08557847 -0.11745387
 -0.14350119  0.31325665 -0.17251097 -0.0014337  -0.04474789  0.05007654
 -0.28804374  0.2937964   0.39900294  0.11406476 -0.5916084  -0.2644492
 -0.07301343 -0.05062116  0.00434817 -0.19190107]
[ 0.26572406  0.20543203 -0.02538411 -0.02692619  0.0876544  -0.00871768
 -0.2718257  -0.16631211 -0.14613776 -0.03034021 -0.0604248  -0.01991226
  0.10969066 -0.39769602  0.19261341  0.0147844  -0.1312205   0.1036526
 -0.31023258 -0.10727209 -0.08083338 -0.00396712 -0.15331177  0.12161857
  0.05033967  0.18815023 -0.36958447 -0.06393789 -0.37240326 -0.20488591
 -0.2243382  -0.00120655  0.47782078 -0.10664815  0.16266525  0.10148173
  0.19031912 -0.04236263 -0.10472779  0.1345628 ]
[ 0.2786634   0.24102773  0.17271663  0.15080175  0.08829295 -0.064812
  0.32575217 -0.16741467  0.18303703  0.07747571 -0.38694423 -0.50894195
 -0.14974368 -0.07942783 -0.27587706  0.03039978  0.31481427  0.26264396
  0.17995398  0.13413163 -0.12546241 -0.25355476 -0.06073171 -0.18139414
 -0.0134248  -0.00253328 -0.15819573 -0.5364499  -0.25100377  0.14585291
 -0.48871276  0.2852603   0.230266    0.46529266 -0.2535366   0.06121757
 -0.23014368  0.05742387  0.5632748   0.0918636 ]
[ 0.12996876 -0.01693483  0.04202991 -0.34090573  0.08458173  0.26634476
 -0.27853814  0.11765794 -0.16127038  0.09947496  0.17444454  0.4875139
 -0.06708167 -0.24889341  0.52231973  0.1638972  -0.19526592  0.14612405
 -0.45164225  0.01816852  0.24793473 -0.15677728 -0.34328347 -0.1563498
 -0.023128    0.20352621  0.15438771 -0.09985681 -0.3851898   0.04518648
 -0.13327982 -0.25195047  0.6103341  -0.3971635  -0.3269257   0.07506356
 -0.06429266  0.14839287 -0.19713505  0.04414476]
[-0.19476946 -0.16258848  0.07250819  0.23801035  0.3262762  -0.06128635
  0.07753342 -0.27046087 -0.05602821 -0.07075738  0.6166897   0.15623443
  0.09603035 -0.03045531  0.3225057   0.16682257 -0.05530414  0.06267842
 -0.23062603  0.09714253 -0.10864605 -0.11862657 -0.21020861 -0.1276626
 -0.26065123 -0.14119357  0.07400081 -0.3248484   0.01150273  0.04255515
 -0.05131235 -0.15982707 -0.11724097  0.2584207  -0.10487743  0.28383425
 -0.04394548 -0.19831218  0.31327817  0.1077394 ]
[ 0.21994185 -0.10833745 -0.07027593  0.00093728  0.17630976  0.32838207
  0.13774282  0.04775884  0.24379343  0.32675615 -0.18107715 -0.26106492
  0.20567496 -0.34011942 -0.26049182  0.04561296  0.27058113 -0.1568808
  0.11901316 -0.02393034 -0.03102984  0.11550133  0.00656991 -0.35222632
 -0.28219247 -0.40923938  0.06348298  0.5161299   0.44846135 -0.17424451
 -0.04031839 -0.28732052 -0.4869457   0.15145577  0.38433796  0.25841647
 -0.25988695  0.04780907  0.06297889 -0.37433442]
[-0.07784592 -0.26210114 -0.23766619 -0.06179898  0.08482558  0.31913957
 -0.36096686  0.18953463  0.27265108 -0.21689805 -0.3503179   0.34555078
  0.31832534  0.17842297 -0.03456583 -0.03005248  0.3530684  -0.11578947
  0.27860606  0.4247477  -0.19023326  0.13744694 -0.27874157  0.04592799
 -0.18854886 -0.24100399 -0.0459553   0.58990294  0.28733546 -0.0390063
  0.16555643 -0.44397333  0.05651897  0.07668161  0.2183235   0.21417138
 -0.12221865  0.2109502  -0.09646153 -0.35146844]
[ 0.10011625  0.01630989  0.27214646 -0.34134293 -0.00737551  0.12151432
  0.11332953 -0.12726896  0.14196879  0.00058003  0.27078164  0.0437119
 -0.06277202 -0.2195961   0.47019318 -0.02026604  0.02301956  0.06940383
  0.05124547 -0.2663477   0.00830043 -0.0700769  -0.05944441  0.09455717
 -0.0240001  -0.03103174 -0.19729042 -0.22136812 -0.31440973  0.09121539
 -0.17355515 -0.21023582  0.49390292 -0.17700918  0.05442851  0.09893586
 -0.1529291   0.16993967  0.14845842  0.22845261]
[-0.00570883 -0.3546773  -0.0345681  -0.21944025  0.18242021  0.0783428
 -0.39495376  0.18469067  0.10741177  0.10442281  0.43988347 -0.02143129
  0.16412117 -0.13842799  0.4931913  -0.07940892  0.02457822 -0.34113622
 -0.06923822  0.33630392 -0.13410915  0.2877832  -0.3183276  -0.09541339
 -0.39665547 -0.03407766  0.17418303  0.3416244   0.10589677  0.06902912
  0.2106626  -0.17896101  0.1518766   0.6245442   0.2734937  -0.07938509
 -0.21977009 -0.09576505  0.7771231  -0.34972998]
[ 0.12473719  0.11567469 -0.21763238  0.02428291  0.25506756 -0.24820983
  0.22195654  0.17242639  0.0906606   0.15427934  0.19974796  0.22430402
  0.04756582  0.12669887 -0.10658648  0.04037957  0.02885948  0.05457943
  0.0166869  -0.13363878 -0.28130344  0.0009916  -0.04532432 -0.12452883
 -0.31423384 -0.16775286  0.04153771 -0.14110874 -0.26101312 -0.17605977
 -0.12412421 -0.0988076  -0.564776   -0.1589546  -0.05973687 -0.12778121
 -0.1263102   0.17054813  0.0536679   0.29010177]
[ 3.7565313e-02  8.9902140e-02  3.5626404e-02 -5.2431948e-02
 -2.8276113e-01 -1.5500018e-01 -1.4718075e-01  8.4939830e-02
 -9.3577914e-02  8.3428323e-02 -4.5724708e-01 -8.2409739e-02
  2.1515875e-01  2.4074444e-01  5.4887746e-02 -5.3756718e-02
  6.8274818e-02  3.8354439e-01  2.9139969e-01 -1.1947692e-01
  5.9146885e-02 -3.0351013e-01  2.3319909e-02  1.4061594e-01
 -9.5879748e-02 -3.9115641e-03  1.2266373e-01  1.5147313e-01
  6.4420057e-03 -3.9622226e-01 -1.4157662e-01 -3.3411795e-01
 -1.5889813e-01  4.0624857e-01 -4.0000444e-04 -6.6336259e-02
  9.7619273e-02  7.5419813e-02  2.6299858e-01  7.3619746e-02]
[-0.21013469  0.2974284   0.18405749  0.12103762 -0.30616805  0.14262216
  0.1782405   0.03964257 -0.00805567  0.19786339 -0.03261713  0.13989171
 -0.10578963  0.19389866  0.02801942  0.13038048 -0.18989019  0.09524417
 -0.04599033  0.29361898 -0.24254403 -0.19098894  0.24081732 -0.02378326
 -0.21412334  0.3281848  -0.0643494   0.41996583  0.35876846 -0.1717019
 -0.35414618 -0.1889111   0.46563783  0.56371385 -0.50674593 -0.25280702
  0.05650494  0.2885523   0.09301725 -0.47459793]
[-0.2905635  -0.18612388 -0.15530549  0.05043344 -0.15650962  0.07702235
 -0.05407132  0.33179238 -0.32623923 -0.03528867 -0.04163219  0.22137277
  0.06748485 -0.07978258  0.07809251  0.20838442 -0.11104229  0.05610609
  0.11520188  0.13158426  0.24599963  0.17085403  0.22777143  0.2755363
 -0.12495759 -0.08699098  0.1570673  -0.29597044  0.0888478  -0.00568611
 -0.0409083   0.25653479 -0.56750804 -0.3224612   0.13739456 -0.19065455
  0.06851383  0.29804897 -0.05174964  0.2545317 ]
[-0.25879094  0.2384897  -0.17495348  0.09379862  0.16901417  0.29728776
 -0.14735095  0.26940733  0.3049248  -0.1975323   0.30809957  0.19057283
  0.43706742 -0.28773305  0.381119    0.01657313  0.3269204   0.16151243
 -0.36932158 -0.2621828   0.06506526  0.12694862 -0.18459238 -0.22233604
  0.10103063 -0.28602785  0.28046754  0.3249416   0.24603648  0.251238
  0.22899057 -0.0485724   0.00329909 -0.086448   -0.2861681   0.47995895
  0.01065596 -0.22557122  0.47254044  0.1574466 ]
[ 0.2987531   0.15145788 -0.03246639  0.08675011  0.2715317   0.05072883
 -0.15247649 -0.04256919  0.03418228  0.43449765 -0.1101035   0.10716772
  0.15230623 -0.5888991   0.7928805   0.14181045 -0.26744202  0.09332332
 -0.4018895  -0.11368649 -0.09768873 -0.03775796 -0.15212059 -0.1046168
 -0.06596505 -0.12504144 -0.18132962  0.06702522  0.6676128  -0.01418337
 -0.03099642 -0.23520567 -0.70277345  0.27656496 -0.26336348  0.2617481
 -0.30557314  0.5345501   0.01901803 -0.1957459 ]
[ 0.16071263 -0.07513958 -0.0661079   0.259751   -0.02854525  0.14739192
  0.20111747 -0.10466547  0.2702334   0.00990312 -0.43360496 -0.18054022
  0.25912964  0.0056693  -0.22906072  0.06535593 -0.21292426 -0.46734107
 -0.05608945  0.08400854  0.30644643  0.36285797 -0.25515768 -0.07939125
 -0.08894257 -0.29034597  0.24866197  0.3777348   0.3669183  -0.19244136
  0.24178983 -0.25378025 -0.76560324  0.10037415 -0.06494261  0.21514407
 -0.20299979  0.02716125 -0.10333981  0.13746127]
[ 0.02708887  0.21858172 -0.02861689 -0.25456807 -0.07167719 -0.16511017
 -0.36738348 -0.07256926 -0.06105886  0.09674856  0.00684133  0.11222419
 -0.21339904 -0.2564586  -0.00525234 -0.2580101  -0.16037636  0.02887437
  0.10752587  0.18303859 -0.16608801  0.00562543  0.1877368   0.17329818
 -0.14652327  0.15681784 -0.00225775 -0.09152097 -0.31176594 -0.06555624
 -0.09963518  0.22876155  0.5209974   0.12026645 -0.07209067  0.06564181
 -0.10231093 -0.18239197  0.5015989   0.12806436]
[-0.44714433  0.00938209  0.0763043   0.02586316  0.03011633  0.12063009
 -0.34401515  0.01824771  0.23720737 -0.30095163 -0.42390266  0.00721539
  0.13780214 -0.15268208  0.16522074  0.22478938 -0.03378686  0.01594093
  0.17321712 -0.27168024  0.07254838  0.04151514  0.06581634 -0.07536112
 -0.02263682 -0.23598248 -0.01967022 -0.03007324 -0.06444908  0.1666825
 -0.14565034 -0.07464984 -0.07580606  0.00738541  0.15568228 -0.1882035
  0.25454858  0.19402084  0.06546559 -0.17088635]
[ 0.08091763  0.2097557  -0.3110173  -0.1804601   0.32863736  0.18837862
 -0.14926977  0.24970026 -0.21785437  0.14142379  0.396289    0.21212104
  0.07783724 -0.29119438  0.30021113 -0.07648148  0.23167595  0.37183625
 -0.36969933 -0.02412509 -0.1656359  -0.23716228 -0.23532972 -0.08787512
  0.23741046 -0.13637586  0.09711652 -0.15279092 -0.06230344  0.25300333
  0.15037128  0.25236815  0.36232463 -0.3735926   0.1163557   0.3648102
 -0.19168733 -0.3282065  -0.13028035 -0.1756433 ]
[-0.05033622 -0.29241064  0.00448663  0.07561697 -0.00570918 -0.01846785
  0.06571566 -0.03054178 -0.05397422 -0.02741478  0.0644333   0.04670934
  0.00844803 -0.01087386  0.05454833 -0.03463991 -0.17397796 -0.01995435
  0.02830192 -0.09590087 -0.02396913  0.01526375 -0.00422832  0.14365608
  0.01581267  0.03949716  0.09020193 -0.20037936  0.05096093 -0.03130826
  0.0857398   0.05124999 -0.25523487  0.16680424  0.06951907 -0.03506323
  0.06662472  0.03030093  0.2117093   0.07010577]
layer 3 Activation
tanh
layer 4 Dense
40 20
[ 0.05257732 -0.27048346 -0.03783267 -0.19052027 -0.36130252 -0.06018717
 -0.04982127  0.20885026  0.2337969   0.09448152  0.06975234  0.05136242
 -0.01363732 -0.03698998 -0.2240485  -0.0325362  -0.04981175 -0.14207095
  0.06006347 -0.11465541]
[ 0.18433523  0.06935608 -0.16684014 -0.1326345  -0.36025602  0.04903198
  0.18951526  0.17217824  0.27186975 -0.00168826  0.15107274 -0.01451298
 -0.19018795  0.1455497  -0.00859359  0.13783915 -0.01558436 -0.07139378
 -0.13154055  0.2665433 ]
[ 0.17663725 -0.08810214  0.23892066  0.05147818  0.04917067 -0.00390505
  0.2391316  -0.15369672  0.21470167 -0.04900603  0.01504333  0.01928177
  0.08429912  0.04553921 -0.05458206  0.01684987 -0.23452997  0.00403755
 -0.01174513 -0.02600786]
[-0.11413844  0.00674025 -0.24962059  0.14780298  0.24095449 -0.03551571
 -0.16179244  0.00836767 -0.17909622 -0.06969195  0.27853683  0.22556259
  0.27698126 -0.05537784  0.24119662 -0.14857408 -0.01279454  0.04252553
  0.23177001  0.1112973 ]
[-0.01738529  0.12705518 -0.02930761  0.05826133  0.23930705  0.07206959
 -0.14714013  0.04603716 -0.21183607  0.16585796  0.05326626  0.2538567
 -0.25683874  0.05940209  0.10367717  0.24650918  0.12803636 -0.24401602
 -0.15311721 -0.0876971 ]
[-0.20641768  0.16064332 -0.12602621 -0.3917597  -0.08716919 -0.03215794
  0.10926364  0.10142603  0.2455698   0.00656331  0.13766749 -0.28435874
 -0.22424975  0.14524564  0.08192249 -0.1028635  -0.05415689  0.3194969
 -0.17484936 -0.0194177 ]
[ 0.01179031 -0.13827108 -0.23730808  0.00881155 -0.08583242  0.16314174
 -0.12115501  0.0818406   0.37773782  0.12875576  0.1649697   0.13245115
  0.45428085  0.11606423 -0.14462197 -0.27154773 -0.4867797  -0.35172638
  0.41250104  0.05680026]
[ 0.22328174  0.12713687 -0.16078159 -0.08289684 -0.20152675  0.1325941
 -0.04334825  0.06112188 -0.14861386  0.09076688  0.01531616 -0.28227028
 -0.1970837   0.06343113  0.25700617  0.09585214  0.21766505  0.09902225
 -0.28639698 -0.21984611]
[-0.12983945  0.13334028 -0.17150375 -0.3720598   0.05778807  0.11747917
 -0.11136238 -0.15028787 -0.02743793 -0.24835874 -0.2682495  -0.03500749
  0.1699472   0.26475176  0.2905774  -0.3433126   0.23068848  0.1529143
  0.26325554 -0.04833056]
[-0.05105532 -0.00467776 -0.2263859   0.18590863 -0.02688148 -0.13633758
 -0.08217955  0.08318843  0.16368097 -0.07453256  0.13438345  0.17025386
  0.11108944  0.29730785 -0.2365602   0.21793403 -0.20594695  0.3372832
 -0.13722204  0.17304043]
[-0.14038086 -0.22154118  0.02670112  0.3113103  -0.1396605   0.12335043
 -0.14313205 -0.13919367 -0.01502829  0.27320102 -0.03624592  0.08411172
 -0.3578836   0.13175648 -0.01656395  0.03692245 -0.1574548  -0.09327083
 -0.3103347   0.06061957]
[-0.07066154 -0.002366    0.07671197  0.19802387 -0.19546998  0.0055532
 -0.20234048  0.29656488 -0.32999334  0.19662596 -0.06589117  0.11234434
 -0.40501675 -0.27736482 -0.21131891 -0.03038607  0.38783613  0.1988307
 -0.09102345 -0.35120553]
[-0.02400534 -0.28864503 -0.13142732 -0.11619426  0.16626193  0.08336592
 -0.16048026  0.04248124 -0.07478826 -0.10410458 -0.08856204 -0.27548653
  0.0397817  -0.14881624  0.22918203 -0.14448898  0.14328626  0.03883702
 -0.26723582 -0.00159777]
[ 0.03111246  0.24952249  0.17545107  0.2361445  -0.05920894 -0.05128776
  0.2591755   0.17982057 -0.2847976   0.09977759 -0.181981   -0.02447737
  0.13560471  0.12542106  0.15729001 -0.32165837 -0.0010374   0.00683865
  0.34483626 -0.1967131 ]
[ 0.10107804 -0.02174741 -0.03440003  0.22088057 -0.2801362   0.01547541
 -0.08848657  0.1310591   0.04416119 -0.17248088 -0.16863035  0.37179944
 -0.16347162 -0.14440525  0.13593097 -0.02775595  0.33931112 -0.20665953
 -0.44285375 -0.3858994 ]
[-0.08204329  0.0106416  -0.24571319 -0.11447602 -0.08884994  0.03339311
 -0.02740564  0.161969    0.13730365 -0.14112318 -0.25565967 -0.02855796
 -0.01278391  0.05309526  0.14427266 -0.15217133 -0.25043857 -0.13307989
  0.0163529  -0.20420076]
[-0.04984214 -0.14215587 -0.09894459 -0.25258094  0.04671944  0.06221107
  0.06926333  0.01657708  0.09371    -0.20090935 -0.17416222 -0.20044549
 -0.02828998 -0.23288874  0.10171201  0.10051474  0.06808912  0.19596173
  0.20172285 -0.06009196]
[-0.00904526 -0.29163605 -0.11890296 -0.00595556 -0.2640916  -0.03819358
 -0.04750337  0.18147843 -0.0378982  -0.08187687 -0.150651    0.11172098
 -0.06836751  0.11092491 -0.3199879   0.06110571 -0.18786423 -0.3212072
 -0.29532096 -0.01826163]
[ 0.18131714  0.00803213  0.26160893 -0.03679157 -0.00455803 -0.05742559
  0.30448252 -0.12924658 -0.08936462  0.1053077   0.16936201 -0.20061246
  0.38676277  0.03295752  0.16850266 -0.08457562 -0.08327404  0.15813887
  0.40019584 -0.06166163]
[-0.04789483 -0.10259117  0.18830784 -0.10255942  0.25180867  0.08029469
  0.12290827 -0.10429033  0.21522859  0.17516863 -0.22331797 -0.05007822
 -0.14489327 -0.08994684 -0.12585333 -0.27295557  0.01318231  0.32813457
  0.09817656  0.20344   ]
[ 0.13192047 -0.06598113 -0.10872035 -0.02689432  0.39009404 -0.22286883
 -0.29127946 -0.06324194  0.04258844  0.05966724 -0.03000716 -0.11665055
 -0.04504991  0.17981905  0.1615487   0.27502942  0.40293914 -0.25164014
  0.16049172  0.09082775]
[-0.06950212  0.0184831   0.13277553 -0.0935175  -0.08871137 -0.16722667
 -0.21325904  0.03070453 -0.37760657 -0.24713537  0.17542373 -0.11005668
  0.07384058 -0.18988673  0.24336822 -0.10017668  0.20733601 -0.1056757
  0.15998264 -0.11481264]
[-0.1628741  -0.16564848 -0.12327918  0.33177468 -0.03042831 -0.18881856
 -0.09113847 -0.06747382  0.18839732 -0.24587849  0.2590348  -0.0026723
  0.45824137 -0.02405458 -0.14787325 -0.25934973 -0.24309474 -0.04249507
  0.23992953 -0.08263791]
[-0.04014843  0.01261348  0.06816615  0.28643978 -0.16063076  0.26078388
 -0.17553289  0.20333785 -0.18757962 -0.12277759  0.31352726 -0.03712085
 -0.03458413 -0.1898494   0.0060785  -0.10162857 -0.22083096 -0.04234722
  0.04901113  0.21684472]
[-0.24443537 -0.13851607 -0.05025306 -0.27182627  0.2075728  -0.08836432
 -0.07137867 -0.03846987  0.37457877  0.02866107  0.20069934 -0.19818348
 -0.06743387 -0.33667502 -0.23168187  0.3737001  -0.06741713 -0.07040328
  0.1252176  -0.00568999]
[ 0.1301831   0.0298534   0.19093291 -0.09456355  0.10464606 -0.10491939
  0.12469462 -0.17530183  0.16869493 -0.21419649  0.13275768  0.20524152
 -0.06669506  0.02176047 -0.3296142  -0.09307041 -0.21112902  0.01498425
  0.03071438 -0.00223932]
[ 0.22913769 -0.08201923  0.02836964  0.15523121  0.20556007 -0.00288383
 -0.08288973 -0.03176559 -0.25243002  0.03042873 -0.24786305 -0.13621233
  0.02397059 -0.06414779  0.17897454  0.15430436  0.27329794  0.04125903
 -0.0109736   0.14474443]
[ 0.01838757 -0.179186    0.06082302 -0.26105785 -0.1453005  -0.15234789
 -0.12925243 -0.07934968  0.13814881  0.1604577  -0.41293284 -0.1791361
 -0.2155255   0.17533636 -0.02449731 -0.08474716  0.2653645   0.65023774
 -0.02946164  0.09408184]
[ 0.18030643  0.23001644  0.08748649 -0.23809636 -0.21408807  0.06637268
 -0.22407033 -0.0929742   0.20458694 -0.0382413  -0.2255165   0.281562
  0.18311955  0.0686825   0.00436446  0.07200825  0.03754859  0.12312327
 -0.2859838   0.13839434]
[ 0.20335126 -0.17275947 -0.03121612 -0.05359149 -0.17504361 -0.16530201
  0.09811775  0.10619185 -0.06987967 -0.09261715  0.2487089  -0.04169498
 -0.17021707 -0.15313941  0.1293432   0.2529588  -0.008054   -0.16191038
 -0.26643446  0.15663236]
[ 1.2711051e-01  4.9869251e-02 -1.0506429e-01 -4.6791717e-02
  1.5561496e-01 -7.9021692e-02 -2.1486771e-01  9.3273334e-02
 -2.3143204e-01 -2.3693134e-01  4.3616956e-03 -8.7360386e-05
  2.5436226e-03 -8.8704955e-03  1.6115814e-02  7.6737277e-02
  2.3168513e-01  1.1922460e-01 -5.5083758e-03  3.2931790e-03]
[-0.34166515  0.23246688  0.03541349  0.02079144 -0.15204115 -0.04291165
  0.04448164 -0.12518148 -0.08601855 -0.05859946  0.3613957  -0.00323268
  0.08749032 -0.18594031 -0.05316618  0.23561838  0.02528984 -0.31094113
  0.0823266  -0.13001394]
[ 0.12301045  0.0296177  -0.00826705  0.2820686  -0.08615995 -0.01695549
  0.2489381  -0.10813399  0.01056075 -0.16463712  0.28706875  0.07962434
 -0.6530241  -0.00578443 -0.29135218  0.11061966  0.0837929   0.04268107
  0.30889368 -0.08371656]
[ 0.00244965  0.04599313  0.37675694  0.16492961 -0.3517113   0.07684047
  0.23808624  0.13261002  0.0308248  -0.17453745 -0.21923469  0.25314805
  0.4000386   0.1861326   0.31801143 -0.13625365 -0.00223451  0.21612552
  0.10651371 -0.19634147]
[ 0.1502034   0.04872088 -0.25046045  0.18395276  0.13438547  0.05027546
 -0.20316313 -0.15932633 -0.04406168 -0.1263175   0.06129755 -0.2771764
  0.04572812  0.0144884   0.1673007   0.08385617  0.01631235  0.14398792
 -0.12625916 -0.01113869]
[-0.02387999 -0.16846119 -0.32234967 -0.3409526   0.06710845 -0.02756286
 -0.12673424  0.05940393 -0.14484268  0.15436506 -0.07233407 -0.1257987
 -0.16224949  0.05602263  0.05658643  0.00558708  0.09144934 -0.0528625
 -0.25248873  0.12639132]
[-0.00959807  0.11579269 -0.027859    0.32901612 -0.00150119  0.11556803
 -0.18372384 -0.07155365 -0.1470499   0.00916216  0.26855156 -0.17239013
 -0.01464572  0.1909713   0.0887529  -0.02093125  0.04081115  0.11644965
  0.18321948  0.130602  ]
[ 0.14855905 -0.16159739  0.24923761 -0.08916656 -0.23480883  0.1576984
 -0.06988376 -0.19948538  0.21725689  0.1803437  -0.2653156   0.06344609
  0.14855628  0.26622453 -0.2046061  -0.12850246 -0.02799319 -0.03451233
  0.08094735 -0.20568828]
[-0.19945025 -0.02369068  0.03204401  0.10668913 -0.08136415 -0.25225326
 -0.2632293   0.07466806  0.25599435 -0.01554044  0.00090165  0.18542933
  0.42986962  0.06665849  0.16218454 -0.27269554  0.12183531 -0.18375066
 -0.20142174  0.14565733]
[ 0.20631345  0.17762297 -0.22180313  0.07922141 -0.30204102 -0.08221935
  0.07252847 -0.18108295  0.2928672   0.12312883 -0.03069077 -0.31071034
 -0.04877895 -0.04991631  0.15784971  0.03204075 -0.3232547  -0.39963615
  0.076686   -0.11898505]
[ 0.00842611  0.06822731  0.12059191  0.0924271  -0.07038886 -0.02466903
 -0.14171597 -0.03051997  0.05543171 -0.02378378  0.05186175  0.00725105
  0.10116801 -0.07053422  0.05092252 -0.00181994  0.0598895  -0.06828132
 -0.0890094   0.04856013]
layer 5 Activation
tanh
layer 6 Dense
20 1
[0.00030563]
[-0.0248392]
[0.06568851]
[-0.02958648]
[-0.04335102]
[-0.00174982]
[-0.13394623]
[0.01383078]
[0.05135244]
[-0.0052883]
[-0.05281795]
[0.10894545]
[0.09049401]
[0.01918694]
[0.10469362]
[-0.02770645]
[-0.00860166]
[0.0800824]
[-0.09375712]
[-0.0061113]
[0.03788989]
