layers 7
layer 0 Dense
24 20
[ 0.6351765  -2.1744866  -0.90091085  0.015759   -1.1133957   0.9793433
 -0.9738876   0.38349774 -0.7141301  -0.98475784 -0.39213264 -1.9388102
  1.1553742   1.0267516  -1.1335628   0.13148807  0.33938426  0.98852485
  1.399133    0.81044257]
[ 0.09833123 -0.2737882  -0.1404663  -0.73017275 -0.16618925  0.3814825
  0.38663703  0.5139054  -0.60678834 -0.17416826  0.6752306  -0.4372697
  0.11101973  1.079199   -0.1482651  -0.00316636  0.4543468   0.9554285
  0.6716027   0.7847222 ]
[ 0.4814104  -0.6153142  -0.7073281  -0.9920417  -0.64534074  0.24900289
  0.46140906  0.1920645  -0.7261323  -0.40264457  0.35625857 -0.29811478
 -0.04731875  1.0417674  -0.37485737 -0.19175588  0.18076816  0.63017756
  0.7995344   0.6145887 ]
[ 0.984116   -1.3139281  -0.8463315  -0.02150928 -0.82761556  0.72370416
 -0.35420275  0.62309796 -0.23331061 -0.58154595 -0.25687575 -1.4734179
  0.5964454   0.67728615 -0.47708967  0.26680633  0.6105027   0.33517835
  0.8746675   0.4354915 ]
[ 0.29707223 -1.6394337  -0.30960476  0.64712346 -0.587113    1.061696
 -0.75552964  0.6433035   0.11248981 -0.17319727 -0.92243767 -1.3329126
  0.6628126  -0.5427447  -1.178193    0.9864908  -0.6243656   0.47737327
 -0.03326599  0.38190237]
[ 0.04195217 -0.19238858 -0.19882414 -0.0759159  -0.15004693 -0.09123613
  0.22252738  0.12051412 -0.05527994 -0.0994362  -0.26344156 -0.22133197
  0.18461728 -0.32815856  0.12146477  0.6847454   0.866415    0.07523447
  0.14179213 -0.11995383]
[-0.05572963 -0.3433316   0.15803048  0.51630276 -0.4917518   0.16650034
  0.15338302  0.3206411  -0.13311231 -0.02620256 -0.33072582 -0.09282056
 -0.15154253  0.4015457  -0.28036985  0.8827594   0.93036896 -0.06007397
 -0.01617598 -0.38765827]
[-0.6640502   1.7141949   0.33523005 -0.63522404  1.2711681  -1.0501605
  0.8059702  -0.99784935  0.9599717   0.6397786   0.37501112  1.9802425
 -1.2858063  -0.2773574   1.1295139  -1.5188363  -0.5630277  -0.83118856
 -1.4364021  -0.29610446]
[-0.08073428 -0.818134    0.04355081  0.23444757 -0.11354311  0.44311774
 -0.7559116   0.2553348   0.10114557  0.24428305 -0.4203276  -0.8447334
  0.54750293 -0.13485344 -0.5097978   0.3329692  -0.66504186 -0.4134394
 -0.28376377  0.13776161]
[-0.10741914 -0.04151795  0.38826978  0.34969926 -0.25918144  0.21122286
 -0.3434778  -1.250588   -0.46933398  0.05965917 -0.33054748 -0.06159889
  0.04415201  0.13162588  2.686828    3.948939   -0.43114382 -0.41540766
  0.9774891   0.8398497 ]
[-0.04119352 -0.70961374  0.11217976  0.6691608   0.28393045  0.94118786
 -0.85027766  0.33652496  0.58957285  0.31458962 -0.18464448 -0.7109142
  0.3136684  -0.19886252 -0.590208   -0.07188913 -0.1198661   0.35064134
  0.11758415  0.13515577]
[-1.4767444   3.03373    -0.04704014  0.12312716  0.5988271  -1.1122658
  0.5681804  -1.8020092   0.6993067   0.5301679   0.2602615   2.6722536
 -1.6811608  -0.42328694  1.188545   -1.6266354  -0.21157919 -0.5341792
 -0.75611085  0.04868183]
[-0.33210084 -0.50614846  0.02043228  0.5973284  -0.14619868  0.42856932
 -0.3353908   0.41093916  0.80801773  0.14046963 -0.9312245  -0.44285136
  0.4832859  -0.49214387 -0.5161416  -0.6781371  -0.66506135 -0.23681095
 -0.21849754  0.19578403]
[ 0.09942555  0.35435468 -0.06233171 -0.06057502 -0.2627885  -0.66290516
  0.44906324 -0.9613769   0.02074531 -0.24694039  0.29231963  0.4896241
 -0.24242441  0.57431966 -0.23574816 -0.83015627  0.19904104 -0.303431
  0.07507601  0.075597  ]
[ 0.14978941  0.47665203  1.5943347   0.20916206  0.96726364  0.16032673
  0.89124256  1.1812865   0.16137095 -0.04235945 -0.0819908   0.33233327
  0.13913691 -0.75628215 -3.86888     1.6660239  -0.13389842  0.46244514
 -0.31025812  0.8700796 ]
[-0.9115345   2.6741393  -0.5724742  -0.9049293   0.19136526 -2.269259
  1.6168739  -1.6992022   0.11498232  0.03408619  0.10182247  2.2021713
 -1.5641689   0.15485793  1.7789838  -7.063733    0.1271054  -0.8608294
 -1.0918226   0.28855848]
[-4.8121580e-01  3.0988449e-01  3.5636988e-01  1.3265112e-01
 -2.9708577e-05  2.6104113e-01 -4.0775504e-02 -1.5461557e+00
  3.2893214e-02  9.1180015e-01 -1.8271215e-01  3.1982526e-02
 -4.7020257e-01 -3.5193816e-01  2.1891005e-01  1.9153306e-01
 -4.8395339e-01 -5.0594693e-01 -7.3712695e-01 -4.4153780e-01]
[-0.14651255 -0.44523564 -0.03964296  0.86050504 -0.09833851  0.5882036
 -0.3590052   1.7548957   0.14261957  0.3744036  -0.8358743  -0.5436452
  0.2488424  -0.34325942 -1.0203912  -0.25027186 -0.15982307 -0.09914989
 -0.44164035  0.6000637 ]
[-0.15008944  0.7613659  -0.19623117 -0.63525885  0.08354653 -0.7021667
  0.7863988  -0.82382745 -0.5010654  -0.39703247  0.5959138   0.9660471
 -0.3163321   0.6485296   1.4801915  -0.2177998  -0.02722197 -0.09915717
  0.17907558 -0.16194557]
[-0.7719181   1.3651427  -0.23733993 -0.48971796  0.65520346 -1.3995743
  0.83586234 -4.582109    0.91742843  0.96246195 -0.76895475  1.5170771
 -0.6099909   0.11751949  2.215637   -1.861278   -0.7292545  -1.3741381
 -1.4100409   0.19440947]
[-0.22389428 -0.39947423  0.47964776  0.4198826   0.49569303  0.65417844
 -0.12317687  0.2730931   0.65428257  0.24309383 -0.40673658 -0.34210876
 -0.16719161 -0.19080922 -0.45116815  0.32561278 -0.6900131  -0.4375144
  0.15505016 -0.19549386]
[-0.2983238  -0.9456849   0.38744673  0.382322   -0.01541727  0.6897061
 -0.5964307  -0.37071607  0.19002384  0.5494687  -0.16061343 -0.94502383
  0.32104212 -0.99583405 -0.61829257  1.4196295  -0.41731855 -0.28899384
 -0.6272916  -1.1842457 ]
[-0.05171761 -0.8656458  -0.23727489  0.8295148   0.23606023  1.1876287
 -0.45803064  1.4269067  -0.72179073  0.39409935 -0.107471   -0.7216518
  0.33479616 -0.0884924  -1.0356818   1.0955763  -0.36213163  0.19579446
 -0.17566921 -0.21161096]
[-0.22864845 -0.01340693  0.05148698  0.25958237  0.23606962 -0.14240037
 -0.504031    0.1069516   0.13814586  0.62164754 -0.04404346  0.20453975
  0.06014633 -0.4922623   0.03681974 -0.24535486 -0.64067334 -0.19855227
 -0.34094405 -0.3307846 ]
[ 0.46802118 -0.5612134  -0.35791212 -0.06524475 -0.62375605  0.12910672
 -0.11733818  0.5386682  -0.4850718  -0.5897792   0.18484335 -0.5670274
  0.51489776  0.48774964 -0.23807205  0.58928     0.573957    0.5309346
  0.63171744  0.25989825]
layer 1 Activation
tanh
layer 2 Dense
20 40
[ 0.42323864  0.9453413   0.2042792   0.72425485 -0.3465869   0.19912884
  0.05068832  0.51935077 -0.61045176 -0.3686732  -0.37706068  0.22398564
 -0.447458    0.22234814 -0.21736097  0.5142239  -0.42910188  0.33947703
 -0.47343498 -0.30055875  0.28870246  0.49344462  0.2327844   0.569227
 -0.365888    0.37833583  0.42922136 -0.19254181  0.51443094 -0.26833883
 -0.12243295  0.8960858  -0.17647836 -0.5302577  -0.570062   -0.23440298
 -0.26530486  0.70409155  0.46945488 -0.0572687 ]
[-0.33572504 -0.62103826 -1.8898063   0.15829936  0.29707128 -2.1515038
  1.9107125   0.79410225  2.4291763   0.68293846  1.2278739  -1.9179027
  1.3695828   2.6249936   0.50508714 -2.2742283   1.7762622  -0.9013253
  2.624097    1.7291805  -2.658698   -2.598111    0.7636142  -2.346544
 -0.09655564  1.3435354  -2.2884111   2.3549519  -2.0137324  -0.01130389
  1.2582852  -2.3127077   2.3029644  -1.1974074   2.1048353   0.05627845
  1.7891135   0.04894494 -1.3197067   0.5012759 ]
[-0.74485576  0.02261435 -0.09928672 -0.7302675   0.6061379  -0.6278923
  0.57329506 -0.3752128  -0.062412    0.35452563  0.756994   -0.63907945
 -0.5907333  -0.3394894   0.5911113   0.1017874  -0.08010228 -0.4330554
  0.03331922  0.20952365  0.04986903  0.0882194  -0.39209273  0.06514113
 -0.32274222 -0.64085835  0.677104    0.51479536  0.53488135  0.35402998
  1.1550404   0.28701848  0.15902324  0.24463594  0.14526318  0.49470204
  0.36645833 -0.16008253 -0.10761344 -0.74380696]
[ 0.15532418  0.40051785  0.11353044 -0.12858763  0.12195159 -0.3688189
 -0.52032393  0.53967917  0.38668272  0.5342908   0.05878135 -0.5184477
  0.10989252 -0.06555124 -0.28748134 -0.53187335  0.7908901   0.1715404
  0.38060498  0.92345047  0.11355475 -0.12780859  0.39649594 -0.3015485
 -0.03460244  0.44678503 -0.44533134  0.33591816 -0.6322459   0.93074876
  0.52221733 -0.21752325  0.05996988  0.8487368   0.3622068   0.16616686
  0.31839997 -0.1007372  -0.44614428 -0.10604312]
[ 8.00797999e-01  4.07918364e-01  3.83830011e-01 -1.39842540e-01
 -3.71916503e-01 -2.29727522e-01  7.06617534e-02  4.06749368e-01
  4.72070575e-02 -1.56895906e-01 -5.62154572e-04 -4.87553537e-01
  2.87139505e-01  4.92632091e-02 -1.80447236e-01 -6.57132044e-02
 -4.14385587e-01  4.26645786e-01  3.78371119e-01 -5.18913604e-02
  4.01216924e-01  1.08658515e-01  8.38775575e-01 -1.72256827e-01
 -3.47310692e-01  9.65650856e-01 -9.36069340e-02 -1.82083040e-01
  2.89697498e-01 -4.51385856e-01 -5.38293600e-01 -1.51146501e-01
 -2.47977540e-01  3.97687584e-01  7.84673989e-01 -6.01269543e-01
 -1.73784316e-01  3.60661715e-01 -4.22986448e-01  1.08356304e-01]
[ 0.13030271 -0.6733881  -0.15799445 -0.3437191  -0.19035786 -0.0733079
  0.02307718 -0.8367499   0.5296461   0.22939336  0.48962373  0.42099297
 -0.2495513   0.7542508   0.6273809  -0.4010486   0.31374648 -0.453146
  0.6138086  -0.25346237 -0.38860548 -0.2919625  -0.65117747  0.8275467
  0.04576897 -0.52375233  0.19162089 -0.20846738 -0.07899567  1.012549
 -0.02368685  0.23800641  0.4061518   1.1078061   0.6439187  -0.33255413
 -0.22406457 -0.51361567 -0.25995827 -0.31172666]
[-0.28929913  0.27260482 -0.18769814 -0.2725185  -0.1461723  -0.22884446
  0.05966514  0.68878335 -0.29425305 -0.7153654  -0.32744086 -0.35287726
  0.7010321  -0.38416138  0.32553715  0.41981167  0.24972667 -0.0067154
 -0.5092825   0.61914724  0.600904    0.7601025   0.7875412   0.03344347
  0.35492006  1.2230903  -0.5598343  -0.02243126  0.0334954  -0.43759328
  0.34397432 -0.52330565 -0.3071799  -1.0222917   0.01632327  0.24831243
 -0.02587194 -0.16548117 -0.4154689   0.33642364]
[ 0.78968537  0.5668639   0.940719    0.10795421 -0.43996844  0.9522073
 -0.38089597 -0.58733445 -1.1217451   0.28083202 -1.1301688   0.66230625
 -1.2092499  -1.576007   -0.09854504  0.5708735  -0.58569753  0.37703127
 -1.0605801  -0.95337164  0.5196322   0.60195637 -0.69002676  0.09764893
 -0.20560063 -0.38894996  1.0204225  -0.99967855  0.74469674 -0.7479887
  0.03886684  0.7588228  -1.0858822  -0.8007133  -0.92028916 -0.7193206
 -1.2237859   0.40106317  0.6503585  -0.8851142 ]
[-0.01016889 -0.3086836  -0.22686693 -0.22519672  0.4246867  -0.19284046
 -0.2763936  -1.2701898   0.06926252  0.8338453   0.6053768   0.09188446
 -0.19667712 -0.28303578  0.2149452   0.02806352  0.07595608  0.08033153
 -0.13058376 -0.27453053 -0.22283329  0.2917026  -0.59316945 -0.38932672
  0.09072267 -0.7495433   0.34765765  0.3223678  -0.23923947  0.7650905
  0.4225286   0.39137033 -0.08700638  0.5156341  -0.3532002  -0.05141447
  0.4786178  -0.56767416  0.32909077 -0.28062302]
[-0.92015606 -0.41385168  0.00729859 -1.0471854   0.567644   -0.52071744
  0.32677162 -0.58124876  0.702988    0.30097392  0.46369448 -0.44050148
  0.46085814  0.6438042   0.9842328  -0.5095942   0.9756212  -1.1992761
  0.5989727   0.80899173 -0.8367161  -0.9284537   0.04260289 -0.456327
  0.67174834  0.09137965 -0.26753718  0.35435367 -0.28035778  0.66670084
  0.4832477  -0.3861938   0.6660149   0.64293903  0.96324027  0.98193026
  0.52527106 -1.2948066  -1.0942063  -1.148187  ]
[ 0.7519285  -0.56135756 -0.20442414  0.33353564 -0.6217863   0.08064116
 -0.28501892 -0.5157533   0.23345919  0.5063806   0.13222305  0.5000834
  0.20474344 -0.07451431 -0.4226997   0.03836107 -0.4439127   0.16486982
 -0.13967647 -0.47390842 -0.0070555   0.25195262  0.64825946  0.07522553
 -0.05537162  0.84975976 -0.06558991  0.00136068 -0.22991946 -0.49450237
  0.25473598 -0.13684732 -0.1660265  -0.30637577 -0.20690244 -0.6270116
  0.15319787  0.1387912   1.041189    0.4889686 ]
[-1.1158403  -0.36000723 -1.766325   -0.00834244  0.48888853 -1.898025
  1.5721093   0.8056014   1.7925166   0.65888023  0.78969735 -2.1358588
  1.1938009   2.1886334   0.3764887  -1.5459105   1.7702682  -0.87994975
  1.8026874   1.5560074  -1.9357672  -2.0300164   0.69906765 -1.6433455
  0.34510067  0.67775446 -1.9900945   2.0819113  -1.4950129   0.02683695
  1.6285455  -1.9778425   1.4122856  -0.9847892   2.2309184   0.71972305
  1.7509264   0.30858117 -1.6559961   1.0867091 ]
[ 0.8118541   0.5521416  -0.23214449  0.5881278  -0.8324078   0.20127892
 -0.09988888 -0.45771784  0.17460008 -0.20996304 -0.3617013   1.0215231
 -0.31333682  0.02068921 -0.47906643  0.31777924 -0.8700067   0.5947977
 -0.33100596 -0.90733534 -0.22040184  0.15598077  0.06437755  0.02674016
 -0.6432641   0.32477984  0.08592227 -0.2471763   0.2570971   0.33857885
 -0.82225287  0.27780247  0.1825752  -0.04800595  0.04024279 -0.81066334
 -0.02531466  0.5821237   0.25218517  0.585629  ]
[ 0.10905074  0.76243883  0.36576712  0.11872543  0.12289902  0.18671697
 -0.0574113   1.0766493  -0.6950547  -0.25122565 -0.47887218 -0.13900107
 -0.06535502 -0.48140168  0.35215068  0.31363058 -0.5265705   0.10354054
 -0.4235277  -0.09372362  0.38142803  0.44939992  0.7048383   0.33291617
 -0.10419176 -0.11445267  0.3170144  -0.11114617  0.45922238 -0.37280527
 -0.19163288  0.54671425 -0.5284041  -0.5262619   0.04908301  0.27360308
 -0.6169077  -0.06366099 -0.505284    0.04557137]
[ 0.02523679 -0.9051317  -1.4411631   0.00869092 -0.03599974 -1.3405918
  1.9101607   0.4760879   1.5333462   0.17473623  1.5605483  -0.29955915
  1.5755304   1.5928249   0.1431173  -1.4250609   0.647195   -0.36975977
  1.8417856   1.0142378  -1.4521435  -1.4179847   0.14220072 -0.6977875
  0.36328083  0.6202315  -1.346871    1.5625795  -0.7377058   0.8762952
 -0.3135258  -0.7920555   1.2210995   0.37887982  1.6281648   0.25663924
  1.50397    -0.2365559  -0.85209894  0.8080961 ]
[ 0.06318515  0.26599315  0.9741795  -0.21597543  0.03697887  1.1846853
 -0.98604906 -0.5434044  -1.7196306  -0.4857041  -0.4653108   0.02563456
 -0.58882815 -1.5064076   0.01938395  1.0731096   0.14654443  0.21380998
 -1.7940513  -0.86205167  1.2104155   1.398788   -0.39776045  1.2908369
 -0.3105035  -0.8126099   0.58214504 -1.160343    1.1712089  -0.01448151
  0.5617488   0.69481766 -1.2884741   0.34492937 -1.2307731  -0.15643476
 -1.1635875   0.11501924  0.32159868 -0.60264844]
[ 0.7270879   0.67617583  0.646389    0.63183266 -0.531242    0.70929015
 -0.10832262  0.37205258 -0.7019721  -0.49659705 -0.5713369   0.7515649
 -0.7288661  -0.27965996 -0.767702    0.63761365 -1.1125357   0.76418424
 -0.45929036 -0.63478905  0.8895256   0.71000665 -0.22006115  0.57279545
 -0.8730137   0.08253381  0.5827547  -0.29658595  0.3832938  -0.19250317
 -0.45502532  0.7065809  -0.34565774 -0.3849826  -0.45422938 -0.7850662
 -0.8198244   0.79617035  0.30802435  0.30168703]
[ 0.6094284   0.49539667 -0.22697794  0.24138813 -0.80405855  0.01449275
 -0.05717213  0.04336238 -0.24770041 -0.44840178 -0.41492444  0.915693
  0.43741113  0.10929471 -0.43706468 -0.05141857 -0.70444953  0.72239137
  0.19819495 -0.90594435  0.35841733  0.22113822  0.36117318 -0.11708381
 -0.02920404  0.72879523 -0.15669404 -0.70731527  0.4241961  -0.22319162
 -1.0438647  -0.05184787 -0.06618203 -0.24989426  0.4154127  -0.80817866
 -0.36049935  0.23904563  0.557953    0.5586902 ]
[ 1.0839049   0.7550185   0.32535443  0.35614306 -0.25940362  0.46967798
  0.05681412  0.2468772  -0.4525879   0.19198315 -0.29658893  0.6743096
 -0.43822968 -0.12829782 -0.29122087  0.30369624 -0.6595935   0.45416534
 -0.14100718 -0.6222312   0.4252941   0.4166535   0.2473543   0.13701347
 -0.99525505  0.65992165  0.1479064  -0.5604195   0.44511703 -0.10204564
 -0.5927936   0.5183845  -0.38159466 -0.19378518 -0.05448601 -0.7423949
 -0.83342886  0.51238066 -0.1243731   0.05101681]
[ 1.4166399   0.847079    0.09801869  0.59145695 -1.1428697   0.21159562
 -0.11285199 -0.35433614 -0.27082387  0.03297285 -0.24293312  0.13792418
 -0.7206448  -0.37977326 -0.9681413  -0.329798    0.41847858  0.9185861
 -0.21594447 -0.86505544 -0.25200862 -0.39489654  0.16604279  0.04699834
 -0.92470473 -0.14394337 -0.69152176  0.13247599  0.06812569  1.2509725
 -0.9199778  -0.5219208  -0.30993077  0.6352777  -0.03437182 -0.98908585
 -0.14441156  0.34070992 -0.73023254  0.34033272]
[ 0.7993772   0.3900802   0.04956852  0.55341333 -0.7226046   0.05692383
 -0.02463393  0.28268605  0.08359337  0.00316869 -0.26018712  0.63058573
  0.07469788  0.41403642 -0.5243379  -0.2062659  -0.41166013  0.58360195
 -0.1899688  -0.57493675  0.15647241 -0.16187996  0.17760943 -0.04177102
 -0.28598472  0.32131413 -0.19736946 -0.02793864 -0.04353657 -0.17412794
 -1.0472488  -0.12644923 -0.31989056 -0.12278721 -0.5123506  -0.48071688
 -0.07883919  0.37402916  0.43607292  0.35025656]
layer 3 Activation
tanh
layer 4 Dense
40 20
[-0.3222985   0.09698828  0.7154066   0.96086144  0.07407024 -0.7500695
  0.205462   -0.09444741 -1.0593916   0.69645596  1.0659804   0.47508085
 -0.42108428  0.5899676  -0.67411935  0.26881212 -0.1412419  -0.7422684
  1.3801615   0.3428973 ]
[-0.31834707 -0.35867214  0.51437855  0.8956427  -0.0375876  -0.3063077
  0.09516822 -0.17711052 -0.77486354  1.6472771   0.8750343   0.2843235
 -0.30951875  1.0744034   0.11664523  0.6015887   0.13713874 -0.46536678
  0.67411655  0.16160415]
[ 0.31166375 -0.01266797  0.2815542   0.572512   -0.29548916 -0.4279613
  0.5596931  -0.51528007  1.1653947   0.63394606 -0.45915926 -0.4665696
 -0.69057435  0.01685595  0.8081262   0.6349598  -0.64592886 -0.22394192
  0.1389855   0.2423974 ]
[-0.25882804  0.47030756  0.07713383  0.7569142  -0.02618984 -0.06630694
  0.01049276  0.10213365 -1.3939586   0.44363517  1.2596107   0.14637657
  0.07341263  1.147312   -0.85415983  0.23976085  0.46215793 -0.00529912
  0.7056425   0.28701997]
[ 0.44309896 -0.28012678 -0.2107823  -0.6889767  -0.10328101  0.32529595
 -0.3296635   0.32706085  0.53248763 -0.0803792  -0.6755186  -0.6163904
  0.41211438 -0.84272355  0.7805983   0.07242706  0.41507342  0.11335555
 -1.3024043  -0.6387994 ]
[ 3.0619329e-02 -1.9022195e-01 -1.1156398e-01  1.9359040e-01
 -3.8345295e-01 -3.1177849e-02 -5.9718561e-01 -4.3391567e-01
  5.7933271e-01  6.4192969e-01 -1.8390007e-02 -1.0501274e+00
 -7.2875696e-01  5.7555754e-02  1.5454528e+00  8.1682789e-01
 -2.8867871e-01  1.3761400e-04 -8.0779567e-02 -4.4827840e-01]
[ 7.03221500e-01  1.04191914e-01 -9.53625366e-02 -7.19720349e-02
  6.68326020e-02  1.57708123e-01  6.38177812e-01  4.23197806e-01
  2.27533162e-01 -2.72426337e-01 -3.13731700e-01  9.21408594e-01
  4.07074273e-01  1.06595661e-02 -9.53036726e-01 -5.29927433e-01
  8.66400301e-01  3.24967980e-01  2.13363647e-01 -1.46142309e-04]
[ 0.5113337   0.05664826 -0.23175603  0.64521474  0.12406991  0.36960822
  0.91202754 -0.2860338  -0.08824123  0.69447523  0.76781607 -0.23456372
  0.0273217   0.8567369   0.30794603  0.8287868   0.54485464 -0.00142162
  0.14634275  0.35428149]
[ 2.0462544   1.2003227  -1.0190656  -0.12585558  1.3114433   1.2102605
  0.26045084  0.6281236   0.39270374 -1.3255366   0.03592507 -0.00659626
  1.7385955  -0.26817542 -1.0542336  -1.9556832   1.3335379   1.1556785
 -0.2507072   0.13862538]
[-0.06494804  0.4444731  -0.05948666  0.14474414  0.5448802   0.0164991
 -0.3295804   0.61847305 -1.0984552  -1.0527006   0.41969243  0.31011972
  0.34512255  0.10173021 -0.33244532 -0.07448009  0.13781156  0.32295775
  1.0281528   0.00469085]
[ 0.55019176  0.65528697 -0.71143234 -0.66012555  0.54747206  0.7196392
  0.67107564  0.9131562   0.3674513  -0.38476208 -1.1256883   0.6017343
  0.17167515  0.09483581 -0.26150757 -0.44158152 -0.05073706  0.39253956
  0.6174974   0.27422154]
[-0.2612432  -0.07775763  0.16335528 -0.40099704 -0.05514317 -0.78517526
 -1.1574093   0.08726253  0.6802532  -0.8035673  -1.1035421   0.03490172
 -0.02955749 -0.44991192  0.08029246 -0.5343882  -0.54533714  0.11798194
  0.18372606 -0.59525245]
[ 0.5537697   0.2514069  -0.4139141   0.51222265  0.27820072  0.30666664
  0.5383247  -0.34296507 -0.23168677 -1.2150145   0.01167352  0.58057886
  1.1079944  -0.25547475  0.04013321 -0.16549222  1.0892229   0.72422284
  0.5229311   0.3110134 ]
[ 0.8069081   1.1494958  -0.3106816   0.37816408  0.70353246  0.43665972
  0.9192069   0.6146505   0.29977813 -0.36447495  0.37473658  0.94082737
  1.2139304  -0.26908404 -1.1359105  -0.96037006  0.29792282  0.8472637
 -0.06438304  0.21077566]
[ 0.05986363 -0.13814805 -0.72324246 -0.7555168   0.05523514  0.18132891
  0.11298631  0.07677696  0.681116   -0.7098942  -1.0939018   0.09990536
  0.33102217 -0.9843431   0.7098473  -0.32759118 -0.40016785  0.28514656
 -0.9926898  -0.4237741 ]
[-0.98434854 -0.96745163  1.1602099   0.15917301 -1.3550911  -1.0985247
 -0.6650724  -1.2737163  -0.81330645  1.5567049   0.18147156 -0.37858295
 -1.0662435  -0.20385517  0.15846817 -0.3080752  -0.74462724 -0.8398675
 -0.18906118 -0.6640341 ]
[ 0.1213319   0.07115625 -0.36192715 -0.00411206  0.30854353  0.65256923
  0.38774815  0.16396926  0.41241118 -0.09843844  0.28815126  0.32556766
 -0.6042516  -0.18429497  0.49470627  0.22983432 -0.01318191  0.10555072
  0.21790057  1.0136561 ]
[ 0.13033871 -0.26685438 -0.340937    1.4401829  -0.12163326 -0.22017267
  0.03515164  0.08052119 -0.33947673  0.3417614  -0.10812602  0.29547283
 -0.34616837  1.1805437  -0.7420851   0.35701686 -0.3651081  -0.21258554
  1.2089194   0.26726064]
[ 1.4325552   1.2730833  -0.989171    0.11987134  0.829415    1.0091879
  0.27098745  0.6365312   0.24915244 -1.5836619  -0.7155792   0.21139544
  1.3698491  -0.9672567  -1.6304075  -1.6189318   0.90097696  0.886742
 -0.81850404  0.77274466]
[ 0.39646596  0.2455077   0.35380524 -0.6798806   0.022987    0.3789638
  1.3004276  -0.10510518  0.08087922  0.6782456   0.09311011  0.21238676
  0.21322119 -0.07098508 -0.7379676  -0.09461673 -0.38312796 -0.7413582
 -0.5761353   0.37023428]
[-0.9049932  -1.0265145   1.4428593   0.8039093  -0.83466625 -1.4057064
  0.49184108 -0.97713035 -0.77751315  1.2979124   0.45742774  0.05284427
 -1.0031599   0.5051393   0.6003285   1.0929332  -1.0186745  -0.7304654
 -0.26477507 -0.09553414]
[-1.059493   -1.6991041   1.8548033   0.22085373 -1.523447   -1.1795701
 -1.0059264  -0.85632664 -0.99299335  1.886557    0.4229005  -0.29453328
 -1.367853    0.05604152  0.7190885   0.62122095 -0.84893    -1.0437361
  0.28682005 -0.82050234]
[ 0.18030348 -0.26340312 -0.03506185  0.40425742 -0.06358276  0.27986315
  1.6919938  -0.31165937  0.0637322   0.92007023  0.56058747  0.48251522
  0.05063568  0.6757395  -0.22476485  0.34854922  0.49342906 -0.37968668
  0.25093317  0.62041616]
[-0.8533483  -0.5903269   1.2563235   0.1878963  -0.5501085  -0.94972
 -0.00582217 -0.8755823   0.04376541  1.634485    0.16860013 -0.6661093
 -0.62821805  0.04659621  1.0870922   1.0975058  -1.115776   -1.2624964
 -0.06971747  0.05262671]
[ 0.13033865 -0.2239873  -0.14424661 -0.73296285 -0.14910921  0.33755085
 -0.20727466 -0.06177089  1.0589898  -0.69594043 -1.1126322   0.03968296
  0.2323911  -0.32611325  0.13597561 -0.38964075  0.17840548  0.23744585
 -0.3506238  -0.399709  ]
[-0.14372161 -0.3239716  -0.3107611   0.7841623   0.05907973  0.55296504
  0.8258144   0.36164623 -0.55684346 -0.18658875  0.46268776  1.4918714
  0.641086    0.69564205 -0.2669333   0.46514657  0.2921248   0.23268281
  0.42912558  0.7857742 ]
[-0.37777355  0.1759525   0.78212416 -0.242585   -0.02459436 -0.3992226
 -1.5991784  -0.5280277   0.6041487   0.3815579  -0.08133839 -1.1923904
 -0.21621405 -0.28379902  0.83726525 -0.39898875 -0.47877783 -0.14123487
 -0.4452876  -1.1955341 ]
[ 0.76559466  1.4094645  -1.559209   -0.5562365   0.6188401   1.3849666
  0.49309346  1.0276122  -0.23908105 -0.9247073  -0.12766446  0.26396602
  1.057044    0.16429551 -1.189712   -0.8345676   1.3007106   0.78937864
 -0.37780634  0.7563694 ]
[-0.8569048  -0.4527843   0.8224065  -0.1690373  -0.26997718 -1.261439
 -0.6982776  -0.9804742  -0.34858328  1.0180147   0.89528716 -1.1102304
 -0.39108604 -0.32480803  0.00198301 -0.12914695 -0.59091634 -0.38894978
 -0.23560199 -0.7276814 ]
[-0.05810439  0.36823663 -0.8267012   0.10099371  0.21197684  0.3977995
  0.35061964  0.6725642  -0.8516393   0.18677862 -0.25450352  1.0865914
 -0.41190666  0.16601881 -0.72926635  0.24638493 -0.43221956  0.0614555
  0.7825479   0.9827603 ]
[ 0.7374385  -0.0830487  -0.6899246   0.07043514  0.8913114   1.0132941
 -0.40854144  0.14902397  0.11310051 -0.06600501  0.1824013  -0.12213641
 -0.4545955  -0.03184541  0.159931    0.69283795  0.60119516  0.61001897
 -0.23911098  0.232122  ]
[-0.33233654  0.12229846  0.350456   -0.3268237   0.11214385 -0.02303211
 -1.3938642  -0.51409364  0.10067077  0.7057744  -0.21721043 -1.8670801
 -0.4501204  -0.5425318   0.7847456  -0.3016139  -0.6280562  -0.06363077
 -0.6411065  -1.4153749 ]
[-0.03996805  0.2349874   0.02838178 -0.8051579   0.60953045  0.540993
 -0.385323    0.547543   -0.8117185  -1.4131596   0.07111916  0.966207
  1.0667287  -0.22346783 -0.45276806 -0.651024    0.21379533  0.15821594
 -0.28167626  0.06826678]
[ 0.18719228  0.17246257 -0.44534418  0.36424625  0.3140315  -0.49824527
  1.0066878   0.15848732 -0.69923097  0.3999528   0.28918806  0.7604014
  0.2180028   0.15728714 -0.62126863  0.10150973 -0.8723325  -0.10675637
  1.136       0.74903816]
[-0.0914137  -0.08540343 -0.26908296 -0.47813615  0.23737513  0.540796
  1.1792465   0.05126035 -1.2018977  -0.17667171  0.1237271   0.7618581
  0.32885173 -0.25511414 -1.7462486  -0.41671592  0.0429532  -0.2687761
 -0.08817495  0.8214575 ]
[ 0.39290425 -0.19380234  0.05664855 -1.0062066  -0.17944136  0.12177116
  0.16556558 -0.12242908  0.76587796 -0.6179452  -0.63072056 -0.02506054
  0.25772133 -0.3885565   0.13912213 -0.23339458  0.18660349 -0.0356695
 -1.3325863  -0.19954646]
[ 1.5625172   1.1445315  -1.4936244  -0.25615484  0.7229213   1.0267857
  0.60794175  0.81192124 -0.25724855 -0.8867265  -0.57054406  0.8701485
  1.0986719   0.3666173  -0.84159476 -0.7169148   0.8551612   0.989185
 -0.32543597  0.52385306]
[-0.08609676  0.16939309 -0.13138789  0.8202363   0.24287862  0.34106374
  0.27299863  0.52035064 -1.3433644  -0.08776356  0.63213587  0.34001255
  0.06458473  0.6395897  -0.7152573   0.45820406  0.4173078   0.03350412
  0.2281855   0.48979563]
[-0.25533584 -0.03637629  0.4355108  -0.23842663 -0.10694291 -0.11680879
 -1.0060507   0.24793261 -0.02379909 -0.57626456 -0.49386314  0.19310519
  0.04103048  0.266556   -0.27114925 -0.39070415 -0.3252759   0.13210057
 -0.08462215 -1.1663889 ]
[-0.2629857   0.11861304 -0.00184222  0.25495636  0.15079838 -0.05002202
 -0.12724555  0.04916925 -0.7662591   0.207516    1.2080845   0.38977277
 -0.12719193  1.0880486  -1.2581148  -0.02134194  0.02019105 -0.5749716
  1.1064153   0.57026035]
[ 0.14599851  0.45268065 -0.04858354 -0.21075536  0.46831995  0.01024607
  0.18459196 -0.00281218 -0.9996081   0.5518949   0.66174966  0.6316915
  0.11866574  0.7819642  -0.33084074 -0.29331514 -0.13274322  0.0995726
  1.0217202   0.30195203]
layer 5 Activation
tanh
layer 6 Dense
20 1
[1.242827]
[1.8494632]
[-1.0561022]
[2.5468252]
[1.6006924]
[1.2230477]
[1.0459558]
[0.9190035]
[-2.405835]
[-0.70352507]
[3.0901742]
[0.7865975]
[1.0481169]
[2.505736]
[-1.3906484]
[-1.3406624]
[1.067366]
[0.7686448]
[2.7348714]
[1.0698965]
[3.8247898]
