layers 7
layer 0 Dense
20 20
[ 0.14854535 -0.61518645  0.19651058  0.36061326  0.02267399 -0.01524613
  0.2497088   0.304493   -0.12260103 -0.0692031  -0.48320755  0.06883521
 -0.45414802  0.37708715 -0.10010684  0.3328369  -0.06732803 -0.05926368
 -0.5300069  -0.47681472]
[-0.37326428  0.07267149 -0.19464825  0.27063373  0.42330825  0.32388264
 -0.61261916  0.33023027  0.29949638  0.9543887   0.8287921   0.01348927
 -0.35243544  0.04880012 -0.07002503 -0.1434583  -0.22207193 -0.28617355
  0.14714597 -0.28513026]
[-1.0069048  -0.03637506  0.01471843  0.02659218  0.36473495  0.21269609
 -0.46925837  0.6016093   0.4165386   0.85891056  0.79670674  0.1004452
  0.09146335  0.3675551   0.4508749   0.20956837  0.1553628  -0.4430894
 -0.26957357 -0.39367446]
[ 0.15019459 -0.34887102  0.11409831  0.32454094 -0.0817019   0.02422213
 -0.11161466  0.43313634 -0.27951732  0.03728154 -0.4472874  -0.40332398
  0.04946993  0.07395708  0.33022493  0.19663605  0.08087503 -0.3433452
  0.10902997 -0.48495546]
[ 0.11558519 -0.06575234  0.06114029  0.13570459  0.06254268 -0.04400444
 -0.0021387  -0.17456523  0.22245072 -0.16633672 -0.27635458 -0.30230805
 -0.30188063  0.22713849  0.28545657 -0.2892947   0.28516266 -0.25327882
  0.19741443 -0.27284637]
[ 0.602487   -0.04211549 -0.02941192 -0.32760414 -0.12801747 -0.57146466
  0.37503317 -0.27093446 -0.41757178 -0.65911627 -0.7755167  -0.02194764
  0.15513647 -0.2641394  -0.5378465  -0.04719396 -0.17748192  0.14253192
 -0.02085754  0.17201734]
[ 0.6923596  -0.05427635  0.07188486 -0.16782232  0.11575641 -0.4017
  0.709108   -0.16421397 -0.5868696  -1.0445217  -0.87904936  0.11710612
  0.08851117 -0.4499331   0.05645673  0.25762144 -0.03305137 -0.21362635
 -0.16487199  0.23545101]
[ 0.37610394  0.19019037  0.2549807   0.04787478 -0.15083112 -0.12972966
 -0.29847518 -0.20978358  0.23487568  0.10226704  0.53802913  0.02766235
  0.19769263 -0.07706785 -0.19885746  0.2567708  -0.35631052  0.3750171
 -0.03064525  0.62611586]
[ 0.01703241 -0.46195632  0.12927438 -0.2593314  -0.60504663 -0.06843435
 -0.5562854   0.54744124  0.08325297  0.26761684  0.16863737 -0.4897909
 -0.35591674  0.34720194  0.31860068 -0.18007755  0.74496233 -0.31729865
 -0.4239506  -0.06637683]
[-0.25244176  0.09184638 -0.39065424 -0.8961633  -0.3226505   0.59425646
  0.6128365  -0.4278947  -0.90915865  1.1359369   0.12727831 -0.13539091
 -0.22772464 -0.67744    -0.36191988  0.3482441  -0.2612021  -0.32069275
 -0.61385155 -0.1864134 ]
[-0.2982445   0.28693402 -0.30048075 -0.5614592  -0.5345226  -0.35731605
  0.17415003 -0.13693947 -0.44565788  0.2678694   0.53826976  0.35666338
  0.45933115 -0.70874035 -0.21871643  0.44282556  0.10663842  0.24623418
  0.70018387  0.401051  ]
[ 0.14351143 -0.9168869   0.15353392  0.4805586  -0.97017753 -0.53747314
 -0.38300198  0.86233175  0.8030277  -0.43584988 -0.8205009  -1.079071
 -0.48291144 -0.05628233  0.6601216  -0.07977395  1.0523045   0.0278594
 -0.9676543  -0.21102403]
[ 0.08376949  0.03563159  0.15872814 -0.14881039  0.32075253 -0.5439186
  0.15586682  0.09366062  0.25089294  0.17910518  0.03857117  0.55863065
  0.33373165 -0.22418277  0.00089022 -0.23160478 -0.17559975  0.07317082
  0.62526834 -0.21211544]
[ 0.8173838  -0.6754019   0.13579293  1.1687849   0.19983487 -0.43290767
 -0.08941925  0.6128961   0.1846637  -0.9910053  -0.12041856  0.2465541
 -0.56481695  0.35609382 -0.3622789  -0.57264435  0.6403519  -0.03854205
 -0.09419718  0.16038688]
[ 0.3632919   0.14397179  0.30650577  0.6445784  -0.15685953 -0.31445697
 -0.37132657  0.45987117  0.29575157 -0.32724044 -0.13593441  0.32892793
 -0.39248508 -0.07887463  0.00553189 -0.4140003   0.08466148  0.0018731
 -0.40893978 -0.23684675]
[-4.9603695e-01 -7.2993422e-01  2.8484920e-01  1.6719718e-01
  2.2806151e-01  3.4929895e-01  9.6791029e-01 -4.0625626e-01
 -1.5815921e-01 -9.1996283e-04 -2.4078369e-01  9.0633720e-02
 -4.8781589e-01 -2.6660559e-01  3.2609314e-01 -3.8777670e-01
 -3.0147424e-01  2.0980369e-01  3.9801124e-01 -1.3434289e-01]
[-0.05573185  0.19750065  0.52800107  0.34957215 -0.01569221 -0.03026722
 -0.10155488 -0.26537222  0.02299267  0.08526214  0.09304947  0.40301636
  0.08331456  0.3325624   0.41912502 -0.24445301 -0.5058234   0.1947751
 -0.15982528  0.48727956]
[ 0.14764586  0.42042992 -0.0581728  -0.44065     0.24115098  0.279692
 -0.3172487  -0.49107167  0.5530062   0.14090873 -0.18996008 -0.35379118
  0.02472387 -0.21097298  0.33465284  0.2953579  -0.21950406 -0.26335832
  0.27955958 -0.31287852]
[-0.56162673  0.3009166  -0.04813162 -0.46759802  0.3383657  -0.00302627
  0.3010164  -0.03483767 -0.25901887 -0.321087    0.5438113  -0.5951961
 -0.03149939 -0.0882385  -0.49227646  0.2531213  -0.03767678 -0.210549
 -0.05909195 -0.19665763]
[-0.31356174  0.61219203  0.4773685   0.21748695  0.38167244  0.16067766
 -0.1266413   0.20867525 -0.11823522 -0.38695747  0.8530363   0.09149919
  0.14708553  0.14750543 -0.12470714  0.37300068 -0.60626876 -0.01225086
  0.51674414  0.5827037 ]
[-0.20934227 -0.06341346 -0.21929628 -0.03011699 -0.03694811  0.1392518
  0.11838192 -0.08359653 -0.10074646  0.14808744 -0.1311377  -0.00085707
 -0.05537223 -0.05827945 -0.05470094  0.03332076 -0.02542868  0.0063893
 -0.1663842  -0.15228815]
layer 1 Activation
tanh
layer 2 Dense
20 40
[-0.18769243 -0.16795644 -0.08218867  0.11789265  0.09807066 -0.43062714
 -0.18183881 -0.15583397  0.14147548  0.07752075 -0.23191352 -0.25445345
 -0.11673713 -0.31135678 -0.40246955 -0.02121801  0.04516156 -0.01097776
  0.06497886 -0.0337894   0.26987526  0.15929791  0.21407153 -0.1455762
  0.15599209 -0.15112165  0.17403828 -0.22668473  0.06153987  0.02004613
 -0.37686974  0.42384562  0.11579586 -0.11186068  0.302909    0.08915293
 -0.136486    0.30332753 -0.07789344  0.10014568]
[-0.05566164 -0.55424833  0.06192403 -0.14652066 -0.01526921 -0.26217204
  0.5470218   0.10451521  0.12820943 -0.09825654  0.0759412  -0.4700754
 -0.2718009  -0.427507   -0.37978613  0.04340829 -0.27666292  0.23018453
 -0.37608218  0.10315988 -0.10819574  0.13504896 -0.00791542  0.03443811
  0.11911892  0.4254835  -0.2796672   0.2842947   0.31055802 -0.11452647
 -0.15235604 -0.00903231  0.6641858   0.00227198 -0.5588965  -0.07577188
  0.35199228 -0.12708645 -0.24644287 -0.34236756]
[ 0.14348339  0.02755     0.11610578 -0.01065522 -0.5075251   0.02311525
 -0.20794484 -0.33563614 -0.13552073 -0.28131127 -0.30100062  0.10138457
 -0.3192273  -0.15743843 -0.02398122  0.32482862  0.07020632  0.10647649
  0.01633278  0.11990011 -0.18328676 -0.25994816 -0.12368048 -0.13550967
 -0.2861336   0.13038446 -0.27300048  0.47249198  0.06919267  0.09281292
  0.07842115  0.21891001 -0.01909286 -0.07167661  0.32939616 -0.20623277
  0.21300237 -0.02513022  0.13699222  0.29505083]
[-0.34487817  0.07846066 -0.18573911 -0.22155397  0.14697304 -0.599078
 -0.6438719  -0.47962618 -0.1473783   0.20958441 -0.34711215 -0.17059118
 -0.0086077   0.12771657  0.27112937 -0.4747709   0.2891797  -0.28617004
  0.2659967  -0.2743987   0.42496094 -0.4285414  -0.29102457 -0.10892826
 -0.6859714  -0.03285615 -0.15901619 -0.04340094 -0.54680395  0.11976439
 -0.37159616 -0.18289948 -0.22086312 -0.05537752  0.83766687  0.20938125
 -0.5702122   0.31010696 -0.12328787  0.19989488]
[ 0.02844973 -0.17473765  0.14247808 -0.01523602 -0.59180605  0.03351403
  0.2453705   0.05794794 -0.09705833  0.02608219  0.19078252 -0.42992258
  0.03685653 -0.28147256  0.20281881 -0.17962569  0.05018083 -0.22043476
 -0.25405535  0.2816201   0.5222525   0.11787673 -0.48720202  0.01869339
 -0.19589604 -0.38893715 -0.2625882   0.3498173  -0.41852102 -0.09055141
 -0.1513031  -0.26646957  0.24430524 -0.05231618  0.21257918 -0.09843811
 -0.05495289 -0.37162253  0.23415595  0.09126525]
[ 0.30751345 -0.02386271  0.4580341   0.19126788 -0.1680398   0.42363372
  0.17404282 -0.31813565 -0.2504071  -0.09949924 -0.328571   -0.1701115
  0.21920723  0.05990945 -0.01467485  0.3025497   0.01822099 -0.11707536
  0.07737179  0.00113383 -0.32225472  0.27966258 -0.40880919  0.02369242
 -0.02572193  0.0948712  -0.09563265 -0.36862692 -0.19186582 -0.30078694
  0.27888528 -0.41289425  0.12228378  0.26700827 -0.6115819   0.33614013
 -0.22192514  0.27162698  0.01689378  0.053902  ]
[-0.16943118  0.01872707 -0.35145372 -0.51897717 -0.24645314  0.09483664
 -0.11855945 -0.15447094 -0.05026194  0.20453991 -0.11907876 -0.0540684
 -0.05440639  0.06045778  0.03568154 -0.04490751 -0.07743406 -0.00881249
  0.1902735   0.3673145   0.02685556 -0.1642489   0.16733089 -0.15012681
  0.11610093 -0.20543042  0.03620615 -0.23073465 -0.25331914  0.35961682
 -0.07309811 -0.20721497 -0.12723254 -0.26347    -0.30015844 -0.12583397
  0.14255099 -0.15087156 -0.3093236   0.01814723]
[ 0.31558123 -0.18502949  0.1607222  -0.23921469 -0.05323407 -0.04494086
 -0.58978033 -0.16081433  0.2499476  -0.02494051  0.15844566  0.12804745
  0.41716805 -0.16438052  0.28801274 -0.50425667 -0.20863435 -0.05042688
  0.2865334  -0.08441377  0.04179918 -0.43348768 -0.19932434  0.25444698
 -0.682264   -0.20899847 -0.06943883 -0.617767    0.00488108  0.41158283
  0.07409179 -0.05281582  0.0437395   0.06919505  0.69684815 -0.00158873
 -0.02537531  0.09054228 -0.16607286 -0.12930961]
[-0.3252417   0.43732157  0.24590267  0.41819537 -0.1922741  -0.18508981
 -0.38719547 -0.07612313  0.2078464   0.05331295  0.07045798  0.03223382
 -0.17222868  0.20355211  0.01430727  0.62165433 -0.08817089 -0.02277613
 -0.1562084  -0.16227373  0.17305104 -0.08962876  0.31581104  0.0141217
 -0.21222283 -0.09975724 -0.1637508   0.5554517  -0.3386232   0.14891586
 -0.20988576 -0.23667139 -0.03275227  0.21554263  0.00619996 -0.13458322
 -0.25391603 -0.10329884 -0.14660057 -0.2806063 ]
[-0.09892696  0.04491755  0.21447226 -0.19447184  0.03098644  0.48592463
  0.3420272  -0.01409434  0.03666338 -0.31847492 -0.01706334 -0.17942086
 -0.33663416  0.06553365  0.3031428   0.4731752   0.18253711  0.22307977
 -0.14381088 -0.10569091 -0.14033891  0.26947922  0.10451588  0.3870199
  0.33214     0.3785517  -0.0132391   0.04581124  0.0344326   0.2771986
  0.14914587 -0.23652817  0.38835844 -0.25932786 -0.3711342  -0.08680721
  0.20902397 -0.34662482  0.07599974  0.09022579]
[-0.53514284 -0.6413123   0.4523791  -0.08980587 -0.31875193 -0.0951639
  0.29497588  0.5215518   0.39875582  0.041664   -0.16558897 -0.44660634
 -0.11515243 -0.5156864   0.19499065  0.5305127   0.1643684  -0.1535269
  0.00844476  0.30682033  0.10536729  0.11552554  0.00069766 -0.2764074
  0.49887386  0.04564332  0.22752482  0.6423424   0.37633798 -0.26462436
  0.01983931  0.19674236  0.44078797 -0.2590608  -0.00597015 -0.39907637
  0.2925787  -0.08599544 -0.2793646   0.04410132]
[-0.45490494 -0.0743833   0.57896006  0.06790606  0.31534     0.07072303
  0.06940836 -0.03398321  0.00633955  0.41600233 -0.5673189   0.02366808
 -0.17304572 -0.00784773  0.05911397  0.16374044  0.00594624 -0.49958742
  0.16772969  0.13941315 -0.19713433 -0.19551153 -0.32337806 -0.24814562
 -0.23969132 -0.48214427  0.24824452  0.01862551 -0.12232681 -0.189966
 -0.1691572   0.00111561  0.19962275 -0.37973624  0.45540914 -0.16105983
  0.19000962  0.30939293  0.12822844  0.09828657]
[-0.16747586 -0.15369144  0.1199167   0.11995442 -0.0499895   0.20139873
  0.26058853 -0.09098367  0.3070592  -0.4338666  -0.00470426  0.07875394
  0.18954702 -0.2787552  -0.03440877  0.03674281 -0.22116078  0.3702783
 -0.2685128   0.33642083 -0.1069351  -0.14034913  0.19781749 -0.15571325
 -0.00592911  0.20223239 -0.0138382  -0.01957855 -0.08140341  0.00856391
  0.2832903   0.47157136  0.26205695 -0.14943002 -0.440717   -0.2511995
 -0.00742049  0.14566152 -0.15666443  0.17838043]
[ 0.47589678 -0.5265697  -0.38212565  0.0682415  -0.2755017   0.21535516
 -0.37646857 -0.04628445 -0.33835983 -0.05465962 -0.05262426 -0.08288323
 -0.09235873 -0.08714052 -0.20780823 -0.25428832 -0.10334928  0.33612
  0.05372756 -0.00458861  0.07231344  0.04835105 -0.259531   -0.1247625
 -0.5924373   0.23722874 -0.37712598  0.07142426 -0.40259933 -0.15093179
 -0.25769734 -0.09715961  0.16081108 -0.03216503  0.30837208 -0.05124848
 -0.22317222  0.08505196  0.21379642  0.2237168 ]
[ 0.17878397  0.16128162 -0.21687981 -0.06291137  0.1516049   0.16039838
  0.02491167  0.24037457 -0.15034826  0.20577016 -0.31086132 -0.22297756
  0.1291154   0.01634635 -0.07866666 -0.20876232 -0.09857997  0.04811616
 -0.21301828 -0.06015286 -0.26867715 -0.20968118 -0.04239158  0.03522836
  0.01554757  0.50576496 -0.2224537   0.08705921  0.63761115 -0.06757592
  0.12996413 -0.2377865   0.10103184  0.29431915 -0.14055285  0.18389457
 -0.16311032 -0.0672389  -0.07105974  0.09912334]
[ 0.27247515 -0.26161757 -0.26743487  0.17396323 -0.09703644  0.36566195
  0.41791695  0.36208752  0.26265302 -0.23137416 -0.03873793  0.27195132
 -0.08102594  0.08695966  0.28581965 -0.21899982  0.09372225  0.21682462
 -0.07344897  0.22135292  0.3491002   0.34360552  0.15989278 -0.2310961
  0.09395398  0.26644942  0.3153872  -0.29356113 -0.0239803  -0.20780864
 -0.09884562 -0.02610681  0.22741413  0.27740046 -0.20669158 -0.17959109
  0.0874581   0.048909    0.08676776 -0.00633388]
[ 0.28195924  0.02920956 -0.41162425  0.31310198  0.35455164 -0.32460183
  0.11068414 -0.11062501  0.33523133 -0.17214252  0.67440736  0.4928649
  0.26489747  0.1016861  -0.27781725 -0.12693062 -0.20447184 -0.04962216
 -0.02756941 -0.3797903  -0.20600621  0.18098742  0.6850757   0.11202291
 -0.10243881 -0.01104525  0.05793751 -0.58920324  0.24610175 -0.2083149
 -0.40521732  0.4393049  -0.3666026   0.40333793  0.25245517  0.2806266
  0.14493397 -0.14615458  0.05683178 -0.51135516]
[-0.05646595  0.01369706  0.49079758  0.04290098  0.19391198 -0.29005334
 -0.30135924 -0.15221111  0.41932362 -0.05204236 -0.4504167  -0.28061232
 -0.02804348 -0.2840463   0.04366721 -0.00695773 -0.22537285  0.00897022
 -0.04772952  0.03244515  0.10432157  0.00909434 -0.29822773  0.15269093
 -0.16382487  0.13457447  0.19501695  0.04175152  0.21808372 -0.57008517
  0.06368618 -0.00893211  0.4701232   0.29257974  0.04453651 -0.09232121
 -0.08315091 -0.17941125 -0.05898159  0.15786959]
[ 0.05272354 -0.13034643  0.00761181 -0.14714949 -0.21134424 -0.08218886
  0.4106981   0.1630102  -0.1261639   0.09463207 -0.03940381 -0.40786013
  0.11633596 -0.36842063 -0.11238218  0.26268587 -0.22656809 -0.09343841
 -0.03800272  0.47420517  0.26166734  0.31029606  0.1932765  -0.11201406
  0.43240362  0.22141893  0.07564442  0.62728685  0.36646068 -0.10917867
  0.13055703  0.28992975  0.32770702 -0.07810389 -0.31729624 -0.21748675
  0.34504956  0.00123878  0.17099561  0.28766286]
[-0.3264105  -0.0635761   0.620998    0.06138676  0.0310987  -0.31499815
 -0.04151954 -0.3508055   0.48892018 -0.01194064 -0.2381199  -0.17942242
 -0.31435254 -0.3547087   0.1374174  -0.10078314  0.34392905 -0.26595452
  0.07198975  0.0313657  -0.26884013  0.2509065  -0.34944832 -0.31075346
  0.01731976  0.27145323 -0.20178391  0.5266309  -0.26189426 -0.45788163
 -0.16292873  0.10036922  0.48688248 -0.02920392  0.36616156  0.13994941
  0.01445985 -0.03342225 -0.19127749  0.2750424 ]
[ 0.20492151 -0.03567635 -0.3557797  -0.02682067  0.01169579  0.03715386
  0.12226915  0.10639782 -0.14786376 -0.22371183  0.20649287  0.00846321
  0.17081295  0.07946102 -0.17024735 -0.2543319  -0.11585253  0.13052729
 -0.08552089  0.06071485  0.13052371  0.01898141  0.34724647 -0.01935181
  0.09176721  0.03822495 -0.03008733 -0.15469588  0.07581062  0.36238188
 -0.04157191  0.00928314 -0.10213652  0.08393852 -0.12514934 -0.02063402
 -0.03179904 -0.08046904  0.09865044 -0.09052072]
layer 3 Activation
tanh
layer 4 Dense
40 20
[ 0.1881856   0.17001097  0.19964238 -0.4991576   0.08463603  0.00372695
  0.09980278  0.25360698  0.2380671   0.19485225 -0.20085384  0.29717246
  0.8609917  -0.01153965 -0.15931204  0.14673476 -0.13416512  0.0527546
 -0.19019607  0.44577757]
[-0.16548337  0.05569953 -0.14046103  0.13044433  0.06212808  0.11985793
  0.32285514  0.27023876  0.12270516  0.09716462 -0.0452806  -0.06991512
  0.02239102  0.22165817  0.1427852  -0.48967353  0.06304593 -0.1672521
 -0.18222894 -0.14296784]
[-0.12231265  0.26095065  0.40147847  0.31527326 -0.23310447  0.26471964
 -0.24080293 -0.17828085  0.10107448 -0.1658857   0.28280333 -0.04623188
 -0.384623    0.10990046  0.08343408  0.229185    0.03476031  0.18601269
  0.09682269 -0.20463517]
[ 0.04617893  0.01008365  0.11139717 -0.03125048  0.11869992  0.11506003
 -0.02597996  0.03436367 -0.22049204  0.31578767  0.3805865  -0.30078614
 -0.20875274 -0.15116812  0.1980621   0.23759909  0.21465209 -0.13236044
 -0.32531992  0.05277942]
[ 0.18990226 -0.12656008 -0.34555689  0.42637092  0.30832675  0.17182006
  0.13717152  0.16016193  0.25553796  0.16505122 -0.33280113 -0.11539705
 -0.2786896  -0.11840375  0.19571947 -0.46234855  0.1074938   0.09233116
  0.17050454  0.20680776]
[-0.09538477  0.09352725 -0.02600226 -0.3948331   0.08646466  0.06242013
 -0.07407434 -0.05637002 -0.18840808 -0.04846299  0.23168574  0.4060493
  0.23678058 -0.1896697  -0.0334823  -0.21142904 -0.34970668 -0.05673655
 -0.00641228  0.06646495]
[-0.35008028  0.0880456   0.2951664  -0.3233861   0.19540313  0.3365539
 -0.3991657  -0.04168431 -0.25904828  0.3017017  -0.12440319 -0.26702467
  0.33803678 -0.37287012  0.07906371 -0.09796432 -0.5352646   0.32495746
  0.09228248  0.18224761]
[-0.30799645 -0.04559312  0.01971408 -0.09567553  0.18541156  0.1715076
 -0.04581915 -0.2128341   0.30384454 -0.131083   -0.02053933 -0.0090427
  0.19423755 -0.02072507 -0.10406831 -0.20095155 -0.28734997 -0.09912427
  0.18501873  0.0493102 ]
[ 0.24747829  0.09184068  0.2258292   0.49990195 -0.01127886  0.07231169
 -0.00459051 -0.291398   -0.03960119 -0.01440619  0.12359843 -0.5526503
 -0.0506156  -0.38102952 -0.05210492 -0.16504888 -0.22655141  0.12085499
 -0.09704646 -0.35315642]
[-0.01621595 -0.08461694 -0.36745164  0.13978517 -0.0766791  -0.18715154
  0.13983065 -0.0089641  -0.2820738  -0.13317366  0.3344443  -0.24588603
 -0.38088238 -0.0105416  -0.00662085 -0.14633682  0.04255401  0.13710068
 -0.22236468 -0.347105  ]
[-0.20052584 -0.03489846 -0.2509126  -0.1357573  -0.09605756  0.0520562
  0.10879193 -0.09732553  0.11318927 -0.27962226 -0.36682564 -0.03275396
  0.67554086 -0.05251295  0.23085931  0.20536381  0.01143105 -0.37879223
 -0.2539903   0.17252022]
[-0.25668693  0.14060935 -0.5580318  -0.13239397  0.29485816 -0.20319547
  0.30256593 -0.3006127  -0.1263568   0.25034946 -0.44360986 -0.07099903
  0.08319342  0.13853268  0.0216362  -0.4916468   0.20813362 -0.18395038
 -0.08371723  0.36022145]
[ 0.02895058  0.10226146  0.04502082 -0.3392026  -0.272377    0.18401794
  0.26569065  0.09360256  0.00493579  0.2816513  -0.5165932   0.25547537
  0.5034046   0.30578375  0.22928962 -0.1891063   0.15178531 -0.21176857
  0.17287463  0.14084677]
[-0.24268025  0.14638866  0.11868946 -0.28529176 -0.132385    0.09194263
 -0.12401843  0.14095727  0.24679135  0.00350287 -0.2496595   0.38562775
 -0.04657885  0.28987533  0.11147116 -0.47520533 -0.15584068 -0.32899994
 -0.3805975  -0.00909648]
[ 0.13306056 -0.1965519  -0.13613927 -0.23591524  0.03938987  0.06691988
 -0.25611055 -0.00204855  0.1274099   0.22827148 -0.2095919   0.2815962
  0.1560799  -0.17532252  0.16162768  0.07230461 -0.06985686 -0.04131561
  0.16817304 -0.26489988]
[ 0.0728148   0.16698529  0.55501574 -0.20129535  0.05613136  0.09007011
 -0.25376746  0.23444661  0.09762679 -0.06398451  0.2800576   0.08803153
  0.17043269 -0.24482344  0.29084915  0.30173704 -0.5789397  -0.09283387
 -0.05488418 -0.23048444]
[-0.164618   -0.1258434   0.5610335   0.22887275  0.07784028 -0.11791525
 -0.24717724  0.17942643 -0.10412472  0.05201748 -0.00743215 -0.01520335
 -0.32883903 -0.32419407 -0.02489932 -0.09915877 -0.17772093  0.09626216
  0.06255167 -0.20631489]
[ 0.09175435  0.03434274  0.07855178 -0.21461822  0.44434315  0.1027485
  0.35134166 -0.0027218   0.06521893  0.3775066  -0.02938074  0.13337272
  0.27088434 -0.10478732 -0.2020554  -0.25333163 -0.27042216 -0.04456249
 -0.18422484  0.46271834]
[ 0.03430166 -0.15406355  0.20647396  0.16694371 -0.27103618 -0.12548181
  0.19778663 -0.11463944 -0.3458391   0.18525264 -0.32950783  0.3508015
  0.19339281 -0.16867787 -0.15098788  0.30057564  0.03038334  0.11000414
 -0.23233257 -0.1422001 ]
[-0.34876803 -0.05461977 -0.15663332 -0.12080075  0.03822726  0.1798568
 -0.00373291  0.13759078  0.06560512 -0.4386396  -0.02153213 -0.13244534
 -0.31626877  0.25148413  0.03984703  0.21452948  0.17365754  0.07865734
 -0.20873395 -0.23652104]
[ 0.3510263  -0.18528196 -0.22322114 -0.34319842 -0.30445796  0.13806976
  0.04298084  0.00645365  0.25119594 -0.27179673 -0.31534407 -0.2623695
 -0.05965653  0.09703115 -0.35573447  0.04191073  0.0619483   0.2093924
 -0.186948    0.09035937]
[-0.4613622  -0.06367334  0.2131609   0.36290348  0.47308135  0.22509618
  0.07837998  0.22203267  0.19240843  0.10881262 -0.04368623 -0.49054387
  0.08004072  0.09459149 -0.08780839  0.17805506 -0.31716707  0.14964
  0.2059096  -0.02057963]
[ 2.3970921e-01 -2.0339659e-01  2.6862253e-02 -1.5566941e-01
  4.7814719e-02  3.0032337e-01  2.3395319e-02 -3.4012580e-01
  1.2841375e-01  3.3132863e-01 -4.7120795e-01 -5.3732947e-06
  5.7267976e-01  1.9691151e-01  2.0500551e-01 -5.4407392e-02
 -2.8457201e-01 -1.4468224e-01 -2.2689544e-02  3.3516562e-01]
[-0.00565964 -0.34980828 -0.03497651 -0.08532359 -0.02036541  0.35841087
  0.18545273 -0.0197542   0.17212716  0.10816516  0.04116018  0.46463004
  0.35486084 -0.43579307  0.13091233 -0.05319676 -0.22797807 -0.18663779
 -0.08304191  0.18978308]
[-0.14426574  0.16361168  0.11218289  0.40467447  0.44147235  0.33809736
 -0.29275778 -0.20489605 -0.14657624 -0.0149048  -0.10825768  0.21536438
  0.03211832  0.0410572   0.16849943 -0.21975316 -0.3802728  -0.14146751
 -0.19778147 -0.09945496]
[-0.07202926 -0.33221644  0.2757083  -0.11110316  0.29928935  0.23484835
 -0.31550196  0.0448113  -0.21683846  0.19405392  0.10478871 -0.2325379
 -0.03667369 -0.51025593  0.24029925 -0.03952879 -0.06993367  0.15065522
 -0.26872706  0.28440297]
[ 0.09301242 -0.07768572 -0.2082369   0.03810528 -0.0305456   0.34200376
 -0.22198457 -0.24058898 -0.23825392  0.15540972 -0.43011528  0.19149542
  0.13792755  0.15636052 -0.05504854 -0.13833277  0.05176006 -0.11101937
  0.10638117  0.00194931]
[-0.13377693 -0.21946634  0.16006987  0.35876524 -0.28306884 -0.1563984
 -0.11563987  0.15305169 -0.31690106 -0.07595218  0.48191586 -0.37335357
  0.19635785 -0.17093158  0.27335837  0.15257005 -0.34980652  0.38947946
  0.1822015  -0.46202   ]
[-0.12089276 -0.09224284  0.36566004 -0.06724722  0.14005652  0.3993346
 -0.30239645 -0.30705094  0.25002033  0.42346895 -0.35582614 -0.03349825
  0.27932405 -0.7352445  -0.03883873 -0.11514936 -0.1048015   0.06253126
 -0.14191516  0.2985468 ]
[ 0.1430068  -0.09375463  0.23307458 -0.25343692 -0.18086311  0.14567263
  0.18296032  0.27035433 -0.15022023 -0.23259695 -0.50211596  0.45955515
  0.00130751  0.09609386 -0.15007111 -0.19690041 -0.18848482 -0.22484429
  0.2858052   0.4157969 ]
[-0.13723473  0.13440466 -0.23799525  0.04311918  0.3999573   0.35260367
 -0.06185366 -0.19648294 -0.36712784  0.12751697  0.11431096  0.12173774
 -0.3197278   0.09431081  0.07693185 -0.29988748 -0.31313288 -0.16084933
  0.06643865 -0.19445916]
[-0.11568085 -0.19776627  0.33867782  0.18011706 -0.3979021  -0.16833006
 -0.3114069   0.05523345 -0.3811208   0.03249131 -0.46485797  0.1168976
  0.21907777 -0.39510804 -0.05029276  0.31605685 -0.02814086  0.14663436
 -0.21989542  0.2682638 ]
[ 0.01117219  0.16597617  0.02545933  0.3803917   0.254596    0.20355262
 -0.35361958 -0.12027827  0.11764476 -0.18509142  0.47013474 -0.03548481
 -0.01900307  0.1108173  -0.19040859 -0.1693495  -0.00316526  0.4323163
 -0.10551216  0.02166712]
[ 0.10898425  0.07170526  0.01676293 -0.17086093 -0.17819454  0.041994
  0.20120853  0.28254035  0.24647099  0.2395946  -0.2977424  -0.28628466
  0.4910102  -0.24237269  0.3136375  -0.2819518   0.09617749  0.02191524
 -0.06525426  0.30822426]
[ 0.41926455  0.18373258  0.14678499 -0.34778127 -0.50424933 -0.2904224
  0.29814667 -0.23649171  0.28917053  0.1240214  -0.10012957  0.07434762
  0.26066688 -0.07822262  0.23846322  0.20428804  0.50626713 -0.15277332
  0.08998797 -0.22184893]
[ 0.22823708  0.14396197  0.09168314 -0.07425094 -0.05862458 -0.1513429
  0.16183077 -0.03975669  0.19105195  0.36543444 -0.11006629  0.24086684
  0.2101231  -0.5028142  -0.0175728  -0.08799179 -0.05491713 -0.01389072
  0.21915561  0.28831786]
[-0.11348309  0.06831792  0.04661376  0.145716    0.2591426   0.31671658
 -0.22803156 -0.31414908 -0.08394832 -0.23613347 -0.07818529  0.2174212
  0.29409087  0.22254443  0.03965042  0.13421853 -0.07242045 -0.24745353
  0.15544459 -0.03444461]
[ 0.00169084  0.19130751 -0.02658484  0.02623799  0.00812452 -0.24444169
 -0.29110616  0.07761067  0.23333153 -0.05810091  0.11981293  0.10857758
 -0.3657197   0.34632847 -0.16288757 -0.18245667  0.27814656  0.135057
  0.31988797  0.19105421]
[ 0.2476382   0.08767939 -0.2229608  -0.25408038 -0.15698431  0.22210976
  0.12412088  0.30108467 -0.16836119  0.05285889  0.01518826  0.2173953
 -0.16042961 -0.21396844 -0.09396797 -0.36784822  0.11716345  0.06756958
  0.1558789   0.31895232]
[-1.7480727e-01 -8.7522872e-02  3.3438584e-01  5.3546533e-02
  4.3669667e-02 -7.9908326e-02  7.7515922e-02  1.0638685e-01
 -2.0672293e-01 -2.7154602e-02  1.7098628e-01  1.3244055e-01
 -3.7208799e-01 -4.7980789e-02 -9.6981823e-02 -1.8209586e-01
 -4.2019121e-05  3.3916983e-01 -1.9032654e-01 -2.7380604e-01]
[ 0.11484794 -0.08833057 -0.02330924 -0.2526878  -0.17994569  0.11032891
 -0.06262045  0.07207223 -0.02001414  0.030269   -0.18175872  0.16361949
  0.23486525 -0.09286954 -0.10021586  0.06080265 -0.17512849  0.01049042
  0.06164492  0.11466416]
layer 5 Activation
tanh
layer 6 Dense
20 1
[0.04451917]
[0.01348807]
[-0.02674554]
[-0.28089285]
[-0.27663034]
[0.06009825]
[-0.03723036]
[0.00984208]
[-0.01555772]
[-0.08488806]
[-0.14344534]
[0.14075226]
[-0.06821199]
[0.04059923]
[-0.04359613]
[0.03468817]
[-0.2940388]
[0.23998238]
[0.02452435]
[-0.31660655]
[0.08875568]
