layers 7
layer 0 Dense
20 20
[-0.48857346 -0.270109    0.04616003  0.10760325  0.20030616  0.41065857
 -0.02575384 -0.30139825  0.09486791 -0.40971678 -0.40627113  0.03792958
 -0.21120943 -0.3127819  -0.04981722 -0.42382088 -0.52354234 -0.14780386
  0.5074777   0.1391758 ]
[-0.2970572   0.259996   -0.1238714  -0.00544904  0.31084374 -0.34309652
 -0.14840162  0.3714162   0.10003097  0.2882671   0.05669734  0.07939876
 -0.0797707   0.0627754  -0.30626175 -0.42130095  0.36608922 -0.33149356
 -0.10449948  0.31414288]
[ 0.22856236  0.33224413  0.26265222 -0.10449269  0.5015565   0.15055871
 -0.23146538  0.3196789  -0.02196576 -0.1744644   0.28411567 -0.240069
 -0.30021372 -0.46718737 -0.23083183 -0.46072552  0.30590475 -0.27226096
 -0.17377025  0.23429488]
[-0.42023712  0.02671159  0.32057586  0.06281672  0.22546056  0.30447417
 -0.07573514  0.2814713  -0.10088317 -0.509209   -0.41874835  0.42661938
 -0.23066616 -0.48246256 -0.22281814 -0.15846625 -0.41031387 -0.16959572
  0.0966952   0.49214292]
[-0.05614662  0.16294745  0.501841   -0.16097525 -0.09479754 -0.37046078
  0.03091259 -0.19792551  0.09932455  0.17731506 -0.08093019  0.32338598
 -0.26567337 -0.16451326 -0.14976014 -0.43465108  0.12270415 -0.07182831
 -0.14785169  0.35274208]
[-0.20004854  0.159228    0.23126039 -0.12833099  0.24140407  0.07125211
  0.06240922 -0.00271774 -0.07866501 -0.02242517  0.24943885  0.1501933
  0.0109796  -0.06033395 -0.17374909 -0.08031176  0.45773947 -0.14349264
  0.30746973 -0.01052843]
[ 0.15843591 -0.3128043  -0.29551777 -0.02781503 -0.05228513  0.22537498
  0.22633365  0.17384523  0.3019717   0.04585607  0.13231757 -0.1851424
 -0.0504772  -0.14296854  0.06223174 -0.2933504  -0.23010698  0.05342595
  0.34085694  0.33063105]
[ 0.25862366 -0.13332504 -0.09064408  0.2277008  -0.5739622  -0.13249084
  0.13673139 -0.21311232  0.10000871  0.26061094  0.25535294 -0.46636593
 -0.37833852  0.5056594   0.01017687  0.02782013 -0.16783504  0.40816295
  0.13881582 -0.4525966 ]
[-0.7162967  -0.13507669  0.32238114 -0.23155028  0.0609909   0.10715701
 -0.9641808  -1.2275742   0.09832301 -0.26819938 -0.1273264   0.37273452
  0.8176043   0.78257126 -0.47027647 -0.2648421  -0.24940391  1.1159657
  0.5003152   0.17979982]
[-0.8420498   0.8070865  -0.52844316  0.79987586 -0.19237947 -0.7588302
 -0.37929812  0.14162382 -0.32462788 -0.03723119  0.16625409  0.00326028
  0.09561206 -0.6835705   0.42619833  0.12450428 -0.72981375  0.10543585
 -0.11749853  0.21695992]
[ 0.3640942  -1.1915008   0.26952612  1.0119598   0.49014518 -0.5279955
 -0.02770623  0.8517645  -0.56386405  0.18893056 -0.40164107  0.5663589
  0.04747652 -0.24136433 -0.03124463 -0.49528474  0.39695778  0.9904025
 -0.04309114 -0.23364562]
[ 0.6415914  -1.2633594  -0.1811477   1.4879557  -1.1806469   1.7757761
  0.46295777  0.28618944  0.18363327  0.8919274   0.8205063  -0.9649273
  0.93699414 -0.0117496  -0.390862    0.98263943 -1.8455138   0.77462626
 -0.83788985 -0.60771716]
[-0.42007425  0.21729878  0.6827752  -0.11868947  0.11605014 -0.01527697
  0.08016534 -0.19395438 -0.30121055 -0.21178849 -0.12887818 -0.01045307
 -0.26509675 -0.27319485  0.3947776  -0.20570864 -0.2853982   0.09998004
 -0.37801072  0.5980878 ]
[-0.3030413  -0.24401253  0.01367636 -0.52831215 -0.03335138  0.15108302
  0.4964398  -0.16735394  0.32353112  0.25788575 -0.08214072  0.36567602
  0.06683978  0.07054698 -0.23953529 -0.13297679  0.13624895 -0.16902535
 -0.2270347  -0.19970933]
[ 0.04497131  0.24575335 -0.22224516 -0.09756164 -0.3091935   0.1811939
  0.18052854 -0.25269708  0.06580728  0.02412834  0.25943464 -0.2227854
 -0.01057008  0.25094578  0.42057413  0.02120877 -0.09424566 -0.41729188
  0.28725317 -0.08348634]
[ 0.30190936  0.30096892 -0.3882174  -0.13416648 -0.15329471 -0.29168695
  0.4675545   0.5902739  -1.0021164   0.35025313  0.7405128  -0.381783
 -0.7487735   0.31153208 -0.14172006  0.9129897   0.25941148  0.8699091
 -0.9786595  -0.62956804]
[ 0.28874213 -0.076237    0.24590202  0.05195741  0.01508643  0.4789982
 -0.6238347   0.16721553  0.30026504 -0.08481316  0.08701034 -0.19942223
 -0.00173395  0.38530827  0.05129588  0.5079436  -0.12440248  0.08130998
 -0.62306076  0.16657823]
[ 0.50715464 -0.39849904  0.5157409  -0.5649102   0.33407518  0.5583344
  0.32183307 -0.3639682  -0.11274639 -0.2497493   0.11121271 -0.07459345
  0.39407817  0.18666941 -0.13393353 -0.06119967  0.44188234 -0.310227
  0.688298   -0.09617422]
[-0.29731196  0.39397284  0.3935508  -0.41182366  0.1358096   0.12420628
 -0.44716617 -0.75542545  0.24148029  0.35466033  0.48595536 -0.11699135
  0.19436355  0.5799798   0.20105298  0.8670123  -0.2189434  -0.5715538
 -0.0890677  -0.33530772]
[-0.36305553  0.59984154  0.48126894 -0.5711742   0.35564867 -0.1955339
 -0.23949337  0.06644217  0.06456836 -0.38720906 -0.6215277   0.685225
  0.067265   -0.11354932 -0.10160278 -0.35806045  0.22134995  0.37095296
  1.0700815   0.5349992 ]
[-0.07711902 -0.00056712 -0.06762479 -0.07616161  0.32366857 -0.12999949
  0.18908492  0.09392492 -0.00649286 -0.11705083 -0.10013812  0.12591298
  0.01670553 -0.30231822  0.02055361 -0.17111409  0.11452624 -0.21772023
  0.15921207  0.15873735]
layer 1 Activation
tanh
layer 2 Dense
20 40
[ 0.00874731 -0.62866366 -0.3909717  -0.54847986  0.2883121  -0.54010904
  0.0069604   0.00542158  0.23073122  0.12818883  0.01283405  0.46673346
 -0.44545662 -0.31959394  0.3127944   0.4403945  -0.00613903  0.44287664
  0.34826463 -0.16778488 -0.2809828  -0.08261414 -0.01477339 -0.76771444
 -0.63231397 -0.5842519   0.13087519 -0.10765389  0.13751404 -0.1798626
  0.17581798  0.4652875   0.41637614 -0.2688031   0.534556    0.23685448
  0.30842608  0.10460576  0.43865365  0.41576946]
[ 0.09408922  0.77327347  0.05987312  0.41524908 -0.4659155   0.25871438
 -0.27933088  0.25370058 -0.38360932  0.8930572  -0.64533454 -0.38809013
  0.43595204  0.38309723 -0.68193847  0.25510016 -0.18245621 -0.40274316
 -0.41028523  0.16556925  0.68584555  0.08250117 -0.21980554  0.50211173
  0.4181599   0.3808761   0.065947    0.03785822 -0.30728033  0.146235
 -0.21274343 -0.6571839   0.0972277  -0.36058426 -0.18551034  0.11619814
  0.1411781   0.57719356 -0.11015458  0.10796762]
[-0.18389346 -0.07157669 -0.05184359  0.18325143 -0.36197144  0.4173078
  0.03098612  0.12793228 -0.02160881 -0.26985937 -0.00137291  0.19309591
  0.31029686  0.03323703  0.25734094  0.24366719 -0.22388373 -0.25349712
  0.31378675 -0.33478993  0.12638775 -0.09677958 -0.20200765  0.14883402
  0.01196134  0.00324422 -0.02684878  0.18615554  0.23555884  0.0731888
  0.8844028  -0.03048452  0.07208245  0.7004334  -0.32132855 -0.04763407
 -0.09449438 -0.08648049 -0.5607793  -0.31448615]
[ 0.14736713  0.23495756 -0.40471646 -0.1873275   0.24084121 -0.17257777
  0.46636802 -0.23654054 -0.19373123 -0.6107712   0.5136601   0.09657338
 -0.54248345 -0.07539925 -0.14922632 -0.05185508  0.27077717 -0.04330948
 -0.28480488  0.56628054 -0.8422404  -0.14096694 -0.02198543  0.30404904
 -0.09416866 -0.15666963 -0.04860853 -0.17380278 -0.32112586 -0.34420875
 -1.0336698   0.42127067  0.32574895 -0.9197075  -0.0896472   0.11972709
  0.37962443 -0.02827909  0.05997055  0.6057308 ]
[-0.16239016 -0.09082282  0.45287558 -0.45184553 -0.03317751  0.46132866
  0.1309079   0.2871196   0.12108403  0.21903168 -0.20310375  0.44992054
  0.18781711 -0.43998063  0.16768293 -0.495397    0.24261796 -0.12889062
  0.29714185  0.21042027 -0.17746617  0.17928119 -0.04335999 -0.09328459
 -0.01759955  0.294067    0.03922009  0.10130949  0.3185923   0.32961506
  0.3061252  -0.37297565 -0.5137881   0.29653087 -0.22042572  0.06861738
  0.06719789  0.4049324  -0.0334499  -0.22803038]
[ 0.20321535 -0.39879364  0.15234938 -0.52400887  0.1967462   0.27733544
 -0.1503365   0.21962872  0.15542987 -0.476369    0.54445356  0.2632797
  0.02037395  0.28921172  0.0937129  -0.49017963  0.23939323  0.24414489
  0.01182036 -0.19640929 -0.29866785 -0.5110065  -0.23900242  0.02758514
 -0.2639261  -0.10422719 -0.18849339 -0.09993117 -0.12276614 -0.19479696
  0.05857538  0.16933276  0.22471946 -0.23716569 -0.3641922   0.360628
  0.09036379  0.28040883  0.00145369  0.38782284]
[-0.30713972 -0.3059952   0.44222632 -0.6165875  -0.37947288 -0.23282571
 -0.10258045  0.26722488 -0.00825133  0.18379247 -0.07254282  0.6094124
  0.11059622  0.39463294  0.32446525 -0.29934597  0.20521575 -0.01148788
  0.3239377  -0.43131563 -0.1132507  -0.24888256 -0.37026528  0.04532347
 -0.2041469  -0.02949174  0.06380869  0.10931354  0.38497075 -0.01212646
  0.44080335  0.12838116 -0.320175   -0.10295413 -0.3003795  -0.03613998
  0.32889676  0.286057    0.09336648  0.15530105]
[ 0.2042083  -0.12854163  0.10031046 -0.17356074 -0.34638855 -0.3234606
 -0.15431246 -0.41012695 -0.31839645 -0.15422423  0.23633802  0.23217976
  0.24905373 -0.15437959 -0.02440191 -0.25167018 -0.18335634  0.18099543
  0.12047609  0.2938465  -0.49238816  0.3153535  -0.0287865  -0.21070233
 -0.5622907   0.35534152  0.15853715 -0.19095941 -0.28505015 -0.15314244
 -0.79828185 -0.22798403 -0.01918385  0.01366163 -0.13523911 -0.06655668
  0.39006838  0.02640166  0.56120765 -0.1226634 ]
[-0.00167707  0.16078278 -0.25048846 -0.18917757  0.22661301  0.05192516
  0.10227615 -0.02996225 -0.3717994   0.07687308  0.03987699 -0.14366268
 -0.41221875  0.08874933 -0.06991428 -0.09516314  0.09638285 -0.25723773
 -0.2464886  -0.1009129   0.5941836  -0.43374625 -0.00631017 -0.09058144
 -0.03650765 -0.11574934 -0.2843522  -0.3740736  -0.21390346 -0.07083841
  0.34679726 -0.10200292  0.15958343  0.05609168  0.01320284  0.19366355
  0.2107239  -0.06872904 -0.25119805  0.03918282]
[ 0.09763344  0.1376011  -0.61979675  0.29691926 -0.12929307 -0.45918596
 -0.00332911  0.08460651 -0.05826465 -0.15624928 -0.17906025 -0.18117091
 -0.30849424  0.04784068 -0.12989841  0.33187845  0.21126877  0.23335509
  0.06865691 -0.02471241 -0.3180088  -0.06735934 -0.1344587  -0.03986235
  0.1298404  -0.55615485  0.2207801  -0.2852413  -0.09584139 -0.38042867
 -0.11938165  0.25222263  0.27636108 -0.05479759  0.055411   -0.01210382
 -0.00617986 -0.63175064  0.05986243  0.4013083 ]
[ 0.01099148 -0.15549305 -0.3909535   0.30911204  0.0753836   0.15379785
 -0.10831395  0.05693672  0.30610958 -0.10363389 -0.2299528  -0.3727027
  0.29354805 -0.08164129  0.04450897  0.01189769 -0.06148119  0.241823
  0.11321326  0.20970984  0.17796442 -0.40685344  0.24274328 -0.23699117
  0.4444282  -0.37229404 -0.04185487 -0.0279448  -0.03139677 -0.3191938
  0.24762656  0.29652444  0.31136134  0.01514115 -0.01477621 -0.07469029
 -0.13679925  0.08953837  0.13175385  0.4144536 ]
[-0.2868493   0.480125    0.5667755   0.02748088 -0.36674282  0.16604367
  0.1262254   0.11144477 -0.11398168  0.03346824  0.06325714  0.49724525
  0.3531649  -0.46216863 -0.42687172 -0.22790204  0.09026579 -0.17703882
  0.37460685 -0.19253515 -0.20278895  0.3272042   0.14625123  0.42135277
 -0.11251838  0.47984028  0.16388375  0.20012948  0.06961708  0.41253594
 -0.5368375  -0.4986166  -0.38812265  0.5419008  -0.3954371  -0.24820176
 -0.03768253  0.3747919  -0.18098961 -0.20158151]
[-0.31797856  0.00216061 -0.37400335  0.2458072   0.10583507  0.22148691
  0.13101235  0.4265595   0.32077625 -0.29075623  0.43371502 -0.23426098
  0.21719387  0.05987029  0.33545884 -0.17637052 -0.04244428 -0.561788
  0.08122943 -0.05706252  0.24011841 -0.42279503  0.5453264   0.18345356
  0.00864736 -0.19870257  0.06978611  0.2762116   0.11200666 -0.02724061
 -0.06706113  0.45499268  0.2783984   0.14026956 -0.09184715  0.07211493
 -0.66121525 -0.6124875   0.0295727  -0.24424888]
[ 0.27041796 -0.4222158  -0.50353026 -0.12455577  0.27301523 -0.19554779
 -0.10084034 -0.08981301  0.23446247  0.12150504  0.19265687  0.11469253
 -0.31175047  0.21278249  0.38813928  0.33958825  0.32401982  0.35596827
  0.21961984  0.37306705  0.41001174  0.29350045  0.16630433 -0.54796433
  0.30947724 -0.4612921  -0.02209832  0.14167269 -0.14688186 -0.3143588
  0.36425087  0.06424143 -0.11451276  0.40253082 -0.06332559  0.11356162
 -0.04449919 -0.2572725  -0.380558    0.29589579]
[-0.05299026 -0.2493261  -0.19514172  0.12991653 -0.1644209  -0.15078951
  0.15090354  0.21834975 -0.10647485  0.38918045 -0.3992253  -0.19736435
 -0.06255245 -0.1498512   0.2314927   0.01411698  0.09505713  0.2201848
 -0.19497825 -0.09327698 -0.15508975  0.07683458 -0.15653238  0.02447182
  0.10212224 -0.0625152   0.02037522 -0.31002784  0.15990753 -0.1848137
 -0.10443276 -0.2578074   0.15103939 -0.42750394  0.28372765  0.24538442
  0.02660165  0.23945774  0.39011934  0.14072876]
[-0.01074772 -0.4397045  -0.19276614  0.07499817  0.40903535 -0.0596294
  0.20542619 -0.30679914  0.1588189  -0.19074954  0.23192325 -0.14647742
  0.05058637 -0.02954105 -0.10695497 -0.05896967  0.34034568  0.10919894
  0.17922342  0.65476346  0.11430046 -0.36477044 -0.11657575 -0.49152154
  0.587742   -0.9305345   0.12532157 -0.33437395  0.02189904 -0.14491574
  0.03841848  0.4170237   0.29326043 -0.38752186  0.15136123  0.10987557
  0.02821574 -0.11251998 -0.17954075  0.37811473]
[ 0.2774822  -0.3927668  -0.42730635 -0.37278283 -0.0978032   0.11928758
 -0.05640354  0.36027348  0.14245585  0.11047236 -0.46429577  0.09350552
  0.3657651   0.2672342   0.27429238  0.25145853  0.06626127 -0.4803274
  0.0475017  -0.14568573  0.01451364  0.15339082  0.15276359  0.14805755
 -0.09875391  0.35862476 -0.03592324 -0.19341394 -0.0532198   0.06834341
  0.66834086 -0.3933254  -0.20738335  0.48726454  0.13739945 -0.20885694
 -0.16195951 -0.18177119 -0.07607998 -0.02137237]
[ 0.45353386  0.23362207 -0.85722935 -0.15608455 -0.46262097  0.1089325
 -0.13474248 -0.29417455 -0.34371918 -0.57288146  0.31183857 -0.3559451
  0.21074383  0.34493947 -0.37893024  0.6503813   0.09549759  0.01580266
 -0.2217634   0.4270762  -0.5794087   0.3802713   0.19216694  0.13205358
 -0.01403938  0.44393942  0.2636819   0.06824395 -0.29305705 -0.19217873
 -0.17979227  0.36903775 -0.21259964 -0.04142633  0.4920657  -0.6235078
  0.21119694 -0.6504542  -0.06661315 -0.06396899]
[-0.10115831 -0.12457783  0.40289086  0.47100446  0.12550105  0.76670486
  0.17169951 -0.11705317 -0.10611093  0.47261313 -0.01332924 -0.11163124
  0.1298401  -0.12913151  0.09074191  0.0187635   0.07987785  0.08067432
 -0.08805671 -0.32201526  0.5390085   0.18699698  0.3395143   0.46455166
  0.07485148  0.55100733 -0.12397896 -0.05288874  0.3717276   0.3311189
  0.267604   -0.29770285 -0.2604968  -0.01802285 -0.27961951  0.35366005
 -0.24796161  0.03234161 -0.2637646  -0.5288017 ]
[-0.5912338   0.42359835  0.03968751  0.46258834  0.00938658 -0.03860747
 -0.03432123  0.5561354   0.13814509  0.0528548  -0.08049708 -0.2900304
 -0.19199152 -0.13011737 -0.09099036 -0.49665728 -0.06507146 -0.13878424
 -0.03367762 -0.06645065  0.26489624 -0.36719552 -0.02256726  0.33915564
  0.27719545  0.527307   -0.28149724 -0.10789256  0.36985216  0.42386293
 -0.19712722  0.01797888 -0.2877318  -0.0763915  -0.01511238 -0.0484092
 -0.53499675 -0.09532564  0.23904388 -0.38044357]
[-0.2675458   0.34009397  0.7313666   0.20267698 -0.11852734  0.11528172
  0.15410967  0.2702902  -0.02175353  0.19811606 -0.15175524  0.00888378
  0.08593502 -0.06663103 -0.06392306 -0.72868574 -0.12327272 -0.42502117
 -0.06380186 -0.33882338  0.3022882  -0.0830452   0.15636718  0.5748496
  0.13126437  0.26573747 -0.08134319  0.20339374  0.27189958  0.43108526
 -0.11309435 -0.2716772  -0.25485313  0.23579937 -0.22346626  0.03746148
 -0.2951918   0.30014646 -0.06556543 -0.36358002]
layer 3 Activation
tanh
layer 4 Dense
40 20
[-0.23843916 -0.42671356  0.19995503  0.05701784  0.41330427 -0.03777113
 -0.26216477 -0.16893671  0.3225931   0.0483419   0.3380726   0.20975971
  0.11498304 -0.28059298 -0.18865664  0.08602808 -0.17381085  0.12292242
 -0.13297726 -0.15615103]
[ 0.09993681 -0.37483674  0.16009857  0.31694427  0.04203743  0.07781842
  0.40759256 -0.47416374  0.01131045 -0.5817659   0.14928582 -0.00641868
  0.2553668  -0.00803797 -0.35304657  0.22532354 -0.27356327  0.12133732
  0.31305677 -0.21768054]
[ 0.41101095  0.5573492  -0.12180187 -0.27046242 -0.15500897 -0.11440606
  0.4718484   0.07307705 -0.13219608 -0.5179598   0.00702236 -0.21156038
 -0.33338124  0.26892713  0.06337247  0.11280914 -0.18435742 -0.35668588
  0.22087932  0.14075263]
[ 0.0747925   0.0291217  -0.09651853  0.5741704  -0.23541473  0.0650752
  0.4685365  -0.40920344  0.326146   -0.15465634 -0.20864086 -0.41745728
  0.4281469  -0.2011893  -0.23435792 -0.29329976 -0.06962448  0.17208526
 -0.10672939  0.13416158]
[-0.3681209  -0.05781136 -0.21451691  0.1287129  -0.09923118 -0.04288047
 -0.13063894  0.06023521 -0.36773577  0.11779008 -0.22111268 -0.32484335
 -0.05982809 -0.13133422  0.27902663 -0.19408332 -0.37414342  0.07990312
 -0.49407503  0.06563435]
[ 0.30388677  0.44702342  0.11396375  0.0269344  -0.43960196 -0.15378231
  0.13742442  0.04327605 -0.19763976  0.11960494  0.07236665 -0.00658683
  0.20430703 -0.13945329  0.14219502 -0.37703633 -0.03242975 -0.4317747
 -0.3436465  -0.14765394]
[-0.31437725  0.01375513  0.0056538  -0.01190098 -0.19802332 -0.14394024
  0.16056396  0.09743659  0.12120097  0.04994286  0.1723316  -0.26101136
  0.16056821 -0.08494539 -0.0518827   0.13910416 -0.21540506 -0.15907457
  0.10573564 -0.20069209]
[ 0.16902925  0.11885493 -0.26459053 -0.47866842 -0.25372225  0.2618722
  0.2576507   0.08627708  0.29381993  0.1827557   0.03401025  0.19148263
 -0.38889673  0.08078039  0.21134703 -0.23799777 -0.09208237 -0.44332516
  0.06280995  0.18281847]
[-0.19910479  0.08312587 -0.1237719  -0.28240082  0.00221228 -0.00583567
  0.04334409  0.3897461  -0.08769239  0.5873222   0.09987937 -0.05490603
 -0.04359076  0.03564496  0.25583315 -0.02111473  0.03472384  0.09831031
 -0.46495798  0.05522484]
[ 4.2071900e-01 -3.4933370e-02 -7.0048082e-01  5.4791421e-01
 -1.6772638e-01 -1.0009515e-01  2.8643778e-01 -5.1286292e-01
  6.2119391e-02  2.8225550e-05  3.3899474e-01  1.9416887e-02
  2.5079608e-01 -1.4341804e-01 -2.0498645e-01 -7.1495891e-02
 -1.7256001e-01  1.6128954e-01 -2.0689064e-01 -1.6308105e-02]
[-0.3018794   0.26065993  0.15279984 -0.00994045 -0.26624683  0.03953429
 -0.40825194  0.72069234  0.00475274 -0.37383327  0.12477712 -0.17466716
 -0.18236496 -0.18703583 -0.2836288   0.16218567 -0.01235207 -0.00339638
  0.2037823  -0.12375472]
[ 0.0252878   0.07534774  0.3456156  -0.3278923   0.10068984  0.10473743
  0.08098286  0.18029268  0.13290192 -0.16954665  0.20974027  0.35017458
 -0.06975973  0.25857678  0.2935571   0.19530752  0.31097388 -0.37466347
  0.4136685  -0.07338877]
[ 0.24813817  0.18991268  0.08711445 -0.1417652  -0.09772574  0.19409308
  0.01633191 -0.496448    0.20218347  0.09913264  0.25147167  0.28434023
  0.07807152  0.0853143  -0.07987823 -0.44673622  0.32450962 -0.15694281
  0.38983735 -0.15353158]
[ 0.04341066  0.08991011 -0.34352356  0.19686766  0.16737327  0.20529717
 -0.25243333 -0.21209554  0.19019313  0.27808496 -0.02496866  0.13168573
 -0.2151349  -0.2133244  -0.1763065  -0.33312142 -0.0979484  -0.10591972
 -0.33872727  0.18182948]
[-0.17145234  0.37440434 -0.27552858 -0.34016976 -0.36989307  0.02023873
 -0.05585091  0.45388243 -0.01882146  0.3205522  -0.34952936  0.13643128
 -0.385668   -0.06766918  0.20074993 -0.21593028 -0.04241375  0.01153449
 -0.04938094 -0.03359029]
[-0.22358961 -0.4677631  -0.30580935  0.18582201  0.5042702   0.00326231
 -0.57796085 -0.4705955  -0.11299767  0.46237558  0.07218513  0.13408113
  0.25898594 -0.1568537   0.22605254  0.12005659  0.27007625  0.48314422
 -0.35327554 -0.2557375 ]
[-0.22290957  0.13569273  0.03105727  0.33807838  0.23584251 -0.20769532
 -0.17390372  0.00538938 -0.31695312  0.03573489 -0.01926436  0.09889589
 -0.18981373 -0.08141018 -0.00463147  0.14863096  0.07368831  0.37552354
 -0.47952378 -0.30270284]
[ 0.08248434 -0.02816029 -0.06902727  0.1481183   0.38940227  0.17501022
 -0.33712557  0.4178197  -0.09470285 -0.05662346  0.28101662  0.20099473
  0.13272783 -0.06973974  0.30092832  0.39265627 -0.03407752  0.36131296
 -0.06419539  0.21582219]
[-0.10680293 -0.102551    0.2812884  -0.6361075   0.28971523 -0.13629217
  0.1287934   0.43357024  0.2972381   0.44739935  0.2056724   0.27390057
 -0.2512391  -0.01287592  0.27271053 -0.00143111 -0.08609959 -0.20339856
  0.07137901  0.06513828]
[-0.39902672 -0.42098528  0.28673673 -0.03417884  0.3936536  -0.312161
 -0.3145974  -0.16116133 -0.18292336 -0.3716758  -0.03095872 -0.23440214
  0.4519812  -0.30686936 -0.08780117  0.14880715  0.19303067  0.413618
  0.22825965  0.1990326 ]
[ 0.13210997 -0.11408558 -0.52579015  0.49284327 -0.19641937  0.1435526
  0.5994205  -0.31887457 -0.15280235  0.37653205  0.00779591  0.19713253
 -0.01974791 -0.39417553  0.23021081 -0.31130844 -0.26919767 -0.07983252
 -0.45750713 -0.05847312]
[ 0.2610577  -0.03054315  0.04186217 -0.10358942 -0.1604849  -0.5721596
 -0.13341434 -0.42289007 -0.07101329 -0.30385575 -0.07949201  0.10125332
  0.3446519   0.08083126 -0.32578638  0.18017447  0.23574263  0.06644303
 -0.10153523 -0.28503367]
[ 0.07958774 -0.04952342  0.25092474  0.24383065  0.13847293 -0.08814121
  0.11411097 -0.22481903  0.20194088  0.40365574 -0.16439094  0.09437551
 -0.08232939 -0.09057382  0.12804054 -0.21251002 -0.27884352 -0.09768622
 -0.27608302  0.16819674]
[ 0.14201282  0.11927459 -0.14863902 -0.01064011 -0.05205268  0.10087479
  0.44821087  0.19856122  0.12786195 -0.42337564 -0.02047791 -0.23528312
 -0.09607235  0.07114078 -0.39200637 -0.36624297  0.02273867 -0.35731068
  0.14990178 -0.38639525]
[-0.30008054 -0.13041328 -0.34311828  0.13357002 -0.24397002 -0.15482558
  0.23443244 -0.48864618  0.21035522 -0.05162628 -0.10171322  0.10962234
  0.25571635 -0.22815071 -0.1436124  -0.16845162 -0.12407011  0.00483648
 -0.2514644   0.17897564]
[ 0.64482695  0.36865884  0.01988079 -0.32090625 -0.5106462  -0.23468776
  0.44430074 -0.0116135   0.04589031 -0.1155534   0.19613105  0.20337783
  0.35779238  0.4953281  -0.43581182 -0.32252982  0.26848352 -0.35579124
  0.3769902  -0.17273404]
[-0.09486926 -0.42404184  0.07667336  0.13936098  0.15575193 -0.38528717
 -0.0076265   0.00216159 -0.14189169  0.00687834 -0.19465502  0.11233833
 -0.05611455  0.10590392  0.04381451  0.2121133   0.33140022  0.09071522
  0.14559713  0.19505548]
[-0.04202983  0.25086525  0.23912059 -0.0228993  -0.4741595  -0.10790893
  0.05859262  0.292644    0.04157994  0.05279714  0.0157799  -0.02452879
 -0.14278898  0.04375001 -0.05601889 -0.4070897   0.12755875  0.07364526
  0.21213289  0.0293231 ]
[ 0.18618569  0.3765688   0.13885503 -0.14269082 -0.01606313  0.20473464
  0.0878028   0.08857469 -0.18319307  0.31680328  0.01166453  0.22420917
 -0.04017879  0.2992966   0.22494282 -0.36160353 -0.2430646   0.23421341
  0.2486014  -0.13750698]
[ 0.16044135  0.25363806  0.14738782 -0.20165446 -0.18038002  0.09718265
  0.37068444  0.15803663  0.23668711  0.12433539  0.12468621  0.12279013
 -0.16458754  0.19451459 -0.10636491  0.03540222 -0.14609173 -0.47890037
  0.3538131  -0.38212654]
[ 0.4298385  -0.17756686 -0.45135027 -0.27470452 -0.33439878 -0.27813914
  0.06489914 -0.2396063   0.05328717  0.7542112  -0.24518745  0.22972696
 -0.3515378  -0.20709974  0.6333975  -0.4691716   0.22178696  0.07503045
 -0.55083686 -0.2781734 ]
[-0.01464712 -0.05936322  0.30976135 -0.45189232  0.3288021   0.00183658
 -0.5075157  -0.00961581  0.17947172 -0.25864875  0.24357758 -0.36080492
 -0.11595821 -0.08204339  0.38578528  0.11999054  0.18565533  0.25607353
  0.23905519 -0.06420346]
[-0.521588   -0.21510464 -0.21183221  0.45695674  0.34214085  0.34714812
 -0.48833627  0.2085244  -0.05287705  0.14208692  0.370787   -0.39440987
 -0.12449156 -0.3091623   0.15657485  0.11221401 -0.22537675  0.04752949
 -0.42110184  0.20477259]
[ 0.15190005 -0.13008304 -0.04292505 -0.43759507  0.00460102 -0.3607064
  0.3693924  -0.23051208  0.07315115  0.2789799   0.3450892   0.33110878
 -0.44346     0.11447626  0.35663363 -0.24038558  0.5294313   0.41307256
 -0.22730187  0.1045527 ]
[-0.23340343 -0.42959034 -0.06736196 -0.02194597 -0.07722263  0.21250749
 -0.12782854 -0.25667417  0.24571459 -0.0772863   0.10303533  0.36677134
  0.12242527 -0.1668259   0.12146381  0.19472276 -0.14976025  0.05892638
 -0.02420484 -0.09626222]
[-0.03553769  0.15819414 -0.4337539  -0.15590924  0.10939772  0.22437079
  0.04171664  0.31143782 -0.25051764  0.03483592  0.14496087 -0.14270934
 -0.09117253 -0.0448022   0.18710425 -0.4016764  -0.20326877 -0.3502881
 -0.10484757  0.0085794 ]
[ 0.18464714 -0.07104932  0.0608591  -0.18839847  0.47173962 -0.12789261
 -0.22868605  0.3332338  -0.23312466 -0.23988509  0.34289604  0.05875528
 -0.07217025 -0.08594837 -0.16741706  0.46780744  0.07751596 -0.16710912
  0.5273156  -0.19329104]
[-0.1634329   0.5126598   0.192599   -0.2900462   0.20772195 -0.20351252
  0.28941485  0.5728674   0.331573   -0.08187544  0.0021151   0.10163993
 -0.3135123   0.51153135  0.19190827 -0.07189021 -0.16004442 -0.6158392
  0.42989007  0.37943497]
[ 0.3033971  -0.21720749  0.21960305  0.25547448  0.22255458  0.31300658
 -0.30284393  0.4195717   0.2245456  -0.44953611  0.0272736  -0.22457752
  0.33017984  0.3475216  -0.23962027  0.02617417  0.37892765 -0.36276066
  0.21783756 -0.1863247 ]
[-0.25238085 -0.32276234 -0.2601669   0.08582526  0.6075521   0.3372747
 -0.52390456  0.28895977  0.2693031   0.24636668 -0.21474196 -0.09617948
 -0.04803739 -0.09664178  0.12513903  0.33542916  0.01039674  0.21256377
 -0.26589298 -0.2725647 ]
[ 0.12318732  0.15289694  0.01587121 -0.06266122 -0.18076685 -0.00178639
  0.34705022  0.11531529 -0.00580446 -0.117069   -0.04025203 -0.04531528
 -0.02272845  0.08132351 -0.04499454 -0.06088981 -0.038673   -0.15400024
 -0.01572827 -0.03363319]
layer 5 Activation
tanh
layer 6 Dense
20 1
[-0.39812523]
[0.27006328]
[0.12229475]
[-0.15153165]
[0.15341559]
[0.20450974]
[-0.70847154]
[-0.08076863]
[-0.04181232]
[-0.31772003]
[0.01868696]
[-0.32096955]
[-0.3034585]
[0.41054672]
[0.45101285]
[0.10864615]
[-0.06030765]
[-0.3424786]
[0.08238555]
[0.04428377]
[0.1732741]
