layers 7
layer 0 Dense
20 20
[ 0.16753292 -0.05477162 -0.09518214  0.13206613 -0.11068384 -0.22468951
  0.2675438  -0.01928431  0.06756561 -0.07050682 -0.3350025  -0.20005397
  0.14676051 -0.04709096 -0.20867483  0.09467553 -0.26540485 -0.48533282
 -0.16433644 -0.02019923]
[-0.518293   -0.6462961  -0.25780246 -0.11832822 -0.25846633  0.27168888
  0.41067007  0.10593505 -0.3384504  -0.40959102 -0.25649822 -0.44834453
 -0.16073033 -0.29457393 -0.21643496 -0.46817297  0.34111723 -0.5639288
 -0.1099821   0.18776442]
[-5.72607815e-01 -9.52497497e-02 -2.61012495e-01  1.93502098e-01
 -3.19282413e-01  4.22196055e-04  3.97899836e-01 -9.65308696e-02
 -3.39674443e-01  6.30637631e-02 -5.33073306e-01 -2.04554737e-01
 -6.54178932e-02 -3.59551042e-01  1.14891395e-01 -4.21784401e-01
  2.34545484e-01 -9.37067345e-02 -2.61033792e-02  1.23601556e-01]
[-0.07887886 -0.05013485  0.24831337  0.10964142 -0.34167963 -0.22706026
 -0.03300934  0.11162113  0.07289028 -0.3268846  -0.1827707  -0.34791306
 -0.24963404 -0.03120889 -0.04232598 -0.26174024  0.14655516  0.12502138
  0.19677643  0.01186287]
[ 0.2041136  -0.05393438  0.22690944  0.04068316 -0.29313833  0.09885157
 -0.05145226  0.07963692 -0.25337785  0.02578046  0.1835608  -0.08132682
 -0.14934748 -0.45780304 -0.5095752   0.12967032 -0.15021989 -0.2117158
 -0.07158881  0.05170897]
[-0.05550727  0.00799875  0.37969062 -0.36517197  0.22563401 -0.60337394
 -0.4776496   0.15376103  0.19744876  0.31296688  0.15631734 -0.21339989
 -0.29532552  0.21633448 -0.25551012  0.5588332  -0.09140171 -0.02165261
 -0.3263026   0.27482095]
[ 0.63951033  0.17876692 -0.23715387 -0.08814861  0.31557792 -0.45394823
 -0.10910404 -0.28803918 -0.37482077  0.13994351  0.15022619 -0.26122898
 -0.09047625  0.3637942  -0.27258706  0.34838054 -0.40780443  0.55107886
  0.00722261 -0.0411456 ]
[-0.02407741 -0.01605137  0.27632496  0.03061227  0.25026628  0.5360244
  0.0739119  -0.19024312  0.51201296 -0.32585254  0.55688083  0.43383825
  0.14835912  0.5262678   0.3984225   0.37096876  0.35360503  0.24976955
 -0.32894126 -0.36807936]
[ 0.54796875  0.2344675   0.6952079   0.34489915  0.03090956 -0.45364273
 -0.43295643 -0.51815104 -0.10060403 -0.72129387  0.52961874 -0.0957711
  0.12325314  0.6822031   0.3793755   0.17072202 -0.10179774  0.19488174
  0.20378491 -0.643197  ]
[ 0.33394325 -0.13001347  0.12024225 -0.06574923  0.15613653 -0.10979906
 -0.00647501 -0.04601881 -0.3896008  -0.06849197  0.03666957  0.1285484
  0.43649524 -0.17822786 -0.32638794  0.00448323  0.13865219  0.3406345
 -0.1784552   0.08975585]
[ 0.10416053  0.10048285  0.02160284 -0.12546109  0.00465553  0.03226113
  0.1220386  -0.03485511 -0.25031602  0.10460462 -0.16964999  0.4410022
  0.03978106  0.38910985  0.18301013  0.5147869   0.11568867 -0.19208857
 -0.02063582  0.21860078]
[-0.8645298  -0.5598907  -0.58500046 -0.09299085  0.0261322   0.6402974
  0.25251234  0.3436474  -0.3858234   0.723312   -0.35769802 -0.1292136
 -0.2500407  -0.11528196  0.13041395  0.03275953  0.42834684  0.25084236
  0.06685069  0.47879934]
[ 0.15428594 -0.00149339 -0.38485366 -0.07688755  0.04341063 -0.07852527
  0.37195933  0.10394462  0.0324744   0.19886693 -0.1681492  -0.17365022
 -0.03829916 -0.15314068 -0.45278263 -0.19344456  0.24461623  0.33135203
 -0.10834275 -0.00833152]
[-0.31084785 -0.63740736  0.26448345  0.70484    -0.42423207 -0.42333242
  0.13687928 -0.21628064 -0.14304999  0.00602989 -0.16337411 -0.1809946
 -0.70978594  0.18336387 -0.26124325  0.15077223 -0.18931156 -0.42639744
  0.08604521  0.43879905]
[-0.6547699   0.29928762  0.47131914  0.10850997 -0.015585    1.3078823
 -0.04031964 -0.1622844   0.47653887 -0.3685259  -0.10324261  0.02438403
  0.32529378  0.16861247 -0.31758395 -0.76179415 -0.40425947  0.2832286
 -0.22451727  0.16045094]
[-0.3790859  -0.14949659 -0.30616623  0.32173806 -0.10747429  0.5682825
 -0.30102652  0.17385983 -0.32733402 -0.34477398 -0.08130781  0.25810117
  0.58442485 -0.13288794  0.29173866 -0.23180868  0.2267538  -0.68479365
  0.0941589   0.3960639 ]
[-0.18891598  0.06009538 -0.4846968  -0.34238     0.03696099  0.4458247
  0.2402563   0.42719284 -0.05802348  0.42070502 -0.61838573 -0.04085271
  0.0027075  -0.19658954 -0.2584126  -0.06695888 -0.01237832  0.0188647
  0.41882104  0.41216522]
[ 0.29101238  0.46175757  0.01357874 -0.17534286  0.39233968  0.13249345
 -0.7763336  -0.23582974  0.62479275 -0.44134223 -0.20263451  0.25206664
  0.56605923 -0.9763891  -0.11917324  0.77471703  0.31662488  0.39661112
  0.541227   -0.02802629]
[ 0.2752854  -0.92500246 -0.34857187 -0.44233865  0.09632352 -0.6168103
 -0.34027684 -0.19363667 -0.1188114   0.6573081  -0.23127067 -0.05683049
 -0.1875009  -0.67837214  0.5673096   0.60164243 -0.46190906  0.74728733
  0.01565845 -0.02334196]
[ 0.7916638  -0.21487752  0.45301652  0.45861322 -0.18046631  0.23588604
 -0.51670945 -0.5550973  -0.44714782  0.24102142  0.7233572   0.15596177
 -0.11817148  0.6072834   0.51297104  0.44926146 -0.26962787  0.25542098
 -0.5451475  -0.19912799]
[-0.12643898 -0.17171551 -0.06692204  0.04937453 -0.12072191 -0.10836278
 -0.08024609 -0.01142043 -0.15779199  0.0786152  -0.09137939 -0.19098154
 -0.06636351 -0.12730367 -0.11432204 -0.15168414 -0.01805951 -0.12973583
  0.19003184  0.12058604]
layer 1 Activation
tanh
layer 2 Dense
20 40
[ 6.47875965e-02 -5.89132793e-02  1.46448582e-01  1.16056770e-01
 -9.27797407e-02 -1.64549664e-01 -1.20269686e-01  8.31226818e-04
 -2.70822287e-01  6.53322116e-02 -4.79033709e-01 -9.79070440e-02
  4.82799895e-02  4.32254113e-02  4.99614120e-01  1.27647832e-01
  5.06296515e-01 -3.56020242e-01 -3.84976625e-01 -3.90086889e-01
  1.35896318e-02 -2.34149486e-01 -5.45587689e-02 -1.28631324e-01
 -2.28231430e-01 -5.92408469e-05 -2.30406210e-01 -1.15174279e-02
  3.29605401e-01 -6.82237297e-02  1.45130262e-01 -1.93383813e-01
 -5.64428985e-01  1.43692210e-01 -2.38783762e-01  4.50686738e-02
  8.27924628e-03  8.21749568e-02 -1.42619386e-01 -3.18781674e-01]
[-0.04189999  0.04099166 -0.3675911   0.15342739  0.1761826   0.05554796
 -0.13481991 -0.06381516  0.34709772  0.2754246  -0.04861886  0.26191607
  0.0819861   0.14143626  0.0648552  -0.14104204  0.14231713 -0.18929255
  0.08779316 -0.37408057  0.00460992 -0.15572134 -0.40715936  0.23599297
  0.1943363  -0.04712074  0.25240162  0.5418227  -0.10819358 -0.29078907
  0.21840769  0.35013178 -0.20013948  0.03821308 -0.285087    0.18849483
 -0.01879182 -0.3054811  -0.1934537  -0.10303053]
[-0.06763317 -0.37234226  0.01178367  0.3779221   0.6798417   0.13943285
  0.14370364 -0.04018402  0.41292068 -0.26778394 -0.2188677  -0.26274425
 -0.337525    0.07685187  0.08294795  0.02566577 -0.03864986 -0.06119999
  0.46667096 -0.13988478  0.02297559 -0.10119878  0.0313638  -0.12660132
  0.3016398   0.17792933 -0.31151417 -0.3010445  -0.26826587 -0.19006021
 -0.2099222   0.04990553  0.34415337 -0.09772416 -0.25564098 -0.25071967
 -0.12736788 -0.27257428 -0.4394557  -0.11620221]
[-0.06639571  0.13201557 -0.18032539 -0.01920189  0.07605888  0.1241496
  0.12551866 -0.03561243 -0.01513404  0.15668377  0.1366067  -0.25245476
  0.01923618 -0.29429492  0.03759655  0.00774125 -0.06459857 -0.2109751
  0.6243897   0.22275348  0.3430973   0.05231884  0.2543347  -0.00541864
  0.15846978  0.23132287 -0.08656579 -0.16313484  0.08350287  0.23351385
  0.10202456 -0.17082842  0.13205609  0.30479422  0.03919252 -0.2761282
  0.11958571  0.11270589 -0.09804587  0.12739347]
[-0.20454879  0.11306418 -0.042164    0.19700216  0.01828232  0.02099199
  0.08727513 -0.26681095  0.04084895 -0.00046517 -0.08435141  0.20429707
  0.25744554 -0.01725908 -0.03512286  0.09189472 -0.25590613 -0.05097052
 -0.43693137 -0.17367771  0.25661084 -0.0735695  -0.38608438 -0.26568687
 -0.12681252 -0.01226154  0.16054517  0.37362227  0.12724017  0.00579981
 -0.06312828  0.12231818  0.01705231 -0.16157404 -0.22697055 -0.10907151
  0.05501711 -0.02278136 -0.06167994  0.02801905]
[ 0.34626487 -0.0935455  -0.19175847  0.05504975 -0.05967562  0.32911068
  0.14537296 -0.12744191  0.11795068 -0.00782673  0.43082637 -0.15389277
  0.49366784  0.18185078 -0.08973779  0.0052507  -0.20458296 -0.24806671
  0.17563291  0.26492462 -0.39592007 -0.24708857 -0.08640038 -0.24055837
  0.26498565 -0.07347222  0.11572923  0.5501518  -0.17707253 -0.10385528
 -0.33242553  0.33393887 -0.24247336 -0.18031934  0.29656258  0.10475502
  0.13545169  0.27823144  0.3691673  -0.15978096]
[ 0.2511016   0.27511188 -0.2895853  -0.19995297 -0.4065783   0.16118525
 -0.19114117 -0.00539917 -0.25122708 -0.2772021   0.2334542   0.18201864
 -0.14814705 -0.02478161 -0.07961433 -0.10211734  0.3016501   0.02749029
  0.02345008 -0.21705703 -0.19987363  0.1217906  -0.39680272  0.02083137
  0.03388664  0.18570232 -0.01380626 -0.2929593   0.267338   -0.2764871
 -0.07009692  0.16282271  0.01690656  0.1252859  -0.1417543  -0.01102511
  0.17925793  0.30984446  0.15827532 -0.21145724]
[ 0.30608708 -0.06890978 -0.12441234 -0.1659376  -0.06300137 -0.11320714
  0.04206066  0.20028393 -0.20408504  0.11851743  0.21288288 -0.00805662
  0.08818467 -0.0454006   0.09330858 -0.2078456  -0.17111106  0.20572273
  0.04902023 -0.19703282 -0.31463245  0.16401663  0.03956066  0.01646129
 -0.02637631  0.07096306 -0.17024972 -0.0924952   0.1801731  -0.29603937
 -0.23255736  0.18501197 -0.17557472  0.2594159   0.19765738  0.24486478
  0.11099286  0.16650698 -0.01379905  0.36203283]
[-0.09564314  0.1282913  -0.01782096  0.08096322  0.04451014 -0.25115538
 -0.27369618 -0.09796084  0.02509928 -0.22238564  0.08904762 -0.21016142
 -0.13990624  0.04802085 -0.17016849  0.15602878 -0.16331623 -0.02174074
  0.2733865   0.22284175 -0.11791583 -0.01466134  0.35240626 -0.2926286
  0.00057296 -0.02721746  0.15942979  0.19526514 -0.06498571 -0.16325365
 -0.08635718 -0.08603542 -0.19428082 -0.09911154 -0.2166325  -0.02273043
  0.14663412 -0.09429283 -0.25323856  0.24805272]
[ 0.2700717  -0.18115729  0.24852376  0.01349086 -0.15052795 -0.02088134
 -0.2623155  -0.10206072 -0.29745615 -0.15344274  0.29388767  0.15221493
 -0.00145562 -0.33869696 -0.24527921 -0.297489   -0.07794441  0.44808438
 -0.49693516 -0.10550465 -0.02085637  0.010949   -0.06909394  0.22675097
  0.10485185  0.23664388  0.34635234 -0.364518    0.37071636 -0.1427131
 -0.02981951 -0.06628165 -0.28389576 -0.16024594 -0.06182434  0.3190478
 -0.01416077  0.29725266 -0.26541942 -0.11199307]
[-0.1438635   0.3400702  -0.3270609   0.06160058  0.5632416  -0.19408144
  0.48698863 -0.5255735   0.17124483 -0.20429097  0.00451335  0.19340223
 -0.23684123  0.4226422  -0.05866427 -0.13906987  0.53367096 -0.58509076
 -0.26850855 -0.33600605 -0.125042   -0.02998052  0.35404065 -0.16104205
  0.1713771   0.09109367 -0.3305803   0.24901444 -0.19780314  0.10444921
 -0.34005883 -0.18354332 -0.13968787 -0.5606743  -0.3175027  -0.30115408
 -0.19671246 -0.11061855 -0.19966094 -0.41605794]
[-0.28767687  0.25089112 -0.09244893  0.2868775   0.4060138   0.1701036
 -0.23265369 -0.43140104  0.19559309 -0.22781755 -0.10390968  0.28802726
  0.11445103 -0.25175244  0.13817438 -0.1719925   0.1847636  -0.22049652
  0.1748189  -0.09600276  0.19951567 -0.31676972  0.07317434  0.22739065
 -0.04432588 -0.21760345 -0.1525137   0.42859882  0.02265539 -0.08957019
 -0.00274148  0.10286311  0.13561918 -0.41457722  0.26890078 -0.07934318
  0.05438415  0.10434449  0.00400148 -0.13311602]
[ 0.03462035  0.4134007  -0.3859076   0.2510483   0.09293503  0.14627059
  0.22637758 -0.10699265  0.35639858 -0.40016237  0.03494395 -0.05589279
  0.24711147 -0.20431863  0.15691683  0.05589133 -0.0892023  -0.26839617
  0.17747281 -0.33093777 -0.21979395 -0.4254516   0.2528131   0.18811533
 -0.02717888 -0.23466055  0.03599488  0.45578995 -0.12876487 -0.3259421
 -0.28285062  0.34975806  0.09203296  0.01611201  0.02654487  0.14151534
 -0.21949548 -0.18930729  0.1910333   0.11278076]
[ 0.02005     0.28469908 -0.37623292  0.22933912  0.48249215 -0.1961543
  0.17803766 -0.3078753  -0.25430787  0.25341317  0.08538138 -0.347585
 -0.23936729 -0.12460166 -0.14030781  0.02240221  0.82895005 -0.8122779
  0.18319316 -0.5052977  -0.01921637  0.25478402 -0.4430449  -0.1328063
  0.43056163 -0.22898689 -0.03243113 -0.564502    0.01266155  0.22500286
  0.239618    0.42431006  0.58396816 -0.46689272  0.2178288   0.15130416
 -0.18742606 -0.20296861  0.18440044  0.4538029 ]
[-1.89466491e-01  3.79258782e-01 -1.38384432e-01 -3.63585263e-01
 -1.65848762e-01 -3.86053696e-02  2.11886674e-01 -2.68036276e-01
 -1.67563275e-01  1.39923245e-02 -2.16435283e-01 -8.50628912e-02
 -3.56139839e-01  1.20974757e-01  2.75098473e-01  3.68772060e-01
 -3.74623761e-02  6.93662614e-02 -3.06592852e-01 -2.81485040e-02
  1.38892919e-01 -8.61627683e-02  3.32825780e-01  1.17309920e-01
 -1.34648249e-01 -1.06811292e-01  7.75783584e-02 -9.53926146e-02
 -1.07210621e-01 -1.73724383e-01 -1.74307987e-01 -3.80798668e-01
  1.62612349e-01 -7.77964517e-02 -5.40370904e-02 -1.21011816e-01
  3.72289941e-02  4.74810041e-02 -8.17165524e-02  1.76841277e-05]
[-0.08637874  0.21382137  0.1775624   0.13005444 -0.2635021  -0.00731882
  0.01518608  0.06130636 -0.68616664 -0.10294495 -0.15241079 -0.03239559
 -0.4435669  -0.06743754  0.37260544  0.55989623  0.21236943 -0.06756122
 -0.60838825  0.03678123 -0.04054405 -0.06670066 -0.13762872 -0.10820552
 -0.08954477 -0.07172274 -0.03842462 -0.02849494  0.17023219  0.1467527
  0.22051895 -0.11316734 -0.21177791 -0.15355183  0.18094467 -0.27866197
 -0.3343788  -0.20886254 -0.32942107 -0.11903886]
[ 0.0615741   0.05471533 -0.09161348  0.07424513 -0.17371874 -0.21903837
  0.16563432  0.03460096 -0.3140556  -0.26145294 -0.19118138  0.13340624
 -0.2474693   0.14421715  0.0518877   0.23518266 -0.14502016 -0.05837316
  0.16646233 -0.13276027  0.03392647 -0.37172878  0.00192731 -0.13969319
 -0.25327614  0.22605774  0.10917768  0.17793252 -0.02357618 -0.22524767
 -0.17870727  0.24122266 -0.04956955  0.05489383  0.0568327   0.19535044
  0.18507886  0.10582269  0.07834915  0.1046591 ]
[ 0.04471685 -0.20048468  0.20184    -0.09730052  0.30249134 -0.12489394
  0.11152267  0.09760632  0.39851052 -0.22833657 -0.02665905  0.40261117
  0.04616046  0.17170063 -0.12782307  0.20960018  0.23104513  0.32840517
 -0.32293886 -0.20943587  0.03555127 -0.20635721  0.35196102  0.13284834
 -0.22374143 -0.19805041 -0.12580927  0.30775702  0.06260269  0.24912277
 -0.04682619 -0.11030939 -0.27019706 -0.17271887 -0.03367005 -0.12962818
 -0.23739894 -0.07562639  0.01197676 -0.2046521 ]
[ 1.65614173e-01 -1.15017563e-01  1.56675965e-01 -4.27958518e-02
  1.08587198e-01 -2.43293978e-02 -2.48435680e-02  1.05308585e-01
  4.75180708e-02  8.06044638e-02 -2.40768954e-01 -2.56958485e-01
  5.29112592e-02 -1.79832950e-01  1.05181560e-01  2.66085476e-01
 -3.09690565e-01  1.56677350e-01 -3.14612687e-01  3.38660359e-01
  4.86371033e-02 -1.16014779e-02 -2.21999004e-01 -2.04107142e-04
 -2.25347355e-01  1.73692986e-01  1.57886490e-01  4.62415554e-02
  1.03421830e-01 -2.69919723e-01 -2.29796380e-01  2.57156610e-01
  5.44455200e-02 -1.28859729e-01  8.84152800e-02 -1.56015396e-01
 -2.18875095e-01 -2.26019263e-01  1.04406789e-01 -9.87226889e-02]
[ 0.05600302  0.02219836 -0.061239   -0.0788535  -0.18461892 -0.12569526
 -0.26192045  0.09635723 -0.26302668  0.35346538  0.09387482  0.1845531
  0.07754999 -0.10015278 -0.21932985  0.08222369 -0.08899071  0.08040448
  0.08040546  0.1694108  -0.1582691   0.26523805 -0.33442858 -0.03930721
  0.3161367   0.09447478  0.20930344 -0.37110433  0.3150595  -0.23287866
  0.2829189   0.00839207  0.24523136  0.1323458   0.20523778  0.17995805
  0.23918611  0.13120115  0.15145257  0.02618149]
[ 0.05407806 -0.2855328  -0.03644234 -0.00100113 -0.1704933  -0.02092362
 -0.06946492  0.4764385   0.02202161  0.28279746 -0.06257893 -0.06040911
 -0.13946421 -0.18121846 -0.06366201  0.00820598 -0.02938377  0.05614895
  0.12688543  0.0744012   0.01956244  0.21487461 -0.126433    0.0714265
  0.01814809  0.13352956 -0.01202131 -0.14072303  0.09275471 -0.10138653
  0.13353701  0.02046314  0.05295056  0.40404323  0.01001047 -0.0145625
  0.04166059 -0.03240102 -0.05767193  0.12316587]
layer 3 Activation
tanh
layer 4 Dense
40 20
[-0.08319601  0.09309424 -0.13604628 -0.05948678 -0.10498228 -0.03448489
  0.03309523 -0.16998814  0.00586372  0.38090178  0.07821872 -0.12026926
 -0.07309003 -0.20527765  0.09283469 -0.10919639 -0.3625996   0.06063214
 -0.15717305  0.02073102]
[-0.26175517  0.09816594  0.17902093  0.36691096  0.09137148 -0.00330213
  0.2703309  -0.23714848  0.02791911 -0.00983485 -0.03700449  0.1921871
  0.2603612  -0.00239498  0.12829669  0.22370224  0.09346165  0.13413419
  0.34496915 -0.25198087]
[-0.02399141  0.3043391   0.02667933 -0.2590262  -0.23560472 -0.00511618
  0.12732114 -0.11898528  0.05147671  0.15341158 -0.072676    0.21754095
 -0.1063588   0.11541389 -0.20992151 -0.2999386   0.05769163  0.24267769
 -0.32122415  0.00576637]
[ 0.23922409  0.13168147 -0.29495606 -0.13631915 -0.11930528 -0.03749891
 -0.00680473  0.13779777  0.20098816  0.24242274 -0.12756594 -0.10956115
  0.06657124 -0.1722203  -0.06095917  0.31877768  0.06570252  0.10724363
  0.25706983 -0.1553232 ]
[ 0.24954115 -0.18430316  0.07645771 -0.12084666  0.17382802 -0.37468988
  0.02317234  0.1088463  -0.03825038  0.2746307   0.25062194 -0.23342884
  0.25171995 -0.05230207  0.10575746  0.3512277   0.23261176 -0.13512996
  0.15694165 -0.2876361 ]
[-0.28049174 -0.19555856 -0.2623641  -0.17587174  0.10901701 -0.18766335
  0.05792515 -0.21455888 -0.05198504 -0.0316378  -0.05518499 -0.12822732
 -0.10349073 -0.20278014  0.1492319   0.07777002 -0.15038082 -0.17528152
  0.07677518  0.20505928]
[-0.04904417  0.15123504 -0.2691627  -0.00149662 -0.17483892 -0.18192758
  0.1808764   0.1458703  -0.02378574  0.22408986  0.09994883  0.12092549
  0.17238651 -0.02788363  0.12688814  0.36698854 -0.01834629  0.05905771
 -0.13193841 -0.01173336]
[-0.19656673 -0.010064   -0.14439695 -0.07318282  0.05526262  0.33188772
 -0.10806657  0.26112399  0.00480248  0.14871679  0.18770678 -0.11643615
 -0.41907352  0.14234674 -0.09208985 -0.321697   -0.03029931  0.21821801
  0.23780032  0.23614804]
[-0.10863292  0.18894728 -0.31358358 -0.26552838 -0.01950677 -0.08705564
  0.26211336 -0.06022744 -0.12896512  0.2152503  -0.11837406 -0.31513107
 -0.21633719  0.49220562 -0.13417889  0.05603255  0.24551278 -0.02225201
  0.31156176 -0.23427336]
[ 0.18405049 -0.03147523  0.16839659  0.20618431 -0.16787463  0.12050773
 -0.17232533 -0.12243523  0.17163093 -0.1973002  -0.23571911 -0.20320968
 -0.10599463 -0.13041909 -0.08438691 -0.24510108 -0.06530373  0.27303943
  0.19386195  0.17746702]
[-0.24715665 -0.1541269   0.1381226   0.11643746 -0.19509101 -0.1438035
  0.12859614 -0.03761661 -0.4923341  -0.3896164   0.00093628 -0.28706056
 -0.25126064 -0.21817985 -0.06761638  0.22163944 -0.18370968 -0.1115354
  0.33799183  0.22520667]
[ 0.15300946  0.48182702  0.0472028  -0.13013914  0.09533011 -0.05652244
  0.03079641  0.12359262  0.11660534  0.05312361  0.12388159  0.01079071
 -0.24449931  0.17286614  0.02416232  0.14423667  0.22050527  0.12663002
  0.16204229 -0.21906197]
[ 0.00984911  0.16424352  0.10556651 -0.40505758  0.2520668  -0.04933418
  0.19454522  0.2630147  -0.23580761  0.17201832  0.08277308 -0.2206185
 -0.20221393  0.20322497 -0.08556352 -0.11502254 -0.08194081  0.16961512
  0.18973532 -0.2060815 ]
[-0.36382955 -0.10705734  0.10602941 -0.02430882  0.20652056 -0.20525962
  0.3054748  -0.41153237 -0.10428452 -0.01062723  0.13565712 -0.05764277
 -0.03885067 -0.06426501  0.19768135 -0.13466801 -0.05570076 -0.27183628
  0.2545665  -0.1621298 ]
[ 0.17190371 -0.07402996 -0.06905527 -0.03712391  0.14081964 -0.00307496
 -0.29523665 -0.20641246  0.12084594  0.00555473 -0.10700142  0.08204772
  0.16501758  0.10656805  0.05166653 -0.01535332 -0.0255448  -0.3512654
 -0.17330307 -0.12975292]
[ 0.16810414 -0.00191382 -0.08762751  0.02143345  0.05542609  0.05168402
 -0.15747723  0.29930228  0.26346883 -0.05903267  0.14887773  0.26584786
 -0.0034271  -0.08861735  0.25833488 -0.34058812  0.21826632  0.20358361
 -0.09560297 -0.39774334]
[ 0.00170642 -0.09211831 -0.12879007  0.34774983  0.2879585  -0.32061315
  0.21723741  0.04777463 -0.00621223 -0.03109847 -0.02463324 -0.00257415
  0.35122985  0.3413827   0.32956493 -0.24895935 -0.28401142  0.22771999
 -0.245536    0.07955293]
[ 0.0063177  -0.02590808 -0.03166774 -0.20746867  0.28304678  0.4267521
 -0.23561417  0.13432439 -0.04401379  0.05293952  0.00654586  0.34183854
 -0.38065684 -0.15463784 -0.29838687 -0.32494763  0.16466194  0.09941865
 -0.4086259  -0.0005059 ]
[ 0.2552675  -0.27307245 -0.16925338 -0.18334213 -0.09186727  0.2662743
 -0.13969956  0.02264584 -0.14781359 -0.12089901  0.27482018 -0.40420032
 -0.06411303  0.24023983  0.01235962  0.19529681  0.336069    0.09672744
 -0.18480143  0.01842433]
[ 0.02168576 -0.1437099   0.06646081 -0.01422122 -0.146357    0.06815292
 -0.17738901 -0.258668   -0.27683142 -0.05143094 -0.07600563 -0.03770645
 -0.2707      0.17716472 -0.1639735  -0.2730751   0.02775736 -0.2786288
  0.25557774 -0.01531507]
[-0.15494591 -0.06037784  0.04223866  0.14237474 -0.07399357  0.23069373
  0.01778485  0.21775287  0.09398592 -0.0326403   0.0910957   0.05392229
 -0.10539141  0.00237497 -0.09462184 -0.11268891  0.29766232  0.03238846
  0.03829448 -0.06227916]
[ 1.29340336e-01 -1.95043817e-01 -6.67953715e-02  1.10125147e-01
  1.31505102e-01  3.23848124e-03  1.97363272e-01  2.40478113e-01
  5.81306331e-02 -1.72977969e-01  5.09784855e-02 -1.13926567e-01
  3.18275951e-02 -4.92374413e-02 -2.70449698e-01 -3.17874947e-05
 -1.59179330e-01 -1.14593565e-01 -7.78491199e-02  2.95042872e-01]
[ 0.15695627  0.0166725  -0.00766977 -0.37593848  0.21527123 -0.12860814
  0.27170455  0.00226712  0.1679388  -0.02322143  0.26945665  0.26655486
 -0.05330972 -0.2140653   0.03417731  0.1014548   0.21056053  0.15301222
  0.04099706 -0.29092497]
[ 0.3711749   0.29606873 -0.08490218  0.29563624 -0.04807242  0.301184
 -0.01906031 -0.13390724  0.09539627  0.00683627  0.02396712 -0.07815154
  0.06744759 -0.11845644 -0.32317212 -0.16139641 -0.13885725 -0.00432334
 -0.05990393  0.04170802]
[ 0.1078321  -0.13820605  0.002322    0.2770278  -0.08078761 -0.20784417
 -0.09884046  0.20586036 -0.238249    0.07412717  0.05635715 -0.14325145
  0.10684911  0.04055498  0.01316154  0.25421178  0.19188687  0.12927595
  0.00760492  0.12564203]
[ 0.11983184 -0.21119569  0.22163258  0.19918874  0.12387718  0.05455172
 -0.10637319 -0.08130726 -0.06377544 -0.12833297 -0.1277285  -0.13727327
 -0.0264121  -0.14219263 -0.16782257 -0.01913675 -0.22602624 -0.10542637
 -0.42324662  0.1910311 ]
[-0.05503307  0.01259367 -0.13448451  0.3267754   0.03545986 -0.04979859
 -0.249524   -0.31093153 -0.18966703  0.00834956  0.10532354 -0.11781754
 -0.07281229  0.02750058 -0.08590573 -0.2999181   0.0353686   0.12396444
  0.06207281 -0.21618903]
[-0.05595768  0.13721259 -0.11144175 -0.36745527  0.04899533 -0.13889453
 -0.2349989  -0.06412278 -0.19517262 -0.20703073  0.26408768  0.39499128
 -0.12230957  0.07749773  0.09822759  0.5029286   0.17564468  0.1008631
  0.52251667 -0.07355871]
[ 0.19947904  0.11641009  0.25238505  0.23348299 -0.20442343  0.1903577
 -0.02032885 -0.1155136   0.14105421  0.01980037  0.31583968  0.1862038
 -0.1668243  -0.12829784  0.10710179 -0.3245282  -0.2508753   0.16621688
 -0.27027923  0.1571101 ]
[ 0.07979927  0.17393753  0.06843309 -0.03809486  0.03133548 -0.15991443
  0.3132345  -0.24039951  0.00091341 -0.15418486  0.11168912  0.17871033
 -0.17506896 -0.0910649  -0.04321692  0.194387    0.3789119  -0.00481525
 -0.00887697  0.33916143]
[-0.10480658  0.08560756  0.06616169  0.06702318 -0.19312213  0.30005977
 -0.4754115  -0.07880224  0.27824962  0.07212034 -0.08665065 -0.07568347
  0.00658889 -0.00930038 -0.17053042 -0.27872705 -0.03839117 -0.2574368
 -0.25250345  0.2945773 ]
[ 0.02299491  0.17821135  0.07887344 -0.04124726  0.19293104 -0.0051561
  0.05445322  0.31533316 -0.22601077 -0.1539767   0.10721791 -0.30190495
  0.24690424  0.03076207 -0.12225439  0.03884673 -0.23775093  0.03050804
  0.7184731   0.02324936]
[-0.1507435  -0.2439828  -0.30601242 -0.06859148 -0.12123765  0.09013625
  0.20576823  0.06381193 -0.12604716 -0.38908678  0.14824437 -0.06511007
  0.2936211  -0.20056994 -0.28774768 -0.01831856 -0.01272736  0.03775973
 -0.20986268  0.29432938]
[-0.17917456 -0.24290657 -0.01871199  0.2199511  -0.10343601  0.34846127
 -0.23169668  0.03493726 -0.1619439  -0.28138694  0.04580013 -0.21932568
 -0.1865337  -0.12573573  0.04846785  0.12964737 -0.12365747 -0.09562139
  0.04575495  0.0797775 ]
[-0.18054508 -0.27525014 -0.06761105  0.547801    0.1670579  -0.01348346
 -0.21280096  0.13187294 -0.07610776 -0.11450735  0.25124842  0.15067644
 -0.19602706  0.18867576  0.34748098  0.1931764  -0.20687921  0.10095648
  0.14765793  0.22862212]
[ 0.07776286  0.2528897  -0.19747718 -0.10286079  0.17836043  0.18917905
 -0.24051182 -0.01001846 -0.25734705  0.0700288  -0.29470044 -0.09976254
  0.02436772 -0.21283437  0.07361252  0.19163316 -0.11750679 -0.3465957
  0.07615796  0.01866601]
[-0.05057536 -0.1900714   0.04593572 -0.13696532 -0.07113171  0.23166703
 -0.11165801 -0.12365869 -0.37335545  0.2122929  -0.06288868 -0.1522587
 -0.10007892 -0.06208698  0.01726356  0.14782764  0.0716518   0.26297462
  0.04519146 -0.00734148]
[-0.01712973  0.24559379  0.07961188  0.26470104  0.25525606 -0.13568947
  0.18693234  0.08383075 -0.38680628  0.17810853  0.01446831  0.30521184
  0.00647508  0.00790424 -0.0659069  -0.04966965 -0.23634578  0.2651738
 -0.30611843  0.20295532]
[ 0.20510395 -0.10172461 -0.08301991  0.09364155  0.18543836 -0.06152394
  0.26005894 -0.03624637 -0.29754934  0.15148173  0.01516611 -0.11375762
 -0.18921468  0.1876245   0.254966    0.12024175 -0.18549979 -0.2274597
  0.20406796  0.0824748 ]
[ 0.20479435 -0.15606254 -0.02149284  0.2436817   0.03558543  0.0975261
 -0.3409192  -0.19717318 -0.12126938  0.17170455  0.25317144 -0.19854929
 -0.06624176 -0.06049243  0.12797834 -0.29097563  0.01872323  0.10125571
 -0.05375142  0.22661167]
[ 0.04682041 -0.01508299 -0.01479059 -0.02048917  0.0149891   0.18545176
 -0.04279651  0.02337115  0.10512094 -0.04127916 -0.01689732 -0.12143586
  0.03455107  0.01837686  0.00434622 -0.15489754  0.02987287 -0.05806053
 -0.09873844  0.16212349]
layer 5 Activation
tanh
layer 6 Dense
20 1
[0.02005897]
[0.00578577]
[-0.00553968]
[-0.00877272]
[0.00845737]
[0.2960209]
[0.2968983]
[0.01494931]
[0.09403809]
[0.00568904]
[-0.00179901]
[-0.09975278]
[0.15090525]
[-0.00416978]
[0.07213087]
[-0.04533493]
[0.11211378]
[-0.00449301]
[-0.0258933]
[0.1174832]
[0.07236917]
