layers 7
layer 0 Dense
20 20
[-0.24685566 -0.32476258  0.39303425 -0.15903346  0.16560932 -0.28453094
 -0.26153982  0.19914563  0.20495793 -0.04864762 -0.29866904  0.55177575
 -0.45835394  0.5648223  -0.00571107  0.00937872  0.09009249  0.13131541
  0.01258732  0.10311461]
[ 0.5772839   0.58371645  0.50892466  0.24662586 -0.2998217  -0.58613074
 -0.52700555  0.8468812   0.51400673  0.11411577 -0.24024038  0.44922373
 -0.19692884  0.32856762  0.43252918 -0.4166853  -0.17153928  0.683004
 -0.14999174  1.0403515 ]
[ 0.7485509   0.32706302  0.05055392  0.86213344 -0.5032263  -0.75116986
 -0.21264185  1.0019372   0.18612133  0.19461991 -0.535018   -0.07380725
 -0.6350805  -0.19258592 -0.03462257 -0.08450548 -0.46012294  0.40809357
 -0.6738986   1.05609   ]
[-0.04345686  0.01050311 -0.11511286 -0.23102546  0.16032496 -0.07696915
 -0.63525003  0.12651442  0.29614365  0.1272148  -0.12955941  0.68023497
  0.01598246  0.2273014   0.27712938 -0.2921799  -0.0131623   0.6031986
 -0.44316244 -0.1717925 ]
[-0.00991822  0.6034562  -0.24460667  0.01416894  0.11068205  0.43558586
 -0.308089   -0.28589323  0.10442777  0.28636542  0.33745888  0.31640857
 -0.45959434  0.22394617  0.23515546  0.27043194 -0.4446961   0.23222435
  0.22773361 -0.46142805]
[-0.5286903  -0.19515157 -0.75795376 -0.8793214   0.53936136  0.65190446
  0.06571276 -1.0324209  -0.7019588   0.10838067  0.68973583 -0.03984426
 -0.2061645  -0.18425715  0.29844734 -0.09416717  0.8151736  -0.27903536
  0.32239684 -0.791511  ]
[-0.39778024 -0.42687628 -0.45509398 -1.0707282   0.11779098  0.41479427
  0.03776166 -0.78984666 -0.36499867 -0.29809865  0.7865928   0.13665523
  0.4113716  -0.18817104  0.10724082  0.5528224   0.3906895  -0.33695284
  0.6039507  -0.61558753]
[-0.01885018 -0.07712419  0.3415244   0.08885416  0.32485896 -0.39146757
  0.7626265  -0.00790664 -0.3552087  -0.59096414  0.3549662  -0.7055471
  0.7432878  -0.63379794  0.25185478 -0.2641422  -0.23978485 -0.7622826
  0.13114731 -0.17304201]
[ 0.04855109 -0.5070551  -0.51546234  0.47549433  0.2783565  -0.4154372
 -0.22789109  0.3355349   0.0581728   0.25441048 -0.368919   -0.5970069
 -0.47754696 -0.6045185   0.04955527 -0.27606103  0.09000534  0.03863952
  0.7796022  -0.9631586 ]
[ 0.427258    0.7809199  -0.8135627  -0.29446027  0.3465521  -0.1452419
  0.08041428 -0.84688854  0.108449    0.36337766  0.40797457  0.24975841
 -0.8153742   0.46652874 -0.27633795  0.36022615 -0.2802394  -0.17651273
  0.5366402   0.1804437 ]
[ 0.08191273  0.12542297  0.08856213  0.09869005  0.05035554  0.07251881
  0.03343698 -0.40194193 -0.18856841 -0.4332593  -0.4630275   1.2824342
 -0.2878785   0.19078165  0.32018256 -0.6169786  -0.3450423  -0.14191678
  0.2430147   0.11039492]
[ 0.32385388  1.2515153   0.9785092  -0.79339176 -0.32117724  0.1205298
  0.1435416   1.0891598   0.88802797  0.28447694  0.06133715 -0.19545265
  0.5381158   0.33088806  0.30894113  0.13089697  0.1778066   0.39875096
 -0.45585832  1.6944741 ]
[ 0.2031853   0.35504702  0.6598863  -0.9291213  -0.4043565  -0.05974212
 -0.51646215 -0.3828897   1.0359734  -0.10871685  0.6078611   0.6172778
  0.07808573  0.6617696   0.02692269  0.56567574 -0.66249895  0.02458434
 -0.86926407  0.47172686]
[-0.51247656 -0.8231325  -0.15427075 -0.39800423 -1.2684934  -0.418964
 -0.05034742  0.64269644 -0.5254153   0.3710316  -0.69847524  0.01987171
  0.5100808   0.2920333  -0.07251761 -0.28488278  0.4300735  -0.16663599
 -0.38883358 -0.06577561]
[-0.6415098   0.10925696 -0.90832984 -0.37330785  0.67934805  1.1753465
  0.13744742  1.4303883   0.20153871  0.22073817  0.8039061  -0.8584043
 -1.1414655   0.28177586 -0.7430729   1.4163973   0.96319354 -0.44269434
 -0.04747507 -0.7634454 ]
[-0.98569304 -2.0317583   0.18330154  0.634422    2.1121128  -0.10864846
  0.06104425 -1.7023861  -1.0002214   0.02786588 -0.7191792  -1.1666195
  0.14740218 -1.3100767   0.6384899  -0.58045334  0.47957423 -0.3487946
  0.69611824 -0.8844324 ]
[-0.2615824   0.04119791 -0.36116928  0.8060989  -0.26753765  0.10551713
 -0.5567902   0.16109519  0.06221733  0.25995862  0.07176232  0.11179886
 -0.06958482 -0.4809161  -0.2719964   0.3214174   0.17319472 -0.432192
  0.15366349 -0.04792393]
[ 0.3591524   0.83772284  0.20610859  0.6328874   0.4746271   0.49184015
  0.1496844   0.42174938  1.1565263  -0.55358374 -0.03322392  0.16203324
  0.57619715 -0.27569488  0.8120773   0.07123172  0.10821654  0.08185828
 -0.5970871  -0.25072894]
[ 0.5701898  -0.2429401   0.3077568   0.4433226  -0.2869972  -1.3098152
 -0.17551741 -0.32592314 -0.15302691 -0.06246945 -0.18367918 -1.1002516
  0.22167756 -0.56682384 -0.16975781 -0.13326107 -0.14224336  0.02215156
 -0.46732888  0.60952705]
[ 0.48887762 -0.22654758  0.18017475 -0.6050046  -0.72400254 -0.9100616
  0.20537111  1.0916336   0.3852832   0.19593656  0.37828484  0.40428528
  0.6499778  -0.20323728  0.1563738  -0.15364304 -0.3038012  -0.6155035
  0.16029954  0.20421208]
[-0.16040407  0.03553589 -0.07362436 -0.193891   -0.08032328  0.23191999
 -0.12606703  0.11298466 -0.15277831  0.16352345 -0.24483503  0.2756613
 -0.23966375  0.32488436  0.01951073 -0.02961996  0.15722679  0.6205151
 -0.14465934  0.216244  ]
layer 1 Activation
tanh
layer 2 Dense
20 40
[ 0.04458508 -0.311063    0.07884276 -0.23359264  0.07328821 -0.28651473
  0.53915113 -0.14823706 -0.04944041  0.10297895 -0.02379304 -0.12351918
 -0.37208262  0.0918458  -0.14113803 -0.22316113 -0.45057225  0.1875893
 -0.5441001  -0.20175192  0.18228185 -0.51310325 -0.16058914  0.12093496
 -0.18554124  0.39207685 -0.12160798 -0.3399975  -0.04350693 -0.17113942
 -0.4241774  -0.08048636  0.24781139  0.3619792   0.27765408 -0.13064036
 -0.21140355  0.01909475  0.63292354  0.12175786]
[ 0.12553202  0.4998997  -0.8014185   0.1522308   0.5900778  -0.13967328
  0.57247186  0.09856281 -0.46972585  0.19931033 -0.14844595 -0.09706381
 -0.54785764  0.0602776   0.12875743  0.05944505 -0.24276973 -1.211668
  0.13012652 -0.45060796  0.33188    -0.6520112  -0.01468709 -1.1259809
  0.18080273  0.41383514 -0.02111165 -0.35244188 -0.11933707 -0.58317226
 -0.21460992 -0.11022937  0.2909628  -0.02935311 -0.3585989  -0.15283415
 -0.53617    -0.4217966  -0.16886586 -0.15819527]
[-0.05792972 -0.1947218   0.57615805 -0.06623156 -0.2761813  -0.17318508
  0.34295222 -0.20294815  0.40828916  0.12690026  0.18162695 -0.05889106
  0.0267161  -0.09689147  0.12992857 -0.20707747 -0.08011691  0.6165159
 -0.27794656  0.22614723 -0.3148838  -0.5216472  -0.61943585  0.57835627
 -0.07507416  0.20538004  0.11305821 -0.33929768  0.01406072  0.69428366
 -0.27289507  0.02792947  0.01301138 -0.57240134  0.08948864  0.06559402
  0.04353573  0.30603957 -0.05429932  0.22367072]
[-0.01570499 -0.23510356  0.23459479 -0.11958706 -0.4138971   0.11777332
 -0.28009072  0.14357688 -0.7246795  -0.33764464  0.33262533 -0.08794343
  0.615228   -0.15000264 -0.0816173   0.04789414  0.34117612  0.69528896
  0.03425669 -0.33544624 -0.14577386  0.4012341  -0.36449     0.22683609
  0.1754906  -0.05414559  0.14123797  0.411711    0.1755181  -0.09483641
 -0.13786778 -0.01946781 -0.20231326  0.5441967   0.00821807  0.04981892
  0.0856363   0.16539678  0.06215908 -0.2345029 ]
[-0.6239942  -0.13716276 -0.6112502  -0.22146665 -0.11880977  0.40156746
 -0.9479445   0.109463   -0.9927979   0.0778407   0.4712066  -0.18426763
  0.4095804  -0.55759096 -0.79281175  0.75909376  0.5298559   0.36466524
  0.67092615 -0.32518736  0.8017963   0.3642606  -0.51340693  0.76245785
  0.99144745 -0.55962586 -0.04132057  0.3461658   0.6023384  -0.28856054
 -0.39106673  0.4269259  -0.39628282  1.0019525   0.08245418 -0.6101643
  0.77990204 -0.24076639 -0.15653811 -0.5184095 ]
[-0.0679234   0.21030688 -1.1270359  -0.34052056  0.50991815  0.13541557
 -0.20395583 -0.13962886 -0.22809985  0.28074306 -0.02287661 -0.10169423
 -0.23192751 -0.05746849 -0.4163096   0.15265591  0.19006811 -0.74193275
  0.47569692 -0.41294846  0.24594592  0.22498044  0.18427683 -0.5218212
  0.12034462 -0.12528177  0.30522567 -0.15384635 -0.02668732 -0.6700429
  0.39140347 -0.16834646 -0.03609481 -0.29808733 -0.05390107 -0.16458279
 -0.3245855  -0.19756436 -1.2206271  -0.81593513]
[-0.17369774 -0.13612914 -0.02295545  0.16232653 -0.21141975  0.36751956
  0.05360446  0.07148993 -0.03480593  0.24459207  0.5512521  -0.23788202
  0.35419747 -0.17882909 -0.20345919 -0.28564042  0.34917313  0.12693262
 -0.17009874 -0.39104617 -0.09398648 -0.20150976  0.22405168  0.1171573
 -0.04968425 -0.22905582  0.26253086 -0.39775604  0.22542702 -0.28342277
 -0.07622527 -0.1487339   0.7003242  -0.11679481 -0.01183028 -0.09249675
  0.11036497 -0.3192214   0.08024492 -0.04365845]
[ 0.41528934  0.16730206 -0.458852    0.09953663  0.49320334 -0.2626408
  0.0676823  -0.0305309  -0.2536684   0.21117    -0.32732227 -0.01618336
 -0.38915405 -0.19852488  0.26687494  0.2338149  -0.4929867  -0.69372386
 -0.00319467  0.02579861  0.14501159 -0.13938403  0.89739925 -1.1053008
  0.04850959 -0.24466047 -0.22566393 -0.7659663   0.02110829 -0.0266675
  0.5445109  -0.02202635  0.15214092 -0.6548069   0.05333306  0.21735856
 -0.65305036  0.03523826 -0.5047734  -0.01522462]
[ 0.374256   -0.14728262  0.05473088  0.17979515  0.17366315  0.22958817
  0.14171705  0.03523973 -0.16780065  0.39868307 -0.08803613  0.2929757
 -0.32881272 -0.283502    0.05191625  0.04635676 -0.34599742 -0.51271224
  0.43843105  0.00847605  0.26024213 -0.40423837 -0.2576339  -0.20255993
  0.0823083   0.15226889 -0.00624921 -0.40319335 -0.08722765 -0.09185163
  0.507317    0.19176912  0.00132255 -0.06652793 -0.11397468  0.12093205
 -0.56461006 -0.20016219 -0.0755033   0.11433165]
[ 0.42299002  0.08000766 -0.47838396  0.07033211  0.3894862  -0.15040314
  0.16026738 -0.38455787  0.41341406 -0.21713147  0.04067646  0.10036541
 -0.24664946 -0.17693904 -0.11944778  0.13394205 -0.19748773 -0.0395501
  0.01582584  0.04757163 -0.10394869  0.7003203   0.5053266  -0.3966595
 -0.03509562 -0.16354808 -0.15113357  0.19128343 -0.09005138 -0.04192635
 -0.01785665  0.15634091 -0.3661309   0.7231964   0.16402046 -0.05472266
  0.028364    0.23429881  0.15381886 -0.14707915]
[ 0.03370221 -0.25605002  0.04583144  0.33869705 -0.05853344  0.11628073
  0.28106093  0.25441045  0.00325452  0.46846032  0.07742231  0.06151347
  0.40687197 -0.04121773 -0.49581674  0.02547063 -0.23794602 -0.5655753
  0.14926402 -0.3905954   0.05984607 -0.40479052  0.4068073   0.05124606
  0.3723378   0.24820402 -0.562025    0.2822094  -0.06593768 -0.37276286
  0.18934253  0.4370409   0.23384678  0.6341353  -0.1435052  -0.16610833
  0.05198153 -0.11941621  0.2640025  -0.19966227]
[ 0.23461993  0.26413924 -0.28897122 -0.08855278  0.40533608 -0.40551427
  0.76592463 -0.37969574  0.05358667 -0.37414414 -0.20042908 -0.28025573
 -0.5735586   0.22491583  0.44905263 -0.18035214 -0.34890383  0.24875496
 -0.21738273  0.19191778 -0.04354943 -0.9578642  -1.0069262  -0.55249584
 -0.575       0.344153    0.33083227 -0.9813778  -0.22883576 -0.18550009
 -0.0158056  -0.299665   -0.05004042 -0.70607686  0.27989075  0.17646843
 -0.7043232   0.23515563 -0.23878133  0.04946699]
[-0.22753423 -0.23672408  0.5068904   0.24170919 -0.24872692  0.03767742
  0.5616431  -0.30950117 -0.22690283 -0.11360294 -0.06167372 -0.11912905
  0.12875259  0.00355376  0.09796942  0.03692261  0.2764196   0.5938427
 -0.28240108  0.13320349  0.12497613 -0.52288884 -0.13496058  0.34586868
 -0.28612614  0.18396573  0.12763534 -0.13896602  0.02513076  0.09072878
 -0.10777589  0.08421572  0.32631034 -0.31858096 -0.00772898 -0.05685484
 -0.04427128  0.175596    0.15054616  0.22518453]
[ 0.31619537  0.7505659  -0.13054189  0.20087986  0.31994748  0.16272004
 -0.02738715 -0.13421157  0.10268913 -0.21100809 -0.46016258 -0.01523452
 -0.43133906 -0.22266966 -0.19336616 -0.1817216  -0.09956664  0.01062323
  0.29609546  0.08940904  0.2983327   0.2881021  -0.23803808 -0.50111717
  0.1751079   0.22006135 -0.5678263  -0.15686257 -0.23017876 -0.19085276
  0.06677113  0.4362427  -0.5902601  -0.547961   -0.0850032  -0.09451718
 -0.4144649   0.22380014  0.11006273 -0.03584227]
[-0.0486716   0.0447641   0.04336459 -0.08860708  0.08823799 -0.10441998
  0.19456476  0.1065389  -0.025526   -0.18011628 -0.18484788 -0.06025073
  0.2049245  -0.24057359  0.2788614   0.20456661 -0.09569413  0.03211997
 -0.05044806 -0.24875632 -0.2388716  -0.41237706 -0.38831213  0.21657805
  0.06190542 -0.28598025  0.15438806 -0.12922549 -0.22698781 -0.14971593
 -0.007478    0.09572786  0.07135291 -0.28494897  0.21615319  0.02868082
  0.14064421  0.03933055 -0.23119637  0.11033541]
[-0.21741678  0.10145321 -0.44447142 -0.10675213  0.07856417  0.20751867
 -0.23665161  0.26185057 -0.18188033  0.44954792  0.1857897   0.03961536
 -0.17196454 -0.42490092 -0.20474401 -0.19277562 -0.10262091 -0.88064706
  0.10086437  0.10838574  0.6300281   0.2359085   0.36122152 -0.34077632
  0.35215652  0.1666485  -0.10322072  0.05148545  0.43799788 -0.43711454
 -0.05008638  0.03531811  0.24011     0.6313849  -0.3792346   0.03019848
 -0.1902284  -0.7322548   0.02174897 -0.18832275]
[ 0.00804445 -0.01111721  0.04751258  0.05835935 -0.19766098 -0.12964438
 -0.6570399   0.20408581 -0.17553972 -0.01387176 -0.18337253  0.22384556
 -0.37476945  0.1389769  -0.10299944  0.22144796  0.3127399  -0.05131135
  0.1697826   0.14845608 -0.35702506  0.5333121   0.07306532 -0.31080726
 -0.11104436  0.10863147 -0.1613297   0.27677375  0.2231843   0.08255631
  0.16036712 -0.25469473 -0.23168112 -0.35539356 -0.28128526  0.2806857
 -0.08666363 -0.07610203  0.02722785  0.10388564]
[ 0.30938682  0.04539115 -0.12667803 -0.07380033  0.59692633 -0.09907107
  0.17615907 -0.3902425   0.1638077  -0.16368225 -0.4720991   0.07240102
 -0.80469394  0.176899    0.21055725 -0.24706233 -0.17415872 -0.04726261
 -0.40952945  0.6984833   0.14655037 -0.1389593  -0.12985711 -0.23186144
 -0.49037465  0.01241689 -0.00666147 -0.4741636  -0.18132985 -0.19373046
  0.18119678 -0.36335185 -0.5974247  -0.17815769  0.09638697  0.34225065
 -0.5584535   0.39454052 -0.21137908 -0.08586824]
[ 0.01948177 -0.20626168 -0.28635743 -0.11992507 -0.15403792  0.3127504
  0.20801696 -0.1371809  -0.2774104   0.12786576  0.13264595  0.03890061
  0.5280062   0.00248293 -0.08176487  0.14163467  0.2773379  -0.35690528
 -0.09028485 -0.3439825   0.11575118  0.14872506 -0.06909035 -0.23910187
 -0.23153374 -0.55333924 -0.00490685  0.1184835   0.02019473 -0.37563324
  0.01029885 -0.19648688  0.47433504  0.3824187   0.0556812   0.15655027
  0.14275916  0.05895778 -0.080043   -0.3461886 ]
[ 0.04596091  0.05625935  0.2878933   0.05014829  0.11918844 -0.35134667
  0.41145068 -0.15853213  0.53514063  0.02277848 -0.3102779   0.03624216
 -0.838727    0.6572488   0.633314   -0.0934419  -0.0044334   0.3175042
 -0.58349234  0.1103576  -0.02977727 -0.40197864 -0.08886541  0.14334193
 -0.40165403  0.7972459  -0.12260028 -0.17114031 -0.11391063  0.5573039
 -0.4622275   0.06631317 -0.21252996 -0.54707617  0.00297588  0.17485347
 -0.09221008  0.19777974  0.6856346   0.45407706]
[ 0.2020713   0.32743424  0.00380532 -0.08063522  0.44612184 -0.13806204
 -0.1611058  -0.06604271 -0.00784702 -0.12099397 -0.41251883 -0.03977496
 -0.3746177   0.10575365  0.10452383  0.07742593 -0.20590575 -0.07823674
  0.00881382  0.3486825   0.0584699   0.1423937  -0.10090213 -0.36488906
  0.11623874  0.36047968 -0.33328405 -0.12330838 -0.21847074 -0.01605837
  0.15390295  0.1118004  -0.72811425 -0.14400484 -0.13916875  0.02799397
 -0.27083266  0.19310907 -0.13628572 -0.12055662]
layer 3 Activation
tanh
layer 4 Dense
40 20
[-0.02304108  0.07218801  0.19103879  0.11850534 -0.30784345 -0.04227422
 -0.06652729 -0.01221119 -0.12342253 -0.17413324 -0.2413678   0.2001889
  0.01269328 -0.02581295  0.04592698 -0.18438827  0.12958756 -0.12094002
 -0.09521347  0.08900589]
[ 0.06877694 -0.14528301 -0.01831554 -0.3096165  -0.3136285  -0.14019562
 -0.1806244  -0.21801169  0.1831968  -0.29569298 -0.21002123  0.24379793
  0.1681104   0.01829778 -0.03485228  0.03477902  0.24472997 -0.05591508
  0.07349029  0.0555508 ]
[ 0.01789043 -0.16670714  0.09537206  0.136732   -0.06857675 -0.02256009
 -0.09026287 -0.06019896 -0.44621453  0.38667586  0.02667765  0.03953246
  0.21438721 -0.18680783  0.04082861 -0.5855782   0.2694483   0.28925425
 -0.3868215   0.31912574]
[-0.17273544 -0.17701435  0.00310231  0.11438044 -0.0830587  -0.0183231
  0.07829393 -0.27826956 -0.23712677 -0.05327923  0.19351451  0.2604918
  0.29757696  0.10847581  0.14034182 -0.00962248  0.1668717   0.17923369
 -0.23418272  0.05905581]
[ 0.09006775 -0.21145211  0.04330333  0.03411496 -0.4339381  -0.2645785
 -0.05311486  0.16155775  0.3328945  -0.24137223 -0.30423462 -0.11646068
 -0.06529143 -0.07857437 -0.2722063   0.2049067  -0.2028336  -0.24689294
  0.02088898 -0.07934239]
[-0.09323569  0.28370446  0.17793736  0.3157357   0.30648968  0.09125512
  0.03117519 -0.1653296   0.00683747  0.04725612 -0.06275726  0.22124514
  0.01470641 -0.25473833 -0.17184179  0.12182145 -0.30262816  0.09092706
 -0.11408371  0.14615436]
[ 0.24291418 -0.23419234 -0.36955467 -0.17415118  0.03265066  0.13947968
 -0.2511354  -0.0347372  -0.36817896  0.40793326 -0.02920958 -0.18916465
 -0.12459677  0.25095505  0.30652887  0.2707481  -0.0937196  -0.4340489
 -0.06944963  0.29704997]
[-0.42388663 -0.06669427  0.05639856  0.420013    0.03057522  0.09740326
  0.24233674 -0.4047413  -0.13651223 -0.00329822  0.2635953   0.4271624
  0.19678992 -0.35208535 -0.21940538  0.07894031 -0.21526591  0.04633094
  0.2119066  -0.11204623]
[ 0.4814693  -0.2839719   0.09758744 -0.39804053  0.11470016 -0.32817283
 -0.05343259  0.27975422 -0.4529324   0.33244842 -0.06958029  0.33736148
 -0.04631856  0.04256511 -0.1641572  -0.10295109  0.54014724  0.11090686
 -0.45459667 -0.08044623]
[-1.78907230e-01 -1.95445657e-01  3.79259586e-01  2.90507615e-01
  3.27653885e-01 -4.75778244e-02  2.43451029e-01 -1.89395607e-01
 -8.44252184e-02 -1.06939830e-01  2.16527507e-01  1.21068984e-01
  1.69852689e-01  3.22796113e-04 -8.63470137e-02  2.85930961e-01
 -2.12107912e-01 -1.70388613e-02  2.81429350e-01  2.54957736e-01]
[-0.06285792  0.2172511  -0.32994118  0.29340672  0.29352048  0.3001578
  0.03662404 -0.59158576  0.13622026  0.11708182  0.37390423 -0.02365718
 -0.20908873  0.02853654  0.06829558  0.16508526  0.0523406   0.13595489
  0.23798259  0.17954358]
[-0.2026557  -0.1781332   0.13395196  0.27353814  0.03517373 -0.09551429
  0.06285951  0.06387524 -0.28958145 -0.11434739  0.01000748  0.25962833
  0.0487454  -0.22024281  0.1884546  -0.0734157  -0.09494407  0.08138307
  0.08183021 -0.04264706]
[-0.4817063   1.0020375   0.08933537 -0.16838261  0.03500815  0.705777
 -0.05448167 -0.37411326 -0.08241434  0.29591718  0.20662765 -0.31471598
  0.300874   -0.01062904 -0.22623147 -0.2745287   0.05872497  0.67486256
  0.11737283  0.0525891 ]
[ 0.32916665 -0.0392732  -0.23872748 -0.01850043 -0.15028308 -0.01360139
  0.06066214  0.37470216  0.02205444  0.05041257 -0.20318092 -0.11660589
 -0.11465676  0.15388264 -0.07596979 -0.31282315  0.39265674  0.08156735
 -0.2344786  -0.18656279]
[ 0.19680244 -0.09563606 -0.10900217 -0.40295115 -0.20463763 -0.01172877
 -0.12289733  0.24172236 -0.25706896  0.05083071  0.09085306 -0.06914938
 -0.12686121  0.24313472 -0.27840185 -0.32564396  0.21416508 -0.15283993
 -0.42945832 -0.01203717]
[-0.11721677 -0.07509983  0.31184846  0.03554542  0.00141797  0.03274385
 -0.04031277 -0.11386555  0.06094515 -0.07763693  0.06886336  0.09328405
 -0.15035464 -0.21305011 -0.04616445  0.0839272  -0.43221253 -0.05625026
  0.18700393  0.0174203 ]
[-0.0125512   0.33404407 -0.00138678 -0.3991972   0.47657713  0.43249452
  0.08262556  0.19554752  0.2841098   0.2575827   0.00298584 -0.05625327
 -0.1284567   0.0772752  -0.17436734 -0.2134062  -0.09176344  0.16579811
  0.08506206 -0.29364106]
[ 0.3474975   0.02822963 -0.18620655 -0.5785877   0.0675673   0.23955895
 -0.12931378 -0.08339211 -0.21054864  0.49093667  0.15373328 -0.3661229
 -0.00882345  0.29110813 -0.04976707 -0.4737571   0.31301156  0.4681199
 -0.08267193  0.00343898]
[ 0.04601308  0.21796581  0.32569626 -0.2714538   0.36233234  0.20288768
 -0.04597075  0.00788979  0.5255125  -0.13913599  0.00980692  0.14064972
 -0.04144784 -0.32163388  0.21030797  0.09257702 -0.04875705  0.11892549
  0.25895774  0.05588437]
[ 0.01341438 -0.48211992  0.27681836 -0.46216598 -0.35205394 -0.16388366
 -0.06009102  0.25716612  0.02340296  0.2983228  -0.09018978 -0.15052027
 -0.3360103  -0.13169384  0.08142167 -0.12350792  0.15538278 -0.19117223
 -0.3621633   0.14393198]
[-0.20040034  0.079113    0.09638201  0.6021621   0.26805001 -0.3036051
  0.1088646  -0.23229352  0.03637315 -0.14706896 -0.21863367 -0.3162005
 -0.06620505 -0.18862072 -0.13652192  0.0893759  -0.10138644  0.04641257
  0.24615704 -0.01196387]
[-0.4081181   0.33756596  0.54959667 -0.33909965 -0.02798608  0.20858186
 -0.39599165  0.1240958   0.5649193  -0.10707296 -0.01419963  0.4179727
 -0.31904408 -0.24240893 -0.12766851 -0.2647861  -0.27879846  0.25209364
  0.19939792 -0.08693603]
[ 0.06755985 -0.31663212 -0.09486184  0.63558495 -0.10502581 -0.11350224
 -0.14269312 -0.22181092 -0.36584604 -0.2715309  -0.1148781   0.3998851
  0.16049139 -0.41333032 -0.0359516   0.48485783 -0.04448169 -0.04758452
  0.08642657  0.19952391]
[-0.20228253  0.20510925  0.07160911  0.11296161  0.13554737  0.34230757
  0.07885495 -0.37021518 -0.0533564   0.5795761   0.08373211 -0.35424486
  0.12063897  0.08042933  0.04272246 -0.01233086 -0.10965612  0.6207455
  0.10292219 -0.02936133]
[-0.3940245   0.2359846   0.21048276  0.46628484 -0.27803364 -0.1499936
  0.06708141 -0.41201958  0.17872575 -0.13062635 -0.01813531 -0.07470377
  0.00609916 -0.13622557 -0.22249246  0.30355477 -0.11892533  0.1343916
  0.2345998  -0.16162083]
[ 1.2570854e-01 -6.3042015e-01 -3.8367426e-01  6.6662552e-03
 -2.1458636e-01 -4.4135478e-01 -6.9576167e-02  4.6302742e-01
 -3.3241402e-02  3.6060065e-01  9.4873972e-02  1.6062422e-01
  1.0841359e-02  1.7482583e-01  6.6102515e-03 -2.8198466e-01
  3.0896452e-01  1.4513719e-04 -1.3637803e-01  2.7169799e-02]
[ 0.06269108  0.20320496 -0.08870132  0.10625663  0.07995441  0.19854915
 -0.1291139  -0.12161841 -0.03408512  0.00758242  0.08929881 -0.2987851
  0.12245254  0.12637393 -0.25129354 -0.06567159  0.25535595 -0.12118088
  0.092022   -0.10660099]
[-0.08320396  0.34077382 -0.04620638 -0.39413512  0.19477683 -0.15235622
 -0.28074867 -0.21684359  0.37169078  0.35033193  0.23514059  0.31038484
 -0.17712212  0.11703967  0.1699768  -0.08444364 -0.19829695  0.3602154
  0.07669555 -0.24205396]
[-0.20275751 -0.22661349 -0.05327847  0.19309275 -0.03588934  0.11142436
  0.13635457  0.05096356 -0.07415214  0.1979139   0.28657946  0.15808505
 -0.13982928 -0.17589808 -0.24193192  0.29832664 -0.42102644  0.10482981
  0.29075     0.04934683]
[ 0.20214504 -0.35091352  0.22734752 -0.35993218 -0.00682415  0.07836378
  0.20102802  0.22132629 -0.40952185  0.22756353  0.01592059 -0.05135723
 -0.04713853  0.14202395  0.30067527 -0.37397948  0.23330727  0.22904986
 -0.20316665 -0.14451283]
[ 0.10013471 -0.0912616   0.343438    0.3654912  -0.14336471  0.2232714
 -0.16066802  0.05172073 -0.07885294 -0.07814851 -0.00848375  0.20323154
  0.0795277  -0.17050835  0.26513332  0.04433466 -0.3921464  -0.21717668
  0.12752222 -0.00333099]
[-0.17353964 -0.0767235   0.06648311  0.25567278  0.11548884 -0.12096886
 -0.0579298  -0.13103986 -0.12279616 -0.06223118  0.02278852  0.00455519
 -0.03377637 -0.04847753  0.27889022 -0.08329017 -0.01655205  0.0707059
  0.0194831   0.06630794]
[-0.10229895  0.47579187 -0.36958772  0.37507647  0.40525046  0.45281234
 -0.17674178 -0.48044536 -0.47183797  0.12179103  0.04937305  0.29128698
 -0.00974825 -0.10993339  0.06789748  0.19651856  0.2543563   0.3814327
 -0.24647546  0.07339285]
[-0.4763605   0.72780615 -0.25809583 -0.05865993  0.06554462 -0.07482375
 -0.23561281 -0.24142031  0.67598593  0.17019485  0.11825841 -0.21004675
  0.04538599 -0.07982354  0.3110369  -0.21423545 -0.04386887  0.6666145
  0.69283086  0.12065642]
[ 0.20208645  0.15352026 -0.045223   -0.21883364 -0.13891764  0.22177628
 -0.12172525  0.03370355  0.00536918  0.05405332 -0.19656143 -0.31160092
 -0.07669248  0.00285993 -0.05500459  0.00701846  0.38201723 -0.06370198
 -0.04255673  0.09036934]
[ 0.14183284 -0.2684611   0.18945397 -0.07638129 -0.07158756  0.0616622
  0.0354532   0.42816758 -0.17659539  0.13120076  0.06954753  0.25542134
  0.01995797 -0.06746137 -0.10154939 -0.35174435  0.16855632 -0.13490523
 -0.35122836 -0.02964111]
[-0.04362532  0.40861425 -0.0090802   0.173056    0.23267671  0.23469742
  0.04930513 -0.27698916  0.00530647  0.4344283   0.3638904  -0.03338894
 -0.27289027  0.04535971  0.17182796 -0.20056477 -0.3475929   0.31800863
  0.29306212 -0.21406081]
[ 0.39258415  0.12868772  0.25582558 -0.49669623 -0.1234679  -0.02475783
  0.05790922  0.5635498  -0.13905476  0.0410847  -0.2294755  -0.16740577
 -0.06300014 -0.10328719  0.13088447 -0.29221058  0.43265378 -0.01214388
 -0.48948035  0.17975014]
[ 0.01855277 -0.3783553  -0.44680485 -0.07813735 -0.25725958 -0.3146393
  0.293134    0.1273394  -0.20225573  0.3624767   0.28864172 -0.08302773
 -0.00495671  0.08080037 -0.12198678 -0.340835    0.24969506  0.3549337
 -0.07417269  0.14550936]
[-0.07483739 -0.4904495  -0.06040492 -0.264058   -0.29823947 -0.06922348
 -0.07654075 -0.04614716 -0.2907939   0.28833112 -0.13381673 -0.01857479
  0.14613642 -0.11602321 -0.00872479 -0.18721107  0.2834282   0.15188652
 -0.10316985 -0.06192566]
[ 0.05632187 -0.14042434  0.1808632  -0.13430583 -0.27814278 -0.19658184
  0.06735987  0.1309586   0.27509916  0.03743436 -0.1076769  -0.05368249
 -0.05352159 -0.06747038 -0.02422833 -0.06650267 -0.01140182 -0.16764049
  0.01527563  0.00387638]
layer 5 Activation
tanh
layer 6 Dense
20 1
[-0.0298574]
[0.01945467]
[0.05339503]
[-0.07553755]
[0.00673352]
[0.14722134]
[0.00408435]
[0.01749931]
[0.04585505]
[0.03393868]
[0.02130356]
[-0.03660481]
[-0.05972096]
[-0.02222733]
[-0.02287059]
[-0.06062042]
[-0.02009749]
[0.11352187]
[0.03488639]
[-0.04660065]
[0.24615744]
