layers 7
layer 0 Dense
20 20
[ 0.02708081  0.34247482  0.17543177  0.21898763  0.19733915 -0.23850936
 -0.4302596  -0.28506497 -0.3263994  -0.18956222  0.32743016  0.16348831
  0.35579875 -0.04965436  0.19389758 -0.18723118 -0.01837539 -0.10497975
  0.01086493 -0.01618518]
[ 0.32733434 -0.1348069  -0.03931007 -0.2488194  -0.03844899  0.35118073
  0.12760353  0.06657797 -0.10423517  0.21381307  0.1533764   0.06729683
 -0.09602806  0.15121466  0.28855634  0.04697606  0.3354187  -0.2887666
 -0.08702093 -0.16762099]
[ 0.12906039  0.22536296  0.300362    0.01201627 -0.3462535  -0.34445345
  0.12176704  0.17192656  0.24697012  0.2953887  -0.20593388 -0.13889354
 -0.21136831  0.32414144 -0.37023723 -0.20299952 -0.27641273 -0.22468278
 -0.359735   -0.07997453]
[-0.26657757 -0.20091048 -0.26860043 -0.1944905  -0.30562305  0.0655033
 -0.4209043   0.24539001 -0.4551135  -0.43503028 -0.1061416   0.49746627
 -0.0622384  -0.13531391  0.6367187   0.1119807   0.00986944 -0.4511215
  0.3310228   0.27062455]
[ 0.42856514 -0.2104867   0.42853522  0.1652952   0.07012069 -0.05621047
 -0.39641446  0.88166344 -0.2585129   0.44156    -0.1368367   0.46732897
  0.08247831  0.45295516  0.25375432  0.13716008  0.20876294  0.06693355
  0.14183329 -0.09077127]
[-0.19944483  0.18843693 -0.12278646  0.06324685  0.38214362  0.27081704
 -0.00621155  0.24494982 -0.24383964 -0.37826434  0.27227873  0.08283779
 -0.26835975  0.33248943  0.2320785   0.35102183  0.00382811 -0.25689474
 -0.06023031 -0.2471838 ]
[ 0.24045902  0.30705535 -0.07570469  0.34021223  0.25812882 -0.32214314
 -0.1033392  -0.02764484 -0.2438763  -0.3711968   0.01736566 -0.06308785
 -0.057374   -0.19340475  0.02456766 -0.36870992  0.3227464   0.11189148
  0.35084498 -0.00560555]
[-0.04589668  0.12921198 -0.33470964 -0.12238219  0.19791016  0.3552075
  0.19192736 -0.6407134   0.6903904   0.02260976 -0.08747441 -0.6049583
  0.2194886   0.4560745  -0.288538   -0.2902114   0.02254229 -0.43187514
 -0.19103372  0.43639502]
[ 0.3726937  -0.03959647 -0.56182086  0.43877086  0.23666587 -0.30939302
  0.14633338  0.27790052  0.31184205  0.4835842  -0.57716894 -0.145784
  0.26766023 -1.1899164   0.43217415  0.77193105  0.8738911   0.04974927
 -0.92941374 -0.44848755]
[ 0.2922165   0.48846027  0.27053288  0.24151137 -0.505276   -0.16506988
  0.13513912 -0.02040872  0.06600042  0.75907934 -0.48067504 -0.09514316
 -0.43138862 -0.12062861 -0.08038417  0.22588417  0.1462669   0.44805968
 -0.14368854  0.04937727]
[-0.4240158  -0.16289537  0.09674354  0.65681344  0.10720053  0.445716
 -0.09888531 -0.4758173  -0.34169868 -0.2525193   0.2649317  -0.19995905
  0.09994031 -0.00230574  0.17109069  0.41907158  0.1793289   0.4169509
 -0.37732354  0.07904892]
[-0.02384605  0.09350892 -1.270091   -0.42670313 -0.69229275  0.6705057
  0.6165209   0.0100147   0.620811    0.04593533 -0.50999105 -0.7051979
 -0.44462365 -0.25256726  0.16500778 -0.9774327   0.05881575  0.23207572
 -0.31121045  0.46770498]
[-0.34875068  0.12549913  0.61539614 -0.13965006  0.29316747 -0.5545664
 -0.06176944  0.19128148  0.10156707 -0.246916   -0.04863902  0.09714722
 -0.26898742  0.18214598 -0.7197324  -0.01815317  0.38291883 -0.5758979
 -0.45653236 -0.49566853]
[ 0.40194935 -0.66023874  0.578878   -1.1307086   0.3176313  -0.275275
  0.17743702 -0.28617236 -0.00508136 -0.0694696   0.7651098  -0.25102958
  0.9000137   0.29007685 -0.03263424  0.2812621  -1.1052009   0.45651412
  1.1239032  -0.8080691 ]
[ 0.9328761  -0.18408859 -0.72101843 -0.143334   -1.044484   -0.02310313
 -0.20878927  0.2931067  -0.03187623  0.911285    0.04965759 -0.1650035
  0.15728879 -0.68105686  1.0758679  -0.9699457   0.7595014  -0.1343136
  0.80211544 -0.14224055]
[-0.89651376  0.39377207 -0.25007442 -0.45735928 -0.09444811  0.3199576
  1.1111062  -0.11892445  0.8820523  -1.1647424   0.4635395  -0.80530256
 -0.3348429   0.7985584   0.19054307 -0.83557713 -0.3669135   0.42901608
  0.2978491  -0.12075786]
[-0.38476783  0.6374336  -0.2159476  -0.25722685  0.09993622  0.30716738
  0.30687043  0.1080398   0.256754   -0.13333626  0.41448063 -0.16562164
 -0.3660238   0.7587179   0.01459781 -0.11457612 -0.31948945 -0.13639846
 -0.38056597  0.19915116]
[-0.39831913 -0.14903834 -0.16992268  0.61309236  0.1797716  -0.35006544
  0.25739384  1.028906   -0.14718506 -0.7793156  -0.3337835  -0.16918525
 -0.8138322  -0.08682202  0.12619     0.27842736  0.71494794 -0.9369635
 -0.77367866  0.47550622]
[-0.06315129  0.6628462   1.4109364  -0.37034032  1.1709952  -0.14331153
  0.01553523 -0.6366336  -0.02593644 -0.7939158  -1.1249439  -0.10372496
 -0.5401193   1.1080041  -1.6874138   0.6109026  -0.314664   -0.66131216
 -0.4434912   0.09717849]
[ 0.18330556 -0.5637921  -0.17973924  0.47707045  0.26935056 -0.38080052
 -0.37768143 -1.0689157  -0.236945   -0.13330074  0.1631128   0.64299166
  0.41125882 -0.02294639 -0.0680012   0.44558427  0.62480056 -0.59218776
  0.19387658 -0.55836064]
[ 0.01384772 -0.09762748  0.11011703  0.05267926 -0.07080583 -0.08064944
 -0.3848527  -0.02884863 -0.4436816  -0.06279017  0.0722561   0.17591195
 -0.0422905  -0.18315867  0.24739595  0.07392453 -0.0301499   0.12024926
  0.09598668 -0.00460818]
layer 1 Activation
tanh
layer 2 Dense
20 40
[-0.27142042  0.04252316 -0.2946075  -0.40182745  0.06183809 -0.08186333
  0.24153668  0.33039612 -0.40872228 -0.05131988  0.44880983  0.14984989
  0.41507384 -0.01688286 -0.19070825 -0.14096624  0.21991716  0.32741356
 -0.5736232   0.00602061  0.29617923 -0.03848135  0.16868454  0.41459203
  0.593975   -0.28988454 -0.30624568 -0.15417944  0.00944043  0.28579
  0.04368498 -0.16394253  0.15988915  0.03021951  0.15791354  0.24616295
  0.4406225   0.4900867   0.3173687  -0.02881007]
[ 0.08639798  0.34918666  0.7761232  -0.5783904   0.43457142 -0.49326506
 -0.4477432   0.04310662 -0.08531272  0.31498164  0.29279074  0.5743314
 -0.07702084  0.5256199   0.04599417  0.45250627  0.59948224 -0.0258857
  0.40373784 -0.3370082  -0.32868603  0.00422507  0.12130529 -0.23064683
  0.54394233  0.6336525  -0.07793953 -0.23029734 -0.26526025 -0.53149635
 -0.2536476  -0.22336614  0.0302373  -0.20893936  0.2534581  -0.85198927
 -0.44171485  0.04627185  0.02733708  0.00099995]
[-0.78783816 -0.04284308  0.47839212 -0.3668384  -0.06195173  0.6190258
  0.01927899  0.3663376   0.01319507 -0.45685738  0.87750524  0.36244655
 -0.17078277 -0.11335803  0.08954515  0.04040601  0.9642359   0.6647096
 -0.2273694  -1.2835476  -0.02535889  0.05972869 -0.11824117  0.5401135
  0.2731053  -0.6659238  -0.09730609 -0.2636552   0.30408257  0.00212495
 -1.1531355   0.37674016  0.24985947 -0.3299432  -0.06543452 -0.10112125
 -0.10722828  0.59017664 -0.19840609 -0.50537187]
[-0.04398679 -0.30635014 -0.52860093 -0.29582235 -0.08312806 -0.21543446
 -0.13196148  0.5748251  -0.04837792 -0.01389082 -0.08131562  0.49622756
  0.6922398   0.44177875 -0.19950202 -0.1180444  -0.5940803   0.37760994
  0.04381351  0.46493852 -0.43445814 -0.28901923 -0.24820761  0.03039042
  0.8122906  -0.2550922  -0.16329677  0.04521854 -0.00542831  0.5722737
  0.45548937  0.30933315 -0.3027304   0.34168935  0.50831336  0.0848685
  0.397122   -0.3065515  -0.07983153 -0.07275967]
[-0.83222324  0.14545068  0.00260196 -0.15335716 -0.08225802 -0.06164726
  0.58302206 -0.34133387 -0.06892599  0.36787528  0.8970478   0.21416041
 -0.5808975  -0.04356411 -0.28910452 -0.39626405  1.0372496   0.12224401
  0.18839376 -0.72776556 -0.1703068   0.42311618 -0.28844148  0.24353966
 -0.19549447 -0.06563286 -0.45873943 -0.40211508  0.13748309 -0.24341793
 -0.57345164  0.02458444  0.38483095 -0.24257763  0.1686275   0.26965368
 -0.2254529   0.32907882  0.10256575 -0.5776628 ]
[ 0.39292535  0.43407032  0.279972    0.33970582  0.53265876  0.14688589
  0.2753183  -0.57787716 -0.23869717  0.24000645 -0.3133325  -0.38011616
  0.00244843  0.0444593   0.33950508  0.15891133  0.14653358  0.03487397
  0.7391437   0.10744447  0.07763431 -0.33359066 -0.6515864  -0.4902274
  0.01036792  0.55621135  0.06174399  0.32980648  0.00803198  0.55730337
 -0.40919924 -0.01918762 -0.10428218 -0.5651831  -0.2471725  -0.42426795
 -0.2731681  -0.23610763  0.07899232 -0.27682263]
[ 0.0742805   0.40989298 -0.10042301  0.0995938  -0.50207853  0.40184265
 -0.31447217 -0.8568021  -0.6741129   0.34851465  0.02879756  0.35681164
 -0.28963995  0.0859319   0.50395566  0.31499794  0.48264205  0.18619932
  0.9856074  -0.10603615 -0.6887842  -0.75316334  0.01625279 -1.300071
  0.17007968  0.94854003  0.11108679 -0.3765908  -0.0924912  -0.02259204
 -0.30524474  0.7586043  -0.31146762  0.26603577  0.02505461 -0.10930596
  0.02780213 -0.02488896  0.717306   -0.11547598]
[ 0.42036822 -0.12715344  0.41277263  0.03861145  0.21183196 -0.49979487
 -0.33064643 -0.28310317  0.2871935   0.35385692 -0.08448005  0.03008197
 -0.36788848  0.15196493  0.27103522  0.03605019  0.22643091 -0.22220264
  0.2650066   0.02089508 -0.17982098 -0.06009602 -0.4351389  -0.5035232
  0.25211227  0.42320457  0.27005282  0.21575469 -0.2267243   0.56076187
 -0.31569004 -0.0092375  -0.12579714 -0.5416554  -0.05983826 -0.00658307
 -0.261417   -0.2386575   0.14019921  0.32463259]
[ 0.02554216  0.11617718 -0.41853264 -0.09974725 -0.52520573  0.15820526
  0.0719024  -0.40535632 -0.7054778   0.22233717 -0.09624939 -0.00999701
 -0.14529109  0.05727952  0.25704437  0.16712944  0.17094229  0.22472554
  0.324612    0.07105686 -0.47558472 -0.47640723  0.15296675 -0.81813323
 -0.1526637   0.78756964 -0.27548948 -0.16811302 -0.12878072  0.07501187
 -0.13617656  0.6881573  -0.4004909   0.3114331   0.1812251   0.0685408
 -0.3469567  -0.14058773  0.6550363  -0.17550145]
[ 0.06184918 -0.01607385  0.00343999 -0.07699648  0.04181912 -0.25189325
  0.04508536  0.07410367 -0.26953414  0.11729644  0.19373322  0.36137074
  0.7015861   0.2599717  -0.03484362 -0.006689    0.0015626   0.2518649
 -0.29330912 -0.23333493  0.15627106 -0.22260655  0.24515322  0.06932859
  0.49319005 -0.11297292 -0.24531732  0.4504943  -0.14240311  0.22757263
  0.01715051  0.04199117  0.19034612  0.02916849  0.21942954 -0.13868222
  0.2818041   0.31055486  0.32185164  0.26605716]
[ 0.5687201   0.6512008   0.07083414  0.14988579  0.18656489  0.4177632
  0.30619386 -0.1555523   0.17526773 -0.49526194 -0.5650703  -0.4868707
  0.04718622 -0.7740474  -0.00976575 -0.25640038 -0.23937944 -0.03884246
  0.0170716   0.37324047  0.53969043 -0.24969     0.08560301  0.06984592
 -0.66608936 -0.1536717   0.21412075  0.3118304  -0.14513585  0.00184535
  0.1285199  -0.15074885  0.3839818  -0.18840541 -0.53024775  0.7346426
 -0.3056484  -0.5809814  -0.1237293   0.05325255]
[-0.23325504 -0.62432545  0.15716316  0.01306013  0.6435218  -0.35421675
  0.0446206   0.96497315  0.6279817   0.00353292  0.15336092 -0.14197528
  0.03888239  0.08057763 -0.66225153 -0.28549305  0.15384242 -0.5643872
 -0.19313042  0.10520612  0.34959882  0.34922746 -0.23816398  0.75498617
 -0.05407601 -0.8131257   0.18034647  0.18340483  0.08114344 -0.07619068
  0.28755236 -0.77809477  0.6791495  -0.66119057 -0.45425603  0.267345
  0.38148427 -0.24759565 -0.7507377   0.16358954]
[ 0.22371168  0.38228202 -0.9110341   0.43851566 -0.08003347  0.9637606
  0.9166234   0.44713     0.26740375 -0.59975845 -0.05605861 -0.8348707
  0.33035982 -0.9540481  -0.5626675  -0.98339623 -0.29494768 -0.12174948
 -0.20327768  0.22253494  0.40670028 -0.2533666   0.5242109   0.17167123
 -0.6981841  -0.08906834  0.05144984 -0.01389512  0.40153128  0.28239596
  0.31415105  0.4599773   0.65759975 -0.12141849 -0.58165336  1.3071189
  0.23908097 -0.35245854  0.25806805  0.34171277]
[-0.9189214   0.61489373  0.5050223   0.02361375  0.2704761   0.09743617
 -0.47585443 -0.5607331   0.21890981  0.21144259  0.83071625  0.5027943
 -1.070578   -0.03590876  0.06165062 -0.15803678  0.8989931  -0.3487105
  0.6519284  -0.86392313  0.14945024 -0.33511114 -0.18895145 -0.99540263
 -0.04622185  0.3278467   0.2813023  -0.9894368  -0.07887655 -0.37802014
 -0.70574415 -0.30005273  0.4847087   0.03023015  0.60356385 -0.00223378
 -0.60028     0.5283028   0.25915733 -0.39331046]
[ 0.6310629   0.18717144  0.10638797  0.48964876  0.01977561  0.14492534
 -0.0716003   0.34855548  0.57899237 -0.1682246  -1.0990651  -0.08274303
  0.7340168   0.00321693  0.11270639  0.32718474 -1.0941731   0.13498308
 -0.4122351   0.9177161   0.2423517   0.30743286  0.15256387 -0.3473252
  0.0852438  -0.25354454  0.06198663  0.15263957 -0.20143567  0.37586233
  0.46379676  0.10198245 -0.49635077  0.0805315  -0.43759608  0.10149867
  0.6102524  -0.26716956 -0.43233803  0.7655088 ]
[-0.33564335 -0.48952055  0.03876279 -0.43449223  0.12190454  0.16478191
  0.9409775   0.9667912   0.12617104 -0.0066425   0.64934033  0.7395073
  0.0223206   0.1843153  -0.788294   -0.21970081  0.49817112 -0.37508357
  0.44623554 -0.688341   -0.5602349   0.2734178  -0.62998533  0.5868894
  0.46020597 -0.6518775  -0.15555765 -0.07554726  0.04691312  0.3444773
 -0.39164177  0.35469836  0.3838956  -0.55682033  0.15479833  0.49191657
 -0.35870823  0.7415195  -0.1014009  -0.45144886]
[-0.03191032 -0.379694   -0.5480015   0.25888774 -0.26710835 -0.17187373
 -0.29710504  0.68174505 -0.40693867 -0.3611836   0.00168337  0.10370053
  0.6460962   0.27587715 -0.03154088  0.12665349 -0.31321943 -0.18673526
 -0.9405116   0.14158808 -0.33443785 -0.097947    0.11249425  0.5238213
  0.46374044 -0.45030758  0.13752575  0.3094963  -0.20692612  0.16545
  0.12583053 -0.03993994  0.03894674  0.42397425  0.38936728 -0.08445261
  0.1991511  -0.12182946  0.14191934  0.53237987]
[ 0.31034636  0.40565768 -0.07534876  0.44524765  0.18327506 -0.02213019
  0.18052678 -0.13413987 -0.13586359 -0.31083083 -0.19274777 -0.2600773
 -0.09941969 -0.47889015  0.04626947  0.12556478  0.03572335  0.02182152
  0.40949792  0.4511657   0.4674219   0.1779205  -0.3440499   0.01435709
 -0.2745713   0.29655948  0.29000047  0.08481745 -0.33188534  0.11380466
  0.12540357  0.0367585  -0.16504563 -0.52080107 -0.45984995  0.21084927
  0.40075278  0.04694311  0.06639574 -0.01519036]
[ 0.21614541  0.25136572  0.12847795  0.5280253   0.10196294  0.47505707
  0.23178829 -0.21168958  0.35546416 -0.26972362 -0.4094691  -0.48199305
 -0.27795354 -0.52212805 -0.12135932 -0.07066689  0.520574   -0.08917518
 -0.4839431  -0.18364143  0.6026546   0.05487679  0.30288556  0.28240275
 -0.8714324  -0.10822591  0.04395303  0.05617258 -0.02486257 -0.32393274
 -0.84324205 -0.05129996  0.1712462  -0.17662837 -0.7009686   0.56987023
  0.03735726 -0.09530998 -0.38044047  0.64937913]
[ 0.3109522  -0.2587816  -0.05972888  0.0569183   0.13817495 -0.7367123
 -0.8609045  -0.3096712   0.06622474  0.6259668  -0.47449464  0.3860743
  0.07845066  0.2882718   0.16003501  0.4833033  -0.37777948  0.20295092
  0.5623699   0.29615888 -0.6775689   0.51192    -0.14383328  0.02195184
  0.5046122   0.27783263 -0.1482729   0.41196647 -0.3550011  -0.00462496
  0.24343635 -0.20574139 -0.3199086   0.2467208   0.47158137 -1.1565633
 -0.13731985  0.10141826 -0.07165302  0.01186818]
[-0.06322359 -0.2670411   0.19598792  0.05991661  0.39136952  0.02232747
  0.07305163  0.58792347  0.62384117 -0.30269647  0.2007953   0.13646165
  0.33313116  0.09794468 -0.26182818 -0.1696709  -0.06952262 -0.4597024
 -0.58341765 -0.14419442  0.37353417  0.35855675  0.03403672  0.7691563
 -0.00802449 -0.52076185  0.14995627  0.06334721  0.14129609  0.09672785
  0.10110654 -0.53941804  0.25660807 -0.16302444 -0.37182418  0.15707561
  0.22558905  0.00912484 -0.6483948   0.11534017]
layer 3 Activation
tanh
layer 4 Dense
40 20
[-0.43367618 -0.0484817   0.15143037 -0.10247847  0.59862626 -0.71461487
  0.10132731  0.4051891   0.24825357 -0.27475098  0.4212381   0.03043033
 -0.2742302   0.21628495 -0.28456077 -0.29643     0.17695716 -0.28938884
 -0.13705601 -0.051417  ]
[-0.5362504  -0.21536653 -0.27389556  0.0429735   0.38737056  0.44595662
  0.06479153  0.0271692   0.02225365 -0.05137717 -0.29724535  0.15578142
  0.1896566   0.55580544 -0.23964848 -0.27496558  0.5529147  -0.23078269
 -0.02912558  0.32994795]
[-0.0499455  -0.22968525  0.04376104  0.4128486  -0.10144258  0.64120364
 -0.5159784   0.02824478 -0.47557646 -0.02541536 -0.20521715  0.02747433
  0.32962054 -0.0476514  -0.02860017  0.1338995   0.20668642  0.27987918
 -0.07092685  0.61424667]
[-0.09199654  0.23894115 -0.249242    0.27248138  0.12359142 -0.34340894
 -0.2252253   0.16919462  0.24721931  0.14618988  0.1846842   0.13988945
 -0.13124478 -0.01119423 -0.46995348 -0.36376446  0.13610172 -0.47639987
 -0.60129505 -0.15725832]
[ 0.32460287 -0.45344013 -0.39635986  0.19279915 -0.5324593   0.25189412
 -0.48869985  0.15558091 -0.24436063  0.334878   -0.3642223  -0.02935157
  0.24292569 -0.34458748  0.32096437 -0.12469974  0.3389076   0.06814814
 -0.00688624  0.28641635]
[-0.4880119  -0.00318228  0.1161777  -0.40359432 -0.23681067  0.1590913
 -0.15940392  0.2580529  -0.06499824  0.4931996   0.07264521 -0.02515389
 -0.35294423 -0.00970697 -0.36712185 -0.37816054 -0.38583955 -0.28235394
 -0.26436412  0.37570643]
[ 0.5408746  -0.4767546  -0.4340523  -0.2909979  -0.2838708  -0.34870255
  0.4186818   0.19353224 -0.09920279  0.5149967   0.21529302 -0.4769303
  0.2274788  -0.82561827 -0.2775604  -0.1590073  -0.57089746 -0.15198542
 -0.18437813  0.30931324]
[ 0.60772985  0.5916387   0.35613477  0.28636858 -0.8827785  -0.81921893
 -0.05162963  0.4030596   0.11151478  0.24856094  0.18257278 -0.5378004
  0.50295836 -0.6454705  -0.3683211   0.22796491 -0.57675153 -0.21788132
  0.28164244  0.11781631]
[ 0.42334083  0.2499177  -0.36795262  0.3806231  -0.5611655   0.27621892
 -0.35635522  0.371809    0.05745876  0.02814941  0.10550419 -0.22504449
 -0.2735594  -0.257047    0.08269261 -0.25916     0.23937911  0.26956576
 -0.27566594  0.13823658]
[-0.3233456  -0.23982617  0.02558072 -0.23318769  0.1891241  -0.07025933
  0.09397394 -0.29719147 -0.07702835  0.06239634 -0.3776987   0.06350073
  0.23552531  0.12350708  0.62550837  0.5097057   0.3170699   0.07716826
  0.79527336 -0.14993036]
[ 0.6771463  -0.7414689  -0.24330707 -0.17235582 -0.44079798  0.8720653
 -0.27790555 -0.62581354 -0.42783436  0.10867739 -0.39681298  0.10930548
  0.4902467  -0.5270226   0.08504596  0.282041   -0.08351239  0.32902107
  0.15163851  0.3678264 ]
[ 0.24431705  0.30612886  0.02748864  0.21667458 -0.3523533  -0.29076052
 -0.07051745 -0.4103592  -0.18323722  0.01603771 -0.04572592  0.09380918
  0.06824027 -0.21032587  0.15495363  0.5051675  -0.42784065  0.41238606
  0.16391814  0.14424457]
[ 0.44252315  0.46520638  0.37807953  0.20127417 -0.17508985 -0.05238233
  0.1853754   0.31687346  0.13311642 -0.4583397   0.00555161  0.22077611
  0.09263414 -0.7566872  -0.20167026  0.32533953 -0.46162733 -0.14602078
 -0.10019943 -0.60022944]
[ 0.12528628  0.08256584  0.2177016   0.2188048   0.12229349 -0.39517182
  0.22025272 -0.05317291  0.23319548 -0.33883968  0.05071376  0.13471156
  0.26817584 -0.14962387 -0.00769382  0.325596   -0.27167332  0.4049512
  0.26926425  0.06335978]
[-0.36942494 -0.2969816   0.4493605  -0.2183156   0.7309888   0.17254853
  0.31793708 -0.19778167 -0.19227988 -0.14409953 -0.52791977  0.43641073
 -0.01870143  0.1659232   0.10461603  0.20675458  0.38083327  0.14570564
  0.22954343  0.02504664]
[-0.215321    0.01668249  0.37105113 -0.25745335  0.18938635 -0.09620829
 -0.29766098 -0.3959244  -0.10923079 -0.72010833 -0.24886437  0.36729464
  0.50494975  0.01173018  0.14689992  0.7758754   0.28056946  0.50753295
 -0.02036156 -0.25985628]
[ 0.25753644 -0.89970934 -0.04321952 -0.46335548  0.18321113  0.26207697
  0.13212216  0.09925897 -0.45184153  0.35135722 -0.20741816 -0.12232165
  0.5536094   0.28779072 -0.2389739  -0.29088038 -0.12124186 -0.23120824
  0.5353923   0.8827654 ]
[-0.23482387  0.05236993  0.38369957 -0.33742794  0.2472093  -0.05603927
  0.45106426  0.01067646  0.03809524 -0.45728418 -0.01646174  0.14923292
 -0.07939054  0.08571611 -0.09842801  0.2292846   0.125316    0.19365233
 -0.12469961  0.01879325]
[-0.5842776  -0.307208   -0.42583412 -0.13869983 -0.12765598 -0.08933274
  0.50597906 -0.23732515  0.22471401 -0.01514804 -0.11360814 -0.50475055
 -0.21261808  0.7217015   0.35023484  0.01130386  0.29414147  0.18844238
  0.21219364  0.21588708]
[-0.28678197  0.6375369   0.04231963 -0.5017022   0.26926062 -0.6933561
  0.2501613   0.4310787   0.6714222  -0.17399621  0.39658687 -0.00500773
  0.0021901   0.14209689  0.13459049 -0.142124   -0.09624662  0.07605948
 -0.4213154  -0.5608268 ]
[ 0.27567717 -0.56331116 -0.05605237  0.17394252 -0.11602848  0.43387216
 -0.13528858  0.680703   -0.14316076 -0.0993237  -0.3933323  -0.05672799
 -0.24562442  0.09570391 -0.5025436  -0.04307556  0.2778056  -0.2786613
 -0.81343687  0.3777773 ]
[ 0.33229545 -0.16626525 -0.27643523  0.44493982 -0.47940686  0.18195955
 -0.48577312  0.53205913 -0.12778555  0.10475647 -0.40557703  0.25511852
  0.19925109 -0.16919202  0.24530752 -0.08735614  0.43357247  0.2569088
 -0.01885111 -0.36961547]
[-0.01914853  0.37258923  0.07448164  0.20037736  0.07410488 -0.11066742
 -0.39886168 -0.1594985   0.16962655  0.10916678  0.318077   -0.11236078
 -0.00899264  0.01933164 -0.04789132 -0.08774324 -0.46934822 -0.02828194
  0.0571906   0.32092136]
[ 0.40767688  0.7601812   0.22364934  0.22150467 -0.5227907  -0.13883783
 -0.7246708   0.07418154 -0.1477202   0.5386187   0.1459864   0.02194804
  0.3626893  -0.3385622  -0.25394166  0.31692097 -0.23176093 -0.29339707
  0.31782225 -0.2836157 ]
[ 0.40901637  0.20605463  0.44026893 -0.4470511  -0.33197278 -0.3509515
  0.443436   -0.04920905  0.14327301 -0.5962773  -0.23431487  0.35363743
  0.32930088 -0.00456234  0.18849182  0.6398387  -0.34420913  0.476939
  0.48059112  0.04757525]
[-0.42051175 -0.21735044 -0.4640107  -0.27220765  0.51322496  0.34409675
  0.53789955 -0.3560173   0.4394916  -0.2635838  -0.78160495  0.21655826
 -0.6756744   0.5094881   0.57823265 -0.4516045   0.5159111   0.44768393
 -0.08656561  0.06031029]
[ 0.26928097  0.11887877  0.05639489  0.21691611 -0.229868    0.14076424
 -0.19936301  0.12353346 -0.31416833  0.13396269  0.08567934  0.14875247
 -0.16418058  0.15568443 -0.21783863 -0.2227431   0.05695719 -0.17893583
 -0.16609396 -0.22222373]
[-0.0853519   0.10279609  0.13019165  0.0031539   0.23528196 -0.26092148
 -0.38077322  0.16667452  0.46031216 -0.07017461  0.09788205  0.46409935
 -0.4415812   0.23364386  0.10197584 -0.05191797  0.76441485  0.27859044
  0.2140993  -0.19721618]
[ 0.13545148 -0.10546231 -0.24423285  0.20257476 -0.15501475 -0.07177347
 -0.2859964   0.0663591  -0.1719559   0.16817623 -0.12227516 -0.17626303
 -0.24416724 -0.13021748 -0.21642907 -0.19417228 -0.03469349 -0.09739196
 -0.1410746   0.22190084]
[-0.15378891  0.64000624  0.07220096 -0.29298693 -0.55954343  0.1661576
  0.48625234 -0.33561486  0.25315732 -0.03047208  0.29929736  0.10649624
 -0.09260131 -0.04849803 -0.22370672  0.08437834 -0.517512    0.0022136
 -0.11479666 -0.38175848]
[-0.0098448   0.56033987  0.11647502  0.45290324 -0.4028047  -0.471578
 -0.03052089  0.08625164  0.7526331   0.00758486  0.3059466   0.13020223
 -0.2850633  -0.2465845   0.4938894   0.25889266 -0.10669919  0.39326847
  0.11588319 -0.8587453 ]
[-0.4061149   0.42999467  0.01220505 -0.15034778  0.53664553 -0.5460517
  0.1897147  -0.28792027 -0.00610746 -0.22751527  0.24987657 -0.312986
 -0.22155306  0.35732946  0.21496023 -0.04405775 -0.14813296 -0.34162244
  0.17709193 -0.07302631]
[-5.1031518e-04 -7.2312844e-03 -5.5349374e-01  5.7492297e-02
 -3.9060074e-01 -7.2748944e-02 -6.0953282e-02  4.8383497e-02
 -1.2673479e-01  6.0918683e-01 -2.5103039e-01 -3.8741109e-01
 -3.2084113e-01 -1.6008289e-01 -1.9269489e-01 -4.0384740e-01
 -2.8653127e-01 -4.1868767e-01 -6.3060962e-02  3.2966042e-01]
[-0.05714765  0.34282205  0.18587358 -0.13716745 -0.02773821 -0.20795149
  0.63948727 -0.15670289  0.10470282 -0.21831703  0.22719418  0.3655551
  0.15351486 -0.02022189  0.26141992  0.17729394 -0.43011695  0.04577805
  0.32881525  0.02524181]
[ 0.02584219 -0.06817186  0.23634005 -0.11531033  0.1737461   0.22796778
  0.4921835  -0.34114    -0.24671397 -0.14100488  0.19494133 -0.23839508
  0.3908353  -0.2565315   0.38934812  0.22923419 -0.43689018  0.41270915
  0.36154163 -0.21197182]
[ 0.28973046  0.09110715 -0.48721853 -0.17520988 -0.593528   -0.5620563
  0.11764444  0.49869633  0.59742653  0.7172391   0.3982188  -0.5152054
 -0.38612944  0.11965679 -0.3488811  -0.8439829  -0.24862693 -0.5359761
 -0.7464154  -0.34224787]
[ 0.44566992 -0.04874165  0.38528222 -0.2914631  -0.06996702 -0.33973053
 -0.02514699  0.4236065   0.14696138 -0.2547936   0.04007922  0.19881086
 -0.20830373 -0.61252826 -0.50188345  0.21174699 -0.28279418 -0.11722168
 -0.32088047 -0.07994346]
[ 0.13359775 -0.01427881 -0.17613484 -0.28743893 -0.25307044  0.07320976
  0.13780847 -0.4698268  -0.30359837  0.09689049 -0.29303998  0.16796398
  0.1910153   0.09084065  0.2039755   0.52074474 -0.36242798  0.28865883
  0.36166364  0.11780152]
[-0.5594024   0.23089518  0.45026168 -0.7482881   0.66031164 -0.32312754
  0.70433116 -0.2773961  -0.33285645 -0.15095775  0.12386131  0.03071607
 -0.24797738  0.42186394  0.16607058  0.203215   -0.23675671 -0.39245963
  0.41025043  0.272232  ]
[-0.14900735 -0.26338762  0.11154988  0.26348808  0.44784972  0.13804126
  0.0028247   0.4055174  -0.15543984 -0.40351737  0.04773945  0.15049802
 -0.51146334 -0.06811699 -0.15069151 -0.14728938  0.49233776 -0.25506592
 -0.07126137 -0.32641816]
[ 0.38000676 -0.06404805 -0.24619734  0.30659398 -0.44859636  0.30476743
 -0.42378375  0.3037324   0.04210578 -0.05676017 -0.08803613  0.07475235
  0.07292616 -0.251854   -0.0392297  -0.22552554 -0.02318979  0.04361636
 -0.12882772 -0.11308809]
layer 5 Activation
tanh
layer 6 Dense
20 1
[-1.6811345]
[-1.145551]
[-1.3950781]
[1.5176703]
[1.315014]
[0.99726075]
[-1.4337388]
[1.0128042]
[1.2010574]
[-0.54679954]
[-1.2206662]
[0.98934084]
[-1.0946712]
[1.1163055]
[1.2429264]
[-0.82902485]
[0.01111078]
[1.5565046]
[-0.9677749]
[-1.029429]
[1.1316681]
