layers 7
layer 0 Dense
20 20
[ 0.15866213  1.5801036   0.04544879  0.13481367  1.2344902   0.82308036
  0.7582634   0.10936443  0.10301824  0.14900611  0.05757029  1.099146
  0.2039273   1.1199977  -0.37596133 -1.2255245  -0.483032   -0.580296
 -0.22047117 -1.1654438 ]
[ 1.798061    0.72075325 -1.0514531   0.45852503  1.5053864   1.1975038
 -0.4928923  -1.0924084  -0.34602624  1.8051065  -0.24147025  0.9272696
  0.5214103   1.0529802  -0.7638681   0.10585503  1.4931358   1.1849078
 -0.3764502  -0.08315516]
[ 1.367099    0.6419699  -0.73783225  0.48187605  0.94302845  1.5231932
 -0.42716226 -0.6006477  -0.280512    1.9436302  -0.08679119  0.821404
  0.37859935  0.56861055 -0.59877044 -0.27967244  1.0679095   1.2349348
 -0.0681557   0.4380004 ]
[ 0.17297624  1.2716731  -0.80006367 -0.06666708  0.43094313  0.60969526
 -0.05875147  0.3166064   0.44258034  0.3189347  -0.08025121  0.7863233
  0.02190214  1.2315087  -0.23688823 -0.28434128  0.42603287 -0.8530543
 -0.23587547 -0.2950554 ]
[-0.13178308  1.6258019   0.17713153 -0.9067734  -0.5308248  -1.133997
  0.08900508 -1.2080997  -1.164055    0.17518029  2.14381     0.9384673
 -0.3238144  -0.42410317 -1.1870453   2.2173924  -0.5851167  -0.3105642
 -1.118203    0.6137953 ]
[-1.479019   -0.5719271   0.05175152 -0.8688246  -1.0200377  -1.3687193
  0.91529006  1.0535287   0.7027434  -1.2514436  -0.34529752 -0.9618623
 -0.46794313 -0.08581553  1.0767046  -0.43999106 -0.7761092  -2.7122872
  0.16800658  0.53860945]
[-1.027436   -0.32066342  0.5110561  -0.7472226  -1.5832179  -1.2727656
  1.0296494   1.1170957   0.22967422 -1.3249372  -0.7230189  -0.53755486
 -0.8979166  -0.06698471  1.7160305  -0.13983922 -0.9594655  -2.4265878
  0.07735559  1.1845312 ]
[-0.8776162  -1.9463242   1.2277839   0.35264882  0.7154636   0.6743867
  0.37192848  0.38918486 -0.12435351 -1.5180576  -0.8585965  -1.5050906
  1.5162555  -1.1595182  -0.41738084 -2.0099003  -1.5016619   1.2955765
  0.7592739  -1.7722385 ]
[-0.64846367  1.684303   -0.48476002  0.74521965 -0.76399976 -1.0415217
  1.7575052   0.46460274  0.3761157   0.5667813   1.1316278   0.22891803
 -0.25918713  0.17555362 -1.0786443   0.47412455  0.59888256 -0.6191382
 -1.5048134  -1.616076  ]
[-0.6187891  -1.4670962  -0.7199221  -2.6820948   0.20719579 -1.9386653
  0.86328125  0.9333998  -0.8443153   1.9541613   0.04498515 -2.0667224
 -1.3395845   0.3224533   0.11162539  0.5827078  -1.1640395  -0.42923397
 -0.9172771  -0.45795748]
[-0.59344864  0.22001041  0.43202    -0.10526108 -1.3438984  -2.664783
  1.4656664   0.74959505 -0.11454933  1.5000539   1.3080597   0.09545206
 -1.1527482   0.4528489  -0.48697305 -0.4891493  -2.698664    1.1545855
 -1.0671296   1.061458  ]
[-0.8055947   3.0224383  -2.4797068   3.9367576   0.3645805  -1.315329
  4.161325    0.13772848  1.7514802   1.2459279  -0.8519059   0.5386467
  0.28844136  1.4347955  -1.7692548  -0.7526519   3.3795824  -2.708433
 -1.4184068  -1.4263527 ]
[ 0.770234    1.768175    1.9911251  -3.0414038   1.174747   -0.29184347
 -1.57103     0.14440377  0.0580421   0.16606803 -0.36542764  1.9638457
  1.3666021  -0.9945838   0.3874436   0.65742564 -1.8656073   1.3189949
  1.046881   -1.0471398 ]
[ 1.2609953   0.68362755  0.32605922  0.65315837 -0.366488    0.23628749
 -1.1650598   0.28759974  1.6169348   0.17562282 -1.0088516   1.3464485
  0.3885088   0.04357612  1.294492   -0.12678032  0.77152073  3.9580824
  1.1366124  -1.4560351 ]
[ 1.9583012  -0.1433056  -1.1700389   0.95818317 -2.1277308  -0.86031055
 -1.3955408   1.7284198   1.7522126  -2.0227802  -0.42828834  1.2433447
 -1.3734801  -0.03392265  1.1733972   0.4450455   0.19526303  0.01205127
  1.2045215  -2.0376837 ]
[ 1.2434685   2.440219    2.223744   -2.0422208   0.6001672   0.3423358
 -1.4029065   1.416158    1.1116081   1.1956147  -2.1837747   5.5703692
  0.18245012 -0.7340798   1.0554187  -1.2463453  -0.31125274  2.263953
  2.6999505   0.16458581]
[-3.4197145   1.2006932   0.44435763  3.1226811   2.4243321   1.1894314
  2.4701545  -2.0792193  -2.4589708  -3.537837    2.9423769  -0.84660894
  0.7058599  -0.35086703 -2.76541    -0.40131056 -2.9292285  -1.005815
 -0.7584306  -2.1967218 ]
[-1.5230039   0.3451977  -0.23454046  0.5133066   0.40842652  0.75548774
  0.23819043 -0.02754929 -0.6031358  -1.3281792   1.4303995   0.18550618
  0.08907638  0.10274728 -1.7697939  -1.3665152  -0.3149952  -2.7990732
  0.1112697   2.213828  ]
[-2.0659294  -0.60809207  1.040456   -0.01211921  2.3933036   2.4621952
  1.2402328  -2.8259058  -1.9218669   1.8265665  -0.25249416 -1.6152332
  2.562234    0.0208759  -0.5345424  -0.19948187  2.5852637  -0.9308
 -0.20532782  0.9039884 ]
[-1.3515548  -1.3018467  -0.74467397  0.3955441   2.009069    1.6500164
  0.28772107  0.25230196 -0.13420326 -2.330124   -0.652305   -2.080887
  1.691862   -0.40428895 -0.56108826 -2.957741   -2.9615726   0.21332365
  0.28274748 -2.1348164 ]
[ 1.023317    0.0694061  -1.102242    0.0557222  -0.38993204  0.25601584
 -0.50845796  0.19394878  0.30427092  1.0549234  -0.24875532  0.49795055
 -0.69020057  1.2363521   0.6903      0.12113412  0.9658483  -0.6618747
 -0.0295738   0.8958877 ]
layer 1 Activation
tanh
layer 2 Dense
20 40
[-0.027723    0.37189123 -0.14614107 -1.354511   -0.5795079   1.3621271
 -4.129926   -1.2500855  -0.13333046  3.1068587   0.23356046 -1.5739083
  1.8488225   1.1550418  -1.5373064   0.88786495  0.15981619 -0.1410273
 -1.6390157   0.19560665  2.2380292   1.2532374   1.0663167   0.14939187
 -0.58274984 -1.6492925   1.0508196   0.4705412  -2.1862674   0.47537255
  0.10639448 -0.9110775   2.3733168  -0.9343522   1.3900032   1.1644827
 -2.6086082   1.2061464  -2.7139826  -1.734165  ]
[ 0.4096786  -0.6410325  -0.11650197 -0.5018897  -0.59632945  0.20234253
  0.2520424   1.3033442   0.864233   -0.14621077 -0.28879794 -0.14536318
  1.1942681  -1.5959653   0.805875    0.44735754  0.33174136 -0.5370054
 -0.60594445  1.3524776   0.32968602  0.6961038   0.30285898  2.0753763
 -1.123819   -0.37887156 -1.0210594   0.72961116 -0.0335741   0.69554824
  0.05758468  0.5334664   0.9966891  -0.242124   -0.16624917  1.1658887
 -0.27168873 -1.1092347  -0.36886206  1.1325927 ]
[-1.1532867   0.30688706 -0.6639883   1.2343737   1.1241528  -1.2498201
  0.8497982  -1.2609003  -0.5725847  -0.20131558  0.7969708  -0.5726401
 -0.16671242  0.43849126 -0.31065512 -0.79627746  1.9829237  -0.18289952
 -0.92355734 -0.55690706 -0.5780378  -0.6904757   1.2497177   0.08880611
  1.470594   -0.6020219   1.1833316  -1.1678816   0.02186945  0.50747705
 -0.7984867  -0.02489678 -0.25503904  0.554831    0.12901053 -0.5802354
  0.85370046  0.27647576  0.38612252 -0.36238748]
[ 0.61180913  0.17411363  0.4474991  -0.71457964 -0.11536611  1.3966408
  1.4381754   2.8817766   0.04386219  0.31632587 -0.1872126   0.15548173
 -0.775153   -1.9521848   0.04450978  0.02611909  0.46050298  0.7952098
 -1.06064     0.826681   -0.7472577  -0.349427    0.3413596  -0.4471118
 -1.1063144   0.58315074 -1.5623832   1.314676    0.22903657  0.29490364
  0.87450236 -0.7621417  -0.15056889 -0.45394623 -1.0134611   0.8047237
 -0.1247933   0.44491398 -0.8937998   1.3407251 ]
[-0.06247449 -0.8687507  -0.15229906  1.2940993  -0.8347571  -1.3580698
  0.99554664 -1.399738    1.5951084  -1.8059466  -0.14768763  1.2593925
  0.9039141  -0.27869943  2.018719    0.9247696   0.61199415  0.7531673
  3.0262005   0.6293285  -0.69623315  0.11956867 -1.1494659   0.64832485
 -0.67227757  0.30125436  0.6644427   0.07419261  2.660324    0.6068052
 -0.05249823 -0.46433902 -1.2457904   2.6514368   1.156075   -0.47452426
  1.9314255  -0.40408608  1.6324941   1.1043125 ]
[ 6.1534536e-01 -1.7583987e-01 -1.2267243e+00  8.4726351e-01
 -4.7170326e-01  8.4609340e-04  7.9343206e-01 -1.2185282e+00
  2.0672033e+00  1.3954785e+00 -4.5238099e-01  1.1128980e+00
 -8.9404595e-01  9.7210103e-01 -1.0840226e+00  1.4716755e+00
 -2.8624585e-01  2.6302960e+00  2.0082436e+00  1.9270066e-02
 -1.7238629e+00  5.9345800e-01 -5.5597699e-01 -7.2328317e-01
  4.6966091e-01  1.1795709e+00  8.9801824e-01  8.8955380e-02
  2.4186311e+00 -1.7820910e+00  1.2477554e-01 -5.8279496e-01
 -1.1232417e+00 -2.2160022e-01 -7.8820080e-01 -1.5361633e+00
 -5.3107405e-01  3.3200395e-01 -6.2558526e-01  1.1914968e+00]
[ 0.86180633 -0.7199707   0.79953736  0.15396674 -0.03857161 -0.41512048
  0.3959539   0.65875506  0.34023094 -2.760648    0.3568545   3.0613902
 -1.5298337  -3.1902409   2.138146   -0.3542614   0.934927   -0.61643547
 -0.3578287   1.0077673  -1.227667    0.61342263 -1.2058685   2.3980722
 -0.19722073 -0.15147303 -2.5756378   0.40340948 -0.2155088  -0.14748181
  0.39071375  0.08197904 -0.18926054 -0.6279149   0.00336546  0.36337647
  1.236208   -0.09217296  1.6769718   1.1586187 ]
[ 0.10185003 -0.4772469   2.3103328  -1.7917017   0.90658516  1.2578032
 -0.9976382   0.9180134  -0.37352931 -0.29470885  0.18870173 -0.86149204
  0.37331867 -0.843992   -0.30907756  0.09105024  0.57647747 -1.2962822
  0.36638469 -0.51046056  1.1352721  -0.083329   -0.3481764   0.22326262
  0.20160912 -1.7718182   1.3197753  -0.39840418  0.23489206 -0.6799396
 -0.35974926 -0.548595    0.38120553 -1.3344201   1.4322017  -0.5225205
 -0.72180736  0.1361983  -0.55979186 -0.62066317]
[-0.98212904  1.1305673  -0.53463084 -0.872503    0.1002201   1.0049129
 -1.725772   -0.1876838   0.4568535   0.69611377  0.19494148 -0.93920547
  1.7522502   0.15883964 -1.4439117  -0.11258825  0.31218824  0.08358934
 -0.5284394   1.0315071   0.3665619   0.77517766  1.5072325   1.447983
  0.38838577 -1.2341322   0.53749067 -0.12665525 -0.7358048   1.9014995
 -0.33911467 -0.54559577  0.7837207  -1.2998774   0.8876296   0.7706888
 -0.9797005   0.35430306 -0.2934929   0.5148794 ]
[ 0.31176412  0.81182235  0.9457601   0.10240326  0.23553914  0.78418255
 -0.521996    0.01019575 -0.9930332   0.0736818  -0.4324705  -1.1446275
  0.893372    0.5055781   1.8037375   0.19968003 -0.64867187  0.83563924
 -0.91254056  1.5890518  -0.44938615  1.3184962  -0.65184546 -0.5126954
 -1.7145222  -0.14061673 -1.4673629   1.4374733  -0.37465066 -0.15504418
  0.85325456 -0.65739435  1.2171057  -0.5450752  -1.034072    1.2699144
 -1.2242388  -0.09518363 -0.20534329  1.9886363 ]
[-1.1350974   0.41524154  0.48504847 -1.1112635   0.25088736  0.11865114
  1.3691025  -0.7260994   0.07303438 -1.0223331   0.00747278  1.4831088
 -1.5622431   0.13087846  0.7329783   0.9466622  -0.53077006 -0.9793792
 -0.61837256 -0.58099765  0.73519075 -1.5845973   0.41551223  0.7608023
 -0.14214875  0.70923847 -0.7953502   0.03733545 -3.2634182   0.00600664
  0.37006453 -0.13405496 -1.1484375   0.510605   -0.65568095 -0.18815583
  0.6207478  -1.3492621   0.42627925 -0.2322496 ]
[ 0.6703416  -0.30925125 -0.0814924  -0.39347187 -0.33389425  0.60679257
 -1.0138288   1.821987    0.7868727   1.2728028  -0.51810104 -1.4463594
  2.1053412  -0.49088144  0.91918445  0.58497924  0.3413479   0.33839646
 -0.56662816  1.5968312   0.9237431   0.29151988  1.1393837   1.9602352
 -1.1464381  -0.3642118  -0.5299366   0.42047146  1.0098221   0.7574527
  0.01007719  1.1694108   2.0808415  -1.6862425  -0.20024268  0.75602955
 -1.3470227  -0.8487233  -1.0591981   1.2399117 ]
[-0.8003069   0.34645528 -0.7533573   0.62246823  0.8181617   0.9165478
  0.05674943  0.71744674  1.9640865   0.4301596   0.39421418 -0.02952133
  0.23710136  0.7853815   0.76128304 -0.8391369  -0.04913728  1.2420435
  1.7564917  -0.09142373 -1.1756388  -0.9196396   1.1196824   0.3416513
  0.34438375  0.0602586  -1.0589064  -0.40455252  1.2110153   1.1664094
 -0.8567731   0.9597421  -0.21085192 -0.21804698  0.7050939   1.1486727
 -0.66663164  1.8733491   0.5070998   1.2502855 ]
[ 2.0351202  -2.6020749   1.7028557  -1.9218976  -2.312619    1.4182397
 -0.5672298   1.0309505  -1.1876606   0.604951   -2.362341    0.43434125
  1.1148162  -0.74726456  0.5674862   2.45074    -2.0988867   0.35603356
 -0.40370107  1.6183964   1.2257757   1.1632378  -0.6106819   0.49957755
 -1.917158    0.70059836 -0.935431    2.7335358  -0.5141597  -1.8726134
  1.9877304  -0.7470234   0.7930465  -1.0620984  -1.6882397  -1.2263116
 -0.5318816  -1.8804095  -0.2515245   1.1245813 ]
[-0.06081403 -0.01479929  0.18374857  0.66389424 -0.10821456  1.3077226
 -1.6622678   0.09406181  0.38856593  0.8259357   0.26715392 -0.7999372
  0.8166202   0.16569486 -0.4124964   0.5514337  -0.19397815  1.1122558
  0.10007169  0.1869681   0.27471     0.07018162  0.32427138 -1.0155865
 -0.22747053 -1.525841    0.2593698  -0.26598114  0.08080789 -0.85012126
 -0.24021038  0.4444933   0.7672273  -1.4531      0.6642968   1.4098148
 -1.6830318   0.85640806 -0.6586626  -0.34320214]
[ 0.5011046  -0.81063575  0.2366544   0.03954547 -0.48472965 -0.3961368
  1.7055396  -0.19822231 -0.73136     0.8161972  -0.09358631 -0.37492797
 -0.15255262  1.4260906  -0.7226201   0.2339365  -0.6082326  -1.1136811
 -2.1629608  -0.9699449   1.5978597  -0.49796218 -1.1172217  -1.0358593
 -0.22386177  2.0491922   0.4414331  -1.1432898  -1.7844713  -1.0258577
  0.06794216  1.7162359   0.82103735  0.7279891  -1.7300668  -1.1246855
  0.29679233  0.6164045  -0.27108103 -1.5021976 ]
[ 0.02010407  0.22465105  0.2623921   1.1503087   0.7597095   3.0389466
 -0.45045438 -0.45715755 -0.7562343  -0.88310456  0.21132922 -2.2427075
  1.7767168  -0.52241206  2.3301167   0.04049117 -0.70245075  0.9306551
 -1.1522324   1.573388    0.6397683   1.564055   -1.7675903  -0.36056694
 -1.7868377   0.7079825  -2.0104537   0.20200154  0.17143644 -0.674482
  0.15400861  0.7688876   1.7775692   0.8565297  -0.26732126  1.0171077
 -0.39816827  0.8507462  -0.1119433   2.05566   ]
[-1.2401195e+00 -1.4743621e+00 -1.0744737e+00 -3.6529955e-01
  1.8435369e-01  2.4492049e-01 -7.4649644e-01 -9.7240344e-02
 -9.2642577e-03  1.5995286e+00 -5.1370857e-04 -1.0816412e-02
 -4.0312493e-01  3.5021901e-01 -8.0604446e-01 -1.1345872e+00
 -3.7371439e-01  6.2761515e-01 -1.2988282e+00 -2.0577030e+00
 -1.7210221e+00 -3.4389481e-02  2.5962455e+00  4.6178314e-01
  1.4576321e+00  3.1246877e-01  9.2184907e-01 -4.6456176e-01
 -1.1408453e+00  8.8490111e-01 -4.0966964e-01 -8.2034409e-01
 -1.7705491e-02 -2.0119147e+00  1.3392183e+00 -1.9811543e+00
 -1.4910831e+00  1.3775566e+00 -9.9889636e-01 -1.6689272e+00]
[ 0.32527938  0.57087123 -0.7210697   0.03776338  0.18564722  1.2187637
 -0.17654945  0.19200823  0.57555485  0.45279866  0.4751386  -0.8746814
  0.68984383  0.16470727 -0.69914865 -0.24436384  0.45329687  0.7746045
  0.52907085 -0.4810745  -0.12358244 -1.5181456   0.1521489  -0.9808764
  0.5497732  -0.63069135  0.7845868  -0.8225743   0.38136908 -0.8502623
 -0.5084328   2.2361772   0.7879765  -0.9714364   0.16132358 -0.3964285
 -0.91776097  1.0802915  -0.86168146 -0.3896369 ]
[-0.52209246  0.22209352  0.72307867 -0.6922982   0.0033685  -1.093692
  0.6410433  -0.7424478  -2.3048494  -1.835212    0.23474348  0.7587985
  1.3904587   1.5622528   1.1489692  -0.35105798 -0.07532284  0.51447654
  0.36237064  0.7499682   0.84345806 -0.38994294 -1.5529004  -0.34229594
 -0.44496277  0.7679997  -0.19455443 -0.23893    -0.17320548 -1.2625428
 -0.25230366 -0.07400519  0.6305718   0.72017294 -1.0916604   1.2193387
  1.4651324  -0.99607635  1.5693746   0.57601976]
[ 1.5107694  -3.056359    1.7134688  -1.6581589  -1.9255266   1.3555996
 -0.47240543  0.74151516 -1.501936    0.81490344 -1.6855754  -0.09229717
  1.2220118  -0.5974443   0.80274695  2.3058004  -2.2974036   0.44210783
  0.08005738  1.2951823   0.8028703   1.4911028  -0.4244646   0.73324543
 -2.3856452   0.7047692  -0.9877502   2.6452866  -0.29718447 -1.389654
  1.9575524  -0.8835265   0.8399493  -0.8471226  -1.424081   -0.9606527
 -0.9151918  -1.4767925  -0.48290184  1.1316253 ]
layer 3 Activation
tanh
layer 4 Dense
40 20
[-1.0644786   1.5116923   0.53015584  1.331932    0.4453543  -0.37424868
 -1.0058609   0.6039716  -0.37446207 -0.7372973  -0.6381022   0.17088488
 -0.14889207  0.16035105 -0.19568904 -0.00212441  0.05542905 -0.1742468
  0.88129073  0.08566748]
[ 0.87879205 -1.0604141  -0.604822   -1.1876378  -1.176953   -0.13404293
  0.6321661  -1.2785099  -0.07027736  0.9842265   0.7173595  -0.60245705
  0.15779041  1.2124891   0.9713652   0.83582395  1.5265675   0.6436442
 -1.1966097  -1.3681037 ]
[ 2.9792395e-01  8.7598056e-02 -3.1160322e-01 -4.2169280e-02
  2.6455581e-01  9.5164455e-02 -7.3837399e-02  7.3531008e-01
  6.6369164e-01 -4.1348331e-02 -1.6238956e-01 -2.2844810e-02
  2.6374156e-04  9.7009540e-03 -1.2925583e-01  1.2227242e-02
 -1.1362401e+00 -7.7386326e-01  3.6399025e-01  7.6155752e-01]
[-0.19870536 -0.10028734 -1.2492664   0.73768264  0.04407398 -0.26311037
 -0.04038996 -0.24944952  0.1132568   1.2025489  -0.3846424   0.13030708
 -0.37780493  0.0522418   0.2686072  -0.17534162 -0.39314497 -0.57115066
  0.56326556  0.01338439]
[ 1.3389176  -1.0965527  -1.0061389  -1.5153124  -1.359449    0.39408305
  1.139872   -1.1036285  -0.2495124   1.7607626   0.06841661 -1.1585349
  0.8217682   0.5772626   0.34218797  1.026892    0.74092454  0.41484877
 -1.1809871  -0.676318  ]
[-0.19347702  1.0671097   0.9223151   0.11600013  0.08322208  0.9001093
  0.05136324  0.5095159  -0.5857797  -1.4403181  -0.6890952   1.6260912
  0.1590258  -1.6247545  -1.7612003  -1.8805695  -1.4079639  -0.35450414
 -0.36776942  1.6220678 ]
[ 0.452288    0.2601519   0.04308221 -0.43678182 -0.16679461 -2.7529268
  0.45793805  0.5124089   2.4727445  -0.41583672 -0.48018393  0.39186963
  0.06551911 -0.65288603 -0.4935068   0.16323343 -0.9134307  -1.2888638
 -0.06646181  0.16881669]
[-0.31177416  0.3638712   0.7822735   0.0094314   0.08886272 -0.9033265
 -0.3089866   0.4528326   1.073989   -1.4261523  -0.6175074   0.93841916
  0.02248522 -0.55524415 -1.5074592  -1.2464073  -1.2797279  -0.34722063
  1.0122073   1.3927989 ]
[-0.40299743 -1.1819812  -0.09570041  0.19078276 -0.06483309 -0.3746841
 -0.5306506  -0.6652498   0.47757855  0.6601423   0.6524308  -0.42201847
  0.0607824   1.2737833   0.6205645   0.12090939  0.9056948   0.7229835
  0.096123   -0.4727451 ]
[-0.10836728  0.37153062 -0.21277058  0.15820071 -0.0346208   1.9580007
 -0.35841623 -0.00610037 -1.9355247   0.5452856  -0.40173614 -0.43438873
 -0.08583536 -1.4291815  -0.53191054 -0.9262122  -0.36959854 -0.28096122
  0.23427509 -0.24976951]
[ 1.4592328  -1.10024    -0.8585972  -1.0426502  -1.1665801   0.18760577
  0.6452317  -1.2696296   0.41593626  1.4625448   0.8467118  -0.7105501
  0.9038303   0.7521612   0.91013324  0.7609436   1.1710488   0.81358665
 -1.0989114  -0.686729  ]
[-0.321141   -0.6201055   0.17995909  0.23351839 -0.04825607 -0.9477759
 -0.20939468 -0.51540893  0.74031717 -0.2877508   0.44561124 -1.1297786
  0.07361835  0.3250173   1.1630467   0.6149266   1.4152892   1.4211763
 -0.60047424 -0.022346  ]
[ 0.40634456  0.74829745  0.86062026  0.2654053   0.3501065   1.3089421
  0.22015959  0.9352231  -1.5784216  -1.2842007  -1.7503498   1.8917251
 -0.13711973 -0.5161321  -0.564533   -0.87459546 -1.4601625  -0.5046305
 -0.17597115 -0.12014738]
[ 0.01204629 -0.63644034 -0.09069806 -0.3892542   0.31035504  0.1607039
 -0.2711735  -0.8056573   0.03961828  0.40498358  0.52078    -1.2223223
  0.01327296  0.54227895  1.9135402   1.5833348   1.4443235   0.7429546
  0.04917656 -0.94812363]
[ 0.34405133  1.4010025   0.99705875 -0.13379367  0.26907983  0.04014244
  0.06186082  0.85745054 -0.2860887  -0.32011908 -1.4309012   0.8974359
 -0.04222719 -0.3123493  -1.6342744  -0.72067654 -0.30429944  0.23772566
  0.8343032   1.278244  ]
[ 0.32446578  1.7952249   0.49663314  0.7097972   0.5723969   0.6785982
 -0.28127772  1.3130257  -0.3901595  -0.66833085 -0.67681044  1.2678945
 -0.3099456  -0.80765426 -0.4647017  -0.5328764  -0.72618186 -1.0404391
  1.4309872  -0.454492  ]
[ 1.1414711  -1.8022357  -1.266423   -0.9226297  -1.2671341   0.6296157
  0.98614913 -1.0675741   0.65658116  1.3394797   0.710009   -0.8907975
  0.50091976  0.5646998   0.6770086   0.85547465  1.060889    0.2073799
 -1.294636   -0.827616  ]
[ 0.29184067  0.24235253 -0.02586118 -0.19645363 -0.0164739  -0.13879514
  0.21043807 -0.18751381  0.13957964 -0.32350087  1.0750551  -0.46094745
 -0.0500988  -0.23612252 -0.89399457 -0.36194557 -1.0698321   0.8989335
  0.38993004  0.95514756]
[-0.12782378 -0.3578191   0.22542085  0.24247482  0.3856172  -0.6762313
 -0.13996266 -0.88273704 -0.6588271   0.5003371   1.4787867   0.29681733
 -0.19331744  1.8083965   0.9545912   0.6268898   1.1376586   1.7229637
  0.61845547 -1.7476072 ]
[-0.23568016  0.6346291   0.24347761  0.4724629   0.09617052  0.42280886
 -0.04053473  0.6332006  -0.44525984  0.05520891 -0.50013304  0.58109546
 -0.22358096 -0.6040189  -0.50606924 -0.6962781  -1.150998   -0.6950053
  0.24729285  0.31483778]
[-0.4799411   0.00576582  0.49674958  0.32987976  0.45228583  0.15916863
 -0.2955633   0.57861704 -0.15930912 -0.59913534 -1.7764728   0.77101105
 -0.02198094  0.06152311  1.3412663   0.2660568   0.11900007 -0.40445578
 -0.7473281  -1.0675455 ]
[-0.5621081   0.02881073  0.2865452   0.79855615  0.28627238  0.67896056
 -0.5133687   0.31449908 -0.462356    0.1740297  -0.8344233   0.20385812
  0.42240137 -0.7149274  -0.01177037 -0.11994658 -0.81824684 -0.8579569
  0.02404581  0.6331463 ]
[-0.3175392  -0.04210556 -0.6352376  -0.08305182  0.10606569  0.55766255
  0.2634978  -0.50979376 -0.19831166  0.22774018  0.9301944   0.18863639
 -0.01622998  0.66601586  0.37664542  0.27761853  0.5754512  -0.1864258
 -1.0317901  -1.0173233 ]
[-0.22705007 -0.06562636  0.20338319 -0.17167376  0.03462787  0.23352818
 -0.04078396 -0.29512125 -0.17989941 -0.95749456 -0.16317274 -0.21643248
 -0.03902824  0.14367303 -0.1980547  -0.6344879  -0.5343363  -0.6071548
 -0.62648934  0.5967659 ]
[ 0.5596806  -0.51466435  0.05687955 -0.2633013  -0.47830394 -1.2315438
  0.56790406 -0.5993841   0.19559284  0.9496093   1.6648177  -1.0909281
  0.22013701  1.0223098   1.33244     0.6621777   0.42711726  0.36643845
 -0.7815679  -0.8531113 ]
[-0.01153417 -0.79724777  0.45379817 -0.6825021  -0.7045027  -0.23548855
 -0.13640681  0.2513054   0.3055845   0.06570956 -0.13002288  0.1073307
  0.07362235 -0.78808576  0.27574682  0.42508546 -0.53431565 -1.4612292
 -0.2223163   0.2013497 ]
[ 0.02264375 -0.51096755  0.01479736  0.26976588  0.21850911  0.14692089
  0.57511735 -0.5910868  -0.40423584  0.5790434   1.987171   -0.8598157
 -0.5446882   1.4470503   1.4817979   2.0026214   2.1330898   0.7852418
 -0.52187485 -0.9361689 ]
[-0.8094155   1.6114682   1.521654    0.62381864  0.32728156  0.36275855
 -0.81634194  1.0597652  -0.28570104 -1.6314026  -1.1936055   1.3213935
 -0.07901457 -1.6498418  -2.13543    -2.6831832  -1.2779084  -0.7963696
  0.34775528  2.2836423 ]
[ 0.25327203  1.5364237  -0.36264366 -0.16064323  0.07805842  1.0920042
  0.15123756  0.6203938   0.18176146  0.62904507 -0.9401906   1.081463
  0.01449092 -1.2863019  -1.326218   -0.95525974 -1.5405663  -1.7626345
  0.00614106  1.1046062 ]
[-0.07559196 -0.66265386 -0.62967294 -0.05916065 -0.24645735  0.27037883
  0.08267418 -1.4299141  -0.43517962  0.32153088 -0.00520515 -0.30142564
  0.10752486  1.0979478   0.65154266  0.37936372  0.69975704  0.70745933
 -0.83481884 -0.63276774]
[-1.002118    1.2112137   0.99208564  0.6262253   0.5718989  -0.12387542
 -0.8504754   1.2908278   0.16983809 -0.8998147  -0.79069793  0.8087146
 -0.41407636 -0.8687996  -0.6060291  -0.9363098  -0.9706882  -0.8347066
  0.82708114  1.0195987 ]
[-0.12287525 -0.28445917 -0.5230344   0.47155654 -0.06549563 -0.48991394
 -0.09641603  0.29313904  0.3622232  -0.08984821 -0.24661185  0.11797958
  0.06651592  0.16679366  0.0669708   0.75563663  0.24074109  1.0688331
  0.6534825  -1.1475307 ]
[ 0.0631649   1.011668    0.53918916  0.41913623 -0.00348559  0.9045272
  0.4172508   1.170142   -0.8933161  -0.62058485 -1.2645835   1.6438633
 -0.08194229 -0.399238   -0.5986267  -1.1773239  -0.5253901  -0.00181617
  0.46215957  0.6278422 ]
[-0.2898471  -0.18412936 -0.1550499   0.39120364 -0.00165118 -0.7298815
 -0.2887459  -0.43781254  0.87716216 -0.01512298 -0.07503693 -0.05809278
  0.06560994  1.3852135   1.0961983   0.9565617   1.4657123   0.53618354
 -0.3572222  -0.9824249 ]
[ 0.35992798  0.27517194 -0.06082822 -0.6810362   0.02351893 -0.4359456
  0.6515848  -1.0579195  -0.4561887   0.10648153  0.98902327 -0.21875937
 -0.22810951  0.4601841  -1.2535874  -0.36042228  0.4863123   0.7800315
 -0.27384055  0.46996346]
[ 0.6663615  -0.08244412 -1.29415     0.05213648 -0.5745235  -0.1717028
  0.13228667 -0.5148433  -0.04067925  0.6996718   0.09706341 -0.07616796
  0.04939085  1.00842     0.70591986  1.0223083   0.6405099   0.9269427
  0.33889621 -0.57269084]
[-0.18083215 -0.35526645  0.2032313   0.03173567 -0.04793271 -1.531335
  0.35557413 -0.5026375   1.688444   -0.21785274 -0.19786596 -0.07392747
  0.04681997  0.7975443   1.079158    0.94984186  1.3673486   0.1393595
 -0.9081953  -0.435156  ]
[ 0.02810013 -0.50588894 -0.73433125  0.0955357  -0.09077042 -0.20637684
  0.1419655  -0.98511666  0.20241709  0.18333492  1.0578775  -0.26471815
  0.18235683  1.495559    0.59108084  0.7847186   0.58279455  0.1563839
 -0.6646347  -0.74285597]
[ 0.18768577  0.52626926  0.31562677 -0.14976385 -0.06967894 -0.62850094
  0.17309944  0.38811636  0.6538357   0.03336233 -0.11397959  0.27861804
  0.00108671  0.46859273  0.09426811  0.589183    0.11284113  0.2641404
 -0.24808897 -0.09104782]
[ 0.28374532  1.3774117   1.2098981  -0.33596396  0.34803608  0.20245792
  0.11182466  1.6708703  -0.35445657 -1.3639408  -1.8366741   2.4064763
 -0.15326618 -1.6863029  -1.1809788  -0.9853422  -1.6993163  -0.7620612
  0.7294728   0.6672809 ]
[-1.0847197   0.65358657  1.1387836   1.0648432   0.8088067  -0.27437353
 -0.95654136  0.9821821  -0.2894521  -1.587997   -0.7465361   1.54252
 -0.852992   -0.82047987 -0.6296299  -1.0114949  -1.2997522  -0.6101934
  0.97736514  0.66169935]
layer 5 Activation
tanh
layer 6 Dense
20 1
[-2.744451]
[-1.8506454]
[0.16534546]
[2.7207024]
[2.3698637]
[-0.9959137]
[-2.998249]
[-0.31428692]
[-0.9995998]
[0.47249627]
[2.02278]
[-2.4030461]
[-2.3696883]
[1.9545481]
[1.609089]
[1.616585]
[2.5156238]
[2.6757107]
[2.082034]
[-1.4295915]
[3.3831186]
