layers 7
layer 0 Dense
20 20
[ 0.33693963  0.34851706  0.31972826 -0.100269   -0.35346437  0.7694038
 -0.07961566 -0.16585083  0.2640774  -0.19878875  0.22132845  0.1727357
 -0.09008485 -0.12746404  0.2835496  -0.06608516 -0.30020908  0.13198839
 -0.21946454  0.10832623]
[-0.28886694 -0.27160662 -0.25673172 -0.01667226  0.00614437 -0.3305867
 -0.26409557  0.04556948  0.26694095  0.17637736 -0.6222795  -0.5001513
 -0.14941213 -0.45409137  0.0227617   0.07862131 -0.46657982 -0.43579486
  0.61955905 -0.29944792]
[-0.18275636 -0.2534896   0.03713536 -0.47031975  0.17980424  0.04710419
  0.2607663   0.10322202  0.17982966  0.36727846 -0.0743142  -0.07322094
 -0.11772026 -0.51007444  0.19244911  0.16741003 -0.5884987   0.08899728
  0.81189567  0.12076101]
[-0.24051945 -0.34019405  0.29898244 -0.2712525   0.10588057  0.36771578
 -0.03100102  0.04797964  0.28827456  0.31364432 -0.02702724 -0.13684984
  0.4434653  -0.04080034 -0.21669197 -0.27366668 -0.13821442 -0.097868
 -0.296853    0.44587636]
[-0.21650858 -0.27665102  0.5676626  -0.0355951   0.5090504  -0.2005876
  0.00863164 -0.32742402 -0.29176474  0.21309094 -0.266061   -0.1191344
 -0.5555252  -0.01755057  0.33056217  0.05739852 -0.4140317  -0.13200073
  0.20270862 -0.42678973]
[ 0.31133118  0.09436877 -0.3084025   0.16012745 -0.5678225   0.13423087
 -0.28670362  0.40075892 -0.29144084 -0.34705007  0.4110657   0.11126545
  0.41122884  0.15882161 -0.05536099 -0.46992463  0.29799965  0.45386526
 -0.6265115   0.2929159 ]
[ 0.35187072  0.20920065 -0.3710604   0.09545416 -0.19913845 -0.18331277
 -0.36903602  0.00869388 -0.01373508 -0.36870694 -0.02395251 -0.12840293
  0.3396895   0.44837993 -0.14878465 -0.09687571 -0.07513054 -0.236174
 -0.49608755  0.6095764 ]
[-0.0262748  -0.25488737 -0.26034638 -0.26293308 -0.2607253  -0.21655717
 -0.24907486  0.04843524 -0.302321    0.36470315  0.10518154  0.05945792
 -0.11796095  0.17672764  0.02810226 -0.2494731   0.29652894  0.30789894
 -0.23891303 -0.18321039]
[ 5.08038878e-01 -7.22057447e-02  4.79686588e-01  4.02340800e-01
  1.97737142e-01  1.20302372e-01 -7.79401287e-02  2.12031275e-01
 -1.32823382e-02 -5.14552593e-01  1.28773615e-01 -2.99573392e-01
 -1.59444198e-01  4.13304895e-01  4.94710403e-04 -1.59965023e-01
  1.07708976e-01 -2.07366407e-01 -2.52142120e-02  3.75954032e-01]
[-0.07426773  0.07195998 -0.01816377 -0.6185349   0.41337463 -0.4460988
  0.2676391  -0.28882256 -0.11351837  0.00528007  0.6644778   0.35014105
 -0.00902605 -0.7694684  -0.30629304 -0.8852021  -0.04785391 -0.55331814
 -0.10839052  0.07536049]
[-0.17362116 -0.26403266 -0.16618495  0.05971238 -0.41292307 -0.16167441
  0.05129074 -0.08451904  0.199925    0.27929235 -0.27575454  0.45742717
  0.31366503  0.10382133  0.42687643  0.2544903   0.43118995  0.3050761
 -0.10339577  0.41632354]
[-0.82025176  0.05400908  0.11193942 -0.23768842 -0.24613012  0.45676628
 -0.24936229 -0.76603526 -1.0019655  -0.0486473  -0.24474274  0.24704786
  0.22930644 -0.17160521 -0.23390596  0.43881407 -0.09007245  0.26174018
 -0.5631031  -0.60855025]
[-0.51484466  0.37871197  0.21258019 -0.50187737  0.07907441  0.33733726
 -0.54846483 -0.59517914  0.49982074 -0.09978888 -0.1346228   0.53229874
  0.4396874  -0.40316105 -0.6069846   0.03943185 -0.66967595  0.27135015
 -0.3110356  -0.03430269]
[-0.05266981 -0.5480552   0.68421435 -0.02877197 -0.7045234  -0.39490604
 -0.9046041  -0.05675795  0.96123034 -0.20749314  0.02630392 -0.5271775
 -0.19544008 -0.10688444  0.72305644  0.40403926 -0.16599345 -0.20775244
  0.28648236  0.28574842]
[-0.20533042  0.0585556  -0.08141214  0.6632149   0.18772799 -0.19615048
 -0.42409068  0.74017715  0.53398854 -0.8247754   1.1052111   0.41305444
 -0.36706161 -0.21868742 -0.21020773 -0.6992562  -0.39749524 -0.8609505
 -0.5334834  -1.0120934 ]
[ 0.80380505 -0.47017768  0.19426422  0.5055749   0.799893    0.79528874
  0.03765169  0.16466644  0.8404737  -0.9535995  -0.17540792 -0.17677857
  0.96978533  0.12243928 -0.62241554 -0.0661623   0.22679973 -0.39374253
  0.7689597   0.7783425 ]
[ 0.19663025 -0.32744688  0.28101167 -0.24770921 -0.00189826 -0.06044773
  0.09553199 -0.02840481 -0.39183643 -0.08050063 -0.14667402 -0.39660653
 -0.35500437 -0.18351287  0.24367914  0.02616982  0.2918727  -0.06532245
  0.4771616  -0.12076221]
[-0.149546    0.40272626 -0.3413027   0.6496577   0.3400365   0.7513391
  0.5974982  -0.05161601 -0.21002306  0.3015178   0.01092327  0.04132888
  0.11107531  0.154019   -0.45803005 -0.08935377 -0.13815032  0.377664
  0.07713101 -0.0910032 ]
[-0.13034107  0.30617213  0.00422314 -0.4812596   0.17700641 -0.27641195
 -0.6496533   0.06000182  0.167402    0.04102142 -0.363382   -0.6693055
  0.04710931  0.4192636  -0.04996993  0.33896366 -0.5663872   0.29365143
  0.36712542  0.3885065 ]
[ 0.0927671  -0.12756032 -0.70972586 -0.03377388 -0.8881261  -0.16324526
 -0.09939314 -0.21218619 -0.03373461  0.5074895  -0.04904183 -0.0359056
  0.41377902  0.36484882  0.63282794  0.20418215 -0.15437008  0.14759317
 -0.6835929   0.02674528]
[ 0.02224429 -0.0590115  -0.04223954  0.02221144 -0.01891251 -0.10539424
  0.05007955 -0.03066731  0.03570217 -0.04271824 -0.06066044 -0.13067906
 -0.03271103 -0.02064379  0.0839633   0.032675   -0.02495493 -0.02045699
  0.0651508   0.05011272]
layer 1 Activation
tanh
layer 2 Dense
20 40
[ 0.04563167 -0.3530228  -0.05371593  0.1542073  -0.01852258 -0.19162649
  0.33319163  0.16721031  0.00609636  0.01645619 -0.1657387  -0.3186416
 -0.20882347 -0.20544809  0.13722631  0.06214092 -0.01027514  0.00498531
 -0.07695272 -0.12689318  0.1538033   0.0891943  -0.2099143  -0.42190868
  0.34412542 -0.25864202  0.36751086  0.14334568  0.05560207 -0.36233398
 -0.10014427  0.00236383  0.01396961 -0.24614522 -0.00860903  0.10860866
  0.24759981  0.04362294  0.18722372 -0.02765976]
[ 0.06597949  0.06380925 -0.14887185  0.21343507 -0.13264966 -0.21693768
 -0.01390739 -0.27291664  0.02601418 -0.07726992  0.35894012 -0.11817602
 -0.22240302 -0.03346716 -0.0196014  -0.07904527 -0.19513987 -0.04665298
  0.14784136  0.18265444  0.16711073 -0.12517832  0.18854155  0.31510842
 -0.17763488 -0.16476224 -0.07520663 -0.14273013  0.1301474  -0.00734656
  0.05510795 -0.30382285 -0.14318332  0.32862338 -0.02587272  0.41845196
  0.0291409   0.17848353 -0.17402348 -0.04270933]
[ 0.12177753 -0.13705239 -0.14427517 -0.16648945  0.17853482  0.3318196
  0.252456    0.2080968  -0.01946148 -0.04055106 -0.17892298  0.28495535
 -0.30015284  0.08442057  0.17565568  0.12618247  0.20136367 -0.01917599
  0.07441608  0.02536052  0.10558329  0.47142288  0.22880343 -0.49271798
  0.32841325 -0.16378742  0.18468572 -0.13491116 -0.11639979 -0.17212655
  0.20347458  0.24533647  0.26544496 -0.5476968  -0.16823635 -0.21969661
 -0.24739365  0.02543216  0.11310341  0.07593521]
[-0.0553783   0.16878116 -0.04856088 -0.33345702 -0.06522953 -0.09633322
 -0.01173618  0.36740008  0.0108105  -0.1715655  -0.33471775  0.51625794
 -0.49294686  0.06410328  0.21420704  0.10312192  0.37258136 -0.3096554
 -0.01902266  0.05892453 -0.00212351  0.12099829  0.22692202 -0.09924446
  0.2890216   0.03049707  0.18330409 -0.03776804 -0.18227518 -0.14033034
  0.5016616   0.38985294 -0.4392403  -0.2942032  -0.15822288  0.22239521
 -0.2827667   0.11741126 -0.26881036 -0.08506096]
[-0.20060618 -0.29695567  0.13000958 -0.3076281   0.04245062  0.33630967
 -0.32767674  0.37296396 -0.38231915 -0.30980295 -0.05058385 -0.42791367
  0.17180026  0.23972312  0.14096007 -0.4250919   0.05720245  0.1122141
  0.12413327 -0.05097279  0.19546655 -0.13776444  0.67014885  0.04367941
 -0.01908542  0.29788193 -0.26995695  0.01349465  0.03265394 -0.10009793
  0.13741282 -0.4987414   0.28606245  0.34912938 -0.00189123  0.1402503
  0.33581504  0.23831154  0.1829799  -0.09748405]
[-0.29950896  0.27743784 -0.31741825 -0.31085685  0.08818161 -0.15963304
  0.19239685  0.0891996   0.39511627  0.07541003  0.06908443 -0.31428778
  0.3094007   0.05137634 -0.3820937  -0.08128812 -0.31295282  0.0775367
  0.1942815   0.0937195   0.08595469  0.04758701  0.33800453  0.09386742
 -0.12197018  0.20812657 -0.27375796  0.09725777  0.26027876 -0.18377408
 -0.36460614 -0.31932694  0.07592019  0.05673591 -0.11462174  0.44783026
 -0.1360476  -0.3147761   0.17237963 -0.35120854]
[ 0.41903648 -0.22225912  0.14008586 -0.04403079  0.19587158 -0.15318158
  0.34817222 -0.00290069 -0.19071397  0.28525874  0.03478849 -0.11263579
  0.05965159 -0.42682585 -0.08658309 -0.26182315 -0.0859902   0.14940988
 -0.15048131  0.42054752  0.08886519 -0.0106489   0.33589217 -0.2805367
 -0.14104977 -0.18687584 -0.05489633  0.05360202 -0.09839857  0.0590213
  0.09884627 -0.45322147  0.20245573 -0.3998813   0.36229116 -0.00386386
  0.39687368  0.12267762 -0.28470805 -0.28861293]
[-0.30927357  0.24668306 -0.00793842 -0.44742963 -0.09510863 -0.12048684
  0.16750476  0.20056091 -0.09252087 -0.06562796  0.25534272  0.25610176
 -0.3770273   0.07504477  0.25932658  0.3417637  -0.09887191  0.13958342
  0.0226021  -0.20312437  0.03946043 -0.1814464   0.560772   -0.1502307
  0.33323374  0.06338504  0.18489349 -0.27526012 -0.05419107 -0.14650442
  0.21179087  0.23868321  0.15109056 -0.12732735  0.11764389 -0.08574812
  0.11700353  0.22541155  0.22252804 -0.16475303]
[-4.19397175e-01 -3.89022410e-01  2.99119115e-01 -3.25238079e-01
 -1.63459152e-01 -2.77401239e-01  5.15967190e-01  2.82867432e-01
 -2.95608938e-01  1.69400070e-02 -1.03916444e-01 -1.23618633e-01
 -2.42188439e-01  3.74627292e-01 -4.07789461e-02  2.85988122e-01
  2.48562828e-01  1.27758369e-01 -7.79943094e-02 -1.00443952e-01
 -1.25804141e-01  2.41055638e-01 -3.75718158e-03 -3.60243469e-01
  9.49704200e-02 -2.15047836e-01  3.84277373e-04 -8.79936516e-02
 -3.49772692e-01 -7.60851949e-02  1.70055881e-01  3.03205997e-01
  3.51562738e-01 -3.89343590e-01 -1.94549263e-01 -1.38746917e-01
  3.32476974e-01  3.90168466e-02 -3.31942290e-01 -1.08660787e-01]
[ 0.36368906 -0.15181097 -0.00204185  0.15051717  0.11612818 -0.43771854
 -0.39197582 -0.05755644  0.04070605  0.03340787 -0.04380028 -0.06984817
  0.12000243 -0.10110922 -0.03668066 -0.3234383  -0.10607933 -0.05350391
  0.00626019  0.05222694  0.4423128   0.00660201 -0.6137345  -0.03748252
 -0.29981688  0.06160351 -0.07427773  0.04915432  0.47721308  0.21505025
 -0.21867804  0.27067024  0.26190254  0.0897658   0.2498778  -0.6696758
  0.07127222  0.01460961 -0.1259247   0.31050903]
[-0.32931507  0.32568225  0.38743258 -0.3993632  -0.27617517  0.01761026
  0.38096327 -0.05235381  0.10758556 -0.1021091  -0.20277132 -0.14877895
 -0.21627338  0.5775073  -0.24132207  0.01464025 -0.08568834 -0.30812672
 -0.05696243  0.21165209 -0.35600778 -0.10335121  0.16083181  0.02189561
  0.12764186  0.02065811 -0.09864745 -0.12040509  0.21320556 -0.31678265
  0.22983436  0.1847181  -0.04749003  0.12690581 -0.52610487  0.07240916
  0.13021126  0.19817294 -0.14376949 -0.2027465 ]
[ 0.24985096  0.23016633 -0.38810048  0.13852802 -0.1807004  -0.41176575
  0.30341184 -0.16000408  0.21308121  0.21286668  0.09567196 -0.05836028
 -0.13061757  0.06176623 -0.02681199 -0.29783353  0.01414562 -0.25671855
  0.19734366  0.00330354 -0.38761887 -0.15203191  0.31554183  0.00771298
 -0.20661817  0.11961746 -0.05083662  0.29502904 -0.12240895  0.28610757
  0.1609123  -0.15475038  0.19366762  0.26130086 -0.22309291  0.46379408
  0.0288592   0.24436238 -0.08797213  0.12662823]
[ 0.08008856  0.01773465  0.19077477  0.0053708   0.01671186 -0.19289528
  0.05265462  0.08351605 -0.14681777 -0.14021546  0.07709932 -0.3664349
  0.12977897  0.00748157  0.20387197 -0.31959462 -0.12996033  0.1707543
 -0.25912002 -0.08347238  0.34305525  0.16845512 -0.10325841  0.24009867
 -0.05048788  0.17243767 -0.21237892  0.0368186   0.21742652  0.30930415
  0.02374488 -0.33593258  0.3280821   0.13895006 -0.32594982  0.11170821
  0.34247315 -0.25482363 -0.10222343  0.23670462]
[ 0.33738825  0.08923633  0.01096474  0.10829896  0.24712823  0.19727796
  0.00601765 -0.16826594 -0.44036728  0.10305256 -0.04837656  0.20489828
 -0.36250228  0.17028642  0.44434696  0.12958369  0.26652116  0.39044484
  0.1840226   0.3280207   0.1015626   0.5088376   0.03401887 -0.34903964
  0.25360015  0.14795415 -0.24672338 -0.40848705 -0.2602918   0.00631819
  0.24399629  0.0589151   0.13843286 -0.2201405   0.16615452 -0.32343647
 -0.12586841  0.03668318 -0.02319672 -0.14016066]
[ 0.36256024  0.10708623 -0.27533522  0.20170058  0.15680028 -0.11396533
 -0.13654444 -0.12335201 -0.23575483 -0.02558784 -0.47158003 -0.06476437
  0.02174246  0.12819567  0.11029778  0.09477855  0.11915473  0.09205361
 -0.26702505 -0.19864312 -0.32989454  0.26721543 -0.4229762  -0.43790263
  0.267418   -0.09883888 -0.02758778 -0.01843243 -0.18583308 -0.23623966
  0.07594984  0.3912888  -0.15975359 -0.04856063 -0.14434336 -0.23100522
 -0.30134794 -0.20222893 -0.1599086  -0.01495694]
[ 0.02289316 -0.1664737  -0.3114581   0.4986013  -0.08489098  0.20966722
 -0.5463525  -0.30346313 -0.35665753 -0.04447407  0.23057054  0.10008933
  0.3017297  -0.312478   -0.11198561  0.159176   -0.05697845  0.44135192
 -0.0392286  -0.16166411  0.24619326  0.40393308 -0.39237192 -0.30850863
 -0.18272401 -0.08491743  0.10813815  0.05510258 -0.23641306  0.03481865
  0.08777916  0.17689262  0.19941455 -0.291252   -0.08204    -0.4430563
 -0.36501637  0.05178353  0.20238464  0.30467376]
[ 0.15860702 -0.24724261  0.0907517   0.30769265  0.12904626  0.11102537
 -0.32781124  0.18512903 -0.21823831 -0.21174769 -0.33326912 -0.14535007
 -0.15643811  0.00563632 -0.04089522 -0.02090809  0.16351072  0.18784891
 -0.06599608 -0.28805122  0.3575403   0.27330002  0.1082955  -0.14670007
  0.04745431 -0.23988482  0.25613967 -0.03156394 -0.16350201 -0.20591778
  0.2446063  -0.2586382   0.4838813  -0.38640913 -0.20316623  0.04734896
  0.11430378 -0.19334623  0.21498503  0.04594909]
[ 0.29621002 -0.32238227 -0.35849127  0.1373415   0.14570503  0.27818516
 -0.3459662  -0.28288803 -0.08331104  0.10608388  0.24768248  0.11118397
 -0.19682622  0.1343853  -0.10126808 -0.26669684  0.1304845   0.08570886
 -0.14106406 -0.11057846  0.6090389   0.24612932 -0.06737623 -0.13658549
 -0.41602674  0.04820826  0.14593291  0.13396314 -0.25336835  0.19173881
 -0.0927527   0.31485298  0.4181443  -0.08895188  0.10705942 -0.2222665
  0.17882223  0.24194819 -0.05325173 -0.11552189]
[-0.01023765 -0.4484003   0.18338457  0.18803504 -0.01734464  0.12489229
 -0.14637281  0.2880763  -0.451961   -0.05282943 -0.06539328 -0.18853451
  0.08843116 -0.15339102 -0.34100512 -0.32463902 -0.00292833  0.80812424
 -0.25234404  0.27273843  0.45432714  0.2112095   0.01160199 -0.15165833
  0.22162212 -0.12109109 -0.16121225 -0.1633868   0.23532467 -0.1803431
 -0.05880423  0.13447818  0.13257177 -0.5480688  -0.00364643 -0.15844399
 -0.15398741 -0.01548378  0.07503803 -0.03562619]
[ 0.43072    -0.353561   -0.02163416  0.10210741  0.050322   -0.08143035
 -0.10590129 -0.14041062 -0.39786807  0.09015145  0.2850091   0.26407152
 -0.18332781 -0.28342158  0.00192672 -0.2645106   0.04640637  0.42408636
  0.19269097 -0.24189357 -0.02439414  0.35777566 -0.01767813 -0.46226922
 -0.0614409   0.43844774 -0.07078198  0.12195233 -0.04864942 -0.28044865
 -0.32922518 -0.48671183  0.27472287 -0.23684408 -0.30917892 -0.22696629
  0.37290362  0.00286705  0.31211433 -0.02079671]
[ 0.15103593 -0.03368022  0.01448593 -0.00426262 -0.01476239 -0.00519107
  0.01356439 -0.05438793  0.12088235  0.10733732 -0.03215668  0.07521568
 -0.04610831 -0.07860788 -0.05108678  0.15003647 -0.09770016  0.15747519
 -0.00878136 -0.0304749  -0.13368182  0.06279331 -0.00639652 -0.05434031
  0.01979205 -0.04008064  0.05502351  0.09257732  0.00610467  0.07186941
 -0.14361767 -0.01797277 -0.02301504  0.01599083 -0.06455396 -0.18887378
  0.01452041 -0.01840602 -0.07781952  0.04562599]
layer 3 Activation
tanh
layer 4 Dense
40 20
[-0.22702155 -0.05316914  0.2761108  -0.09414218  0.18223025 -0.09268385
 -0.26968324 -0.16174468  0.31850323  0.43964538 -0.32255992  0.29806244
  0.03664294 -0.3978414  -0.32278076 -0.21275508 -0.14056826  0.24288432
  0.17550968 -0.13722882]
[ 0.3396143  -0.3073566  -0.26149505  0.41709635  0.03684418 -0.24410386
 -0.14635281  0.18018949  0.1655967  -0.04256373 -0.25961128 -0.18860857
  0.01878377  0.06254398  0.18314514 -0.14789674  0.35786507 -0.22154462
  0.19515783 -0.2223933 ]
[-0.26844722 -0.3104167  -0.04183844  0.13239184  0.10835245 -0.13931489
  0.25366345  0.10547095  0.12428229 -0.40744767  0.35033175  0.3701739
 -0.2387385  -0.04104879  0.19765663  0.28110895 -0.1910425   0.06910723
  0.14287168  0.21167982]
[-0.30340353 -0.31693462 -0.20246659 -0.21388282  0.29287168  0.17517333
 -0.32743683  0.30871734  0.21526694  0.27596918 -0.32054222 -0.26188493
  0.23579521 -0.26797408 -0.07395658 -0.19964136  0.02280902 -0.09645491
  0.15619336  0.11095232]
[-0.09573094  0.23146167 -0.20432036  0.09624507  0.137311   -0.29316103
  0.14419322  0.26768842 -0.08178352 -0.0266851  -0.04761167  0.24434866
  0.29287973 -0.10447333 -0.13605103  0.35978386 -0.09318078 -0.04053529
 -0.26704723 -0.01255545]
[-0.14454669 -0.11195727 -0.11708207 -0.19263585  0.11391084  0.02597748
 -0.06306271  0.06744105  0.23699044 -0.09624586  0.27106577  0.27714485
 -0.27402395 -0.03073654 -0.18919772 -0.12322546 -0.13158375 -0.06017128
 -0.2166382   0.0518753 ]
[ 0.28932956 -0.08266624 -0.12561134 -0.08260741 -0.20824206  0.23132247
 -0.27470127  0.18801168  0.05239216 -0.3796341   0.26974887  0.3439907
 -0.2952034   0.4778735  -0.30203333  0.1707433   0.33061537 -0.17497197
 -0.08176688 -0.13419168]
[ 0.09972774 -0.13282162 -0.04793043 -0.12433796 -0.02650231 -0.08531784
 -0.10712603  0.15100817 -0.31955367 -0.23976909  0.29656518  0.13285026
 -0.33451644  0.1077726  -0.04931283 -0.13029052  0.09377164  0.18885864
  0.1334131  -0.17820154]
[ 0.23032883  0.08848435  0.15339072  0.29807982  0.22735788  0.00810847
 -0.19562858  0.1171524   0.14652926 -0.18132958 -0.26097926 -0.37192592
  0.1852543  -0.03709988  0.05662942 -0.08803973  0.12771532 -0.08272087
  0.24516298 -0.07048879]
[-0.16910009  0.04044058 -0.31553054  0.14749838  0.06191801  0.01437084
 -0.1859312   0.00096146 -0.12475348  0.00895593 -0.10310591  0.06245128
 -0.04031663 -0.2270343  -0.09638182  0.00934581  0.07351364  0.04685799
 -0.0891642   0.21343933]
[-0.16186352  0.15591337 -0.18940334 -0.04021215 -0.29729834 -0.37157738
  0.23613192  0.23873343 -0.14500189  0.11572912 -0.16006519 -0.1469351
  0.04979226  0.27757543  0.02711844  0.20614365  0.05876661  0.09984858
 -0.10130672  0.12405657]
[ 0.1929633  -0.10003678 -0.2509432   0.11951032  0.07851508  0.1792778
 -0.3531105  -0.02974837 -0.25133666  0.11516588  0.21246678  0.3685074
 -0.08057965 -0.2661282   0.08605535 -0.10014048  0.34166783 -0.30901456
 -0.24569063 -0.17044413]
[-0.19360633  0.09236899 -0.15426005 -0.23561706  0.2224639  -0.36064568
  0.27391428 -0.18425341  0.25316456  0.15671775 -0.3079156  -0.33977804
  0.29785484 -0.05255452  0.08847358  0.24225748 -0.03037309  0.23161322
  0.07158465  0.06790527]
[ 0.08661574 -0.06238997 -0.20588653 -0.20741414  0.03252047 -0.05761701
 -0.00232266  0.2362292   0.21587855  0.04724094 -0.03363395  0.1308478
 -0.09500939  0.33396348  0.00035861 -0.21397328  0.33549038  0.02078595
  0.35244748  0.16009274]
[ 0.2784829   0.16800782  0.11827992 -0.11876429 -0.44844675 -0.14872587
  0.00474005 -0.07259099 -0.15025307 -0.10224657  0.15569209  0.12430755
  0.14294025 -0.01585018  0.0751189   0.22070757  0.2882337  -0.28024542
 -0.18556453  0.14399609]
[ 0.3078345   0.09335805  0.23013762  0.15055598  0.05199616 -0.06295602
  0.18318984  0.04268172 -0.14118877 -0.17230508  0.28524706  0.34845653
  0.20653073 -0.30981687 -0.19797818  0.11376928  0.06068369 -0.37461028
 -0.14099707  0.02285172]
[ 0.27377012  0.03435854 -0.10597946 -0.31372848 -0.17835672  0.1664301
 -0.162826   -0.18448678 -0.12813112  0.203203    0.24450463  0.0138455
  0.2420103   0.11362783 -0.14679325 -0.01349329  0.07301099 -0.14405392
  0.00653789  0.20666878]
[-0.38666573 -0.00463984  0.04107375  0.06262767  0.08562579 -0.07512251
  0.23323768 -0.12585679 -0.15617125  0.11817134  0.22777596  0.24401233
 -0.2464209  -0.20812452 -0.31643134  0.02229643 -0.33300033  0.20036025
 -0.0203138  -0.09482683]
[-0.04326648 -0.2377352   0.02921338  0.35850012  0.1147656   0.28189808
  0.10575488 -0.04563722 -0.28723034 -0.05633286 -0.09740099  0.13385956
  0.08063374  0.16493827  0.12394527 -0.06617595  0.23260407  0.0545551
 -0.06989085  0.18878688]
[-0.02685707 -0.17259717  0.17214327 -0.06259053 -0.4720013  -0.02443204
 -0.29808685 -0.2891274  -0.26993048 -0.2742678  -0.17687295 -0.21510874
  0.06667927  0.17391615  0.28767714  0.32410535 -0.26777095  0.0507402
  0.09707654 -0.30133876]
[-0.49666998  0.17266576  0.2517312  -0.36162737 -0.37569794 -0.08867601
  0.01043835  0.22871844 -0.2643741  -0.04866444 -0.1880217   0.20659398
 -0.29530784 -0.07690243 -0.0485617   0.17258054 -0.2744952   0.24793369
  0.00552236 -0.00308064]
[-0.42348394 -0.1786033   0.30240366 -0.14797384 -0.08263959 -0.02005701
 -0.2420354   0.26332396 -0.31017786  0.32117787  0.19067888  0.35197592
  0.04823151 -0.19901302 -0.44679126 -0.26220837  0.25769153  0.17531437
  0.15532519  0.12730561]
[-0.2276765   0.21288121  0.24378793 -0.00395247 -0.33498463 -0.04304711
 -0.24835052  0.09472203 -0.21632141 -0.39976028  0.1853216  -0.28574473
 -0.17700031  0.10121169  0.10559042  0.04723467  0.3393957   0.2509332
  0.21579723 -0.2553833 ]
[-8.31809714e-02  1.53537408e-01  1.83377758e-01  1.72862694e-01
 -1.13868155e-02  1.75086200e-01  2.39811108e-01  9.02411155e-03
  1.90691188e-01 -1.50684249e-02 -4.19250697e-01 -2.70786658e-02
  7.28327483e-02  2.91168123e-01  5.20829678e-01  1.93057340e-02
  1.87380910e-01  3.66668915e-04 -2.22872514e-02 -1.07162565e-01]
[-0.00576328  0.14370635  0.2260833  -0.14119814 -0.21148714 -0.05826414
 -0.282865   -0.38556603  0.27651745 -0.37571564  0.37044853  0.3019532
  0.04972428  0.07180302  0.0238362   0.0626059   0.3654107  -0.38485253
  0.0099555  -0.02791631]
[-0.12533316 -0.20714082 -0.07744477  0.20967266 -0.11695635 -0.03945337
  0.20518214 -0.01514212 -0.24390256  0.256539    0.07810515  0.17137763
 -0.22232121  0.1895458   0.0370405  -0.13940139  0.12681548  0.17087463
 -0.15533932 -0.18365471]
[ 0.3244772  -0.10697369  0.12901661 -0.17484145  0.01924494  0.1886574
  0.26378953  0.13634035  0.20579612 -0.03352294  0.19637784  0.30268747
 -0.04771889 -0.11665709 -0.1200978  -0.02265952  0.003437   -0.27304792
 -0.13262576 -0.13410227]
[-0.17792767  0.24785072 -0.04566174  0.16679378  0.07026507  0.02415656
 -0.17191853  0.00746505 -0.02376426  0.34771535  0.03834306  0.06255708
  0.32784587  0.04320186  0.04832855 -0.03109007 -0.2779834   0.06174719
  0.18070793 -0.0648691 ]
[ 0.09126813  0.16510087  0.24445687 -0.03391546  0.30198723 -0.09015114
  0.18476453  0.1521357   0.19664732 -0.06322561 -0.2554002   0.19317852
 -0.08003985 -0.08045449  0.22688615  0.03278108  0.15932195  0.2260376
  0.21662821  0.17197035]
[-0.19806837  0.00966035  0.20079601  0.21262139  0.09024239  0.06216472
 -0.01492892  0.0356188  -0.14286485  0.11310993 -0.3803798   0.09311593
 -0.06495188 -0.08314855 -0.02118068  0.18949787 -0.37443236 -0.05298117
 -0.10232341  0.0896963 ]
[ 0.0401988   0.31447527 -0.23519558  0.07972523 -0.07375269 -0.21997638
 -0.28623268  0.13247724 -0.08013715 -0.19676624  0.24496639  0.20313306
  0.2665434   0.02357818  0.27721173 -0.17702867 -0.03667847 -0.22316062
 -0.19444604  0.3532213 ]
[ 0.4554097  -0.27272975 -0.2360768  -0.13669887 -0.09477174 -0.06751674
  0.10986416  0.10709977 -0.09670668 -0.10561389  0.16209821  0.2885208
  0.13847323 -0.4970529   0.1549616  -0.07715467 -0.12393376 -0.44175395
  0.19232519  0.010277  ]
[-0.4135548  -0.18691641  0.06609069 -0.35598388 -0.19822103  0.21146414
 -0.08274196 -0.21567394  0.07240628 -0.11711497  0.07236218  0.01994981
 -0.21040687  0.14107968 -0.29647446 -0.27341816  0.16200465 -0.09052245
 -0.00967215  0.15577966]
[ 0.5442024  -0.07490123  0.0505213   0.42804965  0.18331681 -0.10215038
  0.02221577 -0.17172106  0.3221954   0.27212793  0.02573708 -0.38113207
 -0.29704565  0.51528233  0.35075778 -0.3549807  -0.11211565  0.14326058
  0.1595617  -0.04984349]
[-0.22800887 -0.14329904  0.10814576 -0.15809926 -0.13468261  0.12359867
 -0.24867654  0.16720486  0.02114098  0.10997161 -0.3614672  -0.2768985
  0.31077743 -0.0107932   0.37989515  0.05762193 -0.2982143  -0.15287288
 -0.31382537 -0.16866079]
[ 0.22459672 -0.27932933 -0.07415682  0.35038352 -0.07533395 -0.14125906
  0.08734314 -0.08987614 -0.24093129 -0.09644579  0.0744321  -0.24753046
  0.10654648  0.5463972  -0.10200985  0.2889334  -0.2774599   0.16430235
 -0.08712734  0.29661822]
[-0.12752138 -0.17424843  0.0473195  -0.28260761 -0.35080895  0.02388699
  0.1849373   0.02485939  0.21097966  0.10097539 -0.31099772  0.09686756
 -0.10426066  0.37667271 -0.08729493 -0.07583198  0.38910517  0.39521334
 -0.01427056 -0.32843104]
[ 0.2673911  -0.1269013   0.24624288  0.08194211 -0.27623942  0.2131485
 -0.14243539 -0.31533524 -0.17964375  0.20379464 -0.13566655  0.23553005
  0.27662045  0.12682103  0.2772081  -0.21076965  0.32237202  0.07934141
 -0.263806    0.00757726]
[-0.1853177  -0.2028482  -0.22296925  0.03733415  0.23272066  0.177202
  0.24162051 -0.19311069  0.09578705 -0.11157195  0.17460817 -0.01294858
 -0.20790282  0.08384105 -0.11224037  0.02917983 -0.17387296  0.22065023
  0.26979044 -0.0261592 ]
[-0.11598467 -0.19668107 -0.04185496 -0.1245204  -0.30357438 -0.29438782
  0.0529821   0.26485065  0.31209603  0.30427176 -0.00361723  0.08336283
  0.19695303 -0.19649136 -0.17968513 -0.09177589 -0.23310809 -0.02526638
 -0.06287863 -0.37315187]
[-0.01443914  0.02042664 -0.00558872  0.00593463  0.06051703 -0.04384738
  0.06988009  0.08170483 -0.06594351  0.04662197  0.00034458  0.01303808
 -0.09446483 -0.02362646 -0.12824027 -0.02393278  0.01933372 -0.00255672
  0.05568717 -0.04134229]
layer 5 Activation
tanh
layer 6 Dense
20 1
[-0.14281559]
[0.00677117]
[0.05916931]
[-0.14102134]
[0.03608478]
[0.00276022]
[-0.09451947]
[-0.00166922]
[0.11728724]
[-0.14676638]
[0.23586914]
[0.07306498]
[0.01424969]
[0.21434988]
[-0.09809069]
[0.00230572]
[0.09000366]
[0.3025728]
[-0.08082197]
[-0.01703558]
[-0.04908213]
