layers 7
layer 0 Dense
20 20
[ 0.13491036  0.23023273  0.10719899 -0.24647032 -0.08005125  0.24480787
  0.26499656  0.33608744  0.17531648  0.07609347 -0.11552591  0.21000949
  0.18714787  0.27771348  0.32286224 -0.01842158 -0.04808359  0.03117972
 -0.2389169  -0.21019137]
[ 0.32575434 -0.30051064 -0.11411946  0.05327721 -0.1310648  -0.14849111
  0.14987126  0.11107507 -0.3833237   0.29568794 -0.28135863 -0.21384585
  0.08407995  0.05344812  0.01638183  0.09633967  0.07716067 -0.24185501
  0.3628985  -0.23631278]
[ 0.3092191  -0.09193711 -0.28154215 -0.20067261 -0.01937817 -0.3828292
  0.24727087  0.1453383  -0.1577149   0.06893294 -0.11583382  0.1261217
 -0.17696063  0.03139761 -0.03212833 -0.13240893  0.21874078 -0.5095061
  0.01350917  0.19686466]
[ 0.19542125  0.18384066  0.26170933 -0.39181057  0.132141   -0.02515951
 -0.3109408   0.16530602 -0.26093644 -0.14666477 -0.2279706   0.32845184
  0.12756608 -0.31914544  0.26599523  0.3282972  -0.05543153 -0.28253126
  0.25282824 -0.3359627 ]
[-2.2389878e-01  2.7938977e-01  2.8187910e-01  1.2069922e-02
  3.6917906e-02 -1.3529009e-01  2.5798842e-01  1.0393009e-01
 -2.7783665e-01  1.3582452e-01  2.9955485e-01 -2.2241761e-01
 -3.5756469e-01  3.2970641e-02 -2.0184259e-01 -2.4355766e-01
 -1.2806503e-01  3.1160345e-02 -2.4127366e-04 -3.3430910e-01]
[ 0.14273633 -0.3649918   0.242244   -0.21299033  0.21004401  0.3557156
 -0.4224517   0.10376077  0.32561648  0.08938195 -0.22592811 -0.38439718
  0.21478592 -0.20415182 -0.00535168 -0.43341777  0.21678074  0.45817572
  0.20373085 -0.20909111]
[ 0.10511795  0.1710328   0.07787961  0.04795017 -0.44573516 -0.07215671
 -0.23940593 -0.09641713  0.1538361   0.37695855 -0.22386378 -0.31155595
  0.3105816   0.3201742   0.08198979 -0.0554138  -0.26941293  0.07131847
 -0.0938298   0.13203214]
[ 0.40677094  0.12275153 -0.3242817  -0.09284184  0.18936141 -0.17719617
  0.12130839 -0.13803452  0.36894184 -0.2413359  -0.3624443  -0.36016148
 -0.06964006  0.18159041  0.31289467 -0.29048002 -0.39059022  0.24390723
  0.2266141  -0.2749095 ]
[ 0.08119936 -0.4004325   0.06085539  0.18467692 -0.14033723 -0.3632015
  0.2587234   0.24185887  0.25730836  0.05532031 -0.09825829 -0.422326
  0.04869749  0.0040648   0.1313985   0.04186097  0.38628638  0.0693489
  0.22614993 -0.06188495]
[ 0.46084583 -0.4358607  -0.1411301  -0.3110515   0.04919299 -0.43342045
 -0.32618615  0.40661955 -0.36267507  0.5076759   0.31121257 -0.44136667
 -0.2836485  -0.31398684 -0.17494087  0.03931007  0.09731406  0.03112652
  0.21672988 -0.12454849]
[ 0.39718547  0.13039388 -0.37194756 -0.36880404  0.31068355  0.41918686
  0.03504971 -0.10258726 -0.15315989  0.07387251  0.24288888  0.3427995
  0.2821304  -0.1641807   0.30094582 -0.13066952 -0.3584765  -0.2717233
  0.3204466  -0.37198842]
[-0.02258253  0.13389874 -0.14112504  0.2927823  -0.29813507 -0.04497309
 -0.26585934  0.27920157 -0.5190181  -0.27909666 -0.2572987  -0.00220891
  0.17313424 -0.06068499  0.1402874  -0.5577397   0.23693773  0.01614311
 -0.00884417  0.4610822 ]
[ 0.2601236   0.18645784  0.1841491  -0.02644978  0.25976324  0.27865395
  0.24970981 -0.0825777  -0.20210585  0.33729777 -0.03259197  0.07583874
  0.11067694  0.26661298  0.13451473 -0.03715674 -0.3432096   0.04956797
  0.3451774  -0.2955491 ]
[ 0.06671993  0.2199175  -0.19626267 -0.2223565  -0.36977932 -0.3061416
 -0.13367416 -0.3215592  -0.14755517  0.05296625  0.4763552  -0.15605485
  0.26247182  0.3144615   0.04226936 -0.08200659  0.31491578 -0.12304764
 -0.22650242 -0.01645476]
[-0.4376986   0.05735898 -0.20272338 -0.01089523 -0.15964532 -0.27088174
  0.24379554  0.111092   -0.07295843 -0.27959666 -0.2640423  -0.00100758
  0.01330003  0.36573717  0.16264202 -0.2708438   0.29487923 -0.27616742
 -0.13707848  0.2679585 ]
[-0.15220442 -0.00301367  0.36199602 -0.2759472   0.23861042  0.12042526
 -0.36651835 -0.15040165 -0.00796597  0.14776942 -0.3637248   0.07015301
  0.3920358  -0.12776965  0.11026003  0.31038067 -0.1490314  -0.07461859
  0.23494068 -0.19590537]
[ 0.22644225 -0.2966484   0.03568089  0.24596478 -0.15123697 -0.34713566
 -0.20969012  0.06335691 -0.18202484  0.2630397  -0.216752   -0.20215371
  0.01443521  0.07891028  0.00820237 -0.29071954 -0.00270102 -0.31296444
 -0.01239852 -0.22443162]
[-0.09529062  0.08573839  0.41871178  0.35050392 -0.3257786   0.03564307
 -0.24952075  0.10292643  0.1054122  -0.16234158  0.1589602  -0.22883001
 -0.10092142 -0.41372144  0.37458196  0.21631648  0.0402462   0.5418344
 -0.19377996  0.1695521 ]
[-0.14563921  0.4101143  -0.04379507 -0.23365816 -0.22176254  0.29784077
  0.08528107  0.32821602  0.10031741 -0.26502904 -0.05478299 -0.31044066
 -0.25650224  0.0879916  -0.14762509  0.28855383 -0.24588603  0.08558556
  0.08708393  0.07218269]
[-0.15594128  0.31571186  0.3207794   0.49884102  0.4795915   0.02874247
  0.06226871  0.15101935 -0.03375839  0.22914512 -0.27810547 -0.02678546
  0.01137674  0.30237338 -0.0408293   0.22781274  0.06189619 -0.01147831
 -0.2616212  -0.37083036]
[ 0.01321942  0.04174507  0.01372109 -0.02360935 -0.0782205   0.01726927
  0.05651837  0.04085127 -0.01577281 -0.00319409  0.02297808  0.04505235
  0.04685733 -0.00630201  0.04388719 -0.03553432 -0.00244007 -0.00841995
  0.02445589 -0.01652162]
layer 1 Activation
tanh
layer 2 Dense
20 40
[ 0.17001458 -0.09207771  0.0178292  -0.01456167 -0.2729923   0.0590711
  0.25482446 -0.25985473 -0.21488161  0.11258321 -0.06899849  0.06158079
  0.2279513  -0.10830823  0.35226092  0.23120159 -0.19294947 -0.22976668
 -0.21092619  0.09475753 -0.05423467 -0.25487328  0.09556143 -0.23127213
  0.02221104 -0.16794086  0.25927043 -0.3327466  -0.28881243  0.10018726
  0.2730159   0.40548626  0.18216573  0.01229711  0.05563052 -0.16338384
 -0.10540941 -0.11952916  0.26442483 -0.03894388]
[ 0.17338887  0.23929659  0.19103779  0.22575682 -0.1862507  -0.33444402
 -0.17125757  0.06946378  0.2764228  -0.13872612  0.2439235   0.31882188
  0.17007726  0.20029761 -0.16667551  0.10707533 -0.0263022  -0.19040011
  0.1409824  -0.18752982  0.30821002 -0.12958577  0.16093609 -0.1856172
 -0.22949201  0.01463341  0.25664264  0.12123349 -0.09138038 -0.22092693
  0.1074734  -0.2442091   0.281328   -0.09213222 -0.3013508   0.21909012
  0.2500958  -0.2825094  -0.10998885  0.13158411]
[ 0.20259596  0.02489452 -0.28061205  0.08639933 -0.04987478  0.1266477
  0.12173615 -0.06226292  0.12879331  0.05800206  0.09111255  0.18443753
 -0.2315661   0.07484191  0.2275327   0.13276164 -0.05670543  0.19156225
 -0.07163176  0.2673993  -0.10898737  0.11481     0.0560444   0.2725401
  0.21259972 -0.23459591  0.25798514  0.27030176 -0.22488132  0.01301018
  0.21421841 -0.24612737 -0.13003777  0.05689165  0.02579976  0.23352706
 -0.10341119 -0.22148441  0.20869604  0.17442171]
[-0.29472357 -0.0092122  -0.08595835 -0.2333377   0.08491886  0.04611862
  0.0685892  -0.19771092  0.11064219 -0.26023757 -0.01816833 -0.16964176
 -0.30565238  0.1776417   0.08114006  0.21235092 -0.22645734  0.06882484
 -0.25341353  0.17252024  0.2321017  -0.21471338 -0.07846819  0.00775198
  0.16770194  0.30321038  0.10157683  0.01247842 -0.21867733 -0.2563457
  0.2730705   0.11430861  0.3027137   0.1386914  -0.2783755   0.1489312
 -0.01357481 -0.36655793  0.24963045  0.23456548]
[-6.9330275e-02 -9.9948540e-02  3.1083322e-01 -1.8359289e-01
 -1.8024206e-01 -6.4762600e-02 -1.2795377e-01 -8.1261829e-02
 -2.8815582e-01 -3.2525092e-02  1.1903355e-02 -2.7210641e-01
 -3.0316207e-01  4.4594631e-02 -3.2491603e-01 -1.1363400e-01
  9.0550780e-03 -1.2597103e-01  4.0091026e-01  3.2726058e-01
  1.7901796e-01 -6.5881476e-02 -1.2470214e-01 -1.6076453e-01
 -3.9433395e-03  3.6851570e-01  3.0034131e-01  1.2443283e-01
  1.8307328e-01 -3.1272743e-02 -3.4124800e-04  2.8991881e-01
 -1.3637245e-01  2.6062134e-01  1.6592765e-01  3.2992061e-02
  1.7662503e-01  2.6073629e-01  7.6606549e-02 -2.2483620e-01]
[ 0.22782603 -0.23469253 -0.06159449 -0.11291116 -0.10271731  0.24663869
  0.00847505 -0.35229653  0.24837053  0.16456176  0.18548949 -0.06165279
 -0.19457011  0.08271201  0.21533172  0.2385881  -0.30394182 -0.24752513
 -0.22696096 -0.22248302  0.16925068 -0.05210161 -0.25193828  0.16232719
  0.3001892  -0.00767471  0.1642402  -0.02359365  0.20230475  0.28573498
 -0.27611253 -0.32969242 -0.3150307   0.23832937 -0.07454436  0.26575002
 -0.21782741  0.06217188 -0.07291764  0.13332812]
[ 0.1767416   0.21446824 -0.18353346 -0.0722171   0.12925784 -0.19500662
 -0.30440947  0.08899803  0.23810904 -0.17101754  0.2394903  -0.22537923
  0.07329667  0.07020832  0.1253399   0.31151554  0.2877851  -0.2969666
  0.10811644  0.25876024 -0.2181433   0.16150649  0.25191578 -0.15022443
 -0.25262737  0.15987252 -0.10920283  0.29952005  0.14075874 -0.09676152
  0.03259962 -0.16963492 -0.1521127  -0.23209308 -0.00633067 -0.34047636
  0.063472    0.04404097 -0.24145295  0.20041668]
[ 0.02805245 -0.21001431  0.09871692  0.09525131  0.02933538  0.20910631
 -0.00945385  0.31321484 -0.06723237 -0.13402787  0.35632578  0.01782341
  0.2334129   0.1780108   0.21787775 -0.12839502  0.07505837 -0.21460082
  0.22340651 -0.19090717  0.06505203  0.21210748  0.26428983  0.07280126
 -0.180026   -0.14840089 -0.16980463 -0.17999195 -0.18317406 -0.00514601
 -0.18453653  0.22063604 -0.12156322 -0.0284175  -0.07315284  0.10304657
 -0.01352604  0.14721608  0.23502888  0.04884778]
[ 0.23109734  0.03492902 -0.19649364  0.30098876 -0.17938776 -0.04750734
 -0.12747502  0.0576469  -0.34352657  0.28991666  0.12136611  0.2485759
 -0.04323297  0.10548363  0.1014901  -0.02905552  0.2118383  -0.08793808
  0.13439417 -0.15628307  0.18411165  0.16126153  0.31567252 -0.00364813
  0.075555    0.20250018  0.07540571  0.03847048 -0.25638026 -0.23238635
 -0.13063383  0.09537198  0.3766803  -0.06724319  0.03816655  0.22397694
 -0.2956397  -0.07520182 -0.0564753   0.11492184]
[ 0.04521055  0.30112046  0.00210237 -0.17542252 -0.17563924  0.2522502
  0.26710343  0.21149674  0.22302382 -0.05158083 -0.26440847  0.22510037
  0.24072298 -0.01411998  0.22129792 -0.23377515  0.1724593   0.19553486
  0.18028916 -0.10673583 -0.19609645  0.05143281 -0.0943495   0.06826899
  0.19708627 -0.06094966  0.05271879  0.23696338  0.06448242  0.14851487
 -0.17914958 -0.10531926  0.2377279   0.22171687 -0.03935022 -0.21260755
 -0.24050127  0.22631204  0.00529352  0.02162611]
[ 0.12104063 -0.27278548 -0.02712872  0.18751249 -0.10917529  0.11820104
  0.22208905  0.05343344 -0.13880043 -0.05507226 -0.17213592 -0.09769768
  0.15899967  0.10927867 -0.11381354 -0.12863857 -0.00330577  0.21358587
 -0.28717667  0.07786148 -0.09136122  0.03141142 -0.2632295  -0.30971208
 -0.22470006 -0.11196075 -0.18398236 -0.23867051 -0.2821119   0.22512566
 -0.2518166   0.2543629  -0.01857561 -0.02409175  0.09993802 -0.09148885
  0.21817172 -0.23974247  0.2568119   0.26376057]
[-0.25195664  0.08726724  0.31727087  0.01850851  0.04772829  0.21805453
 -0.03531587  0.19170219 -0.1523617  -0.2163456  -0.12147731  0.0943369
  0.06293152 -0.01555565 -0.35557002 -0.07665899 -0.2595779  -0.30814242
 -0.11064994 -0.0361077  -0.26775283 -0.0566241   0.09305894 -0.24731456
  0.11105898  0.12863214  0.09128744 -0.15406957  0.04396056  0.195348
  0.10435296 -0.11020067 -0.08973593 -0.19164175  0.37828767  0.25003457
 -0.0979357  -0.14179522 -0.23332505 -0.05867321]
[ 0.15388925 -0.08322231 -0.11627936 -0.0976264   0.07148207  0.21560864
  0.2556155  -0.05226582  0.27787206 -0.19952947 -0.05618331  0.10391562
  0.24857686  0.30472443  0.08306052 -0.07198588  0.1542923  -0.21770632
 -0.02215018 -0.2560785   0.08233464 -0.06787508  0.19424474  0.08255291
  0.27115518  0.14003986 -0.06398496  0.30974787  0.26111045  0.24137014
  0.21672794  0.13812658 -0.37043384 -0.25820142  0.29091522 -0.2272026
 -0.20159279  0.067702   -0.12513158  0.22126417]
[-0.23853394  0.05949005 -0.1857432  -0.01710465  0.336781   -0.20370978
 -0.18098989  0.03213237  0.05008602 -0.16347623  0.22654217  0.00074414
 -0.11622842  0.28564364 -0.13806106  0.2593466   0.08769651 -0.28986418
 -0.13153456 -0.04937328 -0.0666154   0.24552724 -0.27323723 -0.21654344
 -0.0082995   0.05357788 -0.2739146  -0.21732783 -0.234253   -0.09722617
  0.08738116  0.04194324  0.27101037 -0.2205191  -0.19328794  0.00683116
 -0.07258745  0.03093611 -0.03804453  0.06406749]
[-0.16458018 -0.07485962 -0.14513402  0.28884122  0.32045904  0.03684589
 -0.04160853 -0.19985253 -0.25557762  0.26093316  0.16417426  0.12573509
  0.14576894 -0.23417825 -0.07734782  0.10626575  0.18507329 -0.10052519
 -0.19366191 -0.19750373 -0.201839   -0.04670697 -0.12928763 -0.01752781
 -0.27092594  0.00118708 -0.08048975 -0.08475203 -0.08597618  0.18915054
 -0.14790033  0.1500005  -0.02206693 -0.02643872  0.2579611   0.2014639
 -0.04920525 -0.0219103   0.29697573  0.1839359 ]
[-0.29450879  0.19818777 -0.03177182  0.23668024  0.2698083  -0.25136822
  0.02628063  0.0467803  -0.23085698  0.17889377  0.32200184 -0.14524566
  0.06293997  0.23231754 -0.3331115   0.22374281 -0.21669601 -0.2460003
  0.12923908  0.29871914  0.21446435  0.09231781  0.1263063  -0.05984863
 -0.10346852  0.06352682  0.15940554  0.08929362  0.0367789  -0.20351611
 -0.2877452  -0.02067389 -0.02584966  0.08089321 -0.10610592  0.29584795
  0.1513327  -0.17031889 -0.00513636 -0.2610147 ]
[-0.05824229  0.31718525  0.17963235  0.16681384 -0.20563225 -0.1835467
  0.18725714  0.31190214  0.24271199 -0.0865422   0.1594684  -0.16673365
  0.23763159 -0.03279489 -0.08354334  0.09952575  0.27680323  0.24560125
  0.22755678 -0.0200898  -0.18258315  0.20814697 -0.15691175  0.20973276
 -0.2047082  -0.32057425 -0.1398286   0.30239052  0.16638002  0.05431401
  0.18232001 -0.024989    0.10376109  0.04900705  0.13150509  0.22049288
  0.14701943  0.16905314  0.01726139  0.00440692]
[ 0.00910325  0.09070668  0.26095217  0.01900769  0.07309033  0.1547029
  0.30879122  0.06673012  0.0608968  -0.21026298  0.06083172 -0.08588976
  0.03606698  0.03063717 -0.27810374  0.22441973 -0.19962731  0.2484494
 -0.1269258   0.26059654  0.25180525  0.20725618 -0.08262389  0.29557222
  0.26529294  0.05408182 -0.02584902 -0.26317868 -0.21560311  0.09701665
  0.10377119 -0.07068552  0.09902196 -0.01969573  0.23317444 -0.23942766
 -0.24416351 -0.25098294 -0.02535917  0.06681026]
[ 0.10229423 -0.22040081  0.17652673  0.22240825 -0.22913827  0.10046479
  0.2885612   0.1692955  -0.08975164  0.27768356  0.03444634  0.2579434
 -0.09953039  0.25331602  0.09543161  0.1238016  -0.08348038 -0.23363045
  0.05738949 -0.00568737 -0.29421684  0.08263969  0.18232344 -0.31234676
  0.08332912  0.26933745  0.1023537  -0.15015762 -0.11653356 -0.09270074
  0.01170404 -0.14830366  0.05201449  0.12925585  0.24053675 -0.12070059
  0.27495492 -0.08551763 -0.30637252 -0.25978145]
[-0.26165655  0.09794609 -0.18647331 -0.18299018  0.1241786   0.212063
  0.25067505  0.21123074  0.21155217  0.13268803  0.02511906 -0.28619668
  0.03294357  0.0315082   0.18687603 -0.18698281  0.23029543  0.0745207
 -0.0171228  -0.07323634 -0.33124787 -0.0934466   0.29825714 -0.25866863
 -0.23382775 -0.17206599 -0.25898692  0.07712473  0.07373408  0.3009858
  0.14889817  0.01148655 -0.01492407 -0.28645435 -0.15425436 -0.09648526
  0.01380167  0.24624793 -0.23590253  0.24104385]
[ 3.1651981e-02 -3.3014624e-03 -3.1974446e-03  8.4024435e-03
 -3.0797705e-02  3.4198236e-02  3.2575917e-05  3.9495088e-02
  3.3899087e-02 -4.9997948e-02  3.5810266e-02  3.8869683e-02
  3.3335168e-02 -6.0932390e-02 -3.4410294e-02 -2.7447570e-02
 -5.9569329e-02 -2.6432458e-02 -9.5559865e-02  2.2032030e-02
 -1.5203083e-02  1.2400106e-02 -9.9904807e-03  3.8732398e-02
 -1.4302249e-02 -1.3465446e-02 -4.4837515e-03  2.0111738e-02
  2.4725555e-02  9.7739831e-02  4.0238567e-02  4.0511213e-02
 -7.1475871e-02  1.1414500e-02  3.2357670e-02  3.4013268e-02
  6.0948491e-02  4.3855567e-02 -9.1218399e-03  3.5069522e-02]
layer 3 Activation
tanh
layer 4 Dense
40 20
[ 0.2755347  -0.20415509 -0.2921796   0.14814752  0.02380954  0.18757948
  0.012271   -0.25582537 -0.29151583 -0.22307065  0.28680933 -0.2640498
 -0.0605902   0.06917012  0.19828533  0.327449    0.20963396  0.00478418
 -0.20588876  0.14743342]
[ 0.04242788  0.2117224   0.19648191 -0.01873928  0.1543306  -0.10109056
 -0.09796645  0.21186507  0.17828155  0.38213038 -0.09305812  0.05154755
  0.301514    0.02613701 -0.07483362  0.22789186  0.20428222  0.16553482
  0.22792865 -0.18515274]
[ 0.13011631  0.25880757  0.03273392  0.09654476  0.07994062 -0.0717399
  0.03980985  0.15502138 -0.29054606 -0.23602428  0.00058212  0.12230311
 -0.04637235  0.18563306  0.21700211 -0.20456013  0.15666619 -0.1844177
  0.00089079 -0.20472111]
[ 0.19529031 -0.2679884   0.2301606   0.23412825  0.29342705  0.22044373
  0.09918178 -0.33978644 -0.05421229 -0.08949001 -0.04486666 -0.02149951
  0.27135137  0.13532554 -0.24010515 -0.02293699 -0.0042088  -0.03307508
  0.21521793 -0.2056846 ]
[ 0.31393328  0.15090197  0.1075794  -0.32095924 -0.14804961  0.27348208
  0.1027363   0.13212194  0.15228966  0.08442164  0.20146061 -0.27994573
 -0.02348871  0.06557362 -0.25987914 -0.08259537 -0.07797073 -0.14035676
  0.07405137  0.01990807]
[ 0.24829471  0.00539633  0.3089082   0.00550306  0.1817936   0.03888264
  0.2243749   0.21338613 -0.3157813  -0.30460703 -0.18426448  0.20393485
 -0.12674262  0.25484705 -0.09172885  0.06392826  0.20347616  0.084734
  0.16419375 -0.10653   ]
[-0.23751722  0.09571917 -0.26100174 -0.03159931  0.23574938  0.08334616
 -0.24342756 -0.28383344 -0.10705413 -0.1737587  -0.07004493 -0.06855246
  0.24353467  0.02124674 -0.00051095 -0.05533884 -0.27437848  0.0840079
  0.08595203 -0.12836482]
[-0.17362681 -0.11758609 -0.07950731  0.23995534  0.02648896 -0.14902478
 -0.16996953  0.24094361  0.02029111 -0.25951383 -0.04768915  0.2927795
  0.24489325 -0.3071965  -0.14008918  0.13780771  0.3072599   0.07360668
 -0.14400677  0.22336401]
[-0.032463    0.1603964   0.139432   -0.17742297 -0.05833086 -0.2817411
 -0.02732955  0.08460647  0.02883714 -0.05251909  0.2070087   0.19211031
 -0.01098538 -0.03061309 -0.31153306 -0.20731784 -0.23116757  0.28988686
  0.05835889  0.24459068]
[ 0.19303049  0.19066377 -0.27331245 -0.18737501  0.0685873   0.22177741
 -0.20399597 -0.20139629 -0.17823619 -0.17880279  0.10413031  0.16187812
  0.32242733 -0.03093003  0.30634364 -0.2418768   0.02474872 -0.2505629
 -0.054416    0.02356375]
[ 0.17107275 -0.00403431 -0.07482085 -0.16931619  0.12563036 -0.13268127
  0.04761449  0.11103529  0.35472783 -0.29327     0.24309613 -0.04456982
 -0.15066051  0.23005077 -0.25005078  0.10451291 -0.01663938  0.24543394
  0.35621253 -0.20318387]
[ 0.21800257  0.21586844 -0.02609951  0.04640613  0.2521099  -0.24859183
 -0.02113639 -0.13819018 -0.16075124  0.14794512  0.25891098  0.15168689
 -0.12876606  0.14781335 -0.11098018 -0.20368384  0.00692701  0.17875959
  0.12677841 -0.06603186]
[-0.27384484  0.06838186  0.29180574 -0.07818712  0.15203291 -0.28275266
 -0.27170536 -0.18033746 -0.21046878  0.15148841  0.07186465  0.3056733
  0.24423835  0.13565081  0.01667932 -0.33309245  0.25375646 -0.19248079
 -0.11071747 -0.20343967]
[ 0.11886892  0.01180703  0.26996377 -0.24779338  0.14031395  0.13842285
 -0.29965663 -0.12350356  0.18205032  0.15331869  0.3046691  -0.20597892
 -0.14063486 -0.2088403  -0.03772093 -0.0717271   0.16970922 -0.06183149
 -0.07336042 -0.20913263]
[-0.28821787 -0.11032808 -0.05824024 -0.03145368 -0.01307588  0.14635253
  0.03826698 -0.27106    -0.25927448  0.32754424 -0.20067002 -0.00413751
 -0.10852429  0.08710642  0.15298635 -0.23326458 -0.02046832 -0.23444064
 -0.04696125  0.01972278]
[ 0.19303358 -0.29612574 -0.14067852  0.10262055  0.23337367  0.3573907
 -0.15301692 -0.06812727 -0.17892681 -0.22538327 -0.23400685 -0.04941136
 -0.1947955   0.35116833  0.04943159  0.03506757  0.02697322 -0.22978374
  0.18322994  0.14740397]
[-0.0261754   0.13277517  0.334586    0.23199971 -0.16114461 -0.08598955
 -0.16237898  0.24670488  0.30805504  0.2092027   0.22172855  0.19790646
 -0.11245035  0.25129172  0.16495496 -0.20654714  0.1118134  -0.28489333
 -0.20540205  0.28006288]
[ 0.13455857  0.13819022  0.07878175 -0.3033263   0.02021351 -0.15685198
 -0.27359158  0.19620769  0.22611132 -0.14044221  0.13796629  0.26654178
  0.15341234 -0.11589879  0.18468466 -0.08866956 -0.22160216  0.23553422
 -0.03992636  0.23885284]
[-0.22309345  0.1257268  -0.00910862  0.06065694 -0.13029997 -0.02876391
 -0.16457906  0.10796127  0.12181685  0.14309113 -0.25133082 -0.1250159
 -0.12674455 -0.09563493  0.11489395 -0.17214686 -0.03431655 -0.16888668
  0.20649776 -0.08966856]
[ 0.11881789 -0.23803668 -0.23977529  0.26373687  0.07826153 -0.03226687
  0.08702093 -0.06648932 -0.24732107  0.31252542 -0.16294548  0.17926899
 -0.00483204 -0.24265547  0.00871072 -0.26359183 -0.11391555 -0.10557243
 -0.05988499  0.19665928]
[ 0.1098143  -0.09561399 -0.13397346 -0.25554186  0.0558463  -0.21880879
 -0.12597221  0.10774874  0.28359243 -0.12132102 -0.09461354  0.09049253
 -0.14641702 -0.02430725  0.20154998  0.2764575  -0.14757149  0.15329364
 -0.07222603 -0.32553646]
[-0.07333165 -0.08321468  0.27872717 -0.0256557   0.03078711  0.14297615
  0.17494144 -0.08381633 -0.11646277  0.26324183 -0.12067415 -0.07116189
 -0.13629279 -0.10712324 -0.17534575  0.16503239  0.21535897 -0.11390252
 -0.01666024  0.27244583]
[-0.16042481 -0.0645864   0.17269184  0.2212995  -0.12177422 -0.04600555
 -0.30217174 -0.1502382   0.23463657 -0.01834953  0.12071776  0.02094236
 -0.16127501 -0.04305969  0.18877304 -0.11923732 -0.12899207 -0.09771113
 -0.11817726  0.03942678]
[ 0.26948026  0.23484576 -0.12773798 -0.29080486 -0.07530714 -0.25987598
 -0.03788705 -0.16476211  0.00696507 -0.2176015   0.22834268  0.15061839
  0.01500164 -0.21366061 -0.00877847 -0.06620807 -0.16922747  0.15855727
  0.13693759 -0.14298193]
[ 0.07494499  0.15086381 -0.00155512 -0.27350032 -0.02035885 -0.11788115
 -0.09726375 -0.23813769 -0.13848305 -0.17629215 -0.18373293  0.07436015
 -0.37402558 -0.02873801  0.24622071 -0.03762531 -0.08490268 -0.09644829
 -0.349599    0.17605044]
[ 0.10363195  0.37148187 -0.01617743 -0.29669     0.03176399  0.02743577
 -0.03315729  0.14041676  0.29416674  0.11768168  0.03127725 -0.32549143
 -0.09561022 -0.21854448 -0.05885721 -0.14828476 -0.009788   -0.15730676
  0.2333748  -0.02093452]
[ 0.23915377  0.16151929 -0.01005253 -0.17717242  0.10462475 -0.00198545
 -0.20340674 -0.13460599 -0.16687725 -0.13466655 -0.04218524 -0.09808652
 -0.02456765  0.29763225  0.06551464  0.28620437 -0.2619499   0.17201236
  0.06556423 -0.05570517]
[ 0.28142565 -0.01308965 -0.03169657  0.03040644 -0.02313181 -0.07631311
  0.1382967  -0.12244099 -0.06487099  0.18529792 -0.14335172 -0.21141474
 -0.00100401 -0.04148459 -0.31164762  0.06322769 -0.21273187  0.2992262
  0.24916834 -0.17328168]
[ 0.27037343 -0.12470762  0.26787508  0.11268897 -0.04057621 -0.19508144
 -0.3315261   0.1973205  -0.17418307 -0.20574485  0.01208974 -0.13144502
  0.10325395 -0.14138974  0.19132948  0.27269194  0.1750294   0.13211305
 -0.06117528 -0.2701146 ]
[-0.05623427  0.17193364  0.26126143 -0.01591768  0.2757916   0.22638465
 -0.23332417  0.19046725 -0.2854342  -0.2882476   0.23957348 -0.05453857
  0.12956797 -0.04181372  0.15502349 -0.27917182  0.03110578  0.28069118
  0.20217776 -0.07693368]
[ 0.23896268 -0.19096498  0.2066619   0.17350712 -0.28582618  0.06602043
  0.19598298 -0.10249568  0.03764611 -0.21281312  0.04605781  0.07059921
 -0.17015867  0.366635   -0.32665795  0.17584902  0.25326446 -0.0400962
  0.14910929  0.19783029]
[-0.2346852  -0.04467168 -0.16549067  0.08220491 -0.10392922 -0.2540107
  0.16264682 -0.22051996 -0.2659218   0.1180633  -0.03116142 -0.04622127
  0.07931081  0.2876811   0.31046814 -0.26318377 -0.12299661  0.27490848
 -0.03167192 -0.1177634 ]
[ 0.2919381  -0.2273004  -0.16099186  0.1374693  -0.27806175  0.27556568
  0.18321526 -0.02526779  0.21389845  0.086387   -0.15855914  0.14997242
 -0.03807377 -0.20915464  0.08045704 -0.10187671  0.06747055 -0.21186285
  0.18304458 -0.07346037]
[ 0.07535617 -0.10888918  0.1081831   0.0984984   0.2607476   0.00979535
 -0.08727416 -0.04413176 -0.23618315 -0.27587414 -0.12866981  0.2689674
 -0.22879566 -0.02126469  0.05947624  0.027879    0.19798142  0.19059357
 -0.06606422  0.28071186]
[ 0.14176942 -0.13810709  0.29844764  0.02208844 -0.00683007 -0.19269843
  0.06984183 -0.06924879 -0.31422397 -0.03758967  0.20543586  0.02142302
 -0.0456345  -0.01724717  0.34360805 -0.2641363   0.00398469  0.04618307
 -0.23212191 -0.13460448]
[ 0.01051949  0.31462672  0.05434385  0.27096492  0.21558912  0.27029774
 -0.10374317 -0.2956487  -0.10493108  0.02597286  0.32364556 -0.0904331
 -0.00489073 -0.21038648 -0.22830473 -0.1745355   0.14162877 -0.22720271
  0.17776096  0.17160244]
[ 0.15451278  0.24154815  0.03444304  0.01035124  0.22404915 -0.12349135
 -0.05871443 -0.2290173  -0.14932676 -0.22405827 -0.28072184  0.23205784
  0.01789045  0.16556872 -0.14672314  0.07948653  0.03480672 -0.18372907
  0.02716299 -0.11764612]
[-0.2038667  -0.21984918  0.07841098  0.14559019  0.15479095 -0.23650457
 -0.30427295 -0.1248518  -0.15645733  0.19367963 -0.31919622  0.13880363
  0.1932621   0.05762672 -0.10498847 -0.13325042  0.02554955 -0.14484385
 -0.05953177  0.16729745]
[-0.08017419 -0.00974979 -0.07801411 -0.21245652  0.00741879 -0.30032188
  0.17048256 -0.15775338  0.18373962 -0.11949515  0.26119566 -0.07078557
  0.21701767  0.24686472  0.01630116  0.00484879  0.02687908 -0.2640712
 -0.24341762  0.11331699]
[ 0.01576875  0.1702546   0.02407122  0.31480795 -0.19482213  0.2252437
  0.07014731  0.09978733 -0.00913922 -0.05555892  0.12057972  0.10044876
  0.2753642   0.09927481 -0.02837456 -0.2772525   0.0309526   0.2071183
 -0.16840056  0.1395748 ]
[ 7.7489577e-03 -4.8760328e-02  2.1594981e-02  8.3075240e-03
  1.1270787e-02 -1.3088960e-02 -4.8741873e-05 -2.2263374e-02
 -2.8151877e-02 -1.8300517e-02  1.5712822e-02  7.3979655e-03
  2.9880760e-02 -1.0469156e-02 -2.7678614e-02 -8.8740773e-03
  3.6127935e-03  1.2481866e-02 -1.8112658e-02  1.1065761e-02]
layer 5 Activation
tanh
layer 6 Dense
20 1
[-0.3095396]
[-0.00351935]
[-0.13620864]
[-0.09291662]
[-0.15796413]
[0.19029751]
[-0.03115262]
[0.1384322]
[-0.32372567]
[0.03751108]
[0.28346542]
[0.33114582]
[-0.26539913]
[0.133587]
[-0.28903767]
[0.05611546]
[-0.04179585]
[-0.00530901]
[-0.08753631]
[-0.19724989]
[-0.00100434]
