layers 7
layer 0 Dense
20 20
[ 0.19889016  0.37735373 -0.6319733  -0.06996296 -0.09354725  0.02452155
 -0.1235631  -0.14355037 -0.12170868  0.18207145 -0.19130433  0.07104098
 -0.42264116 -0.2905216   0.42406934  0.05245561 -0.53213495 -0.16422726
 -0.06049943 -0.5985945 ]
[-0.2976285   0.46502063  0.25155687  0.30850884 -0.11152771  0.6571681
  0.70874727  1.426195   -0.87536293 -0.25384033 -0.31796128 -0.20316274
  0.0624876  -0.3951444   0.4998764   0.79527134  0.62693655 -0.26340988
 -0.33951426 -0.08602455]
[ 0.15561122  0.08399685 -0.14013343  0.552563   -0.5603036   0.57839733
  0.6996772   1.3874731  -0.9000271   0.31106088 -0.9229569  -0.4584943
  0.18875644 -0.7771715   0.84625244  0.4703519   0.14168781 -0.1553155
 -0.6506792  -0.6866503 ]
[-0.19190939  0.2558109  -0.6239018   0.4410728  -0.18031016  0.19834116
 -0.1472263  -0.25544703 -0.2921662   0.05042906 -0.10479695  0.08617967
 -0.0911059   0.28221124  0.7694483  -0.2547802   0.1062507   0.04936398
 -0.02908465 -0.31250226]
[-0.09325897  0.03185782  0.0193462  -0.18180975 -0.22474311  0.02190423
 -0.432649   -0.77091175  0.543615    0.03959613 -0.32784015 -0.20907168
  0.44773284 -0.23092946 -0.3037242  -0.08469602 -0.5626832  -0.12859084
 -0.09120426 -0.22035152]
[ 0.300938   -0.4717389  -0.5028926   0.23841318  0.35896942 -0.27251232
 -0.76677644 -1.009974    1.1962885   0.49525094  0.56777877  0.6531452
 -0.07323471  0.7535798  -0.96102303 -0.71946377 -0.2262419   0.19663943
  0.15557101  0.59534943]
[ 0.24569345 -0.45816463 -0.21508735 -0.0217292   0.272064   -0.14502484
 -0.6180022  -1.2374494   0.6802833   0.3035582   0.83555496  0.6771561
  0.25972217  0.26493558 -0.46751836 -0.95612204 -0.3507861   0.03340493
  0.3301341   0.11519187]
[-0.02436975 -0.12709063  0.44323838  0.39284408  0.01409492 -0.15405512
  0.21166267  0.63788253  0.05079042 -0.0363825   0.4533262   0.3138732
 -0.20567116 -0.27752566 -0.6400144   0.27934316  0.18897255  0.00474706
  0.43666628  0.09456266]
[ 0.10956485  0.20246582  0.20010976  0.16545545 -0.7978132  -0.36096075
 -0.0840192   0.38687846  0.8734815   0.09555314 -0.5826314  -0.17068075
 -0.04555618  0.19508849  0.317558    0.11631958 -0.42387703  0.17363508
 -0.48546436 -0.7333632 ]
[ 0.91613567 -0.61403537  0.95153356 -1.1337106   0.09476358  0.52445126
  0.7592319   0.11968767 -1.2953863  -0.34815136  0.09227701 -0.39258265
  0.25253084  0.11714797  0.12932289 -0.9501297   0.21526566 -1.2634306
  0.10693453 -0.04214987]
[ 0.20230597  0.8332651   1.546896    0.6025387   0.6456333  -1.2708188
 -1.5319042  -0.58451277  0.2311825  -1.9825971  -0.11896256 -1.5219122
  1.5681336   0.98539925 -0.29522845  1.2699133   0.40610155  1.3511829
  0.37702742 -0.12181831]
[ 0.4469755  -0.7015446  -0.85289097  1.4290258   1.220569    0.8418543
  0.42988163 -0.33757475  0.16034544 -1.418263    1.6239728  -0.76302713
 -1.6296474   0.27200425 -0.84984785 -1.3013461   0.9682105  -0.14383078
  0.03632975  0.6000378 ]
[ 0.50265867 -0.06279764 -0.5447145  -0.41713867  0.45786592 -0.08138953
  0.22275032 -0.6263399  -0.5774105  -0.35355288  0.25038338 -0.05021534
 -0.69932973  0.15919219  0.0944815  -0.29732963  0.09652576  0.12265413
  1.8156211   0.08772434]
[-0.71199423  1.5231806  -0.7853497   0.81896293 -0.20895432 -0.18864208
  0.19454992  0.64590836  0.5246001   0.07115509 -0.163877   -0.5450904
 -0.22462171  0.9727205   0.23778193  0.15351725 -0.7050149   1.2363571
  0.77305156  0.6030134 ]
[ 1.0734016  -0.0118308  -0.41174328 -0.04889713  0.29669568  0.8487457
  1.8956536  -0.16967998  0.80310327  0.6794485   0.06521397  0.12746502
 -0.2868171  -0.55054426 -0.70339555 -0.5481927  -0.17873761  0.51022625
 -0.79925025 -0.09711698]
[-0.88933706  0.9912605   1.6132492  -0.35046518  0.17692646 -0.33038214
 -0.08210655  0.7303333  -0.12206361  0.18544853 -2.3403711   1.2924968
  1.3191738   0.2033548   0.61187184  0.28827056 -0.5600133   1.0206692
  0.6967417   0.2587938 ]
[-0.48023564  0.5676741  -0.07308123 -0.23082525  0.06997629  0.49814114
 -1.0813631  -1.4032044  -0.08661205  0.06900313  0.2824072   0.24663424
 -0.7575012  -0.56841123 -0.6887664  -0.18467447 -0.7705931   0.45391738
 -0.20996353 -0.47104228]
[-0.861124   -0.74831635 -0.17917381  0.74846363 -0.5683137  -0.719412
 -1.2997113  -0.87727034  0.69655037  0.18897454 -0.52539116  1.6034864
 -0.699466   -1.0516013  -0.9964385   0.36657026  0.23706114 -0.06018589
 -0.9716502  -0.41683555]
[-1.3469617   0.14537847 -0.85410935 -0.47852018 -0.45414737  0.5484045
 -0.508865    0.3799963  -0.7151929   0.48192504  0.12965073  0.13575959
 -0.40191025 -0.356057    0.8772878  -0.6716763  -0.34587768 -1.347003
  0.49892095 -0.5686527 ]
[ 0.14744647  0.14159822 -0.7880817  -0.6946842  -0.16109397 -0.26151726
 -0.20218828  1.4342014  -0.24119247  1.6955802  -0.59707254 -0.32658526
  0.2073775  -0.36877024  0.43748996  1.3490386  -0.63751245  0.41272265
  0.57215106 -0.01333997]
[ 3.6511105e-05 -4.4561472e-02 -2.3321602e-01  5.6985650e-02
 -5.9476290e-03  6.8962969e-02 -3.5194036e-02  4.8277490e-02
 -2.5379929e-01  2.2624454e-01 -7.5073771e-02  2.9486051e-02
  2.7886173e-01 -2.8900592e-02  4.3999344e-01  2.3635505e-02
 -3.3124261e-02 -2.2428979e-01 -4.8243269e-01 -5.7704236e-02]
layer 1 Activation
tanh
layer 2 Dense
20 40
[ 0.03344062 -0.27087003  0.37473482  0.16956961 -0.05253263 -0.4000496
 -0.4996958  -0.21287194 -0.37513626 -0.11820747 -1.1733277  -0.31990755
  0.05870972  0.17993242 -0.5098523   0.5454459  -0.45418665 -0.50034094
 -0.2104616  -0.41143343  0.59121597  0.15299928  0.20475048  0.3347155
 -0.1898342  -0.4017923   0.6160782  -0.30660322 -0.17033865 -0.31862688
  0.2928577  -0.13865925  0.13803793 -0.27105013  0.02142978 -0.854533
  0.29467946  0.22724211 -0.12269892  0.39183712]
[ 0.15604998 -0.10729235 -0.3744017  -0.13125154  0.08600956 -0.0569461
  0.37288344 -0.4346602  -0.07013908 -0.2358611   0.27961472  0.9763314
  0.09671981 -0.26357934 -0.7255047  -0.20636529 -0.244046   -0.12594193
  0.05087029 -0.02791584  0.13125555  0.04021929  0.09839292  0.47641426
  0.26035884  0.18469076 -0.5626135   0.02564548  0.14937454  0.14190745
  0.07904599  0.7590038   0.1667957   0.34699488 -0.51360595 -0.31214732
  0.01931557 -0.09820167 -0.03421682 -0.39291725]
[ 0.03203456 -0.41960296  0.6456841  -0.27751026 -0.4909956   0.13046582
 -0.5272006  -0.1735007  -0.5142039  -0.20158112 -0.27623096  0.10513077
  0.23639707  0.3974636  -0.807985    0.26599035 -0.26919386 -0.5222728
 -0.10806428 -0.12444779  0.19660519  0.14301449 -0.07746591  0.11712908
 -0.20659012  0.08059245  0.49459878 -0.08429274 -0.12039804 -0.23973645
  0.38460287  0.58181393 -0.10894888 -0.39348486 -0.3335402  -0.0140809
 -0.29266912  0.21281917 -0.9638067  -0.00394992]
[-0.443158    0.14389025 -0.06484363 -0.00742981 -0.00093789 -0.15600441
 -0.10232381  0.56257313  0.7958086   0.31945175 -0.16187915  0.525224
  0.2886333   0.03129952  0.77114314 -0.13034528  0.03180908  0.2772696
  0.00895421 -0.27149528 -0.32156974  0.22634265 -0.30323297 -0.26996532
 -0.25138515 -0.02699845  0.04162477  0.3393407  -0.08908415  0.4449427
 -0.14900465  0.22654992  0.03289228 -0.39577588 -0.36507228 -0.564532
 -0.19056349 -0.24149972  0.06183796  0.2310976 ]
[ 0.17422429 -0.27920747 -0.01706255 -0.17727059  0.24269256 -0.06746884
 -0.11661725  0.13813078  0.1346215   0.03954583 -0.07226355  0.02064845
  0.06608648  0.07243489 -0.45273852 -0.11794073 -0.00379511 -0.06608342
  0.15097108  0.12405709  0.05240266  0.06119768 -0.17432837  0.25530058
 -0.02575633  0.29956177  0.01640673 -0.01480513 -0.20187551  0.45419526
  0.2308198   0.0014564  -0.13446817 -0.1707073  -0.03693588 -0.37397972
  0.08982413  0.23576081 -0.329877    0.03527781]
[ 0.00403673 -0.20257623  0.18840975  0.17754127  0.15304795 -0.07395002
 -0.45479673 -0.20947516 -0.28030044 -0.03424008  0.12909816 -0.32834727
  0.18978232 -0.17091486  0.36256766  0.46458772 -0.31177583 -0.29762468
 -0.11523126 -0.27045768  0.36041272  0.24021153 -0.21774966 -0.03848496
 -0.25200632 -0.18604754  0.54997456  0.42975467  0.03771399  0.57210755
  0.15705186 -0.09455493  0.17539658 -0.17520873  0.11129956  0.5987102
 -0.0265727   0.17729546  0.23961607 -0.07735743]
[-0.04969254 -0.5944055   0.63848066  0.7677796   0.31870186 -0.30927348
 -0.54564875 -0.00562874 -0.92466575 -0.04319243 -0.50146925 -0.35731938
  0.02777654 -0.24515805 -0.01834545  0.6163691  -0.6165711  -0.5104083
 -0.1411091  -0.02165993  1.5076382   0.1942463   0.40572637  0.846166
  0.47135767 -0.52933335  0.8076293  -0.16853145 -0.38440323  0.07124952
 -0.4008042  -0.5307302  -0.26485     0.3587636   0.83733517  0.22928168
  1.0869282   0.95151657  0.9131456   0.89928895]
[ 0.28968313  0.14823586 -0.1881536  -0.3853553   0.12618303  0.22591627
  0.05584904 -0.28797272 -0.66544324 -0.1565767   0.6997063  -0.00089397
 -0.13471906 -0.14977694 -0.07616469 -0.08610032  0.0930521  -0.24551813
  0.20754889 -0.01308098 -0.34088153 -0.23517376 -0.08557923  0.10428582
  0.20479037  0.19525915  0.11998022 -0.3088995  -0.11678385 -0.17563622
 -0.55061656  0.27105096 -0.01375262  0.4208871   0.03963115  0.7101336
 -0.44824296 -0.40492237  0.17316872 -0.0338712 ]
[ 0.3286769   0.21662189  0.05165107 -0.6243167  -0.15837736  0.03159758
  0.06512821 -0.5017914   0.20487341 -0.2506206   0.92962164  0.44315615
 -0.3144453   0.08540019 -0.01071583 -0.20300348  0.15835209  0.04956765
  0.37810865  0.31439224 -0.28295496 -0.04673322 -0.30331936 -0.0705727
 -0.11968735  0.64695483 -0.45275676  0.04285679 -0.27128807 -0.0465916
  0.37872818  0.02588522 -0.0570886  -0.03522478 -0.893219    0.24327573
 -0.56596994 -0.4973556  -0.33195633 -0.21155293]
[ 5.41858613e-01 -3.77935916e-01  4.61152911e-01 -6.61763921e-02
 -2.15982690e-01  6.05174601e-02 -3.88262272e-01 -3.54676485e-01
 -4.71672028e-01 -2.75980473e-01  1.21151793e+00 -1.48645431e-01
 -2.08983898e-01 -1.26643702e-01  2.88483322e-01  1.92176506e-01
 -1.32920936e-01 -3.27216804e-01  1.40922153e-02  8.66569695e-04
  4.30187844e-02  1.22093990e-01  3.01962763e-01 -1.16187036e-01
  2.74071336e-01  2.10286036e-01  6.90292716e-02 -4.74860519e-01
  2.19483018e-01 -2.41869733e-01  1.12024538e-01  1.45718604e-01
  2.38609746e-01 -3.24215353e-01 -1.72635719e-01  1.08058262e+00
 -1.69022277e-01  2.13961899e-01  2.41122991e-02 -2.93910027e-01]
[-0.4954264  -0.00172129 -0.30906698  0.15381081  0.01567321  0.6695831
  0.10338288  0.5850621  -0.15215105  0.15784039 -0.2772544   0.38452068
  0.26414943 -0.03952036  0.18382822 -0.24214414  0.26022422 -0.12804823
 -0.19052085  0.04403603  0.26024646 -0.51400125  0.08878946  0.1886821
 -0.3016734  -0.12130801 -0.2873376   0.66049707  0.3714795   0.79272985
 -0.09905267 -1.0495287  -0.19819362 -0.33523357  0.2555915   0.05026606
  0.20066844 -0.30809706  0.64511776 -0.08740108]
[-0.17940365 -0.1324437   0.05587564  0.25344437  0.06166055 -0.14980115
 -0.35811868  0.07005884  0.30427638  0.00810294  0.7899507  -0.31337234
 -0.0771561   0.14422342  0.9378968   0.3848563  -0.20255901 -0.12319683
 -0.08745202 -0.02506994  0.38381276  0.30462885  0.0959811  -0.16096617
  0.10860758 -0.36201972  0.4936492  -0.10298032 -0.01093203 -0.48260263
  0.23611146  0.11096836  0.06238417  0.19291313  0.5621604   0.69656146
  0.51892215  0.13370311  0.51422787  0.5728776 ]
[ 0.25949144  0.10519868 -0.05458291 -0.07945777  0.30759096  0.06998663
  0.07105991 -0.3423643  -0.29457942 -0.11608735 -0.22736311  0.16592315
 -0.06460664  0.10947446 -0.9660485   0.32681632  0.08787626 -0.344916
  0.16386324  0.16210635 -0.42049694 -0.37368736 -0.02159737 -0.28982723
  0.3726691   0.31696984  0.01316176 -0.1921983  -0.20147486 -0.4117154
  0.377664    0.8938123   0.12187171  0.07741109  0.16594589 -0.73377043
 -0.5242663  -0.49673605 -0.68895525 -0.03537342]
[ 0.0763957  -0.15904999  0.2188326  -0.1797371  -0.36502355 -0.16346045
 -0.20193754 -0.04451815  0.02358505  0.04649188 -0.7078656   0.42675143
  0.20207265  0.14862616 -0.45202735 -0.12131328 -0.06150982  0.03175806
  0.06051699  0.00925943  0.19415142  0.207044    0.13911223  0.19180575
 -0.08371288  0.02768461 -0.00358349  0.17949314 -0.14781003  0.32663336
  0.11688884  0.07728412 -0.21158484  0.07051732 -0.11582769 -0.3371425
 -0.20665725  0.44517726 -0.00794953 -0.16395481]
[ 0.49380022 -0.2880619   0.51664346  0.19214067  0.16636595 -0.16097741
 -0.25417507 -0.4744604  -0.25180313 -0.32983264 -0.25092843 -0.8996543
 -0.09904577 -0.09725779  0.08398882  0.30772057 -0.13676064 -0.5921734
  0.29660058 -0.0653638  -0.4208382   0.14029606  0.07149728  0.1759995
  0.506677   -0.12827857  0.1795037  -0.2138609  -0.2719952  -1.0531512
  0.17248379  0.6212335   0.06048738  0.34956324  0.5056189   0.10974311
  0.16810523  0.03281218  0.7445503   0.20146881]
[ 0.23350711  0.41078413 -0.38890505 -0.41593704  0.20258293  0.25465792
  0.53425103 -0.11049718  0.2844682  -0.09722015 -0.00567839  0.9081353
 -0.35776475 -0.37562054 -1.0274915  -0.27723023  0.17442377  0.13710679
  0.13623877  0.19101447 -0.27671504  0.17155829  0.032937   -0.49495453
  0.20233549  0.5834194  -0.35424215 -0.24557792 -0.15403396 -0.5456112
  0.26047269  0.3346155  -0.08993761  0.33993736 -0.5275209  -0.21754688
 -0.31406757 -0.28864747 -0.14787038  0.03611708]
[-0.45958105 -0.05034416  0.17773694  0.16054256 -0.26965407 -0.24088575
 -0.19094789  0.20370701  0.32151696  0.33181894 -0.60057455 -0.13698317
  0.28668797  0.34009767 -0.5392235   0.29781395 -0.04679658 -0.14907771
 -0.03906798 -0.22100818 -0.14096725  0.15790734  0.10815962 -0.23746082
 -0.36048657 -0.14799272  0.18807115 -0.12447398  0.02224203 -0.00115912
 -0.15229128 -0.4575866  -0.0435542  -0.30610064  0.07919569 -0.42924264
  0.09932472  0.18983418  0.3485119   0.26877892]
[-0.07825846  0.5369987  -0.1954526  -0.45157242 -0.00290654  0.4212289
  0.41505563  0.24059662 -0.18689047  0.1853695   0.36483523  0.82622397
 -0.06172324 -0.05354725 -0.10856103 -0.35548392  0.62873703  0.72020656
 -0.00239971  0.22993284 -0.26304695 -0.27379087 -0.2412106  -0.35670963
  0.20254907  0.17699525 -0.20134914  0.04600561  0.19644721  0.32451135
  0.04374609  0.11360272  0.03396405 -0.17855467 -0.47901404 -0.5573878
 -0.65272975 -0.39311093 -0.3633042  -0.50736576]
[-0.37136567  0.52913064 -0.3643734   0.24309538  0.26279673  0.31096908
  0.3255326   0.5613578   0.5016923   0.31618413 -0.49747583 -0.04062847
 -0.01443144  0.17401488 -0.9605534  -0.8337031   0.72874117  0.5306387
 -0.18933064  0.08850385 -0.06379296 -0.16314043 -0.3048836  -0.30570653
 -0.08452338  0.04629675 -0.4646059   0.04290052  0.02659373  0.4086554
 -0.21514729 -0.44665644  0.3098011  -0.05615325  0.02388282 -0.8259472
  0.11659313 -0.23070715 -0.6299366  -0.04996729]
[-0.3387958  -0.0753672   0.05924832  0.05199045 -0.19302672  0.22603558
 -0.18132064  0.10239811 -0.08071606  0.15139104 -0.3121702   0.00428964
  0.11775293  0.27451256 -0.03877346 -0.07739034  0.22359674  0.3112139
  0.0349192  -0.18674228  0.2106023  -0.34913677  0.03652122 -0.02295891
 -0.1206231  -0.41431624  0.06101471  0.07672545  0.31695905  0.46205547
 -0.06906749 -0.1360568   0.06242805 -0.23987044 -0.12708339  0.10137242
  0.06838917 -0.15939476  0.30132023 -0.01890112]
[ 0.46631327 -0.12088461  0.19910592  0.07905726  0.28021368 -0.2951712
 -0.08274478 -0.7106431  -0.05401695 -0.25616312 -0.3052592  -0.2295682
  0.06445572 -0.21712242 -0.04322156 -0.11936893 -0.28122288 -0.26227593
  0.05728806  0.10063458 -0.06358438  0.12751207  0.36794272  0.52391315
  0.74565476  0.04679504  0.2298047  -0.19495362 -0.34518862 -0.62914485
  0.28360286  0.5282172  -0.14302057  0.50071377  0.35293025  0.07179528
  0.14615804  0.5492827   0.04286493  0.06206826]
layer 3 Activation
tanh
layer 4 Dense
40 20
[ 0.04978984  0.11578203 -0.04028219  0.14058103 -0.0926486  -0.5001118
  0.13667189  0.07876723 -0.24784906  0.10120254  0.00834804 -0.03815747
 -0.09180555  0.0438379  -0.1376619  -0.2540625  -0.13007465  0.31201893
 -0.04087573 -0.03864207]
[-0.34339672  0.07222514  0.09436107 -0.17890166  0.1772359  -0.10669851
 -0.5374756  -0.26729098 -0.19344129 -0.06126418  0.29344282  0.03349351
 -0.40380496 -0.10440794  0.0896443   0.30392373 -0.18754838  0.24958381
  0.0212765   0.08019552]
[ 0.13269325  0.36021385  0.13625988  0.26464134  0.01774151  0.3026746
  0.54256964  0.19960257  0.03603655 -0.01191428 -0.31532586  0.0443532
  0.2748535  -0.00840505 -0.13069582  0.02462051 -0.24117489 -0.26801038
  0.05556689  0.19943114]
[ 0.4088344  -0.04483163  0.22302859  0.3780022   0.23948655  0.12083168
  0.26385146  0.26961097  0.3334745   0.07872926 -0.22345987  0.13628606
  0.26079288 -0.1438051   0.27967072  0.29614332  0.11570813 -0.21742404
  0.11326008 -0.31877384]
[ 0.16133174 -0.01963206 -0.04312311 -0.00321525 -0.12390014 -0.26582813
  0.10809757  0.03219971  0.00951301  0.13919996 -0.0773738   0.01141173
 -0.27473637 -0.05545042 -0.09266319 -0.03311413 -0.08626704  0.21067232
 -0.03263779 -0.1809624 ]
[-0.14100155 -0.13553515  0.21493174 -0.12409877 -0.18193041  0.04175021
 -0.37349775  0.01011965 -0.54387844 -0.16391638  0.17748271 -0.04654447
 -0.13339868  0.18147096  0.26965612  0.06578716 -0.10648395  0.11067522
  0.08978963 -0.10495019]
[-0.517712   -0.11507144  0.09826572 -0.15489452 -0.05331505 -0.28821352
 -0.39773896 -0.21958084 -0.40138394 -0.17801349  0.12406979  0.01423478
 -0.38883817 -0.00434023 -0.23846109  0.11365937  0.03080036  0.39928386
  0.11790206  0.07465898]
[-0.3695708  -0.180338    0.28585657 -0.07065006  0.00554057  0.17065158
 -0.09724381 -0.13146502  0.02822145 -0.0272091   0.296052    0.14973055
  0.19204739 -0.06695928  0.45292014  0.63833934 -0.09880997 -0.25653127
 -0.07531542  0.04340573]
[-0.12815475 -0.14680989 -0.1665661  -0.24938548  0.21629284  0.08046518
 -0.20269695 -0.40216377 -0.4257798  -0.03465836  0.16719057  0.02325534
  0.09043419  0.07296202  0.3313129   0.40755227 -0.09587149 -0.01258955
  0.13716887  0.34075025]
[-0.2727564   0.15850802  0.09146722 -0.11576258  0.10962955  0.27491432
 -0.03790884 -0.1037945   0.02079863  0.04851827  0.02181264  0.03152131
  0.08424629  0.0692094   0.12872812  0.3100264   0.06521892 -0.18731467
  0.20315397  0.18845391]
[-0.1076088   0.01865578 -0.13457163  0.07921394  0.05768885  0.01570396
  0.48267528  0.38583434  0.16436644 -0.02041907  0.84727865  0.0441878
 -0.8960068   0.0097468  -0.28976485 -0.2722906  -0.06325177 -0.54693574
 -0.09166671  0.4007429 ]
[-0.24397837 -0.23240432  0.06901402 -0.04884702 -0.08131258 -0.1411282
 -0.2198162  -0.51986206 -0.28303695 -0.18534936  0.4062244   0.02451453
 -0.2935333   0.00538107 -0.07265776 -0.2645393  -0.1988739   0.30021536
 -0.01813033  0.20726347]
[-0.01027914 -0.0275049   0.16150281 -0.23737265  0.02796017  0.29498038
  0.6247007  -0.02284268  0.05203303  0.16438223 -0.15587729 -0.04212699
  0.24620163  0.04318677  0.03603682  0.02581287  0.20483354  0.02500634
 -0.04793203  0.12707497]
[-0.37805542 -0.1605928  -0.18722937 -0.12095751  0.11680007  0.4038026
 -0.12033962  0.0059271  -0.16618386  0.129565    0.088825   -0.17748132
  0.22933947  0.11580132  0.05692441  0.09145096 -0.05614587 -0.10574111
 -0.10923754  0.19465321]
[ 0.52355903  0.09045001 -0.40389213  0.17981233  0.00935574  0.06509472
 -0.01071652 -0.4405056   0.07161696  0.07798195 -0.49949434  0.20910886
  0.7093122  -0.07116859  0.65252477  0.34016344  0.19820036  0.46852043
  0.24066404 -0.3991854 ]
[ 0.44151226  0.3189002  -0.01935354  0.0527031   0.17542593  0.01630696
  0.55363655  0.00115404  0.1596852  -0.11332755 -0.071398    0.2236523
  0.22719909  0.17051199  0.22125906 -0.0328261  -0.06853569 -0.20571528
  0.06052804 -0.02445044]
[-0.3066348  -0.07380085 -0.04062169 -0.02741699 -0.18682429 -0.09262175
 -0.8231511  -0.2333923  -0.44132942  0.10197277  0.19343974 -0.13613331
 -0.18533996  0.0095246  -0.0799583   0.20461662  0.02214689  0.13617955
  0.01087694 -0.01419911]
[-0.10695713  0.14827974  0.00190027 -0.16653536 -0.1845322  -0.00282451
 -0.3388673  -0.16166924 -0.34199432 -0.14234173  0.37117234  0.04217417
 -0.1884112   0.01686289  0.2367712   0.32732928  0.22971912  0.17597319
  0.25770774  0.15863602]
[-0.11052033 -0.04198982 -0.00053976  0.05044989  0.07478777 -0.1245113
  0.1877969  -0.05277651 -0.2406012   0.20488408  0.05100311 -0.3271383
 -0.16016431  0.08177432 -0.0590179  -0.14613333  0.06541371  0.24329199
  0.1906152  -0.10394183]
[-0.13499604 -0.12969404  0.04939773  0.0781776  -0.0921286  -0.2245098
 -0.16526632 -0.03780115 -0.10689069 -0.0660239   0.04419102  0.01077974
 -0.2847545   0.15629995 -0.02885682 -0.01116037 -0.06189968  0.10478488
  0.03653366  0.00689352]
[ 0.32558754 -0.10574277  0.02143865 -0.05945238  0.15804671  0.01781765
  0.21049386  0.2925474   0.42184842 -0.09502774 -0.30687258 -0.04552628
  0.3853457  -0.03696468 -0.07707293  0.16781746  0.01427711 -0.17789094
 -0.08458574 -0.32126796]
[ 0.15227605  0.20997857 -0.08288547  0.29639772 -0.06913797  0.11323746
  0.42788845  0.04341492  0.25355947  0.12162554 -0.08626825  0.24816504
  0.00864146  0.17980894 -0.0163902   0.02447566 -0.14606865 -0.09854803
  0.09059292  0.16769797]
[ 0.13694783 -0.07082627  0.0674623   0.05353108  0.07798673  0.10153937
  0.25923556  0.07470553  0.10368913  0.06045315 -0.11497208  0.00250146
  0.09915384  0.02516803 -0.08096504 -0.03827439  0.04015061  0.06233712
  0.14098294 -0.25909355]
[ 0.18465638  0.16730423  0.19960585  0.03414676  0.15306859 -0.31687573
  0.42229205  0.13327968  0.26327735  0.00303745 -0.26949435  0.10568042
 -0.1059899   0.0092823  -0.34632906 -0.09584922  0.27109802  0.04110719
  0.1606801  -0.19782135]
[ 0.09714008 -0.05602799 -0.18274012  0.11702353 -0.16052556 -0.37600344
 -0.00887865  0.08241354 -0.2918893  -0.04014341 -0.18698949 -0.01553481
 -0.30493385 -0.04545404 -0.10905944 -0.1867705   0.06373473  0.39397135
 -0.12447366 -0.22032596]
[-0.24782456 -0.2970469  -0.07588989 -0.01288004 -0.2047427  -0.33929282
 -0.04447047 -0.09532629 -0.28406185  0.13789643  0.09354731 -0.04330016
 -0.2836537   0.15173587 -0.04843354 -0.21511315  0.13166103  0.21793853
 -0.04573187  0.11794126]
[ 0.27627644  0.35319206 -0.2720217   0.15757817  0.21098007  0.3986996
  0.43707415  0.09422452  0.40270165 -0.01121191 -0.2032826   0.00074628
  0.12647636 -0.08016309  0.21955197  0.14203869 -0.1400473  -0.22643395
  0.13488047  0.07883149]
[ 0.34059036 -0.1419727   0.34844568 -0.28886864  0.11946444  0.29860622
  0.40332785 -0.08446129  0.05410491 -0.08534188 -0.04438352  0.05838193
 -0.01297482 -0.01426642  0.29378563 -0.0014012   0.17358615  0.06850156
 -0.04217119  0.04443714]
[ 0.1606476  -0.18133022 -0.07599691 -0.14653563  0.05851199  0.1272964
 -0.02610249  0.05983389  0.13971785 -0.06674761  0.08158732  0.00524604
 -0.05987608  0.04343071  0.1791898  -0.00097621  0.02889811 -0.05655016
  0.07936893 -0.15896928]
[-0.05254117 -0.00926164  0.40680718 -0.15687308  0.05134187  0.2856606
  0.17075816 -0.17838761  0.36369506  0.14620979  0.04371658 -0.42566895
 -0.08174042  0.00097673  0.72573876  0.49317166  0.25082263  0.22675782
  0.36293098  0.04057055]
[-0.09085891 -0.19105414 -0.2814292  -0.12938735 -0.00716396 -0.07770895
  0.20306368 -0.00344151 -0.14199153  0.18061627 -0.17458814 -0.01885258
 -0.08513407  0.07604384  0.08485782 -0.2834611   0.04940375 -0.01724622
  0.13978605  0.29688856]
[ 0.21469432  0.14339048 -0.00879475 -0.1272259  -0.13224915 -0.5919857
  0.4380406   0.47045574  0.08975597 -0.00958213  0.21246184 -0.0741646
 -0.6580519  -0.03281121 -0.07495091 -0.6330435   0.13131422  0.21762936
 -0.01486241  0.23423775]
[ 0.21838652 -0.10404696 -0.07323048  0.04617122  0.09135519 -0.11671295
 -0.01318915  0.13597998 -0.04722546 -0.10206462  0.02279565  0.33755913
  0.08243276 -0.04674514  0.10408913 -0.00731616  0.34324116 -0.04885241
  0.02893445  0.07773539]
[ 0.00646814  0.05123017 -0.2563329   0.17990156  0.00348456 -0.42522678
 -0.26090458  0.00577791 -0.10106087  0.11630064 -0.03838214  0.08792043
 -0.25232992  0.03524934 -0.21485303  0.03703901  0.07073931  0.14839639
  0.08628266 -0.2092461 ]
[ 0.2804921   0.00577302  0.03068467 -0.10310619  0.08984785  0.08641864
  0.22253248  0.32046485  0.16672112  0.13296944 -0.20066932  0.11454677
  0.09646031 -0.06757628  0.25882056  0.06309625 -0.01515661 -0.24004008
  0.1715178  -0.35258293]
[ 0.3718708  -0.06917831 -0.40244466  0.15231748 -0.09970566  0.06007432
  0.49512962  0.2247442   0.23444177 -0.06089202  0.3105945  -0.20703185
 -0.1253304  -0.07850919 -0.28606874 -0.61764765  0.00256703 -0.2648663
  0.17815489  0.26432183]
[ 0.55245614 -0.18959172  0.01952776  0.43559524 -0.00167168  0.08175803
  0.32937494  0.33698827  0.368248   -0.04649179 -0.35329947  0.13598552
  0.32979828 -0.01889876  0.16431028  0.24513741 -0.10595376 -0.31502482
 -0.04305544 -0.25087088]
[ 2.3513985e-01 -7.1692660e-02  1.9135388e-02 -4.1576318e-02
  7.6676682e-02  2.4020587e-01  3.6502841e-01  4.0116641e-01
  6.8952322e-01  1.3401218e-01 -3.1071633e-01 -1.8802400e-01
  1.7377284e-01 -7.8038938e-02  1.9661896e-04 -7.1083397e-02
 -9.6870296e-02  5.9454978e-02 -1.0145799e-01  1.4534253e-01]
[ 0.1293704   0.05298051 -0.17655559  0.13886206  0.27204123  0.16819309
  0.09270437 -0.33406612  0.1284668   0.09723222 -0.46993238  0.08893239
  0.57872385 -0.02520056  0.2155759   0.19235753  0.16329274 -0.0801306
 -0.00528776 -0.5359644 ]
[ 0.08148218  0.1269585  -0.03580037 -0.0029153  -0.00369071  0.07356197
  0.31327763  0.06419478  0.54438657 -0.05979265 -0.23817047  0.14094044
  0.4563615   0.22488123 -0.07081459  0.24521814 -0.09919406 -0.5073353
  0.18632318 -0.23483256]
[ 0.26811495  0.04722185  0.14962757 -0.03913656  0.0279393  -0.10512281
 -0.07270037 -0.1136525  -0.02139012  0.10296611 -0.2802015  -0.06889635
  0.00893975 -0.25037155 -0.35547033 -0.37688372 -0.08001585  0.19695729
 -0.10645507 -0.15520842]
layer 5 Activation
tanh
layer 6 Dense
20 1
[0.01684893]
[-0.01544114]
[0.02060791]
[-0.02578504]
[-0.00072116]
[0.00995403]
[-0.06020574]
[-0.11461622]
[-0.0184863]
[0.02973657]
[-0.1333364]
[0.00148846]
[0.07265987]
[0.00389237]
[0.12005874]
[0.06442033]
[0.01549745]
[0.09019173]
[-0.00253409]
[-0.04392749]
[0.14393063]
