layers 7
layer 0 Dense
20 20
[-0.40584397  0.05761646  0.30181438 -0.20660658 -0.27031884 -0.3497942
  0.10575623 -0.38947618 -0.30494323 -0.1698478   0.5360036   0.19973741
 -0.01735084  0.54597896 -0.24913016 -0.49358016 -0.17803027 -0.16517048
 -0.07245778  0.19077212]
[ 0.5880895   0.7744875   0.16582651  0.41450918 -0.22199208  0.27698854
  0.04791489  0.14587769 -0.11968261  0.32083347 -0.18427317 -0.08355536
 -0.16219006  0.15292509  0.2958222   0.13660896 -0.08744337 -0.10459092
 -0.22830935  0.15618461]
[ 0.31820714  0.73208636  0.04414502  0.15416816 -0.26337066  0.2806552
 -0.02900021  0.19469851 -0.32641378  0.27158085 -0.01512045 -0.09816152
 -0.41582826  0.32448658  0.17019053  0.35371456  0.14158851 -0.2694121
 -0.38397902 -0.01902064]
[-0.01190886  0.5227632  -0.18407047  0.35925746 -0.08125048 -0.10544199
  0.0733976   0.09490952 -0.46019113 -0.17512223 -0.08761497 -0.24692269
 -0.19701675  0.15889193 -0.04300395 -0.3660975   0.39464262  0.15656786
  0.37125927 -0.15140401]
[-0.03335864 -0.29813018  0.29373288  0.17534487  0.10117025 -0.15085766
  0.01417379 -0.12711701  0.1156775   0.39476043  0.47785273  0.03136275
 -0.04397457  0.13884823  0.17281747 -0.10715993 -0.17757586 -0.0179208
  0.07935786  0.08315384]
[-0.74166    -0.34437612  0.13256972 -0.04216548  0.24147506  0.14525574
  0.34971517 -0.00842641  0.28641063 -0.59428436 -0.27575    -0.58899176
 -0.12731723  0.173041    0.11488072 -0.43736553  0.5564314  -0.17972869
  0.28389922 -0.1381634 ]
[-0.5328944  -0.19726029  0.40593988 -0.4364635   0.24336147  0.28220838
  0.22905628  0.4240432   0.26850772 -0.0917941   0.01643725 -0.5837367
  0.10494793 -0.36961365  0.34772342 -0.00789757 -0.09894347 -0.08402556
 -0.17541374 -0.02888434]
[ 0.23061217 -0.61138207 -0.6454249  -0.0655291   0.34411478 -0.01238908
  0.06325014 -0.41321445  0.2864128  -0.5342065   0.08781092  0.30282646
 -0.00683076 -0.4212405  -0.2734946  -0.04828365 -0.2770955  -0.23068133
  0.04928556  0.13073032]
[ 0.01417199 -0.12389035 -0.32150826 -0.15597984  0.00914128  0.26589212
 -0.23875894  0.02733677  0.1677992  -0.2899998  -0.03180871 -0.12007945
  0.03818408  0.1456943  -0.1079518   0.10487114  0.175346    0.45134684
 -0.22009134 -0.05821639]
[ 0.24694054 -0.18553808 -0.1231899  -0.04082576  0.13209778 -0.29587117
 -0.12779549  0.18864556 -0.15979566  0.15200448 -0.05890097  0.15379791
  0.11570808 -0.24134378 -0.31184345  0.09148791  0.2455362  -0.35660776
 -0.11931513  0.10364583]
[-0.11016805 -0.2829977  -0.39264083 -0.21045026 -0.17293037  0.01730328
 -0.20529577 -0.22994253  0.2341391   0.3918664   0.22218817 -0.16486605
 -0.09820642 -0.32866797  0.18643326 -0.24949463 -0.5343491   0.3145677
 -0.24005386  0.33814302]
[ 0.02341354  0.7576454   0.1982298   0.3359091  -0.39207473 -0.43423545
  0.37238887 -0.5209426  -0.41075906  0.533311   -0.05350728  0.98033935
 -0.32117903  0.8252494  -0.08730907  0.10534492 -0.8567664  -0.64707935
  0.36552277  0.58190113]
[-0.27712807 -0.33714414 -0.4526382  -0.35344446 -0.5571494   0.10468331
 -0.14877272  0.080619    0.35799885 -0.25037864  0.35489    -0.20717962
 -0.09587108 -0.23659949 -0.1566962   0.2569348   0.14500237  0.08993958
  0.0126087   0.05704577]
[-0.01526797  0.01749423 -0.41076896 -0.02945139  0.05721795 -0.04280751
 -0.3891367   0.27049527 -0.00358709  0.16750385  0.04543724  0.20305339
 -0.12455335 -0.01491342 -0.22024529  0.2592445   0.11241779 -0.2972289
 -0.394107    0.10561702]
[-0.2950975  -0.17782061 -0.13678168  0.35447297 -0.28940582  0.11813907
 -0.26062307 -0.20773524 -0.07606547  0.37412402  0.1485152   0.33659816
 -0.250207   -0.118704    0.02900454 -0.13556069 -0.3464789  -0.01572729
 -0.13036442  0.27483317]
[ 0.09094281  0.571442    0.4552531   0.16281977 -0.10877787  0.1038445
  0.01128976 -0.1755694  -0.4952239   0.6802723  -0.1365604   0.21577765
  0.21373062  0.7373287   0.5235656   0.02908668 -0.9240838  -0.07797878
  0.12426519  0.5286788 ]
[-0.58358955  0.321683    0.27789456  0.46316162 -0.35089597 -0.32651135
 -0.10647367 -0.6527361  -0.35575366 -0.44541174  0.20646487  0.32050672
  0.2967321   0.4402465  -0.01475341 -0.49884114 -0.07979584 -0.3712836
  0.12498586 -0.16073206]
[-0.33548012  0.18009643  0.4264477  -0.6825021  -0.38863274 -0.4027022
  0.5505652   0.19549376 -0.26637995  0.28956935  0.21240076 -1.2134517
  0.693673    0.28270027 -0.34621418  0.237528   -0.14700353  0.10719199
  0.5500268   0.09343285]
[ 0.1631776  -0.2190658   0.36728406 -0.4662202   0.6276153  -0.20593287
  0.7476766  -0.4333744   0.13327049 -0.43729436 -0.7194454  -0.9800462
  0.22451112  0.22134356 -0.45718384 -0.5630491   1.0234727  -0.7637381
  0.6184673  -0.4422779 ]
[-0.92091227 -1.4032581  -0.512539    0.20336044  0.18619306  0.5086101
 -0.841494    0.25965682  0.53112006 -1.749389    0.09268444  0.33802104
 -0.18037565 -0.67003375 -0.5874344  -0.21021141  0.60053587  0.3982005
 -0.9826987  -1.0409875 ]
[ 0.0277044   0.21673924  0.2690947   0.03712717 -0.19574612 -0.09476279
  0.04911849  0.04384246 -0.19566008  0.0851744   0.09470829 -0.00942319
 -0.04019704  0.09426085  0.0629487  -0.03232248  0.02649394  0.02049948
  0.10805561 -0.02297867]
layer 1 Activation
tanh
layer 2 Dense
20 40
[ 0.42986777  0.02516461  0.0103013  -0.22141957  0.17186196 -0.2737005
  0.21794021  0.08008893 -0.10199577  0.22244214 -0.06923485 -0.26435706
  0.02179211  0.2373965  -0.01703386  0.30734682  0.2222762  -0.01352768
 -0.36939242  0.36485    -0.02357668 -0.09370316  0.25635776 -0.24584629
 -0.1266329  -0.11756027  0.25163546 -0.07392308  0.1724144  -0.08901525
  0.07661898  0.04423496 -0.14814617  0.2048744   0.26410812 -0.01370831
 -0.08325691 -0.02998447 -0.39080632  0.05515352]
[ 0.48079526 -0.13845487 -0.35519254 -0.13832867 -0.68206066 -0.5041801
  0.21068867  0.3126096  -0.180999   -0.1756795  -0.14801076  0.2376205
  0.19552667 -0.0032027   0.4072641   0.26603097 -0.35635847  0.11206467
 -0.36096787  0.01225826 -0.22882926  0.41515487  0.13675648 -0.14392377
  0.21045785 -0.25363314  0.3160651   0.23861668 -0.48492867  0.19630162
 -0.07093074 -0.4432642  -0.15697592 -0.21774258  0.17250173 -0.37076136
  0.23774149  0.04358474 -0.1532677   0.35513246]
[-0.29772246  0.11997994 -0.2875482   0.2016092  -0.26245096 -0.2724302
  0.28346285  0.24365126 -0.09632245  0.17525074  0.21020207  0.07682722
 -0.05335906 -0.19766632 -0.06208373  0.24029674  0.20394152 -0.11892189
  0.00322806  0.1323556  -0.02635575 -0.06622767  0.36513743 -0.20219289
 -0.0499136   0.03708334  0.14883925 -0.20908244 -0.28689936  0.00632646
 -0.2102757  -0.11911641  0.22920144 -0.10519579 -0.09668946  0.06168013
  0.02463003  0.28793824 -0.07125337 -0.05510821]
[-0.00976172  0.20509751  0.22275709 -0.1379016   0.00679    -0.00617394
  0.03076119 -0.00167965 -0.00212494 -0.07279714  0.18491441 -0.09320378
  0.32344908 -0.3247378  -0.1940848   0.02827289  0.09843737  0.214542
 -0.10694963  0.17283592  0.18826313 -0.14210741 -0.14411385  0.14144057
  0.38672805 -0.24137111 -0.06004186  0.08045248 -0.12175863 -0.06974193
  0.09502765  0.07462587  0.3991419  -0.08694322  0.09519829  0.15477711
 -0.25224963 -0.1765745  -0.39075863  0.35902917]
[-0.09168374  0.0679546  -0.16259527  0.0736077  -0.03563309 -0.08679275
 -0.09372284 -0.19236045 -0.03742898 -0.24320985  0.09915885 -0.35171926
 -0.02251166  0.14804348  0.16631106  0.11619795  0.28724965  0.04673032
 -0.12577733  0.26934263  0.29119712 -0.18611392 -0.11945314 -0.12858693
  0.00690603 -0.26880178 -0.26334938 -0.18851773  0.14411835 -0.0881967
  0.15970635  0.11176633 -0.23580143 -0.03980777 -0.13997108  0.15237623
  0.1836751   0.01236505 -0.01631108  0.11986495]
[ 0.30397198  0.14541551 -0.03865235  0.2307427  -0.06773125  0.18998422
 -0.33230403  0.19314383  0.16976656  0.02848457  0.02576462 -0.19744258
 -0.0532446   0.0974809  -0.08639311 -0.1254801   0.13162139 -0.08737905
  0.1775613   0.17703591  0.250169   -0.30404186 -0.26750216 -0.18828413
 -0.13737322 -0.05920545 -0.30470917  0.25081828  0.12151647 -0.24654122
  0.3450515   0.10909647 -0.19777592  0.22733352 -0.16913025  0.08422898
 -0.17806228 -0.03108988 -0.08833817 -0.25260198]
[-2.6976931e-01  3.3259636e-01 -1.2286562e-01  2.6232064e-01
 -2.1278827e-01 -1.0709518e-01 -9.9183768e-02  1.7400773e-01
  1.3707727e-01  2.2657534e-01  2.4258617e-01  1.3616033e-01
 -3.9783586e-02  2.4047381e-01  4.7372139e-01  5.6788856e-01
 -2.0508926e-01  2.7253008e-01 -4.2655718e-01  3.5872203e-01
  2.0881493e-01  2.0646317e-01  1.7431216e-01 -1.2468871e-01
 -2.6391169e-01  3.5861492e-01  5.1106840e-01 -2.6833558e-01
  6.9929466e-02  2.5778119e-02 -2.3257461e-01 -7.4838102e-02
 -1.9939700e-01  2.6409402e-01  2.4760762e-02  5.6653313e-02
  4.0978935e-04  3.4211639e-02  4.5911127e-01 -2.7965432e-01]
[ 0.32230294  0.08207246 -0.17394903  0.41742256 -0.2985651   0.02597147
  0.16020018 -0.13916108 -0.11209548 -0.29041907 -0.12167998  0.16410105
 -0.35291842  0.36991906 -0.15536189 -0.04759548 -0.1240744  -0.09653573
  0.3348584   0.03952182 -0.03181492  0.2851802  -0.47987017  0.18180634
 -0.10354654  0.19443558 -0.27825445  0.29542574 -0.30416957 -0.23594528
 -0.01467407 -0.3077174  -0.10152175 -0.06848063 -0.23968269 -0.06902981
 -0.1582076   0.03208131 -0.02271634 -0.02958856]
[ 0.12143441 -0.12652823  0.2630643  -0.02189841  0.3605553   0.05700955
 -0.1364043   0.2141683   0.08311264 -0.14669521 -0.00922481 -0.3118539
 -0.06130788  0.31462926  0.04305132 -0.08397233  0.22431181  0.17651388
 -0.08783561 -0.31799048  0.09924613 -0.19887811 -0.0373096   0.25794598
 -0.00874192 -0.03505117 -0.3390116   0.00466732  0.4136371   0.189956
  0.26111415  0.14746252 -0.3868816  -0.1355021  -0.2068835   0.20125297
  0.28021947 -0.00336422  0.09908203 -0.28404033]
[ 7.70016432e-01 -2.30342001e-01 -3.02782934e-02 -1.11578777e-01
 -4.23188865e-01 -2.60121018e-01  1.43180668e-01 -7.61456648e-03
  1.11713447e-01 -8.47150907e-02 -5.45669906e-02  1.13190174e-01
 -3.93326044e-01 -7.03968257e-02  4.29383308e-01  7.42645636e-02
 -3.45796645e-01  1.08470861e-02 -2.76872963e-01 -7.12446356e-03
 -1.73000127e-01  3.54126990e-01  1.43179849e-01 -1.03019267e-01
  2.00314056e-02  1.38154402e-01  3.51958215e-01  2.74614450e-02
 -2.79646426e-01  3.47504228e-01 -2.30517671e-01 -1.21973053e-01
 -3.12483031e-02  6.90422719e-04 -2.63643593e-01 -1.05210766e-01
  9.53704566e-02  2.92876903e-02 -3.87692302e-01  1.64113134e-01]
[ 0.150773   -0.0742585   0.13636453  0.04267228  0.10789053 -0.19422239
  0.06947412  0.18882318 -0.22262228 -0.13170688 -0.16917354 -0.13850117
 -0.32317078 -0.14146619  0.07549192  0.02734558 -0.07878402 -0.23674996
  0.22598153 -0.24476475 -0.2285574  -0.31472784 -0.04327752 -0.26757753
 -0.01062124  0.18330462 -0.2867779   0.00134347 -0.21361135 -0.24819733
 -0.10236388 -0.1862496   0.15079762 -0.04730703 -0.15699986  0.16003706
  0.2438557  -0.17297569 -0.00865867  0.04024024]
[ 0.47492474  0.32653672  0.10295652 -0.19114798  0.24452667  0.28518102
  0.36939478 -0.08410369 -0.13182877 -0.17895542  0.00536231  0.18364722
  0.5494784  -0.22498873 -0.1197556  -0.48281893  0.26671773  0.04122337
  0.26710078  0.2355754  -0.05342767 -0.32349196 -0.22302504 -0.23513938
  0.13775149 -0.2450108  -0.3923756  -0.1254436   0.10072392 -0.36017132
 -0.0069472   0.09915257  0.09320103 -0.09120273 -0.11951365  0.13040778
 -0.09835169 -0.13635325 -0.41999176  0.49966633]
[-0.31265986  0.06790614 -0.25716722  0.00217594  0.12131531  0.09074949
 -0.1881865   0.05285016 -0.03737403  0.14495477  0.23200276 -0.14183271
 -0.26588523 -0.20841105  0.06643938  0.08997712 -0.00253427 -0.04150218
 -0.1448707  -0.12165379 -0.26018247 -0.12608528  0.20667343 -0.04591191
 -0.02204796  0.07777447 -0.10969679 -0.30040637  0.09138221  0.21061647
 -0.3803067  -0.08136471 -0.14620419 -0.17378023  0.29333594 -0.20988345
  0.31267294  0.01742757  0.15396023 -0.16174231]
[-3.9027902e-01 -4.7382805e-02 -5.6074228e-02 -8.7417401e-02
 -4.4857401e-01  1.3247074e-02 -3.9576869e-02  1.4989994e-01
  1.9363073e-01 -1.3658684e-04  1.3923280e-02  3.5954431e-01
 -1.1945259e-01 -3.4407395e-01  3.9301571e-01  3.4365818e-01
 -1.1727046e-03 -1.5449837e-01 -4.6391374e-01  2.1796729e-01
 -9.3486076e-03  2.7177930e-01  3.2136419e-01 -6.8093352e-02
 -2.3011050e-01  8.9501716e-02  5.2840073e-02 -1.2877245e-01
 -1.2066779e-01 -2.6754776e-01 -2.0832451e-01 -1.1525936e-01
  1.3478814e-01 -9.3381004e-03  1.9265872e-01  1.5406534e-01
  2.6346982e-01 -1.8593889e-01 -2.5403801e-01 -1.1664183e-01]
[ 0.41842404  0.01788917 -0.06465237  0.29995474 -0.05134508  0.07148799
 -0.29679993 -0.09838357  0.19658017  0.2862092  -0.10176297  0.2126112
  0.16710947 -0.13839847  0.12320231  0.1296688  -0.39864475 -0.3648053
  0.02059882 -0.23681565 -0.14281495 -0.01893467  0.083124    0.01695911
  0.13966723  0.22601461 -0.05641622  0.31079182  0.01307118 -0.03392863
 -0.18486984  0.03475004 -0.28227577 -0.00706403  0.03742966  0.13107423
  0.18915138 -0.15118742 -0.03678914 -0.13746172]
[ 0.4742643  -0.20178773  0.20531955  0.05955378 -0.10496252  0.267321
 -0.17625985 -0.01157575 -0.15682706 -0.14902358 -0.23697951 -0.32451233
 -0.09075985 -0.28406465 -0.03158141 -0.00274757 -0.24028252  0.18372534
 -0.08603851 -0.0796132  -0.25144333 -0.265133    0.18272988  0.03932077
  0.02534267  0.09877101 -0.00194947 -0.16885366  0.32305986 -0.1227489
 -0.23474374  0.25908548  0.12086704  0.12569316  0.13794869  0.17618126
 -0.06164349 -0.10406758 -0.01626815  0.17400835]
[-0.6746979  -0.17816262  0.23755412  0.01322833  0.08246712  0.21363981
 -0.0493175   0.01670022  0.23444334  0.08388585 -0.09066058  0.42987123
 -0.43797156  0.5501845  -0.4460306  -0.13017562  0.3275837  -0.1996832
  0.32049927  0.2786429  -0.15546475 -0.00132696  0.1706765  -0.09168025
  0.1241745   0.12049646 -0.2700268  -0.18527777 -0.2284349  -0.02818609
 -0.08168251 -0.20424174  0.41921785  0.4310692   0.00257492  0.37504065
 -0.0692098  -0.2680266   0.36569208 -0.37364864]
[ 2.46991236e-02 -7.08185583e-02 -1.96701378e-01 -4.42901812e-03
 -3.36851835e-01  1.44500295e-02 -3.88373256e-01  3.56866539e-01
  2.96755170e-04 -2.22582862e-01 -2.39103541e-01 -1.21447146e-01
 -1.89806655e-01  3.71879756e-01 -9.68451500e-02 -1.97777361e-01
 -2.89030612e-01 -1.48446605e-01  2.55689602e-02 -4.29948978e-02
 -3.20595294e-01 -2.82468200e-01 -4.53693956e-01  1.46979839e-01
 -1.55469787e-03  1.69536680e-01 -3.86531465e-03  3.39134783e-01
 -2.63496935e-01  3.08545470e-01  1.13280654e-01  3.22204649e-01
  4.31790888e-01  2.14336552e-02  3.91507009e-03 -1.24861643e-01
  4.23859566e-01  1.93232819e-01  2.71447629e-01 -3.42812598e-01]
[-0.18473662  0.34660307 -0.25238857 -0.16981438 -0.17900932 -0.03974913
  0.13161121  0.16291937  0.13328813  0.06595537  0.15570085  0.03891589
 -0.23087507 -0.09426454  0.28726375  0.33893934 -0.0253871   0.03821702
 -0.352282    0.02674473 -0.17239776  0.38575748  0.01905445 -0.09149999
  0.06579101  0.183632    0.2534166  -0.06174093 -0.2140032   0.2815672
 -0.5158344  -0.06407266 -0.25476652  0.16080132 -0.20851113  0.00816692
  0.1348345   0.05368834  0.17182064 -0.2223651 ]
[ 0.40355942 -0.00829118  0.12720266 -0.07607368 -0.11749177  0.01819663
  0.23414779  0.23035456 -0.08549214  0.2331651  -0.33322024 -0.01616492
  0.09490732  0.11341783  0.20986196  0.36248067 -0.32861805 -0.2367574
  0.03848797  0.00582493 -0.23096684  0.21828112  0.19994272  0.08167244
  0.03806846  0.1348614  -0.05088107  0.08777111  0.05201338  0.12184733
 -0.281456   -0.16895044  0.00726133  0.06640682 -0.09710706 -0.08537431
  0.35804057  0.32742462 -0.2614695   0.13842003]
[-0.0225522  -0.0756882  -0.04748736  0.03033741 -0.482002   -0.15113184
  0.05535144  0.0707174   0.13570115 -0.00803949 -0.16360472  0.24550533
 -0.11032934  0.0122643   0.0992493   0.31148276 -0.03382419 -0.06212257
  0.03290149  0.05039058 -0.12380582  0.26436698  0.00245729  0.05956794
 -0.04202378 -0.05273037  0.16057378  0.05047636 -0.30475968  0.04286848
 -0.01836283 -0.11115883  0.06177297  0.02628481  0.03500322 -0.08625136
  0.00708624 -0.10972901 -0.09507778  0.0540914 ]
layer 3 Activation
tanh
layer 4 Dense
40 20
[ 0.0418414  -0.218524   -0.3529147   0.10323323  0.24198554 -0.39309356
 -0.16110256  0.23495406 -0.44211078 -0.23774116 -0.18351814 -0.06759534
 -0.16389716  0.2640834  -0.12912716  0.02703021 -0.31417555 -0.18078455
 -0.3276699  -0.10530698]
[ 0.10995374  0.16581     0.04668652 -0.00330413  0.1643811   0.1150806
  0.31506735  0.12118118  0.08730686  0.2996584  -0.0917173   0.0631647
 -0.03197245  0.24208298 -0.17278937 -0.03938267  0.10743173 -0.13995863
 -0.18585373 -0.15292633]
[ 0.15207459 -0.15906309  0.34941295 -0.16370969  0.17944154  0.11882772
 -0.1763932   0.00418176 -0.14733224 -0.02010553 -0.06240378 -0.14233369
 -0.12344687 -0.02540375 -0.18575838  0.30464688  0.0521534  -0.00845962
 -0.11367182 -0.09094537]
[-0.08997305 -0.06806892  0.11156763  0.10012458 -0.11453968 -0.14114615
 -0.15884466 -0.2602193  -0.16298518 -0.13185321 -0.13210161 -0.14810301
 -0.13942976 -0.11105854 -0.11257599 -0.01961513 -0.22226733 -0.24795613
  0.30782682  0.27439258]
[ 0.31216308 -0.08630321  0.05662466 -0.28384095  0.3732005   0.44426295
  0.12964466  0.3000404  -0.06696948 -0.1613718  -0.00301036 -0.2422866
 -0.23168996 -0.18839897  0.02489628  0.11858928  0.2477174  -0.15544038
  0.18809699 -0.15918295]
[ 0.15548155 -0.00582309  0.09131601 -0.37524664  0.15442672  0.27207592
  0.16809452 -0.03729836 -0.2660952   0.28778964  0.17710006 -0.01711116
  0.18106686 -0.14340512 -0.02828804  0.10049508 -0.20662795  0.15021253
  0.29478732  0.03082465]
[ 0.07676747  0.19946754 -0.00853252 -0.18329783  0.09953597 -0.2674719
  0.25828773  0.09353863 -0.00071244 -0.03973536 -0.25189945 -0.14812982
 -0.13885638 -0.25614643  0.05471323  0.08318805  0.19528487  0.13081475
 -0.3736244  -0.0747716 ]
[-0.2234382  -0.08530577 -0.31791478  0.17428148 -0.3369983   0.15805703
 -0.12008417 -0.19515243 -0.01120346  0.32650104 -0.3458254  -0.06492275
 -0.33417112 -0.1863284  -0.07554258 -0.13916112 -0.01549952  0.23777086
 -0.09965579 -0.14826424]
[ 0.20137274 -0.2711992   0.07570881  0.2594081   0.14506814 -0.07314436
  0.156573    0.02098972  0.06865853 -0.05301441  0.03826084  0.04543622
  0.08847913 -0.15101373  0.01260558  0.10347494 -0.15259285  0.18006341
  0.12517364  0.2334521 ]
[ 0.2521608  -0.04246969 -0.26102418 -0.14467967  0.02152753 -0.07246093
  0.21435583 -0.18529393 -0.06397106 -0.31015006  0.24981882 -0.30495295
  0.04493651 -0.09046102  0.37172955  0.16073339 -0.11209012 -0.11059499
  0.17125565  0.14552143]
[ 0.16257344 -0.2970121  -0.14284588 -0.25005546  0.37710413  0.16442108
  0.09444287 -0.06787025 -0.1341499  -0.06776755  0.10445105  0.15699638
 -0.08879165 -0.19867888  0.20963907 -0.05138714  0.14254089  0.06696431
 -0.15025832  0.15805823]
[ 0.0855446  -0.02786141 -0.05715068  0.2676035   0.17622177 -0.35589755
  0.13553812 -0.17991093  0.00187275  0.3419006   0.24724911  0.14905703
  0.07322197 -0.2920955   0.35571894  0.04767105  0.19210295 -0.22780664
 -0.48772702 -0.27774924]
[ 0.05350569  0.1888027   0.19091214 -0.380024   -0.1797352  -0.02990058
  0.15094827  0.18494871 -0.0280934   0.11117344 -0.01274796 -0.20065522
 -0.25608027  0.0084676  -0.26181132  0.35311934 -0.12096763  0.11835357
 -0.1067178  -0.10718818]
[-0.08044937  0.32762125 -0.14854142  0.00508946 -0.00244793  0.28479454
  0.07300036 -0.33350956  0.1093417   0.07342226  0.3283955  -0.11578962
  0.03460377 -0.2226588   0.38215443 -0.06557035 -0.25831097 -0.14529236
  0.11229134  0.00129269]
[-0.05493183 -0.10340843 -0.01444161  0.2625184  -0.17780468 -0.0663026
  0.31588635 -0.20255099  0.15093927 -0.16940843 -0.318224   -0.16137856
  0.07457277  0.26494706 -0.04570247  0.22538945 -0.0677958   0.07457359
 -0.2607009   0.25712466]
[ 0.00739154 -0.1310026  -0.18931527  0.1404345  -0.07314031 -0.16321032
  0.08686659 -0.17008683  0.23251562 -0.03716979 -0.23710962 -0.02984089
  0.27897292 -0.11891787  0.28697914 -0.27317253 -0.13400972  0.13402276
  0.16857006  0.36499938]
[-0.14668776  0.2931545   0.07271565 -0.28795964  0.24683037  0.0638109
 -0.11910787 -0.04796939  0.16685495  0.01100976 -0.17605071 -0.10895634
  0.08670522 -0.13572578 -0.08836026  0.01998727  0.2745198   0.2122552
  0.00970353  0.16051115]
[ 0.01611509  0.01271801 -0.2690355  -0.17750473  0.44173184  0.15545219
 -0.16603613 -0.11594421 -0.24581143  0.06733659  0.0762296   0.10479463
 -0.17102681 -0.00672698 -0.25862917 -0.27706513 -0.25542971 -0.20186234
  0.07226262 -0.18671389]
[-0.11051425 -0.2127925   0.32886425  0.26941997 -0.20260079  0.34833577
 -0.23873478  0.37342516  0.02604286  0.25879964  0.38240474 -0.22166371
  0.17104763 -0.11677868  0.2655363  -0.14965266 -0.33223116 -0.21182153
  0.23151907 -0.14158116]
[-0.0141335   0.12530494 -0.12780656 -0.00428722  0.28480867 -0.20580487
 -0.23746438  0.23216005  0.3095118  -0.02168436  0.00634494 -0.03550705
 -0.13200985 -0.39644542  0.45145443  0.03932957  0.1998597   0.316351
 -0.02194321  0.21961735]
[ 0.08155349 -0.00392936 -0.12056561 -0.28438526  0.2222535   0.11228362
 -0.08803003  0.25249782 -0.15457407  0.03531381  0.19214308 -0.07274259
  0.13268863 -0.31911874  0.43272305 -0.08783844  0.20160739  0.14878362
  0.19429079  0.10668063]
[-0.06707741  0.10649049 -0.04646455  0.1833465  -0.12590969 -0.11293809
  0.11018281 -0.05073091  0.08314843  0.3529642  -0.22720712  0.19554575
 -0.00746112 -0.01044764  0.32965013 -0.25368983 -0.19843607  0.05042765
 -0.14231208  0.06270819]
[ 0.17261747 -0.2216061  -0.27608156  0.05227081  0.20650984 -0.15122622
 -0.22700095 -0.07127338  0.41301033  0.0915441  -0.02017607 -0.19829936
  0.25508937  0.17981592  0.24269082  0.26721442  0.07722008  0.24546729
 -0.279817    0.15075551]
[-0.12756814 -0.14022245 -0.02290406  0.01134508 -0.2968319   0.03843222
 -0.3067972   0.15858918  0.23619846 -0.11066284 -0.02256785  0.0505608
 -0.12327921 -0.3240052  -0.05599142 -0.15006366  0.19273669  0.13882998
  0.0103925  -0.11005569]
[-0.14608975  0.16302666  0.29891992 -0.11820039 -0.18626481 -0.14684966
 -0.15264064  0.08031448 -0.2620908   0.18778531  0.09793457 -0.01065629
 -0.01030278 -0.07891751 -0.06762677  0.11339043 -0.24090771 -0.12385132
 -0.08936195  0.21626058]
[-0.12792015 -0.2575139  -0.31787497 -0.05419517 -0.17708465  0.11930709
  0.23803964  0.00673428  0.41924617  0.00226196  0.20199908 -0.3015706
  0.23851207  0.12458492  0.31162548  0.11349984  0.17471349 -0.22928222
  0.2092622  -0.28357807]
[-0.04604936 -0.20423214 -0.32956466  0.390904   -0.0200197  -0.34094992
  0.2597192  -0.22397149  0.4775318  -0.03720522 -0.21958958  0.02817826
 -0.03095956  0.01973947  0.15441681  0.09131341  0.02201553  0.02641554
 -0.08924587  0.2619028 ]
[-0.12241682 -0.01242212  0.15076114 -0.04892402 -0.23799433 -0.14132126
 -0.14997816 -0.05449776 -0.00694465  0.14863415  0.03957868 -0.04276323
  0.16756803  0.04626869  0.12405009  0.23045136 -0.12725717 -0.18893784
  0.4911756  -0.22283097]
[ 0.12296221  0.08344389  0.09500334 -0.1711303   0.02268586  0.22211897
  0.30671856  0.34914678 -0.205319    0.09500071  0.19051962  0.07838624
  0.24587956  0.06240462 -0.32989046 -0.12178945  0.15590386  0.23595336
  0.3581824  -0.02274052]
[ 0.2475068  -0.01309015 -0.21531546  0.18471771 -0.26115438  0.18919142
 -0.18081379 -0.07902889  0.19042303  0.04197199 -0.0508898   0.19131765
 -0.02751272  0.12169471  0.10810911  0.11248537  0.13018864 -0.19556652
 -0.0460586   0.35482457]
[-0.08836012  0.00812667  0.29635948 -0.25898722 -0.12606516 -0.17067921
 -0.11214371  0.23739111  0.05838998 -0.01253071  0.40674767  0.13807
  0.13930018 -0.06787382  0.03656464 -0.15829921 -0.02941669  0.18796788
 -0.02775658  0.11975493]
[ 0.08757705 -0.13386658  0.27164394 -0.30261326 -0.20434885  0.23057361
 -0.12410726  0.35214916 -0.25530815 -0.03763492 -0.21320009  0.02755581
  0.09093267 -0.17180152 -0.01876649 -0.17809875  0.19207813  0.3329722
  0.22988412  0.09048116]
[-0.14953798  0.17550655  0.17497465  0.27227682 -0.11166824  0.20420061
  0.05971932 -0.05661221  0.24760778  0.10937872  0.17391334 -0.07487056
 -0.09926177 -0.16425039 -0.05361728  0.1902142   0.08415319  0.23854586
  0.16390464 -0.33184358]
[ 0.06011911  0.22528972  0.04169497  0.05019338  0.24259953  0.0029116
 -0.3312337  -0.18199441  0.12313536 -0.19558725 -0.09411673  0.03599415
  0.01497619  0.03821233 -0.07982123  0.1578783  -0.1801257   0.04833153
  0.22281902  0.2933488 ]
[ 0.05417548 -0.08480708  0.1158047  -0.20607184 -0.05692348 -0.31363532
 -0.15836388  0.17849629  0.30476442 -0.30046162  0.1302763  -0.26316485
  0.1225017   0.17215598  0.11367655 -0.02232843  0.09806038 -0.140282
  0.09761775 -0.24535102]
[-0.3205441  -0.22749834 -0.04468208 -0.10701098  0.2233604   0.08890191
 -0.1178124   0.02364797 -0.00090399  0.06171452  0.22075269  0.3482311
 -0.23740898 -0.19825047  0.10162736 -0.02100559 -0.11139582 -0.04019134
  0.17765976 -0.0548862 ]
[ 0.0314371  -0.2241018  -0.22418028  0.2016681  -0.3018111   0.17852463
 -0.20030707 -0.18356259  0.1897006   0.1493414  -0.00866269 -0.24947947
 -0.2932913   0.15995762 -0.30658257  0.11650445 -0.12929069 -0.20886652
  0.02754892  0.23502752]
[-2.3909825e-01 -1.6010192e-01  9.8418728e-02  1.0574091e-01
 -6.1417233e-02  8.5934870e-02  2.2939529e-02 -3.0140290e-02
  5.1376067e-02 -1.3692187e-01  1.2945221e-01  1.9136624e-01
 -1.2958761e-01  6.8463869e-02 -3.0252579e-01  1.9000145e-04
  7.5717457e-02  7.5845249e-02 -2.3878509e-01  4.5927462e-01]
[-0.12185353  0.16749933  0.30559987  0.13299686  0.03336989  0.03767435
 -0.28196692 -0.18974337  0.10565361 -0.22409716 -0.08715052 -0.02501197
  0.02672159 -0.26078382  0.24471994  0.20723148 -0.09018265  0.25294888
  0.21880205 -0.12528124]
[ 0.14639533 -0.1905816  -0.12954137 -0.23903552 -0.15027647 -0.19881688
 -0.19535795  0.21346627 -0.38438162  0.34561527 -0.02412028  0.0658711
  0.14417797 -0.19246551 -0.05694316 -0.06342037  0.06544621 -0.0416417
 -0.19438638  0.17402767]
[ 0.04538485  0.0543101   0.03278211  0.1535183  -0.08904483 -0.08311879
 -0.04251621 -0.10914189  0.1371666   0.00099164  0.02462293 -0.02414484
  0.0428436  -0.08118765  0.10797417  0.08076754 -0.03114043  0.01848385
 -0.06563517 -0.04272217]
layer 5 Activation
tanh
layer 6 Dense
20 1
[-0.02704294]
[0.06059728]
[0.21593106]
[0.18103094]
[-0.12501271]
[0.28358296]
[0.00027169]
[-0.2590184]
[0.13438697]
[0.01719305]
[0.12440717]
[0.01284865]
[0.01111326]
[-0.13563295]
[0.07833263]
[-0.01383306]
[-0.03278982]
[0.0030986]
[0.08177842]
[-0.08648369]
[0.10103841]
