layers 7
layer 0 Dense
20 20
[-0.24544656  0.379358    0.26917598 -0.03070232  0.05139147  0.24122715
  0.07725151 -0.05793175 -0.41695738 -0.21727538  0.09069864 -0.00929748
  0.14454183 -0.04079409  0.31398913  0.2800546   0.36732656 -0.13599767
 -0.14306709 -0.16344194]
[ 0.2340095  -0.32309848 -0.17876281 -0.11108166  0.04584029 -0.10291886
  0.33376253  0.07457057  0.36947137 -0.09264135  0.11744112 -0.01526773
  0.02371046  0.23316133 -0.26739544  0.2552911  -0.3328756   0.38046467
  0.15687042 -0.18595482]
[ 0.3293411  -0.19397725  0.11507577  0.04304379  0.19684696 -0.22576952
  0.10538533 -0.21691383  0.30300176 -0.13734917 -0.19462445 -0.06358647
 -0.01521766 -0.00749645  0.16727692  0.15194225  0.17850906 -0.10794583
  0.11665523  0.29129446]
[-0.2367371  -0.13701688  0.05086175 -0.1355324  -0.12824658  0.0073103
 -0.16692725 -0.20905708 -0.35270104  0.09492819  0.27158016 -0.3543881
 -0.23389621 -0.09854673 -0.16256195  0.04864148 -0.24624723  0.07267531
  0.12777795 -0.18179335]
[-0.26503414 -0.08518291  0.5266413  -0.26297688  0.2706683  -0.1764487
  0.00191288 -0.23639312 -0.31389594  0.05278588  0.3270276   0.02785475
 -0.47016355 -0.18756264 -0.28312603 -0.32088462 -0.10977583 -0.08074357
 -0.44059438 -0.23807788]
[-0.307184    0.08237001 -0.06393459 -0.26232678  0.19677359 -0.16915151
  0.19296741 -0.20327747  0.34095407 -0.16939233 -0.24921526 -0.08744219
  0.05608392 -0.27836135 -0.04599863  0.20005518 -0.2791528  -0.2876765
 -0.164605    0.27791756]
[-0.21448217 -0.1405997   0.3720476  -0.12605575  0.03357634 -0.1983014
  0.2868746   0.08307299  0.36162925  0.02161798 -0.11881331  0.015872
  0.25468373 -0.35771888  0.07607543  0.32192177  0.06744248  0.26726544
 -0.27588537  0.02528495]
[-0.01729538  0.03774695 -0.39766484  0.14308892 -0.15969446  0.2867337
  0.11555362 -0.13063006  0.28597024 -0.03857837 -0.40165967  0.5919016
  0.35172886  0.1411301  -0.23342752 -0.02483336 -0.21305016 -0.30534443
  0.15971099 -0.14612098]
[ 0.10367953  0.10362405 -0.18446666 -0.19431482 -0.00820534  0.20232214
  0.29390362 -0.3172648  -0.37665287 -0.2736419  -0.04283984  0.12113531
 -0.02404739 -0.44335353  0.00865158 -0.14238548  0.37643358  0.17224468
 -0.15481277  0.3386851 ]
[ 0.17345834  0.2653646   0.14208716 -0.60783035  0.05115497  0.3375977
 -0.48438755 -0.13113946  0.03196714  0.00708029 -0.29216957 -0.1110922
 -0.27754346  0.4506952   0.2909777   0.22335438  0.4342475   0.657428
  0.6903169  -0.780808  ]
[ 0.7283863  -0.38114625  0.04527928  0.72807056 -0.27952236 -0.21715532
  0.06781631 -0.2025058   0.0714024  -0.53197825  0.09246259 -0.34623283
 -0.17922509  0.45026615  0.5845784  -0.34389526  0.22558524 -0.72871464
  0.16005726  0.29915422]
[-0.63037854 -0.02632511 -0.78211266 -0.00716893  0.07238671 -0.50328976
  0.3141458   0.624825    1.0745776   0.49287364 -0.18781355  0.0616166
  0.3045638   0.6540612   0.09280134 -0.3119604  -0.58219045 -0.53782254
  0.23175149 -0.36400554]
[ 0.02677147  0.04707653 -0.15301497 -0.03306607  0.00516986 -0.20588835
 -0.48800072 -0.3342864   0.01075793 -0.23582622 -0.40693906  0.28914803
 -0.06897933 -0.1020534  -0.01616161  0.01083584  0.2382736   0.45320058
 -0.30571005  0.12780415]
[ 0.06377483 -0.30533385  0.22290835 -0.19947405 -0.32214534 -0.47171703
 -0.1546835  -0.38848534 -0.06909762 -0.40975833 -0.15236643 -0.33640298
  0.340326   -0.42031014 -0.19326663  0.13569413 -0.5404095   0.08834834
 -0.35658222  0.12528978]
[-0.5229951  -0.5855634  -0.4011325  -0.51427716  0.40699568  0.35566655
  0.0815306  -0.06902323  0.17482544  0.32610813 -0.06310433 -0.5034653
 -0.23219503 -0.5619098  -0.15379219  0.29153195  0.07320441  0.43402052
  0.10484148  0.04724842]
[-0.6418406  -0.645462   -0.63495225 -0.34111226 -0.19413319 -0.43329558
  0.19992483  0.31362385  0.76071364  0.5002934   0.12357458 -0.19409709
  0.16984059  0.62749934  0.41540536  0.13563718 -0.37567955 -0.51406693
  0.30363664  0.15668909]
[-0.33987126 -0.27998254  0.21524027 -0.7462782  -0.547406    0.03000428
  0.10327448  0.38034397  0.4219168   0.24581827  0.10449027  0.41393104
  0.11226204  0.09982847  0.28003997 -0.37698278 -0.44058582 -0.14318234
  0.14908104 -0.14789827]
[-0.65746623  0.05368456  0.35536337  0.24543865  0.54887855 -0.14172085
  0.35779998  0.373079   -0.04634706  0.06110746 -0.2570011   0.18972722
 -0.16406272  0.1418122  -0.36079     0.28882948  0.25776592 -0.12915996
  0.2124492   0.39861023]
[-0.26452112  0.599774   -0.07125117  0.24285014 -0.02804303 -0.4115554
 -0.31074384 -0.11359682  0.15452693  0.3210102  -0.03340568  0.49243665
 -0.22740968  0.32377917  0.07176958  0.31832284 -0.5049952  -0.1009768
  0.07370262  0.13318184]
[-1.3626435e-01  1.1060880e-01  5.8559358e-01  4.5804083e-01
  5.0926310e-01 -6.2407017e-02 -3.1881911e-01 -9.4459973e-02
 -2.4854918e-01 -2.3193517e-01  8.5562184e-02 -1.8350625e-01
 -4.6977356e-01 -3.2939985e-01  2.0176245e-05  9.8998219e-02
  2.7311236e-01  4.5646656e-01 -4.4523072e-01  5.9965543e-02]
[-0.0524703   0.05714228 -0.02155507  0.1669623   0.07859815  0.06433048
 -0.0350469  -0.01671677 -0.18927398 -0.14491226  0.15403697 -0.27026856
 -0.03236478 -0.10889509 -0.04862422 -0.04895255 -0.02292468  0.11638822
 -0.2133549  -0.14555754]
layer 1 Activation
tanh
layer 2 Dense
20 40
[-0.50940686  0.35738072  0.24410595  0.16575754  0.16467337  0.13037021
  0.38246927  0.11502517 -0.33841532  0.05177692 -0.2667016   0.13360585
 -0.3732533  -0.06056314 -0.2248681   0.21251671 -0.00787785 -0.22021942
  0.16757521 -0.14862311  0.06631716 -0.07722507 -0.06986292 -0.22143643
 -0.11308257 -0.12530434 -0.24624439  0.02560305  0.13575679 -0.26473686
 -0.02344237  0.01187234 -0.03801518 -0.02982901 -0.24491033 -0.02120672
  0.20543565  0.09511055  0.35410625  0.03395661]
[ 0.03489727  0.14925872  0.37638763  0.42463923  0.27315035  0.03743725
  0.44742814  0.3450134  -0.26012862 -0.200736    0.2226533   0.16260391
  0.1134881  -0.00306481  0.01427573  0.3395664  -0.16532885  0.132952
 -0.14321135 -0.07181295 -0.17518705 -0.3967067   0.03594836 -0.15440807
 -0.01875168  0.06713594  0.46038574 -0.09652325  0.15405606 -0.03734088
  0.06423434 -0.38692436 -0.15050803  0.00707818  0.34485295  0.4104086
 -0.30549058  0.4120208   0.18241155 -0.22509791]
[-0.39034274 -0.01641907  0.14086173  0.5358491   0.16163032  0.20494121
  0.46571073  0.2737835  -0.18859269  0.23506396  0.02978112  0.11664025
 -0.41469145 -0.09197222 -0.26821807 -0.18315198 -0.28610298  0.047987
  0.40820464  0.43712273 -0.38891473 -0.43852472 -0.28921187 -0.00412256
 -0.29071367  0.4560456   0.72221375  0.12398144  0.6663241   0.29751906
 -0.07402825 -0.3935137   0.46000215 -0.1310159   0.5652387   0.3298398
  0.2372087   0.42682165  0.3874696  -0.1608765 ]
[ 0.19470263  0.12733728  0.16960795 -0.33979473 -0.07649547  0.4144208
  0.36518288  0.19114327 -0.23060074  0.06275724 -0.36299926  0.1198329
 -0.45603052 -0.23618428  0.1888081   0.20552707 -0.15673853  0.35381266
  0.23355952  0.17951919 -0.250631    0.13058594 -0.13941795 -0.11759266
 -0.02403137 -0.1914905  -0.2632685  -0.16210118 -0.16298142  0.29107586
  0.30775738 -0.3671257   0.29223496 -0.00821377  0.12853648  0.3105639
  0.390477    0.31023395 -0.149893   -0.04412952]
[ 0.45670068  0.15458943 -0.34007695  0.14821303 -0.2640464   0.04065218
  0.16374731  0.20714639 -0.24223854 -0.16560432  0.09271218 -0.10270965
 -0.12528479 -0.07979714 -0.10196114  0.07983042 -0.0439904   0.0766236
  0.05911483  0.22788578  0.27714244  0.1915868   0.18628928 -0.02676437
 -0.28435895  0.27149332  0.37725726 -0.1818747  -0.2950803   0.20450206
 -0.4551897  -0.09164513 -0.48132053  0.35358688  0.3635911  -0.00790759
  0.05108214 -0.5075398  -0.0372786   0.09367191]
[ 0.48414913  0.41044238 -0.2624428   0.17301807  0.53324467  0.08467007
  0.09607743 -0.25807026  0.35881993  0.12381315  0.3053514  -0.03257413
  0.4271158   0.02420543 -0.01531217 -0.08496081  0.16239472 -0.03129817
  0.11926341 -0.22488266 -0.18757486 -0.48421028  0.38114637  0.20081195
  0.13607164  0.21106683  0.126976   -0.36987036 -0.01750282  0.47933358
 -0.26702037  0.22473031 -0.6277935  -0.26206663  0.1498386  -0.00525554
 -0.16250868 -0.40350106 -0.21461259  0.13685295]
[ 0.10494819 -0.28589618  0.09856443 -0.03863928 -0.1217273   0.18474142
 -0.26102275 -0.09227815  0.12911767 -0.08217093  0.15651284  0.34796825
  0.2834795  -0.22531736  0.00736644 -0.1923949   0.2847377   0.20376211
 -0.00953291  0.20472102  0.07702164  0.03019154 -0.2612041   0.08292142
 -0.05735484 -0.34524527 -0.35101894  0.13699576 -0.15337658 -0.10493952
 -0.29246923  0.2973671   0.22332238 -0.03605603 -0.41464207  0.09014826
 -0.09254947  0.19056067  0.02417685  0.00818215]
[-0.04158327  0.01871034  0.15519926 -0.12091656  0.10694513 -0.37321302
 -0.17222777  0.08944833  0.0051258   0.0867908   0.41949078 -0.27019352
  0.40314832 -0.26044327 -0.00347551 -0.5111526   0.17006662 -0.18520114
 -0.25216746  0.09267803 -0.01380488 -0.0036497  -0.26521662 -0.17060609
 -0.11751644 -0.5630061  -0.01229868  0.0576558  -0.03606001  0.06079296
 -0.2426027   0.13614064  0.34247422  0.00715271 -0.32959223  0.54303855
  0.08902355 -0.28383377 -0.10395394  0.22634622]
[-0.9824789  -0.4027798   0.11720289 -0.944417    0.16300023 -0.05430974
 -0.5571087  -0.46816057  0.49154946  0.34691203  0.6100895   0.5219156
  0.4195135   0.05101956  0.39123365 -0.3080228  -0.05223611 -0.3302976
 -0.7372789  -0.82686514 -0.00154529  0.13257298 -0.06921834  0.21247335
 -0.2277653  -1.0912238  -0.7709599  -0.03311918 -0.28189382  0.24930352
  0.12831719 -0.05805301  0.01432817  0.19832754 -0.9540269  -0.06598912
 -0.6396418  -0.43359423 -0.4998884   0.63868713]
[ 0.30059797 -0.2727398  -0.04251102  0.17345282  0.00238169 -0.311841
  0.08650128 -0.21274088  0.03832519 -0.13883866  0.3030857  -0.19167264
  0.652195    0.17822205  0.00356786 -0.09579691  0.16164982  0.12272812
 -0.2509448  -0.277389    0.15372632 -0.30825981  0.18056503 -0.12810041
  0.3647316   0.09899524  0.18753366 -0.09554932 -0.12245225 -0.18206786
  0.10005746  0.11377233 -0.1784652   0.02685185 -0.19532557  0.03069546
 -0.22582036 -0.34247974 -0.3037769  -0.22891349]
[-0.08974879  0.22302012 -0.03857717 -0.06645415 -0.2602463   0.04088152
  0.32989    -0.02752587 -0.1887653  -0.0982405  -0.03102598 -0.52893245
  0.10922976  0.06073979 -0.26777893 -0.0787328   0.22572108 -0.10771642
  0.33009326  0.37190008 -0.53792536 -0.0648295  -0.19213521 -0.54485375
  0.20375991  0.15908064  0.0555726   0.03971228  0.55708385  0.07956283
 -0.460344    0.11370614 -0.15363108 -0.49303922  0.22338109 -0.33120838
 -0.02936077  0.09987625 -0.22974455 -0.49854058]
[-0.00430939  0.07765044  0.17369705  0.26290244 -0.31769294  0.17020223
  0.3205857   0.18638362 -0.23526159 -0.36747244  0.30237377  0.2601015
  0.37923357 -0.19595754 -0.11182243  0.16330889  0.02189837 -0.13905464
 -0.2913949  -0.2075393  -0.04639424  0.3130359  -0.0682425   0.41977105
  0.07000038 -0.14145054  0.04562774  0.06315446  0.0401578  -0.24333708
  0.18607193 -0.06117351 -0.1354292  -0.15320681 -0.2554605   0.32251397
 -0.06331144  0.17223969  0.38383737  0.4016021 ]
[-0.12557246 -0.28721222 -0.07933507 -0.32943162  0.20771393  0.26087278
 -0.36004663 -0.42332494 -0.14000149 -0.13641672  0.11470663  0.18736866
 -0.35893172  0.23289646 -0.17187923 -0.26317778  0.11910678 -0.16215432
  0.26664153 -0.34538722 -0.0075213   0.8247318   0.10305294 -0.23506543
  0.07325164 -0.21855448 -0.7566935  -0.3267688  -0.3270505  -0.01467203
 -0.1434663  -0.20286015  0.41436014  0.35102656 -0.3943044  -0.06889471
 -0.18146172  0.12515561 -0.05421286  0.17342927]
[-0.25199595 -0.44051832 -0.02234304 -0.21095581  0.08337199 -0.11548813
  0.36784774 -0.09303192  0.14214836 -0.00270575 -0.19337983  0.11263603
  0.5444044   0.02375099 -0.2552485   0.4956354  -0.54030937 -0.63455445
 -0.49362934 -0.3077534  -0.11618603 -0.14600717 -0.29733902 -0.02020532
  0.05010125 -0.1000066  -0.48391336  0.53707826 -0.05454969  0.6075278
 -0.22628517  0.05953522  0.17020474 -0.34436956 -0.18820816  0.2541229
 -0.5229949   0.2613235   0.41961527  0.20847332]
[-0.22642314  0.31456077  0.09451599 -0.05813172 -0.06559526  0.18023144
  0.3019827  -0.05008892  0.17949541  0.01181437 -0.0454259   0.1463862
 -0.16074578 -0.10926054 -0.33357462  0.3430803  -0.1391903  -0.4497644
  0.08184507  0.1883357  -0.01214378 -0.21951212 -0.07916904  0.11201587
  0.02880927 -0.2275616  -0.19580266  0.17102368  0.13063775  0.20285434
  0.15717335 -0.23921725 -0.01032307 -0.22981228 -0.2959729  -0.09371541
  0.19478597 -0.05625909 -0.01832472 -0.03124283]
[ 0.22286196 -0.37315154 -0.06714064 -0.11326     0.34669864 -0.4424753
 -0.2744162  -0.19395295  0.01695915  0.25529593 -0.1728184  -0.1540782
  0.18821327 -0.25428647 -0.03931135  0.04561793 -0.0305133   0.14736816
  0.23094527  0.1101168   0.3470688  -0.07265882  0.01386991 -0.20344236
  0.05934408 -0.08460963  0.1599518   0.1811754  -0.3290061   0.08344155
 -0.18335626  0.11460485  0.09696218  0.3253136  -0.11948439  0.07479334
  0.23047341 -0.16098563  0.08475625 -0.06824472]
[ 0.2912108   0.48918593  0.28527296  0.50638264  0.42518145 -0.1712285
  0.42336908 -0.07746857  0.01129519 -0.2215846  -0.2851088   0.06622231
  0.23456058  0.23200396 -0.34241515  0.01209133 -0.356461   -0.29353404
  0.25923833  0.11595041  0.1266541  -0.5301051   0.42188072  0.04194551
  0.3162796   0.28411603  0.4100664   0.15604219  0.17863537  0.409762
 -0.17684679 -0.39440838 -0.7290633   0.05273794  0.4242354   0.2693044
 -0.10390981  0.3562343   0.1249299  -0.2549149 ]
[ 0.43500438  0.1635629   0.17979692  0.39760214 -0.3157884  -0.531671
  0.34161523 -0.33795628  0.06604406  0.287553   -0.5014627   0.0640733
 -0.24120381 -0.25852072  0.19544323  0.0306498   0.17299575  0.35856888
  0.20342061  0.29164618 -0.04291827 -0.03634397  0.28483278 -0.1079073
  0.19709808  0.2890732   0.3406554   0.00695587 -0.40389013 -0.4179245
  0.06765098  0.07019974 -0.48301262  0.06819567  0.38296512 -0.51375425
  0.3056454  -0.40251434 -0.35226113  0.26340893]
[-0.16069959  0.06161259  0.20474781 -0.1678924   0.20046373 -0.08983037
 -0.22289842 -0.19944206 -0.02314528 -0.13909726 -0.03825921 -0.07111974
  0.47766852 -0.39459762 -0.03467484  0.4236289   0.11410052 -0.30724493
 -0.1268008   0.21223211  0.16993222 -0.5593358   0.1417207  -0.05547552
 -0.00886754 -0.19232464 -0.25135192  0.15955949  0.29714072  0.43835738
 -0.3542057  -0.13361223 -0.28243163 -0.21651357 -0.21302612 -0.11729208
 -0.06801729 -0.13208187 -0.19454396  0.15332703]
[-0.09392376 -0.07117471  0.07351725 -0.16796483 -0.12579061  0.38663992
 -0.0562299  -0.06895617 -0.05568395 -0.27920187 -0.05299848  0.11378249
 -0.18341722  0.11587214  0.2909047   0.12977003 -0.02379682  0.15666471
  0.22814757 -0.15072498 -0.00810388  0.5948709  -0.3022637   0.17172873
 -0.3025025   0.3481758   0.29528692 -0.5091906   0.01486214 -0.35406065
 -0.07515738  0.21674685  0.18487138 -0.11642108 -0.22429131 -0.07943816
  0.30242282  0.16750474 -0.07455276 -0.13976188]
[ 0.11407433  0.10411639 -0.07585722  0.18897313 -0.09001669 -0.02681576
  0.08414295  0.07598248 -0.20624427  0.06291491 -0.06446269 -0.13677564
 -0.1439402  -0.07490057 -0.08357968  0.05401285  0.08361597  0.02466808
  0.16879967  0.22886886 -0.15177877 -0.11793628 -0.0197576  -0.15957706
  0.03189871  0.17896937  0.31414583  0.0326336   0.16772452 -0.03990461
 -0.16755901  0.00622135  0.03458146 -0.04755715  0.26012683 -0.01603037
  0.11379874  0.05321089  0.01643944 -0.37941447]
layer 3 Activation
tanh
layer 4 Dense
40 20
[-0.31546003 -0.0435726  -0.44234473 -0.21961832  0.44949582  0.00943948
 -0.42610976  0.39981115  0.30048692  0.35278732  0.10224947 -0.38834003
  0.29312056  0.07431231  0.19252962 -0.07110471 -0.16197473 -0.20841266
 -0.12287137  0.02043497]
[-0.4040956  -0.01199397  0.15364332  0.05967142  0.38132223  0.32948604
 -0.24755676 -0.00455279 -0.16728653  0.17583567  0.32700124 -0.46796623
 -0.311208    0.14882536  0.14069168 -0.03177832 -0.28965116  0.40655798
  0.2571452  -0.33452985]
[-0.13240916  0.00575721 -0.23676032 -0.1298194  -0.17494835  0.09187093
  0.19118948 -0.21148677  0.24944706  0.0266692   0.09832597 -0.19744307
  0.16016433  0.21395196 -0.09406067  0.23891668  0.16415837 -0.05085631
 -0.00186252 -0.318798  ]
[-0.2144558   0.32820782 -0.3740664  -0.09662592  0.66720796  0.42911375
  0.01631358 -0.22804406  0.22022608 -0.24039657 -0.03766366 -0.32872933
  0.35190406  0.26097804 -0.20981035 -0.45532686 -0.75143814  0.02438745
  0.1517961   0.111701  ]
[ 0.03271711  0.1329624   0.13081141  0.0407121   0.14029187  0.3355754
  0.22669016  0.08979148  0.01764587  0.5287908   0.22791538 -0.20475416
  0.18697166 -0.16295004  0.10711241 -0.08509946  0.12151764  0.3678988
 -0.18463002  0.2538976 ]
[-0.07331716 -0.05347969  0.19190115 -0.19091515 -0.240123    0.16888882
 -0.23894915 -0.36059457 -0.15330161  0.45451733 -0.2845718  -0.3369625
  0.25582138 -0.11306758 -0.06106561  0.13766183 -0.20646235 -0.15841728
 -0.3813256  -0.20031875]
[-0.16847768 -0.01761446 -0.37191838 -0.05576766  0.3135593   0.23469464
  0.4540692  -0.2960874  -0.06127268  0.06413557  0.01140209 -0.47128534
 -0.09153863  0.5011019  -0.08805597 -0.20498905 -0.41047582 -0.00486303
 -0.12975857 -0.41977108]
[-0.13948502 -0.27937195  0.06101006 -0.05038284  0.00878798 -0.05611983
  0.24818803 -0.18848582  0.05008455 -0.34960532  0.22962442 -0.05093387
  0.00173748  0.10125901 -0.1035508   0.27709725 -0.4763784  -0.4799424
 -0.03748015  0.08896258]
[ 0.14038588  0.22382516  0.22796518 -0.12319387 -0.28307706  0.29545712
 -0.22305223 -0.04138117 -0.0944759   0.2100991   0.30106148  0.22974472
  0.31606635 -0.14935148 -0.11727693  0.218123    0.42426068  0.12185895
  0.3387149   0.19225784]
[ 0.21439593  0.14223486  0.2053971   0.2621987  -0.06805785  0.14101006
  0.17280006  0.07649259 -0.14898294  0.05981315 -0.19191945  0.38275266
 -0.16554224  0.11355764 -0.24610096  0.13230807  0.00344221  0.24680713
  0.17482808  0.24983744]
[ 0.34817857  0.10542574  0.11591743 -0.08612169 -0.48661217  0.05592901
  0.16243157  0.18650182 -0.26899174 -0.04839864 -0.003033    0.01098017
  0.34063327  0.16260187 -0.00898266  0.06947219  0.34757853  0.29745173
  0.21827152 -0.04983987]
[-0.09806669  0.24280642 -0.18844612  0.17017289 -0.42154047  0.02152126
 -0.17205118 -0.3346179  -0.03446066  0.3244564  -0.13639031 -0.42053646
 -0.1309699  -0.05439168 -0.04993816  0.15593943  0.3152361   0.20724376
 -0.16532539 -0.12072109]
[ 0.09895887 -0.20791627 -0.24005543 -0.40646797 -0.4190329  -0.23151667
  0.06317975  0.37710947  0.30023438  0.08783612 -0.01661642  0.19405407
  0.2801685  -0.02414258 -0.29339275 -0.21560241  0.48116747 -0.02605795
  0.17200704  0.19519965]
[ 0.20219508  0.32601348  0.39492655  0.38250446 -0.19368543 -0.15858749
 -0.42721814  0.04031215  0.07553628 -0.6559311   0.0336188  -0.23818539
 -0.06244752  0.27020162  0.16512106 -0.01462551  0.16019864 -0.0375539
 -0.27684245 -0.16749665]
[ 0.34965685  0.41093603 -0.27643633  0.21261571 -0.00996661 -0.1319828
 -0.13562027  0.28569642  0.30351728  0.23749012  0.16293578 -0.11850753
  0.02593002 -0.13702023  0.38605425 -0.12752551  0.21004488 -0.24509183
 -0.13015343  0.04815197]
[-0.3257846   0.30145848  0.1634362  -0.24740842 -0.12585036  0.3616129
 -0.12751026 -0.10698852  0.22841406  0.21400745 -0.02665493 -0.2625857
 -0.2981866   0.26394928 -0.06288757  0.09115352 -0.12068295  0.1829448
  0.00245562 -0.10672461]
[ 0.22528017 -0.02812824  0.12146647  0.38962203  0.09528701 -0.03204057
  0.13118197  0.29522073  0.20319688  0.09398881  0.08968299  0.03683414
  0.20827746 -0.32417813 -0.26339632 -0.05076661 -0.23743133  0.21344021
 -0.03487379  0.36651227]
[ 0.13639243  0.23892641  0.12387118  0.32123682 -0.04892851 -0.18872029
 -0.07375078  0.339802    0.2397848   0.25826216 -0.21666658 -0.02847867
  0.2247358  -0.22997752  0.03068466  0.2477473  -0.2593869  -0.06338801
  0.24277383 -0.1720289 ]
[-0.05883413 -0.18554789  0.08732209 -0.00361516  0.6207941   0.3407012
 -0.41242403 -0.22936517 -0.32582957  0.15190856 -0.41585627 -0.25765133
 -0.2178154  -0.39266104 -0.27511716  0.29615438 -0.44146517  0.10584016
 -0.2562831  -0.26824126]
[-0.06273988 -0.22264406 -0.22703505 -0.09555352  0.32793558 -0.06553194
 -0.14553452  0.23348057  0.07289603 -0.3903065  -0.03193207  0.05399744
 -0.21692227  0.3785569  -0.200651   -0.39548892 -0.6017733   0.180064
 -0.19163217 -0.1323688 ]
[-0.18452369 -0.220356    0.164043    0.02388206  0.2049938   0.25552908
 -0.20803101  0.05076764  0.32931674  0.17535008 -0.2907283  -0.26962906
  0.00350465  0.03949904  0.34893128  0.15687814  0.372804    0.24402834
 -0.0198629   0.34606138]
[ 0.31957743  0.09529633  0.093682    0.12781356  0.22576776 -0.00355674
  0.01625944 -0.03304641  0.24624057  0.33487558 -0.21512297 -0.14832245
  0.22489882 -0.26791358  0.33890438  0.3229179   0.12713201 -0.49032408
  0.11251199  0.29136345]
[-0.281993    0.25948897 -0.24060963 -0.21858011  0.38548258  0.5799359
 -0.14919768 -0.22597699  0.47089142 -0.20893861  0.00769684 -0.08386501
 -0.1964205   0.05873613  0.39537007  0.17721304  0.02910092  0.10026345
  0.516326    0.1387573 ]
[-0.19205786  0.13671446  0.05712616 -0.35170242 -0.19184716  0.09745362
 -0.23413447 -0.04935272  0.22085913  0.33843923  0.18737407 -0.2028548
  0.3334452  -0.24511577  0.26731887  0.1322997   0.3142999  -0.21614082
  0.00708367 -0.04534819]
[-0.04447784 -0.12021291  0.06438099 -0.00945601  0.39125142  0.204019
  0.12298327 -0.11475482  0.3546868   0.094137    0.23392312  0.21487416
 -0.16032575  0.2339598  -0.02020049 -0.09907746  0.08945004 -0.00745956
  0.11428503  0.12820739]
[ 0.01196343 -0.28134263 -0.10416725 -0.04216628  0.15359834  0.12612711
 -0.20323236  0.11959603  0.13715474 -0.4117343   0.16028795 -0.4238291
  0.16111428  0.05096792 -0.22327755  0.11689897 -0.5012814  -0.32752752
 -0.03320968 -0.18622848]
[-0.46143    -0.16773053  0.0156709  -0.41136545  0.605785    0.001017
 -0.05104111 -0.13175744 -0.1141961  -0.06920414 -0.30786788 -0.39404038
  0.2233914  -0.09760565 -0.12162831 -0.3865903  -0.673529    0.049463
 -0.41276523 -0.48938257]
[-0.41635472 -0.21912816  0.17199342  0.02640659 -0.14746976  0.01900028
  0.04882379 -0.2791594   0.09585024  0.08526364  0.21502367  0.19668348
  0.1311761   0.16683364 -0.08038382 -0.24408771  0.19618943  0.02793534
 -0.01105227 -0.24957368]
[-0.4432679   0.04206384  0.01026654  0.42675054  0.07334042 -0.3108003
  0.34171018  0.1845802  -0.26583195 -0.56193924  0.41496342  0.24713698
 -0.18460897  0.43221283  0.07540861  0.0212091   0.066819    0.26472467
 -0.10558271 -0.42549255]
[-0.01672086  0.11732854  0.0486089  -0.25769794  0.1725802   0.28389755
  0.325413   -0.20098902 -0.21569206 -0.22335766  0.4751215   0.53573287
 -0.35199293  0.3813207   0.10396117  0.07276037  0.077893    0.4188915
  0.34874624  0.10958989]
[-0.30675268 -0.05482319  0.06452793  0.07532786 -0.16916795 -0.22108494
  0.17655122 -0.156166    0.22289884 -0.013658   -0.08660854 -0.48939
  0.26764145 -0.12832977 -0.01102579  0.06657572  0.26132    -0.01522063
 -0.241273   -0.04559689]
[ 0.29749283 -0.0652492   0.15080522  0.32625324  0.15001877 -0.07497898
 -0.29319665  0.06744903  0.16390085 -0.27487227 -0.3873426   0.29170045
 -0.10221006 -0.20367062 -0.34501177 -0.2954637   0.30505595  0.20235655
  0.17910215 -0.00466135]
[ 0.3011224  -0.14695774  0.42520857  0.56461936 -0.02357746 -0.27869257
  0.36657205 -0.26540053 -0.69869095  0.16614841 -0.29734656  0.46039468
 -0.41173372 -0.16741678  0.02025523 -0.24891202  0.08889478 -0.6448369
 -0.2584295   0.19995439]
[ 0.52515215  0.3160713  -0.2903854  -0.08688006  0.02213005 -0.03794496
 -0.08352175 -0.13962997  0.30961126  0.3909335  -0.18202317 -0.43531343
 -0.02216077 -0.41465056  0.15593278  0.24639466 -0.13301885  0.07865991
  0.27922925 -0.04849853]
[-0.5730526   0.31587037 -0.10577289  0.03062838  0.567383    0.42675006
 -0.0264591   0.03850776  0.40609726 -1.0531472  -0.13399433 -0.06309539
  0.32009083  0.26675364 -0.3566784  -0.23617485 -0.9898475   0.11076263
 -0.26996794 -0.45641345]
[-0.32380587 -0.03752396 -0.30903143 -0.32056066 -0.109133   -0.19363213
 -0.00078965 -0.19122523 -0.0141437   0.07913447  0.16340446 -0.3108386
  0.3023763   0.1482807   0.16060211 -0.05426103 -0.0960276  -0.3045199
 -0.1683398  -0.04253743]
[-0.33038834  0.27554798  0.26535675  0.08442035  0.4534672  -0.34092012
 -0.213489    0.04696114 -0.15614156  0.27590138 -0.02391266 -0.2830897
 -0.18196298 -0.05491057  0.2620327  -0.14025916 -0.624261   -0.23055947
 -0.07275979 -0.01612828]
[ 0.12648651 -0.11743379  0.05835736 -0.3513354   0.26398697  0.17511281
  0.0448102   0.08440167 -0.28027523 -0.311455   -0.02317292 -0.1149295
 -0.03171952 -0.23685126 -0.15798149  0.41889396 -0.14939001 -0.15042824
 -0.5369823  -0.43502405]
[-0.31278378 -0.11249954 -0.0913777  -0.2865819   0.29347152 -0.03693053
  0.3464878  -0.433045   -0.31372994  0.2653243  -0.23598796 -0.21428892
  0.19479613  0.04217075  0.00450501  0.18334499 -0.42539448 -0.06103175
 -0.32271236 -0.2860096 ]
[ 0.02808249  0.22097641 -0.03441286 -0.08636764 -0.49846128  0.16509691
  0.06135973 -0.13757385  0.09776363  0.46044558  0.09144454  0.12624538
  0.31301516 -0.40313137  0.3966852  -0.12984045  0.685312    0.13263848
  0.1406505   0.27679175]
[-0.0234613  -0.05681151  0.04751984  0.13747092  0.08814263 -0.06603815
  0.0215186   0.05592282 -0.06338984 -0.142429    0.03013551  0.06016421
 -0.11738786  0.0657509  -0.14108895 -0.0939111  -0.2116443   0.05456826
  0.01109525 -0.01581886]
layer 5 Activation
tanh
layer 6 Dense
20 1
[0.75894636]
[-0.1816446]
[0.12295734]
[0.44350374]
[-0.59835136]
[-0.7132765]
[0.75780886]
[0.74502766]
[-0.7087546]
[-0.35376567]
[0.55655646]
[-0.2678964]
[-0.5370493]
[0.70232695]
[-0.66081774]
[-0.43815076]
[1.2062503]
[0.46706286]
[0.46718723]
[0.69882053]
[0.2141625]
