layers 7
layer 0 Dense
20 20
[ 0.08405909  0.0011265   0.01461068  0.01200286  0.10117866 -0.17920116
  0.08829939  0.1113744   0.1817128   0.29924896 -0.38178015 -0.27766964
 -0.0819459  -0.09477694  0.08512737 -0.00077755  0.22232103  0.1231885
 -0.02715549 -0.35950944]
[-0.41468856 -0.02236693 -0.33373886  0.38209042 -0.44583768 -0.14568362
 -0.33071494  0.1681138  -0.3773724  -0.04237304  0.21224035 -0.06918716
 -0.24409342  0.01936872 -0.20260385  0.13440943 -0.31109655 -0.25086308
 -0.35343426  0.35681957]
[-0.06029814  0.15642715 -0.27670503  0.14412393 -0.38046506 -0.1899149
 -0.5025596   0.41428384 -0.40037394  0.1833761   0.26369014 -0.27680665
 -0.12015335  0.34553072 -0.5097944  -0.02204427 -0.2806797   0.26878193
  0.14012322 -0.11671457]
[ 0.20818329  0.35461977 -0.29229417 -0.22789283  0.0223757   0.05492038
 -0.19754077 -0.19132572 -0.21054867 -0.26906085  0.17891811  0.13355935
  0.2519598   0.06722384 -0.06031742 -0.1494688  -0.13881244 -0.39977154
  0.13869828 -0.09949398]
[-0.18603015  0.06590091  0.32635558 -0.10226355 -0.20429671 -0.35174778
  0.2521834  -0.18245815 -0.15277416 -0.15166534 -0.22252183  0.21238334
 -0.16374947  0.12511292 -0.1133825   0.20259613  0.22396863  0.1290255
  0.00993847 -0.40502027]
[ 0.43310246  0.21750432  0.11300396 -0.39938548  0.18306336 -0.31084266
  0.57038534 -0.00206001  0.15782508 -0.17896718  0.21637003 -0.08832923
  0.04577479 -0.32139638  0.4397971   0.16520508  0.04916926  0.28933153
  0.3652082  -0.03947965]
[ 0.09086245  0.15918316  0.19755359 -0.2455557   0.0946678   0.24988626
  0.37875816 -0.25635722 -0.22025554 -0.374522    0.09270079  0.12259516
  0.29406297 -0.42060336 -0.20662272 -0.24664798  0.14197628  0.23890676
  0.12212208  0.3143645 ]
[-0.00310241  0.39144358  0.22421098  0.1734933  -0.18880574 -0.19840406
 -0.1239912  -0.16099444 -0.35594496 -0.2839536   0.19384874  0.2414112
  0.08274239  0.3813302  -0.28819993 -0.20808995 -0.32652515 -0.26174775
 -0.00636645 -0.02759982]
[-0.38167265  0.3348207   0.25734386 -0.14509995  0.34177727 -0.14296879
  0.10028986  0.27636212 -0.10223743  0.08492841  0.30992422  0.12718844
 -0.37299255  0.05295761 -0.10165161  0.1189952  -0.23836835 -0.02993794
 -0.15221852 -0.14994976]
[-0.3989417  -0.26505786 -0.18697834 -0.1927202  -0.189055   -0.34171844
 -0.07835037  0.16441329 -0.2981566  -0.07122873 -0.24455415  0.16977172
 -0.02490829  0.29050052 -0.04761772  0.07188979  0.06573942  0.32715243
 -0.39834613 -0.4218068 ]
[-0.2703941   0.1904679  -0.15127763 -0.12944567  0.35405654 -0.10984759
  0.34352705  0.2073306   0.25155216 -0.28070077  0.24984041  0.04382924
  0.10341485 -0.2403364   0.16974801 -0.02395829 -0.2712679   0.27977434
  0.29966953 -0.12460797]
[ 0.12841639 -0.3710247   0.29018247 -0.25659466  0.00431765 -0.08543462
  0.08524381 -0.38630635  0.20773137  0.07698951  0.12603755 -0.2387162
  0.02315343 -0.30197617  0.02674999  0.37774873 -0.02704371  0.5452252
  0.07787824 -0.2761452 ]
[ 0.1583283   0.16310039  0.02635469 -0.40796775 -0.08752069  0.16646633
 -0.0637123   0.09963622 -0.00827239 -0.0152004   0.3274782  -0.14386226
 -0.20883392 -0.11420411 -0.14250542 -0.02013071  0.01665494  0.32107684
  0.20419213 -0.28135854]
[-0.2595971  -0.30751732 -0.15716636  0.08479168 -0.48838657 -0.32148966
  0.07946425  0.36715645  0.00788344  0.08911661 -0.26113987  0.29872477
 -0.23734082  0.11830186  0.02943195  0.0286366  -0.00177526  0.37512842
  0.01509639  0.25378075]
[-0.2775472  -0.01662258 -0.0671435   0.17723131  0.0465892  -0.04522572
  0.31032813 -0.01566676  0.18315099 -0.49208122  0.30260363 -0.06599915
  0.2838803  -0.16768315 -0.10347879 -0.3108514   0.07383242  0.17251456
  0.17000173 -0.07023221]
[ 0.2016282   0.28089184  0.03544511 -0.26725388  0.25424144  0.01630747
 -0.08223389 -0.26896632 -0.25324404 -0.19231439 -0.39392895 -0.11308748
  0.05221375 -0.39104703 -0.04216612  0.20525816  0.09529214 -0.30061376
  0.17619476 -0.08492883]
[-0.3030678  -0.30985418  0.05423448  0.03327446  0.0312234   0.278534
 -0.37856844 -0.0023556   0.2796863   0.05288894 -0.20783055  0.22615677
  0.37415966 -0.27947116 -0.14980993 -0.23076482 -0.02200281 -0.3987045
  0.37310007 -0.24902882]
[ 0.10780221  0.78581667  0.2621101   0.17403653 -0.34711447 -0.12102654
  0.05653854 -0.46749976 -0.02699939  0.17227614 -0.37822473 -0.69193876
  0.4729598  -0.34169707  0.3735345  -0.6070337   0.62953293  0.10886804
  0.60198987  0.02042318]
[ 0.1706143   0.03737129 -0.05345053 -0.4379813   0.05843328 -0.12439893
 -0.522713   -0.4557206   0.34593484  0.61754704  0.05963536  0.06666718
  0.34055737 -0.20340177 -0.17831956  0.23474687 -0.4084224  -0.47898182
 -0.52618444  0.20180964]
[-0.17191297  0.3995651   0.1079839   0.4062417   0.398417    0.40336776
 -0.02666685  0.13114083  0.12921545 -0.01963447  0.28755754  0.20109333
  0.29477194  0.33505914 -0.40928465  0.26568273  0.00216834 -0.14226456
  0.35295632 -0.01152146]
[-0.02618963 -0.00891167  0.0379245   0.0142872  -0.0796373   0.02457872
  0.06731694  0.001503   -0.02424628 -0.01970746  0.00942006 -0.01475693
 -0.00544777  0.00975574 -0.06611548  0.01786878  0.00119569 -0.04804674
  0.00852818 -0.00090968]
layer 1 Activation
tanh
layer 2 Dense
20 40
[ 0.08142919  0.27395087  0.12695111  0.1300413   0.03618092  0.2211042
  0.05346708  0.334709    0.13281494 -0.24211754  0.00486899  0.10971979
  0.2802824   0.02377306 -0.11907847 -0.26053345  0.16898763  0.25889716
 -0.17677607 -0.18924296  0.06625509 -0.16294868  0.17013885 -0.0269165
  0.02014232 -0.18130824 -0.06452204 -0.23091735  0.10008188 -0.1452513
  0.23337373  0.15903229  0.24059671 -0.31208518  0.19760454  0.15932006
 -0.19739045 -0.23665074  0.28027767  0.3409819 ]
[ 0.12803446  0.02078406 -0.1714753  -0.12078924 -0.26943347  0.26767328
 -0.4077725   0.23160781 -0.28685522  0.19391283  0.15101175  0.21178988
  0.33297512  0.25540975 -0.02501933  0.17596725 -0.21698393  0.03003457
  0.1879577  -0.15041597 -0.07487523  0.12727095  0.19940211 -0.31733865
 -0.11208231  0.24584755 -0.35598034 -0.29079223  0.27621776 -0.44106132
 -0.15204547 -0.0922707   0.29739052 -0.32646585  0.06310143 -0.35858154
  0.37128624  0.23501158 -0.11851492  0.28943998]
[ 0.15873215  0.04457766  0.08237306  0.08048176 -0.05562225  0.20451275
  0.09184392 -0.2280434   0.07042158  0.03578984  0.2416303  -0.24997874
 -0.28486118  0.07843688  0.28269652 -0.17704558 -0.25518915  0.23847365
  0.0136841  -0.01599905 -0.07281529 -0.21332602 -0.26327008 -0.10772493
 -0.1250674   0.07241824 -0.23334934 -0.06827636  0.19673836 -0.18868136
 -0.3095908  -0.07099273  0.23507518  0.1098205  -0.18285139 -0.12931822
  0.30325767  0.12445696 -0.11630344 -0.03278376]
[-0.22861756  0.11015496  0.30489135 -0.18119845  0.00810239  0.15178587
 -0.25181395 -0.25144142 -0.11228721  0.16818193  0.18353249 -0.29959223
  0.19625266 -0.05829072  0.17859578 -0.1953826   0.06895281  0.28856865
  0.08581236  0.14009094  0.01946883  0.17413902  0.24418099  0.06036187
 -0.16825917 -0.04749305  0.26443017  0.33452305 -0.25306064 -0.09409031
 -0.11096727  0.18578185  0.17779678  0.13729247 -0.09689263 -0.02723031
 -0.22088496  0.09524018  0.02338285 -0.1402024 ]
[-0.27914378 -0.0361702   0.12877521  0.1685433  -0.08579668 -0.23553367
 -0.14889643  0.10112686 -0.20021874  0.17428204  0.07228322  0.1329992
 -0.3097877   0.09059037  0.1544519   0.04990351  0.24327031 -0.18985413
 -0.15504411  0.05472584 -0.05460564 -0.17515041  0.2485946   0.09676296
 -0.1140351  -0.05107106 -0.02335224 -0.02205599 -0.18611161  0.08202405
 -0.02554961 -0.22341391  0.28093734  0.08956217  0.02331595 -0.03781948
  0.03787517  0.03897162 -0.05173584 -0.14476202]
[ 0.06642513  0.14021748  0.15343454 -0.10356175  0.14000729  0.29516783
  0.08650114  0.15315534 -0.13725355 -0.11798272  0.27717525 -0.14791723
 -0.03893906  0.20992947 -0.04427574 -0.15375154  0.12455361  0.01654074
  0.07193264  0.06166886 -0.14254081  0.03037298 -0.30373073  0.05787693
  0.1981487   0.18024391 -0.05660091 -0.12585585  0.01848381  0.2967242
 -0.0312354  -0.01548767  0.2860557   0.14190736  0.08305064 -0.12793078
 -0.21960056  0.34215745  0.242107   -0.00151725]
[-0.26586968 -0.19196236 -0.2996233   0.4236902   0.30538103  0.02092551
 -0.29118723 -0.09435748  0.06876305  0.10888496 -0.18971744 -0.30569318
 -0.14800622 -0.07526954 -0.25909153 -0.05589264  0.13437054  0.07045657
  0.2863698   0.15851521  0.28747758 -0.15579756 -0.3007626   0.12920955
 -0.04373111  0.11827841  0.04076292  0.05477666 -0.3417453   0.36476785
  0.19567747 -0.19798264 -0.08341499  0.04881422  0.0503275  -0.15750423
 -0.27216715 -0.30219874  0.2289339   0.2616859 ]
[-0.10356844 -0.26629794  0.09861652  0.10192466  0.34186178 -0.27893993
  0.07561101 -0.19239059  0.41542545 -0.23766667  0.00413147 -0.0167514
  0.1384744  -0.28785333 -0.30425748  0.23831514  0.4064039   0.00606562
 -0.14905037  0.2531763  -0.09439142 -0.10667989 -0.11344471  0.06882203
 -0.20217346 -0.05843304  0.302189   -0.24083048 -0.10289813  0.02991787
  0.10882257  0.27612203 -0.1074531   0.17940418  0.3070383  -0.3164156
  0.06139735  0.20929332  0.18345241  0.03195797]
[-0.13623434 -0.02830905 -0.02596833 -0.30910596 -0.11101526 -0.24786495
  0.14897235 -0.17139402 -0.03021493 -0.27841717 -0.02772215  0.02689244
 -0.13583903 -0.05652681  0.19003594 -0.04325952  0.25308493 -0.03252894
 -0.00046199  0.12515417  0.14029652  0.01199133  0.07120223 -0.25573742
  0.19475152 -0.12069929 -0.15001377 -0.34425527  0.32062596 -0.366707
  0.09396731 -0.16309176  0.20092303  0.10361811  0.18760054 -0.05194169
 -0.02205556  0.06227312 -0.17062496  0.17093025]
[ 0.40172747 -0.15126602 -0.13373215 -0.35926116 -0.09191897  0.31325984
 -0.11017698  0.04420052  0.0623254   0.12509264 -0.289458   -0.12968315
 -0.22393925  0.11102211  0.28797257 -0.30506456 -0.14299689  0.20830964
  0.0424538  -0.1822068  -0.14405702  0.20866953  0.18439868 -0.22842883
 -0.00690174  0.32631132 -0.30841967 -0.20470253  0.15665689 -0.05139354
 -0.2200299  -0.20167978 -0.21572208  0.07423991  0.04593746  0.2174104
  0.38809788 -0.07994338  0.07974023  0.31660518]
[ 0.03641064 -0.13368249 -0.18282916  0.02268111  0.20899795 -0.0033928
  0.24873018  0.176292   -0.12531364 -0.03669033  0.09811123 -0.0115477
  0.17287254  0.07758202  0.08210273 -0.17541978 -0.15758164 -0.04190553
 -0.20831865  0.12356002  0.39250442 -0.04484367 -0.33369243 -0.1381034
  0.13683423  0.0614704   0.42314088  0.12797533 -0.274604    0.27464935
 -0.0692915   0.35189718 -0.0525858   0.39206344  0.15444554 -0.21103863
  0.24573892  0.0435187   0.02511234  0.135511  ]
[-0.06269336  0.0007554   0.16230087  0.0458462  -0.11913224 -0.07198142
 -0.06476987 -0.23703441  0.0415974  -0.04915342 -0.24692371  0.11830882
  0.03844454  0.01837065 -0.06679683 -0.1983901   0.12633859 -0.21113889
  0.23971412  0.05861026  0.30673215  0.20056887 -0.05443159 -0.28371271
 -0.22292791  0.23346245  0.17760539 -0.1323076  -0.30545428 -0.16729045
 -0.09568867  0.330137   -0.13253486  0.41355574  0.39456502  0.21926804
 -0.02466385 -0.00860664 -0.2651518  -0.24542384]
[-0.02400927  0.02229496 -0.22963397  0.12251249  0.3334758   0.13100226
 -0.00867926  0.35501316  0.23102407 -0.13197514  0.0239204   0.20264117
  0.23278205  0.09761219  0.4172931   0.18250245  0.13869485 -0.00234966
 -0.01340839  0.12463678  0.01042564 -0.2715058   0.2288517  -0.20500177
  0.3378032   0.22541595 -0.40967458 -0.37858453 -0.11713644  0.00552666
 -0.20739311 -0.4232591   0.34139216 -0.07900267  0.11030386 -0.25757125
 -0.16025378 -0.00426129  0.06257576  0.26567876]
[-0.20542403 -0.00799209 -0.19690269 -0.29236192  0.20313315  0.1237553
 -0.25429383 -0.32370827  0.27356803  0.01550987 -0.2866819  -0.22330274
  0.23643675 -0.3457671   0.08583954  0.10580628  0.2232556   0.12864059
 -0.1206288  -0.18833362  0.03255723  0.04823257 -0.07986645 -0.2191664
 -0.14303382  0.20082416  0.03987653  0.19640575  0.09667968 -0.16493237
  0.22554137  0.17493491  0.32313916  0.1054018   0.02008558 -0.2688827
 -0.2933716  -0.26874226  0.1840733  -0.4119746 ]
[ 0.18724997 -0.04815538 -0.17209789  0.2867615  -0.21242292 -0.20379214
 -0.2847442   0.24980162 -0.24773647  0.2514772  -0.11576389  0.22243322
 -0.0610892  -0.08418858 -0.02110338  0.26060423 -0.18661098  0.13476473
 -0.1275042  -0.13817418  0.06346679 -0.13743286  0.06440973  0.16662179
  0.166068   -0.16097121  0.01502649 -0.01311338  0.04710807  0.1761321
  0.29451302 -0.02155761  0.21583574  0.08575355 -0.30603877 -0.18233491
  0.06412412 -0.16861336 -0.26402304  0.0290455 ]
[ 8.08985382e-02  1.01617761e-01  1.15938060e-01 -2.19816864e-01
 -3.70004654e-01  1.62543282e-01 -1.81232303e-01 -2.06945553e-01
  6.24286309e-02 -6.73334226e-02 -2.19105080e-01  1.45208508e-01
  4.77529578e-02  1.80739686e-01  8.88482705e-02 -1.37627095e-01
 -2.87869480e-04  2.26416871e-01 -2.27118982e-03  3.60310189e-02
  8.90698582e-02  2.39085302e-01 -2.02096533e-02 -2.29403496e-01
 -1.42522767e-01 -1.85541227e-01 -1.13347769e-01 -6.73063993e-02
  2.25756466e-01  1.61861107e-01  1.06840238e-01  2.01462567e-01
 -2.84408361e-01  1.03813924e-01 -5.82925454e-02  1.56392649e-01
 -1.63367078e-01  3.31568897e-01 -6.82430640e-02 -8.23519304e-02]
[-0.26857486  0.02930364  0.17812032 -0.16076764  0.29327908 -0.3148299
 -0.25671333  0.04974368 -0.33946174  0.00400073 -0.20006749 -0.19910425
  0.11028916  0.289995    0.0686077   0.06755405  0.0585622   0.03765106
  0.17960995  0.04258788 -0.32144043  0.16701238 -0.19311869  0.2590598
  0.28616595 -0.17236924 -0.1923886   0.02590488 -0.01338298 -0.13263057
  0.16763872  0.02915872  0.16846934  0.23181038 -0.2391476  -0.00416526
 -0.14300698 -0.33230075  0.01931673  0.29967058]
[ 0.30494338 -0.00300797 -0.21127409  0.37566105  0.16676548 -0.4420043
  0.07289094 -0.2358214  -0.18084364  0.19113651  0.06985637  0.27083057
  0.2403476  -0.18536949 -0.27586886 -0.12680052  0.24460718 -0.2334996
  0.01169994  0.28154644  0.20102316  0.14496435 -0.27853402  0.32390973
  0.07961095 -0.38357347  0.22858047  0.06945562 -0.22651854 -0.12686214
  0.22476783 -0.18042946  0.11089244 -0.06982169 -0.12965168 -0.27043164
 -0.20689204  0.21871684 -0.1539086   0.09152582]
[-0.27143982  0.26422125  0.13361277  0.3312345  -0.04096354 -0.06936881
 -0.05586963  0.01220581 -0.25403202  0.22759095  0.0216629   0.1205533
  0.14910018  0.3131796   0.22302015 -0.09929346  0.09172222  0.23695491
  0.02099668 -0.20058823  0.19340426  0.27019608  0.06048137  0.06819747
  0.0536618  -0.2805994  -0.11435169 -0.0820877  -0.17111383 -0.057088
  0.08555017 -0.09651705  0.31743273 -0.12165312 -0.2701995  -0.05159461
 -0.1928983   0.09549562  0.15296468  0.04758752]
[ 3.41687351e-01 -6.06169086e-03 -1.09033994e-01 -2.44058073e-01
  2.02289581e-01  1.69855535e-01 -1.33775175e-02  2.61261851e-01
  7.29304226e-03 -5.00899293e-02  2.47542232e-01 -3.33839655e-01
 -2.16147482e-01  9.32922885e-02  2.31979921e-01  1.78462833e-01
  2.41987646e-01 -1.44810230e-01 -2.32852355e-01 -1.79796889e-01
 -2.50377476e-01  1.47175994e-02 -2.14585528e-01  3.13004225e-01
 -2.73201745e-02  1.30554855e-01  1.73030749e-01  3.84535462e-01
  2.73737699e-01  1.82748809e-01 -1.66991770e-01 -1.77685082e-01
  1.00174015e-02  2.28840113e-01 -2.48135984e-01 -9.16189030e-02
 -2.86302194e-02 -2.89486721e-02 -2.96107843e-04  2.22987756e-02]
[-0.01935669  0.01637    -0.01236427 -0.03526537  0.0218595  -0.00388848
  0.10759173  0.0372877  -0.02478832 -0.00170991  0.03378933  0.00873243
 -0.01344181  0.02150813  0.03916254  0.01253622 -0.06868044  0.00760185
  0.02192422 -0.02031322 -0.0010279   0.0119993   0.01764355 -0.01610223
  0.0187078   0.01528272 -0.06482475 -0.13360491  0.0446181  -0.06061406
  0.00278128  0.03071081 -0.02422997 -0.00832539 -0.04355924 -0.00941943
 -0.05921417 -0.01773826 -0.01067765  0.03333944]
layer 3 Activation
tanh
layer 4 Dense
40 20
[-0.25748095  0.07447325  0.23450753 -0.24435645  0.10676244 -0.35331357
  0.29727718 -0.11262967 -0.10936673 -0.1874202   0.09531582 -0.03707622
  0.13030788  0.20241909 -0.32358193  0.2099663  -0.11977423 -0.09062874
  0.2775081  -0.2702147 ]
[-0.0729379   0.06298082  0.3318532   0.13018508  0.4121817   0.38563052
  0.23230872 -0.11605008 -0.07047935  0.16084944  0.00970315  0.24622083
  0.15010367 -0.17050447  0.2002366  -0.12061656 -0.30785957  0.16835882
  0.25752518  0.07682779]
[ 0.16930977 -0.22824256  0.00845031 -0.11980068  0.12963596 -0.00175306
 -0.06669916  0.14789236  0.17208461  0.323795   -0.28958938  0.21549277
 -0.1729603  -0.04062842 -0.0647262   0.11330238 -0.04847674 -0.21798036
  0.14217676 -0.28220648]
[-0.22741218  0.2608167  -0.19648835 -0.28601724 -0.33134553  0.15052448
 -0.19477873 -0.09784246  0.05276577 -0.00233169 -0.27388057  0.28091344
 -0.00799475 -0.33220643  0.12536292  0.18601541  0.1689626   0.32838994
 -0.29302922  0.31297523]
[ 0.24889278 -0.07700392  0.17629638  0.31255177 -0.08721986 -0.10086975
 -0.19721964 -0.02609289 -0.18791072  0.29286593 -0.17173904  0.09458929
  0.00973122 -0.00954909  0.12455621  0.04415688  0.06191809  0.1328138
 -0.3193506   0.13355307]
[ 0.20127533 -0.2709687   0.08706018 -0.08264384 -0.1984292  -0.07039762
  0.00567976  0.22787425 -0.07585207 -0.174967   -0.13455419  0.14625318
 -0.23271354  0.29238948 -0.03178317  0.00859393  0.1065805  -0.21925901
 -0.19278212 -0.31262758]
[-0.00345407 -0.14051384  0.00414307  0.10631527  0.08012035  0.09530373
  0.2636841   0.04487002  0.15331574 -0.15452392 -0.22463977  0.26232928
  0.03558753 -0.13270815  0.24840373 -0.30633572 -0.15592986 -0.1690505
 -0.19751434  0.19369577]
[-0.15265961 -0.13255613  0.15781246 -0.21135728  0.17016669  0.2501375
  0.24541828  0.1505098  -0.2023493  -0.1619641   0.25793618 -0.20916352
  0.11007907  0.0663978   0.01138072  0.10705602 -0.16170286 -0.0843968
 -0.27132106  0.2817707 ]
[-0.0370005  -0.30768028  0.0659872  -0.14273067  0.16601197 -0.2665312
  0.0401561   0.280232    0.08555122  0.18811062  0.098385   -0.15917006
 -0.22038458  0.10195639 -0.19839935  0.15509877 -0.1986314  -0.23908494
  0.29318568 -0.16805704]
[-0.26162997 -0.02136281 -0.20926654  0.19456524  0.1349683   0.09106306
 -0.23306884 -0.34000537 -0.03042496  0.23482862 -0.01053328 -0.06845639
  0.05338437  0.18652552 -0.24142648  0.01835564  0.2186558   0.23702967
  0.16673641  0.19136287]
[ 0.20629844 -0.02692066 -0.23440433  0.15062766  0.24732667  0.22058986
  0.1975724   0.21561256  0.06201328 -0.20162898  0.28374067  0.1083167
 -0.05906516  0.23725294 -0.11140549 -0.24914616  0.23097463  0.16193001
  0.19629379  0.0128826 ]
[ 0.07046825 -0.11758582  0.18471596  0.12723269 -0.13764936 -0.02145772
  0.32522696  0.18035693  0.20179185 -0.26135278 -0.30583945  0.26822847
 -0.23761718 -0.19257696 -0.09074587 -0.25213438  0.04710297 -0.08676679
 -0.04869772 -0.20780045]
[-0.17384855 -0.19142084  0.18996885 -0.24856943 -0.00597144  0.0829161
  0.11850125  0.03536883  0.06436661  0.15146348 -0.01595557 -0.07704695
 -0.16164216  0.20517482 -0.17674893  0.13136926  0.04389722  0.10664244
 -0.01497559  0.06457479]
[ 0.24192184  0.17437236  0.2537135  -0.09809324 -0.21383746  0.18026228
 -0.09209441 -0.28747296 -0.10935163  0.20336771  0.1948604  -0.16305599
  0.09356613  0.24961855 -0.16429277  0.22735417 -0.25897297 -0.2063789
 -0.257727    0.20832935]
[-0.23222578  0.03020852 -0.23453617 -0.00589996 -0.00156591  0.33340204
 -0.26534805  0.10090718  0.27697185 -0.0664614   0.224073   -0.0069472
  0.08184652 -0.23432711 -0.36637172  0.1585597  -0.26850408 -0.03076965
  0.07658549 -0.34222156]
[ 0.02278699 -0.05295949 -0.1079638  -0.00519415 -0.25894573  0.2623408
 -0.15070283  0.11509231 -0.09119283 -0.13920848 -0.05164547 -0.17061862
  0.15981609 -0.26707685  0.16747381 -0.15821788  0.17582697  0.31966776
 -0.20129037  0.03870256]
[-0.10035673 -0.22252041 -0.04417384  0.23160094 -0.24450763  0.1744391
  0.21060829  0.09649098  0.0750229  -0.03906017 -0.02858238 -0.09829047
 -0.02571786  0.29503724 -0.25555062 -0.00699126  0.11995596  0.00090593
  0.03846216  0.13258116]
[ 0.01528577  0.27028236  0.26632315 -0.07070159 -0.17771867  0.17953
  0.06723873  0.15408853  0.06744757  0.2974557   0.26872045 -0.1705238
  0.22350548  0.13815264 -0.37295315  0.23859236  0.20360795  0.10531232
 -0.04375276  0.14924084]
[-0.21198106 -0.2561288  -0.12230225 -0.08430796 -0.22538175 -0.06100126
 -0.18763565 -0.15450214 -0.07889774  0.15796113 -0.04714411  0.19678393
 -0.01191028 -0.2241192   0.10376569 -0.16700125 -0.015469    0.24572961
  0.22455852  0.25466308]
[-0.2643204  -0.12901293 -0.28026533 -0.03269278 -0.03518515 -0.12378459
 -0.13440472 -0.09914707 -0.1863502   0.04349013  0.20708178  0.15720657
 -0.2568781   0.214371    0.18171924 -0.28617185 -0.02255407 -0.00180416
 -0.06669892  0.26048508]
[-1.09233961e-01 -2.27813289e-01 -5.90048581e-02  9.96677652e-02
 -2.51849771e-01  1.21936418e-01  1.47533625e-01  2.15532720e-01
  1.16346076e-01  9.33097908e-05 -2.93493010e-02  8.40064138e-02
 -2.26053730e-01  1.87094882e-01  3.16427618e-01 -2.18379311e-03
  2.06552207e-01 -3.79525684e-02  2.45607451e-01 -1.34085760e-01]
[ 0.00190925 -0.0532476   0.18183775  0.28354105 -0.11132786 -0.02170662
 -0.22254801  0.1531287  -0.23351036 -0.10989682 -0.21459651  0.07321496
 -0.06870291  0.15412672 -0.09611906  0.08779058  0.2816922   0.17423852
 -0.17658027 -0.21053922]
[ 0.00721506  0.00896017  0.171666    0.26258698 -0.17972718 -0.27529863
 -0.10782864 -0.09432273  0.05658347 -0.18239762 -0.079579    0.19729736
  0.26321757  0.03606218 -0.2948287   0.21080801 -0.23636244 -0.20195441
  0.27018484  0.13357581]
[-0.10241443 -0.03425142 -0.0857853   0.00229884  0.17875421  0.08100172
  0.11554493  0.10598377  0.01926756 -0.30802178  0.00069238  0.11315265
  0.17283428  0.22197747  0.10093392 -0.0687817  -0.00665045  0.05745346
  0.20930243  0.302029  ]
[ 0.34033465  0.26244947  0.02788741  0.13356377  0.013532    0.3479009
 -0.12143198  0.18060155 -0.15311211 -0.33856958  0.03364421 -0.06928732
  0.22200392  0.06020889 -0.20533249  0.01261807 -0.29059938  0.14530708
 -0.15978558  0.15867336]
[-0.19418585 -0.31531018 -0.09667624 -0.06081097 -0.02322673 -0.02262857
 -0.15077369 -0.28736594  0.04784519  0.08421024  0.16484286  0.02425289
 -0.00771825 -0.0751697  -0.15486787  0.03384185  0.14973314 -0.06916552
 -0.10287877 -0.22135344]
[ 0.19975767  0.04903857 -0.27681676 -0.03439454 -0.21246947  0.02489162
  0.05367315  0.33206296  0.22276571 -0.15763071  0.06449045  0.14961775
 -0.38074034 -0.17987686  0.2125097   0.02826269  0.16853385 -0.07508013
  0.11528664 -0.15027276]
[ 0.12310133 -0.29534093 -0.28822157  0.15772648  0.21571349 -0.26362422
 -0.00488336  0.29430476  0.10445468  0.13885029 -0.03510814 -0.01223104
 -0.13746308  0.03812965 -0.12260781 -0.04263043  0.14533055 -0.21313322
 -0.2988107  -0.11238438]
[ 0.15867318  0.3419143   0.04084818  0.07756943 -0.1583174  -0.34385273
 -0.00102066 -0.16272187  0.02045542 -0.14055511  0.1360622  -0.26007035
  0.10661896 -0.157048   -0.25559056 -0.26682207 -0.23521245  0.05524885
 -0.22744657 -0.1589255 ]
[ 0.18389635 -0.11405504  0.16034546 -0.1700468   0.1141809  -0.16143636
 -0.07213141  0.0495505   0.00646979  0.06834     0.15437533 -0.00913184
 -0.11816534 -0.33373618  0.13193695  0.04288832 -0.117816    0.29972976
  0.20268759  0.10172879]
[-0.21067785 -0.03108887  0.15560365 -0.26099852  0.10288571 -0.19565468
 -0.21261074  0.29671752 -0.14270283 -0.16018607 -0.35645458  0.17298013
 -0.22034663  0.06707286  0.22543144 -0.11836912 -0.08484146 -0.09639022
  0.28800786  0.043636  ]
[ 0.25905678 -0.13282262 -0.01441902 -0.22616747 -0.07048582 -0.18642601
 -0.1562542   0.30898187 -0.25473922 -0.28115675  0.07463586  0.00149193
 -0.22688279  0.31718385  0.15642548  0.14926673  0.0905634  -0.31774208
  0.32081154  0.1075457 ]
[ 0.04873673 -0.00453629  0.12543884 -0.0925984   0.24314517  0.30913815
 -0.27184156  0.23727724 -0.30619955  0.14520268 -0.17132726 -0.11144546
 -0.21182263  0.150728   -0.16419017 -0.03640393  0.18818296  0.13822281
 -0.19859666  0.10736801]
[-0.10556515  0.07433216 -0.18262622 -0.23735735 -0.11967432  0.19023995
 -0.18951616  0.3066644   0.11405239  0.23845583  0.29460013 -0.23405305
 -0.3608909  -0.29680938  0.22514732 -0.1067628  -0.12392332 -0.0903298
 -0.17007893 -0.18708903]
[ 0.23878376  0.05476103  0.03197363 -0.20288122 -0.07573345 -0.07386002
 -0.00132243  0.20943359 -0.25046927  0.22047004  0.24741718  0.16866988
 -0.09797598  0.22560807 -0.24431688  0.11015131  0.1045559  -0.32690266
 -0.09273139  0.14228424]
[ 0.26357442 -0.11175679 -0.0087276  -0.13677289  0.00577592  0.24072847
  0.28073278  0.10206104  0.21879737  0.13599034  0.26767844  0.2650596
  0.32321072 -0.11399107  0.22191767  0.1404924  -0.20904839  0.06315716
  0.24255693 -0.0874005 ]
[-0.17213552  0.31049737 -0.23704015 -0.21409474  0.00071011  0.19294016
  0.13893558 -0.25465962  0.13680741 -0.009216   -0.02242802  0.32529947
 -0.30445334  0.03083443 -0.35925427 -0.2238555  -0.16354704  0.01669654
 -0.2934991   0.0406503 ]
[ 0.1580125   0.19202223 -0.12589332 -0.05680941  0.0616033   0.05405602
  0.21620667  0.08300713  0.14430521  0.1414782   0.0391439  -0.16463003
  0.16590407  0.26355293 -0.13197586  0.07687873  0.25671807 -0.3021886
 -0.1684762   0.07364655]
[ 0.16929758 -0.23067738  0.1215686  -0.17867613 -0.13835835  0.25710437
 -0.08781265 -0.04807031  0.11117873  0.28196195  0.1442255   0.10721797
  0.13224156 -0.1504721   0.02978631  0.2179832  -0.24667178  0.07036792
  0.22068995 -0.07505725]
[-0.16232552  0.35075077  0.00359121  0.02849815 -0.07871385 -0.06502075
 -0.13582353 -0.15063778  0.06430517 -0.3062185   0.06031197  0.15379049
  0.1921062  -0.2797413  -0.14588094  0.1953308  -0.17840068  0.10673129
 -0.14888172  0.29326475]
[ 0.01981635  0.00273062  0.02481664  0.00770194 -0.06969672  0.00140643
 -0.0109194  -0.0177273  -0.00857748 -0.06890704  0.0138843   0.00430993
  0.01299939 -0.02921523 -0.00106814 -0.01538411  0.00399156 -0.00014218
 -0.01826929  0.02077074]
layer 5 Activation
tanh
layer 6 Dense
20 1
[-0.01840197]
[0.2273135]
[-0.40304044]
[-0.01272156]
[0.01474629]
[-0.2164907]
[0.3729264]
[0.11977319]
[-0.00643444]
[0.34279823]
[-0.05716803]
[-0.02517276]
[0.34035242]
[0.09509975]
[0.23111776]
[0.17859198]
[-0.38072237]
[0.26542637]
[0.0270094]
[0.09410273]
[-0.02753745]
