layers 7
layer 0 Dense
20 20
[-0.00150049  0.06656754  0.27026817 -0.36049768  0.18578365 -0.16292785
  0.38808346 -0.00758349 -0.13405688  0.2849944   0.12923913  0.17111507
 -0.1691523  -0.21696788 -0.13138632 -0.06380967 -0.2819275  -0.00918472
 -0.06781869  0.12920885]
[-0.09818067  0.5635236  -0.13896808 -0.08365759 -0.42979217 -0.21475327
 -0.28669205  0.20893168 -0.25982055 -0.31135648  0.22219856 -0.35330558
 -0.46038848 -0.4296844   0.14606015 -0.23237202 -0.37266356  0.0512184
 -0.30969432  0.3070801 ]
[-0.16716036  0.22181267  0.23800582  0.12535916 -0.09488557 -0.14814347
  0.26399055  0.3412216  -0.4715265  -0.06318132 -0.00903657 -0.43810922
  0.0592812  -0.26274824  0.42241374 -0.20900235 -0.32931656  0.13806923
  0.01360162  0.03954576]
[ 0.46122372  0.31117412 -0.2296681  -0.41911435 -0.12047786  0.18356963
  0.3388892  -0.32485193 -0.2707988   0.26605988 -0.07777221  0.13155884
 -0.3445265  -0.11485433  0.08006904 -0.30827448 -0.23655747 -0.01442303
  0.06764937  0.28907984]
[-0.12541136 -0.2539203   0.13505939  0.3805022   0.14594705  0.07070369
  0.33061683 -0.43731174 -0.20177041  0.4767238   0.04206237 -0.02430347
 -0.02501846  0.00106501  0.14269023 -0.3650061   0.16294149  0.25757515
 -0.12678342 -0.15202874]
[ 0.30301696 -0.58906746  0.33825132 -0.15405369  0.51133937  0.39606693
  0.11753942 -0.01339586 -0.05058015  0.13503535  0.09093631  0.00816707
  0.46510124 -0.22287707 -0.38779613  0.3938542   0.1998123   0.23803204
  0.08235248  0.19175497]
[ 0.07746556 -0.11053937 -0.16388212 -0.53615195  0.34750864 -0.20112315
  0.13299827 -0.3009994  -0.00429977  0.5081712   0.04762271  0.08616755
  0.1099263   0.16822898 -0.21232195  0.07349912 -0.02445441 -0.01599981
 -0.16099027  0.31006417]
[-0.21758348 -0.08048198 -0.32945237  0.19195096  0.25185582  0.4077658
 -0.01900692  0.3010475  -0.09907569 -0.29265887 -0.31945905  0.34276062
 -0.23406994  0.4172966   0.12990913  0.3880392  -0.3224384  -0.25186747
 -0.14436397 -0.21219541]
[ 0.19059359  0.12454128 -0.16732301  0.4593371  -0.6616485   0.17141955
  0.24090582  0.15060101 -0.04465956 -0.19541116  0.4161861   0.3661962
 -0.18314865 -0.2556396   0.21164607 -0.29956198  0.11484934  0.08641232
  0.17381243  0.20606728]
[-0.34341222  0.22384384 -0.4493769   0.1154509  -0.2164691  -0.32969904
 -0.09455235  0.16121218  0.57175994 -0.2800932  -0.11604974 -0.36520913
  0.03237667 -0.15022182 -0.32680365 -0.42682284  0.13494134 -0.2968451
  0.1477884  -0.07684151]
[-0.08908927 -0.22371018 -0.06736606  0.12370567 -0.26386553 -0.14962687
 -0.4328357  -0.02582286 -0.0364896  -0.14591378 -0.0192007  -0.19466771
 -0.06192232 -0.3997673  -0.5625369  -0.11646698 -0.28712898 -0.04275879
  0.5041142  -0.66110015]
[ 0.28900367  0.03354637 -0.01522448 -0.44715372  0.08957592  0.04045371
 -0.31247798  0.01780806  0.28560147 -0.31956282  0.15194678  0.23879667
  0.33615452 -0.2037333   0.07622558 -0.3210634   0.28245467 -0.05364638
  0.04419233  0.11941655]
[ 0.23970936  0.12073705  0.13949126  0.21326044 -0.01392248  0.39938596
  0.13318047 -0.26977515  0.28145123  0.26283747  0.04829944  0.01269005
 -0.25081623 -0.20269226 -0.22947139 -0.42004284 -0.22532685 -0.33848125
 -0.18974309 -0.13179956]
[-0.01858453 -0.2421952   0.2984102  -0.17640737  0.4634241   0.44940108
  0.25320855 -0.54357255 -0.5722654   0.00934622 -0.54780465  0.02531782
 -0.00781197  0.06083949  0.31989166  0.4627825  -0.3284638  -0.5927022
 -0.63645643 -0.5092898 ]
[-0.22383736  0.57340235 -0.15112722  0.33050385 -0.19162314  0.38760844
 -0.24450952  0.4795187   0.18309437  0.18593217  0.23430474  0.47910756
  0.08925449  0.15494509  0.4422777   0.3414011  -0.05704181 -0.00885208
 -0.13659649  0.6708192 ]
[-0.05489523  0.39767087 -0.2866378   0.44920754 -0.53372204 -0.34416506
 -0.32976368 -0.05495836 -0.14491576  0.07034975  0.43164074  0.34720248
 -0.15573877 -0.50049675  0.13402404 -0.01134483  0.12218314  0.2681398
  0.05827072 -0.16950874]
[ 0.04024485  0.35737574 -0.09776488 -0.25776368  0.16363494 -0.08358704
  0.08280987  0.2657632  -0.13450176 -0.05115343 -0.1301279   0.00603623
  0.37660643  0.1850579  -0.26330635  0.25769812  0.22709154 -0.26470765
  0.27200294  0.08645985]
[-0.11703405  0.14403424  0.22823118 -0.28405952  0.32937008 -0.16662051
  0.20983627  0.12448307 -0.22670586 -0.3510247  -0.05316504 -0.4180665
 -0.16519763 -0.24822219  0.26277205  0.35254848 -0.16119282  0.17134959
 -0.3229452   0.00634442]
[-0.05690437  0.13430616 -0.18227977  0.2611299   0.01002107  0.20948657
  0.28022662 -0.2738526  -0.05279456 -0.20729296 -0.02705895  0.10658451
  0.01247628  0.27050343 -0.13840197 -0.08619963 -0.30800226  0.02888513
 -0.36224014  0.34708506]
[ 0.3346852   0.08457432 -0.462939    0.2032194  -0.28655282  0.31518435
  0.2138601   0.4296177   0.11319546  0.08640642 -0.14770049 -0.17178437
  0.3941847   0.4502586  -0.16172034 -0.03114765  0.3133373   0.02355909
 -0.16056305 -0.18117033]
[ 0.0960722  -0.03995975  0.0759884  -0.11543982  0.10301805 -0.10104206
  0.06861028  0.01629814 -0.14635761  0.01036165 -0.02979756 -0.09593393
 -0.03846994 -0.09235986  0.02635335 -0.03316148 -0.0708133   0.14969146
  0.03612219 -0.0736791 ]
layer 1 Activation
tanh
layer 2 Dense
20 40
[-0.1777518   0.17038454 -0.11588265  0.23685518 -0.01973378 -0.18717137
  0.12111828  0.13088733  0.26086527 -0.26737398  0.2457378   0.24660258
 -0.00481901  0.01281537 -0.00087586 -0.30566248  0.03972104 -0.29108647
  0.04406116  0.0312255   0.10097604 -0.15878834  0.23827548 -0.28787234
  0.08399426  0.18334495 -0.25927374  0.33336413  0.04876616  0.09476637
  0.24050759 -0.10488784  0.3557122  -0.1084154   0.00767375  0.06285862
 -0.15498042  0.09844343  0.25969645 -0.05364316]
[-7.2962404e-03 -1.9561619e-02  2.1798556e-01 -3.2362387e-01
 -2.4726698e-01 -1.3140109e-01 -6.6853158e-02 -3.1477296e-01
 -2.3498818e-01  1.8235656e-02  5.5709187e-02 -7.2033838e-03
  2.7604967e-01  2.2388750e-01  1.3457948e-01 -3.1409466e-01
  2.5891882e-01 -6.3740998e-05 -1.3130441e-01  1.8049672e-01
  1.3891391e-01  1.1227210e-01  2.0000383e-01  2.3430431e-01
 -1.7259727e-01 -1.4054240e-01 -2.2612843e-01  1.5898833e-01
  6.2996469e-02 -1.6494930e-01  4.4246458e-02 -2.6935294e-01
  3.5927787e-02  4.2638510e-01 -2.4280307e-01  3.5438962e-02
 -2.4099199e-01 -9.2205174e-02 -2.3219278e-03 -1.6063984e-01]
[ 3.6347592e-01  3.4412992e-01 -3.4416428e-01  1.7687192e-02
  7.2474279e-02  2.0562263e-01 -1.7679431e-02  2.3155318e-01
  2.2480591e-01  1.1032905e-01  2.1315660e-01 -1.0176866e-01
 -2.8140439e-02 -2.3964004e-01  3.2834683e-02 -6.5953903e-02
 -2.6143306e-01 -9.3943864e-02 -1.1705757e-01 -4.1341983e-02
 -1.7338803e-01 -1.1869120e-01  1.1661985e-01  1.0253788e-02
 -1.3497332e-01 -1.6802773e-01  3.7896782e-02  1.8220007e-01
  4.2638499e-01  2.4287431e-01 -2.7157578e-01  7.3132142e-02
  7.5794131e-02 -2.7139962e-01 -3.9512824e-02  7.3509283e-02
 -1.2489885e-01  1.8850918e-01 -5.7964906e-05 -2.1825926e-02]
[-0.14614828 -0.08332024  0.37383592  0.01250221  0.04156825 -0.34444857
  0.2497727  -0.08898261  0.08389048 -0.13162263  0.3311759   0.27876037
 -0.05344949  0.07360025  0.22296333 -0.03966282 -0.00183272  0.2705707
  0.16595118  0.06188099 -0.1023472   0.00842992 -0.2071441   0.45682862
 -0.2541353  -0.27615836 -0.18905427 -0.29307508 -0.30799136 -0.1925517
  0.18729346  0.16382149 -0.22205836  0.3904281   0.02637794  0.45661676
  0.0470887   0.08009163  0.1848723   0.11466463]
[ 0.3121651  -0.13186009 -0.09080146  0.11753214 -0.23063557  0.24001072
  0.15235493  0.2467816   0.16681364  0.08052707 -0.24981725  0.33868104
 -0.19629808 -0.2516088  -0.29893768  0.39667857  0.0614519  -0.13087173
  0.2686634  -0.1571544   0.15606967  0.00349657  0.09774315 -0.03504132
 -0.14064859 -0.20230235 -0.43366855  0.04049031  0.12553555  0.32335532
 -0.01100577 -0.31875938  0.20453686 -0.08555064 -0.17435895 -0.20538832
 -0.15110031  0.11792251 -0.04917319 -0.11025281]
[ 0.1873163   0.09602121 -0.26486441 -0.24643327 -0.28667268 -0.2075394
  0.25456834  0.15753545 -0.30716658  0.03390447 -0.01093124  0.15169367
  0.11389433 -0.30636123 -0.08302838  0.02428104 -0.03441704  0.09866694
  0.33737147  0.11728717 -0.06533422 -0.19768764  0.2532564   0.16909835
 -0.30528784 -0.09751429  0.15035488 -0.14524627 -0.16719142  0.22158442
  0.03724318 -0.31249696 -0.01947151  0.14298719  0.12394412  0.2701566
  0.05343469 -0.1497071   0.31432593  0.05245513]
[ 0.15743177 -0.2094048   0.17365469  0.21985683 -0.20223664  0.2749552
 -0.2555702   0.07904333 -0.09011871 -0.23351157  0.2820832  -0.32919383
  0.06545551 -0.27932146  0.08375733  0.01121477 -0.13188647  0.22635643
  0.1077608  -0.10409345 -0.2100772   0.08401944 -0.11172026 -0.03371751
  0.13094275  0.1474299  -0.24414863  0.06329541 -0.1338029   0.0672086
 -0.20510714 -0.2760909  -0.02051497 -0.10614831  0.04727433 -0.10509339
  0.03774489 -0.14354503  0.05288841  0.01509221]
[ 0.04236896 -0.17920677 -0.3534892  -0.10160803  0.28990638  0.02501352
 -0.21489634  0.0863288  -0.2233812  -0.09172066 -0.24773115 -0.22604336
 -0.00722333  0.31011924 -0.02751792  0.09007643 -0.29253212  0.3358052
  0.21039906 -0.03313383  0.22944084  0.20290808 -0.08788961  0.35875535
 -0.0624763  -0.26586646  0.23605348 -0.04016997 -0.00327455 -0.39730832
 -0.0897114  -0.2625068  -0.15353887  0.3554932   0.29641876  0.19528961
  0.04861641 -0.12445787  0.03723747  0.08023622]
[-0.205062   -0.16439922 -0.01498529 -0.4992179  -0.42880464 -0.37011087
 -0.08970352 -0.06064212  0.1802607   0.06896942 -0.23511222  0.05623037
 -0.12268306  0.21400148  0.10323433 -0.24159189  0.20659532 -0.13127814
 -0.07347026 -0.19049767  0.21915668  0.29187927 -0.37284523  0.25972632
 -0.11026642  0.19801599  0.21846114  0.20205164 -0.49271265 -0.05158586
 -0.24844252 -0.09482078 -0.42039892  0.29436648 -0.22532575  0.16520724
  0.08966818 -0.36630598 -0.19336627  0.18385462]
[ 0.00505183  0.2504373   0.12249615 -0.03870096  0.09619602 -0.00353289
  0.18637435  0.06796373 -0.08726875  0.06339087  0.06896371  0.02447788
  0.13884187 -0.0108009  -0.10455873  0.06048391 -0.08764169 -0.08797897
  0.04533825 -0.06701851  0.02568009 -0.13984086  0.20104668 -0.21013337
  0.16003366 -0.3472192  -0.45444468  0.23038624  0.04186575 -0.3625536
  0.10884022 -0.0427097   0.02275321  0.0193762   0.41742656 -0.11007867
  0.1349926  -0.10783827 -0.2450029  -0.04990437]
[ 0.2023651  -0.04837766  0.01974892 -0.35431564 -0.02552891  0.17360756
  0.0598256   0.14202847  0.16830057 -0.10677766  0.00447849 -0.02405096
 -0.05766848 -0.08362718  0.01284124 -0.05592586  0.08198979  0.27093464
 -0.1826727   0.03969128 -0.04882998  0.2186894   0.07057098  0.06739195
 -0.1835192  -0.04386879  0.26250237  0.16325161 -0.11497895 -0.2842475
  0.0230179   0.10816911 -0.15596007  0.37382528  0.08249877 -0.13364689
  0.07964897 -0.06511129 -0.26727685  0.1579391 ]
[-0.12842421  0.00788555  0.24151763  0.04737908 -0.3083158  -0.10351752
 -0.21532886  0.08859968 -0.3525785  -0.1602202   0.1197105   0.08512901
  0.30203766  0.12549916 -0.22980906 -0.05884921 -0.00971388 -0.10347702
  0.1938584   0.32152623 -0.02638451  0.03335009 -0.06064697 -0.16998945
 -0.00909225 -0.33678368  0.00734305 -0.02262699 -0.19025558  0.28943542
  0.25801626  0.11503424  0.09381757  0.07332083  0.36393446  0.12176292
 -0.21285163  0.01692881  0.24539089  0.23578653]
[ 0.0068597   0.01359089 -0.00062487  0.13307491  0.19859968 -0.06362036
 -0.2969516   0.07805154 -0.30073097  0.17982379  0.29590178  0.005917
 -0.26850197  0.13229567  0.12351427 -0.08255867  0.06521456  0.23874149
  0.39536646 -0.14984734  0.07259239 -0.00805888  0.08522015 -0.10861412
 -0.15871347 -0.08287762 -0.28166503  0.12835835 -0.12309153 -0.19795136
  0.17930865 -0.01260096  0.10586759  0.13733077  0.35961938 -0.17614932
  0.0020817  -0.2419456  -0.38911092 -0.28690952]
[-0.20278752 -0.36014906  0.15959488  0.42030638 -0.2032613  -0.10245996
 -0.07189282 -0.5990682  -0.2739064   0.23405418 -0.12506239  0.09895267
  0.00173906  0.15810229  0.08199986 -0.14502922 -0.10399066  0.36171544
  0.4575125   0.21412697 -0.03763362 -0.10397455  0.06529087  0.07126287
 -0.11849677 -0.13588467  0.21966036 -0.13308111  0.10429958  0.21260776
  0.39855742 -0.19614731  0.2600157   0.13075826  0.14541298  0.13798386
 -0.02245282 -0.1702158   0.01971704 -0.15962985]
[ 0.31831837  0.35719642  0.18281679  0.08338924 -0.20056498 -0.02242619
  0.2865424  -0.22180858 -0.16879377 -0.01470164  0.03967553  0.20431711
  0.23690647 -0.0439488   0.19260783  0.31408694  0.15992458  0.06143289
 -0.11623301  0.06469463 -0.17195289  0.06508712 -0.22585352  0.347044
  0.21682931  0.06589289 -0.27371538  0.05168064 -0.07894552  0.08798844
  0.33872697  0.14870098  0.16779836  0.34781492  0.27188835 -0.12614822
  0.18539679  0.07478261  0.22497576  0.00585163]
[-0.21121211 -0.04391333 -0.11761145  0.06207524 -0.06420647  0.2970264
  0.0901498  -0.20383635  0.2578733   0.20801377  0.24707194  0.28456095
  0.2691608   0.21307261  0.15584011  0.04701768  0.08225674  0.16121452
 -0.3163707  -0.04880973 -0.06071816 -0.33900422  0.08967713  0.10115926
 -0.07401352 -0.14150621 -0.106264   -0.34867677  0.23095022  0.01870267
  0.05362074 -0.26782075  0.33533776  0.14111611  0.28557387  0.14720133
  0.00513428  0.24241096  0.3211359  -0.12919334]
[-0.04035962  0.05887233  0.03956613 -0.38083926 -0.10810497 -0.3453125
 -0.09093217 -0.2707723  -0.06514183  0.12924714 -0.04526706  0.11524606
  0.09817375  0.33940417  0.13982077  0.16454573  0.3015206   0.32391828
 -0.21669827 -0.19420007 -0.06498413  0.13690771 -0.39470917 -0.15746398
  0.20353436 -0.04761706  0.1330337  -0.20755589  0.21830706 -0.04376173
  0.29508254  0.07596841 -0.14702886 -0.03564661 -0.03644537  0.20063688
 -0.10159603  0.04811809 -0.13305669  0.15466641]
[-0.00607242 -0.06105769  0.09580889 -0.06334769 -0.05693271 -0.17826992
 -0.22637701  0.3877948   0.12969454  0.26471472 -0.22910547 -0.18679924
 -0.21406518 -0.08679215 -0.06446033  0.40020266  0.17563677  0.22315724
 -0.45592293  0.09513599  0.03885187 -0.08320508 -0.12476473  0.26494026
  0.21032993  0.06594322 -0.3511407  -0.03045184 -0.20837526  0.23350617
 -0.18368466 -0.1627059  -0.28442264 -0.1141123  -0.27318493 -0.06684493
  0.07537276 -0.16784991  0.02696879  0.2401764 ]
[-0.2865271   0.11508409  0.28461856 -0.17189729  0.36344197 -0.3048211
 -0.30581614 -0.00264354  0.2140504   0.12301504  0.19288221  0.16614196
  0.09397989  0.12677044  0.18003649  0.19426821 -0.16134925 -0.18235095
 -0.3444542  -0.3003246  -0.05345624 -0.17405988  0.25950873  0.08284575
 -0.00985772  0.21476969  0.13962506 -0.01335718 -0.03430174 -0.1712133
 -0.37671334 -0.01550032 -0.32316902 -0.07442147  0.07493519  0.06818505
 -0.23599364 -0.32863274 -0.06282526 -0.21417886]
[ 0.2088785  -0.25086072  0.05450001 -0.1496021   0.08319692 -0.367035
 -0.11222749 -0.50368226  0.25671554 -0.19967416  0.06940617 -0.14141887
 -0.13426273 -0.01375471  0.22069557  0.03701075 -0.01259913  0.12091848
 -0.0766174  -0.04233174 -0.20637688  0.12122999 -0.34154063  0.04266456
  0.2067869   0.28730613 -0.09527787  0.13705468  0.08705106  0.0054375
  0.05737799 -0.25718537  0.00444789  0.1847704   0.25735784 -0.05965689
  0.03366916  0.28011525 -0.3360812   0.07264894]
[ 0.1951057  -0.01721241 -0.08128779  0.26931068  0.03931895  0.07196917
 -0.0932335  -0.06628596  0.10843099 -0.14299232 -0.09694369 -0.10836206
  0.01461564 -0.01457898  0.03068126 -0.04340941  0.00690438 -0.17761561
 -0.01056054 -0.07430916  0.02207963 -0.03717128  0.13663912 -0.19358069
  0.06089629  0.06452243 -0.12744243  0.11032026  0.0645391   0.00694063
 -0.02602414 -0.02490922 -0.08448968 -0.06226836  0.01928115 -0.24313743
 -0.08657013  0.04460808 -0.06741907 -0.11729854]
layer 3 Activation
tanh
layer 4 Dense
40 20
[ 0.3364078   0.17936881 -0.28013936  0.15893388  0.27153152  0.22629851
 -0.17773774 -0.10246436 -0.05359212  0.2576539   0.06547565  0.17377679
 -0.17607087  0.2570749   0.07679722 -0.11101802  0.22464317 -0.09455613
 -0.27766833  0.11742486]
[ 0.27269185  0.10830184 -0.13171546 -0.3032573  -0.3209641  -0.12059034
 -0.14864849 -0.25900808  0.14577995 -0.21128663 -0.15507643  0.27134958
  0.33212423 -0.21814084 -0.10323661  0.33084795 -0.04837552  0.02983092
  0.03420492 -0.08341116]
[-0.17596473  0.26535383  0.19855876 -0.29188904  0.16262956 -0.00800931
  0.08467823 -0.04926139  0.21209577 -0.3288074  -0.07331245 -0.22976413
 -0.0804631  -0.10342027  0.08467726 -0.06112204  0.26442352  0.26106596
 -0.21966106 -0.12798002]
[ 0.26384857  0.10362034  0.03458152 -0.04409115  0.2630696   0.05875917
  0.16167346  0.30208984  0.004007    0.3002218  -0.28478545  0.07689717
  0.06562205 -0.14672633 -0.00809667 -0.2900004  -0.0722053  -0.22867368
  0.21036208 -0.1311207 ]
[ 0.1289509   0.30800387 -0.07632483  0.15699908 -0.18420063 -0.20104803
 -0.06817991  0.17658208 -0.03458555  0.12111681 -0.02328023  0.25890705
 -0.22993384  0.3020337   0.32397944  0.33155507  0.08890606 -0.02425018
  0.11248921  0.07175758]
[ 0.34307766 -0.00464563 -0.03690866 -0.23380257 -0.18282384 -0.25604936
  0.16441461  0.2610306  -0.16579     0.339291   -0.30148664  0.03031015
  0.00067805  0.32026604  0.06553324  0.12245929 -0.28290853 -0.27184075
 -0.1388994   0.08652467]
[ 0.1639728   0.08635136 -0.04211496 -0.31256035 -0.35612765  0.10464729
 -0.12386014  0.32523382 -0.15757662 -0.26378685 -0.21515958 -0.29673153
  0.2487932  -0.23211165 -0.28112307 -0.0322242   0.2705337  -0.2530988
  0.11590535 -0.03308385]
[ 0.21995924  0.21287213  0.3168879  -0.23636864 -0.13237266 -0.1684322
 -0.13730703 -0.26661393 -0.4138783  -0.2603232   0.26906165 -0.14747266
  0.01349244 -0.01040191  0.01018629  0.18492347  0.12404983 -0.21199575
 -0.25231567  0.30232376]
[ 0.12983997 -0.08770369 -0.07265387  0.18943515 -0.23249416 -0.23942913
 -0.24009643 -0.1865755  -0.2528843   0.10628436  0.0503455   0.17213775
 -0.3137703  -0.24273162 -0.08433089 -0.0442985   0.01325133  0.13928296
 -0.04636651 -0.219786  ]
[-0.00322751 -0.13509595 -0.25435194 -0.28184998 -0.24713798  0.28912684
  0.19545531 -0.13837418 -0.08770525 -0.20333423  0.04351627 -0.22897469
  0.12983705  0.07199706  0.19172733  0.07654734  0.21124588 -0.06233666
  0.0105409  -0.01136511]
[-0.12471502  0.1363351   0.2939121  -0.17622726  0.01510516  0.23767981
  0.05161031 -0.19557853  0.24632022  0.2393867   0.02256333 -0.04668166
  0.2726886   0.27255234 -0.17862606  0.01448064 -0.1040957  -0.17736192
 -0.23554927  0.08800395]
[-0.01517496 -0.23918344  0.07601492 -0.18004407 -0.20214172  0.25866675
  0.04385757  0.04557981  0.13739331  0.17264044 -0.21731403  0.04965819
  0.05328756 -0.17130762  0.05563525  0.24490494 -0.03800528  0.16552408
  0.16883428 -0.29481328]
[-0.10233426  0.08360714  0.09737294 -0.19435802  0.05040111 -0.14282164
 -0.07499608  0.21015655  0.18934199 -0.1298378  -0.25875065  0.20940627
  0.01413861  0.12301147  0.11870863  0.38268703  0.2011564   0.08716251
 -0.00964545  0.04932068]
[-0.09529638 -0.4086807   0.16889822  0.23454624  0.1973986   0.13011041
 -0.04193708 -0.1231964   0.20971975  0.09772475  0.32357407  0.14780065
 -0.03856682 -0.05123468  0.39827734  0.32399023  0.0894201   0.2343486
 -0.1737521  -0.21112682]
[-0.1483368  -0.14154969 -0.1108285   0.02540885 -0.12391521 -0.14453854
  0.00754132  0.17672032  0.2649826  -0.3527799  -0.22278614 -0.25795197
  0.14697072 -0.03519864  0.17662066 -0.06030333 -0.25139022 -0.20642509
  0.26392585  0.05149629]
[ 0.17994076  0.09211778 -0.00103413 -0.3110952   0.227109    0.05387729
  0.04738216  0.12461281  0.17511562 -0.13533345 -0.18508033  0.24311656
 -0.17716905  0.13199508  0.1305051   0.21514364 -0.14169705  0.18239722
  0.15054795 -0.21503398]
[-0.17537415 -0.17861313 -0.16283117  0.17111686  0.02472799 -0.18755494
 -0.033858    0.02157801  0.29790002 -0.11793976 -0.09767049 -0.06341115
  0.01685565 -0.16711615 -0.01650407  0.08313985 -0.26521417  0.13159087
 -0.00033786  0.08749241]
[ 0.05587111 -0.35383728 -0.32051176 -0.08596661 -0.10794441  0.19589499
 -0.2313643   0.2178045   0.21569888 -0.2892376   0.04084168 -0.34347656
  0.05339395  0.00788626 -0.3514873   0.202582   -0.02573499  0.1927714
  0.1284527   0.06255944]
[-0.30802408  0.23195894 -0.19308028 -0.10209551  0.2962603   0.14268447
 -0.02158159  0.25320297  0.18525317 -0.06826104 -0.13386065 -0.30930793
  0.20741077  0.20252445 -0.10456431 -0.08456519  0.15032662  0.24554238
 -0.27246222 -0.06103773]
[ 0.01867685 -0.18911444  0.23222612 -0.04612942  0.30014417  0.24632134
 -0.2631524   0.05717744 -0.18430816  0.34013206 -0.23912826 -0.24729714
 -0.13394566  0.03200876 -0.26577237 -0.06332678 -0.19090123  0.15623176
  0.273181    0.0780092 ]
[ 0.00663782 -0.2449994  -0.04306963 -0.09790745 -0.14483808  0.10648504
  0.06744529  0.07827845 -0.35899886  0.11647292 -0.23547907  0.16328229
 -0.00955447  0.10723635  0.3072234  -0.09965326  0.12909004  0.11589847
  0.01107511 -0.25205126]
[ 0.08356526  0.04191615 -0.20678876 -0.12122373  0.30301833 -0.25803608
 -0.03479382 -0.21084605  0.28449202 -0.00710818  0.2080606  -0.09239105
  0.07904384 -0.04565917  0.29431865  0.09937333  0.3014828   0.29475665
 -0.32910565  0.26490048]
[ 0.18240234  0.14209974  0.24663495  0.00915232  0.11355349 -0.07664315
  0.02521394  0.3240941  -0.09998136  0.32144004 -0.08623292  0.28775543
  0.18589371 -0.13298719  0.2024325   0.02068232  0.06356441 -0.17420234
  0.01236132 -0.14394805]
[ 0.24558374 -0.24649447 -0.2265946  -0.02438529 -0.2252321   0.2049363
 -0.13087234  0.26936084  0.19150382 -0.19882046  0.12140775 -0.19843608
 -0.15035906 -0.07491948  0.0052778   0.39221233  0.22782733  0.13638307
 -0.30806592 -0.15238793]
[-0.11148801  0.253516   -0.04959735  0.1394207   0.29965597  0.042562
  0.2517206  -0.27402923  0.14486188  0.14596836  0.11727525  0.26586062
 -0.1467855   0.2107142   0.19457756 -0.18726464 -0.14004004 -0.05820993
  0.06296352  0.24721287]
[-0.27366614  0.02118446 -0.13555826  0.06315057  0.1287903  -0.28353888
 -0.3085247   0.17073382 -0.22810802  0.17735551 -0.14978634 -0.03622001
 -0.18288212 -0.00965809  0.28909275 -0.3404491  -0.20225683 -0.05443946
  0.23337597 -0.00102372]
[-0.33492884 -0.07657796  0.14627033  0.09538653 -0.24300008 -0.2550418
 -0.25524148  0.24881276 -0.0958283  -0.03294726  0.1644149  -0.31302297
  0.0822978   0.14015612 -0.20673257 -0.01826676  0.0847862   0.07562341
  0.01561187 -0.03881001]
[ 0.27531672  0.2508283  -0.1168009  -0.05675441  0.01530437 -0.13282408
 -0.13793184 -0.27681136 -0.2476243   0.33637288  0.17843951  0.2394333
  0.19050966  0.10911738  0.14505641 -0.08866249  0.2789615   0.18993403
  0.03727918 -0.17369214]
[ 0.32014433  0.28552008 -0.25578436 -0.18744616  0.1718103   0.0628801
 -0.19618563 -0.09603275 -0.2550784  -0.13354325 -0.21714115  0.28446522
 -0.15381594 -0.04473338  0.17932133  0.06336093  0.04468159 -0.23540168
 -0.15403904  0.05844066]
[-0.08977761  0.13360891 -0.25767094 -0.21116142 -0.1418608  -0.19729966
  0.13643655 -0.29301184 -0.06165878 -0.1747551  -0.12494563 -0.19249304
 -0.27198234  0.37470728 -0.08378472 -0.33570877 -0.10164709 -0.21340914
 -0.09726936  0.07789818]
[-0.21510023  0.01398832 -0.31731603 -0.2749172   0.2514384   0.3222848
 -0.2663819   0.27995846  0.24648257 -0.22211894 -0.21028574 -0.16561925
  0.27617785 -0.15501599 -0.16509297 -0.18452768 -0.20983389  0.09895398
 -0.25138274  0.1935191 ]
[-0.28899956 -0.2607685   0.15111274 -0.16322055 -0.04094141 -0.39868513
  0.15463261 -0.09272172 -0.03970763 -0.23304671  0.12302203 -0.13191102
  0.0902446  -0.20098601  0.17249808 -0.26334724 -0.39313096  0.24256456
 -0.05518268 -0.14236102]
[ 0.08376224 -0.19114657  0.1705881  -0.29707113  0.34618554 -0.09427395
  0.24652143 -0.1862141  -0.05579212  0.24197286  0.00515582 -0.16536997
 -0.21367298  0.18561374 -0.11518265  0.05862533 -0.12279119 -0.41214862
  0.12607555  0.07761679]
[ 0.11184292 -0.32052743  0.05365959 -0.09990558  0.25106344  0.38957697
 -0.29672012  0.09356579  0.20934711 -0.14567077 -0.02171641 -0.00047554
 -0.14837758  0.0361984   0.2887783   0.4032594  -0.0105459   0.21437144
 -0.20053607  0.11784275]
[-0.2589138   0.07189099  0.13847184 -0.25038388  0.30779985  0.48472747
  0.24535233 -0.19493018  0.32497346  0.06820669 -0.08620684  0.19987392
  0.25519225  0.20754574  0.13658264  0.28527927  0.07893929 -0.08602637
 -0.28657228  0.19532822]
[-0.2302369  -0.3438242  -0.02377105 -0.19029197 -0.05954801  0.24541187
  0.09480277 -0.19337752  0.20893228  0.02334606  0.05156667 -0.13116042
 -0.03134505  0.10967379  0.31684098  0.121782    0.10244751  0.04376226
  0.2077665  -0.18526319]
[-0.17483318 -0.19714443  0.05178668 -0.13976856 -0.27249384  0.06638923
  0.23266575  0.16649356  0.02723432 -0.09316368 -0.08978251 -0.19727379
  0.23594719  0.24587087 -0.21047255 -0.14476137  0.33425593  0.0054833
  0.19383477 -0.18777524]
[ 0.02670998 -0.03374757 -0.07085635  0.05945897 -0.05778295  0.17638506
  0.00101102 -0.27018818 -0.26029947 -0.13954033  0.17400055  0.13435735
 -0.2074726   0.28499824 -0.27685955 -0.1956437   0.16129057 -0.21162848
  0.11766852 -0.09023549]
[ 0.23901331 -0.05082835 -0.12984584 -0.34725752 -0.3269787   0.2911311
 -0.23405805 -0.21995345 -0.20043148  0.04236067  0.21680678 -0.02958871
  0.1413228   0.30367076  0.10152461  0.21141475 -0.21818067  0.23588812
  0.11959667  0.0254048 ]
[ 0.10557393  0.03186012 -0.20155688 -0.2975942   0.04969607 -0.08744529
  0.17208868  0.01928735  0.01034191 -0.02165847  0.33108452 -0.28921387
  0.3165604  -0.17720298 -0.09742809 -0.08106755  0.22204182  0.32711062
 -0.06851505 -0.05254143]
[-0.01267198  0.07976544 -0.03514781  0.07536191  0.04824029 -0.0846237
  0.03519922 -0.06719836 -0.08925627  0.03219369 -0.06270986  0.05691949
  0.03943274  0.03742705 -0.01548295 -0.0217429  -0.00679398 -0.06477706
  0.00891581 -0.00592786]
layer 5 Activation
tanh
layer 6 Dense
20 1
[-0.22628073]
[0.20807813]
[-0.1803782]
[0.27732083]
[0.21957183]
[-0.24085417]
[0.00410877]
[-0.13356586]
[-0.23483928]
[0.03920671]
[-0.0626011]
[-0.39290035]
[0.12779956]
[0.05647648]
[-0.13785727]
[0.3813093]
[-0.02046572]
[-0.21841629]
[0.01822229]
[-0.23431636]
[0.04389003]
