layers 7
layer 0 Dense
20 20
[-0.11245091  0.19775456 -0.09144363  0.09193869 -0.19037886  0.14504291
  0.2514882   0.26140147  0.21733768  0.02269004  0.23961918 -0.01187873
  0.16185953  0.36249945 -0.22493999 -0.01781085 -0.32454544  0.09472418
 -0.2763525  -0.02672442]
[ 0.29366928 -0.09031327  0.3591801  -0.07932789  0.27466676  0.07046547
  0.29772425  0.531008    0.23193483  0.08817909 -0.3415749   0.4015982
 -0.19440636 -0.10917277 -0.4806577  -0.04573979  0.09037033 -0.07602869
  0.48555756  0.05573186]
[ 0.17179558  0.21627994  0.25854102 -0.15861657 -0.07855961  0.21270864
 -0.02831387  0.59859955  0.04208941  0.46648926 -0.14954749 -0.25772694
 -0.3233747   0.2592168  -0.27390918 -0.5862673  -0.41909567  0.2816695
  0.18600471 -0.11654366]
[-0.17951678 -0.25010863  0.05468033 -0.53037375  0.21276857  0.1576955
  0.156368   -0.18245523  0.276796    0.04825286  0.2856086  -0.4282433
  0.15260746 -0.21340692  0.18613097  0.06668881 -0.06673716 -0.08501538
  0.2992273  -0.391048  ]
[-0.10497911 -0.07588384 -0.05377937  0.024898   -0.09312465  0.00304918
  0.32970154 -0.2144697   0.11279314 -0.2383687  -0.14593036 -0.29424575
 -0.24390498  0.24887279 -0.04136361  0.35398585  0.2784409  -0.0367339
 -0.00960722 -0.03750801]
[-0.2606721  -0.05955931 -0.11793821  0.06799459  0.3286606   0.52210754
  0.05928863 -0.26405656  0.07047123 -0.1143849  -0.20395324 -0.22908516
  0.12468512  0.04258613  0.3533242   0.23632602  0.07948607 -0.08934763
 -0.13660994  0.05499946]
[ 0.40799043  0.36461562 -0.16428949 -0.2975769   0.27812117  0.4732173
  0.23643337 -0.05860512 -0.2824545  -0.3956665  -0.22259407 -0.23423146
  0.397508   -0.06946517  0.1738901   0.6385405   0.23092812 -0.13260399
 -0.1884352   0.59899205]
[-0.12524956  0.28671232 -0.16839406  0.15780164  0.22121003  0.5875729
  0.01752332 -0.27693963 -0.11776955 -0.35874107 -0.02064885  0.74506956
  0.2315265  -0.14940234  0.5020095  -0.09884111  0.09757514  0.16423883
  0.13838692 -0.00243832]
[-0.20987141 -0.30929577 -0.2936968  -0.291473    0.21459703 -0.21985634
 -0.03155413  0.07538562 -0.26526588  0.11881392  0.04555922 -0.4926624
 -0.4677658  -0.28255942  0.20363168 -0.09078412  0.08079074  0.03620007
 -0.3337372  -0.54376966]
[-0.16046977 -0.21119133  0.22183426  0.25282264  0.16347867  0.11618295
  0.06884707 -0.01875333 -0.10977288 -0.26480833  0.21459696  0.25625765
 -0.15793066  0.31064883  0.15361562 -0.21206385  0.1977789  -0.07615885
  0.22948667 -0.05401567]
[-0.23905662  0.11273921 -0.22826926  0.22833534 -0.37088314  0.27327943
  0.29997754 -0.15555556 -0.05732884 -0.38816825 -0.09693837  0.08552326
  0.08234587 -0.50845796  0.42238432 -0.14892839 -0.02931628 -0.23014352
 -0.43128288 -0.15297042]
[-0.4385676   0.5320852   0.2788647  -0.29900983  0.18726169 -0.7400699
  0.3534151   0.13708462 -0.29674917  0.42654824  0.12954935 -1.4389814
 -0.39863682  0.304851   -0.29623407  0.13608827 -0.52005774  0.1260953
 -0.4697038  -0.7314015 ]
[ 0.48314235 -0.14917329  0.32922646  0.22586598 -0.28749683  0.32494885
  0.06725156  0.00239823  0.0021549   0.14152569 -0.21734042  0.27106854
 -0.28936628 -0.1824697   0.05311961 -0.12850903  0.14401792 -0.16770166
  0.2673585   0.7541003 ]
[-0.38339323 -0.22964305  0.1150645   0.11224002 -0.09857215 -0.1782706
 -0.17950775 -0.08863138  0.0128258  -0.26054594  0.1037251  -0.11551128
 -0.15916751 -0.2975535   0.350148    0.16608788  0.25846478  0.2057045
 -0.12479107  0.02033953]
[ 0.5394497  -0.1011838  -0.3064632  -0.19452824 -0.34695512 -0.2612486
 -0.55258316 -0.23325004 -0.44111887 -0.06344113  0.02033548  0.20033617
  0.1374131   0.20996803  0.07148293 -0.06207431 -0.242655    0.20396782
  0.43546182 -0.15981443]
[ 0.20646189  0.18357985  0.06811482 -0.06894671 -0.13259356  0.10717043
 -0.21136272  0.1682943  -0.06432313 -0.30473432 -0.07932555  0.24540478
 -0.35775596 -0.15873764 -0.16849552 -0.02735854 -0.05804344 -0.30878514
 -0.11739049  0.66867715]
[-0.11907669 -0.23644382  0.02388103  0.09779029  0.02762506  0.01094552
  0.00221814 -0.17628339  0.38201454 -0.30774057 -0.04263957  0.3026975
  0.29188755  0.05891105  0.04127325  0.5029984   0.1259918  -0.27298257
 -0.21855614  0.04830094]
[-0.3039236  -0.2627108   0.15256192 -0.45235455 -0.06853013  0.21572836
 -0.2231605   0.44820186  0.12411777  0.16919202 -0.31254423  0.139052
  0.8459878   0.06489785 -0.39071912  0.16118228 -0.478017   -0.3107508
 -0.2391504  -0.16137695]
[-0.08767769 -0.14051008 -0.07739943 -0.04371913 -0.08829158 -0.00244719
  0.16821606 -0.41794127  0.12503226 -0.3804192   0.12828656 -0.05978923
 -0.13830934 -0.07053729  0.36361653 -0.20674576 -0.242788    0.25358734
  0.16819638 -0.02189821]
[ 0.1083333  -0.31715035 -0.04081812  0.5701096  -0.04622009  0.5472479
 -0.31800202 -0.34745023  0.42016378 -0.10470067 -0.10446651  0.30946907
  0.29998687 -0.19873238  0.19380158 -0.13758022  0.4563186   0.06016465
 -0.30299437  0.35833573]
[-0.09835496  0.10088905 -0.01366157 -0.32796958  0.04475095 -0.17257766
  0.08573738  0.02752019 -0.0615241   0.04325188 -0.03377464 -0.10882098
 -0.02663903  0.1836304  -0.1116288   0.00504179 -0.06175444 -0.08821932
 -0.04093488 -0.09486204]
layer 1 Activation
tanh
layer 2 Dense
20 40
[ 0.01318918 -0.01683373  0.4816469   0.21390311  0.14148061  0.25918052
 -0.09054152  0.06137282 -0.25507483 -0.26284853  0.21387418 -0.21266346
 -0.12868248 -0.25017777 -0.0167445  -0.20444807  0.34926993 -0.1480987
  0.17446877 -0.0014811  -0.15477325 -0.09487265  0.3678416  -0.14022101
  0.1530929   0.18403408  0.07053428 -0.08602471 -0.16327238  0.309195
  0.15045024  0.14286646 -0.08578853 -0.00313285  0.04139647  0.16999736
  0.18445301 -0.0401019   0.2590859   0.18573679]
[ 0.13502355  0.04140385 -0.05999891  0.24994287  0.3105769   0.13413164
  0.00211361 -0.25104785  0.3316657  -0.13246575  0.0302354   0.11385503
  0.21446973 -0.01557089  0.05141564 -0.10385704  0.19115774  0.10358616
 -0.04915398  0.22253338 -0.06477673  0.02764163  0.10160694 -0.2843458
 -0.00574601  0.16915014 -0.23623519 -0.19684783  0.14644015  0.15152289
  0.03138613  0.15306218 -0.17558736 -0.02831645 -0.31159127  0.03942969
  0.14764586 -0.08505043 -0.2764093  -0.04976049]
[-0.02771798  0.26730642  0.04679835 -0.17145407  0.34107375 -0.21233553
 -0.08229612  0.04941689  0.13651547  0.03209163  0.09975422  0.26217866
  0.18285668  0.18921237 -0.17548719  0.03303235 -0.04445949 -0.05582188
  0.3201343   0.00310821  0.03543561 -0.11648376 -0.05465299 -0.09051967
  0.13542953  0.16792652  0.0191227  -0.01565208  0.17409068 -0.0222435
 -0.23467411 -0.2061733   0.16331384 -0.12170908  0.06929718 -0.20429233
  0.207258   -0.11738925 -0.13069028 -0.06741119]
[ 0.17100722  0.00102006 -0.13354614  0.10574036 -0.20424704  0.30949417
 -0.23340929  0.08168982 -0.04291359  0.21633923 -0.45619565 -0.3235744
 -0.13688895 -0.15636607  0.07947087 -0.12679727  0.28706932 -0.16314499
  0.16600391 -0.0531387   0.3281208   0.1583769   0.20586851  0.21062075
 -0.03851191  0.3512738   0.05923201  0.03593018  0.02655645 -0.22664979
  0.1072543  -0.23343524  0.00970325 -0.07821201 -0.18021932 -0.3180252
  0.12351897 -0.41179958  0.2204343  -0.2886778 ]
[ 0.00123091 -0.00855964  0.0665194  -0.18692246  0.05005166 -0.2503318
  0.17945954  0.17224434 -0.21973218 -0.05871177 -0.01034011 -0.29174608
  0.05011144  0.02405494  0.00094814  0.16719276  0.3281169  -0.20430484
 -0.06848107 -0.05117466  0.09054052 -0.22437009  0.20291364 -0.00286862
 -0.15738331  0.08754188  0.18348564  0.18298846 -0.1556164  -0.25871068
 -0.25558737  0.09293818 -0.19128191 -0.2863848  -0.01033497 -0.16806312
  0.21694367  0.01660047  0.07600816  0.03461308]
[-9.58414897e-02 -1.14754751e-01  5.09436369e-01 -6.26078621e-03
 -2.04860151e-01 -5.56383282e-02  4.74035777e-02 -6.61624642e-03
  5.38722277e-02 -1.59542456e-01  1.13815805e-02 -1.74694225e-01
  1.08936571e-01 -1.85408413e-01 -7.90186301e-02 -1.85678918e-02
  6.69114962e-02 -1.16123699e-01 -5.49389198e-02  1.00610517e-01
 -6.15411066e-02  1.94514155e-01 -3.08288097e-01  2.21073598e-01
 -5.85210137e-02 -1.85475368e-02  1.85274519e-02  1.48359254e-01
 -8.33284631e-02 -4.85161483e-01  4.61904274e-04 -2.18074322e-01
  1.13273375e-02 -2.70545006e-01  1.09903075e-01 -7.06462264e-02
 -1.64227992e-01 -2.68551499e-01 -1.47330046e-01 -3.88891213e-02]
[ 1.6112740e-01 -2.3579535e-01 -1.1707443e-02 -1.9847891e-01
 -7.8406125e-02  4.4112723e-02  2.7164325e-01  1.3914466e-01
 -1.8550691e-01 -2.0790185e-01  1.7164657e-01 -5.9113182e-02
 -2.7792674e-01 -2.8933119e-02 -7.0273988e-02 -1.6763625e-01
 -2.8107302e-02 -2.7964899e-01  7.1848780e-02  1.5070461e-01
  7.7378027e-02 -1.8801689e-01  7.7794269e-02  2.2319476e-01
 -2.1270746e-01 -4.9098007e-02 -7.3640724e-05 -1.2140868e-01
 -3.0729464e-01  9.6139900e-02 -2.0310420e-01 -1.0328099e-02
 -3.0558869e-02 -2.0779427e-02  7.8807950e-02  1.0193287e-01
  2.6415828e-01 -2.3711510e-01  1.2151363e-02 -6.8002872e-02]
[-0.14240201 -0.12536728 -0.12154134  0.06481978 -0.08769043 -0.2787229
 -0.21396852 -0.11904147  0.12821431  0.01741149  0.28850225  0.19003837
  0.10924904  0.25193045 -0.13375612 -0.10198328  0.19263642 -0.25695693
 -0.11317132 -0.08175416  0.1464589   0.33856672 -0.07580017 -0.17039768
  0.00760087 -0.2503228  -0.14402796  0.1985838   0.01644398  0.02301614
 -0.07164772  0.31630388  0.3822124  -0.13950549  0.23073858  0.21432585
 -0.2950984   0.4159018  -0.18111356 -0.00468193]
[ 0.28577852 -0.17582916  0.3568515  -0.06940158  0.0075608  -0.08940523
  0.08438615 -0.11496396  0.12658697  0.23234475 -0.05947246 -0.13155784
  0.2675832   0.03008362  0.1518817   0.19873008  0.10908148 -0.16574739
 -0.12097908  0.387784   -0.24339388 -0.16118088  0.05793389 -0.08972891
  0.23641852  0.04082994 -0.11630224  0.04361685 -0.10273735 -0.11596308
 -0.03223282 -0.20564519  0.32084432 -0.12643474  0.11148243  0.11386864
 -0.06269611  0.22269137 -0.04580877  0.18909349]
[-1.46082520e-01 -2.58433461e-01  3.26687586e-05  1.29346009e-02
  1.48293689e-01 -2.17001170e-01  2.54875451e-01  3.02399043e-02
  2.52643675e-01 -2.51657069e-01  2.49904037e-01 -1.19699687e-01
  6.48474991e-02 -3.59214768e-02  2.54937440e-01  6.07407354e-02
 -2.43703239e-02 -9.45500731e-02  1.55805454e-01 -1.41984582e-01
 -3.78051624e-02 -2.64495686e-02 -1.31524950e-01 -1.52485063e-02
 -3.12437505e-01 -9.42425132e-02  8.48585293e-02  4.86175530e-02
  7.55174756e-02  2.52255350e-01  2.53301769e-01  2.65978813e-01
 -1.32084683e-01 -2.52487928e-01  3.15189004e-01  1.11398906e-01
  1.74747542e-01  2.42555603e-01 -2.94008136e-01  9.65416729e-02]
[ 0.10821284  0.22035813 -0.29124397  0.07943697  0.18228084 -0.2890468
 -0.2673747   0.00705715  0.09482073 -0.20887057  0.14906965 -0.0743875
 -0.04250353  0.2562086  -0.03274092  0.0811979  -0.13842583 -0.10094206
 -0.05952712 -0.17537713 -0.0980714  -0.19996865 -0.02627998 -0.20119816
 -0.19119038 -0.09734036 -0.06963094  0.00247834 -0.26276264 -0.1545464
 -0.13782538  0.2819723   0.19485119  0.2213353  -0.02964646  0.00718334
 -0.04579527 -0.07924303 -0.01578406 -0.05086268]
[-0.24269818 -0.13908526  0.3360049   0.23774867  0.08731966  0.23460151
 -0.33203733 -0.03989049  0.19907498  0.2705693  -0.12127496 -0.13966678
  0.13785605  0.00923279 -0.34071818 -0.05038559  0.34483254  0.10966481
  0.00435006  0.0613193  -0.40345004 -0.37139833 -0.23762964  0.4163543
 -0.24057242  0.17712595 -0.30057383  0.16085717 -0.35465616 -0.2501294
  0.2598517  -0.25380298  0.22300462  0.2208536  -0.25708038 -0.33149454
 -0.21764345 -0.1733143   0.21791232 -0.04590158]
[ 0.19057986 -0.04431026  0.06069078  0.22167866  0.27712476 -0.01480432
  0.20976754  0.3039183   0.0174203   0.02183297  0.09155943  0.07374457
  0.04122981 -0.10134301 -0.13950127 -0.14661439  0.2269274  -0.29982397
  0.04124399  0.27294034 -0.2633587   0.0315915  -0.14935076  0.36391774
 -0.20622927 -0.17472318 -0.02882296 -0.09269916 -0.2547922   0.02398632
  0.3140696   0.09250029  0.06247309  0.00406048 -0.06938906  0.05476871
  0.17852718  0.06847972 -0.16853262 -0.08871413]
[ 0.12473656 -0.13943192  0.18430336 -0.13989188  0.12748635 -0.03542358
 -0.28376096 -0.03392175  0.22467434 -0.13706774  0.05344237  0.23315655
  0.02259261  0.10835563  0.29070008 -0.05954865 -0.24023455  0.11218327
 -0.00708136  0.05888174  0.05374056  0.1878183  -0.05234997 -0.05675695
  0.01193298  0.12934422  0.02712416  0.1990714   0.19857416  0.2064928
 -0.00151126 -0.03596782 -0.09512918  0.1426354  -0.11193972  0.20225117
 -0.01808718 -0.01713824 -0.11077341 -0.1710921 ]
[ 0.15274672 -0.11548936  0.15611173 -0.17427768 -0.11865845  0.03753098
  0.14064598 -0.22920254  0.05390996  0.1340472  -0.11156924 -0.31659028
  0.007384   -0.24328548 -0.25771588 -0.08628658 -0.04100924 -0.17908284
  0.01252522 -0.14760233  0.2101155   0.1419335  -0.36363453 -0.02696623
  0.03778887  0.2577872  -0.26236552 -0.03533366 -0.0671108   0.18612821
  0.1071763  -0.2587032  -0.1441899  -0.08961031  0.11095329 -0.04352508
 -0.0714606   0.13494231 -0.15490231  0.0805551 ]
[-0.08043008 -0.15971468 -0.2654372  -0.22641627 -0.11272735 -0.07830263
  0.1761666  -0.21861456  0.03618247 -0.03052472  0.00629364 -0.11134881
  0.02606624 -0.03252608  0.038362   -0.3070987   0.02737213 -0.29452732
 -0.01666153 -0.1023131   0.1584966   0.23243679 -0.11209007  0.07163041
 -0.02345338 -0.00154793 -0.10217815  0.12985705  0.08123295  0.06319696
  0.3444836   0.24554864  0.06058582 -0.1540569   0.04094557 -0.09524251
  0.06294157  0.07427891  0.14010784 -0.11823151]
[-0.1140052   0.0465263   0.192298   -0.39565673 -0.21969251  0.05912657
 -0.15921015  0.02153666 -0.18005103 -0.0799978  -0.17644197 -0.02531393
 -0.06938518 -0.10712488 -0.06501002  0.23162292 -0.10530131 -0.2819189
 -0.15928861 -0.04611467 -0.24551377 -0.15931967  0.1671688  -0.31951088
 -0.26128674  0.13836867 -0.17681749  0.1421636   0.04026561  0.25867322
  0.24379452 -0.13695465 -0.22541773  0.04848826 -0.16741215 -0.24895775
 -0.14530537 -0.2169183  -0.13866176 -0.08670752]
[ 0.07916569 -0.2117908  -0.309207   -0.22484773 -0.20108695  0.13271438
 -0.20835878  0.03319023 -0.223962   -0.17334864 -0.12033159 -0.06826534
  0.0604229   0.14010204  0.11264736  0.2184747   0.03304079 -0.14009815
 -0.23354855  0.1917062  -0.27825654  0.15466583 -0.2529937  -0.07903275
  0.12326227 -0.02747559 -0.17028351  0.22195877 -0.15383796  0.20294084
 -0.30689204 -0.13450067  0.19144084  0.18635184 -0.26654443  0.07006226
 -0.11530457 -0.06342459 -0.26173162 -0.13635121]
[-0.00899289 -0.01921771  0.01330477  0.1458414  -0.18001378  0.05274298
 -0.27574354 -0.04210756 -0.09456927  0.2002563   0.04253819 -0.02005002
  0.14352101  0.18857154  0.0922759  -0.23912527  0.14121465  0.24840727
 -0.18128766  0.04280687  0.14291751 -0.219019   -0.17607763  0.2850121
 -0.04099527  0.27314195 -0.03851129 -0.2963728  -0.12915407  0.00435365
 -0.2738475   0.19553621  0.06629606 -0.25986415 -0.12991904  0.18310124
 -0.2723778   0.06496739  0.23364684 -0.09601483]
[ 0.27833194 -0.01436522  0.5234484  -0.20110892  0.25864896  0.11123131
 -0.22957051 -0.14488243 -0.22603036 -0.06253754 -0.23387174 -0.05475295
  0.18401106 -0.12473828 -0.14305426  0.24120347 -0.3679845  -0.0546763
 -0.22265187 -0.21544756 -0.06597557 -0.20023641 -0.12263451  0.2341696
 -0.06408913  0.50065136 -0.06385405  0.10295206 -0.10889789  0.19673245
  0.01962119 -0.30251592 -0.15749459 -0.0531351  -0.117467   -0.22256567
 -0.1820661  -0.20988627  0.271765    0.07696517]
[-0.02781857 -0.0328711  -0.06321178  0.12343723  0.00824835 -0.14279449
 -0.01098925  0.04144935  0.01440948 -0.00669334  0.11366074  0.09884357
 -0.00752961 -0.0041282   0.01842727  0.01231652  0.01102816  0.01406781
  0.01128812  0.00299607  0.0019618   0.15943064 -0.09219003 -0.0309843
 -0.01166518 -0.07610611  0.05411136 -0.10177241 -0.01422124  0.0461992
  0.07562603  0.06210036  0.10895922 -0.00641955 -0.06315865  0.06344911
  0.0356469   0.02305468 -0.00692451  0.08541939]
layer 3 Activation
tanh
layer 4 Dense
40 20
[-0.03753428  0.3058112   0.06290475 -0.25287637  0.24191883 -0.24734344
 -0.23498245  0.18926996 -0.24677627  0.2604109   0.08030515 -0.17444353
  0.0558323   0.00573933 -0.0567525  -0.17258328  0.2764217  -0.07308182
  0.01767565  0.04230998]
[-0.21667597 -0.11646705 -0.03389601  0.04308642  0.14233325 -0.17933759
 -0.25227648 -0.11254696 -0.07499879 -0.12609547 -0.04616836  0.0987139
  0.1807185  -0.34415647 -0.1165626  -0.0075615   0.01817829  0.08544262
  0.33862725  0.2759287 ]
[-0.1322057  -0.21761078 -0.22735885 -0.27641493  0.22849995 -0.05545768
  0.13259163  0.05828682  0.15840732  0.16225873  0.28708714  0.23610641
  0.2379374  -0.15473884 -0.28019112 -0.20252849 -0.11119672 -0.276804
  0.27001503 -0.09554998]
[ 0.04155839 -0.16711773 -0.00191662 -0.0892773   0.29267165  0.17118007
 -0.20463458 -0.07042209 -0.08679225 -0.36114088 -0.21853502  0.24375977
 -0.11696551  0.07857993  0.2255524   0.17663391 -0.07638397  0.25224054
 -0.3105722  -0.252563  ]
[ 2.8862002e-01  2.3743884e-01 -9.6640334e-02  2.2703472e-01
  1.2902974e-04  1.3152562e-01 -3.3961099e-02  1.2957358e-01
 -5.7912230e-02 -5.2746616e-02 -3.0987576e-01 -1.5074243e-01
 -2.5709504e-01  2.9211181e-01  2.6261458e-01  1.9291288e-01
 -1.6996096e-01  2.2483005e-01 -1.7653908e-01 -2.5408965e-02]
[-0.25303015  0.2522233  -0.15278873  0.25329813 -0.07141714 -0.24022287
  0.18357724  0.24913932  0.08601532  0.09134407  0.1777495  -0.24998371
 -0.18997619 -0.21275054  0.1371926  -0.11101759  0.16361098 -0.3543931
 -0.05248393  0.11972044]
[ 0.37201554  0.13134319  0.15619054 -0.13718511 -0.18341692 -0.12250242
 -0.20494403 -0.03160516 -0.03800761 -0.02658878 -0.14956516  0.01989749
  0.1110601   0.14440371  0.12659858  0.23917513  0.18158941  0.08243582
 -0.06969701  0.05329793]
[-0.18147542 -0.07866697 -0.02641859 -0.04852989  0.06683084 -0.23167224
 -0.30986455 -0.04428971  0.06438112 -0.23968652  0.1676137  -0.21054345
 -0.05516348  0.12499306  0.06576838 -0.08909319  0.34489393 -0.1997426
 -0.19430722 -0.10320402]
[-0.25490022 -0.04462144  0.12477146 -0.15228938  0.17201516  0.30587965
 -0.22980456  0.08312673  0.24056533 -0.15004662  0.02318108  0.12177137
 -0.24639696 -0.09001493 -0.04961362 -0.03276093  0.13807413  0.12234271
  0.04150398 -0.14277539]
[ 0.24107906 -0.21620633 -0.27474713  0.12124564 -0.02879755 -0.0637865
 -0.04762417  0.08265609 -0.04014315  0.04128776 -0.1064262   0.15186991
 -0.34469602 -0.00121348 -0.12766221  0.23434505  0.16138813  0.17562096
  0.28126207  0.2438217 ]
[ 0.22808152 -0.23989926  0.2524536   0.1202677   0.05954687 -0.16112019
 -0.22777204 -0.07766996  0.03221066 -0.1333958  -0.19319266  0.14867626
 -0.26162252 -0.10323793  0.28387427 -0.10811134 -0.28430358  0.25027478
 -0.25604674 -0.20332329]
[ 0.00240259 -0.10471004  0.24510904 -0.08886006  0.23834254 -0.16055398
  0.21058609 -0.01169247  0.14589505  0.29907155 -0.21767826 -0.05224644
 -0.08907245 -0.22233342  0.3109266  -0.13577324  0.07640689  0.08232245
 -0.33558115 -0.15030651]
[ 0.09801928 -0.14756209 -0.15325142 -0.14737122  0.06483855 -0.22323653
  0.19068952  0.16817126 -0.26756328  0.3258392  -0.07706176  0.01730216
  0.08904179  0.11351535  0.22632684 -0.10116867 -0.265701   -0.1452338
 -0.27736285 -0.3407928 ]
[-0.02689377  0.2570022   0.1319747   0.03062461  0.3135633  -0.01447853
  0.18097743 -0.27450097 -0.17427754  0.0501391  -0.21242413  0.04264135
 -0.06378255  0.07425553  0.20611356  0.19333488  0.19958772  0.04263095
 -0.12012601 -0.24466324]
[-0.26043826  0.00209811  0.26643908  0.25541693  0.16220252 -0.20870358
 -0.13389546 -0.11447544  0.2782782  -0.21875761 -0.18162946  0.21579397
  0.19695464  0.13395692  0.19711368 -0.09849998  0.10404432  0.29182038
 -0.20053199  0.08659633]
[-0.03374448  0.13036273  0.19794597 -0.19323732 -0.03313649  0.12528269
 -0.2032131  -0.29365656  0.25670838  0.13672441  0.27073786  0.10591813
 -0.07809126  0.09355216 -0.25361234 -0.13547957 -0.1391065  -0.12653348
  0.2450318  -0.15081763]
[-0.04736723 -0.1806165  -0.33490977  0.16849524  0.12998982  0.11405861
  0.21992342  0.07961723  0.11992052  0.08383084 -0.02977111  0.17077929
 -0.01557493 -0.07748225 -0.24574807 -0.01576778  0.09059227  0.19125633
 -0.10834344 -0.2874178 ]
[ 0.01960128  0.16900274 -0.14670463  0.23434976 -0.0714627  -0.17869706
 -0.04140444  0.11614629 -0.23574728  0.0220116  -0.29283723 -0.07177997
  0.06971971  0.2488447   0.04301291  0.11414859 -0.3834798  -0.0537787
  0.02289077 -0.25870177]
[ 0.20490642 -0.07500292 -0.06840912 -0.05522913 -0.05811235  0.1954144
  0.02812884 -0.07467278 -0.0991272   0.04568651 -0.05072802  0.05783524
  0.24678661 -0.32192627  0.06308682 -0.2638401  -0.00241635  0.0661033
 -0.11902317  0.09633439]
[ 0.08992718  0.19026595 -0.24718983 -0.23834027 -0.28266943 -0.12432629
 -0.15434815 -0.16682202  0.1483008  -0.20683254 -0.0037769   0.22407736
  0.17025898  0.00061449 -0.11059338  0.23829365 -0.0113512  -0.01926055
 -0.05357332 -0.14823891]
[-0.20201246 -0.2043895   0.2707004  -0.06794914 -0.10709504 -0.16101263
 -0.27280906 -0.20420764 -0.13252407 -0.1578547   0.07228665  0.04650021
  0.12475295 -0.05420391 -0.08131801 -0.13384408  0.12194189 -0.19358702
  0.17956835 -0.08108835]
[ 0.2486383   0.20314683  0.1450146  -0.24659161 -0.32052952 -0.20476978
  0.07338327  0.2212977  -0.28237203  0.05762615 -0.10066622  0.23889801
 -0.07345467  0.27121454  0.06054462 -0.16371408  0.1805329   0.08861745
 -0.00599864 -0.23154229]
[-0.12969221 -0.27971512 -0.10631871  0.16335885 -0.01250871  0.1688205
 -0.09771367 -0.2645863   0.24983937 -0.00478563  0.07208855 -0.10574085
  0.1488108  -0.06673703  0.20684603  0.23204029  0.06562373 -0.26756033
 -0.16442965 -0.05821581]
[-0.03099098 -0.02605194 -0.29922026 -0.2722221  -0.18734668 -0.03964705
 -0.25106943  0.24277358  0.24669152  0.09201705  0.23468879 -0.23157667
  0.06855935 -0.06671786  0.07919064  0.13387643 -0.28234062 -0.27467814
 -0.24799463  0.22206266]
[ 0.12769657 -0.03420472  0.14583853  0.03369634 -0.04557106 -0.15409544
  0.22693963 -0.02456345  0.2710661  -0.01097791  0.0499494  -0.01659957
  0.01460617  0.04192462  0.01878589  0.07251719  0.22730002 -0.11756755
 -0.00069665 -0.05366248]
[ 0.20604424 -0.01480413 -0.01587996  0.13839245  0.34009004 -0.19155195
 -0.20819221 -0.2386734   0.08208904 -0.12057092  0.3270976  -0.03889155
 -0.12092986 -0.20966667 -0.16551304  0.12884642 -0.26912728 -0.15435612
  0.04644788  0.28035438]
[-0.21595697 -0.04965333  0.22912021 -0.19223535 -0.14860556 -0.23988374
 -0.17010544  0.02798416 -0.16740581 -0.02071286 -0.10058372  0.03374228
 -0.22774814 -0.2258492  -0.03814879 -0.12759611  0.2030129   0.19979356
 -0.0288097  -0.41378123]
[-0.19283809 -0.21968362 -0.26452476 -0.0651003  -0.37374812 -0.25396207
  0.08736214 -0.10525262 -0.2558295  -0.07303463  0.00998584  0.15528369
 -0.26741236 -0.11225799  0.05206151 -0.2750817  -0.10953956 -0.13478234
  0.20353009  0.3793908 ]
[ 0.22935292 -0.01653809 -0.0265586   0.16882288 -0.14187291  0.01187716
 -0.0701623  -0.08325376 -0.12711954  0.18979304  0.14620647  0.14068116
 -0.25106606 -0.26047266 -0.02599012 -0.00607709  0.17658983  0.07986969
  0.020122    0.15100344]
[-0.00950423  0.08041593  0.03831199  0.26901194  0.23847374 -0.22858539
 -0.20783709  0.15222079  0.12389374  0.28869668 -0.22136603  0.32017785
  0.09045862 -0.20546268 -0.21119477  0.02990981 -0.2729718   0.12867771
  0.19574203 -0.314898  ]
[-0.10195039  0.22612558 -0.02065224 -0.23328671  0.07620387  0.1889835
 -0.03550337 -0.16837324  0.02902167  0.20646875  0.11300293 -0.24345386
  0.1599756   0.23173225 -0.3065192  -0.12897168 -0.15569633  0.27230877
  0.1803178  -0.1635323 ]
[-0.0213481   0.01168589  0.30179617  0.21789527  0.14373331  0.19624747
  0.08150916  0.0404963  -0.19237433  0.05669104 -0.26478687 -0.00891563
  0.00508715  0.02209025  0.39475295 -0.10305373 -0.04317217  0.12494446
  0.03432383 -0.01744672]
[-0.14613084 -0.1996967  -0.00126726 -0.29224214 -0.30666876  0.01470275
  0.17578709 -0.20468123  0.04987328  0.14262182 -0.17070274  0.2840141
  0.23341593  0.20906033  0.14224936  0.24835296 -0.2298459   0.14653863
 -0.01241699 -0.19225828]
[ 0.22139785 -0.09766605  0.11476852  0.00289369 -0.15103558  0.03246849
 -0.17164798  0.36322692 -0.13823995  0.0121787   0.30921638 -0.05758189
  0.09247355 -0.08604536 -0.06803909  0.06333627  0.05357861  0.05556734
 -0.042082    0.1922501 ]
[ 0.02383339  0.30251828 -0.08068881 -0.28347054 -0.11611819 -0.0826587
  0.26154688  0.10604864  0.09012436  0.30273938 -0.18518163 -0.2695197
 -0.15366916  0.15839283 -0.17508866  0.30156085 -0.21191984  0.10594807
 -0.16769809  0.08286098]
[-0.08845939 -0.29502577  0.23101605  0.06823649 -0.083454    0.32236394
  0.13556042 -0.2220922   0.10977539  0.02844777 -0.42797562  0.13706301
  0.12974927  0.05562935  0.23724803  0.01041349 -0.24220273  0.24759007
  0.03190627 -0.16614576]
[-0.24116181  0.02366886  0.29574674 -0.14293636  0.06109469  0.05492054
 -0.00596655 -0.46858743  0.02579524  0.22306402 -0.2651821   0.10157791
 -0.07989988  0.03922768  0.12758003 -0.1696975  -0.007849    0.21118723
  0.06825596  0.09547163]
[-0.18196826  0.02863989  0.14529449  0.15786234 -0.20101188 -0.14220284
 -0.24355438  0.33195534  0.1485255   0.1839352  -0.06537915 -0.07229605
  0.12856412  0.22809342  0.24477214 -0.17838167 -0.09732901  0.27484372
 -0.33178502  0.18576933]
[ 0.21081252  0.10465445 -0.05800025  0.1422087   0.24701758  0.07123279
 -0.01200264 -0.27034378 -0.15271984 -0.09196685  0.21573316 -0.24086684
 -0.26139542 -0.12164259  0.0276038  -0.22633588 -0.31442952 -0.2152078
  0.01406742  0.11814975]
[ 0.19599873 -0.03489606  0.0985738  -0.04448909  0.24372461 -0.22857606
  0.12306857  0.14261347 -0.12965354  0.24650161 -0.19264248  0.27344513
 -0.04468374  0.01580049  0.19552279 -0.03705462  0.1830384   0.1526464
 -0.11544203 -0.20693462]
[ 0.0466317   0.04713682 -0.01014752 -0.120631    0.06438656 -0.07646805
  0.08237681  0.06144363  0.04399588 -0.04793644  0.08990063 -0.07404653
 -0.02811867  0.12122672  0.09790289 -0.02930008 -0.05096167  0.14890644
  0.10010913 -0.12009718]
layer 5 Activation
tanh
layer 6 Dense
20 1
[-0.00522517]
[-0.02339888]
[-0.29061162]
[-0.10988893]
[0.09297831]
[0.00443752]
[0.04764558]
[0.04450917]
[0.05702912]
[-0.03946003]
[0.37316963]
[-0.03978927]
[0.01331371]
[0.03331452]
[0.2849728]
[-0.01897906]
[-0.06476931]
[0.3216864]
[0.1605607]
[-0.09366859]
[0.13873474]
