layers 7
layer 0 Dense
20 20
[ 0.05667747 -0.38340262 -0.3843241   0.29009476 -0.01534926  0.10327542
  0.06244321  0.18490711  0.02892594  0.24417025  0.46142873  0.40227506
  0.21231557 -0.06447044  0.02349059  0.00359671  0.2698531   0.18795022
  0.12575406 -0.02676323]
[ 0.22038302  0.02281841 -0.30609927  0.25922874  0.14811103 -0.03637315
  0.16063757 -0.07364433  0.30405384  0.14554138 -0.3076887   0.4634202
  0.440182   -0.60491943  0.20370351  0.11447818 -0.3112041   0.3717356
 -0.22359844  0.36182505]
[-0.00559865 -0.2125044   0.24854863  0.01102076  0.03807898  0.30355868
  0.18667932 -0.3414453   0.01539791  0.30281562  0.32530406  0.7149922
  0.13910684 -0.5644493  -0.40906343  0.02425822 -0.05688686 -0.15421425
 -0.2864935  -0.28663662]
[ 0.12420312 -0.17370538  0.15993254  0.17899409  0.21532542 -0.38089746
  0.2702593   0.23209015  0.09793742 -0.18392304  0.15726307 -0.2929857
  0.24430992  0.26815203 -0.11585523 -0.1558566  -0.18008567  0.2212426
  0.31347144  0.19018322]
[-0.03233925  0.07023671 -0.00344479  0.2766722  -0.30238184 -0.01899965
 -0.02172723  0.07719519  0.3284308  -0.00757544  0.33525252 -0.22912736
 -0.14021204  0.04809959  0.3847128   0.01168695  0.07162315  0.27289882
  0.26768488 -0.3092079 ]
[ 0.15968436  0.12444375  0.07130358 -0.01415712 -0.23147283  0.25248253
 -0.30526173  0.02396242  0.20676914 -0.00728345 -0.31189543 -0.17249884
 -0.40025043  0.0207033   0.45035443  0.41814524 -0.25741524  0.08127602
 -0.21916856  0.09875438]
[-0.10565985  0.30862135  0.29620415  0.27468094 -0.13642305  0.25989622
 -0.39588913  0.5360642  -0.11857681 -0.22979099 -0.2983527  -0.11008376
 -0.27215484  0.19080624  0.23637852 -0.04469537  0.06538355 -0.33720872
  0.01376874  0.12770447]
[ 0.11575994  0.04055412  0.07465517  0.38437155 -0.42486605  0.05957418
  0.36788347 -0.00878469 -0.3738031   0.3231624  -0.3141311  -0.0270148
 -0.39981392 -0.01665746  0.21305117 -0.04261732 -0.11651707  0.33621228
  0.16916767 -0.29614514]
[ 0.44621652  0.33372658 -0.38315606 -0.17336068  0.17778473 -0.15285073
 -0.00076618 -0.20894809  0.26508787 -0.13149075  0.11745358  0.14789814
  0.33509824 -0.45375526 -0.08215208  0.32378882 -0.23474126 -0.00571038
 -0.10781866 -0.0512404 ]
[ 0.4232238   0.24971604 -0.04122307 -0.37935302 -0.01014599 -0.19717845
 -0.42110512  0.2916211   0.10328387  0.15433346  0.3274268   0.27209622
 -0.32614318  0.43533447  0.23865078 -0.32806402  0.19047378  0.0182853
 -0.11455259 -0.32633016]
[ 0.29427347  0.00726746 -0.07813875 -0.00766712  0.08396313 -0.05764034
  0.19506446  0.23957318  0.12467816  0.38592994  0.28953475 -0.06944268
 -0.05269016  0.08744868 -0.19984338  0.161274    0.10489995 -0.16431798
 -0.01256753 -0.03438153]
[-0.16061072 -0.3125032   0.27737647  0.5733024  -0.13810809  0.35015938
 -0.24452716 -0.2561791  -0.02587587 -0.4097674   0.35205007  0.13694035
  0.28236964  0.14954406  0.17326763  0.30355123  0.02686747 -0.05973664
 -0.0292567  -0.30324224]
[ 0.39235654 -0.09883609  0.2438897  -0.319149    0.33852133 -0.14075908
  0.34026536 -0.25684586  0.06617721 -0.08628556  0.07047389 -0.13485429
  0.26004732  0.2890225   0.15245871  0.05737191 -0.2963239  -0.1924777
  0.04579626 -0.05005987]
[-0.23189643 -0.13901126  0.00111782 -0.09550609 -0.15136868  0.26985386
 -0.18365002 -0.0202531   0.3171664   0.03213555  0.2505557   0.31430662
 -0.09377386 -0.23888664  0.13280718 -0.03208273 -0.292352   -0.24822505
 -0.31945297  0.305887  ]
[ 0.29191405  0.4946976   0.37936592  0.00970737 -0.19153169  0.12693255
  0.02888465  0.00751987 -0.3284454   0.3401934   0.1815249  -0.37217733
  0.07495654 -0.08596018 -0.07055538 -0.21211582  0.07096981 -0.11851135
  0.33627006  0.3658623 ]
[ 0.2309318  -0.11048812  0.00990727  0.19887982  0.29369643 -0.0827942
  0.35661364  0.44931114 -0.32317227  0.02233036  0.482728    0.37867057
  0.25022203  0.185313   -0.05611989  0.06593332  0.38974676 -0.17030932
 -0.15044802 -0.31978998]
[-0.05745589  0.07125372 -0.29225576  0.00959267 -0.01445396  0.03947583
  0.16701984  0.21454832  0.22262514  0.1494765   0.23816238  0.17361522
 -0.30284354 -0.11343561  0.15072323 -0.38893822  0.17989135  0.15409005
  0.10911597 -0.17695126]
[ 0.17341824  0.3035646   0.12653868  0.0859279  -0.13770254 -0.3052807
  0.19330646  0.33576202 -0.17239411 -0.15042335 -0.07831473 -0.08799691
  0.1152193  -0.33602318  0.15452564 -0.12608741  0.29664934  0.09667613
 -0.3058058  -0.07368746]
[ 0.2682916   0.21332853  0.05201234  0.12760745 -0.23095009 -0.03071405
 -0.12748264  0.20575982 -0.16303179  0.27605453 -0.05442743 -0.14283091
  0.13574572  0.1278728  -0.12140286 -0.11495209  0.02045951  0.15146144
  0.3476308   0.1112054 ]
[-0.08921348  0.2687589   0.1810174  -0.31258717 -0.46115315  0.28156972
  0.37666178  0.20325494  0.03424511  0.19824255 -0.25103843  0.10759136
 -0.1611268   0.4646632   0.06109105  0.4267676   0.15501529 -0.3446243
  0.30072165  0.22623377]
[ 0.02860934 -0.0183686  -0.0056285  -0.03263045  0.02808028 -0.00051398
 -0.02092772 -0.04475359 -0.00679283  0.06683559  0.03091566  0.00734812
  0.05558162 -0.07556508  0.00542194  0.00281894  0.01809934  0.05861387
  0.02211728 -0.00154818]
layer 1 Activation
tanh
layer 2 Dense
20 40
[-0.09323139 -0.06999204 -0.13570246 -0.20370898 -0.06552687  0.03344515
 -0.06647352 -0.03694323 -0.23431432  0.01540417 -0.11628796 -0.3284076
 -0.08850367  0.25294796 -0.17304981 -0.17634651 -0.11541347  0.00432592
 -0.23190056  0.19141482  0.28787196 -0.10993841 -0.06643797 -0.1262124
 -0.05718016  0.06424044 -0.23931302 -0.24390425  0.00788336 -0.22446986
  0.04448182 -0.1028008   0.20609319  0.07382437 -0.20190176 -0.10292286
  0.03851862  0.08017583  0.12863772 -0.17635022]
[ 0.15084286 -0.06724721 -0.19102384  0.18776315 -0.12321465  0.22932282
  0.07309007 -0.1711924  -0.19475478  0.22656927  0.12091395  0.16193654
 -0.15124504 -0.03076457  0.16680105  0.04416975 -0.22682944  0.0425736
  0.08988065  0.1749874  -0.09966137 -0.20641494  0.07695087  0.31063515
  0.19742684  0.28125328  0.2427688  -0.18576342 -0.25208685 -0.30072045
  0.1127914  -0.0667873   0.07827219  0.17502466  0.32891628 -0.14829098
  0.30866408 -0.20951468  0.07976818 -0.32150212]
[ 0.03427196  0.15704803  0.07207849  0.07379849  0.20366836  0.1642918
 -0.12370208 -0.09883582  0.3062715   0.11381403  0.13201821 -0.2663509
  0.23149066  0.03503581  0.3556642   0.29229945 -0.23330784  0.05272368
 -0.17110953  0.04916969  0.14865972 -0.06801387 -0.157956    0.342641
 -0.15424635 -0.21719386 -0.13744745  0.27013862  0.0130981  -0.15315889
 -0.06627293  0.1975211   0.21375513  0.02149101  0.20382565  0.19810623
 -0.21629332  0.00457646 -0.12990437 -0.31474975]
[ 0.28800085  0.14360346  0.09895483 -0.41205174  0.2611627   0.00576003
 -0.10284221  0.09057819 -0.20409288 -0.17664288 -0.02963421  0.27762592
  0.12465181  0.07575653 -0.25652158  0.04590789  0.06701702  0.19028817
 -0.03817909  0.27074763  0.23997885  0.30902404 -0.29663223  0.09414402
 -0.3409166  -0.15760697  0.06116751 -0.12094307  0.17390442  0.01665679
  0.23372604 -0.07129382  0.15499675  0.24213822 -0.29509145 -0.1261379
  0.08604991 -0.04149038  0.14806752  0.3254332 ]
[ 0.19939746 -0.17060928 -0.237642   -0.27893785 -0.21418633 -0.08361068
 -0.05453677 -0.08847598 -0.22967508 -0.2284824  -0.27553147  0.2277771
  0.11437353 -0.18989752  0.10597257 -0.22845095  0.27335376  0.01890591
 -0.06819788 -0.3203049  -0.14559832 -0.03833221 -0.09962115  0.34871164
 -0.23654927 -0.06471885 -0.18348624  0.2535586   0.24665663  0.05002763
 -0.23705839 -0.18586242  0.13212147  0.23326634 -0.1751233   0.07060818
  0.2883582   0.21416344  0.11442685 -0.18671417]
[ 0.08085967 -0.16089785 -0.24620844  0.27118534  0.15196818  0.00615296
 -0.12900706 -0.16284485  0.11171337  0.19445597  0.09293801 -0.01755621
 -0.17379558  0.16562931 -0.08340412  0.09715746  0.25831905  0.24938975
  0.08832832  0.16158824  0.2399537   0.01153782  0.02721354  0.0756823
 -0.29398245  0.22675899 -0.12079713  0.07000979 -0.18986402  0.24617691
 -0.09952644 -0.11210226 -0.00702751  0.03396313  0.13200402  0.19608866
 -0.02564991 -0.09880743  0.04172977 -0.08368786]
[ 0.226505   -0.10342266  0.14666332 -0.2209381  -0.13560095 -0.12135602
 -0.05587719  0.1364225  -0.01534248  0.169225   -0.36950314  0.19639097
 -0.05304564 -0.05513405 -0.21433501 -0.12872759 -0.07429379  0.00720818
  0.13011178 -0.14775406  0.01982976 -0.08227543 -0.17876902 -0.21765748
 -0.20009772  0.01124291 -0.12432723  0.07156228  0.10451958 -0.22474134
 -0.16986363 -0.14889866 -0.09964505  0.30690843 -0.18725218 -0.20685211
  0.30388972 -0.02057892  0.40911844  0.19188532]
[ 0.19375028 -0.08621679 -0.2591122  -0.03898711 -0.190336   -0.19870505
 -0.23925732 -0.09512262 -0.06988678  0.08311534  0.1856589   0.26743576
 -0.15469757 -0.10830576  0.11328272  0.2150465   0.16973901 -0.21011952
 -0.08347404  0.03065717  0.23632696  0.0928817  -0.14746615 -0.02645801
 -0.2237477   0.05551218 -0.01795322 -0.03499287 -0.17233469 -0.13588968
 -0.3601075  -0.31144828  0.10995849 -0.11967435 -0.35285828  0.02076497
  0.27421314  0.17084815  0.2725805  -0.12595646]
[ 0.08204462  0.18193428 -0.25072175 -0.24157207  0.14279756 -0.10808048
  0.3140145  -0.12254412 -0.04449048 -0.1922448  -0.44968915 -0.04402983
 -0.0433098  -0.36104688 -0.24004093  0.12602495 -0.06519604  0.0674988
  0.1940049  -0.25029242  0.2561996  -0.11161145 -0.04403437  0.09747317
  0.09337462  0.13249414 -0.12241517 -0.01715446 -0.1867706   0.21587592
  0.15119264 -0.24001142 -0.1818326   0.2218276   0.22100435  0.08520118
 -0.04883607 -0.23246625  0.04272017 -0.21562296]
[-0.33082664 -0.05986461  0.10330766 -0.21749483 -0.11764511  0.14378186
 -0.18614246  0.15007117 -0.17436215 -0.18300779  0.21680173 -0.1702421
 -0.08729744  0.17835262  0.1650444   0.24196117  0.04022769 -0.30051976
 -0.3295958   0.17267911  0.06758214 -0.08775046  0.04781447 -0.0541098
  0.20648457 -0.16439323 -0.00102246 -0.0108517   0.08637647  0.03615624
  0.28342333 -0.19054076 -0.11267022 -0.30055836 -0.17247812  0.09510833
 -0.24958342  0.2752948  -0.00824699  0.17882445]
[ 0.19465765 -0.07797276 -0.05619488  0.19770235 -0.20128518 -0.27372822
 -0.00617786  0.18405174 -0.20979527 -0.12267157 -0.2090094   0.1856734
 -0.02607709  0.26956746  0.12422891 -0.09692244 -0.28899512  0.16105564
 -0.09094698  0.14365588 -0.02788956 -0.13978113  0.1635735   0.08497924
 -0.03657359  0.06370163  0.22044848  0.03177237  0.06417704  0.30835393
  0.07958496 -0.2134598   0.2767082   0.2438386   0.227171   -0.21565741
  0.22164726  0.1368595   0.5100313  -0.0514278 ]
[-0.3145428   0.04104957  0.12327885 -0.23582584 -0.04404306  0.21420053
  0.29700512  0.00865754 -0.04599294 -0.20276773  0.12489764  0.02788565
 -0.04186583 -0.21503453 -0.07867425  0.14798653  0.13888519 -0.26083395
 -0.12220252 -0.18612547 -0.05741986 -0.20928842  0.06875211 -0.07730637
 -0.0884816  -0.12159847  0.06942764 -0.00060859 -0.295994    0.31785822
 -0.0219513   0.03723636  0.30011892 -0.13190278  0.01834219 -0.27569348
 -0.0310065  -0.19931637  0.2785323  -0.24750632]
[ 0.09892394 -0.03704017  0.02678796 -0.08568218  0.22794802 -0.09524734
  0.02520637  0.0737403  -0.06290607  0.16844021  0.14707951 -0.15495865
 -0.00277481 -0.0115827  -0.15550803  0.1198839   0.1424122   0.02757039
 -0.2157591   0.24391155  0.28855115  0.1560455   0.25821376 -0.16625267
  0.11996289 -0.07044134  0.03746226 -0.15905802  0.2172211   0.11852252
  0.20486699 -0.22365682 -0.10447557 -0.13283145 -0.2854935  -0.27895126
 -0.0569209  -0.01142456 -0.04768268 -0.14287323]
[ 0.11944372  0.2093376   0.03028097  0.14945894 -0.23611361  0.28176987
 -0.08084459  0.08902851 -0.21510252  0.3030571  -0.18298371  0.28257048
  0.2810454  -0.18079826  0.14706539  0.25906083 -0.16578004 -0.2155093
  0.0526217  -0.06926682 -0.31366524  0.26372138  0.11580898  0.12046866
 -0.14820711  0.17705326  0.04162018  0.2990986  -0.1399474   0.08051603
  0.12941161  0.18149354 -0.04939355 -0.27048588 -0.17521678  0.26269153
  0.06721427  0.12455974  0.24789847 -0.05419534]
[-0.0579839  -0.05962611  0.25743976  0.04630461 -0.26559898 -0.17442338
 -0.15110761 -0.3477897  -0.13398498 -0.28363413  0.01375608  0.27705976
 -0.23899478 -0.34267303 -0.08382308  0.08795275 -0.29579812  0.03154233
 -0.29233944  0.1450026   0.3033027  -0.26529112 -0.11574961  0.24728896
  0.03249722  0.16940428 -0.00657351 -0.08502718 -0.27369517  0.08069617
  0.4079935  -0.22960342 -0.11417872 -0.19501235 -0.18481326  0.3193742
  0.02710611  0.2965277  -0.24078093  0.10917328]
[ 0.07317068  0.07765573  0.16205503 -0.01478333 -0.12803109  0.11625074
 -0.05657053  0.36925176 -0.15560164 -0.04624661 -0.04582966 -0.10954171
 -0.03822476  0.09095576 -0.16722606 -0.13042825  0.32801464 -0.01225739
 -0.18899098  0.26750633  0.09902553  0.17615275 -0.01087531  0.13552794
 -0.11736289  0.30023745 -0.15988065 -0.07180756  0.0452255  -0.34396905
 -0.11698747 -0.330772    0.154124   -0.07064444 -0.16094632  0.2623248
  0.33288217 -0.16904978  0.3151742  -0.12081222]
[ 0.1191112   0.36264896  0.19997941  0.01139301 -0.06408259 -0.1733095
  0.20277075  0.13388285  0.07327768  0.03635301 -0.11039352 -0.0060316
  0.20061284 -0.0564313  -0.04599861  0.1719688  -0.20700504 -0.11996216
  0.37961632  0.03325427  0.19673148 -0.30186012 -0.13836308  0.14373727
  0.227453    0.08341415 -0.05205426  0.3184788  -0.18257363  0.32965317
  0.1848276  -0.2897552  -0.17503656  0.21905187  0.24930634  0.0207339
 -0.1340807   0.14654544  0.09056563  0.2578533 ]
[-0.04641034  0.16665542 -0.16779588 -0.06429363 -0.2752891   0.21193565
  0.07729481  0.15413259  0.21821684 -0.29059827 -0.07373176  0.20273788
 -0.01522381 -0.04246031  0.2912124  -0.18684132  0.04378702  0.25411963
  0.17146866 -0.18438065 -0.10924451  0.03236588  0.02987608  0.10593917
  0.08823109  0.07754529 -0.21008447 -0.20176162  0.18893783 -0.04243558
 -0.05163823 -0.06459915  0.15893458 -0.15776974  0.24748567  0.20485999
  0.2661063  -0.0068591  -0.06743684 -0.10744828]
[ 0.2797022  -0.10950436  0.04119629 -0.15160316 -0.13501775 -0.20556875
  0.08901999  0.16187473 -0.17552254 -0.0140794  -0.14939827 -0.22501664
 -0.03582706  0.24193695 -0.0789787  -0.2572455  -0.07597942 -0.17404816
  0.22724447 -0.16870502 -0.08174697  0.02615019 -0.09921101  0.24722072
  0.18277358  0.10790814 -0.14544389  0.21314156 -0.08610884  0.24311298
  0.02506418 -0.06556986 -0.17634168  0.23180334 -0.15067625  0.29696232
  0.23528332 -0.0871461  -0.10949627  0.02201828]
[-0.21928744  0.21477659  0.17820415  0.23137096 -0.05281866  0.10601041
  0.18835187 -0.02990625  0.19352435  0.16839075  0.04448122 -0.08981992
 -0.16758335 -0.21075283 -0.05970732  0.2232944  -0.04230427  0.05033713
 -0.21183226 -0.06413209  0.17989269 -0.3624309  -0.1501668  -0.20706289
  0.30822042 -0.13001879 -0.00484293 -0.22071534  0.22817521 -0.23965393
 -0.3184834  -0.07806943  0.07205516 -0.14686684 -0.08702292 -0.04696969
  0.16412707 -0.15569468  0.24081469  0.1613834 ]
[-0.02588158 -0.05675365  0.01027883 -0.01540165 -0.01211861  0.00490753
  0.0059846   0.00721477 -0.03000504 -0.00624546 -0.02377486  0.01763812
  0.00214711  0.08583827 -0.00074828 -0.00288632 -0.00290359  0.01689236
  0.05431673 -0.04669894 -0.00377756 -0.03250045 -0.06709631  0.05829068
  0.01479957  0.00363413 -0.03224955 -0.01206854  0.0475197   0.02310446
 -0.06865314 -0.00578227  0.00276473 -0.01660556 -0.0288611  -0.01305219
  0.03914249 -0.00634507 -0.12388603  0.02203052]
layer 3 Activation
tanh
layer 4 Dense
40 20
[ 0.17936218  0.07461569  0.1020321   0.13423344 -0.1227027  -0.04903761
 -0.12993765  0.28691834  0.07717267 -0.14978558  0.12372621 -0.2720654
 -0.02273415  0.01936612 -0.23266399  0.14392987 -0.14402618  0.1446698
  0.13398832 -0.2502658 ]
[-0.2474527   0.12716657  0.02957138 -0.08224419  0.15208277 -0.02133889
 -0.07543375  0.26132017  0.02595382  0.28380573 -0.14791036 -0.07675474
 -0.21057214  0.21608399  0.03477079  0.24212188  0.20414913  0.05386085
 -0.03061217 -0.20693214]
[ 0.24122733  0.0516461   0.03787653 -0.06878753 -0.32473522 -0.16512513
 -0.03959699 -0.02189466 -0.2663851  -0.02737755  0.31481996 -0.08672886
 -0.11044597 -0.01432715 -0.16232319  0.11770463 -0.32499966 -0.07286064
 -0.13908978  0.00952842]
[-0.04306896 -0.11454824  0.30050337  0.22695456  0.18740934  0.0647417
 -0.1725321  -0.02703775  0.04710332 -0.32242736 -0.10651568 -0.01955887
 -0.04775925 -0.01589064  0.21924976 -0.08541177 -0.01306057  0.01293139
 -0.245295    0.22081706]
[ 0.15438548  0.15637033 -0.13000184 -0.12264266 -0.01837032 -0.06331024
 -0.13759993 -0.10935843  0.03481904 -0.14297596 -0.20991741 -0.37526444
 -0.19989757 -0.20999157  0.01803176  0.16058633  0.11072842 -0.22916688
 -0.08676448  0.00394013]
[-0.07252681  0.02130297  0.23307228 -0.12771723 -0.2549218  -0.25356725
 -0.21798906 -0.01954183 -0.01058049  0.22603758 -0.35667866  0.03823888
  0.04627497 -0.20013063 -0.00560402  0.1900065  -0.3143004  -0.27592444
  0.12662555  0.03862322]
[ 0.19965167  0.16649187  0.2938338  -0.23643377 -0.13077255  0.04192923
 -0.34097186 -0.16838309 -0.22475432 -0.01718739  0.22723977 -0.3091231
  0.2767199  -0.12062689 -0.18626189 -0.15558192 -0.16861041 -0.05252611
 -0.15463452 -0.2391327 ]
[ 0.21709853  0.15919176  0.2008145  -0.00628724 -0.0879938   0.23222853
 -0.11537039  0.29453072  0.03488079  0.07158984 -0.29066786 -0.22175781
 -0.28937006  0.2257488  -0.02833934 -0.13114922 -0.12838668 -0.1653275
  0.14799011  0.07948313]
[ 0.07617076  0.00177411  0.02219018  0.26807445 -0.0883354   0.26360863
 -0.05698679  0.1098868  -0.2158502  -0.18927391 -0.05934271 -0.19388439
 -0.08598354 -0.15986958 -0.12400316  0.19518888 -0.1589113  -0.19336079
 -0.0538011   0.19775364]
[ 0.21479271  0.12113646  0.1982992   0.18954146  0.08605069  0.09660777
 -0.12192221  0.20428029  0.07577564  0.284118    0.22621562  0.18804994
  0.18065338 -0.05791609  0.09454723  0.2695416  -0.12235326  0.18984134
 -0.2360687   0.07607616]
[-0.22316283 -0.03423535 -0.23301932  0.05038419 -0.05776462  0.19609994
 -0.0022564   0.20786709  0.08618046  0.28011882  0.08649001  0.14154235
  0.05410976  0.13856505  0.13385671  0.29511008  0.14548732 -0.23415247
 -0.19806446  0.18061703]
[ 1.8715043e-02  3.3315200e-02  1.5930107e-02  1.3371140e-01
 -8.2746290e-02 -1.4489457e-01 -1.2864117e-01 -1.3279271e-01
 -1.4472118e-01 -1.6222334e-01  1.1143640e-01 -5.2964743e-02
  2.8519696e-01  1.8859707e-01  1.3541652e-01 -9.5649637e-02
  1.6557135e-01 -1.3804048e-01  1.6505353e-04 -1.6938552e-01]
[ 0.01877031 -0.12570427 -0.01778006 -0.25912994  0.08873136  0.08059754
 -0.22055754  0.08497827  0.23367193  0.18335259 -0.15914482  0.39277986
 -0.2524015   0.13727854  0.08902871 -0.30872026 -0.22204585  0.077633
  0.15641454  0.21192795]
[-0.0446435   0.15986983  0.1916031  -0.16347566 -0.2338475   0.04878399
 -0.00196091  0.20916629 -0.04308126  0.08513837  0.26189592 -0.2018949
  0.01246679  0.27384076 -0.04107581  0.23674448 -0.01403705 -0.00892881
 -0.26651144  0.10217609]
[ 0.06894269 -0.1458461  -0.18582435 -0.3158757  -0.11233386  0.14883699
 -0.17870322  0.12330955 -0.09528377 -0.3129051  -0.02046964  0.2979069
 -0.03489738  0.29334605  0.14613849  0.18980657  0.14947163 -0.10037129
 -0.107651    0.09386184]
[ 0.18793014  0.27543122 -0.15241736  0.08125511  0.14973733  0.21680823
  0.14058568 -0.15125242  0.13973182 -0.1651309  -0.17284918  0.05835555
 -0.07004001 -0.04132086  0.2537938   0.20073035 -0.10662822  0.24184348
 -0.24510615  0.32188287]
[-0.08045316 -0.05498669 -0.25497782 -0.02580775 -0.13112234  0.03626153
 -0.1879199   0.02687692 -0.2789422   0.2666716  -0.12408403  0.0075171
 -0.04544028 -0.2999395  -0.15649083 -0.22893721  0.21911953 -0.03563702
  0.10287318  0.15196654]
[-0.18471384  0.32892007  0.15848039 -0.25385046  0.01890096 -0.01020371
 -0.2033287  -0.2447186  -0.03829118 -0.16366741 -0.15199506 -0.2569582
  0.17058867 -0.11134131  0.1946205  -0.09494839  0.12216319  0.00599682
  0.02980502 -0.05937642]
[ 0.31389955 -0.11110903 -0.07694072 -0.01228414 -0.24036211  0.01198673
 -0.17440388  0.13400954 -0.18997979  0.27636644  0.25240016  0.22113772
 -0.1795893   0.25541237 -0.13200717 -0.11247793  0.03282279  0.05515252
 -0.052128   -0.26753578]
[-0.16504252 -0.29315487 -0.05211407 -0.15952384  0.23444037 -0.07992419
  0.17387298  0.23036207  0.21023993  0.08469129  0.1286157   0.09061426
  0.17131668 -0.2958687  -0.2399563   0.247192    0.03291379 -0.28985366
  0.09116337  0.2422364 ]
[ 0.3125103   0.02170616 -0.12737957  0.0234028   0.16299623 -0.16051349
 -0.06027441  0.30156744  0.20916744  0.05549094 -0.29973713 -0.25046372
 -0.02164885 -0.00607616  0.05557287  0.16749826 -0.18049937 -0.01967595
  0.15365335  0.0552204 ]
[ 0.02816048 -0.02735595  0.26527888 -0.14168294 -0.09514295 -0.15581386
  0.11365397  0.03857252 -0.01526739  0.23984647  0.17273179 -0.22476858
 -0.1590214   0.01472853 -0.01109831 -0.22889452 -0.20782197 -0.25976488
  0.10985636 -0.05116685]
[-0.07329805  0.23410325  0.10542786 -0.01246185 -0.19831641  0.17670318
  0.07883552 -0.21604851 -0.08190512 -0.24013688 -0.15279172  0.21362016
 -0.02230811 -0.06938934  0.21291614  0.19226347 -0.2049991   0.12225316
 -0.03118008  0.05054537]
[ 0.25776783  0.00643244 -0.09733402 -0.01701795  0.20816304  0.32366714
  0.03085375 -0.17001224 -0.11203072 -0.16698198  0.03981948 -0.03911825
  0.00340651  0.33887473  0.17481989  0.17151792 -0.04813854 -0.03192006
 -0.27486113 -0.1177962 ]
[ 0.25309965  0.04974035  0.05509708 -0.0638545   0.15473388 -0.15175526
  0.12721673 -0.2673295  -0.24027592 -0.013176    0.12328533  0.0412271
  0.19881338  0.20698883  0.04457534 -0.29638815  0.33024755  0.21742335
 -0.17845441  0.25663137]
[-0.0427115  -0.06671911 -0.12845938  0.31439787 -0.09146781 -0.18523748
  0.12527362  0.22588152  0.25576746  0.01408194  0.23619218 -0.2751551
 -0.28329822 -0.11929476 -0.21694544  0.28585768 -0.13937436  0.21300255
 -0.06211024 -0.1612248 ]
[ 0.2052924   0.17514513 -0.11504125  0.20716263 -0.13689288  0.22141197
 -0.0210688  -0.08916497 -0.13464443  0.16287622  0.19648686 -0.02908045
 -0.16563167 -0.22546108 -0.23099968  0.22060253  0.02959773  0.21824725
 -0.08944274 -0.19425121]
[-0.2354085   0.12857302 -0.1837241  -0.33985296  0.15916476  0.12715487
  0.33876666 -0.20728576  0.15907428 -0.07829479 -0.19328715  0.3027784
  0.31995803  0.22219588  0.21036117  0.16499355  0.0684552   0.1858916
 -0.1551516   0.17383498]
[-0.34633917  0.03849688 -0.1068868   0.01352512 -0.1867388  -0.21896312
 -0.25595534  0.14633507 -0.06468967  0.22088647  0.24757746  0.12600642
  0.17294231  0.252806    0.24787776 -0.04894995 -0.2592117  -0.00688636
 -0.1705131   0.00378492]
[ 0.16145332 -0.03510512  0.00805597 -0.17622493  0.27712446  0.13279685
 -0.19756886  0.09588638  0.2193919   0.06114736 -0.02572622  0.3317551
  0.18499462  0.22019264 -0.26760057 -0.08428302 -0.09434044 -0.07972173
  0.26156443  0.07267901]
[-0.11188995 -0.09284981  0.10332663 -0.04993301 -0.01414047 -0.11772912
  0.23913136 -0.26944208 -0.03136245  0.1339873   0.05562243 -0.006389
  0.21835953 -0.18773404  0.2781401  -0.11288413 -0.21121189 -0.0172038
  0.02381781 -0.23917243]
[ 0.03054215  0.09726514  0.01311807 -0.27168584  0.08242585  0.21575701
  0.16241999 -0.02445018  0.15348078  0.04093377  0.10913198  0.24942909
 -0.13216339 -0.02430749 -0.0944202   0.23549469  0.10169644  0.13753793
 -0.14557289  0.32721785]
[-0.2717247  -0.12293871 -0.13298672 -0.12063168  0.24389337  0.22164819
 -0.20264369  0.3423898   0.06237332  0.23782475  0.12189345 -0.02502746
  0.08117957  0.05408201 -0.22180279 -0.164771   -0.03355966 -0.27468917
  0.2537957   0.03878141]
[ 0.32592568 -0.11130589  0.194586    0.12678415  0.41549042  0.03777148
  0.2952553   0.10329989 -0.16284563  0.08229074 -0.17349279 -0.23724411
 -0.06332945 -0.0692334   0.19352196  0.21615227  0.17348674 -0.04462697
  0.17098098  0.17383134]
[ 0.04776721 -0.27783027  0.2274071  -0.06351561 -0.27264553  0.00956596
  0.19904597 -0.04854539 -0.1609855  -0.2791142  -0.08087134  0.26896393
  0.04926232 -0.27448702  0.12284482  0.28179574 -0.21992688 -0.15869497
  0.03123315  0.11879449]
[ 0.20679238 -0.29637587 -0.06127476 -0.21540566  0.31465417 -0.1708416
  0.29918823 -0.03650659 -0.19944018 -0.13876687 -0.21819389  0.06317444
  0.12466373  0.0995216  -0.13293462  0.20378548  0.0339799  -0.01172013
  0.00181626 -0.15185213]
[-0.00046547  0.04142494 -0.16282639  0.01575379  0.01579032 -0.37519768
 -0.2745312   0.30179042  0.01433286 -0.28996557 -0.08932783 -0.23241985
  0.19828841  0.14570338 -0.31521767  0.02340218  0.20252967  0.04112646
  0.17560308 -0.07763758]
[-0.24665073 -0.05869918 -0.18998846  0.23080935 -0.09078774 -0.23036124
  0.1926101  -0.24578938 -0.2614483  -0.13369137 -0.02588401  0.2082416
 -0.24398528  0.01270626  0.09219959 -0.25196946 -0.14210573 -0.17138316
  0.1823038   0.22716187]
[ 0.21686433  0.06865133  0.2720577  -0.14793317  0.14968434  0.08185006
 -0.15580727  0.14074188 -0.12572013 -0.14140056 -0.23448692  0.23350585
 -0.2060994  -0.27232316  0.2119655  -0.0508073  -0.11756621 -0.21661766
  0.2913105   0.18813618]
[ 0.02936888 -0.04852897 -0.0608708   0.03856786  0.1854643   0.01025061
 -0.12985228  0.17959054 -0.05754415  0.39025536  0.17511326 -0.35664582
  0.15394208 -0.26331586  0.17181806 -0.1396943  -0.06445511 -0.10943691
 -0.01884901 -0.06115625]
[-0.007692    0.03296384  0.00272477  0.00071325  0.00722404 -0.01072337
 -0.03274177  0.00353743 -0.0025539   0.01365963  0.00809967  0.01356218
 -0.03195971  0.00563399 -0.00199339 -0.01740652 -0.0056977   0.00383618
 -0.00276302  0.0035481 ]
layer 5 Activation
tanh
layer 6 Dense
20 1
[0.02000733]
[0.2688812]
[-0.02093483]
[-0.01146244]
[0.01090257]
[-0.01877328]
[0.25122464]
[0.28498274]
[0.004245]
[-0.13251846]
[0.00016654]
[0.1667773]
[0.00189973]
[-0.12068564]
[-0.03549367]
[-0.28857175]
[-0.0004718]
[-0.11745049]
[-0.32015306]
[-0.21824326]
[0.00125008]
