layers 7
layer 0 Dense
20 20
[ 0.21880984  0.05110858  0.566036    0.427349    0.44699967  0.16350415
  0.09735193  0.19224659  0.29548377  0.27964008 -0.3607373   0.28170568
  0.12308294 -0.6512914  -0.5997623  -0.4757511   0.34164783  0.13411532
 -0.4830668  -0.42156276]
[-0.21974589  0.42566976  0.15418439 -0.87198097  0.2002601   0.28767875
  0.14526635 -0.24712972  0.6306554   0.50517046 -0.11754165  0.14926387
 -0.5761632  -0.0595772  -0.615432    0.22264771  0.3246622  -0.11048692
  0.19491085 -0.51742864]
[ 0.2750145   0.6410569  -0.3166368  -0.66985786 -0.1979221   0.35984764
  0.08080674 -0.13486922  0.6225781   0.4051017  -0.06105308  0.04656696
 -0.1640446  -0.5044979  -0.3126278  -0.03503505 -0.27636653  0.06952188
  0.40826723 -0.6738836 ]
[ 0.06099309  0.25612184  0.04518521 -0.41598484  0.00129405  0.04870153
  0.25886372  0.3160786   0.62109584  0.28129113 -0.24578622 -0.21359718
 -0.18352816 -0.6814105  -0.6933334  -0.05755215 -0.1326173   0.04038408
  0.03422776 -0.24023344]
[ 0.08250334 -0.47214258  0.33184385  0.73539376  0.21770059 -0.14618136
 -0.32769164  0.04107304 -0.06008391 -0.11534861  0.29611745 -0.65491676
 -0.6651119  -0.40831068  0.25449198  0.0167497   0.04810713  0.18861528
  0.74715406 -0.23422816]
[-0.12426317 -0.2922428   0.10850503  0.2807903   0.47920763 -0.08459207
  0.5754804  -0.43879756 -0.45034853 -0.84964204  0.13599241 -0.08792783
  0.42847097 -0.02418316  0.59837025 -0.23201632  0.4084126  -0.05735371
  0.06695673  0.04066332]
[ 0.04521979 -0.17979601  0.21460019  0.03040169 -0.11123399 -0.49429885
  0.32263288 -0.3180953  -0.64282477 -0.593685   -0.5965297   0.50825226
  0.39855304  0.37832937  0.51082253 -0.5966216  -0.23504834 -0.1099267
 -0.5114729   0.00435019]
[ 0.27692577 -0.04167266 -0.41435993  0.44021362 -0.80682856 -0.02200809
  0.36723688  0.12018838 -0.45638388  0.2772459  -0.20274034  0.22133048
  0.3333085   0.5597554   0.25025287 -0.31698292 -0.286874    0.04882316
 -0.34969798  0.62851024]
[ 0.3878859   0.40794876 -0.00708114  0.3160669   0.3275612  -0.4576442
 -0.45011345 -0.01291368 -0.77097124  0.50195056  0.2635752  -0.29897296
 -0.2076421  -0.32672316  0.15844901  0.44828957 -0.44241804  0.3806111
  0.79020333 -0.43683162]
[ 0.66804135 -0.47807217 -0.39542598  0.34971544  0.66615117 -0.60332847
  0.31407443 -0.02427666 -0.201067   -0.19415434  0.7587823  -0.01535371
 -0.4516892   0.54535246 -0.9736523  -0.8057682   0.2590575  -0.40208334
  0.1861934   0.03770779]
[-0.5267891   0.64908254 -0.3704999   0.79791456 -0.29144982  1.47535
 -0.38883558  0.9242695  -0.54854107 -0.55060613  0.33901682 -1.0577935
 -0.6582607   0.3900065  -0.21159989 -0.14508124 -0.7333159  -0.6588021
  0.25925303 -0.38384372]
[-0.5976205   1.1536354  -0.40335894 -0.00377235 -0.03300826  0.47080365
 -0.19929947 -0.73082495 -1.205079    1.0919169   1.5335299  -0.6757928
  0.05304036 -0.62661237  0.00670099 -0.27826503 -0.130051    0.33032778
  1.0698287   0.65800726]
[-0.69407463 -0.69610566 -0.42840248  1.144654    0.12072477 -0.50172263
 -0.12336709 -0.64399964 -0.92745936 -0.38807258  0.15595776 -0.30729398
  0.09628605  0.28044873  0.3145759   0.05258281  0.0091733  -1.3250735
 -0.8811569   1.0157708 ]
[-0.0551746  -0.09290317 -0.16463195 -0.41142717  0.23025271  0.25119537
  0.13413787  0.12013678  0.18494572  0.05404161 -0.04407057  0.10018912
 -0.43266195 -0.5304249   0.7560316  -0.49024758  0.12380725 -0.28983405
 -0.1534732  -0.18435417]
[-0.01861755 -0.67378604 -0.0774184  -0.6146418   0.1099525  -0.30750576
  0.2873013   0.5171246   0.7473677   0.09462652 -0.31803384 -0.36743906
  0.21707937 -0.3118632   0.3029522  -0.35242593 -0.07869034  0.09251784
 -0.20450377 -0.10749303]
[ 0.52980113  0.24523038  0.43560192 -0.23177586 -1.1849841   0.18560067
 -0.83795047 -0.23402321  0.31788716  0.7899588   0.4573856   0.7250798
 -0.5305227  -1.230764   -0.23609817  0.7665498   0.06551321  0.51223373
 -0.42578676  0.26955682]
[ 0.3666185   0.23739815  0.45539945  0.6851927   0.45187834  0.27636057
 -0.15320736  0.3247065   0.48640957  0.05583579 -0.00989554 -0.16757797
 -0.73552126 -0.548632   -0.3967189  -0.06855713 -0.3232099   0.7557466
  0.4105337  -0.806628  ]
[-0.44326484 -0.39430508  0.21093684  1.0437465  -1.2315601   0.2851193
 -0.212693    0.04046426  0.836536    0.3489955  -0.88973105 -0.13323727
  0.37910962  0.12966558 -0.111399    2.2505033  -0.6943549   0.42883527
  0.11028817  0.19749501]
[ 0.33760902  0.32865277  0.5765029   0.2074205  -0.45908448 -1.1416742
  0.75701404 -0.80166876 -1.2094084   0.33053902 -0.2534408   2.6694305
  1.0488954   0.31091332 -0.22761099 -0.06261054  1.3190761   0.70201826
 -0.7132415   0.21335354]
[ 0.73925483 -1.3735412  -0.19157615  1.0917684   0.91241497  0.02467466
  1.8640598   1.4995415  -0.7104615  -1.373725   -2.2866244   0.4691729
  1.457631    1.6028831   0.293723   -0.7360501  -0.41896582 -0.5975659
 -1.7495213  -0.19149649]
[-0.11464899  0.17185482  0.17620476 -0.35853735  0.1910331   0.07007433
  0.00908399  0.0158128   0.3387169   0.05145869 -0.31564534 -0.06216928
 -0.0602575  -0.28311688 -0.12028796  0.05819059  0.14814511 -0.01028691
 -0.05053255 -0.22024857]
layer 1 Activation
tanh
layer 2 Dense
20 40
[ 0.36732227 -0.47487453  0.1645869   0.2137656   0.2488193   0.21142177
 -0.20360452  0.27877283 -0.24635077 -0.574924    0.06396393  0.30301505
  0.42976454  0.04942691 -0.2358325  -0.6764938   0.58719826 -0.07792874
 -0.08291936 -0.17336099  0.72683865  0.16504824 -0.0848874  -0.37119445
 -0.6501363   0.35334873 -0.16085224 -0.34182137 -0.09300855 -0.3393419
 -0.28292117  0.04321347  0.52607536 -0.3088009  -0.15668392  0.13486111
 -0.38112843  0.1396618   0.5874247   0.38990185]
[ 0.10821776 -0.09462064  0.11891867 -0.07342348 -0.03004239  0.03348773
 -0.20067973 -0.17990568  0.13152656 -0.0358199  -0.53582096 -0.19734976
 -0.23571078 -0.07997303 -0.33164138  0.32788506  0.30710652 -0.19264181
  0.44914436 -0.5937414  -0.25163144 -0.21523777  0.18249169 -0.06580256
  0.31356436  0.2797294   0.2819834  -0.21510601 -0.00157663  0.34003708
 -0.01687175  0.2948837  -0.15484859  0.03502638  0.39416763  0.3308347
 -0.29722977  0.65525013 -0.15804787  0.00136324]
[-4.24525470e-01 -9.76335183e-02  1.57841533e-01 -1.11942768e-01
 -6.30341992e-02  5.81574552e-02  9.80719272e-03  2.78909832e-01
 -1.97105594e-02 -1.74257353e-01  2.91732162e-01 -1.26902416e-01
 -3.94397587e-01  2.97744900e-01  3.18455286e-02  1.53162237e-02
  3.20854597e-05  2.17712849e-01  6.19863868e-01  3.11860621e-01
  4.38266456e-01 -8.14447179e-03 -7.16629345e-03  4.71556991e-01
  5.37150443e-01  4.35981788e-02 -2.50310153e-01  1.21582143e-01
 -3.26810151e-01  6.79605231e-02  3.17494012e-02 -8.30123350e-02
 -1.01702556e-01  1.16876885e-01  4.73683745e-01 -8.67707562e-03
 -7.15821516e-03  3.63979459e-01  2.55962491e-01 -4.48680259e-02]
[ 0.06604034  0.17175218 -0.24262191  0.38587636 -0.11324678 -0.13142152
 -0.48805475 -0.01233986 -0.22147536  0.1609126   0.32057253 -0.06774011
  0.24278373 -0.53314805 -0.61911136 -0.52590865 -0.2968258  -0.43728924
 -0.18924284 -0.05338088  0.5131065   0.18494555  0.2090091   0.2750333
  0.03623274  0.10369354 -0.23595577 -0.04100608 -0.14776431 -0.24711686
  0.1289717  -0.6690377   0.10880474  0.11897621 -0.70454776 -0.5045881
  0.41185752 -0.30259454 -0.02829548  0.19952442]
[ 0.22474098 -0.13282013  0.38229504  0.17324984  0.06911256  0.63960177
 -0.5426088  -0.03451763 -0.08808909 -0.5009443  -0.03467471  0.17534493
 -0.02059018  0.41129303  0.09133632 -0.5641078   0.2290443  -0.22449602
  0.7347018   0.1853881   0.67645603 -0.11585362 -0.14001416  0.06048405
 -0.11637785  0.31350416  0.3232178   0.03406226 -0.23721918  0.26970464
 -0.32310706 -0.06818771  0.12450206  0.08737514  0.08115014  0.16547534
 -0.26448566 -0.45250577 -0.18662176  0.22475715]
[ 0.04628732  0.07294652 -0.11771471  0.10750679  0.29691315 -0.6479251
 -0.05912432 -0.09366112  0.17920202  0.786946   -0.42625737  0.27291173
 -0.5320789   0.6605187  -0.17166433  0.67775655  0.20740499  0.41293377
  0.00124862  0.3878642  -0.33530822  0.3733875   0.3470829  -0.37699515
  0.11333479 -0.06115603  0.8252689   0.5065457  -0.00672039  0.26452678
  0.38876083  0.141492   -0.01255941  0.05098609  0.29638314  0.49514154
  0.7518546   0.6132197  -0.59340376 -0.07768374]
[ 0.04456603  0.11467444 -0.20071737  0.45149687 -0.03677251  0.02309509
 -0.56240207  0.4950398  -0.09997648  0.6570269   0.5852499  -0.08322717
  0.5956551   0.00655251  0.54202807 -0.59944457  0.16380423  0.25599515
 -0.6070674   0.44493002  0.38148814  0.27320778 -0.17873831  0.18712904
 -0.8297432  -0.05946392 -0.29633132  0.18169996 -0.17872086  0.03635163
 -0.04018213  0.42327392  0.42721575 -0.11232287 -0.17351379  0.3323099
  0.18757129  0.17599286 -0.26389557 -0.01676018]
[-0.5057688   0.05516009 -0.3551873  -0.19812831 -0.15421255  0.08298125
 -0.34030518  0.23573686  0.32870048  0.9338     -0.16737184  0.45986792
 -0.36773118  0.10670522 -0.09550159 -0.69373494  0.00605042  0.10952763
  0.02700159  0.4719298  -0.06426203  0.78969985 -0.08733473  0.4485232
 -0.564546   -0.06335082  0.82184464  0.09118158 -0.2691224  -0.23811561
  0.21715043  0.3385907   0.29736733 -0.03114578 -0.35988888  0.39357835
 -0.533806   -0.22302276 -0.6034776   0.26278904]
[-0.41371524 -0.3053801  -0.30969006 -0.72623265  0.43660662  0.17729443
  0.34572718 -0.1698172   0.3953029   0.3979053   0.16559474 -0.281267
  0.03264063  0.3173679   0.55171776 -0.06281219  0.4545475  -0.205833
  0.46272242 -0.09216396  0.01900865 -0.3254281   0.11459094  0.38786435
  0.12801708 -0.24828576 -0.07615386  0.2416732  -0.33415258  0.22585392
  0.3354541   0.3199194   0.10582051  0.18458423  0.23914427  0.00448145
 -0.9342796  -0.00692897 -0.30832505  0.3142848 ]
[ 0.3188584  -0.02267403 -0.02617006 -0.37346572 -0.02036885  0.32193902
  0.5065358  -0.32493165 -0.10929579 -0.8766239  -0.02153253 -0.22317639
  0.31786752  0.35055774  0.37075108 -0.00553513  0.13471834 -0.28492722
 -0.20542696 -0.33097857 -0.03563843 -0.5642998  -0.11516685  0.2778098
  0.32729343  0.22396627 -0.34176087  0.18395264 -0.33393607  0.32081428
 -0.1291825   0.04418526 -0.26741502  0.05550409 -0.1594138  -0.11616419
  0.2687962   0.00986968  0.5257139  -0.09724823]
[ 0.4387866  -0.3716097   0.6609804   0.44232303 -0.30052623  0.48375258
 -0.18737726 -0.5712451  -0.0490677  -0.8067533  -0.38316995  0.11937089
 -0.16414535 -0.44769165  0.03032629  0.22724296 -0.1915526  -0.5552413
  0.03503835 -0.3991437  -0.43992886 -0.35736692  0.1412357  -0.69849646
  0.36193362  0.04863356  0.1986044  -0.1817762   0.35820556 -0.4746819
  0.04861394 -0.259967    0.035855    0.2293383  -0.11660156  0.05552787
  0.18802637  0.5201675   0.40934265  0.3803173 ]
[ 0.16913138  0.36967263 -0.06621686  0.31224018  0.30974135 -0.2101628
  0.09067243  0.07098625 -0.24205744 -0.27534482  0.25217307 -0.20170122
  0.08534953  0.17146385  0.46562025 -0.21106322 -0.03510246  0.3091615
  0.22957383  0.5189074   0.48057732 -0.03044886 -0.28316826 -0.08171318
 -0.58400476 -0.28909996 -0.69295895 -0.20238648  0.13706431 -0.03423802
 -0.25811198  0.31191722  0.10216709 -0.00469891  0.36700067  0.43319306
  0.20852043  0.9443175   0.72990453 -0.11266474]
[-0.16110118  0.06665725 -0.5768974  -0.1388616  -0.21744435 -0.76822424
 -0.39189342 -0.01513558  0.27287337  0.7724783   0.21068671  0.33036897
  0.36718348 -0.22457784  0.26630068 -0.57192576 -0.16050462  0.6041589
  0.23311035  0.01032117  0.2790304  -0.12967779 -0.33361378  0.5883749
 -0.73790956  0.19554694 -0.6127807   0.09678169  0.07929287 -0.33817068
 -0.27049434 -0.0222891  -0.19447939 -0.06106776  0.07704384  0.83770686
 -0.23626812 -0.56985044  0.43678808 -0.5051085 ]
[-0.22398831  0.02042805 -0.14134887  0.6357967  -0.09376629 -0.6782313
 -0.71334624  0.06290082 -0.40464067  0.88057846  0.31717667  0.46984404
  0.28467882 -1.1918472  -0.2516186  -0.3754342  -0.651596   -0.37503412
 -0.0750045   0.34268177  0.513866    0.40101048 -0.09875134 -0.17923787
 -0.08138069  0.04165246 -0.13495922 -0.27338555  0.6310046  -0.17531726
  0.18559198 -0.5798062   0.23546956  0.41106158 -0.78257567 -0.9623875
  0.21996315  0.0358364  -0.12178876  0.02911914]
[ 0.02748041  0.19166344 -0.18610436  0.07388294 -0.26318422 -0.47379833
  0.43383616  0.25861576  0.05919385 -0.07276806  0.5402771   0.62393457
  0.03643696 -0.5207586   0.17021799  0.10699569 -0.27549073 -0.14230779
 -0.6414702   0.43459225  0.01489591  0.423029   -0.15204069  0.30100647
  0.47054404  0.2185649   0.29272363 -0.02895413  0.15404588 -0.0567094
  0.06261076 -0.3288139  -0.06167968  0.29360664 -0.5421509  -0.6556637
  0.5317704  -0.85545546  0.00897601 -0.05725255]
[-0.78509235  0.01534428 -0.66251665 -0.36130947 -0.02187161 -0.793706
  0.66661453 -0.30948937  0.33831412  0.35831982  0.13415064  0.38312158
 -0.03858404 -0.6612335  -0.5592227   0.60610527  0.07267212  0.29226848
  0.7184793  -0.32731572 -0.76440996 -0.32046166  0.23527981 -0.01913071
  0.27862084 -0.13662988 -0.5692402   0.325373    0.3620633   0.31136543
  0.29306662 -0.166698   -0.18687317  0.17196183 -0.15075734 -0.7629512
 -0.6361702   0.36137134  0.05546651 -0.1330987 ]
[ 0.53098315  0.06547815 -0.1335866   0.22925384 -0.11302149  0.4988258
 -0.09981437  0.00324246  0.14376423 -0.37963167 -0.1362478  -0.2044818
  0.09737056  0.23664193  0.20330185  0.07893755 -0.08304682  0.11058301
 -0.0092375   0.26108125 -0.3575129  -0.49060765 -0.02730429  0.09567071
 -0.05621647  0.08915786 -0.3730644   0.03645435  0.07928256 -0.07521082
 -0.30432835 -0.13416488 -0.27795675 -0.21149702  0.12941958 -0.10240122
  0.35007107  0.18043979  0.3822581  -0.19220139]
[-0.20603424  0.11237818 -0.35572642  0.1602294   0.11150993 -0.08559337
  0.10208776  0.18186101 -0.23592173  0.00297045 -0.01429859  0.4135776
 -0.3194718   0.02145245  0.4550811   0.10905483  0.6555416  -0.02778369
 -0.17200683 -0.40323448  0.12138624  0.21033567 -0.09213839 -0.09149303
 -0.21837613 -0.41349155 -0.23667687  0.03578607 -0.2247309   0.35345003
  0.46984443  0.42487568  0.09705411 -0.2739132  -0.03647713  0.12102363
 -0.312782    0.40998235  0.9632562  -0.43219745]
[-1.2236349e-01 -2.9033810e-01  2.6150584e-01 -1.7385077e-01
  1.8057552e-01  5.8392066e-01  7.6245051e-06 -7.2386289e-01
  3.8920730e-01 -8.2628012e-01 -4.0269086e-01  2.8905931e-01
 -9.9804562e-01  3.6251950e-01  1.1560409e-01  4.6418485e-01
  3.0440512e-01 -3.6229506e-01 -1.9062288e-01 -5.9160519e-01
 -7.5131190e-01 -2.4682687e-01  2.3294654e-01 -4.4694307e-01
  9.0656644e-01  2.4855953e-01  8.8187540e-01  2.4252586e-01
 -1.5711935e-01  3.5673183e-01  6.3075922e-02  1.1400213e-02
  1.0490552e-01  3.2440335e-01  2.5118608e-02 -3.6202177e-01
 -3.0193630e-01  2.9035908e-01  5.5082482e-01 -1.1171776e-01]
[ 0.02002984  0.3560237  -0.45006952  0.16890013  0.14736454 -0.08738402
 -0.14115693 -0.09941423  0.4180335  -0.48861766 -0.15285012  0.08396677
  0.45333996 -0.6539966   0.21780726  0.19631688 -0.41782358 -0.09700044
 -0.42076394 -0.4404096  -0.24056008 -0.5958872   0.03416487  0.46605986
 -0.06148328  0.2777842  -0.15639469  0.29041463  0.30102628 -0.266662
 -0.25761983  0.01798809 -0.2198126   0.22582759 -0.32056978  0.35420102
  0.20503408 -0.17940481  0.64220315 -0.07772435]
[ 0.08191715  0.01960316 -0.08661668 -0.45409346 -0.01760373  0.06464405
 -0.07832986 -0.11738796  0.0511297   0.1625927  -0.3989807  -0.48085624
 -0.11297987  0.7869171   0.16783497  0.22890088  0.06476312  0.0421775
  0.62026256 -0.20910785 -0.3876499  -0.25284585 -0.08353515 -0.00114132
 -0.31966615 -0.11064241 -0.29875496  0.0545692  -0.40541738  0.40779862
 -0.20623471  0.19912532 -0.19794124  0.03000279  1.0211204   0.533316
 -0.17305921  0.21368773 -0.32057065 -0.09978905]
layer 3 Activation
tanh
layer 4 Dense
40 20
[ 8.57141092e-02  1.37783468e-01 -6.97245169e-03 -1.82319447e-01
 -1.94349617e-01  4.12257195e-01 -7.62976781e-02 -1.21321656e-01
  1.52849615e-01  2.77933031e-01  2.21680999e-01 -1.19297758e-01
  1.84324026e-01  2.16686487e-01 -8.88446271e-02 -2.35009626e-01
  3.96875799e-01  6.48561982e-05  1.12572923e-01  1.15182616e-01]
[-0.24307677  0.08789001 -0.08239119  0.1863167   0.00774474  0.10699569
  0.18498066 -0.07371429 -0.30127424  0.4963129  -0.07711844 -0.4127783
 -0.12810853 -0.31104842 -0.21159819 -0.24579042  0.29961082 -0.00684986
 -0.32893    -0.14467642]
[ 0.27400452  0.08999182 -0.04805074 -0.35431615  0.10465465  0.11197215
  0.19573084  0.14500843 -0.04948073 -0.07020362  0.01545882  0.04406876
  0.21936055  0.3106782  -0.11983838  0.11406461  0.31864324  0.04253162
  0.19048275 -0.34782004]
[ 0.09366906  0.0478071   0.10227442 -0.10270327  0.00817012  0.43760952
  0.22720881  0.4366957   0.28492627 -0.02965873  0.33423865 -0.4390229
  0.33599356  0.18864192 -0.188846   -0.27242422 -0.00228621  0.11672864
  0.22278878 -0.34545654]
[ 0.29303202 -0.21098694 -0.14594437  0.09326419  0.02168647 -0.0426287
  0.00244507 -0.09668846 -0.00994106 -0.10687025 -0.01375693  0.08092616
  0.10286029  0.1089177   0.2910086   0.09332716 -0.0741619  -0.09289329
 -0.17514607  0.02275318]
[ 5.4587442e-01  2.0664330e-01  2.4309399e-04 -3.1635353e-01
 -2.3250548e-02  8.3296679e-02  1.2261936e-01 -2.6756433e-01
  9.6571453e-02  2.9331687e-01  2.4140331e-01  2.7891439e-01
 -8.7723881e-02  3.9544928e-01 -2.4571032e-03 -9.2192935e-03
 -1.9583486e-01 -3.8294807e-01  2.0043071e-01 -1.6821417e-01]
[-0.09164204  0.10030292 -0.06262118  0.41862038 -0.07598681 -0.03736544
  0.00402487 -0.16116212  0.3072003   0.21174096 -0.5621391   0.5282596
 -0.3923896  -0.31997547 -0.10513058 -0.21193159  0.11030526 -0.3692176
 -0.13542493  0.18563028]
[ 0.0501309   0.12088045  0.03827714  0.26554096 -0.01701885  0.30162907
 -0.07960396  0.07589625 -0.19975716 -0.0665838   0.24313055 -0.06847931
  0.43433216 -0.2198428  -0.20954345 -0.02947562  0.02667294 -0.30858243
 -0.13232118 -0.24131335]
[-0.0996435  -0.14746952 -0.01040104  0.18988621  0.30058968 -0.31903267
 -0.14961867 -0.2269634   0.13856569  0.16596642 -0.21328466  0.20727496
 -0.2634816  -0.12789074  0.28185517 -0.25675115 -0.11810948  0.06091084
 -0.35526568  0.23084298]
[-0.16681255 -0.05435898  0.0175965   0.14598472 -0.17087014  0.05976931
  0.20692003 -0.23750308 -0.08794747 -0.74433494  0.35583043  0.0609839
 -0.4597552  -0.3138923  -0.2071825   0.12636758  0.09308137  0.6045895
  0.22097628  0.054001  ]
[-0.2193571   0.02696714  0.3936777   0.25481963  0.28125918  0.22356804
 -0.00989176 -0.24888514 -0.43549454 -0.32610822  0.30050412  0.09073385
  0.34310082  0.04214628 -0.27171615  0.00348837 -0.29514915 -0.0521086
 -0.00797822 -0.09690563]
[-0.3044125  -0.3142392   0.5412612   0.2039558   0.23497151  0.04310694
  0.22865087  0.20456286 -0.05267666  0.4615944  -0.35880676  0.03801601
  0.11905224  0.1573948  -0.12828487  0.1393068   0.06801814  0.17639379
  0.22191928 -0.34150574]
[ 0.3627682  -0.09687529  0.28237987 -0.11585031 -0.05436172  0.22603425
  0.03543474 -0.1787801  -0.02721154  0.28815466  0.19686058  0.05227122
  0.28673023 -0.03464542  0.16086605 -0.00919258 -0.15690625  0.03771457
 -0.1473165  -0.0035942 ]
[ 0.16481225 -0.23363268 -0.8993667  -0.1337574  -0.1046246   0.13789576
  0.19372123 -0.4194327   0.12141529 -0.22935286  0.1028927   0.14060134
  0.02570697  0.27738544 -0.15037324 -0.09764235  0.258877   -0.5284521
 -0.04573465 -0.02258395]
[-0.1546325  -0.10417391 -0.5005735  -0.11715471  0.06643323 -0.2361295
 -0.07960013  0.06869306 -0.22520143 -0.08084428  0.05730163  0.41343927
  0.12862024 -0.26199284 -0.2437142  -0.02824851  0.20516706 -0.26307496
 -0.0627113  -0.3161078 ]
[ 0.2312459  -0.10295609 -0.3007765   0.20211077 -0.10735201 -0.2598456
 -0.2837247  -0.12807496  0.23508699 -0.05152952 -0.42924777  0.0707428
 -0.5387418  -0.15503173  0.01674594 -0.23440087  0.17137477  0.11238305
  0.01185303  0.67444247]
[-0.1828326   0.28441745 -0.12658016  0.18995753 -0.00994325  0.16811329
  0.18888009 -0.05297298 -0.21926713 -0.4231974  -0.13663357  0.35100248
 -0.40522364 -0.02736458  0.00556369 -0.08515367 -0.35946196 -0.6218153
 -0.07634503 -0.34480476]
[-0.6367367  -0.04115983 -0.6949882   0.18376218 -0.08041514  0.02373245
  0.38186854  0.12279876  0.03205632 -0.09850685  0.23249915 -0.26942182
  0.5095301  -0.23537026  0.01552063  0.04492129  0.11866615 -0.0369662
 -0.33483347 -0.25321212]
[ 0.00480206 -0.03202093 -0.528414    0.01454523  0.26719892 -0.4703281
  0.11569819 -0.55474865  0.11736339 -0.6755484  -0.17515752  0.22085567
 -0.07926664 -0.0168108  -0.06886555 -0.21151698 -0.43444112  0.01326791
 -0.20340784  0.24530411]
[ 0.00287427 -0.02923001 -0.1800146   0.13124692  0.14543985  0.37592378
  0.06391849  0.1578165  -0.2956624   0.1430768   0.11434669 -0.33133343
  0.49344316 -0.3918999   0.2974463   0.23194328  0.6857957  -0.24535169
 -0.18548772 -0.43915594]
[-0.29885852  0.00808752  0.2770235  -0.06544939  0.14028123  0.14210114
 -0.11476324  0.02966644 -0.4526314  -0.09768393  0.46100342  0.03558192
  0.7067888   0.24097595  0.06621267 -0.16500321  0.29174995 -0.08667226
 -0.28852433 -0.41329926]
[-0.4771119   0.09391273  0.08786809  0.13276576 -0.23849063  0.07604028
  0.0713406   0.2766821  -0.00647069 -0.0551854   0.05768849 -0.04124467
  0.44103816  0.06180452 -0.10702677 -0.27850664  0.19000818 -0.2137779
  0.29087022 -0.2637203 ]
[-0.2776044   0.28806543  0.13313007 -0.13245705 -0.27879733 -0.03576249
 -0.06004896  0.0274314   0.16500135 -0.06891971 -0.1462865  -0.071251
 -0.13125035  0.00558733 -0.06320229  0.30010098 -0.3439357   0.01431277
  0.14802104  0.01127136]
[-0.32037458 -0.1761078   0.18016823  0.35633424  0.03548635 -0.0404973
  0.04594542 -0.40321022 -0.07968679 -0.1490287   0.07053661  0.02641712
  0.13007234 -0.12196529  0.0727808  -0.13139068  0.0592104  -0.25156304
 -0.16346414  0.19523385]
[-0.07411753  0.17825241  0.200082    0.1594779  -0.01518006 -0.12604894
  0.16806768  0.15640987 -0.03424271 -0.03863779 -0.3846278  -0.07053896
 -0.3695129   0.35531333  0.2679832   0.1260166   0.2030356  -0.2241844
  0.03960592  0.45824873]
[ 0.46273234  0.13820672  0.28752348  0.1477659   0.09302869  0.18073888
  0.07278954  0.14091691  0.18023401  0.45970088  0.072352    0.25400436
 -0.21003915 -0.09023699  0.09594684  0.18853047  0.02445844  0.10751105
  0.44938734  0.00928705]
[ 0.21588145 -0.24918287 -0.6388446   0.07990652  0.04476736  0.07835698
 -0.07681105  0.53290486 -0.12971392 -0.06227824 -0.63306314  0.03149253
  0.14240919  0.4280986   0.11704357  0.05490718  0.29418886 -0.5937276
  0.24630019 -0.11601078]
[-0.14866097  0.24763134  0.01600099  0.26288664 -0.09358971 -0.28280434
 -0.0008526  -0.16280138  0.09518591 -0.09678654 -0.26710314  0.02512437
 -0.1374072  -0.26575574  0.26814517  0.12434331  0.06451549 -0.32589254
 -0.20747727  0.26527798]
[-0.00129125 -0.01954932  0.0229019   0.19368266  0.21309341 -0.1635302
  0.05531429  0.41771278 -0.03579248  0.15261097 -0.17836776 -0.2623126
  0.1831107  -0.00574041  0.23417008 -0.14339046  0.34706378  0.3831392
  0.02768964 -0.18062523]
[-0.04193214 -0.13549605 -0.12277058 -0.04932472  0.02872382 -0.39328256
  0.09405322 -0.21676995  0.30056426 -0.44222447 -0.03657649  0.28135532
 -0.2239902  -0.08117252  0.07678463 -0.08026531  0.12955411 -0.2617574
 -0.06497553  0.37046877]
[-0.31583685  0.11970764  0.03492252  0.2177687   0.18984377 -0.08937446
 -0.0811733   0.3701698   0.02542833 -0.25105676 -0.19515748 -0.2764198
  0.27470043 -0.03029227  0.06801775  0.05439735  0.05841006 -0.14640993
 -0.2581155  -0.14579818]
[-0.03024521 -0.15513892 -0.58155066 -0.06480755  0.06503081  0.04046755
 -0.08894316 -0.33170158 -0.04387594 -0.46203747 -0.29490516  0.27285516
  0.39973363  0.31273383  0.09744913  0.26265696 -0.02223593 -0.2691185
 -0.01840026 -0.30896047]
[-0.10022903  0.1744203   0.05686935  0.15174586 -0.20800328  0.17646444
  0.09498367  0.14199512  0.09312973  0.03898434  0.1490882   0.296712
  0.2848692   0.24442543  0.15371016 -0.07608588  0.2798524   0.12845266
  0.42070413 -0.14716688]
[ 0.2425923   0.2554938   0.18762478  0.04359158  0.19789028 -0.29259062
 -0.12264853  0.23001918  0.085026   -0.04349605 -0.16300535  0.02738402
 -0.13502105 -0.1896139   0.15076704 -0.11853652 -0.04400173  0.14298064
 -0.21555428  0.2275905 ]
[ 0.26020327  0.12530215 -0.765704   -0.33800855  0.3171235  -0.528607
  0.23836066 -0.35892415  0.28884712 -0.42462206 -0.20881164  0.24470122
 -0.11151572 -0.0824895  -0.16711052  0.07511216 -0.2361552  -0.47487453
 -0.10017999  0.12602141]
[ 0.06121166  0.08745016 -0.7144124   0.05603686  0.10081247  0.00205268
 -0.06512325 -0.37635428 -0.17657916  0.10273123  0.32444388  0.08490153
  0.2710768   0.16545598 -0.00984402  0.00929249 -0.23033218 -0.13917252
 -0.11442611 -0.03912299]
[-0.10534894 -0.07097628  0.18060035 -0.20809081 -0.16334958  0.108098
 -0.0536035   0.17780738  0.10583504  0.11618575  0.25517938 -0.8151123
  0.08666403 -0.16153377  0.01898112  0.25618413  0.77925014  0.08600758
  0.07432899  0.2713949 ]
[ 0.22388239 -0.08275811 -0.75312656  0.17134121 -0.28149903 -0.03117319
  0.08326241 -0.22744057 -0.25688478 -0.25553054 -0.4915388   0.36123323
  0.22510052  0.42940953  0.17595713 -0.01057774 -0.06315988  0.03391491
  0.01350731 -0.05508523]
[-0.41367224 -0.0366453  -0.58477426  0.3478946   0.1414846   0.08650459
  0.03713544  0.36033475 -0.1824377   0.51381147 -0.4009772  -0.0210396
  0.37332782  0.42090583 -0.16608517  0.23755743 -0.0524184  -0.01203784
  0.00872677 -0.30818775]
[-0.27003723  0.11299849  0.10093686 -0.11011483 -0.06325151  0.01831658
 -0.08374055  0.001638   -0.15353636  0.03596368 -0.0028011   0.12059037
 -0.2587586   0.23272869  0.18521275  0.09989725  0.25853145 -0.12581053
  0.2639472  -0.24256784]
[ 0.16391999 -0.01010614 -0.3044633  -0.11834433  0.06730777 -0.15091902
 -0.02255856 -0.29680356  0.09615591 -0.2866136   0.11905339  0.05305265
 -0.08721234 -0.04975251  0.05902714  0.01806352 -0.0655536  -0.11827025
 -0.07664598  0.13995796]
layer 5 Activation
tanh
layer 6 Dense
20 1
[0.02478403]
[0.00351505]
[0.32485184]
[-0.08432765]
[0.03559516]
[-0.0374548]
[-0.01410192]
[-0.36817938]
[-0.01382442]
[-0.11196283]
[0.1839086]
[-0.1703232]
[-0.05532441]
[-0.11870619]
[0.00861561]
[0.0004484]
[0.05774553]
[0.12708478]
[0.00166278]
[0.08948535]
[0.14556518]
