layers 7
layer 0 Dense
20 20
[-0.5968963   0.12459224 -0.3114273  -0.04928854  1.8952563   0.44911358
 -0.35742226 -0.30557537  0.9842575  -0.2533916  -0.8085341   0.31055063
  0.44427568 -0.48243722  0.06517129  0.28202477 -0.21354079 -0.6414857
  0.44379392 -0.24637   ]
[ 1.072941    0.02826224  0.6442581   0.14287844  0.42141992  1.2252774
  0.52505887  0.24935526  1.0575624   1.1236014   1.0362244   0.37868825
  1.4519156  -0.38813737  0.16976102 -0.54366356  0.6435632  -0.18516102
  0.6386308  -0.7073652 ]
[ 1.3943965  -0.04043539  0.892709    0.23572633  0.38262123  1.5053363
  0.7990269  -0.00260785  0.47836813  1.5271696   0.96378076  0.23466706
  1.4781098  -0.648807    0.34727293 -0.79586875  1.0244514  -0.09503639
  0.11691913 -1.0546825 ]
[-0.7683448  -0.16578418  0.17294982 -0.20925169  1.4409958  -0.33524308
  0.55585146 -0.15489255  0.24408394  0.4567511  -0.5964689   0.72135174
  0.3852472   0.12496647  0.2660443  -0.18221056 -0.3914344  -0.51911366
  0.3284615  -0.38305703]
[ 0.34676573  0.42302167 -0.535498    0.54954153 -0.3286822   0.19056486
 -1.7616807  -0.06662233 -0.5945517   0.01988759  1.1966388   1.3368928
 -0.497379   -0.17680293  0.4181651  -0.26828206 -1.3822229  -0.01142058
 -0.06616161  0.7292058 ]
[-1.7927487   0.26310393 -0.22307447 -0.2961831  -0.8390535  -1.4425672
 -0.33192128  0.14874329 -0.83727103 -0.8747322  -0.61621183 -0.9608113
 -1.6983491   0.78292227 -0.23750493  0.4133384  -0.6694166   0.48488134
 -0.4441764   0.69584584]
[-1.5957981   0.417385   -0.88820726 -0.21590632 -0.4970675  -1.8790175
 -0.16913803  0.03731479 -0.8310209  -1.0530607  -0.37891304 -0.9542482
 -1.6083889   0.38035238 -0.21431088  0.39233097 -0.71796966  0.30051723
 -0.07270209  0.42918032]
[ 0.10189251 -0.26431918  0.8332037  -0.3190337  -0.5924845   0.3637702
  0.38033265  0.7034076   0.24239653 -0.28486463 -0.7667034  -1.1399719
 -0.10712641  0.2141311  -0.19673511  0.9578364   0.26125467 -0.4463139
 -1.0349383  -0.42971504]
[-1.6594433   1.2057377   1.8171359  -0.99839026 -0.7132948  -1.1261052
 -1.9614476   0.80357456  1.6266519   0.41132253 -1.5012565   0.7884527
 -0.87532866 -0.44846633  0.00574566  1.1856539   1.8445202  -0.38595343
  0.06878571  1.0485816 ]
[ 0.36381954 -0.18297637 -1.7995976   1.7827792   0.19271183  2.9280777
  1.1782421  -1.4076052  -1.4526948   1.3232857  -1.451841    2.3698487
  4.520146   -0.260557   -1.1768831   1.1312301   1.9626405  -1.7954782
  0.56528884 -2.3378673 ]
[ 2.7318506e+00  2.1268816e+00  2.1900110e+00  2.6931031e+00
 -2.2671314e-01  3.5071456e-01 -5.3069228e-04 -9.4624943e-01
  4.4792861e-01  3.7985694e+00  1.1394091e+00  1.5144906e+00
  4.5099643e-01 -3.4526124e+00  1.9473820e+00  8.8540590e-01
 -8.4479517e-01  1.8483143e-02 -1.3440201e+00  1.3631268e+00]
[-2.0746815   0.9468808   0.62312466  0.6409765  -1.6030419  -1.5745345
  0.5012817   0.93272674 -0.7848614   1.3824445  -2.8941717   1.627926
 -0.16496617  1.2015781   0.29188615 -0.31083205 -0.12132117 -0.16955377
 -0.76450723  0.87449497]
[ 0.15464005 -0.5949712  -0.32947966  0.3453128   0.8290651  -0.11193398
 -0.14581332  0.15400557  0.78100634 -0.26373354  0.6985335   0.51057047
 -0.34137976 -0.04526896 -0.20555727 -0.2351083  -0.27835098 -0.6413584
 -1.3873895  -1.2758121 ]
[-0.39448446 -0.43276945  0.769398   -0.3236287  -0.02444083 -0.71249896
  0.09368911  0.01292946  0.07437734 -1.4324857   0.59911984 -1.0460086
 -0.62977487  0.13337563  2.8484042   0.87088007 -0.0338291   0.22602807
 -1.2782567   1.2826433 ]
[-0.8019807  -1.7573422   0.09018838 -0.9817855  -0.71179855 -0.49921992
  0.17946228  0.8842052   0.07869679 -0.84430504 -0.8811278   0.33515465
 -0.12085498  1.0463085   0.34473288  0.08046152 -0.22916898 -1.053167
  1.3758423  -0.05795924]
[ 1.1360337e+00  9.9833405e-01  6.1239010e-01  9.6837297e-02
  2.9362156e+00  1.6699393e+00  2.1243459e-01  3.7168872e-01
 -1.2080254e-01 -3.1900364e-01 -5.2936971e-01 -3.7773767e-01
 -3.5167158e-01 -5.2284390e-01 -7.7221453e-02  3.3334129e+00
  3.9882156e-01  5.6109659e-04  1.8366976e-01 -7.9788196e-01]
[ 0.6584308   0.83362365 -1.0448836  -0.08612206  0.28882784  0.7688764
 -0.89185023 -0.02512906  0.02639661 -0.3783386  -0.1994382   1.3930687
  0.13368128 -0.29619366 -0.5069968   0.20068009 -2.8727438  -0.17169555
  1.64285    -0.4422082 ]
[ 0.16405916  0.67187953  0.48526505 -0.2406927  -0.32950062 -1.2530328
 -1.2532564   1.9494892   1.1857216  -0.0052622   0.0489654  -0.3714834
 -1.3294572  -0.88124347 -1.7230589  -1.6838547  -1.7449794   1.0990664
  0.87470055  0.02988476]
[-0.846403    0.39748108 -1.4311905  -0.10044856  0.83513594  0.01439887
 -0.08212359 -0.55589    -0.06390365 -0.53097934  0.52464837 -0.8188913
 -0.43254396  0.9743063  -1.5935822  -1.2883015   0.5014463   1.4647578
 -0.58584905 -0.09719843]
[-0.38730168 -1.7785666  -0.72375935 -2.0496752   0.5190944   0.94540185
  0.5965651  -0.1868239   2.4889324   0.2477716   0.45137423 -1.4736576
  1.3635595  -1.2964829  -0.723561    0.19789     0.9381835  -0.65321225
 -0.04207615 -0.9441781 ]
[-0.01389812 -0.03151486 -0.25333515  0.13924116  0.61575276 -0.21802688
  0.50185555 -0.4143387  -0.17397292  0.24429896  0.26558778  0.11171284
  0.22364296  0.16012919  0.09245505 -0.4305795   0.07875811  0.33599654
  0.6251447   0.0644645 ]
layer 1 Activation
tanh
layer 2 Dense
20 40
[ 0.5864667  -0.94091076  0.5992515   0.53999066  0.6844886   0.11846663
 -0.4185253   0.5567291  -0.9810851  -0.15096585 -1.8447963   0.49720567
 -1.6294738  -1.4207704  -0.2988668  -0.6485798  -0.6421888  -0.6635573
 -0.5590179   1.6073579  -0.94055116  0.4003946  -0.06097652 -1.5556697
  0.17482352  0.9399229  -0.09167496  1.298626   -0.5921039   1.4289367
  0.687701   -0.09139857 -0.00864362 -0.34903395 -0.07652182 -0.16921096
  0.37960714  0.6494367   0.13328148 -0.01731679]
[ 0.8881619   0.7690779   0.29630604  0.5422254   0.07904597  0.4154991
  0.13092437  0.17034198 -0.16650283 -0.60818344 -0.84331465  0.00610097
 -1.4053948  -1.0250561  -0.9772466   0.43155217 -0.07853931  1.2364129
 -0.2462657   1.9015526  -0.25945315 -0.6810127   0.11887643 -0.8908909
  0.42379972 -0.03793409  0.53427786 -0.23603536  0.47878158  0.6324881
 -0.09375265  0.0125866  -0.00492224  0.13505903  1.2778602   0.007719
  0.48113906  0.47589347  0.21829785  0.23469974]
[-2.7912828e-01  4.4760111e-01  5.2213675e-01 -5.6006992e-01
 -1.3173624e+00  3.0494046e-01  4.9105577e-02  3.7879175e-01
 -1.2000343e+00  7.0061612e-01  2.4364641e-01  1.3825488e-01
 -1.2863255e-01 -9.5130855e-01  1.4772116e-01 -9.4568890e-01
  4.7938600e-01  6.2620103e-01 -1.4443314e-01  1.1057390e+00
 -1.8579773e+00 -1.7513019e+00 -8.4102231e-01 -7.3130256e-01
  3.0687785e-01 -4.3229204e-02  7.8861266e-01 -3.5598180e-01
  1.9131353e+00 -3.3962798e-01  1.3563552e+00  1.1606584e-01
 -5.3488392e-01  4.9548265e-01  1.6124268e-01  4.6313507e-04
 -2.4314417e-01  4.9221578e-01 -7.5494057e-01  3.9360780e-01]
[ 0.46029943 -0.5356971   0.69138056 -0.40406713 -0.91607094 -0.22988196
  0.56859     1.2421652  -1.7141525  -1.0623012  -0.7181863   0.11696415
 -0.4684227  -0.30380505 -0.4486375  -1.1078249   0.4712293  -0.8998794
 -1.1194866   0.8007657  -1.6665019  -0.47944635 -0.03358051 -0.06469494
  1.1455762   0.74501383  0.18589485  0.6037569   0.7349336   0.6720012
  1.7644463   0.8694667  -0.46430248  0.2443462   0.8795389  -0.5999534
  0.35623175 -0.7824635  -0.10415681  1.5821729 ]
[ 0.21596332  0.17110147 -0.16715774  0.5584002  -0.11793666 -0.06262365
 -0.5016285   0.02096679  0.6648792   0.93844485  0.1499844   0.18558016
 -0.12639014 -0.40642464  0.38226122  0.42122036  0.15334123  0.5206421
  0.9201325   0.78988254 -0.07910506  0.03910981  0.3453974   0.38570774
 -0.10190199 -0.47149307  0.10934819 -0.9002839   0.09348759 -0.50540185
 -0.743591    0.25093007  0.47820243  1.7090205  -0.02046179 -0.6288598
  0.10710675  1.4350154   0.51163024 -0.37986648]
[ 0.89062357 -1.5939599   0.6267054   0.48113164  1.8695358  -1.1606921
 -0.21454813  0.26865503 -0.7353805  -0.9954543  -0.46238104 -0.07089879
 -0.7633281  -0.68109536 -1.8190012  -0.48940048 -2.5455143  -0.7429875
 -1.2320082  -0.17861499 -0.34960118  2.0071685  -0.0119643  -0.23277025
 -0.8483175   1.1067456  -1.9136168   1.7394861  -1.9334816  -0.28329986
 -0.5489985   0.6706069  -1.0842484   0.36921272 -1.9135809   0.6259411
 -0.40580395 -0.49995902 -0.84738415  1.1955926 ]
[-0.48069146 -0.8744977   0.8798766  -0.54733086  0.15569666  0.08161665
 -0.7198333  -0.17689215  0.7147018  -1.0351353   0.31837833 -1.0485377
 -0.01538015 -0.70038617 -0.4201029   0.45927495 -0.4239281  -0.98590577
 -0.09878311 -0.2209739   0.54899365 -0.16148046  0.19858855 -0.85697806
  0.22787568  0.7781238  -0.12048315 -0.11479009 -0.39068976  0.19705445
 -0.16314434  0.01708979 -0.35356355  0.02687082  0.01788217 -0.5290226
 -1.4333864  -0.71319336 -0.5761592   0.86713547]
[-0.85662246  1.051148   -0.13516393 -0.49122006 -0.4081418   0.48490715
 -1.0153857  -0.42865124  0.45108283 -0.13821867  0.60313195 -0.0564741
 -0.02780471  0.71600574  0.7370878  -1.259388    0.06760291  0.6564468
 -0.91349626  0.5936462   0.7858303  -0.6242558  -0.5649404  -0.4566636
  0.16343403 -0.07214345  0.40669405  0.12916863  0.5996316   0.5852155
  0.46296152  0.30527785 -0.15688199 -0.54678655  0.7048794  -0.58679724
 -0.61838055 -0.3404045   0.04431328  0.30933058]
[-1.1235549e+00 -2.9234940e-01  3.0087554e-01  8.4777102e-03
  4.7220889e-01 -6.4996505e-01 -4.8875985e-01  6.5362775e-01
 -6.3161474e-01  8.8092709e-01 -1.3367853e-01  3.0234274e-01
 -6.0994834e-01 -6.8065971e-02  8.7207174e-01 -1.4690605e-01
 -7.9958655e-02 -2.0972094e-01  1.6607182e-01  1.9469920e-01
 -3.2525432e-01  5.9687221e-01 -3.5289559e-01 -1.8869629e+00
 -8.3824664e-01  3.0119255e-01 -6.7888331e-01 -1.4654343e-01
 -2.5958106e-01 -1.8428879e-02 -2.2885770e-01 -1.3734986e-03
 -7.8397609e-02  4.1855314e-01 -6.6017210e-01 -2.4251978e-01
 -1.4388300e-01  5.6935275e-01 -1.7361659e-01 -7.1407539e-01]
[ 0.24267814 -0.47347537 -0.05319102 -0.88533986 -1.6842458  -0.23585416
 -0.13180076  0.10015732 -0.79979426 -0.7950086  -0.31691495  0.22106268
 -0.8503751  -0.2859228   0.09813459  0.44235402  0.48422292 -1.2284006
 -0.98741543  0.5666583  -0.92391187 -0.81468165 -0.51470137 -1.1275213
  0.9696395   1.0176286   1.2218676  -0.89793146  1.5036657   0.7264059
  0.97247845  0.4520791  -0.16790852 -0.03698695  1.2906042   0.05543074
  0.6665412  -0.42008466  0.63746554 -0.18448639]
[ 0.4858844   0.18428975  0.33412337  0.25574973  0.18833633  0.13736765
 -1.0802685   0.9063598  -0.8856232   0.7677558  -0.69213027  0.76735586
 -1.5355169  -0.82599807 -0.45349374  0.5234852  -0.2670357   1.0893319
 -1.4523157   1.6257318   0.07521747 -0.985864    0.21878344 -0.39698058
  0.32585356  0.49208552  0.37394035 -0.11976357  0.28408498  0.88376623
  0.60520905 -0.36313763 -0.2037795  -0.8629295   0.06222414  0.21303776
  1.0289053   0.24567245  0.98607564 -1.0773168 ]
[ 1.9196057e-01 -1.0952246e+00  6.4708991e-05  1.2728752e-01
  2.1394886e-01 -1.3779085e+00  1.2902490e+00 -9.3907803e-02
 -1.0138309e+00 -6.6062742e-01  7.5705439e-01 -1.2831540e+00
 -3.3171862e-01 -3.1081542e-01  1.4277200e-01 -2.1021802e-02
 -2.4936229e-01 -1.7934520e+00 -5.6677878e-01  2.8575793e-01
 -5.9258407e-01  9.6864289e-01  6.4984494e-01 -3.3426698e-02
 -4.3573710e-01  3.0592579e-01 -3.5314822e-01  7.1239787e-01
 -7.1464509e-02  7.7013785e-01  1.5594834e-01  4.1082412e-01
  1.7649479e-01 -2.1360619e-02 -2.1459173e-01 -1.0677288e-02
  7.1004999e-01 -2.6793772e-01 -6.0946715e-01  1.2467775e+00]
[ 0.57940465 -0.05190524  0.19893876 -0.6055468   0.7493206  -1.2196736
 -0.4627917   0.00420753  0.06820656 -2.3230796   1.2223481  -0.87973326
 -0.455542   -0.24278605 -1.378046    0.5351782  -0.7126023  -0.49242854
 -1.2559701  -1.1585408  -0.25104868 -0.01139083  0.85687643 -0.70759004
 -2.0815475  -0.3536373   0.01912235 -0.21714473 -0.8552078  -0.166389
 -0.9761729  -0.09547218  0.02399833  1.7318574  -0.59073454  0.07822785
  0.8749103  -1.0324514  -1.1000966   2.4380276 ]
[ 0.2226745   1.2140212   0.01207853  0.13344774  0.17968108  0.21066
  1.0881972  -0.16860117  0.8089371   0.05071191  1.0080429   0.49150646
  1.3500476   1.321833    0.2776916  -0.30444297  0.09782173  0.64522916
  0.03298199 -0.51897526  1.0249981   0.1124703   0.11918285  2.1132665
  1.0859884  -0.5337898  -0.77079844  0.28747222  0.00606436 -0.51732403
 -0.1925685  -0.624217    0.30381337 -1.1125453  -1.0483687   0.65852207
  0.04758155 -0.30739635 -0.4749757   0.28352848]
[ 0.09563999  0.47201788  0.3559508  -1.4915929  -1.6192974   0.9300426
 -1.4676601   0.88996994 -0.6478571  -0.16554059 -0.76505184 -0.93862176
 -1.2422018  -1.4936271   0.21472357  0.07382533  0.8932138  -1.3905928
 -1.6545993   0.36291653 -0.67514443 -1.1306328  -0.5415528  -0.05567415
  0.18514933  0.4964678   1.0751793  -1.495001    1.6209658   0.9075576
  0.94236016  0.29970312  0.66995555 -0.00423124  0.9230505  -0.25869626
  0.36995652  0.27977157  0.24497093 -0.56267524]
[ 0.24403854 -0.12196244 -0.4565646  -0.00586037  0.21065181 -0.45673907
 -0.25827193  0.08118077  0.0671588   0.29907802 -0.43103078 -0.9014569
 -1.0388347  -2.1199787  -0.6264448  -1.1382161  -0.5968692  -0.6763299
 -0.35015368  0.13964002 -0.28916562  0.680733   -0.5432001  -0.48730054
  0.38870394  0.1300571  -0.4747445   0.02353119 -1.3207101   0.3801933
  0.3687664   0.059498   -0.2403108   0.38231367  0.23323588  0.30563986
  0.22336252  0.5952018  -0.45813096 -0.12934381]
[ 0.9565843   0.25104284 -0.4538441  -0.20495372  0.8847108   0.00843998
 -0.56601864  0.8459885   0.8022219  -1.0335796  -0.7878275  -0.22905073
 -0.9106175  -1.1997803  -1.0458729   0.31539604 -1.1681849  -0.5614594
 -0.2767737   0.88229966  0.00708006 -0.6369154   0.37733325  0.02241669
 -1.0359261   0.24418254 -0.24745998  0.20364599 -0.27614433  0.2383771
 -1.0186512   0.3940063   0.5658517  -0.21400657  0.06815302 -0.1985233
  0.5477952   0.36358464  0.17755555 -0.35022512]
[-0.10687394  0.3471128   0.08409236  0.5335013  -0.8359815   0.68852675
 -0.20076406 -0.95728207  0.28495854 -0.19488673  0.07659426  0.49260288
  0.6145358   0.38550916  0.00606349 -0.01944717  0.11193575 -0.13673103
  0.04103297 -0.39695197 -0.00211506  0.20119885 -0.46268734 -0.10010791
  0.7231458  -0.39863428  0.55042607  0.41856825  0.06057883 -0.78753847
  0.02314076  0.39378268 -0.14724053 -0.7537563   0.9784898   0.1040601
 -1.2491021  -1.0346578   0.04777495 -0.61732775]
[-0.8543983   1.6333567  -0.36101386 -1.413322    0.8985617   1.2743189
  0.17340013  0.2509902   2.2018273   0.02559408  0.9527139   0.7170504
 -0.30540588 -0.33219907  0.0036102   0.16500601 -0.81874084  1.5762085
 -0.01237334  0.88593405  1.4066484  -1.2116182   0.63374394  0.1824908
  0.06039564 -1.0622956  -0.7882353   0.78985375 -0.49537826 -0.50021493
 -1.2052028   0.23609015  1.318751    0.8156538  -1.0968225  -0.75304526
  0.87927485  0.35492018 -0.28764522 -0.05327902]
[ 0.50988334 -0.04110247 -0.04598174 -0.3851393  -1.247446    0.9375637
  0.20433067 -0.1859188   0.48263374  0.19368951 -0.707418   -0.58307934
  0.1331566  -0.8494273   0.49714193  1.4885095   0.9117662  -0.3477667
  0.3916941   0.9596301  -0.18280749 -1.0430751  -0.0582363   0.27201408
  0.714847   -1.1892514   1.823885   -1.2663804   1.1085025   0.16144663
  0.80484635 -0.5626366   0.8154083  -0.61981887  1.1696573   0.2825706
  0.28901348 -0.5149754   0.40874153 -1.2927009 ]
[ 7.3243029e-02 -6.5143339e-02  6.0841870e-01 -1.1472746e+00
  1.6634649e-01 -2.2448096e-01 -3.0566055e-01  5.4855657e-01
  8.2090925e-03 -2.8124082e-01  5.8054328e-01  6.2685746e-01
  8.7740958e-02  1.8042591e-01 -2.6251960e-01  1.9683117e+00
  2.4780445e-04  1.7884398e-01 -1.3585214e-01  4.0007877e-01
  3.4399614e-01 -6.5033317e-02  1.1048480e+00  6.2181705e-01
  1.7189072e-01  1.7757858e-01 -2.0851927e-01 -4.0968847e-01
 -3.5220727e-02 -1.3556656e+00 -2.2021370e-01 -7.6582009e-01
  1.2770871e+00  1.5398009e+00 -3.2204321e-01 -1.2741674e+00
  5.0709909e-01  1.9633925e+00  1.8042983e-01 -1.3435695e-01]
layer 3 Activation
tanh
layer 4 Dense
40 20
[-0.42518142  0.11056193 -0.04748153 -0.27649277  0.02442525  0.2569765
 -0.10325003 -0.16538133 -0.32256055  0.46953294 -0.4010452  -0.17468773
  0.03113098 -0.19674884 -0.14058189  0.9753954  -0.514583   -0.03091618
 -0.09236882 -0.37626275]
[ 0.10306828 -0.1561219  -0.5921826   0.15209092  0.07578752 -0.9648701
  0.23703714  0.01822002  0.19059187  0.7729987   0.3519945   0.43772277
  0.02544434  0.2793225   0.5998043  -0.5040796  -0.04365128 -0.15608965
  0.04263975  0.39154917]
[ 0.15095702  0.57373583 -0.00098774  0.30444866  0.03799822  0.3146097
 -0.24108158 -0.17624314 -0.04319343 -0.2521043  -0.0912781  -0.20268124
 -0.07089608  0.6621163  -0.04324853  0.05981901 -0.18758088 -0.30997172
  0.15813243 -0.23951468]
[ 1.1700879  -0.01986901  0.6985115   0.30591074 -0.21556051  0.4409425
  0.18412857  0.64597213  0.64375144 -0.2481959   1.0037818   0.24173081
  0.31753266  0.25859028  0.2659566   0.5075766   0.935828    0.2925589
  0.06435434  0.7607293 ]
[-0.40426466  0.42773822  1.4190276   0.20916189 -0.7247051   0.3272068
 -0.8558054  -0.5931005   0.08134259 -1.5029453   0.7967378  -0.350265
 -0.20904519 -0.5577842  -0.4637341  -0.11371237 -0.39900792  1.09216
 -0.13116378 -0.42859277]
[-0.29619685 -0.12007628 -0.33488238  0.16575542  0.04052012 -0.06031692
  0.5274798   0.58189166  0.52034    -0.33089152 -0.09610239  0.37777358
  0.42412525  0.65412897 -0.14420952 -0.1581263  -0.50321424 -0.9343286
 -0.19259775  0.5988538 ]
[ 0.61252934  0.522804    0.22228017 -0.20109375 -0.33908558 -0.29327738
 -0.4113316  -0.14705755 -0.09413823 -0.5649271   0.1570175   0.2611021
 -0.10884462 -0.37442493  0.340512   -0.08543632  0.5961956   0.19798352
 -0.0656217  -0.06769144]
[ 0.05061244  0.36793193  0.07835326  0.01817449  0.23089069  0.08891405
 -0.19466177 -0.18303508 -0.41820082  0.01468275 -0.46017987 -0.21278362
 -0.39149556 -0.38173115 -0.21649158 -0.30817044 -0.21642926 -0.08088318
  0.49292088 -0.08536346]
[-0.36872396 -0.1656322  -0.40673876  0.36255363 -0.7126956  -0.9401047
  0.70397377 -0.80255604  1.1183108   1.1480092  -0.22834209 -0.01879644
  0.8847265   0.38134718  0.74180704  0.15086551 -0.34029466  0.12063684
 -1.053365    0.21986514]
[-0.60517716 -0.6402554  -0.08353282  0.6619347   0.4399231  -1.0635854
  0.6828655   0.5581467   0.1820573   0.71042794 -0.2572014   0.19028787
  0.2604249   0.65494835  0.44080323 -0.5174725  -0.23376484 -0.06268436
 -0.36760435  0.73698026]
[ 0.17136939 -0.25337857  0.11805651 -0.2247825  -0.8237398  -0.43468648
 -0.40664196 -0.6760148   0.14446898 -0.08176649 -0.61691046  0.22190489
  0.10728972  0.23494975  0.39035717 -0.42673177  0.09071536 -0.14309314
 -0.9473306  -0.59512407]
[-0.5411981  -0.32732412 -0.03833922  0.08147588  0.17012887 -0.38174608
  0.21561588  0.2847476   0.09760986  0.16472997 -0.08723127 -0.19470005
  0.23212582  0.6175909   0.18836883  0.32267237 -0.49770212  0.09902075
 -0.61707014 -0.14151338]
[ 0.51058143 -0.482634    0.6919778   0.4312287  -0.51156974 -0.5512971
  0.47196415  0.5642559   0.83848417  0.01326084  0.18987069  0.7511587
  1.028483    0.6235161   0.22721057 -0.14679855  0.458457   -0.44738746
 -0.24109526  0.55970937]
[ 0.48160568 -0.5974424   0.7551137   0.94010127 -1.0938895  -0.16637726
 -0.5661266   1.5395908   1.2781899  -0.1848952   0.95236534  0.62332654
  1.1085192   0.11080074  0.333052    0.5315199   0.71274155 -0.4634282
 -0.7140337   0.28779292]
[ 0.7053494  -0.1938847  -0.25165948  0.16424234 -0.15584889  0.07471199
  0.33466268  0.29094788  0.06700186  0.97500587 -0.37911     0.62825024
 -0.4665938  -0.1458926   0.29246393  0.0900618   0.2601965  -0.40550458
  0.12245621  0.3871309 ]
[-1.1870028  -0.18552765  0.11156671 -0.7594998  -0.13503006 -0.6300488
  0.16945066 -0.4557167  -0.7066551   0.58726823 -0.8075108  -0.3152622
  0.10616852 -0.8026348   0.15278232 -0.13319941 -1.5995835   0.6264018
 -0.50750506 -0.6397895 ]
[-0.1236302  -0.21870969 -0.6498113   0.3863432  -0.01748856 -0.8103457
  0.76519644  0.7924776   0.14962745 -0.05634101  0.07882207  0.25161058
  0.25231287 -0.03612635  0.03990593 -0.24951936  0.10073429 -0.05992597
  0.6447739   0.05042502]
[-0.9819643  -0.6021792  -0.36779308  1.0403091   0.08345013 -1.958839
  0.9906176   0.22087358  0.37334847  0.0234026   1.1447448   0.10014667
  0.6884876   0.03187332  1.3393956  -0.33823964 -0.97832465  0.37658554
 -0.3493844  -0.40475392]
[ 0.0866585  -0.6222556   0.0597308   0.48911628 -0.0408994  -1.5223548
  0.5781699   0.35709938  0.41364428 -0.24260521  0.48112458  0.49497366
  0.54723126 -0.5135614   0.79459095 -0.55511254  0.21095611 -0.21806546
 -0.38586172  0.56897163]
[-1.1822271  -0.10094187 -0.830554    0.41230264  1.0195851  -0.41996363
 -0.16672817 -0.6854662  -1.0065511   0.871762   -1.2036014  -0.8272884
 -0.44924733  0.6849274  -0.3742105   0.13954437 -0.83909667 -0.49948746
  0.9049539  -1.2915385 ]
[-0.43584946 -0.38217145 -0.17233846  0.584166   -0.5154677  -0.4090723
  0.367085    0.2400136   1.0710732  -0.23149674  0.20306265  0.3597048
  0.3972602  -0.4422238  -0.0875982   0.01134856 -0.40828216  0.7773159
 -0.87858623 -0.16829513]
[ 0.23076296  0.13063444  0.9181812  -0.24660796 -0.42603216  0.29347852
 -0.34379148 -0.22889528  0.9090999  -0.5034591   0.3682302   0.2966743
 -0.23901802 -0.341307   -0.00523076  0.22758286  0.47658977  0.92278004
 -0.30732465 -0.4519766 ]
[-7.24434674e-01  4.92042750e-01  1.03537194e-01 -1.97079092e-01
 -2.61191398e-01  1.49488389e-01 -1.82719871e-01 -2.04987392e-01
 -3.78571101e-04 -4.47203845e-01 -1.91975191e-01 -1.57595336e-01
 -8.57519582e-02 -9.55020785e-01 -2.70709872e-01  2.13314846e-01
 -4.32502180e-01 -2.61085093e-01 -1.77925035e-01 -4.66644585e-01]
[ 0.44765568 -0.2208291   0.3742915  -0.02473797 -0.7265921  -0.23877412
  0.15290223  0.8781851   1.2563927  -0.394972    0.633523    0.6317851
  0.62622106  0.73846906  0.41949213 -0.51740575  0.35499    -0.39977133
 -0.6351028   0.33824494]
[ 0.6277138   0.49402216  0.01801467  0.15560581 -0.265362   -0.19510303
 -0.25236905  0.17912239  0.09672882 -0.73152775 -0.43670517  0.5149804
 -0.2988358  -0.37403718  0.2516381   0.27880365  0.12313159 -0.07250094
  0.33805206  0.40626708]
[-0.02200815  0.7170096  -0.07884367 -0.25037462  0.15230906  1.0446886
 -0.10063034  0.29742932 -0.14004256 -0.34901822 -0.6264551  -1.0076737
 -0.01238003 -0.01108947 -0.58055705  0.7549928  -0.22677904 -0.44890222
 -0.12494757  0.13382845]
[-0.17845687 -0.16898447 -0.6388505  -0.3789213   0.5380824  -0.455012
  0.5340366   0.01900547  0.00715632  0.7326636  -0.36680532  0.34668714
  0.1456754   0.6670238   0.35516828  0.8419273   0.23183031 -0.5630329
  0.48065275  0.41754654]
[-0.2086714   0.10880996  0.38526726  0.1455146   0.57378477  0.080413
 -0.43196133 -0.6178212  -0.9791236   0.500402    0.02892066 -0.4999559
 -0.1594046  -0.4257161  -0.55310583  0.1376217  -0.43818462  0.6345176
  0.16857643 -0.8244552 ]
[ 0.15334687  0.07121936 -1.4824034   0.21282914  0.37179667 -0.02928207
  0.9317991   1.2767738   0.82986355  1.3980712  -0.87489295  0.42977357
 -0.5998965   0.58211994  0.6781751   0.17162086  0.92316806 -1.1705624
  1.4016799   1.0683112 ]
[ 0.30379793  0.02609007 -0.35546464 -0.03179288  0.41527736  0.243984
 -0.08388276 -0.6250085  -0.5227149   0.22784461  0.8367129  -0.46557334
 -0.50786936  0.36513492 -0.27408156  0.2779323   0.43559575  0.09903558
  0.27424425 -0.65291727]
[-0.16305237  0.12334058 -0.5017328   0.5780491   0.6538679   0.7398422
 -0.5018885   0.36667597  0.07627226  0.29796565  0.19192916  0.40724626
 -1.0701418   0.55441225  0.4283738   0.45033514  0.19638363 -0.8603053
  1.3089848   0.10744929]
[ 0.10353045  0.51372445 -0.08262994  0.20964041  0.33583525  0.4385848
  0.01783865 -0.17705007 -0.23967128  1.0148562  -0.1075167  -0.5829631
 -0.12221673  0.06824098 -0.1927994  -0.03856605  0.28150493 -0.32311183
 -0.02884714  0.00481998]
[-0.66715336  0.24324797 -0.11150951 -0.20916745 -0.06473054 -0.5385597
 -0.06169399 -0.05549532  0.2554891  -0.45811242 -0.83793503 -0.33345783
 -0.25090638 -0.30851963 -0.01632445  0.2912405  -0.19049211 -0.09067141
  0.17093833  0.0888631 ]
[-0.34136388  0.55070114  0.4980635   0.17118193 -0.27203187 -0.8843208
  0.19514814  0.07785387 -0.05435396  0.06594659 -0.42527664  0.13450523
 -0.17523594 -0.18138027  0.5489416  -0.8743063  -0.84560895  0.28284475
  0.16204435  0.14631242]
[-0.12825033 -0.33367014 -0.95850605  0.22928467  0.15241379 -0.64902383
  0.318609   -0.47528544 -0.1941416   1.1203734  -0.3915096  -0.12998751
  0.41103876  0.5784855  -0.08771993  0.6700996  -0.16842343 -1.1342204
  0.5199734   0.08129913]
[ 0.13993818 -0.716841    0.2278579   0.6137554  -0.07242945 -0.4821248
  0.2976824  -0.29501683 -0.07064277 -0.5788682   0.7553173   0.35794502
  0.07868872  0.17607993 -0.30831775  0.02075134  0.40142095  0.38228965
 -0.04132381 -0.12113324]
[-0.6898414   0.9931776   0.00658192  0.08041254  0.33764264 -0.77763945
  0.22084878  0.23147547 -0.8467464   0.29837915 -0.52397335 -1.0443441
 -0.64812016 -0.8406245   0.14093636 -0.02062515 -0.5503122   0.0647293
  0.35857746  0.08827373]
[-1.1598719  -0.12519918 -0.12061784  0.25565925  0.39414182 -0.41347966
  0.17596808  0.21053149 -0.4422091   0.5430427  -0.44969442 -0.30110487
 -0.40847257  0.04065054  0.0836632  -0.38231793 -0.663358    0.12887189
  0.11128503  0.2532102 ]
[-0.01196991  0.090333   -0.10804331  0.7045547  -0.22766493  0.6404271
  0.05534682  0.63572806  0.16631705 -0.08975969 -0.39369398  0.5730031
 -0.05914563  0.2421953  -0.20636296  0.8320046   0.08991498  0.07931718
 -0.2967495   0.16709647]
[ 0.64936054  0.46428758  0.6755559  -0.8918838  -0.5111213   0.60902715
 -1.9829456  -1.6632676   0.22314924 -0.89923954 -0.24391997 -0.23762164
 -0.7803096  -1.1973883   0.2539647  -0.10521547  0.56307733  0.37599033
  0.367091   -1.8849975 ]
[-1.7095463   0.26884013  0.17891836 -0.49512663 -0.42242464  0.20738496
 -0.3224596   0.21858126  0.18095791 -0.22358844 -0.7683126   0.04929331
 -0.05636581 -0.7803908   0.22848955 -0.35965386 -1.8645757   0.13855357
  0.3474569   0.10843955]
layer 5 Activation
tanh
layer 6 Dense
20 1
[0.74352103]
[0.15384236]
[0.76376426]
[-0.23683943]
[-0.5022066]
[0.35955584]
[-0.68426293]
[0.49034086]
[0.670998]
[-0.19734697]
[-0.3067962]
[0.18223122]
[-0.66792953]
[-0.248007]
[0.6127206]
[0.07125977]
[1.1781926]
[-0.89116496]
[0.45672747]
[0.45066476]
[1.6452311]
