layers 7
layer 0 Dense
20 20
[-0.11411285  0.23819596  0.32474276  0.48559433  0.0506889   0.05124459
  0.5577118   0.17529638 -0.05080382  0.1816996   0.03564057 -0.18821995
 -0.29746088 -0.24133815  0.05900024 -0.14712591  0.14905952 -0.18539815
  0.33487433  0.07802988]
[-0.1456446  -0.336031    0.3395237  -0.8817221  -0.33261558 -0.53790325
  0.32951495  0.403228    0.14802633  0.48965254  0.30849892 -0.1219255
  0.20822014 -0.42859957  0.16785413  0.3143451  -0.11887151 -0.03794999
 -0.41213334  0.07022911]
[ 0.00806746 -0.03090137  0.09319436 -0.12896599 -0.48306265 -0.6961161
  0.24895701  0.3953329   0.13871111  0.19199865 -0.16872935 -0.37063572
 -0.35975796 -0.1402366   0.06188136  0.2750994   0.04824388 -0.01628336
 -0.46359926 -0.16697268]
[ 0.23643106  0.00795355 -0.34577215  0.22652315  0.03312335 -0.13557678
  0.00386482 -0.3011622  -0.17976902 -0.14180198  0.2118063   0.15779345
  0.17140198 -0.21606433  0.1641821  -0.04756259  0.22227168  0.0872256
 -0.33812544  0.22590525]
[-0.08399566  0.0728656  -0.4627271   0.01635036 -0.35156813  0.36910784
  0.18773037 -0.08711188 -0.11211872 -0.20472592 -0.09919647 -0.3191341
  0.12604018 -0.2499604   0.3091708   0.09844294  0.02244866 -0.2798803
 -0.21234232 -0.38850945]
[ 0.66887474  0.14242125  0.32637137  0.5440278  -0.1630281   0.31757694
 -0.14063899 -0.36650875 -0.39524418 -0.37986082 -0.44483086  0.22323936
  0.18896845 -0.15441637 -0.0815188  -0.50013655  0.17441668  0.27584007
  0.23915467  0.23954824]
[ 0.545863    0.14540347 -0.1787652   0.41820824 -0.0802499   0.22058372
 -0.68307364 -0.04217479 -0.6343592  -0.18827367 -0.5024816  -0.27045482
  0.0817643  -0.10820428 -0.3823214  -0.06639226 -0.06795444  0.4104202
  0.09905741  0.18088168]
[-0.14004847 -0.1288704   0.42485988  0.32091022  0.5507586  -0.4858259
 -0.28296146 -0.20253213  0.7396122   0.18790539 -0.18516874  0.4808639
  0.19714789  0.4437619   0.06772276  0.17687827 -0.4440565   0.28948197
  0.39523742 -0.36111385]
[ 0.2642349   0.31366026 -0.18096864  0.35937563  0.18248963  0.20083837
 -0.28852087 -0.51326853 -0.17082171 -0.25627103  0.34898907  0.27853468
  0.32620037 -0.08815496 -0.3647312  -0.09164534  0.17504519 -0.00054779
  0.13226254  0.01142831]
[ 0.14098269  0.10558626 -0.23319325 -0.18030772 -0.19987509  0.1508663
 -0.17510882 -0.18620142  0.02170354 -0.11929367 -0.30368766  0.23414245
 -0.11040752 -0.08384053 -0.12640066 -0.08353388  0.18406963 -0.19387235
 -0.39861453 -0.20547624]
[ 0.05906215 -0.20189066 -0.3006811  -0.19795279 -0.06452851  0.3905134
 -0.3350135  -0.19410338 -0.28746536  0.0541998   0.16420642 -0.10423422
  0.01603511 -0.00100014 -0.02393561  0.2766946  -0.19098394 -0.25181317
 -0.37428427 -0.8061829 ]
[-0.13575448 -0.12703896  0.40200987  0.38219774  0.4156096   0.11664572
  0.0498112   0.3298365   0.04842573  0.19924287  0.5673193   0.43878892
  0.56427073  0.27452576 -0.1918715  -0.3969201   0.19564462 -0.03050765
  0.4049853  -0.4137006 ]
[ 0.01754716 -0.03922918  0.29612666 -0.27507088 -0.00546155 -0.6349555
  0.49384895  0.25231206  0.17595883  0.17176649  0.0506858  -0.09932421
 -0.5517295   0.4155455   0.47099924  0.11534104  0.1178438   0.06674191
 -0.0863857   0.45109096]
[ 0.12190704 -0.1700252   0.73856753 -0.13865054  0.71743625 -0.8212432
 -0.05350355 -0.09009277  0.19644316  0.5395961   0.22795069 -0.280659
 -0.38669497  0.6559983   0.03022691  0.20842104 -0.5741835   0.48401427
 -0.0175112   0.03899637]
[ 0.13498546 -0.19911811  0.1201491   0.3724549   0.42197138 -0.17236194
  0.06335731  0.13387607  0.05019259  0.3280504   0.19616738 -0.26574722
  0.2614244  -0.23727697 -0.01322764 -0.03923531 -0.03410231  0.11108381
  0.15558733  0.11763363]
[ 0.12958275 -0.27341908  0.06946465 -0.57941043 -0.26970974 -0.27749076
  1.7554934   0.1649441   0.46664608  0.3990141  -0.27957606 -0.11513369
 -1.5193492   0.11080868  0.8420811  -0.1601255  -0.12179162  0.39974144
 -0.6577324   1.4746349 ]
[ 0.10894406  0.2615141   0.16471332  0.00775915 -0.1206915   0.28553733
 -0.40228492 -0.12062735  0.5436419  -0.285624   -0.31707865  0.3028231
  0.6016272  -0.17060171 -0.40148082 -0.6685182   0.33167058 -0.29510114
  0.3793387  -0.24427144]
[ 0.52223355 -0.13411026 -0.4181201   0.6873669  -0.16011764  0.14071976
  0.22950344 -0.34280014  0.29913464 -0.43913794 -0.46468487  0.18510853
 -0.05802375 -0.6232251  -0.24305695 -0.6140166   0.7183377  -0.81015617
 -0.06858022  0.01543251]
[-0.03852231 -0.14853778 -0.13050038 -0.519559    0.05479072 -0.27015874
 -0.24986394 -0.16161688 -0.01935631 -0.03986692  0.04293282 -0.28240263
  0.35499674 -0.10818418 -0.18651463  0.26083103 -0.08558595  0.09129166
 -0.27741453 -0.1249161 ]
[ 0.3621303  -0.27549088  0.12295626  0.44858703  0.5525504   0.22263771
 -0.3813437   0.49482983  0.6429885  -0.335047    0.09723648  0.09358738
  0.4310272   0.4239996  -0.1525881   0.20093222 -0.12444171 -0.08562411
  0.5814665  -0.5209981 ]
[ 0.0669907  -0.06633414  0.03304758 -0.14581479 -0.12603627  0.15019347
  0.1625515  -0.0428524  -0.17072853  0.13736938 -0.07829838 -0.08919298
 -0.02569471 -0.17739682  0.06865746 -0.06312899  0.0945858   0.10968185
 -0.00588282 -0.00105552]
layer 1 Activation
tanh
layer 2 Dense
20 40
[-0.10298164 -0.04996139 -0.25687638 -0.13377512  0.2612531  -0.02381672
  0.08940108  0.2265485   0.03581868 -0.2020284   0.09920954  0.09201501
 -0.13772886 -0.2405411  -0.0253362   0.40177026  0.12368651 -0.28793004
 -0.20340681  0.00701121  0.01024956  0.04287826  0.01381073 -0.20823132
  0.22681202 -0.3153637  -0.26233333  0.14256322  0.18299982  0.15498754
  0.17577693 -0.23197697 -0.07983546 -0.01833698 -0.04150622  0.11904457
  0.03429428 -0.0380138   0.16577487 -0.15973456]
[-0.25259018 -0.22529417 -0.1347281   0.0015428  -0.01038355  0.15172936
  0.33790362 -0.11312529  0.02085511 -0.14508668  0.18841219 -0.12212385
 -0.22482842  0.04873612  0.02865418  0.0680391  -0.09317357 -0.01954843
 -0.05451297 -0.10009141 -0.1882244  -0.22454427  0.21178459 -0.05360253
 -0.02872205  0.17852072  0.07294662 -0.3809874   0.04697721 -0.13343126
  0.126946   -0.05241956 -0.20405486 -0.14458902 -0.08227259 -0.13046858
 -0.30575854 -0.02054123  0.11924554  0.191246  ]
[-0.15566064  0.30726302  0.21659233  0.10533459 -0.18734224  0.1679602
 -0.14810716  0.1071476  -0.00807923  0.31643042  0.15713695  0.28467909
  0.02287773 -0.05356578  0.11681019  0.39541775  0.02651053  0.23233153
  0.02669595  0.19405134 -0.07925674  0.32978418 -0.1749508  -0.2522189
 -0.15583575 -0.24627736 -0.28863508 -0.25065413  0.07368967  0.15488745
 -0.02947965 -0.28661904  0.04069292  0.42230585 -0.27011487 -0.20093037
 -0.12261284  0.05403568 -0.00833631 -0.34274596]
[-0.1235113  -0.06064527 -0.26700154 -0.11658259 -0.18021183 -0.09824362
  0.4391753   0.06816766 -0.01927706 -0.32460278 -0.1967687   0.25095668
  0.02894627 -0.39350906 -0.4297269   0.14802943  0.19745111 -0.0568162
  0.3522854   0.30431426 -0.09465139 -0.24359454 -0.06387866  0.08059037
 -0.04193457  0.04168664  0.17050375 -0.25372177  0.00956478  0.11951136
 -0.2970054   0.3655264   0.10371625  0.14220205 -0.04611305 -0.02817517
  0.00552203  0.13301927 -0.09149337 -0.21520886]
[-0.05538636  0.23188588 -0.05547992  0.03794595 -0.04003842  0.01068686
 -0.04001432  0.17204617 -0.07851255 -0.11172082  0.18136084  0.29466146
 -0.50049853  0.23853727  0.20029087  0.39636576 -0.10304178  0.19523463
 -0.09416528 -0.01278113  0.04786832  0.16390917  0.02403387 -0.28078166
 -0.25324008 -0.4788703  -0.39878547 -0.1775852  -0.27336416  0.05154981
  0.21245712  0.05128391 -0.0237489  -0.04554323  0.26777732 -0.42163727
 -0.17091149 -0.0804373   0.06977084  0.04318529]
[-0.13145095  0.0557925  -0.05590479  0.03485966 -0.29245344  0.09900191
  0.15677804  0.2798029   0.21384393  0.08960562  0.12737791  0.20610811
  0.29232615  0.1738888  -0.22912017 -0.30700365 -0.11477225 -0.24240327
 -0.17591539  0.1327988   0.00982247 -0.21771303 -0.11542802  0.14681226
 -0.10721415  0.3137987   0.04786591  0.15931347  0.27572715  0.01916119
 -0.07342358  0.27784082 -0.14196077 -0.13444817 -0.2381384   0.19689314
 -0.12537055 -0.16871685 -0.08844178  0.3407661 ]
[ 2.1435452e-01 -4.9033932e-02  5.0153989e-02  1.5823428e-01
  9.5577575e-02  1.5910651e-01  1.0057093e-01 -8.4672444e-02
 -2.7219003e-01  2.4347796e-01 -9.6748071e-03 -3.0610949e-01
  2.7386796e-01 -1.9034286e-01  3.2136077e-01  2.3756282e-02
 -1.1099882e-01 -2.1345340e-01 -2.8955337e-01 -2.1078748e-01
 -2.3553061e-01 -3.2864106e-01 -1.8763340e-01  2.0014030e-01
  4.2216834e-02  5.0744824e-02 -2.3061164e-01  2.5702795e-04
  3.7880648e-02 -1.3682711e-01 -2.8338173e-02  3.2282367e-01
  8.7548375e-02 -2.3105168e-01 -3.0723351e-01  1.5707350e-01
 -2.0441304e-01 -5.1745169e-02 -2.2389000e-02 -4.7504231e-01]
[ 0.24015589  0.08845789  0.01423135  0.0166607  -0.32168248 -0.22053884
 -0.2281371  -0.2002572  -0.0595156   0.04298329 -0.15351905  0.12726556
 -0.02253812 -0.23628329  0.26778847  0.23033248  0.19605485  0.10724937
 -0.16080944 -0.03466788 -0.14780189 -0.07211608  0.1542005   0.2231386
 -0.01623566 -0.17158599 -0.244247    0.24027798 -0.11215356  0.05204887
 -0.23006138 -0.05259108  0.06467908 -0.14007075 -0.17090288  0.01849789
 -0.08410308 -0.06490356  0.12616569  0.08210789]
[-0.01309662 -0.09318272 -0.10117924 -0.01126728 -0.07749996  0.21354114
 -0.13622458  0.09438876 -0.08629875 -0.11725615  0.29825625  0.28618672
 -0.07364777  0.22678092 -0.05375269 -0.30014434 -0.25852418  0.21908198
  0.00238472  0.17940138 -0.12294409  0.2852201   0.00740012  0.29783258
 -0.18927331 -0.13107504  0.07521274  0.2561128  -0.01930995  0.15868948
  0.19635762  0.00751941  0.03449092  0.12321103 -0.08243934 -0.05388593
 -0.09947503 -0.1383668   0.04945293 -0.3870832 ]
[ 0.01115527 -0.09364457 -0.05915534  0.04770429 -0.16137446  0.02564736
 -0.08491333  0.00114637 -0.22868116  0.35356697  0.27555725 -0.18676685
 -0.02578647 -0.13343939 -0.0278007   0.02245535  0.13097063  0.36036623
  0.04891928 -0.14141174  0.03645636  0.09156977  0.15290655  0.20539209
 -0.34178194 -0.28117442  0.01027762  0.17066209 -0.01549453  0.04766842
 -0.08417437  0.01243781  0.21229692  0.00787859 -0.03672316 -0.31607437
 -0.02509153  0.24003924  0.02080598 -0.11895238]
[ 0.10053631  0.05215204 -0.19614878  0.14982124 -0.06679455  0.03345057
 -0.1605331   0.01710181  0.2250471   0.08460272  0.14791526  0.15278026
  0.13102204  0.16925979  0.05108297  0.12443499  0.28390902  0.15368041
  0.17562686  0.13229598 -0.11755363  0.21726668 -0.21116926 -0.12349122
 -0.04879873  0.09680749  0.14722238 -0.06645418 -0.24128987  0.23823556
 -0.18608999 -0.1837802   0.15917723 -0.12553103 -0.16344844  0.12000479
  0.06265027 -0.11767449 -0.01183529 -0.00593194]
[-0.11185852 -0.03320485  0.17516232  0.09138647 -0.20701715 -0.2276115
  0.28837433 -0.23357601  0.01153434 -0.16256392 -0.06373908 -0.08805213
 -0.09288792 -0.20087783 -0.26677692 -0.18061    -0.18909204  0.15980679
  0.23941454 -0.06579721 -0.0231784  -0.19649708  0.19135869 -0.20277435
  0.3035974   0.22358222 -0.07027414  0.07759877 -0.26064417 -0.11552484
  0.15652803  0.06702459  0.03900991  0.09727938 -0.3299442   0.09230446
  0.14962357  0.00693116  0.05177279  0.08462371]
[-0.00363831  0.1498425  -0.0190346   0.15650861  0.2088722   0.15378824
  0.37906262  0.1116275  -0.2003572  -0.25117505 -0.27857122  0.61071795
  0.11835415 -0.2471046  -0.30882588 -0.15032081 -0.29196674 -0.10865626
  0.06522397  0.06299359 -0.07746734 -0.1323619   0.10130739  0.18009694
  0.2451435  -0.08034881  0.16574198  0.07747742 -0.2937179   0.16103753
 -0.38006032  0.31192255  0.06039144 -0.13704191  0.26722366  0.13067499
 -0.00178449 -0.12884663 -0.20314066  0.2535808 ]
[ 0.16633606 -0.0752734   0.19364572 -0.09267033 -0.06740937 -0.29528326
 -0.39180115  0.10226195 -0.07249739 -0.09025757  0.07409799 -0.11516163
 -0.3464889  -0.24877435 -0.06964315  0.19324008 -0.00363597 -0.00347666
  0.21747945 -0.28233853  0.16276096  0.48368087  0.01443458  0.17317472
  0.05370092 -0.31232825 -0.00570924  0.273628   -0.10717171  0.15332934
 -0.02811479 -0.4390487  -0.13309115 -0.01695829  0.03158971 -0.30571133
  0.06161587  0.00769783  0.08445009  0.39389706]
[-0.1568185  -0.2186032  -0.14979157  0.17944047  0.09468286 -0.24807145
 -0.19135392 -0.1566363   0.04546423  0.07425245 -0.04435488 -0.41482553
 -0.06220347 -0.12716234  0.1291559  -0.18975683 -0.21038397  0.28735152
 -0.1642882   0.02768673  0.0252155  -0.07676192  0.23434216 -0.03675288
 -0.0780354  -0.21072395 -0.20537415 -0.11849773 -0.07306309  0.08193456
  0.21625194  0.03093585 -0.12194775  0.26754087  0.30296278  0.1022818
  0.00660205  0.04868571 -0.19117771  0.00380059]
[ 0.21888696  0.00109743 -0.15044124  0.18204847 -0.17146507  0.14409357
 -0.23510489 -0.06303183 -0.33363068  0.13186495 -0.21753462 -0.18211253
  0.2126103  -0.16278712 -0.09385357  0.14819105  0.21303824  0.0187785
 -0.2537062  -0.07236208  0.13188404  0.21913786  0.00980763 -0.0829708
 -0.38975844 -0.08739689  0.20255978  0.2882136   0.04817515  0.07294412
  0.1529041   0.34454134  0.03748101 -0.00801883 -0.1618011   0.04682518
 -0.20865884  0.03584584 -0.16999748  0.5144143 ]
[-0.22376555 -0.03769156 -0.24368457  0.10342795 -0.29349256 -0.21233623
  0.05983444  0.22664627  0.2710267  -0.06152912  0.01310295  0.13133967
  0.14995424 -0.13903446 -0.09125148 -0.14937055  0.11980977 -0.09825952
  0.16449079  0.12027182  0.24759206 -0.2080088   0.02273258 -0.19282006
  0.07413087  0.2615766   0.07755196  0.10257041  0.3005029  -0.11273577
 -0.21372753  0.02163904 -0.1647097  -0.3733439  -0.10355875  0.10632543
 -0.19785474  0.0658297  -0.07864254 -0.44288993]
[-0.15507455 -0.01239334 -0.15013961  0.05208182 -0.04965297 -0.2713846
 -0.3114962  -0.10713624 -0.03014613 -0.09309652  0.22958173 -0.20751591
 -0.33484557 -0.1350647   0.2966437   0.36916795  0.40589628 -0.07631209
  0.03476352 -0.25844902  0.16038333  0.22095636  0.10132969 -0.0744065
 -0.2320445   0.01163765 -0.31508878 -0.15901993  0.1964096   0.01932802
 -0.0454134  -0.11450877 -0.1240067   0.29641718 -0.14367154 -0.17153652
  0.31106398 -0.0738307   0.10608401  0.06399792]
[-0.34921852 -0.13880715 -0.22408086  0.15624566 -0.14969075  0.20720343
 -0.03114022 -0.04161884  0.07496338  0.10955802  0.2149149   0.43451193
  0.03293753 -0.2674613   0.15357289 -0.09463368 -0.09698086 -0.13020855
 -0.16386506 -0.32529446 -0.13607366 -0.06211046 -0.13732955 -0.09669452
 -0.23212072 -0.09388246 -0.28984794 -0.04188767  0.0581837  -0.11659865
 -0.09377892  0.20594825  0.06904268  0.21003674 -0.05147118 -0.2887289
  0.3641154   0.06620038 -0.16542743 -0.23005876]
[ 0.0384261   0.27389318 -0.17993978 -0.31073162 -0.13404745  0.19335873
 -0.22020587  0.14212757  0.02342428  0.05027834 -0.06871559 -0.3470705
  0.12611836  0.09355019  0.18243341  0.1290463  -0.07785862  0.11025917
  0.21918134  0.01040175 -0.1920384   0.16847762  0.08195952 -0.18492696
  0.26223293 -0.28720146 -0.23793693 -0.17197742 -0.03972343  0.09938417
  0.0880182   0.18961734 -0.10204695 -0.3271529   0.00049639  0.06132135
  0.27212182 -0.17225932  0.21757779 -0.42542094]
[-0.02111997  0.00088476  0.01511232 -0.15148363 -0.10659825 -0.04995136
  0.05539665  0.05584807  0.07860223 -0.00513983 -0.11782914 -0.06817047
  0.11807063 -0.02055571 -0.01462031  0.10574186  0.1884638   0.04022812
 -0.00939482 -0.01096822 -0.1676186  -0.1460929   0.04310088 -0.0162832
 -0.04430784  0.11004093  0.04218671 -0.10079535  0.05987869 -0.0298027
 -0.03524146  0.1582181  -0.04633155 -0.24052234 -0.02391773  0.09269414
 -0.079625    0.01733853  0.07690044 -0.00749904]
layer 3 Activation
tanh
layer 4 Dense
40 20
[ 0.18547001 -0.14717321 -0.12626933  0.17418538  0.10120592 -0.28597426
  0.1150414   0.13630861 -0.19203836 -0.1722122   0.19796707  0.1559781
 -0.26771733  0.13786255 -0.14592311 -0.04026055  0.04435325  0.04431321
  0.14541088  0.05456495]
[-0.01227879  0.15510671  0.23437612 -0.16986963 -0.22815005 -0.07551844
  0.06292191 -0.12873664  0.22191717  0.07199827 -0.14310436 -0.35180187
 -0.23954825  0.0107829  -0.0287817   0.04029017 -0.03000587  0.09920118
 -0.17132112  0.13176483]
[-0.18793191 -0.1601835   0.12310752 -0.13060454  0.31781152  0.11967143
  0.08551884 -0.06838086 -0.06879127 -0.06026562  0.1530041   0.06512842
 -0.2389904  -0.1735493  -0.23330724 -0.20444858 -0.04747749  0.11288664
  0.449387   -0.16893408]
[-0.14076461  0.1566852   0.13301441 -0.17194353 -0.06837391  0.21255608
  0.18768704  0.1809775  -0.13706495  0.02860472 -0.05561822  0.10412294
  0.01889387 -0.17255017 -0.06309486  0.09069861 -0.08674259 -0.13910885
  0.04799669  0.13435638]
[ 0.19544217  0.15839773  0.01431034  0.2535367  -0.02714361  0.14108841
 -0.1920325   0.03204117  0.14170904  0.13255146  0.27018666 -0.04387965
  0.10176389 -0.05541591 -0.3619114   0.27066565 -0.1427565   0.13134415
  0.33733395 -0.06218525]
[-0.23986816  0.07290269  0.16100056 -0.12217126  0.13986197  0.23481037
 -0.28272617 -0.06737     0.10458229  0.14374931  0.27411115 -0.11613102
  0.14248629 -0.2406665  -0.26312298  0.11218451 -0.14157693  0.12280641
 -0.05647171 -0.08908944]
[ 0.03889968 -0.11477096  0.1782803  -0.10684212 -0.01369385  0.22370678
 -0.29681155 -0.15437797 -0.07492518  0.28697246 -0.10452479  0.24081874
  0.06353126  0.26829115  0.16247568 -0.24975723  0.16136675 -0.31960857
 -0.3135634  -0.3280179 ]
[-0.02836855  0.19153373 -0.25762573 -0.0871591   0.06411242  0.02523082
  0.04216826  0.1604417  -0.08479636 -0.10491323 -0.03516071 -0.19615787
 -0.07381681 -0.09376698  0.25892463  0.11367317  0.27228206  0.18613692
  0.12297902 -0.15946917]
[-0.13537548 -0.37096572 -0.15098591  0.32466537  0.32416046  0.12703568
  0.01337619  0.43363562 -0.21889111  0.29879025  0.08259016  0.28594446
  0.00912012  0.23308875  0.15804277  0.09784974  0.22926797 -0.13525042
 -0.09283915 -0.12799127]
[-0.02879201  0.00876733  0.05392084  0.06115666  0.19574864 -0.23408812
  0.24655885 -0.09547872  0.03260259 -0.13145477  0.24743153  0.07247439
  0.13207188  0.14066449 -0.12200409  0.19363357 -0.2080411   0.3608454
 -0.10799941  0.19813193]
[ 0.09444883  0.16943441  0.0648094  -0.26577508 -0.28874427  0.2617151
 -0.0977538   0.09690912 -0.05110924  0.01449571  0.28458124 -0.05894657
  0.14037432  0.04646969 -0.24727015 -0.12911443 -0.3104562   0.10158706
 -0.07341183  0.07259298]
[ 0.27643645  0.15530208 -0.29774386  0.13894863 -0.04321709  0.5375989
  0.26110384  0.05998996  0.2709674  -0.23449513  0.26907495 -0.12510164
 -0.06690924 -0.17469388  0.14331147  0.27133876 -0.16525497 -0.22227584
  0.173342    0.08364501]
[ 0.28758335  0.06185764  0.3299675   0.3422954  -0.2956944  -0.28053105
  0.1313189  -0.20891336 -0.2996154   0.11303708 -0.19195382 -0.30414793
  0.30301872  0.01350563 -0.21510692 -0.23780575 -0.18096536 -0.10165112
 -0.3065487  -0.13957012]
[-0.19349983  0.02432077  0.27161825  0.28937522  0.07467469  0.02740073
 -0.00042826  0.0602223   0.12036857  0.11307745 -0.29248467 -0.21770503
 -0.10080073 -0.09324316 -0.2671978  -0.10936274 -0.16839518  0.2238859
  0.27819735 -0.10876488]
[ 0.33188495  0.12172652 -0.21351185 -0.33397847  0.22736259 -0.01789286
  0.04086817  0.12512876 -0.17624284  0.06187527  0.01962995  0.06688695
 -0.19489151  0.11823129  0.13240634  0.2997601   0.2960797   0.38245267
  0.21949638  0.01434403]
[ 0.05967672 -0.11849547  0.01232249  0.18150206  0.06181387 -0.23926842
  0.20446377  0.1629686  -0.3131757  -0.04589787  0.0884206  -0.30195946
 -0.34192514  0.16892391  0.24459894  0.25133827  0.18203689  0.26343435
 -0.22007056  0.21738142]
[-0.07470232  0.16367419 -0.2235649   0.21864676  0.0652471  -0.24858575
 -0.14352417 -0.28106192  0.21396254  0.24730198  0.01450362  0.1354577
 -0.06396696 -0.00910255  0.07571203 -0.02187767 -0.30920845  0.25891525
  0.09884954 -0.28893986]
[ 6.5091841e-02 -1.5118365e-01 -7.5185984e-02 -2.0487915e-01
 -2.2282493e-01 -1.1219773e-01 -2.0111957e-01  2.3824878e-01
  9.1806613e-02 -1.1768021e-01  2.0133296e-04  2.2570987e-01
 -1.7480867e-01  2.2364545e-01  2.0514551e-01  3.1526124e-01
  2.6349783e-02  1.8054274e-01  1.4868563e-01  1.3746133e-01]
[-0.17394117 -0.15394768  0.0252083   0.08020186 -0.13031219  0.06634783
 -0.01712551  0.16736172  0.00943751 -0.17399834 -0.00364091  0.00537159
  0.2328498  -0.00126473 -0.1618464   0.17112598 -0.23382774 -0.01780627
  0.00188672  0.01363871]
[ 0.23275901 -0.25105208  0.01976199  0.17657346 -0.01536178  0.26328945
  0.0702445  -0.05958568 -0.20621781  0.15635644 -0.02614032  0.03376634
  0.07592534 -0.0860392   0.16747454 -0.08514877  0.10707948  0.01094008
 -0.00487195 -0.11839904]
[ 0.11230166  0.08703184  0.14951766  0.16357583 -0.12668586  0.1902914
 -0.00466427 -0.21088618  0.14487708  0.17124628 -0.19760033 -0.32866085
 -0.17587617  0.06921932 -0.24358565 -0.20429729 -0.0310236  -0.06971803
  0.15542828  0.18318088]
[-0.28121173  0.05189141  0.01798766 -0.22342461 -0.16426839 -0.01216257
 -0.04230938  0.00956298 -0.23116037 -0.23205726 -0.04667438 -0.07371042
 -0.2049034   0.05538865 -0.29806736  0.12949826 -0.18363611 -0.01695861
  0.20227557  0.38855743]
[ 0.07644207  0.13693807 -0.04463702  0.0057598   0.14612848 -0.08223036
 -0.10526951 -0.09307062 -0.138099   -0.18168418  0.03692952  0.1466985
 -0.01564644 -0.07318749  0.15505965  0.0495383   0.10689917  0.13567598
  0.09046359 -0.21052785]
[-0.10451095  0.01390192  0.08512478 -0.07501902 -0.36142164  0.06194178
 -0.09486004 -0.15022701 -0.11466173 -0.02480205 -0.02829887  0.02746937
 -0.1233699   0.10229019 -0.1248564  -0.18904358  0.22130705 -0.09230252
 -0.12759341  0.16756815]
[-0.09877133 -0.25529778 -0.29624027 -0.13442613 -0.0589143  -0.11291
 -0.00754242  0.22059448  0.28113547  0.2728333  -0.02090947 -0.12223867
  0.15802383  0.2699887  -0.10209201 -0.29042464 -0.23450963 -0.26386267
 -0.27891576 -0.04655383]
[-0.06569574  0.05762472 -0.04531694  0.37161887 -0.14232318 -0.15397291
  0.08467919  0.16032127 -0.20791224  0.08204734 -0.13356394  0.2274537
  0.09571645 -0.05246356 -0.2621707  -0.16781878  0.28415135 -0.31180143
 -0.29331675 -0.31788677]
[ 0.07078132 -0.02898844  0.04973988  0.30947685  0.29868343 -0.00966774
  0.1452617  -0.25865498  0.07402062  0.16747767 -0.01470588  0.1945697
 -0.2332229   0.16319552 -0.18841061 -0.06768472  0.2571251  -0.18045948
  0.02103108 -0.10985669]
[-0.11064591 -0.05676019  0.00499855 -0.07894252 -0.04045695  0.22143832
  0.11231847 -0.20228669 -0.23112342  0.24914642  0.23155272 -0.13252635
 -0.07592924  0.08277763 -0.2098679  -0.07887929 -0.22050454  0.02491484
  0.3262801   0.0172736 ]
[-0.21176615  0.19255756  0.06115349  0.1465441   0.13367273 -0.26069242
 -0.04530559  0.26764828  0.11142658  0.31030622  0.11940252  0.18879461
 -0.09872857  0.07887277 -0.26678425 -0.00248667 -0.03684029 -0.13176379
  0.13056223 -0.04208808]
[-0.3619231  -0.10668796  0.06262252 -0.17400274  0.12891985  0.04836579
 -0.15362269  0.11074697 -0.01080359 -0.17705595 -0.27492014  0.02100363
 -0.08503398  0.24513963  0.07703923 -0.04676523 -0.12240528  0.00292282
  0.03767788  0.151081  ]
[ 0.00445409 -0.2135459  -0.33606142 -0.15757486  0.03780392 -0.06374584
 -0.07211528  0.17413458 -0.02529585 -0.31038266 -0.01131004  0.24505334
  0.14559178  0.06878793 -0.10245096 -0.114016   -0.27389508  0.08982132
  0.31839395  0.13876018]
[-0.01998926 -0.16918892  0.2995842  -0.1443297   0.15770426 -0.24199767
  0.18391967 -0.00872979  0.03142534  0.207729    0.06659443  0.240519
  0.27800155 -0.00657612  0.30662248 -0.15579818 -0.29383448 -0.15390426
  0.0007496  -0.44170722]
[ 0.01114369  0.10139374 -0.02914083 -0.04657689  0.24914384  0.21915318
 -0.26166928 -0.12627779  0.18873961 -0.07998215 -0.05726539  0.0228909
  0.05874129  0.1468772   0.18297066  0.07001226 -0.10066263  0.22016205
  0.02982992  0.09329771]
[-0.08713188 -0.06587321 -0.05612428 -0.00442108  0.19353013  0.26729274
  0.10592637  0.10990995  0.2499769  -0.18704228 -0.16875227  0.33899066
  0.00417899 -0.03553019 -0.1974087   0.07137898  0.10672115 -0.00304074
 -0.07456843  0.21110614]
[-0.10524948  0.23340014 -0.06816928  0.26686645 -0.19222774  0.15856579
  0.20719343 -0.02950853 -0.29548216 -0.12534106 -0.05447783 -0.23575352
  0.13155279  0.30216295 -0.19643211  0.07140203 -0.15275425  0.00375891
  0.18335935  0.08711823]
[-0.21919073  0.11421844 -0.06896944  0.305512   -0.28817356 -0.2710015
 -0.17005782  0.31947738  0.3180191  -0.04941147  0.32946372  0.10116163
  0.15185149  0.11922328  0.01139179 -0.29121274  0.2604143  -0.12147447
 -0.08334725 -0.3061816 ]
[ 0.2537621   0.0500722   0.16516863 -0.15076673 -0.18636744  0.1052539
  0.02225954  0.2498734   0.33597577 -0.04498006  0.20990597 -0.12665614
  0.0801111  -0.17733337  0.00237872  0.25125736 -0.101505    0.26429313
  0.1488768   0.06234338]
[ 0.02016059 -0.1481489   0.15431637  0.22241059 -0.09800205  0.11471434
  0.01908826 -0.03200974  0.24468663  0.16574788 -0.24631846  0.14958802
 -0.08966395  0.16392522 -0.08501414  0.2946807  -0.04949616  0.2142999
  0.24130367  0.06708336]
[ 0.3099069  -0.06311511 -0.31385002  0.00269961 -0.0966014  -0.32079
 -0.07282416  0.0933773  -0.14993274 -0.06143321 -0.1606352   0.21321872
  0.01936299  0.04801795  0.04666058 -0.0850266  -0.2989628   0.07505507
 -0.26043886  0.05652569]
[ 0.20366508 -0.23256241  0.04687212  0.43492264  0.00483527  0.37859213
 -0.12629266  0.12970033  0.33515012 -0.09826013  0.17147572  0.05119443
 -0.17496562  0.17962614 -0.28548002  0.31923684 -0.33685854 -0.10150521
  0.22897562  0.0856296 ]
[-0.02866588  0.03689384 -0.21312283  0.14279836 -0.05751151 -0.09851782
  0.04499841 -0.02675997  0.02571367 -0.04488579  0.06694969 -0.07282646
 -0.10751593 -0.04684717  0.13738427  0.09169466 -0.09016487 -0.09450206
 -0.15865006 -0.1552743 ]
layer 5 Activation
tanh
layer 6 Dense
20 1
[-0.00433472]
[0.01250026]
[-0.00425987]
[0.11708907]
[0.00928646]
[0.14416583]
[0.02342634]
[-0.01347665]
[0.03772242]
[-0.15280682]
[0.01090463]
[-0.04706572]
[-0.15835041]
[-0.01125402]
[0.08420521]
[0.15023734]
[-0.13970435]
[-0.18036683]
[-0.07309985]
[-0.21871924]
[0.08545924]
