layers 7
layer 0 Dense
20 20
[ 0.03944788  0.0838498  -0.08603305 -0.16136076  0.22467402  0.12607513
 -0.1316039   0.3070665   0.16742375 -0.18400583 -0.12089929  0.5441636
 -0.049422   -0.30836213  0.3344871  -0.41405198  0.52589005  0.35576242
 -0.04241665 -0.16702396]
[-0.23007567 -0.53495854 -0.35051337 -0.0800257  -0.05207537 -0.5072985
 -0.3075134   0.2620303  -0.5687999  -0.21889155  0.05078194  0.32345292
  0.19756712 -0.03326683 -0.32625577 -0.36091292 -0.6525507  -0.37354642
  0.29645726 -0.3052325 ]
[-0.6433054  -0.7042405   0.05652939  0.10495488 -0.5014148   0.12754601
 -0.45855772  0.2840386  -0.01203967  0.40148386  0.6126356   0.42155367
  0.363447   -0.13826063 -0.2166746   0.1403465  -0.12840605 -0.49078366
  0.4722984  -0.15836965]
[-0.37307397 -0.33493382 -0.04230404 -0.45993876 -0.07749844 -0.28055936
  0.04581606  0.33027822 -0.13316612  0.26962122 -0.01032074  0.28150707
  0.23045264  0.20885265 -0.19435601  0.1576549   0.08289051  0.20449857
  0.38375542  0.38692904]
[ 0.1307511   0.0503894   0.16469853 -0.32540178  0.12314505  0.02363628
 -0.05994783  0.25535223  0.26718274 -0.12703498 -0.0223868  -0.21666391
  0.33492112 -0.21047911 -0.21890046  0.2218536  -0.16701621 -0.2414784
 -0.16224176  0.11849838]
[ 0.6597471   0.5157452  -0.23760213 -0.2734153  -0.15406282 -0.00756509
  0.24410401  0.09553941  0.172661   -0.52539605 -0.29801732 -0.24089181
 -0.18600874 -0.17889227 -0.14710785 -0.05330694  0.522349    0.00157935
  0.14083503 -0.28348395]
[ 0.22642946  0.2646244   0.27402374 -0.41282228 -0.13397138  0.15580206
  0.47069654  0.12432959  0.6494148  -0.20689571 -0.01335457  0.3131749
 -0.3029993   0.06841617 -0.33779496  0.28718135  0.8478733  -0.22495122
 -0.15893288  0.42122525]
[ 0.1799335  -0.18910827  0.1533317   0.17857365 -0.23948036  0.05092293
  0.16263185 -0.31476188 -0.22885767 -0.35433772 -0.24811777 -0.45368618
 -0.32780394  0.3518152  -0.19503072  0.09913947  0.06313762  0.08045904
 -0.11382763 -0.27469793]
[ 0.32332885  0.54242855 -0.3683558   0.02732547 -0.19453838 -0.04336467
  0.3536307  -0.4798465   0.02492644  0.44920605  0.16060399  0.30871063
  0.10764597 -0.04739087  0.21641617 -0.03928924  0.08313277  0.18475124
  0.00503275  0.18919326]
[ 0.21741003  0.33674058  0.67999446 -0.3849507  -0.47875664 -0.32015827
  0.28440082 -0.13977487 -0.18452126  0.0641769  -0.2188152  -0.25356477
  0.26502478 -0.18699951 -0.2975629   0.34977666  0.08188827  0.04484317
  0.17412761  0.4346793 ]
[ 0.34181646 -0.11479785 -0.55798835  0.07851557 -0.19040066  0.3775129
 -0.32242984 -0.30385163 -0.03858251  0.44191283 -0.05280874 -0.19594818
  0.01117006  0.05383663  0.53224397 -0.478809   -0.72439444 -0.29954103
  0.28271195 -0.12689427]
[-1.1018379  -0.6349255   0.38958737 -0.13214622 -0.79975355 -0.43146825
  0.89723426  0.01674646 -0.634174   -0.5278174   0.44283596 -0.06012389
  0.18457155 -0.3724002  -0.12155958  0.44061825 -1.2368344  -0.261066
  0.38804287 -0.71179485]
[ 0.38547918  0.05041552  0.11623055  0.07389757  0.34687194  0.01230302
 -0.10893138  0.01201591 -0.3093322   0.03287482  0.02573453 -0.4698137
 -0.38793647 -0.1773788  -0.07148491 -0.20146836 -0.3111638   0.09053808
  0.05505283  0.34505472]
[-0.2164801   0.2864001   0.38693276  0.6410962  -0.06952486 -0.11799994
  0.19053194  0.22189237 -0.28505558  0.01157395 -0.23917232  0.1916555
  0.25557005 -0.18250982  0.16048165  0.00881334 -0.12589769  0.06138299
  0.32923204  0.11985957]
[-0.2947515  -0.01835249 -0.1946312   0.00345499  0.02899735  0.16729784
 -0.2310813   0.15257509 -0.3178125   0.16143374 -0.0753969   0.46277916
  0.09588818 -0.17812516  0.5077382  -0.5732271  -0.622392    0.20770141
 -0.15454067 -0.26566333]
[-0.5786972  -0.34967664  0.16029085 -0.47792438 -0.48195884  0.03253235
  0.24356395 -0.16058832  0.10357087 -0.24892136  0.11051437 -0.1748378
 -0.13360164  0.03697782 -0.17292191  0.4695225  -0.39079523  0.14151755
  0.13416241 -0.7098181 ]
[-0.50301695 -0.42385972  0.5010397   0.00376909 -0.20949244 -0.14586194
 -0.26756287  0.33733445  0.05095934  0.1881443  -0.24049678  0.18020841
 -0.23470215 -0.18298727  0.27340266 -0.01832921  0.37210795 -0.21184051
  0.16987267  0.04225645]
[ 0.22520907 -0.4010858  -0.56520194 -0.7651226   0.91965497  1.1214763
 -0.7087917  -0.17282945  0.20160426  0.4658789  -0.15434316 -0.09502755
 -0.8271085   0.26198933  0.44583595 -0.27710092  0.06308138 -0.590295
  0.20384534 -1.004375  ]
[-0.00335155 -0.19982736 -0.00834244 -0.05260146 -0.4222446  -0.0094687
 -0.4131583  -0.03360278  0.537915   -0.25788602 -0.5930107   0.08596554
 -0.4304556  -0.18175784 -0.995359    1.0311075   1.5105437  -0.27821127
 -0.1843814  -0.7580131 ]
[ 8.7522721e-01  6.3121909e-01  6.6112918e-01  5.0347406e-01
  1.0423458e-01  2.4881789e-01 -5.4862195e-01  1.9823049e-01
 -1.3168022e-03 -5.8442324e-01 -4.8511732e-01 -2.4368578e-01
 -7.5809732e-02  1.7077442e-01  6.1113274e-01 -1.6966680e+00
  8.6710989e-01  5.1351583e-01 -3.0764580e-01 -2.8069234e-01]
[-0.09603208 -0.20634961 -0.13533048 -0.00425825 -0.08262021  0.03445597
  0.1347208   0.02653249  0.09611342 -0.0345321   0.04518932  0.10639274
  0.02340904 -0.10868359 -0.02524253  0.08423223  0.03670682 -0.06512835
  0.05166129  0.05665357]
layer 1 Activation
tanh
layer 2 Dense
20 40
[ 2.20288381e-01  2.16453075e-01 -3.34162891e-01  3.57403427e-01
 -2.08038449e-01  2.24858552e-01 -4.76964235e-01 -3.41441602e-01
  3.64522904e-01 -3.10648501e-01  1.73491463e-01  4.84745771e-01
 -1.58100143e-01 -3.92779768e-01  1.41448351e-02  4.98177558e-01
  3.18018526e-01 -3.67315829e-01 -9.28479955e-02 -1.77709445e-01
 -5.37914217e-01 -5.22385001e-01  1.18972296e-02  1.86369568e-01
  4.88222122e-01 -1.85451850e-01  1.00060806e-01 -2.26014733e-01
 -3.72817695e-01  4.32137817e-01 -3.02260363e-04 -3.00763428e-01
 -2.50350982e-02  2.43396342e-01  1.83660388e-01 -2.16008544e-01
 -2.20076174e-01 -1.96000978e-01 -8.64226446e-02 -3.23608905e-01]
[ 0.05730429 -0.11161884  0.1538839   0.07331716 -0.4641462   0.06773585
 -0.23343292  0.18640761 -0.14442687 -0.01001674  0.31933677  0.27434897
  0.08654831  0.05955006  0.04682679 -0.05165337  0.25381202  0.02922198
  0.09178832  0.10613772  0.08248553 -0.15156247  0.00148085 -0.19319107
 -0.15111758 -0.2228083  -0.23121989 -0.23402451 -0.32146642 -0.14744149
  0.10189115 -0.37679166 -0.10160572  0.35496986  0.02258484  0.1901926
 -0.18864757 -0.32813916 -0.10866643  0.01356448]
[ 0.21908416  0.06279584 -0.0629282  -0.12694965 -0.20019057 -0.3039539
  0.2973972  -0.5391875  -0.30856204  0.2458392  -0.14458002  0.4118284
 -0.08591089 -0.1996004   0.03850364  0.12970906 -0.26005363  0.31924796
  0.09071511  0.13162848 -0.61271256  0.0731748   0.05659094  0.22506182
 -0.17686476 -0.26250243  0.1191414   0.20345648 -0.467778   -0.18003066
  0.40400228  0.24595957 -0.18147215  0.11568386 -0.43199092  0.25162655
  0.14594425  0.17609183 -0.05143706  0.23436189]
[ 0.30417988 -0.2903891  -0.04825499  0.11839477 -0.49781695 -0.17337884
 -0.12126593 -0.00461702  0.12704909 -0.16037509  0.2850528   0.12827007
 -0.05038643 -0.06874246  0.21552715 -0.09304371  0.17237718  0.09337854
 -0.30575308 -0.10433815 -0.20996207 -0.0666267   0.20025004  0.17352478
  0.27215105 -0.27410862 -0.22512531 -0.36665756 -0.14186761 -0.09471399
 -0.2814444  -0.14021109 -0.5444529   0.338154   -0.12624806 -0.06474556
 -0.36189607 -0.24682765  0.04292722  0.09280593]
[-0.14794886  0.02685703 -0.2011454   0.36851922  0.1289283   0.3302957
  0.16285563  0.22166468  0.28074527 -0.09884107 -0.1439872   0.2009933
 -0.20570433  0.05914044  0.00448376  0.10135249  0.05368058 -0.11391368
 -0.14576425  0.22916184  0.1519603  -0.07643258  0.13435952 -0.21977782
 -0.06677769 -0.24244517  0.00758706  0.05814877  0.19067925 -0.00709296
 -0.118185   -0.20982052 -0.10189834 -0.06840552  0.03728516 -0.10644281
 -0.11684687 -0.084939    0.22309138 -0.48045668]
[-0.31276244  0.2852382   0.11483133 -0.12146931  0.21352576  0.28011304
 -0.01355957 -0.03960576  0.5480164  -0.00375365 -0.1658707   0.09364002
  0.22018051 -0.09956485 -0.21577816  0.43435964  0.0879672  -0.1366769
  0.21114492  0.01263687  0.10195967 -0.0757562   0.10331672  0.13061976
  0.04404986 -0.10546797 -0.25383776  0.30704182  0.20387433  0.05564589
  0.04385947  0.21553865  0.02145964  0.06519068 -0.07467134 -0.1933337
  0.2554925  -0.38060525 -0.01121534 -0.2655072 ]
[ 0.2426316   0.09119274  0.32854477 -0.03291348 -0.1494281   0.07111242
 -0.12318178 -0.13261436 -0.37829244  0.17069171  0.24507812 -0.39147806
 -0.03827295  0.24041738  0.27765784 -0.13543202 -0.17207175 -0.07441563
  0.20730253  0.1398661   0.23305811  0.13243932  0.02044113 -0.0232814
 -0.10608758  0.12401087  0.20096669 -0.307668    0.26158267  0.01902908
 -0.24061097  0.09764221 -0.12304549  0.12896682  0.14301185  0.09166923
 -0.06038885 -0.17106208 -0.04132864 -0.01183948]
[-0.09872125  0.21610305 -0.16901928  0.02895953 -0.03115295  0.24865358
  0.1150141   0.02366423 -0.23306899  0.07152033  0.01403815 -0.09214345
  0.0243513  -0.04464841  0.1919445  -0.28697458 -0.21885742  0.10115944
  0.2356636   0.13649192 -0.14159814 -0.06365286 -0.04019286  0.21764567
  0.09359165 -0.34013858  0.09441838  0.08201458 -0.15511812  0.39921224
  0.326977    0.25901762  0.09442985 -0.31221074  0.13758212  0.35441628
  0.06787405  0.22141987 -0.1567968  -0.03535388]
[ 0.10022339 -0.2573965  -0.07465398 -0.01060679  0.0700783  -0.10466392
  0.24670346  0.22897194  0.14622076 -0.14023599 -0.3532917  -0.09633376
 -0.23365729  0.24110158 -0.22489654  0.22277251  0.03471604  0.05185068
 -0.02514961  0.0291382  -0.13598612  0.08224716 -0.06249912  0.01660463
  0.07977247 -0.05940221  0.10101503  0.04809    -0.04320164  0.03852144
  0.38701358 -0.15537804 -0.01900535  0.04368737  0.09543353 -0.07025797
 -0.2863955   0.01554092  0.08297405  0.1019446 ]
[ 0.1857808  -0.06166569  0.30199397 -0.08347104  0.28509966  0.16625199
 -0.13781036  0.33601    -0.05010185  0.0724645  -0.0070737  -0.09443485
  0.15126991 -0.05153216  0.11826864 -0.13534589  0.16423187  0.02927335
  0.23791404 -0.01996545  0.15640785 -0.26835984  0.05352841  0.08029526
 -0.17333087 -0.1424274  -0.09424119  0.39610732  0.2397284  -0.15160735
  0.1623325  -0.23348254 -0.07133777 -0.15357906  0.3086006  -0.4840054
 -0.13843599  0.31432024 -0.20638897 -0.09307378]
[-0.08568759 -0.18369365  0.03504193  0.16734838 -0.19593717  0.03754162
  0.19643995  0.48177955  0.12027869  0.18401842 -0.112636   -0.34963277
  0.02123122  0.07129888  0.4624507  -0.21131667  0.05453099 -0.35283235
  0.19321726 -0.30602428  0.22011442 -0.27763975 -0.07884888  0.0589635
 -0.21526143  0.19449112  0.02281074  0.01075585  0.2350112  -0.01003573
 -0.22568798 -0.07844253 -0.24886477 -0.2553714   0.19676815 -0.18106
  0.19729702  0.111999    0.30115628  0.28194964]
[ 0.2521593  -0.07228427  0.23102625  0.07384919 -0.26855284  0.25253928
  0.07168785  0.0950948   0.06282984  0.14123297  0.03990348 -0.23566128
 -0.06401785  0.15638481  0.2944484   0.04851881 -0.1594931  -0.02610137
 -0.10407922 -0.36480454  0.06208872  0.16701186  0.02026326  0.13503072
 -0.05712524  0.1896969  -0.06882287  0.12473661 -0.0138018  -0.11242197
  0.05509525  0.24561843  0.0694218  -0.25877762 -0.02790428  0.05260683
  0.13705067  0.40457186 -0.03558742  0.01266696]
[ 0.2740266   0.17159776  0.09586263 -0.28973302 -0.21486112 -0.24592024
  0.29717928  0.36932075 -0.07463375  0.20912926  0.2660071  -0.36009756
 -0.04403889  0.16849135  0.50681263  0.15642053 -0.30922943  0.23674734
  0.10504667 -0.38682818  0.10868365  0.23122379 -0.09403132  0.30416146
  0.13366298 -0.0454366   0.12190904 -0.06733909 -0.16473764  0.13617465
 -0.28552648 -0.34985992 -0.03837732 -0.25054982  0.03517463 -0.16354609
 -0.11761431 -0.03582791 -0.03048211  0.35807517]
[ 0.20045432  0.3749332   0.05521982 -0.02210899  0.25801376  0.02309245
  0.01233106  0.16813555  0.18608743  0.17299181  0.09607343 -0.09591533
  0.24475443 -0.19759837 -0.24706534 -0.03616155  0.07397002  0.01550783
 -0.21823637 -0.24069813 -0.23348463  0.08534738  0.03676854  0.17487453
  0.04229386 -0.0534827   0.27146548 -0.0192605   0.14693008  0.44822425
 -0.20351626  0.24605073 -0.05431155  0.1106147   0.24912234 -0.27737743
 -0.18768291  0.05145828 -0.28189406  0.05600172]
[-0.00160366 -0.29001415 -0.05694568  0.26110286 -0.267115   -0.11671787
 -0.3206053  -0.05931176  0.23136953 -0.2467528   0.41038477  0.05278784
 -0.22100018 -0.03892332  0.10051771 -0.10476211  0.12897581 -0.02704191
 -0.24864945  0.11317144  0.00575928  0.11283617  0.10790192  0.2654736
 -0.20259333 -0.662064   -0.08311772  0.11262716  0.21962759 -0.04994773
  0.01565066 -0.1150838  -0.18724594 -0.2563414   0.41682494  0.09786928
  0.2900579   0.15003562 -0.33248708 -0.0395107 ]
[-5.0552492e-04 -2.8892061e-01  2.4355319e-01 -3.6453781e-01
  2.8237355e-01 -1.3989523e-01  7.2393991e-02  3.0336294e-01
 -5.2607572e-01  4.0227976e-01 -3.1396341e-01 -4.1270706e-01
  5.5827882e-02 -7.1387887e-02 -1.4296578e-01 -2.9671046e-01
  1.7129937e-01  7.3015392e-02  1.9866121e-03  8.1931345e-02
  3.8464543e-01 -9.0839043e-03  8.9190334e-02  1.2364895e-01
 -9.3545139e-02  5.3753817e-01 -2.6621029e-01  2.8446415e-01
  1.2898068e-01 -2.1037650e-01  8.3657064e-02  9.6612968e-02
  3.1521437e-01 -1.9857740e-01 -1.9324680e-01  4.1085425e-01
  4.9731534e-02  4.2199391e-01  3.5204968e-01  9.8089948e-02]
[ 0.5753417   0.11899546 -0.7144698   0.20122021 -0.5010062   0.49419442
 -0.69409823  0.4691785  -0.05662553 -0.55678725  0.1526432   0.55722797
  0.09697964 -0.21721265 -0.04389088  0.10856596  0.35558492  0.20858815
 -0.49788782  0.1287831  -0.8501886  -0.2603509   0.2159423  -0.21287167
 -0.06135803 -0.10867102  0.43963996 -0.49888977 -0.71569717  0.09517824
  0.32119712  0.27297923  0.2159738   0.2997897  -0.01408894  0.30085388
 -0.18332475 -0.11276468  0.32144785 -0.4887747 ]
[-0.10700542 -0.1205939  -0.09054104 -0.22236994  0.10670136  0.22571921
  0.05964014 -0.11026831  0.2389865   0.01945736  0.2559601   0.14110665
  0.12841085 -0.14007263  0.26466507  0.09869038 -0.03913859  0.22361398
  0.13340911 -0.23341662 -0.12318048 -0.02296491 -0.00232996 -0.21696027
 -0.01700027 -0.35477784 -0.19238794  0.03284974 -0.06566696 -0.07599507
  0.18211488 -0.12703077 -0.18862924 -0.15576816 -0.24981646 -0.02086075
  0.15926215 -0.28452894 -0.11966555  0.02825889]
[-0.14515822 -0.10290258  0.05703473 -0.35348466  0.0171662  -0.24973623
  0.2081354  -0.23107892  0.18803188  0.30482015  0.03714265  0.06368648
 -0.13697718  0.2505726  -0.32508063  0.03066835  0.06402195  0.25996882
  0.22483052 -0.22424638  0.03948142 -0.07029808 -0.24190259 -0.03809557
 -0.39865673  0.14269882 -0.08249957 -0.00154209 -0.03372363 -0.02409088
  0.15372044  0.28093335  0.01580062 -0.2440207   0.08169925 -0.1311
  0.395381    0.18974598  0.31303972  0.09899115]
[ 0.4194582  -0.1808103   0.14298058  0.04007472 -0.02942176 -0.43309563
  0.07468098  0.50124604  0.01728306  0.19476892  0.2885046  -0.00755573
 -0.31030932 -0.05933752  0.56442314  0.02719856 -0.1068501   0.0142717
 -0.1007759  -0.02997151 -0.39437234  0.35962248 -0.05745192 -0.20412469
  0.02783432 -0.2528422  -0.18999462  0.06280086 -0.4801028  -0.10698091
 -0.16857865 -0.04925809  0.13072504  0.21845938 -0.29378307 -0.2633458
 -0.33879116  0.10595594  0.260776   -0.0998569 ]
[ 0.03276743 -0.04738269  0.04210889 -0.08904494  0.00545863  0.00261533
  0.20364456  0.38884416  0.04019982 -0.0281118   0.03656311 -0.17899847
 -0.01213888  0.14639926  0.05305478 -0.0919266  -0.12683274  0.13629249
  0.04035151 -0.05986307  0.00906607  0.09792559 -0.06604726  0.01465875
 -0.26264888  0.09095328 -0.01458669  0.09322445  0.02635429 -0.07812387
  0.06920581  0.11292797  0.15127902 -0.2288305   0.03900888 -0.08115987
  0.00534324  0.16111687  0.22063044 -0.0146451 ]
layer 3 Activation
tanh
layer 4 Dense
40 20
[ 0.24410641  0.34580156 -0.07942417 -0.3231651   0.2980955   0.17706734
  0.0291472   0.27212706 -0.26127377 -0.19745588 -0.07589806  0.03642017
  0.18656619 -0.01283371 -0.21274522 -0.21145466 -0.0249943  -0.09771302
  0.26828808  0.06437314]
[ 0.15811372  0.16423309 -0.21064968  0.29537967  0.1262113  -0.3059475
 -0.30265304  0.13700877  0.07463353 -0.05921979 -0.12160974  0.20270741
 -0.29601166 -0.03791399  0.2308627  -0.0820438  -0.10670174  0.06354827
  0.0195012   0.01355388]
[-0.0975942   0.3409044  -0.27129006  0.28837523  0.2767139  -0.09876321
  0.05331184 -0.1982036  -0.17406172  0.5615899  -0.26149786  0.18225355
  0.08626255 -0.5121876  -0.27042788  0.01467348 -0.09321534  0.28362697
 -0.35712382  0.04948599]
[ 0.18240614 -0.0597888   0.04677477  0.11407518 -0.11381582 -0.08624585
 -0.16199377 -0.16091155  0.06579225 -0.17365094 -0.03909008  0.15036444
 -0.599685   -0.0034274  -0.00165223  0.02284697  0.15001446 -0.00525589
  0.18841276  0.14732791]
[-0.03894637 -0.030714   -0.12676796  0.01787854 -0.0047806  -0.17436506
 -0.07574197 -0.17108993  0.08901211 -0.08894619 -0.02566903 -0.14827849
 -0.0845151   0.02899788  0.09788803  0.07839556 -0.32467297  0.07945306
 -0.31481308 -0.1026599 ]
[ 0.12293378  0.20276766 -0.2885143  -0.19453505 -0.18328166 -0.28657064
  0.30635053 -0.02928632 -0.2792371  -0.2978951   0.27588475  0.1329341
 -0.18358159  0.28975615  0.03835955  0.22138175 -0.0245553  -0.13644095
  0.23722667  0.41059977]
[ 0.00245848 -0.20551938  0.03569778  0.00546567  0.18919688 -0.07428499
  0.24152932 -0.08831741 -0.19960168  0.39285696  0.06953026 -0.12794659
  0.39065322 -0.30857044  0.08259708  0.06682323 -0.08832833 -0.31968132
 -0.27829534 -0.25122085]
[-0.17513604  0.12342388 -0.21474668  0.0808057  -0.13926898 -0.23273589
 -0.00318678  0.2133719  -0.19837275  0.23969482 -0.18253763 -0.0790579
 -0.02058136 -0.10634791  0.04426315  0.22679119 -0.19488828 -0.30913252
 -0.23069023  0.2348385 ]
[-0.25684223 -0.20227715 -0.18693055  0.35012037  0.19177644 -0.3837565
  0.37997776  0.01467119 -0.16271107 -0.50194055 -0.15434444  0.02999415
 -0.38892773 -0.02489151  0.15804079 -0.05941505  0.00054436 -0.10993883
  0.2772952  -0.1008233 ]
[ 0.0592402   0.02351452 -0.10726277  0.07101528  0.53354096  0.11565293
 -0.15531205  0.06617004 -0.21685384  0.38238987  0.092634    0.08005109
  0.11874794 -0.05435885  0.1172735   0.2870571  -0.29641786 -0.20061392
  0.00212664 -0.02963423]
[-0.2432544  -0.13334358 -0.33417317  0.2341694  -0.04688096 -0.24870951
 -0.2729298   0.36540633 -0.24707305  0.08301324  0.20583744  0.03015249
 -0.11781147 -0.11039302  0.23695965  0.11417311  0.34941238  0.10893975
  0.30766517  0.09247334]
[ 0.31901684 -0.00482464 -0.11379989  0.27071247 -0.21421312 -0.08802032
 -0.12539636  0.26148984  0.0548532  -0.2595276  -0.07888515  0.14362167
 -0.1848998   0.2230563  -0.14988437  0.11211903 -0.15057477  0.19965631
  0.1751734   0.17536806]
[-0.13137582  0.0546024   0.2535981  -0.13356888 -0.16247247 -0.09530188
  0.14325295  0.13255635  0.25131673 -0.08529985 -0.06626396 -0.24825425
 -0.0961381   0.1881728  -0.07281252 -0.20720668  0.02282481  0.29403076
 -0.10097449 -0.09774231]
[-0.33598998 -0.16169879  0.05786288 -0.27905366 -0.2152866   0.12945564
 -0.01087974  0.07453753 -0.09530531  0.12327016  0.2596695  -0.0006446
  0.0553334  -0.4723879  -0.31897393  0.06265634 -0.08614179 -0.10921782
 -0.31004706 -0.09372527]
[-0.24067147  0.16713749  0.18388413 -0.32982484  0.41093457 -0.10132944
 -0.21943837  0.2576607  -0.28532335  0.15449898 -0.23808374  0.06092793
  0.12511328 -0.2746515  -0.21727803 -0.13587233 -0.11479715  0.16679963
  0.2129766   0.38088   ]
[-0.01230436  0.24464676 -0.38026455  0.12929931  0.0935499  -0.21844961
  0.08001186  0.04929679  0.115437    0.11517616  0.12512542  0.10602455
 -0.08102438  0.07111656  0.14480485 -0.08745029  0.20764959  0.10153072
  0.268347    0.28136086]
[-0.15632088 -0.02347641 -0.32221702 -0.16137211 -0.37535647  0.1978563
 -0.10521722 -0.22777325  0.20530297  0.02566199  0.14990452 -0.2585615
 -0.19080307  0.34249693 -0.12526609 -0.05368838  0.03620667  0.24145809
  0.12965062 -0.1182934 ]
[ 0.05798419 -0.18659143 -0.1958621   0.00537367 -0.03701651  0.19006133
 -0.23026508  0.23757285 -0.09832344 -0.292259    0.06914043 -0.04082961
  0.12307624 -0.22907038  0.03598442 -0.15698189  0.02892896 -0.16345537
 -0.24741988 -0.21739165]
[ 0.07018238 -0.20987312  0.12340514 -0.14526568  0.32960314 -0.0901923
  0.05624852 -0.2460418  -0.16419564  0.2945988   0.07276143 -0.29053572
  0.3629913  -0.06816098 -0.07855438  0.10070045 -0.01795727 -0.11990489
 -0.10759184  0.07330037]
[-0.07077806  0.22938322 -0.03556547  0.15207817 -0.32859555  0.02163919
 -0.20746158 -0.17601211  0.33337352  0.00397173 -0.05707539 -0.01710552
  0.24653381  0.05982547  0.19339108 -0.16854759  0.07971381 -0.18524516
 -0.04522472 -0.20486796]
[ 0.10537041 -0.26771015 -0.19030847  0.06331645  0.2631287  -0.09350078
  0.10361785 -0.26647785 -0.1318534   0.27987847  0.11144253  0.01396582
  0.14987066 -0.42091852 -0.06793037 -0.12980975 -0.0791328  -0.03474957
  0.0715361  -0.2861694 ]
[ 0.1849705  -0.32699028  0.08495352 -0.07349839 -0.01231187  0.17405446
 -0.1346882   0.2842988  -0.23479861  0.08199567 -0.06461096 -0.11944605
  0.25733167 -0.32952246  0.3157044   0.0430013   0.28361472 -0.06632315
 -0.29055715 -0.12528078]
[ 0.17845042 -0.13163748  0.00088696  0.18072979 -0.28888923 -0.21692269
  0.01148407  0.1454587   0.07270606  0.02897357  0.19438344  0.19810039
 -0.13184692  0.11422011  0.09513871 -0.04253963 -0.06200307  0.31914133
  0.22781432  0.13755114]
[-0.0837702  -0.02313084 -0.08173122  0.11544773  0.05943879 -0.11096374
  0.12147956  0.13149558 -0.09160071  0.33989915  0.19129002  0.13198268
  0.16597831 -0.17234065  0.11824352  0.2743639  -0.2975784  -0.14003414
  0.11367328 -0.00276621]
[-0.02196902  0.1089735  -0.3944758  -0.02791495 -0.23821875  0.11915009
 -0.20088516 -0.11810859  0.16915469  0.20707771  0.33263814  0.23703413
  0.11269587  0.20506299  0.1382334   0.16724378  0.10852706 -0.00407931
  0.40903288  0.19409518]
[ 0.24870445  0.08922908 -0.13775966 -0.01257782 -0.00489178  0.13072692
 -0.2725294  -0.12198759  0.01677704  0.36291328  0.05537585  0.26356605
  0.12553862  0.1133645   0.08293373 -0.19633141 -0.05347161 -0.3495515
 -0.21372622 -0.36939663]
[ 0.23452866  0.1520672   0.2829373  -0.075909    0.04912953 -0.15868662
 -0.12620236  0.14280112  0.1455874  -0.29433408  0.19604784  0.22753158
 -0.02433672  0.18474486 -0.1136198   0.06322884  0.05189048  0.23024361
 -0.08407324  0.00662493]
[ 0.02458004 -0.12007294  0.13021909  0.3066785   0.12562427 -0.28004748
 -0.070839   -0.22552331 -0.15387733 -0.06814685  0.11851498  0.22683334
 -0.19181499 -0.09680727  0.23237342 -0.3391295  -0.27514815 -0.23880224
 -0.13049859  0.16209318]
[-0.353627   -0.41220602 -0.16309068  0.07117368  0.0473455  -0.10540089
 -0.03310744 -0.3993962   0.02497609  0.17821717 -0.30005443  0.12962395
 -0.02947354 -0.06662676 -0.19282845 -0.05529082 -0.21640936 -0.02506318
  0.03500022 -0.2946493 ]
[ 0.04391337  0.03306325 -0.22552611  0.07641897 -0.02545746  0.07416857
 -0.1912273  -0.04476081  0.11952608 -0.06498514  0.10048035 -0.24084204
 -0.2762601   0.3013737  -0.01256406  0.21393342  0.2662681  -0.02913636
 -0.00763605 -0.04455354]
[ 0.25661796 -0.07937866  0.14409035  0.11402426 -0.15427749 -0.18328473
 -0.05694713  0.26298052  0.14796764 -0.13270448 -0.06900513  0.27989215
  0.10469206 -0.17783661  0.1570937  -0.10095136 -0.069606    0.05985414
 -0.10268     0.11950573]
[ 0.27473316 -0.2845914   0.25715214  0.1365715  -0.17014174 -0.23009193
  0.1464731   0.15354308  0.16889222  0.19281276  0.01226144 -0.30953327
  0.20821251 -0.05851376 -0.12671268  0.22986615  0.17704648 -0.14642659
 -0.16402459 -0.263091  ]
[ 0.19484553  0.25099957  0.3322661  -0.13825262 -0.06947607 -0.16004184
  0.18163162 -0.02987943  0.06371956 -0.22630933  0.11085706 -0.01449421
  0.03655989  0.02018575  0.05262784  0.07365333 -0.32288426 -0.26256093
 -0.32433     0.08045981]
[ 0.42470002  0.39164305 -0.17100175  0.10972332 -0.01689911  0.3227189
  0.20592338 -0.16461374  0.18491802  0.0270913   0.21476425 -0.07512125
  0.07640944  0.38092378  0.22455253 -0.10298926  0.09613808  0.20716785
  0.35403517 -0.00877324]
[-0.40748867  0.0772973  -0.17307538 -0.1382663  -0.16238339 -0.2754147
 -0.10709062 -0.23498206  0.01388388 -0.39458445  0.07127053 -0.21088889
 -0.07081254  0.09456345 -0.08366266  0.13024104  0.01360065  0.3476496
 -0.01617028  0.02374552]
[ 0.25885835 -0.34212798  0.35494635 -0.22077474 -0.24125475  0.23786816
  0.06050532  0.17330094  0.21896023  0.19560264 -0.17396174  0.18727593
  0.10403536  0.1756664  -0.01096623 -0.2642246   0.20566992 -0.3152797
  0.15644942 -0.26462248]
[-0.27871716 -0.21840286  0.12597662  0.17634712  0.06026567  0.05797915
 -0.30151334 -0.0914272   0.22242875 -0.19945805 -0.07383222 -0.29858488
  0.15865281 -0.17660129 -0.24454726 -0.03359127 -0.23266381 -0.09617137
  0.036707   -0.43089184]
[-1.86449364e-01 -3.91116180e-02  4.60691273e-01 -1.54924020e-01
 -1.42017692e-01 -5.24273515e-02  1.79002464e-01  2.75942143e-02
  3.97963857e-04 -1.17727555e-01  1.02674045e-01  9.15972739e-02
  5.09704888e-01 -1.94172218e-01 -1.11726008e-01  3.67039372e-03
  1.58351362e-01 -3.28748316e-01 -4.83046591e-01  2.81444609e-01]
[ 0.11449948 -0.18256663 -0.24516183 -0.37988764  0.09802771 -0.2069707
  0.21145427 -0.09696745 -0.04841838  0.26269212 -0.00708942  0.08080929
  0.34119153 -0.22785614  0.09968397  0.0942636   0.1929313  -0.2812419
  0.03295869  0.15135917]
[-0.0868138   0.29113773 -0.13726439  0.07737606 -0.06965101  0.2666534
  0.15456645  0.05324475 -0.1996678   0.34449062  0.01893047  0.05658799
  0.0644613  -0.04113087  0.07306994  0.2668294   0.08230202 -0.01564495
 -0.2640287  -0.10102229]
[-0.09952194 -0.04720933 -0.0128179  -0.02471448 -0.05488288 -0.11725646
  0.00599678  0.02514856 -0.14702901 -0.09570667 -0.0260545   0.01434606
 -0.09416242 -0.19265036  0.02337057  0.01167551  0.04187991 -0.04438258
 -0.09949104  0.04674138]
layer 5 Activation
tanh
layer 6 Dense
20 1
[-0.05211103]
[0.08267613]
[-0.04634465]
[-0.06243435]
[-0.07789373]
[-0.13689518]
[0.00836066]
[0.10440054]
[-0.17349675]
[-0.08385384]
[0.01160965]
[0.01261826]
[0.00467597]
[-0.00260719]
[-0.00662657]
[-0.01021772]
[0.04155529]
[0.01762134]
[0.13373041]
[-0.05950632]
[0.10275386]
