layers 7
layer 0 Dense
20 20
[ -0.3688851242976644 -0.7690435558998971 -0.5585313734954667 0.06575899147662974 0.5268840979051197 -0.15803432862216923 0.4290611290583497 -0.13731274417230613 0.45655368022898507 0.27202964568587784 -0.04810223965804482 0.1593529445572114 -0.2999292178007792 -0.03260935454937379 -0.7698872265106524 0.035959525767124564 0.0715565835652439 0.03912986972313815 0.12556205762362582 -0.44200269579207124 ]
[ -0.09381585210482082 0.1464310968872041 0.09543330892951125 -0.029962594451418703 0.15785379338086533 0.3586258378465888 0.13438295934245315 0.33910756589353847 -0.2417191482655223 0.29140374833419963 -0.25763172705082216 0.14634562104004925 -0.11933536867784453 0.04531337997287701 -0.0045606807925571355 0.05069871905141361 0.1917148481138347 -0.3817523976770259 0.21018418264300634 -0.14867310082138294 ]
[ -0.034622317902327955 -0.08578761405905924 0.34897526678756197 0.00488912243925052 -0.0004663534774291838 0.34358649867524815 -0.19897736272656158 -0.22370228673641882 0.3365176102899869 -0.10821214372090138 -0.20515273411691481 -0.13690285560904608 -0.1931208212104438 -0.07010084835183744 0.001246885977534964 0.21931123035551262 -0.08989816236189714 0.2836635553950386 -0.0037339486097924986 0.33461103433470685 ]
[ 0.09180218880792143 0.047732361937834825 -0.27718050485163004 -0.34767565404932077 0.5327057882976391 -0.6295008150088146 -0.18644570637515445 -0.2346112921105329 -0.12448207390618302 0.03931518954178592 0.22836042809384496 0.3442865245147928 0.06765534296386029 0.1453502892913179 0.1259439362149154 0.31737959504140834 -0.24881725288396175 0.08545719337219759 0.6083839523545735 -0.14800494269626296 ]
[ -0.4251144553414949 -0.7284355313057006 0.17322240918248097 0.24392543057988497 0.7057080602752065 0.5135332151839568 -0.10144399350965812 0.04994935761413276 -0.42927526167918106 -0.023454799368645238 0.005292706812768926 0.2613272965325429 0.6262882102916009 0.03957562854214109 0.11829327550639485 0.3799920833725943 -0.13934535226479974 0.22602164245666448 -0.9580027766416518 -0.328006852876833 ]
[ -0.040371936587032316 0.10928826223332862 0.3498101753095478 -0.22789997913402898 0.035642457313952575 -0.20683135914166884 0.18216729608610405 -0.011366003432977114 -0.2507818364874963 0.2659194623220545 0.03706585677803032 -0.3767846167185301 -0.37663036033946684 -0.22840721387624818 0.12284933976212055 -0.07976401674598317 -0.28534610081568706 0.12513710159043526 0.0018286604610254246 0.043559068601336445 ]
[ -0.2955572931337533 -0.26436520464676905 -0.3780216442008586 0.03718941430156403 -0.17196792915557188 0.0878836549590265 -0.012881539639185835 -0.2176035987396568 -0.3008071351332332 0.06575938525840352 0.253151445179826 0.16659385249418135 -0.2876149581778636 0.29756825056737723 -0.15000628964704804 -0.2328219942231501 -0.18470069903408307 0.27455982749401087 0.29686386387059993 -0.3522288410036193 ]
[ 0.3043025169848998 -0.1084441677720757 -0.1914094114459438 -0.14991015585816678 -0.3814630409613241 0.009639174664766636 0.025104430037175884 0.11440744866456262 -0.05352309916062139 0.22120520282824951 -0.29526474315563606 -0.2280115049121363 -0.12424993810787595 0.1640323834328371 -0.29504629469964166 -0.15077793565650532 -0.04060538974649947 -0.1352093847536073 -0.10971965660048397 -0.06629691640220861 ]
[ -0.2474733699474381 -0.5921632594977074 0.3984544010433359 -0.058747764456443266 0.5581338398716883 0.7253841035081261 0.04755176981011826 -0.04938827000485876 -0.7625706751637753 0.43244471913299454 -0.07775343860035118 -0.07255920932183317 -0.49116974692759874 -0.22744198113766406 0.04622373241204396 -0.34611809492997225 0.3278813110162096 0.4801306509109333 -0.702234549785376 -0.005389515979617737 ]
[ 0.03394019839963657 0.36010468699966014 -0.7506108393819295 -0.16527621125606276 0.17299675527378233 -1.0062482038554525 0.8611618017333766 1.2660833992275906 -0.5688303015257722 -0.2692135672440402 0.4183201797376222 -0.3332355256440159 0.40305010222830717 -0.14754136894703482 -0.037046163045583475 -0.40087959209153173 0.353882869126371 -0.10684080971415731 -0.34889023945127545 0.10314054306845645 ]
[ 0.19376797018640404 -0.15445445940769806 -0.30718104083606484 0.7748523362338556 -0.14730917166991767 -0.0810201833441885 0.11038801293392039 0.34072500773166253 -0.4749929127053328 0.24879200977866653 -0.561242337202768 0.0694975601751678 0.04033294587817748 -0.5733018606198046 -0.2020347055978176 0.37353011015209264 -0.577618497927963 0.2382034928382746 1.0142892636874183 0.44001674538384905 ]
[ -0.30569368187190166 -0.09501533804419587 -0.3336879878074183 1.270225880869075 -0.8954512260042629 -0.18053684198230457 -0.8968012696275767 0.9347334000412887 0.49207666045273607 -0.33511959519559187 0.050950566948024544 0.17954139485695902 0.5899172026951062 1.2381074692490845 0.10129354026104322 -0.8761725847706096 -0.7748543983919769 -0.4101028212649109 0.5117572925507221 -0.8157469681801981 ]
[ -0.19369878991150322 -0.6488813123990685 -0.12852310548830498 -0.44375213666820484 0.37136770541128394 0.06732992141445177 0.3851626763155362 -0.18673458864647205 0.046297818479433095 -0.2488266157486794 -0.348150902299046 -0.0372760326463487 0.038563202903088574 -0.4779718431039866 -0.5681457709809308 0.047623549051724834 -0.021771075646863633 0.3231535886394685 -0.12344866789963344 0.10869428536887532 ]
[ 0.04954325948595296 -0.6887836457348472 -0.24425095671962269 0.14909537244072357 -0.3092781972936941 0.19928526105256444 0.5016005227404835 0.4105775444913685 0.04459442463745983 -0.7508505245671735 0.42448369659909224 0.35698943236183245 -0.6474392952530024 -0.4495359829521034 0.06035518957401183 -0.08969662032249576 0.7040876619565862 -0.48438026170538767 -0.38523990853002005 -0.3803154031069917 ]
[ 0.2073334320758357 0.3541285642044151 0.1341244442124739 0.4955089899813838 0.19000113162319435 -0.4215465206640626 -0.28000883804469956 -0.010973692181037166 0.0685886196576373 -0.4076620291827313 -0.9371040297821518 0.07946137499219656 0.346788481688371 -0.32065946706887055 0.19651005575788852 0.3944930135836195 -0.22456003792541376 -0.29793743158794334 -0.09022749747217856 -0.3467264652128536 ]
[ 0.8553742040673565 -0.08500848301986312 -1.1134943055153286 0.6631220816106802 -0.7783878130142631 -1.0547690046892126 -0.6703022855306046 0.24261311123325324 1.3808476599329487 -0.45638905244979805 0.7078139515878137 -0.8001088814256132 0.12144790213183138 1.0043401192503407 -0.38343100768368177 0.32553221477544636 -1.0012390594756972 -0.5664399453949093 0.37010473475094935 -0.31100125297330794 ]
[ 0.2275147962070357 -1.4092692735668932 -0.5389394952511817 0.44270593987597434 0.33746714286325175 0.5666542171756463 -0.17516316325967807 -0.09658438737736773 1.3135029132028893 -0.18984268543248986 0.3752812941420234 0.8202921877452466 0.25986747955681366 0.7600370055101326 -1.7910127647717782 0.4899962842186171 -0.4296304246590069 -0.9966947428406079 -0.7950355316967179 -0.44569721657492417 ]
[ 0.2949135778695285 0.2974453572240609 1.0994205971899382 -0.08830369954861753 0.18144300920794645 1.7588934144796535 -1.8421658974522699 -1.155146354737846 0.2152420495455667 1.2952951452463357 -0.9093028134195196 -0.2532628222673498 0.8230733250662821 1.1346912901474135 0.4288336495659717 0.20217972232253778 -1.584786633695365 1.298117229734982 0.3845565178876211 0.5346692389677046 ]
[ 0.3371874842249981 0.26022660673923825 -0.5613528961668669 -1.6159423429020148 -0.3363863196176857 0.7210211398948422 0.2593306842812229 0.20586352061257604 0.7702696855669109 1.5494264504132125 1.8547702222410456 -0.7046912461803025 -1.0715498292816017 1.1944978125701455 -0.48118199094067926 -0.4695441332125663 0.8876548405164222 0.8484221527049398 -0.9671939954622059 -0.5348558200372053 ]
[ -0.06568695685386332 -0.3729399319244534 -0.13574865523479174 -0.5019366974312786 0.6378196722046846 0.3850916497985605 0.5416973214741789 -0.4785253360938629 -0.24144591935506116 0.6213442043173367 -0.45006980014947495 0.09963545929238783 -0.9490508974074577 -0.7037357743713492 0.02379814410546666 0.3726238835173487 0.530611254116142 0.08812403211243917 -0.1142967555355154 0.5287013832199301 ]
[ 0.05539602139366847 0.14644443837003346 0.13025430585870265 -0.12368282261458079 0.1119634957904137 -0.20428625216223936 0.10556047386818343 -0.1681557146802331 -0.05536701800687283 0.00711357950174557 0.0015793385963936125 -0.1195835713241985 0.07381271736165677 -0.0024919620781117405 0.32705002210419826 0.10692295801638944 -0.11327831041250151 -0.02686459437175148 0.3136494970217941 0.10969706773886727 ]
layer 1 Activation
tanh
layer 2 Dense
20 40
[ -0.19033776329762017 0.32317276063660083 -0.0022595799842574584 0.0313015044839088 0.34153112149394543 0.10282336189839215 -0.17151950557806728 0.08143450646485051 -0.31154908677482424 -0.05282231793407337 0.17092739070140003 -0.013722330055991227 0.10423647154032085 -0.15717194077150667 -0.09332465279017445 -0.23523289758357116 0.04901277199453271 0.11581579339702697 -0.03373613810705548 0.07206016053536611 0.2405924200022417 0.020556698872321803 -0.17267024149116333 0.4128459023995209 -0.07082269280284574 0.2965406041667633 0.16615909423111125 0.4585414424301259 0.2686625927242534 -0.3069301175300791 0.0481721608228835 -0.011431724927756062 0.02301031683428372 0.19598906321383036 0.03266091349133367 -0.42989803795043063 -0.08948687256579342 -0.061703420560349255 0.004726011034416332 -0.10605445128891818 ]
[ -0.21789964678019974 -0.5021081286549547 0.02295331683850968 -0.09444842208421811 -1.0142496278128805 -0.4404778635543437 -0.09040579690285541 0.008723352976146053 -0.3345954438034526 0.23507117318460394 -0.06615507637092705 -0.15347975568934838 -0.15756504874929098 0.32604395283853993 0.33513088165825505 0.2847126603794885 0.20186642802821486 0.23807573569397117 0.12648332688959207 0.16230699668721355 0.13395206553480635 0.09669363972395435 0.40113074468582677 0.22919430844085564 -0.20854340236375926 0.6219130106283421 -0.01576667639633285 -0.08487888184311172 -0.6677033582953555 -0.48614538851457667 -0.12701052197749566 0.3412997273846902 -0.0016418347498784003 -0.039761626945573766 -0.45278284072513725 0.18772464859897267 1.0214473176517287 -0.2424739898971759 -0.48789036466403796 0.24845825422520693 ]
[ 0.03205519093968506 -0.1324972656995102 0.5311886009853078 0.08877765445083173 -0.5433006876427149 -0.20058090831735964 0.24500970652979476 0.1318348391648139 0.036526466364927755 -0.2730114818769267 0.23464812886578557 -0.1445537604818349 -0.02383692544585367 -0.18698025620653602 -0.14004932528890848 0.1991017089564562 -0.34430243100071106 -0.29073634497948314 -0.1881754712407926 -0.06261833066683599 -0.06598529264007143 0.24877501818263886 0.0785926613820004 -0.7760233052795219 0.28798244332888095 -0.033847552982046 -0.14695213467645243 -0.3553293341105671 0.0980737140819753 -0.18472889770143094 -0.11678533291738187 0.3661867523816666 -0.1779820933679624 -1.0755251637362122 -0.023993993920559755 -0.35928757154460744 0.5930089119621152 0.23707523766135857 -0.4458116586928234 0.06350180216063678 ]
[ 0.07250758935414468 -0.06642899270876225 0.10687996229008197 0.24590495944816942 -0.021932910698098884 -0.1515537901953426 -0.3184224671988387 -0.28920113950171816 0.08204073965304468 -0.48940874577753524 0.6320597617695328 0.12812151145494077 0.09999701786106036 0.23276966779342537 0.07544452550684914 -0.06750330129085087 -0.23835183178378197 -0.12915716231060156 -0.08049964605167038 0.1295080279032341 0.9280245560774376 0.9271226442194972 0.4282458060071166 -0.9380851822504725 0.4146016871186287 0.20661382703215717 0.2747944705315373 0.7408124531984708 -0.022397644110227995 0.6537622015446413 0.1621862342869831 0.3775275667896462 -0.2659845253434542 0.20201899495676992 -0.170260964651139 -0.015418384908236153 0.7173691563204276 0.22455181331333993 -0.012928211216291043 -0.02274383131005529 ]
[ 0.6708713432357571 -0.4364632186602379 0.5296724114549489 -0.05985794004314466 0.1790970285231125 0.35530705699220955 -0.09770565454281835 -0.26456434987001276 0.8535940466165512 -0.7325287414101648 -0.25340618514031404 -0.03144402105232126 -0.5728463956220565 -0.6921956413718214 -0.40095352995512906 -0.47691954150658117 0.06683309302776884 -0.9742349648131249 0.2953831031924893 0.019906305971223358 0.046637255380365936 0.2514481549696409 -1.0525810522784698 -0.4791156907865417 -0.04441607432650062 -0.6824409075760675 0.2556921252708906 -0.9600229745488758 0.32089743979298707 0.09677397488258165 0.1729477432985273 -0.5456771922592887 0.16131662720827716 -0.3066308360894919 0.19631721511548736 -0.09544647669241228 -1.0073417918967174 0.22440416366299454 0.3158344786142196 0.18089273447990448 ]
[ -0.21148784905626664 0.06995218300991006 0.15153010437475642 -0.24789606249605492 0.4529922251739745 -0.6873109408956665 0.768284627801675 0.045091628347246594 0.16661831159166365 -0.19984475335776647 -0.2072572961206104 -0.018865185866923706 0.02574210071916725 -0.17523598564649587 0.08934234411412184 0.0492384864759756 0.5645320096165213 0.5381887670906863 0.17813007285303514 0.16703776459740977 -0.6741660305541458 0.1410931290071337 -0.5572318602350225 -0.23589853860792673 -0.39691302918386584 -0.5991445868983429 -0.05254290413853826 0.27474484599605214 0.5543193360916115 -0.16979765222684642 -0.002333706545412533 0.2295550321943846 -0.20229425615298802 -0.2235051757753829 -0.3341372543761759 0.0642243470436177 -0.15779388389007706 0.16693293439638363 -0.7449553708758943 0.04362212560166574 ]
[ 0.47134963194554036 -0.22733604119385667 -0.30700415796543723 0.12795736132944113 0.3623952066895094 0.43446915462521213 -0.08326230718878294 -0.24465057500236265 0.1066018773372081 0.5403720395416315 -0.02782640909485165 -0.13971382829256285 -0.4804202977236341 0.6629553391929582 0.11752879280234589 -0.10092986292132508 -0.379348065668067 -1.4589408121484544 -0.041416163127387225 -0.15585162662828225 0.16332339029075205 0.26245103120445723 0.2850826744767637 0.6128664713362396 -0.13246402275234298 0.15555822357958873 0.11306058009294144 0.018397191404161475 -0.13534480106762692 -0.10565061353147209 -0.31151352070599814 -0.025933503371872835 0.09654506433842656 0.3580037808224787 0.3256985575285982 -0.09184632500390412 -0.16319205464316647 -0.22685260265169582 0.6529469817423963 0.17128614266544856 ]
[ 0.5217981696781637 -0.12136738804332002 0.47719048318938273 0.4159376133193591 -0.24486730681650296 -0.15384755732366692 0.07874614908421948 0.2860525433301105 -0.15338182197868006 -0.12038930667453084 -0.017359922987374585 -0.10234520268108352 0.775256070632971 0.4663220926846166 0.2631580207666832 -0.15710651187679348 -0.1631098872744292 0.045463352626500864 0.28696300536508457 0.26578155196377184 0.49633936546856433 -0.5002909209513151 0.4318296858253942 0.5126856580485348 0.14952457614013498 -0.015296236644947262 -0.15489916947583862 0.3601844483001754 -0.12437038655538533 0.2682134628580962 0.13446300092880034 -0.33883920346346486 0.18214387881221322 0.5503732166712287 -0.2186277948755617 -0.1405107676735117 0.5438988065215044 -0.1359830861302532 0.3953369045937241 -0.10547817599943808 ]
[ -0.4644006386760585 0.3844749128112306 -0.3654301274265427 0.44174272554147453 0.26599630033891963 0.5830657520799342 0.84122746472429 0.10063882461657549 0.5073871608238072 -0.5293785538638254 0.026723974902946854 -0.03544411768347988 -0.011835284735431313 -0.5037631584837653 -0.5167679120010027 -0.2306218822949211 0.290235224383884 0.7384749244300504 0.2033904679542709 0.09326113831547686 -0.491708645932384 0.4886110036339006 0.06477103567235362 0.5931951048367815 -0.12002143585139176 -0.6493979039056689 0.2604525188248024 1.0255006949386167 -0.46069931838722933 0.17837044547475506 -0.04942875362532349 0.19834170602679194 0.017175571867217538 0.35966119410905606 0.37499126858120596 -0.02232486302248665 -0.1580741165674496 -0.0008077952986950414 -0.25696374769951863 0.04059686217937171 ]
[ 0.002195021178167258 0.04944613236538572 0.10514911665553411 -0.0598383440751239 0.3023684852809856 -0.021491020900610662 0.3354133244530387 0.011290281574383556 -0.04961296380701107 0.8340787084410083 -0.13701874008084997 0.21173398102867835 -0.7520981960993236 -0.02155945315669111 -0.06685037597631749 -0.043764521989890365 -0.05537648017742391 0.14200305152532955 -0.17616887791500013 0.16155880834854983 -0.7360021377349574 -0.8259163846511506 -0.4962560457790207 -0.003222556775596656 0.09290169947162194 -0.07809255086488716 0.28318773762853183 -0.07933738605988887 0.6498914980858458 -0.0073483572551696855 -0.12122961701714076 -0.3452436711875238 -0.2544313987689582 -0.25437376727831446 -0.528501114117884 -0.1770829127268572 -0.7396175194587458 -0.021137605984069486 0.22183303160546913 -0.3887707077051796 ]
[ -0.6598972700462958 -0.4615996190154429 -0.5737713943660143 0.28262985934313406 0.22985849938935216 -0.5023270629891256 -0.01736325290350947 0.2251706942765827 0.0445631286895013 -0.07314310538049204 -0.328073468250632 0.18776412920536587 0.12231819792382706 0.8540048506619391 -0.06396848254564869 -0.3799912234306882 -0.38216203826585193 0.2979748242423778 -0.1750084485630348 0.05860452613572191 -0.17198206915274775 0.3489618078326526 0.5394203836631801 -0.16941963985293204 -0.305817222872142 0.1027306620752452 0.33529218648742687 0.7655656431680672 -1.291320858394297 0.5038754947279229 0.2497430272122713 -0.4115062213769081 0.5945656294514096 0.8864053346423125 0.17993224927235524 0.2288058253006162 0.33941251630916164 -0.7652811380035373 -0.2963175797979228 0.15561904110897706 ]
[ -0.10470210110407699 -0.10132921679295509 -0.03927771561797603 -0.00727169787515806 -0.27315153986360374 0.3541858817665186 0.061979392058482526 -0.2128534952262567 -0.12568856028942574 -0.3105973497220098 -0.2824702491371466 -0.030284997012600387 -0.5224042300762197 -0.2761494922487891 -0.05036004718199078 0.056909755770599105 -0.3107003369663523 -0.3097830318263617 -0.11775138606886203 0.022071419398253737 0.07847493852606952 0.18246248588711086 -0.18148043920979623 -0.7180868737464853 -0.09617514452071467 -0.002041787592762046 0.2144897578517632 0.03912580597787019 0.013692442762989745 0.2533120960065082 -0.26370554959591147 0.11286265817805578 -0.019402698809720356 0.05062962522942021 0.04404050972211222 -0.14549428381870466 0.2786872562023709 0.31594840111573186 0.20266635240019426 -0.1311315099697816 ]
[ 0.6194784585742131 0.41036497557468493 -0.01921674119896965 -0.2539111111202283 0.030967508517027318 0.08706942353146883 -0.8554351247554619 0.31917142594947295 0.4433440628563131 -0.7039160480232879 -0.1156042967107019 -0.1604312971098453 0.6442086359250706 0.2913966728889952 -0.2928269673022952 0.11406869096759734 -0.06031679939161558 -0.1695946222173573 0.010038110190815694 -0.0687941235168949 0.575738189845262 0.3635894018190504 -0.3339007285868045 0.4410297675248815 -0.49560752108693407 -0.21208826960990312 0.16510482671828966 -0.23339941458922453 0.28132326645821853 0.5482018118663247 -0.03266422218715621 -0.39987065691544094 -0.36916227447121625 0.11376534599408168 -0.06038925307584735 -0.1299800093178639 -0.5250493943082498 -0.26731414993662567 -0.10934246150692671 0.01075131706956051 ]
[ -0.5711732632756582 0.07248406236154198 0.31945555409210064 0.24450654972311975 0.3278391764652502 -0.3763979898660747 -0.4675879854347969 0.14515881750234685 0.2505178353632353 -0.3176708416208477 0.2648336010522203 -0.2201367483718601 0.8569629367845901 0.5010302601810855 -0.4759291981287286 -0.22726302951079436 0.46289484618568777 1.2922829308287223 0.18896025495357885 -0.041955803649462615 -0.2990284291939796 -0.10799119110618256 0.17097820631116856 0.22197893067344276 -0.056523045093634 -0.4055749714688826 -0.26140559568447225 0.6747617940449517 0.03568808638599713 0.07279983259660068 -0.159254918733784 -0.21548040330833923 -0.42193955837510455 0.5827771144832282 -0.03570153089301814 -0.3996112471370588 0.12358455975212823 0.4540489738514507 -0.6119058309616662 0.23109379605199815 ]
[ -0.22257781288033576 0.12744724208287544 -0.20635288244821606 -0.24921802910804516 -0.987433945682771 -0.26196605776271453 0.0644190711100001 -0.08194611256020484 -0.3315795257604181 0.06310648098361503 -0.0037471920631869868 0.20306018746441096 -0.1845663242369255 -0.15760197240214882 0.08721910741005102 -0.1142666171210707 0.10946173333700487 -0.18717127821265064 0.14038474270244594 0.052803537631798986 0.1316698474168646 -0.4703667444230667 0.23703848795048613 -0.08439693466014532 -0.2743516810944538 0.40280616595300733 -0.06407291692566382 -0.7823123696886747 -0.32809532974587746 -0.33901147598915543 0.2802471525992919 0.1454263650244736 -0.3711110544802155 -0.7062975720882915 0.021596154835571642 0.11740792191294813 0.6206001600520552 0.07885412718911008 -0.6583362174939128 -0.10169671259391934 ]
[ -0.18600709401738108 -0.2940991534737866 0.18356644788816917 -0.1688159037905975 -0.14464617015567555 0.23517355841539217 0.0016322240910985213 0.0872256684013403 0.31390730586514615 -0.4226798594913867 0.23624539380201595 -0.18685473071843783 -0.7770810175302836 -0.34008560414282446 -0.16632863900870018 0.054656943047908635 0.08394729483373983 -0.28991682311448536 0.225673189814578 -0.017733933112279464 0.1672334296206247 0.3916778165719073 -0.21468514227368546 -0.3470367671556032 -0.3161073912859725 -0.2753112679014972 -0.36336321650473247 0.21685777438694298 -0.024178156278615477 -0.04360900106573213 0.3632449848131195 0.3318932297486812 0.2221147046647256 0.0927899809898375 0.01192674254131169 0.156627585710341 -0.17707936011826356 -0.0939760928574336 0.040296923660235705 0.14561817680805017 ]
[ -0.004921312116043084 -0.4256649941672157 -0.6851544851288188 0.7352304952829326 -0.61557932275332 0.5254813640741741 1.154031273257869 0.28663562218075345 -0.3252303678235791 1.5366989633904362 -0.48881255136710444 -0.2850322734317329 -0.2634560010349674 0.034724951260184905 0.33360155539405656 -0.40966503028121765 -0.38199208133030077 -0.3935997338272926 0.3481744839536161 0.10178739344291916 -0.30109422146718773 0.6401832994712003 0.564250283277357 0.1693093314068604 -0.4068195391209932 0.7294962577885005 -0.2870673780487409 0.03518075902873955 -0.9706791348305176 -0.18057497991140542 0.005739205225567583 -0.7377798276735313 0.521239890585345 0.3005638864262119 -0.22937827017111204 -0.1041286202975531 0.6072621592491834 0.3309886718863538 0.4037262927438207 0.0266372140751176 ]
[ -0.23502663883288705 -0.26412009964210365 0.38227762543779426 -0.14563949967853337 0.14948975818075602 -0.7789616361802876 -0.024926405651009176 0.34831908026360275 0.21593768489375642 0.38550048491408795 -0.2917464931887425 -0.17745240164863096 -0.1949717115865823 0.5906438473728604 -0.19408927454253402 0.15623441560115206 -0.07828022719929846 0.419032562170983 -0.38868962081434366 -0.12828054477746162 -0.6680137683381843 -1.2299824074265298 -0.5410738574774996 -0.18838827887247525 0.05738929511659667 0.21329988661514998 0.20359451589832187 -0.5153981177110226 -0.1512104375891225 -0.11325884793621752 0.1699546584100521 0.29359097975874543 -0.2892802370675407 -0.3677392693767117 -0.46679016550071 0.2054511862259449 -0.5654579317590708 -0.13802483420301404 0.05961811410620746 0.13626513898587864 ]
[ -0.2788911787158481 0.24970056069658347 0.673919618292355 -0.06809223862978478 -0.2267443312028124 -0.6209069615206237 -0.939159669475977 0.001407660966689745 0.1318481870259433 0.0806941070808184 -0.02598540225154261 -0.17585016897085545 -0.9759237591661213 0.35684472922538246 0.26943794247117003 -0.06183138018590796 0.026519080565655793 0.20153984784155377 -0.08484996190577515 -0.020225917547325396 0.4867029088546192 -0.10075562271854897 0.09661867625671901 -0.8130425862184107 0.06775614944645444 0.001847218846624679 -0.16513451585979966 -0.15883707879380296 0.4322474084501578 -0.048445271341598775 -0.11908771475885453 1.0580737868831294 -0.43379694073022307 -0.12760872570970674 -0.2324128058412481 -0.4087702768744432 -0.28005018898967876 -0.20508118428051125 0.23135255292090967 0.18179460616131007 ]
[ -0.0539725864333452 -0.073404388916362 0.019125129153259094 -0.1786783653407018 0.2989422648926964 -0.1679211346245404 -0.3659227584565564 0.1384990660171855 -0.2753263098112815 0.17881421288545646 -0.11529912696029411 -0.07432326703721988 -0.383130345450697 -0.12537964140888097 0.23608662185974094 0.0626907773885576 0.17197146922711407 0.061210029454027724 0.08546680499800921 -0.011939831862137845 -0.15706508397633298 -0.38315982203062454 -0.2200581887054431 -0.4704471850833525 -0.3609079085440583 0.34312570789925495 0.07596656780105894 0.17016739781792908 0.307691889442068 -0.27606276596618873 -0.06502654030998227 0.48474575866556857 -0.12850414746141064 0.016369357676336436 -0.1278977567571733 0.19131671547792342 -0.2226784972947092 -0.08276437614405825 -0.159912716900218 0.19586862429793517 ]
[ 0.21600394742033915 0.09851009995731631 0.01897311007862101 0.012150930563234172 -0.2880477519860692 0.18801865387499492 -0.09122151822372143 -0.02961803380235015 -0.027066088889370888 -0.33780662164360337 -0.13411746696840135 0.020623485784236877 -0.2875113399526896 -0.061113463142481124 0.06159487750479832 -0.1418832728472626 -0.06003946190313054 -0.1815891041914896 -0.1705291934010819 -0.03185027843296951 -0.09161422379918774 -0.03618154136038566 0.0017834999768003234 -0.10618375524602398 0.005007451345607631 -0.1290114530641076 0.20624660903665817 -0.3850264817065714 -0.256606558448052 0.07027275543046504 -0.15491600667894498 0.16665225651197854 0.21080360400239015 -0.10389321870998569 -0.2702707084597322 0.24400776345986772 0.14119087889413287 0.031791508769981 0.2224019147055469 -0.31611985585188107 ]
layer 3 Activation
tanh
layer 4 Dense
40 20
[ 0.16219171927091972 0.3875501138693802 -0.2706150920899056 -0.4018890698273528 -0.10228512270180672 0.08724887223451559 0.44982842255690214 0.002818123341780413 0.42281623399152346 -0.24642082783548963 -0.11003241038985928 0.09346538558773053 -0.33965529508009834 -0.802261197448456 -0.4259894048491712 -0.5050101569393239 0.11593548749699617 0.2532494827654059 -0.7523614321517916 0.2442185902913862 ]
[ -0.16415135155719462 -0.12178788056069352 0.3935157729446783 0.1333894492797523 -0.0003756815349303164 -0.09602211375380573 -0.2513264472733715 0.10612283259139739 -0.07345035698736403 0.2411828907505868 -0.1480740543055269 0.08638723133529808 -0.07677769198190947 0.1694725268122634 0.15994544060913835 -0.07892865358500087 0.03430942381956552 -0.18729209491011603 -0.26078893366099054 0.32242537336408705 ]
[ 0.37583726967947484 0.0836830476918126 -0.38950486078117114 -0.010398950572825362 0.3492375145347743 0.037316470269880386 -0.30811899047415797 -0.13792308265497377 0.02309575537413668 0.3939993291673692 -0.26681798529852374 0.2921143178438109 -0.12434554805530985 0.08987757649175608 0.2123600107795899 -0.25808287950798553 -0.4375135537318228 0.18987821282366582 -0.16130872530651622 0.41949084501197664 ]
[ 0.02269787140694628 0.11720320545009852 0.04059328962330517 0.38921481788758394 -0.25731708452014945 -0.036206357137954365 0.1410765683539699 0.03856957965349896 0.2896864275063395 0.1520180783738857 0.2806802788346007 -0.353175180594429 -0.04620382389607282 -0.07621242275556725 0.006491995501920604 0.1744466134896697 0.31460449456789136 -0.20460224118346215 0.04335222423912296 -0.09304928814530945 ]
[ -0.15751945306742332 0.5771320701174525 -0.272546467851279 0.034878959733249525 -0.3072242674014191 0.09307544321567943 -0.5401531206481345 -0.01530432880934743 0.050744084413425795 0.3709064633688467 0.12018822137469064 0.2481550018722006 -0.21995818791022193 0.2388315170576166 0.27105768369706046 -0.04603837905163827 -0.0777539672593285 0.3999956865868454 -0.27290246462830914 -0.07125665066022928 ]
[ -0.46704947901678173 0.3082707279481186 0.45411451207964965 0.2431301226789582 -0.29488789063964566 0.5797952634033768 -0.22172914734493954 0.2780163016447662 0.21404848877781849 -0.2009365865174328 0.3169044840862491 0.2631414526723532 -0.24766439466033474 -0.38664210540517124 -0.29220207341604343 0.3703504755088413 0.645022263516745 0.33908477117598135 -0.6481038522725009 0.0601380675923395 ]
[ -0.9271855591495952 0.09020323099412743 0.39115184982183 0.26274396898655694 -0.5504783596176427 0.2623674560237814 -0.08400630557186448 -0.35809771032312326 -0.047481348075263316 -0.03022921628170014 0.4115922543647795 -0.5708693242879957 0.549780301879896 0.4203533175881131 -0.4598197087466873 0.3737222332783893 0.3784071652973813 0.5061661600079809 -0.5295595129766671 0.34277917996264823 ]
[ 0.01336537089670387 -0.14309090691896553 -0.2127438148783838 -0.06683896251170736 -0.1603424903716226 -0.18037266877701918 0.05820568944882524 -0.010647678612188148 -0.003422307473446561 0.04930235633763463 0.4611461967728554 -0.05231671188476167 0.04320993697101093 0.4501207015339649 0.13343292014965677 0.28620939893262304 -0.005605076174390631 -0.11248250824736991 0.42107630254725154 0.23276988273005808 ]
[ 0.3481654194785768 -0.07987241139439345 0.1716856617622231 0.1754267026280463 -0.09207293771849004 -0.1535369126917891 -0.11035523239812292 0.14931984723602865 -0.03200436556297626 -0.08086806034921963 -0.13044611929755684 0.044474992945843055 -0.1228358452332666 -0.07218052354748594 0.11450232223589236 0.4461168371597561 0.2204097352167094 0.18548528556281713 0.24928687294015286 0.25740791764383164 ]
[ -0.8373440409251987 -0.2820308347253529 -0.22976878487854002 -0.38440851950332394 -0.4106518487053982 0.1851319579216147 0.08067881955714404 -0.3607303962084961 0.18079089075538302 -0.20558728006880844 0.10690357031345675 -0.32921025502553175 0.4215323444907456 0.08005634881191309 -0.2546225262306895 -0.37095308656185755 -0.091153038673142 0.3867856755280705 -0.1980308556911279 -0.019331490217136343 ]
[ -0.096533578967997 0.030137751739605218 0.04219313718659932 0.11827193240362921 0.39221195812820286 0.03181230095653501 -0.33379410243348984 0.12894680852113172 0.2520328065159814 0.29820591363329063 0.05974883239897295 0.37681182678075664 0.08607114798442422 -0.4451430422309825 0.1353036896911937 0.1858057750592293 0.18912284956966247 -0.37411065408059 0.2269078424747787 -0.06757620419951947 ]
[ -0.0676267372315972 0.019644001810486283 0.00709824849939448 -0.11051773385108676 -0.005217947658803263 0.20429094145177853 0.07116378665492233 0.061621049144213305 -0.12173687555488234 -0.10410758509672693 0.0808109308687387 -0.009774331609346187 0.0011906923210312074 -0.08111437044738148 -0.1401099659659166 0.020565506518669275 -0.081981021476825 0.12553530409841449 -0.1753097031022865 0.06321512520627814 ]
[ 0.6132669006204663 -0.12684250993941404 0.09695823282514007 0.4539030990552286 0.31301320005523264 -0.06008995276458211 0.39381995078355625 -0.04808578781844617 -0.3796739092262104 -0.18383422881631012 0.36210653602619797 0.040403138628977806 0.17786128221364306 -0.08671521341000173 0.4265133997697573 0.5846015970944625 -0.5775403305669501 -0.7970475652524406 0.868689931648983 0.3713221897768746 ]
[ 0.17988885615312653 -0.028451334842111785 -0.5370197618824234 -0.3398655510357872 -0.04566900724528694 -0.1204989305636825 -0.10041865055290003 0.5816192252910193 -0.1977559358172345 -0.059487789317867634 0.169324414658429 -0.08911375823110924 0.10420766677992564 -0.038890938719584954 0.12136205741595413 0.42877550665221525 -0.07088611073164922 -0.755934860550666 0.4208242285305913 -0.27923729823288634 ]
[ -0.1505944844676766 -0.32678185030851353 -0.08744677668436623 -0.2974306871881394 -0.015277312867716782 -0.15856790393623502 -0.3094951696372233 -0.0016147994135192654 0.09155928535352008 -0.026761808494635452 -0.24898434979806305 -0.09027624826564434 0.08953016796872584 -0.08893841729878837 0.14134723078835987 -0.462105492956761 -0.1218259643605657 -0.07398881737404607 -0.10690295274528025 -0.14848431313479504 ]
[ -0.24811365241304167 0.03802673264762675 -0.21074929263520106 -0.14828084971271938 0.19166131638302997 -0.10666068931295976 -0.389217001592425 -0.09338089920412551 -0.03103108338205072 0.073693989230268 -0.3334822049513 0.20121067019028488 0.1398842222746477 -0.12832383230346073 -0.0551581087878937 0.022482924432498094 -0.1121938243960025 -0.12899348078838857 0.14221978783582526 -0.18759652825618758 ]
[ -0.3348844966939925 -0.019132051055824127 0.15864682440252875 0.19309328402800657 0.16171461708300988 -0.4156658280549577 -0.06104188762199985 -0.2370870619882724 -0.03587875832743308 0.09299428428579491 -0.1925524123089769 -0.16023092484346638 -0.026848069969550376 0.3545965511372481 0.131253850829004 0.12122262663457377 -0.19744532141408944 0.08909423804071706 0.03876726624832067 0.23079716352716229 ]
[ -0.22089817435743653 0.3596986949561562 0.10987856733376611 0.45462843992432833 0.03529170518240411 -0.1976471066140001 -0.3628820345503586 -0.5574877085659338 -0.4626481955593242 0.1239573945375462 0.09466801463073639 -0.11646340525916854 0.4209200729512509 1.2714447733251586 0.3114973729526165 0.46437374540848825 -0.016395409878241687 -0.18624532535570065 0.2544737937098044 0.7783247667332787 ]
[ -0.232562578573645 -0.08525252946771004 -0.00796717479148488 0.12806718286958232 0.18004949694079453 -0.006805975051024148 -0.13031785320466804 -0.1369040666928576 0.08457755945159959 0.09709576114626507 0.19625213238827052 -0.12457442310335716 0.08297026911756072 -0.3334891708886366 0.082839826246066 0.15471396105493582 0.24493774714583175 0.05231491558841689 -0.1600728861960139 0.2295789882257859 ]
[ -0.19140808670959678 -0.07185204989827788 0.08939334447307265 0.10776431275908052 -0.07166493904392587 -0.1182652799340165 0.05356766761825022 0.03296212585857172 0.00853005963522624 -0.20627935649060303 0.17465402500373214 0.01168727297168415 0.14120136663860788 -0.09084572722886469 -0.01895998192151814 0.0164192422317504 0.12330559342116476 0.25949965306436523 0.25045416459320013 0.21816984761267813 ]
[ 0.6935168497786879 -0.25205837913304563 -0.34690492337501766 -0.016456656388691277 0.5430571618546002 0.3088081447403728 0.11334635022303291 0.48584083894093333 0.5011436732856843 -0.2188074227010881 0.19584894267752692 -0.24937594552411566 0.144417527078075 -0.5870404241210205 0.1768275916101276 0.0797973057878134 -0.05510177066824578 -0.6213720615377993 0.3205881000533398 -0.3606221386113366 ]
[ 0.28706116711578017 -0.3495797471055535 0.2308049194774805 0.4292965626962355 0.12611479543297371 0.20161028392899974 0.3115709398858695 0.1796706856395729 0.3334994041693785 -0.01941897947236329 -0.2368954495271822 -0.28547131351810995 0.21590616046378697 -0.46447342814455334 0.2146433654372731 0.17144482848865056 -0.1881733709288973 -0.2171991085353715 0.5181395181978045 -0.26959458393057106 ]
[ -0.3496059080810856 -0.25836968117813913 -0.3729903256056496 -0.09744379777356299 -0.26619545380584825 0.16814765401034829 0.3425451306661328 0.12148513179761394 0.2654479355899768 -0.28335754589456236 -0.028980825355589875 -0.14904859997296033 0.37172110132633285 -0.03706888333579735 -0.5145026897218469 0.14559100123365157 0.5356156107360504 -0.22493712471058933 -0.023004499861368367 -0.2738454187833932 ]
[ -0.291869266721094 0.37088708644562085 0.17432369934438105 -0.27389454702500127 0.3989147963835763 -0.1666983515540947 -0.22879337128640687 -0.28051404457540513 -0.020179827662069046 -0.04114927789471582 0.2623262505401635 0.23821144989394968 -0.01478773578974803 0.42588405659312706 -0.15800621130966058 -0.09312064319866765 0.499712193108692 0.5536594723840894 -0.591057667141293 0.13540638171733876 ]
[ -0.118083667732835 0.022746149628782762 -0.05696177503840138 -0.07429432469275896 0.38385856572313337 0.24139549156454948 -0.23737082019769656 0.21729764390691464 0.04180548365339661 -0.27251937913975893 -0.3525631210213152 0.1641152771165715 -0.15870433287710212 -0.48959349250979317 -0.035471356039519716 -0.022454794908278668 0.06963138776893536 -0.07386581564718232 0.2532893649491546 0.117206730772896 ]
[ 0.11732635650250062 -0.2182146762777045 -0.4871249463706324 -0.358040315493424 0.1731265713358294 -0.20148208046765065 0.27674920394888514 0.07691603385887492 0.23763251189323203 0.00922158903218893 -0.02969036002092533 -0.3050680222071394 0.143589195782481 -0.15438346327820085 -0.2959896411134286 -0.2027453159006032 0.016715748719113688 0.013130729349251496 0.008447829278355006 -0.199286112563221 ]
[ 0.18810750172800042 0.18051426508431437 0.03162569381243172 0.10350083710487755 -0.10257401372942239 0.23147283120488904 0.25456355720622664 0.1025553457668239 -0.08997396707783885 0.3191621057061132 -0.17369993269292727 0.02993760243498957 -0.08187437723602123 0.06699439955008706 -0.13332309812966645 7.017428601966078e-05 0.06946149661323918 -0.03621212012652248 0.11441216922293551 0.020806926134371063 ]
[ -0.19270652046227008 0.21816253834149624 -0.1884111746287425 0.08213799999209698 -0.006375843144003666 0.09524451443747721 -0.14975868368713752 0.15205301485662304 -0.054889809770996056 0.1367074531478389 0.5083177516684717 -0.3773798073376366 0.40509246922133035 -0.010050002295181082 -0.012093935185521548 0.28393870857943077 -0.4964672307153172 -0.587260876800483 0.6084118929620215 -0.2501527962037184 ]
[ 0.4733624413419781 0.5931641025860445 -0.06284490977378292 -0.5020481039166306 0.31726192360366173 0.2715513028820218 -0.44480807351842233 -0.3236844040438471 0.3200429006242111 -0.146847150244485 -0.22572089303788512 0.4879846573991402 0.1714695933459954 0.2922504671532914 0.10453620272869381 -0.08716772116122798 -0.523072963455235 0.08506714674623292 -0.36397092271436493 0.4712571661134736 ]
[ 0.3051112888872519 -0.034661849401458465 -0.10070881768415181 0.2967487790330087 0.050858851785508606 0.02194372776425298 0.19735816448880947 0.1419082427813578 -0.24537113460114138 -0.2295240221861369 0.10833587163577196 -0.13370087031789055 0.12680944484745754 -0.18049861524600197 0.020885883887979604 0.39910838392335973 -0.35603816057834 -0.6668563379531968 0.44440827588406184 -0.11332090757094981 ]
[ -0.10573255063196275 -0.06945037532401137 -0.07284056547245306 0.09601205973222854 0.013409995286750262 -0.27472108931976036 -0.06903385112915225 -0.053583115545358245 -0.020494204380700713 -0.27995840650428433 0.0755232893788006 -0.1109210213711379 -0.07903530792547692 -0.00961125161408599 -0.061374865002807644 0.007732938682998871 0.06879090397215322 -0.1946307669773287 -0.38084725190280316 0.16645819803812553 ]
[ 0.21031297464175355 -0.0968131534616982 -0.4274246737768299 0.6184441208228042 0.11425399549636316 -0.024659894697851337 -0.36926316590129543 0.010832166445197118 -0.10255916391161064 0.09322994257847823 -0.901928756079537 0.08599491149089478 -0.16283825834881896 -0.19399740658070777 0.15149532064794002 -0.6412305668549252 -0.2165706141945782 -0.4483293904464824 0.5344538316802666 -0.19057005292966858 ]
[ -0.13207128410503377 -0.1764593303450763 0.055472106971339454 -0.09877074291716939 -0.1280313286350376 0.10827519516836664 0.28673924590086725 0.0731023588905162 0.032616375382346255 0.16118465866915244 0.2839148844788777 -0.23329068057108626 -0.15416362310991139 -0.24664750020411616 0.0500787310781468 0.2747473701583488 0.4090983368336654 -0.0174401101143565 -0.1951033194638958 -0.04468883451229995 ]
[ -0.11389281297283799 0.17202606341003981 -0.0026554373136535615 0.09504256391034059 -0.29701864349362733 -0.09509861803178318 0.6140978202498406 0.1246987186517364 -0.38928164898723217 -0.2526369099102381 0.2656327912312509 -0.5001919023470375 0.30821488842210926 0.1245454143776344 0.3363671240500194 0.03691219910338484 0.19532583733258407 -0.6271606941459938 0.4523661371411337 -0.39377234004837103 ]
[ -0.20685983107879577 0.09997315209658286 0.1771901719455293 0.14766372312599205 0.17974163086206904 0.16328187639524308 0.05397702456555661 0.14192097104294424 0.22168874825751492 0.26562964248371607 0.3041674325497624 0.11347292158592115 0.11316439922594006 -0.29410754236940895 0.04770310014801344 0.24785947758970794 0.2268267659783973 0.24525341728824532 -0.1896317431255535 0.17801518575253442 ]
[ 0.08308121600011725 -0.03027232167362592 -0.09632406451785377 -0.0542206303851196 0.04697694177598902 0.10836217867968286 0.013095381308480114 -0.09714672049490952 -0.16449471431193907 -0.10896044471981167 -0.49279908742906336 -0.19574677070201954 -0.2643551544628972 0.2992181616030391 -0.11368955940808216 -0.13612649839733318 0.27345548784558404 0.05836924380541796 0.1601417026234349 -0.19706968740079342 ]
[ 0.15532578435709277 -0.665776170775311 0.03508502440998536 -0.10359294745446399 0.30734228749517356 0.15038136134447708 0.5974145030121916 -0.0988451236573578 0.2705810248665223 -0.17016187550465284 0.021601213870262048 -0.16805492967917668 0.5516029374478051 -0.2023384100053747 -0.4975442633687412 -0.07627316622331384 0.4219260763275663 -0.11900473825298934 0.4193647515689607 -0.6928697770793854 ]
[ -0.43686624805122765 0.10782654600463572 0.28832302463412873 0.42061387403146744 0.4343720186704458 0.26950682600434966 -0.3036328744066399 -0.2326251171885926 0.1949368402535724 0.19664592657837338 -0.31783425597144194 0.004968593795785433 0.1587238748267682 -0.021387539117535076 0.025288412085867962 0.10312134828995762 -0.463275954590622 0.13513438348611514 0.10573340183785372 0.3043854195440174 ]
[ -0.23859856792616718 0.12496487306189076 -0.024262561329980177 -0.36092606621494877 -0.38599230786796274 0.5003078627180684 -0.25225020175966845 0.3695378345698625 0.7227239484071813 0.04116127745836498 0.11398465662706421 0.5400201347366729 -0.2968377842797193 -0.14484037072327854 -0.03515748423217445 -0.595690008615753 0.16469381405927191 0.24856828038997136 -0.47931520351994683 -0.07131633159417294 ]
[ 0.13452335085358522 0.07348455807027303 -0.06174323936246898 -0.00994974649372872 0.18950348345715778 0.04043396860784399 -0.14023768333241482 -0.03897241930374405 0.05525898592542953 -0.014544458434109439 0.29323749231236024 0.008394493815438803 0.1274372575538205 0.231041985329985 0.03566005166440242 0.09050438650542618 -0.116953212881058 -0.021398459074919163 -0.07765435040199316 0.002755330692069395 ]
[ 0.11732247425794617 0.10473150507030994 0.35435853762133906 -0.09309563650361902 -0.23003274425492984 0.3138006820439679 0.19456754590450007 0.05151074041167378 0.09483789512395857 0.030256318653729665 -0.26138889549806904 -0.015594876906310673 -0.41341086996206333 0.13444579394054648 -0.01647143942831777 -0.1592000254724201 0.08562586019059412 -0.7722633702599383 0.8604303069511859 0.045997942926290225 ]
layer 5 Activation
tanh
layer 6 Dense
20 1
[ 0.10369108082159804 ]
[ -0.17573607004331648 ]
[ -0.23670724585273595 ]
[ 0.19337494170014824 ]
[ 0.20097107239595563 ]
[ -0.04741891500597732 ]
[ 0.15730630458272957 ]
[ 0.3567995768779757 ]
[ -0.3623794062021635 ]
[ -0.022122157985492115 ]
[ -0.04422744053166684 ]
[ -0.20182906720856103 ]
[ 0.19064240059356596 ]
[ -0.08892120030883895 ]
[ 0.3454054734946325 ]
[ 0.17366647600882 ]
[ -0.16471715837665687 ]
[ 0.1256456208204208 ]
[ -0.11266467093174888 ]
[ -0.15008176053270106 ]
[ 0.07345629607753648 ]
