layers 7
layer 0 Dense
20 20
[ 0.22406197  0.07979024 -0.16981903  0.69288903 -0.08014064  0.21906167
 -0.3407143  -0.40917137  0.37999138 -0.08219084  0.22203663  0.45360568
 -0.18708624  0.30289388 -0.04650756  0.15573397 -0.2678347  -0.2979947
  0.15831554  1.0429604 ]
[ 0.29147115  0.24347794 -0.07744294  0.274901    0.1292844   0.25786364
  0.33014566  0.50812805 -0.04933704 -0.04273684  0.344734   -0.05378532
  0.52345335  0.2139007  -0.01542299 -0.10898048 -0.25348595  0.27755305
  0.10712326 -0.29893643]
[ 0.28490922  0.6473524  -0.3473013   0.92056    -0.04617172 -0.44260356
 -0.22378594 -0.09107595 -0.03815378 -0.15211734  0.06301196  0.11812995
 -0.1832249   0.31140184 -0.344064   -0.37690055  0.24384682  0.26349849
 -0.16561915 -0.73123276]
[ 0.0723677  -0.17709365  0.297824    0.42393744  0.23128536 -0.31839508
 -0.2757034   0.14813606 -0.32472765 -0.17915738 -0.20631978  0.0146838
 -0.18854858 -0.06590199 -0.27033758 -0.18488875  0.17486322 -0.33327997
  0.2383841   0.49149972]
[ 0.09354104  0.11001144  0.28166375 -0.00536275 -0.05717138  0.00916749
 -0.28362006  0.07864688  0.14160518 -0.2346815  -0.28528133  0.01625075
 -0.24742031 -0.3808792  -0.16302755 -0.24125598  0.4153167  -0.3583337
 -0.06314819  0.22642209]
[-0.25445595 -0.52024776 -0.09351549 -0.22577088  0.37870872 -0.08586918
  0.29292053 -0.13112874  0.4087073   0.15398075 -0.6378375  -0.14722879
 -0.47027814 -0.14546342  0.24024609 -0.00670398  0.09432934 -0.28300816
  0.12458465  0.33758792]
[-0.25933087 -0.66098785 -0.3740833  -0.2673051  -0.13201578 -0.2345359
 -0.33932808 -0.19231299  0.09952006  0.11901981 -0.16697435  0.22879755
  0.16591875  0.10900114  0.06672049  0.5208813   0.42312202  0.2686728
 -0.4384908   0.54362154]
[-0.00485441 -0.07308012  0.28805652 -0.8192339  -0.28502676 -0.19231659
  0.32008997  0.25964478  0.26510754  0.04010737  0.05096246 -0.1480634
 -0.39315683  0.40143797  0.44325635  0.10782355  0.01843442  0.04486208
  0.16994122 -0.2446708 ]
[-0.1491904   0.03818224  0.31016836  0.01554046 -0.5793653   0.00120251
 -0.38424203 -0.39532968 -0.50985664 -0.03970486  0.0689491   0.46882394
 -0.09512638  0.23566522  0.55527973 -0.01318202 -0.42376494  0.16188014
  0.350888   -0.16589779]
[ 0.7126059  -0.5399689   0.6606112  -0.32886034 -0.3499248   0.37188295
 -0.30187237  0.34383956  0.9177902  -0.33223554  0.14479971 -0.19706148
 -0.26676834 -0.67525446 -0.02654974  0.44812804  0.38248438  0.72293717
 -0.66061264 -0.2720379 ]
[ 0.26392522  0.17104006  0.6522852   0.36567375  0.4184998   0.49479243
 -0.0798189  -0.78905815  0.17011012 -0.5764206   0.20892794 -0.7774902
  0.4725669  -0.33622062  0.56651306 -0.40965036 -0.05633446  0.06747378
  0.76573956  0.12548344]
[-0.22763072  0.47519672  0.42416644 -0.08915763 -0.14962353 -0.11787777
  0.5602718   0.0647999   0.21456495  0.05346181 -0.27867773  0.82001704
  0.24023716  0.06281307  0.60562706  0.1643731  -0.08312832 -0.4185556
 -0.2896681   0.36986706]
[-0.38002762  0.04724919  0.24550547 -0.09224026  0.03677642 -0.3276718
 -0.04568268 -0.43025127  0.15876046 -0.3805146   0.33132946 -0.33151272
 -0.43492493  0.40707225 -0.14544925 -0.24758388  0.2187923  -0.31153086
 -0.368075    0.307122  ]
[-0.9939662   1.1240841  -0.3639296  -0.46578172 -0.24116829 -0.08368761
 -0.6481925   0.40836358 -0.93429583  0.11989106 -0.1788664  -0.37122422
  0.20168877  0.46690693 -0.76043445 -1.039425    0.30526832  0.18652935
  0.23753531  0.15357998]
[ 0.2892554  -0.40580073 -0.34691545  0.01562156 -0.9603163  -0.5072424
 -0.02478272  0.12809761 -1.1191523   0.6343946  -0.16203366  0.45337078
 -0.42725086 -0.02363027 -0.43945     0.83141595  0.34066543  0.07994068
 -0.3045909   0.24401438]
[-0.00260556 -0.44309583 -0.15247062  0.2947627  -0.13431515  0.27120236
  0.15323168 -0.14790277 -0.00351682 -0.3523967  -0.16046418 -0.7125232
 -0.94447446 -0.12641379  0.42588013 -0.08212432 -0.04016954 -0.2849188
 -0.269      -0.6696499 ]
[-0.26368788 -0.08146195 -0.1747868  -0.47223797  0.3477608   0.34068808
  0.15435012  0.08044743  0.30677336  0.4395364  -0.20056225  0.00184194
 -0.6051562  -0.1543534  -0.06770949  0.40815997  0.23947653  0.10343328
 -0.02570182  0.9387626 ]
[-0.05991991 -0.5740392  -0.38104847  0.07055382 -0.11088865  0.24441774
  0.29812303  0.16738398  0.08301555  0.00128707  0.27455866  0.15182322
 -0.27477002 -0.3757621   0.45410264 -0.20395641  0.19325382 -0.17914668
  0.31096482  0.09605409]
[-0.3815067  -0.11074449 -0.21529222 -0.38218987 -0.15820679 -0.29894298
 -0.02289477 -0.1791179   0.47332418  0.2096161   0.03942356  0.18674816
  0.06222313 -0.04564442  0.36637032 -0.3256077  -0.18406856 -0.15085605
 -0.23125292  0.23103921]
[ 0.01715818  0.31959507 -0.17764744 -0.22848894  0.19500948 -0.10883898
 -0.31446242  0.09062367 -0.27741322 -0.22956012  0.22250998 -0.27448168
  0.34382233 -0.22045983  0.7221009  -0.04812023  0.32847556  0.09822796
 -0.43935373  0.3093783 ]
[-0.05247048 -0.03131487 -0.03449538  0.24459946  0.05686294  0.02372077
 -0.03257291 -0.05086527 -0.02125828 -0.03370435  0.10827594  0.07132631
  0.10224661 -0.01830016 -0.21441323  0.05714417  0.04249042 -0.01707024
  0.06009628  0.04001899]
layer 1 Activation
tanh
layer 2 Dense
20 40
[ 0.30605248  0.11968385  0.3568288  -0.18391451  0.31398946  0.25232008
 -0.31106782  0.00099981  0.06109044  0.08001173 -0.4072345  -0.20207202
  0.08016162  0.31484658 -0.05517482 -0.25878865  0.00308468  0.32124376
  0.19633226  0.16866057 -0.07991054 -0.10511693  0.35580117  0.09559731
 -0.16801377 -0.35791343  0.00619979  0.20834632  0.031782   -0.05584743
  0.02746256  0.5399831  -0.10092534  0.27087924  0.2854046  -0.01904213
  0.07688382 -0.22919188  0.35882127 -0.2708893 ]
[ 0.1434493   0.13807805 -0.3609116   0.20501016 -0.2999117  -0.16591139
  0.46114835 -0.22648248 -0.24367797  0.02276373  0.46809664  0.4258225
 -0.4021158  -0.02898392 -1.0043483   0.43404445  0.0357745   0.2315165
  0.2649665  -0.46135765  0.17581336 -0.01911443 -0.10803254  0.01661931
 -0.4401764  -0.09200195  0.16746901  0.07469849 -0.0040033  -0.08479465
  0.1909681  -0.3545067  -0.08769808 -0.16499424 -0.11832021  0.35277808
 -0.36788675 -0.4069022   0.15470256  0.15810332]
[-0.07530052 -0.24658436  0.02301042 -0.47274962  0.22671717  0.4561771
 -0.48627222 -0.0222034  -0.18719444 -0.08951159 -0.15386698 -0.19771545
  0.06262117  0.65905166 -0.13709693 -0.14921673 -0.39101484  0.08086319
  0.04761937 -0.01744576 -0.07197356 -0.05872704 -0.26085016 -0.00533038
 -0.6554182  -0.4043992  -0.4059838  -0.06168943  0.01926402  0.30780616
 -0.3903048   0.26608056 -0.06743716  0.40240267  0.5945277  -0.21443418
  0.24097499 -0.04572737 -0.256282    0.29699862]
[-0.3871431  -0.19995104  0.17206581 -0.27071774  0.05018496 -0.03858905
  0.28112063  0.16627453 -0.0173409  -0.09241597 -0.17093205 -0.8939825
 -0.28394488  0.47130632  0.15832454 -0.19889727 -0.13275783  0.15041679
 -0.07386822  0.5542577  -0.218052   -0.00814374  0.00980826 -0.57233083
 -0.5264579   0.21707064 -0.2560037  -0.5701336  -0.22485515  0.1282978
 -0.5345861  -0.284296    0.26716146  0.2841093  -0.35654816  0.30999777
 -0.21160084 -0.1938315  -0.40518194 -0.05646246]
[-1.45716414e-01  2.13033348e-01 -4.30807471e-02  1.47032499e-01
 -8.14852864e-02 -2.42407277e-01 -3.31067115e-01 -1.16438821e-01
 -3.79460484e-01  5.37095845e-01 -1.54003054e-01 -3.01138490e-01
 -3.38873029e-01  1.04973435e-01 -2.25138739e-01  3.46912861e-01
 -8.78897071e-01 -4.77540232e-02  5.38112037e-03  7.91297033e-02
 -5.51173873e-02  4.12484944e-01 -2.59803794e-02 -8.61070585e-05
 -3.81526202e-01 -9.49469656e-02 -3.40774536e-01 -3.68026309e-02
 -7.14359522e-01 -1.80741310e-01  9.83880609e-02  2.93418437e-01
  3.68384987e-01 -2.55404949e-01  4.79193747e-01 -4.37958360e-01
 -3.67974520e-01 -2.54203826e-01 -6.39935881e-02 -2.01014569e-03]
[ 4.0977517e-01  8.6579174e-02  1.3096727e-01  7.5706979e-05
 -1.5432500e-02 -3.2369393e-01 -6.2820649e-01  1.9636478e-01
 -6.0209185e-02  3.1242394e-01 -2.4771403e-01 -6.6418715e-02
 -3.6554387e-01  5.4926887e-02  1.9098084e-01  2.2425830e-01
 -5.3637898e-01  6.7220950e-01  4.4573504e-03  1.7680304e-01
 -3.9513692e-01  3.3251652e-01 -2.1287009e-01 -1.7276242e-01
 -2.0661633e-01 -1.7815928e-01  2.7014175e-01 -5.4229014e-02
 -6.2821794e-01  2.0002508e-01 -4.1783708e-01  3.1900987e-01
 -1.7510673e-01  2.5477362e-01  5.3792578e-01 -2.9683766e-01
 -4.7856128e-01 -1.2523930e-02 -3.8364682e-02 -3.3476248e-02]
[ 0.29159597  0.23236151  0.37926048  0.18034951 -0.12983428 -0.4316201
 -0.15592565 -0.11925364 -0.04180307  0.05367334 -0.25390428  0.22472179
  0.31098172 -0.45589557  0.4427147  -0.09018629 -0.31569967 -0.05446235
 -0.09253015  0.09852988  0.40494987 -0.19433959 -0.03607027  0.04906731
  0.16606498  0.01647442 -0.09658945  0.13220453 -0.25962     0.02327963
  0.14017612  0.07101994 -0.30711493 -0.53373766 -0.04421638 -0.14854379
  0.02534812  0.03365046 -0.116947    0.25390545]
[-3.3217634e-04 -2.9105294e-01 -1.7651752e-02  1.5867624e-01
  5.2812004e-01  2.2962640e-01  2.6929623e-01  6.2422805e-02
 -1.5266940e-02 -1.1472175e-01 -2.5250480e-01  3.1357896e-01
  3.4707063e-01 -1.7886734e-01  1.6200288e-01 -4.2603549e-02
  5.7456773e-02 -7.4802615e-02 -9.3534961e-02  1.3191898e-01
  1.6580240e-01 -2.2590593e-02 -2.2921074e-02 -2.7235404e-01
  1.3864459e-01 -2.0223910e-01  1.3057739e-01 -1.7464009e-01
  2.5623906e-01 -4.1469634e-02  2.5514549e-01  4.9851742e-02
 -4.0154848e-02 -2.8741699e-02 -7.8933410e-02  1.6915161e-02
 -4.4426922e-02 -2.5697151e-01  2.4827582e-01 -2.0044951e-01]
[ 0.1700626  -0.609034    0.43177736 -0.11214343 -0.7408754   0.25587922
 -0.5394291  -0.02469887 -0.5123257  -0.12229486  0.07296374  0.66036844
  0.37185273  0.522298    0.14704414 -0.3025828  -0.1188122  -0.13478246
 -0.322931    0.26833582 -0.37282547  0.13728558  0.06763247 -0.10309944
  0.40331206 -0.335756   -0.5228402   0.09145356 -0.32228035  0.22955076
 -0.24191706  0.3521149   0.17344181  0.52621555  0.63656795 -0.36666265
 -0.24327964  0.4015626  -0.44989163  0.05281311]
[-0.2501732   0.18436408  0.09974608  0.07669547  0.32040003 -0.23533821
  0.37413645 -0.23770225  0.15790364 -0.4806254   0.01636972  0.31732717
  0.28571972  0.0629715  -0.0223354  -0.20878002  0.2609886  -0.06655576
  0.35465345  0.10730734  0.09804619 -0.42107192 -0.40716752  0.14244092
  0.108234   -0.04696936 -0.0416863  -0.1442747  -0.06792789 -0.34089276
  0.48990187  0.11069779 -0.07307351 -0.06260072 -0.16320395  0.02554722
  0.28476644  0.4558136   0.11268827 -0.04292019]
[ 0.29885587  0.13812315  0.06135205 -0.16127281 -0.23547149 -0.18884003
 -0.23483814  0.10037166  0.03478151  0.3584394  -0.16103959 -0.10070772
 -0.099313   -0.305912    0.2376032  -0.23421264 -0.03348617 -0.02568834
 -0.1796324  -0.2419058   0.27035457  0.32484135 -0.00741656 -0.08505304
 -0.12163904 -0.31063038 -0.06200812 -0.20687743  0.13777949 -0.09439129
  0.01430408  0.04412871 -0.01567991 -0.13022934  0.20873281 -0.2745257
 -0.02254968  0.1267796  -0.4189496   0.19282874]
[-0.72797674  0.25288445  0.16885461  0.50852567 -0.1838548   0.11016235
  0.7526878   0.16345388 -0.01634582 -0.31222618 -0.28708756 -0.01264822
  0.17123185 -0.30109307  0.49251866  0.2642472   0.125365   -0.07277045
 -0.17647652 -0.2996738   0.4631445   0.02891943 -0.18403898  0.12668845
  0.49981898  0.3736629  -0.17281815  0.12939475  0.17696436 -0.3683301
  0.32986623  0.2135496  -0.24650936 -0.52232385  0.03883593 -0.0100197
 -0.07533478 -0.10351162  0.31309253  0.091937  ]
[-0.27093506  0.16427025  0.03857556 -0.07551052  0.02545209  0.09059859
  0.33070567  0.13913205 -0.285117    0.23745035  0.4495285   0.32902095
  0.25536144  0.008592   -0.5023489   0.11190143 -0.6951574   0.06255829
 -0.23853211 -0.17243186 -0.02973196  0.38633403  0.06501037 -0.27523643
 -0.11847402 -0.2072163  -0.11795895 -0.28894156 -0.04819581 -0.45440015
  0.11562254 -0.19098262  0.1038762  -0.07192307  0.28476104 -0.16720659
 -0.41748822 -0.4385692  -0.19176555 -0.18363133]
[ 0.21881469  0.13436852  0.03390254  0.11448104 -0.14152683 -0.43308038
  0.14983408 -0.13906308  0.04450084 -0.4238826   0.6022536   0.01197023
 -0.1040284   0.17539161 -0.41663623 -0.06389362  0.55160624 -0.16023923
 -0.00918847 -0.30766743  0.15787788  0.0232838  -0.26998025  0.2747077
  0.00708533  0.10276827  0.37315977 -0.03588498  0.59328467 -0.35643718
 -0.08168819 -0.20557009 -0.19562103 -0.04223676 -0.5169169  -0.16503789
  0.01890102  0.0835408   0.30152547  0.33019683]
[ 0.00455128  0.05657828  0.22626518  0.08648241 -0.11952046 -0.34774682
 -0.5231733  -0.08291316 -0.5203291   0.09763648 -0.04261732  0.46938074
  0.08053249  0.2770913   0.2371659  -0.42859128 -0.0503354   0.21920297
  0.12459148  0.12207945 -0.28009385 -0.20549423 -0.0207092  -0.00794454
  0.06799254 -0.34305546  0.08104279  0.07161734  0.24746008  0.4225918
 -0.23666902 -0.05125711  0.2122761  -0.21757133 -0.10808413 -0.33696535
 -0.36715654  0.5688419  -0.5130023  -0.2232184 ]
[-0.43383536  0.12153667  0.09861042  0.15899007  0.37865084  0.0863165
  0.09790961  0.34801114  0.5149027  -0.06847843 -0.66408336  0.23609288
  0.18125942 -0.06909646  0.6343976  -0.6027141   0.1856772  -0.08248149
 -0.01251496  0.33851132 -0.24927452 -0.0111159   0.1509876  -0.09842908
 -0.20642176  0.08054823  0.04345272  0.03130208  0.22799073  0.24557924
  0.53851366  0.5962052  -0.23244725  0.63750356  0.3387353   0.18462485
  0.08877055  0.3621567   0.5157077   0.08414145]
[ 0.06024184 -0.12637563 -0.24289438  0.0297085   0.2170289  -0.08803816
 -0.4609294  -0.18977815  0.5600191   0.12307954 -0.3359243   0.08000267
 -0.07787029 -0.12407307 -0.00752823 -0.00653719  0.11648271  0.40762734
  0.08947884  0.16882986  0.1907297  -0.07620719 -0.13461569 -0.00056865
 -0.12092081 -0.07444405 -0.29294622  0.29121915 -0.08013202 -0.12876797
  0.25409448  0.19793478 -0.07331029  0.08682993  0.04017202  0.22360897
 -0.01218019 -0.01819044  0.01697306 -0.22166277]
[-0.08738554  0.18240692  0.3238829  -0.29132953  0.18116717  0.05226653
 -0.15275209  0.04181907  0.22847138  0.35948583  0.02511315  0.39424774
 -0.10813225 -0.3004908  -0.3248328  -0.3889638  -0.17953485  0.04950254
 -0.11581591  0.07171755  0.09117615 -0.14986935  0.14276102  0.29295292
  0.00274228  0.07711569  0.2235406  -0.0700044  -0.30493695 -0.09918281
  0.18004271  0.19098334  0.04707882  0.36433592  0.1557846   0.05641782
  0.00154348 -0.19041863 -0.00770795 -0.28915656]
[ 0.28557286  0.37807783 -0.016585   -0.34930792 -0.1743665  -0.8010152
  0.21159722 -0.27360493 -0.17870417  0.02878496  0.1000213  -0.15492466
 -0.30391964  0.02610816 -0.06176472  0.60000104 -0.13508001  0.12075231
 -0.19323404 -0.14351268 -0.00457531  0.36305866  0.12220179  0.12281775
 -0.64531654 -0.29906118 -0.0510653  -0.26806748 -0.1022428  -0.17891602
 -0.25835505 -0.2900163   0.03631865 -0.26444525 -0.15841044 -0.47837737
 -0.02313454  0.00799006 -0.32784432  0.23931657]
[-0.13501793  0.06934675 -0.14339486  0.3351888  -0.436983    0.20010307
  0.01362705 -0.04906926 -0.12871751  0.20700169  0.3017509  -0.08070301
 -0.13958153 -0.23661008 -0.40606824  0.63665617 -0.4583413   0.02359488
 -0.08337335  0.16041732  0.01451992  0.18562554  0.01657631  0.2492279
  0.05038495  0.22217667  0.31980085 -0.07295594 -0.07940055 -0.12047576
  0.4559215  -0.3253442  -0.10808533 -0.23893666 -0.08764341  0.12747228
 -0.19047052 -0.07807548  0.13063107  0.05093337]
[-0.4241114  -0.09051095  0.09787916  0.13867514 -0.12055273  0.24151339
  0.3349802   0.0123653  -0.10375045  0.1309587   0.02879277 -0.46555564
 -0.22314037  0.03544371 -0.01442087  0.11013381 -0.28192222 -0.15178554
 -0.06441832  0.27256566 -0.03063682  0.05317289  0.11649843 -0.13011296
 -0.09031357  0.27351862  0.00443487 -0.2552296  -0.19850644 -0.02692171
  0.09078317 -0.15236619  0.07869564 -0.10521862  0.06200844  0.12467329
 -0.154501   -0.20010608  0.11044827 -0.03176552]
layer 3 Activation
tanh
layer 4 Dense
40 20
[ 0.21992813 -0.07846989 -0.34668154 -0.05566189 -0.2571507  -0.12604065
  0.03697727 -0.32920668 -0.18463692  0.34185484  0.12052603  0.11024719
  0.07517406 -0.309103    0.13806218  0.23509394 -0.27334887 -0.31903026
 -0.27070946  0.20625609]
[-0.06404135 -0.29612854 -0.13287126 -0.17632405 -0.0122696   0.02618466
 -0.5570084   0.28706968 -0.11929276  0.08942591  0.2050108  -0.16493842
  0.20195784 -0.3232107   0.38868937 -0.2833145  -0.1409969  -0.25570562
 -0.1185719   0.27469146]
[ 0.11796001 -0.13708845  0.36729357 -0.12884963 -0.2179481  -0.6280019
  0.00765885 -0.22699074 -0.03217401 -0.01450105 -0.24033576  0.04836886
 -0.11074369 -0.4402945   0.01068806 -0.15960476  0.39119092  0.23319381
  0.3143099   0.05883309]
[-0.08726946 -0.21909395  0.44960663 -0.15252784 -0.2574646   0.4369099
  0.06698716  0.17018627 -0.09157303 -0.00895426 -0.04852158 -0.1663228
  0.15145364  0.3036084  -0.07172204 -0.08028639 -0.13661465 -0.04016773
  0.21787608 -0.0152871 ]
[ 0.02409032  0.22883652 -0.43908203  0.16860132  0.24891494 -0.27703366
 -0.30733025 -0.19232042 -0.02709902 -0.2328853   0.2274075  -0.06020421
 -0.06681079 -0.02997296  0.04061601 -0.19456607 -0.12579596 -0.12453358
  0.02127897 -0.01133854]
[-0.1615729   0.15318039  0.15074167 -0.01852786  0.3319276   0.08867557
  0.11588845 -0.06497958  0.10575419 -0.1193651  -0.02590926 -0.09716047
 -0.29316452  0.61011034  0.07964078  0.4626061   0.3871663   0.18567663
  0.04665135 -0.14785996]
[-0.20248568  0.14107628  0.46101317 -0.27483174  0.1504705   0.25471172
 -0.5473117  -0.26427627  0.45577338 -0.3928052  -0.284251    0.09906681
  0.42080346  0.2792264  -0.27251163 -0.00262073 -0.30303255  0.13210331
  0.2488333   0.2995362 ]
[ 0.11504603 -0.04824611 -0.14871709  0.17692877  0.1839589   0.12818615
  0.21281233  0.09583595  0.25176778 -0.14868891 -0.01955089 -0.1931906
 -0.1587466   0.08125038 -0.21893927 -0.05753953  0.27499786 -0.00510321
  0.15676844  0.12169115]
[-0.13280363  0.37462667 -0.47033355 -0.17654338 -0.09281818 -0.42836496
 -0.05792836  0.00317342  0.12406522 -0.1973489   0.4080971   0.22391771
 -0.26167133 -0.20441659  0.16903782 -0.05925517  0.24753222 -0.10162375
 -0.03532971 -0.12832287]
[ 0.12660599 -0.21852216 -0.27529198 -0.27167132 -0.00857919  0.17534027
 -0.03784916 -0.10877687 -0.05673686 -0.38530737  0.17659804 -0.18740052
  0.37344325  0.20726854  0.32758605 -0.28880173  0.3210184   0.03270306
  0.10161108  0.02914356]
[-0.05697441 -0.06953644  0.1799794   0.14107406  0.10739177  0.5489292
 -0.3460417  -0.1339688  -0.2847496   0.03752797  0.13093553 -0.16493674
  0.25278032  0.39958587  0.09508783  0.34891024 -0.08997553  0.05011919
 -0.26332048  0.04518836]
[ 0.16915588 -0.11355861  0.31488195 -0.15058218 -0.39138213 -0.13579334
  0.18893142 -0.0381433   0.02876581  0.6534562   0.32101023 -0.220229
 -0.00804448 -0.13980274  0.1302741   0.42911196  0.126926   -0.16617095
 -0.06795618 -0.20943318]
[-0.02090559 -0.13553722  0.4163544  -0.12968628 -0.13030462 -0.24817587
 -0.14666831 -0.19796757  0.3210828   0.308195   -0.14065239 -0.02898696
 -0.09549787 -0.05306974  0.16131365  0.2935406   0.08044663 -0.17360388
  0.31320447  0.30415228]
[ 0.32092404 -0.24405332 -0.01056236  0.105091    0.37111545 -0.28694648
  0.09024337  0.05590282 -0.10810611  0.06146745 -0.14555831 -0.17929086
 -0.08697251  0.3205227   0.09630148  0.07487281  0.03812229  0.31034553
 -0.05853526 -0.41038746]
[ 0.3257419  -0.2121446  -0.39962718  0.31057447 -0.27873018 -0.2567738
 -0.3028082  -0.12139442  0.3359005   0.09763883  0.09327944 -0.22059166
 -0.45265839 -0.56620544  0.02419975 -0.30536467 -0.3441152  -0.2901079
  0.33238778 -0.09785051]
[-0.4029834  -0.13983513  0.2762341   0.0876632  -0.05152836  0.16214862
  0.27519432 -0.27735206  0.12850027  0.20007813  0.20842019  0.05848827
  0.26435676  0.24771903  0.06309152  0.08283501 -0.17332506  0.37053537
  0.09713011 -0.31162912]
[-0.16389057  0.24598946 -0.08605465  0.24655539  0.10034424 -0.24790695
 -0.07202706 -0.11069132  0.00689387  0.10739251 -0.21097735 -0.03139711
 -0.2547184  -0.04471315 -0.32355654  0.42739353 -0.05582549 -0.33677056
 -0.23580064  0.00634518]
[ 0.21965113  0.1035485  -0.3570657  -0.21757048  0.040284   -0.17646052
 -0.04561489 -0.04122829 -0.09138411 -0.08900152  0.12997316 -0.14102128
  0.16175959 -0.29203954 -0.01748864 -0.08252779  0.07457802 -0.22051
 -0.03803908 -0.13018073]
[ 0.07678267  0.04018468 -0.3533491   0.16363622  0.4535237  -0.47551507
  0.04001697 -0.00904297  0.11429006  0.17582576  0.1905828   0.10258707
  0.07959052 -0.12148291 -0.08292875  0.08072686 -0.38742155 -0.23949699
 -0.00361221  0.17836559]
[ 0.1349209  -0.24275382 -0.45050246  0.05340196  0.07780477 -0.258533
  0.53874546 -0.10650805 -0.01676001 -0.36071807 -0.20702639 -0.30274653
 -0.37001458 -0.42000976  0.07055086  0.07301841  0.26114687  0.1567914
  0.10726454 -0.23342067]
[-0.33722994  0.1112911   0.16692254  0.27319592 -0.02088717  0.2020253
 -0.29847124  0.03782591  0.426628    0.2062769  -0.06913579  0.30074543
  0.01249499 -0.1606496   0.1622994   0.03620458 -0.07708029 -0.17673601
  0.01605007 -0.14017509]
[-0.21787025 -0.23454982  0.2609263   0.15732244  0.06178202 -0.03876408
  0.07717604 -0.34355012 -0.2587548  -0.18949443  0.25856456  0.17911477
  0.2569985  -0.11622843 -0.03393252 -0.27043015 -0.1190665   0.20674528
 -0.12966938 -0.1534233 ]
[ 0.1784808  -0.30002525 -0.19743907  0.09373809 -0.03470999 -0.28205806
 -0.10026824  0.1577839  -0.00981171 -0.2545032   0.10205786 -0.15665281
  0.12832558  0.13987981 -0.08407131 -0.04305907  0.07200222 -0.04689707
  0.21906273 -0.3342869 ]
[-0.15016975  0.09077624  0.37594113 -0.23999885 -0.16215171  0.14298281
 -0.20138982  0.00749194 -0.2647159   0.39556098  0.4001178   0.12161209
  0.09284401  0.35500988  0.15960245 -0.00819607 -0.30529344 -0.05229103
 -0.05720577 -0.04010344]
[-0.13920307  0.193525    0.21619475 -0.11692403 -0.22223423 -0.08000604
 -0.1155846  -0.08802856  0.07596327  0.48147878  0.14462659 -0.00410941
 -0.2537442   0.11056615 -0.3472499   0.4870799  -0.18304959 -0.37129432
  0.40947962 -0.09410971]
[-0.24374689 -0.04737056 -0.05651159  0.3153575   0.17784518  0.34268355
 -0.05561393  0.09506859  0.19337277 -0.27672598 -0.1582786   0.24935237
  0.11093603  0.16697134 -0.04611689  0.03892927 -0.2974927   0.1260672
  0.12768154  0.20238459]
[-0.06035167  0.15420082 -0.12519965 -0.06301233 -0.08413005  0.18173854
 -0.14053312  0.04175301  0.09778711 -0.00080647  0.1085381   0.23180401
  0.24608065  0.2812408  -0.218234    0.07187209 -0.09650734 -0.3295901
 -0.04076584  0.13544719]
[-0.0128224   0.08222546  0.32534432 -0.00854555 -0.2339977   0.11894882
  0.14302602 -0.02045537  0.06918148  0.40728387  0.166854   -0.0332314
  0.05271489  0.26613447 -0.14788283  0.13684241 -0.06634703 -0.12814689
  0.0854315  -0.30022487]
[ 0.22790003 -0.20329453 -0.33576396 -0.19625993  0.33800542  0.04238473
  0.01113176  0.05279562 -0.04743525  0.31823683 -0.0435592   0.1280228
 -0.22070552 -0.0432276  -0.2579353   0.29131702 -0.1177764  -0.46389735
 -0.295538    0.27850398]
[ 0.13188024  0.21198568 -0.24759914 -0.0059698  -0.14873506 -0.28676045
  0.55261827 -0.09459554 -0.09144023  0.08765522 -0.0701705   0.00251089
 -0.3180044  -0.39460558  0.22946073  0.03343747  0.22787528  0.10849787
  0.0914363  -0.17098962]
[-2.6577398e-01  2.8149419e-02  1.7422967e-02 -7.8328684e-02
 -3.6636695e-01 -2.2598420e-01  4.2433807e-01  2.9482105e-01
  2.8688538e-01  1.3981782e-01  5.8197495e-02 -2.2548711e-01
  2.0605024e-02  6.4209327e-02 -1.0120240e-04  1.5001793e-01
  2.5802571e-01 -2.8902653e-01  2.7395767e-01  3.8441643e-01]
[ 0.35073763  0.01576695  0.18113439  0.16056547  0.15874586 -0.8297514
  0.43121088 -0.20825997 -0.1010357   0.06520715  0.24274419 -0.21293974
 -0.12865609  0.02737766 -0.25603846 -0.3586484   0.4306237  -0.23127279
  0.37680948 -0.10395045]
[ 1.6953486e-01 -7.6604292e-02 -2.2995390e-01 -2.4461618e-04
  1.8114054e-01 -2.9368097e-02  2.8945202e-01 -6.5056264e-02
 -1.6593871e-01 -1.6208242e-01 -2.8400105e-01 -2.5331458e-01
  9.1908388e-02 -2.9217100e-01 -2.6592780e-02 -6.7429923e-02
  1.7547511e-02  2.1226379e-01 -1.7328627e-01 -3.9383027e-01]
[ 0.47489876 -0.18305925 -0.24498138 -0.32230103  0.18530369 -0.29995894
  0.18255338  0.16407397  0.08779018  0.20712057  0.2610658  -0.03374814
 -0.30022222  0.2597781   0.08934594 -0.0710433   0.13319126  0.08658853
  0.31688455  0.05409264]
[ 0.1258758   0.10407657 -0.0349781  -0.12830253 -0.08754753  0.06007213
  0.29819873  0.04332035 -0.5663336   0.01153551  0.20072593  0.05990372
 -0.11430231  0.32502198 -0.01726826  0.1820621   0.5150191   0.28779733
  0.32787755 -0.13370179]
[-0.21542387  0.01571417 -0.06046413 -0.06181572 -0.01053412  0.22629319
  0.12434287 -0.14104535  0.16810231 -0.40975475 -0.0329658  -0.05818605
  0.01269255  0.29298675  0.19451085 -0.07027123  0.00977221 -0.28945822
  0.09747401  0.33941785]
[-0.01832395 -0.10029583 -0.19808309 -0.11067574  0.13429596 -0.09272181
 -0.5290843   0.09009047 -0.15096456 -0.00362587  0.02683977  0.307758
 -0.24284236 -0.2877444  -0.18547499  0.24855271 -0.14050986 -0.26101023
  0.04361472  0.1552885 ]
[ 0.1301509   0.13773654 -0.28478265 -0.12295714 -0.2550295  -0.41036588
 -0.20148082  0.28021994  0.0980465   0.29975414 -0.16641569  0.34919688
 -0.36190698 -0.4305356  -0.19832425  0.08063451 -0.02644605 -0.24462007
  0.22390096 -0.22469625]
[-0.02570151  0.2705622   0.14990155 -0.14092386  0.2682096  -0.15996772
  0.04339871 -0.03452645 -0.01542515 -0.2829877   0.42865112  0.038634
  0.16908     0.20075785  0.2351465   0.09904636 -0.21398945 -0.16256595
  0.29740304  0.06685606]
[ 0.06264365  0.30375195 -0.30083275  0.19230445 -0.37878773  0.245474
  0.00927661  0.20632531 -0.24130598 -0.0057954  -0.107352    0.19225569
 -0.06718109 -0.23936695 -0.02013606  0.01154992 -0.13485861 -0.08271974
 -0.10522574 -0.07319494]
[-0.15240696 -0.08626485  0.05384608  0.01976231 -0.00704868  0.3355317
  0.09051953 -0.04052998  0.06669609 -0.23371036  0.00985089 -0.06956297
  0.12835748  0.10625804  0.06665877  0.01163502  0.12317815  0.26184666
  0.07747723 -0.03347757]
layer 5 Activation
tanh
layer 6 Dense
20 1
[-0.18703383]
[-0.01842326]
[-0.06583723]
[-0.01458328]
[-0.04224877]
[0.02163465]
[0.00824423]
[-0.01008309]
[0.02975745]
[0.16606057]
[0.0851492]
[-0.02984604]
[0.21889985]
[-0.05450966]
[0.00659876]
[0.127777]
[0.10171428]
[0.17444411]
[0.2293862]
[0.02093576]
[0.11427537]
