layers 7
layer 0 Dense
20 20
[ 0.04263944  0.16780159 -0.05800711  0.05979403  0.2706654   0.13132372
  0.20935458 -0.4071299  -0.06434775  0.23894006 -0.2438407  -0.2793796
  0.19622377  0.2726489   0.06592308 -0.1292099  -0.21370782 -0.30323958
  0.23065002 -0.11253395]
[ 0.01104564 -0.15553091 -0.10913768  0.5961966  -0.35358778  0.11255098
  0.44507024 -0.37491143 -0.18076971  0.02662221 -0.06113331  0.30909148
  0.02622556  0.05933602  0.09099479 -0.35645065  0.52249575 -0.07923485
  0.264573   -0.1508622 ]
[-0.31714088  0.3582741   0.06016394  0.2025116  -0.09212723  0.44792914
 -0.19950235  0.28861117  0.36934546  0.20577429 -0.16574642  0.36000597
  0.40375006 -0.01734755 -0.04234156  0.13257898  0.00755056  0.4407661
  0.25729606 -0.3257622 ]
[-0.01801915  0.11958407 -0.24582991  0.07240735  0.2789838  -0.2118127
  0.28594872  0.13781498 -0.07742091  0.36206433 -0.11199497  0.00293914
  0.10888058  0.00342291 -0.24192633  0.09897732 -0.264067   -0.10233588
 -0.07880186 -0.10058055]
[-0.02612786  0.0884926  -0.00151338  0.06866439  0.28412083 -0.15978338
  0.3222384  -0.17624979 -0.13971518 -0.00135742  0.20923686  0.06070709
 -0.00778516 -0.0618474   0.05439454  0.04156319 -0.22115473 -0.17416002
  0.05256741 -0.23227015]
[ 0.18019192  0.16018274  0.04423956 -0.46127564  0.68954104 -0.06702574
  0.11225688  0.17431906  0.18325527  0.21486622 -0.2676613  -0.5334017
 -0.02974793  0.16528568  0.11637581 -0.21645632 -0.18586543 -0.31357917
 -0.22533786  0.40297616]
[ 0.31488308  0.2399142  -0.24456069 -0.06130603 -0.0759804  -0.41768238
  0.00967036 -0.06912509 -0.51967067 -0.07670208  0.16359171  0.11901264
  0.14245394 -0.11310883  0.40397555 -0.18905954 -0.27950287 -0.17982887
 -0.25663158  0.3286625 ]
[ 0.3031579   0.251533    0.19593808  0.0216528  -0.03494771 -0.00704137
 -0.4853058   0.12122366 -0.48924872 -0.00570947 -0.21369973 -0.09726946
  0.01134397 -0.114963   -0.07147993  0.2407887   0.08344436  0.2844051
 -0.39411262  0.1637053 ]
[ 0.18987423 -0.24969848  0.14649816  0.44479015  0.31699854 -0.19050589
  0.10558015 -0.52058953  0.24915567  0.21712494 -0.28270626  0.13240665
 -0.33641756  0.16258466  0.15362571  0.12377512 -0.31341782  0.07482626
  0.18873265 -0.11063368]
[-0.01076419 -0.28923088 -0.25134093  0.03977232  0.23287353 -0.21339664
  0.06579214  0.25989032 -0.25323078 -0.143101    0.29149258  0.12935886
  0.16766156 -0.08668533  0.01845184 -0.18806663 -0.1591472  -0.07539763
  0.15108438 -0.15127274]
[ 0.16834629  0.02756769 -0.06010634 -0.4000182  -0.28381032  0.06321888
  0.08516753 -0.09678978 -0.35468867  0.20010781  0.07754347 -0.23011145
 -0.29243213 -0.2771038  -0.21327133  0.23432301  0.2450608   0.2410605
 -0.17917593 -0.28596783]
[-0.09097547 -0.03264864  0.2693525   0.3156248  -0.05695491 -0.35586286
  0.67931837 -0.6945629   0.44848964 -0.1431469  -0.0302929  -0.00702625
 -0.04156139  0.05286214  0.57516795  0.3874897  -0.02915863 -0.5287131
  0.6034741  -0.4871621 ]
[-0.3031228  -0.04783617 -0.3735153  -0.5376694   0.07216353 -0.06544155
 -0.2382258   0.21573392  0.08677374  0.2099973   0.48131165  0.0670777
  0.2167113   0.1262618  -0.40316692  0.11248018  0.07234491  0.09461182
 -0.31606498  0.3658497 ]
[-0.00738711 -0.16687381  0.19533254  0.1025105   0.32863772  0.1939408
 -0.10049935 -0.16168638 -0.25456706 -0.10291815 -0.23449546  0.40648484
  0.18997273  0.30536562 -0.30382776 -0.11472914  0.23633379 -0.07847528
 -0.24873006  0.03067556]
[ 0.24321371  0.1073324  -0.0694093   0.17840926 -0.07236375 -0.11516642
  0.09866778  0.17689309  0.00281938 -0.00102355  0.20611934 -0.05177933
  0.02658046  0.06511562 -0.19097498 -0.04058586  0.09563743  0.14522496
 -0.22946796 -0.3341502 ]
[-0.08603851 -0.15739086 -0.28620017 -0.53805906  0.11977669 -0.32873774
  0.14923328 -0.17206766  0.01287302  0.13629858  0.35017973  0.06686459
 -0.01301253 -0.35822544  0.04557722  0.03773455  0.03752348  0.15838549
 -0.20279177 -0.15557776]
[-0.07245401  0.2713797  -0.25486317  0.08674552 -0.14190309  0.16400543
 -0.16657735  0.16974124 -0.2661411   0.16768868 -0.16548145  0.1687712
 -0.2799912  -0.21474744 -0.01515613 -0.15772128  0.0088302   0.1253758
 -0.18104142  0.18994512]
[ 0.24147427 -0.02998484  0.31762382 -0.06630319  0.27719453 -0.07257267
  0.02426505  0.2796589   0.12196206 -0.35995826 -0.00355369 -0.3184513
 -0.03467059 -0.22112577 -0.08561134  0.22763431  0.17575034  0.09799904
  0.25890183 -0.04966414]
[ 0.10144265  0.02849645  0.09095965 -0.26593977  0.05192375 -0.07301838
  0.20470962  0.12336379 -0.17971396 -0.17820244 -0.04490525  0.24188587
 -0.10064042 -0.08144224 -0.20472999 -0.04540249 -0.12055814 -0.02044004
 -0.07243513  0.05528715]
[ 0.00445778  0.00786765 -0.03387249 -0.2857644   0.14187758 -0.28275758
 -0.2590504   0.4511942  -0.2486406  -0.24985033  0.5383773   0.27142897
  0.05030769  0.0399521  -0.12146792 -0.21148407  0.37205777  0.00233687
 -0.40500307  0.43495765]
[-0.02483102  0.05296547 -0.06591418  0.23662876  0.11420938 -0.05561749
  0.04154179 -0.095756    0.05713873  0.09466056 -0.0344435  -0.09731213
 -0.00658952  0.03312142  0.00652624  0.03857945 -0.00076941 -0.02978842
  0.09062482  0.00811239]
layer 1 Activation
tanh
layer 2 Dense
20 40
[ 0.23358461 -0.04716853 -0.10802556  0.0305734  -0.04626518  0.04470712
  0.19610208 -0.14903352  0.23648515 -0.24054016  0.14443286 -0.02014636
  0.21512477 -0.2714129  -0.17175172 -0.02385495 -0.10286367  0.24866991
 -0.01806266  0.07549483  0.03864357 -0.19602872 -0.23406044 -0.17904817
  0.25377375 -0.16792573  0.07578293  0.05432483 -0.13720746 -0.1525238
  0.0844994  -0.17649575  0.02919707 -0.06196624 -0.16569684 -0.31465784
 -0.19044937  0.03717477  0.16905896  0.05246004]
[ 0.0207769   0.04067393  0.4232784   0.09630547 -0.13324903 -0.07766094
 -0.158423   -0.22754066 -0.0025808  -0.05701014  0.03131912 -0.24109897
 -0.02790103  0.00743135 -0.22723918  0.01519827 -0.03098712 -0.04621172
  0.17704715 -0.11991806  0.01441037 -0.12049635  0.18987224  0.22872686
 -0.04668238  0.07205188  0.03496778 -0.14517313 -0.0252315   0.26501432
 -0.16460977  0.17789492  0.15282705 -0.10315526 -0.18991643 -0.01417574
 -0.2076204   0.07241691  0.10533334  0.14402857]
[ 0.08448596  0.21609758  0.0196184  -0.16938053 -0.12918615  0.09252246
  0.00087984 -0.24815299 -0.30579662 -0.21050327  0.17583887 -0.05430043
 -0.2513632  -0.17464374 -0.17764787  0.17523386 -0.3050233   0.21335518
  0.07556742 -0.12333714  0.11262658 -0.05660847 -0.01471616  0.08026125
  0.10887154  0.11435355  0.17356904 -0.27142772 -0.08448024  0.20109884
  0.17548972  0.14341989 -0.028709   -0.08553258 -0.21053682  0.07584946
 -0.25648874 -0.10123279  0.00909424  0.11427192]
[-0.15438907  0.18907312 -0.22997889  0.06921328  0.29796046  0.24698278
 -0.08977827 -0.11799498 -0.18901755  0.21073692  0.03632998  0.15804586
  0.12352268 -0.02472059 -0.17319576  0.06111277 -0.10495058 -0.17846926
  0.15878391  0.1581208  -0.08096229 -0.20342985  0.2170784  -0.04072051
  0.21270394 -0.09598064 -0.04102386  0.30504116  0.18627848 -0.15986536
  0.01800499 -0.25525433 -0.08454736 -0.07599517 -0.05616181 -0.07827677
 -0.23035166  0.26691484  0.2029136  -0.33754382]
[-0.07534528 -0.10763208 -0.27725276 -0.04792244  0.19433665  0.11748124
  0.04819353 -0.19582833 -0.0113664  -0.23972957 -0.1006314   0.10874452
  0.03362811 -0.07983731  0.17067215 -0.07065139 -0.19182512 -0.28659594
  0.2457313   0.06452553 -0.08269738  0.04179794 -0.02269184 -0.17316093
  0.11855314  0.24122287 -0.21176489 -0.16208419  0.13228638 -0.26359838
  0.27017105  0.14329751  0.05792123  0.25415418 -0.02624883 -0.13479191
 -0.02391998 -0.13626888 -0.19472425  0.2081682 ]
[-0.12056377 -0.16704184  0.21337584  0.09613169  0.22186603 -0.0659843
 -0.13398345 -0.24825527  0.14791049  0.02703265  0.10388195 -0.01915559
  0.2739603   0.07437156 -0.06410325 -0.07680991  0.05569242  0.16506302
  0.13392282 -0.0700252  -0.14062572 -0.24520071 -0.08805232  0.09608647
  0.0462131  -0.32783395 -0.27252483  0.20527193  0.24507655  0.29484478
 -0.22968966 -0.04942039  0.1836636  -0.01843549 -0.19423032 -0.22488028
  0.19963577  0.2276477   0.23940976  0.10039525]
[-0.00864375  0.20005658 -0.53078604 -0.03409917  0.14865701 -0.06946536
  0.02041265  0.00466811 -0.2246006   0.16538443  0.2817258  -0.04753894
 -0.19319437  0.10809269  0.19797423  0.12730719 -0.34171122 -0.12310487
 -0.11149129  0.17441653  0.22998586 -0.3573431   0.22653002 -0.1998156
  0.17546915 -0.32863942 -0.19697349 -0.2728622   0.0254986   0.22857244
 -0.06496232 -0.13448665  0.02013119 -0.13622914 -0.20186774  0.05243016
  0.08653018 -0.22018115  0.14394546  0.06767644]
[-0.32664403 -0.2570363   0.02409547  0.07762472 -0.3036346  -0.17509206
 -0.25963247  0.1894099   0.10684392  0.03170102  0.06509846  0.2551795
 -0.0116587  -0.4044745   0.03440163 -0.0095615   0.08171141 -0.06906216
 -0.03772737 -0.11123619  0.08373331  0.1274026  -0.33663356  0.11851486
  0.08872759  0.00346544 -0.14318252  0.21071059  0.2012085   0.01557203
  0.07481647 -0.0609596   0.3238735  -0.05368977 -0.15712203 -0.1254628
 -0.26749218 -0.05254036  0.18946478  0.11367792]
[ 0.32130226 -0.21365923 -0.05297584 -0.07299978  0.17971207 -0.15311787
 -0.0467866   0.09153038  0.18582025  0.17177956 -0.21200368 -0.2070248
  0.2806343   0.19649804  0.04396637  0.08427271  0.12728804  0.13634114
 -0.11710141  0.19295105 -0.05862098 -0.12972867  0.28807983 -0.14664441
 -0.27689227 -0.03583898  0.10347053 -0.03575517 -0.03066279  0.02965233
  0.14192154  0.18175414 -0.15092935 -0.06233851 -0.21323036 -0.07248992
 -0.05542077  0.11349545  0.1768734  -0.06031636]
[ 0.06901471 -0.1712443  -0.19846942 -0.01452207  0.21236306  0.07438396
 -0.17036812  0.03014126 -0.06821791 -0.22954382  0.13812204  0.13187754
  0.07343083  0.0351077   0.12744196 -0.0118336  -0.11991144  0.10172806
 -0.20553124 -0.18477581  0.10032832 -0.05630745 -0.20680346 -0.03961471
  0.00565793 -0.3660824   0.0152891   0.2219341   0.1356152   0.18909492
  0.09417243 -0.2650947  -0.04144345  0.11506464  0.15743248 -0.17172487
  0.26120523 -0.08068339 -0.11465833 -0.08336704]
[-0.09439878 -0.27577546  0.2227381  -0.275106    0.15204148 -0.32075405
  0.12071961  0.38284615 -0.07628917 -0.18559617 -0.355599    0.18597199
 -0.41218767 -0.22568606 -0.2552871   0.00523942 -0.03942863  0.23156263
 -0.06357464 -0.14967392 -0.11416676 -0.16426575 -0.19884235  0.06659503
  0.10503481 -0.06904897  0.03749038 -0.1972292  -0.23156692  0.11538232
 -0.07434834  0.11407235 -0.05280187 -0.21560434 -0.07575322 -0.03046351
 -0.26446488  0.09558636  0.0473857  -0.10348295]
[ 0.03562563 -0.07925496  0.1494326  -0.13321322 -0.27872178 -0.13568294
  0.00902298 -0.21223225 -0.1593576  -0.06355335 -0.11259698 -0.17851697
 -0.22556444  0.02809359 -0.10574026  0.04943858  0.22517252 -0.2023206
  0.1505145  -0.05820325  0.15978275 -0.12993935  0.11970577  0.2366381
 -0.08136624  0.2696017   0.19560091 -0.10632605 -0.1289006   0.14711572
  0.1438783  -0.01396391  0.17109454  0.0561465   0.09016005 -0.23952582
 -0.33860543  0.01720739  0.2894602  -0.23265404]
[ 0.2439456   0.06873615  0.23680778  0.03434613  0.01598234  0.23084398
  0.05613497 -0.11791521 -0.25528783  0.04969612  0.03261334 -0.02327421
 -0.1693569   0.12830995 -0.14710101 -0.19215022 -0.00247199 -0.034843
  0.15273467  0.02702241  0.25791827 -0.28319958 -0.11627244  0.21805806
 -0.10281353 -0.03340041 -0.2206789  -0.04562446  0.07956385  0.04608996
 -0.24227221  0.12457026  0.09522674  0.03204479 -0.01805202 -0.26126766
 -0.06186252 -0.3391584  -0.01429988  0.01530022]
[ 0.2590055   0.12995513 -0.25748637  0.21164465  0.11286447 -0.04874766
  0.15005629  0.03499816 -0.01893312  0.24701153  0.19645846  0.21702632
  0.05425166 -0.07115362 -0.20562373 -0.03890281  0.00651122 -0.0133541
 -0.03766615 -0.05105668  0.05667779  0.11972206 -0.22483194 -0.18366331
 -0.3033109   0.08677933 -0.06024357 -0.01496081 -0.28479666  0.05967683
 -0.16452911 -0.04929523  0.17588401 -0.2782329  -0.14613996  0.13988706
 -0.22008768  0.25652462 -0.06289005  0.10928629]
[-0.12799314  0.18260595  0.14839749  0.3938287   0.3817799  -0.09434867
  0.14660047 -0.00495855  0.11078984 -0.10959754  0.01833299  0.00705358
  0.06846198  0.10830452 -0.08792819 -0.3479507  -0.19861946 -0.16549797
  0.10018329  0.05269948 -0.20335539 -0.09778152  0.05625271 -0.26469132
 -0.08173301 -0.30750275 -0.28157794  0.00143908 -0.06627903 -0.0358736
 -0.14946865 -0.1377402   0.0007149   0.23129353 -0.14657915  0.02759052
  0.12339442 -0.06277505 -0.22432868 -0.16240028]
[-0.15936063  0.14139731 -0.1951037  -0.11314138  0.06854218 -0.11026357
  0.0969217  -0.20098901 -0.12838034 -0.33553234 -0.08190864  0.07740427
 -0.21347031  0.08899799 -0.13511066  0.14625917  0.11805175  0.05326506
 -0.07729194 -0.25597414  0.11322475 -0.12012383 -0.19879326  0.0621078
 -0.03504862 -0.07888022 -0.10803222  0.13694748  0.25153694 -0.28109616
  0.01925751  0.09725571  0.05269699  0.12459953 -0.20642562  0.14593495
  0.10851963  0.2547882   0.06292633 -0.04555851]
[-0.32134047 -0.13913573 -0.05363575  0.14290851  0.20017962 -0.11690439
 -0.24473554 -0.12979068  0.01124887 -0.21835646 -0.25822407  0.26798505
 -0.26211873  0.04828341  0.22866213 -0.3002641   0.15525435 -0.1748898
 -0.294503   -0.2220359   0.11871082 -0.11803693 -0.15228754 -0.0112463
  0.17451608 -0.01378559  0.07401943 -0.08755354 -0.00662738 -0.03654502
  0.0895133  -0.05956     0.19722378  0.12672824  0.2521502  -0.11697157
  0.11511975 -0.20345423 -0.18327305  0.12984535]
[-0.2283257   0.01133892  0.26110154 -0.27135625  0.23602788 -0.16854014
 -0.01580047  0.1831594   0.07670844  0.03228328  0.16405022 -0.06177004
 -0.32845122  0.15978383  0.16687909  0.14763655 -0.1640076  -0.06827874
 -0.01551449 -0.11177918  0.19500192 -0.12304534 -0.12869155  0.06916602
  0.03342973 -0.04509121 -0.06269407  0.09997813  0.12345857 -0.15506706
 -0.02557612  0.09562159 -0.11807907 -0.21787685 -0.19134447  0.27722833
  0.0271309   0.10756025 -0.20957741  0.28872094]
[ 0.27457514 -0.17629363 -0.061932   -0.18910463  0.36045483  0.2511652
 -0.00719124  0.21541713 -0.14542192 -0.06531909 -0.02221     0.21095456
  0.08991516 -0.10341688 -0.11441977 -0.07505559  0.13732667  0.004113
  0.19033629 -0.25134155  0.3268247  -0.11865183  0.10256329  0.03632486
 -0.06085772  0.11159123  0.0472699  -0.12935965 -0.16377175 -0.09843048
  0.23417379 -0.23935969 -0.21891403  0.20439674  0.2862642  -0.23100369
 -0.09522785 -0.17993496 -0.30215043 -0.17560378]
[ 0.16765252  0.00980039  0.09764471 -0.27608955  0.06604557  0.12893933
 -0.03211438  0.14699839  0.34000242  0.23000689 -0.409       0.27167514
 -0.06086911  0.08591868 -0.08770268  0.34679627 -0.02645089 -0.16635522
 -0.17982227  0.19167207  0.03414894 -0.05337582 -0.02415064 -0.01265779
  0.13878977  0.09266812  0.0657956  -0.02621415  0.08630163 -0.22585869
 -0.17484806 -0.10298048  0.26095587 -0.36385676 -0.15865585  0.11126807
 -0.02870377  0.07483547  0.1146508   0.01981987]
[ 0.11955861 -0.05153093 -0.27759853 -0.03107124  0.02518652  0.1291
 -0.02054363  0.02656794 -0.12359821  0.03865862  0.05380033  0.03252708
  0.09990392  0.05844931 -0.03085985 -0.01886464 -0.06808501 -0.24299006
  0.02546847 -0.01434044 -0.04047571 -0.05356993  0.07245228  0.00520367
 -0.03001367 -0.02354521  0.07658306 -0.01969886  0.01417147  0.03531332
 -0.00643588 -0.0794973   0.02636521  0.10254647 -0.03624047 -0.03146015
  0.04524824 -0.01753708 -0.06113993  0.02058899]
layer 3 Activation
tanh
layer 4 Dense
40 20
[ 0.19077161 -0.32608443  0.04984535 -0.10715421  0.27583325  0.09650452
 -0.10736153  0.11997975  0.29548088 -0.20158091  0.25384122  0.03897461
  0.10370612  0.0016937  -0.07695653  0.1364556  -0.0856121   0.04012299
  0.23168601  0.22792745]
[-0.29048803 -0.13801716  0.00693397  0.16663393 -0.19727632  0.1491409
  0.13984457  0.2695183   0.04646229  0.00963798 -0.20270467 -0.15166245
  0.06966525  0.16619729  0.3020521   0.17281757 -0.08821218 -0.11685317
  0.14181016  0.10464652]
[ 0.178652    0.292219   -0.18164109  0.08346319 -0.300973   -0.08641803
 -0.11204101  0.27342907 -0.34050503  0.14463422 -0.20561095 -0.02961842
 -0.08675033 -0.1349486   0.16614191  0.05025002  0.25876072 -0.20409356
 -0.26020864  0.30928132]
[-0.30048442 -0.01275915  0.24005091  0.1605254   0.19196443  0.06188236
 -0.21486162 -0.15122315 -0.19398002 -0.15774998  0.20659724  0.20647486
  0.14670146  0.18523441  0.01998016 -0.21442346 -0.20930575  0.1895861
 -0.02248672  0.01664166]
[ 0.03663722  0.13304232 -0.03047772 -0.33427912  0.33582476  0.03811862
  0.04258736  0.23031661 -0.2343945   0.30669993 -0.13945943 -0.18303698
  0.03032449  0.06726345 -0.3099394  -0.03939896  0.05761376  0.2101338
  0.06320699 -0.18983641]
[-0.26069248 -0.04955357  0.00174111  0.01013618  0.24573411  0.23920265
  0.2532707   0.11466659  0.11376014  0.07085958  0.2427282   0.04279562
  0.04076241 -0.10379857  0.11279275  0.08373452 -0.18735923 -0.1972629
  0.2811109  -0.218917  ]
[ 1.4125692e-02  4.9679834e-02  9.5252674e-03 -2.0973267e-01
  1.8867455e-01  1.2722813e-01  2.5884816e-01 -2.3215899e-01
 -3.1902200e-01 -2.3994291e-02 -2.9810408e-01 -1.8547715e-01
  1.3584498e-01  2.5453845e-01  2.3551123e-01 -1.3381541e-01
  1.2983054e-01  1.5273580e-01  2.9489829e-04 -2.5243106e-01]
[-0.16249348  0.16707054 -0.07802302 -0.04975961 -0.13638264 -0.00411766
  0.17738219 -0.19929317  0.08756224  0.32556224  0.23533861 -0.14346302
  0.31033984  0.04766399  0.00301373 -0.22266075  0.18417044  0.12178601
 -0.2474247  -0.24438362]
[-0.24748242  0.12396869 -0.16290873  0.18787387 -0.05819273 -0.24909818
 -0.25328803 -0.12748675 -0.28798392 -0.09664952 -0.01039866  0.08704678
  0.15724002 -0.32227215  0.23603936 -0.04775334  0.02756781 -0.00208432
 -0.26736864  0.02595143]
[-0.19081026 -0.12421665  0.04079614 -0.30060935 -0.00570678  0.30053568
  0.20056783  0.15288801 -0.2938711   0.09514374  0.01503825 -0.20272382
  0.00262273 -0.09542758  0.06080632  0.01348782  0.09856462 -0.16633731
 -0.06927799 -0.00686759]
[-0.37053284 -0.01513176 -0.06686111 -0.20622572  0.2947308   0.04134867
  0.03965205 -0.05838332  0.26376474  0.12483446  0.27937     0.19625202
 -0.06072142  0.00299033  0.09298144 -0.275639    0.27947658 -0.14330101
  0.05776193 -0.01333161]
[ 0.11319591 -0.07076576  0.02278589  0.3360249  -0.15004666  0.21244366
 -0.0232038  -0.25104037  0.03051442  0.20697674  0.17659841 -0.05624868
 -0.06569473  0.04375301 -0.20470187 -0.05393936 -0.33857948 -0.23308675
 -0.1591815  -0.20528103]
[-0.25865942 -0.29720345  0.16375247 -0.25509816  0.20677167 -0.07020319
 -0.05386538 -0.18298319  0.001942   -0.2959971   0.26906565 -0.16969506
 -0.06488569  0.00998826 -0.0875815   0.24438477 -0.18023257 -0.13661179
 -0.09153985  0.22863685]
[ 0.03642116 -0.07816024 -0.2827417  -0.29388496  0.19550444 -0.05736836
  0.10068299 -0.25140768  0.20097251  0.07951532 -0.20742573 -0.22813596
 -0.20066136 -0.01472987  0.01499324  0.06234794 -0.07540778  0.0777743
  0.10373855 -0.19883059]
[-0.11052939  0.00161231 -0.21057093  0.00777922  0.02522793  0.01954177
  0.23917557 -0.07072242  0.00416529 -0.19620322 -0.13536748 -0.16867487
 -0.04147735 -0.16587849 -0.17819248  0.12366465 -0.00623794 -0.10206154
  0.00530902 -0.34110695]
[-0.01996377  0.11270012 -0.2781609   0.31031424  0.09035856 -0.14550255
 -0.01103515  0.20469888  0.07593    -0.2678429  -0.17298257  0.19027756
 -0.11103314 -0.3373736   0.07122945  0.28429    -0.04421101 -0.06155209
  0.04378277  0.14981909]
[-0.31607825 -0.12966135 -0.19743145 -0.24233837 -0.17112139 -0.01083145
 -0.15427974  0.15756561 -0.08359747  0.14543682 -0.31329235 -0.19690736
 -0.16215128  0.14037824  0.16783707  0.03223892 -0.14847654  0.25547078
 -0.28545767  0.07112992]
[-0.2551198   0.09883568  0.21120723  0.05310308 -0.18805379 -0.30949768
  0.09144158 -0.01447022  0.25620973  0.20613146 -0.15429583 -0.07005177
  0.00753734 -0.13776106  0.07137402 -0.09298637 -0.00931343  0.22054172
  0.04974532 -0.08024651]
[-0.05808445 -0.043938   -0.02163294 -0.07522444  0.2850283   0.2550125
 -0.25170216  0.12333279 -0.16835745 -0.0705819  -0.17740735 -0.2258053
  0.32389414  0.21424815  0.12737663 -0.17661159  0.22350349  0.03540202
 -0.07047798 -0.29754928]
[-0.26837835  0.06407879  0.11457276  0.05486725  0.08243985  0.15805978
  0.13853247  0.10156563 -0.23383321 -0.27880064  0.00917757 -0.01586998
 -0.0933692   0.22673401 -0.02531705  0.10657085  0.30930704  0.12776977
  0.28595784 -0.2715847 ]
[-0.13072376 -0.14859058  0.0106342  -0.15484616  0.11120073 -0.12070864
 -0.27470174 -0.31623808  0.20654954  0.13721204  0.00559978 -0.21005802
 -0.25678653 -0.28527042 -0.06501356 -0.13594976  0.08405373 -0.01171971
 -0.25355813 -0.03779907]
[-0.02815093 -0.10215825  0.14873734 -0.1120114  -0.10803547  0.18283214
 -0.03852613  0.29763347  0.1099373  -0.00452793 -0.20960635 -0.02579702
 -0.16298328 -0.1139285   0.29690528 -0.29516062 -0.21435723  0.00605711
  0.05516594  0.01975109]
[ 0.01014431 -0.20648253  0.30950093  0.08243513  0.29578567  0.11094195
  0.19809173  0.13355587  0.13708149 -0.07206804  0.21724823  0.23219797
  0.24126811 -0.06779583 -0.22297424 -0.15434994  0.02170146  0.14818943
 -0.05515929  0.06556229]
[-0.23035584 -0.11552902 -0.19374163  0.12564409 -0.19757009  0.27673846
  0.07529171  0.13139328 -0.16926748  0.2210417  -0.10718949  0.10660635
  0.13308592  0.00681547  0.03779034  0.18652526 -0.14421426  0.18214329
 -0.2012518   0.13276508]
[-0.10460702  0.267878    0.13872689 -0.0827947  -0.01849516 -0.2569579
 -0.02411279  0.04665495 -0.21248594 -0.27825838  0.04428653 -0.32188693
  0.0156735  -0.23464526 -0.14781113 -0.14754234 -0.04195316  0.33152205
  0.07180425  0.11220269]
[-0.11087675  0.13458915 -0.27187857 -0.05875859 -0.03516393  0.19667643
 -0.13099341 -0.08005238  0.06414077  0.00902457 -0.10886865  0.06881922
 -0.15207435  0.20090684  0.07770526 -0.25672176  0.00808734  0.25465056
  0.12090912  0.3384447 ]
[ 0.17301951 -0.3099325   0.06070441  0.34973383 -0.29334167  0.1515024
  0.06781563 -0.15340853  0.16881098 -0.06389002  0.22124001  0.0116706
  0.19324091  0.1656584  -0.13867953 -0.0239154  -0.07600446 -0.1637398
 -0.03574777  0.16280769]
[ 0.08931276  0.15568817 -0.22105713  0.2886327  -0.2682577   0.25732458
  0.03315545 -0.24732342  0.17269519  0.25531873 -0.25096446 -0.18934534
  0.07685184 -0.20410654 -0.1770355  -0.27786687  0.2861946  -0.3026265
 -0.01549711 -0.24836376]
[ 0.24088137  0.06000737  0.13479313 -0.18926524 -0.16228668 -0.03897894
 -0.44946942  0.15463519  0.1645271   0.10724199 -0.01280622 -0.18749127
  0.21371213 -0.13612804 -0.1871801   0.13797541 -0.13137983  0.07539612
  0.1334241  -0.18055703]
[-0.2582047  -0.23658432 -0.09405076 -0.22559257 -0.15183364  0.24020915
 -0.2231521   0.26159427  0.23544139  0.26491567 -0.22747818  0.3022925
  0.21373327  0.07684693 -0.10760619  0.04478423 -0.05318167 -0.15112545
 -0.19751786 -0.20789614]
[ 0.30880946 -0.2580121  -0.21358067 -0.22467947  0.03060335  0.01050451
  0.01493101  0.26602218 -0.13927718  0.18120404 -0.14403467 -0.02413404
 -0.2577398  -0.10559971  0.27032155  0.17181121  0.1094828  -0.22006916
 -0.14160311  0.13902195]
[ 0.02512054 -0.03829991  0.3065407   0.27946043 -0.07306515 -0.19581912
 -0.30425125  0.02223585  0.18244109  0.17720647 -0.09835318 -0.26349312
 -0.10595966  0.13857599 -0.044576    0.05362934 -0.07443915  0.300252
 -0.27590635 -0.01042376]
[ 0.27593     0.2614247   0.2232337  -0.199265   -0.1928774   0.29108253
  0.09098735 -0.04712254  0.19213542  0.1244963   0.25736088 -0.13433553
  0.0931733   0.07083814  0.2931697  -0.26784337  0.08167962 -0.18056375
  0.23695828  0.25403255]
[ 0.22762357 -0.26806316 -0.10797907 -0.22263467 -0.12582757 -0.04582468
 -0.2061435  -0.2700279   0.24320546 -0.23482876  0.20658866 -0.18376234
 -0.17810488  0.22707942 -0.3158947  -0.16625974 -0.10910674 -0.04070975
  0.26107812 -0.19084403]
[ 0.03566051  0.10953139 -0.21123101 -0.23161004 -0.0783402  -0.3275318
  0.03651782 -0.18508977  0.15971862  0.31170535 -0.22502194 -0.18554328
  0.0368374  -0.01375717  0.25552008  0.15954982  0.1554817  -0.10150771
  0.13226055 -0.14433339]
[ 0.32779637 -0.05153845 -0.23109367 -0.03298344 -0.24639793 -0.25390285
  0.12857395  0.20466909  0.10589328  0.05699029 -0.3196735   0.12790094
 -0.03370776 -0.1898823  -0.19702888  0.01025336 -0.18643945  0.161265
 -0.12119206  0.01927108]
[ 0.11882453  0.23658447  0.07285146 -0.06930919  0.23144156 -0.06519739
  0.03528963  0.34685344  0.06324302  0.08065495  0.2960332   0.00847598
 -0.08212862  0.26692274  0.21693905  0.0886831   0.25813577 -0.13217269
  0.2140641  -0.16566613]
[ 0.04189061  0.2675756  -0.12857862  0.14908904 -0.13845861 -0.2511128
  0.04180863  0.17711087  0.16558732  0.19549206 -0.19258563  0.06953808
  0.0196488   0.11324012 -0.11313878  0.2953484   0.20787303  0.09848589
  0.13494426  0.31500164]
[-0.27328998  0.29644936  0.14063644  0.10252237  0.04289297  0.05954937
  0.08720605 -0.23080532 -0.10475063  0.0419801  -0.18797706 -0.31150845
 -0.28144327  0.03292483  0.26316822 -0.14389639 -0.20985016  0.2702473
  0.19003054 -0.13091552]
[ 0.25919276 -0.228464    0.01463849 -0.23887321 -0.08071107  0.21581219
  0.20279442 -0.1853788  -0.16847071  0.02987999 -0.05078647  0.13884065
 -0.1291655  -0.27369472  0.26965937 -0.26201987  0.23566096  0.271595
 -0.09746082 -0.20218873]
[ 0.03715189  0.00496765 -0.03948879 -0.07132165 -0.00211638  0.04375751
  0.00420224 -0.0026265   0.03748346 -0.01937218  0.0678885   0.07799006
 -0.04030468 -0.01272572  0.00197775  0.03588852  0.01933854  0.01546309
 -0.0138019  -0.06596463]
layer 5 Activation
tanh
layer 6 Dense
20 1
[0.06305446]
[0.28070635]
[-0.01457479]
[-0.16782354]
[-0.28002748]
[0.218511]
[-0.0105832]
[-0.02094058]
[0.18260932]
[-0.12940657]
[0.2865392]
[-0.00317544]
[-0.01599302]
[-0.07588392]
[0.16526611]
[0.1294173]
[0.0251563]
[0.16554074]
[-0.23029731]
[-0.12525076]
[0.03160401]
