layers 7
layer 0 Dense
20 20
[-0.23848265 -0.1352645   0.00340385 -0.11575498  0.17232804 -0.07432719
 -0.0586864  -0.15496449 -0.07602891 -0.2666568  -0.31424475 -0.03472599
 -0.03367378 -0.13956901  0.30284783 -0.2722736   0.05718747  0.05582874
 -0.02260823  0.11467595]
[-0.3069848  -0.02885007  0.10668148 -0.24840927 -0.16320986  0.6326963
 -0.3761894  -0.30439454 -0.1956029  -0.08664595 -0.5443997  -0.29506046
 -0.2572926  -0.3780354   0.1854692  -0.2757573  -0.11353716 -0.24374168
 -0.10451911 -0.23204792]
[ 0.08232652 -0.23833935  0.23643902 -0.1805974  -0.20235305  0.3356936
 -0.0371711  -0.35146987  0.00999571 -0.53056914 -0.29816034  0.08899024
 -0.06193117 -0.3028651   0.06695532 -0.49725243  0.10456625 -0.3772793
 -0.47032675  0.3739558 ]
[-0.23946956  0.34370977  0.29056323  0.06039875  0.05182822  0.29184812
 -0.10609414  0.17494766  0.19416215 -0.03869835  0.2375672  -0.10306618
 -0.1906985  -0.1209634   0.14382814 -0.2113093  -0.3370892  -0.03122213
 -0.22774412  0.13228588]
[ 0.07109933  0.14379604 -0.06393722  0.11292048  0.34291404 -0.20655216
 -0.3989931   0.14857762  0.37954852  0.37826243  0.14736305 -0.21171258
  0.31203192  0.15725118  0.18442617 -0.26292655  0.17067118  0.35000965
 -0.35653365 -0.13751107]
[ 0.48710102  0.3719322  -0.08450337 -0.16655385  0.40347782 -0.10211308
  0.3534315  -0.03402166  0.22196762 -0.15373087  0.15355596  0.07260394
  0.3495093  -0.10016748 -0.149215   -0.14504644 -0.6393963   0.11822739
  0.50882006  0.01827162]
[ 0.5748712   0.27905554 -0.62813956 -0.23617451  0.17224596 -0.72547764
  0.08188156 -0.20443827  0.16863748  0.41589996  0.07728834 -0.20543177
  0.3439998   0.4652333  -0.20077348  0.22897854 -0.41894165  0.38583413
 -0.10069792 -0.4920946 ]
[ 0.0744798   0.03649028 -0.09669983 -0.15748042  0.14081256  0.40089983
 -0.39481267  0.29381764  0.13513872  0.00434882  0.10268985  0.0765619
  0.351812    0.02382564  0.30096164  0.28021863 -0.07869912 -0.03080286
  0.36306095 -0.13850653]
[-0.07803497 -0.3885274  -0.33729017  0.28451598  0.31275642  0.25574157
  0.51461166  0.24110734 -0.24562515 -0.28247833  0.4452757   0.00565058
 -0.437034    0.10792649  0.18174861  0.40739706  0.20535192  0.19123729
 -0.24282385  0.01559835]
[ 0.47321913 -0.40455258  0.31189185 -0.49370027 -0.15008274  0.28003368
  0.28784168  0.01097784 -0.38033068  0.26488805 -0.39728674  0.22872297
 -0.01353564  0.0816879   0.02541229 -0.23888077 -0.44186565  0.05417999
  0.08146191  0.09592558]
[-0.13041046  0.0670829   0.37153128 -0.07182837  0.10344756 -0.1782078
 -0.24366535 -0.10551794 -0.13899158 -0.24598219  0.22241452 -0.00508619
 -0.26327854  0.13259855 -0.27168697  0.34505725  0.17541642 -0.40283188
  0.33629802 -0.01911389]
[ 0.08664998  0.5697789   0.4251715  -0.831489   -0.3501472  -0.28903082
  0.1400317   0.54567194 -0.0387852   0.9413402  -0.40048805 -0.31190178
  0.5086728  -0.4769053  -0.2652274  -0.03803039  0.43206266 -0.53238237
  0.41204947 -0.03181334]
[ 0.17052107 -0.05098581 -0.12308919 -0.02648846  0.3382021  -0.16717143
  0.10383475  0.2921558   0.17436783 -0.11081115  0.20948586 -0.04141965
  0.43158758 -0.48572415 -0.27764502 -0.18511361 -0.098345   -0.42049664
  0.10691222  0.5195958 ]
[ 0.04093054  0.02669442 -0.39242813 -0.15534772  0.5406802   0.12877198
  0.48010987 -0.4554858   0.2256483  -0.30268493  0.15706165 -0.20315428
  0.67460287  0.38033482  0.6559991  -0.13614772  0.6681198  -0.11589373
 -0.68240094  0.15618835]
[-0.69968706  0.40403917  0.18124664 -0.15528627  0.66721135 -0.07949478
  0.2916245   0.65906733 -0.689681    0.36752355 -0.56182337 -0.04065504
  0.44215584  0.38740534 -0.4614313   0.34529993 -0.4379398   0.33830768
  0.16670024  0.2612327 ]
[ 0.1748021   0.06831364 -0.6074747  -0.16769964  0.47452435  0.23874924
  0.5182478  -0.07786596 -0.38097516 -0.6900344  -0.04940994  0.10187447
 -0.2819273   0.70894223  0.27974287  0.643065   -0.65537804  0.35728627
 -0.34443364 -0.499654  ]
[-0.21400197  0.3285816  -0.28289     0.40981874  0.12443841 -0.25850266
 -0.2671963  -0.35994953  0.2009211   0.11998872 -0.03397486  0.30901754
 -0.30358437  0.11825503  0.16202281  0.18378688  0.02290582  0.38823068
 -0.01552596 -0.38576683]
[-0.18198466 -0.26640254 -0.13310002  0.13754357  0.20666638  0.26770785
  0.19991016  0.13051197 -0.15513234  0.30610457  0.33214888  0.2364073
 -0.0644124  -0.02566765 -0.13932878  0.07194309 -0.29187074 -0.4119805
  0.1437711  -0.18729882]
[-0.05626938  0.32347375  0.0833643  -0.33580446 -0.11541143  0.00889719
 -0.10710245 -0.14489506 -0.10045033 -0.11764726  0.15698685  0.04934388
 -0.32304677  0.20627096  0.12093209  0.20713681  0.41890767  0.04707694
  0.16910386 -0.2804267 ]
[-0.41362286  0.14026363 -0.04678468 -0.03186825 -0.3317846   0.14950158
 -0.30852565 -0.11431824  0.35971844  0.27808678 -0.16398875 -0.1207239
  0.08624208 -0.35360935  0.3309079  -0.17371419  0.42694655  0.27732968
  0.49315113  0.42141014]
[ 0.04756017 -0.00720036  0.07848243 -0.10815483  0.09863968 -0.00108041
  0.05554287  0.03079017  0.04688734 -0.05729815 -0.04369101 -0.06619532
 -0.02826066  0.04135131  0.06524392 -0.03846919 -0.06150655 -0.05262722
 -0.05307931 -0.04049937]
layer 1 Activation
tanh
layer 2 Dense
20 40
[ 0.19381462 -0.12463651  0.3283467   0.21303862  0.12024916  0.08472758
 -0.11615725 -0.28481188  0.11776862  0.0342195  -0.08546865  0.11457843
 -0.29705477 -0.3095021  -0.23997866 -0.18635334 -0.16711262  0.1356638
  0.2094689  -0.06503365  0.18901531  0.3135475   0.00239939 -0.11316508
  0.08129859  0.15138704  0.20029257  0.03881972 -0.04183729 -0.10281836
 -0.15186535 -0.05751523  0.07127512 -0.32519954 -0.23977228  0.19335848
  0.07937732 -0.07321844 -0.07083921 -0.22448026]
[-0.0095714   0.00034515 -0.04043592  0.12171265 -0.20604225 -0.16005233
  0.2676911   0.06387439 -0.32592413  0.18847951  0.2412045   0.08393873
 -0.14016975  0.2557207  -0.13364445 -0.25945875  0.13107488  0.06181288
  0.18549216 -0.08253343  0.10886548  0.0111763   0.11306513  0.19949771
 -0.06393247 -0.08996958 -0.01731432  0.16045916 -0.04773584 -0.08007511
  0.02932144 -0.10331272 -0.01054318 -0.22523682 -0.03419578  0.17057322
 -0.2716075   0.11544962  0.23086882  0.32350525]
[-0.10351072 -0.14053293 -0.2113965   0.2049068  -0.07101128  0.02305152
  0.38816074  0.18788752  0.24282075  0.2334408   0.19129112 -0.18622622
 -0.21820527  0.01500436 -0.11353051  0.2476843  -0.02281358  0.1328833
 -0.12668979 -0.17582175  0.15656707 -0.04046308 -0.08589344 -0.266363
  0.2255759   0.16474502 -0.15749496 -0.00905557 -0.01314822 -0.09490076
  0.2204628   0.24265693  0.12214398 -0.10926047 -0.24857005 -0.00484465
 -0.03026751 -0.00103917 -0.1519104  -0.28157604]
[-0.05636268 -0.13578175  0.10115658 -0.3198165   0.03526389 -0.05631101
 -0.07286736  0.20443408  0.13926032  0.02406182 -0.05832611  0.05242297
 -0.35769796 -0.02067785  0.20260814  0.14577977  0.2797431   0.07435781
  0.15428504  0.2982418  -0.34445575  0.04712483  0.10812022 -0.2603825
 -0.01288552  0.09871352  0.20350915  0.22484656  0.0651601  -0.18583491
  0.3632394   0.28775623  0.23463614  0.1316822  -0.02382432 -0.1948182
 -0.11136211 -0.16054922 -0.12830234 -0.00892765]
[ 1.98737636e-01  7.22648576e-02 -2.37339944e-01 -3.05337757e-01
 -3.09465110e-01 -1.86256051e-01  6.58246130e-03  2.30424017e-01
  3.03178094e-04 -2.93040186e-01 -3.79851228e-03 -1.93410009e-01
  9.61891189e-02  2.37980425e-01  3.53058040e-01 -2.00523958e-01
 -1.02507561e-01  1.03870355e-01 -2.23097667e-01 -7.02823028e-02
 -1.95844937e-02 -3.06310654e-01 -1.52844056e-01  1.01346206e-02
 -1.92758247e-01 -2.72645116e-01  2.80381888e-01  6.66300673e-03
  1.28620222e-01  4.56826724e-02  3.14469039e-01  2.09893703e-01
 -3.87739092e-02  1.42413437e-01 -2.91367352e-01  2.84885913e-01
  2.30511338e-01 -5.18027961e-01  3.02113682e-01  1.74744472e-01]
[-0.17117539 -0.19784535  0.05941458  0.22485378  0.01153145  0.01901401
 -0.31484267 -0.0114243  -0.07526048 -0.04451076 -0.11506936  0.27742088
  0.19915251  0.04332679  0.28468785 -0.18114056  0.16994564  0.15086192
  0.16088724 -0.05749294  0.2678102  -0.058041    0.14947332  0.01302924
  0.3296804   0.01692608 -0.17780727 -0.20134954 -0.14088905 -0.05926094
  0.18367353  0.12827173 -0.198781    0.19304469  0.21293329 -0.07950453
  0.1359301   0.31395897 -0.20977621 -0.2514709 ]
[ 0.10649497 -0.0635123  -0.21702543 -0.13975018 -0.13460298 -0.27460688
  0.0035942   0.32838902  0.1970429   0.12788036  0.1229207  -0.2962956
  0.283456    0.00820226 -0.01712449 -0.36878553 -0.35938028  0.03710534
 -0.04511867  0.03309811 -0.2721308  -0.04385985  0.18290657  0.26740956
 -0.03283838 -0.17011867 -0.02979026 -0.28890622  0.3149431   0.04073463
  0.24113609  0.29751602  0.18551108  0.16989376  0.06818092  0.29174906
  0.28360143  0.01425205 -0.14114964  0.0413972 ]
[ 0.4123506  -0.0164079  -0.3459334  -0.11246657 -0.29334995  0.1430456
  0.3745254   0.11537082  0.19242138  0.36146253 -0.35082233  0.2360176
 -0.20388709  0.33996436  0.29731753  0.09498075 -0.31763056  0.03351797
 -0.14254218  0.28864503 -0.16056822  0.18852597  0.05758425  0.08766259
  0.30133754 -0.21284585 -0.07269447 -0.36711487 -0.23494548  0.23313703
  0.2216178  -0.02375707  0.11448167 -0.03639973 -0.18661316  0.09525973
  0.3262453  -0.2314072   0.01995047 -0.2604858 ]
[-0.03558081  0.1155932  -0.21098162  0.31787032 -0.03747409  0.18167335
  0.18712902  0.05806228 -0.13969077  0.35904667 -0.27836522 -0.19818783
 -0.16326562  0.3226558   0.20254816 -0.16046445  0.04210049 -0.35902065
  0.16146374  0.11872945  0.10184301  0.21701239 -0.23386899  0.0144204
  0.13364801 -0.07805376  0.21873525  0.18083164 -0.08320718 -0.22518577
 -0.31359813 -0.07702    -0.03197514 -0.13641684  0.07606902 -0.09443688
 -0.01873758  0.07030984 -0.07526048  0.3548918 ]
[ 0.10689957 -0.13626967  0.32256368  0.06046569 -0.19570781 -0.07038667
  0.27815327  0.05092708 -0.23507941  0.05550041 -0.28502372  0.06850182
 -0.6709628  -0.12225791 -0.28972638 -0.22521567 -0.3565671   0.11900834
 -0.19483142 -0.11954819  0.14211373 -0.27671313 -0.30712795 -0.13162622
  0.16184966  0.14228845 -0.36910015  0.14693807 -0.15039639 -0.0140583
 -0.2144706   0.00687505 -0.01239802  0.28529575 -0.04301618 -0.16189457
  0.16644368 -0.2496499   0.26507398 -0.42995322]
[-0.10489612 -0.18858315  0.18701848 -0.06635191  0.16132799  0.20237568
 -0.46124706  0.0544936  -0.13856775 -0.11399379 -0.27021873  0.22102924
 -0.2302617   0.06436939 -0.09767194  0.11086905  0.08225691 -0.09201998
  0.05637944  0.05604879  0.1242236   0.1082224   0.04281031  0.06045371
 -0.23482327  0.27798784 -0.08790654  0.32340145  0.3145753   0.11639059
 -0.24523774  0.2043117  -0.31219503 -0.031397   -0.09605224  0.0056133
 -0.4424086   0.2321062   0.02052163 -0.1430672 ]
[ 0.20648937 -0.21797493  0.11152296 -0.04445917 -0.05811757 -0.19306064
  0.13473655 -0.20029448  0.19018641 -0.18026859  0.19003314 -0.07692162
 -0.22529997 -0.17052515  0.07872024 -0.30915913  0.25457704 -0.2315646
 -0.13886617 -0.04881845  0.12959203  0.29248574  0.09062409 -0.11742871
 -0.00840993 -0.2524079  -0.26772857  0.09172062  0.07681041  0.2673286
 -0.1920254   0.19980566 -0.15201017 -0.30336335  0.04953728  0.26136264
  0.48777047 -0.19876061  0.03343903 -0.31997803]
[-0.04961958 -0.02319995  0.03942439 -0.02706062  0.04521348 -0.07293531
  0.41867274  0.23731282  0.00442207 -0.13763578 -0.15135927 -0.19808222
 -0.15943249  0.24444504  0.20604093  0.34773123 -0.16832753 -0.23412697
  0.21320766 -0.08122575 -0.08319052 -0.14414921  0.31691214 -0.13401544
  0.3039106  -0.2941196  -0.34959096  0.2230681   0.23103075 -0.13766348
  0.18742277 -0.24559413 -0.13886961  0.2837694   0.260152    0.13934349
 -0.01130035 -0.3353682   0.21625733 -0.00056443]
[-0.21673033 -0.05346242 -0.294211   -0.12377306 -0.19422041 -0.03232986
 -0.21754396  0.14480041 -0.16952184 -0.05814308  0.2730389   0.20948438
 -0.02248096  0.01097459  0.07757985 -0.18827425  0.20180357 -0.03884736
 -0.272755   -0.01345445 -0.20926246  0.00776315  0.30183494 -0.18428689
 -0.09397798  0.28470457  0.07144034  0.03334901  0.04809403  0.26043952
  0.23794845  0.37409538  0.3802984   0.16235112  0.04330094  0.10782906
  0.07825991 -0.00234898  0.07940704  0.20297201]
[-0.22588718 -0.00597637 -0.27125952 -0.11968323 -0.00065608  0.17800303
 -0.10712024  0.24406558  0.23005576 -0.23678336  0.25265768  0.06378208
  0.3145601   0.1656076   0.07982475  0.04625751  0.27282706 -0.18468377
  0.08683994  0.14846566 -0.22245514 -0.08188139 -0.19488868  0.02775406
 -0.0632254   0.11818237 -0.08390684  0.08433148 -0.0828412   0.2769424
  0.18466394 -0.203635    0.05733232 -0.08677153 -0.02696777  0.06002634
 -0.05330385  0.36601004  0.225391   -0.02403848]
[ 0.20374458  0.040338    0.13278647 -0.13719483  0.06690716  0.25114465
 -0.33881643 -0.26334628  0.19978327  0.18778192 -0.12276983  0.11882661
  0.09551825 -0.17578588  0.22610416 -0.2903538  -0.16968772  0.32013914
  0.22663495 -0.02658922  0.22189446 -0.03738128  0.06588577  0.11066385
 -0.33554524  0.07475422  0.2292794  -0.2500562  -0.26515415  0.01942931
  0.0342577   0.25097284 -0.04192951  0.30642998 -0.1001703  -0.27693015
  0.04726355 -0.07984147  0.11950088 -0.1688044 ]
[-0.06002426  0.22389978  0.09260731 -0.05246597 -0.0278727  -0.29714468
 -0.0890302   0.21855153  0.26864943  0.18803473  0.2742987  -0.0562421
 -0.24843283  0.1484363   0.13725598  0.14634565 -0.22152257 -0.5441948
 -0.02253076  0.34189346  0.37015134  0.0205317  -0.3195379   0.18111068
  0.06784665 -0.16974773  0.13942423  0.35604367  0.1192743  -0.0827137
 -0.2728806  -0.02666796  0.1648684   0.13764079  0.10210612  0.25379127
 -0.30201894 -0.05879389  0.39033818 -0.27063647]
[ 0.21129842 -0.00965671 -0.2328755  -0.23461334  0.11117513  0.01326608
 -0.30911016  0.15848374  0.18349393  0.31192252 -0.1965567   0.05030887
 -0.28282306 -0.11703279  0.08070234  0.08836687 -0.02826478  0.36404878
 -0.07127392  0.08378316 -0.025058   -0.26223046  0.0472315   0.05357996
 -0.2979096  -0.36280194  0.2963839  -0.21177594  0.2958266  -0.14989632
  0.19674613  0.37504816 -0.13008842  0.2460045  -0.16670191 -0.2636613
  0.12402367  0.07247546  0.19497368 -0.12467586]
[ 0.03760967  0.00377507  0.11055963  0.24862994 -0.19730175 -0.14554751
  0.09699405  0.34188017 -0.12476939  0.09623896 -0.18546978  0.03375813
  0.01557951 -0.0063017  -0.15072626  0.14875598 -0.0862775   0.05859828
 -0.1445953  -0.255727    0.2868366  -0.17176934 -0.1081016  -0.11062215
 -0.21076533 -0.13616809  0.05208679  0.08732604 -0.07575735 -0.0788532
 -0.2426078  -0.1682684   0.01022664 -0.13518322  0.04729665  0.19313727
 -0.21474034 -0.06638768  0.2608128  -0.44898218]
[-0.35035804  0.24484272  0.03413765 -0.18783486 -0.1961711  -0.3017823
  0.35549334 -0.12545308  0.2618357   0.0365076  -0.10259471 -0.09674385
  0.26534262 -0.17742921  0.14530718  0.14420058 -0.37838116 -0.0184947
  0.3250586   0.18641903 -0.23694648 -0.24124071 -0.10744634  0.03337587
  0.02531318 -0.3884948  -0.10934637  0.15466091  0.16684023  0.15306903
 -0.10373516 -0.17815797 -0.18168907  0.3432323  -0.08803892  0.10984417
 -0.20126094  0.14539415 -0.01819673 -0.18755074]
[-0.01646232  0.0310934  -0.09067443 -0.12421535 -0.00096122 -0.0116427
  0.16262515 -0.01047337 -0.03368559  0.0259397   0.03274542 -0.06816619
  0.11514724  0.05491593 -0.04071197  0.00229613 -0.07334788 -0.11497577
  0.03018735  0.03716126 -0.01829886 -0.05161578 -0.02436261  0.02504022
  0.03286802  0.04308977  0.00323465  0.12070309  0.02199875  0.01878856
  0.05733337  0.007158    0.01680275 -0.01883113  0.01764142  0.0185659
  0.08554317 -0.06565044 -0.03461152  0.08112291]
layer 3 Activation
tanh
layer 4 Dense
40 20
[-0.28163338  0.1430536  -0.03720598  0.15959622 -0.07928162 -0.18405925
  0.14947058 -0.27380037 -0.0327305   0.24067466  0.3063895  -0.12568253
  0.2849376  -0.24140926 -0.15744355  0.23682894 -0.05995263 -0.08258262
 -0.10474595 -0.08039487]
[ 0.10188515 -0.08890191  0.06818894 -0.36754614 -0.19829668  0.2530715
  0.26519874  0.1953646  -0.12240456 -0.0360187   0.02150716 -0.18052723
  0.04910888  0.26952338 -0.1250845  -0.1362568   0.3231868   0.2545297
  0.10373303 -0.24069472]
[-0.13935286  0.09579629 -0.13027985 -0.13090885  0.23941188  0.12869772
  0.34808123  0.27693275  0.11000072 -0.16638309  0.14565875  0.16531873
  0.08954863 -0.17123826 -0.25746292 -0.00306538  0.1966612  -0.12751034
 -0.19167417  0.09694094]
[ 0.20673351  0.1611415   0.00560198 -0.02288921  0.10629798 -0.02509238
  0.06281884 -0.2652095   0.27918825 -0.03566259 -0.02608413  0.19712906
 -0.2501653   0.29733875  0.17951332  0.13297516 -0.11113369  0.07716465
  0.0617164   0.1041843 ]
[-0.01893285  0.08902011  0.22369847  0.02237301  0.26930657 -0.1603001
 -0.10603736  0.16939898 -0.15846603 -0.11494859  0.12141893  0.27280325
 -0.00834376  0.06058985 -0.07348653 -0.25601688 -0.12191211 -0.21046756
  0.00636316  0.10565914]
[ 0.17696597 -0.10306962  0.01476638 -0.2705985  -0.13958277 -0.08819107
  0.09174519 -0.22242206  0.28474662 -0.18995883  0.14547415  0.0168004
  0.1671278  -0.06519803 -0.02492913 -0.0139332   0.31399125 -0.01717415
  0.2888143   0.1097788 ]
[-0.1576105   0.04920283  0.10100562 -0.02437862 -0.2802144   0.2441555
  0.05069959 -0.08681954 -0.19407402  0.24405408 -0.26763397  0.19511265
  0.32991338  0.06411956 -0.05488526  0.07964364 -0.09090032 -0.17363027
  0.20246369 -0.23500803]
[ 0.12078728 -0.20327398  0.0224505  -0.03872706  0.03874649 -0.02493374
  0.05965304  0.13828416  0.35347754 -0.04629658  0.01951223 -0.32511917
  0.29409656  0.06979003 -0.02966357  0.07191122 -0.23328808  0.17346816
 -0.16886975 -0.15926896]
[ 0.20689756 -0.0015647  -0.11655364 -0.05986966  0.05661574 -0.02913361
  0.22986679 -0.12296655  0.07175498 -0.20590971  0.06339395 -0.03000241
 -0.23078951  0.05479348  0.06613081  0.04213377  0.06243607  0.19808207
  0.29125056 -0.11403637]
[ 0.15795968  0.17370205  0.2339572   0.0465165  -0.19851574  0.10392721
 -0.08296839 -0.14271939  0.13070449 -0.07587843 -0.06884357 -0.2641956
 -0.17757978 -0.14885557 -0.12413615 -0.04733587 -0.22495449 -0.31589293
 -0.21389657 -0.18197241]
[-0.12571482 -0.15707289 -0.27235702  0.24805045  0.3050297  -0.18805087
  0.1734635   0.28243122  0.18495752  0.03318905 -0.22838002  0.10096359
 -0.03242374  0.2381293  -0.20382947 -0.15434965  0.17503002 -0.20094007
  0.13191676 -0.13716021]
[-0.14927803 -0.16712499 -0.0188429  -0.12858197 -0.14455618  0.09194881
 -0.02006708  0.36245492 -0.26137504  0.06326143  0.2989635   0.20986968
  0.19131929  0.0905082  -0.27403167  0.16915795 -0.07549559 -0.21497262
 -0.16428788  0.13332538]
[ 2.00766668e-01  2.05094948e-01  1.29493654e-01 -1.61719784e-01
 -3.31553847e-01 -8.28388706e-02  9.40626040e-02  1.14237191e-05
 -1.29826307e-01  2.11400568e-01 -6.93149939e-02  1.93566963e-01
 -1.64168656e-01  2.19493240e-01 -1.48704629e-02 -3.39940608e-01
  7.33180195e-02  5.54517955e-02 -1.19971134e-01  1.32818427e-02]
[-0.33411828 -0.02082624  0.22432359  0.1501114   0.09718824  0.2793165
  0.0186274  -0.244113    0.06380623  0.00257643  0.22262129 -0.071319
 -0.007761   -0.00242627 -0.2235849  -0.3075362   0.21112677  0.26892465
  0.2302714  -0.32215345]
[-0.0711173  -0.18251926 -0.10944989  0.10930546  0.26399076  0.04367695
 -0.08475474  0.22729269 -0.00637328  0.02274626  0.28904033 -0.30676657
 -0.11048251  0.0931918   0.16494359 -0.16425467 -0.10457669 -0.05839608
  0.15858929 -0.06130354]
[-0.1534747   0.14484434  0.12491758 -0.05038042 -0.2784128   0.04518268
  0.293231   -0.2605423  -0.1394121   0.1441675  -0.03266069 -0.02155369
  0.32648867  0.27660328  0.06619886  0.014033   -0.13164638 -0.02237822
 -0.2391419   0.25219908]
[-0.14106014 -0.12333906 -0.17128322  0.25886527 -0.04193915 -0.28209162
 -0.13412917 -0.0430168   0.22396149 -0.06783097  0.13205865  0.27663788
 -0.34905815 -0.24415573 -0.32394564 -0.01150416 -0.2799751  -0.03604254
 -0.09790131  0.24109681]
[ 0.25427893 -0.08544506  0.29711613  0.17854175 -0.13352197  0.2489585
  0.10501248  0.03388922  0.11246761  0.19698882 -0.03494709 -0.03752047
 -0.05866031 -0.20154586  0.2079203   0.33322892  0.0988699  -0.0099953
 -0.02130493 -0.28086516]
[-0.05862595  0.05291922  0.12021536  0.1077431  -0.28324056 -0.09852532
  0.37173617 -0.35109934  0.17098232 -0.01438851  0.12246331  0.08039006
 -0.2755623   0.35540903 -0.23361845 -0.26003754 -0.01797901  0.06637306
  0.002733   -0.08466111]
[-0.2629795  -0.06737193  0.04934731  0.2778891  -0.03657705 -0.09240969
 -0.14906158  0.12441617  0.11631279  0.01126581  0.17813306  0.09380583
  0.26357013  0.2578388   0.04117824 -0.14564507 -0.11296022  0.22059004
  0.00133171  0.04703395]
[ 0.03926644  0.02650114  0.2768946   0.23819196 -0.15876631 -0.01093688
 -0.08230877  0.11131687  0.15785046 -0.27528724  0.2786809  -0.2185018
  0.33134723  0.16780996  0.20500043  0.04554444 -0.07075556 -0.09652925
 -0.00622952  0.22889847]
[ 0.21541882 -0.23415616  0.22260348  0.11499061  0.07204532  0.40394226
 -0.3510931  -0.07400878  0.09516765 -0.1488144  -0.03838527  0.40196097
  0.10111344  0.11274746 -0.25279707 -0.04080492 -0.3322501  -0.00928428
 -0.0945631   0.07357706]
[ 0.18215318  0.205585    0.02984887 -0.2333068  -0.27528676  0.06526007
  0.08555072  0.25636676 -0.11614563  0.26600406  0.0716185   0.09934343
 -0.13399096  0.20253505  0.38277698 -0.07181783  0.19532001  0.0527828
 -0.0088837  -0.04271375]
[-0.01815035 -0.0219362   0.23039342  0.14966182 -0.13270727 -0.06226243
  0.15470526 -0.0071136  -0.05011103  0.21042079 -0.02966085 -0.23979117
  0.3477924   0.2770647  -0.27738097 -0.15618335 -0.02312739  0.02690426
  0.17415577 -0.2540662 ]
[-0.13482262 -0.24080172  0.02518747 -0.01082303 -0.21407823  0.12207694
  0.09405142  0.07634275 -0.0670379  -0.12826668 -0.13326183  0.0424537
 -0.17035595  0.27730912  0.16138318  0.10142348  0.03393934  0.05557164
  0.19834952 -0.2769403 ]
[ 0.06492577 -0.08884537 -0.13603318 -0.18549168  0.11134666  0.2934052
 -0.07099058  0.2480511  -0.03299954 -0.1448353  -0.35168132  0.15439335
 -0.29481637 -0.13862742 -0.01948272 -0.09071102 -0.21950161 -0.1270141
 -0.02618881  0.2695686 ]
[ 0.02214379  0.24171744  0.21362334  0.30835584 -0.17777608  0.06728124
 -0.07313735 -0.04438784  0.2123944   0.04780225  0.25010797 -0.00640675
 -0.07943193 -0.06494164 -0.2509362  -0.05494613 -0.2805127   0.30575693
  0.16070639 -0.07697267]
[-0.24186592 -0.11099128  0.20730758 -0.15719782 -0.22096482  0.1574633
  0.04429276 -0.00050175  0.26711968 -0.09394238 -0.30786628  0.16132176
  0.396873    0.24527232  0.18462504  0.1100029  -0.2544785  -0.10327667
  0.10675632  0.27494806]
[-0.17092988  0.0841368  -0.06680045  0.13895206 -0.18652536 -0.15349084
 -0.03983809 -0.08759443  0.05301543  0.16547608  0.02486966 -0.16040774
 -0.41870672  0.00588342 -0.2512381  -0.19957078  0.13399619  0.14450131
  0.10115284  0.14277977]
[-0.15958932  0.17487773 -0.28715843  0.05612112  0.05702591  0.20183516
  0.14212143 -0.1554223   0.24885638  0.07259515 -0.14907706  0.17569213
  0.006521   -0.05548893 -0.17442627  0.05190305  0.09554963  0.2715449
 -0.07147431  0.26060265]
[ 0.00144936 -0.33866894  0.20067658  0.1604613   0.03829067 -0.05979533
 -0.08453915  0.23852976  0.18387806  0.34695718 -0.2226643   0.14635894
 -0.14192624 -0.07167953  0.13515604 -0.16964008 -0.08374384  0.06199436
  0.37631568 -0.09224771]
[ 0.00043887  0.11398206 -0.03447727 -0.26582044 -0.18046102  0.21456027
 -0.3451019  -0.1042872   0.1769287   0.21096492 -0.22213212  0.27539706
 -0.38787013 -0.315143    0.02876891 -0.04060879 -0.17137292  0.04678838
  0.2548158  -0.10058967]
[ 0.1896061   0.26467228 -0.15623043  0.09423018  0.17292063  0.02820634
  0.15795971 -0.068325    0.0297074  -0.14519088 -0.24889465 -0.22090755
 -0.08631003 -0.25211704 -0.11459159  0.04636984  0.15999924 -0.11156248
 -0.02760988  0.27558845]
[-0.1455747   0.05930296  0.20763041 -0.21045347  0.12004004 -0.04851466
 -0.22122449 -0.07966176 -0.2151215   0.31850016 -0.04375064 -0.18138708
 -0.12755206  0.16741337  0.08403844  0.10169615 -0.11158016  0.06942888
 -0.04247288 -0.30340242]
[ 0.144832    0.16684557  0.17784488  0.18796888  0.03772678 -0.10397784
  0.12699157 -0.2657846   0.23547609 -0.02201414  0.08393914 -0.07935333
 -0.26051643  0.13852075  0.12926316 -0.11450962 -0.20570248 -0.20425871
  0.10683158 -0.03852247]
[-0.01465403  0.11249755  0.04712193 -0.23586327  0.04651203 -0.01354029
  0.25505945  0.25591633 -0.04912131 -0.24913198  0.2438085  -0.06444967
 -0.05112478 -0.01437576 -0.04340119 -0.22611757 -0.12416264  0.15925314
  0.4165882  -0.10709002]
[ 0.07133812  0.01256035  0.2730328  -0.17819643  0.03222491 -0.33346623
  0.17471373 -0.07191964  0.12595019  0.14056076  0.11968592 -0.15206797
 -0.03304388 -0.02216768  0.0008909   0.21924661 -0.08565753 -0.10966349
  0.3126835   0.15051164]
[ 0.16902827 -0.11187734 -0.25297907 -0.35150236 -0.2808664   0.2903632
 -0.07576673  0.3454964   0.26178762 -0.13877755 -0.18769732 -0.27762255
 -0.10624253  0.09200934  0.15396813 -0.04700413  0.15565126  0.07722998
 -0.2580777   0.29443562]
[ 0.06545499  0.12285693 -0.3166643  -0.12573294 -0.03876927  0.17721477
  0.10338582  0.29008067  0.16912843 -0.22097123  0.39534655 -0.25431335
 -0.01247526  0.19285382  0.24546152  0.28412688  0.24343169  0.05037863
  0.17833875 -0.16593906]
[-0.08610631  0.17202099  0.10450672  0.08241478  0.1284457  -0.11295604
 -0.09390847 -0.2527986  -0.23705202  0.28584987 -0.3016899  -0.19644165
 -0.00638543  0.11325634  0.2645681  -0.27215624  0.02102719  0.13479601
  0.01542789  0.24847382]
[-0.02739068 -0.00907397 -0.00099549 -0.01764691  0.00093706  0.03342596
  0.11041246  0.00076691  0.01745635  0.01599799 -0.09398307  0.02338594
  0.01065847 -0.00223102  0.00452946 -0.06795283 -0.02224973  0.00586448
  0.02225481  0.00773771]
layer 5 Activation
tanh
layer 6 Dense
20 1
[0.18684538]
[-0.00528277]
[-0.0212006]
[0.00771682]
[0.01620893]
[0.00479609]
[-0.01063024]
[0.01825298]
[-0.00154361]
[0.25362077]
[0.16942865]
[0.05368961]
[0.01956818]
[-0.21713394]
[-0.02076248]
[-0.21921633]
[0.00350454]
[0.10842979]
[0.00589224]
[0.1724344]
[0.0185216]
