layers 7
layer 0 Dense
20 20
[-0.04180341 -0.48416066 -0.10382061 -0.40347275  0.07626361 -0.06142533
 -0.6218408   0.27891034  0.11719783  0.09265735 -0.2508148   0.18982135
 -0.6026226  -0.28183758 -0.08205345  0.22399591  0.23035479  0.1938048
 -0.43761304 -0.3685146 ]
[-0.9839249  -0.47909084 -0.46222886 -0.48736835  0.951698   -0.06153279
  0.478408    0.49828038 -0.55683345  0.22012186  0.05308625 -0.09761581
  0.1877916   0.15354382 -0.4475878   0.7946054   0.481304    0.06136726
 -0.44576746 -0.00699242]
[-0.46609086  0.21674474 -0.34778082 -0.1925762   1.1789356   0.10632931
  0.06730618  0.5150415  -0.12852117  0.39187333  0.31055424 -0.06564245
  0.1813652  -0.10115117 -0.70844346  0.83287376  0.53780705  0.5558959
 -0.5887556  -0.1494979 ]
[ 0.02876148 -0.4116353  -0.3404209  -0.15966217 -0.08826006 -0.47753808
 -0.11371371 -0.13676037 -0.20916446  0.27218917  0.25318116 -0.27708378
 -0.10311596  0.33836472  0.16122583  0.28994432 -0.30753362 -0.23877884
 -0.48845625  0.05950793]
[ 0.26491636  0.18698235 -0.15631685 -0.24455705  0.38350433  0.02385326
  0.24329835 -0.3269705   0.05839969 -0.09829258  0.22365807  0.21039313
  0.02827031  0.36604956  0.05881561 -0.12857874  0.02083164 -0.08771735
 -0.17418598  0.02509124]
[ 0.4779684  -0.01017458  0.4181473   0.1352027  -1.2308965   0.26718214
 -0.09662203 -0.22561982  0.5552032  -0.1434429  -0.03314387  0.5585773
 -0.2258615   0.01593231  0.5383226  -0.16249944  0.03643892 -0.21693785
  0.23122232  0.19928987]
[ 0.79448205  0.4276516  -0.21378058  0.39680526 -1.4942973  -0.30805907
  0.10247829 -0.04267495  0.44452614 -0.01451943 -0.69462806  0.02696774
 -0.25631776  0.2979465   0.28727344 -0.5678477  -0.24553654 -0.32346407
  0.08127549  0.47477135]
[ 0.08170528  0.3181007  -0.0546685   0.146172    0.30889994  0.74228585
 -0.3746297   0.17351034 -0.42182216  0.24650484 -0.12991649  0.5344868
  0.6969411  -0.6576428   0.21584766  0.11416648 -0.22397645 -0.36615476
  0.5358923   0.06198619]
[-0.45957437  0.36299577  0.1499333  -0.38027054  0.48675433  0.02587856
  0.26382273  0.77582306  0.08765233 -0.25137782  0.772186   -0.22230689
 -0.9033897   0.19638921 -0.5840059   0.78624654  0.08585885 -0.15870596
  0.21483074 -0.43158796]
[ 0.50431734 -0.46490142 -0.34901884  0.23392315 -0.5487645   0.04050807
  0.09486888 -0.08698481 -0.18821284 -0.01756733  0.01793945 -0.07658777
  0.23852879  0.02189862  0.05904162  0.0132444  -0.25155625  0.17777522
 -0.15083861  0.41384402]
[ 1.1113732  -0.14167185  0.00750127 -0.04510047 -1.3872739  -0.02014443
  0.4512245   0.7792193  -0.23948854  0.5538291   0.16432439  0.22303775
  0.17545828  0.59435296 -0.10847972  0.25573954  0.06121229  0.62263775
  0.23740561  0.22314759]
[-2.0884292   0.358529    0.46518695 -0.721341    2.3602288  -0.8974378
  0.7494408   1.6632819  -0.21282583 -0.49878767  1.5188017  -1.3295959
 -1.7917702   0.95999414 -0.7077954   1.3802729   0.87679654 -0.8977823
 -0.59866714 -0.9165174 ]
[ 0.93710035  0.186278    0.06062773  0.04137306 -0.7421673  -0.02473942
 -0.56840277 -0.42989776  0.03301311  0.44289836 -0.7150404   0.39880723
  0.6816172   0.16276251  0.2651428  -0.45135263  0.06067412  0.02470597
 -0.07378507 -0.08276003]
[-0.17053719 -0.1372949   0.13395625 -0.3081189   0.10664099 -0.06198433
 -0.27819085 -0.30841175 -0.10789133 -0.04339222 -0.00354552 -0.29026583
 -0.24101338  0.47764042  0.19809961  0.2288902   0.17859283 -0.0763844
 -0.26549003 -0.28693092]
[-0.10052372 -0.0347328  -0.2399435  -0.05753167  0.60712004 -0.15584795
 -1.0610383  -0.59702975 -0.30810913 -0.4103818   0.01859809 -0.61319137
 -0.216043   -0.03971491 -0.20237058  0.18014556  0.15885256  0.29903018
 -0.11014916  0.42093804]
[-0.6520158   0.21276094 -0.06495237  0.07461727 -1.5782499  -0.151888
  0.01388923  0.20956047 -0.22335602  0.3348673  -0.78561443  0.8190382
 -0.18181515  0.9476773   0.00901833 -0.36039364  0.3210423   0.23315367
 -0.03530183 -0.09539437]
[ 0.6250669   0.47191966  0.0047422  -0.0405334   0.46272027  0.24552229
 -0.2077206   0.2066724   0.08240858  0.44424623  0.6584983  -0.10816507
  0.16040978 -0.69316614  0.17246504 -0.55127645 -0.27148646 -0.02848042
 -0.16001618 -0.64385325]
[-0.14128359  0.31281516 -0.02786086 -0.15748574  0.6285062  -0.00946239
  0.27041274 -0.29553607 -0.22733474  0.69027     0.14760187  0.18316822
 -0.21910448 -0.31940812 -0.18574889  0.02355179 -0.1211665   0.340217
 -0.3397971   0.00621455]
[-0.9219332   0.3706854   0.02339201 -0.49683967  0.6683518  -0.0345459
  0.3192598  -0.1282599  -0.06065614  0.6960708   0.03179949 -0.08093784
  0.05747648 -0.7358644   0.10730278  0.17832497 -0.09372293 -0.371587
  0.02629998 -0.13743794]
[ 0.35797554 -0.67763394  0.22572964  0.04537465  0.2797403   0.48659825
 -0.8363177  -0.9612884  -0.3906058   0.596025   -0.35912257  0.19134334
  0.8720208  -1.2816771   0.15964913 -0.27319786  0.02839841 -0.45920363
  0.76564103  0.04140677]
[-0.25670314 -0.20043115 -0.18093851 -0.04461481  0.01453206 -0.2831143
  0.00230074  0.11238406  0.08567305 -0.2605644  -0.15283422 -0.2106867
 -0.17816266  0.20781258  0.00399821  0.25876653 -0.02375801  0.14826952
 -0.17904931  0.04371912]
layer 1 Activation
tanh
layer 2 Dense
20 40
[-0.31432134 -0.00881036  0.23020644  0.01797492 -0.11964004  0.11186971
  0.20950432  0.20596673 -0.14479734 -0.14180599 -0.3519443   0.02754109
 -0.09990589 -0.07399152 -0.19313924 -0.16945145 -0.13035442  0.64224327
 -0.02218745 -0.14291207 -0.00455093  0.15151033 -0.13775235  0.09644893
  0.04427142  0.2940391   0.03349178  0.1550075   0.3891041   0.16803883
  0.400031   -0.13567398 -0.20789845  0.47156444 -0.07175238 -0.6464646
  0.08631123  0.25299117 -0.26674265 -0.1428566 ]
[-0.34647644  0.32678983  0.40981668  0.22764279 -0.14143087  0.1312986
  0.19062202  0.22223403  0.28209865 -0.02973212 -0.08540133  0.35835567
  0.49025583  0.18386327 -0.48530743 -0.10588034 -0.23378038 -0.028976
  0.26440218  0.06427966  0.19271722 -0.10529546 -0.03992317  0.01968556
  0.18673094  0.00970086 -0.1665255   0.11263378  0.2914234   0.2774693
  0.26413098 -0.5082401  -0.16780403  0.28754967 -0.12334229  0.09526079
  0.33970022  0.29883075 -0.08623439 -0.26377186]
[-0.01397122  0.19136277  0.07449026  0.18818374 -0.02665829  0.09902094
 -0.14737639  0.5868616   0.00146735  0.0352824   0.11859684  0.04650713
  0.2796203  -0.06463373 -0.26633927 -0.2910048   0.02390401 -0.08690394
 -0.30915788  0.01170137 -0.12830228  0.35750377  0.2952456  -0.280078
  0.23574167 -0.21995991 -0.08539632 -0.15144858 -0.15451238 -0.1840343
 -0.04715993 -0.17190851  0.32539436 -0.11920689 -0.01911638 -0.07441029
  0.18838958  0.25785723  0.2309355  -0.05037149]
[-0.1135151   0.01927215  0.12624477  0.34908572 -0.00242067  0.06130566
  0.15871903  0.29888865  0.03452595 -0.00529746 -0.17546111 -0.02880584
 -0.1858107  -0.17331767  0.07085076  0.03304647 -0.2231836   0.20401137
 -0.20164457 -0.0811926   0.4126944  -0.10993442 -0.24915457 -0.05970513
 -0.0348055   0.13157122  0.01568537  0.23261128 -0.01986508  0.08279864
  0.01867596 -0.28960177 -0.11363633  0.08458256  0.18440612 -0.02440841
  0.2300529  -0.07802787 -0.19506422  0.13625966]
[ 0.30338338  0.13124871 -0.27144173 -0.12245589 -0.07799982  0.02854111
  0.04859697  0.27494368  0.15980439  0.10853186  0.3582519  -0.31398803
 -0.24298674 -0.11575588 -0.02166712  0.14528953 -0.42532292 -0.7659547
 -0.16811432  0.3955876  -0.18931125 -0.36212856  0.45638305 -0.24995269
 -0.24442413 -0.32162505  0.28707254  0.11676086 -0.10409898  0.02480412
 -0.37336642  0.6918441   0.05832507  0.09613013 -0.22548378  0.0754031
  0.25748256 -0.34760922  0.35447177  0.29307887]
[-0.02698363  0.10297018  0.2969444   0.1460062  -0.2286566   0.3716601
 -0.09822836  0.75301623  0.18566406  0.35374567  0.24400587 -0.01695572
  0.29234567 -0.01871677 -0.09174663 -0.19167595 -0.27755415  0.06868476
  0.06588843 -0.194708   -0.40438738  0.06742742  0.05959821 -0.05158544
  0.00370179 -0.09325074  0.15653881  0.00331547  0.12476516  0.05713157
 -0.28032035 -0.34590578  0.13807677  0.02751228 -0.03609778 -0.2683157
  0.64971375  0.24738678  0.34150222 -0.2847159 ]
[-0.10132048 -0.01524728 -0.19028938 -0.29425612 -0.042386   -0.041088
  0.20487174 -0.15166353 -0.298495   -0.35754386 -0.14404082  0.16720694
 -0.30832675  0.3992879   0.21576431  0.6998732   0.25405225 -0.4783885
 -0.5213193  -0.09387978  0.2883245   0.21138342 -0.13423558  0.11419385
 -0.03343182  0.4963505   0.02661008  0.02805457  0.1909882  -0.45657936
 -0.14406525  0.29801652 -0.6066008   0.5228865  -0.13844688  0.35124102
  0.4003291  -0.29556036  0.20006937 -0.22055356]
[ 4.6613261e-01  3.1797809e-04  2.9582271e-01 -9.3940578e-02
  1.2919246e-01 -4.2159718e-02 -8.6824536e-02 -8.5586689e-02
  1.8940201e-01 -2.9378697e-01  3.7389967e-01 -2.8459337e-01
  5.2146226e-02  1.4260325e-01  1.5731316e-02  2.5245233e-02
 -2.6200421e-02 -7.4475628e-01  1.2834486e-01  2.6499376e-01
  2.9999608e-01 -4.8123410e-01 -4.7478937e-02 -1.3231319e-01
 -1.8676077e-01 -2.3516047e-01  3.7725687e-01  5.8951031e-02
 -2.6040602e-01  3.5919908e-03 -2.2510211e-01  1.6097392e-01
  4.3642413e-02  2.3607866e-01 -2.8394097e-01  3.4870085e-01
  2.2575231e-01  3.0195339e-02  2.1954934e-01 -1.7921691e-01]
[-0.07805125 -0.10390332  0.05322448  0.01045839 -0.18920515  0.3357687
 -0.15903263  0.26165184 -0.20257762  0.12954463 -0.10618738  0.05322133
  0.2643853  -0.33234704 -0.12766512 -0.06059244  0.15523526 -0.2218882
 -0.33187371 -0.11028349 -0.06134017  0.2587228  -0.07670077  0.02778054
 -0.11452977  0.3316317  -0.03107022  0.03514584  0.14022292  0.02918485
  0.04811024 -0.08712804 -0.12526622  0.41023675  0.04104403  0.00598172
 -0.39788416  0.22933097 -0.21699622 -0.03569928]
[-0.4669412   0.2492921   0.05011365  0.25304687 -0.3094927  -0.13583997
 -0.3379193  -0.03396872 -0.24293195 -0.14184546 -0.06440248  0.11412757
 -0.1323959  -0.02747818 -0.35982582  0.10212661 -0.34736612 -0.21375091
 -0.22103494 -0.1889077  -0.6634032   0.4506424   0.08819459  0.07401954
  0.2834239   0.2197119   0.16460705  0.17663096 -0.05643669  0.2812732
 -0.23127426 -0.08339096  0.09956253 -0.5142039  -0.04177313 -0.28838506
  0.19917065  0.30414325  0.04015434 -0.10226363]
[ 0.07189817  0.43450344  0.07629653  0.20961295  0.00610754  0.09068132
 -0.2737158   0.3647417   0.33181396  0.00753166 -0.01746287  0.27731025
  0.3036036   0.10587295 -0.10125268  0.1856731  -0.21063009 -0.58078784
 -0.09314038  0.3569348  -0.5506568  -0.08622765  0.19010636 -0.12144828
 -0.16621672 -0.49865505  0.04956941 -0.12686537 -0.19960839 -0.05769055
 -0.07624528  0.2777094   0.09247074  0.5355259  -0.16669303 -0.06909963
  0.37772796  0.09852575 -0.09002718  0.14603946]
[ 0.03713935  0.01534075  0.02946247  0.17816393  0.00867423  0.29667896
  0.23803683  0.13399494 -0.48415974  0.33537316 -0.29997352  0.03940466
  0.06423022  0.18434149 -0.1576943  -0.42487836 -0.0716709   0.02867257
  0.03497524 -0.02709257 -0.26803994  0.05903042  0.09684295 -0.21930598
  0.00582705  0.04461046 -0.00311329  0.15003702  0.500604    0.06266413
  0.06425309 -0.12234783  0.1657834   0.06537429 -0.13101472 -0.27722532
  0.27510795  0.06662107  0.20478095  0.10378943]
[-0.14994293 -0.2479361   0.09094315  0.4106667   0.14289582  0.4264725
  0.12608543  0.40289807  0.01295641 -0.0033499  -0.19911852  0.1567744
  0.2759808   0.1620546  -0.02754586  0.05916144  0.44181323  0.70321107
 -0.13970582 -0.10977115  0.11695809  0.2748771   0.0892109  -0.16171841
  0.00386192  0.04545695 -0.40735745 -0.03855937  0.54515886  0.5883189
  0.0935348  -0.1873212  -0.07832308 -0.04975869  0.2795799  -0.44839895
  0.4630686   0.18420671 -0.20948295 -0.40636268]
[ 0.388497    0.27393165 -0.48778006 -0.09128786 -0.03887425 -0.35449606
  0.15984489 -0.66503704 -0.15159343 -0.02192011  0.37238234 -0.3079767
 -0.22525008 -0.16695754  0.17624417  0.1510849  -0.32949767 -0.33466047
 -0.01843794  0.15854187  0.33653104 -0.3495521  -0.20723379  0.18258567
  0.03780592 -0.1468637   0.10942084 -0.2496764  -0.5683161  -0.70267195
 -0.4065818   0.5624351   0.09638965 -0.18419191  0.09330761  0.6587433
 -0.19482686 -0.54265666  0.49342602  0.1072441 ]
[ 0.03540391  0.01583729 -0.09298874  0.12461958  0.03973379 -0.10129894
  0.03523731  0.12011889 -0.2627033  -0.4642016   0.01405709 -0.29413554
 -0.36291674  0.03085404  0.18268499  0.0352601  -0.13882302  0.10275289
 -0.11871707 -0.08105991 -0.00997068  0.03709575 -0.13604248  0.06064269
  0.16050646  0.2966156  -0.00810002  0.04533234  0.18357547 -0.02053492
  0.10924657  0.14372481  0.12929203 -0.18715    -0.1231975   0.01663578
 -0.12074378 -0.07137606 -0.00139072  0.00561349]
[ 1.2305771e-01  9.1186427e-02  2.6791903e-01 -1.4533117e-01
  3.3802277e-01 -2.7313054e-01  1.4264086e-01 -2.8155893e-01
  4.5676014e-01  4.3693581e-05  3.3169341e-01  1.2192093e-01
 -1.2325271e-01 -2.7389210e-01  2.6654336e-01 -1.5676002e-01
 -2.0632626e-01 -1.7402165e-01  6.1618157e-02 -1.3147393e-01
  9.8779695e-03 -2.3750262e-01  4.5495793e-01  1.8019500e-01
 -3.3133857e-02  7.5473562e-02 -1.3578993e-01 -4.2591465e-01
 -2.7308661e-01  6.7485467e-02 -2.7742285e-01 -4.9871687e-02
  6.3040811e-03  2.7070718e-02  9.5520034e-02  2.5860727e-01
 -4.0969688e-01  1.4014198e-02  1.9758323e-01  1.5299827e-01]
[ 0.01286368 -0.14060584  0.08285146  0.21491075  0.18863703  0.00103344
 -0.23812208  0.01584544  0.1171782  -0.2988522  -0.0580284  -0.12803356
  0.13967519  0.10666931 -0.04075017 -0.09272705  0.23103158 -0.03754123
 -0.00203625 -0.0416504   0.07266343 -0.13075022 -0.02051495 -0.136965
  0.11128755  0.30453175 -0.03560778 -0.03467354 -0.21415895  0.13329202
 -0.00602124  0.20314848  0.17302363 -0.16018875 -0.03215592 -0.15226366
 -0.16555911  0.09334864 -0.13727358  0.07940121]
[ 2.89643079e-01 -1.06488019e-01 -9.35572833e-02  5.97419217e-02
  1.52197838e-01 -2.41791248e-01  6.24225102e-02  1.96144562e-02
 -1.17972322e-01  1.15875751e-01 -1.09273165e-01  1.71136707e-02
 -8.30147117e-02  1.42730489e-01  1.29865697e-02  6.37858659e-02
  4.64361832e-02  2.45744646e-01 -2.81707227e-01  3.98764387e-04
  4.77131397e-01  1.39016816e-02  4.51389328e-02 -1.96803391e-01
 -7.56510347e-02 -3.14722478e-01  9.23937112e-02  6.12633415e-02
 -1.79940164e-02 -2.90660888e-01  3.73986550e-02  1.98430791e-01
  3.02485198e-01  3.01414251e-01  1.27482831e-01  3.24040800e-01
 -1.10250004e-01  4.09309976e-02 -4.35897289e-03 -1.73738152e-01]
[-0.10469516  0.21510436  0.15517099 -0.09850598  0.18270838  0.13396394
  0.17913736  0.4165297   0.16137692  0.24041456 -0.1582497   0.17112546
  0.00827744  0.3199776  -0.37106502 -0.41598362 -0.16720231  0.19483009
 -0.20493707 -0.28185928  0.26051912  0.34859917 -0.0653246  -0.11856315
  0.03823235 -0.08514976  0.2053695  -0.12725729  0.06933429  0.3135697
 -0.00281455 -0.30561116 -0.40974316  0.08486686 -0.20931117 -0.3239181
  0.23922916  0.10036556 -0.03715144 -0.29283032]
[-0.02417772 -0.03361253  0.07887551  0.00776914  0.04434022 -0.09818057
  0.23534718  0.03332225 -0.2396273  -0.12730254  0.01750993  0.02066454
  0.04023546  0.2411354  -0.25490335  0.05298027  0.07762661  0.5344973
  0.2692969   0.03630269  0.4407965  -0.35286042  0.19599168 -0.07376164
  0.15383402  0.1616141  -0.16483821  0.156908   -0.11615296  0.00894898
 -0.01214358 -0.06245153 -0.07072009  0.06222651  0.17240253 -0.16326189
 -0.24957246  0.18529117 -0.1091192   0.13519594]
[ 0.03067657 -0.03378829 -0.5601154  -0.24889842 -0.16291076 -0.16440172
 -0.02608226 -0.6400759  -0.13956235  0.01222717  0.06318919 -0.08876926
 -0.32146004 -0.14260946  0.14729594  0.2730603  -0.00593212 -0.11228874
  0.01440113  0.3142868   0.03467377 -0.11598603 -0.37189057  0.11053817
 -0.04677956  0.0098537   0.00323917  0.01380591 -0.07223299 -0.24538308
  0.0692808   0.44928232  0.07885508 -0.04500965 -0.01347658  0.30822518
 -0.19477059 -0.16700236  0.36025813  0.09643683]
layer 3 Activation
tanh
layer 4 Dense
40 20
[-0.1300881   0.1595422   0.23704119 -0.11388657  0.09142153  0.33508044
  0.14628212  0.11050966 -0.22126627  0.24967593 -0.19015703 -0.01002868
 -0.01108678 -0.07596836  0.159799   -0.326313   -0.1021777   0.07892617
 -0.01909096 -0.26667893]
[ 0.00865634 -0.02762784 -0.01407884  0.20923233  0.18340634  0.01788422
  0.33349836  0.04589915  0.28273097 -0.1832043  -0.01035128 -0.41021135
  0.13295259  0.14527085  0.15714975  0.01887668 -0.30729252  0.12391308
 -0.00933444  0.25838572]
[ 0.08853133  0.2605331   0.06696963  0.17822124  0.14389034  0.08650719
  0.24511693  0.08690155  0.29175955 -0.16024551  0.24722248  0.12575799
 -0.3765578   0.02547326 -0.1802227   0.10555587 -0.06075267  0.12349069
  0.14321318  0.08122707]
[-0.03000979  0.18039818 -0.04848684 -0.01697745 -0.13957661 -0.16654754
  0.30591103  0.35812405  0.2964257   0.03567286  0.15299538  0.15038396
 -0.33210802 -0.0733227  -0.42607698 -0.03621526 -0.13962379 -0.04781267
  0.2840273   0.5081114 ]
[ 0.12055478 -0.09289952 -0.01422441  0.09458399  0.28255948  0.02455596
 -0.05530027 -0.06425063  0.14621437  0.0043348   0.28405702  0.00225138
 -0.20335282  0.03160976  0.08654561 -0.27479511 -0.33174908  0.04885264
  0.20795023 -0.08844382]
[ 0.28953233  0.27491963 -0.22123098  0.3873546   0.08715416  0.16700594
 -0.19352745  0.0757653   0.364776   -0.01328461  0.36510137  0.04450603
 -0.32188028  0.145311   -0.29714534  0.05711471 -0.09824868 -0.04791505
  0.02854502  0.14252304]
[ 0.0854234   0.1379146  -0.07073924  0.19847968  0.00547757  0.14049797
 -0.17795417 -0.10717237  0.13800314  0.06984638  0.24720444  0.3229515
 -0.02077032 -0.11124804 -0.18305734  0.04094003 -0.38964435  0.15942581
 -0.04055612  0.1826184 ]
[-0.2610027  -0.0738081   0.22884044  0.36341408  0.0366906   0.36032063
  0.00960143  0.17316172  0.33900556 -0.31965822 -0.08825172 -0.19547616
 -0.46320882  0.21484616 -0.06267318 -0.16130073  0.25306967  0.2049558
 -0.03318093 -0.01904939]
[ 0.09556749 -0.24336103 -0.10570594  0.1582499  -0.13437016  0.26687166
  0.25846013 -0.15105586  0.12021448  0.02836969  0.08255693 -0.2915063
 -0.29571024 -0.24534969 -0.11281649 -0.12638544 -0.41363046  0.09779284
  0.1089568  -0.0060184 ]
[ 0.06920139  0.02601866  0.14888157 -0.09653845  0.15272193 -0.06641296
  0.2985122   0.07503048 -0.0234909  -0.10271636 -0.18562956 -0.11344698
  0.09693753 -0.17306423  0.01795609  0.09685751 -0.08283032 -0.2531517
 -0.16024287  0.10483493]
[-1.10428065e-01  1.57064170e-01  2.37287298e-01  2.70281523e-01
  1.65385872e-01  3.70479971e-01  4.03242819e-02 -2.65308213e-03
  1.65865809e-01  2.87982821e-01 -3.47079068e-01 -3.35011184e-01
  2.23952800e-01  3.90806654e-03  2.41030410e-01 -2.87573427e-01
  9.09597427e-02 -4.89045456e-02 -6.47851154e-02  2.33121915e-04]
[-0.01352571 -0.3672465   0.21207719  0.27982718 -0.2697186  -0.0742525
 -0.12433164  0.20477933  0.33149073 -0.12669957  0.17711678 -0.20977964
  0.0183946  -0.0832461  -0.18537344 -0.02839453  0.01013775  0.11857341
 -0.14091916  0.02928182]
[-0.01678284 -0.05646069 -0.13474375  0.21526483 -0.0233741   0.24186972
  0.24979044  0.18786295  0.41984597 -0.25970232  0.17100284 -0.1803922
 -0.13688731  0.13371214 -0.16705625  0.12800618  0.0348007   0.25820798
  0.04935493  0.123857  ]
[ 0.1559435  -0.02359007  0.10720316  0.3603987  -0.05791886  0.08364655
 -0.15718661  0.18334822 -0.10394618 -0.03788108  0.55692065  0.17009713
 -0.32447934  0.10243486 -0.22164515  0.16992183 -0.01661098 -0.05323039
 -0.12150148 -0.23118313]
[ 0.01812993 -0.14370944 -0.10218885 -0.25379142 -0.24030535  0.04105357
 -0.19352157 -0.05836695 -0.39522222  0.4467033  -0.14340198  0.21999948
 -0.03318693 -0.04774865  0.11098932 -0.13053368 -0.08766296 -0.26641932
  0.0738994  -0.35779196]
[-0.11865773 -0.1437119  -0.3222982  -0.14057966  0.27673474 -0.18602815
 -0.34554487  0.11774643 -0.18258658  0.00677127  0.00837753 -0.01159191
  0.11998821 -0.01404598 -0.21671611 -0.16212913 -0.25017413  0.5161538
 -0.03498229 -0.44097072]
[-0.00192388 -0.0127168   0.05045163 -0.06140868  0.03523526 -0.39060333
  0.03572278  0.26362494 -0.1218233  -0.04850225 -0.04613189  0.48191065
 -0.17562206 -0.03667472 -0.12925352 -0.23068318  0.14026468  0.23579697
 -0.01907113 -0.39433262]
[-0.2810103   0.21933302 -0.22341236 -0.44103444 -0.1745256  -0.65747964
 -0.41824928  0.41865268  0.24429035  0.1637257   0.25799254 -0.06892323
 -0.58398074 -0.2702592  -0.30618894  0.3597065   0.12045876 -0.04769639
  0.17813452  0.19229968]
[-0.22913985 -0.09946282 -0.00774798 -0.06708342  0.1488591   0.37085554
  0.049473   -0.16395299  0.13274652  0.0234487   0.05713632  0.09252568
  0.04280877 -0.20980375 -0.064795    0.16485725  0.32332492 -0.08113144
  0.02346872  0.03455812]
[ 0.01639193 -0.24817428 -0.22087736 -0.16999371  0.25377563  0.12635094
  0.21631563  0.09495918 -0.0390866  -0.03136362 -0.24749233 -0.24391915
  0.23874187 -0.07374343 -0.01512815  0.1658735   0.0892845   0.05269381
 -0.19791475 -0.43334585]
[ 0.2001558  -0.2078334   0.16400805  0.20319091 -0.05374918  0.00936336
  0.2779066   0.03601397 -0.00825907 -0.10179011  0.23377067  0.2331054
  0.17647082  0.17942415 -0.01509983 -0.43307874  0.09245362 -0.02410063
 -0.03658869  0.00417276]
[-0.12712173  0.03904797 -0.16752397  0.13346432  0.02862982 -0.3154028
 -0.27316496  0.20123897 -0.05752391 -0.20262063  0.09778631 -0.1821877
 -0.0011737   0.22949675 -0.01321677  0.19416143  0.2927556   0.04327741
  0.11575738  0.3441246 ]
[-0.08561199 -0.09976937 -0.13476358  0.28611365 -0.03082442  0.4228959
  0.09811676 -0.01507576 -0.11490699  0.30301368 -0.23390357 -0.32773396
 -0.12911318 -0.18207373 -0.07406668  0.20064819  0.02408578 -0.1578395
 -0.08322971  0.0923842 ]
[-0.14165312 -0.25520378  0.19440217  0.14682429 -0.01224438  0.08480238
 -0.26208964 -0.01162461  0.01831312 -0.07827549  0.04689228  0.07472541
  0.07980023  0.157347    0.07802249  0.03569498 -0.17400387  0.5010515
  0.01425493 -0.09823888]
[-0.06012468  0.18304107  0.08529627  0.0807035   0.06606434 -0.06693698
 -0.00492823 -0.13175552 -0.04639148 -0.02995106  0.00555567  0.23459141
 -0.05824681 -0.08397606  0.08651303 -0.06464191  0.17081945  0.03791699
  0.23562852  0.24701683]
[-0.20952593  0.13169706 -0.07554271 -0.09948531 -0.03385797 -0.00613332
 -0.34192064  0.37757918 -0.27156225  0.33946472  0.31904358  0.6392339
 -0.13260114  0.22686258 -0.01644382  0.21288715  0.620304    0.30750653
  0.17348294 -0.2349566 ]
[-0.00739079 -0.1459126   0.25668612  0.10280281  0.02782561  0.32157877
 -0.07365818  0.1772893  -0.05525804  0.31320447 -0.1591739  -0.3885791
  0.1221459   0.19274673  0.02143408  0.1166476   0.07973728 -0.05191377
 -0.03021496  0.08036112]
[ 0.19876981 -0.16274355  0.04374761  0.03370985  0.17341511 -0.07716915
 -0.07724427 -0.03553369  0.05562643 -0.3531858  -0.09672569  0.28709882
  0.12742798 -0.05840317 -0.20809197  0.1234187   0.3923555  -0.08649508
 -0.12415153  0.39849746]
[-0.24618328 -0.28193453  0.09158687 -0.16956574  0.26120204 -0.5235728
 -0.20220378  0.35075134 -0.28583732 -0.27738068  0.31797624 -0.22190955
 -0.32542345 -0.05490943 -0.26214376  0.38555056  0.08999956  0.06289466
 -0.10627261  0.20582527]
[ 0.1571148   0.10014268  0.23013903  0.17513655 -0.31412762 -0.2025238
  0.26608625  0.22762778  0.07547302 -0.20720464  0.40068388 -0.23797336
 -0.25088665  0.20726542 -0.21425344  0.36807424 -0.08243648 -0.149601
 -0.02932739  0.33269393]
[ 0.05265248  0.09935091  0.14310674 -0.01180519 -0.05412142 -0.12897803
 -0.34263596 -0.09846305  0.3810389  -0.1328718   0.06792203  0.25491413
  0.01883281  0.20248789 -0.3152348   0.13436572  0.06570664 -0.19095829
  0.15690427 -0.08897862]
[ 0.05399786  0.04555141  0.2883495  -0.20512934 -0.03234948  0.2853742
 -0.01872311 -0.14973797 -0.02749724  0.50099486 -0.17936568 -0.12609123
  0.3146243   0.00690377  0.1495683  -0.1647897  -0.14413957  0.02003657
  0.1576198  -0.17233106]
[-0.0450555   0.15186387  0.10819231 -0.22967842 -0.28043908  0.04316494
  0.05655557 -0.01507133 -0.12298261  0.15313888 -0.4852624  -0.23618166
  0.04602111 -0.16854322 -0.10532603 -0.04256293  0.11496585 -0.45147258
  0.01964401  0.17708734]
[ 0.11237936 -0.25652692 -0.11278649  0.38652956  0.04331636  0.43340304
 -0.06744765 -0.02345293 -0.0223192  -0.02868804  0.70564955  0.17499413
 -0.17943116 -0.16082016 -0.1975646  -0.01893791 -0.27881047  0.27712145
 -0.3026086  -0.17978233]
[ 0.1336198   0.043882   -0.08645089 -0.2557923   0.01964525 -0.1012484
 -0.11065398  0.19619714 -0.03684716  0.1592173  -0.3693553   0.00436225
 -0.10728683 -0.16274889 -0.16482964 -0.10478742  0.06785347 -0.15391171
  0.04518067 -0.10928538]
[ 0.03726346  0.16491394  0.17581686 -0.12408406 -0.18168956  0.34170023
  0.00565796  0.16546744  0.12502891  0.12877388  0.18653002 -0.30952653
  0.4029012   0.20320001  0.40939665 -0.4599829   0.04571106  0.16261245
  0.15513854 -0.07327513]
[ 0.05159847 -0.00765747 -0.120642    0.14500043  0.17792332 -0.12790687
  0.3522953   0.15953265  0.2898023  -0.11270361  0.57534     0.05613822
 -0.13820107 -0.193641   -0.39664438 -0.1305179  -0.1295354   0.01023186
  0.07567607 -0.04720119]
[-2.2641177e-01 -3.5374193e-05 -1.4491609e-01  7.4286111e-02
 -1.2911656e-01 -1.0337049e-01  2.0510337e-01  1.8850020e-01
  2.3306875e-01 -3.9509240e-01  1.7712466e-01  6.1238587e-02
 -1.8358868e-01  1.5760842e-01 -4.8635933e-01  1.5313081e-01
 -2.1429140e-02 -8.4736928e-02 -6.4724274e-02  1.9389121e-01]
[-0.07145559  0.17318518  0.05260153  0.01259991 -0.17229503 -0.04367913
  0.04413693  0.13956723  0.03750198 -0.0974839  -0.32437834 -0.14560184
  0.1971926  -0.18688302  0.15215622 -0.21201645 -0.26200905 -0.00821176
  0.00970385  0.07339207]
[-0.20357135  0.22561294 -0.2979891  -0.26573443  0.10666942  0.14542207
 -0.05525517 -0.2971777  -0.16496634  0.05244631 -0.12443158 -0.12453855
  0.09074149 -0.10455463  0.0322246  -0.14118463  0.32232147  0.04144958
 -0.27093866  0.13839829]
[-1.68352146e-02 -3.37850745e-03 -5.24045043e-02 -2.05041274e-01
  3.32014548e-04 -1.12354435e-01 -1.30319640e-01 -1.08706849e-02
 -2.19368897e-02  1.31007388e-01 -4.74228799e-01 -1.44500002e-01
  1.82272926e-01  7.98946470e-02  7.81172514e-02 -3.87778655e-02
  1.75977990e-01 -5.80502907e-03 -5.46049327e-02 -9.36924294e-03]
layer 5 Activation
tanh
layer 6 Dense
20 1
[0.00290533]
[0.02493566]
[-0.00097391]
[-0.12441284]
[-0.01049363]
[-0.03605418]
[-0.01084954]
[0.03252651]
[0.14741214]
[-0.00870019]
[-0.05221231]
[0.00402591]
[-0.19008614]
[-0.00314731]
[0.12196228]
[0.06877641]
[-0.00800287]
[-0.0050802]
[0.04914194]
[0.05550992]
[0.23273584]
