layers 7
layer 0 Dense
20 20
[ 0.37977958  0.21937     0.19360377 -0.41548118  0.21054107  0.17995358
 -0.4190538  -0.06243795  0.0939518  -0.36153728  0.20098194 -0.1752019
 -0.0959086  -0.16222851  0.03554285  0.4002984  -0.2903305  -0.17282341
  0.08974259 -0.38258314]
[ 0.37675515 -0.28357285 -0.05516646 -0.36770993 -0.2649829  -0.27800328
  0.46092045 -0.29997987 -0.0173857  -0.3586142   0.22761104  0.08162128
  0.21694049  0.10121165 -0.14436947 -0.08122434  0.33960098 -0.29269177
 -0.19707155  0.43905905]
[ 0.3438979  -0.2230137  -0.6781764  -0.26991722 -0.0284722   0.24697255
  0.3523846  -0.24478142  0.04976064 -0.04782373  0.07195985  0.3474413
 -0.04588238  0.27151668  0.20076382  0.23891224  0.33680573  0.150836
  0.06681663  0.30564058]
[-0.22239132 -0.18865684  0.01408421 -0.27254504 -0.23579898 -0.1444908
  0.24165703 -0.3115735   0.19183058  0.08002061 -0.03081909 -0.24161029
  0.17891236  0.07257628 -0.12708618 -0.26690876  0.15601963 -0.21639888
 -0.18201593 -0.09003443]
[ 0.156619    0.2751455   0.01432204  0.21337402  0.12371294  0.04312799
  0.0933664  -0.04448056 -0.23272282 -0.02407081 -0.33030272 -0.11170846
 -0.37399736 -0.24908063  0.125465   -0.05738728  0.12608929  0.06953363
  0.13282984  0.24017778]
[-0.2534418   0.21608    -0.00132776  0.2724973   0.27702746  0.04944314
 -0.26749605  0.39320314 -0.1057465   0.18051618  0.21551242 -0.47156465
  0.07796468 -0.3669979  -0.00708134  0.08556677  0.08337286  0.01341739
  0.2330739  -0.65352595]
[-0.2775106   0.0078874   0.6193052   0.2813676  -0.16179979 -0.041186
  0.1476554   0.01178246  0.08912917 -0.00233955  0.07073839  0.22325091
 -0.08178979 -0.23505059 -0.1653342   0.16392155  0.33784628  0.24943532
  0.26750952 -0.09548318]
[ 0.37811223  0.23149161 -0.13194877  0.22580081 -0.08853678 -0.430405
 -0.04319448  0.30747768 -0.10179891 -0.00894883  0.14580795 -0.3076181
  0.30796564 -0.15441728  0.2915156  -0.5217278   0.05123652 -0.09781187
  0.44853938 -0.15559006]
[-0.20504071  0.5245493  -0.08052719 -0.13542256  0.46218538  0.27086264
 -0.20460375 -0.02888404  0.18271475 -0.37180585 -0.16712937  0.16035
  0.33876973  0.03945987 -0.2213493   0.07552645  0.00878573 -0.35012066
 -0.0204733  -0.2517135 ]
[-0.4023426  -0.30744308 -0.34781358 -0.06876596  0.19864538 -0.3373459
 -0.24738233 -0.5552133  -0.21872999  0.00121149  0.45334196  0.06312215
  0.2096048   0.03978672 -0.24579218  0.01903287  0.0410176  -0.05502182
 -0.02645879 -0.01042327]
[-0.3510757   0.34782428  0.4235393   0.46985966  0.2439841   0.25675932
 -0.01675475  0.47764274  0.3392052   0.03303719  0.09218153  0.4051398
 -0.37000108 -0.54568696  0.18926698  0.30576393  0.26325238  0.17627996
  0.34474656  0.22457123]
[-0.08019798  0.6983119  -0.31559426 -0.6920751   0.00807881 -0.36900187
 -0.14395688  0.30527905 -0.51326644 -0.2526165   0.6727371  -0.26623034
 -0.0571791  -0.14709373 -0.1815517  -0.7313693   0.19537005 -0.06240478
  0.06902792  0.71220976]
[ 1.8113436e-01 -1.8519124e-01 -2.4530734e-04 -1.6336681e-01
  1.9379501e-01 -3.2470828e-01 -2.3290128e-02  6.6497475e-02
  1.5584904e-01 -8.0701567e-02  2.1549203e-01 -1.3408202e-01
  3.2953060e-01 -4.0318254e-01 -1.4074540e-01  2.1125114e-01
 -4.2505204e-03 -2.7374345e-01 -6.1089505e-02  1.5425719e-01]
[-0.28984782 -0.15786543 -0.14544068  0.05727597  0.06295186 -0.18880662
 -0.08710422 -0.35371774 -0.20757371 -0.14823191 -0.21230745 -0.10094094
 -0.34949973 -0.19707392 -0.29966956 -0.03350625  0.15202941  0.11357936
  0.12102348  0.01566443]
[ 0.11493569  0.13237949  0.26969567  0.0638549   0.40633437 -0.7829943
 -0.01714476 -0.10856425  0.2431431  -0.02624851  0.03031019 -0.6285243
  0.04166573 -0.02839857  0.00198968 -0.16826199  0.0952327   0.07525568
  0.04481053  0.13978754]
[ 0.66018206  0.38989526 -0.2852667  -0.52555394 -0.26882458  0.07088463
 -0.05821792  0.681591   -0.06501667  0.375818    0.09036464 -0.14842479
  0.18962978 -0.19130452  0.137555    0.49200028 -0.00521289  0.26846737
 -0.31469885  0.43989938]
[ 0.3162694   0.07440086 -0.03425477  0.07620536 -0.33381155 -0.26652205
 -0.04613581  0.22096863  0.15465596 -0.44834286 -0.28778416 -0.3285544
 -0.06750929  0.05714115 -0.35864618  0.31704888 -0.13210072  0.11483335
  0.07457925 -0.58762527]
[ 0.857819   -0.06253868  0.09940185 -0.39279184 -0.42335457  0.458587
  0.05315166  1.1579275   0.64542514  0.42292833 -0.0773291   0.64762574
  0.1396367  -0.7386323   0.21383125  0.85650104 -0.57106614  0.6375865
 -0.723997   -0.41747636]
[-0.6420317  -0.7700803  -0.83056974  0.46178088 -0.8486181   0.77067184
  0.6141904  -0.343157    0.26607013  0.43755072 -0.11046714  0.2684995
 -0.09045511  1.0026003   0.12853494 -0.94338083  0.29595363  0.37983024
 -0.3351269  -0.34494856]
[-0.30563527  0.19124374  0.6422215   0.7850444  -0.31268457 -0.4391815
 -0.10610601 -0.6445867  -0.40462878 -0.17725934 -0.03418666 -0.13715151
  0.47507355 -0.24489264  0.3711121  -0.32180613  0.55683964 -0.07833356
  0.44526148 -1.1397103 ]
[ 0.00053273 -0.02403253 -0.02242605 -0.03330998  0.00948216 -0.0200935
  0.00874092 -0.01670637  0.04515767 -0.00387597 -0.04221086  0.03279044
 -0.01421899 -0.05392085 -0.05399333  0.05856151 -0.00281716  0.04034032
 -0.13311808  0.07736978]
layer 1 Activation
tanh
layer 2 Dense
20 40
[-0.41129282  0.04460171  0.06533065 -0.24771073  0.11834705  0.21355118
  0.25586095 -0.21725722 -0.07060838  0.06509718 -0.02642237 -0.29558322
  0.25903228  0.24065141  0.24133608 -0.0106236   0.19797772  0.11540882
  0.00891867  0.01518363  0.22186598 -0.1299449   0.22504705  0.01636783
  0.27560577  0.0802722  -0.31132096 -0.04256129 -0.22115768  0.15183629
 -0.24245772 -0.01665433  0.03491673 -0.06387912  0.2055649   0.01404555
  0.03977717  0.12086976 -0.17309421 -0.23782997]
[-0.3002902   0.2238274   0.31758928 -0.1292984   0.13354672 -0.34004426
 -0.2717529   0.4125059  -0.33139277  0.22650251 -0.1815154   0.2347087
  0.23555616  0.24188526  0.15952857  0.35817266  0.6941908   0.07607683
  0.24742544 -0.13698485 -0.01209356 -0.10101567  0.22647111 -0.13969833
  0.17589721  0.26595676 -0.30334294 -0.0020325  -0.07568946  0.04326078
  0.23259884  0.12697262  0.02807018 -0.23545477 -0.17244008  0.22148252
 -0.05376343  0.16668154 -0.27090508 -0.10988866]
[-0.16994578  0.2874025  -0.12961255  0.16738372 -0.2097134  -0.30106136
 -0.2550927  -0.11506662  0.10794684  0.03047159  0.19137347  0.32361007
  0.25726768  0.01083691  0.04537376 -0.09663187  0.23690137  0.04550064
  0.432738   -0.43437958 -0.14365721 -0.74658203  0.31922194  0.09356979
 -0.05060306 -0.03782981 -0.09953354 -0.16569261  0.09032542  0.26062116
 -0.02553884  0.1716347   0.2616256  -0.313639    0.3398794   0.22637048
 -0.08417489  0.54071504 -0.28852805  0.03676997]
[-0.12160408 -0.08664708 -0.25911942 -0.2238794   0.06214078  0.10726706
 -0.36073235 -0.14007315 -0.14006221 -0.1968225  -0.00263775  0.18223964
  0.05722538 -0.3092549  -0.40229237 -0.07008342 -0.22335444 -0.06181065
 -0.36958364 -0.29723117  0.24026671 -0.07502366 -0.30830812  0.04022975
 -0.21636705  0.19701603  0.14714804 -0.1615447   0.3126617  -0.23500727
  0.09951546 -0.15546082 -0.15368445  0.0035852  -0.2292696   0.21754381
  0.10937513 -0.11203072 -0.19955961  0.01060855]
[-1.2773108e-02  2.1096133e-01 -1.2184568e-01  6.1120987e-02
 -1.9933787e-01  3.5812899e-03 -2.0023216e-01  8.9605503e-02
  1.7586809e-02  2.9989105e-01 -1.4757587e-01 -1.1221923e-01
 -3.6543561e-04  1.6495180e-01  2.3637418e-01  1.9054209e-01
  5.7788086e-01 -2.0571205e-01  1.5188134e-01 -1.1164343e-01
  1.7482522e-01 -8.0701172e-02  2.4572343e-01 -4.4062868e-02
 -7.0388973e-02  2.6658747e-01  9.0673871e-02 -1.3537103e-01
 -2.2323942e-01  1.7549728e-01 -8.2402527e-02  3.0719465e-01
  1.2111893e-01 -9.5841391e-03  3.3705002e-01 -1.4449004e-02
  3.0023783e-01 -6.7199077e-03 -4.0039113e-01 -2.5263238e-01]
[ 0.1225678   0.19540507  0.17112678 -0.34663185 -0.2881981   0.13391216
  0.00698144 -0.35890502 -0.1127214  -0.14262411 -0.2352484  -0.29631564
 -0.16965917 -0.18117946  0.14953308 -0.26430067  0.03518382  0.0189749
 -0.05955552  0.07820697 -0.02133029 -0.05776951  0.10704505 -0.20863788
  0.25427014 -0.22668608 -0.10686923  0.07910912  0.15107219 -0.1885591
 -0.16479184 -0.06225085  0.0121302  -0.1502742  -0.272233   -0.12856932
 -0.2181752  -0.24986364 -0.1335886  -0.20743822]
[ 0.1156268  -0.05387647 -0.08849417  0.16424024 -0.15099326  0.1819137
 -0.0113112  -0.09592532 -0.1974648  -0.18803766  0.26551574  0.29085052
 -0.02491361 -0.24540913 -0.08850056 -0.01267161 -0.30497772 -0.16837698
 -0.25686076  0.2535035   0.30372715  0.30488425  0.01991783  0.13833608
 -0.06104823  0.06138978  0.04777825  0.09042053  0.18116403  0.11529917
  0.06899489 -0.37186196 -0.24181245  0.0858411  -0.07132528 -0.18583962
  0.04285581  0.01675349 -0.07080687 -0.33500078]
[-0.24351838 -0.01025634  0.54958963 -0.60341287 -0.27422345  0.11303488
 -0.01234999 -0.1089918  -0.27730176  0.3520317  -0.24645022  0.3036763
  0.0932551  -0.02158274  0.06233135 -0.00831055  0.01872065 -0.19352141
  0.27698204  0.25802377  0.33063444 -0.1973567   0.43467167 -0.23624577
  0.38844585 -0.21090414 -0.43664533  0.25686598 -0.01993913 -0.18670008
 -0.0563656   0.26471695 -0.20845392  0.08141619 -0.03343835 -0.56099117
  0.0217289  -0.08087032  0.06641425 -0.29109275]
[-0.37790093  0.3508663  -0.14540745  0.03180698 -0.02998663 -0.08354024
  0.27593186 -0.13371664  0.29003364 -0.06443856 -0.15235624 -0.18281181
 -0.12457038 -0.11143575 -0.22769687 -0.11393205 -0.00783301  0.07867333
 -0.01304511  0.16427831  0.38341266  0.04623606 -0.05127329  0.24106553
  0.33064348 -0.21884106 -0.09328414  0.04188582  0.15600409  0.22637434
 -0.24636559 -0.26693693 -0.28681347 -0.08775289 -0.12064143  0.00422073
 -0.16275808  0.28996968  0.05132702 -0.24149129]
[-0.11461501 -0.05668982  0.3424394  -0.20827886  0.17163019  0.35610628
  0.3063998  -0.3513222  -0.2567589   0.05237219 -0.02807572 -0.2693573
 -0.18670279 -0.12224674  0.14379698  0.11448855 -0.41159567 -0.17283382
  0.04566519  0.1258909   0.03523604  0.24804084 -0.32736248  0.18590324
  0.19291568  0.08453686 -0.12482249 -0.00880708 -0.40076214 -0.10803209
 -0.17944169  0.02709545 -0.28133565  0.19810809  0.17294924  0.02043869
  0.24129115 -0.04259266  0.32485062 -0.21644586]
[-0.22938325 -0.02275179  0.02106214  0.2544      0.24694495 -0.04383962
  0.09024284 -0.05198918 -0.25811103  0.2483688   0.0029346  -0.1158449
  0.29625386  0.31417757 -0.00557941  0.07092579  0.5114396   0.12827955
 -0.02495613 -0.22783977 -0.02303473  0.23735109  0.13029645 -0.0237324
  0.10855931 -0.00798412  0.05372456  0.00239875  0.05573865  0.11756944
  0.00400132  0.02571051 -0.19125947  0.23954257 -0.09706838  0.21028744
 -0.16183832 -0.01331395 -0.33244535  0.23786692]
[-0.15823127  0.04855952  0.49311554 -0.34174675  0.02372495 -0.01543577
 -0.25454977 -0.5419217  -0.26392338 -0.282798   -0.05653063  0.28132546
 -0.34401083 -0.146288   -0.20924316 -0.1543153  -0.16851999 -0.18053618
  0.28934944 -0.1321449  -0.05717588  0.20246585 -0.29475662  0.18356936
  0.36691713  0.36132693 -0.08383402  0.28016517 -0.13557796 -0.18086638
 -0.3546415  -0.56170267  0.15446213  0.06873232 -0.29854673  0.0886106
  0.20922408  0.24287519  0.12047256 -0.11729036]
[-0.0529091  -0.07201037  0.00863004 -0.43856734 -0.0318531  -0.08240956
 -0.15608998  0.00953598  0.4361351   0.31268048  0.1100743   0.21587683
 -0.20564471  0.3609848   0.03491359 -0.18762325  0.30460745  0.02869318
 -0.26573655 -0.27713504  0.18651414 -0.19775102  0.20549412  0.11894665
  0.04421274 -0.12668586 -0.08268636 -0.19010009  0.11592711  0.2147775
  0.22122084  0.19536312  0.08691334 -0.09473041  0.37587073 -0.07187133
  0.12294871 -0.34440294  0.3917949   0.11024062]
[ 0.05280855  0.08371396 -0.36199373  0.23793696 -0.14541526  0.01609486
  0.00252489 -0.13787004  0.23379222 -0.2447784  -0.26721585  0.1382272
 -0.01641713  0.20444939  0.09548635 -0.2600027  -0.00594436 -0.309827
 -0.09563372  0.2503989  -0.2077341   0.55333745 -0.22833699 -0.29954526
 -0.27138484 -0.16474651 -0.01192913  0.06713727  0.13070506  0.27975798
 -0.16207811 -0.12541698  0.14518572  0.34483153 -0.10137135 -0.27721614
 -0.23914987 -0.29639947 -0.04410406  0.0712041 ]
[-0.03552679 -0.27848366 -0.0320289  -0.03587523 -0.02283001 -0.07648455
 -0.03213863 -0.325155    0.09729395  0.12412138  0.10283256  0.01085439
 -0.29656178 -0.11077467  0.12499493 -0.0355859  -0.06253844  0.23872738
  0.08436479  0.2715911   0.15269306  0.20067976  0.17296708  0.230178
  0.06192714 -0.00395682 -0.01694758  0.06755216 -0.17636542 -0.19089253
 -0.10931481  0.00722559 -0.09609389  0.01497115  0.12989672  0.03287482
  0.19880508  0.01043349 -0.00212652 -0.11867944]
[-0.29039767  0.20247905 -0.12489206 -0.16474581 -0.28655472 -0.06658455
  0.12005872 -0.36171874  0.14189051  0.14879113  0.35466743 -0.18647382
  0.08577155 -0.06149    -0.04914051 -0.23661266 -0.25928676  0.10265532
  0.19015864 -0.20762981  0.3123643  -0.16694374  0.0270111   0.42635497
  0.13012515  0.28990135 -0.15447208 -0.13598725 -0.23483793  0.28966373
 -0.2414475   0.10400969 -0.45123854  0.15177666  0.27086323 -0.24803215
 -0.26485753  0.325993    0.16446714  0.33886853]
[ 0.15651284 -0.21891248  0.01703002  0.22928576 -0.23005398 -0.03154857
 -0.31411794  0.06320462  0.19698884  0.16571467 -0.13454095 -0.2734611
 -0.2577338   0.14814687 -0.05133859 -0.01257493  0.13209781 -0.13309981
  0.19313246 -0.10143775 -0.16713415 -0.07316517 -0.0653268  -0.23201384
  0.0361008  -0.17152311  0.0715996  -0.11032263 -0.06112294  0.00923397
 -0.16481234  0.25155857  0.08516041 -0.01146196 -0.26137674  0.1549035
  0.2646384   0.14451152  0.30769727  0.1772248 ]
[ 0.21871567 -0.12034461  0.16767688 -0.18584591 -0.10808346  0.09544288
 -0.20239276  0.14460471  0.01322468  0.0258421   0.03282886  0.07433172
 -0.07090504 -0.36500928  0.04522886  0.04498078 -0.27828124 -0.17848656
 -0.11508911  0.10960802  0.26821157  0.27644014 -0.14699961 -0.13384424
  0.22431028 -0.10568813 -0.07931852  0.29682797  0.24669717  0.16163096
 -0.04349186 -0.27407873 -0.24272555 -0.04947829  0.01134018 -0.29043716
  0.04466811  0.21641311  0.26362768 -0.2253517 ]
[ 0.05092564  0.19489439 -0.17540936  0.3600517  -0.23920713 -0.12224417
 -0.15584348  0.25084904 -0.00252912 -0.08597896  0.13813223  0.28220123
  0.12425164  0.20846021  0.1534608   0.10095403  0.18485075 -0.06376616
 -0.07707175 -0.09831885 -0.00965505 -0.44090635 -0.3429329  -0.04233796
  0.3428729  -0.0764941   0.10012218  0.13162036  0.30049846 -0.0948963
  0.10723571  0.36709785  0.18744372 -0.09336426  0.10655936 -0.13888393
  0.46014512  0.16636676  0.10720509 -0.1538523 ]
[-0.1949476  -0.02556924  0.30361044 -0.4623758  -0.16346374  0.06052479
  0.3799163  -0.20486587 -0.10947     0.03878187  0.20326388 -0.1036045
  0.1846907   0.11840244 -0.15700343  0.02256785  0.3028329  -0.12447909
 -0.20858319  0.0428493   0.33239934  0.38250157  0.29275674  0.10929569
  0.20722623 -0.34160137 -0.108586    0.14241944  0.24870099  0.35423702
  0.15718171  0.27877146  0.14635165 -0.07207929 -0.17183071  0.13879587
  0.3985889   0.12303576  0.23931843 -0.24844484]
[ 0.04341368  0.11894202 -0.02606898  0.00961094  0.00781469 -0.00023933
  0.09115734 -0.09190372  0.00475856 -0.0891213  -0.01618897 -0.01790127
 -0.00790369 -0.00602906  0.01112247 -0.01104624 -0.06075031  0.05115445
  0.0388957   0.07286958  0.01185851 -0.05379416  0.04962813  0.0131698
  0.01476843 -0.05467553  0.04667168 -0.06377656  0.02762826  0.05634206
 -0.09763942 -0.14593756 -0.04301757 -0.00660982  0.05250246  0.00963484
 -0.12198985  0.03181195 -0.04597635  0.03721464]
layer 3 Activation
tanh
layer 4 Dense
40 20
[ 0.06519998 -0.14575295  0.03106279  0.09966435 -0.2823413   0.20662168
  0.07394105  0.20377883 -0.28277627  0.03013345  0.23159897  0.02940515
  0.30040964  0.3006968  -0.16909206 -0.15644014  0.042859    0.15016915
 -0.3128319   0.14475933]
[-0.27117836  0.14974834 -0.302994    0.17173666  0.13663054  0.19571732
 -0.18159291  0.21437912 -0.1298263  -0.01595163 -0.02259252 -0.2525626
 -0.29526627  0.19310734  0.28774998 -0.05793815 -0.2806933  -0.11139644
  0.01203481 -0.07300631]
[ 0.02632042  0.21331893  0.2900407   0.24498422  0.04955535 -0.20632716
  0.27401868  0.11878283 -0.02655182 -0.19181575 -0.08258009 -0.26455888
  0.07177442 -0.07053176  0.07197323  0.09764267 -0.17105147  0.06703018
  0.23390837 -0.16442706]
[ 0.29569352  0.22468525 -0.26867822  0.28573155 -0.31658036  0.1456029
 -0.34052035 -0.28076383 -0.20004344 -0.35968626  0.10511603  0.04557405
  0.00259832 -0.08203476 -0.01982673 -0.05836295  0.32006902  0.11700866
 -0.2691181  -0.17230852]
[ 0.02560403 -0.02829903  0.20518562  0.01766923  0.01963968 -0.12676457
 -0.09949411 -0.03230583  0.01271553 -0.24429522 -0.14847249 -0.01873187
  0.3053833  -0.0964367  -0.39481476 -0.18861733 -0.27535093  0.16616404
 -0.12103432  0.1072454 ]
[ 0.16601445  0.2734236   0.16389191  0.23592646  0.2782505  -0.17439969
  0.11809462 -0.08419937 -0.0828285   0.15559326 -0.05778392  0.14042771
  0.13883288 -0.12635647  0.1308313   0.18064502 -0.12019375 -0.18610111
 -0.2396848   0.10430001]
[-0.29779598  0.19966906  0.22043881 -0.11690027  0.20054767 -0.16996051
  0.10582793  0.06503711 -0.5419824   0.02345121 -0.0922745   0.02519394
  0.31780785  0.22013812 -0.03079366  0.04166875  0.00521004 -0.31569454
  0.1087069   0.1948901 ]
[ 0.22609846 -0.30206102 -0.04112089 -0.18660098 -0.1971678   0.01074065
 -0.27188116 -0.19295205  0.003594   -0.2923619   0.2297498  -0.26727062
 -0.2613743  -0.01308907 -0.20944633 -0.00983413 -0.19474751  0.2754658
  0.02791453 -0.21037427]
[-1.6776077e-01 -2.7262780e-01  1.0556312e-01  1.0633150e-01
  1.4503562e-01 -1.3311164e-01 -3.5837626e-01  1.3462783e-01
 -3.1192589e-04 -2.2265890e-01 -2.7463818e-01 -7.5185925e-02
  8.8439330e-02  3.4298763e-01 -1.7797317e-01 -1.8257326e-01
 -9.4967037e-02  6.1710205e-02 -1.3570972e-01 -1.6652310e-01]
[ 0.19459258  0.08477319  0.37309527 -0.2522248   0.25122795 -0.19305374
  0.04237227 -0.04818962  0.11330507 -0.17929305 -0.10471836  0.1308466
 -0.11935954  0.20279776  0.05906733 -0.22876821 -0.1770415   0.21708883
  0.35116458  0.18473573]
[ 0.2172751   0.16621453 -0.214466    0.21401499  0.22179845 -0.01513464
 -0.31922066  0.02632305  0.26273295  0.24642088 -0.02020089 -0.05339467
  0.0774024   0.17358324  0.17503057  0.18101718  0.09777571 -0.01920705
 -0.09813683  0.0865512 ]
[ 0.09555404 -0.13786583  0.1629698   0.16677125 -0.20381469 -0.25870425
 -0.14486977 -0.07117989  0.49226454  0.15145622 -0.05503017 -0.3024449
  0.00704461  0.37349936  0.03856283  0.11135712 -0.36173168  0.20624194
  0.3071266  -0.18905443]
[ 0.3411955  -0.27083308 -0.21323195 -0.07410563  0.22336912  0.29301545
 -0.1891416   0.21726115 -0.23177701  0.28505504  0.16268922 -0.03902682
 -0.11747061 -0.07427813 -0.256218    0.08580758  0.04006463  0.2505548
 -0.06787133 -0.24827364]
[ 0.2055989  -0.28305608  0.437759    0.08047605 -0.09394726  0.23038219
  0.008154    0.25469145  0.16873816 -0.05535759  0.21761276 -0.37156335
 -0.08496342 -0.2625627  -0.10920878 -0.08475298  0.00788439 -0.2459101
  0.3405205  -0.27758953]
[-0.00533922 -0.35629666  0.26740602 -0.34357464 -0.20532154 -0.0205197
 -0.08129609  0.17360924 -0.34648836  0.1603707   0.06467538 -0.17526743
 -0.09321976 -0.26325473 -0.23376608  0.14445569 -0.23490238 -0.21308793
  0.01125729 -0.23499075]
[ 0.29141444  0.08821458 -0.02490643  0.06395721  0.21957697 -0.05540118
 -0.04510819  0.22060284 -0.2523124   0.08814417  0.22283673  0.20713887
 -0.2731172   0.2520914   0.14321634  0.09241676  0.11036676  0.03407068
  0.13368416  0.2363378 ]
[ 0.24094105 -0.2670545   0.3103178  -0.17035879  0.26907286  0.02263215
  0.11947657 -0.23118404 -0.07943062 -0.2125356   0.16391133 -0.149211
 -0.22186518 -0.09686631  0.27907318 -0.23492412 -0.01480503  0.00164539
 -0.05197072  0.20412028]
[ 0.0246616   0.183724   -0.27279395 -0.20853095 -0.13632436  0.13868529
  0.15026821 -0.16470797 -0.17027405 -0.2137681  -0.13446005 -0.11178382
 -0.33601877  0.25621217 -0.10699586 -0.22120272  0.06426693 -0.13065626
 -0.11481273 -0.01115228]
[ 0.01324496  0.23470451 -0.17891695  0.02007974  0.04315715 -0.30981266
  0.0317992  -0.08223458 -0.12600745  0.41551158 -0.3487359  -0.09456405
 -0.35396096 -0.14780019 -0.0864356   0.20987093  0.13492645 -0.24869582
  0.15481704  0.04591732]
[-0.26831815 -0.19759853  0.0476927   0.2930981   0.01742098 -0.12737025
  0.11335806 -0.1097268  -0.51002127  0.05748207  0.06470864  0.07733465
  0.16611534  0.06597866 -0.0479888   0.20447929 -0.01461074 -0.14789873
 -0.19610326 -0.2532214 ]
[ 0.15777007  0.08227438 -0.10118677  0.03491776  0.3234585  -0.09170302
  0.3596146   0.03762674  0.05927983 -0.05323155 -0.33165985  0.00170638
 -0.0197985   0.27113965 -0.1180958   0.19737552 -0.07282687  0.07240489
  0.1178403  -0.1493249 ]
[-0.34570354 -0.2453404   0.19978622 -0.01103862  0.12304557  0.11801574
  0.30972925 -0.04901116 -0.27819255 -0.27571136  0.340099    0.00796547
  0.17520231  0.28038833  0.15092885 -0.20424388 -0.16825657  0.07187442
 -0.32901067 -0.212527  ]
[-0.02760053  0.21579544  0.22306572  0.10493087  0.18979375  0.0300972
 -0.13740319  0.14779648 -0.4317508  -0.21393098 -0.26896012 -0.24433808
 -0.21664347  0.04805651  0.00623629 -0.10887926  0.02745882 -0.28879657
  0.43767074 -0.16311853]
[-0.03888297 -0.0100055  -0.02377549 -0.18632776  0.35155013  0.03894043
  0.12186555 -0.15988143 -0.12231622  0.15174939 -0.2378172   0.03672322
 -0.23277579  0.00847038 -0.01535291  0.06863476 -0.17368717  0.0347303
 -0.14527187  0.00067221]
[-0.26092696  0.13653833 -0.19400246  0.23698886  0.33477312 -0.00311829
 -0.03353283 -0.22279969  0.2777621   0.17495425  0.03071625 -0.11264798
 -0.29035765  0.28201124 -0.19801953 -0.10749894  0.09814361 -0.02438253
  0.3770972  -0.21264037]
[-0.08889591 -0.07770348 -0.20589839  0.04040501  0.05743847  0.06948561
 -0.12155408 -0.15261398  0.22994405 -0.00955034  0.05830669  0.083125
 -0.1069203   0.07786806 -0.16492735  0.02908663  0.16348812  0.24736479
  0.1901856  -0.19728412]
[-0.21094963  0.03641137 -0.00205842 -0.00933336 -0.22702293 -0.32831484
 -0.03248444  0.06182145 -0.0981056  -0.34928802  0.20860866 -0.1655684
  0.0495903   0.19425796  0.1722223   0.0802254  -0.18113282  0.26187262
  0.0281765   0.03139931]
[-0.19103666 -0.12395388 -0.00068243  0.14911611  0.15592803  0.2770158
  0.23756106 -0.06124294  0.23627754  0.2392679   0.04784995  0.07618283
  0.13167003 -0.28537452 -0.00770779 -0.29543018  0.2751278  -0.11214235
  0.10974745  0.00928517]
[ 0.20533378  0.09288799 -0.09893383  0.01853252 -0.12081894 -0.18921742
 -0.02723164 -0.05071455  0.25667015 -0.11842476 -0.05955907  0.04145109
  0.10367745 -0.22031617 -0.2538724   0.18893763  0.10379034 -0.05682243
 -0.10614695 -0.1669119 ]
[ 0.19440253  0.16266318  0.23883082 -0.01913185 -0.04982282 -0.1927446
  0.06218691 -0.27635932 -0.639297   -0.00994469 -0.16618569 -0.07146893
  0.16595897  0.30310753 -0.05487162  0.14612746  0.23885714 -0.02265057
  0.18321523  0.08593419]
[ 0.3217902  -0.13484329  0.30344245 -0.01512823 -0.21952654 -0.18222092
 -0.337091    0.15672517  0.2478085   0.09638226  0.28676957 -0.23872796
  0.14148416  0.18766673  0.10098738 -0.27052972 -0.03615139 -0.15193474
  0.18084146  0.2350804 ]
[ 0.17937396  0.13058685  0.16503324  0.00321789 -0.0300721   0.16052803
 -0.1983576  -0.2016209  -0.12204364  0.25808734  0.04050522 -0.04984233
  0.24609643 -0.07684255 -0.15867174 -0.31246474  0.06393479 -0.2821058
  0.30305594 -0.11302095]
[ 0.3387102  -0.16169897  0.24571332 -0.21711925 -0.02155557  0.1631978
 -0.12705392  0.20301257  0.00498739 -0.17448993  0.23345192  0.09689964
 -0.02038032  0.12532078  0.09299182  0.05142193  0.06112517  0.27835086
 -0.10547704 -0.02653812]
[ 0.19100349 -0.14311033 -0.19395865 -0.12218884  0.09006924  0.21450417
  0.07653397  0.0160001  -0.15652153 -0.12424257 -0.08997877  0.206475
  0.24181376  0.10306983 -0.2958215   0.09265007 -0.09142525  0.27858013
 -0.04341755 -0.04305368]
[ 0.04114605  0.01997237  0.08132123  0.05628315  0.18279947 -0.08576035
 -0.26677465 -0.06251943  0.14640602 -0.3193319  -0.27728772 -0.17626992
  0.20500493  0.16097683  0.19003524 -0.18493642 -0.14712347  0.22645108
  0.2000024  -0.24250017]
[ 0.03918668  0.09367581 -0.05793174 -0.1794751  -0.18247816 -0.01773578
 -0.28036183 -0.13361199 -0.07410021 -0.02221513  0.08783478  0.17776978
  0.145301   -0.04043381  0.10556453  0.12980545  0.02637697  0.09720583
  0.00974459 -0.1758474 ]
[-0.07321625  0.02819085  0.23161551  0.03593152  0.02936872  0.19667551
  0.14979555 -0.18787017  0.3538573  -0.22431268  0.36160386  0.20748089
  0.16733424 -0.10380771  0.02502983 -0.18414035  0.28321734  0.16209252
  0.32241026 -0.08786688]
[-0.03642059 -0.02137446 -0.40452853  0.08526035  0.17802174  0.19016518
 -0.06991437  0.25737065  0.00935124  0.36117142 -0.16040204 -0.14938313
 -0.3630589  -0.24674997  0.15045439 -0.21986198  0.28584597 -0.15810683
  0.28010425  0.18380001]
[ 0.13807987  0.15541092  0.24941504  0.41824892  0.20789924  0.32226995
  0.11132623  0.24104376  0.43254015 -0.18671829 -0.04351058 -0.03994714
  0.1899583   0.1871686  -0.33830443 -0.1598777   0.23646094 -0.17902309
 -0.2747599   0.20290771]
[-0.09759301 -0.05254249 -0.08701337  0.07050019 -0.2533606  -0.36572826
 -0.22475423  0.16507356  0.1919615  -0.33971807 -0.1773962   0.05478794
 -0.15147017  0.09478094  0.23769021  0.32656682 -0.10281453 -0.11082
 -0.20387183  0.01395372]
[-0.0687436   0.03797435 -0.05954507 -0.03007814 -0.02856248  0.01774941
 -0.02447725 -0.01746413 -0.14960438  0.01780705 -0.07266597 -0.01839298
  0.00812468  0.01059399 -0.00499922  0.00829698  0.01325099 -0.00508595
 -0.06038382  0.03005514]
layer 5 Activation
tanh
layer 6 Dense
20 1
[-0.34363967]
[0.18761478]
[0.26843417]
[-0.00690426]
[-0.370599]
[-0.01390641]
[-0.2628599]
[0.00246375]
[0.10850348]
[0.20038733]
[-0.37375256]
[0.010039]
[-0.25264734]
[0.00061168]
[0.03402743]
[-0.04464709]
[0.05238426]
[0.26402172]
[-0.28845298]
[0.01134461]
[0.02153068]
