layers 7
layer 0 Dense
20 20
[ 0.12720636 -0.15623903 -0.09422421 -0.14429335  0.13480863 -0.42088944
 -0.1419825  -0.3920209  -0.12739636  0.27299848  0.1795355  -0.01398154
 -0.15801509  0.39424098 -0.05026662 -0.45082268  0.16619563 -0.4530955
 -0.27160442  0.043655  ]
[ 0.31283987  0.1953265   0.1288128   0.41612607  0.20142813 -0.47847047
  0.20263763 -0.21722214 -0.2331909   0.3148537   0.49471322  0.02881559
  0.20296478 -0.34135523 -0.16101612  0.18822221 -0.50728905  0.12194202
 -0.0458827  -0.55902195]
[ 0.17281085 -0.06970637 -0.20327187  0.20797592  0.41168252 -0.3264921
  0.3872093   0.31343853 -0.5072298   0.40595782  0.2873897  -0.16007505
  0.09020507 -0.3009573  -0.55327535 -0.1365819   0.03522593 -0.24942659
 -0.36497226 -0.13326533]
[ 0.13140902 -0.11048365 -0.05009703  0.27809796  0.2120263   0.35793805
 -0.36019498 -0.19809572 -0.3507789   0.12949066 -0.08224934  0.09836492
  0.08143853 -0.20320986 -0.4190654   0.3234143   0.27507877 -0.47778353
  0.0998179  -0.34051657]
[-0.01094392 -0.09972537  0.16973203 -0.29876962  0.30004779  0.17146017
  0.34300914  0.20312393 -0.20523506  0.01526159 -0.32246998 -0.17760539
  0.33954054 -0.3371089  -0.51155746 -0.04708264 -0.3119637   0.39293307
 -0.480736   -0.04434725]
[ 0.17986932  0.14886688 -0.390098   -0.60901254  0.11393687 -0.17456165
  0.06626089  0.14020675 -0.09093043 -0.28267848 -0.22733325  0.21190572
  0.3244838   0.44215953 -0.04428863  0.08297976 -0.087192    0.18546213
  0.21751188 -0.03679621]
[-0.29887953  0.13572507 -0.22369274 -0.5969822  -0.57126325 -0.18658492
  0.1160465   0.3841372   0.35566702 -0.3449087  -0.43577373 -0.32861158
 -0.18207508  0.53806317  0.44411105  0.0121644  -0.2760117  -0.07033464
  0.30027398  0.48659614]
[ 0.1867518  -0.10116414 -0.11441469  0.02224604 -0.19849703 -0.0072357
 -0.339016    0.16905628  0.35465893 -0.06819684  0.23699486  0.09394348
 -0.20385557 -0.3556209  -0.04186647  0.01350751  0.49530977  0.360391
 -0.1681632  -0.07799503]
[-0.18807182 -0.36436915  0.19592535  0.28435346  0.12525888  0.4020767
 -0.25476888 -0.4048798   0.18271674  0.15596311 -0.4855128   0.01489219
  0.53860956 -0.07962115 -0.19660407  0.43965822  0.4212677   0.16843855
  0.20940109  0.08478654]
[ 0.16961965 -0.04212198 -0.15806787 -0.15416628 -0.24662557 -0.24854508
 -0.13802852 -0.48690894  0.0561056  -0.2747503  -0.26716104 -0.03197664
 -0.11620304  0.08702042  0.43880332 -0.32668066  0.21529336  0.41957623
  0.2700929  -0.46013555]
[ 0.40855983  0.21596974 -0.33937243  0.229696    0.34281123  0.1526295
  0.20256634  0.15509178  0.11131473  0.7766284   0.3017765   0.6005742
  0.29995817 -0.39543045  0.30967358  0.01083606 -0.16980587 -0.20005532
 -0.07672974 -0.20556884]
[ 0.28117266  0.21467794  0.09315051  0.02586408  0.01118867  0.24559371
  0.6912565  -0.6427883   0.41784602  0.561399   -0.2802151  -0.49097857
 -0.49653152 -0.11617996 -0.07049846 -0.00995567  0.22924748 -0.7266298
  0.12450547  0.5833378 ]
[ 0.30596623  0.44285968 -0.14527717 -0.11883421 -0.40496504 -0.32890615
  0.05461332  0.08747565  0.11012038 -0.26985025  0.03373074  0.07870478
 -0.36179093 -0.285513   -0.09616879  0.13092557  0.20515853  0.21595807
 -0.1668076   0.45995525]
[-0.06811988  0.29170316 -0.26843962 -0.45606273  0.03165001 -0.10242745
  0.03610878  0.04131615  0.16137818  0.06139615  0.17688388  0.35099462
  0.04730797  0.18702182  0.16776115 -0.24299802 -0.18494909  0.17876932
  0.41355613  0.1264994 ]
[-0.23579814  0.33687103 -0.35791507 -0.30112404  0.36087075 -0.19449171
 -0.24161798  0.00682802  0.0123815  -0.34744152 -0.22131452 -0.06358243
 -0.2491394   0.07484312  0.24237649  0.3363987   0.15137874 -0.03519511
 -0.2389394   0.08328224]
[-0.24181154 -0.26280707 -0.389004    0.11823643 -0.32275218 -0.2780523
 -0.42705062  0.24369971 -0.50766456 -0.12040909  0.16068545  0.50781924
  0.66393286 -0.25483644  0.25462356 -0.17865837 -0.22536078  0.29424605
  0.00803742 -0.6685102 ]
[-0.41801965  0.10621659  0.14798291  0.02830099  0.260415   -0.35548213
 -0.38819772 -0.13474357  0.32684693  0.32371566  0.1469608  -0.5305806
 -0.25879154 -0.22813188  0.12871552 -0.36887652 -0.36229414  0.36448526
  0.10270181  0.24630664]
[-0.08300237  0.09328265  0.21336393  0.40010828  0.12544638 -0.29022813
 -0.06199658 -0.16934769 -0.40895897  0.2551914  -0.03070788  0.30852354
  0.12751812 -0.2351003  -0.78223765 -0.18258375  0.257877   -0.23019311
 -0.27555555  0.13865313]
[-0.0858389  -0.04926688  0.34183344  0.18749925 -0.0841751  -0.18413147
 -0.07248051 -0.17469361  0.24643731 -0.39738512  0.15669867 -0.06612349
 -0.12923115  0.26481736 -0.38755804  0.2719541  -0.0629867  -0.27769437
 -0.3255891  -0.23953126]
[ 0.01060114 -0.04181335  0.26118273 -0.12968256  0.46935064  0.12751396
  0.09362064  0.28497666  0.24156709  0.23659231  0.24130978  0.5481085
  0.18500069  0.06196546  0.02879998 -0.15458168  0.49235633 -0.23792449
  0.12567785 -0.3549965 ]
[ 0.08347956 -0.04037457  0.00331713 -0.03007674 -0.04041789 -0.0110791
 -0.00776147  0.07250812 -0.04135888 -0.13771555  0.03351556  0.09672493
 -0.01185864  0.00177137 -0.16663237 -0.03605619 -0.0428777  -0.02156995
  0.00462585  0.0023439 ]
layer 1 Activation
tanh
layer 2 Dense
20 40
[-0.07434466  0.17405787  0.23082642  0.06678219  0.09944419 -0.3280797
  0.18574657 -0.22537556 -0.24009994  0.15283026 -0.1262851   0.28536105
 -0.24876745 -0.38660166 -0.02475212  0.11749463 -0.12109347  0.06635535
 -0.15286852 -0.20984371  0.01149509  0.28051192 -0.04138649 -0.43051457
  0.29659817  0.16427523  0.07181749  0.09776597 -0.08435144 -0.21914713
  0.08336371  0.04213582  0.2647253  -0.02188104  0.25370014 -0.12267173
 -0.16995588  0.18400176  0.10631421 -0.12343206]
[ 0.11205319 -0.18483938 -0.31418985  0.00508209  0.17882998 -0.208075
 -0.21087159 -0.11209735  0.1955301   0.1606849   0.2077625  -0.18876046
  0.33280453 -0.26879373  0.08392524  0.0506676  -0.0519575  -0.07456837
 -0.2661884   0.10382381  0.14430633  0.37921426 -0.03752949 -0.13684611
 -0.03855029 -0.04317263  0.09803548 -0.14064851 -0.15577662  0.14664534
 -0.01168305 -0.01754446  0.03291576 -0.11889169 -0.01074113 -0.29359686
 -0.07793099  0.14827532 -0.02648936  0.1928339 ]
[-0.24674428  0.07397311  0.16574232 -0.17978969  0.23395339  0.0617205
 -0.32241887  0.06625707  0.05942124  0.27369463 -0.16231011  0.16827363
 -0.07605159  0.05568571  0.15314078  0.06808959  0.31742546 -0.17115365
 -0.00416093 -0.25635627 -0.1271439  -0.38768104  0.05249768  0.36314815
 -0.26196718 -0.20351018 -0.13829522  0.24875258  0.21970908  0.3231688
  0.22726713  0.15225971 -0.03841271  0.20926908  0.2179414  -0.3214413
 -0.09914421 -0.3037727   0.04926739  0.0841025 ]
[-0.17638497  0.17080133  0.02837066  0.3376789   0.07502868  0.16402024
  0.28319684  0.20481363  0.22802077  0.13705127 -0.36712626 -0.3271744
 -0.20628089  0.23216127  0.18329659  0.2779108   0.14041387  0.03320445
 -0.25354123 -0.04467634 -0.03643784 -0.143517   -0.10950721  0.35633242
 -0.23798926 -0.05847157  0.05192003  0.0275339   0.29725546  0.01402874
  0.16849774 -0.31451803 -0.24619569  0.20497578 -0.21210253  0.17455441
  0.23280461  0.27158538  0.0800207  -0.077613  ]
[-0.18333915 -0.14603074 -0.22066908 -0.01970613 -0.08774963 -0.0530499
  0.24391046  0.22192433  0.2078916   0.34450057  0.06632553 -0.06113647
 -0.20068693  0.12052841 -0.22385271  0.13124985 -0.21441704  0.04877555
  0.13745898 -0.00105609 -0.2969086   0.10003231 -0.3002964  -0.2491837
 -0.05950977 -0.17729542  0.0200469   0.1683142   0.23189488  0.2886674
 -0.05138979 -0.12961565 -0.23811886  0.04930158  0.12932253  0.2685496
 -0.30362222  0.13626792  0.16205813 -0.06810518]
[ 0.0632211  -0.10575625  0.06488348  0.15886204  0.27379653  0.35976845
 -0.11080165 -0.0307839  -0.24340276 -0.26049957  0.37482813  0.1493413
 -0.15264276 -0.33846027 -0.07887063  0.07726755 -0.2298608   0.07736999
  0.1462361  -0.31012982 -0.2719401   0.07282156  0.131368    0.05663617
 -0.03844567 -0.14479694  0.36194423  0.20164798 -0.24340144  0.22163524
 -0.31687853 -0.09375262  0.03859973  0.02265544 -0.0405778  -0.11703946
 -0.32501933 -0.23648144 -0.30134127 -0.05614741]
[-0.23251584  0.3622106   0.24009435 -0.239923    0.28859407 -0.19685161
 -0.10243333 -0.09333423  0.19524871  0.4164638   0.33325166 -0.15910123
  0.34925053 -0.4124392   0.23058665 -0.27721265  0.12112294  0.12629026
  0.26867115 -0.37408537  0.2648188   0.04239497 -0.20592995 -0.2766404
  0.08496988 -0.29240897  0.3907752  -0.27210978 -0.20811549  0.34936038
  0.17573415  0.07157313  0.0826878  -0.06275713  0.13789703 -0.38907582
  0.15987442  0.18065165 -0.02443302  0.1842629 ]
[ 0.31038296  0.07878627  0.3040494  -0.15269281  0.13532524  0.20733398
  0.25249973  0.3244756   0.26500222 -0.26630357 -0.0771587   0.2753547
  0.00779846 -0.02200543  0.11522384 -0.04443572  0.16092838 -0.17245813
  0.02145954 -0.2644047  -0.20134462  0.25550002 -0.01291178  0.2290174
 -0.21557584 -0.31167433 -0.26586547 -0.3762564  -0.19100948 -0.22702706
 -0.01382297  0.20739846  0.28231314 -0.09821679 -0.21367207  0.19722284
  0.2044667  -0.30765146 -0.20344189  0.04499285]
[ 9.17662010e-02  1.36949450e-01 -7.22489357e-02 -3.23036373e-01
  1.55176714e-01 -4.04888093e-01 -5.41892946e-02 -1.38731852e-01
  5.26808128e-02  3.16021025e-01  1.08588047e-01 -2.86347538e-01
  7.19213113e-02  1.88279867e-01  4.00394085e-04  3.92763652e-02
  2.66057163e-01 -3.68864119e-01  8.34046677e-02 -1.70167714e-01
 -2.58135885e-01  1.22441322e-01  1.38208270e-01 -2.49818310e-01
 -1.24404766e-01  5.99446818e-02  1.24011330e-01  1.37605131e-01
  1.75338268e-01  1.49801210e-01 -9.10606831e-02  6.35247156e-02
  2.47879341e-01  2.49724120e-01 -1.90602958e-01 -1.46190748e-01
 -4.62930426e-02 -1.53227132e-02 -2.82762915e-01 -2.57410347e-01]
[-0.45040804  0.21189234 -0.13764182  0.33596867  0.30665624  0.1264118
  0.12778927  0.13980177  0.11560252  0.0073906   0.10291461 -0.3408831
  0.07342461 -0.02109834 -0.12823462  0.1791977  -0.20532885  0.10931977
  0.07595678 -0.31607926 -0.13592064  0.27245152 -0.29164833 -0.38580677
 -0.0848432   0.29332712  0.30724597  0.00099472  0.23317148 -0.10632056
 -0.02749751  0.32592812 -0.18503127 -0.08720814  0.3912875   0.335408
  0.21896374 -0.03797375 -0.28008887  0.04104311]
[-0.32079116  0.18650419 -0.14566635 -0.03840811 -0.10074746 -0.12801689
  0.2518262  -0.27063164  0.04654945 -0.08356281 -0.24840848  0.14383961
  0.04865221 -0.13141033 -0.2815858  -0.1714485  -0.00174033  0.22154255
  0.20479667  0.22250745  0.01381765 -0.45300987  0.15037377 -0.22906594
  0.2451099   0.19391833 -0.21741118  0.17145146 -0.17897564 -0.16962525
 -0.23065947  0.13477148 -0.2339769   0.14061883  0.12856399 -0.11931846
 -0.3252253   0.26320034  0.13568467 -0.15718687]
[ 0.23313041  0.00370868 -0.08224946 -0.0732009  -0.4069045  -0.03734384
  0.03849077  0.20847982 -0.13610333  0.00767889 -0.22972837 -0.14660087
 -0.43126458 -0.08830421 -0.21115127 -0.08150674 -0.27929312  0.2977272
  0.14411512 -0.23626536 -0.27450183  0.25036752  0.11194415  0.10693552
 -0.27605754  0.18307912 -0.25142488 -0.48523626  0.16272865 -0.43691146
 -0.34558752  0.05325581 -0.24521953 -0.0736052   0.3321964  -0.15522116
  0.37513706 -0.14992003 -0.01900495  0.25588682]
[-0.6122217  -0.10586632  0.10485028 -0.11036831 -0.21895875  0.5091712
  0.05680437 -0.14670368 -0.02206572  0.33110166 -0.00713877 -0.33232966
 -0.12715314  0.20178626 -0.1744163   0.4184789  -0.26763722  0.765262
  0.6767035  -0.12527712 -0.40345022 -0.04299879 -0.1452369   0.3026928
 -0.3260047  -0.22345054  0.22922522 -0.27290317 -0.2763804  -0.24738833
 -0.25354967 -0.2022594  -0.14074011 -0.07134171 -0.19658673  0.04483963
  0.28214473  0.01237375 -0.30140662  0.23680845]
[-0.05342524 -0.06024316 -0.10084571 -0.12632756 -0.22792238 -0.1531425
  0.13213047  0.25730658 -0.17972696 -0.05892314 -0.17902713  0.26901153
 -0.04321471 -0.00485781  0.09701348 -0.26005566  0.30140406 -0.16268678
 -0.00891624  0.3159272   0.17605388  0.16436337  0.28041482 -0.12197457
 -0.0237269   0.24305174  0.1909437   0.12122793 -0.18652794 -0.19103059
 -0.05270996 -0.23457238  0.16047798 -0.12629038 -0.37501276 -0.19333768
 -0.00256052 -0.20829864 -0.07941379  0.23310056]
[-0.07352252 -0.29840955  0.16267537 -0.28809407 -0.1887912  -0.0426234
  0.12415919  0.43525308 -0.1474145  -0.06742087 -0.07788502  0.28585228
  0.03669302 -0.37842408 -0.3445443  -0.27283075  0.13863766  0.36098975
  0.0454269   0.27325282 -0.29259542  0.4554271  -0.11619034 -0.32746443
  0.08535546  0.35048482 -0.1695726   0.06548589  0.06335232 -0.23658285
  0.02641271  0.2952177  -0.12178617 -0.2814684  -0.13567825  0.31381446
 -0.3283226   0.00316908  0.23287202 -0.12062651]
[ 0.31139663 -0.12571426 -0.33147648  0.28000766 -0.00736077  0.07388267
 -0.04534725  0.25810915  0.28631416 -0.08736225 -0.06991245 -0.04645448
 -0.09106436  0.26025447 -0.20150283 -0.03807295 -0.26757446 -0.1337498
 -0.10159689  0.19821738 -0.00951568  0.14064288  0.15912588  0.15036246
 -0.27576712 -0.14634934 -0.10842723  0.11168031 -0.12081782  0.06274837
  0.03856335  0.35356843 -0.14797792 -0.31915456 -0.2620681  -0.11545838
 -0.09434931  0.12660103 -0.15179178 -0.16875824]
[-0.05978576  0.05982323  0.06845616 -0.07018177  0.24231    -0.28118095
 -0.24649757  0.2845602  -0.12061911 -0.06599828 -0.26720637  0.09549265
 -0.05237989  0.02249328 -0.3308732  -0.03026915  0.12143365  0.30374026
 -0.1794833   0.3311077   0.23953101  0.06660888  0.05061243 -0.07120553
  0.41990805 -0.19715758  0.2899318   0.08923884 -0.01133017  0.21883135
 -0.28732997 -0.04856221 -0.13594599 -0.15658382 -0.00232713  0.14233214
 -0.16165306 -0.1905188   0.1701309   0.23672864]
[ 0.26169604 -0.06082411  0.31774792  0.21196261 -0.11385525  0.16663823
  0.19007008  0.19106336 -0.21215196 -0.0701085  -0.1358503   0.03288034
 -0.2498062   0.13921817  0.00055945 -0.1325276  -0.17878187  0.24011368
 -0.20485613  0.13005838 -0.26233497  0.1286293  -0.24333039  0.275498
  0.13100962 -0.20767467 -0.34034738  0.06045037 -0.19051105 -0.31728202
 -0.11707336  0.10587405  0.24641249  0.05755499 -0.14727293 -0.20795515
  0.3347134  -0.16041064  0.2901937   0.07975873]
[-0.02093769 -0.06944416  0.29770076 -0.0031562   0.33261058 -0.05871928
  0.0228447  -0.2683873   0.20949654  0.20257165 -0.05315207  0.22780262
 -0.27320558 -0.01535519 -0.15791498 -0.23307039  0.16667786  0.04810456
 -0.01539695 -0.23450772 -0.06671713  0.41718912  0.1925623  -0.5131136
  0.21382144  0.2483919  -0.06828345 -0.40459466  0.30416653 -0.09068579
 -0.1854884  -0.18599837  0.17493963 -0.11722612 -0.19745632 -0.12613949
 -0.44641295 -0.34832537  0.19660951 -0.09428614]
[ 0.3683023  -0.1342805   0.01951291 -0.23631826 -0.11118902  0.32518795
 -0.17209095  0.06850176  0.2575158   0.25655165  0.45611858 -0.13408162
  0.24994865 -0.11097331  0.14593127  0.14893556 -0.12538917 -0.05452751
  0.05106921  0.2380583   0.1923149   0.10581571 -0.40884492  0.07564167
  0.13322145 -0.2824363   0.17433165 -0.20710531 -0.29782316 -0.01314657
  0.24391825  0.21694171 -0.03772255 -0.19288634  0.00798202 -0.04053721
 -0.26555052 -0.16802785 -0.08723338 -0.3135317 ]
[-2.5704807e-02  4.4357125e-02 -6.0454421e-03 -2.4712577e-03
  5.3073067e-02 -5.6534193e-02 -1.4889801e-02 -1.8351540e-02
 -2.7702881e-02 -5.1863663e-02 -4.0106498e-02  1.7067241e-02
  7.5552920e-03  1.9543914e-02  8.0449991e-02  1.6595735e-03
  5.8926389e-02  1.2077453e-01  8.5205138e-02 -1.7164644e-02
 -2.4234620e-03  1.0807166e-02  5.0512556e-02 -1.5455972e-02
 -3.5659724e-03 -3.0208009e-03  9.6352887e-05  2.2384472e-02
  5.5421474e-03 -1.3718417e-02 -1.5097128e-02  4.3468517e-03
 -1.9563615e-02 -2.4007583e-02 -1.9628502e-02  1.2651739e-02
 -1.2560229e-01 -3.6910474e-03 -1.8071167e-02  5.3626574e-03]
layer 3 Activation
tanh
layer 4 Dense
40 20
[-0.24461505  0.29026017 -0.14769787  0.12733042 -0.21903534  0.148661
 -0.32442725 -0.02351115 -0.19232583 -0.10738532  0.11948853 -0.08830528
 -0.17577252 -0.3376416  -0.10344248 -0.17681429 -0.065128   -0.2010191
 -0.00540307 -0.15413254]
[-0.25080067 -0.1515261  -0.27612627  0.00926126  0.15891138 -0.07724947
  0.06809708  0.31755605  0.14791623  0.21251442 -0.01147055  0.02122059
  0.07875244  0.29748014  0.37902072 -0.12159595  0.16455227 -0.32239228
 -0.01226853  0.12406437]
[ 0.11637162  0.25076133 -0.22926359 -0.20381296 -0.1841423  -0.13967013
  0.15566646 -0.25204548 -0.00064663 -0.02479345 -0.35123646 -0.09307054
  0.22441949  0.08584905  0.26588756 -0.00446164  0.03070193 -0.04064431
 -0.04500481  0.21274193]
[-0.21733524 -0.04808075  0.19898658 -0.24971226 -0.08001313 -0.1226223
 -0.12150089  0.11758585 -0.02637548 -0.05688623 -0.13317199  0.09539769
 -0.2902124  -0.0405404  -0.19484061  0.11719225 -0.12025702 -0.0885419
  0.2744696  -0.1675944 ]
[ 0.01256529 -0.19503161  0.01508787  0.19931221 -0.32251355 -0.38584563
  0.22727428  0.03021155  0.188363    0.03353838  0.18877718  0.08140418
 -0.14638908  0.11804603  0.09833454 -0.13876748  0.1749401   0.11517052
  0.09835387  0.26560107]
[ 0.1980439  -0.13182384  0.07885688 -0.3838212   0.17435867  0.24712025
  0.18470643  0.02932238  0.11926799 -0.13254519 -0.0648002  -0.0694401
 -0.37827548 -0.35562944 -0.18983078 -0.15188068 -0.10143873  0.03018216
 -0.16789983 -0.08049928]
[ 0.10881898 -0.03366994  0.01344853 -0.1114375  -0.00906504 -0.1955339
  0.10677149 -0.08791553 -0.26083753  0.17618181 -0.15928577  0.14271806
 -0.15987071 -0.27519396 -0.14752567 -0.13540044 -0.15678798  0.00911383
  0.290836    0.02923091]
[ 5.6630775e-02 -8.1241546e-05 -5.7840440e-02  1.2214068e-01
  3.1929818e-01 -1.8225667e-01 -2.1857031e-01 -2.0508134e-01
  2.9221585e-01  2.6192769e-01 -1.9421201e-02 -1.9910839e-01
  3.1083405e-01 -8.2585230e-02  1.4147851e-01 -3.9838430e-01
  1.0853699e-01 -1.3277668e-01 -6.4967550e-02  1.5476620e-01]
[ 0.202755    0.11172707 -0.08163238 -0.17315172 -0.15416314  0.20318472
  0.17382887 -0.12608023 -0.22267985  0.24296834 -0.14782482  0.2653736
 -0.00652876 -0.18945193  0.00250309 -0.11121062  0.1355555   0.20385623
 -0.19789185  0.04634166]
[-0.19968824 -0.11270665 -0.15129776 -0.2790716  -0.28640977 -0.20563753
  0.22121814 -0.16876295  0.28569627  0.27050778  0.17950192  0.24105003
  0.1830894   0.3678493   0.31254497 -0.16633755  0.10420012 -0.41680813
 -0.06919084 -0.05768435]
[ 0.11766433 -0.3023209   0.08134073 -0.01512083 -0.34358034  0.2786369
 -0.22220187 -0.14183122 -0.0524171   0.24797092  0.00446936 -0.05128838
 -0.0328793   0.05337733 -0.12936658 -0.25100434 -0.20545141 -0.18893753
  0.17224193 -0.24865602]
[ 0.07864894  0.1608225  -0.20277113  0.32807443  0.18290937  0.07037676
  0.22004612  0.01834048 -0.02012409  0.2861744  -0.4047286  -0.1599766
  0.1483588  -0.16861802 -0.37459946 -0.15065548  0.11927922  0.2207656
  0.3145482  -0.12314389]
[ 0.15835556  0.01869058  0.25546145 -0.20497495 -0.1610056  -0.17700337
  0.11934327  0.15029034 -0.01102822 -0.15274419 -0.13527596 -0.09197664
  0.23397474  0.27908978 -0.01212068  0.00359628  0.12935998  0.24664916
 -0.29297468 -0.36393628]
[-0.33462963  0.33796197 -0.06002582  0.25767362  0.20602667  0.14703915
  0.37595493  0.09557784 -0.07301933 -0.17817134  0.315359    0.335521
 -0.19135545 -0.00231747 -0.23891757  0.24041082  0.30348226  0.21764654
 -0.18970175 -0.01599847]
[-1.9863136e-01 -2.2045790e-01 -6.2333886e-05  2.7310386e-01
 -1.3182618e-01 -3.4470480e-02 -9.2772529e-02 -6.0629886e-02
 -1.9167851e-01  1.5250844e-01  9.8954000e-02  7.4736990e-02
  3.1506605e-02  3.2519570e-01  2.0730106e-02  1.6102718e-02
 -2.3366794e-01 -2.6796231e-01  4.4680197e-02 -7.9979993e-02]
[ 0.10024649 -0.09477127  0.17638168 -0.08416382  0.10713836 -0.04081671
  0.07987257  0.24225917 -0.15200777 -0.15709235 -0.0920744   0.04167775
 -0.35479113 -0.16735847 -0.05092251  0.12248061  0.3171394   0.25580347
  0.16443548 -0.19227545]
[ 0.21386299  0.33105847 -0.5507122   0.1032579  -0.28156957 -0.29633898
  0.31443238  0.3850874  -0.26931417 -0.18045898  0.03597293  0.28262037
  0.09230122  0.36602032 -0.13550645  0.00106255  0.18154678  0.19912249
 -0.09409244  0.20499949]
[ 0.09784272 -0.10789583  0.2021693  -0.37122667  0.299251    0.25482902
 -0.13128641 -0.24282996 -0.05689012 -0.16937004  0.17757134  0.01938454
  0.14235874 -0.1711629   0.01640999  0.24305923  0.20224136  0.08926099
  0.11432683  0.1743375 ]
[ 0.26549253 -0.36152577 -0.33237377 -0.28942716  0.27941307 -0.01737537
 -0.15015991  0.3590755   0.16837475  0.16945061  0.08571572  0.20110576
 -0.0529571   0.20490529 -0.2351646  -0.12575822  0.19562867  0.12416644
 -0.02736083  0.10327436]
[-0.2792836   0.23063889  0.10012042  0.17004512  0.05664121  0.21591178
 -0.28964007 -0.06554943 -0.25323823 -0.08841336 -0.03721075 -0.18463106
  0.12356737 -0.07799612 -0.0339218  -0.03566703  0.1481558   0.0065613
 -0.12976639  0.08820371]
[ 0.13974357  0.04241838 -0.1298045   0.2664654   0.20685674  0.11888468
 -0.03970391 -0.01802354  0.07365757  0.2031987  -0.10250203 -0.15433519
  0.02626516  0.1676062   0.2636052  -0.27834693 -0.10284251 -0.11200049
 -0.28531325 -0.24245358]
[ 0.2877428  -0.10412975  0.3681625  -0.22139335  0.20682773  0.2702674
 -0.01928287 -0.20563671 -0.13297811 -0.22973524 -0.16841711  0.20919466
  0.1317784  -0.35470498 -0.17655414  0.26705614 -0.11452933 -0.24855506
  0.16484329  0.14118202]
[ 0.09170578  0.3339465  -0.31143597 -0.05607737  0.24078856  0.06441098
 -0.2223286  -0.12664814  0.21916075  0.28219914 -0.16858904 -0.08379053
  0.29420102  0.04079771  0.21863037 -0.15620162 -0.00955007 -0.17024532
  0.27994415 -0.03817227]
[-0.26080155  0.20171449 -0.4428283  -0.05795587  0.1823386  -0.01633709
  0.2865276   0.04397733  0.22878112 -0.15740637 -0.30516827  0.12174612
 -0.38916847 -0.36413112  0.2984851  -0.37104926  0.00205864 -0.21281856
  0.0871488   0.05089125]
[ 0.04434382  0.2821154   0.34884545  0.27336785 -0.34758204  0.0918121
 -0.04064242 -0.2595515   0.34902856  0.17081004  0.2799499   0.1695883
  0.26116875  0.07640132  0.11812464 -0.17087609 -0.15749267 -0.06824556
 -0.16459052  0.02387136]
[ 0.3322312  -0.2050187  -0.08280122  0.29399502  0.07957697 -0.32641822
  0.18033703 -0.02068109  0.06330292  0.18163916  0.11003     0.3276793
  0.05836021 -0.14084554 -0.11548951 -0.20550495  0.17416325  0.09464479
 -0.03020174  0.11790211]
[ 0.3064089  -0.3178738  -0.24270011 -0.1264996   0.22200619 -0.0848219
 -0.02595283 -0.22157934 -0.05753129 -0.14625406  0.12401854 -0.22688377
 -0.02093316  0.41359687  0.03049046 -0.32325038  0.26621026 -0.04628113
 -0.26312733 -0.32315052]
[-0.24504259  0.13238445  0.11443488  0.2792662   0.18172327 -0.4021709
 -0.1152622  -0.24243985  0.11266268  0.03354475  0.00466201 -0.16580576
  0.20857902  0.2442511   0.15909456  0.12943438  0.09841485  0.2611395
 -0.18254752 -0.17707463]
[ 0.24698527  0.36898646  0.20818534  0.18832098 -0.14582947 -0.28089333
  0.11529671 -0.26829854 -0.19344564 -0.17848517  0.05080961 -0.22605509
 -0.07578238 -0.16177525  0.12582883  0.1975054   0.10823137 -0.19860765
 -0.15124722  0.04619452]
[ 0.08683707  0.0122317   0.3043905   0.12099483 -0.06355055 -0.16868174
  0.32467422  0.12693302  0.10193029 -0.02524025  0.11570398 -0.15698056
 -0.18915078  0.2594049   0.12870488  0.04504399  0.25101006  0.1375836
 -0.34576783 -0.3614919 ]
[-0.2596542  -0.33593193 -0.1692247   0.32678902 -0.2033111  -0.04534561
  0.15561943 -0.18516535 -0.20356493  0.21586229 -0.02118814  0.03590072
 -0.2745897  -0.15005304 -0.01432895  0.12414259  0.26809916 -0.24814442
 -0.20114668  0.00814698]
[-0.05810186 -0.256367    0.30747122 -0.09416595 -0.17872654  0.2678958
  0.22939458  0.19873068 -0.0855724   0.29578206 -0.04228384 -0.12890138
 -0.12214702 -0.23537554 -0.10574527  0.17012079 -0.24153376  0.05649419
  0.19108446 -0.2946996 ]
[ 0.27588883  0.0648916  -0.15517512 -0.14088511 -0.25083748 -0.18113579
  0.32310966  0.03185723  0.07257488 -0.10776269 -0.15188691 -0.2840287
 -0.24478292 -0.03393815  0.23765406 -0.10481052 -0.26902816 -0.02106751
 -0.19979016 -0.11142719]
[-2.8000847e-01  1.4866258e-01 -2.2602907e-01 -1.7166616e-01
 -6.2843665e-02  1.1814857e-01 -1.1471711e-01  3.4313107e-01
 -1.0745913e-01 -9.9388845e-02 -3.6504593e-02  8.4521063e-02
  1.7325197e-01  2.7096155e-01  3.3808270e-01 -3.0684817e-04
  2.9115722e-02 -1.6503127e-01 -2.1558328e-01 -1.2501761e-01]
[ 0.18523563 -0.38661152  0.05297242 -0.17358263  0.12184142 -0.16149698
  0.13424024 -0.11781555 -0.14158754 -0.09456151  0.29863957  0.229144
  0.01316222 -0.10828147  0.30975223 -0.04469315 -0.14221993  0.19534025
  0.13420884 -0.20587619]
[-0.1305048  -0.00996734  0.17119321 -0.02370363  0.03369107  0.09729727
 -0.15017197  0.08863043  0.22904234  0.28881377 -0.0875277  -0.05785456
  0.15841857 -0.24625127 -0.09433143  0.00600145  0.12843817  0.03999341
 -0.01072853  0.23965412]
[-0.32973346 -0.09282756 -0.31889173 -0.20061292  0.16125944 -0.2570555
  0.28944278 -0.18438032  0.00624566  0.35319245  0.08362833  0.04981036
 -0.39076254 -0.10503735  0.35190797 -0.18784297 -0.32054076  0.17812572
  0.26180905 -0.14507583]
[ 0.06797432  0.00969199 -0.15377955  0.23902561  0.2630843  -0.02532105
 -0.09690165  0.01277688  0.23534843 -0.04566581 -0.10490301  0.28690615
  0.05370764 -0.21103065  0.20603584  0.06166834 -0.09248712  0.00315552
 -0.01992104 -0.27235076]
[-0.1135709   0.2092202  -0.04578037  0.2026268  -0.34660453  0.26223764
 -0.14667866  0.00224888  0.41543418 -0.05448568 -0.2864104  -0.18098263
 -0.01714085 -0.2776244  -0.25453675 -0.1496325  -0.13009804 -0.1307698
  0.15795556  0.10050432]
[-0.05491129  0.32799038 -0.00965524 -0.24042332  0.06721728  0.31359574
  0.220845   -0.1584534  -0.08229909  0.02318129 -0.01923124 -0.07592888
  0.10286121  0.12448159 -0.21968225  0.19788253 -0.27427953 -0.11569952
 -0.19554237 -0.12811683]
[ 0.01976775 -0.00363196  0.02563468  0.03777958  0.03172161 -0.00047003
 -0.02569126 -0.07238241 -0.02435837  0.00499476  0.0116258  -0.00724849
  0.00035839  0.05317605 -0.02976575 -0.0399989   0.02480369 -0.04844967
  0.00844586 -0.00256357]
layer 5 Activation
tanh
layer 6 Dense
20 1
[0.37927973]
[-0.47333258]
[-0.26377994]
[0.42405033]
[-0.19031435]
[0.02410264]
[0.04754903]
[0.00802787]
[-0.01174955]
[-0.01191097]
[0.11597589]
[-0.00491933]
[0.36530176]
[-0.44471574]
[0.24663253]
[-0.00444512]
[0.11617819]
[-0.00140201]
[-0.17093194]
[-0.39976326]
[0.0146818]
