layers 7
layer 0 Dense
20 20
[-0.48131573 -0.02626754  0.47657883 -0.27878216  0.06323796 -0.07680672
  0.0059212   0.03193662 -0.42444465  0.01140055  0.5408122  -0.21069843
  0.15228096 -0.00774448  0.03880305 -0.19832571  0.35976973  0.1297292
 -0.18801135  0.112497  ]
[ 0.4037502   0.54120743  0.24567536  0.5570086   0.37535417 -0.18047214
 -0.47397968 -0.26564595 -0.08593276  0.12194922  0.9597391   0.08210046
 -0.62412876  0.2859003  -0.3298166   0.45489082  0.31878603  0.2579518
  0.348001   -0.46400937]
[-0.09035987 -0.04368109 -0.0055777  -0.00271956  1.0248309  -0.12580684
 -0.04143102 -0.40813535  0.20572692 -0.21048447  0.64172    -0.47975636
 -1.1798791   0.36198798 -0.05486967  0.80861914  0.26685762  0.4989137
  0.51592076 -0.27516738]
[ 0.13129117 -0.16102317  0.48379615 -0.34844652 -0.0491446   0.42292184
  0.4084785   0.13321486 -0.09842766 -0.5263297   0.2961237  -0.1884943
  0.05148064  0.37494045 -0.11371259  0.16147608  0.29233667 -0.17478104
 -0.32173416  0.19430406]
[ 0.3644708  -0.39005464 -0.4920433  -0.5647341  -0.48065287  0.17522371
  0.2000444   0.22719254  0.07740896 -0.30411577 -0.2622185   0.3231188
 -0.13324346  0.12306539 -0.48910254 -0.2253039  -0.22276841 -0.23433723
  0.15344134  0.33264711]
[-0.4364391  -0.6646384   0.09430343 -0.4011572  -1.0666481   0.02627087
  0.47927424  0.06087584 -0.22619997 -0.3288851  -0.61195457  0.15060094
  0.7482578  -0.48481092 -0.23833248 -0.43191263 -0.18123013 -0.40525955
 -0.25002283  0.06849581]
[ 0.04659286 -0.6257919  -0.257612   -0.22042345 -0.5265471   0.43016678
  0.26731056  0.5215376  -0.06904166  0.03226881 -0.43288258  0.4985687
  0.52936256 -0.52112746  0.24386758 -1.0159725  -0.70261925 -0.5020342
 -0.6219345   0.16065101]
[-0.17261189  0.43537256 -0.08285435  0.52993673 -0.06692061 -0.14256577
 -0.2680341  -0.5179897  -0.38300517 -0.33106878 -0.61769205 -0.03468226
  0.25870663 -0.2910139   0.04195065  0.38914427  0.4101825  -0.40607038
  0.12573093 -0.12452583]
[-0.6505382  -0.06742466  0.4547165   0.02624579 -0.68315136  0.15366451
  0.16451824  0.11830679 -0.33884585 -0.03205407 -0.25482842 -0.13296153
  0.24178399 -0.50767887  0.2509174  -0.7521386  -0.4207023   0.22667976
 -0.04387865  0.23176393]
[ 0.06632949  0.01088839 -0.22107734  0.00533971  0.05399299 -0.14976156
 -0.78588647 -0.32895613 -0.04572352 -0.6554518   0.25572503 -0.30667222
 -0.21600816 -0.17332564  0.00441727 -0.5809873   0.41810277  0.8887694
  0.6096899   0.17099868]
[ 0.2181291   0.10396611 -0.47257555  0.2660793   0.02541327  0.1930704
  0.8124902   0.31013742 -0.44897068 -0.33724675 -0.19025132  0.09581068
 -0.0491509   0.07316523 -0.10430011 -0.20519716 -0.0269796   0.05904581
 -0.30953506 -0.8049233 ]
[ 0.5037237   0.11405756 -0.42988095 -0.01326411  0.63719076 -0.43045628
  0.74296445 -0.58671075  0.1898212  -0.5149768   0.27873763  0.7562225
  0.2714836   0.75676477 -0.17829052  0.6403978   0.2500337  -0.12259322
  1.1572249  -0.5487895 ]
[-0.20678094 -0.5930149  -0.4415964   0.17920384  0.82032084 -0.23939532
 -0.28313354  0.4560885   0.45678833 -0.6070948   0.4008325   0.12867554
  0.47555354 -0.31122097 -0.39242616  0.26388568 -0.16904023  0.04928841
 -0.2516949   0.7617626 ]
[ 0.04323552 -0.5741178   0.29380625 -0.2316905  -0.2107024   0.46621335
 -0.07925585  0.61068445 -0.20058723  0.19939819  0.15987597  0.8838424
  1.0810587   0.05540804  0.25293696 -0.17991117  0.33788714 -0.7389675
 -0.81015015 -0.8162608 ]
[-0.7637992  -0.251878    0.66981065  0.37035957  0.35440132  0.92965835
 -1.0680872   0.1362792   0.2420406  -0.73938537 -0.03064368  1.1767235
 -0.563184   -0.1861166   0.07306476 -0.6385463  -0.9063607  -0.26898867
  0.35704368  0.41223797]
[ 0.03683896  0.20486194  0.3537475   0.0321142  -0.6211815   0.607882
 -0.7133945   0.82763565 -1.2822286  -0.36305937 -1.0209451  -1.4082631
 -1.2705967  -0.22119616  0.31069648 -0.80205697 -0.6996726   0.65700316
 -1.0059844   0.29250732]
[ 0.14297676  0.1630348  -0.52459884 -0.0535388  -0.73479706  0.0645098
 -0.07851731 -0.2788928  -0.10238411 -0.18453859 -0.15768671  0.00749205
 -0.03128415 -0.29099995 -0.46161523 -0.42059737 -0.2410294   0.5247914
  0.11811525  0.26912412]
[-0.22571605  0.52831584 -0.29265368  0.13742802  0.0098231  -0.08447048
  0.23007832 -0.23417686  0.113764    0.48655316  0.24208449 -0.15093109
 -0.68062615 -0.43722892  0.01314599  0.7001878  -0.6360989   0.35809332
  0.6313655   0.8358489 ]
[ 0.7386479   0.51645994 -0.2503333   0.16119595 -0.36461592 -0.32524365
  0.06666065 -0.03268357 -0.37204134  0.22983642  0.46154073 -0.49065468
 -0.01641127  0.2102157   0.00098559 -0.13956216  0.4755191   0.01669335
 -0.5485855   0.5582344 ]
[-0.13273613  0.73395795 -0.04165469  0.32979536  0.45930398 -0.46706313
  0.83807755 -0.52128375 -0.10256854 -0.51824236 -0.34527388  0.3074298
  0.6338209   0.3923688  -0.15297683  0.2517954   0.19650291  0.06804744
  0.33527428 -0.19374178]
[ 0.10167737  0.04142871  0.30094445 -0.01246861  0.00386551  0.09344236
  0.05439568  0.10673909 -0.07395087  0.08689649  0.4236487  -0.00078442
 -0.16680163  0.26007906  0.07793283 -0.07224336  0.02722352  0.03385802
  0.15940858 -0.22508648]
layer 1 Activation
tanh
layer 2 Dense
20 40
[ 0.14216734 -0.05025299  0.49510783  0.16134933 -0.12973787 -0.40099326
 -0.31321624  0.4451302  -0.11286151 -0.45855027  0.0313279   0.3932406
 -0.05174521  0.1318622  -0.16057463 -0.07519692  0.00336479  0.05798602
 -0.05829832  0.44334003 -0.38602465 -0.43577272  0.18732297  0.05273282
  0.28347483  0.30800128  0.46843985 -0.14690152 -0.23112896  0.27755982
 -0.20739676  0.30053923  0.11920809  0.3367998  -0.19679312 -0.29255712
  0.04286355 -0.10074692 -0.6554458  -0.02695469]
[ 0.08794713  0.23074433 -0.01360244 -0.31117368 -0.1516255  -0.0474565
  0.07647308  0.12891832  0.22558567  0.07455505 -0.21523441 -0.22978589
 -0.05463156 -0.16452962  0.11177338  0.35513788 -0.6427449  -0.37786764
  0.07453224  0.2692592  -0.01199104 -0.20764704 -0.20598881 -0.11482455
 -0.30733353  0.11662765  0.34305608  0.00798345 -0.02664192 -0.08861414
 -0.04826337 -0.03351352  0.17750971  0.07417323  0.31420675  0.260887
  0.30952752 -0.12587139  0.15727729  0.3689905 ]
[ 0.13138896  0.06765953  0.24454752  0.17381805 -0.17289321  0.28019866
 -0.35347188 -0.30802506 -0.12083406  0.4351523   0.35856116  0.02751196
  0.15541948  0.71390474 -0.08633742  0.1947337   0.15652175  0.24635202
 -0.21474338  0.3427803   0.15725422 -0.27448365 -0.32684085  0.37178424
  0.0022052   0.24154054  0.49440923 -0.19953887 -0.62053925 -0.37800834
 -0.31313464 -0.51120615  0.16089378  0.30821243 -0.16803807 -0.04945427
  0.35817575  0.36519665  0.28100377 -0.30120608]
[-0.12816682 -0.1520576  -0.02417381 -0.15686803 -0.13852862  0.23734565
  0.43254262  0.27309537  0.1773156  -0.07830033  0.10828312 -0.12104041
 -0.09411489 -0.0723711   0.00060212  0.09404659 -0.3668883   0.07047389
  0.17014694  0.00738718 -0.331751    0.18655442  0.11179227 -0.15281238
  0.22470132 -0.3609941  -0.21083374  0.33651236  0.28988156 -0.16754542
  0.14718552  0.23055793  0.11372786 -0.39791775  0.12235946  0.3627183
 -0.11080045  0.25656    -0.15023223 -0.47466093]
[-0.08080065 -0.02267918 -0.20500447  0.28338483 -0.0533709   0.06500091
  0.0967044   0.01007167  0.01564554  0.34309033 -0.10773619 -0.00768476
  0.24744038  0.2307636  -0.02558218 -0.6101339  -0.09804059 -0.26272467
 -0.06179156 -0.33031207  0.2415632   0.14557183  0.18346211 -0.30568948
  0.34841365  0.36508137 -0.31905824  0.14117701  0.09142438 -0.10995018
  0.18059367  0.3227242   0.05715802 -0.28298265 -0.37914017  0.35634923
 -0.158023    0.17739645  0.29447532  0.2534581 ]
[-0.0775531  -0.56361425 -0.076998   -0.09482078 -0.13907778 -0.00872916
 -0.19075905 -0.515218   -0.1259139   0.09286522  0.38070154  0.05900866
 -0.13111629  0.14265437 -0.01029602 -0.00357225  0.663247    0.39769438
  0.0892527  -0.32236937  0.16985714  0.4744086  -0.26960373  0.12448236
  0.10035653  0.16505446 -0.13772474 -0.04728046 -0.13478042 -0.20076087
 -0.05540704 -0.02964609 -0.00575905  0.09637813 -0.12196919  0.16785613
  0.25425538 -0.08111079  0.19949712 -0.42568424]
[ 0.19592308  0.37669     0.1439031  -0.03496376  0.4827054  -0.25158507
 -0.05967544  0.27590832 -0.45012662 -0.00382385  0.22076635 -0.24880809
 -0.16464627 -0.07897998 -0.24225736  0.42645735 -0.6300669   0.1535615
  0.09096432  0.64084756 -0.29663196  0.3389885   0.18123639 -0.3331107
 -0.02904244  0.04485095  0.32331645 -0.22566152 -0.13540553  0.33466187
 -0.76400465  0.04732054  0.62489074 -0.267541   -0.09916563 -0.10895125
  0.01729916 -0.00683633 -0.20617948  0.18571296]
[-0.02755923 -0.06750532 -0.04782869  0.277161   -0.23906416 -0.2805981
 -0.18927564 -0.14031756 -0.3568165  -0.1991082   0.2935572   0.07865465
 -0.08261324 -0.3486542  -0.08611691 -0.12092821  0.4788519   0.2643516
 -0.15475446  0.19134113 -0.01886195 -0.08458167  0.20516257  0.36593905
 -0.17191012  0.07381047  0.15256537 -0.08855358  0.24341813 -0.02593888
 -0.17108928 -0.08460099  0.0106858   0.29724872  0.03575854 -0.00375289
 -0.49352974  0.01257053 -0.0708773   0.1344521 ]
[-0.10333201 -0.11658844 -0.05673287 -0.21745896  0.13260627  0.25996763
 -0.05681694  0.19815037  0.13139811 -0.06995066  0.09170039 -0.00757062
 -0.1542166  -0.47073558  0.0063285  -0.27495942 -0.07453787  0.00425772
 -0.12130743 -0.14272541 -0.11923572 -0.06757633  0.0836912   0.09600817
  0.19448361 -0.17841548 -0.25454724  0.16452122  0.02149948 -0.07715432
  0.33613873 -0.12333087 -0.25229517 -0.1712462  -0.02714826 -0.08545844
 -0.01296689  0.29439417 -0.48067036  0.25146562]
[ 0.21549931  0.3622488   0.31277058 -0.18731287 -0.17756782  0.03956531
 -0.03432443  0.13363391  0.00803957 -0.39505622  0.14819846  0.10192437
 -0.36156592 -0.2416415   0.00239454 -0.21164122  0.03731601  0.1022157
 -0.2748732   0.6027      0.15836507 -0.21738857 -0.2926425   0.00891862
 -0.11886051  0.18823877  0.59293073  0.02399145 -0.59606695  0.3418946
 -0.3038403   0.1308491  -0.3501951   0.5441035  -0.07388242 -0.44286916
  0.06332792 -0.15070009 -0.18353166  0.15550555]
[-0.29228744 -0.17899913  0.39917642 -0.07566006  0.58926964  0.07800644
 -0.50538087  0.18880288 -0.35550946  0.35934258  0.02184472  0.5269482
 -0.15289484  0.17343009 -0.19555134 -0.28011468 -0.29873922  0.42809936
 -0.02661009  0.61480993 -0.09919681 -0.3419953   0.11165511 -0.4655414
  0.49151015  0.60613537  0.08974965  0.10500313 -0.1996494   0.36467087
  0.1515496   0.21676265 -0.08393203  0.04570358 -0.37094676  0.03367419
  0.09683142 -0.19253387 -0.13075373  0.4531995 ]
[-0.24912953  0.17665721  0.13925314  0.47055626  0.15669245 -0.13121463
 -0.30362433 -0.2185052  -0.4038867   0.41434026  0.06839931 -0.14647494
  0.23299181 -0.27791843 -0.23767775 -0.43083718  0.22107087  0.23313028
 -0.11372059 -0.35424277  0.14300603 -0.07810476  0.2877334   0.13135391
  0.07669349  0.3450894  -0.07972071  0.02863414 -0.27625203  0.47534814
  0.46573058  0.14589585 -0.30921713  0.43889895  0.04436833 -0.13098288
  0.03590613  0.17863287 -0.22842757  0.08122724]
[-0.18854578  0.18335347  0.01263857  0.2945404   0.36448166  0.11469704
  0.20594789  0.32213333 -0.10965565  0.15351234  0.29999533 -0.02814802
 -0.04105767  0.02764965 -0.13564436  0.03797844 -0.17368482 -0.06019585
 -0.2499102  -0.08388284 -0.276872    0.45365015 -0.11398839 -0.260781
 -0.02707842  0.3493435   0.23974605  0.23342082 -0.48271462  0.56180274
  0.06771424 -0.17622149 -0.6245269   0.1494549  -0.08092877  0.3434665
 -0.41586003 -0.36439532 -0.11000334 -0.20955482]
[ 0.10581844 -0.22757313 -0.19390652  0.02138741  0.342443    0.4187095
 -0.28002816 -0.12902336  0.18303776  0.25345665 -0.06360601  0.18992937
 -0.10213761  0.2957516   0.1546199   0.09883396 -0.41363376 -0.24250504
  0.10065182  0.14829956 -0.12033841  0.19169518 -0.23041774 -0.14936249
  0.20975131  0.13418943  0.07840168  0.13694814  0.00569468 -0.04412084
 -0.10041375  0.31953403  0.02787095  0.373654   -0.26042938 -0.37711903
 -0.04647705 -0.03110308 -0.22787796 -0.11019945]
[ 0.10022436 -0.19607662  0.05722911  0.08854698  0.10670207  0.0161675
 -0.24828802 -0.25437737  0.15193543  0.13237447  0.1137877  -0.06327249
 -0.15280408 -0.1462437   0.1269684   0.41499016  0.14924367 -0.12051393
  0.25740013  0.23346344 -0.13973479  0.3666333  -0.16840883  0.02131831
 -0.10068351 -0.21759295 -0.01306831  0.29948336  0.03218929 -0.21410505
  0.2662063   0.1420486  -0.06056217  0.0755172   0.07851443  0.05700408
  0.07818192  0.23680338  0.31596783  0.14471789]
[-0.00688174  0.5582093   0.42573667  0.12101169  0.25502333 -0.24557543
 -0.10395661  0.53175485 -0.13991676 -0.07862546  0.27998313 -0.28786644
 -0.22061534  0.23576722 -0.18794107 -0.21209788 -0.59806824  0.15649514
 -0.01269207  0.42185277  0.3036366  -0.44020396 -0.23214296  0.11669302
  0.23971066 -0.05348393  0.2909706  -0.13059255  0.08500002  0.25873467
 -0.36339575  0.11989171  0.32112145  0.22397308  0.11269304  0.30084816
 -0.02968666  0.05320317 -0.30545297  0.4797705 ]
[ 0.16920425  0.5271857   0.18490523 -0.23436397  0.377583   -0.26022708
  0.09768926  0.6704235  -0.43060228  0.26597115  0.3565951   0.31576604
  0.07991038  0.12664114 -0.4006604   0.8089244  -0.17361741 -0.08588734
  0.20652439  0.81386966 -0.11201528  0.28045738 -0.13869463 -0.29111698
 -0.17003655 -0.05938408  0.4928048  -0.24380061  0.09035077  0.5842262
 -0.5202639   0.24239452 -0.09138332  0.08717985  0.14930221  0.13584667
  0.04570568 -0.16615199 -0.0994997   0.05605249]
[-7.0007138e-02  8.2831800e-02  8.1592500e-02 -1.5187594e-01
  4.2798806e-02  2.5352293e-01  2.4969218e-04  2.4628878e-01
  4.5874098e-01 -4.3917719e-02 -2.0885494e-01 -1.6615900e-01
 -6.6135707e-03 -1.5036485e-01 -3.7850848e-01  1.4046085e-01
 -1.7241678e-01 -4.9934152e-01  6.4796455e-02 -3.0134585e-01
 -2.3794977e-02 -2.4587654e-01  1.1537157e-01 -4.4514877e-01
 -8.3530053e-02 -2.6461292e-02 -4.1974310e-02 -2.6585266e-01
  1.6055414e-01 -1.6686812e-01 -3.8909534e-01  4.9550433e-02
  2.8381070e-01 -4.5965123e-01  2.4091879e-01 -1.3942060e-01
  9.8176450e-02 -3.0129002e-02  2.2820486e-01  7.5849198e-02]
[ 0.27634406  0.18338566 -0.1363599   0.02503921  0.29510188 -0.10716102
 -0.1537606   0.57735735 -0.08605605  0.24533993  0.27874136  0.29269525
  0.22294761 -0.03736608 -0.33156812 -0.56637263 -0.5123719  -0.07030333
  0.1125567  -0.10710753 -0.10369681 -0.35956135  0.11299311 -0.3661214
 -0.04515662  0.46555588 -0.19437161 -0.2786981   0.11822807 -0.0055306
  0.25662774  0.17415418 -0.20314685 -0.27023482  0.15376039  0.09254389
 -0.20947933 -0.12114487 -0.44804898  0.4874606 ]
[-0.03742344  0.07256708 -0.210927    0.09846596  0.23946744  0.03743753
 -0.0878844  -0.12608512  0.14732048 -0.19717647  0.02767152  0.00755041
  0.25418133 -0.065198   -0.06020598 -0.64558667  0.16920175  0.08253661
  0.07612669  0.09197567  0.11843917 -0.716079    0.2897219  -0.35495353
  0.13793245 -0.07195473 -0.06999628 -0.19566078 -0.14808571 -0.30582386
  0.41206226 -0.03953436 -0.11599275 -0.04001437 -0.38603625  0.18622297
  0.22985236  0.1353151   0.36420068  0.02855855]
[-3.46359253e-01 -9.48129371e-02  1.06322408e-01 -1.96162779e-02
  9.89746079e-02 -3.67983989e-02 -1.63197517e-01 -9.11017805e-02
  4.25248221e-02  1.03813864e-01 -6.36190027e-02  1.43588871e-01
  6.04495266e-03  2.49046236e-01  3.72396708e-02 -7.07199499e-02
  2.04078197e-01  1.52163327e-01 -1.77838504e-01  2.65293587e-02
  6.30053729e-02 -4.06114347e-02 -9.65648964e-02 -1.20922662e-01
  9.65603217e-02  2.76005954e-01 -9.69660655e-02 -1.30949020e-01
 -1.23035453e-01 -6.12913957e-03 -1.04039229e-01 -1.37879455e-04
  1.38121262e-01  1.33357957e-01 -3.19722027e-01 -7.34837577e-02
  1.02165401e-01  1.41949756e-02 -7.41893798e-02  1.44929528e-01]
layer 3 Activation
tanh
layer 4 Dense
40 20
[-0.06967869 -0.13817471  0.07872776 -0.04526624 -0.19616455 -0.08875638
  0.04929714  0.22574843 -0.13110682  0.05714291  0.11302818  0.00831501
 -0.12479448  0.06622475 -0.02573077  0.10123499 -0.32206383 -0.14496922
 -0.06597573 -0.01987054]
[ 0.02662976 -0.11270261  0.2705052  -0.11401832  0.3174344   0.1868753
  0.1245515  -0.20703019  0.12933074 -0.39553022  0.16666189 -0.37531838
  0.0882067  -0.16552316 -0.15571551  0.25376347  0.1395465   0.05647916
  0.09678762  0.21324709]
[-0.19854851  0.10811577  0.21867701 -0.04009469  0.01556979 -0.00877577
  0.16644298  0.32620195 -0.10154457 -0.07245656 -0.01975235 -0.30357304
 -0.1577109   0.2374193   0.06891478  0.05219307  0.10959352 -0.15831597
  0.19093329  0.23584831]
[-0.06911906  0.03696214  0.15962476  0.147427   -0.24243066  0.32037514
  0.27952373 -0.2303421  -0.2503713   0.24880485 -0.18582472  0.02396111
 -0.02379561 -0.07182283 -0.14702255 -0.04613613  0.19388808  0.11778676
 -0.09506588 -0.06511674]
[ 0.18228859 -0.18000512  0.11160369 -0.38808462 -0.03121735 -0.14396322
  0.13517188 -0.22500058 -0.2917451  -0.24990201 -0.30751365  0.1697329
 -0.03315022 -0.2698142   0.05909717 -0.23678079  0.13533087 -0.18060498
  0.14585122  0.28576407]
[ 2.21515790e-01  4.33913246e-02  1.35163486e-01 -5.27198389e-02
  1.09014206e-03 -1.07760251e-01 -1.96764216e-01 -2.41162226e-01
  2.25084379e-01 -1.47654559e-04  1.88404799e-01  8.96838009e-02
  3.33708599e-02  1.45259649e-01  2.08119318e-01 -1.03537045e-01
  3.03753972e-01 -6.95260093e-02  9.85914022e-02  3.08174025e-02]
[-0.15244749 -0.0405175   0.01712596 -0.14167519  0.22344986 -0.18748672
 -0.12726015 -0.06863326 -0.03691894  0.07306622  0.12471968  0.01020964
 -0.13752401  0.19067012  0.2975967   0.05634017 -0.01802333 -0.00906768
 -0.4382566   0.07054458]
[ 0.10314035 -0.36031795 -0.04420828 -0.14206077 -0.05381808  0.18409215
  0.11734259  0.08841234  0.23087929 -0.09341303 -0.07574219 -0.27100217
  0.2850645   0.25467837 -0.31030557 -0.26905584 -0.05919491  0.1292526
  0.11885132 -0.2711979 ]
[ 0.36458677 -0.07142746  0.09004203  0.07323108  0.07510559 -0.1117883
 -0.01652938 -0.0827719   0.14859723  0.14292403  0.04614927 -0.20984377
 -0.05271865 -0.02946364  0.04654915  0.01185184  0.01566982  0.01502828
 -0.13225277 -0.06699203]
[-0.15422903 -0.1986763  -0.08440352 -0.33269057 -0.08439714  0.33012602
  0.29367635 -0.44812062 -0.32954344  0.45551926 -0.28899142  0.24545453
  0.20916486 -0.13833904 -0.08947315  0.11461106  0.01428821  0.19351302
  0.4556407   0.0859912 ]
[-0.07141924  0.1347963   0.14015548 -0.03262638  0.24137266  0.10450699
 -0.1899216  -0.10178684 -0.2595089   0.06038658  0.02411267 -0.16329965
 -0.00367854  0.07735378  0.10234279 -0.30222842  0.24812365  0.08139119
 -0.00121104  0.254536  ]
[ 0.09023137  0.06166847 -0.09544457 -0.09696445  0.05378867  0.14101622
  0.01300379  0.01108767  0.00774092  0.13505015 -0.21565618  0.1891324
 -0.18075387  0.18573771  0.10886687  0.21411456  0.02065166 -0.19605254
  0.13109718  0.3232232 ]
[-0.28449202 -0.2638543   0.27082562  0.12454976 -0.07749589  0.19321807
 -0.03252214 -0.4671548  -0.17297481 -0.11024372  0.13917395  0.19936658
  0.00287548 -0.08787833 -0.01603447  0.14805336 -0.32867175  0.1909848
  0.09981653 -0.30834654]
[-0.00901395  0.1103486   0.13396023  0.18148899  0.20872256 -0.09026054
  0.13321179 -0.07205654 -0.1419467  -0.20261197 -0.28723517 -0.2696414
 -0.01963539  0.06980572 -0.193944   -0.20665078 -0.15903093  0.078872
  0.13161543 -0.26862767]
[ 0.00423194  0.1186218  -0.02166615  0.03904779 -0.11301858  0.0626408
  0.01825612  0.00994496  0.00511416  0.11819147  0.00923384  0.26129833
 -0.27195087  0.04726065  0.15482365  0.20758739 -0.17432036  0.2756723
 -0.08159653 -0.03842553]
[-0.27906576  0.40320396 -0.09999048 -0.23206335 -0.02808144 -0.04768115
  0.01192589  0.4477493  -0.06276833 -0.61652994  0.16168994  0.01333817
  0.1560004   0.18204863  0.03841889 -0.34414014  0.14156711 -0.01231317
 -0.5166128  -0.2419678 ]
[-0.07470907  0.23748131 -0.26431274  0.4794133   0.15718275 -0.2072008
 -0.04534533  0.10339628 -0.0994606   0.2081681  -0.19571608 -0.08022278
 -0.21603316 -0.11280615  0.36005828  0.01497476  0.02503487 -0.14446346
  0.13977247  0.29204148]
[-0.29740182  0.16132408  0.2333135  -0.01500197 -0.00617974  0.2824844
 -0.03408936 -0.1903367   0.06744797  0.0572619  -0.13647303 -0.01605067
 -0.07719994 -0.11045264  0.29218063  0.03315574 -0.03393612  0.05043039
  0.14082941  0.10540294]
[ 0.19835326 -0.2667379   0.26198873 -0.07791528 -0.2056328  -0.09981094
 -0.0428587   0.07694602  0.11915401  0.00919971  0.04569437  0.23379026
 -0.1444058  -0.21353321  0.13908802  0.08379402 -0.37062156 -0.2332738
 -0.18540575 -0.0280304 ]
[ 0.0266601  -0.04386776 -0.08665614 -0.25555602 -0.27225193  0.27448183
 -0.21684906  0.10910469 -0.11429445 -0.27659148  0.23624517 -0.3201736
 -0.1252653  -0.36083564 -0.20057559  0.07935791 -0.00787258 -0.18763064
  0.49685788  0.13391334]
[ 0.19266452  0.01508398  0.09545505  0.03902005 -0.05754932  0.03084988
 -0.22932683 -0.08860349  0.03194984  0.04107386 -0.00478865 -0.0640168
 -0.08030809 -0.14702693 -0.16792284 -0.15275137 -0.19658498  0.00907044
  0.08351921 -0.15092096]
[ 0.15682787  0.420577    0.13466755 -0.19242203 -0.01457621  0.4480056
  0.00382055  0.21348695  0.1629253  -0.2962401  -0.26990712  0.12731455
 -0.36065066  0.16568077 -0.16920346  0.05356768 -0.03683339  0.18411174
 -0.4281611   0.04442966]
[ 0.01885562 -0.236676    0.21079865  0.01701895 -0.16865872 -0.00817976
 -0.09151502 -0.17139141 -0.17161496  0.045495   -0.09535851  0.12275032
  0.08031635  0.12714913 -0.13983789 -0.11519121  0.01141162  0.0996781
 -0.14879167  0.33687416]
[-0.08217116  0.22944418 -0.37700725  0.28589588 -0.2610441   0.31426004
  0.06841834  0.18679659  0.1067353  -0.20792565  0.34306702  0.25239676
  0.22884649 -0.28517094 -0.18198578  0.18291666  0.1079088   0.07561222
 -0.11012639 -0.11951348]
[-0.272961   -0.15281373  0.28009525  0.12827893  0.16995582 -0.00646665
  0.15643525 -0.01272028  0.08540282  0.04652476 -0.08721612  0.0558302
  0.24408795 -0.17817287 -0.15668328 -0.11095063 -0.05258933  0.00455287
  0.26510012  0.05176288]
[-0.15890472  0.08909694 -0.13552564 -0.02091472  0.05243924  0.03886613
 -0.19018517 -0.07263967  0.10727848 -0.05016183 -0.26740956  0.20768243
  0.26703528  0.11396969 -0.06941456 -0.2088248   0.12782235 -0.02280373
  0.44444224  0.13966662]
[-0.0370692   0.16390416  0.02723732 -0.32030421  0.21821986  0.16333686
  0.18148398  0.18305667  0.04790657 -0.30947644  0.35525808 -0.15896867
 -0.22535741 -0.06804775  0.15564325 -0.17005405  0.0873594   0.01929302
  0.35084286  0.06567229]
[-0.00697628  0.19864129 -0.13655557 -0.10753534  0.28070405  0.13668433
  0.01412036  0.05544078 -0.17831671  0.22348754  0.29814923  0.23627001
  0.05193816 -0.28550225 -0.10821339  0.31177515 -0.06524216  0.02039931
 -0.18973286  0.0010634 ]
[ 0.05464475 -0.36571914 -0.07782422 -0.06568495 -0.23167899  0.01530463
 -0.23249073  0.16080698  0.27793986  0.2544899   0.20525213 -0.04362253
  0.12193593 -0.2633666  -0.28203595  0.17750698 -0.23247449  0.1586545
 -0.40978816 -0.07270648]
[ 0.05699169 -0.21183674  0.08695408 -0.5276569   0.25750497  0.51617086
 -0.09558517 -0.09526445 -0.2131654  -0.04073706 -0.23884396 -0.14736058
  0.07010926 -0.22411327  0.2543479   0.09652869 -0.02124504 -0.00146218
  0.02601377  0.01221541]
[ 0.07867738 -0.3304532   0.051704    0.3100069   0.16748932  0.29298532
  0.22816908 -0.40917516  0.09762743  0.22806984 -0.27495658  0.09237997
 -0.06109614  0.16211486 -0.16963394 -0.07112819  0.15490986 -0.19566543
 -0.01536811  0.21862298]
[ 0.42237887 -0.08582549  0.11136403 -0.03875002  0.0404381  -0.05612184
 -0.20587945  0.23306295 -0.02073683  0.20790006 -0.25803843 -0.15574247
 -0.22891344 -0.13223514  0.27156004  0.04267352 -0.05870089 -0.15812454
 -0.16261683  0.08954372]
[-0.00057736 -0.15658902 -0.09849136  0.13382657 -0.00036209 -0.33323592
 -0.07401874  0.36050683  0.3565985  -0.25314105 -0.14046566 -0.0927435
  0.24057837 -0.22618756  0.07091593 -0.05007496 -0.12712474 -0.18494718
  0.01911347 -0.08509284]
[ 0.04872051  0.17571609 -0.04585219  0.07537472  0.02293711  0.28650817
  0.04456239  0.18729204 -0.16666983 -0.07884104 -0.10731448 -0.18126218
  0.0617791   0.29406136 -0.12368104 -0.2778084   0.00178054  0.30962726
  0.15695243  0.21525292]
[ 0.35046512 -0.04227248  0.00562093 -0.09604133  0.11274286  0.23369807
  0.08142812 -0.11730076  0.27985656  0.01659723  0.25894585  0.13378637
  0.18079883 -0.06214939 -0.11430775 -0.13995762  0.06750793 -0.03138893
 -0.19690533  0.08001734]
[-0.08511671 -0.09731369 -0.22972085 -0.12775841 -0.01028719  0.10125899
 -0.25548792 -0.32874763  0.08992574  0.30378002 -0.10626548 -0.01932516
 -0.14521083  0.01823418 -0.18611775 -0.07379174 -0.2536548  -0.18201582
 -0.31727004  0.2112076 ]
[ 0.24458104  0.07701854  0.11947066  0.09561908 -0.0935948  -0.17749058
  0.03659146 -0.11662694  0.13681981 -0.2818216  -0.10155317  0.23335959
 -0.29859564 -0.00391919  0.13036273 -0.07477649  0.05196377  0.27680498
  0.2465925  -0.03934225]
[ 0.0212382  -0.04805413  0.13905686  0.03763331  0.16244823  0.04905458
 -0.04476723 -0.1174936  -0.01082953  0.00882575  0.4594281   0.06929827
 -0.05544577 -0.03312665  0.00372771  0.2522164  -0.0676439   0.04149374
  0.02617914  0.07947693]
[-0.18120751  0.14623336 -0.16599965  0.22043721 -0.09379363 -0.3307975
 -0.2244585  -0.07628474  0.2130977  -0.19993412 -0.1427107  -0.3190777
  0.04186362  0.14238682 -0.02141031  0.22451845 -0.22117956  0.10059501
 -0.10573156 -0.3320978 ]
[ 0.24567568 -0.12212526 -0.06706675 -0.16228525  0.04614593  0.1921153
 -0.08814951  0.0830809   0.26126522  0.02322795 -0.20255262 -0.27638957
  0.01963548  0.02872626  0.21335454  0.12219585 -0.21127588  0.29299623
  0.28155658  0.14990465]
[ 0.09600144  0.03586761  0.03008893  0.07608747  0.1293488  -0.10901008
  0.03387467  0.01161891  0.03003754 -0.05455153 -0.10010998 -0.02639063
  0.00591832 -0.02259119 -0.01377683  0.01339739  0.04972753  0.01861196
  0.13842969  0.03572822]
layer 5 Activation
tanh
layer 6 Dense
20 1
[-0.02917554]
[0.09729765]
[-0.01455478]
[0.1578595]
[-0.02449392]
[-0.09203476]
[-0.01201912]
[0.05308834]
[0.01513731]
[-0.06910584]
[0.07469933]
[-0.03545088]
[0.00761685]
[-0.00244489]
[0.01770537]
[0.00143913]
[-0.00077399]
[0.0199459]
[-0.12957093]
[-0.01957446]
[0.14008003]
