layers 7
layer 0 Dense
20 20
[ 0.01397609 -0.19893365 -0.24731141 -0.09301454  0.15041506 -0.47680742
 -0.5360347  -0.17980848 -0.2019753   0.17673549  0.24652857  0.4376284
  0.1763429  -0.32871503 -0.04083139  0.26155126  0.3448996   0.05205228
  0.21600921 -0.2817816 ]
[ 0.28431636  0.36362398  0.23321128 -0.6646572  -0.19585001 -0.02820476
 -0.1715759  -0.05840917  0.22893389  0.04705668  0.13251728  0.05355398
 -0.8355372  -0.25013256  0.10893494 -0.5809407   0.22861344  0.27632
 -0.48128375 -0.85259664]
[ 0.06887374  0.46408853 -0.24530408 -0.23623213  0.26578712  0.6289517
 -0.00751018 -0.06796108  0.24641326  0.00361125 -0.32532236 -0.18655112
 -0.31533778 -0.31797105 -0.39257944 -0.5533712  -0.42294154  0.03566337
 -0.0700863  -0.8296345 ]
[-0.07827497  0.23872192  0.12405071  0.01170543 -0.2633323  -0.05124149
 -0.19639467  0.14896993 -0.20118372  0.41921687 -0.3254058   0.17949104
  0.32791218 -0.34215647  0.3870474  -0.1777946   0.34053352 -0.21572797
  0.297611    0.31577787]
[-0.09430864 -0.01766053 -0.15236813  0.13905829  0.01728526  0.15152097
  0.02901497 -0.10262377  0.1665441   0.45987117  0.04036901 -0.62368363
  0.4074248  -0.41967145 -0.30895096  0.10388675  0.3096175  -0.39429763
  0.21770997  0.15917137]
[-0.08943757 -0.5016727  -0.39780188  0.11069017 -0.27722844 -0.5657734
 -0.17090371 -0.42071304 -0.37429258 -0.4071855   0.11667322 -0.13960603
  0.6853808   0.28996253  0.007666    0.2953829  -0.21934466 -0.03532997
  0.2766432   0.43799344]
[-0.07306412 -0.56844413  0.10595347  0.545859    0.42174217 -0.03552371
  0.2133838  -0.18411821 -0.31408942  0.21864948 -0.24583247 -0.0498429
  0.85986274  0.5196933  -0.13390507  0.09138174  0.07969172 -0.43901378
  0.18298396  0.8788913 ]
[-0.19291797  0.13832866  0.12377044 -0.22461027 -0.0396667  -0.20926844
  0.29305092 -0.25790536 -0.38368425 -0.5361413  -0.01201498  0.16871388
 -0.5438591   0.45771897  0.1982259   0.33968544  0.08271982 -0.36767638
 -0.06941285  0.02297677]
[ 1.0980396e-02  3.0709961e-01 -2.1733333e-01  2.2766170e-01
 -2.2442055e-01 -7.5348842e-01 -3.2155687e-01 -5.0030798e-01
 -2.6005656e-01 -3.1647751e-01 -2.7333233e-01  6.8929859e-02
 -5.3519565e-01  5.1535084e-04 -2.3365849e-01  4.5777872e-01
 -2.4797718e-01 -1.7934644e-01  9.0092689e-01 -4.4733101e-01]
[-0.23641372 -0.54026145  0.38673732  0.56315553 -0.679963    0.23487177
  0.7822139  -0.44112158  0.6565495  -0.35009253  0.73847616 -0.3065545
  0.7838342  -0.20932418 -0.14847848  0.10233915 -0.06412604 -0.62675834
 -0.03175426  0.52362216]
[ 0.888908   -0.04160539 -0.4767039   0.3336355  -0.32639685  0.51516753
 -0.15378687  0.65631294  0.75533116 -0.00731265  0.87385035 -0.44117612
 -0.41580597 -0.17673971  0.76960313 -0.08129114 -0.6782585  -0.539218
 -0.4320116  -0.09090437]
[-0.43506622  0.03978863 -0.15958627  0.16352415 -0.2488995  -0.5835567
  0.32680663 -0.12109247 -0.7319351  -0.01793674 -0.5103279  -0.36116207
 -0.50672543  0.41356152 -0.24156679  0.40386707  0.6469971  -0.26170176
 -0.1640298  -0.24384871]
[ 0.10094047  0.27800077  0.2907043   0.26501498  0.33354414 -0.35404783
  0.12146471 -0.40720534 -0.04149638 -0.22407018  0.07500003 -0.3500732
 -0.13670713 -0.10422519 -0.44635695 -0.12224357 -0.49475786 -0.3328617
  0.12390126  0.1411294 ]
[-0.85626024  0.48400763 -0.25768566 -0.81138057  0.9845147   0.54413086
 -0.71870047  0.72821057 -0.22409815  0.49294674 -0.42681384 -0.529494
 -0.80489516  0.86811906 -0.2847426  -0.49338326 -0.13414708  0.50526345
  0.35984892 -0.81484324]
[-1.0578649  -0.6712574   0.5300794  -0.8254516  -0.27830443  0.47299746
 -0.06587058 -0.55398214 -0.4475772  -0.22015877 -0.4729582   0.53407073
  0.35864317 -0.40800858 -0.9901717   0.4068092   0.5254112   0.46478334
  0.5492382   0.8437376 ]
[ 0.45206714 -0.05851454  0.6293739   0.20894982  0.08934937  0.24571174
  0.07953875  0.07893823 -0.6204275   0.17102797 -0.22713152 -0.5105483
  0.29275    -0.6716733  -0.25130653 -0.11920884 -0.98063207 -0.13320619
 -0.10342588  0.28469026]
[ 0.16253726  0.15142375  0.23081887  0.5975218   0.12312364 -0.35322675
 -0.47186553 -0.37533405  0.05732799  0.37385792  0.35574442  0.3855521
  0.7415475   0.18374993  0.2290557  -0.34975195  0.9744249   0.00143316
  0.61788404 -0.23090577]
[ 0.4203     -0.05073959  0.10371806  0.29857934 -0.2521014  -0.00923939
 -0.11321079 -0.39181465 -0.56822014 -0.09656994 -0.41368613  0.16223466
 -0.1734934  -0.25732663 -0.24471027 -0.08291401  0.04020735  0.39753345
  0.28394252  0.18759501]
[ 0.16344143  0.17553343  0.6050506   0.15983687  0.10722919 -0.33302078
  0.12079625  0.15376058  0.1332706  -0.20493025  0.1832371   0.14188878
 -0.30227944  0.4305253   0.02981924  0.10367106  0.10025385  0.19074637
 -0.11346406 -0.4544235 ]
[ 0.12285919 -0.3523555  -0.46545932  0.28655046  0.00697273 -0.63475156
 -0.02074065 -0.17111357  0.13496478  0.25539315 -0.1261005   0.14319938
 -0.6842132   0.44342244 -0.12443328  0.27887866  0.08501095 -0.09808816
  0.6294197   0.10406399]
[ 0.08563802  0.07601275 -0.10958012 -0.00770518  0.04143837  0.16288671
 -0.10160431  0.0849186  -0.01142022  0.15096912 -0.11578909  0.00319367
  0.05104693 -0.20440364  0.08583048 -0.09139987 -0.12303302  0.07313132
 -0.23844583  0.06174541]
layer 1 Activation
tanh
layer 2 Dense
20 40
[-0.188726   -0.44395313  0.1244151  -0.38780278 -0.07221999  0.08726101
  0.34132284 -0.18668114  0.7895491   0.4540064  -0.63499445  0.52473485
 -0.33965012  0.25216088  0.01468527 -0.14345193 -0.01280535  0.25481376
  0.05624992  0.01995034 -0.18655089 -0.3701897   0.27502283  0.2814316
 -0.40494275  0.09047905 -0.16010882  0.36788875 -0.16580305  0.07129224
 -0.15982497  0.6186133   0.32043123  0.34782246 -0.11800478 -0.37603125
  0.4791681   0.40945762  0.13180746 -0.3030624 ]
[ 0.22700822  0.25160417  0.14431177 -0.2777492  -0.07509675  0.21309939
  0.12854493  0.13324167  0.6037778   0.04275409  0.07457207  0.32479915
 -0.17231557  0.01245947  0.03125787  0.31831452 -0.22323152  0.19966044
 -0.07268211 -0.10289396 -0.7891509  -0.31445554 -0.05091302  0.20653108
 -0.36328077  0.02715449 -0.33895254 -0.04276557 -0.64863974 -0.1438674
  0.40393057 -0.27950978 -0.19004631  0.31125537 -0.17418516 -0.07647748
 -0.04378606  0.04897225 -0.2268088  -0.02078366]
[ 0.1910113  -0.0388501  -0.32409945  0.17673871  0.21654043  0.04836955
  0.24495329  0.38400832 -0.17447472 -0.3282205   0.17268746  0.23113139
 -0.1740259   0.5653159   0.05190759  0.28211606  0.14045075 -0.20746025
  0.09028267 -0.23704845  0.0360131   0.18095516  0.08963687 -0.14514416
 -0.0448628  -0.09178279 -0.3616379   0.03988031  0.20717731  0.26935634
 -0.06162427 -0.40925714 -0.25295702 -0.18334454  0.07900597 -0.38505206
 -0.00326351  0.01000327  0.5383879  -0.22289272]
[ 0.17754886 -0.08852972  0.18886125  0.03748767 -0.00878097  0.1698591
  0.08563231 -0.2639541  -0.22489835  0.45147917 -0.52632886  0.1108624
  0.17557488  0.4943915  -0.10841636 -0.17773947  0.19435659 -0.02616848
  0.16881508 -0.14850573 -0.31221393  0.23673342  0.38985953  0.47371852
  0.19794162  0.04689007 -0.26547047  0.0194663  -0.4987857   0.34103617
  0.1340406   0.14335994  0.33272123  0.1160835   0.38931027 -0.3673801
  0.10982781  0.49838078  0.55916715 -0.04462179]
[ 0.02288094 -0.12156535 -0.04541487 -0.03200409 -0.24020031 -0.2321957
  0.15923491  0.37585244  0.5057433  -0.14637773 -0.07752968  0.03271601
 -0.2843134  -0.35883665  0.15570869  0.26290593  0.26413432 -0.27622083
 -0.42955905  0.7201847  -0.3992478   0.33258444 -0.4819993  -0.13285649
 -0.4600472   0.00668515 -0.05029387 -0.05150131 -0.7215722   0.13256972
  0.43662137  0.0094566  -0.0853819  -0.23535325 -0.15686078 -0.34065583
 -0.42313686 -0.34942722 -0.3334893   0.05475102]
[ 0.18053511  0.3887243  -0.32044566  0.23461828 -0.03562509  0.14861117
 -0.29779714 -0.23664361  0.13495906  0.0514376  -0.15367341 -0.3660985
  0.12575579 -0.0120756   0.33440042  0.22230816 -0.36728227 -0.2450703
 -0.261519    0.13826819  0.37805712 -0.2613573  -0.01363975 -0.2842973
 -0.27375367  0.216369    0.37653318 -0.11315594  0.29261374 -0.20021589
 -0.02324911  0.25931156 -0.15158512 -0.7206642   0.16600434  0.31297722
  0.1686964   0.1198047  -0.43408823 -0.31371987]
[-0.20868134 -0.09840523  0.29797974  0.2169861   0.0965129   0.10265482
  0.02998205 -0.0055261  -0.24412903 -0.02769575  0.12384252 -0.47480103
  0.31758428 -0.01071088 -0.00510283 -0.15719403 -0.23048809  0.21320118
 -0.03436452 -0.5749329   0.14931986 -0.02979156  0.21162057 -0.01972981
  0.39497137 -0.09422732  0.1867851  -0.04739935  0.21528813  0.01924091
 -0.45569903 -0.57695484  0.16552684 -0.23440251  0.08759339 -0.42778987
  0.09828483  0.40297526  0.06855553 -0.5214397 ]
[ 0.13401419  0.10797556  0.7693707   0.09500206 -0.25124973  0.3266265
 -0.12818643 -0.23556063 -0.03952852  0.28160104 -0.16399185  0.01819174
  0.20429043 -0.24204494 -0.29889405  0.10471324 -0.35155487  0.4299053
 -0.4741838   0.42595842 -0.6861142   0.27083918 -0.32565066  0.20301647
 -0.17768076 -0.04211137  0.22204348  0.12033113 -0.3684645  -0.56342113
 -0.23480026  0.00215638 -0.02844325 -0.24983938 -0.20654489  0.32377225
 -0.23965937 -0.11404076 -0.05528636  0.22354911]
[ 0.2337071  -0.11891687  0.3604501  -0.3023019  -0.03021412 -0.00645905
 -0.00161161 -0.13438027 -0.7204692   0.08656164 -0.401691   -0.12604183
 -0.16684851 -0.0269389  -0.27550566 -0.1683285  -0.06133245 -0.42125353
  0.00103784 -0.36502987  0.06321972 -0.06038531  0.22692142  0.27400112
  0.22454348  0.01576498  0.18908039  0.33121574 -0.16030537 -0.33583713
 -0.04900708  0.3701204   0.23551388 -0.35393465 -0.20197512  0.27840027
  0.31376433  0.31582516  0.10830671 -0.73580176]
[-0.09705923 -0.05065758  0.2743365   0.19307013  0.1238425   0.10031652
  0.07681961 -0.21806386  0.06359372 -0.09413904 -0.30732533  0.4050328
 -0.12411047 -0.14529108 -0.25294244  0.23152962 -0.06493309 -0.17062
 -0.14996946  0.24726401  0.0693389   0.43324345 -0.20434223 -0.20503105
  0.13415283 -0.35960165 -0.45497048  0.25686947 -0.07093248 -0.32042342
  0.2560813   0.24134734 -0.15530148  0.07569036  0.03886803  0.35965157
 -0.4904998  -0.07454155  0.31568024  0.47748998]
[ 0.09831166 -0.5151555   0.14108272  0.07554577 -0.2002365   0.08521137
  0.04774321 -0.38306835 -0.83025753  0.05073833 -0.24602395  0.11465239
 -0.11081927  0.30799136 -0.20600949 -0.49799126  0.03040736 -0.01567993
  0.22939278 -0.41121855 -0.35790896 -0.06835031  0.15195623 -0.08954414
  0.04401202  0.05218155  0.15696299  0.65452313 -0.26071173  0.02397818
 -0.2503907   0.70899713  0.15465619  0.03140563  0.30865002 -0.09090324
  0.50096834  0.4850939   0.10385422 -0.17078054]
[-0.11862214  0.3163499   0.09886155  0.11450601 -0.12184417 -0.17448014
 -0.2317941   0.11468267  0.48601824 -0.1821479  -0.34404808  0.41140956
  0.13703495  0.15767814 -0.15456766  0.41478863  0.108495    0.05897634
  0.34723723  0.16405621  0.2528602  -0.27822962  0.39209232  0.1587575
  0.15778954  0.21026264  0.15671207 -0.25775188  0.02520923  0.19582826
 -0.10395514 -0.26236615 -0.29720503  0.01046716  0.27899864  0.05755442
 -0.01178196 -0.43076557  0.46762663  0.0582023 ]
[ 0.12351907  0.05853147 -0.18329793 -0.32019347  0.1475561  -0.23088108
  0.11665732  0.0460986  -0.40919772 -0.04631286 -0.2466592   0.05730938
 -0.01985511 -0.17083147  0.40816447  0.13968147 -0.37233192 -0.01468806
 -0.11802617 -0.0279963   0.14993663 -0.05965894  0.382791    0.24660222
 -0.0362232   0.16884959 -0.09431438 -0.24244434 -0.10750547 -0.02789844
 -0.31388924  0.15605646  0.10320126 -0.48792362 -0.13197345 -0.01343315
  0.3048256  -0.22153725  0.6612569   0.37772867]
[-0.00073846  0.10204309 -0.02275934  0.3130136   0.15041035 -0.20027561
 -0.23412065  0.2323404  -0.09980947  0.1098568  -0.47946987  0.2951844
 -0.27618617 -0.19086668 -0.39227065  0.2488877  -0.18103412  0.30483943
 -0.4288419   0.45746323 -0.07172446 -0.3951636   0.28785455 -0.03952778
  0.09860541  0.36492327 -0.47928578 -0.24381192 -0.24016681 -0.33359146
 -0.2823422  -0.30027544  0.11763871  0.25911152 -0.08309742 -0.5361337
 -0.38961694 -0.436197   -0.32040957  0.35049918]
[-5.7809077e-02 -2.1910264e-01  1.4038685e-01 -4.7197413e-01
  1.6515808e-01  1.1527349e-01  2.6550609e-01 -3.2922737e-02
  2.5003054e-04  5.1169497e-01 -7.2966099e-01  5.8826578e-01
 -4.3140876e-01  3.8877180e-01 -5.4675773e-02 -3.3304271e-01
 -1.4309664e-01  4.9806997e-01  1.0807821e-01 -2.0905478e-02
 -2.2570570e-01  4.5762137e-01  2.5790346e-01  4.2725202e-01
  6.3604370e-02 -2.0693693e-01  1.1122377e-01  8.6623177e-02
 -8.0261016e-01 -1.3653754e-01 -2.3976128e-01  4.5082754e-01
  1.7723571e-01  2.0498939e-01 -1.2823020e-01  6.8176478e-02
  1.4060897e-01  1.0810525e-01  2.9930836e-01  2.7842337e-01]
[-0.13767418 -0.16458848  0.01532556 -0.20820092 -0.37268093  0.28604358
  0.04328939 -0.09216083 -0.38364512  0.17164873 -0.0895386  -0.33835405
 -0.0945674  -0.16488719  0.07399785  0.01637382  0.35418823  0.0451052
  0.13261485 -0.09650034  0.22841896 -0.09426849  0.06622957  0.18810268
 -0.05735971  0.02608536  0.31003472 -0.2638364   0.12520064  0.23329364
 -0.04135469 -0.21121408 -0.32334435  0.24542393 -0.05211999 -0.04370829
 -0.28452834  0.17206562  0.00602735 -0.19515206]
[-0.18997748  0.00258033  0.1483663   0.39373687 -0.10392339 -0.06580507
 -0.30507705  0.08377899  0.07986234  0.11058319 -0.32626468  0.36931127
 -0.24619065 -0.22894251  0.35869044  0.17758554 -0.32463127 -0.0408551
  0.10440205  0.26101878 -0.10267705 -0.39555606  0.0218411  -0.15041037
 -0.08006101  0.29559004 -0.32716098 -0.07232271  0.3805328  -0.19303475
 -0.01792654 -0.39716238 -0.04277943 -0.27264225 -0.19759831  0.14215031
  0.16443053 -0.14012264  0.32267556  0.36341798]
[ 0.02129582  0.36044717  0.2085215   0.04018981 -0.25019655 -0.22068168
 -0.07052538  0.2872301   0.37232068 -0.12496737  0.01939913  0.37966454
 -0.4514888  -0.26295352 -0.20651239 -0.01119428  0.10813387  0.2545264
 -0.32645175  0.45426595  0.23017758  0.08953404 -0.13137826  0.0163739
 -0.15132768  0.15844406 -0.12653627 -0.60075015 -0.3429989  -0.37747383
  0.17992218 -0.3713025  -0.11754363 -0.16547948  0.02060209 -0.2732619
 -0.2825454  -0.724376    0.13575208  0.3059732 ]
[-0.0042815   0.21421938 -0.4574108   0.15152973  0.02375424 -0.41995582
 -0.17330731 -0.19837216  0.37770754 -0.08111084 -0.04664603  0.10859059
 -0.01097053 -0.05622068  0.30139333  0.10079138  0.34615338 -0.08948713
  0.22988193 -0.08991195  0.37258422  0.0516334  -0.11847682 -0.30033264
 -0.3251157  -0.03307038 -0.0379267   0.29475042  0.5580611   0.36530772
  0.2078108   0.07731546 -0.0025688   0.3578532  -0.3485704  -0.0334737
 -0.07890099 -0.12486576 -0.18975313  0.41272357]
[ 0.04778635 -0.07336102 -0.44596624 -0.09964488 -0.1958329   0.18348265
 -0.07778724  0.0696921  -0.1067009  -0.01315468  0.28982064 -0.41297647
  0.01350074 -0.2702546   0.14108104 -0.23252633 -0.15442197  0.0201378
  0.12929176 -0.44645974  0.4043235  -0.27199745  0.03489977  0.22438022
  0.01481271  0.29089797  0.36882105  0.08130452  0.20103718  0.41647515
  0.0695826   0.17580202  0.13307221 -0.13306615  0.01921056  0.38013148
  0.10997824  0.12631729  0.33983818 -0.44100127]
[-0.11548632 -0.01146756  0.32344043  0.01128431 -0.1746356   0.04674457
  0.06924397 -0.11693687 -0.11317117  0.02932814 -0.07383093  0.1999846
 -0.18996863 -0.06672128 -0.00814864  0.02698899 -0.13810524  0.11717145
 -0.08854718  0.10075684 -0.00650014  0.03792286  0.03653932 -0.04243255
  0.04151025 -0.14193232  0.09040855 -0.08721947 -0.15741229 -0.19240975
 -0.09763296 -0.06428526 -0.0987559  -0.1581935  -0.10231989  0.21169657
 -0.07798909 -0.15444294  0.22712138  0.3389418 ]
layer 3 Activation
tanh
layer 4 Dense
40 20
[ 0.23718365  0.33821052  0.20800103  0.05577307  0.13636735 -0.11781284
 -0.00085854 -0.07818662 -0.17024207  0.09646519 -0.21903363  0.217122
  0.08719658 -0.21147062 -0.2825596  -0.08831313 -0.24371614  0.1003852
  0.23212591 -0.29695275]
[-0.41128775 -0.21387403  0.00557244 -0.13353112  0.3035504   0.13129362
 -0.08029924 -0.0647971   0.00861124 -0.07000021  0.12735765  0.07036235
 -0.32367736  0.11438762 -0.36820868 -0.13400458  0.22645071 -0.00857998
  0.12965211 -0.28446338]
[ 2.0582015e-02  1.0214543e-01 -2.4900940e-01  1.0003791e-01
  2.8975663e-01  2.6365689e-03 -3.4970794e-02  1.1036135e-04
 -4.0898094e-01 -2.4565257e-01  1.9996755e-01  4.9535092e-02
 -3.7000859e-01  4.7272563e-01  3.9164580e-02 -1.7051674e-01
 -3.1709287e-01  7.2352342e-02 -4.4245314e-02  2.7018628e-01]
[-0.23154105  0.27815077  0.09411923  0.24971037  0.02596966 -0.05174063
 -0.17149904 -0.12460125 -0.07034978  0.3220285  -0.04611259  0.07600395
  0.12315983 -0.18707998  0.38180634 -0.26869428  0.05863357 -0.03311992
  0.08299372 -0.06789686]
[-0.19633794 -0.15887344  0.12625669 -0.14561112 -0.03579829 -0.00606509
 -0.10280195 -0.06044322 -0.01967885 -0.00691223  0.08199124  0.16706017
 -0.01401403  0.01723401  0.12506798  0.10201132 -0.08039898 -0.01657898
  0.1798658   0.04415961]
[-0.31987217  0.07775623 -0.03427592 -0.13313279 -0.30546582  0.02470644
 -0.15714341  0.17997903 -0.08962036 -0.23853478  0.02153946  0.266115
 -0.06036797  0.18243633 -0.33381054  0.00514414 -0.17472433  0.29746762
  0.01153068 -0.2342552 ]
[-0.02906469 -0.03657478  0.28473055  0.18459351 -0.25425005 -0.25469533
  0.18279323  0.15049703 -0.24475507 -0.07575785  0.10604722  0.13016541
 -0.00694953  0.14334077 -0.29464993  0.18813528 -0.15170313  0.20472862
  0.13297981  0.20692377]
[ 0.03271718 -0.08439361  0.25818518 -0.04478554  0.13953158 -0.31186724
  0.1338891  -0.2796268   0.18608038  0.0332068  -0.05570716 -0.04445107
 -0.1402388   0.3450971   0.3256157  -0.19155161 -0.05013638 -0.24466695
 -0.20857781 -0.22729428]
[ 0.0230204  -0.32894975  0.08392902 -0.23505846  0.33607715 -0.05782965
 -0.37718767  0.03449824 -0.2778675   0.1904392  -0.24597868 -0.06527387
 -0.096834    0.26262072  0.08679301  0.277344    0.24676025 -0.29739577
 -0.042807   -0.19872318]
[-0.00419426 -0.13348459  0.10827859  0.06915136 -0.18307042  0.06910211
 -0.09843774  0.22146212 -0.24201787  0.07640071  0.18829295 -0.27671492
 -0.13871661 -0.26265046  0.01386315  0.21770282 -0.30204466  0.17546186
 -0.00270952  0.13826561]
[-0.29525232 -0.4055044  -0.04454704 -0.02748374 -0.38077477  0.166001
 -0.28587148 -0.28512087  0.17362979  0.0672124  -0.0616569   0.29065
  0.27789104  0.22245988  0.4043125  -0.21195967  0.16240576 -0.13700607
 -0.25904053 -0.31067476]
[-0.12852438 -0.00708307  0.05355787  0.26749137  0.4625313  -0.17972115
  0.01079079  0.28207192 -0.13909923  0.1440456   0.03650035  0.21541844
 -0.08821442  0.14155425 -0.31802094  0.04140033  0.10181281 -0.19796747
 -0.18750487  0.40351155]
[-0.26693565  0.0371662   0.13895975 -0.09422004 -0.21897826 -0.2831856
  0.2999721  -0.01005585  0.04058585  0.10404406 -0.05319537  0.05403863
 -0.00663148 -0.34598026  0.31611508 -0.22207172 -0.2285928   0.19008805
 -0.00220906 -0.3708509 ]
[ 0.2762645   0.00431372  0.38344258 -0.09019719 -0.21433431 -0.31131643
  0.15694898 -0.22151652 -0.34877044  0.18571289  0.1942926   0.28133413
 -0.07003001  0.19786108  0.01953694  0.1535787  -0.3000826   0.16340186
 -0.22559513  0.33121872]
[ 0.0293113  -0.35309857 -0.14842777 -0.30261305  0.13566402  0.11386847
 -0.0707813  -0.08915535  0.06855957 -0.14037848  0.09211815 -0.30713052
  0.02804893  0.17657459  0.20609531  0.01325577  0.14455725  0.13971528
 -0.18312979  0.11323578]
[-0.4264617  -0.13737716 -0.01321063  0.17101163  0.45279208  0.29256704
 -0.45662108 -0.1327376  -0.20216113 -0.18393396  0.09409045  0.14360552
 -0.01001938  0.24358606  0.26587108 -0.15488924  0.07157618 -0.45877722
 -0.21287647 -0.03431419]
[-0.05589701  0.12394439 -0.01636101 -0.35182106 -0.12322833 -0.19054706
 -0.03460049 -0.39370945  0.07246521  0.09922468 -0.2369001   0.18820415
  0.40923816  0.23437396  0.11833067  0.33147693  0.170269    0.09634671
  0.26973987 -0.16522145]
[-0.09373991 -0.20730092  0.1854355   0.25933653  0.2568139  -0.00807973
 -0.1568069   0.01847207 -0.13187267 -0.07430378  0.31181976 -0.10509997
 -0.30299795  0.08007331  0.06933853  0.2710166  -0.2525778  -0.06072135
  0.18167417 -0.16246054]
[-0.15464012 -0.06137915 -0.27841043 -0.10722041 -0.13072342 -0.15320091
  0.19060111 -0.03720339  0.16738158  0.00431942  0.2068997   0.00569647
  0.3367816  -0.42876142  0.16268072  0.10106463  0.19136399 -0.28920844
  0.10568302  0.18991126]
[ 1.2835130e-01 -1.3328405e-01  4.1810401e-02 -2.8192924e-02
  4.0189746e-01  1.1395805e-01  2.5211964e-02  6.9901064e-02
  8.5945159e-02  2.7552843e-01 -3.0396685e-01 -2.8468245e-01
  4.8719021e-04  5.0144047e-01  2.9484367e-01  1.5500577e-01
  8.9558452e-02 -4.3792719e-01  3.9750978e-02  2.4947168e-01]
[ 0.08909287 -0.3824139  -0.20551611 -0.32242206 -0.2905366  -0.10507934
 -0.28242415 -0.38577116  0.2588475   0.27133897  0.15496139  0.02915528
  0.02542969 -0.32481143 -0.18679804 -0.04658321  0.39425635 -0.06838001
 -0.22062834 -0.40500236]
[ 0.13997893 -0.03787974 -0.15456125 -0.07493732  0.08364294  0.27609196
  0.12875077 -0.04779302 -0.10118833 -0.00041009 -0.14670394  0.19207945
 -0.14856979  0.1282802   0.12053387  0.06933965 -0.19084029  0.0987976
 -0.1294327  -0.23539597]
[ 0.26127496  0.43816307  0.10136384  0.2811723  -0.16728945 -0.21780406
  0.27652615  0.12105567  0.27487335  0.07362211  0.44802547  0.19150461
 -0.01505801  0.19236459 -0.15949126  0.19942097  0.14631274  0.17945749
 -0.13343814  0.22816348]
[-0.05299646  0.30085108  0.03561884  0.1632646  -0.10322379 -0.47018835
  0.28587872  0.10233751 -0.10242807  0.01722712  0.21992238 -0.24068128
  0.12848377  0.42624703 -0.12281372  0.19028063 -0.24365601  0.03829886
  0.00620517  0.31989858]
[-0.12245215  0.345562   -0.0286101   0.36341634 -0.35404307  0.32529178
 -0.15152463 -0.17461835  0.06589862 -0.17739996  0.35425213 -0.01487022
  0.08187955  0.15515815  0.31681618 -0.04135239 -0.26310033  0.1104612
 -0.13528419  0.16543163]
[-0.09806367  0.41414213  0.23329401  0.06534963  0.10798783  0.01910785
  0.01093912 -0.13601018  0.2236017  -0.19142944 -0.00423316 -0.22392449
  0.18036148 -0.12250988  0.23746659 -0.1485857   0.30317092  0.00676853
  0.0991469  -0.0448916 ]
[-0.16945198 -0.17448294 -0.4708238  -0.48568577 -0.28273588 -0.05145886
  0.18354371 -0.05924043 -0.01261473  0.18244115  0.02269726 -0.01899138
 -0.14851017 -0.2076995   0.02813743  0.07017765 -0.10178655 -0.07532615
 -0.05122091 -0.3266637 ]
[ 0.2015741   0.03659489 -0.09230886 -0.37636036 -0.01022489  0.01930092
 -0.02071539 -0.01252307 -0.12072753 -0.00570605 -0.15056251  0.1824296
 -0.2206117  -0.3692433   0.11261082  0.15007344 -0.08480307  0.3248789
 -0.17499922  0.26882294]
[-0.06006444 -0.31975898 -0.08462156 -0.4360325  -0.17142808 -0.05268725
  0.10011341 -0.34559947  0.24531722 -0.15236835  0.07112684  0.16613238
 -0.00286057 -0.39693883 -0.13359855 -0.3156195   0.19201703  0.31610316
  0.09176069 -0.21840031]
[ 0.1205686  -0.24153674  0.12992951 -0.13335034 -0.23465972  0.09644485
 -0.03098829 -0.3374259   0.27706558 -0.30780116  0.00512139 -0.01345749
  0.09238175 -0.31411237  0.0443614   0.48845297 -0.1150473   0.11964159
 -0.00325667  0.25136504]
[ 0.10610304 -0.42928103  0.16298048 -0.14036041  0.11030398 -0.00515144
  0.04935579 -0.09299858  0.06929722 -0.00508273 -0.26777822 -0.2450709
 -0.2886538   0.06518617  0.03450121  0.22014548  0.09174515 -0.05684406
  0.01609383 -0.13463916]
[ 0.12983851  0.33797416 -0.3516475  -0.5445934   0.21307673 -0.34055156
 -0.05752656  0.24616449 -0.18660244 -0.25032252  0.02418126 -0.01065113
 -0.112698   -0.16844594  0.0699193   0.39425513 -0.05347634  0.14364532
 -0.12346137  0.40443048]
[-0.033852    0.33145845  0.19888361 -0.1657661  -0.17339927  0.14615937
  0.24081922  0.05723836 -0.00079068  0.17531154 -0.09889677  0.08813024
  0.21702984 -0.06352599 -0.2964482   0.14001127  0.13043985  0.16254401
 -0.29637983  0.23906957]
[-0.14450154 -0.38544354  0.34634706 -0.2706874  -0.34583175  0.12379898
  0.2947767  -0.2593135  -0.14680639 -0.24890791 -0.14416425  0.11085325
 -0.19072172 -0.1568812   0.03835539  0.3461215  -0.08191975  0.2710554
 -0.08425932 -0.08113328]
[-0.2557273   0.20858149  0.30284032  0.05654063 -0.31300816  0.25659305
 -0.05937908  0.12445052  0.04644249  0.06093374  0.15970455 -0.19305666
  0.14294118  0.02019563  0.14788516  0.09033187  0.2714034   0.20909584
 -0.04521611 -0.08796657]
[-0.14104965  0.14880063 -0.31849453 -0.1869563  -0.30055034 -0.0417144
  0.0812933  -0.06914339 -0.07941701  0.10484737 -0.14314438  0.1121221
 -0.05789385  0.15614018  0.06048473 -0.06886914  0.4009459  -0.19961224
  0.06592554  0.01301604]
[ 0.05763314  0.10058287 -0.12412529 -0.20537367  0.02948783 -0.2224027
  0.33839682 -0.30253834 -0.1405575  -0.02251453  0.3456393  -0.18526916
 -0.08222362 -0.42664176  0.00767632 -0.0035457   0.20618366  0.2949308
  0.17365377  0.18242456]
[ 0.07479548  0.36730033  0.13731366 -0.03179296 -0.39178285 -0.02932226
  0.30169958 -0.27615735 -0.17636536  0.21824643 -0.12874527 -0.28753504
  0.19825846 -0.41627035  0.02667481  0.3668184   0.18790644  0.30585885
  0.15163346  0.04405051]
[ 0.02105602  0.48590598  0.11629109  0.25279105 -0.03912572  0.08402703
 -0.13398594  0.1665409   0.1769834  -0.03047571  0.33540675  0.08584252
 -0.27684978 -0.03875979  0.08151422 -0.28441116  0.18449607 -0.3738455
  0.15180406  0.5360702 ]
[-0.29893222  0.04775546 -0.0973668   0.37779638  0.22099099 -0.23370367
  0.22010587  0.41335255  0.3949924  -0.1653085   0.01972055  0.21960361
 -0.30977976  0.27990627 -0.02116712 -0.39728898  0.23410222 -0.35509163
  0.06524444  0.27171   ]
[-0.04339916 -0.0369917  -0.20889458  0.28650567  0.11211343  0.1403239
  0.16213016  0.0436617  -0.00554506 -0.02076547  0.08303817  0.01344414
 -0.18998301  0.06157172  0.054788   -0.0453659   0.05821801 -0.01658087
  0.01567462  0.02655027]
layer 5 Activation
tanh
layer 6 Dense
20 1
[-0.00840677]
[0.1258549]
[0.14470293]
[-0.10452373]
[0.21306005]
[0.01358405]
[-0.00812485]
[0.22535457]
[0.22509803]
[0.00423941]
[0.19716033]
[-0.00372709]
[-0.00839667]
[-0.10071588]
[-0.01180643]
[-0.20975235]
[-0.12250061]
[-0.1680041]
[-0.00932704]
[0.08997043]
[-0.01161227]
