layers 7
layer 0 Dense
20 20
[ 0.2225991   0.11618846 -0.34789005 -0.15524669  0.23298757  0.22873381
 -0.0915768   0.11666855  0.24414715 -0.24819385 -0.37812382  0.2738955
 -0.2402449  -0.31803623  0.25427958 -0.00310892  0.5383472   0.36631456
  0.2532724   0.24232839]
[ 0.09674449 -0.4772724   0.0083535   0.01940402  0.25817126 -0.555956
 -0.4528485  -0.15655705  0.13463777 -0.6625771  -0.3729204   0.48241478
  0.11720538 -0.41101494  0.51838607  0.157216   -0.16825722 -0.22596142
 -0.19085896 -0.6887437 ]
[ 0.11614136 -0.3717598   0.19503027  0.49588484  0.5897558  -0.20199993
 -0.62856776  0.4686605   0.42910993 -0.64867884 -0.24581717  0.22927698
 -0.35258096 -0.12547489  0.02820038  0.4929016   0.10015195  0.3823195
  0.2545112  -0.69061816]
[-0.17809896 -0.16353488 -0.15390022 -0.24523155 -0.14633466 -0.41465962
  0.21204308  0.31750238  0.08824971  0.04774087 -0.37537086  0.35856745
 -0.13830326  0.16481028  0.16283543 -0.4038152   0.23894218 -0.21464881
 -0.01849159  0.3358024 ]
[-0.23016891 -0.15915947  0.43142432  0.42708832  0.24365559 -0.18200855
  0.3670914  -0.149302    0.23885243  0.28870198  0.30824122  0.4421428
 -0.3689727  -0.08576472  0.23348096 -0.07241055 -0.06630214 -0.18805476
 -0.3266263   0.02474691]
[ 0.14839986  0.6057933   0.07429658 -0.28028196 -0.30768803  0.2751073
  0.0432191   0.3242486  -0.09186269  0.33602312  0.42632586  0.06676467
 -0.18053731  0.24385586 -0.17779234  0.16286628  0.31298622 -0.32587752
 -0.28186375  0.8680812 ]
[ 0.2029025   0.07182439  0.01888425  0.03835214 -0.17250428  0.3411843
  0.1841693  -0.1897207   0.18104471  0.40025514  0.4989989   0.05195062
  0.03809344 -0.07640564 -0.24722087 -0.32634002  0.3667917   0.22039649
 -0.14176956  0.30954096]
[-0.06220615 -0.1688572   0.13523063 -0.3471255  -0.41936666 -0.11253376
 -0.01413653 -0.0657315  -0.4678984  -0.31389356 -0.01902014 -0.11365712
  0.21847495  0.3630303  -0.2038385   0.23686187 -0.61043066  0.02771897
 -0.1862681   0.05241842]
[-0.29968545  0.16633904 -0.04241503  0.14601754  0.2609727  -0.24651872
  0.3410637  -0.13530608 -0.13746247 -0.05478762  0.24551973  0.1310619
 -0.6165973  -0.00271583 -0.01748216 -0.29940054 -0.2522589   0.39359263
  0.21579799  0.38847578]
[-0.23391314  0.18967362  0.32999194 -0.272384    0.23186158  0.21473022
  0.20496176 -0.36414343  0.37884507 -0.09732747 -0.03612087  0.10113484
 -0.15921439  0.16782396  0.25943854 -0.09527446  0.06715692  0.20754617
 -0.21790282 -0.27626982]
[ 0.36175448 -0.24276516  0.39018044 -0.10393812 -0.44857383 -0.03629971
 -0.12008195  0.39818594  0.36500937  0.21965146 -0.05464615 -0.14142571
  0.00068193  0.02544564 -0.05294405 -0.41228506  0.12109469  0.53721017
 -0.30256745 -0.13961601]
[ 0.5092519  -0.05829792 -0.55771506 -0.48502594 -0.8069069   0.04338419
  0.2334268  -0.15979174  0.2201696  -0.05140289  0.09813694  0.12122858
  0.21562098  0.07355303  0.8048534  -0.23126046 -0.34434304 -0.2519939
  0.18752612 -1.0421991 ]
[-0.07865012 -0.40316284 -0.2706934  -0.3389329  -0.5059346   0.36222243
 -0.11608725 -0.4591592  -0.1446475   0.1198222   0.37026653  0.26424456
  0.4148433  -0.46717882  0.41048118 -0.08562223 -0.05051783 -0.50226194
  0.0666514  -0.36207262]
[ 0.14722092  0.1465059  -0.31396487 -0.21464568  0.1471965  -0.19190767
 -0.440817    0.15894765  0.06704243  0.04587086  0.60662025  0.09785023
 -0.15670541  0.2940922   0.270628    0.48529905 -0.10466374  0.01822896
  0.08763405  0.8075265 ]
[-0.11521583  0.3654267  -0.02362243  0.13892782  0.17460382  0.30295584
 -0.39052612 -0.37957647  0.44231737 -0.5953524  -0.6243974  -0.1367716
 -0.506774    0.06790841  0.05186238  0.47479013 -0.10167276 -0.18731712
  0.14997467 -0.23635603]
[-0.8143204  -0.07837277  0.9480293   0.79361874  0.18920852  0.993625
 -0.00497461 -0.5084695  -0.42548603  0.3643452  -0.3312259  -0.3494768
 -0.32593253  0.4823909  -0.72506857 -0.09503507 -0.41828832  0.48973405
 -0.50762075  1.1279619 ]
[ 0.05600508  0.33160722 -0.1314468   0.24521151  0.14733931 -0.04319047
 -0.13490269  0.15476194 -0.30392596  0.08736493 -0.24329758 -0.18801321
 -0.09937868  0.20862527 -0.07525547  0.24102573 -0.16225116  0.35887137
 -0.23828283 -0.26692382]
[-0.31670237  0.1319264   0.02230259  0.25650817 -0.44183722  0.5633461
 -0.01357385  0.06213196  0.175967    0.22055404 -0.22894111  0.19753751
 -0.00356931  0.25389078 -0.14873192 -0.00357201 -0.12653023 -0.3596614
 -0.28794587 -0.25261882]
[ 0.45628294 -0.45550236 -0.18506737 -0.03979116 -0.31276974  0.24702382
  0.06074639  0.5823342  -0.46297136  0.5698835   0.15041469 -0.0614194
  0.3136084   0.18214245 -0.44416365 -0.46645722 -0.05403128  0.2149076
 -0.19981596 -0.14803414]
[ 0.19376782 -0.19917312  0.3274316  -0.5499955  -0.3542403  -0.07469644
 -0.16022567 -0.00549456  0.10457171 -0.10100672 -0.09783553 -0.04166459
 -0.10625523  0.03404086  0.07795457  0.06493197 -0.21999513  0.11484603
  0.19793871 -0.24448007]
[ 0.01025907  0.10171995 -0.09506658  0.00700086  0.08670665 -0.17629041
 -0.06344075  0.19935882  0.05369356  0.04853266 -0.12001111  0.09047024
 -0.02937569 -0.06770536  0.22293156  0.02029163  0.25920218  0.00369546
  0.053075   -0.10853992]
layer 1 Activation
tanh
layer 2 Dense
20 40
[ 2.1594691e-01  1.6403463e-01  4.4693840e-03 -2.0491894e-01
 -1.3819747e-01 -7.0607290e-02 -6.7613155e-02  1.4102015e-01
  3.5595804e-02  3.9594252e-02  4.4115520e-01  1.4586382e-01
 -3.3650553e-01  2.3389821e-01 -1.9275828e-01  3.2794509e-02
 -3.0077839e-02 -4.2355107e-04 -7.6916721e-03  6.3789092e-02
 -1.0288940e-01 -9.0986401e-02  3.7844601e-01  1.0245036e-01
 -1.5313913e-01 -1.0341387e-01 -1.5767559e-01  1.6965270e-01
  3.9692353e-02  2.4036647e-01 -2.2773618e-01 -1.2320222e-01
 -1.9697274e-01 -1.7956537e-01  2.3048173e-01 -3.1728292e-01
  5.0796020e-01  1.2765320e-02  1.4748628e-01  1.3351759e-01]
[ 0.14129491 -0.30116332  0.14230128  0.2302819   0.18666816  0.08731761
  0.25033382 -0.0360236  -0.00099435  0.20523511 -0.04677981  0.00845894
 -0.00252681 -0.36269683 -0.14769286 -0.28230354 -0.10104187  0.1630382
 -0.02029171 -0.41731894 -0.10965539  0.11444822 -0.32044291  0.05563692
  0.30966958 -0.17345305  0.26717246  0.326136   -0.15170036 -0.1405924
 -0.05875324  0.5083439   0.09419771  0.40534884  0.234318    0.03030816
 -0.14922993 -0.11899435  0.00750654  0.23311952]
[ 0.25816852  0.05923795 -0.08568048 -0.05147287  0.16627112  0.1922429
  0.07120933 -0.17127028 -0.1890066  -0.08382202 -0.24393354 -0.1221768
  0.33193818  0.10257254 -0.01023111 -0.36484218  0.32266387 -0.07399441
 -0.14946637  0.21100338 -0.07283469 -0.05057893 -0.30869424  0.09472105
 -0.02330367  0.19381288 -0.32084584  0.15737194  0.13404077 -0.1060317
  0.19108774  0.15064935 -0.03820257 -0.13897805  0.00301341 -0.36901405
 -0.30571634 -0.28532097 -0.47736296  0.09944689]
[ 0.20421226 -0.23153774  0.21925808  0.2596271  -0.01513982 -0.02139829
 -0.01966587 -0.01270489  0.07093927  0.04047041 -0.6760779   0.07410369
  0.0719065  -0.04184765  0.14530523 -0.06897242  0.03679865  0.07014656
 -0.32205853 -0.15837142  0.22916822  0.10396258 -0.28463313  0.2187836
  0.3575159   0.09765735 -0.06461867  0.05051635 -0.22986378 -0.16172531
  0.01650114 -0.10633268  0.06038664  0.20958039  0.09131055  0.4010888
 -0.0429389  -0.06802465 -0.18905659  0.05494446]
[-0.27880326  0.02665213  0.08087838 -0.4774282  -0.20026734 -0.22580561
 -0.09686031  0.11423177  0.09029744  0.1556928  -0.13044877 -0.3061512
  0.27122086 -0.24309717 -0.13450922  0.19610704 -0.10769663  0.22446173
 -0.27223402  0.09924775 -0.0235255  -0.3175463   0.03262249 -0.39886212
  0.2857704  -0.4270601   0.21218066  0.37807938  0.04612609  0.03105911
  0.22703966  0.026542   -0.16435145  0.44065276 -0.09272218  0.33976653
 -0.16148287 -0.17820418  0.0281727  -0.5081143 ]
[ 0.12338583  0.13875483 -0.30593592 -0.10497665  0.0480912   0.09885396
 -0.26326647  0.05218704  0.05795525  0.18001723 -0.44145608  0.09610254
  0.06213523 -0.07031     0.09710696  0.22531506  0.2956527  -0.02215672
 -0.15165843  0.11417935  0.03852272  0.13173968 -0.4349513   0.24683802
  0.0941271   0.13497542 -0.0450401  -0.16396087  0.28155413 -0.2931395
 -0.0865109   0.36829063 -0.04088488 -0.12454082 -0.03801138 -0.01313913
 -0.571108   -0.05424968 -0.07933847 -0.32297105]
[-0.22575147  0.13959001 -0.08713156 -0.28191507  0.09852877 -0.18937777
  0.28116122  0.01758328 -0.08731503  0.27038422 -0.06996148 -0.18967181
  0.3328661   0.27693555  0.27475768  0.16660775 -0.04161397 -0.12788928
  0.20642646 -0.20244877  0.01876714  0.23476307 -0.01874637  0.1333788
 -0.05745199 -0.01285842 -0.00322864 -0.20103063 -0.20290104  0.12040588
  0.17935075 -0.17358854  0.11382134 -0.02179427  0.28472388  0.04406118
  0.12540872 -0.17577596 -0.25176042 -0.09577623]
[-0.17534517 -0.03147269  0.0076334  -0.1254742  -0.0340739  -0.16644791
 -0.02982838  0.12553057 -0.11264253 -0.38795173  0.34351945  0.20388648
  0.042065    0.09823696  0.14669557 -0.2698471  -0.02217171 -0.34534875
  0.2479462  -0.28154197 -0.17760715 -0.30777797  0.0820704   0.14641
 -0.02020406 -0.06560104  0.15643586  0.10588986  0.49566615 -0.06280071
  0.21434632 -0.2711147   0.07552211  0.13564907  0.07431201  0.25116348
  0.2416261   0.06228032  0.13272156  0.2482532 ]
[-0.23780484 -0.06706327  0.33820266 -0.4085812  -0.02026078  0.09320056
  0.63358355 -0.35813975  0.08681383  0.2209626   0.10079526 -0.10155854
 -0.0106998  -0.3430256  -0.16787045  0.37217188 -0.03244723 -0.15418643
  0.22570783  0.11516166 -0.18191718  0.05404992  0.13136417  0.13569956
  0.0083816   0.00448494 -0.00951011 -0.14182769  0.11725631 -0.45379817
  0.30222285  0.14887573 -0.16150285 -0.1029439   0.2329313   0.14393322
 -0.11013006 -0.16947189 -0.08679073 -0.1756097 ]
[-0.18068118 -0.07924356 -0.1337339  -0.0639844   0.18890339 -0.03131688
 -0.07028421 -0.01419641  0.10756983  0.01887313 -0.10133736  0.22427039
 -0.0302329   0.03634959  0.30317378 -0.05491234 -0.14150172  0.10746218
 -0.08627716 -0.03130189  0.07122586 -0.18715158 -0.09411335 -0.19030589
 -0.25219417  0.08608615  0.05082357 -0.14385761 -0.11151408  0.07809868
  0.03169483 -0.437755    0.06950576 -0.32414442  0.09761004  0.2809491
 -0.28063956 -0.26825672  0.2259167   0.11561061]
[ 0.06782822  0.06445047 -0.07246692 -0.07597725  0.3017075   0.19934747
 -0.1964375  -0.0465821   0.14139704 -0.07226237  0.33404133  0.12972467
 -0.05127421  0.01154098 -0.13105373  0.2694227  -0.15197824 -0.02419716
 -0.05897477  0.22478862  0.09700696  0.00607683  0.29375097  0.21914154
 -0.22745402 -0.24720843  0.14315547 -0.24236138  0.12552543 -0.18786982
 -0.1051145  -0.0200498  -0.0953462  -0.30506614  0.18720584  0.19014716
  0.20261617 -0.05483951  0.18086231  0.09396666]
[ 0.21065226  0.21159516 -0.08361263 -0.40022328 -0.3119452  -0.15860088
 -0.28455314  0.1561593   0.20459658 -0.05197638  0.1297996   0.01388297
 -0.12645736  0.07334851 -0.24870521  0.10494911 -0.01496926  0.11685178
 -0.15329404  0.04977101  0.27976194 -0.19925052  0.19783513 -0.1263866
 -0.07421129  0.07849414  0.25475368  0.11896302  0.11393418 -0.25898394
  0.24619298 -0.09444641 -0.32485893  0.26314068 -0.12128498 -0.109984
  0.2001233   0.20343997  0.00067096 -0.1762217 ]
[-0.12386371  0.03113229 -0.17841277  0.00607646 -0.0967188   0.0899235
 -0.21412688  0.2524364  -0.23397452 -0.33172008  0.15986854  0.26715666
  0.16352615 -0.0690422  -0.02614173  0.21539159 -0.06914659 -0.01079022
 -0.14517038 -0.04021715 -0.23717313 -0.13473299  0.00708037  0.23942286
 -0.09520472  0.33164892  0.17021997 -0.3635208   0.17714222  0.24690141
 -0.21581563 -0.26336473 -0.33958232 -0.40971807 -0.10962705 -0.02812731
  0.19536096  0.29261595  0.18125476  0.13003412]
[ 0.36574864  0.04379907 -0.00095637  0.3760178  -0.03076767 -0.09778196
  0.14095871 -0.09830617  0.0412057  -0.09252577 -0.03415843 -0.18053117
  0.32501954  0.09832964  0.2974419  -0.21626186  0.02529195  0.08460222
 -0.12891632  0.06709024 -0.12974457 -0.08655681  0.01940275 -0.23098649
  0.09790111 -0.23334275  0.28543484  0.05964271  0.02644152 -0.09737847
 -0.1744693  -0.10464016 -0.07279091 -0.02685062 -0.31068686  0.19776952
  0.20654725  0.2888776  -0.13265574  0.20061478]
[ 0.03106016  0.03992369  0.23260902  0.06330544  0.12475279 -0.2984492
  0.09964712  0.00471342  0.14264259 -0.27986637 -0.02594418 -0.23000559
 -0.2314889  -0.20491788 -0.17734751 -0.00987258  0.06452729  0.20494467
  0.32418907 -0.09311877 -0.00224144 -0.02265225  0.01760602  0.03015168
 -0.02829659  0.05817322  0.3463623   0.02595884  0.0642195   0.22200711
 -0.09470215  0.02721854  0.04996653 -0.08685436 -0.23177047 -0.0523457
  0.36565    -0.03998124  0.0816135   0.100431  ]
[ 0.01092257  0.1083453  -0.04701541  0.29968253  0.181742   -0.01691392
  0.03392942  0.02056258  0.02590293  0.11623049 -0.06484194  0.35912305
 -0.11280172 -0.39911786  0.2026408   0.10105726 -0.20410953  0.45834816
  0.23125336  0.3645942  -0.14510053  0.01661913  0.22952133 -0.06178131
  0.32790038 -0.23214577 -0.25872305  0.16783328  0.05366568 -0.19416095
 -0.1174309  -0.12668172  0.03514895 -0.15955909 -0.6120248  -0.35347217
 -0.15378514 -0.11263052 -0.164975    0.3518389 ]
[-0.4328871   0.38070562  0.17181249 -0.66031486  0.17438328  0.11398562
  0.12336124  0.29441702  0.08186051  0.2844912  -0.05503556 -0.36655286
 -0.36190528  0.19002187  0.23630157  0.27297875 -0.35936886  0.01066679
 -0.13131465 -0.32483226  0.27301997 -0.24170886  0.17363144  0.14603946
  0.3394471  -0.18442059  0.17518564  0.19192167 -0.03858584 -0.205757
  0.12005182 -0.11624716 -0.44600144  0.13173589  0.3075872  -0.07558282
  0.3184722   0.16924399  0.30681288 -0.02728572]
[-0.1108366  -0.18455061 -0.252048    0.29430208  0.35789698  0.07594937
 -0.13884237  0.10940209  0.19990736 -0.27280542 -0.07058389 -0.08307303
  0.29046384  0.10391476  0.3506246   0.04535784 -0.18603238 -0.23570721
 -0.22318006  0.18545114  0.30298033  0.09196496  0.11121403  0.04552021
 -0.03935609  0.09105012  0.08523797  0.0371845  -0.09194051  0.4716026
  0.10599767 -0.20423506  0.17253733 -0.13991924  0.4218177  -0.16615139
 -0.01416193  0.16164969  0.19934724  0.08294092]
[-0.15831842  0.05752795  0.10731783 -0.1494254  -0.17465824 -0.15889141
  0.11542978  0.2131398   0.00804584  0.10994425  0.01283131 -0.28224134
 -0.10633327 -0.03073088  0.04632486 -0.02888882  0.20350122 -0.07432066
  0.25300983 -0.32280293  0.20610726  0.04597228  0.09112993 -0.18957959
  0.04976794  0.03760548 -0.11828115  0.27673706 -0.1194317   0.1677837
  0.19847408  0.00949178  0.1766033   0.35148275  0.1705974  -0.27941382
  0.01960297 -0.01721211  0.17105357 -0.07704537]
[-0.3139948  -0.32217664  0.3843641  -0.25608978  0.2986926  -0.22871718
  0.00723955  0.31787646  0.04076408  0.09698699 -0.21083371 -0.2973951
  0.41833362  0.534218    0.2310523  -0.37338656 -0.01970587  0.17063652
 -0.02042955 -0.30571583  0.00615813 -0.11681286 -0.22724988  0.18263109
  0.4736386  -0.05852257  0.08201783  0.32783654  0.20792967  0.25387397
  0.18120699 -0.51083004 -0.21283852  0.21219009  0.06707714 -0.10725805
 -0.18474014 -0.20620854  0.22028516 -0.36882105]
[-0.1530949   0.07557356  0.03726342 -0.3312436  -0.07864414  0.08155413
  0.1665005   0.05535739 -0.0020832   0.01491603  0.09119246 -0.16096464
 -0.04456353 -0.01226182 -0.03988363  0.06500012 -0.06780469 -0.11500257
  0.01127536 -0.12137219 -0.01919047 -0.04800168  0.04426813 -0.09114991
  0.12968633 -0.10173893 -0.02347031  0.07625613  0.12281322 -0.1354336
 -0.01910685 -0.15648143 -0.19769666  0.12625664  0.12134751  0.01941728
  0.01916374 -0.02484801  0.00571355 -0.12757303]
layer 3 Activation
tanh
layer 4 Dense
40 20
[ 0.16871604  0.11846007  0.00881739 -0.02804648  0.2432582  -0.2927723
  0.06735394 -0.1905139   0.12927671 -0.00728794 -0.2958784   0.07204024
 -0.06036412 -0.06033369  0.2772601  -0.15560062 -0.27130452 -0.23576291
 -0.14778318  0.13773546]
[ 0.1345037  -0.20464721 -0.01272384  0.258581   -0.2749566   0.12651725
 -0.15833373 -0.09207704 -0.01470913 -0.07288124  0.03636656  0.25807828
 -0.15858577  0.2831893  -0.15027973 -0.13583022 -0.36766797 -0.17194657
  0.06122571  0.15325071]
[-0.23402312  0.3368773   0.2559371  -0.12130535  0.14842051  0.3764003
 -0.25222224  0.11321219  0.19928822  0.17472635 -0.04941445  0.1408528
  0.278884   -0.31404117  0.11240148 -0.02628278  0.12777792 -0.00254417
  0.28529504 -0.36302158]
[ 0.17983072 -0.19557014  0.2115763   0.24192807 -0.08423226 -0.38965446
  0.32620525 -0.3200389  -0.13239129  0.08858129 -0.41797075 -0.04591486
 -0.14756598 -0.15856993  0.08230884 -0.10337063  0.30334014 -0.03077214
 -0.20175967  0.07790897]
[ 0.08563665  0.29228148  0.04531884  0.32753453 -0.1215765  -0.12483107
 -0.01800281  0.19373839 -0.15590213 -0.12075604 -0.2540288  -0.18881495
  0.17391963  0.08312313  0.27951178 -0.24065089  0.21645854 -0.03877432
  0.09776436  0.10571975]
[-0.05919333 -0.45603147 -0.2523405   0.00602301  0.16276658 -0.07732362
  0.04057485  0.071358   -0.078472   -0.0086665  -0.03317788  0.04930338
  0.25716135  0.27958798 -0.05163632 -0.19366607 -0.1852501   0.11310568
  0.16556655  0.13277711]
[-0.1523896  -0.10730004  0.00958296  0.06877574 -0.07408074  0.21236596
 -0.27082878 -0.29622212  0.0029391  -0.10941146  0.12159907 -0.2652966
  0.28860623 -0.2604711  -0.2163312   0.32093713 -0.22251996 -0.08794899
 -0.09873163 -0.21639179]
[-0.01939316  0.17653199 -0.05370278  0.04513071 -0.00258499  0.0153669
  0.16582915  0.07873607  0.17781523 -0.13911332 -0.03150935 -0.16011788
 -0.06100921  0.1045892  -0.29923964 -0.23998158 -0.17696989 -0.03274428
 -0.19297798 -0.12857258]
[ 0.00088324  0.36935914  0.22347109 -0.26763114 -0.01375551 -0.04529829
  0.27928007 -0.12605695 -0.04357946  0.11518387 -0.01587256 -0.24949862
  0.11031897 -0.27500552 -0.00592534 -0.26460296 -0.07112232 -0.07248741
 -0.16976967 -0.20221095]
[-0.18813512  0.17431873 -0.28634796  0.20435785  0.08030892  0.21159287
  0.11548858 -0.04396346  0.10106976  0.24678104 -0.14057325 -0.29270643
  0.2755505   0.26735663  0.24053673 -0.20699258 -0.1920931  -0.18342306
 -0.28468907  0.17434382]
[ 0.21451415 -0.10159367  0.12137043  0.2627246  -0.07529262  0.16347419
  0.15943429  0.2604089   0.11088704  0.2960193  -0.26616988 -0.22389297
 -0.02344734  0.12653624 -0.0998218   0.24521653 -0.08384437  0.17843919
 -0.09600914  0.11471035]
[ 0.32943487 -0.2519216  -0.12709732  0.09358861  0.07396573 -0.21605562
  0.18428424  0.21701403 -0.10184173  0.06563973 -0.28765154 -0.23972675
  0.06018788  0.15864633 -0.10497151 -0.1469438   0.24368203  0.0541815
  0.28949246  0.18009795]
[ 0.0141996  -0.32740209 -0.42502576 -0.14625236  0.10120342  0.1360374
  0.14116088  0.09864996 -0.22444959 -0.27702966 -0.04861609 -0.25830087
 -0.09026942 -0.07913886  0.32093638 -0.02078235  0.3346948  -0.07105139
 -0.32241407  0.22959715]
[ 0.23109865 -0.08467978 -0.03947973 -0.3173638  -0.10047624  0.15110283
  0.27141795  0.2834559  -0.01387968 -0.28890413 -0.20383978 -0.12094215
  0.26888806  0.19473606 -0.0296806  -0.00430965  0.02240592  0.31492767
 -0.28427923 -0.0227362 ]
[ 0.20829473  0.02490656 -0.30297926  0.04760555  0.02091976  0.05069538
  0.11657634 -0.10360418  0.34113055 -0.15744089  0.13409781 -0.04854247
 -0.06983925  0.03468622  0.21606831 -0.20425549  0.10457233  0.03045352
  0.01819703  0.0634938 ]
[-0.13513194 -0.28852287  0.17048997 -0.0983676   0.05829085  0.10413349
  0.26214036 -0.36790305 -0.07180963  0.01756689  0.03583521  0.11257657
 -0.08688184  0.27748102 -0.2580326  -0.07229076 -0.20343727  0.22365499
  0.24377696  0.30386004]
[-0.06311695 -0.22720253  0.12810077 -0.25863492  0.02068798 -0.31459212
 -0.16400427 -0.3432201   0.1968129  -0.1221782  -0.14631669  0.12351732
 -0.08405799  0.36575633  0.18499433 -0.10275494  0.19013922 -0.12826765
  0.25213483 -0.04313385]
[-0.35274377  0.16978216 -0.2569584   0.27203846  0.19593026 -0.2505015
  0.0412799  -0.09853822  0.10937467  0.2497465   0.00953421 -0.02704699
  0.29774764  0.03834449  0.33352795  0.13171485 -0.24047637 -0.15408479
 -0.05027106  0.04005256]
[ 0.31736314  0.26411086 -0.03695795 -0.11394162  0.04260888 -0.09258707
  0.18177354 -0.16532215  0.05162805  0.11260254 -0.0253711   0.0509941
 -0.2527704  -0.02410333 -0.1804442  -0.03175289 -0.18521334  0.23350509
  0.2262749  -0.27702597]
[ 0.06024516 -0.09412178 -0.22279768  0.3196768  -0.27923185 -0.37834832
 -0.22187972 -0.31075966  0.01221169 -0.14061464 -0.39627215 -0.00658057
  0.21853735  0.00505721  0.0423394  -0.20521596  0.1675126  -0.03083142
  0.02629838  0.13007799]
[-0.22743116  0.10148247 -0.02805496 -0.27366006  0.17708603  0.10601908
 -0.00249494 -0.0437424   0.14673091  0.15844886 -0.15525731  0.18582617
 -0.20737435 -0.07382204  0.02740705 -0.17701828 -0.06603333 -0.21346669
  0.12535487  0.0200508 ]
[-0.10873829 -0.06628861  0.2898121  -0.15282893  0.18277445 -0.2371457
 -0.07549644 -0.34626988  0.25912684  0.37500048 -0.11582905  0.2735101
  0.00892708  0.20391706  0.2722148   0.07818286  0.07707443 -0.35664076
 -0.2966524   0.19282834]
[ 0.09100784  0.09060723  0.16219866  0.22038177  0.03291722  0.11885583
 -0.05876303  0.26324382 -0.26133102  0.24698448  0.05320086  0.07559969
 -0.12553994 -0.05283599  0.13858853 -0.12696004 -0.38155144  0.09290772
  0.33812737 -0.09322264]
[-0.05221333 -0.22188205 -0.08423027  0.1760573  -0.28265572 -0.14428623
 -0.09272957 -0.02458546 -0.00516598 -0.05677033 -0.05140397  0.17228647
  0.12283382 -0.21741787 -0.25850853 -0.16312373  0.21198437  0.14387025
 -0.3845613   0.22757137]
[-0.2823846   0.00271714  0.06355625  0.03886563  0.05716248  0.26664555
 -0.06405542  0.06793368  0.05947782  0.23630728  0.0180097  -0.08467637
 -0.17244144  0.16611053 -0.37865263  0.2996971   0.29512984 -0.27208647
 -0.1519609  -0.15606017]
[ 0.2523399  -0.04417286 -0.21465844 -0.44582403 -0.01900707 -0.02854787
 -0.15092894 -0.08164782  0.1432898  -0.19525123 -0.00821598 -0.05242319
 -0.2113643   0.06220158 -0.2584465   0.06959788  0.02377669 -0.3120449
  0.04596388  0.32701787]
[-0.02078269  0.02795082  0.22001125 -0.22397205 -0.01989032  0.00422963
 -0.13902315  0.22793572 -0.17176524  0.07255287  0.15740134  0.2203772
  0.05384506 -0.16373685  0.03361608  0.08266885 -0.00943245 -0.18868992
  0.18136306 -0.20974617]
[ 0.01078822  0.27015427  0.08059471 -0.02705181  0.22412826  0.11821639
  0.27150008  0.22160226  0.03255077  0.16514786 -0.11260374  0.04279722
 -0.03424248  0.06631948 -0.2729279  -0.02588262  0.18940707 -0.18417005
 -0.18611889 -0.18470095]
[ 0.01990762 -0.03088593  0.14384411  0.15369958 -0.10902101  0.17401308
 -0.1508453   0.22519352 -0.1679418  -0.21262707  0.11565246 -0.09405578
 -0.06487415  0.11161689 -0.3187112  -0.21942039  0.16880225  0.29313698
 -0.08458085 -0.23099288]
[ 0.19043784  0.02667199  0.17021817  0.20456794  0.09484037 -0.32621914
 -0.28985617  0.10287225  0.29144752 -0.35982102  0.12865494 -0.162017
 -0.04502911 -0.07265889  0.187849    0.05943318  0.27494472  0.33079252
  0.1753972  -0.20912337]
[-0.10967243 -0.22618018  0.20949003 -0.44366425  0.25016484 -0.08457485
  0.15711159 -0.23194747 -0.22875203 -0.14477947  0.11970366  0.16907269
  0.21551879 -0.30714583 -0.15354434  0.01613157  0.21741585 -0.11560383
  0.18034711 -0.04753407]
[ 0.14715402  0.04321402  0.24176078 -0.13100594 -0.13824302 -0.12153349
 -0.03710085 -0.41866958 -0.26682207  0.46114835 -0.11313432 -0.10495176
 -0.16438042 -0.22495095  0.28290448 -0.12315259  0.02650663 -0.32055578
  0.2129621  -0.0916575 ]
[ 0.21199305  0.01273008  0.16748856 -0.01484438  0.11878344 -0.27283734
 -0.16121446  0.02295259 -0.02649072  0.19971323 -0.30779582  0.23777176
  0.2625607   0.03365662  0.14415947  0.2335256   0.18584347 -0.2587114
  0.09339177 -0.1540786 ]
[-0.28662574  0.28818595 -0.00747996  0.1569015  -0.26247117  0.08619728
  0.18898818 -0.19830415 -0.25942355 -0.03329019  0.32181972  0.01378505
  0.06360722 -0.23244926 -0.12385297 -0.19363958  0.19875108 -0.07753207
 -0.23210375 -0.30490264]
[ 0.19387326 -0.19023995  0.26727876 -0.2538246   0.10240103  0.36082554
 -0.17921157  0.35237432 -0.00772408 -0.21609943  0.07041772  0.16759253
  0.25689352 -0.22951093 -0.14279649  0.07070618 -0.11283206 -0.03492855
 -0.01741453  0.06498913]
[-0.05704656  0.18747948 -0.2834254  -0.06619886  0.14243196 -0.04438344
  0.14589211  0.24593388 -0.23561032 -0.31452906  0.15068296  0.0670954
 -0.170156    0.08447255  0.19041325  0.10737517 -0.2706483  -0.33430392
  0.24852662 -0.28392035]
[ 0.4056284  -0.02686422 -0.12515229  0.44665965  0.10338448  0.15179881
  0.08020364  0.27780366 -0.12507153  0.13417673  0.08438668 -0.12901145
  0.11506099 -0.411919    0.18328297  0.10540545 -0.14479165  0.33512437
  0.26271448  0.00605981]
[ 0.15946783 -0.27913767  0.09394    -0.10303994  0.16650814  0.1721589
  0.24462849  0.08278938  0.10999934 -0.21553627  0.05644476 -0.01383076
  0.08743211  0.06352058  0.17681848  0.16499285 -0.32039627 -0.08888002
  0.19396059  0.03203075]
[ 0.10917184  0.07619518 -0.25610116  0.18866761  0.14979011  0.05102524
 -0.01148456  0.10677194 -0.2723124  -0.0099487   0.16099754  0.17951949
 -0.06790707  0.11987025 -0.10474954 -0.13708887 -0.10221837  0.04570219
  0.19933657 -0.23330584]
[ 0.30347094 -0.06979121  0.27428707  0.30417973  0.01518981 -0.00929481
 -0.07991049 -0.12729967  0.05747549  0.2171432  -0.23420365  0.25245628
  0.19331253 -0.34880823  0.2823452   0.21640337  0.23674671  0.26414016
 -0.3084184   0.2301358 ]
[-0.05195003  0.00885594 -0.03659515 -0.06584468 -0.02057946  0.17823474
 -0.00349855  0.03534434  0.01865602 -0.01128631  0.07124694 -0.02392309
  0.00351038 -0.02472423 -0.0699352  -0.05232138 -0.02047287 -0.00601942
  0.00309187 -0.06009506]
layer 5 Activation
tanh
layer 6 Dense
20 1
[-0.06441209]
[0.01168512]
[-0.06092355]
[-0.03442331]
[0.0225736]
[0.43570194]
[0.02667266]
[0.08947349]
[0.00134471]
[-0.07698046]
[-0.3206583]
[0.02255398]
[0.01438076]
[0.01155696]
[0.24885942]
[-0.00510369]
[0.06947007]
[-0.04186812]
[-0.02604746]
[-0.09986276]
[0.03830444]
