layers 7
layer 0 Dense
24 20
[-0.7695998   0.7578171   0.47778663  0.2099596   1.5009453  -0.4815954
 -0.88538     0.01824279  1.7022812  -0.88033897 -1.5957488   0.09873003
  1.2203413   0.20688137 -1.4248     -0.601537    0.26393417  0.58401865
  0.23443396 -1.2352207 ]
[-0.03498094  0.76436263  0.8769943   0.76018924  0.1516709   0.18997706
 -0.26897046 -0.216546    0.11911946  0.26641637 -0.14527063  0.09799288
  0.6296656  -0.15755102  0.17498323 -0.06318009  0.22235176  0.54359436
  0.18376154 -0.296801  ]
[ 0.23100907  0.4931615   0.7301046   0.6950367   0.05504607  0.1701429
 -0.8165892   0.04067021  0.5583376   0.07995373 -0.22733346 -0.01991217
  0.70065486 -0.18142603 -0.00882886  0.18667315  0.29595336  0.6229289
  0.09948182  0.30339393]
[-0.35772014  0.73267674  0.52842927  0.14179567  1.1391718  -0.39653513
 -0.47324985 -0.27076316  1.2722017  -1.0100101  -1.4101759   0.52250177
  0.53459466 -0.24625993 -0.8709543  -0.30213076  0.51778966  0.272382
 -0.1505328  -0.29177636]
[-0.7986585   0.4739389   1.047153   -0.8548569   1.0299104  -0.24277596
  0.1754203   0.5046241   1.0269216  -0.678757   -1.1578801  -0.78226525
  0.842048    0.54299366 -1.066986   -0.850706    0.61689013 -0.35347173
 -0.8717889  -1.2983781 ]
[ 0.15775825  0.35855496 -0.21955106  0.59136206  0.1181645  -0.07448377
  0.01480141  0.02434346  0.12791502 -0.19487986 -0.12329077  0.6211914
 -0.31478792 -0.1632042   0.1371576   0.20178552  0.0921149  -0.00747366
  0.4403421   0.37481162]
[ 0.57780915  0.17411603 -0.02534708  0.78479916  0.11258443  0.40154433
  0.1175006  -0.33643842  0.24284334 -0.32302412 -0.16757196 -0.00515281
  0.4016764  -0.00277261  0.11362856  0.00697273  0.04043644 -0.45786738
  0.07891822  0.30325547]
[ 0.5021765  -1.3277184  -1.0231     -0.5163777  -1.4073535   0.175118
  0.83587265 -0.10431097 -1.909591    1.1768228   1.886109   -0.18087742
 -1.0024387  -0.21369892  0.44905004  0.398573   -1.0656428  -0.66040474
  0.29798865  0.9891059 ]
[-0.6477633  -0.36307302  0.741823   -0.46229795  0.1525475  -0.30063462
  0.43845654  0.30748534  0.7301226  -0.4619337  -0.66209006 -0.6253928
 -0.17271535  0.801673   -0.16554344 -0.28956547  0.5566239  -0.3305145
 -0.8279722  -0.17799175]
[-4.714556   -2.5876331  -2.0654588   0.03989061 -0.25424758  0.9068939
  0.12917991 -0.3791073  -0.33287087 -0.1130197   0.14583845  0.4280749
 -0.13120227  0.65136    -2.7557144  -0.72850037  1.2576314   0.08601006
 -0.4837436  -0.28855997]
[ 0.48446625  0.37135676  0.7736881  -0.10527048  0.6552676  -1.1734189
 -0.02594236  0.73022884  0.50705546 -0.34384686 -0.75330645 -0.17273888
  0.37194714  0.64642173 -0.91238064 -0.55513483 -0.36939347 -0.4662505
 -0.40192318 -0.6750747 ]
[-0.34085426 -0.88319606 -1.813565   -0.82164526 -1.0525687   0.22944385
  0.6012185   0.68258953 -2.5122387   1.457753    2.2639844  -0.14035067
 -1.2205348   0.29468468  0.5985536   0.3409373  -0.6544715  -0.19244759
  0.17492709  1.0605816 ]
[-0.3286442   0.1418537   0.40754056 -0.6841524   0.2949144  -0.3017965
  0.5908948   0.0278312   0.17635086 -0.24933533 -0.25903216  0.01331694
 -0.19641832  0.5261073  -0.7213727  -0.5665785   0.24949972 -0.35601127
 -0.2971007  -0.5557599 ]
[ 0.7519649   0.755547   -0.1367903  -0.08111084 -0.39631352 -0.42593855
 -0.14433903 -0.46659276 -0.6264579   0.48814026  0.61195546  0.46456525
 -0.60079044 -0.24763227  0.8874785   0.62656754 -0.70339245  0.05437967
  0.29111174  0.44919923]
[-1.8294014e+00  5.5489588e-01  3.5519216e+00  4.1970897e-01
 -1.2614176e+00  4.5640774e+00 -3.5726279e-01 -3.0389154e-01
  4.1112897e-01 -4.3254546e-03 -4.3709162e-01 -4.1017213e-01
  1.5215592e-01  1.6632702e-03  2.9954169e+00 -3.3184054e-01
  1.4263135e+00 -1.4142971e-01  2.4537313e-01  5.6379461e-01]
[ 1.5754557  -0.8805741  -2.7866507   0.22724216 -1.3431647   0.12362424
  0.36929885 -0.35047996 -2.3634007   1.445009    2.530769    0.55939156
 -1.2602775  -0.29217625 -0.5241661   1.6369455  -1.9890026   0.23446476
  0.41175044  1.712402  ]
[-0.6453349  -0.29192317 -1.0812863  -0.4557979   0.19143803 -0.8269338
  0.75530183  0.38531092 -0.47830343  0.1577794   0.12455721 -0.3845762
 -0.25007275  0.03846624 -0.8893482  -0.16749388  0.3235432  -0.17260544
 -0.15687655  0.20025353]
[ 0.5116315   0.0468681   1.3608497  -0.024213    0.58365226 -0.1558846
  0.08543061 -0.07152262  0.58450997 -0.16515964 -0.6742508  -0.15201133
  0.07340388  0.4530432  -0.08944311 -0.4925057  -0.07229991  0.19007978
 -0.8278443  -0.67498624]
[ 0.22005808 -0.4569458  -1.017694    0.6567536  -0.70477986 -0.00240349
 -0.1341119  -0.42427573 -0.98091495  0.50180876  0.83755517  0.37899297
 -0.30579913 -0.18827061  0.58174115  0.5924328  -0.17562766  0.06663737
  0.42488125  0.6830622 ]
[-0.31262678 -1.504279   -3.2207394  -0.5821685  -0.4554258  -0.4780571
  1.0075397  -0.12254719 -1.9863214   1.0884193   1.626503   -0.27376077
 -0.7483375   0.38458914 -0.1023382   0.78303134 -0.4462033  -0.9201614
 -0.26404232  0.4398964 ]
[-0.46267784 -0.04436304  0.48246598 -0.5515927   0.10709732 -0.6531633
  0.2063933   0.45774522  0.4921276  -0.12261967 -0.26148686 -0.64324194
  0.07233673  0.47842503 -0.32191116 -0.5513503   0.2856388  -0.3993772
 -0.8767109  -0.33390516]
[-0.00886841 -0.15596445  0.9870045  -0.05272245  0.53328985 -0.36785653
 -0.01756775  0.6159134   0.77149624 -0.30293638 -0.65528256 -0.56093884
  0.4333637   0.02849838 -0.3672846  -0.3884786   0.10768513  0.04825226
 -0.6596705  -0.9019067 ]
[-1.0995013   0.36745292  1.4281809   0.02534656  0.3958477  -0.28465828
  0.08938194  0.44124347  0.8254112  -0.32416818 -0.9694202  -0.7121379
  0.54559606  0.7383574  -0.54356235 -0.90709996  0.5956151  -0.10450441
 -0.8157833  -0.9689311 ]
[-0.35989603  0.08015755  0.40007633 -0.49616784  0.3363275  -0.13898745
  0.4582377   0.23546311 -0.0881294  -0.12373303  0.15425709 -0.575611
 -0.22039105  0.66994584 -0.27664    -0.17647418  0.12361845 -0.5673051
 -0.395589   -0.37903655]
[ 0.17470081  0.54915106  0.2704768   0.56813157  0.48803028  0.1377949
 -0.58588827 -0.24859287  0.49233022 -0.42537954 -0.5644829   0.34393963
  0.55223143 -0.22451317 -0.11527402  0.02607777  0.19450836  0.40748584
  0.26612645 -0.24518257]
layer 1 Activation
tanh
layer 2 Dense
20 40
[ 0.11828409 -0.47286373  0.37114567  0.3646782   0.45730087 -0.4192633
  0.5730478  -0.36932588 -0.5318377  -1.0016304   0.01893953 -0.10896694
  0.04230784 -0.85373956 -0.8633276   0.27930546 -0.02935588 -0.52213776
  0.60191786 -0.55057293 -0.46849236 -0.20968403  0.85434145 -0.41127715
  0.72963643  1.0120211  -0.13612972  1.0295117  -0.93271285 -0.70633423
  0.02330143 -0.7894923   0.22307074 -0.58378494 -0.5045576   0.39698067
 -1.0109763  -0.6977272   0.30447984 -0.05478044]
[ 0.6046831   0.00304112 -0.21878849 -0.50605863 -0.8664178  -0.0040386
 -0.6231455   0.00427118  0.30284587  0.578029   -0.59002227 -0.24069984
 -0.39328927  0.5570722   0.30973724 -0.11975589  0.41951057 -0.6178844
 -0.35085773 -0.9995448   0.32646832  0.25313914 -0.2687231  -0.05346795
 -0.35613975 -0.43933278 -0.8396938  -0.5214715   0.45851815  0.42004755
 -0.16215737  0.05666062  0.15266107  0.36073652  0.3278376  -0.61831915
 -0.01963115  0.5697286  -0.5433646  -0.5399285 ]
[ 0.1956783   1.6322683  -1.133137   -1.6206298  -0.18913406  1.0653137
 -0.73336184 -0.3620056   1.3084425   1.3221931  -0.5832186  -0.7262055
 -0.83864546  0.9591004   1.6603167  -1.2731107   0.9972444  -0.3203642
 -1.3724712   0.3080105   0.70731246 -0.4351432  -1.63835     0.9601429
 -1.1135575  -1.11279    -1.0301639  -1.1560469   1.4347559   1.672877
 -0.3283517   1.5621371  -1.4172158   1.1834829   1.7245705  -0.17159413
  1.4837998   1.5653569  -1.3031851  -0.5786812 ]
[ 0.33834475  0.30646464 -0.28852203 -0.17427091 -0.01850232  0.09997097
  0.10568461  0.09932583 -0.29042768 -0.29714403  0.23777603  0.2593348
  0.28631908  0.08835637  0.06294784 -0.31296146 -0.15774564  0.19873135
 -0.44497436  0.16664694  0.1429222  -0.39524207 -0.22498485 -0.541972
  0.46848685  0.13462633 -0.35145366 -0.3556472   0.09282737  0.38544166
 -0.50874466  0.4176174  -0.06402352 -0.2991348   0.12228212 -0.03463532
  0.3564755   0.54975826  0.09537347  0.28334278]
[-0.40892518  0.9004794  -0.6078577  -0.48631042 -0.56136274  0.5515932
 -0.64617866 -1.0059053   0.57789886  0.64095837 -0.15213794 -0.9355155
 -0.28831148 -0.01771828  0.8486198  -0.5406067   0.08126248 -1.0168068
 -0.8067357   0.59533185  0.4643339   0.06928758 -0.5170446   0.66674197
 -0.6854785  -0.79344964 -0.67464054 -0.92398393  0.5541733   0.6488186
  0.14763874  0.72103435 -0.48411226  0.61176246  0.07246868 -0.4344883
  0.7614547   0.4745188  -0.89766926 -0.36412987]
[ 0.22427621 -0.6615497   0.15176223 -0.05664919  0.80223215 -0.13989538
  0.7243971   0.2229471  -0.14325722 -0.50311434  0.42241308  0.9581659
  0.32164165 -0.22278568 -0.44522735  0.5379313  -0.30540943  1.0449746
  0.19187681  0.2680959  -0.12525262 -0.32532     0.5282245   0.03164112
  0.6506449   0.48350635  0.07030716  0.14350882  0.01748858 -0.32083932
  0.04654291 -0.3889193   0.47929907 -0.6811945   0.12639904  0.64151126
  0.25080785 -0.62356395  0.25004062  0.5289244 ]
[-7.0276791e-01 -5.0751019e-01  9.2857641e-01  4.2940575e-01
  6.9779739e-02  1.1305144e-02  1.9522347e-02  4.5203418e-01
  8.9365639e-02  2.8850123e-01  6.8822123e-02 -3.7365147e-01
 -8.2817941e-04 -1.8299636e-01 -1.6790898e-01  2.6221475e-01
  2.2105007e-01  9.6411750e-02  2.9332951e-01 -3.0609205e-01
 -3.1310844e-01  6.6090828e-01  1.4800191e-01  3.8383490e-01
 -4.6425375e-01  3.3047751e-01  1.2293882e-01  5.7374650e-01
 -2.8401381e-01 -5.5586243e-01  9.6234018e-01 -4.6802035e-01
  3.3841413e-01 -2.0593318e-01 -4.6295905e-01 -1.4817543e-01
 -6.8281704e-01 -8.4319258e-01  1.1035917e-01 -2.9688033e-01]
[ 0.5169459  -0.5616261   0.34184045  0.1902891   0.44939786 -0.00607893
 -0.2876283  -0.82850844  0.46986973  0.13730985 -0.6836604   0.11596391
 -0.3484588  -0.4024456   0.67516834  0.50314057  0.3635424  -0.46206474
 -0.08721298  0.09777494  0.11367013 -0.17446455  0.18222173  0.09555486
  0.14699689  0.39102197 -0.11982317  0.219172   -0.48404595 -0.6684324
 -0.05683155 -0.24239141  0.21810116  0.03006765 -0.10596856 -0.18288304
  0.536194   -0.5153185   0.19610758  0.08317325]
[-0.18478283  1.5306408  -1.3703654  -1.319562   -0.4451399   1.1898956
 -1.832747   -0.72193027  1.3404883   1.2455441  -0.56250066 -1.449618
 -1.3576113   1.3492652   1.1214688  -2.0627658   0.8767038  -0.47072676
 -1.666911    0.8055392   0.8916759  -1.0718489  -1.374841    0.3242184
 -1.081188   -1.4403849  -1.9900826  -1.7202688   1.8220451   1.7605766
 -1.0387684   1.5277835  -1.294581    1.7301576   1.6389257  -0.38642144
  1.5409988   1.9781682  -1.3948374  -0.22870184]
[ 0.01143327 -0.3245042   0.3293804  -0.07359996  0.9507074  -0.24010235
  0.74139977  0.811903   -0.2047944   0.28311303  0.08248404  0.28046775
  0.21617906  0.00253543  0.5950247   0.85971117  0.22722907  0.3663565
 -0.21891014 -0.24289104  0.4604063   0.418545   -0.56614727 -0.21609983
  0.545949    0.02564512  0.32830027  0.2796354  -0.4862622  -0.11206007
  0.67693675 -0.27876213  0.9522046  -0.8569708  -0.31060687  0.42699236
 -0.0654216  -0.09597208 -0.27445877  0.1669048 ]
[-0.08686289 -1.3510122   1.4629196   1.3619466   0.7816969  -1.4322847
  1.5434035   1.0051942  -1.4642974  -1.6489002   0.75981057  1.7342724
  1.6057724  -1.4402977  -1.1613717   2.046717   -1.1289647   0.416657
  1.5147654  -1.0457023  -1.05164     1.2937536   1.6116204   0.01566775
  0.95418626  1.579373    1.9561718   2.2752159  -2.1987653  -1.7291797
  0.8831895  -1.7801534   1.4992168  -2.3150113  -1.5022434   0.5205312
 -1.6483388  -1.5336243   1.283245    0.5230922 ]
[ 0.419758    0.27216575  0.24337299 -0.10688341 -0.34415168 -0.43386433
  0.32601473  0.5409271   0.15719387  0.07583224  0.7052468   0.5773943
  0.95736027  0.38832945  0.08717682 -0.08772422 -0.4989007   0.09426914
 -0.5437451   0.4379526  -0.5534839  -0.37089747  0.06394245 -0.8108749
 -0.3200729  -0.4733003   0.5332852   0.1515988   0.13308387  0.09090925
 -0.4006554   0.39296857  0.17100517 -0.2885643  -0.04222571 -0.34800807
  0.40471625  0.17482983 -0.72988886  0.03381696]
[ 0.26749507  0.37396497 -0.484376   -0.49503094 -0.81422466 -0.04541621
  0.3272348   0.02241326  0.5217091   0.264087    0.33130115 -0.11545522
 -0.06662357  0.24997406  0.14418048 -0.5631199  -0.18366198 -0.34616193
 -0.21515197  0.6874604  -0.7958301  -0.48672557 -0.11997529  0.14530906
 -0.6819357  -0.5223359  -0.19999954  0.04592963  0.3380248   0.34144178
 -0.6427844   0.5855279  -0.4125905   0.13903417  0.28126472 -0.46266714
  0.21428823  0.08945509 -0.1429264   0.12484627]
[ 1.4442402e-01 -4.8312733e-01  1.2976559e-01  1.8825458e-01
 -3.1765535e-01  5.5581796e-01 -4.9876472e-01 -7.3076355e-01
 -1.4228885e-01  7.5472683e-02 -5.2771831e-01 -8.7018371e-01
 -4.1312906e-01 -2.9153517e-02 -2.5693151e-01  1.8697470e-02
  5.7445836e-01 -4.0706852e-01  2.7225965e-01 -5.7418960e-01
  4.1063187e-01 -8.7507360e-02  3.6176583e-01  7.6104093e-01
 -3.3358836e-01  4.9505997e-01 -1.3265242e-01 -4.3819372e-02
 -3.6691159e-01 -5.7187450e-01 -6.8817377e-02 -6.7824960e-01
 -3.6378312e-01  5.2266532e-01 -4.1837156e-01  7.7207953e-02
  7.4256829e-04 -6.4601648e-01  1.0692277e-02 -7.1383852e-01]
[ 0.35302144 -0.7532563   0.61558205  0.18941157  0.14099361 -0.73147666
  0.7335852   0.35527408 -0.30256736 -1.0370607   0.6626298   1.0151106
  0.53104395 -0.99856806 -1.1645712   0.8293921  -0.14276274  0.2695925
  0.8371775  -0.9128841  -0.14691246  0.0014362   1.0252641  -1.0250428
  1.2218968   0.9131964   0.51237917  0.5879481  -0.7680619  -0.90300936
  0.23072268 -0.76155055  1.0133674  -0.71231854 -0.49964634  0.54332733
 -0.78038955 -0.92900187  0.6684675   0.31812915]
[ 1.0732809   0.42270306  0.04062137 -0.13406147  0.96905416 -0.03130039
 -0.05021592  0.58977103 -0.6111692  -0.13930206 -0.24505135  0.01874534
  0.04162426  0.09412652  0.32566863  0.12040937  0.19995181 -0.5828504
 -0.33809644 -0.7470113   0.2666344  -0.27562112 -0.08520243 -0.3773949
  0.868903   -0.10696207 -0.31551006 -0.14712335  0.16084531  0.08821327
 -0.15157902  0.22537856  0.46662703 -0.22973451  0.60199153 -0.33451584
  0.7223149  -0.13467778  0.29327303  0.6439448 ]
[-0.1231354   0.5508414  -0.7010503   0.18535429 -0.31632265  0.5246924
 -0.48181316 -0.13332233  0.03878734 -0.2083941   0.21261957 -0.39013147
 -0.08243228  0.12987788 -0.4561439  -0.445727   -0.15443689  0.30075532
  0.3720401   0.36562183 -0.558266   -0.10459529  0.4109201   1.0869348
 -0.31063208 -0.17902303 -0.22492242 -0.17453365  0.2933358   0.29486248
 -0.02588514 -0.03485865 -0.9117797   0.34887785 -0.22663698  0.01533552
 -0.14731827  0.13414839  0.36510733 -0.08970094]
[ 0.7938009   0.11719544 -0.6202495  -0.40384656 -0.5961138   0.168941
 -0.07741723  0.19252852  0.14993663  0.2683173   0.14006108  0.01294203
 -0.13043094  0.08183231  0.10476798 -0.5461822  -0.16336115  0.01226182
 -0.32523796  0.7819925  -0.36208558 -0.9977042   0.054803   -0.2818273
 -0.2928827  -0.39267617 -0.43214515 -0.6914812   0.13187687  0.16489512
 -1.2970622   0.37336087 -0.5395549   0.24562606 -0.08303815  0.21118635
  0.33040988  0.02536484 -0.5083367  -0.16505505]
[ 0.94243634  0.75246567 -0.20581728 -0.06697541  0.03278459 -0.01047596
  0.1188969   1.2734478  -0.04998155  0.30196214 -0.15890849 -0.22209634
  0.1352936   0.33502734  0.2736506  -0.48326227 -0.14188732 -0.22606747
 -0.28187624  0.3393731  -0.24668282 -0.32368305 -0.19729562  0.06335446
 -0.33560008 -0.43904516 -0.2561745  -0.511491    0.29035223  0.19222976
 -0.8437715   0.4141674  -0.0770217   0.37347522  0.17478472 -0.57154936
  0.5628245   0.57711    -0.66289604 -0.1474981 ]
[-0.71164805 -0.21460715  0.04459417 -0.13354406  0.01773679 -0.1727149
  0.4719115   0.94155777 -1.0125916  -0.2165513   0.18049297  0.43825457
  0.451744    0.6595355  -0.4225942  -0.0127202  -0.01557102  0.38770732
 -0.294015   -1.1083415  -0.41283542  0.51488787 -0.04294876  0.08404797
  0.4611157   0.08773354  0.39012447  0.03828201  0.1779196   0.17888479
 -0.12084025 -0.13395853  0.16154398 -0.34531474  0.22259821  0.19811498
 -0.27641875  0.4678485   0.2296866   0.13452257]
[ 0.9808907   0.16657256 -0.0917445   0.02670212 -0.2227873  -0.29274836
  0.02398802  0.04025628 -0.03058987 -0.12464086  0.06022776  0.09764124
  0.23653986 -0.02736552 -0.00237025 -0.29629996 -0.2859777  -0.12711129
  0.02437221  0.1227656  -0.06914859 -1.0187153   0.1962789  -0.6493331
 -0.10168472 -0.10303605  0.04472972 -0.34475335  0.5545082  -0.05135733
 -0.9354053   0.01052663 -0.09345559  0.26483646  0.02186945  0.03668214
  0.48073724 -0.16903216 -0.2743807  -0.00301473]
layer 3 Activation
tanh
layer 4 Dense
40 20
[ 0.3996836  -0.07843633  0.05476916 -0.59347785 -0.6813599  -0.10330157
 -0.06391295 -0.8273846   0.3916978  -0.22209746 -0.15426016 -0.38828063
  0.00755991 -0.09645547 -1.0775042   0.01807897  0.04329247  0.2606505
  0.64094085 -0.48319164]
[-0.15388347  0.60264194 -1.2018439  -0.9325733  -0.23645695 -0.94364333
 -0.7342767  -1.2791432   1.3073841  -0.7858457  -0.68034583 -0.82403
 -0.7937833  -0.3908671  -0.59990376  0.5281402   0.70754737  1.9599923
  0.15360938 -0.63788044]
[ 1.5988722  -0.41983473  0.3287674   0.03305639 -0.4225494   0.63205725
  0.31829095  0.18563715  0.00646756  0.7520411   0.26658356  0.24016528
  0.21908656  0.42498198  0.18906567 -0.84271705 -0.2783174  -0.2524544
 -1.0022029   0.2167628 ]
[ 1.078835   -1.0986621  -0.6394966  -0.03431155  0.08857697  0.73970765
  0.18810914  0.6579071   0.2504454   0.14944865  0.8103811   0.04323236
  0.610083    0.5497209   0.14116931 -0.13022666 -0.5282335   0.34302482
  0.28947103  0.18136673]
[ 1.60952890e+00 -3.22017729e-01  1.09481074e-01 -4.15471882e-01
  7.20888600e-02  1.33364484e-01  3.19454014e-01  8.84970278e-02
  2.39484534e-02  7.75109053e-01 -9.01472270e-02  4.37248468e-01
  5.15318394e-01  5.33347785e-01 -7.44641721e-02  1.27388477e-01
 -5.17519057e-01  8.99189830e-01 -4.84612495e-01  1.23038283e-03]
[-0.61718804 -0.02971603  0.17139333 -0.1570256  -0.21228817 -0.39460343
 -0.34381995  0.3824335  -0.21866375  0.27814686 -0.10820922  0.008973
 -0.03282864 -0.4471267  -0.36004364  0.44662416 -0.03989212 -0.4580332
 -0.47331297 -0.33955085]
[ 0.1668787  -0.04040048  0.10430092  0.42674902  0.95588934  0.2322962
  0.29548687  0.3340479  -0.15873334  0.39905778  0.19311614  0.12119415
 -0.06384014  0.17949492  0.39604297 -0.10889089 -0.19080749  0.36039537
 -0.50311637  0.49298185]
[ 0.82354575  0.02019005  0.2882798  -0.2972059   0.07227668 -0.26818255
 -0.04779162 -0.5857437  -0.36636633  0.7886017  -0.16419996  0.6052849
 -0.26443946  0.01405314 -0.47480306 -0.15275617  0.16676167 -0.9109845
 -0.28354716 -0.1089463 ]
[-0.84680504  1.0206163  -0.1671763  -0.12787634  0.08516151 -0.48270255
 -0.21436435 -0.5033972   0.3531041  -0.3086587   0.08862136 -0.70446545
 -0.1803123  -0.08274557 -0.03375294  0.20879301  0.73339516  0.39770243
  0.5665208  -0.01527277]
[-0.50752544  0.6912926  -0.52881515  0.14890566 -0.857137   -0.38182133
  0.00718799 -0.0908317   0.64959115 -0.36516812 -0.28429088 -0.51839465
 -0.41747084 -0.5887499  -0.32505107  0.14179417  0.65085554 -0.2634635
  0.95648235 -0.03607184]
[ 3.6898935e-01  1.4565432e-01  3.3464886e-02  3.1307775e-01
  6.8713367e-01 -8.0378830e-01  3.0778715e-01  3.4399506e-02
 -6.5643601e-02 -5.4218733e-01 -5.2668824e-04 -1.5308766e-01
  3.0151242e-02 -5.2252069e-02  6.6928738e-01  2.4865097e-01
  5.9287164e-02 -1.9164776e-02 -5.9363014e-01 -3.8509704e-02]
[ 0.26939943  0.19851224 -0.446776    0.1974424   0.22945763  0.71765226
  0.31765622  0.38073376  0.03018056 -0.07179031  0.37048602 -0.01864284
  0.15296122  0.02801432  0.6206753  -0.15863249 -0.11507836 -0.08167652
  0.0370428   0.26432553]
[-0.0986058  -0.01351888 -0.39861876  0.4778698   0.33139682  0.8621566
  0.47817037  0.23198979  0.23662414 -0.33597255  0.20652805  0.1346702
  0.01652878  0.30062166  0.46837    -0.21786042 -0.0862084   0.20427145
  0.49321333  0.23545942]
[-1.0891736   0.26117808 -0.29387742 -0.1911126  -0.4473899   0.07681932
 -0.35330522  0.06823102  0.29899    -0.34843957 -0.6723526  -0.2146028
 -0.10932934 -0.58700407 -0.28618875  0.28522238  0.8157456   0.39876285
  0.88122034 -0.48606533]
[-0.42410067  0.50042766 -0.21851772 -0.2230532  -0.01903808  0.03240325
 -0.2635945  -0.11486644  0.60622454 -0.97452575 -0.46309254 -0.3567297
 -1.1618606  -0.6418908  -0.14550628  0.08956404  0.9046261   0.13557063
  1.0984213  -0.21809153]
[ 0.60641783 -0.3678473   1.0210552   1.0012513   0.9585652   2.6158743
  1.2597568   0.9766194  -0.6209697   0.3145191   0.9906698   1.2828983
  0.44832987  0.58748794  0.6623324  -0.7848231  -0.48780963 -1.5209409
 -0.77689177  0.58389115]
[-0.09309542  0.16360635  0.23226161 -0.81879747 -0.35975504 -0.14103095
 -0.2458765   0.01188844 -0.39148492  0.7555376  -0.28523833  0.01391653
 -0.10228948 -0.06179588 -0.12582909 -0.14409558 -0.01630718 -0.20401363
 -0.34502897 -0.3714718 ]
[ 0.01043354  0.17848702  0.47324383  0.44368145  0.5047729   0.21092875
  0.3727696   0.5771674  -0.1221494  -0.14626488 -0.09248817  0.46187913
  0.0636617   0.12837867  0.25894699  0.14221759 -0.28038734 -0.00859845
  0.12970309  0.38154253]
[ 0.65331846 -0.4831421   0.43067178  1.0271838   0.2864908   0.6786152
  0.04431503  0.70430535 -0.8654694   0.5985337   0.20030749  0.51848024
  0.8586775   0.60558474  0.82128954 -0.4695648  -0.94655395 -0.48190883
 -0.73173577  1.2437986 ]
[-0.29037544 -0.12859298 -1.1096572   0.34082732  0.07288766 -0.01429563
  0.10925972  0.29044104  1.0517396  -0.51970196 -0.30272102 -0.26418155
 -0.7696832  -0.622026   -0.08572411  0.39469573  0.27534038  1.2897305
  0.586421   -0.2852876 ]
[-0.37406567 -0.20071037  0.20602283 -0.5756358  -0.62114006  0.2223927
 -0.19409738 -0.521646   -0.16258264  0.26592633  0.18295513 -0.11138247
  0.20957397  0.20010103 -0.14016443 -0.12684341  0.12894034 -0.06222881
  0.06230319 -0.12327928]
[ 0.98780406 -0.00662512  0.11523772  0.37233937  1.1363844   0.2505731
  0.29513386  0.15556513 -0.22037022  0.00309624  0.4803972   0.73221165
  0.62045205  0.19305964  0.33247557  0.17833464 -0.90422857  0.25038165
 -0.88883924  0.5319794 ]
[ 0.2501762  -1.1101853   0.31027392  0.45869884  0.29789025  0.61962223
  0.22360042  0.58640337 -0.6323908   0.33086464  0.27008078  0.56889343
  0.49354902  0.57612246  0.21385798 -0.6333638  -0.3056393  -0.34147495
 -0.17286396 -0.12518147]
[-0.2592943  -0.20185594  0.20061779  0.09005252  0.2324813  -0.06614908
 -0.20666814  0.843334   -0.211978    0.64554995 -0.26409915  0.68133664
  0.02102927 -0.12447258 -0.26905245  0.16228169 -0.2541069  -0.262304
 -0.24703622 -0.39971897]
[ 1.1678188  -1.0848006   0.43442154  0.21057609  0.18114887 -0.09590326
 -0.16283634  0.04983826 -0.601087    0.21490674  0.21964689 -0.13172743
  0.17556843 -0.1059202   0.06167836 -0.17443146 -0.5129737  -0.35792223
 -0.6332288   0.15586168]
[ 0.59821653 -1.223638    0.47058687  0.33051637  0.5245106   0.28332037
  0.34937727  0.551935   -0.61437905  0.8550644   0.34468675  0.45182636
  0.99956685  0.4608433   0.613835   -0.31897113 -0.8478296   0.00891455
 -1.0127008   0.4031923 ]
[ 0.4917159  -0.15652503  0.15442562  0.6566857   0.5028915   1.3005704
  0.50905    -0.09144107  0.20384875  0.00217427  0.18822867  0.32112586
  0.17958267  0.44660327  0.48800498 -0.24393462 -0.0864614  -0.41555035
  0.39172074  0.6882855 ]
[ 0.8510352  -0.23743843  0.8050981   1.3298563   0.9865665   1.2237202
  0.86624616  0.86300546 -0.9100725   0.3720867   0.60785896  1.2860414
  0.41382933  0.4737961   1.0287443  -0.3130312  -0.38834977 -1.4298326
 -0.9741612   0.77900946]
[-0.29394928  0.27505144 -0.90109676 -1.7479018  -1.4900212  -1.2879496
 -0.89328563 -0.5712378   0.4631569  -0.25513494 -0.88664216 -0.9786065
 -0.24486835 -0.33070818 -0.58055     0.45915988  0.48686224  1.5755491
  1.0759754  -0.72245115]
[-1.5328422   1.3682097  -0.35384437  0.0095287  -0.5290751  -0.95196277
 -0.3178877  -0.67934126  0.6023615  -1.0707994  -0.49428552 -0.20994243
 -0.69204193 -0.7600419  -0.6403595   1.4566009   0.11027854  0.7553505
  0.65520984  0.04083327]
[ 1.2531345   0.20090754  1.0080982   0.49389976  0.5753733   0.29839465
  0.46328694 -0.41738957 -0.6209418  -0.14545643  0.19303726  0.7714442
 -0.07141009  0.35458818  0.40383938 -0.34939647  0.10552454 -1.2401826
 -0.9436608   0.16970725]
[-0.8497253   1.655807   -1.1675907  -0.00966782 -0.98022074 -0.8790363
 -0.64337885 -0.8669783   1.194434   -1.0031301  -0.41628876 -1.2954273
 -1.3892114  -0.39553973 -0.65468514  1.3175116   0.99590945  0.91112936
  0.7433931  -0.52669716]
[ 1.6990368  -0.43934944  0.5836412   0.01441501  0.35825324  1.2935319
  0.16448116  0.3997755  -0.14366093  0.9144546   0.6720628   0.3258536
  0.255018   -0.26446447 -0.01832945 -0.622975   -0.7864935  -0.58090734
 -1.4872768   0.06919912]
[-0.8441284  -0.08013979 -0.6043754  -0.35294652 -0.5009003  -0.5717465
 -0.3645797  -0.2187415   0.52023876  0.07836822 -0.4930938  -0.19871344
  0.04302166 -0.19879767 -0.6555105   0.20554706 -0.21235615  0.21197711
 -0.04869415 -0.58977556]
[-0.6757065   0.46141884 -0.5712646  -0.19437256 -1.3369999  -0.37512812
 -0.39987874 -0.84923613  0.59038776 -0.76194435 -0.92612267 -0.00396128
 -0.8263339  -0.29480544 -0.4582933   0.7271474   0.8182736   0.19984625
  0.9561916  -0.60709   ]
[ 0.20091766 -0.28987145  0.46001625  0.7744497   0.18671802  0.21090558
  0.10091271  0.04501478 -0.31389508  0.10024026  0.42031258  0.1223749
  0.15349235 -0.01553854  0.39098358  0.11006659 -0.18445207 -0.37351957
 -0.01261141  0.32806268]
[-0.1279369   0.6167146  -0.65167123 -0.40614608 -1.6169946  -0.4629511
 -0.46165565 -0.53857625  0.6559363  -0.72018456 -0.9485539  -0.38835812
 -0.8250153  -0.46421814 -0.71375656  0.10630465  0.8146292   0.7371709
  1.0018647  -0.7201381 ]
[-1.3801078   1.5603831  -0.4786343  -0.38644397  0.0166131  -0.03972559
 -0.4036822  -1.2307779   0.81516564 -1.425522   -0.33281717 -0.84709764
 -0.7120265  -0.77427953 -0.40650758  1.0504867   0.6174647   0.9813777
  0.960613   -0.53155607]
[ 0.8621103  -0.4928371  -0.04677115 -0.3000108   0.78854495 -0.01834998
  0.00277982  1.121002    0.20065793  0.6152915  -0.1666968   0.2647336
  0.40979087  0.4418008   0.2174251  -0.15996636 -0.3582497   0.08088269
 -0.5869848   0.34969223]
[ 0.9092426  -0.2521355   0.13195758 -0.18014914  0.14117633  0.37260002
 -0.34370917  0.0730349   0.21588008  0.23627518 -0.17016628  0.3532907
 -0.07297257  0.16820547 -0.22140417  0.07177906  0.30981606  0.41704515
 -0.14094166 -0.17526598]
[-0.63934106 -0.26695728 -0.0938259   0.15817259 -0.5006914   0.18364522
  0.18099369  0.3282817   0.11904676 -0.33839408 -0.11393366 -0.36944845
  0.11323284 -0.02120303  0.10928126 -0.39303768  0.07704326  0.6934535
  0.5522144  -0.00625244]
layer 5 Activation
tanh
layer 6 Dense
20 1
[0.77176476]
[-0.8879413]
[1.1190056]
[1.2222742]
[0.97381586]
[1.3141292]
[1.0850904]
[1.2315197]
[-1.0786512]
[1.144414]
[1.0181736]
[1.2076023]
[1.2270446]
[1.1067209]
[1.014666]
[-1.1081885]
[-1.1228681]
[-1.1618547]
[-1.1908479]
[0.9979756]
[21.98022]
