layers 7
layer 0 Dense
20 20
[-0.33932614  0.73064476 -0.2895427  -0.5702024   1.3715413  -1.6328464
 -0.25250477 -0.19450372 -1.4274381   0.18387161  0.11502055 -0.5203044
 -0.69355077 -0.38687113 -0.56646293 -1.279861   -0.5743074   0.43529317
  0.6078686   0.5746137 ]
[ 0.63953704  0.24167071 -1.2494552  -1.956194    0.21591808 -0.19480681
  1.2899443  -0.30503678 -1.3937654   0.4393113   0.3881756  -0.03020625
 -0.04700087 -0.6824216  -1.5649981  -0.9606859  -0.48629314  0.48223758
  1.8723665   0.8476557 ]
[ 0.70939815  0.27903363 -1.8079494  -2.2612944   0.11379829 -0.43030944
  1.4830645  -0.4903855  -0.8240836   0.4152233   0.016666    0.45549032
  0.07265804 -0.59023523 -1.1449873  -1.0506833  -0.6077182   0.3447982
  1.176375    0.86585593]
[-0.8423268   1.2043288  -1.0245237  -0.17797808  1.6154262  -1.5837485
 -0.08020961 -0.03740824 -1.168964    0.07097821  0.5676243  -1.008943
 -1.0835246  -1.0754629  -1.1673517  -1.3777564  -1.2265874   0.27236223
  0.91409993  0.49102852]
[ 0.42018107  0.5502479   0.216993    2.1155136  -0.4315301   1.389835
  0.46279022  0.03387367  0.78931576  0.3855852  -0.40022546  0.11052672
 -0.9979296   0.04766962  0.41686878  0.6649952   0.46477714 -0.16652018
 -0.25989988  0.01429471]
[-1.6049223e+00 -1.8798718e-01  1.2967752e+00  2.3158920e+00
  5.5718076e-01 -4.8576679e-02 -1.3205149e+00  5.5923420e-01
  7.0377135e-01 -1.0025381e+00 -1.4070944e-01 -3.8132212e-01
 -6.4194515e-02  2.1406426e-03  7.0123541e-01  2.8931412e-01
 -2.0179857e-01  2.3657331e-01 -1.7454163e+00  3.1206065e-01]
[-1.5044649   0.44454584  1.3262522   2.7019172   0.77724063 -0.04985083
 -1.0275742   0.68161786  0.63285565 -0.67289054 -0.20245656 -0.37536514
 -0.0401039   0.08015513  0.24032713  0.8892613  -0.43972194 -0.13779424
 -1.5116768   0.0453364 ]
[ 1.5659194  -1.4510423   0.26694307 -0.7658973  -1.7081149   1.0974323
 -1.4809479   1.1743412   1.2564863  -0.98222154 -2.1037288   0.3184973
  1.4759033   1.3447983   2.0501027   1.6155099   2.5035882  -1.1995751
 -0.00989585 -2.4275107 ]
[ 5.6218493e-01 -7.1233785e-01 -1.2749818e-01  1.2926451e+00
  5.5960923e-01 -1.5763855e-03 -4.1523758e-01  5.2952945e-01
 -3.8680393e-02  1.3253200e+00 -1.1074995e+00  5.2927110e-02
 -3.4823364e-01 -9.5503563e-03  1.6604247e+00  1.7065683e-01
 -8.8248439e-02  4.2942828e-01  4.2122651e-02 -7.2193408e-01]
[ 0.24188025 -0.5946225  -0.9343204  -1.0750468   0.49633294 -0.1728385
  0.8681931   0.6512225  -0.55972743  0.23726428 -0.64986104  2.2215004
 -0.5304568  -0.26598904  0.00639078 -0.5627233   0.4336518   0.25772828
  0.83502185 -0.20266487]
[-0.08523016 -0.02437292  1.3363549  -0.99871796 -0.08807399 -0.0965877
 -0.53942543  1.907439    0.14601283  0.8381227   2.5502772  -0.8584368
  1.6559118   0.11036393  0.6121136  -0.42967185  0.15957029  0.57117
 -1.8347374  -0.04746749]
[ 0.30375075 -0.10353235 -0.9749373  -0.03349586  0.9563492  -1.4703451
  0.8844855   0.13478899 -0.60304886  1.1395283   0.42530277  0.04991095
 -0.5696907  -0.1942105   0.50273776 -0.4732012  -0.3646215   0.05882701
 -0.5641136  -0.8766402 ]
[-0.7486309   0.05141068  1.0253669   1.7737899  -0.43401954  0.6849933
 -0.60102314  0.22240235 -0.13921262  0.8173971   0.14882122  0.3104096
 -1.5726993   0.22386038 -0.3469554  -1.5116307   0.24306567  0.11288891
  1.4796348  -0.1568098 ]
[-0.30193758 -0.02365397  1.0707381   0.40115175  1.05578    -0.0476425
  0.1421183  -1.0244443   0.42776322 -0.4967621   0.2523709  -0.45198992
 -0.42503455 -0.24345605  0.49372947  0.02847699  0.3149279   0.29027563
  0.1163016   0.24693848]
[-0.28746173  0.36799648 -2.600154    0.5226878  -0.4231539   1.6032168
  1.3540798  -2.2251937   0.05724199 -0.9043156  -2.7578027   0.8377798
 -0.9991385   0.15798321  0.09568926  0.35007083  0.8162982  -0.48469895
 -0.29129452 -0.06803912]
[-0.49071157  0.558192    1.2825992   0.39423266 -2.0275395   1.2471668
 -0.23407724 -1.2372506  -0.41738608  1.2824706   2.7872891   0.34681016
 -0.5674101  -0.5820741  -0.8155681  -1.1503825  -1.5912275   0.6001252
  1.424998    0.03501916]
[-0.3296738   0.11454619  0.71863717  0.5650571   0.6159509   0.49528456
 -1.4093148  -1.3391782  -0.18936838 -0.24287547  0.29809678 -1.1047317
  0.00770635 -0.25482273 -0.60652906 -0.18905392  1.7708918   0.5576305
  2.3827374   0.32249653]
[-0.00531622  0.18544227  0.22903262  0.42664406  0.3700548   0.60758233
 -0.5941741   0.7550703   0.26829183 -0.7535052   0.66048265 -1.1944523
  0.6449341   0.05721819 -0.5696145  -0.34480515 -1.0927949  -0.12914973
 -1.078842   -0.2300394 ]
[ 0.24499616 -0.16589347  0.69149864 -0.8373393   0.3845985  -1.2289658
 -0.3865888  -0.7852234  -0.5864585   0.95343345 -0.35045993  0.36888653
 -0.32881123 -0.00816734 -0.37217227  0.02535448  0.09823723 -0.02311528
  1.3536159   0.0603994 ]
[ 0.2855522  -1.4334986  -0.35698795 -2.5155344   0.4028298  -1.3557239
 -2.8484092  -0.32361892  0.2811331  -1.1860538  -1.3135886  -0.41806516
  1.8201661   1.4310409   0.16264544  0.12870128  2.6908941  -0.59627396
  1.9404664  -1.0207702 ]
[-1.10437     1.287833   -0.8132789  -0.7953723   2.046198   -1.5947038
  1.3475792  -0.37910268 -0.8153216   0.25642577  1.0590316  -1.019681
 -0.9671029  -1.1663169  -2.1250894  -1.3852187  -2.0287285   0.57102185
 -0.1525828   1.2204069 ]
layer 1 Activation
tanh
layer 2 Dense
20 40
[ 0.20330441  0.49540806  0.5682336   0.9034613  -0.18654355 -0.03728548
 -0.3070519  -0.11040322 -0.3511286  -0.39373103  0.23461966  0.02111982
 -0.26607835  0.25334096  0.5199571  -0.02283523  0.56746614  0.4916322
 -0.42737785  0.2111201   0.2663741   0.35386634 -1.3165495  -0.26911154
 -0.5968986   0.8559297   0.13996665  0.9854179  -0.43745244  0.5221221
  0.31075105  0.6718058  -0.52363586 -0.47055876  0.9958009   0.33835232
 -0.39687338  0.09418555 -1.1203092  -0.3434071 ]
[-0.8557072   0.28812635 -0.08920785 -0.7580893  -0.21546513  0.34830716
  0.24450882 -0.6484315   0.06666863  0.718827   -0.31672633  0.34776247
  0.18663028  0.49102673 -0.072561   -0.7908641  -0.04191215  0.07185992
 -0.44161397  0.00455515 -0.07779623 -0.6877722   0.71601146  0.23162912
  0.373913   -0.8667601  -0.6839647  -0.06525055  0.3897744   0.02844713
  0.03317653 -0.3750082   0.40458012 -0.09887561 -0.66370445 -0.09973338
  0.26461747  0.16295168  1.1570526   0.15318893]
[ 0.89597976  1.7140573   1.8827672   1.0814995   0.29691774  0.6299442
 -0.16044095 -0.07811499  0.7246031  -1.192875   -0.10535552  0.09031272
 -0.28849703  0.36179996  1.338808   -0.52416635 -0.14597324 -0.12286389
 -1.0474592  -1.2286315   0.3698685   0.2587253  -1.5179844   0.45524102
 -0.20328261  1.0368677   0.50890666  0.15239637 -0.82536596  1.2705679
 -1.105255    0.66410637  0.15498726 -0.47678414 -0.46481517  0.35887203
 -0.37986016 -0.35745203 -1.8709366  -0.61379606]
[ 0.46652701  1.3079058   1.4671736   1.7661455  -0.07716168  1.3368835
 -0.30846566 -0.38012612  1.0606079  -0.46072105 -0.04633763 -1.3002136
 -0.33884454 -0.09296948  0.16160557  0.40235847 -0.39831012  0.18486318
 -0.30404088 -0.33683145  0.66171545  0.00983848 -0.89166987 -0.08481716
  0.5192379   2.47021     1.1306831   0.6283797  -0.36217943  0.5392213
  0.34035736  0.562521    0.23812376  0.00636772  1.442876    0.10813387
 -0.52091223 -0.39739633 -1.0759468  -0.18556952]
[-1.7327629  -1.4268807  -0.60930496 -0.25575346 -1.422837   -1.1264877
 -0.21618381 -0.07747165 -0.47696078  0.7124812  -0.36738184 -0.26512033
  0.389915   -0.84903735 -0.5911034   1.0631992  -0.56434196 -0.6185217
  2.4732416   1.8296816  -0.40973026 -0.70374554  2.1806917   0.4217425
 -0.3558628  -2.700488    0.49316472 -0.32365894  0.4043307  -1.7254697
  0.39237905 -0.19392882  0.58742285  0.8454703  -1.964002    0.13302197
  0.20628521 -0.17539065  2.1166058   0.70371383]
[ 0.975818   -1.3152663   0.2162663   0.39032906  0.49167126 -0.40348634
 -0.29505482  1.1210716   0.03312942  0.1499046   0.63361615 -1.5720013
 -0.5487529   0.8169686  -0.17291008  0.36712608 -0.7920271   0.29964098
  0.78512377 -0.2867031   0.2632097   0.45743316  0.40891376  0.7549084
 -0.4860556   0.00355152 -0.41351032 -0.04684384 -0.07823519 -1.2405076
  0.66364413  0.43246937  0.11173421 -0.38113382 -0.50944734  0.00997879
 -0.05302951 -0.2923129   0.06769142 -0.11011734]
[-0.7967142  -0.20060709 -1.1197524  -0.15035865 -1.1720413  -0.42514548
  0.3155193  -0.0597795  -0.4618176   1.0217094  -0.3903768   0.11973097
 -0.02628016  0.05014808 -0.77219075  1.2886281  -0.1256137   0.1420619
 -0.32513446  1.2785366   0.429595   -0.78580344  0.3527274  -0.76269233
  0.15174323  1.0244188  -1.0353914  -0.22508797 -0.5578583  -1.2260303
  0.907398    0.6640659   0.4412073   1.0196097   0.4504004  -0.40091524
  0.04190801  0.09971488  0.5011735  -0.49815825]
[ 0.91601175 -0.8207983   0.5384104  -0.00730553  0.8494928   0.30676195
 -0.7112098   1.0298946   0.6414665  -0.011173    0.56540763 -0.65667397
 -0.15841752  0.85410374  0.8832089  -0.84832937  1.1535406   0.6464856
 -0.3630413  -0.3037294   0.36987004  0.74550945  0.32406268 -0.20473008
 -0.6435023   0.63497317  0.43451756  0.14053681  0.39680853  0.49387
 -2.676662   -0.47131112  0.12293214 -1.4271218   1.2306646   0.44580087
 -0.29683298 -0.72365546  0.35850102  0.22467475]
[-0.04990394 -0.09052603  0.44718596  0.9207355  -0.294706   -0.3641027
 -0.5415202   0.3062871   0.00248669 -0.14707564  0.23153941 -0.6147801
 -1.0754313   0.45496234  0.64284194 -0.10353762  0.835281    0.7521821
 -0.20377289  0.21154255  0.65916765  0.44575775 -0.19378468 -0.28753018
 -0.64638156  0.79978806 -0.25930104  1.170545   -1.177409    0.08385845
 -0.36728916  0.5012163  -0.5019362  -0.2592444   0.5944319   0.63199127
 -0.6266943  -0.44925874 -0.85052043 -0.7643098 ]
[-0.40548941  0.80006415  0.17164665 -0.14857103  0.3696838  -0.08196543
  0.09092025 -1.0293928   0.10886557  0.14276776 -0.54854906  0.45447502
 -0.13426065  0.3346473  -0.2959958  -0.30427778 -0.8955631  -1.0497781
 -0.2914103   0.34738135  0.18166344 -0.10771703 -0.03039129 -0.5595865
  0.04894504 -0.09883633  0.7766599  -0.7182878   0.22506833  0.47426784
  0.38568035 -0.06584847 -0.15267996 -0.18497075  0.3263046  -0.46702856
  0.09156939 -0.13949144 -0.2124113   0.14221305]
[-1.738472    0.6046015  -1.9694293  -1.5603104  -0.6778533  -0.8540375
  1.3883543  -1.2846888  -1.6813455   1.4791578  -1.7039939   2.254324
 -0.02458405 -1.6854912  -1.9509053   1.6606103  -0.39124507 -0.56443006
  0.06155624  0.8042634  -0.654694   -1.0672399   0.6651422  -2.4481552
  0.90758777  1.1376679   0.69164467 -0.05599271 -0.18399766 -0.26650167
 -0.87602705  0.11541705  0.40606433  1.1777638  -0.43404937 -0.8315642
  0.27554998  1.2952311   0.6401871  -0.36845446]
[ 0.24687758  1.1519448   0.29123697  0.00175183 -0.26373824  0.62710136
  0.06809326  0.1115682   0.1258042  -0.58757985 -0.32811734  0.41909614
  0.1330383  -0.26554078 -0.04542089 -0.13027835  0.5679919   0.25604463
 -0.18481098 -0.36576617 -0.16776745 -0.14501393 -1.4783908  -0.00608161
  0.84545493 -0.04291246  0.05286825 -0.13087198 -0.0405001   0.5833573
 -0.76245385  0.7148106   1.029237   -0.19116569  0.8228304   0.04945008
 -0.11915389 -0.27972326 -0.81124187  0.29447934]
[ 4.92410630e-01 -4.28479947e-02  4.44223821e-01  1.90978914e-01
  7.49161661e-01 -2.50718236e-01 -1.65784208e-04 -9.95359778e-01
 -5.38076222e-01 -2.14369118e-01 -5.58307581e-02  6.37462437e-01
  1.21864518e-02 -1.85167313e-01  6.48505151e-01  9.42733735e-02
 -4.68123823e-01 -6.97029755e-02 -8.07947636e-01 -2.36218497e-01
  5.28918564e-01 -1.60637468e-01  1.70771345e-01 -8.28564405e-01
 -5.48780918e-01  1.15146077e+00  4.63820785e-01 -9.60222408e-02
 -1.06331296e-01  8.39378357e-01  6.12810850e-02  1.68902233e-01
  9.52990279e-02 -1.05703342e+00 -2.59681880e-01  1.36165589e-01
 -4.95043918e-02 -7.26144731e-01 -6.29318729e-02  1.01015128e-01]
[-0.10744222 -0.48363107  0.09808514  0.6995114   0.31258696 -0.19459681
 -0.27947938  0.7615026   0.20966086 -0.6402875   0.6991901  -0.32042518
 -0.83349943  0.09817672  0.3320145  -0.11852445  0.43373433  1.5047208
 -0.34582984  0.25518778  0.1047335   1.1076105  -0.47008625  0.31659117
 -0.7205772   0.6452067   0.9266181   1.1342381  -0.5032713   0.22741133
 -0.39580014 -0.03978534 -0.02689648 -0.9390221   0.6307352   1.0694394
 -0.51423645 -0.4401944  -0.74695027 -0.4381291 ]
[ 0.78103447 -1.0308833   0.11637665  1.2844373   1.4470919   1.0286402
 -1.2231747   0.1459246   1.2319505   0.02965772  1.2795534  -1.6351389
 -0.83096063  1.8111641   1.049652   -2.0181758   1.4772173   0.804648
 -1.3474439  -1.8104752   1.1178703   1.4092637  -0.14197443  0.68144184
 -1.4265572   0.46675608 -0.899378   -0.17500375 -0.8144928   0.71516746
 -0.9076444   0.38670716 -1.4317209  -0.26649654  0.37830088  1.0772238
 -0.62695026 -0.9695552  -0.33387998 -0.82404447]
[ 0.7765517  -0.2390001   0.34354463  1.4380457   0.94731164  1.3034258
  0.13414682  0.01826971  0.39871448 -0.50818235  0.34824654 -0.7984741
  0.09652014  0.7919926   0.22688147 -0.5400481   0.44118991  0.44493124
 -0.1548823  -0.8844937  -0.36790293  0.2627625  -0.36991552 -0.628528
  0.21783744  0.33809537  0.14937449  0.21624039 -0.00416714 -0.6734796
  0.32465863 -0.25581628  0.58344764 -1.4029887   0.0606905   0.13546465
 -0.20710473  0.606119   -0.59733087  0.35817346]
[ 0.615326    0.23292841  2.8318398   1.1419526   1.5971332   2.4691
 -0.6830669  -0.04806845  1.7397412  -2.6392932   1.0579965  -0.09479503
  0.24825744  1.0578666   2.8632917  -1.7316942   0.86811215  0.7548871
 -0.628903   -1.1149304   0.48899484  1.0472599  -0.33599728  1.3266332
 -1.2437875  -1.4544613   0.6395939   0.8008796   0.28469288  0.66407514
 -0.1591354  -0.561177   -1.9158932  -2.217042   -1.1057758   0.7146034
 -0.2501885  -0.08993094 -0.07766203 -0.06692007]
[-3.3736721e-01  3.8035339e-01 -4.0222582e-01 -1.0396931e+00
  4.0348649e-01 -2.4195334e-01  5.5205137e-01 -5.8219284e-01
  1.3913333e-01  5.1244590e-02 -6.9128746e-01  1.5888989e-01
  9.2052394e-01 -2.3583287e-01 -2.5408873e-01 -5.0931698e-01
 -3.6646549e-02 -8.2214248e-01  4.5262825e-01  3.6302739e-01
 -5.8513486e-01 -3.3194485e-01  9.8354466e-02 -1.4476430e-01
  7.4046379e-01 -6.7644715e-01  3.0546822e-04 -7.6125008e-01
  7.9457784e-01 -3.8001755e-01  4.2080903e-01 -8.7066925e-01
  9.0053302e-01 -1.1594839e-01 -4.3544689e-01 -8.4210348e-01
  8.7644303e-01  2.6414201e-01  2.6118448e-01  9.8852277e-01]
[-0.9946189   1.6968111   0.10514094  0.2784501  -1.5535946   0.6915535
  0.40877348 -1.3169752  -0.41314775  0.38811895 -0.284525    0.08579571
 -0.37127903 -0.47233155  0.10546397  0.59558105 -1.5528392  -0.06818242
  0.03191861  1.0677532  -0.03393021  0.21312493 -1.3173108  -0.42425933
  0.47615027  0.8330466   0.5379906   0.74082255 -0.1340098   0.45672396
  1.4653072   0.9053325  -0.21707621  0.5984786   0.9058085  -0.49123257
 -0.16219659  0.5204027  -1.201802   -0.04261947]
[-0.18841831  0.5195478  -0.02466235 -0.1989741  -0.48882332 -0.49160314
  0.7101877  -1.0345312  -0.23819083  0.5297546  -0.49763638  0.45614704
  0.5361434  -0.81196785 -0.43442267  0.89752257 -1.2237955  -1.2118748
  1.0639372  -0.16647713 -0.92520905 -0.40594938 -0.10712316 -0.16935557
  0.6125601  -0.25186357  0.7167344   0.3388706   0.04635799  0.14592247
 -0.06837913 -0.24171132  2.5129309   1.5201671  -0.15094909 -0.23998411
  0.14016134  0.7322875   0.2727181   0.5398429 ]
[ 0.12278522 -0.16938527 -0.49231803 -0.5374813   0.11341561  0.31015372
  0.39953914  0.1527825   0.12162571 -0.14052439 -0.52524066  0.2952694
  0.8764318  -0.46543118 -0.6738605   0.18406609 -0.08904264 -0.7292629
  0.90923357 -0.12817234 -1.1028748  -0.7425754   0.42042714 -0.00766032
  0.19197538 -1.0631454   0.1948322  -0.6565578   1.3455778   0.22523318
  0.09105971 -1.2035731   1.2725827  -0.21247523 -0.9480673  -0.7785474
  0.59376824  0.3779168   0.5806956   1.5323211 ]
layer 3 Activation
tanh
layer 4 Dense
40 20
[-0.53763556  1.3599825  -0.18134719 -0.01693585  0.11972705 -0.39019352
 -0.1340056  -0.1723949   0.2121229  -0.05324003  0.37637702 -1.2587138
  0.90714115  0.27735618 -0.494121   -0.17776477  0.48564857  0.2687706
  0.17280664  0.46982563]
[-0.7154856  -0.14556952 -0.7006802  -0.11222223  0.39765325 -0.78771394
 -0.4100707  -0.44382086  0.24565388  0.06254752 -0.16969448 -0.84014875
  0.6308372   0.48586023 -1.5089508  -0.82311606 -0.47195396  0.61496156
 -0.42911607 -0.3892779 ]
[-0.6677264   0.99089706 -0.22631599  0.35367227  0.4849319  -0.6721122
 -0.14505488 -0.2816963   0.40004584 -0.11876588  0.21418838 -1.6082081
  0.11677653  0.32430297 -2.6484733  -1.7271203   0.61512643  1.5371839
 -0.4133229   0.7458841 ]
[-0.1700869   1.570987    0.208181    0.37552196  0.14877397  0.12796925
  0.24557014  0.40573877  0.09679461 -0.33668742  0.2423394  -0.9912381
 -0.09351791  0.3572292  -0.9491391  -0.6158271   1.2561288  -0.12930025
 -0.44859084  0.0841628 ]
[ 0.17636324  1.633237    0.18191011  1.7535424   0.04938614 -0.7623177
 -0.24494073 -0.07127444  1.0393289   0.62664914  0.31207332 -1.1430509
 -0.12335374  0.14549686 -0.46928778 -0.02452524  1.110292    0.33902705
  0.10970726  0.93159527]
[-0.14167228 -0.03522738 -0.17941935  0.9239357   0.28058547 -0.2407474
  0.09751215  0.08994208  0.27065995  0.29548922  0.2064599  -0.7064154
  0.42062613 -0.6848664  -0.57556355 -0.3409787   0.55496716  0.831838
  0.3670099  -0.27039692]
[ 1.1324465  -0.32757068  0.64244324 -0.2483875  -0.74684983  0.29621193
  0.57343626  0.5859434  -0.5486948  -0.11881084 -0.8316744   0.11843126
 -0.7738972  -0.3586492  -0.10418697  0.3688509  -0.4751547   0.3180804
  0.6661672  -0.759499  ]
[ 0.12469226  0.23650102  0.09792627  0.4190321   0.24560319  0.18978773
  0.22030821 -0.12127176  0.9357412   0.586138    0.00202495  0.39925647
  0.13809769  0.1917478   0.25735474  0.2160284   0.5058758   0.21486586
 -0.11428767  1.0325902 ]
[-0.5061756   0.05985028 -0.42102244  0.37576103 -0.11538608 -0.26365927
 -0.24612375  0.00761941  0.31281805  1.2959809   0.4829359  -0.55669504
  0.29215214  0.5730963  -0.29762188 -0.0935658   0.5107617   0.15699522
 -0.473118    0.24883765]
[ 0.43356332 -0.7817975   0.35014796 -0.31532955 -0.37445393  0.3271277
 -0.16830748  0.03276643 -0.2849843   0.49643362  0.2596625   0.39727956
  0.19529118 -0.17579232  1.7696825   1.4541546  -0.6278126  -2.2589066
  0.05378681 -0.46822438]
[-0.9420255   1.0633551  -0.19212131  0.20844753  0.46328297 -0.29871345
 -0.369211   -0.1960093   0.55467606 -0.21462095  0.29393652 -0.24961703
  0.24235697  0.45423374 -0.27202561 -0.5829827   0.9279877  -0.37036836
 -0.30134314  0.9354195 ]
[ 0.14185289 -1.162425    0.17749913  0.20867722 -0.35718247  0.04448627
 -0.16233325  0.5313467  -0.3342697  -1.5061858  -1.0343238   0.43594378
 -0.23473167  0.08708218 -0.83424747 -0.33346692 -0.62816805  0.54982764
  0.506113   -1.6091852 ]
[ 0.5019656  -0.800252    0.62750965  0.25077176 -1.1024797   0.64153373
  0.3981971   0.5052261  -0.45717487  0.41271913  0.01073821  0.4759201
 -1.0793144  -0.7307125   0.10619646  0.6443657  -0.42611346  0.45995197
  0.99792236 -0.18197785]
[-0.3565576   0.9763443  -0.74055463  1.0035869   0.4470631  -0.5072737
 -0.01644612 -0.30092585  0.61374617  2.0388799   0.6028057  -0.2816318
  0.42757234  0.4473906   0.41623375  0.06636818  0.6385185  -0.2180375
 -0.6590884   0.50295246]
[-0.7067945   0.7687182  -0.47588795 -0.30621853  0.8527666  -0.667599
 -0.20820704 -0.4333918   0.58406925  0.35476112  1.0038021  -0.90831816
  0.35983437  0.2211552  -2.246668   -1.9768927   0.19835638  0.9839485
 -0.7081814   0.18857478]
[ 0.04429713 -1.1410677   0.5940048  -1.5948001  -0.81102204  0.40243912
  0.10446434 -0.00171417 -0.793045   -1.3003554  -0.2005249  -0.34629363
 -0.58324176 -0.36450234  0.5298046   0.49215442 -0.4004932  -1.5287808
  0.5974378  -0.7519896 ]
[ 0.00338776 -0.65362376 -0.22768863  1.8254322  -0.0074868  -0.00590478
  0.18089207 -0.02134215  0.97193724  0.66245097  0.05327509  0.41929185
  0.40037417  1.1314077   0.31988603  0.6628292   0.5738029  -0.23735529
  0.19049865  0.40066972]
[ 0.3754337   0.70367056 -0.10815356  1.235892    0.17982052 -0.47200146
  0.15622246  0.03274144  0.8039118   0.86588615 -0.03216762 -0.34340137
 -0.02504849 -0.01425323  0.03537746  0.48024336  0.7690397   0.06017519
 -0.41733328  0.8409508 ]
[ 0.30404252 -0.66749054  0.455637   -0.5492488  -0.34118807  0.3174091
  0.24228646  0.35856548 -0.39494255  0.42621696 -0.4106234   1.0946506
 -0.3970977  -0.58685446  0.4223484   0.19680133 -0.36654142 -0.34355152
  0.07365902 -0.14093073]
[-0.1392442  -0.8840998  -0.26866338 -1.5956635   0.1927593   0.85711545
 -0.01544151  0.2704237  -0.5767535  -0.39849186  0.08341902  0.57689023
  0.13447842 -0.41670942  1.2522687   0.62096786 -1.5011715  -0.24014828
  0.04359163 -0.03985151]
[-0.4928558   0.41069135 -0.42793304  0.19017807  0.67890066 -0.70358974
 -0.6773736  -0.814333    0.47221264  0.468561    0.28726283 -0.31484634
  0.81183535  0.264523   -0.14937568 -0.31127656  0.27739772 -0.2710573
 -0.7499598   0.64150304]
[-0.79193115  0.7628288  -0.23398934 -0.33434144  0.3901132  -0.5742053
 -0.6592342  -0.41300198  0.32388338  1.1374491   0.12578517 -0.43067887
  0.21540646  0.45239222  0.26619044  0.41840437  0.7058263  -0.3205226
 -0.3448685   0.2786788 ]
[ 0.3291493  -0.14586924  0.11700603  0.37856475 -0.202116    0.21564008
  0.11512835  0.2662809   0.02089653  0.32603446 -0.20403829  2.3837113
  0.14014108 -0.41587764  0.95916575  0.69636726  0.37094426 -0.5726825
 -0.01018414 -0.07213971]
[-6.95264041e-01  1.23362347e-01 -1.78262874e-01  1.35281086e-01
  6.71504796e-01 -3.94265741e-01  6.22079766e-04 -3.76309067e-01
  5.44257164e-01  8.64868939e-01  7.06098616e-01  1.15170486e-01
  9.24541950e-02  1.57138959e-01  1.57043859e-01  4.23868299e-01
 -1.00314587e-01  4.88987744e-01 -1.62547395e-01  4.32934135e-01]
[ 0.68614167 -0.80908245 -0.02984871 -0.71315193 -0.25803852  0.14717095
  0.03169513  0.37130988 -0.53576005  0.3078428  -0.1963104   0.81689745
 -0.21036929 -0.37447053 -0.23274297 -0.49218944 -0.5154315   0.02426917
  0.27738476 -0.17383648]
[-3.1462780e-01 -3.4061658e-01 -5.9205616e-01  2.4279657e-01
 -2.6812220e-01 -6.7883211e-01 -7.0333225e-01 -5.9398657e-01
 -1.4160022e-01  3.3238414e-01 -4.6453055e-02 -9.3818218e-01
  2.5231993e-01  6.8109107e-01 -1.3421859e+00 -8.9174408e-01
  1.1592498e-01  6.1397672e-01  8.8248012e-04 -1.0524471e-01]
[-0.38425523  0.00479038  0.1499445  -0.6757575  -0.56491596  0.10802513
  0.09232432  0.04949143 -1.0128481  -0.24065463 -0.17784603 -0.2057492
 -0.2912928  -0.20051485 -0.22328581 -0.13914418  0.07692179  0.05384719
  0.4466357   0.24652281]
[-0.75018096  0.68019044 -0.32949176  0.11992493  0.29468173 -0.18520743
 -0.23917685  0.07241423  0.09316619  0.08962649 -0.16668326 -0.286033
  0.52359813  0.47046447 -0.06119199  0.2803127   0.6555091  -0.38943982
 -0.81431675  0.36753395]
[ 0.70530516 -0.35533848  0.58757246 -0.30147243 -0.5343366   0.7045815
  0.6517228   0.8457505  -0.3191271  -0.20405008 -0.07154017  0.5630688
 -0.8328564  -0.43330726  0.18635094 -0.00712268 -0.48842788  0.41161084
  0.85421693  0.01045258]
[-0.48133674  0.269804   -0.01289886 -0.205228   -0.03900151  0.18770403
 -0.17532319 -0.33009717  0.17059    -0.03822913  0.27742338 -1.1907917
  0.13802278  0.62519956 -0.3935503  -0.20661373 -0.15855722  0.5790747
 -0.0020036  -0.08241658]
[ 0.17498723 -0.51261044  0.16622007 -0.52013606  0.1510549   0.15168883
  0.5462342  -0.06963374 -1.0881361  -0.8212269  -0.5907398   0.75119394
 -0.23343444 -0.7361122  -1.248263   -0.76698846 -0.38084206  1.3856082
  0.21408063 -0.82439435]
[-0.7968818   0.42348027 -0.31510463  0.36807936  0.80848026 -0.5199897
 -0.5488757  -0.27494922  0.2967064   0.07413539  0.32966292  0.074405
  0.73404425  0.5916713   0.13109411 -0.5756037   0.38628033 -0.29863754
 -0.48149237 -0.12592518]
[ 0.6378251  -0.13215765  0.6957478   0.13675743 -0.22546138  0.6732192
  0.44291773  0.6014578  -0.28682247 -1.1513073  -0.46627998  0.45061564
 -0.8285635  -0.36063156  0.16607621 -0.05989265 -0.4856263   0.10297091
  0.79689455  0.28569952]
[-0.39381683 -1.8094851   0.03427802  0.6443649  -0.14429788 -0.38704175
 -0.38034657 -0.57510287 -0.32191432 -0.78397447 -0.32343638  0.8654378
  0.36376604 -0.0592664   0.7487588  -0.3478002  -0.7837572  -0.12068832
  0.03578776 -0.59990114]
[-0.65226525  0.2616128  -0.67240876  0.14483067  0.3232935  -0.15054138
 -0.14638631 -0.32561263 -0.3230563   0.21584204  0.18616332 -0.27231696
  0.33748588  0.33781242  0.12978935 -0.479124    0.47581804 -0.17776059
 -0.19296058 -0.16575953]
[-8.9094859e-01  8.5911387e-01 -4.9370277e-01  2.8498375e-01
  7.0361000e-01 -4.2580077e-01 -2.3103631e-01 -3.3507332e-01
  4.6439332e-01 -2.5137737e-01  9.6588887e-02 -6.5977901e-04
  2.7013716e-01  4.5352694e-01 -1.9218132e-02 -8.9437294e-01
  8.2108217e-01 -3.8802525e-01 -5.2137703e-01  4.2862412e-01]
[-0.17899612 -0.8184929   0.1865843  -0.69633096 -0.41401634  0.43664527
  0.4566075   0.59048647 -0.8287458   0.24031742 -0.2278993  -0.11839095
 -0.14089176 -0.52110314 -0.06655284  0.25580296 -0.3568474   0.13290957
  0.06714961 -0.2506733 ]
[ 0.7230327  -0.29628053  0.943248   -0.08737098 -0.52075577  0.46889493
  0.47516352  0.5010674  -0.6605038  -0.24876754 -0.5770626   0.25983045
 -0.8551944  -0.40527675 -0.30941916  0.14052553 -0.4535845   0.07810954
  0.68034905 -0.5470121 ]
[ 0.38779598  0.09345037  0.12528984  0.49658346  0.05361428  0.10936765
 -0.08997183  0.0337414  -0.2920408  -0.08683711 -0.41621685  1.88683
  0.22607736 -0.6319441   0.9418287   0.56330234  0.24290167 -0.56004936
 -0.01912463  0.12111038]
[ 0.8064889  -0.24068616  0.65583694 -0.18656324 -0.44131455  0.8305072
  0.7270885   1.0203081  -0.49226952 -0.3514618   0.16693217  0.47716403
 -1.0717282  -0.8905197   0.21532926  0.5166457  -0.64494276  0.18565719
  0.80122226  0.16930875]
[ 0.8552818  -0.35686633  0.62079716 -0.34099072 -0.59644383  0.74025184
  0.4407081   0.7812023  -0.3601893  -0.2338689  -0.08100257  0.17914587
 -0.8499174  -0.5997207   0.15647219  0.31716764 -0.39612016  0.27017948
  0.59596944  0.22695675]
layer 5 Activation
tanh
layer 6 Dense
20 1
[0.11365667]
[0.0528888]
[0.2763677]
[0.12723048]
[-0.00607006]
[-0.19112352]
[-0.05647681]
[0.38582322]
[-0.03794805]
[0.10326471]
[0.11505713]
[-0.12048678]
[-0.5358915]
[0.04993303]
[-0.09530238]
[-0.04116771]
[0.05962264]
[0.08084557]
[-0.07071809]
[0.28998464]
[0.09182656]
