layers 7
layer 0 Dense
20 20
[ 0.14094885  0.16857186 -0.10381726  0.12116706  0.08334134 -0.332659
  0.01413125  0.30716398  0.09965038  0.29311836 -0.09501576  0.09696013
 -0.20234932 -0.23674497 -0.09825985 -0.24496736 -0.29123348  0.3429115
 -0.33369145  0.2611616 ]
[ 0.5549236   0.06076784  0.24405852  0.25377432  0.45415893  0.3662297
  0.39683938  0.14656022  0.3263147   0.11452741 -0.06990992  0.67807865
 -0.30761093  0.05655051 -0.09976912 -0.11515892 -0.1964887   0.00654404
 -0.62558985  0.3717464 ]
[-0.01052388  0.3585672   0.3195958   0.18436699 -0.25108668 -0.32471716
 -0.0528857  -0.22744484  0.30639085 -0.3446903  -0.16397864  0.73930293
  0.09691519  0.00965838 -0.24956338 -0.08428947  0.00177809  0.6648782
 -0.5898655   0.00359489]
[ 0.17113921 -0.4066609   0.0253975  -0.37468162 -0.08534198 -0.11175648
  0.04936469  0.04304197  0.3134159   0.03655131  0.30548567  0.24597138
  0.01645227 -0.36990923 -0.20326002 -0.22099991 -0.31880072  0.22833526
  0.18379244 -0.1932139 ]
[ 0.35226765 -0.00663355  0.11198668 -0.24275628 -0.05269061  0.32424113
 -0.20782085  0.21679468  0.23860535  0.08173435 -0.38099346 -0.24074467
  0.06506558  0.20458764  0.39338177  0.00564226  0.287578   -0.00324103
 -0.22700647 -0.06077245]
[-2.62722433e-01 -1.68493256e-01 -4.31529552e-01 -9.75599885e-02
 -4.15494433e-04 -4.29520726e-01 -1.92767054e-01 -2.76697297e-02
 -1.10588856e-01  4.06004965e-01  4.54119056e-01 -4.14938360e-01
 -1.70280948e-01 -6.19812906e-02 -1.55683801e-01 -2.29368120e-01
  2.02322960e-01 -7.27350891e-01 -1.27713144e-01 -2.49888852e-01]
[-0.34179503 -0.35284054 -0.32793042 -0.28397724  0.28796828 -0.4729234
 -0.1213762   0.21344529 -0.10300103  0.16544908 -0.07121497 -0.8588718
 -0.08802123  0.38220686 -0.08883289 -0.3798267   0.42955425 -0.07049017
  0.45365047 -0.7087453 ]
[ 0.03778961 -0.11601412  0.1920245   0.03199076 -0.1312801  -0.22266272
 -0.21764643  0.35249037  0.22995314  0.10065344 -0.27539757  0.16434263
 -0.04219708  0.25143224  0.23866303 -0.02628702  0.3339345  -0.19595489
 -0.07367789  0.08972009]
[ 0.1046358   0.08550467  0.3602981  -0.04821289  0.07781082  0.05832289
  0.00881363 -0.4239924  -0.33645803  0.24596605  0.05183979  0.46644723
  0.28825936  0.23765442  0.28955525 -0.40602797 -0.04284709 -0.03985948
 -0.22604153 -0.20837453]
[-3.4826517e-01  4.6038046e-01 -5.9372580e-01  4.6684176e-01
 -5.0563526e-01 -2.0820637e-01  5.1362944e-01 -6.6360727e-02
 -3.0569375e-01  3.5085197e-04  4.9092487e-02  1.2604602e-01
 -3.5413173e-01 -2.2833070e-01 -2.5407553e-01 -2.7081904e-01
  1.4236185e-01 -2.0668140e-01  3.1250727e-01 -1.3288631e-01]
[-0.21395259 -0.67260844 -0.0923714  -0.5824     -0.36316597  0.29028317
  0.23688756 -0.18951467  0.29982978  0.29708079 -0.31758243  0.00131654
  0.44876787 -0.28511396 -0.49550873  0.40512267  0.37665305  0.28354746
  0.73185486 -0.02770323]
[-0.21551149 -0.19670163 -0.38950568  0.36772925  0.14164245  0.49363205
 -0.27405435  0.01890939  0.46315685 -0.25027665 -0.5100043   0.9785051
 -0.190434    0.25265375  0.16136126  0.45355943  0.15382662 -0.29558024
  0.28324085  0.37228432]
[-0.2089992  -0.13570537 -0.01850694 -0.09563711  0.18433774  0.29914856
  0.0863632  -0.07729134  0.3015732   0.01303364  0.03772809  0.03644786
 -0.37379402  0.0375196   0.11986241  0.04896185 -0.42627582 -0.25785825
  0.18594977  0.06016319]
[-0.03921302 -0.58874273  0.43866268 -0.12393739 -0.19454199  0.19513804
 -0.592507   -0.23309228  0.01360604 -0.34971702 -0.25292134 -0.07197478
 -0.6488296  -0.3662688  -0.16504294 -0.6672471  -0.26002687  0.6898328
 -0.44067198 -0.12845957]
[-0.411964    0.23533295  0.18464796  0.50230646  0.7038285  -0.1772903
  0.52733016 -0.22425365 -0.40547654 -0.47900227  0.8595511   0.6030177
 -0.0667222   0.0526776  -0.06208216 -0.38030672 -0.37563467 -0.35539362
 -0.35065383 -0.36263344]
[-0.0923477   0.4693635   0.36407718  0.0415519  -0.2740271  -0.843325
  0.67736614  0.01325128 -0.618327    0.5547368   0.25929093 -0.5700493
  0.25608417 -0.10772651  0.3676439   0.0190246  -0.78764635  0.7678828
  0.35586667 -0.38821936]
[ 0.08809239  0.22749615 -0.09180817  0.14311604  0.16840722 -0.16946957
 -0.30594525 -0.09242243  0.14180997 -0.31819946 -0.05909128 -0.3392595
  0.42342314 -0.23726186  0.29411408  0.12068734 -0.15134972 -0.23547816
  0.14179952 -0.42936873]
[ 0.39990795  0.41180137 -0.04178369 -0.79461324  0.9185664  -0.24263969
  0.51787263  0.05922147 -0.14113112  0.09308517  0.01439529  0.14286111
  0.63340056  0.27770534  0.35192916  0.16143398  0.39339608 -0.16599385
  0.2330151  -0.25022548]
[ 0.07839865  0.92230695 -0.23379436 -0.31642944 -0.5653491   0.2643277
 -0.02612454 -0.02011788 -0.17112885  0.3026604  -0.32848582 -0.26871473
 -0.5044122   0.4093723   0.15547143  0.08682195  0.17252266  0.21963651
  0.31735277  0.40755382]
[ 0.20523031  0.09729895 -0.26537243 -0.24217752 -0.03039717 -0.05488673
 -0.47697812 -0.08831201  0.05871229 -0.14899676 -0.05138013  0.5877409
 -0.134221    0.32941642 -0.32070416  0.3191329  -0.01729899 -0.30445856
  0.04605176  0.6113618 ]
[-0.01405596 -0.04805744  0.10109549 -0.04615374  0.04999412 -0.15855195
 -0.0464513   0.0574542   0.06075009  0.046866    0.03233929 -0.05244676
 -0.01931694  0.04404912  0.06194125  0.01821384 -0.03304145 -0.00510597
 -0.09252715 -0.0387196 ]
layer 1 Activation
tanh
layer 2 Dense
20 40
[-0.12146904  0.06779423  0.04356473 -0.11194131  0.14671656  0.02741401
  0.05617392  0.05880183  0.1264937  -0.02981805  0.16711657  0.33472526
  0.15788105  0.05703001  0.2516596  -0.21667168  0.20658842 -0.16183627
  0.08174144 -0.10293327  0.39484453 -0.27356285 -0.28158748 -0.16747119
  0.04482243 -0.04856258 -0.30619046  0.01074979 -0.08047497  0.41770163
 -0.02369402 -0.12217642  0.19835651  0.09718816  0.38299733 -0.18694739
  0.03530855  0.08852528 -0.21967323 -0.06175406]
[ 0.4301576   0.2692156   0.08966767  0.17145672 -0.10864405  0.14408801
 -0.2021525   0.00368374 -0.20310958 -0.20095009 -0.17437972  0.44864532
  0.16413403  0.28269613  0.21329468  0.03485785  0.00685516  0.18654822
  0.4638398   0.02896309 -0.00260588  0.00302387 -0.02079518  0.26469988
  0.14315702  0.21610466  0.24108313 -0.2161152   0.28846458 -0.08796582
 -0.43089357  0.26268333 -0.2607627   0.27625042 -0.16668423 -0.07708663
 -0.8033547  -0.06558338  0.20857798  0.1929272 ]
[-0.34386915  0.21045527  0.1786316   0.12801376 -0.04928461  0.2600932
 -0.36815292  0.23301978 -0.16642714  0.31557876 -0.05674791  0.03916844
  0.2825855   0.07048672  0.03041335 -0.11505812 -0.0241774   0.04555505
 -0.24110952  0.13817732 -0.05387751 -0.09764953 -0.21004723 -0.20627879
 -0.00670042  0.12751041  0.00473535 -0.08982723 -0.23674445 -0.21441217
  0.35250223  0.07133488 -0.16005875 -0.05147771  0.13362467 -0.13380091
  0.5080723  -0.12439296  0.14549819  0.06706558]
[ 0.00424926 -0.01502753 -0.0656249   0.22963141  0.25501993  0.33413994
  0.07460058  0.2530162  -0.4339168   0.16153805  0.02937294  0.24135311
 -0.03257173  0.15204968 -0.2605406  -0.17924175  0.15548734 -0.2207906
  0.01883085 -0.09611253  0.04831303  0.45888007  0.19846317  0.2977607
  0.1360579  -0.11417511 -0.13092545  0.23090002  0.13504085 -0.34340188
  0.22709163  0.12638155 -0.29630777 -0.2974578   0.18044922  0.32924807
  0.14426136  0.27709666  0.15017252 -0.20907123]
[-0.02146092 -0.45810056  0.05403408 -0.16706468 -0.0635027   0.43402606
  0.21551895  0.1905259  -0.17930992  0.24129578 -0.11843581  0.15729293
 -0.29951268 -0.2364455  -0.00438414  0.21424912 -0.04358768 -0.18174864
 -0.22395833  0.14488782  0.00319606  0.17333007  0.07706154  0.3030216
  0.00949542  0.4154166  -0.32699618  0.2112374  -0.0493259   0.28035858
  0.53586197  0.27454525 -0.15574321 -0.24011412  0.47307304  0.2500277
  0.43488055  0.4229143   0.22124445 -0.255173  ]
[-0.18949807 -0.18284309 -0.24060874 -0.08886526  0.04002477  0.31946844
  0.17748979 -0.10147516 -0.13134041  0.02463175  0.27424353 -0.02629302
  0.3343227  -0.05538601 -0.09823791  0.00885274 -0.12583432 -0.11648185
  0.20221342 -0.19541137  0.11106703  0.12188271 -0.1978389  -0.36356542
 -0.12708677 -0.24882552 -0.23819977  0.14668448 -0.45214352  0.035535
  0.05005832  0.05212218 -0.0325773  -0.13215114  0.21698356  0.2774592
 -0.2801775   0.18956323 -0.01962207 -0.09229784]
[-0.08590602  0.12875773  0.20974998  0.1787611   0.35972315  0.2705135
 -0.07677437  0.05913976 -0.01507067 -0.07065984  0.02892751 -0.00995063
  0.22896165  0.23834704  0.01548845  0.2541417   0.11018535  0.18983692
  0.20357656  0.06644348  0.09704427  0.35289732 -0.06892467  0.3209467
 -0.01543082 -0.30760664  0.10599378  0.09546856  0.6196605   0.26501676
  0.12668139 -0.10782961 -0.08464999 -0.12271553 -0.2445782   0.14456002
 -0.10321628  0.24060166 -0.04389626 -0.03035858]
[ 0.12808894  0.1674094   0.25461665 -0.12913089  0.2194176  -0.27013037
 -0.18429363  0.10636587  0.20903164  0.13285176 -0.27177098  0.11929173
  0.19761479 -0.23260838  0.09829583  0.13343756 -0.02028416  0.15030017
  0.01496947 -0.24171011 -0.32701093 -0.1734326  -0.29140335  0.13882816
  0.01649317  0.22751291  0.05798959 -0.0479504   0.04950598 -0.10366221
 -0.01281251 -0.07663479 -0.12919733  0.05487454  0.11989317 -0.16626893
 -0.389923    0.22140741 -0.14929469  0.30898482]
[ 0.29355124 -0.04546186 -0.15998901 -0.26806486 -0.30634052  0.04953619
 -0.1081429   0.23531426  0.246859   -0.18057816 -0.30194476 -0.04199068
  0.17979217  0.1524112  -0.18705244 -0.00561854 -0.20225938  0.26097366
  0.20557348 -0.20173904 -0.27328998  0.15284282  0.14257249 -0.22696838
 -0.18835218 -0.10259842 -0.02742481  0.129738    0.02354206 -0.1817202
  0.13184494 -0.16761713  0.13628806 -0.07426519 -0.11730032  0.16963361
  0.33812225  0.23442352 -0.27802867  0.23438083]
[ 7.55630806e-02  1.93257466e-01  2.85912067e-01  1.17821142e-01
 -2.79742688e-01 -1.94778189e-01 -1.19274594e-02 -1.45325899e-01
  1.00590333e-01 -1.65084645e-01  1.59696087e-01 -1.64124921e-01
 -1.58868749e-02  3.95695865e-01 -1.38101533e-01 -7.17109144e-02
 -1.70293242e-01  2.47487098e-01  2.93430854e-02  1.06545575e-01
  1.98972255e-01 -3.18786621e-01 -9.82692465e-02  1.92981020e-01
  2.10334780e-04  1.61576077e-01  2.66901612e-01 -3.93853664e-01
  3.85913879e-01 -5.66742420e-02 -2.36460209e-01 -1.90545648e-01
 -1.66627876e-02  1.21491291e-01 -1.94729105e-01 -3.26866359e-01
 -1.03645846e-01 -5.70927076e-02 -8.52234662e-02  7.49768019e-02]
[ 0.03898591  0.07282391  0.29951575 -0.03016645 -0.10562462  0.15573299
 -0.11974429  0.10819526 -0.33369443 -0.21056584  0.14560683  0.07288991
  0.12320653  0.03695471 -0.21102105 -0.03247872 -0.03716186  0.18176161
 -0.22260104  0.02619348 -0.01118043 -0.11880308 -0.1514001   0.01273484
  0.2986343   0.23121306  0.05623807 -0.13443136  0.27126563 -0.03512124
  0.21702161 -0.22675036 -0.04646407  0.09068958 -0.38451287 -0.08215038
  0.07425187  0.10476427  0.01441904  0.1183994 ]
[ 0.30455923  0.19141547 -0.00364306 -0.1091409  -0.11630654 -0.07678483
  0.0506556  -0.1486943  -0.13938802  0.42508882 -0.03086768  0.2013266
 -0.34025803 -0.33806843 -0.2243572   0.0405499  -0.24088474 -0.18736583
  0.3547178   0.01259723 -0.0915913   0.30524364 -0.2041895  -0.26764557
 -0.15650068 -0.15048407 -0.17502101  0.3388675   0.12879957  0.02430269
  0.01348977  0.11863327 -0.22093524 -0.08171066 -0.07753479  0.04098139
  0.05688857  0.2954232   0.37122965 -0.01843753]
[ 1.94517717e-01  1.76938951e-01 -9.65735689e-02 -2.77016275e-02
  9.21234190e-02 -5.64305633e-02  4.49393064e-01  4.24084030e-02
  2.30306610e-01 -1.55265912e-01 -4.17093688e-04  4.07066852e-01
  2.19872713e-01  6.09789826e-02  7.64400139e-02  5.88154458e-02
 -2.83772498e-01  3.74261051e-01  4.36552316e-01  1.94545552e-01
  2.69983083e-01  3.10976774e-01  6.31997138e-02  2.97195882e-01
  2.05707043e-01  2.89939731e-01 -5.60017815e-03  5.84587269e-03
  7.11115152e-02 -1.15540430e-01  1.65499151e-01  2.41925538e-01
  1.89669535e-01  1.01495564e-01 -4.78726298e-01 -1.09800659e-01
  5.81088722e-01 -2.10935891e-01 -4.33295310e-01 -8.99293572e-02]
[-0.09273107  0.22406702 -0.02925229  0.17661211  0.30824846 -0.21595176
 -0.06877414  0.17168497 -0.01426997  0.22336252  0.08155096 -0.04793644
  0.00765877 -0.0807332   0.25837204  0.06332238  0.13406904  0.22945029
  0.18691362 -0.19961964 -0.05994449  0.13189054  0.09419366 -0.05761205
 -0.10742559 -0.27928996  0.2617348  -0.10260329 -0.11214572 -0.20535113
  0.07464982  0.00896352  0.08529653  0.20819399 -0.12699912 -0.27674317
 -0.29579875  0.19093877  0.08221395 -0.00043807]
[-0.20089994  0.00469618  0.09129437  0.24480945  0.05584261 -0.27064872
  0.18024637 -0.1023279  -0.07014664  0.1139989  -0.02680235  0.00288392
 -0.02999554 -0.09838507 -0.283408    0.21421146 -0.05930237 -0.21140811
 -0.06028709  0.20349348  0.06847687 -0.25850812  0.06565429  0.09147468
 -0.12215042  0.2572187  -0.0612886  -0.01798125  0.16648677  0.07763468
  0.13251907 -0.06276298  0.14342257 -0.18971929 -0.15403748  0.23515767
 -0.33401802 -0.2833474  -0.30190757  0.26881552]
[ 0.4208496  -0.01995998  0.17084482  0.03445014 -0.19015747 -0.08983187
 -0.07068682 -0.01912081  0.14017212 -0.05538492 -0.1973805   0.29207742
  0.18598914  0.1134206  -0.30293292  0.07728048 -0.0741111   0.25402245
  0.24827139  0.13630511  0.09174237  0.00215816 -0.24168438 -0.10881372
 -0.31984594 -0.1898833   0.12347832 -0.04965861  0.26600203  0.3031737
 -0.2322519   0.04731325 -0.24345961  0.16405524 -0.22711138 -0.22283265
  0.0340188   0.0153974   0.25784856 -0.03232371]
[ 0.24637091  0.09038897 -0.24158053  0.02028779 -0.0556179   0.23096344
 -0.01098806  0.05474485  0.28546137 -0.21355633  0.19679345 -0.01365712
 -0.05596365  0.00828484  0.14284511 -0.04094613 -0.33002576  0.2172325
  0.28213808  0.02073908 -0.00814656 -0.05779996 -0.04544541 -0.22893775
 -0.2416516  -0.01071764  0.27225688 -0.1472737   0.04889502 -0.23066005
  0.10013421 -0.21804376  0.0287062   0.04681737 -0.00380882  0.2995278
 -0.40291083  0.19224493  0.14485672  0.16729806]
[-0.29568234  0.31322134 -0.16958265 -0.03444763  0.1384695  -0.21306078
  0.09393939  0.26381937 -0.2534182  -0.2529088  -0.24174982 -0.21782783
  0.327197    0.03561275  0.04262704 -0.05592047  0.30081376 -0.10748469
 -0.4915108   0.06085776  0.29674017  0.23813184  0.3794567   0.17916243
 -0.29151356  0.03446098  0.33339655 -0.23530973  0.06513073 -0.32115224
 -0.06786087 -0.17005022 -0.15677886  0.02388828  0.01849629 -0.07244016
 -0.17590827  0.09535897 -0.28241655 -0.09946967]
[ 0.05400959 -0.10877404  0.32461533 -0.23496884 -0.15063739  0.07568488
  0.26976734  0.05031722  0.26684874 -0.35564542 -0.10844523 -0.02558917
 -0.10791316 -0.2114113   0.12662695 -0.04690968 -0.09363763 -0.07751749
  0.31226316 -0.2854173   0.2961089   0.0260661   0.15615416  0.02643838
 -0.09604499 -0.14134325  0.10933105 -0.39117146  0.06768339  0.12251987
  0.12129542 -0.27976653  0.14821154 -0.27338752  0.19479106 -0.25773045
 -0.4229741  -0.12186931 -0.05982784 -0.27041462]
[ 0.04319923 -0.13235147 -0.17573313  0.14718717 -0.18339798  0.17885469
 -0.04805794  0.09735952  0.16799639  0.19505064 -0.07737457 -0.14272024
 -0.10240078  0.2739747   0.124484   -0.25258246  0.06829689 -0.32646558
  0.340467    0.24548846 -0.35710517 -0.47019488  0.0405813  -0.08471315
 -0.46351597  0.24426049 -0.20460992 -0.16519894 -0.2570866   0.06288749
  0.12047269  0.12184112  0.44867405  0.2071917   0.11363227  0.1862147
 -0.21934257  0.17038846  0.2112941   0.11477922]
[-0.09170999  0.01618902 -0.01987916 -0.08350573 -0.1054764  -0.06252423
  0.14284316 -0.0148667  -0.04267013 -0.0641464  -0.02548859 -0.02148572
 -0.00831685 -0.04572351 -0.01246668  0.05932932  0.01842663  0.02199272
 -0.06396404 -0.03780095 -0.00987713 -0.00843446  0.08914173 -0.00940398
 -0.03333369 -0.02628355 -0.18227004 -0.05229563  0.08064733  0.08997224
 -0.00540305  0.03451477  0.04020023  0.04248487 -0.04360151 -0.01609082
  0.01361824  0.00753044 -0.06691023  0.02057491]
layer 3 Activation
tanh
layer 4 Dense
40 20
[-0.38601428  0.13162185 -0.24767056  0.0855385  -0.0694224  -0.25001284
  0.25130478 -0.1074394  -0.04232157  0.26101816  0.21145572  0.01083697
 -0.02522971  0.06112653 -0.07929602 -0.28751567  0.04751416  0.02769949
  0.16485809 -0.18858582]
[-0.30123997 -0.01594035  0.19805235 -0.00050545  0.09763111 -0.41176018
  0.10564036 -0.0487519  -0.09766924 -0.02896939 -0.2096525  -0.07573003
  0.01473138 -0.10043387  0.25862923  0.20963244 -0.24293454  0.14615874
 -0.10420547  0.14394593]
[ 0.1911781   0.11752835  0.0666618   0.13077493  0.33318812 -0.30242035
 -0.1018358  -0.2450204   0.11534146 -0.00242502 -0.32242095  0.11290476
 -0.11602239 -0.1378827   0.15249233  0.03737358  0.17033266 -0.15537226
  0.02184667 -0.09511037]
[-0.10512135  0.07115959  0.04744549 -0.07623247  0.14394802  0.20600574
 -0.13990371  0.32587492 -0.10763478  0.14457522  0.19776364  0.1438564
  0.00240573  0.24844554  0.2900782  -0.25477934 -0.14889482 -0.04339516
 -0.13632247 -0.2217035 ]
[-0.18161647  0.27036917 -0.23013502 -0.18109517  0.02546924 -0.1960103
 -0.24283734  0.32169247  0.13875864 -0.145242    0.18813942 -0.07654255
 -0.21122783  0.1783642  -0.06510793  0.14713515  0.07399664 -0.23616496
  0.16930646 -0.07824156]
[ 0.13692118  0.24105985 -0.18410599  0.07050954  0.09998941  0.04709656
 -0.1137693   0.10080063 -0.14395575 -0.22510129 -0.1439235  -0.12642387
 -0.07585616 -0.2204403  -0.270029    0.03734362 -0.13322727 -0.1892753
  0.06328803 -0.09986813]
[-0.00352404  0.21118963 -0.23160735  0.01109838  0.19741338 -0.05522688
  0.08774935 -0.23296821  0.07015889 -0.04386965 -0.1412634  -0.03255904
  0.07197099 -0.14517759  0.19014716 -0.10695565  0.05907767 -0.11240347
  0.04372967  0.17436534]
[-0.13312854  0.07512132  0.15679255  0.17259872  0.05096005  0.23675515
 -0.25955006 -0.10401379  0.04721497 -0.007473   -0.00175252  0.13758315
  0.12042485  0.00948827  0.15693904  0.0405804   0.15021959  0.11972492
 -0.01847877  0.07225933]
[ 0.16607875 -0.3323435   0.02209261 -0.20065534 -0.2888314  -0.29114765
  0.23011461 -0.29207245  0.00785732  0.11146067  0.18460806  0.01386998
 -0.10598768 -0.19411471  0.26602396 -0.20092738 -0.1656179  -0.25101382
  0.18951015 -0.1163527 ]
[ 0.13753887 -0.10157596 -0.10098199  0.19561689 -0.22214341  0.39833716
 -0.17550585  0.18014283 -0.02243782 -0.14854735 -0.09782685 -0.04283864
  0.1284856   0.05728427 -0.12556121  0.05555253  0.21675423 -0.15664428
 -0.06655677 -0.16115433]
[ 0.13834277  0.31785256 -0.2981674   0.18077452  0.07619692 -0.13569675
  0.24209684  0.2368479   0.0940895   0.22885835 -0.21674238 -0.00422747
 -0.10328459 -0.20835403  0.21374731 -0.03368744 -0.19208941 -0.11189193
  0.04494772  0.18290222]
[-0.18744786  0.06771778 -0.21707371  0.22265838  0.32558164  0.24673674
  0.071546    0.13310659 -0.00570108  0.44304675  0.13447303 -0.11163013
  0.09274615 -0.06585195 -0.15421832  0.06271415 -0.04603833  0.05051105
 -0.12059329 -0.27811092]
[-0.14858784 -0.25029233 -0.02627954 -0.01523858 -0.1480321   0.1011913
 -0.05094427  0.1529957  -0.24404404 -0.13281125 -0.21255007  0.05525869
  0.05331777 -0.15800117 -0.22518852  0.2789443   0.107427    0.22178316
  0.1094311   0.17819072]
[-0.02476244 -0.3715143  -0.14778958  0.20496526  0.12905551  0.13417456
 -0.004491    0.04558994  0.03444535 -0.2714507   0.22425629 -0.04045384
  0.20639354 -0.2410932   0.04971369  0.06947584 -0.2575163   0.22231898
  0.05524048  0.02566942]
[ 0.01032953 -0.16102026  0.10978334 -0.02284337 -0.13854302  0.07719526
  0.0389225   0.2446862  -0.33406287  0.30168697  0.3767962  -0.2652073
  0.07861923 -0.18316913  0.12764348 -0.14009096  0.1820722   0.14231762
  0.24672142  0.07188576]
[-0.14159292 -0.10186829 -0.01183317 -0.15960588  0.24230357  0.17949277
 -0.03247466 -0.04864119  0.02654646  0.03963746  0.2165913   0.14253068
  0.18883649  0.02722235 -0.24716358  0.24200991  0.04233321  0.13686962
  0.0603837  -0.08743568]
[ 0.20745409 -0.04384025 -0.05656125 -0.20844647 -0.1747417   0.03539335
 -0.19277623 -0.22857414 -0.15599597 -0.2195192  -0.24173711 -0.06959678
  0.03353246  0.145709   -0.10629081  0.23136796 -0.12309026 -0.08126839
  0.28783533  0.38971436]
[ 0.03307312 -0.29601339 -0.1028427  -0.3445966   0.19815676  0.06976533
  0.16970201  0.22672683  0.16560194  0.26385522 -0.17057294  0.1005059
 -0.06218621  0.25388807  0.27408427  0.16156752  0.08399775 -0.3416083
 -0.20777532 -0.22009064]
[ 0.26326975 -0.1424401  -0.07536649 -0.12184577  0.21163507  0.11798068
  0.2994485  -0.1445786  -0.12739195  0.05275173 -0.128554   -0.14603831
  0.1849638   0.07730422  0.0436985  -0.29175302 -0.03525847 -0.00395679
  0.13973948 -0.41807088]
[ 0.14487676  0.1567762   0.16197567 -0.11212929 -0.0100961   0.08174489
 -0.18244687  0.23312217  0.09507607  0.10567286 -0.17688538 -0.02958507
 -0.02193061 -0.20863165  0.15827961  0.2507513  -0.12674272 -0.23202223
  0.22454536 -0.00574337]
[ 0.06769722 -0.11661956  0.16431125  0.15316634 -0.00558865 -0.20602046
 -0.26698616  0.03798679  0.2654754   0.08087032 -0.22016312  0.1395022
 -0.17613533  0.17317303 -0.24474409  0.31226635 -0.02928811 -0.15540391
 -0.11075303 -0.1514955 ]
[-0.19377153  0.16224088  0.01193616 -0.2860273   0.2665932   0.08509362
 -0.13238035 -0.10212855 -0.09899425  0.0287418   0.19745538 -0.14435229
  0.20699643 -0.22035252 -0.09594803  0.08190416 -0.16083091  0.01237251
 -0.14286356 -0.17908928]
[ 0.05882215 -0.18582663  0.1569351   0.04584616  0.11738624  0.01783742
 -0.02835771 -0.20472123  0.18749173 -0.3879991  -0.15730564 -0.07256161
 -0.29115087 -0.25467157  0.03090206 -0.04676582 -0.00771952 -0.07288214
  0.19321495  0.08647163]
[ 0.25437993 -0.29153427 -0.10405011  0.04328255  0.3437675  -0.28827703
 -0.279262   -0.08809677 -0.26992235  0.21476601 -0.21465665  0.16589393
  0.20565225  0.19261847  0.3177343   0.12525892  0.09829701  0.15998912
 -0.21010666 -0.03789205]
[-0.26144     0.21865751  0.11621202 -0.23048177  0.35312146  0.04393185
 -0.0440212  -0.01061945  0.18346523 -0.2810203   0.19400415  0.1490955
  0.01910202 -0.22210309  0.11512771  0.12051074 -0.05331768 -0.08896389
 -0.07001106  0.17490087]
[ 0.23329732  0.18287915  0.1996425  -0.10473346 -0.05416001  0.03076853
 -0.10522985  0.13456666  0.06478707  0.4069494   0.02065943  0.19909665
 -0.1507298  -0.09604295  0.14651284 -0.11030293 -0.11860222  0.04030037
  0.3608636  -0.20822318]
[-0.17389813  0.04960309 -0.23363456 -0.04116704 -0.09643782 -0.3359956
  0.07014557  0.2140052   0.19276561 -0.30798092 -0.03134646 -0.06613412
  0.16151679  0.00911381 -0.07926088 -0.01480934  0.20384265 -0.04645484
 -0.0795709   0.11030883]
[ 0.00931743  0.3266608   0.30085015  0.09821874 -0.00073142  0.3552998
 -0.16007686 -0.01838581 -0.0720569   0.25355643  0.00536249  0.08392869
 -0.26962575 -0.05820056  0.14086369 -0.22534347 -0.12697004  0.27267796
  0.17369585 -0.19889836]
[-0.02566819 -0.32451645 -0.19682983  0.22801231  0.35367608 -0.12857223
 -0.17140909 -0.2378175  -0.1066782  -0.20919809  0.26815662 -0.268908
 -0.19413103 -0.14067163 -0.2736172   0.13453022  0.0023825   0.1839024
  0.0717127  -0.14214683]
[ 1.1701992e-01 -1.5119880e-01  6.8373218e-02 -1.4157173e-01
  1.7986795e-01  4.9629700e-03  4.8508484e-02 -2.1851763e-01
  6.5063111e-02  2.5898993e-01  2.0147666e-01 -1.5139335e-01
 -1.0385487e-01  1.7999756e-01  2.1267989e-01  2.5305891e-01
 -7.2932489e-02 -8.6662651e-05  4.0307492e-02 -6.9988747e-03]
[-0.05681109  0.30134022  0.02695161 -0.02386885 -0.02838913  0.28995904
 -0.15355967  0.00287032 -0.02583632  0.34995246 -0.27935687 -0.08017509
 -0.05425911  0.32015786 -0.12895612 -0.03392677 -0.21527782  0.15409853
  0.23937698 -0.04251309]
[-0.03097804  0.12226731 -0.21670379  0.11755687  0.00405977  0.11678811
 -0.1227382   0.17833976 -0.02979148  0.28997937 -0.21235472  0.10279182
  0.04154562 -0.24923429  0.14651902  0.20454714  0.11426692  0.09585101
 -0.01419992 -0.23250008]
[-0.17077485 -0.14146437 -0.09753107  0.12982896 -0.17828584  0.01158412
  0.14800848  0.03239757  0.12130988 -0.08254907  0.136924    0.09738833
 -0.02202348 -0.27266297  0.02064596  0.20165561 -0.15491527  0.23943119
 -0.18155466  0.16261837]
[ 0.0431337  -0.21443269 -0.19608234  0.16461176 -0.07690464 -0.08470389
  0.14796977  0.167127   -0.29250056  0.16365986  0.08355459  0.20502433
  0.00330604  0.2456598  -0.01022192  0.26078263 -0.49891514 -0.18447776
 -0.09744144  0.07876299]
[-2.2468452e-01  1.4151277e-01 -1.1453430e-01  3.2095961e-02
 -3.4259757e-01  3.8375250e-01 -2.3684993e-01  1.3755989e-02
 -2.6544694e-02 -1.7525043e-01 -4.6858280e-03  1.4100723e-01
 -1.0242584e-01  3.5573562e-04  1.1348196e-01 -1.1171592e-01
  6.1351016e-02  7.9243042e-02 -7.0555657e-02  1.9450675e-01]
[-0.10076166  0.13311714 -0.18013471 -0.23788622 -0.12750465  0.21898343
 -0.2684088  -0.05286258  0.2556306  -0.20583439 -0.2809252   0.05263201
  0.13723458  0.29659638 -0.04019373 -0.19546352  0.07348294 -0.23402199
  0.01327475 -0.1700656 ]
[-0.01554557  0.05117372  0.01730503 -0.1577266  -0.20582117  0.25413907
 -0.20108767 -0.32075107 -0.03868214  0.21689405 -0.22667752  0.32167313
 -0.11011215  0.11048289  0.15178747 -0.07759741  0.11961836  0.11203451
  0.01126888  0.30281538]
[ 0.02572716  0.05263129 -0.0007617  -0.06730691  0.02561576  0.22022863
 -0.107963   -0.22758323  0.25958714 -0.1352031   0.2170959   0.21087344
 -0.02634721 -0.22740133  0.24886654 -0.03246427 -0.23107526 -0.12020457
  0.01970319  0.00768588]
[ 0.23690493  0.25967377  0.31287327  0.07493205 -0.2768696  -0.09556761
  0.10673088  0.23818246  0.12848431 -0.0018267   0.05131419 -0.02982274
  0.01577796 -0.16086207  0.14273462 -0.24484494  0.06328858  0.25284472
 -0.19188109 -0.19806243]
[-0.0836626  -0.07574105 -0.08222422  0.26040837  0.03971043  0.27978766
  0.06932987 -0.04292211 -0.02380716 -0.27628133 -0.09227356 -0.00505345
 -0.16911149 -0.09967136 -0.21025352 -0.21184584  0.13479841  0.24089614
 -0.10967218  0.19568324]
[ 0.00190402 -0.01853088 -0.01235209  0.05863182  0.037852    0.00196196
  0.00640737 -0.07732652 -0.0222924  -0.02679623  0.03481935  0.03260068
  0.00069806 -0.03346523  0.02815944  0.11128208 -0.05377547  0.0445529
  0.06186838  0.01994021]
layer 5 Activation
tanh
layer 6 Dense
20 1
[-0.002994]
[-0.12242106]
[0.00393348]
[0.00114383]
[0.12448964]
[-0.09133821]
[-0.1846344]
[0.05770979]
[-0.01370274]
[0.0448681]
[-0.00757829]
[0.00552398]
[-0.00206277]
[0.00751804]
[-0.01061301]
[-0.05539414]
[-0.00188404]
[0.00686091]
[-0.0014873]
[0.16572283]
[-0.04988717]
