layers 7
layer 0 Dense
20 20
[ 0.31582043  0.4650434  -0.5474248   0.4565599   0.6326227   0.06374886
  0.2928616   0.35086733 -0.2323066  -0.40921178  0.0954965  -0.09094857
  0.2786122  -0.3293865  -0.19181788  0.34810865 -0.0077848  -0.32019508
 -0.16018127  0.21588996]
[-0.33138227  0.9158074  -0.1686901  -0.17620848 -0.06647848  1.4754097
  0.5870393  -0.6988656  -0.45162174  0.45121953 -0.78969836  0.59524596
 -0.4887814  -0.6671595   0.4181527  -0.36463824  0.14125477  0.26272455
  0.7505078   0.11276629]
[ 0.03233802  0.6263939  -0.3445699  -0.17802443 -0.271791    1.3020462
  0.6541334  -0.21071868 -0.66926146  0.42240822 -0.5559244   0.3029665
  0.03362488 -0.7481987   0.56525785 -0.77739745  0.39608765  0.35306665
  0.7110224   0.4247102 ]
[-0.3864566  -0.10740245 -0.08151172  0.15037423  0.6014523  -0.3229527
  0.07090914 -0.16639368  0.21365999 -0.23377755 -0.15555719  0.38058108
  0.44913486 -0.01263443 -0.14688578  0.07117388 -0.14270502  0.17693517
 -0.16416444  0.16391833]
[-0.1593506  -0.08416626 -0.4762275  -0.30166215 -0.2911481  -0.23747647
  0.71426374  0.30192584  0.29773775  0.16514403  0.23399065 -0.30177584
  0.0834718  -0.34756926  0.29502046 -0.00735863  0.0800442   0.5287107
  0.31404915  0.23158562]
[-0.12558433 -0.4400809  -0.02989189  0.10331753  0.560059   -1.7120147
 -0.3536303   0.80637264  0.8326513  -0.67165476  0.1133471  -0.20981154
  0.6122867   1.1304966  -0.5680111   0.17559738 -0.4398947  -0.32088587
 -0.917435   -0.4931605 ]
[-0.1953707  -0.3626113   0.24316365  0.3027478   0.11878948 -1.3327658
 -0.5913776   0.5333198   0.48097292 -0.33424565  0.8056952  -0.8654548
  0.8267454   1.1887752  -0.816307    0.600032   -0.30223987 -0.6267569
 -0.79651594  0.02338016]
[ 0.64683926 -0.37386358  0.65314823 -0.30708268  0.26033357  0.47395322
 -0.49588603 -0.44758433 -0.6024202   0.34310925 -0.3020985  -0.2813461
 -0.43744078  0.6948655  -0.10730172  0.042256    0.33993247 -0.01746045
  0.3616519  -0.5970674 ]
[-0.27513245 -0.21627617 -0.2554992  -0.49489772 -0.18507007 -0.20834954
  0.00906542  0.43165883 -0.21188268 -0.05368483  0.21587272 -0.1090358
 -0.5371131  -0.18743065  0.50281334 -0.68591243  0.2346475  -0.38636225
 -0.02809328  0.21158615]
[ 0.9209083   2.0401373   0.32579422 -0.5323568  -0.38035464  0.60249674
  0.06031853 -0.4483386   0.4697586  -0.10730531 -0.27346274 -0.29856712
  1.4746158   0.892636    0.25007883 -0.05525989 -0.48975113  0.36582035
  0.43088618  0.1465337 ]
[ 0.16152368 -0.40178493 -1.2503772  -0.2671581  -0.15797569  1.3993893
  0.6407513  -0.47905788 -1.2639608  -1.7744867  -0.5984548   0.665294
 -0.09803484  1.277055    0.06399917 -0.25200033 -0.53537405 -0.14360705
 -0.7399227   0.25266868]
[-0.03633231  0.58507323 -0.9503555  -0.89186925  0.7074793  -0.29773998
  1.0404494   1.195247   -0.51915014 -0.52079666  0.26061097  0.2031639
 -0.27769732 -0.60144615  1.1272683  -1.4395983   0.6900373   0.40874073
  1.7140149   0.86275625]
[-1.240886    0.19798797 -1.3253056  -0.30292505 -1.1080773  -1.1478888
 -0.3666866   0.46876535 -0.24098235 -0.34963983  0.33947957  0.16868153
  0.14049359  0.6395853  -0.97796065  0.11896742 -0.45642743  0.48604077
 -0.54903424 -0.13981229]
[ 0.02577706 -0.8802192  -0.10696972  0.07855685  0.09141954 -0.18988198
  0.33031118  0.02310704  0.4999964  -0.5200663   0.19079962  0.16182111
  0.1431647  -0.63828164 -0.01562395 -0.00873889 -0.255956    0.28964302
 -0.4302474  -0.15601589]
[ 0.3028071   0.27287614  0.354247    0.5023363   0.23160426 -0.12857689
 -0.41286263 -0.13080445 -0.56120855  0.09451992 -0.1164702   0.31440768
 -0.08398718 -0.57842624 -0.03480739  0.24367991 -0.09553678 -0.04556052
 -0.31080294  0.10106505]
[ 0.112213    0.26598462 -0.22549555 -0.47125182  0.76473534  1.1131415
  0.79705256 -0.17526886 -0.54232335 -0.09008106 -0.25804213 -0.10795137
 -0.6449717  -2.4798934   0.76658183  0.5801567   0.19381079 -0.6348063
  1.0152683  -0.17612293]
[ 0.9185737   0.21423732  0.7398446   0.37575242  0.5127518   0.69323057
 -0.14889812 -0.68393457  0.53733784  0.5239854   0.02101781  0.14223273
 -0.26381814 -0.10701031  0.6119734  -0.06810912  0.3119526  -0.4649096
 -0.0081782  -0.50130343]
[-1.8625454  -1.0124674  -0.9806659   0.9524303  -0.00560869 -0.69540685
 -0.21363348  0.33697173 -0.4300744   0.592243    0.16240416 -0.10590941
 -1.3890781  -0.687068   -0.31938612 -0.1309667   0.79506385 -0.72555757
  0.84907687 -0.43596083]
[ 0.1232716  -0.28830722  1.0136604  -0.71837777  0.16893062 -1.3451644
 -0.39377695  1.0942533   2.185407    1.4155546   0.14322987 -2.774448
  0.9212053  -0.11903691 -0.13377525 -0.00470657  0.1680096   0.5642932
  0.9048839  -0.9665108 ]
[ 1.106155   -0.04581714  0.9810009   1.4519919   0.64047176  0.15371098
 -2.6568837  -2.0522542   0.01469474  0.93715954  0.67384505 -0.38281104
  0.28377867  1.5696454  -2.0345607   1.2919806  -0.8722065   0.21219385
 -2.1253996  -1.2678329 ]
[-0.08128802  0.07253724 -0.20232825  0.04963247  0.16186626 -0.01773329
  0.09264793  0.3978803   0.05350351 -0.31447414 -0.02646035  0.1140566
  0.24132173 -0.22806086  0.12001325  0.09193223 -0.05438296  0.05357299
 -0.07696191  0.26950252]
layer 1 Activation
tanh
layer 2 Dense
20 40
[-0.0774796   0.14835179 -0.76302856  0.12165432 -0.14980015  0.64220333
 -0.45569488 -0.24719727 -0.20671868 -0.33993402 -0.01924773 -0.17089805
  0.38231242 -0.17916632 -0.06008643 -0.01975494  0.06116831  0.24849
 -0.27525306  0.11434188 -0.553249   -0.1295466   0.83731073  0.08157792
 -0.04163957 -0.17415151 -0.28735933 -0.3980761   0.8521922  -0.15263878
 -0.30180955  0.16602476 -0.03363162 -0.31046176  0.0223788  -0.3146339
  0.09637062 -0.00695545 -0.4033697   0.23510744]
[ 0.1699574   0.62041616 -0.3697208  -0.01051577  0.5293778   0.13607438
 -0.6495892  -0.00496668 -0.00268552 -0.3748239   0.27920762  0.16124593
 -0.42174217 -0.37886217  0.66973984  0.19197032 -0.02371161 -0.1020423
 -1.1188892  -0.05327013  0.37608612 -0.04689914  0.26974592 -0.23423736
 -0.8275743   0.18325137  0.30795738 -0.35654068  0.05343115 -0.23860432
 -0.24470708  0.21122137 -0.13773088 -0.4069336   0.01680564  0.29241404
  0.30141756 -0.08914288 -0.11297854  0.0917638 ]
[-0.07824694  0.31562337  0.16110156  0.09266093  0.15596153  0.6796639
 -0.328008    0.06426625 -0.15139946 -0.14943223 -0.24950054  0.02000178
  0.19137056  0.60738647 -0.27324545 -0.22809885  0.09848639 -0.31111825
 -0.1871478   0.44704008 -0.61970013 -0.4157776  -0.01421668 -0.6250589
  0.22736223  0.06086157 -0.31375918 -0.38185397  0.3132402  -0.01046005
 -0.3839504   0.02474506  0.3687918  -0.3133003   0.33837795 -0.35459232
 -0.5810123   0.3203219  -0.3683432   0.1905568 ]
[ 0.06682913  0.15669663  0.33298084  0.18595195 -0.33181003  0.14306684
 -0.16317795  0.27748364 -0.03261396 -0.00475701 -0.42980358 -0.41933548
  0.08992828  0.55495274 -0.28667182 -0.18467599 -0.22741663  0.17587167
  0.31532112 -0.5282025  -0.25495058  0.17941129 -0.15841144  0.42211673
  0.22468798 -0.00185323  0.5951723   0.43964618  0.1690538   0.08338039
 -0.13036661  0.38354322  0.35081822  0.09088431 -0.13665716  0.23791134
  0.01337466  0.44681928  0.20356917  1.184918  ]
[-0.14897461  0.05529042 -0.1756841   0.0396599  -0.2373805   0.5415467
 -0.14093381 -0.32738915 -0.11058334 -0.1806405  -0.39940935  0.15599035
 -0.07113575 -0.561376    0.17932631 -0.20142324 -0.598111   -0.1296281
  0.5694344   0.04861028  0.0368695  -0.20606874 -0.14212368  0.01695377
  0.20708953  0.12952743  0.43995723  0.04279087  0.23009765  0.0662316
 -0.09188468  0.1136229   0.36755985 -0.22055265 -0.00313621  0.15229557
 -0.14268059  0.08492164  0.6418132   0.53413177]
[ 0.3047799  -0.55326617 -0.7480487   0.2307102   0.14143749  0.3023097
  0.23888548  0.12176389 -0.17200361 -0.08049383 -0.2394367  -0.40494555
  0.46450585 -0.4997149   0.6732837   0.36772546  0.3412116  -0.05203231
  0.29265982 -0.0457729  -0.07815004  0.09674153  0.28095108  0.46019465
 -0.13268836 -0.11339613  0.13216342 -0.1390779   1.0701897   0.1432583
  0.12314045  0.43319476  0.38364387 -0.5624566  -0.48281297  0.37277526
  0.43149376  0.10401997  0.30986333 -0.10934874]
[ 0.33898455 -0.2651163   0.07198137  0.12658206 -0.07446688 -0.483259
  0.00326375 -0.23621167  0.01005482 -0.04100886  0.47430435 -0.07108325
 -0.17474094 -0.7727848   0.27737376 -0.01994267 -0.7455347  -0.10855876
  0.28458285  1.1380973   0.743673    0.14149535 -0.33298454  0.5085247
 -0.75896484  0.13142139 -0.16511992  0.33870426 -0.6155753  -0.09967789
  0.8913409  -0.36244765  0.5611786   0.23902327 -0.0191842   0.3373416
  0.10884673 -0.51397437  0.7636626  -0.65729225]
[-0.11054943  0.33741003  0.3411105   0.06205743  0.4148658  -0.3567691
  0.05978543 -0.18819332 -0.20600103  0.5595517  -0.05911454  0.16354467
  0.03899276 -0.17987318 -0.35255653 -0.1189994  -0.06235196  0.08188906
  0.226935    0.28373742  0.11460777 -0.09186946 -0.11492293  0.06464444
 -0.5288008   0.11605317  0.16644445  0.01395845 -0.67418     0.23928739
 -0.16857114 -0.3451608   0.14835276  0.1030537   0.05336286  0.19025029
  0.22306131 -0.5885983  -0.01560862 -0.38582546]
[-0.47613314  0.3827271   0.33512262  0.13651936  0.60210633  0.9098735
 -0.8308304   0.527049   -0.1251542  -0.31896913 -0.10941368  0.48081475
  0.14106144  0.34683204  0.14150544 -0.4011385  -0.22655028  0.24230537
  0.68234473  1.4094026  -0.6511446  -0.65479755 -0.14129522 -0.5580777
  0.3881093   0.02757666 -0.10130215 -0.20615365 -0.0143112  -0.39916804
 -0.15990314 -0.31834084  0.45809424 -0.33935046  0.4860922  -0.16497934
 -0.36388353 -0.39997068 -0.20290159 -1.0328262 ]
[-9.6823007e-01  2.9991004e-01  2.9767033e-01 -8.0290549e-02
  4.3798029e-01  4.7410533e-01  7.6812200e-02 -1.4088672e-01
  5.7571996e-02 -5.0734486e-02 -1.3263729e-02  1.3097875e-01
 -4.4451235e-03  7.2927773e-01 -6.7320997e-01 -6.9746137e-01
  1.4644054e-01 -1.4537866e-01  5.2278596e-01 -3.5415170e-01
 -9.5623255e-01 -3.5966721e-01 -3.6533330e-02 -7.3464996e-01
  5.5596000e-01 -3.8766984e-02  1.2802635e-03  1.8135357e-01
 -2.1499473e-01  2.9043172e-02 -7.6578367e-01  1.0845654e-01
 -2.6271671e-01  3.5123792e-01  4.3351087e-01 -2.8682244e-01
 -3.9591941e-01 -4.5601547e-01 -1.2890218e+00  2.9918775e-01]
[-0.09134047  0.02024886  0.42312747 -0.0276143  -0.30629697 -0.19263768
 -0.02539621  0.3978092   0.20516133 -0.10184637  0.16304375  0.5298849
 -0.05576952  0.0708823  -0.09799389 -0.32166442  0.32515508  0.05201542
  0.3207581   0.47680053 -0.16302226 -0.18353395 -0.2364932  -0.37131384
  0.25156853 -0.12455186  0.1501225   0.25174406 -0.12613522 -0.19259511
  0.0855842  -0.2182638  -0.1308253   0.0372335   0.07789436 -0.16877222
 -0.2064353  -0.16612113 -0.34450042  0.00943756]
[ 0.64013845  0.33640373 -0.1583932  -0.00687303 -0.38440412 -0.82425785
  0.25944838 -0.1434055  -0.18682297  0.17679954 -0.14786133 -0.7915013
  0.14581348  0.28472355  0.2888981   0.24202965  0.18395214  0.20742738
 -0.17877792 -0.4540593   0.7908202   0.47441125  0.23046297  0.67982686
 -0.14664112 -0.17382245 -0.0269949   0.13168757  0.50181687 -0.14520127
  0.11590267  0.49229237  0.12590154  0.1602492  -0.56296426 -0.11475077
  0.28236088  0.1167111   0.7336331   0.7850604 ]
[-0.35230845  0.53986776  0.24198002  0.4683685   0.44579062 -0.2967202
 -0.30769113 -0.37325013 -0.26004705 -0.3574077   0.44738066  0.2972311
  0.3170727   0.36227405  0.8577467   0.3867889  -0.5116026   0.5745772
 -0.84916836  0.5677841  -0.082041    0.07803887 -0.47937262  0.11052799
  0.21041766  0.26009497 -0.241668    0.54407936 -0.39162895 -0.13944198
 -0.23951937 -0.24927525  0.8219985   0.08870874  0.12342457  0.0222351
  0.21506199  0.75458825  0.02763369 -0.62077266]
[-0.5593244  -0.52916497 -0.56527454 -0.34064934 -0.40792173 -0.56219983
  0.9928309   0.20513935 -0.25330615 -0.5901936  -0.2460132   0.40321752
  0.17474316  0.8800233   1.2461623   0.51146084  0.3627878  -0.04800159
  0.11207476 -0.05888952  0.3249005  -0.1998934   0.9519334   0.4196065
  1.4180526  -0.09164386  0.22555064 -0.1027135   0.07590067  0.15103178
  0.3731513  -0.464699   -0.41441038  0.03224333 -0.07918295  0.20618646
 -0.23285958  1.8607061   0.3249518  -0.63706714]
[ 0.34062955  0.34786996 -0.14183973  0.06861738  0.1265672   0.08861864
 -0.35914907 -0.23323435 -0.20580879  0.42726442  1.0952284  -0.4000742
 -0.24972764 -0.5954943  -0.2672441  -0.21493635  0.08536752 -0.04982245
 -0.0686833   0.31408274 -0.19418237 -0.00455453  0.50513625 -0.16171557
 -0.5162832   0.34908026 -0.565042   -0.00993053 -0.3801061   0.01755748
  0.36526582  0.04366975 -0.03106832 -0.00145153 -0.21873508  0.16857526
 -0.12047658 -0.8807132  -0.22873697 -0.5486649 ]
[ 4.3268418e-01  1.6990590e-01  5.4691873e-02 -2.3554368e-01
  1.4091456e-01  4.2558381e-01 -6.0668100e-02 -8.3758019e-02
  4.7680203e-02 -5.4986501e-01  1.3600057e-02  3.5657778e-01
 -1.3333911e-01  1.0793222e-01  4.7940275e-01 -3.3059617e-04
 -2.8907841e-01 -2.1863367e-01 -1.5464570e-01 -5.4413509e-01
  5.3247962e-02  2.0663796e-01 -6.7566812e-01  5.0379342e-01
  5.7953733e-01 -3.4648795e-02  3.0003694e-01 -4.3819547e-02
  2.3830559e-02  3.3503272e-02 -5.4836243e-01  1.6503282e-01
  5.8948498e-02  6.0753588e-02 -5.2535200e-01  6.6498920e-02
 -2.4235241e-02  5.7532811e-01 -9.4847664e-02  8.4277529e-01]
[-0.2787614  -0.2792191   0.15118264 -0.29378393 -0.04913465  0.14237618
  0.02413241 -0.13918526  0.21965575  0.30044678 -0.04368826 -0.23851827
 -0.0912115  -0.09622703 -0.58235526 -0.3258563  -0.0487893  -0.01586098
  0.5783122  -0.29615343 -0.4062206  -0.12835419 -0.22030349 -0.39396536
 -0.05036729  0.05219791 -0.1847272   0.1321422  -0.44162023 -0.02698985
 -0.10577077 -0.1713528   0.2544521   0.5423397   0.26504365 -0.1279496
 -0.11013322 -0.46673244 -0.15527296  0.09634615]
[ 0.47546136  0.4018593   0.1648998   0.18791956  0.21822505  0.00550054
 -0.34945947 -0.10267972  0.2032676   0.05777718  0.39679325  0.35654834
  0.3015616   0.28802907  0.24815714 -0.02537974  0.0054341  -0.09603187
 -0.9190512   0.53320694 -0.04674608 -0.1615217   0.42313164 -0.22618212
  0.1607014   0.23634492 -0.30756205  0.09114754  0.37741598 -0.23252907
  0.03218371 -0.33799267 -0.34780973 -0.05854486 -0.24549201 -0.02542159
  0.09981473  0.27538428 -0.09279349 -0.10479701]
[-0.2182489   0.269166    0.55646765  0.35403314  0.57334405  0.15561454
 -0.0249586  -0.11134626  0.17766713  0.542598    0.2958302   0.04027686
 -0.17895503 -0.49979818 -0.74747205 -0.5804498  -0.3254002   0.08568859
  0.23910287 -0.17253415 -0.55365396  0.14993703 -0.556496   -0.26868102
  0.09267003 -0.03503576 -0.36592364  0.35904542 -1.0629376  -0.17483586
 -0.3365595  -0.7399265   0.17974839  0.85749495  0.22469543 -0.02597025
  0.01631854 -1.3261083  -0.4152834  -1.0694277 ]
[ 0.50585103  0.7926141   0.09549626 -0.12029369  0.16405982 -0.31776023
  0.11152145 -0.16595529 -0.00158864 -0.03425356  0.23533829 -0.3345098
 -0.09937119 -0.5403448  -0.04096862  0.353017    0.02199068  0.60613143
 -0.33002067 -0.13417971  0.3009852   0.43954915  0.05770759  0.61289597
 -0.37365603  0.14631769  0.01525825 -0.1459364  -0.47559518  0.05206742
  0.14283784 -0.18982103  0.2867882  -0.14929947 -0.2833719   0.1662324
 -0.19570075  0.23260649  0.05792437 -0.32232127]
[ 0.2296997   0.25432864  0.12825051  0.08781078  0.173646    0.09469078
 -0.19682041 -0.30287665 -0.10395719 -0.18064214 -0.34180072 -0.04421017
  0.1513077  -0.02543643  0.38422173  0.16515432 -1.0925827   0.02510849
 -0.11817101 -0.0720282   0.5093574  -0.13302326 -0.6465945   0.38776365
 -0.49886072 -0.0585719   0.14962457  0.45835    -0.1497178  -0.06642646
 -0.04686572  0.09163424  1.1316378  -0.3907445   0.15744561 -0.07536066
 -0.04450656  0.03367851  0.4076373   0.07879803]
layer 3 Activation
tanh
layer 4 Dense
40 20
[-0.34438515 -0.06266319 -0.05586044  0.26320747 -0.5131916  -0.09190264
 -0.07533783  0.339565    0.09773495  0.05810978  0.5126805   0.13200192
  0.54068077  0.30657697  0.04250372  0.2566413  -0.10421543 -0.34037068
  0.32008597 -0.2933011 ]
[ 0.41464823  0.3414189   0.11234613  0.08213333  0.07416944  0.15443657
 -0.07522588 -0.3192511   0.04995231  0.14695813  0.13503912  0.00154912
  0.16245851 -0.19573972 -0.34588325  0.4158844  -0.19782817  0.07047116
 -0.12710519 -0.40536228]
[ 0.6035918  -0.23738638  0.23963848  0.30895123 -0.0154607   0.4074325
  0.43972743  0.38337448 -0.08278001  0.08968435 -0.32676858  0.02734189
  0.05040376 -0.38374546 -0.12408055  0.03325188 -0.14503798 -0.37004885
 -0.42395502 -0.5521582 ]
[ 0.09167895 -0.00161449  0.08027641  0.1574699   0.35607347  0.117456
 -0.1736367  -0.11849289 -0.14530173 -0.18784532  0.08277044 -0.0715936
  0.08779798 -0.19658335 -0.0941866   0.0595587  -0.02758339 -0.05278174
  0.09995273 -0.2576473 ]
[ 0.15748744 -0.28487816 -0.05438563 -0.02714128  0.08618373  0.07506167
  0.24928093 -0.06992936 -0.23336206  0.03029292 -0.3249706   0.3593711
 -0.00958329 -0.04099914  0.03399369  0.3651675  -0.3682892  -0.01839806
  0.15796077  0.07022593]
[ 0.04847302 -0.21195675  0.1834517   0.37765092  0.369757    0.01547358
  0.27781114 -0.30457273  0.11070023  0.07328802  0.01065445  0.36737806
  0.09847204  0.21489674  0.7090991   0.5967581   0.01537826  0.65928215
 -0.4718758   0.3037749 ]
[-0.27326342  0.17921755 -0.12843384 -0.00187413 -0.359382   -0.06728668
 -0.20762278  0.26637638  0.2590531   0.0829991  -0.12562734 -0.3233063
 -0.12344866  0.19371356 -0.33842677 -0.5137881   0.14580846 -0.38010433
 -0.27390277 -0.0620159 ]
[ 0.10094161 -0.19628812 -0.2940829  -0.10770821  0.15122525 -0.09469353
  0.1119682  -0.08978011  0.16307774  0.30432418 -0.19348402 -0.20815822
 -0.17811002 -0.10711627  0.5870827  -0.15332076  0.12018646  0.05345138
 -0.14612049  0.5143256 ]
[ 2.12982856e-02 -1.44826174e-01 -8.00279621e-03 -1.56247348e-01
 -6.61799859e-04  6.41155466e-02  1.43481404e-01 -5.02561666e-02
 -2.03110695e-01  6.42237142e-02  1.48765044e-02 -1.19699165e-01
  1.84749559e-01  1.26588896e-01 -3.54351997e-02 -3.61087285e-02
  4.41784188e-02  1.46335503e-02  1.10790007e-01 -6.73901796e-01]
[-0.27627164  0.4186805   0.37365448  0.14956188  0.590549   -0.05581386
  0.28747553 -0.24611321 -0.06308553  0.08664674  0.04105348 -0.10500614
  0.4938722  -0.16661337 -0.26606965  0.06648698 -0.3699736   0.1112368
 -0.04831833 -0.2709208 ]
[-0.24824005  0.3177798  -0.09294815 -0.02683747  0.10499084  0.32437852
  0.02496073 -0.18558775 -0.17207628  0.37452957  0.08807259  0.03914494
 -0.10729598 -0.7571149  -0.48676705 -0.13911876  0.1451702  -0.08432501
  0.2849961  -0.17969178]
[ 0.21434656  0.00641372 -0.05135182  0.2640767   0.11126764  0.42061946
  0.36971647  0.2917362  -0.00712904 -0.3941823  -0.17492495  0.08029842
 -0.49344718 -0.3371367  -0.08638386 -0.18930201 -0.19795857  0.17658609
 -0.27366477 -0.04814455]
[ 0.00315405  0.22196418 -0.22001883  0.03086023 -0.04099058 -0.42115715
 -0.09061212  0.08027519  0.26605272 -0.28105786  0.10859521  0.10255021
  0.01947404 -0.19125429  0.16548342  0.00186158  0.20986266 -0.0473382
 -0.47788414  0.5117585 ]
[-0.05595243  0.20838548  0.1098634   0.08640589 -0.16739441 -0.15164614
  0.02287172  0.5409199  -0.21839269  0.31853694 -0.37891734 -0.04015265
 -0.418161    0.2848323   0.42497626 -0.31164947  0.0631744   0.07095842
 -0.41494092 -0.09948802]
[ 0.26651725  0.24116774  0.02916406  0.07230023 -0.4231646  -0.3234677
 -0.22900444  0.15184142  0.55793977 -0.3285322   0.28375527  0.1287218
  0.04539872 -0.35196173 -0.37555784 -0.23240228  0.1703177  -0.43029132
 -0.13084093  0.02281562]
[ 0.36341757  0.07852914 -0.13217981 -0.00873457 -0.3716315  -0.12263107
 -0.18583031  0.1835202   0.18584102 -0.07474547  0.47995552  0.01367294
  0.01616864 -0.13853213 -0.25434017 -0.01200826  0.31778693 -0.25647265
  0.09685191  0.18219514]
[-0.29463956 -0.15701123  0.19128074 -0.08985171 -0.28365743 -0.22897518
 -0.06465985 -0.41739127 -0.22253965  0.7422106   0.12246223  0.01728499
  0.30140916 -0.15400276  0.13527387 -0.33862847 -0.14925179  0.06868548
 -0.19689274 -0.0137354 ]
[-0.03352629  0.33622527  0.12875368  0.24043515 -0.11448575  0.17506586
  0.05570701 -0.14615828  0.10624726  0.006373    0.03280377 -0.10886288
 -0.17254518  0.0193696  -0.12769191  0.2703558   0.03824744 -0.18021783
 -0.12633683  0.10487707]
[-0.6225912   0.04367341  0.0712269   0.19303015  0.2701069  -0.11402988
 -0.27302966  0.36883613  0.17039086 -0.6244197  -0.01171189 -0.1872497
 -0.07056163  0.0988435   0.64347315 -0.30102208  0.09506392  0.27247524
 -0.27727962 -0.03358135]
[ 0.41482934  0.16921781 -0.09108402 -0.09302793  0.23613784  0.38207024
  0.00678748 -0.3583503  -0.01087992 -0.6052252   0.1310221   0.21581095
 -0.05707511 -0.5003232   0.04749356 -0.08414456 -0.1464718   0.19988604
 -0.4636714  -0.02185857]
[ 0.12387331  0.19147277 -0.00750534 -0.17142618 -0.13174161 -0.17410226
  0.22213085  0.16419424  0.31262586 -0.08864095  0.24795835  0.19039838
  0.35969558 -0.11716654 -0.3742702   0.23304357  0.05934676 -0.295105
  0.51319253  0.14630964]
[ 0.01285235 -0.16200614 -0.13195609  0.19639565 -0.5490644   0.07529037
 -0.29411587 -0.05453837  0.01839316  0.31751806  0.4067782  -0.35757688
  0.1132633  -0.06420916 -0.17329952 -0.03240267 -0.215431   -0.2833554
  0.3265464  -0.41463366]
[-0.33622578  0.14536709  0.05701324  0.39964744 -0.03744402 -0.48034322
 -0.15369308 -0.40755668 -0.13494089  0.48012015  0.15645105  0.3419544
  0.2722824   0.0658383   0.12099354 -0.15804562 -0.05839738  0.21882246
  0.04590142  0.16119279]
[ 5.7947233e-02  2.9210219e-01  6.6850707e-02  1.0179850e-01
 -6.4732844e-01 -1.6746169e-01 -2.4608472e-01  1.8343174e-01
  4.8767793e-01 -3.1896177e-01  5.8503544e-01 -2.4783111e-01
  3.8010952e-01 -2.6621363e-01  4.6226624e-04  6.0639545e-02
  1.8574353e-01 -1.7596035e-01  2.3372750e-01  1.5875921e-02]
[-0.10945057  0.07432122  0.14074203 -0.30088305 -0.11093848 -0.19531205
 -0.27621993  0.03189833 -0.11437874 -0.2337031  -0.394453   -0.24671957
 -0.00735292  0.01364969  0.39978668 -0.54327506  0.06385937  0.18080732
 -0.53089136  0.38983768]
[ 0.04064225  0.11922403  0.24476947 -0.10377727  0.17520273 -0.02454586
  0.27184448  0.00079968 -0.21195507 -0.04400696  0.21276426  0.02254335
  0.13422534  0.09568132 -0.01091171  0.00626102 -0.35257912 -0.13403657
  0.07107501 -0.1948413 ]
[-0.14152877 -0.01113043  0.08118396 -0.1301671  -0.1599118   0.05123764
  0.11319063  0.18099873  0.17467041 -0.17905103  0.06298979  0.1932502
 -0.21785085  0.5164589   0.15954393  0.05883231  0.10297023  0.16923523
  0.01342326  0.14387617]
[ 0.00858399 -0.00754269  0.08746287 -0.40224147 -0.14282158  0.15597674
  0.00332131  0.1638882  -0.00631391 -0.55764383  0.18063039 -0.28885576
  0.00480945 -0.1827532  -0.4436564   0.2971073   0.24826114 -0.18826391
 -0.12817492 -0.30317235]
[-0.30948606 -0.16108985 -0.01130401 -0.13407758  0.08178034 -0.501983
 -0.3759103  -0.19221318  0.46356398  0.1697855   0.26426536  0.24437423
  0.40614057  0.13473497  0.5543974   0.23601088  0.15697749  0.4364003
  0.13987203  0.92193055]
[-0.06786141  0.18208584 -0.05530132  0.09214424 -0.22143285  0.02790418
  0.2628907   0.06061177  0.22979002  0.07693791 -0.01253537 -0.17331657
 -0.07756121  0.4370991  -0.11382288  0.04586966  0.09358623 -0.00372257
 -0.05368571 -0.10615699]
[-0.24758786  0.3396949   0.18215868 -0.18618706 -0.2436488  -0.17503463
 -0.23545413 -0.16163066  0.43631715 -0.3438014   0.2939962  -0.07818564
 -0.12537538 -0.5501652  -0.35039127 -0.11847186  0.31642976 -0.39074117
  0.25386384 -0.02014011]
[-0.05574232  0.16489303  0.1295112  -0.11907144 -0.2848939  -0.04026239
 -0.38163006  0.02415298  0.3445976   0.42458797  0.14705275  0.07471305
  0.3612511   0.57663584  0.1487549   0.24268383  0.22859806  0.04914528
  0.21979915  0.17004235]
[ 0.27181947 -0.28081274  0.22009192  0.4443326  -0.11098675  0.31649023
  0.04311697  0.08552783  0.03389477 -0.55225897  0.17137271 -0.00383081
  0.06102321  0.00268835 -0.23392682  0.6528702  -0.09913425 -0.00172643
 -0.09034227 -0.36203253]
[ 0.01374121 -0.04346931  0.06956635  0.23227076  0.16639183 -0.03450803
 -0.1508797  -0.1410133  -0.27221403  0.21623115 -0.25206348 -0.14663832
  0.3370833  -0.04500048 -0.26621264 -0.10403023 -0.18624581 -0.16565031
  0.06966932 -0.59919554]
[ 0.19191153 -0.09449383 -0.21893942  0.02291217  0.41000187  0.24604465
 -0.02222034 -0.01304607 -0.3754301  -0.24406779 -0.21304213  0.16538143
 -0.22883257 -0.11545256 -0.12660974  0.03937    -0.03393272  0.24726996
 -0.11447789 -0.18142888]
[-0.24743414  0.1375914  -0.07463639 -0.0218635  -0.3843849   0.32671452
 -0.04203424 -0.15528598  0.23021346 -0.1268241   0.4744606   0.3535111
  0.0946239  -0.30171067 -0.25789714  0.07351386  0.17213885 -0.16937609
  0.12836671  0.09249236]
[-2.9185629e-01  1.6572577e-01 -6.2197950e-02 -4.5361632e-04
 -5.4741704e-01  1.8377253e-01 -1.3314982e-01 -9.4857499e-02
  2.8900251e-01  2.4959770e-01  5.1837450e-01  8.5597664e-02
  1.6197874e-01  8.7031297e-02 -3.7761617e-02  7.6969884e-02
 -7.4883960e-02 -2.2189546e-01  1.7130302e-01 -1.0830521e-01]
[ 0.19444293 -0.01179096 -0.01320912  0.09859106 -0.2863924  -0.22013895
 -0.384035    0.37398803 -0.07178609 -0.25215334  0.02405584  0.27661446
 -0.2208053   0.12876648  0.09351344 -0.5570168   0.2238124  -0.478272
 -0.40274066  0.43482292]
[-0.06000293 -0.00404415 -0.03784395 -0.26430002 -0.5899288  -0.24505594
 -0.18465446 -0.07095794  0.12471429 -0.41008395  0.482878    0.08881901
  0.53107107  0.00410644  0.02455861  0.03036797  0.20523077 -0.4348201
  0.3539336  -0.07862508]
[-0.32150942 -0.121955   -0.34877676  0.07293637 -0.15901384 -0.22156624
 -0.2840652   0.29805282  0.06564219  0.14032638  0.37544477 -0.15634282
  0.63383263  0.9671764   0.3454009   0.5998288   0.08411395  0.08205213
  0.04529517  0.34363654]
[ 0.0478862   0.01057111 -0.03785082  0.01666334 -0.09576274  0.23034431
 -0.0616796   0.16132742  0.01037073 -0.43136978  0.04592857 -0.02913468
 -0.03463281  0.05427744 -0.1288261   0.5563329  -0.03756549 -0.12410733
  0.05507636 -0.20225085]
layer 5 Activation
tanh
layer 6 Dense
20 1
[0.15691805]
[-0.02462818]
[-0.01383313]
[-0.00524013]
[-0.01236817]
[0.00976344]
[-0.02217]
[0.13730094]
[-0.00299224]
[0.12806143]
[-0.00815206]
[0.01971708]
[-0.04999408]
[0.00234671]
[-0.10330388]
[-0.17560272]
[0.02119797]
[-0.1429304]
[-0.09189306]
[-0.01880117]
[0.09181517]
