layers 7
layer 0 Dense
24 20
[ 0.87864393  0.41334665  0.6762101  -0.40207496 -0.58433706  0.9471731
 -0.42980766  0.30870998  0.78766364 -0.20043278 -0.61415625  0.49240774
  0.46240094 -1.0349716   0.44894275 -0.3189268   1.4247451  -1.3037878
 -0.47654575  1.3254219 ]
[-0.08130206  0.47734624  0.26535818 -0.18484992 -0.00546661  0.17775527
 -0.23066872  0.43516344  0.18866663  0.39644283 -0.4617487   0.29900107
  0.3750067  -0.55045354  0.41964367 -0.5975263   0.2649283  -0.14989953
 -0.4302488   0.03684375]
[ 0.22803219  0.3640272   0.1440179  -0.30982524  0.17763925  0.57450986
 -0.19293962  0.30901912  0.08813577 -0.09407059 -0.57014     0.240721
  0.45383462 -0.47406617  0.32895464 -0.18944776  0.6993513  -0.198043
 -0.2113206   0.41731524]
[ 0.58380735  0.8880781   0.03832753 -0.78870225 -0.72654605  0.8345348
 -0.54077846  0.0649315   0.50684136  0.03235345 -0.39368293  0.33609644
  0.6029192  -0.6837578  -0.06507397 -0.32967865  1.1717031  -0.8733101
 -0.6522394   0.7986467 ]
[ 0.6998587   0.02329729 -0.6519519  -0.0244224  -1.0433779   0.7463026
  0.144646   -0.83580685 -0.03830043 -0.7427981  -0.6580524   1.1813978
  0.02732993  0.30192184 -1.0639293   0.44381973  1.1846718  -0.6602957
  0.70260066  0.8371749 ]
[ 0.27055982  0.31772047 -0.20197658 -0.03184602  0.22305365  0.02720885
 -0.11715274  0.37843513 -0.06011477 -0.280855    0.06642836 -0.21995695
 -0.4457648  -0.18490134  0.21301877 -0.34400144  0.4517986   0.07865487
 -0.22760715 -0.24128816]
[-0.22310318 -0.18599032  0.00500382  0.2630922   0.1241101   0.03687033
 -0.14313842  0.77291816 -0.22526796 -0.4191535   0.3709153  -0.39889312
 -0.57361746 -0.56880885  0.30765688 -0.2944537   0.5523687   0.03056502
 -0.36688566 -0.16482216]
[-0.91096437 -0.91016376 -0.6813889   0.46487224  1.0711226  -0.8975268
  0.17502213  0.35604656 -1.0486692   0.8196921   0.45372063 -1.0067372
 -0.29675013  1.2430695  -0.41693917  0.36069724 -1.7331634   1.1095017
 -0.07861824 -1.3068008 ]
[ 0.0753211  -0.45755768 -0.53050625  0.00637752 -0.49105525  0.45431232
  0.16989392 -0.64656836 -0.17378737 -0.4733566  -0.6621754   0.6258048
  0.00935413 -0.11730232 -0.5782553   0.4965913   0.74077684 -0.46844882
  0.11749619  0.17114304]
[ 1.6290586  -0.09878208 -0.20825082  0.30284792 -0.24501728 -1.7810546
  0.00893986 -0.5729839  -0.03992565  0.7007625  -1.2989095  -1.1096597
  0.08999503  0.31654072 -0.00259932 -0.08761087  0.25273988 -0.01242875
  1.5001391  -0.02149426]
[ 0.17519417 -0.1534261  -0.4074377  -0.04422783 -0.5059829   0.6752097
 -0.17475787 -0.68520427 -0.4445092   0.25517964  0.7977846   1.2578259
 -0.28448313  0.46810678 -0.5663708   0.5583264   0.39937952 -0.64318377
 -0.2480361   0.6035737 ]
[-0.56311387 -0.28522834 -0.18539618 -0.1154483   0.24513002 -1.0756991
  0.26213208  0.13847093 -0.7803178   1.4246753  -0.25159365 -1.4138191
 -0.33704957 -0.01690421 -0.22409056  0.2476438  -2.0549037   1.0360343
 -0.45305678 -1.2471083 ]
[-0.23023516 -0.2558503  -0.5557058   0.27360848 -0.2701282   0.41511703
  0.27948654 -0.3421791  -0.59275806 -0.39856657  0.25290754  0.20607561
 -0.314465    0.14803146 -0.47331977  0.4898718   0.16735801 -0.27770552
 -0.28471282  0.37184548]
[-0.6374187   0.17561229  0.2103341  -0.05017941  0.4715298  -0.47398913
 -0.27155817  0.8221868   0.16227253  0.453378    0.90515375  0.34484252
  0.25995314 -0.15514402  0.58044475 -0.44512352 -0.09399967  0.1692251
 -0.8279125  -0.550483  ]
[ 1.0303276   0.42788938  0.1166238   0.10374336 -2.433925   -0.47258824
  0.17948705  0.18383346 -0.04957562 -5.459685   -4.511679   -5.854096
  0.0551448  -2.587988   -0.04513722  0.17555596  0.25030342  2.1996875
 -0.3383276   0.2768708 ]
[-2.096249   -0.10658582  0.29741955 -0.42656195  1.136076   -1.03964
 -0.00234887  1.213335    0.00424696  1.8035728   1.3951356  -2.0056517
  0.34476498  0.09293606  0.5100166  -0.40815553 -1.773239    0.831636
 -1.9975489  -1.9830016 ]
[-0.00115993 -0.64513904 -0.49776798  0.4919478   0.41553646 -0.46244994
  0.13994153 -0.6868152  -0.6243091   0.4501323  -0.04144612 -0.3534692
 -0.54629236  0.45719257 -0.307955    0.4287021  -0.05872682  0.27080616
  0.58007973  0.12882692]
[-0.01896482  0.06822436 -0.3498645   0.24115667 -0.05074048  1.33717
  0.08719683 -0.39610797 -0.01956895 -0.54288447 -0.50205415 -0.18610899
 -0.35625374 -0.04310445 -0.25707614  0.06436977  0.54974616 -0.17475636
  0.17578965  0.16385195]
[-0.4344      0.10549674  0.08110628  0.06251492  0.5382381  -0.47672087
  0.00590925  0.8098352  -0.06452123  1.4259635   0.18080351 -0.39827368
  0.15880804  0.06376697  0.38999525 -0.39778435 -0.89323676  0.55991155
  0.2626003  -0.629956  ]
[-0.53742296 -0.601682   -0.4019588   0.5057207   1.1610376  -1.5288156
  0.52162343 -0.0260098  -0.8492585   1.1662195   0.38770553 -1.2674601
 -0.6810044   0.35888413 -0.1901147   0.55529785 -1.084025    0.02597348
  0.44050556 -1.0876397 ]
[-0.0806466  -0.0179455  -0.18027364  0.39842716 -0.19463445  0.33685473
  0.25800118 -0.5340109  -0.21061346 -0.2824349  -0.41087952  0.49278957
 -0.60525703  0.37437108 -0.4778132   0.13958745  0.2848308  -0.31256458
  0.58750117  0.35762012]
[-0.2971467   0.00691002 -0.34401634  0.15596066 -0.35540527  0.00176772
 -0.21066143 -0.4990643  -0.1086385  -0.28517     0.26095745  0.45243266
  0.06490387  0.71728903 -0.30256143  0.47905046  0.804873   -0.97180396
  0.82218784  0.488041  ]
[ 1.7622904  -0.16590938 -0.44815293  0.1635532  -0.3898608   0.5447016
 -0.02723709 -0.9540416  -0.43135214 -0.7072683  -0.14218844  1.1783239
 -0.30862647  0.30995488 -0.52253807  0.4530138   0.7292893  -0.35826543
 -0.2992337   0.7572021 ]
[ 0.16718417 -0.44354177 -0.40713724  0.07114754 -0.43024057 -0.08857824
  0.25112915 -0.45027095 -0.2320061  -0.17158142 -0.16919988  0.3086321
 -0.40620402  0.3855412  -0.31306338  0.31011203  0.03328041 -0.27459612
  0.69789565  0.04888435]
[ 0.41721624  0.58644706  0.41988683 -0.47499192 -0.19084683  0.4103014
 -0.25203794  0.29614773  0.6015064  -0.17973404 -0.23127393  0.24018228
  0.3142784  -0.6909154   0.26552302 -0.38862988  0.48002443 -0.41789055
 -0.3516218   0.3820161 ]
layer 1 Activation
tanh
layer 2 Dense
20 40
[-5.78807056e-01 -8.22505355e-02  4.53971662e-02  6.61686540e-01
  2.77074724e-01  2.11562768e-01  3.94122183e-01 -8.24337423e-01
 -1.18881464e-01  1.17743224e-01  1.10540539e-01 -1.33963913e-01
  3.41652870e-01  4.32925403e-01 -1.57479018e-01 -3.45105678e-01
  6.89377487e-02 -3.00459772e-01 -2.03996867e-01 -1.09876148e-01
 -3.54131103e-01  2.68507004e-01  2.84902662e-01  4.87395674e-01
  2.34570689e-04 -9.70277097e-03  9.30911064e-01  4.93368298e-01
  3.50901604e-01  1.27386913e-01  1.97886825e-02 -1.51914418e-01
 -4.48670894e-01  3.82740438e-01 -1.39109552e-01  9.68329608e-02
  3.12246811e-02  3.01573979e-04  2.85880744e-01 -3.42785150e-01]
[ 0.47182003 -0.07870505  0.7421814  -1.0710528   0.01813949  0.00454666
  0.62516874  1.1375734  -0.14620157 -0.5387485   0.17798154 -0.67806023
 -0.00870047  0.39450407 -0.45116642  0.13217592 -0.16992141 -0.48074067
  0.01350787 -1.499521   -0.30829123  0.4545202  -0.5830796  -0.4273145
 -0.5671054  -0.5465366   0.5477876   0.3351288  -0.9245676   0.2570451
  0.52436703 -0.3582315   0.32087877 -0.03034964  0.64825493  0.08832672
  0.22766183 -0.02361386  0.3878546  -0.4366437 ]
[ 0.5782328  -0.21196243  0.68451107 -0.82275593 -0.22404882  0.28804624
  0.24315473  0.5470898  -0.3439009  -0.4460386  -0.00717484 -0.4173626
 -0.1215773   0.06418449 -0.45308387  0.22799464  0.40187088 -0.43393722
  0.10406312 -0.9645426  -0.23020083  0.09620696 -0.50856245 -0.66425264
 -0.40415728 -0.29675174  0.27996498  0.15100309 -0.8408737   0.37155575
  0.12236401 -0.20758106  0.55414665  0.0161294   0.34421486  0.19719712
  0.06545051 -0.05111438  0.01850988 -0.19564085]
[-0.41025954 -1.1699601  -0.10078333 -0.02794268 -0.02893098 -1.0416769
 -0.01401534 -0.47511092 -0.06254037  1.0764874  -0.6123255  -0.0604732
 -0.03010622 -0.11639664  0.1897592   0.6002338   0.18100378  0.33800703
  0.94411016 -0.05598214  0.140783   -0.03926795  0.88000107  0.10246988
  0.83363557  1.2581444   0.1748248   0.15269282  1.0424787   0.05427187
 -0.6401643   0.04620836 -0.29507622  0.39113334 -0.33888814 -0.13347588
  0.21125433 -0.2953969  -0.00176216 -0.115224  ]
[ 0.25790748 -0.26694033 -0.12069616 -0.03945338 -0.00874323 -0.53474325
 -0.2608868   0.58812594  0.24709584 -0.13378249  0.1713338   0.64139575
 -0.17748778 -0.19501995  0.48661304  0.46201006 -0.13717273  0.2351756
  0.4821075  -0.19945651 -0.11771049  0.02555657 -0.11383843 -0.06665905
 -0.02903411  0.88563687 -0.50685364 -0.5796535   0.42999282 -0.3085855
 -0.18072425 -0.30120546  0.45021635  0.2057742  -0.02059268  0.1719054
 -0.12833893 -0.11498882 -0.18823096 -0.16620669]
[-0.8409289  -0.01652222  0.82740176  0.5783608   0.72816813  0.3222495
  1.0278686   0.25787312 -0.57748854 -0.46734887  0.04991685  0.06963336
  0.30982152  1.0317242  -0.45891562  0.57514256  1.0512636  -0.8169068
 -0.05516374 -0.50386    -0.62563044  0.7586344   0.21705213  0.41652808
  0.07051568  0.21665761  0.8380426   0.08721835 -0.089445    0.82615924
  0.06711168 -1.0295987  -0.44126388  0.5385095  -0.02512726  0.8826829
  0.7028686   0.3002495   0.79552674 -0.7909587 ]
[-0.62347645 -0.2912368   0.04082157  0.5323823   0.09697699 -0.46149457
  0.14036863 -0.41794622  0.09165298  0.45607302 -0.5958787   0.58752614
  0.5935752   0.00513481  0.5854874   0.11542919 -0.2193028   0.37650746
  0.25351638 -0.02100402  0.2352404  -0.26988614 -0.01012503  0.82042867
  0.08886804  0.4916605  -0.12255748 -0.04345935  0.6728962  -0.04792239
  0.03665843  0.15938053 -0.7324474  -0.11049446 -0.3991359   0.07357235
 -0.5025751   0.26547065 -0.18509169 -0.05273801]
[ 0.4165665  -0.6343412   0.16102286 -1.1183516   0.04990067 -1.0197088
  0.49568292 -0.29067832 -0.34712332  0.51347697 -0.45437342 -0.5435773
 -0.74164695  0.31716084 -0.30829784  0.525192    0.52318734  0.00236902
  0.5096082   0.16726103 -0.44625556  0.33830407  0.5624118  -1.0503117
  0.46775785  0.55600876 -0.04780715  0.38919476 -0.10566538  0.40276757
  0.0306065  -0.06360011 -0.03253039  0.5800762  -0.24809653  0.4380467
  0.5551665  -0.8427789   0.665746   -0.44502166]
[ 0.29924488  0.3086281   0.34110004 -0.3309556  -0.3119766   0.9965437
  0.43843684  0.7021272  -0.28169355 -1.0364562   0.56385523 -0.3681609
  0.05733427  0.21835208 -0.38662905 -0.32353184 -0.02380643  0.12307739
 -0.5903026  -0.74766827 -0.51116675  0.5113331  -0.6459693  -0.22923462
 -0.73663723 -0.9797532   0.50378793  0.16704305 -0.7429099   0.40978163
  0.5229709  -0.32772774  0.15404616 -0.5570382   0.19319177  0.448824
 -0.4413078   0.3372132   0.5638597  -0.42368576]
[ 0.3886229   0.64911395 -1.0883765   0.485199   -0.66153497  0.28784692
 -0.7901636   0.05330693  0.84465015 -0.535907   -0.2991337   1.078493
 -0.11202952 -1.0919012   0.396       0.19732584  0.02427546  1.3787559
 -0.2437757   0.33386767  0.98364687 -0.9308673  -0.2739991  -0.27790833
 -0.3611847   0.1680102  -0.9497736  -0.938154    0.1734486  -1.0968659
 -0.2377847   0.5678424   0.7319044  -0.01381655  0.06176471 -0.8556206
 -0.5296686  -0.06420881 -0.87111825  0.845487  ]
[ 0.14975561  0.43962985 -0.5568298   0.0468182  -0.26475918  0.22609442
 -0.4862575   0.25490224  0.54880345 -0.41965383 -0.03384061  0.8462127
 -0.13675353 -0.50426054 -0.11857403  0.44513205  0.2845318   0.33005792
 -0.19207838  0.31893927  0.7985499  -0.6714823  -0.11037344  0.10072175
  0.15002365 -0.1142585  -0.3089906  -0.6830145   0.07768352 -0.54437494
 -0.16332328 -0.02419594  0.52098465  0.33579588  0.12718011 -0.841895
 -0.23092096 -0.15904547 -0.6647722   0.8165237 ]
[-0.11328322 -0.37536323  1.3013731   0.5137623   0.7939442  -0.41150203
  1.2110416  -0.3042903  -0.9744836   0.43137217  0.10755353 -0.7235695
  0.10889006  1.0802741  -0.2550491   1.010216    1.2008039  -1.2676982
  0.22110574 -0.34745616 -1.3019258   1.0702257  -0.08476934  0.40154764
  0.03263389  0.67758065  1.3521926   0.6520611  -0.00287474  1.2019503
 -0.14024651 -1.2519333  -0.38579944  1.0360501  -0.03984858  0.83352184
  1.0081756  -0.06851511  0.8721788  -1.0700086 ]
[ 0.6350673   0.5147636   0.28828114 -0.524355   -0.04825614  0.5763449
  0.25689745  0.19077078 -0.18050376 -0.40475303  0.38803542 -0.15912035
 -0.20109414  0.246089   -0.5612085  -0.2358747  -0.02857828  0.17590614
 -0.24542549 -0.23454593 -0.15166622  0.11820854 -0.10088921 -0.5112068
 -0.21529421 -0.8453245  -0.00665372  0.22564454 -0.6230942   0.44479614
  0.11724865 -0.18152978  0.09858905 -0.4154543   0.24116796  0.23496147
  0.03456393  0.17245397  0.1691489  -0.33849275]
[ 0.17292133  0.39549053 -0.5595943   0.674959    0.04123456 -0.04244329
 -0.30147758  0.2570848   0.394963    0.09576041 -0.03883222  0.70517135
 -0.03915254 -0.48787662  0.17761739  0.66101277  0.5030443   0.15101455
 -0.05569961 -0.15767375  0.26898965 -0.57040817 -0.02713069  0.3740221
 -0.05795044  0.12307481  0.12905893 -0.50822437  0.32866797 -0.16369073
 -0.17233528  0.07132824  0.44216943  0.26089266  0.14602248 -0.45507747
 -0.42255422  0.42233276 -0.3532036   0.29132086]
[ 0.44494128  0.00873464  0.2054276  -0.94491297 -0.10759678  0.47967762
  0.08102158 -0.42207706 -0.49430707 -0.42551404  0.30819732 -0.46088043
 -0.26444516  0.2909564  -0.53876233 -0.0289106   0.14148785 -0.11078949
 -0.06288025  0.09289835 -0.2141069   0.12995423 -0.1901281  -0.79253185
  0.05777493 -0.61616164  0.4948179  -0.11798375 -0.73689425  0.7115917
  0.33601052 -0.22358139  0.36107534  0.11448485  0.38637227  0.35473114
  0.32989323 -0.36103776  0.32504892 -0.16580155]
[-0.57776403  0.14379269 -0.22299261  0.69552106  0.03356108 -0.52882934
 -0.5377034  -0.08155351  0.14617147  0.40950736 -0.2705181   0.43987113
  0.445056   -0.6899891   0.66872126 -0.04297076 -0.02353461  0.13105294
  0.41694698  0.6481682   0.3741519  -0.27426732  0.13937481  0.81076956
  0.30364785  0.6733453  -0.9371884  -0.27417392  1.0157773  -0.21393038
 -0.3469882   0.44567162 -0.41595885  0.26459095 -0.26549217 -0.27683526
 -0.11151917  0.18857275 -0.0092528   0.23989058]
[-0.12775595  0.11976398  2.558692    0.17728138  0.6433689   0.19023101
  2.215661    0.08639062 -1.9970212  -0.35770854  0.3087029  -0.29594064
  0.04504231  2.4900694  -0.7324701   0.27202415  1.1624686  -1.8474584
 -0.32650793 -0.49596286 -2.31152     2.4409623  -0.20865044  0.70732105
 -0.49332708 -0.17590351  1.6791942   1.1931626  -1.2938396   2.1441407
  0.725969   -1.6242774  -0.6681775   0.6397734   0.10385969  2.2127762
  1.483237    0.23788892  2.1542828  -2.1377964 ]
[ 0.3814836   0.06661595 -0.7236976  -0.768432   -0.9562591   0.0866049
 -0.49778014  0.23632424  0.7309022  -0.12967397 -0.0670869  -0.25869718
 -0.45825148 -0.7551225  -0.05132657 -0.512372   -0.75326073  0.7291586
  0.06450415 -0.27908975  0.7528469  -0.71458304  0.06402434 -0.6437846
 -0.1727021  -0.19881918 -0.5446115  -0.35898823 -0.21246111 -0.8595137
 -0.14562954  0.9933027   0.5344908  -0.9959473   0.00505437 -0.961752
 -0.70735425  0.0094262  -0.7328725   0.8006054 ]
[-0.43916714 -0.82876784 -0.4566647   0.50686234  0.49266222 -0.7315861
 -0.40077624  0.04998021  0.49929357  0.4605254  -0.1971949   0.27327448
  0.20489226 -0.6722345   0.31331074  0.5621502   0.05183869 -0.14210163
  0.47233796 -0.09465549  0.49096227 -0.60133815  0.18222557  0.4202136
  0.5466566   0.9039993  -0.05995262 -0.34670293  1.1240934  -0.45966312
 -0.74095684 -0.09263363 -0.4479015   0.18903275 -0.4436551  -0.3772748
 -0.25498384  0.10995235 -0.41595688  0.5580889 ]
[ 0.22641462  0.2687526   0.67591476 -0.2585323   0.22189502  1.1149492
  0.35611254  0.26016307 -0.24410962 -0.08798952  0.11629453 -0.36276904
  0.07259632  0.63422215 -0.13868427  0.02489718  0.8580797  -1.3116207
 -0.707645   -0.08862661 -0.72837365  0.7065961  -0.2859208   0.33214274
 -0.25746852 -1.0759739   0.3524774   0.21925382 -1.4985281   0.40606236
  0.5057563  -0.37583598 -0.058759    0.06948447  0.08978126  0.2065554
  0.7526971   0.42617783  0.43532526 -0.42069763]
[ 0.3452586   0.4078865  -0.13858698 -0.3444289  -0.28626668  0.8141792
 -0.12084804  0.39201516  0.1908094  -0.62204987  0.4075523  -0.10532588
  0.02757517  0.15319763 -0.09908533 -0.30606312 -0.19971183  0.00483511
 -0.58466965 -0.08208356  0.03221762 -0.24680126 -0.24577796 -0.29482847
 -0.43875113 -1.0044968  -0.05581055 -0.0256833  -0.8788433   0.04846798
  0.42338985  0.08961513  0.23782477 -0.30912894  0.12989183 -0.30714875
 -0.0139902   0.17812727 -0.10927854  0.02232625]
layer 3 Activation
tanh
layer 4 Dense
40 20
[-0.4554128  -0.1450889   0.1600498  -0.2699505  -0.10021655  0.072294
 -0.33290136  0.0804204  -0.0473491   0.01419406 -0.48184043  0.32023013
  0.06543463  0.19089791  0.756339   -0.03747065  0.3422466   0.14891276
  0.27556375  0.22827147]
[ 0.13849948 -0.20560421  0.6960536   0.55448806 -0.6616506  -0.4564574
 -0.18417801  0.47959813  0.13793108  0.07303052 -0.12649912  0.5208238
 -0.68079245 -0.4158707  -0.271537   -0.6270066   0.75010395 -0.7869543
 -0.08489674 -0.395066  ]
[ 0.966509    0.652903    0.49576557 -0.9657469  -0.02610548 -0.19654821
 -0.11666448 -0.07928064 -0.9162309   0.68560475  0.5238301  -0.01371566
  0.3945604   0.1901835   1.0340422   0.01824914 -0.15514883  0.3393932
  0.61692053  1.1335928 ]
[ 0.00616726  0.23592271  0.18298858  0.50814754  0.41855085  0.29300395
  0.09964821 -0.04551722 -0.4949112   0.30402538  0.04040051  0.02702765
 -0.5518384  -0.01172618 -0.19597289  0.35902628  0.08844785  0.01069596
 -0.54021716 -0.13357912]
[ 0.03539595  0.12169162  0.20589319 -0.13945402 -0.19587868 -0.36753523
  0.45563793 -0.229885   -0.65775764 -0.18408763  0.06910751  0.08979369
 -0.08963103 -0.21148805 -1.0429667   0.27480823 -0.18860246 -0.4596316
  0.17361853  0.07646018]
[ 0.01497864  0.2390991   0.57110476  0.17627224 -0.5977681  -0.08118583
 -0.8397575   0.5821048   0.16660793 -0.05788584  0.09661372  1.5593874
 -0.4987703  -0.46775457  0.44140768 -0.58053166  0.8272909  -0.55446666
 -0.26641268 -0.47138086]
[ 0.65183693  0.79703474 -0.32190788 -0.7684047   0.08149017  0.00358664
  0.19021033 -0.16715474 -0.6182539   0.5331646   0.84992933  0.3888384
  0.3790421  -0.20716344  1.0945972   0.32847172 -0.00228496 -0.09518915
  0.56575924  0.49178177]
[-0.21039782  0.15864976  0.89207083  0.20183714 -0.8401758  -0.91649246
 -0.7042858   0.28403604 -0.4062145   0.02806327  0.01934935  0.45683
 -0.18804173 -0.12891845 -0.26526487 -0.54427284  0.45620957 -0.541599
 -0.21535264 -0.61376935]
[-0.8164558  -0.80201596 -0.24656187  0.71717376  0.07114672 -0.06159687
 -0.13777547 -0.04216013  0.90762085 -0.956593   -0.8721899  -0.03416541
 -0.2389784   0.6774124  -1.0807492   0.14193936 -0.16741961 -0.01570622
 -0.3846425  -0.35277385]
[ 0.0606337  -0.25673342 -1.1203912  -0.34993213  0.69976234  0.561533
  1.1009972  -0.7250186  -0.12896407  0.06158841 -0.2932136  -0.536816
  0.14431243  1.7107441   0.57725173  0.66569006 -0.32948533  0.97783256
  0.42552045  0.29796433]
[ 0.1422687   0.1117072   1.3374803   0.00239416 -0.96529835 -0.8808883
 -0.7961914   0.5206656  -0.48796365 -0.00677087  0.1247135   0.5346536
 -0.03720309 -0.47566172 -0.5729335  -0.5546324   0.74265075 -0.67914605
 -0.20769393 -0.19774966]
[-0.34021023  0.4098834   0.6334992   0.4501875   0.3345434  -0.056548
 -0.07068927 -0.13582334 -0.02219055  0.02018086  0.00449443  0.06905016
 -0.56674874  0.25194755 -0.4787458   0.04152308 -0.1395414  -0.05150644
 -0.20103271 -0.31659782]
[-0.09606948 -0.29400274 -0.09807748  0.55064803 -0.1894661  -0.02959051
  0.11981885 -0.4117931  -0.41339877 -0.566054   -0.18702216  0.3239943
 -0.30480266  0.31883734 -0.8347254   0.44136536 -0.22025558  0.11567162
 -0.3296425   0.4193759 ]
[ 9.1631782e-01  9.2886508e-01 -1.6880337e-02 -8.5081226e-01
 -1.1397684e-01 -3.1290866e-02 -1.0454937e-01 -7.1526311e-02
 -3.2291284e-01  8.0758053e-01  7.5286609e-01  3.8247722e-01
  5.0729060e-01  6.8829156e-02  1.4887528e+00  2.4033442e-01
 -8.8828692e-04 -2.1337827e-01  8.6577094e-01  1.2425909e+00]
[ 0.29461083  0.12699735  0.14066644  0.19632319 -0.09394145  0.3370034
 -0.02885918 -0.6778064  -0.11112344  0.14615075  0.00326576 -0.6625897
  0.05543386  0.3983052   0.4855776   0.1437819  -0.50309634  0.5361915
 -0.15456553 -0.39770025]
[ 0.25869766 -0.12239335 -0.58623844 -0.2226778   0.46075216  0.5440394
  0.21648017 -0.24065645  0.25349152 -0.11649156 -0.22065136 -0.6108369
  0.46269637  0.7354807   0.36897722  0.15274294 -0.22284983  0.8090028
 -0.06031293  0.1874161 ]
[ 0.54573125 -0.3421698  -1.0684906  -0.5065686   0.15070944  0.4114213
  0.19808595 -0.06426738  0.08937892  0.7161483  -0.00808515 -0.6904226
  0.18341218  0.9280766   0.30372787  0.23413843  0.05964807  0.366107
  0.0866162  -0.07258535]
[-0.8302695  -0.7347619   0.00319016  0.34831458 -0.05439902  0.14411113
  0.14249048  0.01247767  0.31234604 -0.49762067 -0.95316637 -0.67100805
 -0.80029744  0.02340684 -0.66192794  0.15750244  0.09158722 -0.00641035
 -0.45342854 -0.6355815 ]
[-0.07585338 -0.23735943 -0.8284883   0.41894156  0.52756035  0.7280257
  0.39393216 -0.7197282  -0.04541637 -0.12836678 -0.01228277 -0.6630886
 -0.31239346  0.66423565 -0.18536939  0.63548213 -0.91626406  0.88391954
 -0.09858117 -0.24920891]
[-0.02026727  0.43471843  0.00878619  0.4744241   0.24600475  0.8768692
  0.27460012 -1.0606966   0.2432598   0.19520438 -0.06809804 -0.29823646
 -0.29846743  0.5020419   0.4718127   0.45958117 -0.37782377  0.63235754
 -0.11957971  0.19564997]
[-0.8853886  -1.2009758  -0.16096655  0.8811689   0.4338669  -0.03818499
  0.34555745 -0.0211227   1.2948108  -1.0629689  -0.9052808  -0.02406808
 -0.9341672   0.57200426 -0.8482219   0.5174956  -0.12528312 -0.0693198
 -1.1438618  -1.1847891 ]
[ 0.86872244  0.6705911   0.19664124 -1.0809343  -0.09870069  0.2188564
 -0.18653385 -0.2083206  -0.73239994  1.0609854   0.52337337  0.0567005
  0.68534654  0.24411671  1.6831312  -0.23834969  0.17399684  0.3296069
  0.8596085   1.0184004 ]
[-0.39707658 -0.19831797 -1.3386952  -0.23428252  0.7957919   0.8921665
  0.4699442  -0.25676706  0.43948898 -0.16468252  0.24166279 -0.7348399
  0.40728158  0.65639186  0.08166935  0.5973608  -0.8557422   0.6204174
  0.52263665  0.41596326]
[-0.31488365  0.25297266 -0.09055943  0.3347649   0.05222134  0.0797993
  0.24591771 -0.21204644 -0.381291   -0.24846877 -0.27457416  0.08823647
 -0.22361787 -0.01385322 -0.6733008   0.09954412 -0.29664472 -0.27089444
 -0.32158732  0.06847553]
[-0.14620627 -0.28750908 -1.2165403  -0.11200569  1.0944972   1.0598122
  0.9324767  -0.5012876   0.2415761  -0.23970051 -0.05194184 -0.7776375
  0.04577907  0.70436716 -0.05982061  1.0266465  -0.7517974   0.9663086
  0.5199767   0.11419103]
[ 0.17238818  0.04738791 -0.5727549  -0.22480844  0.21044976 -0.06942729
  0.40466747 -0.68344945 -0.2716566   0.20509155 -0.09075943 -1.206181
  0.0304693   0.45637077  0.15357861  0.6698748  -0.4185498   0.48331624
  0.25120118 -0.11094042]
[ 0.04416128  0.326088    0.13570125 -0.48728046  0.1880337  -0.4483881
 -0.05716177  0.24672906 -0.06945495  0.05339589  0.5626297   0.7466239
  0.48088023 -0.18363184  0.13016805  0.12329495  0.23677622 -0.3288141
  0.2457934   0.47985896]
[ 0.31236324  0.1382189   0.01712961 -0.14062776 -0.1602619  -0.08166943
 -0.03005243  0.06125215 -0.91472113  0.598702    0.33180088 -0.54034656
  0.47488946  0.32790297  0.6373387  -0.06448103 -0.35374445  0.12112931
  0.20464428  0.09812353]
[-1.9440716e-02 -4.2043296e-01 -4.0878817e-01  6.3614452e-01
 -5.9596016e-03  2.8788429e-01  4.8530036e-01 -4.8225918e-01
 -2.4641913e-04 -4.4754699e-01 -2.8102246e-01 -1.2132514e+00
 -2.7639076e-01  7.7737874e-01 -4.4863597e-01  3.2915944e-01
 -4.0532225e-01  3.7221891e-01 -5.9998930e-01 -6.9348522e-02]
[ 0.74538195  1.4361328   0.46966022 -1.1086665   0.13069628 -0.00383734
 -0.0733084   0.18337396 -0.6187655   1.1126974   1.1254926   0.18541709
  1.0053151  -0.57479674  1.0027132  -0.3015232   0.06646825 -0.28589177
  1.2289855   1.2703521 ]
[ 0.42192954  0.7673805   0.50212675 -0.47300017 -0.9682565  -0.51633555
 -1.1877229   0.699417   -0.25625616  0.7728719   0.49253547 -0.76630855
  0.49515554 -1.7809519   1.0180042  -1.1162498   0.71862173 -0.19081464
  0.21999437 -0.02413885]
[-0.29146916 -0.20858273  0.04870486  0.75937     0.12341709  0.08409778
  0.5231314  -0.07553389  0.48950088 -0.6113646  -0.22090328 -0.21068808
 -0.5097828  -0.22333819 -0.6683074   0.20482007 -0.61558646  0.12693428
 -0.4254486  -0.5057847 ]
[-0.44021347 -0.23383132 -0.18853867 -0.20548126 -0.45003015 -0.05308732
 -0.20436409 -0.04859104  0.32163224 -0.32098886 -0.23455057  0.25178957
 -0.03308934  0.10080813 -0.15117332 -0.10584005  0.20135042 -0.13572711
  0.05427424  0.2157308 ]
[ 0.11955232  0.3301112  -0.13626365 -0.35759905  0.2458736   0.62269175
  0.5843737  -0.1156697   0.18581644  0.42570633 -0.48518655 -0.82986546
  0.1780977   0.5790582   0.35999277  0.3082344  -0.0763775   0.33349285
  0.1995295   0.17002627]
[-0.01941606 -0.40435773  0.34003228  0.04802053 -0.42532793 -1.1085464
 -0.19841038  0.25433645  0.17652155 -0.13645898 -0.36819923  0.5726923
  0.13213646  0.26190734 -0.29070923 -0.2869611   0.1621218  -0.60848624
 -0.21911949 -0.1894237 ]
[ 0.91377753  1.1408082   0.03274824 -1.1513559   0.02195255 -0.04960411
  0.07430893  0.02766243 -1.0091068   0.88703406  0.5105584   0.09551843
  0.42856127  0.02586379  0.9469224  -0.146994   -0.16908225  0.01241157
  0.58764005  0.9668272 ]
[ 0.32631302  0.5496526  -0.2988089  -0.5399591   0.29282245  0.22294827
  0.09390148  0.00802821 -0.27316934  0.4609321   0.52182525 -0.17504567
  0.5878175   0.21199226  0.4656145  -0.11777084 -0.33830622  0.3216533
  0.30363563  0.24945909]
[-0.12935919  0.08160374  0.78503126  0.1639984  -0.4478087  -0.63166463
 -0.38575253 -0.07200002 -0.08770061  0.6280885   0.17717054  0.8199186
 -0.3913089  -0.6848203  -0.16623752 -0.42450374  0.6008798  -0.5722797
 -0.29933205 -0.32325694]
[ 0.99359995  0.8746457   0.22156554 -1.0194609  -0.38880906 -0.07844247
 -0.12915283  0.3007873  -0.6918713   0.66522354  1.4197181   0.09451229
  1.4132824  -0.7434193   0.80846965 -0.01454702 -0.01522144 -0.30215776
  1.1600318   1.1801813 ]
[-0.49043298 -1.1321348  -0.1284506   0.95462906 -0.2879576   0.24190493
  0.11928399 -0.3222215   0.67454207 -1.1948313  -1.380431    0.03595097
 -1.047768    0.40725288 -0.94044256 -0.20531301  0.13997996  0.57267237
 -1.3921989  -0.87406504]
[ 5.45411487e-04 -5.33998236e-02  5.26983559e-01  2.40208015e-01
 -1.80716082e-01 -6.08795822e-01 -3.81131947e-01  3.03558260e-01
 -1.26685187e-01  3.09147269e-01  1.19327605e-01  7.52170503e-01
 -3.89297962e-01 -3.35424721e-01 -1.65241435e-02 -1.34581909e-01
  2.82446444e-01 -7.23150611e-01 -1.56772599e-01 -5.33131897e-01]
layer 5 Activation
tanh
layer 6 Dense
20 1
[-11.4139805]
[-11.453335]
[10.611699]
[11.932798]
[-10.437795]
[-10.622773]
[-10.435844]
[10.454169]
[11.365816]
[-11.375872]
[-11.750704]
[10.145581]
[-11.602395]
[-10.477337]
[-11.39253]
[-10.4268465]
[10.60265]
[-10.610301]
[-11.690188]
[-11.737566]
[10.885862]
