layers 7
layer 0 Dense
20 20
[ 0.25283152  0.26488787 -0.00111175  0.11742619 -0.00323405 -0.09441398
  0.05046703 -0.00746677 -0.16707705  0.39967614 -0.05531504 -0.2940551
 -0.1683609   0.16593812  0.19501914 -0.2934131   0.10529388  0.05229462
 -0.25322777 -0.09306201]
[-0.7348987  -0.31866357  0.35943425 -0.12916502 -0.4242912   0.38262266
 -0.23861001 -0.15073659  0.22797258  0.0490835  -0.30251607 -0.2852298
 -0.01947932 -0.07085202 -0.1995851  -0.10601786 -0.03589116  0.3769437
  0.20799798 -0.28585795]
[-0.35522363 -0.04835541 -0.00434147  0.5327509  -0.27342787  0.61573505
  0.06640435 -0.46542442 -0.42255765 -0.23915574 -0.23850009  0.05279335
 -0.35303503  0.50862086 -0.18395863  0.23637304 -0.32848457 -0.2518881
  0.04149725 -0.01243206]
[ 0.11149232  0.10343817  0.11083196 -0.22083086  0.22098264  0.1415369
 -0.09837142 -0.3013991  -0.23601487 -0.0296573   0.37247863 -0.3599164
  0.31864098 -0.19001673 -0.01373321  0.11213663  0.04046581 -0.05517466
 -0.32001236 -0.3638473 ]
[-0.32990152 -0.22157101  0.29539788 -0.30237195  0.17669958 -0.12250449
  0.35167605 -0.16976023  0.1803865   0.1250784  -0.23869355 -0.26502848
 -0.12009794  0.1669008  -0.02028284 -0.25140572 -0.21540466 -0.10867909
  0.29092985 -0.20624958]
[ 0.11867073 -0.16195191 -0.30592304 -0.19366637  0.44103616 -0.25667652
  0.10090619  0.2783259  -0.24238952 -0.03121951 -0.11990743  0.21070336
 -0.0696936  -0.01342205 -0.18698323 -0.17236216  0.1346376  -0.26997086
  0.27504277  0.03942114]
[ 0.14013784 -0.17826262 -0.0451791  -0.385249   -0.26914003 -0.06575788
  0.09313976  0.36700734 -0.12137278  0.2123147   0.00992794  0.3019516
  0.08320186 -0.6026469   0.24063909 -0.13847113  0.33404714  0.05166626
 -0.2380498   0.01225251]
[ 0.07832843  0.35832402 -0.28994694  0.14633334 -0.04378256 -0.31653386
  0.2960977   0.12925638  0.05525989  0.19158255 -0.09651776 -0.16031048
  0.1668961  -0.09436129 -0.32298276 -0.21780974 -0.21195914 -0.09036236
  0.06275859  0.22426651]
[-0.1258358  -0.01835538  0.36214384  0.13785517 -0.40194845  0.2834476
  0.20739804 -0.2528425  -0.01617968  0.04467013  0.12151473  0.20600738
 -0.2509386  -0.1506505  -0.01575725 -0.07211302 -0.23719695  0.1055784
  0.36514252 -0.44770986]
[ 0.40010017  0.5139812   0.3399627   0.08668566  0.28525    -0.3916638
  0.27061465 -0.15152997 -0.45814613  0.24387476 -0.41804698  0.25404444
  0.12750398  0.25869685  0.22971882 -0.40252328 -0.46962816 -0.246551
 -0.03186169  0.22038184]
[ 0.11301757 -0.14745066  0.18032873 -0.2954095   0.05366257 -0.30909973
  0.18744186  0.55052954 -0.41460863  0.0581983   0.02862566  0.21699807
  0.1081783   0.41050625 -0.3462707   0.5432484  -0.45519406  0.38013044
  0.05865018  0.3825192 ]
[ 0.09969946  0.08832446  0.25724036 -0.14494698 -0.121617    0.3337611
  0.29059473 -0.1840033   0.13260408 -0.37041175 -0.37682143 -0.30551514
  0.13909213 -0.03068524  0.27561364  0.02707901 -0.00859695  0.18491177
  0.43209085 -0.28885752]
[-0.04660948 -0.01820595 -0.3857008   0.23878567 -0.00832082 -0.0216942
  0.11182776  0.10325076 -0.49506065 -0.31901646 -0.0787322   0.02434819
 -0.30996227 -0.32147855 -0.21304792  0.47727802  0.21559952 -0.09900948
 -0.43643004  0.5395438 ]
[-0.19230154  0.28581178 -0.18522382 -0.19721438 -0.04093474 -0.0581147
 -0.15676571 -0.11724307 -0.04072561  0.1766301   0.10362091  0.19902128
 -0.09171151 -0.001269   -0.2741692  -0.08987088 -0.14682633 -0.07360513
  0.28540975 -0.1190106 ]
[ 0.33503422  0.1605464   0.20932902 -0.2442127   0.0075121  -0.15770698
 -0.3048298  -0.14504507 -0.13531628  0.27758202 -0.24317779 -0.05029568
 -0.4693484   0.26367223  0.3846876   0.30450588  0.21787143 -0.1295385
  0.06921893  0.14054257]
[ 0.13945378 -0.3106617  -0.2443747  -0.15848689  0.2910955   0.36709327
  0.23216818 -0.47886544  0.642326   -0.17186165 -0.19611953  0.3787298
  0.48878193  0.00419128 -0.09532358 -0.33032653  0.00817003  0.26593465
  0.00457292 -0.16488516]
[ 0.15146016  0.00290284 -0.02227546 -0.00718912 -0.28962398  0.37349322
 -0.20106423  0.27172214  0.27713454 -0.07494046  0.0226829  -0.00329368
  0.30867052  0.25833866 -0.1539578  -0.19242008 -0.0206591  -0.10681078
 -0.16377035 -0.0575671 ]
[ 0.1945409  -0.74093866 -0.29631522 -0.21182948 -0.5357868   0.6960457
 -0.38343966 -0.2993497   0.28493094 -0.5693875   0.0248869   0.11783007
 -0.2638074  -0.16951002 -0.47888294  0.30027217 -0.22163829 -0.07306981
 -0.21216011  0.07111718]
[-0.02769707  0.37829298 -0.29394618  0.58609456 -0.25255832 -0.44005135
 -0.3054904  -0.05754534  0.23571812 -0.310012    0.29753196 -0.11675923
  0.29780728 -0.21173802  0.3397141  -0.66477627  0.27439702 -0.23233917
 -0.1561713   0.41767293]
[ 0.404573   -0.27937117 -0.3496356   0.13697125 -0.13710885 -0.32029518
 -0.05118477  0.5749411  -0.35384685  0.20948794  0.21536638  0.21801299
  0.26083827 -0.10456233 -0.42207637  0.51640433 -0.39441627 -0.07163054
  0.32210705  0.32388428]
[-0.04062889  0.00359389 -0.02717394  0.04070335 -0.02980842  0.15306647
  0.02012498  0.00633382  0.04265224  0.00646516 -0.02763187 -0.03375091
  0.01490496 -0.01648159 -0.03301602 -0.16981618 -0.05246782  0.00949455
  0.03086518 -0.00990458]
layer 1 Activation
tanh
layer 2 Dense
20 40
[-0.27447632 -0.2606108   0.0322215   0.26962346 -0.17260432 -0.3019008
 -0.03221994 -0.11588228 -0.24636175 -0.28109783 -0.10125438  0.18472132
  0.22660704 -0.0272525  -0.03928721 -0.24471709  0.3641741  -0.12292888
  0.07512347 -0.07023352  0.1946724   0.3266972   0.19624564 -0.22667748
  0.22616011  0.02956506 -0.11459956  0.37335926 -0.1980827  -0.09513436
 -0.06298649  0.07528339 -0.11716893  0.05595661  0.14064968  0.13272801
 -0.06679957 -0.06229065  0.09807393 -0.00364955]
[ 0.00480343  0.08715584  0.13773353 -0.27411667  0.32527843 -0.05223357
 -0.12526573  0.31970966  0.12163243 -0.1373452  -0.02394131  0.11686054
  0.14794393  0.25330886  0.02533051 -0.12298247 -0.15106161 -0.21211712
 -0.20095819  0.09942002  0.5152101   0.22716025 -0.3942826   0.10089947
 -0.02606186  0.21488236  0.2927078   0.26389697 -0.0826645  -0.21800983
  0.201009   -0.16458887  0.21897443 -0.21172419 -0.36636665 -0.11315975
 -0.21002997  0.30972233 -0.1222806   0.04608159]
[-0.24042274 -0.27557755  0.2478135  -0.18189311  0.27630016 -0.22329226
  0.07724606 -0.1618212  -0.10794394 -0.3289154  -0.20889646 -0.27648818
 -0.20832916  0.15881692  0.17827295 -0.2155952   0.17751822  0.24913049
 -0.2680181   0.32884234  0.13139656 -0.33791137 -0.29553804  0.20901394
 -0.19105773  0.2670633   0.00838404 -0.02421514  0.25895256 -0.16653778
  0.15388027  0.0122723  -0.17953704  0.0827364   0.18576688  0.24395472
  0.1204745   0.04430573  0.04559758  0.24706161]
[ 3.5655074e-02 -3.0454390e-02 -8.4106877e-02 -3.1532955e-01
  8.1204608e-02 -8.7273672e-02  2.8298586e-04  1.3476078e-01
  2.9493961e-01 -8.7819926e-02  4.9155346e-01 -6.7341030e-02
  1.3079809e-01  6.2016040e-02 -2.9092678e-01  2.8687730e-01
  3.1539258e-02 -2.9189435e-01  3.6774641e-01  2.7940837e-01
  1.7158373e-01 -1.8575126e-02  5.8512390e-03  2.0477425e-01
 -2.9900193e-01 -3.3910069e-01 -2.5038305e-01 -2.0467539e-01
 -6.6421300e-02  2.0862855e-02 -1.7416851e-01 -2.4786764e-01
  2.7541068e-01  1.7800805e-01 -7.4779466e-02 -1.6133715e-01
 -1.0656123e-01 -1.0681796e-01  2.6675567e-01 -2.6287234e-01]
[-0.03650682  0.13647285  0.35095492 -0.22439982 -0.16916321  0.16245925
 -0.1238256  -0.0634717  -0.03587375 -0.00240818  0.02971537  0.18535191
  0.35967138  0.25062704 -0.06649923 -0.2164219  -0.149677   -0.30367458
  0.24712563 -0.2397567   0.05326236  0.21599576  0.02200259  0.27919182
 -0.3077482   0.05211635 -0.17368247  0.32501304  0.20084897 -0.5565335
  0.00982013  0.27355373  0.1927949   0.25679758  0.07430938 -0.24856125
 -0.32840273  0.03792463  0.10715456 -0.00222898]
[ 0.17715609  0.15764305 -0.28051534  0.08928468 -0.02589521 -0.16349334
  0.02570444 -0.15639764 -0.15549587 -0.31971365 -0.08340544 -0.28989676
  0.1725722  -0.06107175 -0.27198303  0.12158756 -0.07950778 -0.01944397
 -0.3594856  -0.26315576 -0.23508273 -0.39909604  0.21874283 -0.22677016
 -0.18176599 -0.04957514 -0.14833474  0.26922497  0.19122766  0.5253898
 -0.13643527 -0.31993553 -0.28594443  0.02649956  0.08353867 -0.25013265
  0.13510531 -0.53347564  0.02014931  0.24861617]
[ 0.21407959 -0.29210037 -0.05092104 -0.321117    0.21081688  0.251894
  0.18084395 -0.16743742  0.00974136  0.15758938  0.08852085 -0.19679041
 -0.23561822  0.27490893  0.27383852 -0.06088254  0.10015196 -0.23431279
  0.24716516 -0.0783461  -0.03944264  0.09538681 -0.1830668  -0.09482308
  0.31299317 -0.10126519  0.06388213  0.23133285 -0.3056996  -0.09452345
 -0.10531188  0.21324866  0.00268454 -0.20599431  0.04456888  0.14796688
  0.24134776 -0.24591151  0.11991975  0.14306416]
[ 0.19986337 -0.24665561 -0.0626014   0.20698577  0.13781913  0.11919059
 -0.20782517 -0.29828584 -0.22581097  0.00650827  0.24625655  0.03670477
 -0.21096237 -0.17616893 -0.1202464  -0.30279103  0.12940459 -0.27014643
  0.27089742  0.19280362  0.2748207   0.11918535 -0.0585931   0.11918312
 -0.07377362  0.00758292  0.27973104 -0.18386465 -0.14017     0.22230586
  0.04196382  0.15780465 -0.21913706  0.2515633   0.09294893  0.23345608
  0.1047648  -0.26748523 -0.41648045 -0.05652065]
[-0.18809652 -0.06214738  0.02918831 -0.08228434 -0.31475648  0.19476007
 -0.12570786 -0.22926804 -0.11135542  0.09477838  0.10395894 -0.24157672
  0.18979786 -0.0431846   0.12103042 -0.1996133   0.0722877   0.15134937
 -0.14790231 -0.15744928 -0.16066128  0.18960923  0.08460735  0.09945592
  0.2567406  -0.1495298  -0.30323225 -0.24317056  0.27512938  0.5083197
 -0.28914067  0.12321352 -0.14361528 -0.09310304  0.08032234  0.10592588
 -0.03290581 -0.24624261 -0.16920394  0.16176626]
[-0.23258263 -0.34849998  0.09356645  0.25293314  0.12725385  0.10637574
 -0.27380878  0.17340963 -0.36236343 -0.26567528  0.20018388  0.12511177
  0.08328674  0.15864047  0.0544921  -0.18006848 -0.08407976 -0.27168164
 -0.06602278 -0.02755894  0.21106304  0.17641596  0.09709439  0.3646628
  0.06967564  0.25274357 -0.17714986  0.3462985   0.1237825  -0.32464394
  0.2991288   0.08504757  0.24846959 -0.05932589  0.1757635  -0.2450407
  0.12654981 -0.22275244 -0.09079937 -0.10993528]
[ 0.21137574  0.03854308  0.20300217  0.03859521  0.03365278  0.05363316
 -0.07754464  0.2438856  -0.11275508  0.02553948 -0.10712723 -0.03874103
  0.15096958 -0.3222487  -0.22020867  0.3782557  -0.25669223  0.23151892
  0.03321467  0.11526419 -0.23946884 -0.19593485  0.26337144  0.01032342
  0.04543335 -0.33913785  0.15580451  0.17043047  0.12857749 -0.12788154
 -0.03453717  0.16709664  0.08840893 -0.0611449   0.03470956  0.25186908
  0.20379493 -0.2903692  -0.3292396   0.00711739]
[ 0.08389668  0.17980684 -0.21490613  0.04367785  0.09200083 -0.29183567
  0.22919229 -0.07798431  0.07996546  0.09387676  0.30760422  0.35007942
  0.15583168  0.09455518  0.26537925 -0.04456243  0.21681935 -0.17355749
  0.14837146  0.23890325 -0.12517849 -0.05931391  0.20858848 -0.19854708
 -0.03974932  0.14927371 -0.23364177  0.1381191  -0.19246507 -0.1337041
 -0.231016    0.12204175  0.01884045  0.13164067 -0.11238991  0.178802
  0.22334999 -0.06165233 -0.09229747  0.10314925]
[-0.30219862 -0.34124166 -0.18726449 -0.30504718 -0.00357019  0.08363476
 -0.213739   -0.1642752  -0.10118949 -0.11285298 -0.20330939  0.13754591
 -0.14095803 -0.2839721   0.15297094 -0.18264511  0.29347774 -0.06403856
 -0.24729885  0.19830327  0.08533335  0.10189062  0.0588045  -0.16991809
  0.20700765  0.03381152 -0.07049778 -0.30003825  0.02402671  0.11300826
  0.26639697 -0.09647923  0.14195272  0.06249143  0.00791464 -0.22358495
 -0.13311824 -0.24804544  0.03662853  0.34575427]
[ 0.02284059 -0.1874393   0.08656552 -0.25335926  0.00189521  0.26878303
 -0.784153    0.03620997 -0.00876191 -0.31324255  0.01124138 -0.26949596
  0.15297945  0.04326542 -0.06376625 -0.21238047  0.0577551  -0.11061246
 -0.29701042  0.42957383  0.06542384 -0.22468434 -0.10025529  0.39073
  0.02694348  0.07761261  0.151459    0.2853277   0.25148857  0.21130952
  0.05782392 -0.10439502 -0.41732776  0.16489051 -0.05832793 -0.15915866
  0.17189002  0.13886894 -0.11286217 -0.25534174]
[ 0.28622872  0.18728384  0.2615616  -0.22800735  0.09635428 -0.23974769
  0.17981017 -0.14851329 -0.05541456  0.17877845 -0.20255299 -0.28997695
 -0.08201163  0.24577586 -0.00228358 -0.01441187  0.03906749 -0.28155217
 -0.02644313 -0.06472619  0.33480623  0.20825756  0.21348953  0.22282003
  0.1332067   0.09644286 -0.11833835  0.3255709   0.24161014 -0.15177949
 -0.12516671 -0.23341052  0.187523    0.16187748 -0.31984434 -0.17385016
 -0.07593691  0.23203348 -0.10094185 -0.10862106]
[ 0.43924123 -0.04160817 -0.0301764  -0.08267614  0.26362273  0.14223523
  0.11467468  0.19448352 -0.2683929  -0.3110761  -0.01986813  0.2795592
  0.1015935   0.28509963 -0.13659404  0.25739193 -0.29761562 -0.27475935
  0.03095706  0.14562018  0.07687578 -0.1039981   0.29089406 -0.3815394
  0.01390329  0.39261836  0.2904017  -0.27026194 -0.24091023 -0.03125263
  0.11644094 -0.10377692 -0.10371561  0.28884968  0.07366945 -0.23250225
  0.31853887  0.04690608 -0.25273213  0.06538563]
[ 0.17553529 -0.05549329 -0.05789115 -0.13286346 -0.03803336 -0.2556482
  0.2702748  -0.29218125 -0.05611072  0.33824244 -0.01318949  0.05183583
  0.1491345   0.04607895  0.19491312  0.30770603  0.05940147  0.05743936
 -0.1332583   0.01898913 -0.02976489  0.21561758  0.11884609 -0.2301531
  0.23491527 -0.03214974 -0.01413452 -0.19997929  0.11942092  0.09164371
 -0.01825816  0.16482979 -0.07506884 -0.1518005   0.10929094 -0.2748264
 -0.09476845  0.10692681  0.1108939  -0.0885109 ]
[-0.1607184   0.24567604  0.30903602 -0.00742061  0.31515878  0.26296616
  0.12509255  0.1930798  -0.10514731 -0.08185592 -0.1207741  -0.24946438
 -0.14001845 -0.31478408  0.2228147   0.19075796 -0.15639405 -0.2943682
 -0.14987011 -0.33694783 -0.19930355 -0.06579559 -0.13401438 -0.37647796
 -0.09154337 -0.08098696 -0.09175102 -0.07766938  0.21141723  0.05239819
  0.08801489 -0.15275994 -0.10749538  0.32241237  0.02321979  0.05480161
  0.16177182 -0.01369547 -0.35325697  0.23906891]
[-0.0577351   0.04395164 -0.26859117 -0.03746975  0.10803393 -0.17448604
  0.09652475 -0.07903563  0.0459738   0.21694992  0.04697494 -0.31548437
  0.16240777  0.23031701  0.3059657   0.05550957  0.12200875  0.12502156
  0.04056074  0.3927987   0.15547712 -0.23069927 -0.13546592 -0.23351057
  0.16634636  0.08560647 -0.03990616 -0.28801364  0.04744152  0.24343736
  0.05726779 -0.1954153  -0.22746071  0.23542394 -0.24841163 -0.2420316
  0.32422763 -0.22043434 -0.10178875  0.15606038]
[ 0.26781383  0.24814385  0.1534715   0.3013313  -0.15879971 -0.18865038
  0.16920005  0.22057381 -0.17921792 -0.21374488  0.53815776  0.2587696
  0.29178625 -0.26127052 -0.23390292 -0.22134323  0.33623794 -0.18057662
  0.21038575  0.05223396  0.15180731  0.12324263 -0.05659421  0.25798035
 -0.1846263  -0.08217873  0.13459338  0.24944773 -0.00738297 -0.2892851
  0.2963295   0.13969456  0.4156011   0.2609591   0.20406194  0.27681273
 -0.13422665  0.0564369  -0.22791371 -0.06303653]
[ 0.00396275  0.01535007  0.04482865 -0.00052129  0.04619398  0.00183611
  0.05530058  0.01835157  0.01365985  0.05865031 -0.07324342 -0.0339931
  0.04920126 -0.01616401 -0.01000499 -0.00687213 -0.05329254 -0.04999505
 -0.03341214 -0.07509564 -0.00018502  0.00433712  0.02093492 -0.035343
 -0.00823561 -0.03705513  0.0435643  -0.00542693  0.03121937  0.0390579
  0.01607229 -0.01900447 -0.07727367 -0.00962666  0.00137324  0.02700258
 -0.04429042 -0.06720586  0.06968477  0.02300121]
layer 3 Activation
tanh
layer 4 Dense
40 20
[-0.23089543  0.25720212 -0.11790478 -0.21614717 -0.14339373  0.2958284
  0.15642507 -0.02100644 -0.067231   -0.05347583  0.02002824  0.09739885
 -0.29723403 -0.2716517   0.00361169 -0.28677127  0.13766657  0.21612701
  0.21898551 -0.39125857]
[-0.13585286 -0.08319037 -0.24548101 -0.11811282  0.0563778   0.31874397
  0.2657802  -0.10181233 -0.06355707 -0.24534222  0.27404845  0.12669541
 -0.2674463   0.09026369  0.01242272 -0.3530823   0.20639248 -0.12637953
  0.00926966 -0.37255257]
[ 0.30187133  0.11528816 -0.13504782  0.295414    0.16682065 -0.11333654
  0.09543874  0.13153319 -0.204058   -0.13362029 -0.12808749 -0.18204221
 -0.07397728 -0.20558272 -0.15398179 -0.15998994  0.06605658  0.07374211
 -0.13327426 -0.17698787]
[ 0.10420982  0.30501255 -0.240975    0.04348959 -0.3167657  -0.05172934
  0.28278065 -0.16597812 -0.06589662 -0.17897266 -0.07149699 -0.28572214
 -0.3090494  -0.2954281   0.33849406  0.14731996 -0.17620891 -0.03448005
  0.00422695 -0.22995315]
[ 0.0500932  -0.21033548 -0.3544766   0.04810714 -0.23513223  0.16316114
  0.11395409  0.08925006  0.18463513  0.14283024  0.29295895  0.21852839
  0.35480136  0.00999091 -0.36500874  0.22928187  0.18514508  0.21265191
 -0.06588695  0.0817498 ]
[ 0.02463561 -0.40114877 -0.3696708  -0.09864149 -0.1090332   0.2708255
 -0.14268766 -0.15123633 -0.03787325 -0.16271988  0.10711312  0.13690546
 -0.17267272  0.22727813  0.18385042  0.15961762 -0.10259128  0.24365807
  0.07939176  0.10816008]
[-0.17326437  0.2864969   0.08244191  0.02224369  0.33092296  0.2580949
  0.24711408 -0.05996414  0.07951158 -0.01416715 -0.0813836   0.01850923
 -0.15124309 -0.01315122 -0.21693246 -0.08016736 -0.26335815  0.04137532
  0.16207175 -0.23707148]
[ 0.316634   -0.19341485 -0.20138378  0.18389976  0.06706731  0.1734589
 -0.11933237 -0.18807127  0.12987068 -0.20482616 -0.13851568  0.06560133
 -0.1020224  -0.2850986  -0.17065296 -0.03198354 -0.1587849  -0.26166835
 -0.07334057 -0.13579261]
[-0.26503378 -0.19050312 -0.08050736  0.18979758  0.18002053  0.02591866
 -0.12940893  0.01069959 -0.07692065 -0.17673354 -0.09865125 -0.286935
  0.2241032   0.11834719  0.17247777  0.1763181  -0.25206232 -0.15210643
 -0.19970153  0.22303036]
[-0.01703436 -0.35588723  0.37803698 -0.25730225  0.2589134  -0.06460533
 -0.05672846 -0.26382518 -0.2644868  -0.10145443  0.23511592  0.01142368
 -0.29771793 -0.07800125 -0.23657379 -0.06281719 -0.03010154  0.14747119
 -0.37636542 -0.18123585]
[ 0.0188405   0.12887338  0.13393758 -0.32547376  0.1052176  -0.27571067
 -0.17769809 -0.03929804 -0.15297955  0.14471975 -0.3102841  -0.30724147
 -0.11529571 -0.2672293   0.02820495  0.25957584 -0.18436177  0.14772779
 -0.11244016 -0.01807727]
[-0.16387835 -0.2736835  -0.18550459 -0.14028649 -0.19453871  0.13949077
  0.12908225 -0.25432146  0.2690545  -0.05241256 -0.17274731 -0.01853371
  0.28567213 -0.25979838 -0.1826498  -0.11294495 -0.25611946 -0.32470825
 -0.2640507  -0.20262532]
[-0.15625691 -0.08939031 -0.193901   -0.14372227  0.17853548  0.16587798
 -0.01602286  0.3178681   0.00584901  0.0585685   0.17687544  0.23517932
  0.26414895  0.30698532 -0.08692717 -0.24996676  0.28551862 -0.22142945
  0.09195118 -0.19900234]
[-0.10320225  0.22137229 -0.21233417 -0.11818693  0.22657937  0.19080086
 -0.29538894 -0.13488905  0.08639787  0.01372676  0.23746014  0.26686385
 -0.0627004  -0.16386966 -0.19731207  0.04381413  0.32041577 -0.13156277
  0.18579447 -0.00687618]
[ 0.27849495 -0.04863879  0.07052379 -0.26374727 -0.12940396  0.2349446
 -0.24960509 -0.30972138 -0.01090895  0.17642455 -0.23923725  0.17315008
 -0.13648082 -0.04756784 -0.03816095  0.3306812  -0.18960391  0.13316718
 -0.15556554 -0.02355548]
[-0.18361847 -0.06445111 -0.11360833 -0.16028841  0.1420128  -0.03571393
  0.06116308  0.1165185   0.2885618   0.21309745  0.24717222  0.18900105
 -0.14837798 -0.34328204  0.3023674  -0.35390663 -0.00225716 -0.03382776
 -0.09616534  0.17704722]
[-0.18937017  0.2208622   0.2754317  -0.19836824 -0.18419656  0.08687674
 -0.14039566 -0.22051708 -0.1476324   0.29459497 -0.16207844 -0.36205193
 -0.10154665  0.15435164  0.03282227  0.2219079   0.02442611  0.01616714
 -0.02758639 -0.27573556]
[-0.17642118 -0.17522594  0.22911812 -0.26164812 -0.18667753  0.20620495
  0.2244347  -0.21953769  0.3232517   0.14782597 -0.11278475  0.07186566
 -0.10218144 -0.10573424  0.3707984  -0.4680215  -0.27734864  0.23171192
  0.08503564 -0.0143833 ]
[ 0.2660686  -0.20331289  0.21705343 -0.2648367  -0.14139608  0.16375616
 -0.02713685 -0.21685681 -0.32906199  0.24798347 -0.21834753 -0.2034393
  0.06527069 -0.2976871  -0.00732052 -0.06188894 -0.27799505 -0.21546622
 -0.3310018   0.12227331]
[-0.1446965   0.20620191  0.26327044 -0.16095631 -0.4005376  -0.11306388
 -0.03218937 -0.07265431 -0.15728214  0.12469252 -0.05519195  0.07399923
  0.24683364 -0.13127992  0.0438036   0.31273484  0.10629003 -0.03284331
 -0.18040755  0.2362992 ]
[ 2.8196210e-01  4.1166302e-03 -1.4652678e-01 -2.7882114e-02
  2.3869942e-01  9.3901552e-02 -1.2637459e-01 -1.5043852e-01
  6.8753876e-02  3.4255609e-01  5.4774475e-03  1.1840710e-01
 -1.9349171e-01 -2.6057386e-01  4.9847614e-02  3.5324398e-01
 -1.7685689e-01 -2.5236458e-01 -2.3897304e-04 -1.0267435e-01]
[ 0.2926765   0.07590146  0.04721671  0.23554125 -0.0083046   0.15844193
 -0.04331932 -0.19413315  0.13691568  0.07984053  0.05323111  0.08289786
  0.29242614 -0.20300755 -0.2207884  -0.24553174 -0.02624783 -0.4535602
 -0.2908766  -0.01187311]
[ 0.31619942 -0.09227433  0.14416549  0.1300746   0.2426769   0.02348855
  0.37243512  0.2689073   0.22896639 -0.1812503  -0.22121377  0.09363991
  0.14843677 -0.1320795   0.14201346 -0.2244037   0.2990362  -0.04636584
 -0.04830744 -0.234654  ]
[-0.01657451 -0.18329406  0.30769062 -0.08991074  0.14653285  0.0293353
 -0.25112316 -0.09445217  0.12615189  0.33459106 -0.19600445 -0.1080841
  0.20761938  0.11418236 -0.58999914 -0.22069001 -0.25922784 -0.32431805
  0.2980964   0.18040925]
[-0.21031652  0.44197267  0.22841115 -0.14644831 -0.09694566 -0.26390764
  0.02450669 -0.04600336  0.16055061 -0.16372833 -0.11143515  0.19470549
 -0.22537257  0.2048187  -0.03742681  0.08723583  0.4208696   0.14799146
  0.265131   -0.09030011]
[ 0.04581727  0.2679846   0.14757444  0.22795497 -0.30711594 -0.28537762
  0.22695453 -0.11377954 -0.16710198 -0.10140011 -0.02028756  0.17906827
  0.2709796  -0.30191684  0.14538647  0.2792887   0.1792355  -0.1440537
  0.14393052 -0.37633747]
[-0.11976731 -0.02369826 -0.15828018 -0.22876728 -0.20581716 -0.11244202
 -0.09442773 -0.20951653 -0.01439017  0.22290425  0.17449608 -0.18940522
  0.17450823 -0.07249659 -0.3258587  -0.06935403 -0.17582953  0.03149848
 -0.29088125 -0.2514421 ]
[ 0.12989803 -0.23114482  0.27222383  0.02823289 -0.13748117  0.15780334
 -0.08095566  0.1117864  -0.03950527 -0.09429771  0.3282411   0.19275393
  0.03101712  0.16806221 -0.08047899  0.34800422 -0.15374821  0.1438155
 -0.05072881 -0.22570662]
[ 0.24210124  0.12146439  0.24856406  0.05238526  0.30233684  0.12538926
  0.20671017 -0.19453529  0.2729131   0.07086026 -0.09429203  0.18813254
  0.2590375   0.2846111  -0.2219878  -0.23687622  0.08669217  0.24493332
 -0.25715867 -0.17584157]
[ 0.11252522 -0.21223192  0.24153146  0.09472479 -0.22119242  0.03895984
  0.13208427 -0.24260877 -0.02437887  0.04386537 -0.14650269 -0.1546881
  0.08769125  0.24290219  0.31830484 -0.11243527  0.23297773  0.20066766
  0.03563955  0.25847054]
[ 0.08382907  0.01690674  0.2016486  -0.05410314 -0.10650406 -0.11393655
  0.1462017  -0.19585514  0.14139815 -0.11796977 -0.060153    0.00057679
  0.0239543  -0.3181022  -0.3412449  -0.09071502 -0.31437096  0.32084444
  0.1497717   0.12768419]
[-0.0216606   0.09888843 -0.2710393  -0.20085919  0.09473547 -0.09055278
 -0.23477514 -0.25360894 -0.22044514  0.04347801  0.23035817 -0.03478967
 -0.34703118  0.01713188  0.1221118   0.31479844 -0.08031349  0.22315198
 -0.28917068 -0.13395037]
[-0.19633162 -0.21462843  0.23287024 -0.18910356  0.2587176   0.14567533
 -0.03702721  0.08723795 -0.04648568 -0.19059743 -0.20835304  0.04718702
  0.27853093 -0.31641763 -0.2552785   0.0067635  -0.14566927 -0.11735065
 -0.18196662 -0.05908763]
[ 0.2034368   0.2675413  -0.31265756  0.00661683 -0.21082747 -0.20473863
  0.0326585  -0.35607892 -0.11682231  0.3015737   0.29725155  0.08459765
 -0.09378229  0.16028143 -0.1111915   0.29366857  0.18217768  0.33253062
 -0.25507578 -0.18490766]
[-0.0215776  -0.09520216 -0.31909028 -0.18477309 -0.17924996  0.21172367
  0.40241304  0.25975385 -0.02847564 -0.13289845 -0.25119486 -0.16648935
  0.2916062   0.20525555  0.0866223   0.12811983  0.08502708  0.19724041
  0.1300048  -0.27556062]
[ 0.08803701 -0.30401576  0.02816535 -0.1351559   0.18163073 -0.20186521
  0.21535473  0.31732193 -0.08793463  0.11127248 -0.03432095  0.14712226
  0.16841099 -0.17549135 -0.05416708  0.01810047 -0.10636094 -0.06404999
  0.15383174  0.18185961]
[-0.04720957  0.25781223 -0.07215131  0.0799545  -0.23584093  0.15537333
 -0.00543901  0.12461869 -0.14335589  0.06195761 -0.3217392  -0.16144338
 -0.2500413   0.0923539   0.36000425  0.3169102  -0.01418656  0.3337482
  0.11196908  0.18541437]
[-0.27185124  0.02331614  0.06895483 -0.25757214  0.31155336  0.06368492
 -0.14341791 -0.02106787 -0.00403929  0.12422236 -0.11276726  0.08992864
  0.11811992 -0.02396794 -0.35193583  0.10083012  0.2915415  -0.02478001
  0.06823391 -0.27183798]
[-0.22270195  0.06419352  0.09812428  0.204977    0.06713068  0.06202678
 -0.2510148   0.17370653  0.2614243  -0.19746493  0.2715099  -0.31841666
  0.12146863  0.08404131 -0.02044398 -0.29817837  0.00195533  0.11940295
  0.18287194 -0.0223984 ]
[-0.08990349  0.09605766  0.21976998  0.30726075  0.22512868 -0.11775596
  0.28328615  0.12361787 -0.0669952  -0.16972238  0.22755896 -0.13195553
 -0.25458175  0.22170657  0.01787849 -0.03226867  0.08685374 -0.07009304
 -0.20341001  0.06641096]
[ 0.02737431 -0.00492385 -0.02230741 -0.00526786  0.05908426 -0.01671988
  0.02374193  0.00051293 -0.01233007 -0.04181917  0.02962267  0.02212171
  0.0293247  -0.00618627 -0.04470703 -0.0632423  -0.01538084 -0.0142251
 -0.00560165  0.00252568]
layer 5 Activation
tanh
layer 6 Dense
20 1
[0.17898078]
[0.22130373]
[-0.32513866]
[-0.3938058]
[0.48326504]
[-0.05830402]
[0.38035816]
[-0.39330173]
[-0.382549]
[-0.33873048]
[0.39365122]
[-0.38951886]
[0.32956985]
[-0.36479992]
[-0.21901698]
[-0.28782463]
[0.1113996]
[-0.0840819]
[0.40778905]
[0.44509032]
[0.02955502]
