layers 7
layer 0 Dense
20 16
[ 0.26543415009087956 -1.4642374731076429 -0.42039603654381913 2.187794760763325 0.935848161277783 -0.846974149752321 0.10362181858088759 -1.6412610935152518 0.43582088313132783 0.5579220579480247 -1.2114806790865267 -1.1507101721671245 1.4217671758216308 -0.8250418775694378 -1.232389970477633 -2.5374492874359564 ]
[ -0.7356912205201033 -0.21493744869666956 -0.8429379155832043 0.22314902880240117 -0.17932274411584645 -1.3914745779742852 -0.5663897594147033 -0.535658844149037 -0.5529134950681794 -0.12389155278586686 -0.42083672032550223 0.7326396849699843 0.7604512561710786 -0.12606372205153507 0.3853266469046938 0.1399467014641259 ]
[ -0.8025807092194087 -0.1371917743241687 -1.1312674234952496 0.3089261298287648 -0.09926374265820542 -1.6367311037595156 -0.680264595902973 -0.38625821227645873 -0.29079928690904544 0.2070498969745102 -0.47397595471330134 0.8502149443937453 0.5616996560555969 -0.6325057586373444 -0.0335488766411603 -0.2620529617914728 ]
[ -0.5910997702622933 -1.6554547164022184 -0.006891333634596281 2.00036687261162 0.20676265954015136 -0.12003572161601936 1.561496988560938 -1.3558910831225224 1.2295538850207963 1.2295074949985738 -0.8086418895115903 -1.8719059667037503 0.9762010682261507 -1.3715434845849361 -1.5781446017572658 -1.8438382387332226 ]
[ -4.14898205052643 0.7940033018607184 -0.12988666091097684 0.9085454593063711 -0.7526947756812499 2.3363485108537128 -0.5934013654323325 1.2852913938454449 -0.06499758626466764 0.13743143148177517 -0.24252671824076125 1.1375971670558125 -0.1731100110448731 0.47351514044276855 0.20130288673914276 -0.8638285900759421 ]
[ 0.09698829878408921 0.1643050990657602 1.2446819183118627 -0.011655932490069208 0.05340868943996739 0.9615575898252997 1.1504982935444181 0.301171280749115 0.14737862725900125 0.04855588347555004 0.9209346563636321 -0.5043680628983171 -0.31979369857900436 0.09470817558392705 -0.3984794330674635 0.1922405275414326 ]
[ 0.5005071903624361 0.2049154725569971 1.4201306249141585 0.07592817496277754 -0.14820783807407595 0.9161733964439187 1.2620008498785114 0.8539011137963004 0.4854581784979594 -0.32968896636981415 1.0392915691981597 -0.7001432623598741 -0.9670386616876208 0.3859069227809486 -0.4512595736607832 0.5280887364895878 ]
[ 1.3273268866263832 1.743589969234211 -1.4922132277567655 -1.7358390446676948 0.3382214839797774 0.09607964119895714 -1.458550775209498 0.3001780945871374 -0.9794569815514131 -0.7937032452096072 0.6978843778458371 1.563238113551751 -0.8991799354346574 2.4816956621194026 1.4376824190366606 0.9747451293872706 ]
[ -0.9488698564483657 1.065922349660128 0.0333295329244679 0.46659458580975793 -0.3589672700282059 -0.7054114485286072 -1.5744442937808925 -0.6689231771091704 -1.1951781522894849 -0.7029926655595619 -1.0750499337743846 0.9954726737830354 -1.8433823856393556 0.8426522739310833 1.5248348480294338 0.5270392400284034 ]
[ -0.15985989883449914 0.1536293848618848 -2.143511252764112 -0.23960373782457883 -1.2582895027472025 -0.23788567107038905 -0.08672919305050827 0.6723861611285991 1.4011822801021088 2.2420941582689498 -0.7266018976903184 1.493964671413759 -1.5233173374551259 0.19831354662715242 -1.6096532694799428 0.5810091645181595 ]
[ -0.7045732860925866 -0.09838884312990498 1.1217088212268034 -0.2044395560634181 0.015857494399680684 -1.8613292078518415 3.0122075662769694 -0.17094528443307444 -3.358648659967327 1.523805983744596 1.272413119153218 1.718103528497296 3.5044045386352476 -0.14388094842719465 1.2732593578822626 0.005165811107603327 ]
[ -0.8293221024195476 0.31768062357396015 2.428548712196543 -5.462118859013581 -4.321712507194362 4.323636708099731 0.26737176981129335 2.8449471955310006 0.5937252522426143 0.7454901065737182 5.771821143288979 -1.2377995608930525 -4.068787423109401 0.19549352682451443 -0.33070637557881516 4.973123796051628 ]
[ -0.549345434856885 0.9886126448221385 -0.4814151982878352 0.8830133158380035 0.8190860236159101 0.4628422398974188 -1.547353458586485 0.5893201479469913 -1.3145336087522204 -1.520870464979391 -1.7834420309437566 1.9583356428860783 0.8828114574047352 1.0759960245754452 0.6943217211725061 0.022828456304662313 ]
[ 0.7761498235921807 0.17939802612140682 -1.58097229829993 -0.18048609594505363 -1.9470787548802828 -0.6531499649924718 -0.22249671508579308 2.1329622836321076 1.0658115074072707 1.0401415398605445 0.005002836683700854 1.1177949273927574 -0.4841642182288662 0.05344313628035894 -2.5404755545042836 0.2967916228188255 ]
[ -0.6177394127980457 0.08860180343420693 0.4557605617206175 -0.15492315108100002 -0.050293412228238674 -0.8466897744055278 2.8596978372848914 -1.3853859421711672 -2.29915919003077 2.07793017533455 0.5283484829262365 0.6286812268913738 1.8621108765296779 -0.13220137731937878 2.889149725741115 0.07618718944549728 ]
[ -1.0186729504870575 1.810900420723327 2.3833268287818266 -6.629250844015421 -3.6195414722175303 3.5552582961836023 -0.19806599905109287 1.222040649416246 0.17764025805119224 3.052662630110858 3.8253685645645636 -0.44869983160889315 -0.5254467319626809 0.2079573311845594 -0.16592938170853477 4.735559941015995 ]
[ -3.62693339534567 0.450872427571113 -1.2624233678689525 0.1564880674035659 -0.5228680679984966 1.9317222519473654 0.701679371609453 1.5627632993574083 1.6109243535775646 0.2615043903259542 1.6692132254746106 -1.5078686740628104 1.0411949396102127 0.6750329329254721 -0.6671421603143745 -1.8603889680828447 ]
[ -0.8560911269330918 0.13194227239623585 5.573675829791052 -0.23942236878536846 4.637924062728999 3.31699940546879 0.9286830330763494 -4.390380384637294 -2.704074537933754 -4.922107118871477 3.1505705544001765 -5.186854097060669 0.5618283798285373 0.13380173155350228 5.399480260894961 -0.11368011845570926 ]
[ 1.1778918889350396 0.11215067400413796 -3.152102960371653 -0.25462406717915226 1.3497690140713183 2.8053860356976346 -6.153169898803284 3.6305134898379823 4.977215573759198 -4.900764855494884 -2.098569685978365 -5.006890552323104 -4.943040151371826 -0.015976627525830858 -3.8010538600903634 0.5976770384471816 ]
[ 4.1526583876486125 1.0798157175821577 -3.8955935952316354 4.1694027938472304 4.295444800048544 -4.0571183978942456 -1.6380739333925434 -2.932707064772069 -1.548697813546616 -3.367355452257683 -3.594318057258198 1.8011135765109325 2.4920792643627085 1.3339180237399852 1.622628925323858 -4.5721546412602905 ]
[ -0.14124774697057546 -1.877749125836527 1.0181878808572247 0.9987581224880746 0.2796705065004417 -0.7253849895533424 1.7957120762158625 -0.610593392089216 1.2215432043047199 0.9992483346876788 -0.5151619023832604 -1.8504662840400639 0.7865140047266261 -1.9506502637740908 -1.8110599600304202 -0.7757916549743612 ]
layer 1 Activation
tanh
layer 2 Dense
16 32
[ 0.01917089106729145 -0.3230751103101949 -1.1872038982855306 1.6951963920761333 -0.20797129775176687 0.49149699309243605 -0.593180577202892 1.9377805828207275 1.1779791188830193 1.532764832035381 -1.9993951022244576 1.4647139117371288 -0.9442407809797034 0.2809273754250963 -2.526891904043826 0.33314324128051176 -2.3606959665489833 -0.8760442967803781 0.8901103893035267 1.7441815315482165 -1.6497129307449911 0.59580201927277 3.8506919782135958 -0.23310686113123005 0.4455815625905745 -0.4545115038001066 -0.6575887721254091 1.9163161128424038 -0.2896622081805593 0.02219847341510013 2.8456686264271442 0.6185891076159961 ]
[ 0.15446291532005652 -2.612146090766073 -1.5658180785661189 -0.5363618846001746 0.02043550128099906 0.5179339137315514 0.48718326589215954 -0.33322787559632067 -2.189650642623857 1.0967471846378605 -0.8142058097921904 -2.993235086487405 3.61720184324456 1.536138842588766 0.24159112284579248 2.4421079482450643 -0.3746973268687167 3.7392186769898963 0.8573928374041826 -0.47805999010346534 2.9084563697729093 -0.6769092237287814 0.3842321024356903 2.990196131554234 2.3995771239098533 2.9306861665034813 0.6287525684069577 0.8374326247151253 -2.03601626744576 1.7167060511384429 -2.7545615606543565 1.2819959064602489 ]
[ 2.478013111535789 0.4769030524859104 4.0982864162185715 0.1111903788215027 1.2332083660111262 -3.537013420604189 3.3053777068902876 -1.8724403866600499 -1.8544201471931887 -1.7692982558316392 3.34164768476071 -0.9497075987826739 1.3742273885619591 3.6642732891223027 0.860040209960909 0.093438750472762 1.3945754504864674 0.18193584380676037 -2.647364379060614 -2.3998822747743143 1.2333152661008193 -4.255003924310222 -2.363017830319378 0.012792281375950055 -0.9872271181668415 -2.880249617760304 2.46201984771799 3.5258682257014957 0.5880033056934616 -1.3827722622169343 0.21233852896246405 2.820382015961695 ]
[ 1.5235756667950229 1.2215871791957036 0.8056457660355264 -1.3488111036663604 2.540036711452506 2.0831392916772553 -0.1786238240082671 1.931262403449861 4.2291794597145005 -1.124890742742745 -0.7786773120660856 3.969974140956013 -2.6737032388735242 -2.3215732037000216 -5.381995440447898 2.4048693158481567 -1.7883937991020913 -5.008954599746442 1.9233048892493456 -2.276602642998753 -2.402362633666595 0.5071801228463048 1.7165069689347114 -1.5481523277847242 -1.3476972151926045 -1.8050950287598544 -0.2713524208624893 -1.9978124170357459 0.6987932051290889 -1.1086309970975858 2.4893175510350476 -6.031778149672959 ]
[ 2.5036021668179598 -0.07687410394727553 1.4128109469363583 -0.8933501798832886 0.3505053897037939 -2.4963087298215076 1.5808475421406014 1.3595495186050912 1.6446561399674113 -0.44893129763657597 1.744502276529566 0.8877847067310676 -1.4858338724405822 -1.8527990701072936 -1.6739640628384396 -1.5477975456231463 1.1112275827429947 -1.292487031209497 -1.7159235180704078 -0.5579043077463159 0.3898154247310273 -2.053128783778562 2.037901176001787 -0.17804616173800578 -0.2060848368248516 1.6729418571766344 -2.5825027884718175 2.951086000862146 0.49775289200460604 -0.4586632546639491 1.9517812408718573 -0.8284395147474602 ]
[ 3.048417078561203 0.3503655597817326 -0.6080220485144646 -3.890465993614098 1.8354523314377733 1.6781510727639342 0.6713584161446801 0.4071062855241882 -2.0563199209072183 -0.46426563509416463 0.47508933655024477 -2.0226171487702933 1.1258272571928776 -2.988042153754111 1.1075164738354086 -2.994687292245004 2.988432438748321 0.3237881533836426 1.196719781336811 0.1958026871592336 2.3380182378951 -1.2048604934415854 0.5365734837971051 0.45333783551386625 0.1903447010796535 -1.8595629306927846 -1.6829564549546554 -1.5258471965247429 -0.04690111917357832 -0.9191393754938353 -0.6438451073327024 1.5166227671019008 ]
[ -0.39842106872492056 1.0507612846100232 1.1440910097229267 2.3666625257389633 0.16117003648335862 -3.3581779411171966 1.8176382954484867 -2.4812934461752363 -0.8972553435312945 -1.2352940742042917 1.1154564622821288 -0.8169405539827288 0.4811859417043801 2.1634198702973073 2.084608755402216 -1.2474280667918258 -0.6004489881284876 0.9581353108284781 -4.219300902747534 -2.536069787219428 -0.9131203932081182 -2.870956573373467 -0.02945892151046863 -0.07486295018469415 -0.7181533125057841 -1.0334952955065815 -0.29525344636204204 3.71471653044198 1.1565159041723008 -2.9684077870451424 -0.9372899908748796 0.592323349198565 ]
[ -1.7507619993358436 0.02205506947003051 -1.748440033736972 1.1896742197208425 -2.2132314155788677 1.1192260184186833 0.0694924468790787 4.368743947503982 -0.6136841740955309 -0.3630387043782755 -2.4181089751260902 -0.6428559014711671 0.2542414366406901 -2.972800681555246 0.986445429001224 -1.7319815420460938 0.365828310698215 0.32875571469784604 1.643537752026523 -0.20896849225949507 1.4849809584571187 1.0732148862202922 -1.294193284974772 -0.6404857012692966 0.19081472065564453 -0.6994898673146345 -3.795479082763238 -1.3006454186370637 0.5904125472752199 -1.1289746279800268 -0.5566612644090684 0.7431166995415922 ]
[ -3.4143842566975597 0.2894469000937242 0.045188196055899285 1.2798845752474812 -2.3071098690132144 -0.5272498100483111 -1.038820584559735 0.45232334249881484 -0.8906232672009136 1.1594760550894814 -0.35054799036984446 1.249891449425588 0.5828246373725536 -0.030077283200161974 -0.27401863766679685 -4.603348580895011 2.5779829192601516 0.22995382381268759 0.9479871734062039 0.8378817884862131 1.5903107151955056 -1.6543936571436841 2.19151863425511 -0.3622512983037803 -0.2095908440622986 -0.8203221325870974 -2.301605744183698 -1.8498274967965709 0.5215534892787302 -1.2285625483448435 -0.9651453366438816 0.6029038052787944 ]
[ -3.391715731852081 0.7272357810466119 -2.6321815715785273 1.9638973376039297 -3.503088467085359 -0.358834818585985 0.4756859645578169 -4.07384574415429 -2.1826436715564084 -2.231898523809787 -1.8363730723631724 -1.5837721555971016 1.462541129136852 3.0462200124269727 2.579426310857432 1.4519715404834643 -0.870230844397816 0.9543799519702155 -0.08891071107263543 0.14384230818590085 -0.40881412344324586 2.813979680915143 -1.4573278601874433 -0.256531865910183 -0.3105234257905562 -1.3594742536723654 1.7922045174402301 1.496107003227186 0.6966620764612903 -1.5013587064953298 -1.4047023288952438 0.9876846388733157 ]
[ 2.7508702385558474 -0.04636915302983973 3.5013205734310953 -1.7079254152369854 1.0570459820721496 0.17997304974862147 1.38472046155351 1.8575465731178462 -1.8147602961425913 -5.85253950402986 4.024990153995277 -2.236763370102036 2.240805124814027 1.516178417544352 1.696681780911787 2.00295872411275 -2.2610115809062683 1.0882875289297704 -1.779439275805004 -3.965154606647977 1.118733451722049 0.274719267508523 -1.8352759749025287 0.32217761900711034 0.9792378715019168 0.42899282666053234 1.598618161157689 0.09801544969402894 -0.6121679172068124 0.06153024523024407 -2.494169259541609 1.738678448281789 ]
[ 0.21374421321641365 -0.3000963769111653 2.234150296570138 0.20724598184846657 4.457174186458257 4.74751875071753 -0.02408468754002036 0.6912974491183075 1.9027807221787096 -1.902321642455258 -3.0158425160542977 0.0018099630428838908 -1.1190437701291827 0.028644338822734382 -1.5988859727894469 1.152589804398307 -5.045039885306608 -0.75487860609443 -0.05926584498603651 -3.2182236171467182 -1.6637821843390368 4.268429969004719 -2.5495875528806966 -0.13736973221318774 0.2906272676500288 1.2492764521935478 -0.3946597102172838 -3.6213566157011985 -0.5791447621193889 1.9657713592700374 -0.11492721982130714 -0.8355141415064207 ]
[ 0.955984642324771 -0.45705455777828635 -0.25301843643298194 1.6661574072795102 0.9290978728448684 0.8087632044628206 4.521711824724028 -2.928284833886697 0.4117814128998569 -1.0880358030922352 2.0540022471093793 -1.7781889571685783 -0.47677572520815886 1.4094645161941965 -0.8153806437515004 2.032315582986224 1.2176830067186395 -1.1635314829324679 -2.891769031444651 -0.4943952543549262 -0.09756672715953224 1.8772928194304979 -2.2233073448927834 0.08526062809461694 0.34005164360929035 0.8748829521087464 1.9700042386476158 -0.3111324679992854 0.1328580040076691 1.126906893969134 0.8205360353285835 -1.145026008026281 ]
[ 0.002055656633635185 -1.6958520674909086 -1.3460279556405974 -0.7333455078756437 0.4233702311979091 1.391905861193829 0.9267695938900117 -0.11442561586049355 -2.341575107796392 0.968087641091436 -1.7328419316693275 -2.50306899959863 2.6878909858430147 0.5688700230194936 -0.28010710546361245 2.8080662520480835 -0.13903196449781352 2.914508966056156 1.7094927645083982 -0.6343965900393689 2.934126146753668 -0.21966508602545842 0.4033368875208213 1.932256290529946 1.9962358088996066 2.136964289347835 0.4869816364084688 0.737594756028399 -2.0463835540226416 1.4725291047479239 -2.147310656497261 0.9257573955103199 ]
[ 2.6038393677259717 -0.019032150974217468 -0.13847149399850472 -3.728850125926912 2.296580230157853 1.3478150832347624 0.7252681315845377 -0.23063194082664465 -0.5078899239328609 -2.407553838124608 1.4340356570605417 -0.5725818762076567 0.5461272481661306 -1.208707941015276 0.005031636458241378 -0.5318927656920542 -3.0297255911527166 -0.4027120770549822 -1.9788962143053357 -3.3880980410581247 -0.03992595962429447 1.6193837058388305 -3.0031375395098165 -0.1786567669389926 -0.003978442620595994 1.42691055534674 2.2594711636240463 1.517965057992816 0.44421272191600203 1.6698851985160816 1.5777303587822589 -1.0736381744060335 ]
[ -1.0937123383073688 -0.3859288838262471 0.05201952305417213 2.040521596543015 -2.3213283964432017 -1.9832663728965076 -0.9095552916936692 -1.9197447760609907 -2.2394980229259676 -3.085293447309382 0.754976462283776 -1.18631248380429 1.5297632454362122 1.6419404783439266 3.6201318081886025 -1.5543308095557447 -0.825740277816147 2.3125061020106124 -2.15384518343988 4.90384364371965 1.9976085172620097 -0.6902908276789367 1.8314521401002113 0.214881128157925 0.2571683793302984 1.0717185112630505 -1.708181395922175 2.5124474401130867 0.46543546425401255 0.7566766328819453 -1.8794263698895797 2.3150296504655925 ]
[ 0.1423120175859147 2.0605739847985656 1.5699094809197593 0.3339596202121214 0.014859671248675755 -0.7307956363183491 -0.7757668403922787 0.31679732045654885 2.222466613297871 -1.387745820818903 0.8953651562893555 2.94948211904348 -3.641175974132252 -1.5112416833250744 -0.22632554020884937 -2.475319121693289 0.3375020675013479 -3.4139213501758534 -0.8701886992345071 0.3998120758462944 -3.1087137594577587 0.5440884990684012 -0.39224014629823717 -2.38195520339135 -2.40198165698641 -2.2123123754942773 -0.6423747377132112 -0.9932705975741263 1.8580350925337374 -1.4728640050994255 2.8739436709320905 -1.6775063435028925 ]
layer 3 Activation
tanh
layer 4 Dense
32 16
[ -1.405999061859128 0.05794800840755529 0.44085815179682636 -1.0193496456335513 0.7965813827070174 -1.1968134137937767 0.874088320741345 -0.2762999782517769 0.3574287213310846 0.9914457138131902 -0.311741544533668 -0.42965606443568133 -1.296611930391211 0.975171489504744 -0.07717215607284736 -0.13303550309170364 ]
[ 1.2769099274845586 -1.7483896033745616 -0.7472714187279453 1.2322788864637957 -1.4225875429149162 0.9791869713964108 -0.9194560354364707 1.2571262293242471 0.2884279081516868 1.799754896177946 -1.5764503157856593 0.14938248708118346 1.4534479407530152 -1.4846906254220587 1.0469096435162895 -1.8186641287152334 ]
[ -0.2551381527056255 -0.3864899462677257 0.8523852358035348 -0.18751485683601993 -0.20695538217658566 -0.49766030924089977 0.278936666427012 -0.24986197240707775 0.1982721638598518 1.394157097389583 0.06955140771531414 0.6251098550480233 -0.26724411309850366 -0.30055419291357616 0.7990526026779062 0.6647456218040777 ]
[ 0.007500939391562541 -0.9826634722220856 -1.1720933546619532 0.6655168072382912 0.03512003093310957 1.862655111765642 -0.9915085820038887 1.272212250877657 -0.6386515313678576 -1.3940364842197612 -0.3819865838395581 2.64024276202759 0.7629896073690621 -1.2385013013051858 -1.106992687738783 -0.638682568499374 ]
[ -0.16288105249997173 0.17770185464955787 0.21808057798451008 0.22863533500027122 -0.1320215128659751 0.10255322829912832 0.15759677848663456 0.2683156760581395 1.1863406782939507 0.640709381955504 0.7617448915515429 -1.7183638508966725 0.45777947111842965 0.39252728533453435 1.2529006377095153 -0.5707924046786276 ]
[ -0.34154815400002636 -0.25510141104466116 0.27665132915300533 -0.9748294471596812 -0.23041169693057462 -1.1561554775471734 0.6607203290965316 -0.37501970827696546 0.5967508119069773 0.8480920378623727 0.43655472955393254 -1.5050749049207548 -0.3385121426850256 0.38554724696446024 0.5979155736358502 0.00755914033311559 ]
[ 1.3339205591780499 -0.7611856172695791 -1.2085133382979913 2.3538153295343855 -1.1814536403862532 2.857438207724966 -1.6750760224035102 0.7682587102128031 -0.46405610696888777 1.2891834184439088 -0.9663430540785363 0.644799103000728 1.1206313813386648 -0.9212721608590361 -0.11408741782062669 -1.125878181303025 ]
[ -0.806990937514219 -0.6244624746865688 1.061576477682675 -0.6678586392038726 -0.09663220273560105 -1.748826421614305 1.1959781696940086 0.14664845814132516 0.8969437692033748 0.9223641831165988 0.03805898447973419 -0.9860688775031076 -0.5564123080417083 -0.10861700884475511 0.36897077414101676 0.49540048887011773 ]
[ 0.7173162845096169 -0.6969039276836783 0.028685659835584874 0.6330356123819885 -0.6505731847790065 0.7187628996967518 -0.7410974385193027 0.8074009743070164 2.8051920531211985 1.8429869509503871 -0.5225702335591863 -1.7016438663928783 0.9483969657219314 -0.14221809280966366 2.6726065037629616 -0.3278163294053486 ]
[ -0.46112673422049244 0.2754911164321165 -1.4029336144166262 0.3422141327592254 -0.5010054837907488 -0.18803600412040525 -0.30043581733345287 0.04840413300285005 0.014434165781914412 -0.9331111662679065 -0.06984315931998508 0.4198811742987837 -0.07494262864924661 -0.3733714768945046 -0.2244051809426055 -0.6233484869770011 ]
[ 1.7084735183767308 -0.1576184341961339 0.10325775511341945 -0.14420734655295336 -1.1997587358342225 0.0633160367977894 -0.5327665828451768 0.09549770461810823 -0.3366324824968202 -1.0072487212572112 0.029988749530786667 1.183648622430051 0.9985253584764708 -0.30346170173645887 -0.6175698237844708 -1.1319636953701755 ]
[ 0.4537291559345969 -0.5528615086312056 -0.46596904810460443 0.30145827591273633 -0.22440819909078305 0.23210053279924728 -0.5230329103129592 0.14220965199154006 1.75542093243734 2.776265182609554 -0.998641220608956 -0.14598795704175258 1.093455543957746 -0.4485518178110802 1.6338569816564208 -0.6353595896391774 ]
[ -0.5644200941865517 0.657151651670808 0.18529421412603006 -0.42102794526280746 1.1598979012101178 0.036717845778952256 0.1471628204883089 -0.7851518236892578 -1.4851316086091682 -3.652091776391408 0.6774257563429918 1.2892397118832775 -0.522991678363304 0.4489621544916746 -2.986320983661413 0.21112836959242332 ]
[ -0.09163369720706761 0.06102211425952739 -0.8690288509442674 1.3178993921672606 -0.7311548704220537 1.8131389666687276 -1.2883247312359924 0.14503684544989698 -0.8906205148790646 -1.710731598429445 0.3993405182329279 0.18460933029013996 0.36814777880636973 0.07116478921675663 -1.215642103631708 0.3535027266523003 ]
[ 0.06273782313118428 0.4633200285392674 0.37679049121897185 0.1511655046218606 -0.2541352212598769 0.5824535040764903 -0.3842619286446419 0.33276359795593674 -2.9581961556420566 0.18852807503880092 0.34717801613019783 2.8635366298965557 0.10383665207338426 0.339601449365737 -0.8353372334495222 0.13774839594088228 ]
[ -0.745626876194689 1.3529108485284465 1.3962653740562752 -0.3845538434028468 1.1107396904987517 -1.6623658976480282 1.1607794556019173 -1.230039410050331 0.35716125165769164 -0.2837278060300119 0.7751647581813622 -1.1346498506931257 -0.5496488151067298 0.9835215191973841 0.46943627254911474 1.291926846400183 ]
[ 0.3667291546116271 -0.38911503573091677 -0.45721262855088524 0.20074179395871128 -0.06296457532297237 0.9534008848178332 -0.8419760034086428 0.11638814538031027 -0.7621010631107943 -0.44422248165007305 0.02542124767584107 0.3057592878510553 -0.2218595163619745 -0.581103394355823 -1.1128545434748716 -0.19231915590727855 ]
[ -1.0644623362829575 1.2103848117554683 0.1542244461942287 -0.8600268868789365 0.34081467300723606 -1.1870302728335138 0.9557792333178368 -0.8726291742736396 -0.7225478109997836 -3.0231138974777885 1.1300903400821398 0.6010268140635863 -1.5386031770790867 0.8749402263188019 -2.6367113846904178 0.4859708970419987 ]
[ -1.4112944718347886 1.031316476651516 0.1769158342903614 0.45184042395346286 1.5017361698890337 -0.49378252891841223 0.5390149662261388 -1.4729187949001226 0.23954897294700792 -0.8618322033651932 1.7531100027896462 -1.630436597570349 -0.8569001912963401 1.1530489006015705 0.6472913050164821 1.3923843697568068 ]
[ 0.7204375377759683 -0.20107461181043057 -0.5644088254064764 0.9613342988007967 -0.9209977876629287 0.8961681132635054 -0.8443571113099173 0.14051332741103112 -0.2857736807044568 -0.9334768777619252 -0.6299654953940836 1.6534027221484602 0.11429202204636135 -0.8312272224002087 -0.6812686621523704 -0.5415370209726066 ]
[ 0.07316732785051933 -0.3354722697545239 0.026182345281344634 -0.255145051777028 0.8884871344682069 -0.46280085361081635 0.07235525862949425 -0.222979027622029 -0.9930976750727045 -1.874308515559149 0.2107840056869504 -0.0757127890203842 -0.6446333375266466 -0.010191544670381586 -1.2425331397914614 0.03727864799610249 ]
[ -0.14798726027054127 -0.31304219778926146 1.5345937181117029 -0.9547053592226525 -0.67174397238126 -1.115282431291518 0.7828992256818327 0.6804032619936007 0.9041241335915223 0.4608338486053753 0.12944925428011245 -1.436360834363612 -0.03310353523537376 0.3761537461818577 0.7646454802520827 0.07795129579553316 ]
[ -1.299589388458756 0.5631028623571167 -0.18033754930377205 -0.5727412086120002 0.5012002455372603 -0.7227207659348968 0.9604676888537248 -0.3215981850013538 0.4499216792907342 0.650126345523102 0.28754088755778245 0.5400021992118367 -0.7038244876059365 0.4909139059297838 1.2259878700851246 1.0949800019670606 ]
[ -1.1027368110612503 2.20144056415111 0.5863767042523927 -0.8532531588197171 1.225247484590365 -1.2959236639989777 0.5827841079290712 -1.7659623151768713 -0.15191178712452522 -1.2843687637614074 2.2378970113537155 -0.06910107395644297 -1.7517316523473079 1.4904380043988785 -1.3438938347716571 1.4586899571665395 ]
[ -1.2697367298063524 2.050590714608221 0.8668242490257184 -0.9296339534504799 1.196675198806336 -1.4961895667906375 0.7343860378771698 -1.4939925382525165 -0.3199368981667171 -1.4325432162543719 2.2694528995933174 -0.29795382447847896 -1.3768594608911873 1.0459277281817136 -0.3722450181796633 1.6784118206687484 ]
[ -1.2567730800898131 0.6746181144578073 2.050962878339658 -1.728309033490661 1.5836951597835138 -1.4325718198377915 1.8234705376561116 -0.6740901438036215 -1.392546813597689 -1.9774605881975134 0.7259613109470318 -0.437820133121509 -1.030447650111157 0.9805836358948796 -0.7442694874080407 0.5855334052060513 ]
[ -1.2157228205829826 0.6314345827275659 1.4227822958444758 -1.741593696291918 1.2415160672650816 -2.1104569162705844 1.5460864496738618 -1.067450431845664 -0.035722221197590484 -0.550184236141431 0.21067200579485545 -0.6827727740552355 -1.3767016136509176 0.515463884395644 -0.33245233422380743 -0.15626796896440878 ]
[ 1.312342875614291 0.2499775402301231 -0.6452305851188392 0.9470121636074139 -0.18761125596042538 1.2546883502507105 -1.664722573069104 0.015483828824419062 -0.5125374813697694 -1.6990626293090487 0.18837793625830285 1.8961783365714149 1.1802792511666396 -0.060273346559955254 -0.9626358911058084 0.39671745928300445 ]
[ 2.07393074300441 -0.8396104212812416 -1.008435977561821 0.6104333595457345 -1.4549688353281582 1.486579614971374 -0.6344120525283828 0.738170282613401 0.006797446567669415 1.4582118441231604 -1.0898763611414064 0.5420073903739668 1.7416071678709069 -1.75008555109553 0.44580933405495143 -1.7980634726477054 ]
[ -0.9316819097484731 0.5457775545899075 4.263291121862262 -3.04092393858585 1.5445765790808872 -2.832971052456523 2.4160217556036567 -0.9141242492074835 -0.088000903530894 -1.6374292879633032 0.9032171487314966 -0.47271791936218477 -1.7280640640557061 1.3958212826843464 -0.7531229657564258 1.0660042468430286 ]
[ 0.6367739675183278 0.41017977902924757 -0.3520134615206664 0.20240706547693202 -0.29197671144311343 -0.36948114104145424 -0.4695711847057745 -0.25946650147629874 2.2340592449826864 2.4294111744486697 -0.4734726376650909 -1.0653316676329028 0.20860462783933625 -0.31540593828437824 1.4300759794930538 -0.3947708910649637 ]
[ -0.6026786360500234 0.44265751072222864 0.9800321400128723 -0.7996760671419775 0.38206256271714345 -0.9255302652994694 0.6703458918079199 -0.19013196972490498 -2.5708479181175674 -0.3570722128072737 0.23706480854356068 2.2201400686481954 -1.185222783806405 0.06013546099327005 -1.6310626253018832 1.330573786757761 ]
[ 1.3824297052995829 -1.865292812035038 -0.7915189628556805 0.9849447113033095 -1.4819849906341924 1.283559374898095 -0.8791182648203143 1.6860569419734888 0.2154984648149513 1.5588004163471376 -1.9812880436618439 0.4484903184957264 1.5813129118296467 -1.0238487346937912 0.9928543772319206 -1.585448470351745 ]
layer 5 Activation
tanh
layer 6 Dense
16 1
[ -0.09987004293831254 ]
[ -0.47067018628430585 ]
[ 0.21671095591656564 ]
[ -0.2537346326305984 ]
[ -0.09722884268924825 ]
[ -0.2274273642265155 ]
[ 0.2527369244562362 ]
[ 0.16917754409753488 ]
[ -0.07451894770664032 ]
[ -0.1668412027543021 ]
[ -0.4695033500311892 ]
[ 0.03529908620200583 ]
[ -0.22721482898714157 ]
[ 0.00376971934564412 ]
[ -0.11386314210141024 ]
[ -0.0496132155241035 ]
[ 0.37607526382008544 ]
