layers 7
layer 0 Dense
20 20
[ 0.24865928  0.04236083 -0.3038121  -0.19317842 -0.13763338  0.09556931
 -0.20734836 -0.09069625 -0.0218382   0.05345953 -0.02234409  0.04501865
 -0.17107739  0.05700829 -0.19371252 -0.2527539  -0.27681434 -0.0022185
  0.27159178 -0.00175544]
[ 0.63831663 -0.7076526  -0.32168818 -0.05929542 -0.50792414  0.3797406
 -0.71046203  0.5212338  -0.27666065 -0.03253202 -0.30716103 -0.0857558
  1.003512    0.2449974  -0.4530374   0.06306297  0.16820481  0.46207267
  0.5028471  -0.016673  ]
[ 0.5754252  -0.6159765   0.17527992  0.5730864  -0.09161023  0.29584435
 -0.12685259 -0.00842652  0.03389626 -0.1451476  -0.19967939  0.56923115
  0.50809187  0.20823126 -0.20534898 -0.36898497  0.13349827  0.6409989
  0.3794546   0.46904036]
[ 0.47189564  0.55962527  0.26414135 -0.01615043  0.0465549   0.36024168
  0.19189769 -0.16268925 -0.28347751 -0.10827935 -0.03853729 -0.24845786
 -0.23713425  0.2860175  -0.2694239   0.27648818 -0.15969427  0.0007936
  0.10628092  0.25569433]
[ 0.13954888  0.09660754  0.43077785 -0.21884975 -0.22149223 -0.39006284
  0.1864026  -0.06931427  0.24750571  0.24244079  0.10399542 -0.28147212
  0.03068269  0.35114667 -0.23714402  0.44750446 -0.2959337   0.10138614
  0.31528318  0.09471817]
[-0.4699946   0.06676752  0.14966401 -0.23625559 -0.11779689  0.04480773
  0.35374472 -0.00817992  0.44091135  0.42087466  0.60011876 -0.27574128
 -0.9885034   0.04077021  0.10814138  0.03277164  0.4364248  -0.61620456
 -0.6059728   0.08755907]
[-0.29462627  0.39921048  0.1516139  -0.14125411  0.41677088  0.01541397
  0.48296738 -0.39499193 -0.0562804   0.45990518 -0.01452719 -0.5348523
 -0.4431255  -0.0063454   0.39097497 -0.04795761  0.30897355 -0.08629647
 -0.02854816 -0.29302445]
[-0.30341125 -0.11682086 -0.30514228 -0.19991548 -0.15900463  0.2756165
 -0.15058063 -0.24130188  0.3973286   0.03660794  0.0103041  -0.37075266
  0.12148281 -0.17603946  0.40823433 -0.35369408  0.46962082  0.5733841
 -0.4119921  -0.15890281]
[-0.6090037   0.45743862  0.42719787 -0.6850955   0.60051215  0.49216753
  0.92087924 -0.53094274 -0.06471677  0.7475187   0.6792923  -0.28058165
  0.48798862  0.29672027  0.2753251  -0.52133363 -0.02801925  0.00708891
 -0.07772016 -0.82607955]
[-0.14767843  0.5381305   0.25465426  0.1513544   0.26769653  0.19693051
 -0.39574316  0.5178508  -0.03781346  0.039084    0.0993907   0.00115037
  0.3209521  -0.27487522  0.45107907  0.30174077  0.11721362  0.01352043
 -0.18170519 -0.07116649]
[-0.43182546 -0.42078698  0.11602569 -0.13115449 -0.06319814 -0.31155494
 -0.05791077 -0.30551246 -0.09309722  0.07197664 -0.10011044 -0.02434313
  0.07796651  0.08255709 -0.05467849  0.22183168 -0.12887187  0.19198063
 -0.06285602 -0.03511106]
[ 0.39933008 -0.15576226 -0.46220013  0.7046731  -0.49497655 -0.8367237
 -0.5937472   0.14996417  0.62726027 -0.49363196 -0.29118028  0.21637024
  0.13448152 -0.33816582  0.22189039  0.26007938  0.46917725  0.34674022
 -0.2224578   0.68875146]
[-0.41756323 -0.00407774  0.2089797   0.6653651  -0.29276437 -0.2818839
 -0.23483866  0.04523045 -0.11808407 -0.35808882 -0.7506157  -0.05465906
 -0.2277624  -0.1225781   0.1274973   0.26896587 -0.37653494 -0.07827585
  0.33972648  0.34421426]
[-0.21184038  0.4650083  -0.6695519  -0.4348804  -0.99442786  0.29158017
 -0.42423716 -0.6068473  -0.41294935 -0.12728804  0.6911025   0.13387309
  0.00909539  0.12852025  0.00432324 -0.00467836  0.10947407  0.0339342
 -0.52447015 -0.03592411]
[ 0.17845064 -0.03380761  0.22989984  0.02925123  0.2925871   0.87222517
  0.29507577 -0.13143913 -0.14817415 -0.7116213  -0.03304137  0.20453894
  0.01877466 -0.55908453  0.10683385  0.37795222 -0.53089356  0.21211852
 -0.71654934 -0.13448472]
[-0.24427749 -0.24973357  0.20568205  0.27166414  0.5227966   0.3026651
  0.4013497   0.08574907  0.541666   -0.17065588 -0.60668576  0.1250092
  0.8284917   0.16215757  0.27896908 -0.30172527  0.16644853  0.49662694
  0.11492205 -0.09161419]
[ 0.5014674  -0.33747828 -0.44001484  0.4855012  -0.76526815 -0.5223601
 -0.3023884   0.37952513 -0.36580372 -0.7368249  -0.02781792  0.15240392
 -0.08950058 -0.01519076  0.05012295  0.632832   -0.00541598 -0.32880774
  0.03485851  0.26464376]
[-0.1743819  -0.58273107  0.07201429  0.8173126   1.0987692   0.01692348
  0.15503368  0.5753037   0.26071426 -0.09232414 -0.29251716  1.1148936
 -1.3966644  -0.17633998 -0.36597118  0.05953056 -0.16830198  0.30706388
  0.31896427 -0.15071681]
[ 0.1558845   0.77849066  0.60477847  0.01181814 -0.41342562 -0.8355454
 -0.6920039   0.0225546   0.0180001   0.50940424 -0.19322173  0.39929605
 -0.47187474  0.7223815  -0.05159734 -0.15249798 -0.48169923 -0.14255899
  0.72015834 -0.06341408]
[-0.91578925  0.30289805  0.5018502  -0.53807    -0.02408963 -0.05880663
  0.91103816 -0.7000192  -0.49307254  0.23937874  0.3223381  -0.39781973
  0.6062789   0.08406191  0.7702505  -0.4511349   0.45617756 -0.22627577
 -0.7942938   0.11945572]
[ 0.24805287  0.14760569 -0.06867491 -0.05057198 -0.04598288  0.05621308
 -0.05671614  0.03592077 -0.02725586  0.06049353  0.05593296  0.04768296
 -0.13096836  0.11897245 -0.01354788 -0.12311836 -0.03480524 -0.15876354
  0.18823774  0.06338405]
layer 1 Activation
tanh
layer 2 Dense
20 40
[-0.03476719  0.26501918  0.138853    0.05123882  0.01088931 -0.23780651
  0.16914375 -0.06544203  0.18275909 -0.20678616  0.07183259 -0.24547604
  0.04333004 -0.11013065 -0.08284152  0.2206614   0.02754305  0.22522984
  0.05581783 -0.48552388  0.18161686 -0.08419903  0.01738643  0.0389134
 -0.08672331 -0.05887018 -0.13028508  0.02547564 -0.05461054 -0.13329662
 -0.00602506 -0.03248456 -0.36683854  0.28667876 -0.3226719  -0.2889056
 -0.08358689 -0.21341583 -0.24802332 -0.12438767]
[ 0.13329382  0.10510037  0.20871791  0.00465285  0.01088932  0.05301043
  0.23435616 -0.3570704   0.19324243 -0.22019377  0.2795701  -0.27425796
  0.03329093 -0.11702137 -0.1387726   0.2922677  -0.22419024  0.10106995
  0.33394685 -0.15027326  0.33167338 -0.1002491   0.07176962 -0.17628293
 -0.13851917 -0.09277031 -0.09913628 -0.25318697 -0.01668487  0.0694105
  0.29606816  0.00200867 -0.09932689 -0.02100562 -0.34906262  0.06670029
  0.17768233  0.18730001  0.02358626  0.02160991]
[-0.10955409 -0.09243659  0.18421607  0.09162725  0.14176512 -0.03996468
 -0.36396423  0.08118531 -0.36722767  0.05485955  0.18784781 -0.15931758
  0.07536314  0.12682356 -0.26325554  0.11967654 -0.3482044  -0.19262566
 -0.25493762  0.35745886 -0.08306947 -0.08990452  0.02533308  0.06373967
 -0.11247391 -0.06504234  0.03959838  0.2842627  -0.08570577  0.02200918
 -0.08778965 -0.18881217  0.0066152   0.17694886 -0.05974814  0.16785923
  0.08054276 -0.16109993  0.17076786  0.34732538]
[-0.0874257   0.39991143  0.2878385   0.18992463 -0.00108502  0.05870651
 -0.8795559   0.34762272 -0.20293632 -0.33107993  0.3388395   0.33195227
 -0.1405092  -0.11757686  0.00973152  0.27507496  0.32167524  0.12572211
  0.20141698 -0.4958926  -0.02321047  0.09073232 -0.3184117   0.20594919
  0.08955228  0.13602912  0.03773147  0.19979708  0.3346069   0.39485514
  0.02933627 -0.18734322 -0.28180534 -0.23044142  0.12863123  0.24577646
 -0.14343178 -0.31739268 -0.03151142  0.3562545 ]
[ 0.01396576 -0.00959934  0.27377793 -0.04902865 -0.22844137  0.01323922
  0.10790247 -0.08037435 -0.33923092  0.3064413  -0.02672034  0.28483286
  0.11068048 -0.3185583   0.03538638 -0.06208595  0.02124627 -0.35848942
  0.2271072   0.48665845 -0.28457928  0.23866874 -0.20792386  0.3394562
  0.22915885 -0.05556182  0.11315225  0.34602737  0.24350864  0.16397654
 -0.35226315 -0.19305946  0.28508592  0.052183    0.12302789  0.02822983
 -0.05135819  0.00654964 -0.01114538  0.32320774]
[-0.23814487  0.379978    0.15112051 -0.274196    0.20837045  0.1001932
  0.5014253   0.1378104  -0.11965708  0.56494975 -0.2193209   0.00799198
  0.16926475 -0.12436811  0.24422126 -0.5798888   0.23196399 -0.11544086
  0.06857909  0.01669689  0.07274292  0.17816678 -0.12791988 -0.18191676
 -0.39314416  0.18986674  0.14222822 -0.33604547 -0.11887561 -0.06913524
 -0.08063564  0.1722155   0.28979605 -0.16474941  0.17981951 -0.4535841
 -0.01228473 -0.10343485  0.29599974  0.19912058]
[-0.15104999  0.2823835   0.06159094 -0.12121875 -0.18691587 -0.2356323
 -0.05774445  0.28392372 -0.07077808  0.61137396  0.03058027  0.2830933
 -0.07183851 -0.42910603 -0.15001583 -0.15871994 -0.28929263 -0.20211908
  0.18366651  0.5707664  -0.03978848  0.13073537 -0.4700053  -0.07054953
 -0.32338744 -0.25959346  0.2978576   0.19617224 -0.16442105 -0.25758693
  0.02063634 -0.1863872   0.08644665 -0.16754255  0.1948062  -0.20639561
  0.24916995 -0.2274956   0.11866122  0.16557166]
[ 0.05806353  0.10191263  0.17933023 -0.0571641   0.01530985 -0.0417831
 -0.5921441   0.28592432 -0.18129349 -0.364825    0.02425981  0.1698582
 -0.14441673  0.17837413  0.06820313 -0.19210978 -0.07178345 -0.17532198
  0.0241237  -0.09597231 -0.29738334 -0.08878873 -0.34149095  0.11782964
  0.07134812 -0.12241189  0.1474303  -0.24319677  0.20943113  0.33755416
  0.19714399  0.05529706 -0.32699284 -0.10414039 -0.04202526  0.1371261
  0.19141531 -0.18025938 -0.03514309  0.22188558]
[ 0.021923    0.3146608  -0.02628833 -0.09401495 -0.08639394 -0.10692052
 -0.66946155  0.0893821   0.13017187 -0.3201663  -0.19133924 -0.13888776
 -0.2906706   0.24242918  0.13822658 -0.08465717 -0.13987903  0.16411534
 -0.24774641  0.19780658 -0.22757827  0.24746923  0.36843663  0.1412988
  0.20115082  0.06312241  0.00531169  0.20628569 -0.13843757  0.02855903
  0.03214701  0.11776499 -0.27704754  0.22128469  0.23297384 -0.28678146
 -0.21570028 -0.12077075 -0.03161638 -0.25032067]
[-0.14678016 -0.29485852  0.36157608  0.3811832   0.24817565 -0.09138957
  0.20297253 -0.65078413 -0.23622344 -0.12461201 -0.01811675 -0.54540133
 -0.11219852  0.15987647 -0.3573759   0.31352538 -0.39570162  0.01843496
 -0.02056457  0.5770541   0.22284244 -0.11648954  0.16745229  0.0175979
  0.03283813 -0.06140601 -0.14775194  0.21922643  0.03249471 -0.09077275
  0.10482945  0.10955031  0.28691193  0.04048896 -0.10846616  0.38954335
  0.05192507  0.06693622  0.25980264 -0.35321784]
[-0.02302554  0.04045752 -0.24066627  0.13674892 -0.09207997 -0.03925904
  0.69817996 -0.19028369  0.28868368 -0.03151598 -0.02108621  0.02324843
  0.1409707  -0.16991436 -0.10556807 -0.05518587 -0.22366595 -0.1358373
 -0.04338689  0.23886266 -0.02582835  0.06904038 -0.06029761 -0.05181717
 -0.12045242  0.06590011  0.07205709 -0.16770394  0.01001674 -0.11257783
 -0.15914014 -0.20211878  0.03778918  0.2859955  -0.2430113  -0.10314474
  0.03752287  0.01736522  0.14998728 -0.34921697]
[ 0.0535586   0.06730741 -0.04478301 -0.1913089  -0.11711024 -0.05474761
 -0.535462    0.0713229  -0.03861382 -0.18437782  0.18856955  0.0819818
 -0.05113188 -0.02779207 -0.2849808   0.04491505 -0.09660046 -0.16590154
  0.25064763 -0.1821715   0.1477747   0.11752264 -0.3438429  -0.34314227
 -0.15216047 -0.22538254 -0.08781536  0.28315505  0.0149152   0.1753672
  0.26185253 -0.16130401  0.10579682  0.1788326  -0.14136057  0.28074527
 -0.06255316  0.20619684  0.17809083  0.1301369 ]
[-0.37616512 -0.17460674  0.03912533  0.19989748  0.08447208  0.16288108
  0.20319326 -0.04506246 -0.03772979  0.3000636  -0.1714594   0.1397128
 -0.10843815 -0.09114338  0.10097913  0.01463305 -0.23905507 -0.02517252
  0.19118187  0.10884333 -0.12960725 -0.18490937  0.02237565  0.08175233
  0.10203477  0.03556623  0.24158315 -0.5646307  -0.31569025 -0.21307494
 -0.2602809  -0.24149218  0.41817036 -0.10284785  0.23454571 -0.14694218
 -0.08313058 -0.22245331  0.06957539  0.01043834]
[-0.00618544 -0.40783536  0.27207807  0.24233814 -0.16966677  0.16509068
  0.1282096  -0.3605923   0.2117429  -0.49462417 -0.1319373  -0.24735707
  0.13721396  0.32633907 -0.2536623  -0.0156403   0.0056828   0.08041027
  0.14131777  0.04334761 -0.04371763  0.05991948  0.03367109 -0.39253724
  0.34226328 -0.07425144 -0.08203597  0.35028696 -0.08232637  0.13566221
  0.12937424 -0.03378652  0.0282796  -0.29786557  0.07248828  0.04589123
 -0.02520206  0.339649    0.0879173   0.0414071 ]
[-0.25647324 -0.12754521 -0.41378617  0.16723071 -0.29435432 -0.11854511
 -0.02376176 -0.00910268  0.19119738 -0.16740534  0.05633106  0.19076943
 -0.20195173 -0.07337052  0.09950735  0.13294119 -0.0963081  -0.01829124
 -0.02180122  0.3003876   0.04809451  0.2429641   0.2609785  -0.02546332
 -0.26917204 -0.11985867 -0.13866085 -0.39632347 -0.05190529 -0.00229843
 -0.06182372 -0.15857826  0.25493464  0.11413281 -0.04070266 -0.09028058
  0.08033617 -0.11062285 -0.0952152   0.1865249 ]
[-0.05934168  0.42790613 -0.18266053 -0.22221276 -0.15577507 -0.31754422
 -0.25855452  0.38780645  0.06385322  0.05843369  0.02248756  0.22574937
  0.13978085 -0.10735659 -0.19028059  0.00928527 -0.02069408 -0.23973492
  0.03018457 -0.36164108 -0.03728056  0.21898423 -0.3137334   0.16203848
 -0.30816442 -0.14206867 -0.1109427  -0.28056955 -0.13703716  0.09349497
  0.16273764  0.2764697  -0.1616702   0.18519759  0.11629415 -0.13859801
  0.10706536 -0.3712583   0.14700931  0.0412115 ]
[-0.09194142  0.17527655 -0.32113063  0.01272767 -0.2357834   0.04378623
  0.04072223 -0.00266368  0.33207566 -0.04944701 -0.16029674  0.33323327
 -0.16925077  0.24298914 -0.01336825  0.19762714 -0.16921596  0.3173773
  0.11922231  0.3005537   0.18871179  0.2435846   0.40388924 -0.01306664
  0.25730002 -0.14952472 -0.00365766 -0.30497158 -0.13441385 -0.2036726
 -0.17093556 -0.26521468 -0.02501648 -0.2751382   0.02499361 -0.16941583
  0.26185015  0.11428998  0.09318433  0.21853368]
[-0.08027926  0.12304039  0.07969782  0.06630578  0.03625668  0.13040023
 -0.21891005  0.32560644 -0.02093174 -0.12608346  0.09848922  0.17552336
  0.09604248  0.07952756  0.20400637  0.04308313 -0.02260963  0.16575296
 -0.13506283  0.08941132 -0.1594359   0.00945789  0.35564318 -0.03563517
 -0.12103981 -0.05031941 -0.01824246  0.05137186  0.34460768  0.11102729
 -0.24788599 -0.20743833  0.21295644 -0.28196177  0.02671904  0.11054629
 -0.00332344 -0.09517791 -0.00222099 -0.17948908]
[-0.1652182   0.23282018  0.17592812 -0.02426852 -0.09027122 -0.13364129
 -0.31632274 -0.17267795  0.0642624  -0.43661666 -0.15897354 -0.4488701
 -0.00302733  0.33289185 -0.07890861  0.30976403 -0.18463136  0.0511657
  0.09783795 -0.07012579 -0.16004822 -0.12251905 -0.07342165 -0.00428927
 -0.0845212   0.14637505  0.00451938  0.416877   -0.11118563  0.00236866
  0.30780852 -0.04100479  0.16110228 -0.20599626  0.24712612  0.2866293
  0.11634895  0.00728447  0.02272882 -0.09889787]
[ 0.06902089 -0.33791247  0.11144248  0.31766677 -0.22573479 -0.08295831
 -0.02956581  0.24657787  0.27614725 -0.14821553  0.17334339 -0.06877806
  0.26584864  0.12667648  0.18981984  0.11784497  0.3268672   0.40359747
  0.09830131 -0.25274882 -0.1487735  -0.04164116 -0.09563827 -0.04493161
  0.17443992  0.2918419  -0.17116264 -0.00319521 -0.09107495 -0.22070117
 -0.04334293  0.08058393 -0.08774152 -0.2522786  -0.1252021   0.14097115
 -0.02924825  0.03390157 -0.13836937  0.09377836]
[ 0.02305186  0.1529729   0.06080465 -0.06393919 -0.01095088 -0.04971569
  0.3174459  -0.03802548 -0.16204745  0.11803742 -0.02381878 -0.2144697
 -0.04627716 -0.05187472  0.00210969 -0.01464882  0.01826198  0.10761148
  0.01342292 -0.0706617  -0.02795411 -0.11220417 -0.13614878  0.0602733
 -0.05449507 -0.0156207   0.00552712  0.12098674  0.10472405  0.00489254
  0.00341096  0.05295541 -0.05541782  0.01650938 -0.19931795  0.04584564
 -0.06090777  0.0527333  -0.02788848  0.09005982]
layer 3 Activation
tanh
layer 4 Dense
40 20
[-0.04724307 -0.2586471  -0.14757393 -0.26132542  0.04341049 -0.19838183
  0.25061473 -0.29798514  0.03545992  0.2744429  -0.30010894  0.14530852
 -0.07949749  0.21274124 -0.15093072  0.18435037 -0.10357337  0.04219144
  0.18656233 -0.22888172]
[-0.06763384 -0.2556795   0.24601084  0.11125271  0.17750177 -0.17211728
 -0.21886799  0.30105847  0.07601971 -0.04025579 -0.12935111  0.15664089
 -0.08538788  0.19041862  0.14645784 -0.07954486 -0.03611267 -0.07685891
 -0.06188595  0.17013106]
[-0.20964739 -0.1696525  -0.19163373  0.29811904  0.09492626 -0.1319012
 -0.06647242  0.24393573 -0.2267022   0.03152902  0.20024663 -0.07242505
 -0.00318039  0.2701337  -0.16301057  0.14133833 -0.01960574 -0.11763836
 -0.08581417  0.15757668]
[-0.19263142 -0.03287716  0.07162993 -0.02908322  0.21216723 -0.17914404
  0.2070914  -0.25344858 -0.16279605  0.2589328   0.01274617  0.17414401
  0.14333087 -0.31956086  0.11377446 -0.08484802  0.05168479 -0.0869236
  0.26433378 -0.07255604]
[ 0.07900599  0.0758182  -0.01914082 -0.13378553 -0.19825685 -0.23838396
 -0.04890957 -0.37096298 -0.19140841 -0.1058929   0.18323754 -0.11792635
 -0.06104429  0.03963412  0.06296664 -0.08948405 -0.01390595 -0.23233679
  0.00660251  0.1584035 ]
[ 0.05714407  0.01628093 -0.02799349  0.03562435 -0.10891623 -0.04617927
 -0.07467505 -0.30485222 -0.18373187  0.17473818 -0.03493553  0.05685482
  0.19963723 -0.17016037 -0.14822814 -0.09766932 -0.04042562 -0.19581777
 -0.22014625 -0.30907005]
[-0.11910674  0.11499843 -0.00733667  0.41429695  0.16621765  0.09323747
  0.24481714  0.19541976 -0.06094549  0.22379652  0.10060471 -0.10784402
 -0.4221487   0.08544134 -0.17373219  0.10508456  0.2892315   0.1405206
 -0.34741428 -0.00514759]
[ 0.00249466 -0.36643064 -0.02440922 -0.30510208 -0.01488197  0.37599233
  0.03558548 -0.03394571 -0.0297426  -0.14726727  0.17380153  0.10714146
 -0.15424262 -0.17597604  0.22853445 -0.09838732  0.20984817 -0.01825134
 -0.02807615  0.04194745]
[-0.06826419  0.25229475 -0.07506834  0.14261651  0.19972916  0.18631728
 -0.06844804  0.34451604 -0.17553431 -0.1272069   0.16575596  0.0274032
 -0.06356316  0.06349314  0.05350316  0.12043435  0.24699447 -0.0903304
  0.28285292 -0.3389677 ]
[-0.06748784  0.2801093   0.20248087 -0.13630602  0.04819669  0.07497901
 -0.30470365  0.24492466 -0.0427059  -0.01365839 -0.21978219  0.21857348
 -0.21836813  0.02379354 -0.24562243 -0.24668732 -0.16970064  0.2446259
 -0.0578498   0.3226228 ]
[-0.22630502  0.19883403 -0.15212183 -0.25636134  0.21974142  0.05212014
  0.32888895  0.24201493 -0.15582055  0.14897127  0.2082446   0.05729449
  0.20259915  0.16113497  0.2013264   0.09142689 -0.22374399 -0.26844797
  0.16091186 -0.07835399]
[ 0.25308532 -0.14517295  0.03561705 -0.34445474 -0.08959702  0.1784377
 -0.09154952  0.21794306 -0.00891257 -0.24150193 -0.09350414 -0.12620573
 -0.16985193 -0.15948819 -0.07018711  0.0446302   0.13301478  0.1301309
 -0.06469604 -0.03942307]
[ 0.2792473   0.11827202 -0.02626998  0.03412665  0.1704423   0.08081273
  0.13900931 -0.34016436  0.01672471 -0.22659673 -0.13562681  0.1591768
  0.13756576 -0.03848894  0.30382115 -0.26468858  0.06870257 -0.0876989
 -0.23740813  0.00617734]
[ 0.01974988 -0.04019111  0.13839978 -0.04288582 -0.16595794 -0.28991827
  0.14148511 -0.10851236  0.17529766  0.18707624  0.01992038 -0.04492979
  0.23605835  0.17599101  0.1563561   0.31304473  0.19530135  0.00725722
  0.16875683 -0.22181675]
[ 0.0820053  -0.2528738   0.07488922 -0.19148636 -0.04705606 -0.04326382
 -0.15208158 -0.07014514  0.17141609  0.26194015 -0.14895152  0.09367879
 -0.07564138  0.07731556  0.07680252 -0.30619588  0.12286408 -0.31396106
 -0.18619847 -0.21593915]
[ 0.26818702 -0.21115239 -0.11132614  0.14882378 -0.10877012 -0.34163165
  0.20864037  0.15762663 -0.02310215  0.24233255 -0.12201187 -0.18601581
  0.33796754 -0.10898069 -0.15616605 -0.05247457 -0.1424344   0.25513813
  0.21156636 -0.25279427]
[ 0.10438998  0.18978807  0.11923438 -0.22693245 -0.1500234   0.01796813
 -0.08744453  0.2286461   0.19020027  0.2400803  -0.14110842  0.06363048
  0.17242672  0.03992578 -0.00096951  0.1443425  -0.3177417   0.29252777
 -0.14030385 -0.16682014]
[-0.20488864  0.03488287  0.14652242  0.29845792 -0.00208794 -0.14320797
  0.09496503 -0.05845675 -0.2578251  -0.08583944 -0.1340814  -0.05523745
  0.10140808  0.0336105   0.13666086  0.04710661 -0.2754576   0.22224134
  0.24176283 -0.0640364 ]
[ 0.25996503 -0.14505771  0.3544837   0.13618457  0.12781143  0.04707643
 -0.07910471 -0.22569026 -0.1202427  -0.10207663 -0.05710422  0.18390052
 -0.01140109  0.22334409 -0.00911876  0.26243258  0.2055605  -0.14007011
 -0.20583421  0.08645415]
[ 0.05555978  0.17378287  0.16056895 -0.10712511  0.07761869 -0.25023225
  0.32430208 -0.07327027 -0.04770892 -0.17004554  0.02710699 -0.09642403
 -0.01853433 -0.6868775  -0.3017043  -0.00848928  0.03929822 -0.31386012
 -0.3521731   0.30118504]
[-0.02344524  0.28323632 -0.01757877  0.1721776  -0.22324784  0.03960005
  0.00932593 -0.02538246 -0.06426457  0.08967444  0.11990673  0.22695011
  0.01176227  0.01677535  0.00667609  0.0034045  -0.0127598   0.20586285
  0.03132859 -0.37938857]
[-0.13507627  0.06539588 -0.18685198 -0.25055164  0.19599347  0.01013099
 -0.2806435  -0.03508075 -0.28936946  0.12129001 -0.08914612  0.01659412
 -0.13431013 -0.15282972 -0.11855087  0.00410498  0.1504467  -0.08305681
  0.03588786  0.00201343]
[-0.0828851   0.2338256   0.250984    0.22016487  0.21092886  0.1741513
 -0.12634693 -0.2911125   0.06602501 -0.00917199 -0.10657756  0.12961291
  0.2779747  -0.36368454 -0.21453762 -0.07394145 -0.07111531  0.1587754
  0.2739164  -0.32144064]
[-0.00903738 -0.13244407 -0.01231651 -0.0584642  -0.00463528 -0.21646665
 -0.09238008 -0.12908661  0.00238027  0.19676214  0.11702757 -0.14495002
  0.05814696 -0.15096496  0.09412485 -0.01302708  0.11397895  0.15140666
 -0.10853475  0.21833237]
[ 0.04765183  0.24143676 -0.16586341 -0.08021927 -0.13773717 -0.16298737
  0.23642504  0.13934651 -0.22460803 -0.27818134 -0.17241135  0.15978526
  0.19543168 -0.2870584   0.12498913  0.17836738  0.08513539 -0.02543268
  0.3137248  -0.14063287]
[-0.05723019 -0.11399966  0.07327849  0.11888597  0.09484846  0.17531998
  0.1346769   0.29400727 -0.26058796 -0.29037467  0.05381293  0.0055327
  0.0171641  -0.02213153  0.19367908  0.07639071 -0.23240918  0.01218723
 -0.16788371 -0.06208355]
[-0.17909148  0.03016578 -0.21477205 -0.17382795 -0.34608203  0.12899953
 -0.12363081  0.11282744 -0.23666233  0.05124977  0.00832122 -0.2724273
 -0.14917772 -0.09292269  0.1624492  -0.01193962  0.14829062  0.08713723
 -0.29731306  0.19564614]
[-0.01239871  0.19184555  0.2044769  -0.19031492 -0.12974747 -0.214213
  0.3272512   0.196992   -0.10799073  0.13397165  0.09851035  0.14102693
 -0.0876666  -0.03386503  0.14312895 -0.04144426  0.2423377   0.05776275
  0.18783276  0.33814073]
[-0.00617919 -0.1290404  -0.01999994 -0.12912744  0.13342631  0.15141414
  0.24630351  0.12974712  0.22379015  0.02376118  0.02575216  0.02022786
 -0.13597915  0.11192305 -0.08010258 -0.00128552 -0.16935271  0.05204459
  0.04621342  0.12196175]
[-0.06903968  0.1635928  -0.06246915 -0.07045902  0.33480084 -0.23740779
 -0.04305553  0.09521563 -0.14827068 -0.2707338   0.10995498 -0.22753926
  0.19095078  0.20881666  0.02148174  0.03006409 -0.01578161  0.16830344
  0.14942747  0.19092152]
[-0.01888958 -0.28091076  0.13028812  0.21697079 -0.07427462  0.03194679
  0.32792696 -0.02971603 -0.38452145  0.20840146  0.19649233 -0.11409573
  0.23248073  0.24255708  0.12518065  0.06104688  0.12293231  0.07393332
  0.1522652   0.10748743]
[-0.01077499 -0.17446539  0.19063525  0.20185456  0.0391499  -0.15231647
  0.0277564   0.02354318  0.09754047 -0.15551946 -0.09086768  0.02452319
  0.15608767  0.28111598  0.03828974  0.00366288  0.1956235  -0.12716125
 -0.07666075  0.0135398 ]
[ 0.1210321   0.23890206  0.00549266  0.43597054 -0.13892528  0.19903915
  0.04399046  0.21199767 -0.11214229 -0.05286652 -0.19206871  0.22248486
 -0.13408644 -0.3257987   0.21615595  0.17840457 -0.14444505  0.2497737
 -0.26108336  0.05560838]
[ 0.19504043 -0.01485076  0.03869177 -0.01662763 -0.20850228 -0.03076677
 -0.10729542 -0.15675443  0.09639286  0.25622746 -0.08835837 -0.10802659
  0.04723784  0.14886098  0.13967973 -0.04025365 -0.05281221 -0.19743274
 -0.20681123  0.10080097]
[ 0.01701    -0.21999924 -0.06471273 -0.1726409   0.22120233  0.14946038
 -0.2812466  -0.08100199  0.03503577  0.07234169 -0.04356304  0.2934334
 -0.06854935 -0.36655274 -0.2504905  -0.12832676  0.04480296 -0.10348316
 -0.0600682   0.18213189]
[ 0.04934835 -0.10343359  0.24555844 -0.00172857 -0.06094319 -0.10703015
  0.29755864  0.19421393  0.26761588 -0.16023917 -0.08204637  0.08849378
  0.1383918  -0.01614356  0.19233519 -0.20435522  0.01417139 -0.31831324
  0.21990931  0.16760616]
[-0.01672351  0.15555955  0.13766219 -0.16541901 -0.00796861  0.08746302
  0.04714904 -0.267673    0.20486939  0.12336611  0.00176437 -0.09209719
  0.20235455 -0.1551557   0.04870547  0.21710831  0.19555452 -0.1816297
 -0.21214767 -0.15189347]
[-0.02560083  0.31326413 -0.06941994  0.18849091  0.17174873 -0.04673772
  0.10763346 -0.30726644  0.19948992 -0.21125321 -0.3393856  -0.1677911
 -0.12398692  0.2168087  -0.33820003  0.02712135 -0.02267426  0.25577906
  0.21902058 -0.26105386]
[-0.13844573 -0.1255545   0.22057225  0.13731411 -0.14204553 -0.0411323
 -0.26011783 -0.10384288  0.02874042  0.1335031   0.01638184 -0.03074485
 -0.26475248 -0.04054311 -0.18592389 -0.04234757  0.342298    0.08995156
 -0.01302626 -0.04288287]
[ 0.20905419 -0.20420288  0.18554252 -0.3762373  -0.27368087 -0.14287336
  0.11315747  0.30782053 -0.23436227  0.11280975  0.02640902 -0.2748962
  0.00749872  0.06253766 -0.04988708 -0.19542965  0.21797508  0.1618332
 -0.15552568  0.4296291 ]
[ 0.00108856  0.05638277 -0.02189098  0.05620343 -0.05035372 -0.1018666
  0.10741074  0.04111709  0.02380383 -0.0219296  -0.04086932 -0.08040833
 -0.10350344  0.07873626 -0.05069003 -0.03561769 -0.05822467 -0.03586737
 -0.10049568  0.16250081]
layer 5 Activation
tanh
layer 6 Dense
20 1
[-0.03393251]
[0.05325385]
[0.02019557]
[0.07185996]
[0.00670787]
[-0.07308081]
[0.08498888]
[0.01624017]
[-0.02475061]
[-0.00275544]
[0.01803175]
[-0.00315124]
[-0.08285306]
[-0.09068023]
[-0.04104553]
[0.00150439]
[-0.00794853]
[-0.02430365]
[-0.0987047]
[0.08187238]
[0.03506123]
