layers 7
layer 0 Dense
20 20
[ 0.10149744  0.11564866 -0.06561083  0.31623194  0.3751298  -0.39733306
 -0.21788977  0.1044765  -0.1727831  -0.2432085   0.3737436  -0.2411928
  0.09544592  0.11909205 -0.10136265  0.13369073  0.4163338   0.26250622
  0.01085449  0.2379074 ]
[-0.03923231 -0.09674084 -0.06033033  0.09313214 -0.1369546  -0.33423576
 -0.06438833 -0.21914715  0.07709736  0.03758764 -0.35598698  0.09236452
 -0.25446787 -0.2945788   0.09927174 -0.13599834  0.24652183 -0.15474135
  0.256989    0.17276418]
[ 0.08094993 -0.05687323  0.06534478 -0.16539109  0.05716854 -0.19759962
 -0.1895108  -0.09652171 -0.18203615  0.299199    0.33156705  0.31739956
 -0.37333262  0.01518387  0.24498868  0.07947499 -0.28155917  0.11137879
 -0.09695894 -0.03666306]
[ 0.04340209  0.2188007   0.10752647  0.19853841 -0.2519466  -0.29954138
  0.07725134  0.53163993  0.02122424 -0.25517213 -0.38689986  0.26674658
 -0.31388482 -0.1544949   0.07662392 -0.02699226 -0.11116415  0.5566123
  0.2659564  -0.05094635]
[-0.03890392 -0.08132649  0.00119776  0.14789078 -0.33296826  0.45742655
 -0.29976276  0.38186753 -0.02736352 -0.4119787  -0.14130564 -0.38536575
 -0.09016415 -0.04824648  0.13885331  0.14231446 -0.17395    -0.22942439
  0.01507928  0.17983504]
[ 0.23110735 -0.37227005 -0.3865603  -0.17341933 -0.09616989  0.07826433
 -0.13313556  0.13919735  0.38529563  0.11591083  0.07438442 -0.0838396
  0.34480333  0.28759617 -0.13305339 -0.2330066  -0.15004876  0.05936927
 -0.19700764  0.15748495]
[-0.3331337   0.24308479 -0.15428121  0.22891831  0.11997837 -0.1758352
  0.38371575 -0.35778964  0.16872066  0.09109569 -0.23273964  0.3349511
 -0.09718609 -0.14301409 -0.3100358  -0.22423752  0.16841853  0.15336066
 -0.0681822   0.2607268 ]
[-0.12012924 -0.51169723  0.02668437  0.22339845  0.31090182  0.3383178
  0.37640363 -0.38970476 -0.13063745  0.40492147 -0.08946659 -0.01470844
  0.03029346  0.24264559 -0.09074498  0.35192758 -0.03859261 -0.5584368
 -0.21110374 -0.21380179]
[ 0.4266281   0.05937415  0.10351289 -0.07938139 -0.09877346  0.6501431
 -0.10743804 -0.08370975  0.2855972  -0.32284015 -0.3972613  -0.30307433
 -0.00156278 -0.14212896 -0.17695218 -0.59145737  0.04781702 -0.06664618
  0.23336473 -0.41898862]
[-0.15685424 -0.15352245  0.6741708  -0.6045621  -0.44092965 -0.24811012
  0.38186195 -0.25269607  0.50725204  0.01526931 -0.36912447 -0.40465298
 -0.0878105  -0.3383353   0.4173956  -0.03188059  0.15899296  0.17766596
  0.31043902 -0.5690523 ]
[-0.3007851  -0.0539666   0.35302988  0.48312518  0.36111233  0.07670996
  0.37324002 -0.19053677 -0.25242978  0.00424582 -0.13371566  0.10399705
 -0.25007793  0.16258961  0.63005066 -0.27704683  0.7104887   0.20912468
  0.3116099   0.28580624]
[-0.7253552  -0.2498588   0.26052582 -0.07204778  0.7876022   0.00361173
  0.80070794 -0.54537904 -0.30945066  0.5905211   0.33284995  0.21259122
  0.1066759  -0.03164331  0.45749557  0.5666161  -0.81473035  0.00262
  0.36183658 -0.11203082]
[-0.13589425  0.00261972 -0.2329799  -0.27782926 -0.53314203  0.34682217
  0.09516941  0.27213037  0.4880932  -0.04052753 -0.27922365 -0.34968296
  0.09364481  0.32976183 -0.36510426 -0.41165522  0.00193868 -0.15411706
  0.32976085 -0.2693956 ]
[-0.51035565  0.39366677 -0.91439265  0.3287389   0.15085946 -0.26778466
  0.05899261 -0.2143188  -0.8113787  -0.13888073  0.54705375  0.08199856
  0.3270914  -0.02646199 -0.10948249 -0.10461851  0.87914723  0.4751993
 -0.2630905   0.4073565 ]
[ 0.2457006   0.04290757 -0.3892209  -0.31119075  0.31065404  0.07552324
  0.0213088  -0.19339548 -0.16424434  0.13601406  0.70958704 -0.4735935
  0.13805887  0.5734781  -0.23840354  0.5130536  -0.22461249  0.13711411
  0.02655202 -0.6118431 ]
[-0.5803531  -0.0263973   0.49153033 -0.4551902   0.67829335 -0.5657235
  0.6296692  -0.7312038  -0.29070944  0.48001224  0.49746877  0.42842358
  0.24101073 -0.0587678   0.64827     0.06715044 -0.66477805 -0.51191413
  0.60769004 -0.16615337]
[-0.03761291 -0.16834998 -0.04415063  0.29397762 -0.29104835  0.31115788
  0.14248069 -0.45696694 -0.6940468   0.45416394  0.2971678   0.44146773
 -0.14635645 -0.32058302  0.35276777 -0.02279424 -0.12295508 -0.07281666
 -0.50478095  0.16490255]
[ 0.11467747  0.10984951 -0.0050372   0.16199887  0.19399132  0.22530265
 -0.14055128 -0.21629769  0.17307222  0.01608736 -0.27658063  0.5805285
 -0.10734567 -0.30481783 -0.2894178  -0.15312268 -0.18279879 -0.09642562
 -0.08414415  0.39130235]
[-0.33090642 -0.06902719 -0.2584226   0.2563976   0.14449307 -0.18345064
  0.18630125 -0.24883734 -0.2871039   0.05807569 -0.4644872  -0.05103643
  0.19524416 -0.6190941  -0.6416185   0.17902598 -0.01999979 -0.27377626
 -0.1357162  -0.1222566 ]
[ 0.38122785 -0.20748155 -0.3498435   0.24752809 -0.5181663  -0.15742993
 -0.30130032  0.10447662  0.36783615 -0.47144595 -0.2595693  -0.29392734
 -0.17744677  0.0317586   0.11776422 -0.31454524  0.5138943   0.18592581
 -0.62607634 -0.25904793]
[ 0.2332779   0.12594828 -0.08172413  0.01668786  0.05025033 -0.16816801
 -0.09365965  0.19995952  0.14841542 -0.0560898  -0.09955407 -0.01744054
 -0.11392079  0.06266883  0.12120462 -0.01540934 -0.00718892  0.235346
  0.10305598 -0.07540297]
layer 1 Activation
tanh
layer 2 Dense
20 40
[-0.08129375  0.11383736  0.23818429 -0.3153331  -0.46367225  0.05142549
 -0.1318682  -0.01138212  0.5737026  -0.08378663  0.1191815  -0.02160045
 -0.52362293 -0.00308814 -0.12091051 -0.0730955  -0.35790548  0.2183492
  0.36729008  0.38816345 -0.6663568  -0.10005172 -0.19243443 -0.12359482
 -0.14682592 -0.58746034 -0.4841363  -0.29313892  0.0349523  -0.32051107
  0.16221188  0.14747302 -0.23237881  0.30708483 -0.2365878   0.33584648
  0.64090717 -0.13364567 -0.22999433  0.07085561]
[-0.0398707  -0.09604733  0.1752432   0.34618416 -0.26055086 -0.14568336
 -0.45025924 -0.68486357  0.01174304 -0.01752444  0.12848207  0.01671641
 -0.22159156  0.4328988  -0.24602705  0.18066311 -0.41280553  0.40339243
 -0.18799365 -0.2108276   0.09612206  0.00744442 -0.04873885  0.20880945
  0.10445867 -0.05650631 -0.19211833  0.08789362 -0.08758181 -0.24224786
  0.35477543  0.27877375 -0.27848732 -0.2527626  -0.41158998 -0.03438357
 -0.08182724  0.09708873  0.29150832 -0.02034837]
[-0.00070516  0.24191223 -0.6006259   0.02086096  0.32193214 -0.1470924
  0.08073401 -0.12150459  0.43181092  0.11771439 -0.14953116 -0.32664332
 -0.04377622 -0.01009685 -0.1706954   0.20322235  0.14052424 -0.01746387
  0.24782369  0.05069418 -0.18784447 -0.5431369   0.09684711  0.3755832
 -0.31697285 -0.31422523  0.00215699 -0.3687566   0.44574398 -0.06290469
  0.22072291 -0.21256033  0.03989292  0.28917116  0.5305888   0.3893186
 -0.20136878 -0.23690175 -0.22196162  0.26540938]
[ 0.14020921  0.30687645 -0.38215443  0.41916612  0.470001    0.36805943
  0.14688428  0.19222991 -0.32013837  0.03003822  0.15553157  0.09379905
 -0.42456335 -0.06907517  0.18679313 -0.3771479   0.2468577   0.09520396
 -0.24351327  0.00421363 -0.04561352  0.21836664  0.16720328 -0.00557322
  0.18296804  0.19926576  0.2635492   0.362696   -0.07042186  0.03207174
 -0.166013    0.1049237   0.0066916  -0.48544115 -0.05150218 -0.23217618
 -0.2169262  -0.20063823  0.27419573  0.05899132]
[ 0.75220066 -0.01437026 -0.63551545 -0.1606139   0.02979835  0.28507006
  0.19203287  0.5286964   0.15150347  0.04824385 -0.01877544  0.21944836
  0.84124476 -0.19283062  0.15257938 -0.49516088  0.3248203  -0.25253826
 -0.01785502  0.15495948 -0.08815469  0.02533064  0.26240447 -0.47963074
 -0.2879463   0.11041584  0.04727913 -0.685136    0.4178804   0.19136365
 -0.27572826 -0.31156546  0.3927521  -0.54412615 -0.28040126 -0.94252014
  0.10009611 -0.43623313 -0.01491764 -0.1711585 ]
[ 0.19234398  0.30784574 -0.24361332 -0.31330776 -0.02460027  0.03737386
 -0.05940161  0.28724366  0.1627915   0.04995501  0.20039466 -0.07251547
 -0.08822107  0.00294541  0.16986428 -0.04904911  0.23950678  0.0565947
  0.12731731  0.2656441  -0.2278149  -0.26279128  0.14354624  0.16457877
 -0.16805266 -0.24523823  0.3067426  -0.12040076  0.23287472  0.18123884
  0.08964574  0.24786048 -0.20406866 -0.27771235 -0.42164117 -0.2470447
 -0.11104861 -0.24744014 -0.1882725  -0.08137319]
[-0.06034183  0.6480188  -0.05092115  0.11583535  0.17631814 -0.40556967
  0.54079515  0.29863456 -0.10625777  0.09433149 -0.45485818  0.09104325
  0.5639217  -0.27326962  0.24391608  0.54649585  0.5349843  -0.38429356
  0.1760634  -0.18160221  0.46221882 -0.49965003  0.2702016  -0.24870908
 -0.5176754  -0.10431109 -0.18787831  0.09604761  0.05326921  0.60800666
 -0.17334646  0.02992323  0.39776045  0.297047    0.32677463  0.15449029
 -0.4389023  -0.07117283  0.06258198 -0.6858588 ]
[-0.5276533  -0.18439463 -0.06672037  0.1631177  -0.44825926 -0.02332358
 -0.55749893 -0.5257452  -0.1906531  -0.12026007  0.09380063 -0.02333279
 -0.3302347   0.21406332 -0.7018711  -0.19988278 -0.38764256  0.19656256
 -0.21142188 -0.15311548 -0.2942875  -0.10634097 -0.14636119  0.2887037
  0.08219003 -0.3953634   0.08593202  0.25933218  0.26609653 -0.4323565
 -0.01841009  0.02065588 -0.34293333 -0.11400297 -0.05948352 -0.06021355
  0.19532065  0.1983119  -0.12230532  0.27954593]
[-0.08997473 -0.35816976  0.00158611 -0.6195863  -0.02934716 -0.22427514
 -0.33292392 -0.29245093  0.16346242  0.00946969  0.3073605  -0.45135275
 -0.16426383 -0.1237298   0.01152228 -0.0006241  -0.19415985  0.3361513
 -0.15148614  0.42391473 -0.4381394  -0.26305756  0.1635201  -0.14821188
 -0.34092465 -0.14775757  0.0214369   0.17097326 -0.16449845 -0.07199237
 -0.4441377  -0.07112636 -0.19353954  0.6040696  -0.09287357  0.41895694
  0.5636643  -0.2789927   0.12219139 -0.29122603]
[ 0.0175295   0.58816236 -0.77710706 -0.04810929  0.14501962 -0.33168954
  0.40988943  0.27187502  0.397343   -0.22141623 -0.5181892   0.5045483
  0.9770047  -0.17304417  0.58956283 -0.46499375 -0.1312655  -0.66887224
  0.03085683 -0.04369676  0.46108186  0.39355746  0.08269622  0.02144074
 -0.64205366  0.18233258  0.13777702 -0.3373957   0.46222407  0.4329697
 -0.31411037  0.01163347  0.34794655  0.16401239  0.3280175  -0.7456988
 -0.63644046  0.07316579 -0.22725883 -0.21670702]
[ 0.35395667 -0.16607645  0.04161388  0.46155775  0.02558807 -0.34289488
  0.08838987 -0.14415118  0.26843727 -0.14717312 -0.37215155 -0.0089329
  0.3288331  -0.39199683 -0.06254793 -0.5087487  -0.5971271  -0.29117194
 -0.23179616 -0.01877123  0.6103447   0.26946184  0.23566727 -0.05648268
 -0.1614528   0.3446244  -0.272741   -0.51881903 -0.32594985  0.4432676
  0.02911945 -0.1173742   0.31350648 -0.6710527  -0.38113987 -0.17733471
  0.02701919  0.4316587  -0.0810161   0.1188575 ]
[ 0.13568607  0.5377807  -0.75231606 -0.11878042  0.83076763  0.22080888
 -0.16527744 -0.03440851 -0.02671395 -0.13948596  0.27393758  0.16740121
 -0.06341559 -0.2004133  -0.15871194 -0.33561155  0.3792193  -0.10001537
 -0.12561026 -0.20753986 -0.19200128  0.54914284  0.43716562 -0.21886823
 -0.08784866  0.35002425  0.5915982   0.11526648  0.4033625   0.28188917
 -0.01173622 -0.36178648 -0.4064928  -0.6236996   0.4508802  -0.6295482
 -0.4039559  -0.541885    0.38146055 -0.23948856]
[ 0.10770581  0.02994962  0.2601933   0.00436072 -0.42265332  0.27889067
  0.17453313 -0.07724571 -0.2635587   0.10207276 -0.05970231  0.01428996
  0.10129669 -0.17065503  0.09737846  0.02913412 -0.2568714  -0.28810838
 -0.01595234 -0.11168195  0.04754601  0.05385749 -0.37080604 -0.43272367
 -0.18089059 -0.06291997 -0.01837662 -0.2740688  -0.44907135  0.29697096
 -0.19224662  0.34348285 -0.00494241  0.14830506 -0.10387887  0.02256628
 -0.00903639  0.15353288 -0.16394018  0.06782398]
[-0.24027513 -0.4020919   0.5034216  -0.21016103 -0.48854157 -0.00745485
 -0.27767655  0.3397534  -0.06110726 -0.06742813  0.22387563  0.34008557
  0.00066271 -0.05610691  0.3968087   0.19139984 -0.13855585  0.28946835
 -0.2423438   0.23791729 -0.23077048 -0.22319594 -0.49899018 -0.13280465
 -0.0801021  -0.3995881  -0.20517333  0.1359469   0.07789349 -0.00261416
 -0.187605    0.4762801  -0.12666269  0.07965017 -0.2938641  -0.02696206
  0.35464928 -0.30583277 -0.11479145 -0.22952192]
[ 0.01389655  0.00156453 -0.400508    0.00308833  0.4124515  -0.02842182
  0.40938643  0.07098569  0.14199351  0.33168837 -0.19825147 -0.290236
  0.04958234 -0.18851507  0.06919915  0.02475121 -0.03523    -0.3495795
 -0.10743347 -0.31548244  0.02816474 -0.26936564  0.2871782   0.3207948
 -0.05150017  0.3653204   0.1477958   0.4235097   0.44980267  0.30371723
  0.04575611 -0.4178049   0.26299083 -0.04587695  0.06256028  0.241287
 -0.30623293  0.28221855 -0.19617629 -0.04971565]
[ 0.08911644 -0.01500853  0.584567   -0.26645663 -0.3496324   0.12684965
  0.1885329   0.16313617  0.33393198 -0.3007563   0.03197898  0.22235136
  0.3837581  -0.01010211 -0.16250516 -0.455413   -0.11265643 -0.02060484
 -0.3508781  -0.10140189  0.04421443 -0.06712686 -0.2129705  -0.32913435
 -0.39650717  0.291291   -0.3483018  -0.55158794 -0.52375495  0.20670351
 -0.38181648  0.5613058   0.26646605  0.05368605  0.12183683 -0.34714508
  0.16505377  0.38673902  0.05729254 -0.16121873]
[-0.40202007 -0.45940787 -0.24310121  0.14226593  0.04576061  0.07753674
 -0.37764382 -0.15285662 -0.07023962  0.36530808  0.16563924 -0.21456221
 -0.45964786 -0.14914486 -0.07070011  0.58144885  0.01162164 -0.21552123
  0.232643   -0.7439203   0.31104913 -0.26253372  0.19399372 -0.05021733
  0.8748614  -0.04013114  0.21265683  0.8625494  -0.09626632 -0.51492697
  0.03839372 -0.18065687 -0.21516842 -0.50183576 -0.34553397  0.26332203
 -0.45726097 -0.24433719  0.14203908 -0.19833444]
[-0.2382485  -0.3058625  -0.09266006 -0.34573174 -0.00575087 -0.0947669
 -0.25303015 -0.19925079  0.11897512 -0.34149152  0.0961014  -0.16780372
 -0.4362917   0.33495447 -0.48754373  0.10787334 -0.22300163  0.11063357
  0.16407104  0.01667101  0.32531527  0.23489305 -0.15148112 -0.10452663
 -0.10158455 -0.09760679 -0.15991545  0.3728581   0.3754092  -0.28185135
  0.3151491   0.17556654 -0.21051581 -0.36002213 -0.19207172 -0.14771324
 -0.21067837  0.08997546 -0.27413237  0.48228258]
[-0.00384593  0.09124236 -0.04600028 -0.366725    0.16476959 -0.2819681
  0.177765   -0.29857147 -0.03804145  0.3261835   0.02530935  0.06139946
 -0.3050325   0.08492795 -0.3365867   0.27282014  0.0745966   0.06236463
  0.14757884  0.44130507 -0.05674398  0.01726971  0.16763768 -0.06938137
 -0.23347789 -0.54460466 -0.34706768 -0.2271469   0.21604952  0.03411826
  0.04520359 -0.22745761 -0.07929224  0.13824591 -0.09710676 -0.22986765
  0.44256693 -0.15801351 -0.30677772  0.24303952]
[ 1.33881554e-01 -5.50425537e-02 -3.17019820e-01  1.06765881e-01
  5.85000515e-01  1.31999984e-01  3.55899259e-02 -3.98049206e-01
 -3.46924990e-01  2.48836368e-01  8.52832645e-02 -2.19555572e-01
  1.04839250e-01  2.68034726e-01 -3.06148350e-01  7.21213222e-02
  1.31812140e-01 -2.44939178e-01 -8.12845007e-02 -2.81130314e-01
 -2.49350131e-01  2.39693653e-02 -1.76753029e-02 -2.19473377e-01
  4.97530490e-01  1.59221411e-01  4.13546085e-01  4.71361667e-01
 -1.27339289e-02 -1.03205644e-01  3.42755049e-01 -2.74314582e-01
 -2.65698463e-01 -6.70683384e-01 -2.69755840e-01 -1.92339569e-01
 -1.59708813e-01 -1.08333096e-01  6.02072920e-04 -7.91856367e-03]
[-0.27557307 -0.16964725  0.13081028 -0.1666801  -0.17062414  0.09094951
 -0.3819572  -0.41566184 -0.00108541 -0.03354912  0.11147831 -0.103091
 -0.30032346  0.19434245 -0.28237733  0.08127767 -0.25140747  0.17462665
  0.03261058  0.07641321 -0.1363912   0.00820621 -0.05622175  0.05001925
  0.16028659 -0.16008466  0.03485782  0.12136966 -0.05346126 -0.21502362
  0.01128693 -0.0228414  -0.15897012  0.06384637 -0.05264273 -0.00341399
  0.24143115 -0.03852279 -0.00926198  0.20533893]
layer 3 Activation
tanh
layer 4 Dense
40 20
[-0.10503154  0.02256464 -0.27149183  0.29347998  0.29670814 -0.00663959
 -0.35170656  0.34135565  0.44669974  0.1494914  -0.12352595  0.01449196
 -0.00249797 -0.19866626 -0.05686346  0.17739467 -0.29296398 -0.00508045
  0.27658314  0.02120074]
[-0.19437253  0.01326025 -0.07085288  0.27165458  0.09552285 -0.23063436
 -0.12038529  0.26921633  0.55618095 -0.17708589 -0.27873307  0.0575624
  0.25739673  0.01562004 -0.03101875  0.08088014 -0.5494763  -0.1967668
 -0.01709712  0.36233073]
[ 0.230678   -0.3616096   0.16096936 -0.41318136  0.16116695  0.45461875
 -0.55244684  0.42691943 -0.5150773   0.07742798  0.3208033   0.04637137
 -0.36899647 -0.5360608   0.08704168  0.34829408  0.08460788 -0.24887289
 -0.09264592 -0.31197062]
[ 0.0133002   0.28125733  0.22053038 -0.0415124   0.1625146   0.31330517
  0.19219126  0.23795006 -0.04045675  0.29425278 -0.09943498  0.02931621
 -0.22904086  0.2532154  -0.03609789  0.16599378 -0.00103605  0.07662701
  0.3223127   0.23664662]
[ 0.24520317  0.18110703 -0.20559074  0.12628673  0.16624725 -0.39289373
  0.18925329 -0.12767307  0.1516422  -0.13407476 -0.09517469  0.12925358
  0.42614123  0.32117364 -0.25317574 -0.3935203  -0.32717824  0.03627857
  0.08914193  0.69786394]
[ 0.06451166  0.19448669 -0.381382   -0.376429    0.24044703 -0.04482589
  0.04924596  0.10516048 -0.12920235 -0.03273214  0.2177859  -0.32297587
  0.34880856  0.3540587   0.19001646 -0.46219578  0.17797956 -0.19086109
  0.37876654  0.0146882 ]
[ 0.37024164 -0.13798329  0.4847087   0.37975168  0.3548642  -0.19084468
  0.311704    0.5405498   0.3945547  -0.04454873 -0.3443842   0.3668361
 -0.15888458  0.07194924  0.26932493 -0.08278342 -0.3005836   0.07251646
 -0.07431541  0.27256873]
[ 0.42443317 -0.20289914  0.34711656 -0.03877357  0.51987904  0.0700068
 -0.11071042  0.25187886  0.42510816  0.10024893  0.3894346   0.06665149
 -0.16267484  0.02883369 -0.0495556  -0.09195678 -0.4609871   0.09104761
  0.19064276  0.11980577]
[-0.2700573  -0.23196916 -0.08142078  0.04042557 -0.17032415  0.31887546
  0.34053898  0.25661826  0.09866484 -0.25034758 -0.16367747 -0.02708895
 -0.5093093  -0.30999175 -0.20598581  0.04325528 -0.01437931  0.17015421
 -0.03729754 -0.06288271]
[ 0.16222997  0.07380054  0.55836433 -0.04813251  0.06426905 -0.01102086
  0.25752017  0.25530607 -0.08022621 -0.14441413  0.20635037  0.3178271
  0.29370925 -0.10007794 -0.20090312 -0.18034634 -0.10532256  0.31945637
  0.09015593  0.37872183]
[-0.40493938  0.15736564 -0.48267657 -0.42577696  0.02823469 -0.16505294
  0.03998852 -0.09666747 -0.63585    -0.0488098   0.10083519 -0.14314784
  0.14007123  0.20636646 -0.1201052  -0.18919246  0.24615996  0.4104056
  0.04944017  0.39027563]
[ 0.21135978 -0.32668322 -0.38955235  0.23914476 -0.16576728  0.17272809
 -0.35230127 -0.01307292  0.1368669  -0.15062213  0.19787839 -0.3313991
  0.08914781  0.07489319  0.3476063   0.44145566 -0.15339547 -0.26306957
  0.24020274  0.14939222]
[ 0.13815826 -0.13488862  0.01766193  0.47256422  0.26573178  0.23734213
  0.20001784 -0.04321843  0.8394336  -0.23237546 -0.02389665  0.11440755
 -0.32296127  0.06513973  0.24182756  0.732351   -0.836298   -0.07523994
 -0.3166992  -0.18284003]
[ 0.0135357  -0.09260732 -0.24949881 -0.25262228 -0.17144893 -0.06199637
  0.01879704 -0.3352348  -0.28617954 -0.3471186  -0.3608768   0.05853011
 -0.2054824  -0.10347133  0.03818389  0.04304694  0.47605735 -0.26145735
  0.10634381  0.10458963]
[-0.03543205 -0.33338222 -0.02959405  0.38398618  0.39479014 -0.16522323
 -0.0633984   0.00059257  0.582887   -0.12063388  0.3367619  -0.09661423
  0.273072   -0.28379643  0.31040323 -0.14232083 -0.3362681  -0.04105533
 -0.03006139  0.23447254]
[ 0.37363765  0.19408657  0.6541902  -0.4648689  -0.00626382 -0.32410547
  0.04299944  0.20781069 -0.56137204  0.2343663  -0.46399078  0.36322713
  0.4143082  -0.19574328  0.05286833 -0.11239119  0.4010562   0.33363602
  0.26466623 -0.23346037]
[ 0.10924619 -0.24885719  0.21708529  0.31543785 -0.04982087 -0.4572714
  0.34101975  0.35329857  0.2318477  -0.2543667   0.09090067 -0.20599274
  0.40454918  0.14597844  0.30948207 -0.01323812 -0.33338016  0.44685265
  0.19746946  0.39878842]
[-0.2219922  -0.37806344  0.02108305 -0.4537777   0.04421186 -0.22019401
 -0.23574999 -0.2961938  -0.94920033  0.05465937 -0.16509326 -0.25624517
 -0.1881688  -0.21635735 -0.01162235  0.37870032  0.9645355   0.0471812
  0.00225175 -0.23565403]
[ 0.20206085 -0.10665078 -0.04613975 -0.18450175  0.17592788  0.07638558
  0.23301426  0.06036166  0.13045755 -0.12947255 -0.3712745   0.14438108
  0.02485186 -0.3821454   0.08451919  0.0544405   0.05300136  0.31166428
  0.20255488 -0.10700912]
[-0.13093853 -0.22949962 -0.05239007  0.2050422  -0.04631597  0.02722493
 -0.02577416  0.37025756 -0.3176229   0.04187607 -0.00405553 -0.34657726
  0.21523565 -0.23027551  0.1418065   0.12965113  0.00845099  0.32753238
 -0.19071664 -0.2035697 ]
[-0.11024992  0.2601207   0.344383    0.25356895  0.09966605  0.05303187
 -0.02292326 -0.19215864  0.14504175  0.41900924  0.11013446  0.3532793
 -0.42661905  0.11827939 -0.23656984 -0.05362556 -0.4229615  -0.3939663
  0.12010175  0.08645923]
[ 0.0380314  -0.05929469 -0.7010022   0.08688075  0.0027381   0.17757088
  0.11590227 -0.18865475  0.3696049   0.26135436  0.25405964 -0.4796212
 -0.09554683  0.64258546 -0.3720982  -0.28455836 -0.02371683 -0.2558951
  0.40620035  0.5396447 ]
[-0.07113749  0.14567386  0.01453599  0.07142269 -0.157506   -0.39481938
  0.21014632  0.14976037  0.14757308  0.08807322 -0.04818139  0.19680163
  0.21257123  0.3101508   0.00168685 -0.28454664 -0.31616446  0.26595733
 -0.18061808  0.37650833]
[ 0.37931782 -0.03557807 -0.06274117 -0.08918096 -0.12984714 -0.03208134
 -0.01318151 -0.04234595 -0.39114845 -0.30092302 -0.05566134  0.0982718
 -0.15970705  0.12043196 -0.19869941  0.25390002  0.07175482  0.21349382
 -0.21323521  0.36803803]
[-0.05464867  0.4661102   0.36518094 -0.14798415  0.19820367 -0.310524
 -0.16204377  0.27495217  0.0328268   0.47745574 -0.10490552  0.10764065
  0.3071983   0.5246068  -0.2129754  -0.5614792   0.61726624  0.25386345
  0.17708296 -0.13592967]
[ 0.38910496  0.2031068  -0.20660262  0.19776195  0.1879834   0.17138499
  0.2010052   0.30537114  0.6379183   0.48924157  0.14909543  0.18454379
  0.38690013  0.5598602   0.24247037 -0.08992761 -0.29943326 -0.40711567
  0.0962749   0.44955176]
[ 0.14951286  0.3019873   0.13081129  0.12358694 -0.18961515 -0.22363935
  0.34088138  0.03607036  0.09132265 -0.24963395  0.07242148 -0.36307645
  0.5219464   0.37600476  0.18046962 -0.7261097   0.08816589  0.03556337
  0.5012999   0.70962363]
[ 0.4053419   0.28811738  0.31658635 -0.6085365   0.3975656  -0.5522518
  0.4965751  -0.18737833 -0.6130172   0.5365576   0.07152004 -0.1101409
  0.07342415 -0.25989214  0.06232703 -0.76280624  0.39647684  0.30538562
  0.13355161  0.23990548]
[-0.2973892   0.29551026 -0.08082814  0.38728195 -0.02413481 -0.32879302
  0.36070156 -0.4713115   0.49065512 -0.37745118 -0.44227052 -0.08812582
  0.2068737  -0.17339629 -0.47503617  0.12734601 -0.09829017 -0.02292959
 -0.33404955  0.41036195]
[ 0.06634403 -0.05674123 -0.2886063   0.28102666  0.24691083 -0.03735261
  0.22990558  0.5468599   0.5707306   0.131228   -0.20179594  0.32015106
 -0.20251736 -0.1306775  -0.01143494  0.38113165 -0.3452803  -0.07360411
 -0.02702791 -0.15211044]
[-0.3422514   0.27454838 -0.21911395 -0.03920779 -0.37415874  0.2725663
  0.3645332  -0.10452951  0.11848844 -0.2420816  -0.08584751  0.17335871
 -0.1360715  -0.160598   -0.21726768 -0.37069026 -0.03474918  0.24074626
 -0.24278624  0.33102974]
[ 0.07437251 -0.15630904 -0.20732966 -0.06418686  0.09111049  0.37290895
 -0.4731354   0.09867363  0.03191032 -0.14620534  0.04026343 -0.20684955
 -0.12435086  0.13386583  0.2727025   0.31470823 -0.10769239 -0.11426736
  0.0035813  -0.34185514]
[ 0.29597092 -0.02406679  0.02494916  0.09710721  0.09268531  0.12492289
  0.01663005  0.13872068  0.5791515   0.27867612  0.2461719   0.15764801
 -0.13307111 -0.01075512  0.33502734  0.4173047  -0.56500643  0.09864183
 -0.4376021  -0.32570383]
[ 0.09162799 -0.5725796   0.2925855  -0.08979193  0.07673715 -0.26608732
 -0.25876808  0.153432   -0.09278321  0.40804377  0.01604636 -0.1978433
 -0.00480219 -0.62078804 -0.03656819  0.20489997  0.36175343  0.39778692
 -0.3889079  -0.46558592]
[ 0.18932152  0.23591255  0.42228132  0.40798002 -0.02194294  0.48624364
  0.49528456 -0.11263259  0.69017005  0.0453578  -0.06800514  0.57882226
 -0.31853756  0.40907913  0.37268075  0.5199004  -0.74384713 -0.11489578
 -0.38984072  0.45960796]
[ 0.5413086   0.28615972  0.5862209  -0.37794614  0.22715995  0.06801585
 -0.21518245 -0.06120867 -0.2877276   0.08130136 -0.5014712   0.6904095
 -0.09400535 -0.40278685 -0.05747359 -0.14209557  0.4106628  -0.17654604
 -0.46153527 -0.0496246 ]
[-0.2404857  -0.30486453  0.02751791 -0.329434   -0.0656689   0.07028485
 -0.39501613  0.3971386  -0.21547896 -0.01639844  0.35395592  0.00269706
 -0.33223677 -0.20084573 -0.13828008  0.0263901   0.39605027  0.5039285
 -0.35415474 -0.7278203 ]
[ 0.01663871 -0.15918861  0.3299343   0.03460989  0.04705445  0.1559189
 -0.46594477 -0.15184793  0.12863266 -0.07379211  0.17394222  0.3251005
  0.11880624  0.42375255 -0.35253423  0.480903    0.03374808 -0.21878965
 -0.37446254 -0.19660757]
[ 0.08008946  0.03101116  0.01537457 -0.07113993 -0.0872006  -0.03271233
  0.2752738   0.056542   -0.07268879  0.09258159  0.26992586 -0.03444172
  0.10153472  0.15805079  0.02996429 -0.2828231   0.07461698 -0.26296794
  0.44426307  0.15239008]
[-0.28419054  0.09244756 -0.32387707 -0.01168764 -0.35702124  0.3231762
 -0.16946806 -0.53954923 -0.38400754 -0.4276262  -0.28604013 -0.02267488
 -0.14581631 -0.11584095 -0.553818   -0.01982163  0.1610425   0.15062274
  0.01564505  0.08975022]
[-0.10064625  0.06856951 -0.01888862 -0.13164808 -0.1468522   0.02752597
  0.00431332 -0.16990311 -0.2855461  -0.0652613  -0.0845257  -0.00339925
  0.02195808  0.04262724 -0.13663551  0.06878059  0.2224878  -0.00088842
 -0.05988882 -0.03828091]
layer 5 Activation
tanh
layer 6 Dense
20 1
[-0.6135885]
[0.8165145]
[-0.60357976]
[0.9818099]
[-0.5858386]
[0.8047516]
[0.71662927]
[-0.4425043]
[0.7821596]
[-0.6114814]
[-0.40142465]
[0.77329844]
[-0.75199455]
[0.6203871]
[-0.5159568]
[0.3256148]
[-1.0444283]
[-0.6857153]
[-0.6162515]
[0.5068413]
[0.24833898]
