layers 7
layer 0 Dense
20 20
[ 0.08479794 -0.3573179  -0.35137317  0.32656202  0.16781634 -0.23271082
  0.38888443 -0.09927954  0.32886818 -0.3482823   0.07172485 -0.335595
  0.40201908 -0.36891508 -0.09252594  0.33883166  0.12214006  0.32840732
  0.12774064 -0.20931002]
[ 0.10971504 -0.17026322  0.11282248  0.2724916  -0.03378371  0.35257405
 -0.16330767 -0.43727005 -0.02071507  0.27734512 -0.03836647  0.26690224
 -0.01179954  0.14383885  0.01646486  0.03973501 -0.063675    0.16824481
 -0.1267088  -0.40428853]
[ 0.06213645  0.1179445  -0.23134317 -0.02246337  0.15072194 -0.09805
 -0.3482646   0.03542231  0.18880893 -0.04462933 -0.11711425 -0.2722767
  0.18396506 -0.12750943  0.20491563  0.33485362  0.2787037   0.23080689
 -0.1855684  -0.22397919]
[-2.4898541e-01 -3.3774695e-03 -3.3213574e-02 -4.0395960e-01
 -2.7365604e-01 -1.6121311e-01  2.5675607e-01 -2.3788814e-01
  2.0467825e-01  1.8641925e-01  3.6258346e-01  1.2868880e-01
  2.7654564e-04 -2.8301021e-02  3.3215237e-01 -2.6770422e-01
  2.6096034e-01  1.9077447e-01  3.6205262e-01 -2.5959885e-01]
[-0.01861999  0.06652696  0.13924311  0.33102006  0.0014473   0.2481923
 -0.05742319  0.14863876  0.28583482  0.37083623  0.32253215 -0.03646378
 -0.11925916 -0.00529283 -0.15091436  0.07267296  0.24327822 -0.21773033
  0.34509128  0.25790092]
[ 0.30955648 -0.4196217   0.28897628  0.06480777 -0.30727804 -0.37018773
 -0.05755004  0.20252788  0.17376225 -0.34823397 -0.1483278   0.19774376
 -0.11997354  0.1324417  -0.37574688 -0.3132009  -0.00998081 -0.32435498
 -0.2097998  -0.12153975]
[ 0.16175999 -0.03262107  0.31908882 -0.27714065 -0.15838754 -0.10003405
 -0.32056463 -0.21678142  0.30447802  0.13516925 -0.23982568  0.00644299
 -0.20187196  0.30343637  0.11680862 -0.32168832  0.29006407  0.19982772
  0.14345782 -0.3330792 ]
[ 0.28954974 -0.12467846 -0.29656094  0.01377875  0.166624    0.01327522
 -0.04078019  0.258855   -0.29100314 -0.15301692 -0.05818946  0.22189224
 -0.0558524   0.06383602 -0.04899193 -0.25409028 -0.32025892 -0.17086248
 -0.36749735 -0.10005525]
[-0.24025235  0.3839676   0.02217034 -0.24221896 -0.08577807 -0.4168098
  0.32440692 -0.25460783  0.22335513  0.3399259  -0.2627125   0.4495953
  0.23453999  0.29193664  0.27939004 -0.32583225 -0.31037277 -0.36167142
  0.02353593  0.25166568]
[ 0.06663737  0.17223771  0.15713362  0.0682128  -0.3329599   0.47863793
  0.2335649   0.15623517 -0.07509167 -0.3488225  -0.21974485  0.03476334
 -0.25507942  0.13845377 -0.08234312 -0.04469887 -0.17306666 -0.31878915
  0.3369316  -0.00444956]
[ 0.32277164  0.11221948 -0.17406459 -0.14719367 -0.14198035 -0.1031971
 -0.05179259  0.12409084 -0.09062523 -0.1967281   0.20103486  0.17201775
  0.29459736  0.2021474  -0.25599548 -0.03004005 -0.06661635  0.104869
  0.12857062 -0.02379442]
[ 0.18861224 -0.08413188 -0.09396579 -0.2740651  -0.15183376  0.15743814
  0.03702627  0.04339315 -0.32321903 -0.10003453  0.3390888  -0.25911093
 -0.20778687  0.05467129 -0.13797437  0.23369324 -0.05591856  0.07652534
  0.18948433 -0.2083262 ]
[ 0.2980524   0.08724455  0.18404868 -0.15655167 -0.02063893  0.07256396
 -0.02163861  0.14104842 -0.18382822  0.38508162 -0.3655559  -0.18053855
 -0.21456917 -0.02890666 -0.07187983 -0.05241127  0.02892142 -0.16541025
  0.21485204  0.4048434 ]
[-0.22710189 -0.08626533  0.00842301 -0.27811772 -0.37914646  0.16463204
  0.02889347 -0.13468659 -0.00669475 -0.26865062  0.11215286 -0.2197888
 -0.15429322  0.00967387 -0.0257604   0.2948451   0.0680215   0.37348664
  0.07476007  0.09282501]
[ 0.24641316 -0.16976157 -0.25948513  0.02346612  0.28171065  0.24918386
 -0.26216474 -0.13372698  0.34366998  0.10243896 -0.21676965  0.17644018
  0.11301941 -0.02447628 -0.42812905  0.135931   -0.0702113   0.22118664
  0.1585501   0.32849938]
[ 0.2868287  -0.30932483  0.35884032 -0.02894256 -0.30334765 -0.271739
 -0.14451063  0.23139022 -0.19177188 -0.25392956  0.2575696  -0.10274935
 -0.26986435 -0.05121497 -0.2881268   0.10097061  0.29624942  0.33467856
  0.07857636  0.09441512]
[-0.20333698 -0.08172219  0.0632049   0.26715013 -0.4123911  -0.19534169
 -0.10792114 -0.2908906  -0.02308563  0.40019953 -0.33371973  0.08379134
 -0.05925268  0.33019423  0.07532015  0.03361002  0.4479465  -0.14027692
  0.00818278 -0.28035152]
[ 0.25362164 -0.01079094  0.28524506  0.03869699 -0.30194902  0.20113437
  0.14306532 -0.253266    0.41773692  0.05681906 -0.15153758 -0.15540428
  0.06966653 -0.17047139  0.33102795 -0.3272867   0.2054063   0.05109373
 -0.5129697  -0.2731661 ]
[-0.31327996 -0.2961937   0.11293487  0.5335364   0.21160515  0.03647466
 -0.13630211  0.15596537  0.17156418 -0.4145186   0.00112036 -0.29246455
  0.10953782 -0.26419404  0.33823752  0.39945644  0.24427761 -0.19567695
  0.144561    0.15127873]
[ 0.502175    0.07728016 -0.11438233 -0.23923649  0.24843056  0.2676889
 -0.30069494 -0.06886218  0.33564854 -0.03506872  0.03751822  0.25926587
  0.21244976 -0.09133366  0.220405   -0.2488506  -0.49374732  0.08251991
 -0.08723958 -0.03904944]
[-0.03431933 -0.09321053 -0.05757746 -0.06085906 -0.00752551  0.00265637
  0.01655922 -0.10777432  0.04598877 -0.06652639  0.03465991 -0.05425866
  0.06441067 -0.08737678 -0.03452554  0.07490382 -0.01165553  0.06118477
  0.05000822 -0.06899378]
layer 1 Activation
tanh
layer 2 Dense
20 40
[-0.00250032 -0.2222707   0.0934413   0.3076219   0.24048783  0.27491376
  0.1019465   0.2930252  -0.14812826  0.12382786 -0.18914184 -0.32906684
  0.24437912  0.1400286  -0.26363653  0.03942551 -0.12533231 -0.1356969
 -0.06470319 -0.26385772  0.16495787  0.07694     0.00972071 -0.26860675
  0.26327533  0.05835738 -0.13111924 -0.14613725  0.04268816  0.02993174
  0.20289169 -0.29537767 -0.23911649 -0.1703271  -0.2757683   0.23042223
  0.12434527  0.1684942  -0.37058443 -0.10479692]
[ 0.16751368 -0.24556157  0.25673088 -0.20814706  0.12131019 -0.16978097
 -0.1937226   0.12473338  0.00704425  0.06878058 -0.11049706 -0.08310407
 -0.0710883   0.08549222  0.01808843 -0.07799859 -0.27953175  0.07756029
  0.25676817 -0.19549026 -0.22567673 -0.08216609 -0.1103375   0.16274633
 -0.1753027   0.08442213 -0.12021095  0.32670382  0.00204218  0.09421527
 -0.15072383 -0.02020434 -0.09352136  0.11410329 -0.0698481   0.21588658
 -0.11377118 -0.04567644 -0.22824456  0.25659204]
[-0.27119282  0.43781173  0.1458229   0.05218679  0.24197516  0.00598402
 -0.4430003  -0.33050957 -0.11023466  0.35262907 -0.13694736  0.03612285
  0.13029306 -0.11511069 -0.08780694 -0.2027623  -0.18729436 -0.23434918
  0.08630984 -0.235306   -0.21018235  0.04825173  0.1151636  -0.21001773
 -0.00468013  0.17932534 -0.11284139  0.16129872  0.1263177  -0.29038534
  0.28880587 -0.30099878  0.11407434  0.13188995 -0.06345598  0.09807254
 -0.27119592  0.00836414  0.01346381 -0.12101831]
[-0.23487127  0.21184166 -0.03582869 -0.245319   -0.05868394 -0.08243904
  0.39963153 -0.31451383  0.02601424 -0.1605013  -0.00792081  0.10853913
 -0.34290427  0.17750396  0.1947662   0.2455106  -0.36981443  0.05839474
 -0.24529025  0.25872794 -0.12368931 -0.14690436  0.2240903  -0.16540582
 -0.03381135 -0.06163298 -0.32548076  0.3127824  -0.02678901 -0.08038199
 -0.09093349 -0.18589576  0.11476694 -0.0087751  -0.07729284 -0.20734933
 -0.00714695 -0.295156    0.13935749  0.11270272]
[-0.18769689  0.09597766 -0.3207274  -0.13354391  0.13010935 -0.00151333
 -0.24849962  0.08883386  0.17973246 -0.05343662 -0.2087932   0.11253749
  0.21365203  0.00683388  0.11777177 -0.18351114 -0.18983977  0.02266
  0.22478549  0.23569049 -0.24288478 -0.22960304  0.12945235  0.11303899
 -0.2858383  -0.10318213  0.03529867  0.13589275 -0.11395855 -0.10222192
 -0.33840543  0.13709193 -0.02287987  0.10422502  0.2312549   0.20949808
  0.15495364  0.07009698 -0.13676207 -0.2830081 ]
[ 0.08562003  0.16012593  0.10075266  0.22157112 -0.15652683 -0.0444799
 -0.07465223 -0.28165227  0.2270331   0.11594187 -0.27138585  0.16441956
 -0.09405592  0.28242728  0.2117386   0.28482306  0.02964999 -0.18109861
 -0.14292204  0.27851182  0.03693571  0.14677191  0.2727072  -0.21395022
 -0.171564   -0.16026661 -0.25581744  0.3386296   0.2629916  -0.04634848
 -0.19382125  0.16443226 -0.08429677  0.00349723  0.0388752  -0.20085134
  0.3322999  -0.19976577 -0.17396298  0.22836009]
[-0.15504858 -0.23164068 -0.14612798 -0.31666183  0.18352132 -0.11422329
  0.33904898  0.21146008 -0.25537574 -0.28890792  0.01860791  0.13959832
  0.00786696 -0.13990356 -0.04605856  0.2827292  -0.21471253  0.02101921
 -0.29496506 -0.15580103 -0.07717586  0.36235762  0.0011923  -0.08011084
 -0.21270499 -0.20898151 -0.26949283 -0.0653103   0.16286595  0.01584195
  0.30202252  0.23342294  0.17975743 -0.05685764 -0.20510833 -0.29559028
  0.31056273  0.24304579 -0.10863876  0.11101551]
[ 0.2702581   0.18595618 -0.01209272  0.1466997  -0.24289183 -0.06487594
 -0.31767625  0.22796358  0.09628939  0.14053945 -0.05603384 -0.27139634
  0.08742265 -0.168806    0.10077728  0.08648872  0.05975285 -0.2470828
 -0.26031193  0.28315344  0.08676502 -0.24574746  0.12921719  0.1451453
 -0.15788436 -0.10489678  0.30481777 -0.15984702  0.24561524  0.24103971
  0.00326073  0.2425232  -0.04467987  0.11151053  0.03188986 -0.2923804
  0.12872618  0.14648339 -0.15275398 -0.2182789 ]
[-0.1784138   0.28431356  0.13658045 -0.1364991   0.27676105  0.00303075
  0.24570623 -0.14745744 -0.03404165 -0.13654323 -0.21036507  0.28587696
 -0.20546536 -0.2407867   0.04978867 -0.02719848 -0.3217578  -0.267507
 -0.04624243  0.3232873  -0.13224263  0.22419463 -0.10990421 -0.0979353
 -0.27343816  0.1951209  -0.11600397  0.20329706 -0.23813611 -0.22672656
  0.04494532  0.00053894  0.23177278  0.21418616 -0.15509018 -0.30520317
  0.292704   -0.14376247  0.31438953 -0.08755796]
[ 0.23080696  0.08780485 -0.09624187  0.16267036 -0.13264751  0.00758868
  0.16738687  0.03078706  0.16984604  0.20165594  0.24622566 -0.29783103
  0.3020062   0.06737651  0.06467303  0.16922775  0.04167432 -0.11596382
  0.21894713 -0.06444003 -0.20577563  0.26159513  0.04334689 -0.19038038
  0.0892032  -0.1619996   0.10709393  0.22355807  0.30185902  0.14815651
  0.18061046 -0.28558472 -0.303018    0.2900374   0.06486177  0.03899151
 -0.13133815 -0.08796501  0.21728787 -0.11082521]
[-0.03454181 -0.07797489  0.18237841  0.21928868 -0.0289855   0.23802285
  0.19600873  0.22352064  0.11425099 -0.1876658  -0.03017552 -0.04558882
 -0.09568846 -0.04919187 -0.08759926 -0.12207973  0.09161994 -0.1387982
 -0.15631758  0.07826006 -0.12202367  0.260066   -0.01988252  0.00935515
 -0.14128731 -0.27532086 -0.198661   -0.13564599  0.11986993 -0.17961843
 -0.2172815   0.21277156  0.21262181 -0.20702113  0.13892017  0.1551555
  0.01705438  0.17246999  0.26492798  0.05137453]
[-0.11013891 -0.05356474 -0.25954232 -0.06492517 -0.16041677  0.19825678
 -0.27752715  0.21526141  0.3305122  -0.1380196  -0.21244715 -0.36027265
  0.24077699 -0.09860602  0.07279129  0.10853729  0.23868036  0.0854104
  0.43170863 -0.32812855  0.05595551  0.02008694  0.038442    0.0108774
 -0.29456154  0.0602934  -0.09054842 -0.24777779  0.07043069  0.08160533
 -0.17485757 -0.05151034 -0.13817152 -0.15027705 -0.29908788 -0.38007087
  0.24830282 -0.30593714 -0.15312782  0.10288906]
[ 0.00902837  0.04406712 -0.04450806 -0.38628098 -0.33543557  0.07069251
  0.10716503 -0.22696057 -0.08407721 -0.06014928  0.30596918  0.06047027
  0.23961009  0.24162814 -0.40425837 -0.08120904 -0.23812056  0.28883132
 -0.21685454  0.27817735 -0.03665798  0.08266462  0.23061712 -0.1139134
  0.19664764 -0.14375204 -0.15240683 -0.29069883  0.10061297 -0.4799895
  0.04460122  0.3080573   0.35085225 -0.01183078 -0.04629811  0.03935223
  0.16029392  0.46574333 -0.3174432  -0.19598743]
[-0.24917236 -0.20253962 -0.25973755 -0.09364214  0.23199424  0.1070019
  0.13103275  0.11301287 -0.2760884  -0.09748998  0.24261229  0.13908811
  0.13578251 -0.29930577  0.04368072  0.10809367 -0.15175621  0.20939514
  0.1978811  -0.04318067 -0.2578338  -0.01783385 -0.28610697 -0.31630087
  0.28547093 -0.12529981  0.27254906 -0.19158448 -0.27595386  0.16281751
  0.18363361 -0.1691334  -0.07175863  0.02199487  0.09228777  0.21045315
 -0.09410077 -0.17229332 -0.01316944  0.00106268]
[ 0.15549889 -0.28593913  0.13615794 -0.06164668  0.24221765  0.02555343
 -0.00699149  0.1959728   0.06512499  0.3366694   0.14287311 -0.07710692
 -0.3450974  -0.16985455 -0.34102836 -0.07393346 -0.17334628  0.02672337
 -0.17403466 -0.06039612 -0.10517686  0.21749131 -0.04903834  0.01229402
  0.11596256  0.08759122  0.17781529  0.04219925 -0.3187224  -0.2802282
 -0.2561062   0.01507267  0.2344884  -0.15431261  0.16165514 -0.25676972
 -0.06793235  0.1333172   0.23068966  0.15983285]
[-0.28570336 -0.13812135  0.30064514 -0.26166394  0.10136285 -0.22325808
  0.10288357 -0.27654275  0.06361781  0.21744287 -0.17321539 -0.24190243
  0.27006355  0.11472991 -0.24562746  0.26699588 -0.06129715  0.22331622
 -0.18456474  0.25741798 -0.14115734  0.12096504  0.2545847   0.06837811
 -0.30830935  0.15380579  0.12412935 -0.18423904  0.15681173 -0.04392049
  0.01947596  0.08888359 -0.0521712  -0.18817224  0.21472035 -0.27544641
  0.29336283  0.0426491   0.20245938  0.1318438 ]
[ 0.17460436 -0.10407203  0.16600017 -0.05659793  0.05017658  0.22395936
  0.25158575 -0.01196414 -0.13902861  0.34988475  0.15937096 -0.07749671
  0.23725826 -0.22061801 -0.41754216  0.03116328 -0.22905041 -0.00459609
  0.17770515  0.2743743  -0.09089144 -0.13718563 -0.2411839   0.09815332
 -0.05874091  0.180906   -0.01660669 -0.20405458 -0.20175329 -0.05312452
  0.07142965  0.09860241  0.07714998 -0.13659133  0.40560135  0.08616893
  0.2559834   0.41807574  0.410181   -0.22850852]
[ 0.13779815 -0.3955331   0.3618034  -0.33192912  0.29395962 -0.26124293
  0.33740753  0.1451805  -0.29853493 -0.07107848  0.17263913  0.02186653
 -0.07948732  0.24113937 -0.32342726 -0.35497174 -0.16017695  0.17739335
 -0.12240186 -0.0722651   0.2841138   0.40822408 -0.30144757  0.22721094
  0.22878887 -0.01475372  0.06658763  0.18708844 -0.13100614 -0.2738714
  0.37597087  0.04673635  0.12422938 -0.11075035  0.08578785  0.1558081
  0.05339105  0.13235414  0.327235    0.07228233]
[ 0.15836653  0.2362605   0.32994315  0.08437546  0.03099947  0.19619709
 -0.04705252  0.27757752  0.11552523  0.25857484  0.17728859  0.3188211
 -0.18536602 -0.34010231 -0.35373628  0.32118744  0.00348651  0.1515157
 -0.08697865 -0.26571986  0.27705878  0.31110054  0.00450346  0.18560857
 -0.08522543 -0.24045998 -0.23730673  0.1926892  -0.05766857 -0.34087205
 -0.18776728 -0.00122739  0.00465495  0.24868657  0.12888277 -0.23150142
 -0.1228686   0.31754726 -0.01609624  0.197224  ]
[ 0.1163982  -0.13052462 -0.21481289  0.2855045   0.18769889 -0.11383392
 -0.2846621  -0.17689042  0.28824595 -0.22689316  0.05047586 -0.18022805
 -0.18778028 -0.08076202 -0.06689356  0.06849311 -0.20611928 -0.22915158
  0.0372297  -0.2681039  -0.16233747 -0.06009973  0.05163042  0.18664417
  0.00894035 -0.28066444  0.3112653   0.10662593 -0.08469097  0.32145855
 -0.19736384  0.22531743 -0.03457879  0.00160654 -0.15063553  0.26263362
 -0.21454616 -0.03421649  0.00920093 -0.18276384]
[ 0.01465251 -0.04727633  0.11052421 -0.02569839  0.01029054 -0.07171375
  0.12816508 -0.04678917 -0.02765253  0.01649468  0.03234356  0.09198512
 -0.00201604 -0.00901    -0.07678348 -0.06542739 -0.02321324  0.01828843
  0.03350937  0.00309569  0.08196888  0.05518067 -0.01340928 -0.00465955
 -0.05510564  0.02022225  0.01055805  0.03565336  0.01189019 -0.07379571
  0.05502892  0.10057495  0.12185083  0.03823855  0.09750931 -0.01734405
  0.09753861  0.14927417  0.04335705 -0.03665758]
layer 3 Activation
tanh
layer 4 Dense
40 20
[ 0.21029946 -0.25732565 -0.2332588  -0.15503114 -0.08113562  0.19151855
 -0.07086145 -0.29676238  0.1590358  -0.1001993  -0.16654955  0.2430102
 -0.06935055 -0.05364926  0.07362122 -0.11255407 -0.17177032 -0.02493339
  0.06283684 -0.01779692]
[ 0.16712137 -0.2288453   0.20635954 -0.11677762  0.11983898  0.1988326
 -0.2568998   0.29502088 -0.142605   -0.33296776 -0.15676661 -0.27720854
 -0.04079435 -0.20438947  0.06975358 -0.20432504 -0.20956092  0.19267721
 -0.2208403   0.2487645 ]
[-0.28888592 -0.18426763  0.19096132 -0.08781349  0.15488243 -0.13080445
  0.06300762 -0.269334   -0.13291329 -0.11036804 -0.3418222  -0.23163943
 -0.07014296  0.02566703 -0.1972623  -0.08243997 -0.10588783  0.07741342
 -0.05168701 -0.2908328 ]
[ 0.25719333  0.22799857 -0.21393798  0.27468356 -0.28599373  0.04286264
  0.3038378   0.3697183   0.35198954 -0.00862126 -0.22661957 -0.05849318
  0.22981265 -0.14865568 -0.1811905   0.17603166  0.06425151 -0.1498152
 -0.23952103 -0.27555227]
[ 0.13824087 -0.03991102 -0.22423013 -0.37216112  0.0671093  -0.22517432
  0.12158624 -0.1808661  -0.32662725  0.08284624  0.27520654 -0.13623159
  0.05661339  0.12287794  0.22547685  0.1629269  -0.08041716  0.27160794
  0.21515244  0.08454831]
[ 0.00315656 -0.08841397 -0.16892141  0.33286786  0.06029335 -0.33804786
  0.137048    0.11080751 -0.03967313  0.02093458 -0.14703369 -0.01306508
 -0.10562167  0.31015143  0.2804887  -0.10482513 -0.14278443 -0.05341791
 -0.10111989 -0.15293181]
[-0.27101374  0.23402427  0.04517375 -0.06257088  0.3617489  -0.25018463
  0.2659051  -0.34304017 -0.00909899  0.03829604 -0.06272853 -0.12848277
  0.09478062  0.09318032  0.18708871 -0.19477993  0.01977511 -0.02076497
  0.31191656 -0.26868707]
[ 0.13491517  0.3029607   0.18940768 -0.02793315 -0.08423334 -0.01985721
  0.21082662  0.15597692 -0.15958683  0.29858002  0.21467991 -0.1889613
  0.07102685 -0.0474774  -0.26347896  0.18297306 -0.28186497 -0.26757544
  0.20292158  0.14844564]
[-0.2532573  -0.31044444 -0.22123416 -0.13133177 -0.16736148  0.10533822
 -0.2270907   0.20756646  0.18947126 -0.26187935  0.2770842   0.01108884
 -0.27966964  0.29854217 -0.01850476 -0.11030079  0.31140012 -0.02798979
 -0.24552369  0.12668326]
[-0.02290814 -0.19608478 -0.22291353 -0.21306546 -0.40267208 -0.14671235
 -0.28719905  0.18560569 -0.09974205 -0.330329   -0.13071804  0.2215822
  0.21780318 -0.1852101  -0.3223371  -0.06071535 -0.22467983  0.08181576
  0.00562155  0.17908338]
[ 0.07878073  0.11844865 -0.1896793  -0.2884662   0.28046855  0.17143337
 -0.12971225 -0.22331205  0.12028183  0.00776888  0.1662023   0.07505018
 -0.14826033 -0.16765799  0.2808242  -0.20914358  0.08421128  0.12863345
 -0.06642874  0.18719539]
[-0.12008733 -0.22878602 -0.04227392 -0.07745918 -0.00568341  0.1961667
 -0.23230343 -0.41011745 -0.06236669 -0.10494323 -0.0631988   0.10432857
  0.2855874  -0.18466976 -0.1310659  -0.0909311   0.00974812  0.11501931
  0.23226383 -0.15087298]
[ 0.11935923  0.08692046 -0.19091333 -0.1920805  -0.29130277 -0.21826306
  0.25736484  0.20337607 -0.17547567  0.08294328 -0.12618117  0.11374965
 -0.2227811   0.24670285  0.28111392  0.29313782  0.06531928  0.22349778
  0.0773492  -0.07392887]
[-0.20707002  0.2764791   0.02538026  0.40337127 -0.35057372 -0.08394267
 -0.02013316  0.17855065 -0.33276573 -0.26385546 -0.19759758 -0.16305502
 -0.04137908 -0.03947018  0.03507454  0.09220988  0.06388522  0.15219946
  0.06278024  0.2305314 ]
[ 0.2700208  -0.20863304  0.33810106  0.22572207 -0.07982354 -0.21594115
 -0.22101866  0.10921234  0.29750612 -0.06750129  0.2161088  -0.2741054
  0.25452724  0.18443717 -0.06042411  0.12995605 -0.19280529  0.03947644
 -0.06980556  0.18207721]
[ 0.2666192  -0.12246145  0.2251048   0.2592414  -0.02362916 -0.11689764
  0.21816924 -0.07385651  0.33910426 -0.22245911 -0.29013675 -0.02790692
 -0.023408    0.13359717  0.2290553   0.13953276  0.19780129 -0.11406157
  0.19118461  0.13760689]
[-0.07555527 -0.07798431  0.08739238  0.30746675  0.13070507  0.131571
  0.15281764  0.14403735 -0.02544592  0.19532281  0.1773162   0.05609541
 -0.05822633  0.26223224 -0.2899196   0.18570729 -0.20804636  0.31045216
 -0.12108023 -0.06987493]
[ 0.07432692  0.23261258  0.08847984 -0.0083154   0.24056111  0.33074063
 -0.1812932   0.10729555  0.20180342  0.1683121  -0.07153343  0.02995781
  0.16306269  0.02639389 -0.12388942 -0.03575019 -0.2854317  -0.03398837
  0.24371973  0.18461967]
[-0.22228728  0.02247678  0.20962335  0.46907312 -0.04684079 -0.16913992
  0.29434043 -0.05126371 -0.06665483  0.244136   -0.15219028  0.082097
 -0.20921728  0.03667852 -0.2533981   0.00835119 -0.2018718  -0.09339441
  0.20206335  0.1253444 ]
[-0.17763396  0.26769707 -0.17059304  0.17723687  0.12114462 -0.01727288
 -0.35494834  0.24889752 -0.11116683  0.06645622 -0.17343171  0.20753929
  0.2700156   0.13852383  0.07610594  0.21650848 -0.08964943 -0.0454459
 -0.19022533 -0.0708178 ]
[-0.2096433   0.0448047  -0.14231887 -0.05466422 -0.13029347 -0.09812209
  0.16974868 -0.10223184 -0.3231085   0.11543348 -0.25926274  0.0625826
 -0.27771333  0.14315003 -0.16955234  0.11312994 -0.352281    0.01342819
  0.11992565  0.16840401]
[-0.2603643   0.15014233  0.12335125 -0.2773336   0.18918817 -0.34368604
 -0.18404606 -0.1689855  -0.251075    0.10990193 -0.11466894  0.25718197
 -0.25565338 -0.06578533  0.3548833  -0.02830874  0.24265292 -0.24255681
  0.17929432  0.15373166]
[ 0.24977192  0.1067623   0.06759068  0.22864217  0.27939975  0.15042986
 -0.03988914 -0.1993985  -0.22944872 -0.09033251  0.11211114 -0.08473484
  0.2066693  -0.05228584 -0.08627908  0.23465684  0.1690295  -0.07479584
 -0.05092144 -0.01512465]
[ 0.23022728 -0.21331896 -0.22666763 -0.29758215  0.14996955 -0.02748446
 -0.10770284 -0.09522749  0.04253478 -0.04838625 -0.05488528  0.12913656
  0.06762197 -0.08401322 -0.1260132   0.10129337 -0.19116804 -0.08832033
  0.07522524 -0.0428974 ]
[ 0.04943961  0.05868593 -0.30846438  0.1993965   0.07746735 -0.04683088
 -0.15250748  0.10063299 -0.07899452  0.3021916   0.27038667  0.17801161
 -0.12544596 -0.07639428 -0.18560974 -0.32065168 -0.2274263   0.12334157
 -0.27790144  0.20884642]
[-0.0739707  -0.03466396 -0.11118215 -0.20932513 -0.07074407  0.20890166
 -0.32135373 -0.07703111 -0.29352894  0.02125113  0.05271577  0.24417421
  0.02207726 -0.01930934 -0.09615853  0.08287393  0.16801848  0.14098853
 -0.17281015  0.19518778]
[-0.14153913 -0.06140094  0.29155353  0.17903996  0.21028686 -0.1370752
 -0.0303636  -0.00913769  0.25266773  0.1654442   0.3578846   0.02284689
  0.25525048  0.03182539  0.06221055  0.11115932 -0.25809106  0.14054216
  0.10696762 -0.07128625]
[-0.19049191  0.02337506  0.02116331  0.240783    0.00892843 -0.10610478
  0.19585425 -0.2672952   0.05935234 -0.28370827  0.10781665 -0.09584772
  0.04238934  0.08183957  0.17263886 -0.30399373  0.07957444 -0.0722601
  0.19503371  0.1247749 ]
[-0.03795267 -0.11363594  0.08156326 -0.23053557  0.12044375 -0.15632124
 -0.05428552 -0.04382809 -0.04630784  0.10005236 -0.00998381  0.2906473
 -0.2811705   0.1071864   0.23462106  0.34421563 -0.2380007  -0.17370784
 -0.163632    0.28621247]
[ 0.29948997 -0.30404937  0.07401991 -0.03022249 -0.25848565  0.25921845
 -0.02104275  0.12652154  0.1709528   0.01446331  0.1894628  -0.11085236
 -0.23085324  0.00786932  0.05670859 -0.06496582  0.18603522 -0.30407912
 -0.20556515  0.2882479 ]
[-0.23827809  0.06864951  0.01437915 -0.21880893  0.15052827 -0.17245746
 -0.06201089 -0.22474484  0.25872293  0.18549304 -0.22521396  0.3171384
 -0.0714076  -0.01989707 -0.06290021 -0.03151749 -0.12244979  0.26545963
  0.1650408   0.02340626]
[ 0.07211907 -0.00176833 -0.29263595  0.08258823  0.3392863  -0.19491553
 -0.18111382 -0.20731704  0.08239941  0.17640626 -0.25935793 -0.08577915
  0.06329239  0.26758248  0.33351383  0.2303907  -0.25057238 -0.01157407
 -0.01606905 -0.24652268]
[-0.19592234  0.2981249  -0.00800167 -0.20751685  0.06723607 -0.12730215
 -0.07711915 -0.38646844 -0.20862848 -0.05355156  0.06140914  0.0216343
  0.1264611  -0.05287436  0.18443753 -0.22084738 -0.01001725 -0.23153514
  0.16886431  0.22329949]
[-0.30113736 -0.02416131  0.249638    0.1826553   0.3408504   0.03052342
 -0.01727544 -0.15871555 -0.11718069 -0.11369635 -0.1576654   0.21021275
 -0.1800221  -0.00069623 -0.19761926 -0.22593464  0.04122429  0.09002232
  0.145053   -0.07678833]
[-0.23026215 -0.08731931 -0.16715433  0.2747759  -0.35459653  0.12683834
 -0.26204008  0.01949826 -0.1387574   0.01598613  0.3028822   0.02921088
  0.27547088 -0.04220741 -0.36379156  0.28439552  0.17853375  0.09987903
  0.3097383  -0.10054769]
[ 0.23622826 -0.04889823 -0.2929497  -0.19619094 -0.13887727  0.05291392
  0.0784244  -0.0235579   0.23048106 -0.06576344  0.09401725 -0.33855352
 -0.20281768 -0.08153141  0.25186458  0.16847225  0.047552   -0.27074856
  0.27153173  0.14714353]
[-0.00317079 -0.1337657   0.01835245 -0.14440483  0.00465946  0.27060547
 -0.21504794 -0.36199284  0.19307362  0.07658903 -0.03791837  0.1282012
 -0.09518761  0.07448435 -0.15028575  0.27369437  0.07969471 -0.11756276
  0.04633456  0.2365329 ]
[-0.14349763  0.05636448 -0.02725834 -0.33419874  0.07924559  0.29696417
  0.13304245 -0.25445327 -0.32750344  0.11308405 -0.21540505  0.19854344
 -0.14065422  0.17026536  0.28783238  0.07838719 -0.09530213 -0.04903488
 -0.12245552 -0.31034017]
[-0.25415987 -0.28179273 -0.34768394  0.07175574  0.11743318  0.05679864
 -0.22659136  0.01860875 -0.00349802 -0.24708289  0.19350325 -0.12524235
 -0.1838238   0.21637703  0.11727522  0.17094596  0.00115292  0.03409784
  0.20222731  0.04784257]
[ 0.02424933  0.07669795  0.33371955  0.01281252 -0.00099236 -0.09394553
  0.08482503  0.15312196  0.07769039 -0.07999492 -0.25675824 -0.09290069
  0.00726934  0.05836011 -0.28946945  0.03205027 -0.15942836 -0.22308345
  0.1316363   0.15540612]
[-0.05441917 -0.00424684 -0.03378897 -0.05438929  0.03262062  0.00179943
 -0.00727781 -0.09889266 -0.03154539  0.02778231 -0.04237728 -0.00706594
  0.0196396   0.0138001  -0.0053741  -0.0266298   0.00553661  0.00866042
  0.03298821 -0.01355242]
layer 5 Activation
tanh
layer 6 Dense
20 1
[-0.34606722]
[-0.20049183]
[-0.11145379]
[-0.18302801]
[0.05350258]
[0.00790282]
[0.15513855]
[0.32034367]
[0.0863772]
[0.23218612]
[-0.23530187]
[-0.06580202]
[0.26856887]
[-0.0117872]
[0.01326659]
[-0.01337709]
[0.04157082]
[-0.00443211]
[-0.15905254]
[0.22413257]
[0.02049754]
