layers 7
layer 0 Dense
20 20
[-0.11835524 -0.24915735  0.06351838 -0.287349    0.3071796  -0.05809132
 -0.22934538 -0.02603711  0.101293   -0.24226658  0.09203763 -0.1739865
  0.21948922  0.31402043 -0.50240934  0.0391316  -0.19367003  0.02168255
  0.26558223  0.02739766]
[-0.16882823  0.0332081   0.10360727  0.16362292  0.00759968 -0.2684496
 -0.3675253  -0.2794879  -0.32157904 -0.35109273 -0.21820925 -0.38219061
 -0.3314292  -0.13203117  0.08262718  0.23758858 -0.17951833  0.24360317
  0.02525344 -0.09782195]
[ 0.20344341  0.0677914  -0.3868795  -0.12972263 -0.2574246   0.18115133
  0.11426634  0.35439974 -0.26467866 -0.31692606 -0.32194978 -0.14467731
 -0.07401618  0.31980574 -0.31572333 -0.24821374  0.22119492  0.27325243
 -0.15360169  0.13661325]
[-0.43731433  0.19171338 -0.10340156 -0.11345688  0.5547489  -0.13693343
 -0.3772369  -0.3075737  -0.15232599  0.22209202  0.28362018  0.23622294
  0.05691618 -0.18884428 -0.6380407   0.10523144 -0.4245558  -0.19977444
 -0.33165795 -0.30760106]
[-0.1896297  -0.14839354 -0.16957219 -0.5628684   0.11500048 -0.25914156
 -0.16954505  0.07906634 -0.24750884  0.03438693 -0.05598348  0.05952588
  0.17724466 -0.45995802 -0.0066302  -0.29042992 -0.00154871 -0.07590787
 -0.21750456  0.07383576]
[ 0.09428018  0.11904794 -0.16795397  0.37154406 -0.14520817 -0.16994637
 -0.3765231   0.1757338  -0.09822407  0.27512342  0.3474691   0.30228245
 -0.31203318  0.0763436   0.34698284 -0.30888516 -0.00967076 -0.05859703
  0.04721844 -0.10902026]
[-0.3402004   0.15949929 -0.17751624  0.01295647  0.2709155   0.2931707
  0.3793639  -0.28370604 -0.07590914 -0.18892308 -0.01509818 -0.04829291
  0.24984872  0.32325524 -0.11301607 -0.14644514 -0.09731343 -0.05989751
  0.1552648   0.3710785 ]
[ 0.06864235 -0.14449112 -0.14743093  0.19851896 -0.55770487  0.17804848
 -0.01790391  0.16510725 -0.03073881 -0.5004658  -0.42026815 -0.46659437
 -0.01443713  0.01546744  0.4623579  -0.3054492   0.24893107 -0.36632264
 -0.02675531  0.03935242]
[-0.2639335   0.24609524 -0.1169433  -0.487238    0.21055724  0.42839116
  0.20844342  0.6758326  -0.44040838  0.8568842  -0.5152423   0.5610117
 -0.8894977   0.18236369  0.10822132  0.21716046  0.5750452   0.6057589
  0.17100972  0.41524622]
[ 0.3807044   0.2304598   0.31322855 -0.43912336 -0.01914781  0.659962
 -0.51935065  0.5893999   0.34336427 -0.15554883  0.00456892  0.21601349
 -0.84386164  0.5722551  -0.26588535 -0.20817715 -0.7721371   0.2766239
  0.40607068 -0.3370265 ]
[-0.0451596  -0.96385425 -0.11357988 -0.4022224  -0.06843679 -0.2719172
  0.27667296  0.7088946   0.597087    0.13094828  0.77244467 -0.12842648
 -0.18365845  0.94251025  0.1432904  -0.56254727 -0.80900073 -0.27349597
  0.8463775   0.42083037]
[ 0.5924378   0.22146972  0.06920783  0.30555582 -1.2958306  -0.27485552
  0.04061441 -0.15371963  0.37540343 -0.8616533   0.6637506   0.4087213
  0.5629966   0.8185526   0.95895904  0.4767714   0.0853859  -0.3927511
 -0.7224662  -0.0782175 ]
[-0.23060758 -0.08464888 -0.22058375  0.3496178   0.25458035  0.62528664
 -0.30227718 -0.4945863  -0.0126884   0.11077814  0.22341624  0.13991304
 -0.01039975  0.3928052  -0.22101103 -0.15523987  0.22835203  0.4910993
  0.0781237   0.7056193 ]
[ 0.39486694  0.2855266  -1.4618669   0.7171346  -0.02732034 -0.08820277
  0.04457638 -1.5203264  -1.5833652   0.7026152   0.33615267 -0.83358985
  1.0681983  -0.17105614 -0.01461594  1.5289444   0.44115558 -0.986216
  1.367639    0.34099016]
[ 6.7102349e-01 -1.6134308e-03 -6.1125046e-01  1.1043847e+00
  7.6991290e-02 -3.0108159e-02  4.8205265e-01 -5.7462591e-01
 -6.9790304e-01 -5.9194350e-01 -2.0795944e+00  1.1494291e+00
 -9.5268178e-01 -1.9270250e-01 -2.5149691e-01 -5.3740006e-02
  1.5550567e+00 -2.7628666e-01 -1.3347816e+00  9.3196148e-01]
[ 0.8622725   0.371405    0.9040469  -0.16716091 -1.1720076   0.16568916
  0.3623102  -0.8159668   0.39848152 -0.84857404  0.45697165  0.03737431
  0.7799018   0.76389915  1.3445616   0.12912734 -1.100482   -0.40029806
 -0.87250394  0.4244116 ]
[ 0.37529275  0.6689192   0.07173216 -0.6671391  -0.3192506   0.0143719
  0.76490575  0.29367128 -0.3309366   0.14082046  0.26985228 -1.1260171
  0.2933662  -0.47451523  0.02462066  0.1304667  -0.2694361   0.2429159
  0.00380563 -0.06220603]
[-0.9640103  -0.67535806  0.9640632  -0.02401613  0.00308321 -0.87089175
  0.435938    1.142227    1.0701494  -0.50641054 -0.61572534  0.6002863
  0.3194564  -0.26521236  0.1645413  -0.9024191   0.54085433  0.31990993
 -0.55575144  0.2498199 ]
[-0.5312298   1.3958694   0.41559398 -0.2922705  -0.0190984   0.98481786
 -1.7704135   0.42759833 -0.28733286  0.26047426  0.9821668  -0.496748
  0.7221272  -0.6361983  -0.6886119   0.8283052  -1.1353382   0.7238218
  0.36715424 -1.2000234 ]
[-0.7447459  -0.21421477 -0.3401615   0.00796377  0.22311588  0.45217696
 -0.49489927  0.37096077 -0.5081087   0.62303674 -0.5125764   0.33996484
 -0.44679883 -0.41719142 -0.65149    -0.08692507 -0.05404767  0.5147023
  0.52833545  0.4175431 ]
[ 0.01991153 -0.12782054 -0.13075462 -0.0720606   0.3582595  -0.0464556
 -0.28182524 -0.01986618  0.15756458  0.07609043  0.28519005  0.36434737
 -0.02284703 -0.09365605 -0.2647166   0.17696998 -0.22209764 -0.03752938
 -0.17802435 -0.27989426]
layer 1 Activation
tanh
layer 2 Dense
20 40
[ 6.43001378e-01  6.63142323e-01  2.41755009e-01  7.80929208e-01
 -5.88743329e-01  7.67287682e-04 -3.45737040e-01 -8.16333175e-01
  1.78511649e-01 -2.23594442e-01  4.42010552e-01  2.53770977e-01
  6.99054897e-01 -5.34201920e-01  3.01228791e-01 -8.91342700e-01
  4.57944423e-01  4.62477170e-02  3.14702570e-01  4.54363257e-01
 -6.13602139e-02 -1.42802611e-01 -3.09112165e-02  5.10067940e-01
 -4.96679246e-01 -5.24353743e-01  3.15614134e-01 -3.28278840e-01
 -1.16289474e-01  3.90526801e-01  9.60964188e-02 -6.92420542e-01
 -2.71170229e-01 -5.66862106e-01  5.97286746e-02  2.71494210e-01
  6.21076673e-02 -7.49741256e-01  1.53496057e-01  6.83776081e-01]
[ 0.18720034  0.34789932  0.27135667  0.24204768  0.3466201   0.2687159
 -0.789575   -0.55336046  0.5028866  -0.33348268  0.39043602  0.08271264
 -0.11487293  0.47528702  0.409944   -0.41387153 -0.38900357  0.19559807
 -0.21040383  0.483058    0.3529042  -0.5451032   0.4382537   0.12544185
 -0.31683093  0.00150758  0.24518947 -0.2713664  -0.01187993  0.12074725
 -0.0565416  -0.66017246  0.00602642 -0.6006681   0.26213107 -0.05451325
 -0.42347038 -0.4640323  -0.3857511  -0.17452453]
[-0.4373925   0.3152677  -0.33542946  0.20125844  0.3813729   0.39025432
  0.16557255  0.4727082  -0.4788599   1.2876048   0.01776773 -0.3947649
 -0.12728018  0.22352284 -0.12524441  0.25108504  0.34200415  0.36965024
 -0.87142074 -0.53669393  0.5724888   0.66522473 -0.6046483  -0.23554945
 -0.74862254  0.63282496 -0.08978355  0.25617647 -0.3906254   0.6194984
 -0.01225118 -0.212384   -0.10670602  0.59545624  0.5422274  -0.2785394
 -0.3849228  -0.12689114 -0.08885867 -0.42517358]
[ 0.05273036 -0.09228863  0.04263707 -0.3032224   0.05243637  0.08259875
 -0.05415417 -0.49475202 -0.1515725  -0.68759537  0.42609474  0.5088771
  0.2738685  -0.23425053 -0.25177288 -0.21336418  0.0622053  -0.33266792
  0.32907483  0.4142007  -0.15127736 -0.04848511 -0.1373049  -0.15677138
  0.41568458 -0.5440236  -0.47858244  0.44443494  0.31667832  0.10763882
 -0.84603226 -0.3925766   0.2830427   0.32432455 -0.06846119  0.5898353
  0.06896602  0.19713333 -0.14185406 -0.10278592]
[ 0.10554513 -1.3392546   0.05853688  0.91224694  0.20464152  0.36835447
 -0.09991481 -0.38150147  0.15150699 -0.6759991  -0.50018966  0.14316863
  0.11013792 -0.8204212   0.48857978  0.24340393 -0.11912188  0.258113
  0.25191405  0.01453745  0.12744908  0.06874818  0.7118231  -0.25733948
  0.7257651  -0.25416207 -0.5109416   0.7812934  -0.4424889  -0.1282781
 -0.5228688   0.10504414  0.5090739  -0.24627025  0.5122653  -0.75097376
  0.6248737   0.09870263  0.06895982 -0.19116747]
[-2.5264600e-01 -4.4605881e-01  2.9818514e-01 -7.4517971e-01
  3.9541835e-01  7.5561412e-02  8.2713820e-02  3.9943039e-01
 -1.8571189e-01 -3.1063008e-01 -2.4059966e-01 -3.0556810e-01
 -1.4731677e-01 -5.8978535e-02 -3.2725322e-01  3.7395322e-01
  3.1889477e-01 -2.9881082e-02  1.6128244e-03 -2.4221976e-01
 -4.7176161e-01  9.2279106e-02  3.0041105e-01 -9.1739155e-02
  1.2780468e-01 -2.0191309e-01 -2.8178918e-01  4.4454736e-01
  5.3295058e-01 -3.1753448e-01 -3.2772663e-01  4.5690170e-01
 -3.7809768e-01 -8.6026423e-02  7.0075542e-02 -2.5426364e-01
  5.1787321e-04  3.9751884e-01  2.0219439e-01 -1.8410648e-01]
[ 3.83718342e-01 -1.24189824e-01 -2.71352589e-01  5.38440272e-02
 -4.53071564e-01  2.96877250e-02  1.58836707e-01  6.94622926e-04
 -1.24793693e-01  1.48168549e-01 -4.45151806e-01  1.00252979e-01
  6.08029842e-01  9.06352140e-03 -4.46105562e-03 -8.12121928e-02
  7.71465600e-02 -3.94279480e-01 -2.28241518e-01  2.05181196e-01
  2.08167508e-01  2.60738432e-01 -4.58968163e-01  2.64586210e-01
  4.31033462e-01  2.34305352e-01 -1.16067991e-01 -3.52117896e-01
 -2.78868228e-01  6.90417662e-02  7.18035579e-01 -6.86737657e-01
 -9.61196944e-02  2.20004439e-01 -8.41698349e-02 -2.78076917e-01
 -3.34734619e-01 -1.15663826e-01  2.14547038e-01  3.73517498e-02]
[-1.0221344  -0.04957318 -0.3348157  -0.5432863   0.35878438  0.03734322
  0.53138864  0.9613307   0.10724521  1.0506887  -0.4248801  -0.00293342
 -0.38184515  0.19586387 -0.17986469  0.3349696   0.754496   -0.18035208
 -0.9116365  -0.40330797  0.3029571   0.93628    -0.19872297  0.4008932
 -0.5238974   0.8703242  -0.0870249  -0.0486233  -0.32356077 -0.10635985
 -0.2681545   0.13327718  0.0740407   0.798475    0.29110014 -0.28787953
 -0.19417986 -0.03153744  0.24945587 -0.51807207]
[ 0.1355563  -0.01870525 -0.4751638   0.3512102   0.1299113   0.0057155
  0.4086836   1.2319512  -0.6092174   1.7258612  -0.17844148  0.10147116
  0.49921504 -0.15237993 -0.09066369  0.31863412  0.92325896 -0.5506305
 -1.4183042  -0.8483505  -0.22918963  1.2258141  -0.268461   -0.10818017
 -0.27279708  1.2579834  -0.06402365 -0.07687996 -0.33088458 -0.04579611
 -0.11057101 -0.330526   -0.4582296   0.43678445 -0.17763123  0.4969066
  0.04937916  0.15769179  0.28774408 -0.12112536]
[ 0.11037044 -0.46088865  0.39220282 -0.13411428 -0.15634792 -0.86136776
  0.30604032  0.12616313  0.38027647 -0.5886341  -0.37099925  0.0980253
 -0.8285572  -0.30720022  1.1592584   0.6715767  -1.2482574   0.47855383
  0.9655882  -0.2686863  -0.37268543 -1.3393021   0.6382644   0.2892587
  0.6774777  -0.140469    0.73369545  0.93002504 -0.42187425 -1.0575656
  0.587928    0.9205675   0.24702366 -1.0794532   0.537244   -0.27388868
  0.63190204  0.70229375 -0.49769008 -0.61665446]
[-1.044054   -0.3131159  -0.35650185  0.33768654  0.01492021 -1.1896743
 -0.31246254 -0.11715608  0.31801465  0.6204154  -0.21887644  0.03612193
 -0.5176124   0.01221586  0.38011718  0.8169469  -0.48790354  0.31124106
  0.07234211 -0.51072556  0.25879097 -0.09273829 -0.00765753  0.44327107
 -0.08403435  0.3739954  -0.05282361  0.14497112 -1.2427967  -0.69084615
  0.5211111   0.7657606   0.24380729 -0.6718807   0.7945769   0.49799803
  0.5183795   0.57899916 -0.33412755 -0.23144303]
[ 0.42764625 -0.29451865  0.29948637  0.43584657  0.5634678   0.8572699
  0.1799316   0.09483821  0.29926044 -0.6038039  -0.32353404  0.12128481
  0.587861   -0.27626145 -0.26827726 -0.39413178  0.7162664  -0.11904124
  0.02882132  0.19161385 -0.11679988  0.7505924   0.5492721  -0.03327122
  0.21389861 -0.3600456  -0.3273829   0.08578771  0.47522148  0.965742
 -0.82234335 -0.79673386  0.8240417   0.67461365  0.26948482  0.00875474
 -0.4832385  -0.23815155  0.3955191  -0.30808616]
[ 0.7821144   0.4988285  -0.08734275 -0.04532901 -0.6404826  -0.9154469
 -0.3768444  -0.09330446 -0.36932755  0.6763877   0.51816005  0.03660973
  0.16118062  0.2050995   0.68924594  0.07264853 -1.2084169   1.1786783
  0.6785356   0.2914263   0.2044193  -1.3364065  -0.21161413 -0.8169923
 -0.27364424  0.08899969 -0.12868673  0.21484871 -0.83500046 -0.73868304
  1.0670558   0.24978812 -0.5462521  -1.205192   -0.3077632   0.00198619
  0.2694785   1.1157893  -0.24570331  0.70370984]
[ 0.40856525  0.34436613  0.05475032  0.6764865  -0.14676617 -0.2839345
 -0.13058417  0.4217247   0.1587203   0.60773504 -0.32449785 -0.04336782
 -0.06160138 -0.39026925  0.02755126  0.01339305  0.0854847   0.02419837
 -0.13798757 -0.0751401  -0.36276796  0.2440774  -0.3066215   0.18508767
 -0.12178452  0.5971066   0.28279853 -0.49804634 -0.38445023  0.02653663
  0.39893606  0.31796458 -0.15946217  0.06013865 -0.10422729  0.02065988
  0.06024766  0.05390417  0.21894611  0.13620794]
[-0.3627407   0.46583    -0.2156029  -0.4022663  -0.2166634  -0.20562941
  0.07070227  0.0012525  -0.02559508  0.3579975   0.01600374 -0.03563195
  0.2850654   0.91515195 -0.55525213 -0.05714792  0.05908292 -0.307995
 -0.06690438 -0.05840916  0.3536384   0.5378167  -0.5599031  -0.08096629
  0.39011768 -0.04114645  0.7391551   0.03254298  0.27987427 -0.28878707
  0.43247858 -0.20309815 -0.38648894 -0.06895629 -0.1673747  -0.17613351
 -0.2993903   0.15283169  0.11576817  0.41523063]
[ 0.01498271  0.04252064  0.5298148   0.24912862  0.01241011 -0.3364107
 -0.21071123 -0.9373811   0.04317793 -0.5865122   0.49231127 -0.065501
  0.07976282 -0.27827197  0.01189601  0.11594883 -0.7526199  -0.00408385
  0.7376417   0.41421834  0.22735083 -0.7464034   0.02750492  0.03266745
 -0.02512946 -0.705812   -0.31984425  0.07314666 -0.16159168 -0.10844478
 -0.23236749 -0.05677751 -0.18838955 -0.46030894  0.46316648  0.42526612
 -0.31017232  0.14917567 -0.36369717 -0.4267131 ]
[ 0.805516   -0.42295882  0.41334322 -0.21956098  0.18292049  0.77894014
 -0.22438948 -0.7310131   0.24694128 -1.2017454   0.08495501 -0.3443604
  0.27718142  0.48691168  0.16345009 -0.5113773   0.28982964 -0.2767322
  0.5183889   0.5141936   0.02099982  0.4044844  -0.17983888  0.15711461
  0.6179824  -0.8101726   0.0067913  -0.07705199  0.5227673   0.3005134
 -0.27172622 -0.41705877  0.46408045  0.10010587 -0.29479527 -0.6344385
 -0.27918682 -0.13394931 -0.06864245  0.25120735]
[-0.71190214 -0.16946582  0.29006234 -0.32791355  0.6603552   0.00351389
  0.0246899   0.0856585   0.2252967   0.22807278  0.05122117  0.55194867
 -0.1522311   0.10481711  0.24813275  0.55302954  0.12675792 -0.48499352
 -0.3302951  -0.31582648  0.515291    0.1105748  -0.0254779  -0.23316747
 -0.52852476 -0.23220134 -0.10119928  0.5312282  -0.36250916  0.02049821
 -0.58792603  0.24372782  0.00758079  0.1960494   0.24792545 -0.62363577
  0.23614796  0.24271406 -0.20973183 -0.53569114]
[-0.42718935 -0.15498748 -0.03830634 -0.28023684 -0.28555176 -0.6205356
  0.16873927  0.26875812 -0.46121615 -0.0200014  -0.38917652  0.03162302
 -1.2217315  -0.05904026  0.66950005  0.6143019  -0.9099247   0.5483408
  0.5723653  -0.38987485 -0.35708925 -0.8015532   0.20082104  1.0434543
  0.25334832  0.03908424 -0.04082513  0.06388018 -0.9569303  -0.8957244
  0.8492058   0.9791216  -0.87184745 -0.5338707   0.66160834  0.05255324
  0.20609105  0.62789416  0.01519223 -0.6282288 ]
[ 0.07066523 -0.22740166  0.00546721 -0.44069606  0.06721424  0.32495448
 -0.15414326 -0.04757844  0.11957908 -0.13273382 -0.443112   -0.21423987
  0.48780403  0.3436805  -0.25480685 -0.16141935  0.5253501  -0.52205694
  0.7518609   0.02135469 -0.473847    0.40132415 -0.09744168  0.27734122
  0.32104996 -0.19168507  0.40099686  0.18995006  0.17093241 -0.44187528
  0.26080143  0.08245594  0.38909575  0.21728876 -0.23106849 -0.12225173
  0.49712119  0.00818811  0.22821863  0.5288467 ]
[ 0.19511703 -0.7044215  -0.16647647  0.8220052   0.28784043  0.32037735
  0.14377014 -0.19953403  0.19647528 -0.13220355 -0.23710692 -0.2175901
 -0.03691561 -0.6610454   0.8419331   0.13461724 -0.04430696  0.5485185
  0.05403114  0.05166126 -0.03388304 -0.06676456  0.6015171  -0.30306697
  0.45075658 -0.14882942 -0.56078106  0.63090914 -0.12760249 -0.2499233
 -0.16556972  0.3880652   0.47566387 -0.31131244  0.4665934  -0.44961366
  0.3527711   0.34137926 -0.04014769 -0.34798938]
layer 3 Activation
tanh
layer 4 Dense
40 20
[ 6.31858706e-02 -1.58182904e-01 -7.36617893e-02  2.30910003e-01
 -1.45969301e-01 -1.06450647e-01 -4.03827965e-01  5.49540281e-01
  8.41881037e-02 -1.13948733e-02 -7.55818710e-02 -6.75559714e-02
 -2.70946592e-01  2.32321367e-01 -4.94369566e-01  1.23564966e-01
  6.71845453e-04 -7.06712604e-01 -8.86449739e-02  3.63070853e-02]
[ 0.3852045  -0.04753113  0.5438137   0.34687036  0.23992392  0.20274308
 -0.1483543   0.2048152  -0.20706531  0.29241323 -0.02020055 -0.52466094
 -0.4127284  -0.67388684  0.08022346 -0.39555097  0.11977922 -0.34630814
 -0.18547983 -0.64583224]
[-0.23955363 -0.48109198 -0.4461501   0.14291115 -0.3739991  -0.19690613
 -0.5618916   0.1571996  -0.2847436   0.08142165 -0.3936195  -0.09060818
  0.04733793  0.08194808  0.36655945  0.15706438 -0.02128108 -0.04564368
 -0.20700884  0.05450168]
[-0.16482753 -0.10735464 -0.13571799 -0.3967335  -0.00631997  0.4129038
 -0.0372845   0.08898503 -0.08086308 -0.08704581  0.44880345  0.6995243
  0.0360875  -0.07328478  0.2802664   0.14025868 -0.30535236  0.07778606
 -0.05811127 -0.06531668]
[-0.02405497 -0.06082407  0.30997208 -0.04797648  0.06080289 -0.28256455
  0.18610184 -0.02110097 -0.40951356  0.5212015  -0.22364077  0.1333878
 -0.00328233  0.14125583  0.15574652  0.33947748 -0.02208408 -0.04202471
  0.5027944  -0.4551837 ]
[-0.3369962  -0.23855133 -0.15800019 -0.43826216 -0.02418634 -0.26702163
  0.05323136  0.54416734 -0.41528624  0.18634138 -0.09780412  0.38067952
  0.6207468  -0.37879884  0.16203864  0.22871791  0.02860886 -0.33765772
  0.24031001 -0.48697355]
[-0.227346    0.35558173  0.07693937  0.05306002  0.32578096  0.24401347
  0.4069849   0.15353222  0.33254692 -0.07371009  0.24712898  0.1779265
  0.01388362 -0.24921505 -0.08532295  0.10909878 -0.2395623   0.32613772
 -0.09434834  0.10785072]
[ 0.05452518  0.21344914  0.6039734  -0.3639347   0.36585775  0.20322815
  0.29067698  0.16086815  0.55368245 -0.2879815   0.4974245   0.13415718
  0.26045874 -0.22638607 -0.17873304 -0.472959    0.26415795 -0.20922148
  0.36004135 -0.0501383 ]
[-0.05844054 -0.41978055  0.3073049  -0.4569012  -0.0653974   0.01540378
 -0.4414165   0.18072976 -0.4756522   0.21224266  0.00285724  0.1932536
 -0.07173394 -0.19022775  0.5228252   0.2280538  -0.12784296  0.19555707
 -0.128769   -0.50329286]
[ 0.02210759  0.7877517   0.7434099   0.08605052  0.44473028  0.09684559
  0.09668541 -0.29641578  0.444952   -0.7403366   0.8169964   0.21534602
  0.1815639   0.2754386  -0.27094507 -0.14051485 -0.124071    0.13136275
  0.9468557  -0.3362776 ]
[ 0.15662943 -0.25803408  0.04009864  0.21718805 -0.18448395  0.05894714
 -0.45901817 -0.09293357 -0.0737256   0.42619857 -0.3017718  -0.6451429
 -0.26687697  0.15354902  0.22043277 -0.22004685  0.11998908 -0.05732943
 -0.02357774 -0.07259732]
[ 0.29872715 -0.00484618 -0.15186873  0.00466651  0.0357826   0.17539427
  0.08733462 -0.22361562 -0.00417323  0.2044933  -0.3489438   0.08576764
  0.15505126  0.16589586  0.05518631 -0.21129246  0.29572344  0.28460598
 -0.167236   -0.19508208]
[ 0.5865827   0.11568965 -0.28038216 -0.22698951  0.29715848 -0.43260548
  0.11710183  0.35056487  0.0203812   0.34166878 -0.31715485  0.46636644
 -0.05284576 -0.10957433  0.41757867  0.16543682 -0.06965613 -0.5531223
 -0.32380837 -0.330149  ]
[-0.04545749  0.21083204 -0.2749198   0.24329875 -0.18666312 -0.36855066
 -0.06223784  0.0138806   0.33687827  0.35453117 -0.09603997 -0.14599822
  0.03417427  0.23408553 -0.41831765 -0.07694068 -0.18093425 -0.190606
  0.60121864  0.2531661 ]
[-0.34457645 -0.24283522  0.43628827 -0.4176978  -0.44152814  0.32082173
 -0.5936067   0.00422037 -0.30048755  0.36887452 -0.39649764  0.6963004
 -0.21481735  0.1707703  -0.20931034 -0.27793765 -0.09583686  0.23873806
  0.19051778 -0.19287391]
[-0.01482465  0.2811404   0.16285548  0.06991446 -0.33827323  0.18895733
 -0.2581074  -0.3696203   0.26713756  0.20674008  0.5678454   0.20467074
  0.4690875   0.46889162  0.1620562  -0.009569   -0.0048382   0.12075999
  0.11692555  0.38419494]
[ 0.17199323  0.21902277 -0.2183295   0.06928523  0.48947445 -0.28968346
  0.66259396 -0.02321286 -0.3326528  -0.06859551  0.2730427   0.42443302
  0.49452326 -0.23783183  0.00566119  0.13963826  0.23231372 -0.33221316
  0.35955632 -0.17746703]
[-0.5555051  -0.16547364 -0.3070173   0.0278017  -0.16346061  0.2910258
 -0.20335151  0.2165154   0.27894238  0.13158412 -0.5471384   0.48857394
  0.09221056  0.42673978 -0.1477      0.00232282 -0.44902557  0.20345436
 -0.00444181 -0.28719485]
[-0.05973344  0.349081   -0.6349913   0.89802694 -0.55558735 -0.29127833
 -0.44286042 -0.09192299 -0.75280863  0.70586973 -0.3426462  -0.04130949
 -0.6953995   0.8757748  -0.14498089  0.3866225   0.415313    0.3743984
 -0.30018026  0.51453406]
[ 0.59104127  0.0957201   0.32124373 -0.26119345  0.07454948 -0.23429418
 -0.37184104  0.5045757  -0.27405903  0.30511323  0.11620945 -0.30681577
 -0.30916667 -0.2807424  -0.08867382  0.30030644 -0.0212853  -0.5756482
  0.15651846 -0.5479891 ]
[-0.06739911  0.02935943  0.02337344 -0.06598347  0.21620171  0.15959844
  0.32934856  0.21070755  0.32584918  0.00397209 -0.11401013 -0.627671
 -0.10156157 -0.19337891 -0.1471769   0.18045878  0.03621965 -0.08433259
 -0.11349521 -0.0924439 ]
[-0.13437727  0.5010388  -0.43101355 -0.25766954  0.5344406  -0.17361318
  0.62329787  0.12295028 -0.03857638 -0.37199345  0.79259056  0.26071772
  0.43911445 -0.38876635  0.67749107  0.22275609  0.32076415  0.11023942
  0.32944065  0.10333535]
[-0.29302254  0.23156281 -0.18684214  0.11799131  0.05789624  0.05338999
 -0.0381328  -0.14774573  0.07679042  0.09777968 -0.10784258  0.6928308
 -0.01347303  0.29591793 -0.32322094 -0.22276789 -0.27488744  0.04946044
  0.08074427 -0.13702872]
[ 0.12037255  0.10830219  0.12699139  0.01302646  0.10205732  0.09825839
  0.11225804 -0.5575047  -0.01934031  0.02671138 -0.01321699  0.28075632
 -0.06122402  0.10140264 -0.24135396 -0.13535866  0.36324084  0.37850088
  0.28050137  0.07322408]
[ 0.11095917 -0.33802876 -0.32888526  0.3607944  -0.00329249 -0.23438585
 -0.04287538 -0.09635255 -0.252814   -0.02662644  0.05758645  0.45084703
 -0.38453767  0.39044815 -0.37402493  0.13530812  0.03234264 -0.08865335
  0.06121709  0.14243035]
[ 0.16217703  0.7271172   0.637948   -0.37773675  0.6691079  -0.00276157
 -0.11103734  0.04628038  0.5794739  -0.6591506   0.79860896 -0.20351556
  0.08655514 -0.04145937 -0.0273267  -0.34993488 -0.26248008  0.00936859
  0.720739   -0.5863275 ]
[ 0.28050405  0.0096469  -0.03618483  0.09568557 -0.07854874  0.01587938
 -0.05064424 -0.31944853 -0.05760834 -0.10760112  0.24125773 -0.18823373
  0.01046987  0.05213441  0.21390729 -0.11213474  0.31513482  0.3277038
  0.21339543  0.03110673]
[-0.0391209   0.13524103  0.1000396  -0.09183203 -0.10793985  0.12166269
 -0.11653209 -0.3135302   0.03449595  0.18082747 -0.17179702  0.4586907
  0.00466249 -0.00961148  0.40262714 -0.22392136 -0.11984056  0.21741165
 -0.12954502 -0.13884665]
[ 0.08708543 -0.10204697  0.03236799  0.23161522  0.1312453  -0.6160076
  0.39884454  0.29357883 -0.16886887  0.25371662  0.17185293 -0.16295001
 -0.10263453 -0.46695498  0.38954985  0.43171918  0.10670982 -0.8588078
 -0.12048817 -0.27883944]
[ 0.30968687 -0.6595414   0.01884833 -0.33656853  0.7113484  -0.3168895
  0.23086545  0.3233122  -0.08743507 -0.14632349 -0.13168977 -0.47642335
  0.4436474  -0.23664276  0.6291433   0.2866823   0.20080294 -0.40161496
 -0.48262727 -0.48806462]
[ 0.55606776  0.12772748 -0.5135526   0.35652164  0.4241371   0.2772039
 -0.00620528 -0.4801404   0.63806105 -0.6626296   0.2831338  -0.18866307
 -0.04492301 -0.26309645 -0.83718324 -0.4040742  -0.12274688 -0.02873125
 -0.3744654   0.9699459 ]
[-0.2381814   0.18047936  0.33613092  0.37718207 -0.16596168  0.7569706
 -0.22274083 -0.50089717 -0.13061984  0.21058927  0.5651808   0.22377948
  0.5144812   0.27057537 -0.49120116 -0.66107744  0.03711666  0.58968985
  0.03033949  0.20383003]
[-0.42725453  0.14235322 -0.01507742 -0.17913063 -0.07253718 -0.22136545
  0.10566787  0.03464074  0.17877164 -0.0215118  -0.03928612  0.7712047
  0.17334193 -0.05366851 -0.15320127  0.4583712  -0.28456843  0.23324962
  0.14348662  0.22417128]
[-0.10041506 -0.04515129 -0.01429545  0.32685503  0.87588114 -0.01948042
  0.6731665  -0.29058918  0.2531552  -0.3128093   0.53057045  0.16347703
  0.3039949   0.03368742  0.5638329   0.5700668  -0.02832635 -0.00425397
 -0.01966993 -0.33008733]
[-0.3088645   0.01141634  0.2023787   0.11572945  0.48202392  0.5453363
  0.17156002 -0.2737225   0.06921551  0.16432689 -0.03793821  0.02416775
  0.10797304 -0.23759112 -0.0433984  -0.38245517 -0.5684027   0.39492583
  0.35800013  0.11225712]
[-0.03898625 -0.13302483 -0.11207876  0.1426205   0.07527801  0.3362269
  0.21253471 -0.17991638 -0.13394801 -0.05716262  0.13276438 -0.8844763
 -0.04351083 -0.14941643  0.08619998 -0.07784367  0.05731021  0.43481615
 -0.17570412 -0.0643998 ]
[-0.08641825  0.0727104  -0.2412631   0.02561142 -0.27078685  0.34091207
 -0.39256138 -0.19756684  0.20256045  0.00801874  0.20767659  0.37873334
 -0.23303668  0.07808677  0.25347164 -0.10463633 -0.13285834  0.30762717
 -0.1544813  -0.01048319]
[-2.9163426e-01  4.6540028e-01 -1.2140584e-01  1.0239812e-02
 -3.3445057e-01 -2.9174848e-02 -1.5091558e-01 -6.0458902e-02
  7.8565836e-02  1.5957060e-01  2.7419826e-01 -4.8642561e-02
 -7.7563524e-02 -1.4004039e-02 -1.2487634e-01  1.7254963e-04
 -2.1471469e-01  1.6678825e-01  4.1697407e-01  7.4511993e-04]
[ 0.34183446  0.00730222 -0.19458634 -0.08949846  0.1607912  -0.08819411
  0.35408804  0.25806618 -0.08958644 -0.07230023  0.5144499   0.13884327
  0.08755253  0.01578067  0.05725699  0.18295214  0.21354753 -0.0437692
  0.23983443 -0.10616411]
[ 0.43587676 -0.33725572 -0.22860317  0.25174645  0.14928572  0.08429492
 -0.08624917  0.06890059  0.12187482 -0.15697154  0.05607131 -0.764294
 -0.36374414 -0.6266592  -0.4015525   0.1366591   0.33537215 -0.2000402
 -0.5279459   0.06072993]
[-0.12716673 -0.13822438  0.13019374 -0.20098664  0.005661    0.16829534
 -0.01964756 -0.01006844  0.02722502  0.09043983  0.15997325  0.47583863
 -0.01659743  0.16527537 -0.02650622 -0.03539009 -0.24505992 -0.00437349
  0.0373054   0.00170947]
layer 5 Activation
tanh
layer 6 Dense
20 1
[0.96178687]
[-1.610984]
[1.5000254]
[-1.1621505]
[1.9266686]
[1.9737642]
[-1.6758261]
[1.1336787]
[1.6312648]
[-1.9497117]
[-1.5959424]
[-1.8887974]
[-1.4267229]
[-1.1818532]
[-1.5722896]
[-1.722194]
[-1.4926018]
[-1.5045524]
[-1.7730608]
[-1.4948467]
[1.224181]
