layers 7
layer 0 Dense
20 20
[ 0.003982469151596456 -0.30476853193641223 0.18485285228163698 -0.4890381250962817 -0.28310398463864955 0.05375046163716476 0.47143558162480886 -0.4015055800138623 -0.0622929707545289 -0.0032819360344155954 -0.17026922189623298 -0.3327137409738463 0.17501392152370304 0.28407694912021525 -0.06081051474511745 -0.05039080208108563 0.09586952436593395 -0.14699014850758507 -0.09870814784996232 0.11525442213683292 ]
[ -0.03513492109249443 0.18239607129475094 0.04372072177389277 -0.33161166159859934 0.0528916588631759 -0.23067622107475913 -0.08584072198258988 -0.34778613095735794 0.3035849801383188 0.12494175306019778 0.04200950226404674 -0.2785893430717066 -0.15890199946994904 -0.35123857560648836 0.09389041443595339 -0.24183182397013528 -0.12364843285980112 0.007262780896711844 -0.3286120054621743 0.2705453605649471 ]
[ 0.12869976696975338 -0.31851694542159426 0.07363064815394632 0.17011402627597202 -0.23716212019380348 -0.11470137078010259 0.28851583688711835 0.02603509207365751 -0.22759134152186627 0.008810609214822082 0.15280823897802115 -0.3319513050103385 0.02152958070157399 0.018628920528598922 -0.17567240014226532 0.009817851004918767 -0.3061010570289757 0.24331764973549327 -0.025357968284674338 0.1275594982504606 ]
[ -0.23924987383354904 -0.4337570362378189 0.15564104255748143 0.2585838226346 0.050488961669439995 -0.011861607778274174 0.4685022991342927 0.38824284491860583 0.05789736085951491 -0.07829253636689103 -0.18563039424360978 -0.07532266360972688 0.27769194400478014 -0.4019775942312269 0.2934047201669838 0.046902087280329845 -0.2997559505503998 -0.07149711109433238 0.11335472283944409 -0.008678810012316423 ]
[ -0.4602747799337569 -0.6770855573761323 -0.3513566199473781 -0.3162095622953714 -0.35112744175446997 0.07667297325472364 0.15108260552876507 -0.32087108183085933 -0.20069393746231717 -0.2746789587195374 0.27029841953064504 -0.3811371122485897 0.20053053262443354 0.9401110114451716 0.15787327541023355 0.04466292936368639 0.3058799290620822 -0.3141915512589673 0.42784235871887843 0.3080869125045635 ]
[ -0.0865414114363308 0.36498120366526615 -0.11473670237263663 -0.3390752141102478 0.32410078638519 -0.3844684819361326 0.24572676973656504 0.31348175853554183 0.23854261507238544 0.11579950908069508 0.30159605112859866 -0.22270195537970283 0.22795548123391998 0.14471484369836174 -0.27193566677740627 0.3153395106969039 0.047895276992373996 0.23869872063561248 0.1543828841316171 -0.2768152059379952 ]
[ -0.33530327495059065 0.29853564483874434 0.3169344883834138 0.15043332941506712 -0.36100125410434 0.32037874229913277 -0.16681435314583912 0.17556035522697075 -0.19196180233660515 -0.3629269259892967 0.20708724765337155 -0.22704927629843003 -0.14786243528011658 -0.10340460809245575 0.0152914280310899 0.3058753692196333 0.20316301125144456 -0.22274869802371572 -0.281099793324861 0.18193678243567074 ]
[ 0.2252240359555877 -0.0539992233903563 0.08988242065065744 0.28320315627382453 -0.40468251437524294 0.22476013348240803 -0.5059630561179789 -0.07447791939403953 -0.01493364509551099 0.13871161497306378 -0.04385017577102178 0.3857595181245497 -0.26936018786042093 -0.2093826354800335 -0.23774706980427487 0.23573423012971662 0.17805843306047933 -0.39496574309226873 0.35704273534606024 0.5104417004920273 ]
[ -0.4827911541816938 -0.5478165420938341 -0.03336674950642709 0.34561181608093927 0.15762611339657498 -0.13049658099893685 -0.05088156398704378 -0.14466096939378278 0.16676028830353984 -0.032161326616769695 0.16032174287359552 -0.3354493142241554 0.6094601354272722 0.6604361813640562 -0.18614947238418206 0.13432832459883617 -0.7092385012045528 0.1373368986988867 0.3172501294868113 0.3178917018405391 ]
[ -0.09440683604662845 0.09324593518407544 0.4186487119570115 0.2920242185851833 0.06357843684430635 -0.3130767737037913 0.1756166415463942 -0.5628728974783519 -0.09191703170394057 -0.5348058417869079 0.05199979991915966 -0.6534865089275075 -0.26694729553309104 -0.5249782402229488 0.3913587806776968 -0.011685627727986335 -0.19039782887742968 0.4655616525725469 -0.8952684057425545 0.29275441926144885 ]
[ -0.6859133017296205 -0.2765108399377241 0.44705190743866385 -0.23052752789010014 -0.6662595554919779 0.22464422038912693 0.1852436711251427 0.07892487241757619 -0.39524319729490226 0.29981787695951495 0.4494561654786285 0.5010752558047777 0.10096877767180844 -0.612708506006243 -0.5025981646572902 -0.38491187360573176 -0.08737993638780456 -0.3991263182410331 -0.10406091054461039 0.028878200447407385 ]
[ 0.709689005610861 0.7192885542585916 -0.8654384210975038 -0.9112730714981404 -1.136461471402911 -0.2702098021916733 -1.172099453185642 -0.1624338378497815 0.3673757720042642 0.1404408544112703 -0.5943490366899838 0.8241413744957783 -0.30229695179445154 -0.2859367511436518 -0.12105983499164946 -0.045669351429905775 0.8803502805673484 0.2207037262284546 -0.3685505321404363 0.3511549594937676 ]
[ -0.5333140844414161 -0.7590435144556845 -0.3781684146662823 -0.37567613896312935 0.5716064305601986 0.5462859946451827 0.4255417344842151 -0.5089975122431889 -0.3256837023532355 -0.17233151643098016 0.2379017915102376 -0.16149811181927412 -0.07130052989712972 0.37798232928430686 0.019505403784347407 -0.33539182514945776 -0.4086987698110516 -0.7845844774569023 -0.33443832376231775 0.2807630476338805 ]
[ 0.04560117681901009 0.07871860277331047 -0.33860415183048337 0.5613294830014751 0.3940094706683929 -0.06387982978901643 0.18797962883897743 -0.21336729119651943 -0.3678419192465692 -0.24435173610111313 0.05508131431469545 0.3402656047163517 -0.3629984164289412 -0.5963934940000417 0.5353446281727446 -0.31390953732826354 -0.48313624820134166 0.3711130429006695 -0.45046265710285777 0.25104958900159685 ]
[ -0.3224143317122045 -0.286705974041818 -0.5170851279582889 -0.23271798646560704 -0.03915688232083453 0.21196633410058774 0.27376261744382546 -0.1478784435591269 -0.2780847163225755 0.16129286103094898 0.822236639655198 0.10157005056672168 0.5364134069576179 -0.41768949554339396 -0.6171237527769493 -0.32043571921354613 0.18587730308007072 0.5430192834031408 -0.08833991326244409 -0.13433417115673907 ]
[ 0.671591422552024 0.5261108325018613 -1.2757068302178132 -0.9090368205424971 -0.22390090218711156 0.19619235951584083 -1.2789512899307542 0.030838476044508734 0.8682581592308509 -0.44603783395971286 -0.44624626322744837 0.30153084919540707 -0.9783628601664659 -0.43968131736924065 0.20770051349399107 0.15403605435249257 0.5496532779177229 -0.22120683762636895 -0.35131485879218205 0.6670877581660933 ]
[ -0.2760802183166908 0.5452608702810086 -0.44233953985325003 -0.7161291106029173 -0.4191713088256209 -0.36779169852154714 -0.3361577238567569 -0.1754640226319617 -0.7467967565991122 0.07419707684280577 -0.05735201619466127 -0.26164482204797906 -0.07148185717142105 -0.3531426603693588 0.2090934656805487 1.0150782311295123 0.6170867247078204 -0.4959955990351108 -0.05953920725481507 1.2333260408654807 ]
[ 1.146174878807612 -0.5201361078979515 0.9711648969736704 -0.6739742669104174 0.5630464947408543 -0.11407797433476885 0.0838170356618508 0.8806152997029371 0.9845504135111588 1.0650194096823948 0.4032325123469743 0.2466458656416607 -0.09171467047260544 0.8995490476429696 -1.487913691420211 -0.40956165817150686 1.0067554605500413 -1.3684765736155358 1.132344859990245 -0.5995773939507043 ]
[ 0.8923297379280181 0.640134838894148 -0.31152943986306697 0.6711158042635683 1.288514280360805 -0.7412559684489506 -0.22218766634002363 -0.6808441022071077 0.7741981063282553 -0.6652803558425117 -1.406129969470868 -0.5717167692928973 -0.23345295924961132 0.5866089732088896 0.9794839878822185 0.8567618367605714 -0.6945200022779088 -0.5569240088335229 -0.2541363532714982 0.9322267837422923 ]
[ -0.5192716316231342 -0.16033607656950336 1.047196983103744 0.562168245300926 0.7542615918553253 -0.21159081361458026 0.6217504864768704 0.01017879308367578 -0.06399866382200475 -0.24010623085916513 0.485646736967584 -0.3407317034747685 0.20064134402532274 0.2810310270471446 -0.6350069757279865 0.10009737834083735 -0.6125514400590244 -0.48164966445577084 -0.04880352033823844 0.12061119135781707 ]
[ 0.07100370426095223 -0.02644643193485953 0.18348553542899848 0.05774541214122623 0.09961468349344145 -0.02947421310418064 0.08297684720891582 0.16442315829295157 -0.035363402871041776 0.20018251695418288 -0.0435791981978809 0.06748700366695895 0.05313806693456603 -0.10888838749118335 -0.0933706616917019 -0.23863453709956023 0.09370910117487039 0.1734663362582514 -0.09898545136887801 -0.35433659544997087 ]
layer 1 Activation
tanh
layer 2 Dense
20 40
[ 0.2648964109946514 -0.17327617280468308 0.23634779982397036 0.4063873650651289 0.3462075196772878 0.2406207524355525 0.0002652089426649403 0.15333860656751644 0.052185821002058014 -0.07100409670325374 0.21853201919029627 -0.3403518107448511 0.10970731722600684 0.177292310786169 0.6427874615471177 0.11303759953889297 -0.14383506942076577 0.07750014662301867 -0.07098413254485615 0.3938062054256176 -0.7359299370239388 0.6807719368958295 -0.280030604056844 -0.19720785142203173 -0.7695668793188895 -0.3408238154597313 0.22297445632818313 0.25204380638227053 -0.19288803322768747 0.504533002598419 0.32437379879403444 0.4424835831268688 -0.22384656420366267 -0.5898616582970503 -0.29931053978126576 0.6770725405982877 0.5033608071477114 0.20693196822398052 0.12076436491878705 -0.12049498140755142 ]
[ -0.19464707989155652 -0.12107797740074577 -0.06452584444960505 0.40904169648114513 -0.16116472276938568 0.20546791405239911 -0.0810228081302776 -0.17075703760071173 -0.5088846307483016 -0.09708362939250974 0.17973005086224994 -0.1036516773445317 -0.2880564846615694 -0.5197251367954148 0.052875811806804604 0.634276899886589 0.10507871200290311 0.010080077146389236 0.2606389291093428 0.4824244885393361 -0.045999610060439504 0.31631323812644535 0.2483197347771144 0.30229175669622615 0.4780321875126766 -0.052031796801490546 -0.6849598555110517 0.4427381218631487 -0.20275822293492313 0.671865180052405 -0.06453306494247589 -0.0822216381833286 0.22047057778477522 -0.12377868992655648 -0.18170872578498384 0.3923984792852886 0.14520256835742604 -0.09918207156628725 -0.024063356952831433 -0.6340192263186333 ]
[ 0.010378125935630495 0.15567258444003979 -0.5167578234636103 -0.7187097671860752 0.5395030791498959 0.1269566715161974 -0.04132661204292455 0.32894011568639525 0.3809444824993501 -0.18487390120638303 -0.21059390976075765 -0.14148714951825103 0.21357393084266285 -0.08695349504123927 0.27371426092028894 -0.15306387122511192 -0.2780848941458289 0.21208744751364036 0.05504966495403714 0.05589165967288037 -0.271123709909043 -0.855405100347605 0.03776379879860597 -0.060780824478572415 0.2817548608821268 0.24098378309317017 0.19474244731168502 0.45503009600348965 0.10320730768553207 -0.10519046648667288 -0.11796510703740413 0.13505678454929732 -0.3068525013272705 0.05172371122077053 0.650505912094313 -0.2958654033040571 0.3700284455943225 0.1867496652614148 -0.07855856601313126 -0.35205662205299393 ]
[ 0.46849092175433826 0.02167419268482187 0.0993091116232265 -0.8105927449932426 0.34773490122564205 -0.21390963550457023 0.13574402548984496 0.21171269168298337 0.5988000764091818 0.025666920444583678 -0.04148804229348112 0.15331606278751758 -0.0843010596097747 0.04647735813682151 0.754362945124221 0.46853722600469 0.19555237212956686 -0.4996048745937908 0.5407858710550555 -0.04005703067603468 0.4863189452898555 -0.5300833833690198 0.3901175307406786 0.012284736972737298 0.4216303602347117 0.32823765881811046 0.19326190355303322 -0.21464228720081893 -0.14268159827122698 0.0860667534836447 -0.331645568752627 0.7627739772931219 -0.22733638930745936 0.3420307209732908 0.1546706996243279 -0.5064202071498591 0.07956881413080726 0.4359282446132382 -0.4030783323949517 0.2447438904943448 ]
[ 0.479128634079016 0.0678758451702746 -0.37944086936182525 -0.1085413864427855 0.3825163576105474 -0.13216050025272638 -0.1395497636808107 0.7439967446820478 0.23333617108794044 -0.12618657399992592 -0.14748485392399657 0.06306430811481742 0.2422235996237929 -0.22966518282567913 0.3976826516636041 0.16437923846444139 -0.3830133691949092 0.01458060776437049 -0.05186955276531588 0.11736207149142426 0.5958094269580689 -0.5312168640800277 0.21344760956853087 0.10498986218660299 0.11213536398212962 -0.02717422487815527 0.35496941279870187 -0.30469359399411844 0.26276224607067994 0.5808390318487413 -0.026101027227531028 0.6359899102306052 -0.3469549991303344 -0.19722099413153685 0.37080510887552637 -0.4920687144323474 0.18739019000309995 -0.026044595619732745 -0.8370444778331906 -0.6932432463317968 ]
[ -0.07392541734809513 0.09824459241974301 0.07208411474174109 0.11042861433191387 -0.5388775439031853 -0.2397743158406422 -0.26459819269575413 0.07322411012188233 0.10651805632292574 0.04674093170565609 -0.05986394459432044 -0.22722066959836867 -0.08100901034427761 -0.10739888908229865 -0.28706215895534837 -0.3091504439101153 -0.16697002136489755 0.09586239908607364 -0.3718863187593962 0.043475792250403655 0.11836342966580561 -0.09241200307965206 0.09441892456064234 -0.1811985550510815 -0.5059893079081206 -0.07796065021606369 0.5036909775818363 -0.21910540769273024 0.0025239433289980457 -0.12736937161930817 -0.0038442954713435212 -0.10173546394648297 0.12815253622011827 0.24821653858280177 -0.13111501657221222 -0.09239641336110241 -0.11492284305852064 -0.07766489073590718 -0.09263512251543725 0.08184389388100734 ]
[ 0.2692071653446709 0.5571235134592444 -0.3888738482189229 -0.41487001380406835 0.1242499214276581 0.10885337940345646 0.3020173738502551 0.023225245492916036 0.9291098220112785 0.033181345692345425 -0.290957166480424 -0.20079985453391075 -0.025366525910774297 -0.0014552065143266482 -0.08083154803658864 -0.5250323309886069 -0.44637123500333853 0.2253305310319764 -0.4130164967107071 0.29643553857216187 0.3148422656097057 -0.5305637685633957 0.569162357933875 -0.006829199839112829 -0.23999831971463018 0.17063561833924137 0.5192409387736396 0.09817816912688702 0.3713398910100859 0.1455507066235969 -0.31973486330503953 -0.16391408868079624 -0.2618851260581727 -0.008284930392096965 0.16195871682010213 -1.01486409255421 0.40407611363229234 -0.1010715101887928 -0.12752475618521425 -0.4158964301665986 ]
[ -0.2525393435019887 0.24793569926834744 0.14650194561292523 -0.4161098840753185 0.28199144210228305 0.07969421716446817 0.26530544052665717 -0.02724262879604658 -0.21423223190705773 -0.17784361201855442 0.1480772428183713 0.049719799040354826 -0.007065146642672533 -0.055501997272366904 0.16879139800342738 -0.22084913537407158 0.33568765849772886 0.2987991406136272 -0.4840478391565401 -0.04205690901133632 -0.3605151041135211 0.05241014311502974 -0.2541341178458205 0.1423410550479684 -0.02214017950329148 -0.28962815715105444 0.2407927955561009 0.04739254055888152 0.21578528462472507 0.46515426084581263 -0.43724046942888306 -0.3839927563483678 0.36327592151134397 -0.21229384987714076 0.6329110964075992 0.22218725721180296 0.14339787334932133 -0.3315893467261399 0.43695703190886676 0.0768787735255036 ]
[ 0.6996004955437255 -0.28776944331881876 0.25251835551507285 -0.24458947998667743 0.8679466743802484 -0.18411250159903975 0.3221090985365744 0.2568522683034258 -0.3506590921192502 0.14571383555045092 -0.0441528475860027 0.01843237361489633 0.01673793964391522 -0.3036099585759876 0.44689049332117475 0.04626366766735832 -0.1568276850305995 -0.02793377713411277 -0.25132913961959796 0.5830410098115946 -0.7046548993270971 0.4269369110690681 -0.44777377899599 0.03432104819270308 -0.20670290769917582 -0.23477614661052731 0.15100999940695206 -0.10819717435240692 -0.2044308850528504 0.26596732776035736 0.23161035737467436 0.4321452464523443 -0.12351841767298784 -0.42929657548561484 0.1270865690346644 0.34022091228449003 0.021617019625788977 0.47874980202241785 -0.4311575617552819 0.005745340709442494 ]
[ -0.20311979945891656 0.02676542626757118 0.09367020381209205 -0.2960638599017092 -0.12792721402132254 0.2985440047215304 -0.09824455708522872 0.16441620812870758 -0.3138989784052225 0.04097284504353195 -0.18036738038430658 0.053200055310654644 -0.17480892109931634 0.6686382312076362 0.10445111671178908 -0.15714253422604987 -0.06732351231283633 -0.1230048297901936 -0.5203901285066894 -0.06797358109889359 -0.3937547011159609 0.28540197911257176 -0.2126425629915409 0.3125384367190312 -0.06860744431657288 0.04385802425536457 0.12171775825293944 0.3651584777954757 0.18527434471054047 -0.002211344665247434 0.1371876705939042 0.08262094542090613 -0.06383531102753559 0.20166159216362173 0.13198763230379762 0.03793845966331917 0.10470722691022681 0.08250016373540167 0.46136915411175433 0.3181702283219317 ]
[ -0.12840401758936668 -0.10296740755538776 -0.3296731425749284 -0.4136860333182498 -0.06870523870934059 -0.20708187587653995 0.2908284624617088 0.2961095771487487 0.08911356439195628 -0.005596619881709344 -0.32361573163368373 -0.3478116089214732 0.20126815069625978 0.5807460107451757 -0.18435751059547714 -0.27860939530571144 0.16124703164066553 0.030756986476901903 0.09083062643207566 -0.6576550224804688 0.20604482650598488 0.1584069468279645 0.15332344327918634 0.16695038562105846 -0.4359085698426154 -0.19658213179341613 0.5262887398158764 -0.35011757556022843 0.30793248875399193 -0.2809222738890845 -0.08375199133118899 -0.3775278014324987 0.09824945475442731 0.20513754017623537 0.47743361367175624 -0.5619578671011496 -0.39326612614322165 -0.3075365059999199 0.3907085261961718 0.49296944007908045 ]
[ -0.07653866009094536 0.14382824886621692 0.1572655885769639 -0.2749321823218733 -0.542175142614513 -0.238402579648433 -0.007616222263495213 0.2331257069483337 -0.17106613845155375 0.08422703783442849 -0.02820595953688121 -0.025446767055777888 -0.05203905526851815 -0.035882375367803754 -0.13988002037291608 -0.35327122284261986 0.053773551709753314 0.24738190043792638 -0.2606208167712429 -0.018397131857194823 -0.2535173894436076 0.07595218033223027 -0.02668361403432683 -0.19569971098110422 -0.38615949744050226 -0.22414327785653282 0.20146227909674042 -0.13598241542354625 -0.27895026465045136 0.08006472737041014 -0.5026040781101895 -0.196058267688505 0.12767080136216744 0.44664915466960514 -0.4748421253895442 0.2394821018959235 -0.37749508531151055 -0.346485674396418 1.0597245577070569 0.3045381317386096 ]
[ 0.07017862185356268 0.2967204021760253 0.027601138830822904 0.3895678579590037 0.0020840626967886357 0.23581161341862575 0.2077791970873507 0.21227330415085977 0.30076170302911454 0.03920329296998769 -0.13439958985307252 -0.20635656727132617 0.33055577622210564 0.23525676429470857 -0.6528264302154154 0.21049310562181728 -0.06757678837065884 0.1674233238158886 -0.4023754610556631 -0.2894687662762026 -0.07568066802290277 -0.693782566936456 0.2611099924691437 0.14147751265102826 0.009976928499563177 0.1323950210645203 -0.21114009419765364 -0.8026634930872782 0.2727487513181024 -0.2479228065945728 0.6323704820279092 -0.013665008338645108 0.05516192639591685 -0.4656451517098026 0.593904082319937 -0.4307263638504613 0.3656896821215723 0.0423540306384688 0.22084358959350386 0.3346813264348936 ]
[ 1.2640158055432462 -0.7681716454169725 0.07073008522694625 0.4074217582819424 0.5188201789993313 0.5245196215354997 -0.2239070709577299 0.8547064175099518 0.09418728547036301 -0.1009564124317298 -0.38555430607287206 -0.07393112339946609 -0.3375452581987905 -0.053234268820589105 0.9378856518652613 -0.40269157734387323 0.15006204160332054 -0.19496815497355852 -0.6285688302598131 -0.08728229160419902 -0.005549216555765434 0.19692117531582987 -0.06489701109703488 0.09665502962077008 -0.006687850225593361 -0.1702567692226034 0.23775367061287517 -0.5935030209784902 0.382281254091017 0.1276887906107898 0.8563898527202156 0.7076916178878107 -0.40197223434296214 -0.6553312893473671 0.21423113225921137 0.37697106376433437 0.21190455188257612 1.1096317060415846 0.5001684438915291 0.8949721820815717 ]
[ -0.22975191362266142 0.16543816031439063 -0.12160928315339828 0.4777234119539944 -0.40657791013615335 -0.3343331935810892 -0.21781922374411458 -0.5130093877273344 -0.30320324481063343 -0.2275796742168969 -0.28509768572203115 -0.11528666394673551 0.28403517450413274 -0.5109519322382708 0.22220412478710252 0.17140200193829286 0.08946781211149128 -0.08956258412914483 -0.034671719266444925 0.3375065927648796 0.41596313139639607 0.1553984585110828 -0.16913926755139977 -0.27974819853385074 0.09022603327563614 0.1911614837114082 -0.3648690403532197 -0.17575852765680725 0.3554261278659716 0.32564348944846394 -0.15105287254745028 0.06563448473911744 -0.14702547032595525 -0.5714048085244893 -0.698267366401023 0.24733804386740688 -0.45622656339858403 0.06578205676729165 0.075091599392082 -0.5189098330858366 ]
[ 0.22390453375467448 -0.33700332541636946 0.20702897689491662 0.4783017793845305 -0.30616081700090003 0.17013857544630392 0.1634384050664527 -0.3451305157881691 -0.20501324930341233 0.13453137932020262 0.07084007456950768 0.0012298153788988504 0.02766702572337482 -0.19719888081332865 0.3944344911238293 0.30064962508847354 -0.29854120249976607 -0.21601298159456053 0.14513688990821505 0.25344374807681974 0.041033751521540464 0.08056650277861607 0.20021427671808098 0.13949505931503092 0.6775378366829807 -0.024548289988965223 -0.5241558740928508 -0.06237494412080165 0.09739883346299807 -0.15159319881152142 0.14133219871044506 0.3892012859372344 0.1305297224865428 0.03957581710394014 -0.02871129287109099 0.4212405756626864 0.6820593377503212 -0.18765040980743777 -0.10352869520173995 0.21043695013655198 ]
[ -0.5655144349322706 -0.04002203642441198 -0.11186234552048739 1.1124087907353566 -0.29569971695725156 0.03097805117424949 -0.11372658131521571 -0.20141998941311637 -0.6850623920067894 0.012288587219845087 -0.3862557327368666 0.08701448254280778 -0.3828948460352894 0.1956396681712252 -0.20039467361092364 -0.2724586587435508 0.3578587389899668 -0.16760043859856194 -0.24998084789634922 -0.2542525299247431 -0.4102158131939626 0.6695871287413593 -0.2761858698537893 -0.04358155894195686 -0.17390515941995324 -0.19100253833626774 3.938596357179903e-05 -0.2636623877193958 0.22999114932761763 -0.11667040230781581 0.30554373177166183 -0.5616929180078652 0.1958402906688212 -0.5641052957929955 -0.007743838757160678 0.6966730281099296 -0.017911107788418326 -0.29112261573730464 0.428326120066857 0.10136351193069404 ]
[ -0.5244200430778209 0.3588010707792648 -0.2661366501484246 -0.1272811074552516 -0.3885794482979292 -0.14499172266813945 0.2596556801812209 0.0036531801232933133 -0.11445575037757992 0.1311024375906963 0.27833275147428554 0.04946226099205202 0.2442047537090284 -0.2065996585187552 -0.892740865057382 -0.03502058953129481 0.0474481040007733 0.09982518854968478 -0.07881978378004627 -0.21705506386859436 0.0019422951786175916 -0.20150794986921863 0.10053713187027849 0.25848115146260914 -0.5170115930700433 0.06255456813002132 -0.44402226641789516 0.17128310761022522 -0.11872967802254378 -0.25782154753116954 -0.26830963277637093 -0.38156471039012607 -0.1927255450090955 0.22876783547290616 -0.14822940603695972 -0.1560828723969342 -0.2671561539600015 -0.6923188664057389 -0.07907678238298561 -0.45423898310718674 ]
[ 0.18220480412086332 -0.33210273086207004 0.23584008968744868 0.053475972165780865 0.30444667945232484 0.393775297217111 0.09517136891809963 0.6777485047709884 -0.4089056786591343 0.18848238151875835 -0.2918465944183452 0.151591191844987 -0.06195423584313513 0.5557637671005282 0.3045796108304695 0.10609666047423354 -0.18141662035738199 0.34445709380569595 -0.5977395138089743 -0.3885781072770548 -0.529454783047317 0.5547664200097738 -0.5519672311428738 -0.3150198998568728 -0.4388542857620526 0.13110710258230196 0.3500917340199763 -0.0027402315245320663 0.2358032269978405 -0.11551520893903922 0.5077394609518452 0.19023609604907982 -0.2398954422980648 -0.2447626929719452 0.16438873416168293 -0.05285129737201367 0.2319861140743684 0.3438465078310559 0.6963913487563306 0.28796969954196777 ]
[ 0.2885612824415431 -0.3809409559284029 0.03400734399077558 0.23872270157121744 -0.30704469012372304 0.3783764395888955 0.2538039552867956 -0.5113737941034499 -0.31346496548090974 -0.00825515455453704 0.2724188962556339 -0.11152470656060513 0.339132263370301 0.5835405549404068 0.25565979627418467 0.2061155122085661 0.40314371883629874 -0.31223775027167844 0.5784029181561036 -0.5108490564047237 0.4443042418241723 0.40518496424753614 0.31760157431453373 -0.21812942026428903 0.5478130407521202 -0.5970163037894214 -0.4947248072852903 0.01058967408061009 0.09444211223631574 -0.7254363967997025 -0.0009319729533869892 0.5499269116853318 0.3307042632164843 0.18878430804483318 -0.6418266840839442 -0.06917052219704584 0.3044889919695674 0.03856320267777694 -0.13695220021632937 0.6448038037272878 ]
[ -0.09840223023011825 0.339672576922309 -0.22646157755564514 0.0011810051962108281 0.15706252818167604 0.020449572978760426 0.16493364633766022 -0.11815560987090463 0.23592100451593445 0.08935810958103355 -0.14487859225663272 -0.02806714217729296 0.2052597224187129 0.20459910513481513 -0.25860433975265884 0.09833906546537491 -0.0021486684986661802 0.11230236584446734 -0.17233910508451408 0.14703167300504696 0.07176434364854892 -0.4685303393533337 0.11918104464839997 0.1728986376803234 0.19028251853414274 0.20688837990016024 0.0988974249273354 -0.0048818489009110864 0.2529371484600342 0.1323239437012335 -0.15311954140490774 -0.05452993081014132 0.003473537016272071 -0.10006245344666016 0.04511290837595196 -0.2682618328611305 0.20700731237292436 -0.02770309814609961 -0.0246844150790323 -0.4029282897669991 ]
layer 3 Activation
tanh
layer 4 Dense
40 20
[ -0.15230726327940133 0.2118398372647792 -0.217608644217717 -0.1204913221358644 0.10119525154103887 -0.21962034312342424 -0.3233257804187871 0.08986934050524216 -0.09256087153369098 -0.25753533160160047 0.16875799808655007 0.01907561875593741 0.11410209257253456 -0.16964427902533555 0.39814344166318816 0.09429990776887112 -0.023482599825274172 0.48616257366613863 -0.08474805675547156 -0.05260489101546699 ]
[ -0.40952322256345974 -0.4227101539870079 -0.2707437393683996 -0.37379880050877856 -0.024595959989616886 0.04417238254190844 0.25862122221860673 0.001168406648180692 -0.058404526827737425 0.22121928789650336 0.044013853044185404 0.034801002111041125 0.024810916411092832 0.44475233943230175 -0.16372690788149974 -0.24991712255362347 0.1914650333857388 -0.20329905746058893 0.1077902840933754 -0.23420080004347962 ]
[ -0.024949315514676496 0.20296111887460638 -0.10016449577274514 0.11137831117038013 -0.04956267919126292 -0.053095823737219404 0.0780940475446512 -0.2708484080699578 -0.10920103555751937 0.05942825126230932 -0.034197641271482886 0.05524493056869943 0.31619332510936915 -0.14276500842630238 0.030310665103131452 0.23355117004061418 -0.11920438589962097 0.3438312163120528 -0.15147859692753274 -0.33732932876766825 ]
[ 0.1280217491962234 0.24262074058822003 0.4852698819647673 0.4545317606426837 -0.515717541041771 0.057270221803416704 0.2240621553084029 -0.2594954416112106 0.36937341643505894 0.07017610533546818 -0.35350654777672846 -0.00767040933140166 0.40615820765336946 -0.5609312856582057 -0.0409360951337595 0.07522934536667598 -0.5310469153779901 -0.2717441862977456 -0.25975965048012284 -0.5108816262963982 ]
[ 0.19756096569635997 -0.04935937436747505 0.18339063073077583 -0.17779883151422685 -0.18646948306046798 0.16199242897068308 0.22650041145105215 -0.10419189842176226 -0.6106003408462762 -0.33409711374058454 0.2833042181307391 0.005414677690205658 0.06792604086210216 0.08356020294543566 0.2959119245099922 -0.4011627134996518 0.42515940799002905 -0.04519336524796742 -0.32461993432332065 0.39775193205624965 ]
[ -0.09348714833826763 0.14655700398286806 0.5936424807110489 0.27664508624623185 -0.24218705366693832 0.11960824342090716 -0.1499092060960536 0.07766391848749045 0.04085279277808566 -0.41047357734839 0.011712600573043972 -0.43697419060696013 0.2084530581866919 -0.7206130645692329 -0.14791135389222215 -0.35311571571261513 -0.11997258950814081 0.032748503742032135 -0.09282430200798056 0.03750321793671293 ]
[ 0.03585307833632522 -0.17690815817239727 -0.0014077594804069692 -0.08259542980250378 0.1602311965689928 -0.11812053984327091 0.269079231258472 -0.001810628137553008 -0.21977417959957626 -0.3081963212309146 -0.05673716285655039 -0.02847497483410053 0.067403200634174 0.39611556622986865 -0.16435826173192475 -0.2162203193281175 0.03561632341554299 -0.01857599279703515 0.19889045449113707 -0.2007603267346818 ]
[ 0.039498070086561185 0.0719199683646793 -0.030673022809067616 -0.24663497064693482 -0.2906079166566432 0.23820621024364982 0.09385724186573421 -0.09441353360976923 -0.3028268911697875 -0.17645971286342374 0.3303091883112177 0.10247986826703283 0.0068424168344686535 -0.05883870120292919 -0.026087920015713126 0.042167536082734006 0.2857643770504906 0.222434413508801 0.07879556992594665 0.340294639984492 ]
[ -0.3389573848632955 -0.4123150352499155 -0.11434680793871782 -0.25121582634353573 -0.22077385637917593 -0.1780615998942893 0.24519240907808776 -0.1776642995547853 -0.1279546408269778 -0.2556664281111805 0.06675807067359846 0.27016326559343323 -0.06464507797287952 0.26119781223594446 -0.17820086014786396 -0.12864910943776087 -0.16252031657355853 0.03744345945381436 0.008671058781264075 0.32689643455848655 ]
[ 0.01956099122446249 -0.00683270525887907 -0.023327718450553994 0.021742655151483152 -0.13674828117110252 -0.009477054248046844 -0.1634466677781233 -0.03311531299278073 0.01115939354966331 -0.2850534677641748 -0.1124419862762104 -0.012865167800498196 -0.24337160087347878 -0.21755277255174438 -0.0968743432127539 -0.06713329009241391 -0.12493636502743906 -0.08421091610032004 -0.3428430311492941 -0.13671106538499408 ]
[ 0.13338255402406848 0.2321876866726199 -0.35814329825416646 -0.039785054093328436 0.14274219591531337 -0.009138929732615233 0.3416219455483986 0.20861376243666505 0.11704796220635193 0.04929844695830067 -0.00038879451314701417 0.244863568898364 0.15530917686163945 0.3942428619305395 -0.023379607970759497 0.16872614039184494 0.4580738718827682 0.053434723959655095 0.272935345864751 -0.2694969323769223 ]
[ -0.058298884104631535 0.07912582496697887 -0.19792504251885237 0.18455087044681126 -0.03911298725412811 0.0017465543789298237 0.13101578341016834 -0.003290711030095003 0.09932234487682493 -0.06650515437531467 -0.04501849998355952 -0.02411091917447024 -0.014056772484224388 0.005934537369315175 0.050174370525503185 -0.2645717729787185 0.11801337021551159 -0.02167255765329659 -0.11416227844590444 -0.0040163948850841045 ]
[ -0.045478015919842366 0.10302630995394418 -0.3671388640063741 -0.06479337855410343 0.017640596995447122 0.04670090239465404 0.08601654798233364 0.06820768638554149 0.1634507891454391 -0.3665500219747828 -0.06177973805699128 0.24455204223027763 0.3229579863951273 0.27294711926360776 0.004770835583745311 -0.09307542828399931 0.11252232280479207 -0.058344833671741474 0.784774237951718 -6.891663136972216e-05 ]
[ 0.4584547327521239 -0.050036519954387904 0.571083132122028 0.03802649757723831 -0.24605267061868036 -0.07586939292598148 -0.43675858790795996 -0.10067890863306028 -0.1410220735836382 0.08936227283274498 0.17657175928089586 -0.4333821963761436 -0.14726328608830994 -0.02215670586174339 -0.3079057996213031 -0.22588775207188272 -0.32749851532503504 -0.04314636253222326 -0.16512742457647875 -0.333015579763452 ]
[ -0.1695212671639394 0.6652992276607907 0.14530546902471692 0.20901190410832945 0.09131779129530583 0.029552642337495796 -0.004074737802505468 -0.20775190455700537 -0.397715072496855 -0.40960837519847404 0.28742540505863634 -0.33280802644337254 -0.16549269843303857 -0.16395266359735405 0.6186820838226181 0.2293941625974862 0.06402532893909377 0.5424004330898737 -0.21319401084294787 0.20512274863123103 ]
[ 0.19486896716183313 0.06325266882031463 -0.21050322447393102 0.003105370342131263 0.14922512498375537 -0.22670724441256085 0.14981473811299342 -0.36659660050279114 0.1229847260753517 0.19112889210972364 -0.04031919832173019 -0.3894642947191926 0.4331985599808736 -0.31697718421080545 -0.009717800215038944 0.1569264710179324 0.4355676670600218 -0.05830096898439302 0.054386672448547196 0.2851267279126959 ]
[ 0.12475417128690763 0.2695708416796792 0.07657071066782986 0.13349370900529353 -0.036790899295842006 -0.13829810141659118 0.010535102513473836 -0.35479544368932253 -0.1740378871111529 0.134458593212718 0.11454232669856172 -0.03660150790101679 -0.1172751351532408 0.11671943383242123 -0.1664200934062126 -0.0349572588187364 -0.22846115148738985 -0.09841718049890588 0.4490964376005575 -0.2731498583871108 ]
[ -0.3268370782223582 -0.05746706961838322 0.29688239629911534 0.1069318374479796 -0.2981667173976821 -0.05515390961897601 -0.022621237234523577 0.25669002481392383 -0.391754287632843 -0.1060043927560457 -0.366063706415186 0.3162847958343413 -0.1359063305476339 0.1309839063787522 -0.1165214253626813 -0.28741479297835065 -0.007454555698252942 -0.16215413700206674 -0.12094192974864629 0.25848302884900554 ]
[ 0.39514395206991726 0.38052192528037787 -0.48541394298078744 -0.0292212986916413 0.29907276390054444 -0.18700673790812278 0.17961697335423782 -0.1324739858172688 0.18875341932348397 0.1913527605231117 0.3687781743733881 -0.40475973930592035 -0.29244959469902443 -0.06761022123622355 -0.415016836714142 0.1865886159614325 0.2809498887541502 0.14090066117868488 0.21634748606785448 -0.03733305610731101 ]
[ -0.2237700629253878 -0.3629889981328664 -0.37770819556819 -0.0771780206060582 -0.1396240320997724 -0.06261029933287367 -0.08933478793022463 0.2630242791327169 0.2622659721785566 -0.3752472924389052 -0.22676140778206813 -0.03972163468378739 0.21068619463472113 -0.0820340492894986 0.25324668448521503 0.08536322206433292 0.2860977266331086 0.30293242633976836 0.17234119196435646 0.3225811034365102 ]
[ 0.05600987714355398 0.3667881044366291 -0.41988443556200644 -0.17244720008836087 0.307044982742227 0.2667620349781763 -0.0699559606789352 -0.5266951227658738 0.6215519055683568 0.30513311079651856 0.40165426033363166 -0.005445293070959771 0.08717592927234455 -0.22238270279699085 -0.31021095037929564 -0.35531053520226524 -0.09755404584012455 -0.268436108312364 -0.201546451771247 0.23998044022035855 ]
[ 0.23101393779392673 0.5761532359059104 0.25615678394595554 0.32253033009903953 0.13468511224533397 -0.1175596770568411 -0.03562883613451861 -0.036747117046614215 -0.33745040538247584 0.5372647098477633 -0.1481847835962802 -0.12318893392351374 -0.5709123531908348 -0.2756776090902082 0.15098385528621042 0.6462165202067464 -0.39878164894509666 0.2145394646149991 -0.3776455266646415 -0.16486047746117025 ]
[ 0.19000138033548744 -0.272012775814903 -0.046540321140920694 -0.2905411208999229 0.3078093119594651 -0.0379112905189539 0.3037216502898113 -0.42590797614102827 0.25263469016527684 0.05466336424843337 0.3287143793452844 0.2178074127994865 0.32652072479906263 0.4627618843746202 -0.2973432271703824 -0.23576620016460534 0.16753867313076934 0.21918870687491354 0.28524849547711095 0.040050935628081374 ]
[ -0.04774811936880876 -0.22753014243313738 -0.06675709327451383 -0.11179589032934474 0.21101869939177417 0.10764786871279963 -0.3158858440506085 -0.055609270284802254 -0.015715386444092184 0.13701509951820293 0.00621211190863109 -0.22937150468510853 0.6045505523357876 0.4600777054321124 -0.11857845118458138 0.07535392783716544 -0.01031612860509567 -0.2054824991871001 0.0910918917424213 0.2228626933557828 ]
[ 0.3157949513976845 0.31826012424709177 -0.19910560846599204 0.13281031757694983 0.11156266982745953 -0.27969971392140974 -0.24141710156097243 -0.37324867450819943 0.38654746916859506 -0.10700743076695109 0.33379300404122997 -0.4183625012824144 0.6051046106015008 0.18139434586406178 -0.21191719142706442 -0.38436338953776994 0.3182221593537726 -0.09222343080221665 -0.21334736558708667 -0.12406468662576492 ]
[ 0.029080479140842115 -0.1817079076180583 -0.43580749282403863 -0.12690765531881285 -0.08389589993224349 -0.2866328893085666 0.30803104195832104 -0.011916871386781113 0.24261845764411133 -0.32147815157049964 -0.12061787534797061 0.1880057248880816 0.39252426925884626 0.20645455339502383 0.2593064677348376 -0.2714785393574587 -0.09371481840019985 -0.067822591740984 0.23502973950579686 0.09347949308890369 ]
[ 0.23401123550571343 0.22292596274326038 -0.06862056315987372 -0.4031609644425169 0.17656353891537296 -0.16440157352881382 -0.009068681988340089 0.39366009819565423 0.05182695200721227 -0.4494021126478309 0.35154770165377897 -0.35384090351251923 -0.573432823925971 0.16802115232664178 -0.48961828187101764 -0.4183696477796874 -0.06739142528777214 0.42485999784747336 -0.05771939045815483 0.44526034141583765 ]
[ -0.276382898113503 -0.14681665881037828 0.04239179773351574 0.1680582800109419 0.004967875380139083 0.11538930745604467 0.35856818029950605 0.33013140504387917 0.08986394130773587 -0.04285501048727993 -0.20329433406696606 -0.1617501863583023 -0.06299535078528981 0.5641539517946503 -0.24620200128070147 -0.1613535768772884 0.023044752796302654 0.04726792779016695 0.3493858194284045 -0.13451489924189913 ]
[ -0.12606577651855044 -0.08742267852825464 0.3429735867180036 -0.05657907265926904 -0.008413471046465625 -0.19124415938012201 -0.3828640019298371 -0.24242483294606992 -0.02953806512964559 -0.27771074649223987 -0.1832339290761153 -0.07525425300036392 -0.08422720364505716 -0.3822747443350376 0.1653302329556294 -0.21804653332741086 -0.0118720016585249 -0.1670562923195383 -0.1802547766624368 -0.04973152579766655 ]
[ -0.5727982592067298 -0.36974477648307974 0.26138396011459336 0.009207650410507731 -0.3693746979212392 -0.07433681655532239 -0.07404828064051694 0.34157216176731375 -0.22617008228894891 -0.14760824863894784 -0.21562471219481022 -0.07085129729676984 0.15489904826197365 -0.04787424377224172 0.332322759697362 -0.2197709494588171 0.41333135203661464 0.17724503784221407 -0.175739428355425 0.48182035351175445 ]
[ 0.12325870055995795 0.16981304193568683 -0.05726308609563682 0.04800765414847902 -0.1851571527392885 -0.3237341226898771 -0.41442046328641635 -0.3390579613301181 -0.5180527497069821 -0.4372478128761957 0.27129894757402795 -0.32146049693634093 0.10492021725711288 -0.4659044513790268 0.19471384537711772 0.2347272467445048 0.17671805169198754 0.09151381633404752 -0.19306509297179278 -0.3080290348852431 ]
[ -0.28743023151257885 0.16106874444249464 -0.1402597938791371 -0.013094405985431724 0.3163601339638752 -0.1945254219368043 -0.4314186110041238 -0.25026602329161124 -0.18060334300846315 -0.3349397638133636 0.08619002724832409 0.04660688879210116 0.4163868771549423 -0.1137851583362893 0.4135444140229873 -0.24355876691550207 0.41080836919495717 0.5154326260137675 -0.18190072370254307 0.6684292905191916 ]
[ 0.4101416758279784 0.08732111850998431 -0.22458522159039077 0.03205155567684301 0.19786799715268433 0.36041554246475815 0.0659537202292116 -0.3924345797396955 0.02071767203737214 0.18798772649906775 0.1594431967148285 0.02413123596881795 -0.5385684802350896 0.19597339904995953 0.06991349512830056 -0.05655507971563217 -0.07965538808759492 -0.18117366513992364 0.11129539519488599 -0.12095184288393114 ]
[ 0.4699361471957828 0.10768204730498489 -0.22878611820739722 -0.459570516015727 0.5375880182454928 0.24652209444479498 0.036317921503328236 -0.16407658201718056 -0.26202093749951016 0.14422004736576977 0.3089051384156394 0.2610611779205422 -0.6156010122524529 0.34496521554848314 -0.15994973499890286 -0.04796715145975063 0.08205169306982002 -0.06363299143632092 0.43045174307547684 0.43717916776490756 ]
[ 0.07559946720762509 0.0038335013576965317 0.18468272667297217 -0.31403797776841585 -0.27215292997748847 -0.09288844193138143 0.09832865464833838 0.05102451089020498 -0.5950443504447782 -0.49847437924444593 0.3338934539216816 -0.09289945124691912 -0.24702479958705956 -0.20261617473850219 -0.4322014242149784 -0.5399324220740355 0.1833993754460266 0.00997298890530065 -0.2382531740075842 0.3804415089400714 ]
[ 0.02186114533776688 0.5267624652109275 0.11611309792987665 0.29999103129892674 -0.3444786721421177 -0.1199502922320518 0.14810000165667855 0.04748905061123821 -0.13553327473890264 0.23975434453054265 -0.13614443749190908 -0.5714669640346798 -0.1391338202775567 -0.49937038151688207 0.4034096087644135 0.47701887081103295 0.3986096543031809 0.38214222598566716 -0.3880624924946623 -0.09842835404017027 ]
[ 0.06318570069334975 0.08774209376432263 0.210382551690172 -0.029842405668624308 0.19603663374343752 0.0703704590666123 -0.26178717804318014 0.023545931260529496 -0.15597201466599403 -0.30409102613229594 0.4148938424575216 0.09484115729262246 0.26781628033913796 -0.524316742016568 0.10812418239314338 -0.418013854926642 0.6493615912034592 0.39648069666237895 0.08575077727694355 0.5097422180744965 ]
[ 0.027938485431310535 0.049882994110984874 -0.17953837156502128 -0.05276117054669747 -0.04274006224734143 0.023315133022706682 -0.28089015047139426 0.07502487913065288 -0.3104630583109549 -0.08401954201773289 0.26802825138508635 -0.2164531761844124 0.26781192663427483 -0.6000037849728858 0.22254128288749547 0.2643523858067345 0.05038804136954995 0.23582632171176757 -0.24599696809158142 0.03667333948595884 ]
[ 0.27283113413273213 -0.1407724381375027 0.62080476463047 0.1389817727586343 -0.20421203841032914 0.1306847846708991 0.33842494738455686 0.43168215580125063 0.0036976088106628674 -0.1513370714371844 -0.40641060485030417 -0.027528066023373605 -0.1970415398390466 0.04621556765764185 0.2541622565964028 0.24240658590152536 -0.5105092480411201 -0.36182977962720947 -0.18045101138083494 -0.30815147281827565 ]
[ 0.575854455800795 0.4897818967088183 0.4539223663396633 0.1284742013510086 -0.1539118814599577 -0.0386369577711735 -0.23926593408043312 -0.07502951755961207 -0.4169198514139489 -0.015510013939096567 0.26422507080723495 -0.35665600660885644 -0.5818102673064639 -0.3826216390491247 -0.30348144688508244 0.23417906983476572 -0.5182681512887493 0.2881167627511874 -0.3255991561318904 -0.570205090376462 ]
[ 0.2013659927493488 -0.1886635651868196 -0.12408651502854978 -0.1957107596963418 -0.07120587548939437 -0.12913024051191363 -0.1666487932563606 -0.09440852823568877 0.09216845019841442 -0.3001451238900608 -0.48550765419419 -0.049304796080328686 0.09771087255966383 0.29000943061421486 -0.1224131034669021 -0.28408140678826843 0.1488706334107007 -0.09859843893142303 0.04559318213241306 0.23663357159954804 ]
layer 5 Activation
tanh
layer 6 Dense
20 1
[ -0.22821910371923035 ]
[ -0.3311641937174358 ]
[ 0.06182425251017876 ]
[ 0.3178270778506714 ]
[ -0.17828471443928123 ]
[ -0.0010099475931183025 ]
[ 0.08639710914535736 ]
[ 0.11119531781239843 ]
[ 0.12745873626058787 ]
[ 0.07863601124254888 ]
[ 0.15818019465531322 ]
[ 0.1340823872874641 ]
[ 0.0955438029370079 ]
[ -0.0405698346653259 ]
[ 0.30004212724977003 ]
[ 0.23907020467176943 ]
[ -0.10518950378823892 ]
[ -0.30616908304809487 ]
[ -0.02212090762986464 ]
[ -0.165833411201301 ]
[ 0.03123118811280353 ]
