layers 7
layer 0 Dense
20 20
[-0.24626425  0.3019171  -0.02967239  0.11895563  0.1404666  -0.12757507
  0.30554384  0.41862345 -0.43315247 -0.28657717 -0.24168304  0.09926889
  0.5249936   0.13164341  0.45345035  0.3081766   0.1633004   0.2818448
 -0.06592485 -0.14696544]
[ 0.57580334  0.49732736  0.74474     0.2438351  -0.5033961   0.60385156
  0.5149884  -0.22281018  0.4320707  -0.05808712  0.07953148 -0.08325857
  0.21055754  0.32122344 -0.36096266 -0.57840604 -0.25224248  0.5381766
  0.409838    0.2538259 ]
[ 0.48473683  0.2686514   0.71356964  0.1678384  -0.60584986  0.214384
  0.5004505   0.06052445  0.38903823  0.09779809  0.07944987 -0.15390375
  0.85873115 -0.03429833 -0.6761394  -0.45727006  0.18110768  0.80175847
  0.20724747 -0.322087  ]
[ 0.36519372  0.34237695  0.13820925  0.20713538 -0.14209877  0.01612306
  0.11246573  0.47139588 -0.26517546  0.23146255  0.17043461  0.38206014
  0.29182878  0.13088642  0.5434073  -0.2564928   0.07754172  0.14882863
 -0.02792579 -0.02554746]
[-0.13618912 -0.12209695  0.11191671 -0.40199602  0.27434668 -0.4025399
  0.10121961  0.3090999  -0.36964333  0.04732427 -0.02343044  0.24435437
  0.01173116  0.39708433 -0.03596269  0.09549024 -0.2720309  -0.00122516
 -0.00396573  0.3182269 ]
[-0.63554925 -0.14545883 -0.05726395 -0.18615937  0.67538106 -0.5510289
 -0.9747534  -0.19990978 -0.00812881 -0.02957045 -0.06987749  0.37981305
 -0.28317598 -0.459757    0.49967465  0.8256661   0.407118   -0.57352316
  0.0781568  -0.3264024 ]
[-0.1959753  -0.04933741 -0.19769278 -0.31548518  0.66229445 -0.20377629
 -0.6367002  -0.01814949 -0.2121221   0.5318232  -0.4499476   0.11363029
 -0.5107417  -0.45509365  0.9734213   0.43629596  0.00889634 -0.72353387
 -0.03024939 -0.3194855 ]
[ 0.31265134 -0.5619418  -0.06171425  0.3439078  -0.24462108  0.28584838
  0.07803296 -0.10891747  0.0902332   0.20907569  0.13542718  0.31010053
 -0.40764734 -0.37901822  0.04364369  0.23477542 -0.21251084 -0.26681155
  0.04862017 -0.21648332]
[-0.24888301  0.22873583 -0.24300164 -0.5264829   0.6829373   0.41229644
  0.6966085  -0.35953018 -0.59441984  0.09495064  0.23678459 -0.22961847
 -0.8666836  -0.5979305   0.2126097   0.6794796  -0.20252274  0.5390377
  0.44395483  0.4850948 ]
[ 0.49980307  0.21916977  0.66046697 -1.0517805  -0.21564448  0.45519295
 -0.60571456 -0.42763627  0.25948966 -0.09557786 -0.2583262   0.5907062
  0.00858316  0.03242588  0.71842515  0.33897454 -0.5415194  -0.4021409
 -0.87181073 -0.5041438 ]
[ 0.19845466  0.13635378  0.571267   -0.20926449 -0.08662213  0.07034216
 -0.9765647  -0.06255803  0.13992248  0.46854797 -0.86970174  0.09054174
  0.9428544  -0.6866562  -0.6358119  -0.29915103 -0.3275902   0.4557474
  0.07362345  1.268309  ]
[-1.5042481  -0.94722354  0.13935435  1.172092   -0.7981186  -0.36080295
 -1.2513136  -0.5232073   0.3325012   0.11119501  0.07129964  0.0253363
 -0.09876443 -0.05506321  0.42102653  0.19849943  1.0742099  -1.880152
 -0.7559082  -0.24578832]
[-0.2000182  -0.1705737   0.45010257  0.3309039  -0.52403253  0.36889508
 -0.35640085  0.01694614 -0.07672635  0.13441704 -0.16143641  0.16110283
  0.3887084  -0.20360787  0.37827063 -0.11348689  0.39179456 -0.47762114
 -0.26231375 -0.11698062]
[-0.18451455  0.00685407  0.2128387   0.51686645 -0.3809715  -0.4680552
  0.3316511   0.43366975 -0.30432934  0.04971367 -0.25961974 -0.17850253
  0.27432856 -0.05207077 -0.13315605 -0.12510192 -0.04076044 -0.3109144
  0.34028468  0.7724297 ]
[ 0.20392399  0.456794    0.16292362 -0.04432016  0.10815439  0.24131618
  0.37374347  0.02186273  0.04288792 -0.08534862  0.5096157  -0.49733195
 -0.04353454  0.50185657  0.24336685  0.39924702  0.47597498 -0.48014176
 -0.1381966  -0.09726126]
[ 0.58172584  0.8440813  -0.17246184 -0.5151029   0.22603346  0.5586802
 -0.08150752  0.12521924  0.1673007  -0.2262995  -0.0472722   0.01188968
 -1.0121253  -0.57223773 -0.5000656   0.03177251 -0.5333005   1.5909545
  0.22587936  0.13706969]
[-0.35216945 -0.0916665  -0.55652565  0.05268304 -0.25265095 -0.19350493
 -0.00183818 -0.22167683  0.5630383  -0.25114164 -0.7054114   0.27094454
 -0.0333913   0.2674035  -0.11965974 -0.23151392  0.07717767 -0.20612705
 -0.37699008 -0.33522743]
[-0.7045172   0.04719811 -0.6802161   0.5874791  -0.09805214  0.02428823
  0.4734966  -0.35676783  0.20435649 -0.71161604 -0.61526906 -0.1195452
  0.03088742 -0.13636453 -0.02628653  0.22494943  0.11669189 -0.08277857
  0.76158166 -0.32880947]
[ 0.2806089  -0.6601631  -0.18193012  0.37453565 -0.16399167 -0.06349498
  0.2046037   0.23316406 -0.50571287 -0.03411569 -0.11573859  0.41398764
 -0.52398545  0.5175035   0.22090316 -0.5074349   0.16234936 -0.39045557
  0.39766696 -0.6966726 ]
[ 1.0456135  -0.15132461  0.04135282 -0.46224657 -0.07414917  0.18579154
  1.0386266   0.12065101 -0.06539611 -0.35951316 -0.24807581  0.02117486
 -0.01030934 -0.94157034  0.43071738 -0.09980088  0.3034922   0.2283089
  0.37897784  0.42046717]
[ 0.06270102  0.13693792 -0.0269323   0.02039779  0.12626737  0.02287921
  0.07001355  0.08601013 -0.05497738  0.02913608  0.10755213 -0.00516142
  0.216844    0.18245488 -0.09919198  0.09604704  0.05476211  0.01659057
  0.15260573 -0.00541757]
layer 1 Activation
tanh
layer 2 Dense
20 40
[-0.26214662  0.05536258 -0.02902352 -0.6351195  -0.00176194 -0.27287
  0.1900956  -0.43797284 -0.36071524 -0.06044149  0.09057674 -0.12197177
 -0.19518308 -0.24207653 -0.42422417 -0.42387697  0.08067387 -0.06932333
 -0.16504538 -0.34093273 -0.06225447  0.41439083  0.4685661  -0.27086568
 -0.38521188 -0.41382423 -0.08848091  0.2886319  -0.00702782  0.16879466
  0.05254722 -0.2125721   0.08603166  0.0050556   0.05458505 -0.02505496
 -0.20573325  0.44388172 -0.18307796  0.07832775]
[-0.03871072 -0.06789969 -0.35261023 -0.31385008 -0.20272684 -0.26818547
  0.37661925 -0.00113388 -0.4256074   0.19645041 -0.1036362   0.06193183
  0.07554777  0.21471468 -0.20231539 -0.00937531 -0.2565102   0.22000249
 -0.18633719 -0.03156329 -0.12650156  0.20769489 -0.40507218 -0.0881044
  0.05412428 -0.28019482  0.22405332  0.30471542 -0.03725351 -0.05276609
  0.32449937  0.31952885  0.2307872   0.07991949 -0.02222305  0.02477072
  0.2622416  -0.01395005 -0.31405562 -0.10739753]
[-0.02947761 -0.32373554 -0.44254962  0.00599999  0.16918337 -0.3101767
  0.04234465 -0.09778383  0.25576895  0.1921297   0.03074369  0.10426163
  0.12507562  0.01992479  0.10414222 -0.09838472 -0.16069056 -0.0293505
 -0.33852103  0.21787351 -0.18191163 -0.1338799   0.02708102  0.3993826
  0.08619572  0.02148489  0.04907241  0.15630886 -0.1455664   0.07102054
  0.09747711 -0.01377862 -0.03779561 -0.25226107  0.13859688 -0.02225582
  0.09976137  0.6060341   0.13021363 -0.0046358 ]
[-0.22471344  0.14584823  0.5784225  -0.04700606  0.03791713  0.2776616
 -0.1556807   0.21993175  0.4176887  -0.5904441  -0.07709637 -0.2463738
  0.29485545  0.14598204  0.6200623   0.472792    0.16164014  0.15142694
 -0.34185657  0.11825433 -0.07866286 -0.18961725  0.5253911   0.28333315
  0.1677229   0.16996919 -0.09961262 -0.11916286 -0.06988113  0.15572958
 -0.28963917 -0.4828907  -0.0990551   0.09212391 -0.15249495  0.09671026
 -0.6454541  -0.48753917 -0.2861349  -0.22772706]
[ 0.05849901 -0.03638486 -0.08874886 -0.07891659  0.19980067  0.24012552
  0.19171622  0.2029977   0.23703855  0.13287686 -0.12452704 -0.25933126
 -0.11109597  0.10968762 -0.32912588 -0.02128455  0.20825958  0.2644256
 -0.12461209  0.13165039  0.15043497 -0.0230079  -0.02156619  0.03442733
 -0.17012897 -0.14791352  0.11236262  0.19515045  0.06985397 -0.15738761
 -0.18461534 -0.04070691 -0.02988434 -0.35241485  0.04849361  0.31618047
 -0.08592475 -0.23571107  0.02562069  0.0015133 ]
[ 0.06541223  0.18705736 -0.394878    0.01645591 -0.083299   -0.42754462
  0.0955757  -0.17533647 -0.16683127 -0.3318292  -0.10608404 -0.15168147
  0.15395005  0.04121355 -0.06649639 -0.10171654 -0.15009694  0.29187998
 -0.065536    0.2647688   0.09021655 -0.26723215 -0.05431642  0.18457027
  0.05218024  0.02415847  0.5270731  -0.02759521 -0.33042    -0.15780567
 -0.29549256  0.36826256 -0.14478518 -0.15421143  0.35142246 -0.04722344
  0.31965294  0.21039899  0.2557321   0.11630394]
[-0.00790258 -0.04841802  0.20888156 -0.23121019  0.16804475 -0.4319226
 -0.02231168 -0.62035894 -0.11629889  0.41098753  0.34449407  0.17151675
 -0.3280227   0.14833176 -0.3617656  -0.43256763  0.2284164  -0.02335916
  0.22739688 -0.38041234 -0.17456353  0.18796593  0.06900419  0.09188437
 -0.5118467  -0.46295264  0.23704235  0.49143657  0.1788153  -0.5387377
  0.00410972 -0.52486646  0.16477692  0.19763203 -0.17888765  0.03493583
  0.0963572  -0.17768207 -0.17717049 -0.19553523]
[ 0.1442946  -0.2700465  -0.57347685 -0.06891507  0.01023152  0.50825065
 -0.14892395 -0.04331464  0.38684756 -0.08548363 -0.10232805  0.14509428
 -0.13612682 -0.29161832 -0.05132835  0.23738255  0.04095388  0.01892342
  0.08813681 -0.27595952 -0.03840446  0.2935586   0.29558256 -0.07846144
  0.13628629 -0.48773172 -0.4237895   0.08649028  0.5003488  -0.05349274
  0.4171369  -0.4915156   0.11761033 -0.2874029   0.05162967  0.14979243
 -0.5351993  -0.40592456  0.11369411  0.18460242]
[-0.2666372   0.40590692 -0.20374258 -0.30222228  0.20877711 -0.01306867
  0.14445244 -0.01636407  0.01676213  0.23782885 -0.08082945  0.06191743
  0.0168956   0.12852716  0.15121019  0.12255605 -0.16419534 -0.3190537
 -0.34907296  0.42848447 -0.02115354 -0.16605358  0.24848242  0.02228034
  0.26880673  0.19589229 -0.29060426 -0.11941838  0.05258003  0.3429972
  0.01199389  0.55115306 -0.03249018  0.03844337  0.27582923 -0.02602895
  0.15469503  0.14106888 -0.13784866 -0.10065991]
[-0.22617006  0.21932945 -0.17374462  0.12274162 -0.05872763  0.03182454
  0.17240568  0.27893624 -0.04987285  0.41882956  0.12058204 -0.00269932
  0.11312352  0.03501232 -0.2257082   0.21036051 -0.05709595  0.11534633
 -0.26970634  0.15366033  0.14663586  0.28495556  0.14896567  0.00873585
  0.07777065 -0.07105999  0.32922402 -0.07054825  0.05433983  0.2388648
 -0.19685909  0.02714733 -0.01652234 -0.01756741 -0.01190886  0.05401927
 -0.17260325  0.44143546  0.07962206 -0.09400118]
[ 0.19210215  0.06794208 -0.3134837  -0.47547826 -0.25165343 -0.3298278
 -0.28224176 -0.3436721  -0.20870289 -0.43947858  0.17191519  0.2762695
  0.02875402 -0.19503032 -0.2876227  -0.38578215  0.23844525  0.13979734
 -0.12661982 -0.46769443  0.03168877  0.05839308 -0.0245964  -0.03659796
 -0.3319136  -0.14165533  0.18823436  0.05752624 -0.28142327 -0.03705541
 -0.21187687  0.16190563 -0.05544314  0.11218695 -0.3632813  -0.0406444
  0.34047467  0.28592798 -0.22651878 -0.02514742]
[-0.05953976  0.06711514  0.08252844  0.03671823 -0.23165528 -0.21468636
 -0.1628205  -0.07086203 -0.37863386  0.19735947 -0.00236259  0.16726185
  0.02605423 -0.31466413 -0.22786003 -0.21694687 -0.4413966  -0.06493491
 -0.3329104  -0.18124242  0.03563589 -0.3130735   0.33577725  0.22930413
 -0.10001122 -0.25760624  0.0479142  -0.06888917 -0.20272928  0.2328191
  0.25447166 -0.16424169  0.03979389  0.3797243  -0.03835604  0.06747749
 -0.07550319  0.05121465  0.15536006 -0.29133248]
[ 0.03617971 -0.41673702 -0.33690664 -0.30454877  0.23967901  0.0241863
  0.14036813 -0.03967436 -0.13880265  0.20790182 -0.18576676 -0.00507558
  0.2887669  -0.04098267  0.5844594  -0.25175056 -0.44319314 -0.069991
 -0.28798795  0.00335395 -0.16259888  0.22606675 -0.19043049  0.24406779
 -0.05025905  0.04454397 -0.505112    0.13456738 -0.3208474   0.25859964
 -0.32281876 -0.14182597 -0.09595381 -0.20721947 -0.35880825 -0.18123227
  0.29762125  0.0383532  -0.15875718 -0.33484042]
[ 0.33238333 -0.31720012  0.14104442 -0.5245011   0.03570888  0.28025866
 -0.01661063  0.35540417  0.11865611 -0.4618259   0.14702319  0.04718293
 -0.43490875 -0.2601008   0.05207804 -0.37503293  0.12036438 -0.23753694
  0.11647725 -0.10755286 -0.10079446 -0.25661054  0.05134321 -0.2806756
 -0.0972498  -0.15641938 -0.46788597  0.01799262  0.09770204 -0.09226793
  0.13106145 -0.1943734  -0.00890928  0.15223587  0.15897086  0.09267362
 -0.06376251  0.6489641  -0.36654463  0.14038058]
[-0.0277777   0.25386855  0.33613944 -0.0398357   0.03916976 -0.07889041
 -0.2209084  -0.41764444  0.12197401 -0.60832804 -0.1439443   0.21762733
  0.28621227 -0.10704855 -0.26760626  0.18791662 -0.2288947  -0.12610517
  0.06374832  0.09509692  0.07601081 -0.1480152  -0.09329437 -0.1851792
 -0.00294559  0.24191873  0.16171646  0.30492973  0.1606675   0.1453201
 -0.04232174 -0.19074292 -0.03466161  0.02770815  0.08266348 -0.09932105
  0.32227853  0.33990523 -0.42437637 -0.10766522]
[-0.31800404 -0.31201875 -0.38586015 -0.28932425  0.27538273 -0.4270234
  0.00195045  0.15062208 -0.01453078 -0.3071997  -0.36146894 -0.2719224
  0.13611056  0.38165784  0.0617407   0.13960324 -0.01642238 -0.0547475
 -0.03971563 -0.04978799 -0.03831621  0.09406415 -0.43274766 -0.27259558
 -0.1810312  -0.05341273  0.45809937  0.08859923  0.07316786  0.33021668
 -0.18245038 -0.1176662   0.05833504 -0.25931808 -0.22985975 -0.01345585
  0.28382254 -0.20627755  0.03000585  0.02098346]
[ 0.2467794  -0.19371721 -0.09283382 -0.19331914 -0.10603458  0.06483969
 -0.4325353   0.1551797  -0.06334646 -0.30834937  0.2229616   0.01404696
  0.33003423  0.03726425  0.5843638  -0.28457934 -0.12950188 -0.26849133
 -0.22997677  0.04823801  0.3355364   0.08101554  0.15300412  0.13915642
 -0.02849608  0.10858632 -0.47344363 -0.20238455 -0.40975568  0.15656018
  0.4384689  -0.10047286 -0.16336553  0.04434013 -0.28254423  0.20461242
 -0.17434186 -0.08448213 -0.10576853  0.26714376]
[ 0.27312985  0.12664331 -0.2986052   0.42802277  0.13270338  0.13288675
  0.39557213 -0.07710363 -0.35712948  0.98436713  0.17944275 -0.0248587
 -0.35384613  0.13924399 -0.14135607  0.10394434  0.18031271 -0.2067508
  0.00777255  0.02489799  0.11588524  0.33664334 -0.41107902 -0.18427116
 -0.25012863 -0.36851376 -0.23751688  0.35814446  0.19894794 -0.31107786
 -0.332044    0.03336641 -0.0475576  -0.21627755 -0.09962299  0.26342824
 -0.12050184 -0.5887305   0.4593674  -0.00862151]
[-0.32809126 -0.01030513  0.52733064  0.2328108  -0.21520422  0.010944
 -0.23493847 -0.23758562  0.21545443  0.18354702  0.22525485  0.08521345
 -0.12765741  0.15702079  0.21891849 -0.09155763  0.5208145   0.05042306
 -0.03868983 -0.20608595 -0.3769813  -0.15305492 -0.07016902  0.00387495
 -0.03116573 -0.3582824   0.32343796  0.17184132  0.03545541  0.10090803
 -0.10330033  0.00224732  0.05221098 -0.30434737  0.13106179 -0.11497409
  0.10827001 -0.32478088  0.01173279  0.05833276]
[-0.06431722 -0.43417212 -0.15567426  0.40666953 -0.26402676  0.57847595
 -0.13663432 -0.2608117   0.35454503  0.6072326   0.16126193 -0.02158374
 -0.05959658  0.53500575  0.48135287  0.26927578  0.02891539 -0.19934037
  0.2852273   0.42931166 -0.07894685  0.49351025 -0.6729212   0.0903839
  0.53896797  0.18720764 -0.3331131  -0.18882802  0.04423712 -0.17793229
  0.05250501 -0.03655277 -0.09065122 -0.25012654  0.1870522   0.08631654
  0.01837416  0.08443704  0.47576973 -0.2339478 ]
[ 0.10714212 -0.39096618 -0.22822917 -0.14129554 -0.03358939  0.11589521
  0.06217028 -0.19931136  0.04710425 -0.00856928  0.06991892 -0.04765028
 -0.03955408  0.07842983 -0.10770496 -0.08689511 -0.07143069 -0.06942682
  0.0475098  -0.12496059  0.1246515   0.09049498 -0.0502809  -0.05268619
 -0.06348385 -0.21514145 -0.11187799  0.11991899  0.01824445 -0.11422832
  0.30627984 -0.03265645  0.18834835 -0.0960643  -0.00494017  0.00921223
  0.03290774 -0.13788453  0.03319539 -0.05763477]
layer 3 Activation
tanh
layer 4 Dense
40 20
[-0.21142673  0.22226016  0.30420232  0.40666768 -0.17663327 -0.08196865
  0.1903866  -0.22959353 -0.11703407  0.23433864 -0.01923402  0.44238153
  0.14175667 -0.05937898  0.14110982 -0.3063633   0.22090532 -0.18870912
 -0.13320443 -0.19116642]
[ 0.10534562 -0.06734    -0.17814316  0.10271991 -0.23088542 -0.08673012
 -0.08800299 -0.3082765  -0.04001443  0.00839405 -0.02038599 -0.43623516
  0.3007798  -0.27017686  0.13686198  0.29382187 -0.10918584 -0.09098417
  0.0365873  -0.07780153]
[-0.04358719 -0.1710579   0.00607829 -0.06693237 -0.03808734 -0.02523728
  0.25077704 -0.15923499 -0.23202702  0.18416089  0.27017656 -0.5438611
 -0.16269705  0.17267008  0.0633797  -0.18495546  0.13623568  0.14363019
  0.0032688   0.24353833]
[ 0.32742986  0.01081832  0.12201432  0.02230862  0.09939151 -0.0503072
 -0.22507259  0.33180827  0.20457414  0.11221877 -0.33263698 -0.44701844
  0.00359525  0.32576755 -0.22063331  0.08279882  0.13860963  0.03870631
  0.23077546  0.20679255]
[ 0.06033421 -0.01839196  0.34759772  0.0338884   0.04072798  0.02558869
  0.44193342  0.21922472 -0.16901961 -0.18031248 -0.16098522  0.13632944
 -0.10236996  0.23146452  0.04527979  0.06809045 -0.18026556  0.09443301
 -0.02197748 -0.02094866]
[ 0.0226245  -0.23764545  0.13513723  0.10359198  0.14669284 -0.12653391
 -0.0402484  -0.10395972 -0.07360987  0.43248674 -0.03184664  0.070748
 -0.24026966  0.15132378  0.17205596 -0.139455    0.25284934 -0.22908267
  0.02136379 -0.01742144]
[ 0.23709297 -0.24851811  0.01560934  0.2742064   0.05350234  0.12575789
  0.04565964  0.08842679 -0.24743207 -0.21418622 -0.16376871  0.28611305
  0.01188854 -0.1112505   0.2023389   0.15916793 -0.21987842  0.02893165
 -0.09830724 -0.3070981 ]
[-7.5888917e-02  2.9707637e-01 -2.8243428e-01  3.1706148e-01
 -2.9977530e-01 -1.3068923e-01  1.2589999e-02  1.5153707e-04
 -7.3263206e-02  1.7901640e-01 -1.4115834e-01 -9.0395965e-02
 -5.5458870e-02  1.3669313e-01 -1.4217134e-01 -1.6848862e-01
 -1.8995570e-01  9.9529222e-02  2.3077886e-01 -8.2747839e-02]
[-0.01170517 -0.11236858  0.14195159  0.10809217  0.06740161 -0.13919649
  0.11105462 -0.13212687 -0.15629293  0.2969059  -0.15795577 -0.13046004
 -0.06999142  0.02282954  0.09610332 -0.23117113 -0.00429362 -0.02196676
 -0.04553839  0.33529037]
[ 0.48342615 -0.2830006  -0.03828466  0.07950968  0.27913725 -0.12512997
  0.14063205  0.24459358 -0.21754052 -0.17128022 -0.24503942  0.21639585
  0.18083702 -0.05571044  0.0789149   0.36509433 -0.05163701 -0.28267363
 -0.21625626  0.31869206]
[-0.05595959 -0.15459214 -0.17146952  0.040551   -0.0026688  -0.20014533
 -0.2913753   0.09136087 -0.01309405  0.1187573   0.23077108 -0.00805673
 -0.05652598  0.24381949  0.15202719 -0.10882028 -0.18826997  0.11314376
  0.09463711  0.1365374 ]
[-0.10324738  0.09976397 -0.24314922  0.1599403  -0.13545512  0.22083354
 -0.3394663  -0.1832789  -0.28169233  0.23752269  0.12398362  0.10507483
  0.23278767  0.11394959  0.08872607 -0.15977132 -0.17437942 -0.01136577
 -0.07750115  0.08674952]
[-0.07191206  0.42725444 -0.06404548 -0.14826958 -0.1383002  -0.10492773
 -0.06804414  0.10938817  0.32434583  0.2040509  -0.21152358  0.0919178
 -0.27931106 -0.01474745 -0.089442   -0.41380024  0.12047484 -0.15805699
 -0.06104143 -0.29885837]
[ 0.30217966  0.10414638  0.24702406 -0.01020979  0.01493528  0.07958075
  0.24182121  0.18436001  0.26128957 -0.02039414 -0.2603385  -0.07214256
 -0.12007201  0.21960522 -0.10921049  0.05289314  0.24354662 -0.07450362
  0.13534236  0.38654914]
[ 0.04395592 -0.15038836 -0.0044576   0.20727624  0.08056036 -0.21178313
 -0.22612163 -0.03666138 -0.27374876  0.22515428 -0.4685139   0.12587397
 -0.44064313 -0.01001393  0.03520024 -0.07045669 -0.07387674 -0.12152244
 -0.02825524  0.0876634 ]
[ 0.15469073 -0.08777131  0.09812503 -0.20644438  0.05825354  0.22606215
  0.21790682  0.18258402  0.15875846  0.3458544  -0.38998234 -0.1972384
 -0.1578814  -0.03533009  0.01697528 -0.26536813  0.18554671  0.14068815
 -0.11524906 -0.10927522]
[ 0.22427382 -0.18134485 -0.03358833 -0.01926422  0.04677819 -0.00827939
 -0.22583437  0.01874823  0.31884465  0.36365858  0.13412386 -0.23981713
  0.02984702  0.08722407 -0.3236995   0.26808938 -0.01784856  0.05256025
  0.15958147  0.2968606 ]
[ 0.01128067  0.2919318   0.10000033 -0.01580501  0.21287383 -0.04933612
  0.0098274  -0.14459574  0.18064232  0.12628841  0.0441866  -0.30650896
  0.1920836  -0.00856308  0.06558412  0.23206282  0.10488227  0.01664344
  0.07844563  0.20713517]
[-0.04020519 -0.08939739 -0.06003483  0.01532424 -0.00774567  0.25213137
 -0.05381645  0.0023135   0.10179909  0.39464676  0.16953096 -0.18989162
 -0.01991158 -0.24075727 -0.10448519 -0.1116208  -0.04543427 -0.2174891
  0.01028816  0.3294271 ]
[ 0.2539213   0.30283353  0.06846567 -0.14024943 -0.1832764  -0.0327256
  0.11544425  0.17249961 -0.15176202 -0.00238339 -0.384552    0.07608654
 -0.00231859 -0.06213629 -0.26407605  0.08225866  0.20247088  0.23881428
 -0.15948333  0.0084888 ]
[-0.1633692   0.05361414 -0.14631316 -0.22828011  0.2938594  -0.1125647
  0.44477633 -0.09823658  0.25781476  0.034497   -0.06041469  0.13331865
  0.05431621  0.00191139  0.17216218 -0.0464782  -0.04247076  0.00199673
  0.18583818 -0.1589635 ]
[ 2.2379965e-01 -2.2947779e-01  1.0190721e-01  8.6634606e-02
 -3.3753368e-01  7.9914749e-02 -7.9162471e-02 -8.3723324e-05
  1.6869229e-01 -1.4166941e-01 -1.6741784e-02  5.9111899e-01
 -3.9877710e-01 -3.8374182e-02 -1.8603197e-01 -1.5774211e-01
  1.8914530e-01  1.3398622e-01  1.2388208e-01  6.7190625e-02]
[-0.30057883 -0.23012452  0.1503696   0.08139078  0.07035464 -0.05112169
  0.09420417 -0.13662803 -0.0954589   0.02399457  0.16295815 -0.48597756
  0.22320853  0.08811954 -0.2471572  -0.26095948  0.15225492 -0.17285211
 -0.05388028 -0.26089492]
[ 0.28358305  0.4380986  -0.15853767 -0.11409339  0.15390816 -0.24411605
 -0.18259369 -0.17728838 -0.20834792  0.00123604 -0.32419544 -0.11553676
 -0.10174959 -0.24039172 -0.02716161 -0.16702408 -0.05509472  0.09822527
  0.24319021  0.02176508]
[ 0.2573364  -0.20479053 -0.31231374  0.07372863 -0.1264186   0.1742899
  0.13707493  0.06595713 -0.1370389   0.26220843 -0.40065467  0.02824437
 -0.22915822  0.12881066  0.1376235  -0.16104956  0.05141428 -0.1700907
  0.21391235 -0.00738248]
[ 0.12058843  0.28920117  0.04912958 -0.03277911 -0.11036161  0.0424394
  0.3864093  -0.01683616 -0.15437563  0.15231109 -0.2627345  -0.36339033
 -0.06037156 -0.23981208  0.01269547 -0.20127511  0.01559688  0.27912772
  0.03318202 -0.16862372]
[ 0.26034555  0.32984853  0.21620186  0.03207352  0.18713602 -0.0839415
 -0.10955644 -0.3027865   0.32017848 -0.06261821  0.15835655 -0.3159648
  0.30445677  0.18031892 -0.10395011  0.25031483  0.13016883 -0.12458876
 -0.07199652  0.15786201]
[-0.07869899  0.08743922  0.35559818  0.25605536 -0.10042126  0.16982518
 -0.08299614 -0.07809742 -0.23290636 -0.17963019  0.45266813  0.61911714
  0.31016496 -0.10386454  0.07562473 -0.21428737 -0.19236335  0.1118902
  0.15280038 -0.03223618]
[ 0.05471333 -0.12115632 -0.03425977 -0.02626266 -0.05040202 -0.2327046
 -0.3265248  -0.07470462  0.1643079   0.2119778  -0.13430172 -0.04618688
  0.19994263 -0.16210072  0.16520084  0.25702646 -0.04213187 -0.2004177
 -0.07862192  0.14266807]
[-0.05057681  0.08632416 -0.08232867  0.04074418  0.19298097 -0.01992592
  0.14400594 -0.0121424  -0.2413633  -0.35802042 -0.15354954 -0.14781609
 -0.06534228 -0.09734564 -0.16591741 -0.09043478  0.09948363  0.12984726
  0.09108223 -0.21907084]
[-0.08852044  0.10833348 -0.26984507 -0.00836427  0.21070968 -0.0305703
  0.12537216 -0.55863535 -0.28838265  0.18590316 -0.04605662  0.21852912
  0.23752674 -0.00625269 -0.19069132 -0.16846804  0.16093689  0.04520843
 -0.10002733 -0.02923082]
[ 0.19507357 -0.14567596 -0.05112316 -0.18828999  0.1676678   0.03411208
  0.04841682  0.0203866  -0.152973   -0.14700195 -0.1817747   0.15174824
  0.00516296  0.01135433 -0.3132631   0.05827419  0.10117906  0.0531613
 -0.16998307 -0.32026136]
[-0.05280595  0.04366389  0.04116977  0.07554218 -0.04499511 -0.16607353
 -0.07307636 -0.26779523 -0.0248557  -0.02068449  0.08275619  0.07820654
  0.07390399 -0.23971675  0.03802256  0.15636018 -0.10854375  0.10199901
  0.07262383  0.03429588]
[-0.18838759  0.25964022  0.18058293 -0.2243639  -0.25995043  0.12181035
 -0.17222796 -0.297148    0.15978462 -0.10983104  0.25272653 -0.4591983
  0.22574888 -0.16784509 -0.01483174  0.01586189 -0.01193109  0.21770217
  0.00607838 -0.01635431]
[ 0.13956249 -0.19485332  0.09957384 -0.02850833 -0.01755373  0.05303274
  0.10904828 -0.14894561 -0.07467702 -0.15803804 -0.2033267  -0.30883628
  0.25704798  0.11753719 -0.34472772 -0.24215625 -0.31195933 -0.17301065
 -0.18989769 -0.19835393]
[ 0.01427201  0.15796761 -0.12308683  0.24107036 -0.11642985 -0.14468192
 -0.1616931  -0.11913937 -0.01325486  0.16200395 -0.03517143  0.2193578
  0.02221394 -0.39928567 -0.12118898  0.00421741 -0.092002    0.06568719
  0.02624651  0.2037524 ]
[ 0.10736891  0.3594929  -0.24698411 -0.11926139  0.02142783 -0.16447571
  0.2151138   0.02519778  0.19021013 -0.43402544  0.15207571  0.04784166
  0.00497001  0.06236883  0.02660001 -0.08195268 -0.26718432  0.01301622
 -0.16381882 -0.1353063 ]
[-1.9589299e-01  3.4433278e-01  1.5292646e-01 -1.2741135e-01
 -4.0150597e-05 -1.1161469e-01 -2.2054303e-01 -9.6592128e-02
 -7.5823553e-02 -7.0024744e-02 -3.7546355e-02  3.2204095e-02
  3.1863469e-01  2.8348210e-01  3.4184152e-01 -4.0567541e-01
 -6.5801002e-02 -1.8497552e-01  1.2043291e-01 -4.0271059e-01]
[ 0.32964167 -0.08614273 -0.08480249  0.11566173 -0.25107247 -0.17576358
  0.10328114  0.20056914 -0.1806278  -0.28601325 -0.36932963 -0.0891405
  0.05124191 -0.10670381  0.07963546 -0.15261778  0.13761787  0.23115012
  0.20673217  0.0309124 ]
[-0.22163859 -0.25794116 -0.2081498  -0.01612721  0.15852635 -0.15717919
  0.10441512 -0.17183414 -0.2764404  -0.03037241  0.18022008 -0.03772697
  0.00789509  0.08894552  0.01020197 -0.16744204  0.06331446  0.12515703
 -0.2065474   0.10851093]
[-0.11085567  0.02214199  0.05624621  0.04000882  0.00701322 -0.00904313
  0.08850688 -0.09423865  0.0677207   0.05797376 -0.01433256  0.2182347
  0.0018152  -0.02871574 -0.04211923 -0.1374879  -0.05964411 -0.06306582
  0.07350426 -0.09801523]
layer 5 Activation
tanh
layer 6 Dense
20 1
[-0.17987104]
[0.06160306]
[-0.00444413]
[0.01973271]
[-0.03047625]
[-0.00123145]
[0.01198553]
[-0.00709153]
[-0.01965684]
[0.06714635]
[-0.14550295]
[-0.07814613]
[-0.07927711]
[0.00316698]
[0.01441439]
[0.01847748]
[0.01154708]
[-0.00046398]
[-0.00180019]
[-0.07481683]
[0.02475419]
