layers 7
layer 0 Dense
20 20
[ 0.5963395   0.7471023  -0.3912446   0.32583222  0.31996787  0.02797748
 -0.60629725 -0.08216535 -0.1099377   1.007562    0.12210832 -0.05242497
 -0.33718386  0.13763376 -1.0434949   0.8353003  -1.1742924   0.66630214
  0.40195912  0.09617697]
[ 1.159195    1.1476239  -1.0173819  -0.4199719   0.62423813 -0.6470871
  0.8268118   0.5572397   0.6374629   1.0674989  -0.8020781   0.49125123
  0.3977195   0.5094939   0.2522682  -0.34851912 -0.7514805   0.88028616
 -0.10832077  0.51514566]
[ 1.230686    0.62706715 -1.1704793  -0.4068189   0.44746652 -0.70104593
  0.892223    1.1412165   1.171333    0.83419234 -0.77775794  0.35197735
  0.47605088  0.5736223   0.40672967 -0.30827367 -1.0178353   0.4774595
 -0.46649343  0.989093  ]
[ 1.4080184   0.74363565 -0.8821101  -0.3570322   0.3379343   0.5403757
 -0.40722755  0.20425352  0.3737311   0.9093136  -0.21461794 -0.24015206
 -0.06145471  0.5640736  -0.06010904  0.5381432  -0.8375942   0.31632596
  0.39153334  0.42279845]
[ 0.06736279 -0.3477831   1.2608523  -0.58715993  0.17631203  0.04611503
 -0.03947541  0.18713124 -0.31632987 -0.1207936   0.9250245  -0.02789764
  0.9328054  -0.31123257 -2.3943458  -1.1544807  -0.26078478  0.9655592
  0.9061162  -0.27985156]
[ 0.30420446 -0.03276443  0.4786736  -0.2207123   0.4535229   1.0293652
 -0.6139599  -0.43242386 -0.7648136   0.3273193   0.38316867  0.47923213
 -0.2739005   0.5327049   0.14764576 -0.22210278  0.5357936   0.8569238
  0.08418632 -0.44798282]
[ 0.3310424  -0.1267949   0.5077183  -0.24371804  0.31427515  0.9701208
 -1.2486895  -0.09945331 -1.3016138   0.17736706 -0.03400833  0.17260233
 -0.6811854   0.6035867  -0.2559974   0.08844166  0.54428536  1.0646862
  0.22632167  0.02192659]
[-1.5148557  -1.7130895   0.6503184   1.246184   -0.8843463   0.45147943
  0.31658596 -1.1687642   0.4369417  -1.5501901   0.02381669 -0.65994847
 -1.2542403  -0.87723255  1.1775943   1.5373801   1.0656928  -1.9316638
  0.24903224 -0.19935714]
[-3.8135359e-01 -5.9498269e-02  1.5016903e+00 -2.6012614e+00
  2.6412106e-01  2.0114730e-01 -2.4040399e+00  7.0771956e-01
 -9.4773185e-01 -4.2311630e-01  6.8658864e-01 -8.7521136e-01
  9.6136403e-01  1.3964535e-01 -1.5451388e+00  9.1550581e-04
 -4.9836937e-01  6.3077265e-01  6.3865250e-01  3.4036583e-01]
[ 0.00130506  0.09177486  1.1158661  -0.47812456  0.0966051  -0.20144923
 -0.78756183  0.7478631   0.83250386  0.207176    0.8969168   0.556029
  0.6950542  -0.22491948 -0.6266544   0.15427864  0.39095575  1.0621712
  0.7450334  -1.2333174 ]
[-0.38985342  0.56505543  0.7394472   0.4930466  -0.12396064 -1.7991785
  1.0591439   0.87778646 -2.445671   -0.4071087  -0.37332243 -0.9628846
  0.2141781   0.7399443  -2.2086632   0.899947    0.844832    0.38873637
 -1.3703073   1.3999745 ]
[ 0.7271714  -0.66171503 -2.486567   -0.21087344 -3.1240947  -3.4002838
  0.06208254  1.0849841   4.072049    0.20613942  0.31436858 -2.6974928
  2.259613   -1.2025284  -2.0167756   2.4102054  -1.3418869   0.17903526
 -2.242792   -1.8226323 ]
[-0.36099127 -0.27470937  1.6854988  -1.6030012   0.96475863  1.2361122
 -0.9853953  -0.5980948  -1.2705549  -0.54692525  1.0733591   0.61305696
 -0.19676098 -0.47462717 -1.2824699   1.1502079  -0.49830604 -0.73255104
  0.34507677 -0.32606965]
[ 0.05569546 -0.37635124 -0.2713236   0.08173019  0.4058561   0.04530544
 -0.0984771   0.598384    0.03783506  0.06685241 -0.6283853  -0.21186955
 -0.04554631  0.04814075  0.32031602 -0.7955116   0.52131075 -0.03528754
 -0.5949964  -0.03903314]
[-0.2270614   0.00894616 -0.17590788 -1.4887823   1.8978491   1.841777
 -0.8456055  -1.0720024   0.9532616  -0.15675047 -1.1200941  -1.8579392
  0.24635524  0.32950443  0.66576785 -2.941584   -0.96293217  0.9055921
  0.7236052  -1.279394  ]
[-0.09958586  0.11263376 -1.5312293  -1.0342281  -0.02398628 -1.6956348
  2.8822868  -1.6986693  -0.34342948  0.12394023  0.17320164 -1.4683013
 -1.239085   -1.5668118   0.24182935  0.53131974 -2.4740286  -1.6123106
 -2.5843642  -0.56469625]
[-0.4647426  -0.9618407  -1.0458734   2.4760377  -2.4557593  -0.23688097
  0.12551202 -1.2508559   1.9035813  -0.5686876   0.6998142  -3.7674608
 -0.8709624  -1.3965802  -1.8337343   1.103546    1.0376636  -0.5118578
  2.1831477   0.2623351 ]
[-0.19980715 -0.5039418  -0.58080566  0.80249447 -1.4413036   0.9589067
  2.1094875  -4.638764   -3.7419376   0.02862131 -1.7401918  -0.12101822
 -2.7048085   2.0318706   0.39903784  2.51113    -2.2902741  -2.0957565
 -0.18486983  1.6004868 ]
[-0.09360264  0.44690338  0.13111477  1.2931931  -4.509008   -1.3668776
  1.4691614   0.49048162  1.6484337   0.18010871  2.1504502   3.6601105
 -0.92736584 -2.0196059   1.4968097   3.0624716  -0.4026751  -2.3606558
  0.3110055   0.2769557 ]
[-1.1804338  -0.05517642  0.83279836  3.7159548   0.0166771   4.159576
 -4.082402   -0.94900215 -0.85213727 -1.2527161   0.83566195 -0.40299824
 -1.4055246   0.04157688  0.40837824  2.9073396   1.2152858  -1.482955
  3.8691685   0.4446549 ]
[ 1.2411026   1.0913585  -0.7374388  -0.19758561  0.4670593   0.04432124
 -0.15895584  0.5171925   0.04584131  1.0488999  -0.40369397  0.65856725
  0.30629292  0.53951687  0.16390586 -0.6683437  -0.43538582  0.86574936
 -0.28920096  0.23791558]
layer 1 Activation
tanh
layer 2 Dense
20 40
[ 1.379252    0.44642293 -1.5927558  -1.383392    0.5928887  -1.3579569
  1.288287    0.90408695 -1.060538   -0.03953036  1.288535   -1.123841
  0.8929232   1.0658338   0.75224257  0.7031885   0.8383321   0.8092306
  0.71747035  0.8434821  -0.3691843  -0.6270602  -0.64705807  0.7102333
 -1.2647047  -1.0043869   0.98223984  1.1123295  -0.9207463   0.11399104
 -0.92586213  0.22158593 -0.81678694 -0.25396627 -0.81624895  0.58214265
  0.2462801  -0.9001936   0.5128276   0.5996358 ]
[ 0.57099044  0.44702706 -1.1221087  -0.7278253   0.51405114 -1.5969886
  1.0078259   0.62286884 -0.5365389   0.2352739   1.1501997  -0.65452045
  0.5206413   1.240234    0.9651746  -0.58435476  0.16528104  0.19581613
  0.23810078  1.4582307   0.26970074 -0.88929164 -0.47320077  1.0079626
 -1.0486321  -0.3254323   0.7064045   1.1029177  -0.59385824  0.65659714
 -0.66788644 -0.13505194  0.30092078  0.6427866  -0.85245407  0.5933686
 -0.4482283  -0.46834314  0.51869637  0.28371993]
[-0.48632115  0.2424783   0.12408172  0.03627115 -0.81322724  0.15194084
  0.05477905 -0.91575617  0.5274736  -1.3578153  -0.97053325  0.3956482
 -0.32300717 -0.5795022  -1.3622195   0.62290865 -1.0956155  -0.62655765
  1.0906696  -0.5365032   1.8431593   1.7075967   0.81498367 -1.9467472
 -0.09184     1.1174691  -0.34709433 -0.9781601  -0.8839118  -0.10420648
 -0.33440727 -2.2756567   0.0357742  -1.6211069   0.6400267  -0.10593218
 -1.4160194   1.7509584  -0.30519933 -1.2389908 ]
[-0.36632624  1.2981421   0.5545118   0.1513474   0.10757617  0.13696833
 -0.750757    0.21457916 -0.39962846  1.4549973   0.48546657 -0.27943587
 -0.070344    0.09432391  0.23473385 -1.4468765   1.5032496   0.19759418
 -0.97195196  0.36063462 -1.3447393  -1.4910872  -0.17483339  0.52942175
  0.5431107  -0.14715572  0.12094199  0.08103564  1.4928101   1.7156802
  0.22439699  0.7252153   0.25590795  0.3638663  -0.33990872  0.9007778
 -0.378683   -1.3169036  -0.6015304   1.2202176 ]
[ 0.67984426 -1.7435285  -0.73249674 -0.9731294   0.7723187  -1.2703635
  0.27106017 -0.33500227 -0.44265708 -0.6919815  -0.0369469  -0.00606838
  0.46637422  0.09793939  0.4799559   1.2979317  -0.90041804  0.33009046
 -1.0428364   0.08106263  1.4995286   0.33758733  0.7491068   0.13949099
 -0.536521   -0.27218366  0.13247672  0.57548714 -2.045701   -1.4042203
 -1.2578244  -1.1235379   1.5151334   0.593101   -0.33414894 -1.4798654
  0.05401199  1.4824325   0.83177274 -0.5775051 ]
[-0.10121209 -0.98608667  0.23439251  0.560911    0.01755947  1.0525905
 -1.2703745  -0.7282407   0.2851667   0.17069371 -0.34136677 -0.1290366
 -0.06646658 -0.25753024  0.3226149   0.9199107   0.70859057 -0.44791424
 -1.5163589  -0.26616114 -0.38051808  0.9617976   1.4471639   0.44328764
  1.1669986   0.16613518 -0.18435962 -0.5898262  -0.14111914 -1.5617304
 -0.05763433 -0.63359344  1.4860535   0.7771207   0.46267316  0.47981897
 -1.1982933   0.6923293  -0.7126191   0.06802977]
[-0.56294864 -0.7972132   0.90443814  0.7469279   1.406714   -0.79889685
  1.7012318   1.3482412   0.8186427   1.5627358   0.0560459   0.3588526
 -0.316585    0.06988411  0.38546705  0.8087636  -0.05974854 -0.32025957
  0.48488948  0.23859173 -0.22232942 -0.26266074 -1.3248397  -0.7328
 -0.23240514 -0.19634274 -0.19161405 -1.5026469   2.72117     1.2689492
  0.5689736   1.5212548  -2.5295563   0.5289093  -0.74750036 -2.3122127
  1.5451437  -1.5000143   1.0051436   0.24768327]
[ 0.44354033  0.15195817 -0.35702074 -1.184041   -1.6123168  -0.13491097
  0.15187098  0.5014176  -0.37695584 -1.3615171   0.42874238 -0.08309653
  0.3069069   0.2492589   0.14768754 -1.3722994  -2.1314225   0.16334316
  0.79196906 -1.7729274   2.125304   -0.8201916  -0.28829205  0.18392842
 -1.0749893  -0.13650717  0.00444533  0.64523983 -1.2791678   0.58998543
 -0.74433225 -0.6400488   1.3025497  -0.2533717   0.04619428 -1.1161004
 -0.0817634   1.5081371   0.70572066  0.6233704 ]
[-0.60750484  1.7355125  -2.6960642  -0.11822304 -2.0578852  -0.3052411
 -0.5689494   1.7552323   0.37870678 -1.8751417   0.22392675 -0.05422068
 -0.65334934 -0.07136326  0.41778514  0.7619662   1.2802877   0.48229575
 -1.1009834   0.76706386 -1.3588158  -0.8813197   0.5067072   0.56611025
 -1.1415694  -0.27446115  0.09317771  2.5339153  -0.48231265  1.251286
  0.0857963  -0.96497476  0.7803927   0.5273042  -0.443117    1.4291284
  1.1482453  -1.3492708  -1.0567842   0.65539527]
[ 0.97929984  0.09932268 -1.0921687  -0.81823754  0.69809395 -1.4024142
  0.9385517   1.0101197  -1.4447802   0.11069466  1.09359    -1.0971575
  1.112485    1.387681    1.2364154   0.2458287   0.9722864   1.5003825
  0.49282002  0.9443736   0.1109732  -1.256207   -0.43227512  0.8285674
 -1.3028141  -1.238534    1.2348094   1.008923   -0.16332088  0.43636483
 -1.2352616   0.613864   -0.8373337   0.2540913  -1.322635    0.53539836
  0.46623263 -0.9041627   0.51154935  1.2446678 ]
[-0.3700937   1.1529272   0.6170674  -0.03412256 -0.77067316  0.4666426
 -0.41460797 -0.26954773 -0.28987288 -1.2875637  -0.49867103  0.45459613
  0.08915555  0.24104689  0.3677542  -0.4429863   0.22188717  0.33648223
  0.72109205  1.1739699   0.06669622  0.3084609   0.5365193  -0.9149926
 -0.28990927 -0.04558622  0.40233704 -0.1313104  -0.526157    0.936426
 -0.7382813  -1.2862818   0.72011936 -2.5395505  -0.25097048  0.34239882
  0.3045021  -0.11896863 -1.3909386  -0.19196334]
[ 0.6356503  -1.3702861   0.43166813 -1.4662772  -0.22395419  0.38252118
  0.42189702 -0.65829444 -0.78577125 -0.77683425 -0.2590185   0.04237089
  0.5252721   0.31264028  0.10813984 -0.7334657  -0.6827795  -0.14165288
 -0.1589881   1.4645056   1.4573516   0.37416035  1.0209309  -0.6425171
  0.4575951   0.20096269  0.08532547 -0.4422004  -0.6826031   0.25391808
 -1.605883   -0.21093109  1.1512455  -1.7662852   0.51041305 -0.9940523
 -0.50919276  1.0952005  -1.0038608  -0.38685736]
[ 0.24584147  0.13168722 -1.2139844  -0.9991189  -0.7080849  -0.20798936
  1.2421051  -1.0995501  -0.2808639  -1.4827727   0.36138925 -0.16401231
 -0.04929935  0.11272114  0.44384125  1.1468779  -0.8413237  -0.17629759
  0.91589636 -0.8185701   0.42755526  0.02270116 -0.3387751   0.2145849
 -1.2069446  -0.4146712  -0.24844588  1.0013287  -1.0412351   0.4430648
 -0.3459609  -0.7796336  -0.1857263   0.68152505 -0.0847154   0.26644573
 -0.16606648  0.9053546   0.97780526 -0.25977224]
[ 0.09138685 -0.18062603  0.17769736 -0.7735124   0.80558956 -0.75661725
  0.79962933 -0.02422379 -0.2061479   0.791047    0.45719746 -0.45364025
  0.16677792  0.42706302  1.1762345   0.9781537   0.03739649  0.19535938
 -0.32500982  0.5161467   0.5749811  -0.94256604 -0.37225989  0.8856421
 -0.4626414  -1.2048758   0.05776833  0.37119895  0.60798156  0.2725244
  0.25296903  1.0334481   1.6693215   0.24061456 -0.2658021   0.33123264
 -1.151508   -0.1734995   0.9659795   0.5287784 ]
[ 0.75887066 -1.7999778   0.82854456 -0.3790377  -0.02463196  1.6754884
 -0.81575495 -0.4589133  -0.72797906 -1.2303121  -0.24062626 -0.21441042
  0.42197448  0.33737788  0.7605107  -1.1311023  -0.3064685   0.3745482
 -1.1692544   0.7493805  -0.3356224   0.3579623   1.7160549  -0.22220868
  1.0115422  -0.46116796  0.33486503 -1.2319388   0.87720305 -1.5222285
 -1.7346021  -0.21989574 -1.8454193  -0.51907235 -0.55893564 -1.2183932
  1.5569011   0.3012894  -1.1926845  -0.5922633 ]
[ 0.7428859  -1.0770897   1.875254   -0.20671597 -0.8330806   1.2023082
 -0.46887228 -1.9026557  -0.22399041 -0.29126734 -0.29590523  0.1980028
  0.23163651  0.23256299  0.19719476 -1.6429808  -0.0199159  -0.17377582
  0.03594748  1.1436915   0.68224335  0.567116    1.3624743   0.1351592
  1.411333   -0.12545374 -0.0184129  -2.0646      0.22497047 -1.1145959
  0.09333728  0.8279272   0.4130326  -1.0745149   0.4095879  -0.75888824
 -0.2241699   0.26314822 -0.49220306 -0.41566077]
[-0.9402997  -0.2785649   0.23520136  0.00185812  0.24480072  0.36039108
  0.2761673  -0.989722    0.89956367  0.03177217 -0.85192347  0.6580218
 -0.8758623  -0.613919   -0.7409455   0.10098454 -1.4615977  -0.6318559
 -0.01658635 -0.41103783  0.546268    0.5655198   0.6324947  -0.15971024
  0.16123939  1.0631417  -0.5964231  -0.4263765  -0.11380316  0.2103266
  0.8074972  -0.07056072  0.36269012 -0.26467836  1.1629326  -0.49919012
 -0.48822412  0.55713093  0.07603325 -0.69030255]
[ 1.5047072e-01  5.6932610e-01 -1.5103804e+00 -9.5268369e-01
 -5.3166598e-01 -9.5129579e-01  1.2900119e+00 -2.2355868e-03
  3.1086998e-03 -2.5360948e-01 -1.1714068e-01 -7.9449959e-02
  2.6906663e-01  4.7810611e-01  9.7320676e-01  2.3545415e+00
 -2.3222938e-01  3.6907214e-01  1.0673475e+00 -5.4676247e-01
  6.1682731e-01 -7.2430664e-01 -7.2990060e-01 -6.0866863e-01
 -9.7568774e-01 -1.9524770e+00 -3.9594364e-01  1.3130513e+00
 -1.2221326e+00 -4.8035972e-02 -1.4130890e+00 -3.7785444e-01
  9.4548696e-01 -1.3177185e-01 -7.2027284e-01  8.4704459e-03
 -1.4429454e+00  2.8010139e-01  1.8154402e+00  5.2715158e-01]
[ 0.17781481  0.74982196  0.40685093  1.020199   -1.4860613   1.3809718
 -1.4728904  -1.3214167  -0.7348919  -0.3986584   0.2902163   0.18404017
  0.32381424  0.4342838  -0.20838071  0.37800187  0.65414625 -0.133913
  0.6001865  -0.324514   -0.34371114 -0.13132031  1.3123416  -0.5725927
  0.77674437  0.15811574  0.14163171 -0.24923971 -0.6338486  -1.2984071
  0.5966096   0.2340536   0.08189666 -0.3918596   0.14070171  1.9677639
 -1.3288544   0.12225843 -0.83143556  0.2176315 ]
[-0.06434462  0.04530042 -0.12517619 -0.54138434  0.68091685 -0.95537925
  0.28789076  0.1888913  -0.47624165  1.38348     0.21050605 -0.45728847
  0.14213507  0.50002867  0.2547884   0.25873646  0.19343317  0.35598776
 -0.45383114 -0.21123715  0.6802319  -0.3089474  -0.00715736  0.3733223
 -0.01330084 -0.30118766  0.36437002 -0.32038012 -0.0348705   0.03308571
 -0.76256025  1.5613809  -0.21488705  0.5697996   0.24182446  0.21723326
  0.21624406  0.34065208  1.0570384   0.17224342]
[ 1.0837127   0.15340233 -1.098389   -1.1348821   0.6819349  -1.126684
  1.0857763   1.0633887  -1.4037557   0.3913695   1.0323018  -0.7923931
  1.2289593   1.1412711   1.0465612   0.33138365  0.91293275  1.1642572
  0.4977281   0.93731755 -0.199386   -0.8697979  -0.63992345  0.53358114
 -1.2325985  -1.2861316   0.8622791   0.76549196 -0.02301876  0.07847697
 -1.0047375   0.4312378  -0.6864179   0.05481232 -1.4013058   0.6792185
  0.29163405 -1.0308565   0.382488    1.152327  ]
layer 3 Activation
tanh
layer 4 Dense
40 20
[ 0.37555695  0.23284169  0.8306697  -0.54763055 -0.6691613  -0.7301177
 -0.23457675  0.35173348 -0.6722975  -0.3652602   0.38562307 -0.4842481
  0.23648569 -0.40017992  0.68794125  0.37851912  0.810983   -0.06146853
 -0.45435765 -0.864186  ]
[ 0.8830423   0.635037   -0.13225746 -0.61948985  0.30395728  0.0026611
 -0.2725758   0.13031623 -0.59337825  0.32149294 -0.21143995 -0.8137799
  0.41811645 -0.14090341 -0.12440187  1.13522     1.2666979  -0.29036978
 -0.4266796   0.30046675]
[-1.2782602  -1.0009005  -0.01134943  0.99677116  0.34750384  0.25565368
  1.4130634  -0.77051514  0.573399   -1.4715295   0.09853484  0.41096792
 -0.30122733 -0.09456663  0.11703338 -1.0458184  -1.1650424   0.28393623
  0.74048394 -0.14019522]
[ 0.02325928  0.4225895  -0.45342433  0.01508036  0.3580602   0.3229869
  0.5648142  -0.3720402   0.709678   -0.3213551  -0.4479046  -0.08703063
 -0.37349936 -0.18196237  0.25614327 -0.3749      0.05523217  0.6577318
 -0.00311274 -0.19841965]
[ 0.9658771   0.14633696  0.3215569  -0.69991314 -0.3145027   0.17675635
  0.55065405 -1.028755   -0.8502502  -0.6142295   0.10241907  0.14918473
 -0.36718923 -0.05472443  0.10064255  1.3326699   0.05347313  0.5398701
  0.13919063  0.12534852]
[-1.7116934  -1.0091871  -0.39980775  1.3832823   0.3456171   0.4262215
 -0.17046791 -0.05871593  1.3947217   0.33769202 -0.3813032   1.2558018
 -0.38326374  0.11009984 -0.3455114  -1.5287482  -1.098577   -0.16654289
  0.8946497   0.3930035 ]
[-0.08735811  0.01880216 -0.12903054  0.01498785  0.07271483 -0.23893595
  0.30661893  0.6416001  -0.89628804  0.14828469 -0.0735414  -0.06685586
 -0.02097509  0.00719473 -0.7580019   0.13172494  0.7234261  -0.14729181
 -0.07422168 -0.57800364]
[ 0.901259    1.0123142   0.20333171  0.01184703 -0.00620024 -0.24320018
 -1.0813221   0.88640535 -1.0122275  -0.23395284  0.15341805 -1.2740315
  0.11456238  0.31616324  0.6197644   0.55514127  1.2992164  -1.0431733
 -0.32225037 -0.15162738]
[-0.7036478  -0.14269212 -0.6659091   0.6326901   0.29784703  0.6982184
  0.22278585 -0.74958116  1.2125449  -0.30426836 -0.6251671   0.26482219
 -0.53292495  0.3158663  -0.43703973 -0.53200126 -0.38209194  0.3450266
  0.08626404  0.87229466]
[ 0.90074843  0.35791257 -0.3353145  -1.2516204   0.06522535 -0.15458201
  0.9866353  -0.43557853 -0.04883587 -0.7813352  -0.14411664 -0.37515476
  0.03487457 -0.21928598 -0.17387052  1.4425982   2.1996725   0.65438366
 -0.17563203 -0.25766367]
[ 0.37330866  1.3659086   1.3439767  -0.14856862 -0.17964755 -1.4494979
  0.29124472  0.4504147  -0.8117776   0.7780395   0.56495315 -1.3017542
  0.8267259  -0.29448375  0.66239876  0.43121648  0.6495284  -0.23532206
 -1.718595   -1.0555362 ]
[ 0.1335369  -0.19490492 -0.3385925   0.3530634   0.5894139   0.54181385
 -0.02305872 -0.53821903  0.6890977  -0.16388635 -0.22841461  0.27558944
 -0.29540628  0.4596462  -0.04728228 -0.41163674 -0.2662925   1.0538925
  0.8831193   0.9870734 ]
[ 0.49341345  0.0049541   0.5729548  -0.5324682  -0.61506295 -0.41023615
 -0.37178266  0.6859086  -1.0267001   0.03663053  0.39112878 -0.6200711
  0.5024166  -0.7461884   0.6954078   0.28173715  0.8042467  -0.5928932
  0.10570376 -0.712747  ]
[ 0.13858728  0.08035069  0.25653014 -1.0831606  -0.3180242  -0.3692938
  0.19514336  0.81583744 -0.7777854   0.4126317   0.00856961 -0.921691
  1.0089834  -0.91432244  1.2002227   0.53288615  0.94711006 -0.01697399
 -0.30259427 -0.58106804]
[-0.1421976  -0.12570511 -0.29359755 -0.82672924 -0.30566508 -0.01384093
 -0.1739794   0.5150875  -0.40859205  1.0805316   0.20819758 -0.32524413
  0.58362126 -0.5544436   0.2722445  -0.10000911  0.9878042  -0.93696743
  0.06397875 -0.40311188]
[-0.22421898 -1.0227364  -0.61191297 -0.10360296  0.3526734  -0.2953852
 -1.1973728   0.84877634  0.5608282   1.3394783   0.04401509 -0.39833397
 -0.3587107  -0.10732203  0.3196396   0.14672984  0.99487275  0.4593252
  0.15841973 -0.16437365]
[ 0.8951263   0.6668887   0.65008676 -1.2044998  -0.3724503  -0.5619463
  0.29726717 -0.04400624 -0.84135115 -0.3344029  -0.15750703 -0.475276
 -0.04125721 -0.535384    0.5035869   1.258931    1.2856615  -0.02055852
 -0.2728278  -0.5071915 ]
[ 0.20771691  0.4523613   0.7644291   0.16837764 -0.78152496 -0.85735655
 -0.0639735   0.91155404 -0.90791774  0.19020174  0.8685528  -0.5227006
  0.50596404 -0.4366757   1.1384943   0.07577309  0.59306407 -0.68475044
 -0.35302147 -0.78237295]
[ 0.226804    0.2611428   0.13058983 -0.61476827  0.40344706  0.04690444
  0.17057192  0.45758972 -0.3113378  -0.2089527   0.03506427  0.23308662
  0.4529658   0.1133793  -0.5001106   0.00537164  0.8069894  -0.25394174
 -0.66207266 -0.35666656]
[ 0.9304835  -0.07869709  0.8389967  -0.10771606 -0.15660992 -0.20306821
  0.73902506  0.28973064 -0.6760307  -0.3925691   0.3978417  -0.22004628
  0.43779737 -0.60306424  0.24882549  0.9993267   0.20862852 -0.36739948
 -0.06088383 -0.32653904]
[-1.121649   -0.49942026  0.05719875  0.60015655  0.00254524  0.16312352
  0.07138969  0.8701171   0.9662654  -0.061379    0.3240823   0.08645847
 -0.14146997  0.2691082  -0.05585134 -0.7451036  -0.97766453 -0.75037485
  0.33802786  0.09099841]
[-0.6816474  -0.79543126 -0.7429837   1.0412391   0.60141784  0.29290682
 -0.21205625 -0.59838015 -0.08625221 -0.35305727 -0.20169446  0.9883652
 -0.13219862  0.37679327 -0.6289793  -0.9069292  -0.62446845  0.66668946
  1.7426643   0.6005334 ]
[-0.6323426  -0.45833397  0.05829433  0.59487724 -0.17072178  0.10812549
  1.0340596  -0.94317305  0.35799477 -0.697334    0.41794777  0.57935905
 -0.21380533  0.27487117 -0.0172319  -0.2754457  -0.75095993 -0.07701684
  0.30232328  0.10955365]
[ 0.49380416  0.99010324  0.13414848 -0.19409667 -0.12751395 -0.33596256
  0.5345415  -0.09932876 -0.20541441 -0.62936413  0.16870546 -0.275368
  0.15727037  0.09869822  0.24220574  0.40350416 -0.6024586   0.26183432
 -0.8899155  -0.05184801]
[-1.2057306  -0.72406626  0.22681175  1.0364016   0.01303361  0.28311682
 -0.08958954 -0.72348595  0.71466064 -0.11894441 -0.16061862  0.43130243
 -0.3516531   0.20410465 -0.10460474 -1.0470399  -0.2443345   0.43919015
  0.5818679  -0.26698363]
[-0.19089271 -0.25176474 -0.59301335  0.18147399  0.754115    0.6848998
  0.21922944 -0.6977988   0.8675476  -0.65888804 -0.6476437   0.2427212
 -0.41670758  0.08066479 -1.0465506  -0.44825593 -0.63146424  0.95237064
  0.44575804  0.79991263]
[ 0.5273535   0.04957556  0.97747135  0.00566865 -0.5897217  -0.8932009
  0.04084417  0.8502681  -0.7955947   0.32019705  0.6747079  -0.6355717
  0.31624693 -0.38364792  0.34631857  0.19813803  0.54092395 -1.030075
 -0.47132197 -0.8711588 ]
[ 1.4268129   0.6567452  -0.03033222 -0.8662008  -0.13729484 -0.22324692
 -1.4163575  -1.0983891  -0.8300301   1.5488839   0.21455222 -0.45432484
 -0.20940779 -0.12162161 -0.04470066  1.4198812   1.0506659  -0.31381243
 -0.3640886   0.03104619]
[ 1.0789931  -0.04025869  0.15549271 -0.6652433  -0.1041237   0.10324031
  0.5874957  -1.0927432  -0.77617645 -0.5323648  -0.06817349 -0.24032865
 -0.45428622  0.30738935 -0.10631246  0.5414555   0.99814284  0.39714208
 -0.13340051 -0.3074072 ]
[ 1.1242576   0.8340766   0.09442613 -1.0271633  -0.29444742  0.34801865
 -0.3881527   0.2505729  -0.7504962   0.5410989  -0.06282125 -0.13430895
  0.48159173  0.2795483  -0.11174712  0.835716    0.72263074 -0.5273074
 -0.61759806  0.12129077]
[-0.13943096  0.13090153 -0.79272014  0.3315626   0.52935106  0.57958996
  0.29292864 -0.00310713  0.80172807 -0.2947279  -0.1825838   0.11673744
 -0.22965893  0.2441792  -0.6165196  -0.5788864  -0.5318864   0.79767084
 -0.00952754  0.60348713]
[ 0.23577988  0.12310547 -0.05955213 -1.0678093  -0.4518869  -0.00890356
  0.53849185  0.34115967  0.2509176  -1.1273111   0.15361503 -0.5752912
  0.23177354 -0.39112842  0.27625817  1.1644235  -0.39729592  0.05175189
 -0.12993275  0.09217167]
[ 0.41433907  0.22426929 -0.14393784 -0.42640823  0.1948732   0.4056059
  0.68853515 -2.6206641   0.20300643  0.15334536  0.20769319 -0.39730608
 -0.4333014  -0.21905217 -0.3027783   0.29171255 -0.63187367  0.6299797
 -0.23079318  0.02873521]
[ 0.11582913 -0.19709438 -0.19191237 -0.39915073  0.29211095 -0.00365208
 -0.3362832   0.20611879  0.11824693  0.3676487   0.22443715 -0.20258488
  0.22495589 -0.19570817 -0.3344192   0.67640686 -0.43041018 -0.02826589
 -0.197385   -0.11491245]
[-0.03232286  0.24432498 -0.04242615  0.925568    0.05906771  0.3579843
  0.4307926  -0.66558397  0.9514215  -0.503343   -0.2743585   0.04545865
 -0.4455034   0.50710714 -0.39353842 -0.13812925 -0.550849    0.89405775
 -0.07031216  0.33906594]
[ 1.8743533   1.0304346  -0.19896173 -1.6524047  -0.2574822  -0.29394236
  0.0586561  -0.9354227  -1.0236471  -0.10845418 -0.02125263 -0.4639197
 -0.03439396  0.0145322  -0.10182963  1.3454629   0.24091248 -0.24398288
  0.01214415  0.01060391]
[ 0.39911702  0.19997776  0.44716895 -0.08873007 -0.39438155 -0.83586836
  0.26488474  0.3822559  -0.3545106   0.06835934  0.67039657 -0.36063033
  0.43073577 -0.19385518  0.49673656 -0.07017253  0.44557446 -0.7703057
 -0.3120429  -0.5506679 ]
[-0.81164294 -1.0484295  -0.7212609   1.1889337  -0.27291387 -0.18262231
  1.3621753   0.43544102  1.4051278   0.4362491  -0.19230527  0.45288974
 -0.53443843  0.63809127 -0.9448157  -0.8139848  -1.7794623  -0.01218916
  0.65456957  0.19229262]
[ 0.44087932  0.22780351 -0.73593783 -0.49905568 -0.38436064  0.14455532
  0.36012873 -0.24014257 -0.5939094  -0.39646193 -0.17671522 -0.5428101
 -0.385775    0.48269805 -0.40308437  0.67603743 -0.14260319 -0.25881168
 -0.20867513  0.20907009]
[-0.12565315  0.93905824  0.88198596 -0.21824464 -0.31195834 -0.7375632
  0.30388343  0.92190397 -0.20626216  0.37493506  0.61511946 -0.4264552
  0.26118967 -0.5570076   0.22017796  0.77802247  0.23196508 -0.10177271
 -1.5092229  -0.6581006 ]
[ 0.41180202  0.01711412  0.6586993  -0.38287228 -0.28028718 -0.45409715
 -0.19458413  0.66630816 -1.0042197   0.11628899  0.2971785  -0.37558654
  0.3215567  -0.45348877  0.6789957   0.29779944  0.41576406 -0.34206763
 -0.07658802 -0.45594954]
layer 5 Activation
tanh
layer 6 Dense
20 1
[-2.175255]
[0.561629]
[0.60685956]
[1.9156954]
[-0.54806125]
[-0.799501]
[1.8398017]
[0.7373549]
[2.5159035]
[1.818749]
[1.0725166]
[-0.5418477]
[0.6059675]
[-0.49939522]
[0.53141624]
[-1.6825241]
[-0.95192546]
[-0.56898516]
[-0.541474]
[-0.55708045]
[1.093547]
