layers 7
layer 0 Dense
20 20
[ 0.38969076  0.22811306 -0.0384655   0.3532858   0.20971417  0.24910367
  0.5692222   0.25502962 -0.16207497  0.29643577  0.28008172  0.2789651
 -0.4668017  -0.2800189  -0.3900685  -0.03857224  0.06172013  0.19210082
 -0.19204174 -0.23809826]
[-0.02537683  0.27730298 -0.25803953  0.07526413 -0.06333643 -0.14669251
 -0.36366147 -0.08533251  0.26885247 -0.07539213  0.35563618 -0.26959154
  0.14802414  0.27720535 -0.14649408 -0.21803585  0.23040903 -0.2795179
 -0.16237816 -0.01689455]
[ 0.30399305  0.12272865 -0.03433076  0.00173348 -0.33029437  0.33368737
  0.31063187  0.21397799 -0.07679689 -0.38085318 -0.05052021  0.25487602
  0.19816333 -0.34174874 -0.00829944 -0.33054182  0.33563238  0.21234351
  0.22830284  0.2621482 ]
[-0.16505648 -0.0235811  -0.17360887  0.47124782 -0.13537     0.45448342
  0.2176348   0.27878892  0.19532478  0.42940947 -0.10258621 -0.20661086
 -0.11576801 -0.42737967 -0.06417093 -0.02965553  0.3184577  -0.21014635
 -0.1128659   0.02681372]
[-0.14406152 -0.5135113  -0.09031077 -0.23954932 -0.27556485 -0.67109776
  0.41854832 -0.174959    0.02188695  0.1796795  -0.4408429  -0.07905699
 -0.18549594 -0.08498567  0.19571441  0.15257011 -0.01231414  0.39323533
 -0.3642604  -0.26374292]
[ 0.25710553 -0.03322509 -0.10743701  0.3511907   0.01145384 -0.16653083
 -0.17585662  0.3455875   0.21817797 -0.14114848  0.26002198  0.22477084
 -0.14887357 -0.09539711  0.0959627  -0.3047069  -0.11964148 -0.22070868
  0.22472948  0.0467864 ]
[-0.19487543  0.15478373  0.17195022 -0.14634486 -0.31926104  0.2206015
  0.20911866  0.31340164 -0.23350754 -0.22401287 -0.18537411 -0.25452292
 -0.03518111  0.13023603 -0.36223426 -0.30521885 -0.20888817 -0.23996666
  0.13437939  0.16585064]
[-0.125823    0.37364948  0.3439772  -0.37374356 -0.28606263 -0.2260637
 -0.15927331  0.20416237  0.1680305  -0.4914625  -0.46665514  0.16137499
  0.9161416  -0.3731476   0.15464525 -0.45972756 -0.03770817  0.10090432
  0.06421638  0.449218  ]
[ 0.8749836  -0.02459256 -0.6833504  -0.9011824  -0.1823065  -0.51963574
  0.9092807  -0.46862537 -0.03056244  0.42686394 -0.44476792  0.09292814
 -0.16811968 -0.721852   -0.22131272  0.16072756 -0.8644051  -0.75102687
 -0.10543095  0.71005017]
[ 0.4821567  -0.7415247   0.40578791 -0.5639955  -0.8391655  -0.4506265
  0.47496465 -0.2767715  -0.58899605 -0.01445256  0.61767405 -0.97350824
 -0.45758545  0.59436965  1.074259   -0.6282258   0.4451517   0.55524063
 -0.13467486  0.39395145]
[ 0.39509204 -0.405152    0.01894218 -0.7065249   0.02047331 -0.43894735
 -0.6148315   0.8145591   0.7689982   0.0825379  -1.0551515  -0.28604558
 -0.48921758 -0.3271507   0.9187659  -0.18382694  1.0579394  -0.8263097
 -0.5771998  -0.63216966]
[ 0.20138183 -0.08979802  1.0827557   0.13379352  0.1970064  -0.1401704
 -0.5321974   0.24032556  0.5017977   0.6473137   0.66044456  0.04145538
  0.4732048  -1.3457783   0.79435736 -0.325406    0.18567531  0.10949188
 -0.40325347  0.3453971 ]
[ 0.26496926  0.59337306  0.23842718 -0.21950778 -0.47042134 -0.5953257
  0.3609128   0.26785567  0.23610935 -0.9868038  -0.11669978  0.37329173
 -0.7858419   0.6175214  -0.26660362  0.1779527  -0.22153863  0.03380929
 -0.17559333 -0.32391483]
[ 0.5528925  -0.4990904  -0.84744775  0.7658411  -0.38865995  0.04335721
 -0.22743364  0.79182     0.49379495  0.05165999  0.06960141 -0.3257282
  0.06397676  0.28433064 -0.32298648  0.02275004 -0.2798319   0.20662291
 -0.16496348 -0.01513956]
[ 0.01306496 -0.2629672   0.49591833  0.2108324   0.18002026  0.87856334
  0.45199215 -0.30037674 -0.9623241  -0.08979855 -0.6243668   0.06551932
  0.14752689 -0.2396382  -0.40573865 -0.04088995  0.23000935 -0.06385443
 -0.415723   -0.5320904 ]
[-0.5437562  -1.1271446   0.6386231  -0.31043285 -0.17387906 -0.05945955
 -0.63813764  0.6659275   0.4097115  -0.47832954 -0.17918463 -0.61203355
 -0.609988    0.74594754 -0.9901883   0.8108545   0.23846331  0.6888624
  0.6741056  -0.3376296 ]
[ 0.16018863 -0.77631265  0.5651135   0.00745533  0.49760157 -0.07458938
 -0.5452039  -0.1942728   0.14691983  0.4794282  -0.31091383  0.04855605
 -0.45591828  0.25552246  0.16709685  0.3214484  -0.15788771  0.34764403
  0.39377463 -0.35949948]
[-1.5790671   1.0863509   0.6049767  -1.0483695   1.1991637  -0.988783
 -0.21959896 -0.11783824 -0.31001294  0.01977209 -1.58569     1.5128727
  0.76171815 -0.5667831  -0.6012763   1.4799997   0.1114742  -1.3556848
  1.2793977  -0.53443813]
[ 0.64630574  0.8909663  -0.31949788  0.49443495 -0.6209124  -0.98130745
  0.4644411  -0.48651308  0.39195946  0.04542149  2.2396336   0.60548806
  0.6671973   0.6138107  -0.75295234  1.0892053  -1.6569015   1.7632089
  1.1640012   1.9114213 ]
[ 0.64199626  2.0089571  -0.6831178  -0.25294122 -0.34700376 -0.5494118
  0.77823246 -0.91085213 -0.31522554  0.09818722 -0.8533587   0.2760844
  1.4566345   0.29753777  0.8020317  -1.6664146  -0.45440754 -0.161344
 -0.8356005  -0.02520691]
[-0.11708475  0.01465357 -0.08336085  0.21997748 -0.04891786  0.4245681
  0.12678285  0.1829633  -0.03824954  0.22507937  0.17282721  0.03833127
 -0.10488556 -0.07561531 -0.10806096 -0.0123287   0.26602268  0.04664574
  0.0351897  -0.10795902]
layer 1 Activation
tanh
layer 2 Dense
20 40
[-6.08732225e-03 -8.37626308e-03 -8.86027813e-01  6.37964845e-01
 -1.28738523e+00  5.27608395e-01  1.41035214e-01 -4.59859699e-01
  6.67869151e-02 -1.14071548e-01 -8.07870626e-02  9.91150066e-02
  3.76179218e-01  1.33042946e-01  6.26984417e-01 -4.08787690e-02
 -1.47020683e-01 -6.52416050e-01  1.90570429e-01  1.09719284e-01
 -1.78464383e-01 -4.91691858e-01  4.31421012e-01 -4.48138535e-01
  2.14979634e-01  1.26054227e-01  5.22357941e-01 -5.14364394e-04
 -1.95653930e-01 -2.98448712e-01 -6.78502202e-01 -8.67535844e-02
  3.89376879e-01 -9.64229226e-01  5.24307728e-01  4.93267506e-01
 -3.79160434e-01  2.75099277e-01  3.46002340e-01 -5.55799603e-01]
[ 0.29720616 -1.0355461  -0.2881577  -1.3822765   0.23248786 -0.6316983
  0.7357115  -0.87510586 -0.8981006   0.05544507  0.04702481 -0.5296875
 -1.1606995  -0.47814018  0.18801728 -1.0791514   0.47168437  0.20194335
 -0.8790057   1.1338677  -1.6615356   0.7692756  -0.3617665   0.17494896
  0.9377778   0.14630342 -0.6212476  -0.25433025 -0.16651133  0.90987796
  0.16266708  0.3803979  -0.81644225 -0.3824675   0.14705001 -0.6532198
  0.4888481  -0.00586293 -0.56518507  0.52139425]
[-0.52284664 -0.31229004  0.5623853  -0.6282843   0.24548365  0.23997143
 -0.09497208 -0.06724651 -0.21975186 -0.6270514   0.14583915  0.02058645
  0.00130568 -0.45595133 -0.29048833  0.283273   -0.5029404   0.29710907
 -0.75462323 -0.5812208   0.27665362  0.07741252  0.44358897 -0.52663064
  0.08202382 -1.2925138   0.0439322  -0.8694528   0.6673817   0.1651038
  1.2288716  -0.3942872  -0.01720122  0.7499218  -0.7097709   0.19071393
 -0.54080206 -0.15394224 -0.8713634   0.07640079]
[ 0.00613241 -0.7053851  -0.5566612  -0.19097629 -0.10171572  0.5067135
 -0.04428535 -0.21363151  0.12381352 -0.21241572  0.25453594 -0.35027164
 -0.0308079  -0.28200725 -0.30750364 -0.24540983  0.08905987  0.00746414
 -0.21378951  0.36448368 -0.1051647   0.42660612  0.06312951 -0.84431374
 -0.27536    -0.33629414  0.50179964  0.10853082 -0.25227112  0.26856825
  0.38888502  0.07983646 -0.34048423 -0.1461254   0.08675884  0.25064677
 -0.5035237  -0.24405219 -0.18678698  0.29981366]
[-0.24728805 -0.01929938  0.24579158 -0.28680584  0.61849046 -0.35111493
 -0.1354936   0.20892146  0.7788751   0.19325297  0.05642412 -0.19412056
 -0.78786975  0.35300535 -0.17416455  0.24560702 -0.24983732  0.18990844
 -0.02353632 -0.98145825  0.46613583  0.27080038 -0.36727518 -0.45410866
  0.06953648 -0.05072141 -0.28662407 -0.6050632   0.03943222  0.20810416
  0.10962431  0.12417892  0.09995724  0.37815103 -0.47470474 -0.23788735
  0.04989539 -0.22784138  0.453868    0.41669044]
[ 0.42681944 -0.5235877   0.2751105   0.4339398  -0.03068233  0.764407
 -0.29354283  0.34486648  0.7596032  -0.17766337  0.24634796 -0.37605792
 -0.05750137  0.11876715 -0.57138526  0.80200195 -0.20371196  0.508879
 -0.4692723  -0.10428268  0.6602988   0.11484912 -0.20829007 -1.2903321
 -0.35290822 -0.00790979 -0.34822938  1.0183413  -0.7954831   0.60506546
  0.24129845 -0.25240532 -0.9529663  -0.36034903 -0.4222465   0.8975725
 -0.5565959  -0.5290774  -0.15370165  0.10886165]
[ 0.05457259  0.17712174 -0.2724819  -0.12410448  0.13158533 -0.16920838
 -0.47178674  0.5288918   0.41461974  0.24074909  0.5073298  -0.1751731
  0.27711323  0.06019811  0.16347186 -0.13049929  0.4739239  -0.43464768
 -0.01129416  0.44910258 -0.47118348 -0.3805626  -0.19628121 -1.2819765
 -0.18582591 -0.35735804 -1.0914426  -0.59982204 -0.96578735 -0.34921902
 -0.16178812  0.2540637   0.40754747 -0.6136194  -0.5133292  -0.55753803
  0.62071586 -0.1686893   0.02110069  0.24001014]
[-0.0601275  -0.2641474   0.7850711   0.10712299  0.58821887  0.18575825
  0.16323397 -0.3397915  -0.02355337  0.02719328 -0.32732946  0.16610418
 -0.2793746   0.22012107 -0.44949812  0.42051107 -0.04103802  0.46808293
  0.17337132 -0.2884897   0.38164935  0.5253985  -0.0479349   0.29249474
  0.46365184  0.27850756  0.76445585  0.05564368  0.14040443  0.20961787
 -0.10953072 -0.0412909  -0.11842197 -0.01038071  0.2199233   0.35712266
 -0.17692745  0.3690754  -0.17052065  0.29408637]
[ 0.78534156 -0.50233316  0.12033045 -0.56602323  0.37808442 -0.31822556
  0.4154863  -0.43196037 -0.14040259 -0.18376857 -0.00248548  0.56343496
  0.21582355 -0.24639514 -0.36532873 -0.08918737 -0.03185697  0.18662967
 -0.9282564  -0.5600356  -0.12280162  0.5583276  -0.53496265  0.4232273
 -0.4723947   0.31416705  0.6804306   0.45829198 -0.0704034  -0.4018345
  0.1612901  -0.18786551 -0.76474303  0.09592415  0.0768542  -0.04232184
  0.30527103 -0.01400618 -0.00710196  0.41572082]
[ 0.42236614  0.07507841 -0.6024038  -0.28052494  0.24583712 -0.4886325
  0.46590483  0.18014115  0.93513477  0.04332295 -0.47054204  0.1402884
 -0.13955757 -0.18305652 -0.13232194 -0.4585398   1.12055    -0.6156394
  0.990699   -0.6504121  -0.4179787   0.2305195   0.04528308 -0.13075954
  0.0405625  -0.23409913  0.20854796 -0.07662089 -1.0278711  -0.49488938
  0.48263907  0.13768195  0.38160786  0.04126452 -0.27543706  0.17350902
 -0.29310936 -0.72596025  1.257795   -0.6075364 ]
[ 0.7331973  -0.54710656  0.22835661 -0.2936517  -0.11339039  0.61094177
 -0.37435538 -0.6289058   0.12670368 -0.5373551   0.20657821 -0.7416979
  0.7485672  -0.7842808   0.26276588 -0.8548868   0.5183508  -0.5301002
  0.18062468  1.3850982  -0.6217397   0.5847025   0.8315793  -0.62156117
 -0.22241364 -0.29358652  0.7305253  -0.20693131  0.28238177  0.31614825
  0.16160567 -0.7055998  -0.60579777 -0.7570972  -0.5298211   0.70768356
 -0.41688508 -0.12460077  0.37195593  0.8866626 ]
[ 2.38853261e-01 -2.88258076e-01 -3.09737831e-01 -1.36438453e+00
  6.57246232e-01 -7.32955262e-02 -4.01262373e-01 -2.74939910e-02
  1.74788013e-01  5.05374551e-01 -5.81834555e-01  7.48399615e-01
 -1.62876710e-01  3.17738056e-01 -4.64796603e-01 -1.93347916e-01
  4.27324355e-01  1.52139645e-02 -4.36231226e-01 -4.83592689e-01
 -3.02235097e-01  7.66347587e-01  1.07877359e-01  3.07217211e-01
  5.96413791e-01  7.60191321e-01 -3.51641566e-01 -2.34836563e-01
 -1.83708459e-01  9.44919288e-01 -2.86712684e-02  5.92987597e-01
  1.88757017e-01 -5.89579605e-02 -4.92863208e-01 -6.97884023e-01
  7.84507632e-01  4.75004752e-04 -5.23680627e-01  1.78113863e-01]
[ 0.407893   -0.86867917 -0.18859415 -1.2690436  -0.3643066  -0.49453297
  0.49023616 -0.48279044 -0.3053231   0.13668285 -0.35098004 -0.5513564
 -0.9089882   0.07385022  1.5899854  -0.7672225  -0.2050014   0.14009601
 -0.24074274  0.37464854 -0.78856134  0.7044064  -0.11105736 -0.00552842
  0.54408866  0.32072735 -0.06712294  0.17176361 -0.18803068  0.87583846
  0.1422526   0.1800225   0.25358805 -0.6680334   0.2219035  -0.12597808
  0.04810741  0.6588507   0.54751474 -0.09719758]
[-0.86674124  0.02017634 -0.5438287   0.23317716 -0.7041125  -0.23467593
  0.01814219 -0.28567633 -0.24723916 -0.17198366  0.7856715  -0.699963
  0.3117576  -0.07102304  0.10869481 -0.52419907 -0.72987056 -0.2790052
 -0.4742603   0.22619328 -0.28085056 -0.24156661  0.6504446  -0.29532263
 -0.44838578 -0.44767934  0.2593917   0.14955819  1.2259351  -0.08177664
  0.06637476 -0.11118855 -0.53704435 -0.25049725  0.21488304  0.12114487
 -0.31469813  0.09496534 -0.36811373  0.5827767 ]
[ 0.04375672  0.09755483  0.56952816  0.06679317 -0.31051084  0.223154
 -0.54664445  1.1348647  -0.6030238  -0.61816335  0.02421968  0.2168122
 -0.1513823  -0.31577373  0.44598073 -0.23425424  0.28315637  0.08775644
  0.19070148 -0.32972094 -0.2578978   0.03196324  0.16231292  0.2530153
  0.08236387 -0.1466205   0.24194461 -0.17601421  0.18134713 -0.97620106
 -0.10735031 -0.65488625  0.09918404 -0.1564156   0.39536107  0.24980196
 -0.12019276  0.7784126   0.7498776   0.14627737]
[-0.8121665  -0.14898376 -0.6392312  -0.21167918  1.1149133  -0.72458404
  0.14473477 -0.20702127  0.13061318  0.77197576  0.4317931   0.8751629
  0.38045362  0.3096367  -0.81561404  0.35179758 -0.07255171 -0.4535451
 -0.7488485  -0.09161427 -0.39549145  0.3525579  -0.00346795 -0.09659667
  0.14621614 -0.0281839  -0.417752   -0.18582381  0.25014582 -0.14069366
  0.6844266   0.7739754  -0.18722586  1.0625244  -0.96552026 -0.54684645
  0.5968345   0.0073903  -0.69179314  0.29813376]
[-0.12420294  0.24475107  0.52869886 -0.09084166  0.877332    0.614019
 -0.9656579   0.17442599 -0.20141473 -0.79149604  0.00997586  0.45071104
 -0.22611298 -0.3537072   0.14205939  0.5198316   0.10272228  1.04688
  0.45913064 -0.41096428  0.33502603  0.01385138 -1.0511172   0.5307447
  0.368296   -0.01639251  0.19033699 -0.6232258  -0.08741675 -0.01504826
 -0.03567643 -0.86284834 -0.08660602  0.4255541   0.52975786  0.70048875
 -0.19991067  0.10319013  0.05809529  0.16520777]
[ 0.30637622 -0.6202343  -0.5411732   0.43857598 -0.6240921   0.2658699
  0.18191478 -0.22989771 -0.05609372  0.13774994  0.66043824 -0.47457567
  0.66427857  0.13915071 -0.17254147  0.27613327 -0.420195   -0.8773388
 -0.34233892  0.04118614  0.34679097 -0.38765284  1.6643289  -0.56601316
 -0.4947592  -0.2546014   0.2693817  -0.10658305  0.01687758 -0.03237548
  0.24802299  0.48036212 -0.2938237  -0.29693827  0.4128425   0.36688
 -0.29040277 -0.12528253 -0.18952039  0.0051934 ]
[-0.38606638 -0.7125659  -0.5537319  -0.4505362   0.5898131  -0.6174147
  0.8802173  -0.9832455  -0.04456771  0.44970444  0.5168866   0.04055955
  0.66245747 -0.95411694 -0.49961153 -0.22242267 -0.5626425  -0.7721472
 -0.6767325  -0.18147935 -0.10926384  0.35831106  0.5472048  -1.1983495
  0.05089545 -0.31644264  0.02232491 -0.11473957  0.45490956  0.32185867
  0.8547948   0.32745412 -0.8246431   0.04726482 -0.6621122  -0.44322512
  0.36781964  0.01859283 -0.49244434 -0.15349646]
[ 0.73392624 -0.06437003 -0.48651376 -0.37711212  0.5203327  -0.02056975
  0.8452475   0.0875759  -1.1004162   0.51263565 -0.4857315   0.06697383
  0.9196377   0.04218963  0.51413316 -0.74731207  0.49556786 -0.943647
 -0.02280339  0.9892209  -0.17521186 -0.37447214  0.4898341   0.10057634
 -0.02369735  0.37330428  0.23357339  0.14944442 -0.5547607  -0.593794
 -0.11125863  0.31487706 -0.44477153 -0.01449098  0.21198206 -0.08428588
 -0.19189481  0.2777448   0.04568201 -0.5219007 ]
[ 0.67947525  0.5000857  -0.05916353  0.32336327  0.26905495  0.02368873
  0.04404973  0.08789429  0.8493824   0.03747357  0.36853814 -0.08650681
  0.00389648 -0.25107118 -0.6517423   0.38426277  1.0611883   0.09888369
  0.34649742  0.09567659  0.24929814  0.08226772 -0.10542396 -0.11642034
 -0.46302584 -0.01580819 -0.1885454   0.7234313  -0.76895875  0.11405393
  0.32591328 -0.05109889 -0.67394054  0.15840878 -0.6417348   0.10582086
  0.09251516 -0.7043294   0.2770084  -0.21915519]
layer 3 Activation
tanh
layer 4 Dense
40 20
[ 0.78992754 -0.12980194  0.5169462   0.2361096  -0.16498359  0.02296815
  0.48297668  0.0603019  -0.04864084  0.029011    0.04271503 -0.40652746
  0.5622242  -0.06726913 -0.6453909   0.19707422  0.324857    0.1600034
 -0.30374262 -0.4141574 ]
[-0.40026203  0.7596443   0.05186613  0.5140084   0.36848843 -0.06547972
 -0.76046425  0.6339106  -0.1545907   0.35758004  0.19543655 -0.01581218
  0.09058935  0.17562649 -0.3976429  -0.45713758  0.06776224 -0.2119071
 -0.25836807  0.4807056 ]
[ 0.22903003  0.09373265 -0.08546299  0.09317934  0.52280086 -0.393478
 -0.11714613 -0.38170597 -0.46067876  0.20532218 -0.09183153 -0.05706218
  0.36706325 -0.2835745  -0.11244806 -0.43601248 -0.38570088  0.13754061
  0.24607202  0.03363422]
[ 0.38721368  0.5146203   0.19930458  0.12836777  0.11073399 -0.13416885
 -0.16645896  0.21811002  0.56721973  0.6378039   0.18522783 -0.4416984
  0.04524797  0.6244855   0.51156753 -0.48618984 -0.6629483   0.09051643
 -0.4448756   0.3759665 ]
[-0.02008486  0.37021762  0.28290147  0.48462763  0.16476324 -0.90378994
 -0.01798256 -0.68628025 -0.6718827  -0.2000084  -0.28979206  0.44213995
 -0.45142862 -0.58615917 -0.37188092 -0.0593147  -0.27902234 -0.33439532
 -0.32038158 -0.16993767]
[ 0.54261535  0.60179186  0.04469964  0.62288916  0.27324137  0.01778201
 -0.3264765  -0.79033464 -0.05926444  0.5609635   0.1696659  -0.28480333
 -0.33167356  0.21674599  0.14771074 -0.35053346 -0.7536164   0.24237889
  0.24799174  0.07138921]
[ 0.1062233  -0.436842    0.30768007 -0.359648   -0.2322429   0.29274607
  0.25230804  0.64955395  0.24483865  0.08371583 -0.73872536  0.10550081
 -0.6278435   0.25225416 -0.25474513 -0.17644472  0.23103876  0.02413382
  0.30408192 -0.10396367]
[-0.38025346  0.44547912  0.00290521  0.44411573  0.41832903  0.22438444
 -0.401313    0.46834058 -0.02373964  0.0084958   0.13546792  0.19326362
  0.58687663  0.5203291  -0.6926062  -0.06556723  0.04693647  0.6829963
  0.07012105  0.444117  ]
[-0.04346975  0.15834005  0.57373035  0.37536675 -0.05581168 -0.34392157
  0.05736063  0.81328094 -0.370116    0.36277878 -0.25961965 -0.17635411
  0.21847278 -0.4689001  -0.08257479 -0.14990237  0.1789353   0.3301225
 -0.49715367  0.20616782]
[-0.3493771  -0.369934   -0.50057614 -0.21153158 -0.25180998 -0.12530892
  0.04171064  0.60766035  0.06234796 -0.5709598  -0.11000355  0.82668173
  0.23335981 -0.0955747  -0.194686    0.2807632   0.48569646 -0.24083345
 -0.24243511  0.14700596]
[ 0.21305683 -0.42819288  0.8344984  -0.11906964 -0.44155467  0.5126763
 -0.26408383  0.21761423  0.14837623  0.06685553  0.26573932 -0.11493884
  0.7387356   0.08013406 -0.10449824  0.32299015  0.5515188   0.41873977
 -0.38282907 -0.14146595]
[-0.07069131  0.12166675 -0.39780024  0.24998839  0.13613464 -0.2970568
 -0.18182145 -0.22338283 -0.5036434  -0.24486527 -0.06475897  0.09449048
 -0.6966944   0.5372906  -0.36818814  0.30306268  0.12536849 -0.57161295
 -0.13913037  0.10089394]
[ 0.80442125  0.00500106 -0.69979423 -0.20674823  0.15043771  0.13398436
  0.2943915  -0.13743135  0.51030123 -0.10304351  0.53290635 -0.06986463
  0.84497917  0.55686635  0.09700519  0.45695108  0.04171604  0.3175439
 -0.39483333  0.33355355]
[-0.07379033  0.61932313 -0.38811225  0.11524883  0.45671788 -0.0633016
 -0.16031465  0.13655436 -0.01277405 -0.22755627  0.3085798   0.30225018
 -1.1251987   0.46334243  0.39789608 -0.30081993 -0.37537858 -0.016976
  0.46030936  0.2680924 ]
[ 0.4865425  -0.3160227   0.26016217 -0.00469974  0.23195316  0.22469766
  0.26394296 -0.7105475   0.02610907  0.3154212   0.33880743 -0.35786274
  0.41386044  0.03549724 -0.01287637 -0.00886793 -0.09226306  0.74777555
  0.86627936  0.08815018]
[-0.3685137   0.43770438 -0.5389017   0.48115122 -0.13864362 -0.43723246
 -0.06017694  0.40347427 -0.3404838   0.0144626   0.13817376  0.18268712
  0.24115744  0.3278681   0.29625285 -0.09570716  0.06882816 -0.36500946
 -0.541945    0.3508332 ]
[-0.05326015 -0.4321653   0.02444957  0.3080568   0.03212877 -0.3788326
  0.57392454  0.39434645 -0.34028128 -0.36212045  0.22728617 -0.22216593
  0.49530885  0.12680377 -0.81294584  0.11450998  0.29402563 -0.36257884
 -0.4325605   0.22834176]
[-0.32966706  0.2215303  -0.40684715  0.5493862   0.6105078  -0.16742197
 -0.16209088 -0.16447651 -0.63312584  0.22864465 -0.41580957  0.24313195
 -0.26146042 -0.6595333   0.5981919  -0.79267985 -0.7278879   0.47676525
  0.5082976  -0.31966838]
[ 0.01910209  0.24532995 -0.23431821  0.36401287  0.47616217 -0.26944366
 -0.17163353  0.51800704  0.1741446   0.61036867  0.38463128 -0.18787393
  0.32580316  0.6444653  -0.07527029 -0.67858917  0.18819888  0.29073247
  0.11708203  0.34986308]
[ 0.6597378  -0.44313166  0.85290956 -0.17836742  0.04958965  0.19944362
 -0.05347048 -0.27843407  0.12431329  0.5139248  -0.39058816 -0.34372032
  0.4911738  -0.39690796  0.43487653 -0.01043802 -0.68345845  1.013168
  0.36594653 -1.038615  ]
[-0.36938417  0.5964092  -0.2376248   0.37144068 -0.08271312 -0.42131904
 -0.27689746  0.5130257   0.08550122  0.47798797  0.5141236  -0.12650675
 -0.2946651   0.48608175 -0.13217822 -0.7883414   0.01712848 -0.18381692
 -0.2831165   1.0163304 ]
[ 0.47034732 -0.08204134  1.0064116   0.24112915  0.22059524 -0.26282808
 -0.20381945 -0.8119504  -0.9165348  -0.20897156 -0.49812338  0.07237957
  0.4434655  -0.7157955   0.5332479   0.1631864  -0.25851876 -0.26133576
  0.5395695  -0.6890801 ]
[ 0.5654769   0.5166176   0.7145064  -0.029222   -0.05545963  0.5064623
 -0.02962234  0.0236834   0.703775   -0.11773892 -0.10776094 -0.6385634
  0.2457474   0.27207303 -0.11159705  0.02498346  0.04761786  0.20388366
 -0.22894877  0.05061923]
[-0.7989704  -0.28665894 -0.6133024   0.42737257 -0.20999426 -0.5628154
  0.55892885  0.58263946 -0.1623176  -0.36367983  0.89854246  0.4645148
 -0.44739264  0.21713397  0.09366908 -0.05751146 -0.20030013 -0.29367936
 -0.23925999  0.6869465 ]
[-0.5438346   0.3627662  -0.29377812 -0.33027196  0.19503003 -0.30721572
  0.16525903 -0.41860867 -0.30858278 -0.39212996 -0.03995349  0.5825085
 -0.8150635  -0.43893796 -0.03160055  0.23853312  0.36710596 -0.6097583
  0.34521067 -0.26189935]
[-0.22930223  0.10464903 -0.660815    0.19865172  0.09354224 -0.28713158
  0.20717421 -0.0812019  -0.16988556 -0.2699906   0.19043787  0.26633036
 -0.13458823  0.23906492  0.7329752   0.17534499 -0.00817419 -0.10042895
  0.11829852  0.08636649]
[ 0.2817091  -0.14918269  0.1989493   0.20938088  0.2557961  -0.21608268
  0.91337955 -0.37758285  0.5376953   0.41236672  0.26137403 -0.89802414
  0.5656006   0.07427845  0.1432001  -0.4097998  -0.5812948   0.45462307
 -0.15458937 -0.26068822]
[ 0.3490005  -0.24045563 -0.09845408  0.25075296 -0.44343168 -0.48930165
  0.31168368  0.34077096 -0.39999485  0.6840769  -0.4146938   0.18816997
  0.19521971  0.1597832   0.5351283   0.0547004  -0.5255599   0.76678437
 -0.38780254 -0.32160974]
[ 0.1861799  -0.21329261  0.23082355 -0.15774061 -0.38016888  0.23608667
 -0.05733844 -0.27485415  0.02080606 -0.02726052  0.14008142  0.1350828
 -0.50470734 -0.48079348  0.39412627 -0.30921394 -0.71715283  0.32736304
  0.06145287 -0.19034761]
[ 0.30129075  0.09450213  0.6122862   0.16314928 -0.07873165 -0.43397966
 -0.4578146  -0.03521385 -0.5886819  -0.5250298  -0.25152785  0.7374496
 -0.36681944 -0.0823416   0.65199506  0.22812267  0.42200726  0.26733366
  0.422477   -0.03071033]
[-0.12962598 -0.26527992  0.27690762 -0.33873272 -0.17267843  0.34755823
 -0.29699454 -0.02302994 -0.31683257 -0.4106749  -0.33764383  0.09152761
 -0.15341827 -0.02705911 -0.44442883  0.02957966  0.9303886  -0.40923637
 -0.11419728 -0.20774193]
[-0.16852084 -0.0016927  -0.27173415 -0.21277517 -0.5077923   0.36902025
  0.43740302  0.33077723  0.23545621 -0.66087013 -0.27177367  0.67207474
 -0.20771624 -0.06543001 -0.0795802   0.3013845   0.6289125  -0.6567718
 -0.3700241   0.22415745]
[ 0.03888461  0.716147   -0.20879547  0.13468453  0.19976868  0.14916472
 -0.36581585 -0.39621472  0.36331004  0.10926974  0.02510621  0.05005939
 -0.35984004  0.04312316  0.22318676 -0.45876676 -0.2517264  -0.5230225
  0.64816946  0.20705496]
[-0.13822603  0.27833697 -0.11491147  0.43976122 -0.07787536 -0.64787096
 -0.70916426  0.03183907 -0.75159395 -0.07531356 -0.1160307   0.4170705
 -0.6861988  -0.29746068 -0.31254452 -0.48932368  0.40522283 -0.99286973
 -0.22410525 -0.03204342]
[-0.5330978   0.36467394 -0.4305712  -0.15163027 -0.2364685   0.21335897
  0.9424854  -0.2936557   0.08166894  0.02086888  0.4377278   0.14620353
 -0.13208471  0.15913677  0.30984768 -0.06917578 -0.2615658  -0.04877406
  0.50880927 -0.0684177 ]
[ 0.5198575   0.29888394 -0.32349324  0.42613035 -0.08483644 -0.25868464
  0.14656273 -0.43993407  0.1934844   0.1519836   0.2974841  -0.76278955
  0.39726308  0.662421    0.24746248 -0.01846496 -0.94955844  0.12369785
  0.04805749  0.16237824]
[-0.34530655 -0.30317703 -0.32608238 -0.01668197  0.12566788 -0.33920982
 -0.18104763  0.00805514 -0.59929097 -0.3173489  -0.35561007  0.52540946
  0.16618203 -0.41883844 -0.07048588  0.40367493  0.61528397 -0.11751933
 -0.19227211 -0.02459283]
[ 0.06106141 -0.0215646  -0.2422056  -0.24324697 -0.23546764 -0.19577053
  0.10405605 -0.53042686  0.13891576 -0.10494604  0.3741442   0.2961208
 -0.28627694  0.26321906  0.23026015  0.5412926   0.05698517 -0.3898987
  0.75119793  0.34304184]
[ 0.1934079  -0.01564629  0.283774    0.37357578  0.5195308   0.3639353
  0.11347283  0.11038824  0.5702273   0.3558374   0.3540254  -0.26213333
  0.3670776   0.44808072 -0.44825193 -0.58650947 -0.28136444 -0.16170771
 -0.17898425  0.62584645]
[-0.32545194 -0.00225094  0.3299542   0.01082652  0.01328333  0.1712347
  0.4180423  -0.14063853 -0.12995528 -0.5667932   0.15771882  0.20908996
  0.41698065  0.07260387 -0.14086713  0.04221587 -0.31138578  0.4911078
  0.12053741 -0.17410724]
[-0.09760946  0.18261544  0.1435179   0.21812947 -0.07210096 -0.0832985
  0.0323202   0.4494448  -0.1723654   0.03338219 -0.19595027 -0.22467408
  0.07539251 -0.18047869 -0.24752533 -0.07697954 -0.05664792  0.09286487
 -0.68741673 -0.17204054]
layer 5 Activation
tanh
layer 6 Dense
20 1
[0.1425773]
[0.10989095]
[0.21977113]
[0.26110724]
[-0.04872954]
[-0.25408256]
[-0.12478398]
[-0.4990741]
[-0.19553217]
[0.28911448]
[-0.3224367]
[-0.15292014]
[0.07833193]
[-0.28621012]
[0.27077433]
[-0.25933465]
[-0.11913561]
[0.10867392]
[0.44504833]
[-0.39526844]
[0.38858917]
