layers 7
layer 0 Dense
20 20
[ 0.31760398  0.08791023 -0.22339323  0.10805842  0.20668964  0.35005546
 -0.12895362  0.5785425  -0.53588504 -0.40666413 -0.47342747  0.45839405
  0.26925144 -0.19775036  0.08787635 -0.8045494  -0.00424604  0.13725007
 -0.19484107  0.34772474]
[ 0.13766085 -0.16107643  0.27046433  0.05835157  0.54223377 -0.24175619
 -0.23961306  0.19791208 -0.27400172  0.02198448  0.20144613 -0.22691265
 -0.3053158  -0.1073995   0.08138029 -0.553537    0.21467885  0.3674115
  0.3880391   0.44326484]
[-0.00704067 -0.3530832   0.29360002 -0.28797218  0.648557   -0.3834592
  0.18510102 -0.16708598  0.10221215 -0.06288002 -0.07883037 -0.12071639
  0.04102139  0.26226175  0.3456609   0.16699585  0.37251988  0.03400042
  0.0648341   0.11373298]
[-1.8889348e-01 -1.3621362e-01  2.2549881e-04  6.1006289e-02
 -8.5100606e-02  1.7597830e-01 -4.1102327e-02  4.7442910e-01
 -2.6798311e-01 -1.2880164e-01 -1.5493640e-01  2.6223168e-01
 -3.3868349e-01 -2.5427315e-01  3.0960637e-01 -1.6318269e-01
  3.3757433e-01 -7.9149172e-02  3.6484846e-01  1.3873276e-01]
[ 0.23333353  0.10685793 -0.24447098 -0.35528806 -0.23763004 -0.05342258
  0.5499422   0.5315839   0.14418712 -0.24359828 -0.06243334 -0.1208941
 -0.20463556  0.13733682  0.082468   -0.7540172   0.17704652 -0.2023465
 -0.06988321 -0.29372597]
[-0.43243027  0.3396638   0.08413068 -0.44359925 -0.62856853  0.5305748
  0.11280915  0.16315106  0.23657133  0.3252771   0.03778765  0.07806558
 -0.21103846 -0.23124245 -0.3104315  -0.05113596 -0.36479968 -0.11810568
 -0.377051    0.28271732]
[-0.23570524 -0.21503448  0.0954918  -0.25264263  0.01548319  0.47225717
  0.36423874 -0.5078793  -0.1224724  -0.2187824  -0.00329599  0.3361675
  0.08708048 -0.03282585  0.01828697 -0.08885058  0.1346388   0.01593167
  0.07823566 -0.31765243]
[ 0.01247813  0.33834177 -0.27604812  0.14125785 -0.24305077  0.30696172
  0.10966017 -0.04468197 -0.17299804 -0.11650805  0.24878007  0.07818025
  0.31882668 -0.2555282   0.2498579   0.13167304 -0.35288033 -0.10033272
 -0.04369145 -0.1874104 ]
[-0.5114727   0.03299392  0.3642029   0.40176636 -0.17310798  0.25191465
  0.68260634  0.26415148  0.32838833 -0.01050132  0.35352618 -0.1159676
 -0.0900609  -0.16284607 -0.52217793 -0.296778   -0.15855236 -0.12041884
  0.07622318  0.3211404 ]
[-0.15411444 -0.24266133 -0.08222274  0.43975848 -0.50638705  0.2151344
  0.21509099  0.13449775  0.2967114  -0.2029908   0.29967684 -0.43570605
 -0.17516315 -0.05737888 -0.44286433  0.369748    0.20342639 -0.1971261
 -0.39249134  0.11956535]
[ 0.63404554  0.29387593  0.38737628 -0.35186803 -0.16431284 -0.3177028
 -0.64830285  0.3384748   0.25646117  0.12419998 -0.5042585   0.40614745
  0.32909065 -0.25396585  0.49039176 -0.16577315 -0.02058996 -0.3574734
 -0.6047462  -0.47716355]
[-0.22781764  0.1505541  -0.22472584 -0.30878103 -0.32614067 -0.18672857
  0.32239687  0.18672368 -0.02518774 -0.27824706  0.22162108  0.04621312
 -0.44815642 -0.2441842   0.00478085 -0.1438904  -0.40706983  0.08419479
 -0.03387149 -0.18344569]
[ 0.04227075  0.19803944  0.3287233  -0.46919295 -0.50473547 -0.04372177
  0.35298526 -0.28278363  0.02028189  0.43565348 -0.11191641  0.4419256
  0.322237    0.11906717 -0.22886896  0.02438352  0.35462245 -0.20124838
 -0.33319387  0.45892456]
[ 0.09702449 -0.2483052   0.15162365 -0.04498547 -0.5425133  -0.31055132
 -0.03522468  0.02565058  0.27393058  0.45281285  0.08749848 -0.17151155
  0.44947538 -0.18376857  0.07140714  0.10295156 -0.26639023 -0.49821845
  0.34517923 -0.21048068]
[-0.49336946 -0.1294747  -0.01309429 -0.2182207  -0.03992413  0.59319097
  0.39627478  0.42763942 -0.5528182  -0.31806836  0.02946011  0.27725786
 -0.03594926  0.6742088  -0.53134584 -0.20476368  0.5666059   0.28546867
  0.21047154  0.4756265 ]
[ 0.48314962 -0.31978214  0.219264   -0.68355536 -0.38503116  0.2945205
  0.2848792   0.35572097 -0.36624756  0.07660621 -0.10872865 -0.14977588
 -0.19943543  0.22780648 -0.27553755 -0.4267365   0.21849485  0.19587809
 -0.30032167 -0.11293749]
[ 0.04239515 -0.36328766 -0.1153714  -0.00480859 -0.22832085 -0.3100656
 -0.19167614  0.21309729  0.00157638 -0.30238158 -0.24484544 -0.11460281
  0.07088704 -0.13434452  0.40078852 -0.38637295 -0.21120629  0.33933955
  0.12315238 -0.02341077]
[-0.15877923 -0.30550355  0.15143648  0.10579878  0.44438568 -0.13959299
 -0.42099312  0.31323054 -0.06584964 -0.12162881  0.2403426  -0.36143175
 -0.16511334 -0.3295668  -0.24772418  0.14447853 -0.0169017  -0.289376
  0.17108949 -0.00858609]
[-0.22640622  0.04807246  0.44601703 -0.32835892 -0.45050636 -0.3814627
  0.11539678 -0.00075497  0.23579726 -0.2578024  -0.08680645  0.2561864
  0.33129725 -0.06535077 -0.06630867  0.1828033   0.0507195  -0.15525216
 -0.15096448  0.17794998]
[-0.44627634  0.10153116  0.06586572  0.30648267 -0.2988958  -0.21937355
 -0.44992456 -0.50847465  0.19069003 -0.43646517  0.03373956 -0.18756634
  0.9984996   0.06060918  0.3275783   0.7068975   0.37758654 -0.07998379
 -0.12414484  0.03700846]
[ 0.08896548  0.00434108  0.03808992  0.00352058  0.17843816  0.06384874
 -0.14425552  0.15336083 -0.15346967  0.05323808 -0.04247542  0.05951918
 -0.01162419  0.01326803  0.00904897 -0.03774069  0.02270746 -0.04539902
  0.04928076 -0.06901117]
layer 1 Activation
tanh
layer 2 Dense
20 40
[-0.06506823  0.12199564  0.24863888  0.07455719 -0.3724673   0.37673905
 -0.01004283  0.28405026  0.18702106 -0.48441967 -0.06273016 -0.17378013
  0.02150657 -0.410463    0.22191921  0.70245856 -0.23097874  0.34649464
 -0.07362934  0.26290303  0.482097   -0.41987     0.15368134 -0.06215703
  0.04201839 -0.05983174  0.23803326  0.3815385   0.25679392 -0.24772733
  0.41515723  0.10226022  0.20635381  0.21587299  0.2572547   0.5217412
 -0.05269614 -0.48730147 -0.01011639  0.20699708]
[ 0.07117514 -0.07754837 -0.11281773  0.24476182  0.10159039 -0.1566829
 -0.07116314 -0.10150026  0.06309332  0.10033797  0.30958974  0.01671985
  0.3105363   0.11356179 -0.13979636  0.17395274 -0.18176824  0.27353254
 -0.19061059 -0.04946141 -0.20426418  0.0286231  -0.09306307  0.0074223
 -0.05654633  0.1247462   0.26634008  0.0612394  -0.02738919  0.02971482
 -0.436594   -0.06341098  0.2611099   0.06492825  0.01096094  0.18652886
  0.19052872  0.10950103 -0.37379754 -0.24624975]
[ 0.18089989 -0.22317858  0.03449896 -0.17416915  0.10295215  0.21656576
  0.20900258  0.32053658  0.01742971 -0.21983816 -0.08487639  0.1418196
  0.11133626  0.33548003 -0.07425326 -0.08994228  0.19458744  0.18388852
  0.12903392  0.512237   -0.01288711  0.18316813 -0.25077283  0.24617687
 -0.07972763 -0.12569143  0.27372023  0.32113162  0.04721958 -0.15857884
  0.21964073 -0.2840182   0.2552995   0.11904653  0.14661075  0.33486813
  0.46195117 -0.06481568 -0.22198842  0.18757643]
[ 0.03804639 -0.10472004 -0.20896147  0.10580482  0.2827128  -0.1500557
 -0.11459101 -0.01767821  0.31255502  0.10887317 -0.17028825 -0.3075049
 -0.25244555 -0.08345691  0.28498662 -0.4362892  -0.30800992 -0.06065984
 -0.22492447 -0.27522734  0.09453022  0.4661239  -0.01961318 -0.07818338
 -0.28319663  0.02109438 -0.04628471 -0.00537997 -0.3552232  -0.1302609
 -0.4181322  -0.11255511  0.04195575 -0.19594872 -0.1740112  -0.01157957
  0.12592734 -0.04662351  0.00534766  0.04564406]
[ 0.1454673   0.07738607  0.189893   -0.1846533  -0.3278851  -0.248988
 -0.04830324 -0.2495729  -0.02121628 -0.00797636 -0.17483729  0.24806766
  0.0196679  -0.44464943 -0.10503389 -0.10136885 -0.4457463  -0.01342746
 -0.14131841  0.35690764 -0.3875706   0.1461059   0.07569935 -0.19154575
  0.12273508 -0.10803314  0.27433306  0.35765707 -0.20709279 -0.05349102
  0.11209581 -0.02207878  0.2685518  -0.31150535 -0.39692384  0.11288209
 -0.32120395 -0.258946   -0.01115704  0.25859746]
[ 0.32010204 -0.16591361 -0.28294972 -0.00827222 -0.07352889  0.42790028
  0.49097475 -0.13220906  0.22011669  0.37249586 -0.2788255   0.13524202
  0.13037807  0.13681906  0.19265817  0.02632952  0.16618186 -0.11502302
 -0.05024095 -0.5876487  -0.2872869  -0.20667604 -0.16289023  0.08300702
  0.08308062 -0.18463951 -0.30110693  0.2333936   0.04946952  0.21309257
  0.15290292  0.07401454 -0.20027985 -0.08923605 -0.5766369  -0.30012834
 -0.3465017   0.01751512  0.02256106  0.22171094]
[ 0.28641018  0.5244208  -0.2578203   0.13631944  0.44571915  0.4309704
 -0.08368145  0.09893633  0.04934552 -0.18364853 -0.2791862   0.2121289
 -0.27192238  0.41867512 -0.09689761 -0.27985895  0.5873489   0.2726675
  0.45838162 -0.00958806 -0.06433944  0.09736139 -0.37630314 -0.32295695
  0.17665151 -0.18049774  0.03486505 -0.18636517  0.03181209 -0.26802722
  0.06866138 -0.30094385 -0.2601863   0.2982341  -0.41191953  0.3824875
  0.00517723 -0.28740123 -0.11332145  0.14297573]
[ 2.0626268e-01 -7.6834612e-02 -1.3707630e-01 -1.1484482e-01
 -5.2006720e-03  5.7137054e-01 -1.7429683e-01  8.5889705e-02
  6.9880307e-02  5.0701790e-02  1.2434178e-01 -7.1393237e-02
  7.9320289e-02  4.1113742e-02 -2.1313017e-02  1.0304770e-01
  2.2060737e-01  1.0786717e-01 -3.0895859e-02 -2.7364114e-01
 -2.1665859e-01 -2.8466359e-01  5.4985716e-04 -3.3034000e-01
  3.3919457e-01  8.6573616e-02  6.2662505e-02  2.0147134e-01
 -2.8415304e-01 -2.2476301e-01  8.9585535e-02  3.3273455e-02
  8.8127419e-02  2.8992668e-01 -1.6676733e-01  2.1268556e-01
  2.7339277e-01  4.8693843e-02  8.9897141e-02  5.5341277e-02]
[ 0.18777455 -0.24857281  0.39291084 -0.15436634  0.27514225 -0.21428677
 -0.0919873  -0.09113088  0.26803288 -0.41096598 -0.1133393   0.13588434
  0.21526769 -0.06209991  0.06401163 -0.09117436  0.33081487 -0.2831594
  0.13339432  0.24482417 -0.10228738  0.33868596  0.28638828 -0.15784712
 -0.08157284 -0.06257705  0.14134935 -0.12041935  0.119758    0.17579354
 -0.44442314  0.11937013 -0.01841225 -0.44337896  0.37312567 -0.04701742
  0.36311895 -0.05129221  0.16644078  0.09852452]
[-0.01907066  0.23591784 -0.12119477 -0.0600525  -0.34379035  0.09985009
 -0.21099342 -0.25135303 -0.05723878 -0.1373592   0.04847567  0.37511578
  0.23153032  0.035858   -0.1857909   0.02720809 -0.41155744  0.14862911
 -0.18332854  0.24444789 -0.04346367  0.11620819  0.00742543  0.04574733
  0.14243357  0.11662257 -0.00433214 -0.13772416  0.14365418  0.15881233
  0.31679246 -0.10260369  0.23456249  0.1696282  -0.1618764   0.3813768
  0.03766156 -0.02101539 -0.23560177 -0.05517146]
[-0.37253967  0.14439587 -0.02378849 -0.25839254  0.25859913  0.00881662
  0.22263637 -0.4173123   0.38964424 -0.30312717 -0.1674439   0.3591911
 -0.02513753  0.09760075 -0.25758123  0.0325051  -0.26319787 -0.29008365
  0.35139012  0.00064381 -0.25267196  0.23629893 -0.25945568 -0.1694367
 -0.34484994 -0.3217066  -0.05362164 -0.34157073 -0.11626983  0.33023292
 -0.5089422   0.10649172  0.2270385  -0.07762264  0.02430483  0.23762922
 -0.24923638  0.17625958 -0.16588427 -0.01396756]
[-0.12058125  0.10202979  0.002349    0.07100441 -0.35956895  0.36201763
 -0.1507286   0.21167785 -0.18819255  0.5710944  -0.14538689 -0.12715648
  0.00773661  0.08199611  0.23731767 -0.17576043 -0.20796935  0.32932422
 -0.01628117  0.16871746 -0.04375466 -0.3348706   0.09467409 -0.29685548
 -0.26737094 -0.05928954  0.2195528  -0.01419408  0.05010307 -0.15348327
  0.36124915 -0.08363254 -0.30349737  0.3786535  -0.02650872 -0.18266205
  0.24084035 -0.19825995  0.19479714  0.19739497]
[ 0.15429251 -0.20036128 -0.16773011 -0.23609507 -0.09539713 -0.37886918
  0.01322668 -0.17929226  0.1479419   0.27105343 -0.18057333  0.00715708
  0.05607713  0.01272044 -0.02444066 -0.04401032 -0.16674826  0.13541682
 -0.22630644  0.33169132  0.15833528 -0.04964256 -0.12030245  0.2511076
 -0.04500869 -0.17547679  0.19589554  0.21015207  0.21904764  0.3484205
 -0.45659342  0.03564798  0.22725314 -0.44613856  0.19486138 -0.01332742
  0.15643892 -0.04068402 -0.28558394 -0.0078782 ]
[ 0.01687935 -0.28912663  0.15892059  0.20329206  0.16607787 -0.22748359
  0.25277472 -0.44139662  0.01888642  0.15226011  0.1823836   0.27679175
 -0.2657827  -0.34214053  0.2401634  -0.10803872  0.10928144 -0.1622677
  0.34648433 -0.18987377 -0.3426183  -0.01134762 -0.04824108 -0.28254315
  0.10664829  0.24369745  0.22458743 -0.10339405  0.03877084  0.10405406
 -0.02525071  0.02227212 -0.40731975  0.15658866 -0.5834385   0.27345082
 -0.07534502 -0.15192284 -0.25440285 -0.13051133]
[ 0.42106906  0.05629815 -0.06282968 -0.23095433 -0.3774784  -0.16364093
 -0.40220064  0.5601933  -0.26659042 -0.4090457   0.2508156  -0.38040653
  0.13032617 -0.5463834  -0.00857729  0.11246728 -0.33533415  0.19839232
 -0.48777905  0.3499812   0.48583186  0.18263532 -0.00943443 -0.30805317
 -0.19249895  0.34303617  0.09514046  0.14505367 -0.00470393  0.04478668
 -0.07417269 -0.03107895 -0.35806942 -0.28752473  0.2574759  -0.04365963
  0.64833367  0.01333397  0.53514886 -0.2443571 ]
[-0.5667001  -0.03632278  0.06201976 -0.21173495 -0.05321323 -0.32512167
 -0.14612158  0.17441177 -0.309544    0.17520371 -0.11133968 -0.11081986
 -0.08557376 -0.27633226  0.3776752  -0.27777845 -0.34694728 -0.5037976
 -0.04891964 -0.06668179 -0.09875716  0.70891917  0.403017    0.28194442
 -0.1417962  -0.46388197  0.14962088 -0.38172814 -0.14546804  0.18513075
 -0.36723745 -0.10616179 -0.05396285 -0.09812853  0.23785405 -0.27203724
  0.4133066   0.47500104 -0.22831501  0.3754311 ]
[ 0.209562    0.15143338 -0.10915057  0.2530965   0.10044263  0.06302928
  0.378551   -0.2513966  -0.09199914  0.27285266  0.04059115 -0.34663472
  0.276088    0.26483384 -0.0072017   0.14366777 -0.09676578  0.12792076
  0.1060772  -0.36575964 -0.24904719 -0.04137092 -0.34032327 -0.22918323
  0.21018659  0.04584527 -0.33519283  0.15530543 -0.07857113  0.12553503
  0.45011958 -0.2527371  -0.02499096 -0.0527439  -0.25772315 -0.26960894
 -0.3006094  -0.33865315  0.03117697 -0.34137046]
[ 0.09421308 -0.08963563 -0.22375984 -0.16674188 -0.09950317  0.12387449
  0.13643736 -0.21012901  0.16215816 -0.24563631 -0.15854144  0.26166838
 -0.27343982  0.16368186 -0.24216768 -0.02440659  0.1265871  -0.24276291
  0.15212165 -0.02361093  0.17935885  0.08315779  0.2991571   0.09716052
  0.17298348  0.00903678 -0.18606278 -0.07476044 -0.14253971  0.26351443
  0.2383944   0.00763778 -0.28761068  0.37723678  0.0805001  -0.10904646
 -0.02093942 -0.2674618   0.19024867  0.21693914]
[-0.10587309 -0.304767    0.2341946   0.00122062  0.31866783  0.31800604
 -0.24162029  0.01809105 -0.54011494 -0.21079682  0.03555006 -0.185411
 -0.27634153  0.1636549   0.19843875  0.03591132 -0.23274475 -0.31079945
 -0.22448692  0.01086059 -0.20704149 -0.12756771  0.08280689  0.10451131
  0.2104296  -0.2119049  -0.12468076  0.26768503  0.15542586 -0.34637365
 -0.01764023 -0.07748979 -0.38997674  0.0398618  -0.19031605  0.18141845
 -0.33065042 -0.39782745 -0.13281183  0.25352442]
[-0.11760177  0.14571765 -0.27500808 -0.32209706  0.28215423 -0.0363637
  0.37566802 -0.05634183 -0.38177967  0.46333522  0.23449282 -0.16863452
  0.23007521  0.12299263 -0.33965343 -0.18913698  0.17117676  0.11862936
 -0.13698724 -0.07634173  0.20844227 -0.02330221 -0.276164    0.19261992
 -0.0128713  -0.08440491  0.01829645  0.01374642 -0.08241148  0.2062186
  0.23899584  0.2973889  -0.2130795   0.38894704  0.05043739  0.05952625
 -0.24332134 -0.10153668  0.00413535 -0.05326269]
[ 0.07084331 -0.08814878  0.03219964 -0.02775468 -0.02310891  0.07317426
  0.06351903  0.02604114 -0.10579567  0.04664507 -0.04653538 -0.06565361
  0.00154578  0.04063601  0.01304977 -0.02230822 -0.00408293  0.01983498
 -0.06798668 -0.1087748  -0.06107948  0.02259558  0.06138516 -0.03825248
  0.02847445  0.09633293 -0.03423571  0.03316527 -0.01522159 -0.18946485
  0.24761346  0.02069755 -0.00207064  0.2524626   0.04622019 -0.08001107
  0.04674393 -0.0826503   0.12367761 -0.02579175]
layer 3 Activation
tanh
layer 4 Dense
40 20
[-0.16945086 -0.33326876 -0.28846705  0.19704258 -0.25176543  0.02342902
 -0.19475071  0.06473454  0.16474462 -0.5057038   0.08384445  0.32963976
 -0.26218244  0.3884192   0.43392423 -0.10659399  0.22968048 -0.16330056
  0.2526118  -0.02023886]
[-0.17886616 -0.09311933 -0.15758722  0.22345927 -0.14935079 -0.19742921
  0.26772693  0.16010989  0.0442643  -0.2175856   0.05805207 -0.26428464
  0.17609231  0.22460447 -0.26151094 -0.15484762 -0.06178873 -0.12015149
 -0.04276514 -0.20749274]
[ 0.20322697 -0.08495898  0.19465885  0.1792657   0.0781679  -0.0109058
  0.27765632  0.18636538  0.05462112  0.26338238 -0.14403383 -0.09525888
  0.03711388  0.1409474   0.16843122  0.13215047 -0.20650575 -0.21306165
  0.35980037  0.09455615]
[-0.24539042 -0.00598171  0.18425237  0.14127074  0.01915317  0.04120368
  0.15717849  0.06505583  0.03726416 -0.16430455 -0.05616092 -0.16521104
  0.17752038 -0.0780715  -0.09651036  0.30023047  0.10646319 -0.00362719
 -0.09451742 -0.05236016]
[-0.152099    0.15030746 -0.0634552   0.31272525  0.32181865 -0.10293873
  0.10447696  0.29466474 -0.22638819  0.31305203 -0.03251978  0.16524516
 -0.2658711  -0.27051607  0.14421935  0.3173652  -0.20810057  0.10951109
 -0.3288333   0.24505691]
[-0.26033616  0.0993605   0.03426085  0.37950817  0.1432608   0.07179431
 -0.30819124 -0.14585227  0.05246936 -0.20591109  0.3152271  -0.20172761
 -0.2402562   0.02946644 -0.02914323  0.1585853   0.1322879  -0.03992824
  0.3101147  -0.32165134]
[-0.27344105 -0.1517261   0.14909673 -0.07988498  0.06132285  0.14135827
 -0.28859046 -0.07677725  0.11373144 -0.04438346  0.3442242  -0.02021417
 -0.21431425 -0.06987512 -0.13862349 -0.00208888 -0.1017223   0.12135801
  0.04313539  0.01309085]
[ 0.02058897  0.29834345 -0.06572503  0.3604954  -0.27004182 -0.02672522
 -0.34467748  0.3570082  -0.4099803  -0.22771998 -0.2443736  -0.12013251
 -0.08400799  0.24788982  0.09342868 -0.02696187 -0.01350532  0.20543435
  0.04151659  0.2717684 ]
[ 0.05202301 -0.06769293 -0.33798003 -0.08912878  0.07722024 -0.01809748
  0.27081552  0.14942724  0.12513945 -0.05086467  0.12476923 -0.0813897
 -0.06109758 -0.12889948 -0.04886542  0.21180823  0.3014798   0.21284313
 -0.14005065  0.06033818]
[ 0.11687507  0.05388982  0.05944235 -0.2032991  -0.25335297  0.16427505
 -0.31733486  0.04369202  0.35019982 -0.33469296  0.31703338 -0.24490054
 -0.23512854  0.12400322 -0.22622818 -0.19002353 -0.3366086   0.19567567
 -0.15802085 -0.1288241 ]
[-0.2533154  -0.11742908 -0.23471224 -0.14689042 -0.01066236  0.04359476
  0.0582205   0.02983818  0.3539914  -0.26178214 -0.21262029  0.28980818
  0.15858148 -0.17553268 -0.06517915  0.26826838  0.1894355  -0.17918591
  0.23259567  0.01759244]
[-0.0195449  -0.23647767 -0.02923032 -0.01606731 -0.21774125  0.24912801
  0.3830545   0.21015592  0.2281718  -0.2775835   0.05643284 -0.10970033
 -0.10259141  0.30273765  0.05255736  0.05739975  0.33484724  0.18619952
 -0.33649123  0.11776685]
[-0.12829365  0.05010074 -0.04002199  0.17481199 -0.05084817  0.05002692
  0.20751654 -0.08936252 -0.01914737  0.12590139 -0.04126731  0.22565599
 -0.07366472 -0.02056036  0.06940367  0.04683146  0.20672221  0.31445792
 -0.03195424 -0.15522617]
[ 0.26480883  0.19000874 -0.40526006  0.08611775  0.18833084  0.19442764
 -0.2479162   0.18924406 -0.34149298 -0.16277677  0.26316583  0.1629051
 -0.19858178 -0.18502997  0.08067542 -0.15900213  0.02798606 -0.3002818
  0.15306866 -0.27612522]
[ 0.02062649  0.20113774  0.24692912  0.14961825  0.17308015 -0.24037194
  0.18610764 -0.1373624  -0.24960084  0.28970373 -0.31724545 -0.00878371
  0.29209504  0.29514277  0.07743795 -0.01030164  0.31420255  0.07957598
 -0.20440741  0.14782374]
[ 0.11776178 -0.22299816 -0.08572821  0.10335286  0.00703971 -0.16127852
  0.2800509  -0.10404318  0.2865211  -0.166889   -0.155321    0.16770832
  0.03431335  0.06360243  0.29298636  0.05708199 -0.0621842   0.10695463
  0.3644863  -0.02462616]
[ 0.04472011  0.22147071 -0.33229098  0.24094228  0.2869713   0.23602425
 -0.01312651  0.31859848 -0.3901295  -0.10562532  0.19975807 -0.0222552
  0.24450314 -0.31386608 -0.16006976 -0.05872493  0.01050114 -0.20667125
  0.20749243 -0.22260745]
[ 0.28755313 -0.3247449  -0.04088464  0.27171385 -0.2885795   0.08617438
  0.15680422 -0.2635099  -0.10191562 -0.04954052  0.17425056 -0.04731245
 -0.07781524  0.19331773 -0.0657547   0.0114284   0.2617658   0.03993864
 -0.0925255   0.15349011]
[ 0.25531492 -0.19608335 -0.18729913  0.19740465  0.30711755  0.18233939
  0.15978445  0.06533229 -0.09515029  0.06369577 -0.02683004 -0.03618551
  0.13929826 -0.26023147 -0.33313164  0.14508094 -0.05986141 -0.08977329
 -0.23040165 -0.14942992]
[-0.11126502  0.05198513 -0.01474883 -0.25754237 -0.2996189   0.01100228
  0.13486613  0.30786887  0.14738205  0.27551892 -0.2224929  -0.19484074
 -0.10474253  0.08154119 -0.18648688  0.10460437  0.3734769   0.10895797
  0.29627228 -0.11852528]
[ 0.29341534  0.23860429  0.01997843 -0.00733411 -0.2327784   0.06871004
  0.04696598  0.170623    0.27953294 -0.33655316  0.13681364 -0.12467463
  0.07806259 -0.31227323 -0.22111176 -0.05379595  0.03347554  0.01041629
  0.28096896  0.27828476]
[ 0.05421975  0.0616565   0.12765476 -0.37595305  0.00326924  0.05693335
 -0.22006807  0.35126737  0.03626351  0.28648624  0.04142721 -0.29675242
  0.29918385 -0.1258904   0.12645894  0.0752809  -0.33193246 -0.1167364
  0.10769352 -0.11751146]
[-0.11679041  0.40596214  0.348224    0.14863098  0.07896776  0.19953322
  0.13849056 -0.17617695 -0.31250587  0.12098826 -0.2961472  -0.02015688
  0.03966091 -0.37676346 -0.2897146   0.12113055 -0.07635446  0.18036926
  0.01611641  0.25584176]
[-0.08438312  0.26215208 -0.2720867  -0.17983894  0.23019156  0.01770473
  0.13926494  0.09610055 -0.08892011  0.35695753 -0.15491658  0.18431681
 -0.1924634  -0.3705577  -0.25429982 -0.21020384  0.11080711  0.36914015
 -0.0971693   0.06413804]
[ 0.0712802   0.16095327  0.03882696  0.05265673  0.17269541  0.01224008
 -0.11404565 -0.22677638  0.18941018 -0.11498687  0.1934792  -0.2768626
 -0.0428484   0.19146855  0.31833425 -0.3013697   0.03658355 -0.42463446
 -0.24241479 -0.01562208]
[-0.31786832 -0.04625796 -0.18208121  0.20074038  0.05687996  0.13562942
 -0.10624293 -0.2756521  -0.07400973 -0.24836323 -0.27637088 -0.15880932
  0.18648802  0.1952247   0.09184054  0.1441086   0.23400237  0.0665586
  0.17281793 -0.00683187]
[ 0.0106142  -0.13031437 -0.10724388 -0.09660938 -0.07250194 -0.21086802
  0.25717458  0.26836658 -0.20078376  0.2098916   0.265387   -0.06184489
 -0.10191029 -0.26804098 -0.23323824 -0.26020455  0.2941596   0.04209435
  0.04903096 -0.22174202]
[-0.08354355  0.21501097 -0.16729595 -0.14712411 -0.09950902  0.2634884
  0.08290789 -0.1517125   0.4074278  -0.27712908  0.05985107 -0.1558741
  0.2932307   0.12795761  0.38863456  0.0218033   0.07231759  0.0955974
 -0.02873181 -0.31180978]
[-0.10010533 -0.11322707 -0.04084098  0.07770768 -0.1302499  -0.15526228
  0.26024076  0.11533579  0.2590061  -0.02051835 -0.09967618  0.11751024
 -0.21184526 -0.24329208  0.09646529  0.2537454   0.06444258 -0.18682282
  0.19686022 -0.0917636 ]
[-0.04944248  0.14521372 -0.20737624 -0.06408112 -0.32610524 -0.25936785
  0.09662034 -0.15221244  0.34510338 -0.04499483  0.04519519  0.06254327
  0.2768858  -0.13865381 -0.31124568 -0.27419743 -0.13295376  0.37279454
 -0.21909781 -0.03963843]
[ 0.01289014 -0.28427145  0.20326146  0.35782093  0.01857271 -0.0817853
 -0.17840032 -0.38018662 -0.00972199 -0.1530898  -0.0864334   0.25478244
  0.0912992   0.36387625  0.28342563  0.2414561   0.04995567 -0.40232462
 -0.08008904 -0.13359672]
[-0.01091217  0.06880159 -0.16817147  0.1091999  -0.16092533 -0.21730533
 -0.00125174 -0.24632245  0.21533933  0.06339629 -0.21118858 -0.25405
  0.01183018 -0.1075745  -0.03821869  0.17313743 -0.12808292  0.24416625
 -0.19808282  0.03634415]
[ 0.11664815  0.28852546  0.18317115 -0.14465974  0.00085865 -0.24259847
 -0.05605526  0.00601644  0.09444056 -0.00991882 -0.02618612  0.00181645
  0.18672916 -0.20755145  0.12373013  0.1873753   0.3425467   0.09102335
 -0.2999525  -0.26549685]
[-0.1585018  -0.30012143  0.04788864  0.3767966   0.03071134 -0.27004007
 -0.31674275 -0.3389434  -0.16403505 -0.23352595 -0.25913745  0.00131455
 -0.12797277  0.11766574 -0.15304822  0.11814334  0.06316396 -0.17084189
 -0.14902426 -0.30464384]
[-0.23505291  0.02888766  0.3620349   0.07317685 -0.40650544 -0.22856714
  0.04630081  0.3829397  -0.41071373  0.39164597 -0.41602916  0.37241578
  0.12376892 -0.11800389 -0.03543052 -0.23789223 -0.00599116  0.2564087
  0.34697577  0.06543943]
[ 0.23639582  0.08888422 -0.17406715  0.15715535 -0.19230886 -0.17920683
  0.21017325  0.09684475  0.17608199 -0.17575382  0.30963433 -0.07073058
 -0.09614853  0.05499055  0.05043442  0.04536911  0.32784602 -0.26249197
  0.1245807  -0.0165086 ]
[-0.1979187  -0.06549346  0.3407353  -0.10654625 -0.3869216   0.00677042
 -0.14580007  0.3295598   0.1377201  -0.24214013 -0.20217676 -0.14688645
 -0.09685607 -0.11538436 -0.21371445 -0.30357632  0.35923404  0.22196254
  0.31303906  0.319538  ]
[-0.16685995  0.21883143 -0.28055808 -0.14566574 -0.2861305  -0.29354644
  0.03445399  0.2978082  -0.03246094  0.14573096  0.11257374  0.12455768
 -0.17963047  0.14690077 -0.14931896 -0.05489649 -0.13060145  0.20682666
  0.03313347 -0.04763862]
[ 0.29477087 -0.08111479  0.02075862  0.21839951 -0.20650274  0.08651677
 -0.3080368  -0.09031598 -0.35144544  0.1545941  -0.24776214 -0.09859446
 -0.13533938  0.07357587  0.18817134 -0.2867805  -0.02735495 -0.08470532
  0.32372254 -0.20722197]
[ 0.03658713  0.14643437  0.06865798 -0.18719445  0.08322704  0.06477862
  0.20118149 -0.1713723   0.01310045  0.16150576  0.10848572  0.17368935
 -0.16905461 -0.09326424 -0.18754908  0.20791653 -0.29823345 -0.26898542
 -0.13295099  0.25161642]
[-0.00944461 -0.00029425 -0.03209572  0.02676325  0.01236981 -0.00222639
 -0.0573938  -0.06808276 -0.08018104  0.00721174 -0.03780793  0.02788773
  0.00173325  0.05469233  0.02255771  0.01956953 -0.0274092  -0.06828382
  0.02990229  0.01526842]
layer 5 Activation
tanh
layer 6 Dense
20 1
[-0.01133403]
[0.0528491]
[0.0128467]
[0.44064644]
[0.27949566]
[-0.10265972]
[-0.37082586]
[0.33973908]
[0.126778]
[0.20765953]
[-0.21084726]
[-0.01300371]
[0.04004316]
[-0.05629406]
[-0.10224745]
[0.00931456]
[-0.19127938]
[-0.15810288]
[0.18276945]
[0.19564126]
[-0.01452835]
