layers 7
layer 0 Dense
20 20
[-0.5650892  -0.25912854 -0.19881082 -0.43780038 -0.10343384 -0.20657235
  0.42977563  0.50540286 -0.06447772  0.05326087 -0.4246373  -0.14272195
  0.2360519  -0.17432055 -0.19227697 -0.01951341 -0.11437389  0.08356117
  0.04760721  0.24662481]
[-0.11586118 -0.22969545 -0.54768    -0.83213115  0.34631833 -0.00658567
  0.08446886 -0.15119724  0.4487709   0.07145364  0.01600742  0.27622497
 -0.18203172  0.16839488  0.07975653 -0.14863326  0.15045087  0.24180524
  0.25551787 -0.20416458]
[ 0.13957384 -0.05306236 -0.24122395 -0.9202465   0.29947796 -0.17030898
 -0.05504545  0.21097167 -0.02510321 -0.35690814 -0.12877935  0.4345957
  0.13875425 -0.13927226 -0.42046177  0.02178623 -0.22737075  0.43122318
  0.43350765 -0.21274006]
[-0.23505141 -0.16101962 -0.06103354 -0.7028738  -0.30064917  0.21640764
 -0.07709686 -0.03367545  0.21691671 -0.16477956 -0.16637747 -0.2617075
 -0.10198945  0.34028697  0.05134953  0.26619875 -0.21684112  0.36242968
  0.4448845   0.30602136]
[-0.3401843  -0.5733946  -0.32131886 -0.13244681  0.33465374  0.27201846
  0.30382088  0.14496745  0.24449435 -0.05601089  0.11812069 -0.1554675
 -0.20784771  0.12050348  0.290292    0.47365528 -0.23504525 -0.05470204
  0.30184734  0.19377613]
[ 0.15616299  0.24447678  0.24391659 -0.01421437 -0.42600068 -0.26190516
 -0.36345208  0.23255011 -0.20361336  0.1432306  -0.29502416 -0.17302126
  0.47424704 -0.2274967   0.18749031  0.04404942 -0.01512039 -0.15459304
 -0.12141589  0.13979256]
[ 0.20567541  0.32921472 -0.09640855  0.37688217 -0.0763287  -0.13591115
 -0.21981375  0.25246888 -0.42194247  0.48112786 -0.23992398 -0.09290455
  0.35383558  0.26049665  0.5673186   0.1866686  -0.08667678  0.20848255
  0.20369293  0.49179837]
[ 0.5575212   0.7019867   0.37914938  1.0717992  -0.05072516 -0.35829028
 -0.4990942  -0.6569112   0.42428848  0.3202808   0.32322896  0.3835373
 -0.03633394 -0.42247766  0.03986251  0.33355758  0.74332494  0.12989998
 -0.27500573  0.205428  ]
[ 0.06420913 -0.45725772 -0.05457165  0.2036025  -0.21324426  0.13054743
 -0.2948057  -0.2683592  -0.1741195   0.40233245  0.33140227 -0.41182733
 -0.39248914  0.31173444 -0.01840393 -0.14540206 -0.01287758 -0.4963829
 -0.02938577 -0.38783318]
[ 0.43506217 -0.04182435  0.16469821  0.12612359  1.0917779   0.00718349
  0.4112052  -0.075661   -0.36269987  0.2740005   0.14493862 -0.12997006
  0.23740798 -0.09108955  0.13351172 -0.27210298 -0.2590233   0.21789068
 -0.07614682 -0.8255543 ]
[-0.10993735 -0.0294258   0.01582504  0.63508725  0.8315143   0.08267257
 -0.49163347 -0.01434922 -1.232489    0.6697759  -0.19515215 -0.57506686
  0.05354483 -0.0909944   0.9020476   0.16137204 -0.2380388  -0.86269647
 -0.29408038  0.5340102 ]
[ 0.6154332   0.50891316 -0.08708104  0.7572664  -0.14295924  0.10594169
 -0.10162424 -0.48674384  0.5966933   0.08374136  0.47908846  0.5546325
 -0.14799309 -0.1600336  -0.6135785   0.19138075 -0.11344307 -0.24645558
 -0.14697753  0.05779983]
[ 0.22772707  0.86941063  0.10255279  0.1513763   0.6047279   0.10777911
  0.02664543  0.05465228  0.2212071   0.19268994 -0.14522195  0.778963
  0.27620864  0.07305787 -0.4995212  -0.61638325  0.5762851   0.6330356
 -0.10353995  0.0983266 ]
[-0.35734951  0.48593393 -0.06475478 -0.16324826 -1.631339   -0.345068
 -0.35746282  0.09247267 -0.00914172 -0.30229634  0.07758591  0.05147002
  0.4911999  -0.4160349  -0.5077574   0.38701022 -0.24334122 -0.2067752
 -0.21470094  0.13386463]
[-0.16675285 -0.22942753  0.14444515 -0.7312664  -0.36717895  0.19278267
  0.17129503  0.11208903 -0.2749701  -0.41622642 -0.11852237  0.14209668
 -0.20893212 -0.06018398  0.16125163 -0.17610623  0.40575603 -0.07736366
 -0.28656295 -0.22945929]
[-1.0036837  -0.51934224 -0.20841447 -0.80508876 -0.01877202 -0.16827485
  0.625358    0.20630907  0.30092147 -1.285345    0.01691287 -0.3993157
 -0.41068918  0.40858933 -0.48489013  0.06463732 -0.4383165  -0.24061798
  0.11014939  0.3487259 ]
[-0.1960059  -0.1677082   0.1434651  -0.28229252 -0.27110586 -0.29400995
  0.02417353  0.19545715  0.05293926 -0.11791465 -0.38677853 -0.61328274
  0.133912   -0.09342412  0.30737138  0.03556283 -0.23302501  0.09868129
  0.17745729 -0.58366597]
[ 0.08013923 -0.30032483 -0.04115634 -0.16282709  0.44938362 -0.09388521
  0.6734469  -0.05119217  0.04924764 -0.0108037   0.12647703  0.33191863
 -0.66843814  0.6792583  -0.26990536  0.50234044 -0.43343905  0.11623582
  0.05575188  0.4847771 ]
[ 0.14216569  0.09598053  0.32881185  0.73986924 -0.03270895 -0.05777477
  0.18415591 -0.05819685  1.7254453  -0.30999005  0.0709079   0.35229233
 -0.5466974  -0.54160714 -0.10662787  0.14887884 -0.63426125  0.5957893
 -0.1678428  -0.8346155 ]
[ 0.21587431  0.59650236  0.9424483   0.974316   -0.07601135 -0.41831282
 -0.46630168 -0.32706693  0.11459978  0.20480476 -0.21814068  0.6918152
 -0.04226923 -0.49379352 -0.11008068  0.22972019  0.6222892   0.4723855
 -0.2069981  -0.5099133 ]
[-0.20371862 -0.11347482 -0.20031087 -0.40759546 -0.20382142  0.00482068
 -0.0125158   0.16864753 -0.08445212 -0.08938008 -0.05360312 -0.09218004
  0.17964666 -0.0383925   0.05937932 -0.07480474 -0.1731045  -0.02274276
 -0.06138253 -0.00808294]
layer 1 Activation
tanh
layer 2 Dense
20 40
[ 0.06150118  0.08201709  0.01176164 -0.16145962 -0.35703903 -0.02437004
  0.8045443  -0.19984739 -0.15321824  0.09019621 -0.24010038  0.20835064
  0.01224307  0.24460559  0.45830104 -0.10085088 -0.11719569  0.03381178
 -0.09025978 -0.31345084  0.20724404  0.08582135 -0.3276154  -0.18097045
 -0.03973567 -0.24284285 -0.18754558 -0.1765071  -0.28944626  0.10840455
  0.44819316 -0.13920109  0.19652316 -0.29708996 -0.2435647  -0.09136373
 -0.10842473 -0.36576664  0.24764843 -0.11473948]
[ 0.06067708 -0.20322543 -0.13447742  0.49498594  0.5366702   0.09347793
  0.44825476  0.2551323   0.0088561   0.4589657  -0.26108617 -0.2635548
 -0.2750785   0.01767694 -0.2305162  -0.5220896   0.14759833 -0.8553816
 -0.36455533 -0.29117605 -0.34073654  0.14613175 -0.49248317  0.46732825
 -0.01103105 -0.24504566  0.13586622  0.07130661 -0.28391948 -0.02813629
  0.73362255  0.1659332   0.43212995  0.15702596 -0.27908096  0.17927365
 -0.41457283  0.00479083  0.42993623  0.23923658]
[-0.252329   -0.23232797  0.07555161  0.31902778  0.49215     0.6993246
  0.32108885 -0.11924869 -0.10421325 -0.04900112 -0.10895109  0.14147712
  0.1945871  -0.320637   -0.07235537 -0.02425476 -0.02423206 -0.05443328
  0.16722456 -0.24083294  0.02165881  0.583031   -0.02847669  0.11535311
 -0.263431   -0.14950515  0.2881708  -0.29216692 -0.23393114  0.12304059
  0.2551522   0.05829382  0.10031085  0.0704741   0.22400993  0.06318252
 -0.07024288 -0.17898813 -0.19087423  0.2555163 ]
[-1.11501606e-04 -5.06567836e-01 -4.06687766e-01  2.06637099e-01
 -1.29752457e-01 -3.06910247e-01  9.12342548e-01  5.77767074e-01
 -3.28284830e-01  3.40174019e-01 -4.10676971e-02  2.81844959e-02
 -4.25185353e-01 -2.40118131e-01 -7.00375214e-02 -3.02207321e-01
  1.03728592e-01 -3.95979255e-01 -5.43327868e-01 -3.18136603e-01
  3.40137750e-01 -1.25940070e-01  6.39068708e-02 -1.82249680e-01
 -3.44818562e-01 -5.79218149e-01  8.23193267e-02  3.92875344e-01
 -5.12004375e-01 -1.41253248e-01  4.31832731e-01 -2.00069383e-01
  9.51436579e-01  5.71694002e-02 -4.19906527e-01  3.29739511e-01
  1.33941725e-01 -1.56388819e-01  3.95030409e-01 -9.66176465e-02]
[-0.08377686 -0.45350814 -0.05715803  0.05196156  0.11569294 -0.6359065
  0.6063977   0.09038079 -0.21051316  0.3130428   0.08739353 -0.2490927
 -0.25066683  0.34444854 -0.12664533 -0.16090503  0.00340603 -0.18831418
  0.03377557  0.04323595 -0.04645945 -0.06895152  0.13477457  0.24753514
  0.11783062  0.13192043 -0.13947368  0.24157357 -0.17373212  0.20191127
  0.02334929 -0.3128451   0.49476302  0.1611775   0.03182793 -0.09304222
 -0.00653195  0.14248468  0.03201808  0.05373321]
[-0.04672173  0.01124586 -0.04088707 -0.18179692 -0.5204576  -0.490409
  0.0169303   0.02171377 -0.1950994  -0.03984126  0.08108167 -0.20885432
  0.23077235  0.25045872  0.23133487  0.00286755  0.17449225  0.00215059
  0.02723225  0.0196186   0.06236702 -0.33397603  0.02424698  0.15239653
 -0.25745732 -0.18446882  0.23825519 -0.32757235  0.25629252 -0.26736692
  0.01643225 -0.18982816 -0.08991503 -0.20948327  0.0070247   0.00984581
 -0.05270711 -0.14815581 -0.0496107  -0.11599507]
[ 0.13663632  0.00212177  0.18338326 -0.4447049   0.15244313 -0.15242141
  0.04219946 -0.314991    0.15962192 -0.27632496 -0.03997257 -0.17020088
 -0.2650197   0.10623117  0.13144429  0.20575498 -0.15754052 -0.04066274
  0.25118664  0.04275296  0.02114856  0.21432562 -0.24259348 -0.09310397
 -0.02091537  0.2579544  -0.0706314  -0.06661692  0.2623336  -0.1639291
 -0.06462183 -0.40289143  0.06362461  0.35199118 -0.21041726  0.17068392
  0.26479217  0.15521216 -0.26916066 -0.21141729]
[-1.3958015e-01 -8.2539335e-02  8.7778702e-02 -2.2316149e-01
 -1.4057943e-01 -2.4909121e-01 -6.0065162e-01  4.5530516e-01
 -2.4227129e-01 -2.8268707e-01  2.7889039e-02 -1.1213928e-03
 -6.1873563e-02  5.5566279e-04 -3.3419997e-01  3.1282836e-01
  1.4296374e-01  5.7313260e-02 -2.0516513e-01  5.8808323e-02
  4.9198400e-02  2.8413394e-04  2.0452754e-01 -9.3811922e-02
  4.1854498e-01  2.6099893e-01 -1.2658182e-01 -1.2711236e-01
  4.2706859e-01  8.3641469e-02  7.3482715e-02 -1.8922172e-01
 -1.1335610e-01 -2.4876353e-01  2.1592085e-01  2.2128779e-01
  1.5944308e-01 -8.2497731e-02 -2.8390002e-01 -2.7073768e-01]
[ 0.438382   -0.41748327  0.10756242  0.09358412  0.9309766   0.40330246
 -0.24144962 -0.15411304 -0.12252744 -0.33679783 -0.05162898 -0.14272545
 -0.35947645  0.3845668  -0.5518147  -0.07754688 -0.11089465 -0.09271845
  0.2961492  -0.38454783 -0.12833849  0.21167147  0.16896105 -0.38481107
  0.10710055  0.11201661 -0.32499775 -0.08852765 -0.386455    0.15986408
  0.16303355 -0.43155754  0.13286665  0.44552642 -0.2224555  -0.28519493
 -0.14966713  0.46060497  0.08014625 -0.43599784]
[-0.05488658  0.2066043  -0.07138635  0.05783782 -0.29881686 -0.364952
  0.1694216   0.01081748  0.23036034 -0.235287   -0.06358401 -0.21259521
  0.09151202 -0.20760344  0.22434211 -0.17175208 -0.0542493  -0.02610968
 -0.296066    0.48695892 -0.04555749 -0.17994435 -0.1664469   0.24103881
  0.11444918 -0.07901618 -0.09449472 -0.15310784  0.12649484 -0.00227512
  0.0915533   0.0251072   0.46932527 -0.02196182  0.05372903  0.3016312
 -0.01881812  0.1602521   0.29606035  0.03903059]
[ 0.19047333  0.06470166 -0.17003222 -0.3508202   0.24719465  0.05254228
  0.04903934  0.05880917  0.08209392  0.37994337 -0.12969145  0.12904346
 -0.32562935 -0.31024548  0.4512271  -0.3723806   0.07172702  0.27961054
 -0.12021002 -0.31144062 -0.16397958  0.1053023   0.27395758 -0.19374366
  0.207789   -0.11196536 -0.28111616 -0.08876844 -0.3883363   0.1420487
  0.19040489 -0.03052221  0.19595295  0.3547801   0.23150215  0.25099206
  0.1865483  -0.4708375   0.10241264  0.10584918]
[ 0.0376665  -0.24151286 -0.07903625 -0.01310385  0.30463117  0.3712591
  0.55182546 -0.10657854 -0.05677501  0.19789656 -0.19698325 -0.0422073
  0.01021106  0.023993    0.15507543 -0.5512341   0.42667025 -0.40353724
 -0.20197968 -0.9464736   0.01623218  0.39878845 -0.61689013  0.12655815
  0.20334712 -0.17334896  0.04628197  0.30482456 -0.180263   -0.2759686
  0.0876009  -0.44901556 -0.21964827  0.07376482 -0.2602899   0.23487462
  0.25340518 -0.32563227 -0.05561752 -0.26915786]
[-0.2612792   0.21798557 -0.0919156   0.34204158 -0.1417872  -0.1585894
  0.0441706   0.44173974 -0.2490056   0.22966273 -0.17231032 -0.22787127
  0.15074955 -0.23866461 -0.26221943 -0.20465733 -0.07793141  0.09238708
  0.23029527  0.07411073  0.07715431 -0.12477873  0.06434652  0.28518486
  0.06010243  0.1962052   0.17664184  0.2424406   0.39759856 -0.04500643
 -0.21648799  0.33903706 -0.21165273  0.16344689 -0.25064227 -0.07743923
  0.0025966   0.24025707 -0.13068107  0.09189186]
[ 2.91126687e-02 -4.92975563e-02 -9.69276801e-02 -2.46364430e-01
 -4.16059703e-01 -6.16882205e-01  1.45105585e-01 -3.12220901e-01
  6.97688386e-02  1.75355911e-01 -2.25116402e-01  1.54479384e-01
 -1.45773038e-01 -2.21337199e-01 -2.19622940e-01  1.33784264e-01
  2.30536476e-01  1.03935696e-01 -2.87824236e-02 -1.79389834e-01
 -4.95491773e-02 -5.54133542e-02 -2.15893313e-01  2.67152339e-01
  5.13326086e-04  5.63058406e-02  1.79435015e-01 -2.50833988e-01
  2.65967920e-02  2.67450511e-01 -1.61718413e-01 -1.16979122e-01
 -1.02883995e-01  1.16669707e-01  2.87824392e-01 -7.61594772e-02
  2.32330635e-01 -2.73555110e-04 -2.25222722e-01 -2.48748049e-01]
[-0.32164863  0.2151258   0.06871608  0.0216073  -0.59301776 -0.36862448
  0.0393317  -0.0840978  -0.05166321  0.15904154 -0.07803772 -0.36267045
  0.05474444 -0.15666184 -0.08087933  0.17823951 -0.42567688  0.25964946
  0.07741258  0.5055135  -0.13302803 -0.16491888 -0.01520206 -0.23050433
 -0.03107594 -0.26066533  0.28774163 -0.00399352 -0.27737454 -0.32966852
  0.09502926  0.42102444  0.35789758 -0.28572446  0.18669906 -0.30210027
  0.30494958 -0.20172998 -0.12043288  0.23273505]
[ 0.14441338 -0.10189477  0.14292154  0.12705833  0.24352267  0.12961562
 -0.07798285 -0.27837196  0.20043123  0.01684349 -0.03389171  0.093712
  0.21627796 -0.00134126  0.10526542  0.18294024  0.11480693 -0.08313051
  0.20535442  0.04238465 -0.05322661 -0.15419579  0.16332603 -0.2755922
  0.07769625  0.10445134  0.12935302 -0.24291779  0.00471811  0.13561305
  0.15049544  0.00848386  0.20511563 -0.06016256 -0.3056523  -0.32387644
 -0.15749073 -0.03716875  0.20640431  0.27385288]
[-0.40063623 -0.25403732 -0.00908816 -0.26756522 -0.44910225  0.22299623
  0.03449037  0.3391418  -0.23017901  0.29643744 -0.22650953  0.23152874
  0.04433123  0.14272618  0.39451793 -0.31202632  0.19166628 -0.15647477
 -0.10297464 -0.24678409  0.19003277  0.0180126  -0.6256972   0.33491144
 -0.48312813  0.01026877 -0.30411756  0.50086576 -0.3896318  -0.14067048
  0.18641864 -0.20835121  0.09514932 -0.06907807 -0.25919652  0.54125553
 -0.0196048  -0.24329099  0.09661053  0.03374182]
[-0.29959562 -0.37219805  0.44309235  0.4126014   0.33724937  0.36004353
  0.046859    0.1228578  -0.02019726 -0.5400254   0.06028602  0.03750934
  0.32133812 -0.06511994  0.24851348  0.3010016   0.0202204  -0.08930254
  0.36579335 -0.25035694 -0.100743    0.32816637 -0.24734122  0.08408044
 -0.25319302 -0.21338132 -0.19404784  0.12940946 -0.00859553 -0.12000861
  0.36774302 -0.3295505  -0.23616445  0.22213757 -0.3540499  -0.20605522
  0.13439149  0.16343157 -0.5685945  -0.40943074]
[-0.03052935 -0.16259809  0.18528545  0.02383479 -0.24096414 -0.00772007
 -0.206868   -0.14714532  0.09438179  0.13290964 -0.03373281  0.2675631
  0.34223554  0.22632244 -0.24306448  0.11480331  0.04382885  0.2735252
  0.22183594  0.13652524 -0.13965233  0.152282    0.05606743 -0.14959274
 -0.03805232 -0.11160298  0.17651    -0.14482439 -0.12892433  0.13641912
 -0.07581032 -0.32548478  0.1039542   0.02397515 -0.08349873 -0.07139476
 -0.11094946  0.31747457 -0.04343167 -0.2501196 ]
[-0.24920343  0.28108475 -0.22158293 -0.20376138  0.01837515 -0.8313832
  0.10984648  0.5314675   0.15528396  0.16166107  0.16867653  0.34115887
 -0.07352993  0.33871102 -0.00583408 -0.08345661 -0.15839067  0.23849404
 -0.558549   -0.28752863  0.1303687   0.03380229  0.00451471  0.12337818
  0.11828309 -0.0070389  -0.20039015  0.07191658  0.03141687 -0.25152975
  0.00379171  0.04694043  0.29651806 -0.14965719 -0.01845841 -0.02313678
 -0.01158418  0.18724486  0.11993997  0.13536045]
[-0.04288793  0.06889433  0.20128033  0.00429156 -0.00658815 -0.19605027
 -0.16993056 -0.05192319  0.11649532 -0.0862423   0.24255046  0.09132745
  0.30671927  0.11495415 -0.21790242  0.30060866  0.15021366  0.10344829
 -0.08043345 -0.03345732 -0.13188814  0.09613108 -0.05921548  0.09527779
  0.15630735  0.05551974 -0.08907524 -0.09215061  0.31418163 -0.05262887
 -0.21948892 -0.02203485 -0.13114083 -0.07865849  0.02277714 -0.09397239
 -0.06714512  0.04986444 -0.14902551 -0.1494511 ]
layer 3 Activation
tanh
layer 4 Dense
40 20
[-0.23529382 -0.24672656 -0.32373565 -0.12323156 -0.13516043 -0.06747676
  0.28129566 -0.23961982 -0.15876924  0.1936153  -0.193855    0.04556463
  0.14984784 -0.29446083 -0.1200701   0.19372393  0.04251371 -0.10693155
 -0.11717752  0.09570707]
[ 0.01776304 -0.04876259 -0.16078363  0.16695084 -0.31638408  0.23382337
  0.1953616  -0.14530428 -0.0237848  -0.19331948 -0.22715293 -0.16142602
  0.07410391  0.29326984 -0.20144174 -0.47632802 -0.17175266  0.04746619
  0.02743752  0.17819129]
[-0.00668055  0.09862046  0.01305591  0.00278682  0.0909057   0.18854745
 -0.18974791  0.06155777 -0.21357071  0.2366774  -0.09011663  0.09718689
  0.02467032 -0.20711051 -0.13878328 -0.2625157  -0.00992117 -0.18663643
 -0.10719464 -0.00136719]
[ 0.00676186 -0.3690406   0.06766781 -0.17675523 -0.20421249 -0.0048575
  0.12745881  0.10883941  0.21717133  0.04713869  0.22704108 -0.03797906
 -0.18961155  0.15701576 -0.00757314  0.0711966   0.04542864  0.27435932
  0.01180533  0.00583237]
[-0.1178735  -0.0500706  -0.09461707 -0.32935858 -0.20084102 -0.07611305
  0.04963044 -0.0890666  -0.02437113  0.40230426 -0.25893605 -0.06188167
 -0.29973564 -0.33183655  0.07983017  0.33432648  0.19713998  0.11592782
 -0.09311034 -0.16662365]
[ 0.36337382  0.26022542  0.02317668 -0.23639184 -0.03698402 -0.14385909
  0.05142761 -0.37414122 -0.18342032 -0.371531    0.43204904  0.13607553
  0.27658913 -0.137458   -0.19873825  0.06630215 -0.27190387  0.06398343
 -0.06335305  0.34444794]
[-0.11306919 -0.23967451  0.07965758 -0.07059373  0.27099997 -0.07223541
  0.08415739  0.5309113  -0.23284474 -0.33205962  0.03534154 -0.14141102
  0.11719215 -0.1528145   0.18247736  0.21274392 -0.18013601  0.05757392
  0.06953686 -0.20012572]
[ 0.3117456  -0.24919844  0.18840335  0.28040293 -0.21968694  0.07204565
 -0.14578569  0.10904898  0.0612235  -0.2164061   0.0564782   0.19816019
  0.2523348   0.33059567 -0.09057198 -0.17464651  0.0547472  -0.07603441
 -0.06652887 -0.31445116]
[-0.07002344  0.00447548  0.06603666 -0.13964443 -0.02272799  0.03441965
 -0.21619596 -0.18926384  0.18100524 -0.01967421 -0.23278862 -0.12299183
  0.06664397 -0.03643846  0.18539752 -0.03642901  0.18340547 -0.28970808
  0.22142422 -0.16024056]
[ 0.22532356 -0.3080353  -0.10205325  0.28809315 -0.12093662 -0.15795305
 -0.17556216  0.21015987 -0.33043104 -0.50849193 -0.40696356  0.23486105
  0.11499439 -0.12332579  0.24996343  0.07976205  0.16647556  0.19757022
 -0.02530814  0.02538762]
[-0.34465864  0.07871745  0.26119828  0.04642159  0.26409212  0.18278205
 -0.36593065 -0.12706928  0.04532431  0.26599616 -0.31112993 -0.05923342
  0.24622877 -0.01300204  0.1031137  -0.14509907 -0.03655643 -0.12525003
 -0.04804819 -0.02319848]
[ 0.13993336 -0.06745858 -0.23691602 -0.02757977 -0.12725781  0.18850985
  0.1794493   0.03378396 -0.2770644  -0.10014567 -0.23369162 -0.0783208
 -0.10599671  0.09140853 -0.21935144 -0.19792616 -0.00267896  0.07788386
 -0.05166616  0.10445479]
[ 0.055627    0.07048967  0.08023632 -0.1518986  -0.02937685 -0.13537294
  0.18100816 -0.02331831 -0.01301313  0.04213384  0.04152163 -0.1284035
 -0.2257208   0.02792447 -0.06016193 -0.41453123 -0.16598327 -0.28624222
 -0.24815969 -0.10600744]
[-0.20865144  0.06282658  0.19697385 -0.23087692 -0.10023063  0.25207046
  0.05461616  0.18671896  0.18785937  0.33060282 -0.31512812  0.21989402
 -0.23711503  0.24550499 -0.09507263 -0.13096574  0.14998992 -0.10309661
 -0.2282403  -0.1298345 ]
[ 0.41316608  0.20823494 -0.01397063  0.0770731   0.09564543  0.12372943
  0.02814615 -0.05719008 -0.220334   -0.3801829   0.3383279   0.14580742
 -0.19009762  0.12283738 -0.25649083  0.1803012  -0.24461837  0.1941276
  0.18067268 -0.26434755]
[-0.25199416  0.2639527   0.3191422   0.17061248  0.00346038 -0.08194771
 -0.09897725 -0.11459441 -0.34036216  0.3610661  -0.1812946  -0.11380628
 -0.17870168 -0.03195198 -0.17713913 -0.28156102  0.2661122   0.2601062
 -0.09161837 -0.27089003]
[ 0.04433428 -0.08362024 -0.30533686 -0.17335817 -0.17149282 -0.16328067
 -0.05140282  0.1264807  -0.23354276 -0.01815583 -0.13687186 -0.02265933
 -0.20567665 -0.08253772 -0.06574367 -0.24337654  0.0798041  -0.2249811
 -0.01161839  0.08355884]
[-0.18636625  0.32681513 -0.18916973  0.37517527  0.22816135  0.11598183
  0.02252617  0.00219863  0.08392132  0.04412977 -0.4077622  -0.4298954
 -0.03068923  0.12436809 -0.1494432  -0.29189786 -0.27169734  0.2740576
 -0.32583398 -0.30456617]
[ 0.1804607   0.20041701 -0.23625553  0.16023102  0.04205251 -0.00078517
  0.0828985   0.08165023 -0.24158159  0.07306486  0.34983477 -0.04862738
 -0.21830073  0.03312789 -0.03984759 -0.25289074 -0.03652634 -0.04125784
  0.13091408 -0.18044358]
[-0.21611135  0.06327168  0.10109748  0.34433916  0.12605558  0.13652618
  0.16688186 -0.25238982 -0.14776933 -0.00519302  0.20042832 -0.06300315
 -0.23320724  0.30548185 -0.14986701  0.0393692   0.1410089  -0.21586058
 -0.18674067 -0.0345906 ]
[ 0.14768821  0.06096601  0.09270503  0.15553714  0.09557921  0.09865191
  0.04004014  0.10559807 -0.13410576 -0.26856396  0.05525882  0.03331537
 -0.23125863 -0.05646731 -0.13158898  0.23857568  0.00338893  0.25564158
 -0.22789033  0.06431591]
[-0.02236552  0.13814287  0.19350097 -0.27804533 -0.10319633  0.07133831
 -0.12970382  0.06286458  0.13452305  0.31335905 -0.12872143 -0.02561334
  0.17287296 -0.21278974 -0.15622543 -0.04625277 -0.1501734   0.18893255
 -0.01368051  0.05763232]
[-0.08835931 -0.21839614  0.2002562   0.2887726   0.2059691   0.11859524
 -0.14480053 -0.22664022  0.1586513   0.19103527 -0.1875651  -0.00572644
 -0.08564486 -0.27485877 -0.14180471  0.07574778 -0.13994159  0.00548251
 -0.21749827 -0.1140139 ]
[ 0.26987013  0.11618041  0.06086625 -0.22447512  0.07925252 -0.14982809
  0.15416372  0.23056114  0.36679423  0.07572975 -0.17021236  0.15918896
 -0.09748495  0.3680028  -0.30186707 -0.2706444   0.41062844 -0.32937983
  0.02173868  0.04068011]
[-0.1670666  -0.14127779 -0.02629092 -0.19207814  0.11899228  0.19004562
  0.2976322  -0.31793976 -0.21038257  0.43089786 -0.36483535 -0.1187638
  0.03967471 -0.1739587   0.08223458 -0.04331897 -0.04949635 -0.15535851
  0.26310137  0.2329144 ]
[ 0.05579396 -0.0416449  -0.00763844 -0.01264316 -0.07771131  0.15753593
  0.04815976 -0.2599805  -0.01050901  0.42710105  0.09865726 -0.3715765
  0.2487481   0.12625055  0.07282779 -0.42472026  0.07518159  0.15537056
  0.25084382 -0.08587606]
[-0.06148662  0.07587707  0.34672564  0.19085805 -0.21083435  0.30674902
 -0.02682469 -0.20828792 -0.20964243 -0.19507204 -0.08808388  0.07863681
  0.21842608  0.12990078 -0.3340941   0.27962774 -0.17436671 -0.15081418
  0.15005812  0.01823528]
[ 0.15715326  0.02437083  0.1748697   0.15303184 -0.2728406  -0.18619122
  0.12320526  0.09709338  0.13810362 -0.07836405  0.2103942  -0.19477287
 -0.00649038  0.287278    0.02585773  0.2530482   0.08974417 -0.13460678
 -0.02352398 -0.2561897 ]
[-0.10983217  0.1667922   0.23418847  0.21555385 -0.11114316 -0.18680552
 -0.06617744 -0.27145284  0.14481284  0.20784491 -0.3865598   0.05068104
  0.01140122  0.16362825 -0.0581953  -0.33542186  0.0345267   0.24118213
 -0.1703152   0.24024127]
[-0.24354623  0.04922542 -0.22433561  0.03205087  0.19178672  0.10242903
  0.16490938 -0.04358497 -0.2940242  -0.04310793 -0.05543043 -0.06200093
 -0.04017701  0.03017074 -0.04585321  0.3107272   0.11737747 -0.03178938
  0.13397032  0.07062346]
[-0.08257912 -0.03450707  0.1234512   0.04014138 -0.03690509 -0.21632484
  0.16419469  0.10071941 -0.11148632  0.04275921  0.2542998  -0.09575505
 -0.15283763 -0.12158085  0.11437241  0.37064672  0.09106468 -0.20003152
 -0.1455706  -0.21300708]
[ 0.10108837 -0.11223296  0.21223928  0.21744828 -0.34011996 -0.13636805
 -0.2806896  -0.32712692  0.20893723  0.07733911 -0.05306733 -0.04779933
 -0.21323426 -0.01082273 -0.05917189  0.10406525  0.24156466  0.16788498
  0.07208344  0.07603249]
[-0.30505243 -0.42328438 -0.02565948 -0.09293689  0.27424163 -0.17810588
 -0.12735963  0.3997006  -0.20503162 -0.42198268 -0.08262925  0.14249614
 -0.10061394 -0.11522884 -0.09234218  0.26738682 -0.13209353  0.0462264
 -0.07574648 -0.01755991]
[ 0.03452232 -0.05175964 -0.18449245 -0.10506799 -0.0850184   0.0962277
 -0.17952779  0.08931044  0.19393426  0.24970412  0.12179546 -0.27496812
 -0.02252503 -0.2555776  -0.10823306  0.12865312  0.24240789 -0.07871725
  0.16023329 -0.12647982]
[ 0.12586601  0.33801264 -0.08888093  0.17445154 -0.29441547 -0.04799956
  0.16964628 -0.18160613 -0.03581557 -0.16978952 -0.29737625  0.0126982
  0.08197249  0.18924305  0.1428695   0.06747245 -0.10134457  0.2728248
  0.27194318  0.02126769]
[ 0.3679072  -0.22695749 -0.03275004  0.06171852 -0.19244942  0.11081243
  0.16328268  0.10471362 -0.03466774 -0.44650847  0.24648578 -0.01425355
 -0.05489782  0.16118684  0.19469607 -0.11792482 -0.18862322  0.01217928
 -0.20614639 -0.17617363]
[ 0.18912011  0.4039673   0.06754876  0.25378215  0.23760797 -0.19825758
 -0.00295663  0.10279723 -0.15623711  0.00303755  0.1951649   0.36748692
  0.05354287  0.1099802  -0.22376585  0.15211062  0.00951527  0.03454449
  0.01540564  0.21268585]
[-0.38165233 -0.18565878  0.26850325 -0.19086786  0.14949718  0.06435
  0.21019262 -0.23247118 -0.2630506   0.2502316  -0.09392878 -0.19065794
  0.10062692 -0.04223223  0.17860551  0.27406904  0.1009604   0.24170657
  0.27007353 -0.24159354]
[-0.20015162 -0.3171889  -0.06043467  0.41961545 -0.39547354 -0.18201354
 -0.25492424  0.09422442 -0.17307283 -0.15876895 -0.09630813 -0.0122323
  0.1576126   0.17809328 -0.01815222  0.14699528 -0.21853882  0.04045073
  0.17534722 -0.26185447]
[ 0.22128288 -0.21190985  0.1807433   0.4188801  -0.40662044  0.08374274
  0.21061848 -0.09202462 -0.01894787 -0.30883467 -0.16826995  0.38749704
 -0.01473866 -0.21524861 -0.0082449   0.18618983 -0.17777193  0.17117597
 -0.16861407  0.10637309]
[-0.02479285 -0.00721501  0.07119378 -0.12255812  0.11965224 -0.00688708
  0.02818072  0.00844837 -0.11368726  0.21888952 -0.22443132 -0.01682537
 -0.02085797  0.07376694 -0.02830812 -0.03044371  0.01806462  0.05885109
 -0.04837012  0.05061885]
layer 5 Activation
tanh
layer 6 Dense
20 1
[0.18510334]
[-0.20359631]
[0.0298961]
[-0.10587049]
[0.06100223]
[0.01103366]
[0.01620279]
[0.25720748]
[-0.00888831]
[0.2661778]
[-0.26665136]
[0.01204299]
[0.0035358]
[0.09160889]
[-0.02727552]
[0.16039516]
[-0.00455566]
[-0.01450205]
[0.00199906]
[0.03971209]
[0.11376908]
