layers 7
layer 0 Dense
20 20
[ 0.02233124  0.26811898 -0.28995404 -0.23362394  0.1592095  -0.35321185
 -0.11627384 -0.36117157  0.18980432 -0.01095555 -0.41824415 -0.34319532
  0.4866768   0.2615382   0.04475546 -0.06683005 -0.3255983  -0.24706051
  0.01141024 -0.01379545]
[ 0.16247666  0.0010331  -0.19859578 -0.21229687 -0.06462085  0.01604557
 -0.32549208 -0.0116075   0.20672894 -0.20688932  0.2340433  -0.02618572
 -0.17566687  0.00104436  0.05450353  0.36441594 -0.21496677 -0.11178529
 -0.20310977  0.02741954]
[-2.7494049e-01  2.9359221e-02  3.8297576e-01 -2.5328529e-01
 -2.7174962e-01  1.1068940e-01  2.0372218e-01 -2.1636486e-04
  2.6604146e-01 -9.4349355e-02  1.9244671e-02  8.4775358e-02
  3.3121663e-01  3.9026201e-02 -1.0545671e-01 -1.5375738e-01
 -7.5049073e-02 -9.0749502e-02 -3.3851713e-02  1.3567299e-02]
[-0.33079413  0.47946903  0.19756442  0.08854412  0.36575088  0.16383928
 -0.23674862 -0.23589091 -0.20466241 -0.20824225 -0.09836025 -0.03837543
 -0.12183747 -0.11845669 -0.3703168   0.28127432 -0.2542536  -0.30743536
  0.00526105  0.02078695]
[-0.344546   -0.41047162  0.15951958  0.14219266 -0.09356295 -0.01108944
 -0.43294972 -0.07544747  0.18795748  0.09933535  0.34803352 -0.00443687
 -0.1419789  -0.05484277  0.10456096 -0.11030113 -0.19018243 -0.37834567
  0.30333412 -0.16125204]
[ 0.09200856 -0.10714358  0.0633488   0.05082309  0.23536539 -0.37411305
 -0.32802328 -0.20390667 -0.21412925 -0.37874007 -0.0799821  -0.18028077
 -0.20217466  0.00839669 -0.21054816  0.28272426  0.2871316  -0.02556887
 -0.05724424 -0.23817593]
[-0.19937798  0.3360194   0.06623662  0.17922497 -0.35405368 -0.25190789
 -0.1457091   0.37829816  0.24300897  0.04391465  0.3562088   0.22082847
 -0.33416227  0.06304657 -0.02123272 -0.36146924 -0.35514632 -0.04485178
 -0.19447108 -0.22648866]
[-0.08576807  0.15260378 -0.2589115  -0.04456698 -0.48934    -0.3114728
  0.34587002  0.46555403 -0.12277131  0.36807013  0.0147773   0.09894504
 -0.09290699 -0.25653446  0.05860102 -0.32270265  0.21835156  0.3401694
  0.5518854   0.28343934]
[ 0.34655795  0.1480869  -0.40357473 -0.01584924  0.1725214  -0.30549964
 -0.22566563 -0.17601043  0.6232071  -0.3394647   0.48180705  0.11304412
  0.13279845  0.00613548  0.21577314 -0.03953579 -0.47080058  0.366637
 -0.07520433 -0.08702984]
[-0.4083866  -0.31473702  0.40321496  0.38580155  0.21106     0.19014673
  0.5076299   0.04275007 -0.3199671  -0.02478297  0.14687741  0.21221706
 -0.08991128  0.39880887  0.01061672  0.20393482  0.45302087 -0.46952388
  0.6213507  -0.03022928]
[-0.25994366 -0.07289714 -0.2278341   0.13105655  0.1656818   0.15964323
 -0.22440812  0.23981884 -0.09522677  0.49106765 -0.27924812  0.24823745
  0.1148132  -0.41172102  0.42064357 -0.4128126   0.05226447  0.00277642
  0.00777692 -0.30936792]
[ 0.20844978  0.5798223   0.6931383   0.6599992  -0.27162954 -0.6377851
 -0.1035151  -0.79302526 -0.04684114  0.4430667  -0.3734594   0.71397465
  1.263922   -0.44082823  0.28903523  0.76646084  0.45118466  0.32559243
 -0.27001292 -0.2505516 ]
[ 0.28594577 -0.09464713  0.27412802  0.06185238  0.02345978 -0.10431753
  0.10293511 -0.28571397  0.26456752  0.13243237  0.19317828  0.34380212
 -0.27313462 -0.31580442 -0.10924377 -0.2626945  -0.3948255   0.26176998
  0.04160095 -0.14835131]
[-0.26701286 -0.3363744   0.53809506  0.46838894  0.04012517  0.23986138
  0.42125076 -0.49444005 -0.16190216 -0.16713394 -0.01301433  0.47226006
 -0.3412682   0.49511695 -0.04846391  0.6278618   0.18011206 -0.3386316
 -0.02329611  0.00092467]
[-0.10496207 -0.11499922 -0.03409605  0.02253448  0.18657774  0.05737866
 -0.07798322  0.29721949 -0.2525749   0.5149932  -0.21886654  0.35627645
 -0.17713699 -0.27990887  0.34269574 -0.08787294  0.08837028 -0.19728655
 -0.22887279 -0.0976033 ]
[-0.1869466   0.29918054  0.75033253  0.03209919 -0.2577069  -0.5348272
  0.04223461 -0.21370575  0.01831209  0.39381188  0.163259    0.14479838
  0.69672257  0.2797978   0.44402486  0.08100331  0.81040883  0.2998383
 -0.10492603 -0.19912764]
[-0.37645668  0.16107413  0.17148797  0.01189104 -0.13259307  0.5935364
 -0.20554005  0.7236472  -0.33420107 -0.08596395 -0.06802481 -0.03698361
 -0.41889143 -0.0621184  -0.482428   -0.27527627  0.68700874  0.01802914
 -0.0316994   0.17207699]
[ 0.9822276   0.8354568  -1.4101692  -1.1294792   0.15202692 -1.0703337
 -1.0658016  -0.39932093  0.780353    0.67658263  0.54914415 -1.0939339
  0.7712991  -1.0952995   0.8717955  -0.6437208  -0.7785685   0.9132784
 -0.83008415 -0.0605138 ]
[ 0.42784372  0.3028319   0.1384714   0.0844349   0.22211121 -0.6347558
  0.5385642  -0.0879925   1.16906    -1.7131659   0.9099243  -0.81074315
  1.0725      1.1044704  -1.2927508   0.77902156 -0.15705556  0.04311928
  1.3503976   1.2459556 ]
[ 0.20380944  0.12017854 -0.24467102 -0.36126697  0.25533134  0.31781
  0.08714571  0.67787784 -0.01538687 -0.63572145 -0.2890359   0.15888606
 -0.81673837  0.27474385  0.1611329  -0.5078848   0.00350235  0.48130253
  0.2806237  -0.11026115]
[-0.11218466  0.12311427  0.11316541  0.0478184   0.19173479 -0.02797554
 -0.2783284  -0.23179634 -0.02117223 -0.01805585  0.00346533 -0.06130737
  0.09436439 -0.07932854 -0.03878793 -0.02008675 -0.03110342 -0.03957947
 -0.09766758 -0.02963456]
layer 1 Activation
tanh
layer 2 Dense
20 40
[ 0.15289211  0.10391875 -0.42265272 -0.03486994  0.15791918  0.4899013
  0.04148144  0.54840213  0.48819444 -0.08669195  0.5286811  -0.21181032
  0.01752137 -0.12717201 -0.17007008 -0.1432068   0.25753662 -0.20010465
  0.23192784 -0.03576617  0.7608085   0.48458838 -0.18395126  0.00355837
  0.3613333   0.05791679  0.18826522 -0.51274484  0.3785984   0.20304288
 -0.28567705  0.23202214  0.3816423   0.32590526  0.16731314  0.732164
  0.49225798  0.15962595 -0.06206503 -0.27815786]
[-5.1395950e-04 -1.0507379e-02  1.1851355e-01 -1.3711154e-01
  1.5812522e-01 -2.5735256e-01 -1.6344577e-01  7.9090968e-02
 -2.5801912e-01 -2.3964385e-02 -6.2682860e-02 -1.7343289e-01
  2.5580162e-01 -9.2872716e-02  1.0018854e-01  5.1620162e-01
 -7.9865523e-02  4.1369542e-01  2.4572015e-01 -2.3841110e-01
  6.4236008e-02  3.0979109e-01  1.9228652e-01  4.5495129e-01
  5.1788080e-01  2.8278083e-02  9.9885412e-02 -5.7572573e-01
 -3.1071430e-01 -1.8680952e-01  1.6223326e-01 -3.0208540e-01
  9.6448109e-02 -6.2353402e-01  2.9129302e-02  2.9334420e-01
 -5.4110210e-02 -6.5373145e-02 -1.4140832e-01 -3.8119429e-01]
[-0.25085393 -0.28911254  0.49979302 -0.46945146 -0.24954845  0.00284605
  0.49850327 -0.46506545  0.26853025  0.6240176  -0.3426531   0.4846982
  0.38088652 -0.16207595  0.42051458  0.44955906 -0.39428768 -0.07347763
 -0.34002942  0.25946528 -0.14700878 -0.24301147 -0.11770662 -0.16471086
 -0.36865845  0.14047101 -0.070849    0.37797987 -0.4449917   0.27179557
 -0.03626698 -0.2872302  -0.14911509 -0.47373912 -0.01459046 -0.5615792
 -0.19684213 -0.1454919   0.1785265   0.6007799 ]
[-0.36695415 -0.31704053  0.31940326 -0.01485179  0.1556977  -0.3868048
  0.31205457 -0.15076384  0.07987219  0.22114725 -0.48174837  0.07825761
  0.24659282  0.00921008  0.38995284  0.3856689  -0.28824407  0.08496565
 -0.34826872  0.3608867  -0.06479863 -0.16661671  0.03746392  0.15637907
 -0.72562045 -0.18054177 -0.16252169  0.5738419  -0.47592935  0.00983133
  0.19059016  0.02526111  0.07096291 -0.17127585  0.1096072  -0.65174115
  0.01288406  0.26140845  0.10281017  0.39212355]
[ 0.06441972 -0.35020557  0.3394742  -0.15030771 -0.2570096  -0.15457082
 -0.13690501  0.11818314 -0.345537   -0.24890177 -0.25214532 -0.0946258
  0.20560098  0.17327076  0.4154786  -0.11570714 -0.18572439  0.42542276
 -0.00599799  0.10994506  0.12827413  0.04675114  0.26989028  0.45380116
 -0.14513576  0.01944361 -0.0148974  -0.0716958  -0.06740237 -0.20622176
 -0.27576965 -0.2148624  -0.01677886 -0.45079413 -0.07262897  0.11396272
 -0.30300552  0.2263569   0.17041577 -0.20935199]
[ 8.3795905e-02 -3.1090766e-01  3.8410893e-01 -1.3239110e-01
 -7.2678320e-02 -4.5333529e-01  2.3729636e-01 -4.4308290e-01
 -4.7801891e-01  3.1056244e-02 -4.7113788e-01  1.5609999e-01
  2.5684610e-01 -2.6094394e-02 -3.1196356e-01  3.5305956e-01
 -1.7164099e-01  6.6344553e-01 -1.1992461e-01 -9.8298848e-02
 -7.5949883e-01  1.2154415e-01  2.6903057e-01  4.4341862e-01
  2.0972592e-01  4.7898111e-01 -8.7285899e-03  1.7490058e-01
 -3.4461537e-01  3.9600793e-02  3.3470991e-01 -3.7055984e-01
  3.1513888e-02  3.1259593e-02  4.1873753e-01 -2.3386610e-01
 -5.3486222e-01 -2.0245053e-02  4.5144397e-01  6.1961042e-04]
[ 0.17697659  0.01358372  0.38326237 -0.24686342 -0.17680787  0.15427735
 -0.26150703 -0.47698447  0.44195494  0.02158949  0.0298484   0.3125905
  0.27762878 -0.37572336  0.11633528  0.45774993 -0.26676568 -0.41437215
 -0.5981655   0.28378245  0.01394159  0.2124682  -0.14894797 -0.01144858
  0.15373126 -0.3049232  -0.26732367  0.426026    0.45933384  0.16111028
  0.15101641  0.21315724 -0.17175129 -0.24894473  0.1292794  -0.40754208
 -0.03800522 -0.4219208   0.49211457  0.26010185]
[ 0.2968052   0.2535126   0.75531894 -0.64215684  0.05738053  0.23350759
  0.0488692  -0.6585933   0.14609575 -0.73263115  0.05277079 -0.12489447
 -0.12872812 -0.23010406 -0.42648497  0.10463812  0.3866169   0.6344496
  0.3670349   0.01082596 -0.5677617   0.12064283 -0.6419426  -0.00641985
  0.57431316  0.02282646 -0.29570684  0.2238681   0.03496739  0.0027557
  0.5587088   0.13525324  0.3474607   0.0665417   0.5322176   0.3825391
  0.14751624  0.0409826  -0.20776658  0.09341284]
[ 4.00601067e-02  2.11663932e-01 -8.68856013e-01 -1.24353468e-01
  5.25414653e-04  3.71125549e-01  1.67939961e-02  3.95078212e-01
  2.91204602e-01 -3.20775539e-01  5.22104278e-02  2.85832912e-01
 -2.98240632e-01  3.20252806e-01  1.43636214e-02 -2.01739799e-02
  1.24368995e-01 -1.93732992e-01  4.02845033e-02 -3.53555590e-01
  5.47594905e-01  9.56332237e-02  2.40088534e-02 -4.09453064e-01
 -7.74656311e-02 -2.57728994e-01 -1.92964733e-01  4.37403433e-02
 -1.11613505e-01  1.22577310e-01 -4.43278313e-01 -1.76188901e-01
 -1.38792202e-01  3.37066203e-01 -3.68222117e-01  3.07277352e-01
  4.18591589e-01  4.81786951e-02 -1.34368286e-01  2.32381523e-01]
[ 0.46941745 -0.53662086 -0.08412534  0.5109799   0.07155786 -0.20502633
  0.43009773  0.49485868 -0.57591623  0.75479954  0.02725529 -0.1849229
 -0.44951323  0.06332088 -0.1433203  -0.72458464 -0.438734   -0.41319904
  0.33237222  0.36397836 -0.2598343  -0.7766923   0.49935672  0.37835833
 -0.45341387  0.36301276  0.197082   -0.14371929 -0.00773347  0.13477771
 -0.26062042 -0.27616653  0.12293553 -0.26706907 -0.31367993 -0.46413136
  0.10330413 -0.50069106  0.02713039 -0.35888773]
[ 0.25303105 -0.0558662  -0.17479104 -0.2666072  -0.2511999   0.15611848
  0.22524989  0.07956515  0.4097689  -0.24078436  0.42066225  0.41415992
 -0.25729904 -0.01421255 -0.19142137  0.06622445  0.11129498 -0.3650302
 -0.19169424  0.10547544  0.49934402  0.1336329  -0.06675352  0.0059593
  0.01058758 -0.21498014 -0.07674255  0.08843557  0.04796037 -0.17391802
 -0.16986586  0.447032   -0.32076627  0.47143996  0.20627595  0.09858594
 -0.11665305  0.20159048 -0.0133627  -0.0204132 ]
[ 0.39433208 -0.40335503  0.47277522 -0.08261082 -0.25767297  0.13290931
 -0.14966957 -0.06914697 -0.05100175 -0.03204687 -0.00873375  0.25189692
  0.13688488 -0.32422322  0.2961026  -0.5901992  -0.00758102 -0.32363287
 -0.17288414  0.12615374 -0.30715433 -0.60849965  0.0696945   0.00549305
 -0.53750324  0.02194884 -0.03487964  0.29314792  0.0969987   0.11755322
  0.33320877  0.19222157 -0.504305   -0.19406085  0.01746337 -0.74136144
 -0.3325607  -0.37475806  0.5679539   0.13497707]
[ 0.17391385 -0.05095034 -0.05459477  0.20908107 -0.03199205  0.37439367
 -0.03825438  0.30173427  0.4205776  -0.02561759  0.5622174   0.00357408
 -0.05799085  0.21450056  0.56992614 -0.3021833  -0.33993453 -0.6283246
 -0.29730734 -0.3744471   0.4920175  -0.03763289  0.2858575   0.04537117
 -0.33248445 -0.2544444  -0.14447774  0.74918246  0.26660097  0.30483747
 -0.37364474  0.44995508 -0.09934627  0.21781912 -0.50794166  0.03981427
 -0.10509775  0.06384456 -0.30541423  0.6042933 ]
[-0.15324445 -0.09132738  0.47220945 -0.46176776  0.09448522  0.07625665
 -0.21268925 -0.6213394   0.1392819  -0.31063333 -0.09996407  0.32529438
  0.43218115 -0.17553122  0.07134105  0.33069372  0.05820627  0.14250286
 -0.18863784 -0.28434652 -0.34050134  0.4701192   0.00488369  0.24821596
 -0.02628809 -0.50759697 -0.01312691  0.3994539  -0.11211943 -0.13872984
 -0.21452078  0.31047305 -0.27497292 -0.19816346  0.35533985  0.10440871
 -0.00579926 -0.01894164 -0.18782227  0.30774105]
[ 0.6725598  -0.11975414 -0.15493664  0.8417311  -0.0188101  -0.2508124
  0.4952654   0.2530372   0.06384757  0.55037224  0.4028322  -0.11539441
 -0.49542078 -0.09788314  0.01607486 -0.7291072  -0.34883392 -0.29804665
  0.589627    0.5847967   0.09717066 -0.2048746  -0.03368551  0.4125235
 -0.3202147   0.19722673  0.20845555 -0.34931043  0.10932757  0.22062057
 -0.06089347 -0.24664284  0.4797692   0.10282444 -0.7228105  -0.25884566
  0.3165775  -0.54539114  0.1814046  -0.9414071 ]
[-0.33474734 -0.05809134 -0.15826273 -0.33754432 -0.11068206  0.0979092
 -0.21067859 -0.1929286   0.29657948  0.08523892  0.07741234  0.31979308
  0.06864268 -0.26078662  0.4167059   0.52222633 -0.4837577  -0.05297288
 -0.40648264 -0.11739303  0.51666784  0.05109897  0.46140757  0.17850994
 -0.4146301  -0.24739812 -0.38537318  0.4195059   0.02996653  0.01584267
 -0.25985473 -0.23874995 -0.10855732  0.04835373  0.12706038 -0.24720815
 -0.2724665  -0.22925438 -0.02259026  0.3339753 ]
[ 0.06570075  0.1352394  -0.01640017  0.18698736  0.07362588  0.07155847
  0.01645637 -0.10197506  0.25432467  0.46922773 -0.17285314  0.27335528
  0.00189104 -0.24908137  0.06846576  0.21218547  0.34231934 -0.5012486
  0.22672613  0.05719618 -0.21720387 -0.20814422 -0.10039701 -0.07724356
 -0.1932489   0.3610273  -0.4821167   0.54704946  0.17820846 -0.09898632
 -0.00261145 -0.22014776 -0.18689393  0.4869182   0.2875097   0.10418186
  0.29318577  0.1907391   0.3115616   0.4195885 ]
[ 0.32831612 -0.03816937 -0.7955384   0.61992097  0.27832693  0.38912752
 -0.22739878  0.34698725 -0.05893903 -0.2596526   0.3639847   0.27367383
 -0.2958091  -0.42111826 -0.2706699  -0.45562217 -0.0254981  -0.13730004
  0.4037446  -0.11855452  0.04032186 -0.03518427 -0.01885748 -0.35805523
 -0.16306268 -0.21246402 -0.3190578  -0.50693655  0.5914592   0.14455779
 -0.07213735 -0.08888909  0.10420313  0.3881497   0.0177083   0.25603363
  0.48078936  0.11284079 -0.05562546 -0.3517947 ]
[-0.01289232 -0.09016001  0.6858316  -0.3321842  -0.304097    0.13192545
 -0.05193807 -0.24031925  0.30866286 -0.9648763   0.10508703 -0.06585293
  0.20990114 -0.2816172  -0.16716291  0.3950594   0.20477015 -0.1101844
 -0.05507224  0.133323   -0.20617703  0.27408063 -0.02496992 -0.4026992
  0.11547635 -0.44310474 -0.3654539   0.5617547   0.06970294 -0.02164139
  0.28786883  0.15275967 -0.2480263  -0.03950787  0.63000286  0.12675394
 -0.18731172  0.25736874  0.35407886  0.6663819 ]
[ 0.04285201 -0.14174078  0.21569937 -0.35871416 -0.02658193  0.5313577
 -0.5393166  -0.22776741  0.50382614 -0.3985105   0.09153564  0.38527933
  0.2558916  -0.07138138  0.27215993  0.25390953  0.07183984 -0.21935873
 -0.028712   -0.41805708  0.2956093   0.5137529   0.21909599  0.03060242
  0.41155833 -0.344365   -0.46555075 -0.24940714  0.23012075 -0.14059824
  0.20836946  0.06218867 -0.09287418  0.26815283  0.4276594   0.10690302
  0.16796485  0.2513791  -0.08320691  0.17796718]
[-0.17311019 -0.21801545  0.01525306 -0.01352114 -0.04593759 -0.2955055
  0.01048524  0.05926098 -0.03768077  0.20163733 -0.07012968 -0.13016191
  0.0103298   0.15835465  0.20526752  0.07882631 -0.37662315 -0.01141636
  0.02079799 -0.07187187 -0.08224397  0.04069442  0.12255675  0.23225904
  0.01497225  0.00917188  0.08747387  0.05745471 -0.21989566  0.03586682
 -0.04449598 -0.11053625  0.06217966 -0.3456598  -0.12765566  0.02029685
 -0.15143609  0.00869189 -0.1178469  -0.02505008]
layer 3 Activation
tanh
layer 4 Dense
40 20
[-0.03641704  0.23358078  0.39813283 -0.18151061  0.03203832  0.3087333
 -0.20239563  0.13779585  0.4271051   0.09949569 -0.28286678  0.05634445
  0.0880959   0.06943814 -0.47187692 -0.13338268  0.04037074  0.47555524
  0.29263496  0.39341846]
[-0.44330525 -0.11176181  0.15005893  0.10514171 -0.01038437  0.21550354
 -0.08729246  0.25219917 -0.03850501  0.16504398 -0.4069952  -0.27468488
 -0.27766323  0.18443705 -0.07046989 -0.02709307 -0.02256742 -0.19493048
  0.05391338  0.21136415]
[-0.40946668  0.18500154  0.3052535   0.09350967 -0.18913709 -0.3801968
 -0.17532709  0.12952442 -0.11630975  0.29618979  0.43536147  0.31489223
  0.26157928 -0.05254675 -0.37334278  0.15656133 -0.21519674 -0.07624955
  0.39622912 -0.34470046]
[ 0.0046085  -0.2410262   0.16348521 -0.05618417  0.26980814  0.34381995
 -0.3274946  -0.4144624   0.38579318  0.26518604 -0.20568803 -0.18087134
 -0.17567992 -0.16696048 -0.36922583 -0.5837166  -0.37073895  0.16910401
 -0.09725746  0.12981196]
[-0.11139535 -0.31130156  0.06024917 -0.05391448 -0.13889998 -0.08643382
 -0.3261243  -0.22780938  0.07208127  0.2235953  -0.25158295  0.20019367
  0.0766845   0.28148088 -0.05496053 -0.12579298 -0.03065448 -0.21611552
 -0.18960129  0.1963022 ]
[-0.3194849  -0.00950108  0.2729027  -0.2528874   0.1158801   0.38807622
 -0.15520988  0.53800493  0.18891473 -0.25887296 -0.07766322 -0.29963762
 -0.02961841  0.27418706 -0.10093591  0.09207354  0.16145945 -0.06522594
  0.24674924  0.25516337]
[ 0.00417501  0.41819072  0.27352524 -0.27448255  0.14914308  0.02201062
 -0.26195514 -0.53361773 -0.14952812 -0.1473064  -0.2219294   0.2337928
 -0.02997488  0.13845035 -0.05877654 -0.17173858 -0.06480724  0.26525372
 -0.13019978  0.13322158]
[ 0.42690122 -0.10065024  0.3831036  -0.2294461   0.07544608  0.5340298
 -0.43214387  0.12998311  0.36380416  0.09371127 -0.39718014 -0.37090904
 -0.2738228   0.00220234  0.02360896  0.08982513  0.07966053  0.31041092
  0.00354909  0.0418092 ]
[ 0.25712237  0.13951808  0.17991602 -0.06648863  0.19859494  0.13157134
  0.201403   -0.03842035  0.13248721 -0.02389858 -0.27064314 -0.20755413
  0.15192376  0.27464902  0.11792772  0.19512099  0.06962197 -0.36907932
  0.19159754 -0.38192374]
[-0.04359346  0.08639266 -0.04222503 -0.28000188  0.13011606  0.27681592
  0.34763113 -0.03823182  0.04598765 -0.13733509  0.3404773   0.20548971
  0.20075287 -0.38983697 -0.09653183 -0.31066746 -0.14615335  0.47282627
 -0.30320618  0.42112705]
[ 0.26301646 -0.3803355   0.2777635  -0.43707386  0.33142576  0.18404494
  0.21662195  0.06547794  0.20678943 -0.18564686 -0.3391891  -0.46700177
 -0.3920857  -0.11081055  0.2008122   0.09754554  0.41572246  0.1581632
  0.14052267  0.2760129 ]
[-0.21750365 -0.32459733  0.07846015 -0.12865885  0.46639487 -0.16062802
  0.15351911 -0.05218085 -0.06340268  0.09902198  0.10780815 -0.38482404
  0.3818183  -0.24274167 -0.32105705 -0.04378889  0.01282755  0.13955629
 -0.03925711 -0.46133444]
[-0.03323084 -0.00506912 -0.04460091  0.17515275  0.1850738  -0.31385043
  0.06646956  0.27446365 -0.35093358 -0.20621236 -0.1623222  -0.03466615
  0.19385234  0.11107679  0.10869522  0.08240017 -0.17591159 -0.34065142
  0.27217537 -0.2285803 ]
[ 0.2918061  -0.09826952 -0.39908156  0.03231709  0.08283196  0.31123704
 -0.38628253  0.14469498  0.13109337 -0.25149938 -0.10920463  0.28495124
 -0.42864525 -0.08201587  0.5128973  -0.04990386 -0.3943852  -0.201843
 -0.17151737 -0.3811802 ]
[ 7.0736158e-01  4.2711097e-01 -2.9669130e-01  1.6140258e-01
  2.4094205e-01  6.4513966e-02  5.5489093e-01 -3.8185695e-01
 -3.7741255e-02 -4.3177301e-01  2.1206164e-01  9.3784489e-02
 -1.4269270e-04 -4.6497166e-01 -1.7057030e-01  3.2265341e-01
  1.7192613e-01  2.9266399e-01  2.1313836e-01  3.5612461e-01]
[-0.42075977 -0.4575148  -0.40381402  0.47822398 -0.40561044 -0.18922582
  0.54246557  0.17616859 -0.381595    0.3920148   0.33693367  0.06443182
 -0.29281208  0.04961103  0.3458805   0.34586126  0.18876429 -0.405452
  0.20655964 -0.53443074]
[-5.6173563e-01 -9.0485819e-02  6.3513333e-01 -1.5696138e-01
 -2.0864603e-01 -2.2469762e-01  8.4816448e-02  3.5172677e-01
 -3.5119586e-04 -1.7951626e-02  2.9209815e-03 -2.6002589e-01
 -3.7826055e-01  4.4424903e-01  4.5152523e-02  9.6532360e-02
  2.3936580e-01 -7.4532679e-03 -1.4197557e-01 -4.4698310e-01]
[-0.0117295   0.35800925  0.6311414  -0.1842222  -0.44171253 -0.06971626
 -0.0129646  -0.26845533  0.35900554  0.24859767 -0.05089463  0.1594058
  0.09660975  0.1760112  -0.5885747  -0.03001408  0.05407768  0.36317143
  0.31763458  0.24532506]
[-0.11881366 -0.48105934 -0.01930178 -0.10079972 -0.15095277  0.02430888
 -0.56268036  0.36141762  0.4348564  -0.09213877  0.15091476  0.14918518
 -0.06627478  0.18872035  0.37027583  0.00926941 -0.326052   -0.3259503
  0.09160879  0.06066011]
[-0.19936754  0.23394759  0.20219867  0.03575515 -0.09743343 -0.26015508
 -0.24591355 -0.22670591  0.32284108  0.37554878  0.12566067  0.19532004
  0.45319948 -0.13856739 -0.35616413 -0.34982672 -0.17841838  0.23761027
  0.27366307  0.18063071]
[ 0.49877012  0.02177027  0.28402    -0.54539996  0.14300746  0.36065394
  0.05214782 -0.05935893  0.07388631 -0.47747338 -0.2620615  -0.34843487
  0.0609993  -0.16439267  0.53171974  0.34430584  0.3265393  -0.32831934
  0.12281696  0.2580711 ]
[-0.10920012 -0.41138062 -0.173142    0.28656632 -0.3577847  -0.00873179
  0.41426194  0.4939609  -0.38686958 -0.28971928 -0.19382405 -0.27712435
 -0.34722412 -0.02002149  0.3020647   0.06647297  0.38179877 -0.11343334
 -0.23095104 -0.39175627]
[ 0.1986811  -0.00627408 -0.19291277 -0.21252373  0.02963261 -0.04366865
  0.07548486 -0.18576036  0.09153853  0.06629251 -0.22813919 -0.03856689
 -0.29791075 -0.50381976 -0.12242538 -0.3601447  -0.15415697 -0.2547444
  0.00592892  0.03696294]
[ 0.39108863  0.47671777 -0.1695415   0.00133503 -0.3706322  -0.26802593
 -0.06655403 -0.0467439  -0.13451812  0.2748157   0.1191192   0.23426932
 -0.16007677 -0.3284746  -0.01123512 -0.40161166 -0.2487292   0.19644722
 -0.25394112  0.17309876]
[ 0.2617986   0.03952536  0.6570265  -0.1755632  -0.26184192  0.35010728
 -0.29963675  0.13284831 -0.19749233  0.04452395 -0.19379665 -0.27574763
 -0.31362513  0.0478747   0.17699009 -0.21917056  0.02718448 -0.02211963
 -0.14546241  0.24906413]
[-0.24473345 -0.4156614  -0.16219187  0.1291134  -0.18919006 -0.37527978
 -0.00289359 -0.2297045  -0.21052723  0.17253207  0.32315847  0.31540236
  0.22287087  0.26307243  0.05213489 -0.41482967 -0.4161362   0.3917525
 -0.40650213  0.46784925]
[ 0.15350528 -0.25312608 -0.44607633 -0.11284611 -0.43716833 -0.18369347
 -0.19079684 -0.2540661   0.25579897  0.26998657  0.03901133  0.32312414
 -0.14608823 -0.08992946  0.24231604 -0.15149009 -0.09583232 -0.12599629
  0.24799088  0.29810494]
[ 0.38070092  0.15286195  0.05466569  0.2717935   0.14072476 -0.43727782
  0.59064656 -0.21331085 -0.6103176   0.01949977 -0.09939335 -0.37633273
  0.29893968 -0.36916575 -0.10156307  0.39636365  0.29409415 -0.01987875
  0.414459   -0.14421716]
[ 0.04766472 -0.0923619  -0.07854727 -0.06690235  0.37415475  0.31835043
  0.11599869 -0.09966259  0.13650386 -0.09302539 -0.31439617 -0.31570262
 -0.24018368  0.12938996 -0.16873504  0.31403887 -0.03759662  0.20962295
  0.36839756  0.07654494]
[-0.24289903  0.02436786 -0.2813918  -0.05556982  0.4444552  -0.2828503
  0.04651744 -0.29039994 -0.05370707  0.0658676   0.04164869  0.10087848
 -0.03053788 -0.21906736  0.20469576  0.03477671  0.01375807 -0.07990217
  0.04401213  0.13565446]
[-0.24047092 -0.08755163 -0.13136119  0.13437855 -0.13256678 -0.30788207
  0.08207251 -0.15918791 -0.30362293  0.61483777  0.34565932  0.20649236
 -0.22148828  0.27872106 -0.30161035 -0.17339554 -0.24491803 -0.05670286
 -0.0401263  -0.2797808 ]
[-0.1270963  -0.1493053   0.40804574 -0.19265735 -0.2496725   0.01970425
  0.07296117  0.26679003  0.04894808  0.35433468 -0.22122982 -0.26717994
  0.21660918  0.11741029  0.0770065   0.5403161   0.3235036  -0.19901039
  0.2779903  -0.15424316]
[-0.26259714 -0.05347917  0.21233705 -0.16877419 -0.43749356  0.20204645
 -0.4277553  -0.17390907  0.26384178  0.19488913  0.02264066  0.15521476
 -0.1757936  -0.04214939 -0.08037493 -0.33398196 -0.04878805 -0.02901834
 -0.22288318  0.16189568]
[-0.2452704  -0.3979987   0.48778364 -0.30928138  0.2824206   0.4473397
  0.2128113   0.11264184  0.08258165 -0.36128205 -0.3623628  -0.1953559
  0.23190953  0.2919162  -0.10924222  0.01742929 -0.08320246 -0.07623353
 -0.2249633   0.09654914]
[-0.59712005  0.01802949 -0.00556829  0.40821207 -0.295628   -0.17410849
  0.04402882  0.26634005 -0.30380785  0.4927732   0.22204241 -0.1768428
 -0.01800098  0.63457185  0.03108665  0.34624675 -0.22857128 -0.20175484
  0.2177208  -0.16881886]
[-0.27702734 -0.6143788  -0.29432943 -0.08289713 -0.4834955   0.59812474
 -0.19367881  0.49054828 -0.28153327  0.10447039 -0.554201   -0.20810342
 -0.2532904   0.18112203  0.29154408 -0.36675954  0.19046827 -0.45274055
 -0.501338   -0.33447477]
[-0.35787085 -0.3510705  -0.11066082 -0.2119242   0.3531378   0.22689478
 -0.4461459  -0.06568352  0.30181432 -0.26855788 -0.35469204 -0.2027631
 -0.3006064  -0.09971592 -0.2784345   0.04811764  0.11740842  0.12771149
  0.13014638 -0.22146088]
[-0.333161   -0.37364998  0.12116231 -0.30938923 -0.0055816   0.01605102
 -0.02384333  0.31488454 -0.26493302 -0.23613775 -0.06636627 -0.225027
 -0.21342455  0.47991824  0.13063878  0.51249105  0.34334323 -0.13494466
 -0.0610078  -0.49995905]
[-0.02779889  0.24561292  0.25309315  0.26347575  0.26163384 -0.10992222
  0.32310367  0.02313974  0.09225012  0.6413877  -0.05167142 -0.01362324
  0.31446546  0.21135709 -0.16637383  0.32226616  0.17560369 -0.07272162
  0.17003119  0.16297595]
[ 0.10558341  0.51576036  0.444744    0.24463858  0.4087337  -0.22503369
  0.75212765 -0.11046988 -0.46379295 -0.00630374 -0.08019331 -0.4070062
  0.45678407 -0.22320281 -0.40635523  0.5882586   0.48340344 -0.19798878
  0.07082625 -0.04968639]
[ 0.30423045 -0.03051867 -0.22811371  0.0923246  -0.04735923 -0.04094356
 -0.14815333  0.02813374 -0.09725904 -0.01473663  0.13187699  0.06130768
 -0.09238315 -0.21158585  0.15460376 -0.07356707 -0.05509879 -0.05068108
 -0.22945067 -0.14192837]
layer 5 Activation
tanh
layer 6 Dense
20 1
[-1.4642336]
[-1.2525967]
[-1.1205105]
[1.1568924]
[-0.09875751]
[-1.2735711]
[-1.2111187]
[1.4488745]
[-1.7149967]
[0.6328375]
[1.3791081]
[1.4740149]
[-1.6428581]
[1.2609504]
[1.3224114]
[-1.3418051]
[-1.7761077]
[-1.4927459]
[-1.1523534]
[-1.3130131]
[0.70893323]
