layers 7
layer 0 Dense
20 20
[-0.2219532  -0.35502946  0.276677   -0.26193175  0.14206643 -0.01621534
  0.19431657 -0.16306776  0.34789202 -0.1374534   0.3023419  -0.2334915
 -0.25908569 -0.13589013  0.32273486  0.23262031  0.3824221  -0.1266373
 -0.30778512 -0.01180639]
[ 0.04797293  0.24242981  0.42814106  0.37030905  0.20304742 -0.03289673
 -0.5108354   0.44415334  0.17395699 -0.1393859  -0.22304346 -0.4661039
  0.3131507  -0.07010479  0.32395014  0.14518529 -0.1939923  -0.06150292
  0.28939196 -0.6114906 ]
[-0.28371483  0.25215983  0.14690568  0.00346502  0.01026071  0.14932933
 -0.16225061  0.15688448  0.12058997 -0.1929058  -0.07628826 -0.14729844
  0.59538954 -0.22616139 -0.09010687 -0.01804751  0.01112226  0.3545844
 -0.13699092 -0.14532909]
[ 0.36260045  0.0211989  -0.36952055 -0.3877383   0.13721432 -0.2618603
 -0.3006621   0.12602277  0.31197926 -0.3408881   0.1577112   0.13764068
 -0.05975299 -0.09577151  0.3473408  -0.10372922  0.17763501  0.12138505
  0.10841951 -0.2032649 ]
[ 0.268536   -0.1712106   0.2521511  -0.2628098   0.18537028  0.17688873
  0.09555729  0.1211492  -0.23671488 -0.413943    0.16725428  0.03639568
  0.15907274  0.1192776   0.2647211  -0.01062699  0.15025842 -0.26461798
  0.2836061   0.00781684]
[ 0.00668284  0.1371963  -0.03470942  0.04637565 -0.17961393 -0.07823747
 -0.08609908 -0.18520841 -0.01160244 -0.26875463  0.34274232  0.01232267
 -0.25333282  0.40328076  0.2957945  -0.04005393 -0.3747972   0.13232331
 -0.33666903  0.14992256]
[ 0.20944093 -0.51554143 -0.16446891  0.05810921 -0.37381342 -0.08771846
 -0.08514471 -0.19521369  0.01308447 -0.21717127  0.15131563  0.1524994
 -0.40387627 -0.14037356  0.05047121 -0.24931033  0.12854666  0.15904991
 -0.30731937 -0.03145327]
[ 0.24594985  0.20156519  0.27879363  0.44751954 -0.1446249  -0.22501934
  0.30079308 -0.31322104  0.09919006 -0.21093215 -0.26782137 -0.34713668
 -0.39884916  0.07681608 -0.48386168 -0.0245108   0.01611045 -0.29213536
 -0.25653678  0.17855194]
[-0.3190086  -0.16485292 -0.2760378   0.13349962  0.21197128 -0.200165
 -0.33289143  0.08071718 -0.16983595 -0.30240667  0.10319193  0.0515109
 -0.00624614 -0.05895629 -0.16186197  0.2792652   0.3458022  -0.48424494
 -0.01322672 -0.2935073 ]
[ 0.16627744 -0.18012623 -0.03793328  0.097618   -0.0176525   0.10735352
  0.06606091  0.01898964 -0.00044913 -0.03908869 -0.05699293 -0.36710608
 -0.2591006   0.00721274  0.2581134  -0.35851225  0.0942431   0.05743098
  0.07197576  0.30897793]
[ 0.0292722   0.4504943  -0.22825487  0.3221782  -0.2665604  -0.3265157
 -0.0381443  -0.4536148  -0.03170053  0.06643143  0.13978983 -0.01991892
  0.25300187  0.04583183 -0.34456843 -0.006324   -0.35679045 -0.5122917
  0.14350627  0.06325865]
[-0.10434389 -0.16667542 -0.22983843 -0.3025685   0.25990865  0.2686364
 -0.5065518  -0.11838904 -0.00921234  0.43929815 -0.19985792 -0.3141291
  0.61738694 -0.16950123  0.06431237 -0.4633293   0.32059988 -0.19328544
 -0.5260558   0.3671177 ]
[ 0.02307643  0.4957022  -0.12219095 -0.30846667 -0.17964059 -0.18750553
  0.06191563  0.20426786 -0.04085629  0.36028007  0.04107894  0.08988331
 -0.21895823  0.02000625 -0.24051268  0.03001723 -0.34333074 -0.213825
  0.13859761 -0.04464331]
[ 0.36889967  0.11139665 -0.0023488  -0.00675573 -0.14321746  0.13641629
  0.22561967 -0.23104429  0.02239689 -0.2070143  -0.49905983 -0.07917191
 -0.16687308 -0.13500647  0.24255885 -0.1486617   0.01183531  0.1469608
  0.00376939  0.08186676]
[ 0.09731358 -0.07509883 -0.17081219  0.09419611  0.33760935  0.0545351
 -0.295329   -0.3751217  -0.2249608  -0.06396645 -0.10506498  0.1339749
  0.10935448 -0.45735618  0.16573222 -0.28767818  0.02923647 -0.04869729
  0.01818576  0.31322944]
[-3.0342361e-01 -4.1177100e-01 -1.0382062e-01  4.0186271e-02
  1.6996592e-02  6.0702318e-01 -8.4594673e-01 -2.2039942e-01
 -2.8950250e-01  1.0962104e-01 -3.3353919e-01 -3.7879264e-01
  7.0100808e-01 -1.4479846e-01  5.3379107e-02  8.5302562e-02
  4.3601760e-01 -1.8868521e-01 -3.9346433e-01 -2.9577437e-04]
[-0.11996998  0.25712386 -0.09992766  0.34799474  0.0582943  -0.54311895
 -0.13222075 -0.02441483  0.3203248  -0.07463282 -0.24122211 -0.2508353
  0.03976537  0.09163545  0.28355223 -0.33387378 -0.18421249  0.20999011
 -0.04184547 -0.232105  ]
[-0.1702346   0.57761765  0.27409083  0.01895368  0.6361005  -0.10897869
  0.08891972  0.5722331  -0.27719894 -0.28665206  0.30675626 -0.27732784
  0.73281574  0.04594002  0.05455799  0.19365     0.02818092 -0.29672828
  0.48368233 -0.38677898]
[-0.16451158 -0.23828274  0.33662623 -0.42532057  0.21644025  0.58018273
  0.17350188  0.3491406   0.38985986  0.38657928 -0.19861397 -0.84972507
  0.54836094  0.3772057   0.32977274 -0.08524496 -0.5025463   0.22601278
 -0.23560032 -0.46660644]
[ 0.28069738  0.32438838  0.16473655  0.05617069 -0.12342643 -0.6255261
  0.5555747   0.5948716  -0.22809504 -0.46651724  0.23806727  0.1378879
 -0.21043576 -0.05341756  0.0095095   0.34347475 -0.46306825 -0.42667115
  0.427814    0.2171854 ]
[-0.02549425 -0.06722403 -0.03723346 -0.0388741   0.04492524  0.01852712
 -0.1245744   0.07882605  0.0281342  -0.03034197 -0.03408916 -0.00761128
  0.00213251 -0.0354738   0.06684988 -0.005996    0.1276356  -0.04959693
 -0.01956075 -0.15255103]
layer 1 Activation
tanh
layer 2 Dense
20 40
[ 0.250961   -0.06553173  0.1418732   0.23073263  0.21617264 -0.11188513
 -0.08392994 -0.24184248 -0.11024911  0.06332532 -0.3682343   0.23513134
 -0.2745793  -0.29001433 -0.25820455  0.15071386 -0.34082994  0.16660827
 -0.31016362 -0.06479269 -0.2294547   0.09187327 -0.22416286  0.26014173
 -0.20055923  0.14890143 -0.03228576 -0.17989793 -0.20675491 -0.14482729
 -0.2110697  -0.01315612 -0.12203065  0.12640464 -0.15895732 -0.12438285
 -0.00611584 -0.08079316  0.22865993  0.25300592]
[-0.02120227  0.47509608 -0.13380615 -0.06840609 -0.18621352  0.03167042
  0.09484107 -0.290125    0.21288088 -0.21725659  0.2002404   0.05375065
  0.00069516 -0.43304908 -0.17737234 -0.33500057 -0.36138967 -0.16738786
 -0.07173782 -0.33961064  0.14400108  0.08407088  0.11809974  0.21680963
  0.2742703  -0.0918237   0.41245136  0.3641905   0.11096002  0.23795097
 -0.15965104  0.20957804 -0.14730933  0.11702834 -0.262535   -0.06920204
  0.41437215 -0.1202271  -0.14930207  0.05280238]
[-0.10445543  0.2697711   0.14008796 -0.08888058 -0.12532425  0.2400968
  0.10050659 -0.17544702 -0.26415387 -0.07282574  0.39321497  0.36143947
 -0.22449538 -0.16354394 -0.27583513 -0.21042624 -0.04529657  0.28972363
 -0.25405896 -0.11918531  0.22095579  0.39972833  0.23192672 -0.20794375
 -0.2597012  -0.21662784  0.18370171  0.10852014  0.4166112   0.3041986
  0.08699407 -0.10492797 -0.06559039  0.02923329  0.01161843  0.27142718
  0.11690525 -0.24421835 -0.09125984 -0.21595661]
[-0.32411584 -0.15031503  0.03039114  0.2242662  -0.37214908 -0.23359346
 -0.23071699  0.14596559  0.1285696   0.11503352  0.09484349 -0.13214493
  0.1335048  -0.2581068   0.10441043 -0.29219285 -0.3054362  -0.02347532
 -0.32265493 -0.03688809 -0.27344114  0.09780475 -0.25667182  0.14870194
  0.05268057  0.08071343  0.35364953  0.07042142  0.07529374 -0.33792514
 -0.24378107  0.35924277  0.18404517 -0.02683395  0.02548008 -0.15362535
  0.07615758  0.0763962   0.08653979 -0.04559635]
[ 0.03474943 -0.00495809 -0.22519074 -0.04090031  0.10062592  0.08463942
 -0.19240904  0.1982443  -0.01554827 -0.01386427  0.15364037  0.25443628
  0.244944   -0.03926462 -0.05522097  0.24994606  0.12035504 -0.15681684
 -0.01646346 -0.13746871 -0.2219228   0.20338605  0.26504242 -0.20160745
  0.08810302 -0.020211    0.05433042 -0.20304328  0.48098028  0.09255158
  0.22154583 -0.07502548 -0.06242007  0.23221932 -0.09929461 -0.34597895
 -0.1104181   0.16479464 -0.1355084  -0.00637316]
[-0.02194921 -0.14039478  0.2056807  -0.28703204  0.2924205   0.3581659
  0.28574845  0.0357592  -0.22840571  0.21829061  0.22795883 -0.15141053
 -0.01253763  0.29047808  0.25882733  0.24685198  0.32973972 -0.02421466
  0.01001213  0.01454571 -0.1538971   0.20234556  0.18420044  0.25640374
  0.33014625  0.24589697  0.16668278  0.03298954  0.11958995  0.05765278
 -0.19316003  0.2392144   0.10728829 -0.2620715  -0.13724288 -0.21818933
 -0.30000627 -0.11066487  0.14738989  0.0914723 ]
[ 0.01756216  0.3113397  -0.25805545  0.3099859   0.05734666 -0.35935664
  0.24172306  0.08604293 -0.38467523 -0.32025507  0.3129585   0.03046907
  0.11711812 -0.4893433  -0.1063224   0.20908721 -0.21992922  0.33857638
 -0.3260836  -0.04703516  0.1779443   0.207754   -0.33623242  0.20181617
  0.22978465  0.15156023  0.3364724   0.06843688  0.19506003  0.25943792
  0.41646686  0.01300005 -0.38340697  0.13756979 -0.0470648   0.11082234
  0.51434916  0.01760601  0.24763472  0.23521069]
[ 0.20327334 -0.25675237 -0.28837964 -0.14802685  0.05196951  0.3497984
  0.00988891  0.33274755  0.13300993 -0.27067548  0.05661611 -0.04528096
 -0.06714002  0.20447429 -0.14734621  0.28248343 -0.31496206 -0.23326002
  0.20631374  0.01591942 -0.185846    0.2264995   0.40003625 -0.02525138
 -0.23536997 -0.12105205  0.3727337  -0.13819493  0.11008871  0.2374759
  0.5422449  -0.09666957  0.11058003  0.29977372  0.12972794  0.22336945
  0.34807652 -0.3503045  -0.21424273 -0.0777496 ]
[ 0.01575323 -0.29397923  0.34940627  0.12461314 -0.2407276  -0.19909395
  0.26046836  0.2619462  -0.2975495  -0.25656733 -0.18070753  0.24133842
  0.1878908   0.19306497  0.29209507 -0.3194738  -0.05605709 -0.11510737
  0.20210214 -0.09221601 -0.23959577 -0.31103534  0.15514414 -0.2844839
 -0.2457222  -0.07345922  0.00815756  0.26115018 -0.1127465   0.3464164
  0.42960146  0.06517649 -0.03270093 -0.20354898  0.20188552  0.2210416
  0.10739431 -0.17856127  0.15753996  0.23736554]
[ 0.21360338  0.08692942  0.3045069  -0.23798859  0.14300705 -0.01595477
 -0.0376779   0.26237947 -0.23206261  0.0969822   0.28182343 -0.05254133
  0.12838168 -0.06575868  0.1342173   0.23757295  0.07796428  0.25492224
  0.07673857 -0.29718843  0.00663286  0.23697545  0.45556673 -0.2005965
  0.2160622   0.03754508 -0.03436293 -0.31527364  0.12956968  0.3594982
  0.1731589   0.23931591 -0.04548448 -0.03253492  0.08970084 -0.03327627
 -0.29158437 -0.15644883 -0.04758351 -0.16925679]
[-0.12751256  0.07133624  0.10707738  0.05116383  0.12203815  0.13933556
 -0.23376004 -0.1506644   0.04397534 -0.20679136 -0.31745902  0.16711047
  0.03195613 -0.05877217 -0.28659636  0.21357293 -0.14074472  0.08258144
 -0.25251797 -0.08092488 -0.0282342   0.07215028 -0.246619    0.28465506
 -0.23705749 -0.09238579 -0.14421904 -0.03384383  0.1293505  -0.02349272
  0.0354875   0.10822298 -0.11379225  0.316175   -0.03827647 -0.16196193
 -0.06151386 -0.33969656  0.125691   -0.15969303]
[ 2.57365825e-03  1.68166310e-01 -2.89333791e-01  3.03039014e-01
 -3.75625968e-01 -2.54285276e-01  4.57608281e-03  2.86824763e-01
  2.19908029e-01  3.33125919e-01 -3.74812484e-01 -4.36189510e-02
  1.86415389e-01  1.82026960e-02 -2.29178786e-01 -1.67373076e-01
 -2.58351676e-04 -1.40799552e-01  1.90785363e-01 -2.27396619e-02
  1.27885519e-02 -3.55228543e-01 -2.06914142e-01  6.88244030e-02
  1.93634227e-01  3.34632784e-01  2.11791068e-01 -1.20509684e-01
  4.94218618e-02 -3.50697413e-02 -3.00501049e-01  1.79063752e-01
 -3.08914602e-01 -1.47894099e-01  3.20877910e-01 -1.88030899e-02
  8.79062787e-02 -2.31808066e-01  2.37639174e-01 -1.39090285e-01]
[ 0.12428366  0.02269913 -0.07615062 -0.2756039  -0.33660927  0.03082639
 -0.1500709   0.27860197  0.11317104  0.10923179  0.26087683 -0.35065916
  0.23253977  0.38716772  0.08436667 -0.22318348  0.29076925 -0.20412397
  0.01774165 -0.17830017 -0.04843146 -0.10803732  0.37313846  0.1717044
 -0.09800585 -0.16020148 -0.05291447 -0.22626741 -0.26611823  0.05086098
  0.07819873 -0.25212634  0.11886991  0.42987347  0.04976809 -0.15748383
 -0.20848988 -0.01930528 -0.17091314 -0.12868708]
[ 0.15982202 -0.2531251  -0.06375807 -0.09680987 -0.15006715 -0.27918595
  0.18404973 -0.2363758  -0.14518645 -0.03280991  0.36064494 -0.04708762
 -0.29267156  0.14645198  0.00440704  0.2530987  -0.23984449 -0.13199805
  0.01604978 -0.095852    0.2991491  -0.14264813  0.24796714  0.167987
 -0.26995024  0.12829813  0.0261911  -0.07217907 -0.14041933 -0.09359618
 -0.27317435  0.09460266  0.09758619 -0.05367519 -0.0169848   0.20322736
 -0.23541243 -0.17344756  0.14090058 -0.01806018]
[ 0.02773873 -0.42670155  0.13930641 -0.10607809 -0.12014931  0.36263308
 -0.00377444 -0.20548244 -0.34001157 -0.04418242  0.16040853 -0.11585417
 -0.21601416  0.32006568  0.01505268  0.13011676  0.13932613  0.13224444
  0.3238569  -0.24077888  0.25699228  0.04298538 -0.05772536 -0.01270949
 -0.28179967 -0.09344964  0.24743906 -0.23899858 -0.080767    0.36620793
  0.11829372 -0.11865596  0.21026874  0.19382426  0.1393772  -0.01002851
 -0.25498688 -0.22390783  0.06775942 -0.02656415]
[-0.11568362 -0.12800169 -0.0821408   0.09292781 -0.17708121 -0.19725825
 -0.01770373  0.07397054 -0.225166    0.1388109  -0.21637577  0.2070592
  0.00691642  0.19913118  0.22186194 -0.21657337  0.10055374  0.2462796
  0.2437708  -0.35285988  0.2879052   0.10192951  0.18686466  0.31778046
  0.23418088  0.13809974  0.16216964 -0.12544835  0.11716783  0.02817975
  0.05467593  0.13869643 -0.11645009  0.12873161  0.18903707 -0.26945925
 -0.09548237 -0.09091183 -0.15956639 -0.01661224]
[-0.14940333  0.06168516  0.36428294 -0.28300744  0.34064627  0.1762248
  0.0816165  -0.11056915  0.08099248  0.1149701  -0.08325442 -0.02652039
  0.24692015  0.40545452  0.10874768  0.12516646  0.08948882 -0.11066145
  0.25948396  0.00757858 -0.25549677  0.10876659  0.03537333 -0.35175818
  0.33116367 -0.31660762  0.17765585  0.3133651   0.2575185  -0.16070125
 -0.18131705 -0.19687271  0.10632715 -0.00810155  0.21573329 -0.34577662
 -0.45439762  0.02678938 -0.25183105 -0.13811281]
[ 0.11883162  0.11882918 -0.11230394 -0.03486263  0.14631155  0.33991235
 -0.1930641  -0.08247369  0.14917584  0.27939114  0.2754903  -0.14072888
  0.26020855  0.22522418  0.01503595  0.10616473 -0.24536662 -0.2890256
  0.23878703  0.09684318  0.28529954 -0.24248098 -0.17715316  0.24287577
  0.20396183  0.22310008 -0.1104525  -0.08912509 -0.2882578   0.30093998
  0.46107388 -0.0726487  -0.06615946  0.04932005  0.01823067  0.02493951
 -0.23601526  0.18017626  0.05656511 -0.22662966]
[-0.20125028  0.41286704 -0.37309998 -0.00419262 -0.49267152 -0.01042537
  0.08258624 -0.10261416 -0.1319977   0.1459871  -0.32307735  0.2364684
  0.42412832 -0.143044    0.12067953 -0.06743568  0.00712504 -0.19846757
  0.29543948 -0.18018214 -0.25506994  0.03993535 -0.35220551  0.08912668
 -0.20244095 -0.23173705  0.22888485  0.19226839  0.1660186  -0.27145338
 -0.12588806  0.33043107 -0.210625    0.3806823   0.08339296  0.20620027
  0.52059156  0.03875146 -0.04470333  0.18449433]
[ 0.01126636 -0.19451067 -0.0883128  -0.0841952   0.35204795 -0.2945692
 -0.03999039 -0.17424928  0.15753797 -0.10839737 -0.3066451   0.12759209
 -0.05514888 -0.20733917  0.01903058 -0.22581545 -0.3186193   0.15260124
  0.00883632  0.16270095 -0.00101105  0.44231942 -0.35555816 -0.17270389
  0.37366265  0.14776881  0.01171951  0.23172478 -0.19493806 -0.2647225
 -0.34119263  0.03829976  0.04795013 -0.21801889  0.01098958  0.19060707
  0.21905753  0.23188935  0.02339473 -0.11265506]
[ 0.12052074  0.00929248  0.05784733  0.01957901 -0.00155144  0.11253597
  0.00678015  0.02418383 -0.02539966  0.01483295 -0.05498326 -0.05675976
  0.04313196  0.1312811   0.01235156 -0.01406165  0.03978382 -0.05329516
  0.0440242  -0.01843963 -0.01577378 -0.09602658  0.00424243 -0.0089357
 -0.00330766  0.00402163 -0.02798004 -0.02826649 -0.04314496  0.03062174
  0.10914759 -0.02508285  0.04345729  0.04747139  0.08811087 -0.01840369
 -0.07416846 -0.01582935  0.02891498 -0.01705652]
layer 3 Activation
tanh
layer 4 Dense
40 20
[-0.04065835  0.21182626  0.16391252  0.00617922 -0.06996968 -0.23617437
 -0.18690474 -0.08136192  0.08271479 -0.2885214   0.20013574  0.20916596
 -0.22389081  0.07275858 -0.10905946 -0.32100898  0.13342644  0.03608951
  0.20945749  0.00824024]
[ 0.11389726 -0.3303787   0.23579304  0.16525869 -0.12985675  0.19330122
  0.03283188 -0.27620795 -0.16257486 -0.1418977   0.43318424 -0.21244095
 -0.00936028  0.04656581 -0.13866432 -0.06332714  0.03834949  0.00572884
  0.164587   -0.23978701]
[ 0.20964202  0.05480443 -0.28535098  0.29015726  0.10348286  0.28658497
  0.23728737  0.21868256  0.29618543 -0.12930228  0.23982145  0.25580275
 -0.01950715 -0.18337955  0.0231692  -0.28925067  0.1254539  -0.0918192
 -0.25055385  0.15331729]
[-0.03238703 -0.19026072  0.25921917  0.14608724  0.04522451 -0.18893379
 -0.28075662 -0.03679949 -0.09373493  0.05499562 -0.13500337 -0.25915423
 -0.24388309  0.21714945 -0.30651543 -0.1886191   0.01991212  0.08334121
 -0.13809583 -0.11723705]
[-0.2017627  -0.25994092 -0.28166908  0.30115202  0.03433887 -0.1945346
 -0.11534377 -0.20048735  0.11041567 -0.09916757  0.07001228  0.03765082
  0.14649165  0.13254064  0.24375677 -0.14468332 -0.10179295  0.05610327
 -0.03067629  0.30557126]
[ 0.06187379  0.18370785 -0.26341432 -0.17981146  0.04439323  0.06527249
  0.32310474 -0.01882099 -0.0520379  -0.17118566  0.3018171  -0.09857417
  0.13606334  0.28598806 -0.10597092 -0.35207212  0.21777764 -0.4710096
 -0.31681007  0.1415411 ]
[ 0.22105917  0.10376658 -0.01936119  0.07084211 -0.00865998  0.1556853
 -0.18876557 -0.11516602  0.11298434 -0.01141607 -0.0046359   0.2207894
 -0.22493052 -0.07429804  0.12198233  0.25679803 -0.05478431 -0.34350166
 -0.01425317  0.20063405]
[ 0.36115342  0.08948695 -0.16291326 -0.1678672  -0.08734231  0.16335131
 -0.27432984  0.11571851  0.01210776 -0.18921046 -0.21966021 -0.04973025
  0.12587741  0.16726652  0.22663186 -0.00133791  0.13892101  0.00091994
 -0.14841668 -0.06995285]
[-0.20395596  0.05561235  0.03575142 -0.26762     0.09283371 -0.07767832
 -0.140817    0.30156258  0.15519565  0.00043898  0.0794622  -0.12207471
 -0.1298851  -0.28116006 -0.25693074 -0.11994065  0.10523027  0.10858253
  0.19721673 -0.34261045]
[-0.22647093 -0.1656169  -0.03510578 -0.03886055 -0.06796669 -0.06359974
  0.15770298  0.08725125  0.04754815  0.05801724 -0.06194747 -0.04338436
  0.13604145  0.07154355 -0.13567924  0.06216162  0.08262784 -0.15365227
 -0.20154886  0.08456502]
[-0.2759737  -0.2377555   0.05738104 -0.16279437  0.02624533  0.23682307
 -0.21213312 -0.2048307  -0.01704713  0.06227108  0.2354516  -0.25293672
 -0.19888563  0.03818931 -0.24382807  0.00109474 -0.02467081 -0.3592878
  0.06601731  0.03442592]
[ 0.03524478 -0.16203529  0.11492459 -0.03970599 -0.02113109 -0.22605975
 -0.24204567 -0.38085902  0.03171819  0.20538798  0.1865734  -0.28356683
 -0.33865327  0.01518644 -0.03358273  0.10070399  0.18550175  0.5688967
 -0.1478411  -0.19453545]
[ 0.3753171   0.0572516   0.04080839 -0.15703551  0.15693614  0.18182258
 -0.25560424  0.10358176 -0.31515864 -0.32125294  0.1676078  -0.1104717
  0.25384346  0.04204871 -0.04227542 -0.2710413   0.22682852  0.09325511
  0.08814587  0.2259671 ]
[ 0.25423235  0.3749875  -0.17103924 -0.16839586 -0.1207388   0.08847176
 -0.13665062  0.23171514  0.19523992 -0.06736192 -0.2647703   0.16504535
  0.03219764  0.33890817  0.22585157 -0.17383914 -0.2142114  -0.15458041
 -0.06208238  0.1673977 ]
[-0.20962983 -0.0728862  -0.05033132 -0.12117353  0.24612278 -0.06951546
 -0.23477037 -0.02643999 -0.2795394  -0.3068263  -0.09183224 -0.02577492
  0.19266966  0.10709967  0.04818576 -0.15822217  0.19194214 -0.06119048
 -0.1293431  -0.00493154]
[ 0.08730079  0.30670965 -0.10864143 -0.23802719 -0.05068036  0.32657257
 -0.08712858 -0.35146755  0.1053105  -0.20763615 -0.05791064  0.10718328
  0.25836694  0.26261133 -0.0127906   0.16794586 -0.24509062  0.33976197
  0.20383348  0.12855075]
[ 0.16102594  0.3150912  -0.06632737 -0.08014255 -0.29421547  0.06235968
  0.03649296 -0.2013033   0.3135104   0.05453011  0.15095927  0.01006621
  0.25318107 -0.305111    0.09907256 -0.24347083 -0.17534885  0.06796791
 -0.14863417  0.23403202]
[-0.15227169 -0.01507447 -0.03422755 -0.05025921 -0.30603725 -0.21779816
 -0.06672763 -0.2393451  -0.11521182 -0.00380907  0.27345198  0.1266161
 -0.02358962 -0.33178577  0.14396583  0.11579469 -0.1365184  -0.03406345
  0.22365016  0.13313508]
[ 0.09387685  0.25319338  0.20867419 -0.06182333  0.13397856  0.07983127
 -0.2116943  -0.2326552   0.37671036 -0.05238956  0.04876654  0.10556873
 -0.01445156 -0.00226403 -0.02548239 -0.34816492 -0.05133855  0.09376782
  0.06526535  0.05544182]
[-0.1998634  -0.13106288  0.03741372  0.23144208 -0.01299987  0.16011563
  0.18208615  0.26823947  0.1144672  -0.03316112  0.01262803  0.12277782
 -0.20012392 -0.2760962   0.24564585  0.24387072 -0.10002029 -0.30031562
  0.17131546  0.21756841]
[-0.0472813  -0.10334311  0.14125386 -0.04422549 -0.16749372  0.03822874
 -0.11424657 -0.15938663 -0.18475524  0.13149388  0.02980848 -0.01888664
 -0.24520743  0.04489685 -0.01588499  0.06107571 -0.19810167 -0.27251765
 -0.13775772  0.22251523]
[ 0.05110363 -0.14332865 -0.32116354  0.04694061 -0.20491637 -0.00189404
  0.05179421  0.0988645  -0.1079992   0.09096283 -0.07228801 -0.22094423
  0.40125787 -0.16705249 -0.04361781  0.34328312  0.10486934  0.23542279
 -0.07589847 -0.01884907]
[-0.02948169 -0.1857373   0.3104178  -0.02578989  0.2279504   0.2514857
  0.26336068  0.0191722   0.18916877  0.26628965 -0.08477276 -0.20328712
  0.20431182  0.27752656  0.05325079 -0.22682098  0.13511598  0.01777876
  0.10231549  0.33165684]
[ 0.26370248  0.18604575  0.07440414  0.00326987  0.01596353  0.29578736
 -0.02074008 -0.12985392 -0.01775247 -0.12097108  0.31733912 -0.23226078
 -0.27404445  0.26201752  0.07636286  0.26578963 -0.11178873  0.2470416
 -0.17790057 -0.09974418]
[ 0.09132165  0.16800411  0.16484857  0.21733013 -0.10230193  0.12198596
 -0.28013086  0.25726566  0.16593634 -0.04927184  0.16897853 -0.2537461
 -0.07715581 -0.03433794  0.11056609 -0.17092082 -0.32878563 -0.15774885
  0.14598311  0.30247587]
[ 0.27168304 -0.25324535 -0.3530022   0.18667592  0.02988752 -0.02752398
 -0.0373202   0.22844785 -0.02151614 -0.14981659  0.05415644  0.18601187
  0.1830466  -0.11932079  0.00866498  0.12732852  0.13289109  0.15653828
 -0.05388973  0.05313368]
[ 0.1325732   0.28769562  0.28086472 -0.10474197 -0.1439528   0.14883307
 -0.1458496   0.13861321 -0.36493182  0.04118672  0.05805507 -0.29261464
 -0.01711586  0.20133738 -0.07695681  0.34811494 -0.14536549  0.17739268
  0.00184744 -0.28469568]
[-0.30431092 -0.17361921  0.27507395 -0.14035255  0.2593753  -0.145764
 -0.13494214  0.16925435 -0.09266572 -0.22010629  0.1936703  -0.1159489
 -0.09565605 -0.3099565  -0.14621969  0.01354418 -0.01949162  0.08325789
 -0.05202343 -0.15142938]
[-4.37259227e-02  5.70798106e-02 -2.21895687e-02 -2.96994746e-01
  1.23583436e-01  5.77726867e-03 -2.12658182e-01 -1.20172754e-01
 -5.63233271e-02 -5.18237390e-02 -3.22759807e-01 -2.77245224e-01
  2.99718464e-04  7.53701627e-02 -1.25062451e-01  1.78421721e-01
 -3.40745032e-01  2.60077901e-02 -5.65101281e-02  8.34895968e-02]
[-0.30375224  0.20841007  0.20438644 -0.1559931   0.24847065  0.01499525
  0.00643159 -0.06863102 -0.04616839 -0.09005872 -0.25620025  0.26865697
 -0.03956367  0.01055231 -0.00216879  0.09554445  0.01684411 -0.2767399
  0.00408834 -0.30461016]
[-0.21500075  0.4110298   0.19436696  0.35756218 -0.17052594  0.23395003
  0.08129098  0.19693549 -0.08201756 -0.11908426  0.19737385  0.12035971
 -0.2501042   0.3458637  -0.2967113   0.17558071  0.28413492  0.16520834
 -0.39319685  0.02092247]
[ 0.01865789  0.08458629 -0.01477993 -0.10411932  0.05748357  0.009591
  0.0268397  -0.09544806 -0.2765749  -0.21027632 -0.08779788 -0.08820857
 -0.26306862  0.04579214  0.11019727  0.10547455 -0.22208086  0.33625695
  0.23345074  0.10029799]
[-0.17355692 -0.12166574  0.06177219  0.09118994  0.0270541   0.16527109
  0.05574463 -0.2391776   0.14425485 -0.3400185  -0.3235015   0.10303397
 -0.0326604  -0.11884455  0.19034286 -0.03962803 -0.36822924  0.18650796
 -0.12375335  0.1550812 ]
[-0.00616398  0.37088662  0.07194632 -0.15937535 -0.01556561 -0.25530893
 -0.03198676 -0.21935086 -0.14588821  0.2765093  -0.02036942 -0.01529752
 -0.02126976  0.29950154  0.13027176 -0.081604   -0.2137951   0.0689922
 -0.3223883  -0.11151608]
[ 0.20762117 -0.00144627  0.17201456  0.07777715 -0.1437674   0.14976217
  0.0969341  -0.27658206 -0.01075968  0.0257408   0.16379863  0.15447222
  0.16956797 -0.18074577 -0.12684876 -0.3329836   0.27376103 -0.2577789
  0.18935443 -0.1744852 ]
[ 0.2463689  -0.11795141 -0.07528519  0.07573524 -0.3741195  -0.26082623
  0.11508647  0.22140245  0.35726163  0.04153461  0.2573534   0.24088779
 -0.21949013  0.10925474  0.2384557   0.29473013  0.0873043   0.2810796
 -0.2494088   0.08583462]
[ 0.15782574 -0.07495572  0.16635223 -0.01372365  0.11704026 -0.23861073
  0.11205796  0.05021701 -0.1323393   0.3150299   0.23538302 -0.21879782
 -0.3514552   0.20786647 -0.2573887   0.22483096  0.12209067 -0.07837288
  0.07456277  0.12503475]
[-0.13279623 -0.34533682  0.20117305 -0.18450524  0.24716589  0.18861076
 -0.19117199 -0.2877382   0.03641276 -0.22378498  0.16811708  0.20020826
  0.19090773 -0.05795568  0.2198278   0.25693852  0.0010549  -0.03177939
  0.09985323 -0.07706026]
[-0.18815051 -0.03680573 -0.29038277  0.2776026   0.02955971 -0.14138776
  0.11589763 -0.22536542 -0.23715018  0.09690575  0.0493515   0.39304906
 -0.23767646 -0.08108211  0.18945579  0.04810353  0.22509621  0.08102126
  0.00046514  0.11794495]
[-0.07882018  0.25970396 -0.08926439  0.04747552 -0.10052174  0.16528106
 -0.05625275 -0.07424975  0.20970373  0.1719082   0.3726571  -0.12143558
  0.08940259 -0.19495879 -0.35778692  0.32107994  0.19056113  0.06691094
  0.09765448  0.10170701]
[ 0.00949341  0.04442699 -0.03687441  0.03891505  0.01144227  0.01361094
 -0.00943799  0.00265251  0.01723073 -0.01746731 -0.01299385  0.05479213
 -0.01095424  0.0419764   0.01900192 -0.04535938  0.005161   -0.00062252
 -0.02704761 -0.02910818]
layer 5 Activation
tanh
layer 6 Dense
20 1
[0.16976434]
[0.19603619]
[0.17837487]
[0.31259862]
[0.03082124]
[-0.23826674]
[-0.00091334]
[0.00263794]
[-0.23456545]
[-0.16832845]
[-0.00010487]
[0.4655953]
[0.28218204]
[0.1218728]
[-0.03649079]
[0.34780565]
[-0.20911752]
[-0.00578971]
[-0.1217981]
[-0.2619846]
[0.01215846]
