layers 7
layer 0 Dense
20 20
[-0.14423017  0.26484507  0.23911208 -0.07814294  0.19832553 -0.07787022
  0.32897428 -0.35233495 -0.17825785  0.2688831   0.05919438 -0.10623773
  0.3751851   0.11638049  0.0018399   0.17454465 -0.27636284  0.0185088
 -0.1680056   0.1617152 ]
[-0.34418726 -0.5773659  -0.07565407 -0.03833532  0.32631427  0.1954953
  0.0422261  -0.18582708  0.14188409 -0.3538562  -0.52347183 -0.05999928
 -0.3626168   0.09884983  0.45793    -0.10637274 -0.40472952 -0.3396787
 -0.14846113  0.2228622 ]
[-0.6073256  -0.69744843  0.08567296 -0.16958712  0.27055383  0.07609382
  0.18976444 -0.43319005 -0.0356522  -0.39061844 -0.19332361 -0.05091258
 -0.46288142  0.06559138  0.32128617  0.36655006  0.07255666 -0.29237595
  0.4967666   0.12721777]
[-0.2327557   0.00736185 -0.26708832  0.3594598   0.24143296  0.28141382
 -0.2299954  -0.35241613 -0.30146858 -0.06147012  0.17171232  0.14867723
 -0.06848731 -0.1395036  -0.22143026  0.39114407  0.13426809  0.02953736
 -0.04905808 -0.23079903]
[ 0.3037356  -0.09050536 -0.24662419  0.1529961  -0.03838988  0.04341201
  0.14953396  0.46146804  0.23675177 -0.01997934 -0.26479462 -0.13238046
 -0.16428508  0.29352558 -0.07153579  0.15580855 -0.01715738  0.21124497
 -0.06062424  0.22264642]
[ 0.3423382   0.87088454  0.15402414  0.3932355  -0.42333338  0.3455798
  0.03419625 -0.30748522 -0.09360264  0.38372898  0.15542002 -0.5238185
  0.3989846   0.14868839 -0.13177049 -0.08408437 -0.21883443  0.6903038
 -0.17224209  0.20439239]
[ 0.2851941   0.48061982  0.04271173  0.27061692 -0.59112334 -0.00290762
 -0.21330631  0.29786155  0.35213012 -0.17337908  0.29609087 -0.5842702
 -0.1780659   0.37754726 -0.21751878  0.04953086 -0.2574317   0.34516725
 -0.48717827 -0.1642862 ]
[ 0.02516244  0.36357754  0.2090068   0.18336602  0.25484967  0.19146326
  0.11250744  0.39126682  0.25542498  0.19114336 -0.35195762  0.38542718
  0.36716062 -0.37001216  0.07421973 -0.5186219  -0.10801775 -0.46758038
 -0.39794692  0.3847093 ]
[ 0.021563    0.2942468   0.22249267  0.20221962 -0.53627014  0.32096738
 -0.33101675  0.08083882 -0.46889198 -0.28491512  0.3992983  -0.20491788
 -0.00132694  0.28583091  0.14678513  0.07078739  0.07055904  0.4140667
  0.02452751 -0.14745353]
[-0.26914692 -0.22104152 -0.2593333   0.50553495 -0.4855749   0.5181856
 -0.07937063  0.50973254  0.08245175  0.06748859  0.18853678 -0.21003062
 -0.25947648  0.03125601 -0.23409781  0.06024432  0.5805158   0.2411286
  0.08339653  0.37197408]
[ 0.20457649  0.02555528  0.21229485 -0.02844544 -0.6133362  -0.17851168
 -0.18754734  0.28066814 -0.29040816 -0.33014277 -0.6354557   0.25294998
 -0.40038887  0.8906044  -0.11138926  0.1797588  -0.38357356  0.0779049
  0.02996847 -0.26392004]
[-0.42789903 -1.1934639   0.09187145 -0.4531188   1.0427581   0.14593346
  0.41861734  0.37274402  0.74119705 -0.12393958 -0.72845596  0.21289638
 -0.15203153 -0.36354813  0.22129941 -0.65585315  0.19212236 -0.56340504
  0.27503788  0.25515544]
[ 0.00085146  0.19164039  0.02039512  0.33330017  0.22761656 -0.3494669
 -0.11100998 -0.39103964  0.0162524  -0.04348733 -0.20421481  0.37123278
  0.23687759  0.2135536  -0.04523497 -0.14502902 -0.08598455  0.12845117
 -0.20690747 -0.15656097]
[-0.07348583 -0.2614775   0.3281848   0.19989875  0.08803891  0.50338864
 -0.08919343 -0.20171888 -0.06675946 -0.11548322  0.05458515 -0.24539652
 -0.35816735 -0.21280736 -0.04927164  0.3587174   0.30507788  0.17256847
 -0.12333662  0.35874233]
[ 0.12352987  0.11688047  1.0750242  -0.2624546   0.01760317  0.09275794
 -0.09798417 -0.38062054 -0.3333359   0.01253571 -0.11193082 -0.01979318
 -0.07292081  0.00575564  0.36931893 -0.15608908 -0.12488466  0.23723999
 -0.16896218  0.4402687 ]
[ 0.15916881 -0.6379664   0.4578122  -0.228717    0.29711884 -0.01372218
  0.12009317 -0.2616325   0.3678849   0.02178503 -0.49333146 -0.09625393
 -0.39704856 -0.25645775  0.291531   -0.4682758  -0.12123079 -0.21421605
  0.46530843 -0.1126999 ]
[-0.42972398 -0.05907606  0.44657218  0.00852111  0.11782657 -0.04804677
  0.12085873 -0.44180426  0.01500678  0.410996    0.15847583 -0.06439137
 -0.0754849  -0.12950939 -0.07829798  0.18509293 -0.02436235 -0.21471432
  0.5864502   0.45653513]
[-0.03280897 -0.08959849 -0.5315657  -0.6175797   0.7481738  -0.77906287
  0.1945741  -0.8843184  -0.47085744  0.1031365  -0.61569756  0.74870694
 -0.49380022  0.275949    0.43162772 -0.55115545 -0.16943201 -1.1304067
  0.62929535 -1.2951341 ]
[ 0.18890889  0.43335867 -1.3460286  -0.1432911   0.3027678  -0.32835615
  0.5408773  -0.28177837  1.1166356   0.85152936  0.50461674 -0.10881633
  0.65299714 -1.0399175  -0.29007837  0.0624116   0.39999563 -0.8210875
 -0.25522187 -0.32770562]
[ 0.50079095  2.0563698  -0.27946132  0.01437825 -0.41882583 -0.13979287
 -0.34185612 -1.0023634  -0.40460616 -0.2855924   0.3795054  -0.29355356
  0.15607749 -0.2854574  -0.0166603  -0.1637759   0.4388485   0.3797683
 -0.6105852  -0.10705186]
[-0.06571367 -0.08924905 -0.05382582 -0.0876302   0.02405494 -0.05554008
 -0.00878532 -0.13572067  0.04736552 -0.01232859  0.03890395 -0.11245392
 -0.12023281 -0.17110269  0.1248554   0.17257002 -0.04349089  0.06044281
  0.0704239  -0.07375681]
layer 1 Activation
tanh
layer 2 Dense
20 40
[-0.03686469 -0.24966787  0.016461    0.09464727  0.10466719  0.04421143
 -0.20808098 -0.3284385   0.14307511 -0.06575005  0.19684823  0.04368325
  0.02548164 -0.08624791 -0.16429876  0.27616918 -0.04026762  0.11299627
 -0.11217842 -0.2943156   0.10095038 -0.11293133 -0.17218304  0.01141378
 -0.06815612 -0.05561672 -0.10652807 -0.24557565 -0.10370435 -0.07590275
  0.17721252  0.15495327 -0.06927489  0.19686657 -0.03609786  0.15037997
 -0.2086067   0.10902215  0.00834311 -0.19532827]
[ 0.18400663 -0.19188936 -0.04765646  0.01356355  0.18512845  0.6321325
 -0.12724583 -0.29541987  0.20525229 -0.35163054  0.16342689 -0.1980093
 -0.30021226  0.03598616 -0.0391475  -0.905255   -0.27789706 -0.0832727
 -0.7133578  -0.30247793 -0.5218517   0.15151973  0.16492991 -0.13746548
 -0.046781   -0.10088313  0.00625401 -0.01108822  0.19709131  0.02701608
  0.27111876  0.11614506 -0.34186926  0.28369057  0.15722767 -0.37222514
 -0.19592394  0.31122056  0.07313643 -0.2654345 ]
[-0.39136577 -0.13034983 -0.2591705  -0.19365993  0.16214219 -0.14264332
 -0.02294283  0.11484482 -0.05394404  0.28769606 -0.039565    0.42755887
  0.0513927   0.06046443  0.12786758  0.64710563  0.4148261  -0.08438043
  0.7149738  -0.15570468 -0.43488884 -0.12803511 -0.15550563 -0.21292311
  0.4544112   0.00996919  0.26078895  0.4996297   0.25560942  0.07311691
 -0.12664011  0.03358418  0.17720506 -0.5821163   0.20426302 -0.3267875
  0.49784023  0.1950026   0.05463999 -0.16356498]
[-0.11461943 -0.05195351 -0.20983474 -0.09088945 -0.44131812  0.14754847
 -0.12876925 -0.24828428  0.27737355  0.16767503 -0.18751694  0.00558792
 -0.17679746 -0.19421238  0.13914269 -0.29627222  0.22055274 -0.00299195
 -0.1685756  -0.14670625  0.23784277 -0.20156735 -0.20799834  0.24164279
 -0.0425371   0.01356347 -0.03050303 -0.12632081  0.34617525  0.1686896
  0.0782631  -0.05854284  0.21879327 -0.03082073  0.05554434 -0.2097907
 -0.12149013 -0.07862922 -0.13720447 -0.20717926]
[ 0.08099215 -0.24216983 -0.08304131 -0.02350688  0.44995812 -0.30168527
 -0.04830934 -0.0222764  -0.00783337  0.16695164 -0.04237844  0.1216544
  0.09266653 -0.09796762  0.00192694 -0.03337028 -0.10695385 -0.23904671
  0.45537493  0.02976863  0.13679767  0.21821614  0.11040135  0.29081175
 -0.00211215 -0.01043007 -0.06393258  0.00693649 -0.21484827  0.31367552
  0.0211703  -0.33561385 -0.08627786  0.17144702 -0.4402062   0.19445774
 -0.11673489  0.01817581  0.14189832  0.23015651]
[-0.03622947 -0.19410704 -0.05776997  0.19840227 -0.24962534  0.4500013
 -0.17712516  0.16723917 -0.16288936  0.02832584 -0.34068698  0.05037852
  0.22700448 -0.05215776 -0.06521916 -0.22870812  0.23791525  0.00875805
  0.18759581  0.27603048  0.17383331 -0.0708525  -0.06814307 -0.1433977
  0.20133351  0.14162935  0.02881114  0.1241415   0.4736445   0.23374085
  0.11898024  0.27874047  0.29151675 -0.34684122  0.15171695 -0.04737289
  0.1417416  -0.09874055 -0.2816253  -0.20577352]
[-0.01511237 -0.26409128  0.0443635   0.02904042 -0.21141468 -0.14634603
  0.10511656  0.20321682  0.10159334  0.11134066 -0.2896583  -0.14438206
  0.00850072  0.0809565   0.07092119 -0.1645993  -0.11975844  0.2278717
 -0.2157698  -0.18215078  0.16533323 -0.19725665  0.15700619 -0.12928791
 -0.05542342 -0.18774731 -0.19273813 -0.08332303 -0.10169923  0.07510878
 -0.03710758 -0.1056178  -0.23728204  0.02052859 -0.17405425 -0.12337258
  0.16521662  0.2570825   0.25403476  0.20017585]
[-0.17205147 -0.04380522  0.22225606 -0.14055984  0.1211119  -0.08587968
  0.0015723  -0.08313507 -0.08660655  0.4314914  -0.28869888  0.06955068
  0.01922548  0.00608537  0.09733389  0.2763331   0.4285929  -0.22432503
 -0.03172933 -0.38962233  0.39866078 -0.18182993 -0.00101054 -0.21418498
  0.2963128  -0.23585688  0.4218473  -0.04821593 -0.03802613 -0.1728263
  0.05968642  0.13239293  0.5400592  -0.5026516   0.00917503 -0.3982899
  0.21749356  0.06520005  0.12932229 -0.2372135 ]
[-0.1929034  -0.14207974  0.27739453 -0.1524761  -0.07170545 -0.02080137
 -0.12399674 -0.21961749  0.18248391  0.42889288  0.17299478  0.10745767
  0.29625967 -0.06538072  0.28547296  0.10099756 -0.1789746  -0.09795136
 -0.25070277  0.00227603  0.25419635  0.0470601  -0.00924914  0.17654245
  0.22355118  0.03806815  0.00481242  0.12788655  0.06659402  0.08783075
 -0.02240096 -0.19174302 -0.13513078 -0.1666247  -0.28214434  0.0254764
  0.07222538 -0.14431112 -0.14163646  0.29423785]
[-0.14609939 -0.13235489 -0.2955253  -0.12245954 -0.18891369 -0.14945658
 -0.12164743  0.14342885  0.17191808  0.17517321 -0.01337687  0.16565461
 -0.10360027 -0.13133383 -0.08275827 -0.46687457 -0.09081219  0.11897002
 -0.28725463  0.0936912   0.33806503  0.12139601  0.16908179  0.02462162
 -0.06869784  0.09319875  0.2109774   0.34583768 -0.14234993 -0.20093134
 -0.10333846 -0.16027944  0.08242568 -0.1228732  -0.21218492 -0.09939434
  0.07177835 -0.09271539 -0.07643647 -0.06390916]
[-0.1152446   0.1841108   0.12486809 -0.2953052   0.19941263  0.44821185
  0.12167892  0.03327006  0.08980715  0.2523522  -0.12723204 -0.24856448
  0.10712947  0.13521527  0.13793407 -0.6046133   0.10100698  0.04200884
 -0.47043306  0.3077175   0.39000112 -0.10372738 -0.3204395  -0.19083337
 -0.10846867 -0.06830365  0.10679282 -0.06081763  0.03458658  0.26417845
 -0.14325367 -0.01842549  0.02722196  0.09562751  0.16542988 -0.13567199
 -0.23307332  0.11664698  0.00569674  0.07345642]
[-0.11429556  0.05468453  0.11552765 -0.19818859 -0.01301542 -0.22948562
  0.1945899  -0.18854836  0.2057246   0.0231304   0.28299612 -0.0703575
 -0.18662281 -0.24845523  0.02764187  0.04225287 -0.17151411  0.18253501
  0.42375964  0.05852172 -0.39917603  0.16656123  0.22665456  0.03695379
 -0.08612455  0.19049329 -0.02390917  0.20248415 -0.20823209 -0.17116205
  0.06896509  0.20985709 -0.15209997 -0.2897559   0.145904    0.13144532
  0.22934204 -0.17863806  0.03130132  0.01784632]
[-0.23863098 -0.02801068  0.20502864 -0.08905412 -0.02510702  0.1884347
 -0.10079806  0.03481952  0.16186936  0.12534323  0.12605086 -0.0461693
 -0.05665329 -0.23184972 -0.03527035 -0.27346304 -0.0399414  -0.18622634
 -0.2618709  -0.26609993  0.29453215  0.17885958 -0.23427562  0.05615975
 -0.03073636  0.14111724  0.17279392  0.10931895 -0.02690526 -0.02195457
 -0.15039073 -0.03509726  0.01217262 -0.0993852   0.21155745  0.26520228
  0.04399501  0.02389449  0.01529758 -0.00580808]
[-0.08028882  0.3057441  -0.32982     0.20168203  0.03985215 -0.3129668
 -0.19412044  0.26761165 -0.06463175 -0.24541478  0.22773698  0.06838252
 -0.20923321  0.27045482 -0.01238954  0.4111015  -0.03080809  0.17802362
 -0.15778932 -0.02491749 -0.4454518  -0.24292699 -0.04073786 -0.12435909
 -0.20756714 -0.14117141  0.17097645  0.10838086 -0.07386589  0.16395323
 -0.06398106  0.09779554 -0.29135245  0.11787949  0.45644394 -0.22630462
  0.15998225  0.01960232  0.24213292  0.01348742]
[ 0.1204482   0.00823099 -0.29737306  0.19974752  0.05484959 -0.16053213
 -0.10723872 -0.05448081 -0.05978071 -0.23509775  0.11918517 -0.10196032
 -0.3252029  -0.18311277 -0.09005598  0.24326657  0.07444634  0.09914732
  0.25661018  0.08888102  0.00685276  0.28695363 -0.11466762 -0.09375384
 -0.25952488  0.09155456  0.15542166  0.03294847 -0.23107453  0.16564743
  0.03279189 -0.15544696  0.11992949  0.21027818 -0.27148372 -0.17779066
  0.17830281  0.1939432   0.0491734   0.05109907]
[ 0.05446112  0.37325487 -0.0381298  -0.18146808  0.02276362  0.03464398
  0.06348473  0.02896805 -0.02854446  0.23293516 -0.03102653 -0.15679544
  0.34571233 -0.13737048  0.16382237 -0.12271596  0.0871808   0.16095425
 -0.23759405  0.3774304  -0.16995607 -0.01739248 -0.18624988  0.03322076
  0.08366109  0.08212353  0.13811898  0.18974629  0.22329038 -0.02297441
 -0.09962449  0.0595938   0.37677166 -0.34621027  0.06882871 -0.08640458
  0.05214092 -0.12018    -0.16078618 -0.00550264]
[-0.09384982 -0.06401093 -0.05419716 -0.03231592 -0.03698369  0.2227877
 -0.11414475 -0.18823354 -0.07879602  0.1687914   0.19879349  0.16641074
 -0.05225847 -0.08133824  0.29628196 -0.22064435  0.1425163   0.04706777
 -0.66786504  0.18199947  0.40805885 -0.26878297 -0.10379969 -0.06627045
  0.31246448 -0.35836548 -0.04191593 -0.01563055  0.14696059 -0.10383289
  0.22544968 -0.10750993  0.12605964 -0.22967604  0.02169777  0.1640285
  0.14879343 -0.078869    0.05957105  0.10648101]
[-0.10729206  0.18548289  0.28177804 -0.41200665 -0.32386762  0.39216667
  0.02384077 -0.2517675   0.04506559  0.17260496  0.20563672  0.17380054
  0.2215229   0.32938245 -0.05172932  0.26711664  0.18770657  0.05861997
  0.05594533  0.0910456  -0.28944883 -0.12072045 -0.3860268  -0.20320532
 -0.06633043 -0.23324469  0.18982153 -0.22242483  0.04155188 -0.05284516
  0.18680508 -0.12789555 -0.00088719 -0.10915318  0.1791471  -0.02396532
  0.07810055 -0.04176037  0.12306227 -0.06804398]
[ 0.03312016  0.3409955  -0.00423652 -0.23271798 -0.19926576 -0.28759363
  0.02243021  0.32776958  0.31300032  0.15438029  0.06266282 -0.08567054
  0.03739654  0.2003829   0.09543397  0.2056727  -0.16077292 -0.12742995
 -0.07200252  0.21108738 -0.3496376  -0.40825912  0.33460197  0.204741
  0.18835406  0.02085078  0.16319664  0.25126758 -0.27334183  0.06578394
 -0.21192959 -0.18501806 -0.11034783 -0.29445463  0.05139132  0.25596076
 -0.01395595  0.17004484  0.272984   -0.18044516]
[-0.14201222 -0.2088331  -0.1073237   0.07875983 -0.24200131  0.23499615
  0.19254966  0.13069035 -0.1882838   0.03874012 -0.08233607 -0.15746781
 -0.05080266  0.2908974   0.32583466  0.05251241  0.2699543   0.31072712
 -0.13961181 -0.05972236  0.46904716 -0.1888592   0.00354265 -0.06059532
  0.42148036 -0.628135   -0.29381236  0.1561769   0.3111345   0.14472131
 -0.2617631   0.29709166  0.25632703 -0.30474904 -0.01746966  0.09832212
  0.28343296 -0.10758791  0.02628564  0.0169459 ]
[ 0.06722023  0.09464487 -0.02264996 -0.19554995  0.09866547 -0.00753857
  0.15927415  0.18928221 -0.16113381 -0.00465533  0.04365641  0.09430065
  0.18322389 -0.00582713  0.07897291 -0.13848524 -0.03817435 -0.07588635
 -0.04272852  0.42863956 -0.22764751  0.22751495  0.06501333  0.02535736
  0.03055029  0.08655377 -0.06989138  0.29707128  0.24015507  0.08488815
 -0.10642825 -0.00699732  0.09181241 -0.07273359 -0.30951568 -0.0178392
 -0.11787309  0.15310033 -0.12480932  0.02101234]
layer 3 Activation
tanh
layer 4 Dense
40 20
[-0.21276383  0.06331093  0.09947502 -0.08493977 -0.15404306  0.08269476
 -0.01643681 -0.02661445 -0.06454448  0.01375889  0.02964834 -0.09638347
  0.04455156  0.09297588  0.04495574  0.09421922 -0.04560525 -0.21094516
 -0.08511837  0.20040932]
[-0.24768415  0.04002136 -0.18409823 -0.21046625 -0.05980791  0.2575095
 -0.08210673  0.26628768 -0.13412675 -0.04862392  0.07068727  0.25569457
  0.1480044  -0.09404811 -0.13538821  0.46656188 -0.16321729 -0.21669976
 -0.26782724 -0.03868078]
[-0.19237739  0.0097231   0.13475677  0.23787893  0.08821306 -0.27794674
  0.06773522  0.03341636  0.2776427  -0.19622934 -0.01177078  0.00372195
 -0.21692091  0.23917197 -0.10873263 -0.11758749 -0.27529567 -0.0048874
  0.20620835 -0.02552922]
[-0.04747486 -0.17183241 -0.01233314  0.07162514  0.26917627  0.14476447
  0.01873344 -0.2724559  -0.14358124  0.19284712 -0.00202476 -0.02386439
 -0.1169041  -0.26079324  0.1818888  -0.17456068  0.26376566 -0.18921909
  0.17977086  0.03368069]
[ 0.14461923  0.16142833 -0.24793968 -0.13084061  0.10111867 -0.28943664
  0.14185749 -0.18051204 -0.23932134 -0.08143544  0.08553982 -0.3501085
 -0.2697877  -0.23149407  0.17714714 -0.17135154  0.29474288  0.10303675
 -0.30214146 -0.00364083]
[-0.07129759 -0.36328894 -0.11427542 -0.20910515  0.01385885  0.23855162
 -0.16823931 -0.1745958  -0.19936743 -0.24366902  0.14059395 -0.19899976
  0.11810955  0.09079369  0.1476283   0.324485   -0.48738685 -0.13732739
  0.3380965  -0.31958503]
[ 0.00708389  0.3488008  -0.02757245 -0.1487576   0.29105917 -0.08066143
 -0.21565829  0.08294397 -0.04995224 -0.06041405  0.09481367 -0.10071499
  0.29265723  0.00419716  0.0884129  -0.00353799  0.1146955  -0.08803824
 -0.11337568  0.12105317]
[ 0.01864742  0.23033325  0.04417148  0.14534684 -0.05186268 -0.15202999
  0.12296607 -0.06671526  0.04058896 -0.01934547 -0.11889645 -0.1656463
  0.09801855 -0.20374228 -0.28596327  0.19887522  0.24947347 -0.15264626
 -0.25853032  0.05843325]
[ 0.16541958 -0.2174524   0.2085482  -0.24796844 -0.09552722 -0.1384687
 -0.2061509   0.29439205  0.27735323  0.15602607  0.0079178   0.03798755
 -0.27582723 -0.01916866  0.02860807  0.06030201 -0.07931902  0.17322223
 -0.18680681 -0.02294955]
[ 0.31569207  0.31593058 -0.20813401  0.3693492  -0.04282252  0.06585486
  0.00195575  0.06692185  0.40089193  0.07387009 -0.01250495  0.25088918
 -0.19155982 -0.25206417 -0.11541937 -0.21701665 -0.19695503  0.46744093
  0.04306461 -0.07176922]
[-0.15868258 -0.247811    0.06600256  0.1338452   0.23823103 -0.2313247
 -0.18209736 -0.04420337 -0.1229176   0.21522246  0.10624339 -0.1935929
 -0.0752977  -0.07954999  0.13486429 -0.1083325   0.13680485 -0.13551754
 -0.21178107  0.24283296]
[-0.11134125  0.10783923 -0.0735975   0.2597773   0.08771067 -0.13865419
 -0.00960071  0.05280612 -0.2323992   0.04954797 -0.049597    0.07767431
  0.1061754  -0.13014244  0.34088445  0.0562832   0.17627816  0.07853824
 -0.2711946  -0.06837781]
[-0.15569398  0.30668125  0.2487454   0.33160278  0.09607291 -0.05760013
 -0.04362444 -0.08684948  0.09210087 -0.06807993 -0.0004884  -0.24110843
  0.2754987   0.17862442  0.22913092  0.0670154  -0.27375036  0.02762904
  0.15112796  0.04543943]
[-0.3448447  -0.05853704  0.19461143  0.16398972 -0.30388024 -0.05892223
 -0.09392664 -0.00138929 -0.3397041  -0.09333941 -0.06235699 -0.0052556
  0.13327087 -0.20562659 -0.10005906  0.29432303  0.15247734  0.22732714
 -0.01715245 -0.16177973]
[ 0.27528086  0.1532758   0.06715886 -0.16110793  0.05898699 -0.11451939
 -0.16620122 -0.0923482   0.0327564   0.09598714  0.17608754 -0.22438598
  0.12795432  0.16720122  0.04313101  0.23706901 -0.19774115  0.28913897
 -0.01459248  0.00666342]
[-0.14133383  0.15086833 -0.16607238  0.22503662 -0.12531145  0.30543774
  0.07730571  0.2761343   0.16313705  0.00581778 -0.10194964  0.2793275
 -0.22365366  0.06672863  0.04068914 -0.32507357  0.32479212  0.391559
 -0.05598934  0.32832098]
[-0.12714118 -0.11290371  0.13528447  0.04695848  0.05973077  0.01173053
  0.10504115 -0.02508058  0.02648909 -0.00139091 -0.01269253  0.3630765
 -0.05391678 -0.26467696 -0.22361639 -0.30639827 -0.08761576  0.26554164
  0.32822427 -0.16726366]
[-0.03770813 -0.12784287 -0.25369373  0.09677795 -0.07686957  0.15843037
 -0.14375006  0.02063416 -0.04393746  0.16403152  0.07252692 -0.08241725
  0.13232158 -0.06017716 -0.04247306  0.3163156   0.01799938  0.06590828
  0.10691303 -0.09532142]
[ 0.3185863   0.46180567  0.00949415 -0.00083811 -0.1749038  -0.10758558
 -0.263532    0.0901298  -0.29812065  0.19515161 -0.03887072  0.21725294
  0.03083894  0.15253215 -0.16549574 -0.20102437  0.20921797  0.23836342
  0.16179146 -0.06126783]
[ 2.7591050e-02  5.1428539e-01  4.5883952e-04  1.8581012e-01
  1.2140921e-01 -2.2613382e-01  1.7908235e-01 -2.8174058e-02
 -2.2751795e-01  1.3300234e-01  8.0772087e-02 -3.1930870e-01
  4.6502057e-02  3.9539170e-02 -2.2470359e-02  3.8884047e-01
 -2.6140016e-01 -5.7098567e-02 -4.1643355e-02 -1.3149185e-01]
[ 0.00909676 -0.02223892 -0.09642244  0.35510612 -0.15863931 -0.04927634
 -0.13983193 -0.12108909  0.42215204  0.19450788  0.16153882 -0.12805212
 -0.17199808 -0.09223892 -0.10978641 -0.2524663   0.21450461  0.42408457
  0.5389974   0.27275345]
[ 0.23707178  0.03606779 -0.06335409 -0.13911818 -0.02941944  0.15509251
 -0.05474544  0.07609726 -0.13001797 -0.14714481 -0.27253947 -0.25313526
  0.0783621  -0.17475417 -0.08748893  0.06681921  0.05105232 -0.05031221
 -0.25839195  0.19097808]
[-0.18774205  0.07907568 -0.20269164 -0.10066297  0.10644012  0.06663339
  0.0222729  -0.09335922 -0.05557571 -0.3147259   0.01560763 -0.26149592
 -0.30744568 -0.13972306 -0.25327787  0.04226063  0.19718227 -0.1445584
 -0.19168277  0.20654266]
[-0.08143137 -0.02888483  0.17037657  0.14334407  0.04690979  0.29180953
  0.00860814  0.38408148  0.3131685   0.2187902  -0.22068235 -0.21580479
 -0.38971075 -0.05934861  0.10816919 -0.02816057 -0.18205239  0.01109177
 -0.13382775  0.16837832]
[ 0.06652439  0.23418331  0.09861457  0.17628828  0.13980174  0.18735552
 -0.07614888 -0.13030514  0.11492633 -0.0138286  -0.19512223  0.09514014
  0.24771164  0.0173789   0.10246816 -0.2710358   0.0163314   0.31085566
 -0.08967786 -0.12098134]
[-0.2522549   0.00470973  0.07706938  0.2541198   0.2104178   0.21369481
 -0.18024723  0.08170029 -0.02184966 -0.04068128  0.10138091 -0.11728825
 -0.28308326 -0.02795903 -0.07606643 -0.19116433 -0.11922599 -0.17260572
 -0.3124674   0.20916484]
[-0.1615128  -0.16800222 -0.12211448 -0.08920127  0.31820187  0.13816012
  0.10118613 -0.02974205  0.03143784  0.1412266  -0.02148647  0.09342384
 -0.25688887 -0.09646234 -0.01904249  0.06567569  0.05334594  0.1493196
  0.15616722 -0.21294764]
[-0.0513627   0.2578339   0.22611842 -0.12391683 -0.27808338  0.30221674
 -0.1295421   0.12676165 -0.28379056  0.21011762 -0.00951168  0.01321555
 -0.05211655  0.04565918 -0.17465866  0.01568401  0.09313034  0.08019742
 -0.06799742 -0.15704583]
[-0.05554583  0.08797265 -0.25783944  0.16954614  0.15664184  0.02476484
  0.23931156  0.06104954 -0.23535557  0.17552058 -0.16001028 -0.25797793
  0.23582354 -0.18296342 -0.16757329  0.26290113 -0.3797533   0.27468565
 -0.00051265 -0.22251473]
[ 0.1765305   0.07417099 -0.11154901  0.2779382  -0.15875044 -0.02091454
 -0.04500198 -0.12174434 -0.21523425  0.19988568 -0.00552114 -0.23975976
  0.30807364 -0.24240506  0.05471709  0.22793138  0.17660594 -0.17422651
  0.15414535 -0.00971196]
[ 0.22989516 -0.22163974  0.10440343 -0.07855948 -0.16837347 -0.04340086
  0.07604825 -0.14348544 -0.13742293  0.08289815  0.1586945  -0.10776559
  0.06422349 -0.22373407 -0.18325585 -0.03567464 -0.03066713  0.01384854
  0.2403425   0.0089133 ]
[ 0.11187106  0.03761724  0.04872151  0.02767776 -0.18293038 -0.13516322
 -0.07955326 -0.12004144 -0.12572595  0.1488292  -0.19457057  0.07051419
  0.24173851 -0.36449033  0.15391862  0.18096748  0.11551898  0.01741802
 -0.25564703 -0.2775417 ]
[-0.15853919  0.29111174  0.16569172 -0.14432682 -0.18325351  0.1765183
 -0.01089502  0.25142172  0.22251901  0.01165956  0.17865147  0.0536487
  0.44792077  0.12668906 -0.00496837 -0.34804738 -0.14486927  0.13385539
  0.31068465  0.096282  ]
[ 0.13259545 -0.20412612  0.11393192 -0.17174561 -0.02339946 -0.00052914
  0.11861536 -0.02847217  0.04715959 -0.00994901 -0.08925297 -0.13964854
 -0.15126054  0.15116912 -0.23651558  0.09398132  0.1546471  -0.26571128
 -0.22472793  0.19743308]
[-0.3407879  -0.28542465 -0.22173187  0.03223209 -0.04958221  0.06618661
  0.0634105  -0.21999055 -0.0880612  -0.18969125  0.04721124  0.09259612
  0.2279339   0.1539178  -0.15765919  0.16173522  0.08946659  0.15990274
  0.20364523 -0.06703851]
[ 0.21213011  0.16621183 -0.34309644  0.00094426 -0.00772323  0.11333259
  0.2792927  -0.0005692   0.00474505  0.09397421 -0.02709    -0.165054
  0.20393562  0.0381554   0.03215232  0.17165418  0.00239357 -0.10292359
 -0.02584619  0.26655763]
[ 0.21696922 -0.09748168  0.11810382  0.24019757  0.2890958  -0.24142298
  0.01558645  0.22066581 -0.3226745  -0.13441719 -0.14625342  0.3103802
 -0.18371627  0.19602165 -0.03161689 -0.30352384  0.17992081  0.21849968
  0.03236359 -0.20374577]
[ 0.1630868   0.1165239   0.0910017  -0.30554017 -0.04602977  0.05259733
 -0.17668046 -0.1247866  -0.20810515  0.32401422 -0.00919741 -0.22657952
 -0.15241612  0.0624375  -0.19148949  0.03977308  0.09361779  0.0850749
 -0.25553983 -0.06618048]
[ 0.18056169  0.00788541  0.01128647 -0.13740441  0.04802163 -0.1118257
  0.14477591 -0.2515242  -0.16091917 -0.20040107  0.11798871  0.07800557
  0.04216649 -0.03461667 -0.17264892  0.03404306  0.20691797 -0.00977652
  0.02450159 -0.01238105]
[ 0.26988998  0.17496276  0.0211972  -0.17574409 -0.3174583   0.20917131
  0.01512809 -0.37435597  0.01517933 -0.11895333 -0.13823035 -0.01809753
 -0.22497903 -0.25898167  0.17928629  0.07907452 -0.15579456 -0.1993101
 -0.01068405  0.15850642]
[-0.06877077  0.20034017 -0.05532274 -0.01639666 -0.066039   -0.0568746
  0.005052    0.22390522 -0.12025529  0.01875413  0.07241097 -0.04639798
  0.02423897 -0.01275942  0.0110345   0.09607724 -0.10962572 -0.08578377
 -0.10756548 -0.04783181]
layer 5 Activation
tanh
layer 6 Dense
20 1
[-0.04920769]
[-0.15057632]
[0.00957569]
[-0.07288549]
[0.01586595]
[-0.01350776]
[-0.01127039]
[-0.00911536]
[-0.06473906]
[-0.00793667]
[0.00730233]
[-0.08750051]
[0.05667504]
[0.00705612]
[-0.01241482]
[-0.01956715]
[-0.07950076]
[-0.13032076]
[-0.0555704]
[-0.17463769]
[0.07148685]
