layers 7
layer 0 Dense
20 20
[ 0.37319168  0.25242555  0.04544421  0.273767    0.36673006 -0.19192168
 -0.03391398 -0.36589444  0.49144134 -0.539486   -0.10238828  0.05982426
  0.20336647 -0.22135194 -0.24759972  0.10145221  0.06946132  0.35704064
 -0.31463674  0.07583191]
[-0.05271032  0.16235489  0.37582326 -0.12437341 -0.33695516 -0.08101898
 -0.18695883 -0.18090804  0.26871258  0.22823435  0.2877652   0.2625311
  0.36526072 -0.32215005  0.12760437 -0.1365568  -0.08471248  0.13858622
  0.3438697  -0.0437848 ]
[-0.20345032 -0.11876658  0.18172175  0.24766421 -0.11471725  0.1655823
 -0.10403249  0.23137277 -0.13950151  0.17486382 -0.21838109 -0.20596685
 -0.36463508 -0.2027359   0.10334328 -0.1622619   0.11204281 -0.13016105
 -0.26504984 -0.34660578]
[-0.22723106 -0.18728127 -0.00138306 -0.16345929 -0.13641961 -0.15836735
  0.15675491  0.2773122  -0.23827092 -0.34601033  0.37996006 -0.05901028
 -0.16321352 -0.13135417 -0.088659   -0.2965398   0.00209581 -0.10799459
 -0.05539444  0.02885592]
[-0.2632927  -0.10324852 -0.3093965  -0.30495092 -0.08819441 -0.08916017
 -0.23065645 -0.07584807 -0.13120516 -0.33487517 -0.15978478 -0.18233956
 -0.43962038  0.07500059  0.05962735  0.2762764   0.03083133 -0.3674071
  0.29277122 -0.03095052]
[ 0.05272859  0.19805866  0.2815004   0.20829302 -0.1282453  -0.1577492
 -0.35113567 -0.02903983  0.18338513  0.16033375  0.33486378  0.24740016
  0.19565523 -0.33744732 -0.33957666  0.21276921 -0.12431118  0.09125987
 -0.08149952 -0.1379383 ]
[-0.14380683  0.01310718 -0.1981122   0.30015665 -0.355489   -0.25565737
 -0.37796682 -0.08524361 -0.31122208  0.10651392  0.15994042 -0.0408065
 -0.35130593 -0.09891403  0.23459297  0.03691062 -0.03010365 -0.18140657
  0.21911389 -0.15506925]
[ 0.05132116  0.18325703  0.07393875  0.17968377  0.26142517  0.2331268
 -0.1737764   0.326839    0.03860998 -0.19234283  0.16223875  0.29621404
  0.11277759  0.04045526 -0.2040536  -0.23633197 -0.02586116 -0.01154117
 -0.09464048  0.28873357]
[ 0.5407881  -0.06658824  0.2209829  -0.26314858 -0.56973433  0.05645157
 -0.24927054 -0.16541548 -0.0084545  -0.10628617  0.14155564 -0.12084539
 -0.315062    0.01123786 -0.26404995  0.21249194  0.37162837 -0.40566623
  0.21868707  0.00158741]
[ 0.6605291   0.6795408   0.2880259   0.43441457 -0.6117726  -0.01923078
 -0.19908299  0.093941    0.2332637  -0.16846462 -0.24792695 -0.584657
  0.40621182 -0.62582886  0.48628306 -0.2924791  -0.2668516   0.05254628
 -0.3735181   0.59836876]
[-0.2660209  -0.64051026  0.48637307 -0.527975   -0.03800456 -0.15481701
  0.34102088 -0.51036775 -0.21032013 -0.35403335 -0.259852   -0.175638
 -0.39185625 -0.9331172  -0.14261775 -0.39893794 -0.5303294   0.23126952
 -0.4638094   0.23130316]
[-4.37402159e-01 -7.58697629e-01  2.90993780e-01  8.05989265e-01
  4.38988596e-01 -4.41680546e-04  1.74730748e-01  1.19920723e-01
  1.10603487e+00 -4.85862345e-01 -1.32035583e-01  1.20092444e-01
  1.34461716e-01  4.54121470e-01  3.44646007e-01 -2.29143903e-01
 -6.70846939e-01  3.10488164e-01 -4.23604608e-01 -1.90534562e-01]
[ 0.22494449  0.5071     -0.15762743 -0.24921344 -0.05301166 -0.19642748
  0.0399217  -0.2639615  -0.22911313  0.21102571  0.00119389  0.17530188
 -0.01539898 -0.30739823 -0.4558912  -0.3124669   0.2774368  -0.07237057
  0.44292298  0.54867417]
[-0.17806049  0.21919358  0.21321198 -0.35044003 -0.69070876 -0.04104126
  0.2805952   0.20671397  0.2505421   0.8031923  -0.64851296 -0.22597168
  0.46565452 -0.06718223 -0.28557196  0.69158226 -0.19100772 -0.38257065
  0.20795648  0.19888483]
[ 0.4971531  -0.64702946  0.41959423  0.20257941 -0.13967618  0.29914737
  0.6609485  -0.20653589 -0.32792428  0.6561173  -0.4197808   0.2684336
 -0.3350419  -0.41358402 -0.35531515  0.43297544 -0.5058064   0.25702116
  0.51758516  0.2690866 ]
[-0.6138557  -0.5522371   0.10249155  0.44412056  0.10644588  0.3523604
 -0.23601153  0.22250009  0.24294339  0.18045455 -0.23959701 -0.0661395
  0.5983457   0.44829518  0.38605297 -0.45230502 -0.35067546  0.79787403
 -0.48363    -0.46961638]
[-0.48380443  0.02764242 -0.005587    0.301779   -0.13354099  0.16839565
  0.4880097  -0.20838939 -0.28310627 -0.5347259   0.01789046  0.08065982
  0.21893911  0.39992407  0.1683161  -0.64276874 -0.1484198   0.21693091
 -0.02686796  0.29950774]
[-0.1868659  -0.98348016 -0.49736395  0.06904659  0.837529   -0.05122832
  0.46700096  0.21413419 -0.70044136 -0.32896328  1.3839208   0.71828693
 -0.6173184   0.6908883  -0.23492172 -0.48144168  1.2522281   0.85666007
  0.70574975 -1.162473  ]
[-0.58577865  0.5988138  -0.9187178   0.52837795 -0.93635815 -0.75793606
 -1.1279922   0.20727845  0.55560267  0.34596834  1.0338297   0.74440265
  0.69540787  1.1416181   0.25210512 -0.36166388  1.0295863  -1.0374258
 -0.6162097  -0.4193711 ]
[ 0.1563712   0.05455229 -0.36359206 -0.50150466 -0.6087834  -0.2760051
 -0.3250997  -0.38128588 -0.4191619   0.25889254  0.46944687  0.03519507
 -0.36708298 -0.41310224 -0.5599815   0.33273628  0.19911113 -0.10224842
  0.48484474  0.22028604]
[ 0.23132798 -0.12527364  0.09292045 -0.081388    0.12303136 -0.08641396
 -0.19717117 -0.14184354  0.08615395  0.00918867  0.08287616 -0.01902962
  0.01339341  0.14535528  0.03828864  0.22027741 -0.09709283  0.09652948
 -0.05872338 -0.02817054]
layer 1 Activation
tanh
layer 2 Dense
20 40
[-0.36955813  0.48886818  0.23586233 -0.6406123   0.18958397  0.07791279
 -0.517117    0.08640941 -0.43596944 -0.01171105 -0.35258433 -0.23896006
  0.11826897  0.28630596  0.1625458  -0.16211185 -0.5474674   0.5649575
 -0.0555261   0.41093194  0.12179755 -0.1468513   0.39378342  0.3323331
 -0.10363985 -0.5194964  -0.19233426 -0.14422801  0.04308955  0.35891914
  0.0048692  -0.3863363  -0.36212882 -0.29877213  0.06518918 -0.39984143
 -0.23577407  0.14461498  0.292347    0.06563429]
[-0.6032151  -0.01728631 -0.31589755  0.26516983  0.7808006   0.24825512
 -0.21340431  0.02415019  0.19505736 -0.303141   -0.5673038   0.00988855
  0.6183811  -0.05317983 -0.09618803 -0.14219807 -0.705752   -0.4431185
 -0.62003064  0.57046     0.17152199 -0.17430833  0.21758328 -0.23634078
  0.37017828  0.40854195  0.15070583  0.77448195  0.17895013  0.27025396
  0.09769353  0.10637488  0.26049712 -0.3781194  -0.41229102 -0.10515904
 -0.00571771 -0.1339717  -0.584724    0.15090975]
[ 0.07179347  0.64173603  0.42102173 -0.4544607   0.1869626   0.12117314
 -0.26983932  0.16784179  0.40916073  0.83305895 -0.01080479 -0.28160325
  0.05825083  0.17382994 -0.5202925  -0.32913065  0.37235174  0.23497437
  0.2717366  -0.02632925  0.10274795  0.54292184 -0.13145013 -0.6171927
  0.18305899 -0.14070264 -0.17249386 -0.20918298 -0.76234126  0.1909329
 -0.45247003 -0.27868512  0.59746367 -0.6095698   0.10123238  0.00136716
  0.32806373  0.0013189   0.3065686   0.15520656]
[ 0.49449375 -0.69625586  0.17746197  0.4855662  -0.0900576  -0.55164635
  0.6426394  -0.07183886  0.4185581   0.24311441  0.35604084  0.10225895
 -0.28834265  0.02652364 -0.34140345  0.07533566 -0.28891167 -0.4679426
  0.11984064 -0.17254575 -0.36610135  0.00536347 -0.55322206 -0.83160853
 -0.30257767  0.39648482 -0.2221785  -0.42860135 -0.22902182 -0.35514578
 -0.10181736  0.03032721 -0.05880548  0.6305473  -0.02073151 -0.3184879
 -0.08176647  0.12255894 -0.1410489  -0.42278597]
[ 0.3673034   0.33646765  0.2191782  -0.0845364  -0.7881078   0.40479705
  0.01563014  0.8140982  -0.6513726   0.07631363 -0.01822492 -0.08297721
 -0.5048775   0.04550638  0.27505723 -0.01437635  0.07606233  0.44352397
  0.25364238 -0.2667088  -0.26704016  0.29490513 -0.1614221   0.65564203
 -0.46255258 -0.4656336  -0.00124651 -0.0911378  -0.24202548 -0.6123931
  0.33694106 -0.08574744 -0.16053061  0.44454455  0.34624535  0.55426025
 -0.03444138 -0.1692278   0.2579281  -0.21645224]
[ 0.3582403  -0.02506687  0.00640614 -0.14747585 -0.1943988  -0.232061
 -0.34812263 -0.05341204  0.47041354  0.28786343  0.42538494 -0.15587376
  0.2954793   0.22485085 -0.13185172 -0.04778472 -0.10986336  0.4905806
 -0.0638991  -0.2247615  -0.46317822 -0.09253243 -0.33451056  0.10884892
 -0.20640725 -0.1775584  -0.26875988 -0.21715151 -0.04388806  0.01625333
 -0.4111292  -0.06678718  0.07383049 -0.22722843  0.13278304  0.10101482
  0.11306296  0.06181524  0.07304574 -0.2458817 ]
[ 0.35637346 -0.12640089  0.6447224   0.02211291 -0.4737902  -0.41459075
 -0.19427848 -0.05638846 -0.2686969   0.29683957  0.04617886 -0.1789676
 -0.3991894  -0.25132832 -0.06049107  0.00665128  0.19877495  0.10386514
  0.1318604  -0.03107594 -0.19143248  0.09072998 -0.40463728 -0.18318497
  0.17778227 -0.01413919 -0.15461388 -0.648971   -0.47525427 -0.33864576
 -0.27124804 -0.08152554  0.09240981 -0.22860484 -0.10637842  0.5669616
 -0.39022982  0.41950306  0.21750157  0.17697318]
[ 0.07679022 -0.19265549 -0.06670313  0.22454491 -0.26698104  0.08365186
  0.47932312  0.08779127 -0.16400358  0.15046293  0.09244562  0.10820711
  0.38423678 -0.06993609 -0.11732563 -0.2881904   0.18985784 -0.73815846
  0.15985252 -0.15371382 -0.2895069  -0.18565631 -0.0771395  -0.08613846
 -0.1753269   0.12263715 -0.03999539  0.0790952   0.22043213  0.12812673
  0.22355135 -0.0398385   0.01696594  0.44707087  0.22806779 -0.20553428
 -0.07747988  0.11550657 -0.18408148 -0.23854002]
[-0.34554517  0.04935567 -0.37144402 -0.19734114  0.48670375 -0.4770096
 -0.08735876 -0.6083114   0.87379104  0.05327185  0.39310834  0.51434934
  0.44624972  0.06992678 -0.48072237 -0.18421657 -0.252853   -0.5253141
 -0.12518996  0.5496752  -0.2738159  -0.16391772 -0.34304905 -0.583226
  0.29536352  0.5397497   0.1590687  -0.01197206  0.08761811  0.3001783
 -0.00991129 -0.3285317   0.8616523   0.1494221  -0.29268935 -0.29745778
 -0.38498634  0.28185794 -0.48446867 -0.4467829 ]
[ 0.12642202 -0.08712335 -0.14595167  0.02206223  0.36602837 -0.15080868
 -0.27945852  0.02276838  0.16392544  0.13394149  0.23217389  0.098651
  0.4115119   0.14213577  0.02578912 -0.29851002 -0.01303281  0.16766767
 -0.26335454 -0.10254741  0.13613734 -0.44248497  0.11281018 -0.02500646
 -0.05934916  0.3993422   0.07609131  0.11866628  0.56588066  0.08080041
  0.09871133 -0.3797174   0.18445359 -0.30047104  0.07248867 -0.00171649
 -0.59410644  0.52151835  0.2136266   0.36352244]
[-0.15287043  0.29423362 -0.33342543  0.43375775 -0.05330174  0.44107795
  0.2176649   0.27050856 -0.2673032  -0.36384946 -0.5894599  -0.08659187
 -0.46703872  0.2697854   0.32396293  0.17472242 -0.65118796 -0.03071872
  0.18540236 -0.11705519 -0.14341526 -0.6247204   0.639093    0.74374515
 -0.643238   -0.6813679   0.5372426   0.54577976  0.25581208 -0.01170804
  0.64489186 -0.19363807 -0.5317945   0.5116713  -0.19582607  0.17833151
 -0.23215981  0.17014204  0.28020856  0.04392116]
[ 0.43042982 -0.2983779  -0.15398198  0.09655946 -0.44184694  0.01345473
  0.16578203  0.10238049 -0.11483672  0.00787752  0.42977777 -0.02813415
 -0.28738108 -0.11961983  0.2711248  -0.3931977  -0.0258655  -0.2835858
 -0.19583817 -0.34955728 -0.04011675 -0.25525153  0.03890121  0.60154545
 -0.38338774  0.02826265  0.02780109  0.1841146   0.17420985 -0.4890357
  0.47141942 -0.45258197  0.02449834 -0.0713621  -0.06226845 -0.21256895
 -0.34567726  0.2323072   0.19259669  0.06879704]
[-0.29360193 -0.39189377 -0.25650644  0.391231    0.8459545  -0.3277471
  0.04873746 -0.28649205  0.7985043   0.2568785   0.5520855   0.46544933
  0.23675686  0.09828465  0.11233659 -0.21217185 -0.1999422  -0.65092933
 -0.36757284  0.32010695 -0.5188785  -0.11377283 -0.44631603 -0.39989725
 -0.15644057  0.71816295  0.27540037 -0.2527127   0.2411224  -0.06024477
 -0.10780702 -0.49601588  0.6570944   0.06434313 -0.00802963 -0.55263984
  0.01572963  0.35531333 -0.63289773  0.00313807]
[ 0.29008186 -0.6493505  -0.14022735  0.27309707 -0.15993191 -0.4747895
  0.09763879 -0.41381878  0.12524013 -0.37359324  0.18833083  0.33042568
 -0.45280448  0.08169888 -0.2048291  -0.44795656  0.1807325  -0.62367743
  0.2085112  -0.46894875 -0.12211284 -0.25810307 -0.6413448   0.1944491
  0.11113665  0.09193187  0.29491365  0.20361727  0.470442   -0.6362104
  0.44390014 -0.1492377   0.43294457  0.09663117 -0.04139071  0.11907618
 -0.11303699 -0.45392367 -0.44715676  0.161599  ]
[-0.36682346 -0.1605227   0.03123262  0.27773872 -0.09812886 -0.06030612
  0.23925844 -0.41388997  0.32856393  0.29891777 -0.05318841  0.6382716
  0.05085622 -0.15201639 -0.09519714 -0.27781516  0.1573467  -0.57709914
  0.25749382  0.22763003  0.05205869  0.36422104 -0.26412907 -0.01997511
  0.4034079   0.30959952  0.28754872 -0.16509086  0.22087322 -0.28213805
 -0.15370522 -0.5123526   0.72474325 -0.05645005  0.02825158 -0.2315446
  0.02898529 -0.3109577  -0.44456384 -0.08839041]
[-0.2404162  -0.16655648 -0.32178953 -0.71384996  0.5205681  -0.03504203
  0.11202453  0.17096584  0.16571984 -0.16379987  0.21229392 -0.26166838
  0.6231074   0.02209466 -0.09409959  0.31123462  0.18317504  0.4614588
 -0.21692474  0.5497646   0.20544714 -0.44611627  0.5482187   0.00606521
 -0.21328403 -0.12011622  0.31940547 -0.07427799  0.46459675  0.00606219
  0.21633859 -0.47268018  0.33620575 -0.1469196  -0.24966457 -0.05788768
 -0.2907531   0.02880695 -0.33013102  0.6094134 ]
[-0.12454428 -0.13854012 -0.28199428  0.63326734 -0.3413115   0.21281667
  0.63265055  0.1403507  -0.6995894  -0.5769379   0.1636135   0.24841611
 -0.57399064 -0.09243134  0.49491763  0.01066484 -0.06964248 -0.37898976
 -0.30159703 -0.43435755 -0.19764367 -0.39986786  0.45560578  0.6978174
 -0.41174904  0.11674108 -0.1452024   0.4419742   0.04405357 -0.26742285
  0.63723755  0.078996   -0.2816276   0.4290365  -0.27958676 -0.20333065
 -0.31096888 -0.06665192 -0.19071597 -0.30901405]
[ 0.53976727  0.11667608  0.7753394   0.41677156 -1.054156   -0.06006808
  0.08686782  0.39870745 -0.00988418  0.23232992  0.18800656 -0.458249
 -0.26151067 -0.02514656  0.17933989 -0.3006102   0.32195732  0.30607328
  0.6366065  -0.69568735  0.40808743  0.5422852  -0.18879372  0.10419206
  0.06772017 -0.6638953  -0.49655387 -0.7309329  -0.24381502 -0.16096926
 -0.45592874  0.23245731  0.08554706  0.39340782 -0.05023937  0.3219659
  0.46161595 -0.05453181 -0.03205845 -0.4088606 ]
[ 0.5674851  -0.09605703  0.48511428 -0.15305594 -0.3531343  -0.4197948
 -0.36130756  0.0175046  -0.5665753   0.02245693  0.40173647 -0.66043526
 -0.16851512 -0.22222857  0.2511452  -0.10268288 -0.0412669   0.82260865
  0.08882807  0.11280841  0.11543811 -0.26267523  0.3498519  -0.07670806
 -0.28638634 -0.3443522   0.32472447 -0.12311124 -0.04946572 -0.35801113
  0.32509276 -0.7202159  -0.18237644 -0.6711969  -0.07217395 -0.23581006
 -0.4346621   0.5344991   0.26446036  0.62565887]
[-0.38253444  0.31784564 -0.19055435 -0.4153686   0.261698   -0.2488331
 -0.22292225 -0.17800413 -0.01750044  0.11140209 -0.11370913 -0.4632923
  0.30988434 -0.25324368 -0.30478626 -0.05719229  0.10295238  0.32885113
 -0.315957    0.2510378   0.02308206  0.03466313  0.08077691 -0.46815392
 -0.13795596 -0.29948574 -0.2693964  -0.24829195  0.19536008  0.7801563
 -0.43857342  0.61109674  0.21306808 -0.6663019  -0.23686127 -0.05130941
  0.1109862   0.2762549   0.06753132 -0.16629823]
[-0.16899678  0.11147054 -0.06480446  0.08031645  0.00930887  0.30408558
 -0.08695503 -0.00312384 -0.5785154  -0.08027481 -0.15963984  0.00191839
 -0.16296498 -0.0478966  -0.05116497  0.14105374 -0.17281848  0.0025012
  0.04911339  0.06985474  0.07571364  0.05743361  0.10963386  0.02668464
 -0.03868274 -0.03402508  0.10081244  0.01149707 -0.10038184  0.10496908
  0.07338251  0.08635653 -0.26488236  0.03902316 -0.06877758  0.19376652
  0.2048162  -0.04862683  0.00458992  0.08244293]
layer 3 Activation
tanh
layer 4 Dense
40 20
[-0.52480066 -0.11278136 -0.3588883   0.45041028 -0.05816759  0.2658012
  0.05709446  0.55689245  0.22493535 -0.07540381  0.2734261  -0.424237
  0.42354023 -0.22554597  0.40644094 -0.1031525  -0.14003566 -0.08113971
 -0.0916202   0.01815009]
[-0.14811966  0.10987241 -0.28916004 -0.5055276  -0.41642106 -0.19471149
 -0.22065991  0.0091451   0.25631034  0.04309607 -0.20256156  0.17378658
 -0.4104949  -0.10269582 -0.39113334  0.39649963  0.10014626  0.20868509
 -0.36441043 -0.49169186]
[-0.12577105  0.10389617 -0.42967522  0.22370316 -0.23677269 -0.00403187
 -0.21039791  0.15930884 -0.00538208 -0.24281268  0.01221449 -0.28045908
  0.31965384 -0.1354685   0.3732006   0.08084343 -0.37107107  0.22120537
 -0.43639684 -0.16854472]
[ 0.02397805  0.1653798  -0.00228408  0.56058776  0.14396673 -0.19078903
  0.38279015 -0.13397206 -0.37121245  0.04422531  0.08750582 -0.3745026
  0.1320951   0.44432357  0.4738959   0.23480222 -0.52219677  0.03426665
  0.3933966   0.27973104]
[ 0.5704733   0.4852419   0.40697566 -0.15838861  0.40034825  0.2822794
 -0.02285044 -0.48030022 -0.37094685  0.39864174 -0.22345458  0.16093616
 -0.02423034  0.1293396  -0.5961342  -0.0520584   0.30281    -0.17372257
  0.1969428  -0.43483794]
[ 0.20507506 -0.04055687  0.05339821 -0.5072014  -0.01590587 -0.05945399
 -0.3126555   0.15946878  0.35705808  0.22338931 -0.23002635  0.32221174
 -0.1941326   0.24076451  0.20540334  0.22608493  0.13139082  0.25721556
 -0.04934843  0.24326842]
[ 0.07165796  0.02646596  0.1676075   0.3877581   0.4402062  -0.3233788
  0.09051797  0.07751781 -0.01919118  0.46450022  0.12547523  0.08246855
  0.2584678  -0.03592754  0.16442119  0.14988944 -0.31726703  0.19184922
  0.27931336  0.11028188]
[ 0.07692121 -0.39789957 -0.0463865  -0.5105433  -0.01684644 -0.14371967
 -0.2871409   0.43092668  0.0184122   0.25097853 -0.47618848 -0.11311678
 -0.15809518  0.19881135 -0.25216514  0.07088185 -0.00256123 -0.2589976
 -0.36181563 -0.01491899]
[ 0.19080047  0.26544532  0.2413023   0.5723042   0.12854138  0.4265065
  0.15248057 -0.14097582 -0.23921129 -0.4609383  -0.40937752  0.6719794
  0.11524098  0.03559668 -0.4339224   0.38049     0.10089667  0.25767767
  0.03429979 -0.18872005]
[-2.5744161e-01  2.8535837e-01  6.4525753e-02  6.3861340e-01
  1.4500209e-02  4.9712047e-01 -2.8151169e-02  2.6445461e-02
 -2.6186481e-01 -5.6246531e-01 -2.8853318e-01 -1.7172596e-01
  2.5586043e-02 -2.2993523e-01 -3.3508492e-01 -6.6215470e-02
 -5.8007328e-04  2.1205811e-01 -1.1001258e-01 -3.3901551e-01]
[-0.3818535   0.11088418 -0.13204016  0.3284103   0.24518755  0.32329175
  0.04466575 -0.22039527 -0.17029667 -0.09953727  0.17781672 -0.20603259
  0.20776297 -0.4362312   0.20954795 -0.22274144  0.20728678 -0.75725996
 -0.2498999  -0.01693269]
[ 0.0112626  -0.08133405  0.10011546  0.29581705  0.07030655  0.09726766
  0.4605574  -0.5256133  -0.20974554  0.19017993  0.41164953  0.14045945
  0.10508848  0.4362189  -0.01679482  0.06622574  0.06949002 -0.30326238
  0.16059458 -0.04639229]
[-0.08169325  0.31236026  0.249461    0.07942969 -0.01399994  0.1815562
 -0.14475808  0.03174975 -0.29125783 -0.11906979 -0.00503591  0.3157753
 -0.17484368  0.12966631 -0.38699454 -0.08718189  0.46235916 -0.34060496
 -0.61318916 -0.5449717 ]
[-0.00915172  0.05466849 -0.12054721 -0.1709362  -0.03830039 -0.20617507
 -0.28087354  0.23130804 -0.27324668  0.01220124 -0.03520229  0.46232113
  0.1784142  -0.08111928  0.02549177  0.12035314 -0.01840306 -0.11078255
 -0.09298009  0.0705767 ]
[-3.74406070e-01 -2.89838672e-01  1.11096844e-01  1.59858942e-01
 -1.59364596e-01 -3.06094825e-01 -1.15114167e-01 -8.93278643e-02
  3.38527173e-01  2.01700568e-01  3.86410117e-01 -5.69288479e-03
  1.61057487e-01  3.31072882e-02  2.88981795e-01 -1.40875229e-04
 -1.68976694e-01 -2.17475697e-01 -1.91236138e-01 -2.84461230e-01]
[-0.02594502 -0.31660488 -0.1737487  -0.12942238 -0.01793739 -0.10491252
  0.01270081 -0.12273729  0.32654527  0.30140606  0.05646645  0.10092053
 -0.07392635  0.12006252 -0.07574734  0.26369357  0.30993536  0.33338848
 -0.00343383  0.04957207]
[-0.23811288  0.16570947 -0.143039    0.45165807 -0.43429008  0.00274924
  0.28793207  0.1242218   0.11998761 -0.02212117 -0.05889889 -0.61518645
  0.38683295 -0.13464989  0.20437373 -0.00494698  0.32016957 -0.05665924
 -0.22242352 -0.39292833]
[-0.62613446 -0.2111705  -0.43521807 -0.1309466  -0.33374265  0.08074062
 -0.20211206  0.12622     0.4087299  -0.4544033  -0.15164366  0.00367156
  0.08428853 -0.33191928 -0.27649757  0.07402146  0.10203404 -0.41434008
 -0.39589548 -0.54396087]
[-0.2806985  -0.07442231 -0.25307822  0.10465567 -0.37667936 -0.12263585
 -0.30110416  0.01643161  0.48622704 -0.4502799   0.37599444 -0.2178945
  0.14489223 -0.04945517  0.14429957 -0.13483566 -0.35959548 -0.05279904
 -0.20604177 -0.09807802]
[ 0.39100158  0.24291986  0.37365377 -0.56053674 -0.11610779  0.30536112
 -0.04329028 -0.09285037 -0.19158573  0.02604585  0.00711915  0.26670828
 -0.10899414 -0.04196214 -0.39909133 -0.0921078   0.39543048 -0.01998645
 -0.00590806 -0.4634795 ]
[-0.49344203  0.14325163 -0.03923409  0.01113009 -0.256833   -0.16882826
 -0.32297695  0.08405033 -0.03624428 -0.03156002 -0.0341456  -0.0087166
 -0.03657372 -0.42002934 -0.12358048  0.29678753 -0.31597036  0.27161735
 -0.530795   -0.23918225]
[-0.43084642 -0.09478122 -0.03546737  0.15637398 -0.00800155  0.17674059
 -0.17940243  0.10196099 -0.1265799   0.13439427  0.06134858 -0.24455754
 -0.33733073 -0.27223763 -0.33088127  0.3586387   0.08121627  0.34825787
  0.00327776 -0.04975844]
[-0.5695499   0.29778233 -0.28552344  0.66328025  0.11515151  0.01838743
  0.17919025  0.44494542  0.04023207 -0.17638126  0.11645878 -0.3151304
  0.2839964  -0.15655816  0.44754565 -0.2292701  -0.32647914  0.2493251
 -0.0446857   0.24035051]
[ 0.4259096  -0.33192837  0.4938608  -0.23558578 -0.43057203 -0.03833259
 -0.11852951 -0.29288402  0.02780486  0.43507922  0.29685023 -0.20637207
 -0.46278042  0.45185453  0.35364386  0.06979343 -0.08570285  0.1134036
 -0.35099754 -0.16415757]
[-0.38527387  0.20417932 -0.42063203  0.34595302  0.11195309  0.38981503
  0.08422302  0.49415177 -0.3661086  -0.222312    0.24899507  0.01163445
 -0.14861473 -0.4319438  -0.33211055  0.18114354  0.11151863  0.01490247
 -0.02052008 -0.18371439]
[-0.21811113  0.5712643   0.18811688  0.20784298  0.6022046   0.4329226
  0.40796354 -0.26150072 -0.4204135  -0.01447337  0.39740905  0.3984472
  0.35666305  0.20368217  0.19277306 -0.04167669 -0.01314935  0.2038979
  0.6859825   0.34324148]
[-0.00734045 -0.18211806  0.39664787 -0.5150767  -0.07731614  0.08061314
 -0.20086236 -0.06256377 -0.11379699 -0.17091389 -0.03022057  0.29513776
  0.09661505  0.13434814  0.03451259 -0.36085424  0.33946338 -0.38344997
 -0.24356212  0.03396337]
[ 0.51987994 -0.29144195  0.34663662 -0.03472812  0.36375064 -0.03978072
  0.11972147 -0.2599372   0.26155677 -0.07281726 -0.08355108 -0.2785356
 -0.1143222   0.32612726  0.04118992  0.3678205   0.10934789 -0.31577614
  0.43380737  0.4605391 ]
[ 0.20924982 -0.23979424 -0.05433124 -0.11567376  0.06438319  0.17388539
  0.26860282 -0.63276166  0.07730372 -0.1431597   0.09935778  0.29204744
 -0.0238028   0.37167647 -0.23775955 -0.16730846  0.49630988  0.08991079
 -0.07696978  0.13922296]
[ 0.3835108   0.41162214  0.35551572 -0.5727517  -0.10869321 -0.09728732
 -0.04782436 -0.05384235  0.13256307  0.34116367 -0.3098498   0.26839364
 -0.15877105 -0.07774106 -0.73087806 -0.19430508  0.50590044  0.34678462
 -0.13504632 -0.17395681]
[ 0.400931   -0.60002595  0.33008552 -0.18984008 -0.06179789 -0.5200883
  0.10525762 -0.4459329   0.0871169   0.3041057   0.00795339 -0.16103451
 -0.0773914   0.43492225  0.21874575 -0.20786697  0.0033969  -0.18457404
  0.41485     0.36864054]
[ 0.29011244  0.4297307  -0.10766623  0.28186625  0.08564035 -0.24464555
 -0.01288858  0.18229538  0.04666078  0.00649355  0.09771259 -0.21799108
 -0.4752498   0.0933226   0.01328288  0.40116593  0.03317242  0.91918796
  0.11299014  0.22416048]
[-0.41429535  0.18394233  0.10479391  0.37488362  0.08231319  0.23902693
  0.12823443 -0.20573303 -0.45053065 -0.0488659  -0.29136145  0.3250154
  0.24145259  0.12107577 -0.27648073  0.11426803  0.46781752 -0.13678326
  0.03980111  0.15528928]
[ 0.2413623  -0.27215394  0.0434942   0.42693144  0.4160964  -0.15576862
  0.01919425  0.46302533 -0.10808573  0.2748116   0.34265852 -0.27610487
 -0.10385761  0.24489464  0.4738024   0.37113833 -0.14401163  0.10822469
  0.5239705   0.55424905]
[-0.32429624  0.14578943 -0.2938782   0.26690692 -0.3309191  -0.2248677
  0.14212532  0.04085361  0.14065771  0.11152244  0.0919815  -0.06565946
  0.19399662 -0.28025562  0.2584281   0.17312542  0.03419109 -0.47259894
 -0.33904764  0.04702086]
[-0.5080781   0.05426048 -0.23366217 -0.06582576 -0.18992302  0.18593909
  0.01429009 -0.31723693  0.33006722 -0.28066894  0.06151299 -0.19881624
 -0.26261672 -0.08933429  0.5475479   0.2987186  -0.27280357  0.268371
 -0.34601325  0.14335753]
[-0.19330673  0.01233259 -0.03847142 -0.04727053  0.15074919  0.26278725
 -0.15685433  0.3313195  -0.01296327 -0.23418038 -0.06807861 -0.35307378
 -0.31090373 -0.19443421 -0.11090203 -0.07409421  0.04304306  0.29532722
 -0.0328928   0.3076033 ]
[-0.00156035  0.20316318  0.21395084 -0.0361304  -0.465933   -0.10905024
  0.20926932 -0.27618697  0.2422556   0.330902    0.05542511  0.35144433
  0.31156576  0.18753311 -0.16103752  0.06270223  0.15004407 -0.44933915
 -0.14960384  0.14049286]
[-0.30248567 -0.1761581  -0.35046253 -0.0035039  -0.5410503  -0.47405148
 -0.19539632  0.18899857 -0.06420948  0.06814669 -0.16214786 -0.40683183
 -0.29334944  0.2504806   0.12271054 -0.26808777  0.04810118  0.03531364
 -0.2906552  -0.70715153]
[-0.1479461  -0.20193851 -0.21920548 -0.09407362 -0.17373021  0.26316705
  0.22846478 -0.39797118  0.14608267 -0.39187863 -0.28980562  0.09144652
  0.2816162  -0.07696579 -0.40470704 -0.26437008  0.10414199 -0.31108642
 -0.48387533 -0.4953796 ]
[ 0.10318284 -0.09475355  0.01586845  0.22685082 -0.101174   -0.1228926
  0.03810821  0.03490458  0.08617262  0.11984292 -0.12314891  0.03722494
 -0.11530244  0.03318958  0.07517912 -0.05401265 -0.02962497  0.12726282
 -0.01071334 -0.03415835]
layer 5 Activation
tanh
layer 6 Dense
20 1
[-0.7519881]
[1.2674439]
[-1.0402641]
[-0.45275325]
[0.95494145]
[0.9633398]
[1.2122289]
[0.8514615]
[-1.2943671]
[-0.9131137]
[0.995445]
[-1.2086765]
[1.261901]
[-0.9099467]
[0.88993615]
[0.61456436]
[-0.9857847]
[0.5636289]
[0.8410417]
[0.85997957]
[0.0903839]
