layers 7
layer 0 Dense
20 20
[ 0.13576181  0.14590788 -0.069745   -0.04430768 -0.732178   -0.19547485
 -0.14621425  0.36251032 -0.20435813 -0.04184714 -0.35563087  0.2512713
 -0.12008062 -0.27449137  0.26746032  0.4903472   0.42551452  0.02600973
  0.23050389 -0.18141186]
[ 0.3667888   0.10368133 -0.04712981  0.13661003 -0.09524468 -0.28097445
 -0.19960164  0.325341    0.15784097  0.08510584  0.3746935  -0.27110767
  0.0121786  -0.26618975  0.13051856  0.10669535  0.08775973 -0.06775466
 -0.06023604 -0.3037235 ]
[ 0.05177546 -0.01739788  0.2842598  -0.12845719 -0.1644436  -0.34667015
  0.27816504 -0.33533618 -0.17954788 -0.0794411  -0.0206342  -0.36756337
 -0.17980227 -0.11783755  0.25647402 -0.19069146 -0.014552    0.35566157
 -0.07795295 -0.13959625]
[-0.07073008  0.47439575 -0.11737922 -0.17846923 -0.74864346 -0.25753677
  0.22077797  0.54082566 -0.24707475  0.02712003 -0.12584516 -0.36278307
  0.0785777  -0.09563182 -0.06310375 -0.2314143   0.21295424 -0.06281546
  0.3413892   0.07460526]
[-0.1171601   0.13843043  0.31408888 -0.44252098  0.09218432 -0.54911524
  0.03584907  0.39233968 -0.5084641  -0.21230347 -0.46191272 -0.47233468
  0.40413046 -0.46637303  0.42804143 -0.10303157  0.39888793  0.23076649
  0.1346224  -0.07346826]
[ 0.21454412  0.1750133  -0.2933842   0.25500852 -0.2747351   0.22084343
 -0.09019077  0.22140038 -0.3768693   0.26916772 -0.22387324  0.05739745
 -0.13733764  0.19020456 -0.23184784  0.25280946  0.3464142  -0.34549338
  0.11225945 -0.32004204]
[-0.1635541   0.03418007 -0.09751666 -0.27543208 -0.26776886 -0.23404975
  0.14036202  0.35594672 -0.09388775 -0.299775    0.32143837  0.12990302
 -0.0138965   0.1608569  -0.3786554  -0.07261142  0.11720473 -0.20547754
  0.09306997 -0.35742497]
[-0.13471681 -0.5362811   0.41869605  0.44460082  0.18772088  0.8045826
 -0.32796955 -0.3049345   0.2926816   0.42984694  0.5623427  -0.04381678
  0.05136736  0.3348581  -0.09444088 -0.45168325 -0.09127671 -0.30951023
 -0.33801687  0.27504095]
[ 0.00770043  0.08381529  0.2705261   0.64197433  0.96352285  0.18906409
 -0.4642417   0.17362538  0.344725   -0.17782865 -0.19470194  0.02559692
 -0.10426471 -0.36624974  0.10137022 -0.00849793  0.12904686  0.09842032
 -0.7127849  -0.11466943]
[-0.03138902  0.56745714 -0.04260663 -0.10620072 -0.12831579  0.3149409
 -0.49613243 -0.484403   -0.1499987  -0.53512245 -0.28071073  0.6001635
 -0.58827287  0.1384389   0.20737958  0.14031571 -0.03507435 -0.3982072
  0.06015923 -0.04303502]
[-0.4895838   0.20158286  0.26705092 -0.17297809  0.06563809 -0.3168013
 -0.03552838  0.24479799  0.3310626  -0.33633482  0.03677521  0.05422468
  0.29112712  0.17955998 -0.4806302  -0.52747554  0.29143837 -0.16046393
  0.18325908 -0.2767525 ]
[ 0.06570296 -0.32347113  0.01502908 -0.4089329   0.96309674 -1.987336
  0.16422865 -0.09290174  0.01603942  0.57944036  0.9408428   0.00277728
 -0.3658848   0.2965672  -0.8213056  -0.5318333  -1.0898038   0.17098272
  0.06618596  0.22276223]
[ 0.12602372 -0.20090908  0.16535562  0.42398968 -0.02106594  0.03527179
  0.29352567 -0.22692297 -0.10988932 -0.11144494 -0.4995104   0.37292674
  0.41838184 -0.2623298   0.21801564  0.3569054  -0.60418     0.710295
 -0.1579232   0.2960601 ]
[-0.6629811   0.7669729  -1.1554959  -0.46100304 -0.10293589  0.13976163
 -0.35673     0.5067027   0.0375597  -0.28385186 -0.25134125 -0.98077726
 -0.1999021   0.56050724  0.38153395  0.41072866  0.19798629  0.7153672
  0.22112767  0.08834929]
[ 1.0386958   0.7369269  -0.12630907 -0.57107186  0.04136768 -0.03418874
  0.5026482   0.09668795  0.487899    0.12537876  0.07647329  0.9273183
  0.18531126  0.54872406 -0.22108933 -0.54571223  0.2648085   0.57151574
  0.28219655 -0.547715  ]
[-0.64986634 -0.22273459  0.34563744 -0.20016    -1.6051775   1.3761914
 -0.56701267 -0.4157842   0.7698927   0.20348674  1.112828   -0.703041
 -0.04744934  0.42565992 -0.4645342  -0.4768367  -0.3990419  -0.7223749
  0.1291186  -0.50515705]
[ 0.1369256   0.06666259 -0.1875483  -1.0810671  -0.31313553  0.01944239
 -0.15513381  0.14550811 -0.73817843  0.30005187  0.4958045   0.03136312
 -0.21342497 -0.32458308 -0.08102635 -0.5475571  -0.19416489 -0.34503192
  0.64362496  0.24662507]
[ 0.20063736 -1.335632    1.2531062   1.0297178  -0.20681305  0.6585072
  1.228976    0.2208806   0.9889818   0.5823161  -0.26004064  0.3469111
  0.60898876 -1.5442837   0.06853446  0.32973146  1.0087295  -0.9958788
 -0.65582407 -1.0579215 ]
[-3.7380868e-01 -9.9931359e-01  3.2047678e-02  1.0800292e+00
 -2.6403321e-04 -8.2295650e-01 -7.9500563e-02 -3.8084057e-01
 -7.8766835e-01  6.6117072e-01  8.1566870e-02 -7.3676795e-01
 -7.8730083e-01 -7.2603554e-01  9.8431605e-01  1.5195392e+00
  4.0280879e-01 -8.2270861e-01 -1.9133125e-01  9.7418839e-01]
[ 0.7521288  -0.17147969  0.02421632  1.3695847  -0.44696602  1.9816048
 -0.20279978  0.25142407  1.0061028  -0.64078486 -0.40377012  0.5198436
  0.52209514  0.09793553  0.28894272  0.61868155  0.92782     0.4308176
  0.570832    0.50711703]
[-0.13155474  0.12005654 -0.08551058 -0.02503684 -0.459831   -0.20742428
  0.01871571  0.17223081 -0.22066565 -0.11826597 -0.22689533 -0.0842972
  0.03652263 -0.08771463  0.02132999 -0.00551487  0.20781288 -0.16939749
  0.07126682  0.03261283]
layer 1 Activation
tanh
layer 2 Dense
20 40
[ 0.29524252  0.03577274  0.19579293  0.1609846  -0.06524114 -0.233471
 -0.21738577  0.5096582   0.63464797 -0.5173415  -0.4502009  -0.53345335
 -0.6941036   0.00378886  0.10788577 -0.42299965 -0.4722979   0.463839
  0.54602367  0.8349572   0.2696856   0.52754    -0.07056905  0.21463922
  0.02369302 -0.02110156  0.28681436 -0.24115552  0.63024783 -0.20508316
  0.22057918  0.28059417 -0.19558032  0.47032893 -0.01694044 -0.18346423
  0.4167558  -0.0628747  -0.03314377 -0.4865597 ]
[ 0.12192842  0.03239932  0.3530455   0.6479935   0.07110949  0.9498732
 -0.6491771   0.4184805  -0.09605885 -0.2967491  -0.20702408 -0.1602132
  0.0768849  -0.3703473   0.1282807   0.1524073   0.0365234   0.08691215
  0.66591793 -0.15855508 -0.41206768  0.35996434 -0.4098879   0.43873256
 -0.24056475 -0.53533465  0.09800086  0.5842932   0.17897354 -0.03876844
 -0.32704762 -0.11179511  0.16318119 -0.01016041 -0.37458333  0.04474811
  0.00295479 -1.3856206   1.0027325  -0.31768104]
[ 0.41210172 -0.07384168  0.47290063  0.07156749 -0.08578839 -0.6777581
  0.22623084  0.07821912  0.40612242  0.4927184  -0.01701974 -0.25281292
  0.05676363  0.9309735  -0.39043126 -0.19252215 -0.26227778 -0.13629721
 -0.01554336  0.0331813   0.38182238 -0.24611256  0.26572698 -0.43633136
  0.44741052 -0.20789103  0.16279148 -0.21505935  0.00521379 -0.60003674
  0.22383313  0.5988328   0.93042207 -0.08761124 -0.10307844 -0.19814838
 -0.22680984  0.32811996 -0.35309482  0.57137656]
[ 0.7894581   0.329468    0.0166122  -1.045109    0.6887654  -0.15220271
  0.90263724 -0.7402693  -0.4201409   0.3501819  -0.39338395  0.20739889
 -0.7532305   0.29746553  0.46538165  0.27370542 -0.6164738   1.446937
  0.06170329 -1.3225856  -0.5436523   0.6125097  -0.1442402   0.31301892
  0.03684393 -0.10884417 -0.313599    0.08489374 -0.1782053   0.75269663
  0.23442516  0.62854844  0.13497172  0.188966    0.17092061  0.03358049
 -0.09986326  0.25251567 -0.5514152   0.7134912 ]
[-0.43775803  0.40261567  0.2997262  -0.10187661 -0.07028746  0.30050763
  0.14015947  0.11479848 -0.48070082 -0.5542978   0.0925025  -0.55496967
  0.4666334  -0.03890152 -0.37443596 -0.17408215 -0.13254516  0.67277837
  0.41466105 -0.76500034  1.1342067  -0.77877873  1.0381548  -0.48643926
 -0.45521134  0.39385137 -0.55096763  0.7058086   0.674178    1.0477577
 -0.15404591 -0.86022556  0.56315327 -0.41538116  0.61570436  0.15235133
  0.2734689  -0.344036    0.5274424  -0.34415632]
[-0.26649228  0.30831233  0.04622557 -0.11095485 -0.05528161  0.22974223
  0.24255383  0.01403795 -0.05912023 -0.34890494 -0.4569989  -0.06279299
  0.10616397  0.08831056  0.69580793  0.02899079 -0.51725185  0.18895058
 -0.09664279 -0.5391728  -0.717652   -0.08058075  0.32942095  0.13255507
 -0.376723   -0.06276636 -0.4363042  -0.5148299  -0.72456646  0.63952243
  0.12660064  0.14705378  0.20562069 -0.3887702   0.27976885  0.14700331
  1.1644963  -0.26043424  0.36788425 -0.11705312]
[ 0.29112962  0.24110314  0.40189314 -0.26897654 -0.07090433 -0.3289714
 -0.29275975 -0.27300733 -0.07468361 -0.89282316 -0.25852555  0.02652772
  0.24196291  0.19314168 -0.76460445  0.28139573 -0.02553697 -0.02362981
  0.7825081   0.5930211   0.56578517  0.36575076  0.14976901 -0.2671788
 -0.11882363 -0.33853605  0.43604618  0.23530716  0.33019105 -0.284818
  0.2840054  -0.5186757  -0.8254599  -0.1898244   0.37374124  0.29488823
  0.25189778  0.43933034  0.3059249   0.36953604]
[ 0.7241816   0.10885292 -0.10624216 -0.07909358 -0.01559499  0.01947925
 -0.33140075 -0.17824824 -0.10961778  0.34676424  0.3481597   0.22273093
 -0.05802117  0.06557261 -0.21258394  0.08156754 -0.012437   -0.14891861
 -0.26493543 -0.3451947   0.22341049 -0.16057406 -0.45429164 -0.2218381
 -0.09062435 -0.60944813 -0.05251241  0.12216759  0.5311716   0.02533392
 -0.13444741  0.08970311 -0.02364156 -0.65177333 -0.25146225 -0.43814585
 -0.7273676  -0.2359411  -0.33597368 -0.16067743]
[-0.0504874   0.3770211   0.15527163  0.24584708 -0.48385915 -0.9115904
 -0.63430023 -0.9705263   0.04810841 -0.54429215  0.28302473  0.35124913
 -0.7371815   0.3438895  -0.4188609  -0.3982497  -1.119393    0.8397262
  0.15832025 -0.07762324 -0.2918532   0.4247434  -0.12393985 -0.02249198
 -0.45824483  0.13993858 -0.32772112  0.7651824  -0.90034884  0.1562954
 -0.383654    0.9731764  -0.03829781 -0.09377645 -0.17065993 -0.6627259
  0.9758048   0.04162052  0.39962688 -0.26696953]
[ 0.6747208   0.31600636 -0.15964991 -0.23880276  0.5055345  -0.4321146
  0.45169267 -0.38650137 -0.11712306 -0.63819367 -0.6224772  -0.88482314
  0.1427409  -0.59715116 -0.7541089  -0.01451835  0.2545716  -0.32865685
  0.1472015   0.09391786  0.12576577  0.21207021  0.6045553  -0.14385153
 -0.53921723 -0.20523803 -0.12637857 -0.6407089   0.15191703  0.1433473
 -0.27406713 -0.24885239 -0.60173965 -0.29735655 -0.37554488  0.4323472
  0.64489394  0.24771933 -0.16121973  0.11773105]
[ 0.3735302  -0.7425872  -0.66024125 -0.34818453  0.15190908 -0.29607534
  0.540115   -0.07943498 -0.15478644 -0.91047615 -0.68430084 -0.46756977
  0.2613505   0.4664431  -0.59472317  0.15139017  0.30437696 -0.54922277
  0.4509192   0.16452229 -0.39983523 -0.7831085   0.68666565  0.3285188
 -1.3299999   0.39265904  0.5313428   0.21117327 -0.31787226  0.6701941
 -0.38201785 -0.03649406 -0.5877142   0.09813134  1.0064656   0.7139142
  0.09347978  0.27003887 -0.38099405 -0.23865439]
[-0.11415823  0.2958801   0.24392316  0.11866963 -0.3876478  -0.7702361
  0.15498407  0.49023032  0.17578639 -0.66259867 -0.43826967 -0.34618738
 -0.19999309 -0.19477625 -0.47955456 -0.42916363 -0.5822016   0.4876244
  0.22482239  0.6267131   0.34650958 -0.3179223  -0.02402404  0.6362213
  0.23127401  0.12747414  0.15006955  0.20151688  0.6011806  -0.6555029
  0.40395504  0.39849475 -0.05020913  0.6832206   0.03043261  0.60628116
  0.161077    0.5132474   0.13342552  0.9655338 ]
[ 0.15351105  0.3190333   0.05891531  0.46875352 -0.43365213 -0.43793276
  0.0518988   0.5227152   0.35283288  0.04605493  0.36668098  0.08052668
 -0.51031715  0.6153805  -0.5455715  -0.39400747 -0.17969193  0.08071524
  0.34597102  0.31626803 -0.03460456  0.18602559 -0.42811498 -0.4525495
  0.22811592  0.03781394 -0.27995363 -0.02974097 -0.6728719  -0.7965195
  0.1379963   1.0143399  -0.02190687  0.09529385 -0.28198874 -0.61779547
  0.13110384  0.69205177  0.44781113  0.4752216 ]
[-0.5741688   0.4290822  -0.07475807 -0.0743848  -0.4973859   0.44954845
 -0.31517154 -0.61272305 -0.46604198 -0.40943483 -0.19132724 -0.24509981
  0.41179988 -0.31570354  0.29784343 -0.45773923 -0.44601777  0.20819917
  0.07012919 -0.49176985  0.14989907 -0.01765587  0.2323804   0.76204693
  0.05760666  0.04956468 -0.58975506  0.6341567  -0.2128533   0.23680933
  0.3926718   0.10961527  0.24088098  0.12171334  0.835555    0.2607879
  0.6098273  -1.007759    0.4909094  -0.8161237 ]
[-0.21734385 -0.602454   -0.5519532   0.4623733   0.43370715  0.17108734
  0.09463669 -0.61295867 -0.36785007  0.0203785   0.12666458  0.25471294
  0.19362028 -0.30383933  0.44112378  0.50306934  0.11904533 -0.41171417
  0.09271944  0.3785587  -0.6315473   0.6649515  -0.51300323  0.7158379
  0.5171991  -0.26620612 -0.4351402  -0.1644152  -0.1003849  -0.25261012
 -0.0416558  -0.0297582  -0.5434487   0.27976298 -0.05375077 -0.5408762
  0.2897698   0.8038465  -0.45160615 -0.08291858]
[ 0.07228129 -0.5551999  -0.8984187   0.4129588   0.81822574  0.26084116
  0.3778566  -0.5203144  -0.60290796  0.6684521   0.06754334  0.49547732
 -0.3650516   0.26296702  0.67333543  0.75764304 -0.12777948  0.62643266
  0.05216929  0.14509833 -0.6697437   0.3111803  -0.7958736   0.8702871
  0.36026558  0.2012921  -0.17352143 -0.02557052 -0.54189646 -0.03313199
 -0.17308335 -0.30767074 -0.24604769  0.18641134 -0.00667245  0.13203746
  0.11184743  0.5129456  -0.4682656  -0.15057349]
[ 0.01196712  0.3597502  -0.52831227 -0.25607824  0.18251762 -0.2396879
 -0.09889555  0.28627783  0.09899019  0.30840054 -0.57697046  0.9233882
  0.3155446   0.27706122 -0.2110926  -0.07224543 -0.16893448  0.6173187
  0.02298937 -0.19217741  0.24487022  0.5790452  -0.54795647  0.42705184
 -0.05593427 -0.36120188 -0.2907563  -0.38790685 -0.28496453  0.24143493
  0.25139806  0.43935785 -0.24708603  0.7641152   0.01850124 -0.7959358
  0.85236377  0.42039868  0.19882606 -0.16280289]
[-0.07355502  0.05730088 -0.82581854  0.7983522  -0.48485017 -0.22353385
 -0.04689806 -0.35254952  0.63039446  0.00162116  0.45463037 -0.0760117
 -1.3086383  -0.38596383 -0.60213786 -0.25121745 -0.06196309 -0.08673006
 -0.33026177  0.5418497   0.7662923   0.01061682  0.22889294 -0.23953637
  0.45261487  0.57868934  0.6189519   0.11458108  0.05551224 -1.1247067
 -0.09169077  0.27059123 -0.2658261   0.29664445  0.6972237  -0.08291873
 -0.4313994  -0.42618906  0.3777508  -0.23601755]
[-0.17491074 -0.12556516  0.07325462 -0.11989361 -0.5257544   0.5815037
 -0.2872524   0.39729863  0.14283836 -0.1331644   0.52188265  0.01981199
  0.1016453  -0.3727128  -0.10507037 -0.22342286  0.770044   -0.8205393
  0.23404917  0.4172815  -0.7048637   0.19017893 -0.45531362  0.34611493
 -0.16230437  0.17871986  0.6430305  -0.43077657 -0.34776378 -0.25345373
  0.17806312  0.24138382  0.08135763 -0.11434304 -0.70532554  0.07401093
 -0.04166197 -0.11486445  0.728778   -0.37310988]
[-0.81769246 -0.92103654 -1.0113745  -0.3439434   0.32974824  0.16679707
  0.34972116 -0.12735617 -0.26987687  0.25143898  0.6993356  -0.43653288
  0.05117092 -0.03842282  0.65895104  0.16847028  0.28232434  0.07939862
  0.06390712 -0.62928534 -0.17360389 -0.00942845  0.10710779  0.37861368
 -0.01451436  0.46803722 -0.12116313  0.4162699  -1.0853212   0.9573532
 -0.24367794 -0.7046338   0.02243476  0.5694922   0.74690425 -0.02638107
 -0.12492577 -0.21397626 -0.36219928 -0.17784211]
[-0.10173085  0.02054991  0.03376472  0.07780062  0.20340978  0.15723012
 -0.4555227  -0.00931249 -0.02223899 -0.02900443 -0.272254    0.48826447
 -0.16759086 -0.07494532  0.09373842  0.09115465  0.14333144  0.15310742
  0.13707004 -0.24174789  0.20979479  0.21937013 -0.48101938  0.07211782
  0.26170284 -0.23392794  0.17333275  0.15546215  0.36073336 -0.4230354
 -0.07320961 -0.09567396 -0.43569794  0.5110313  -0.46269566 -0.02666792
 -0.17903838 -0.22010648  0.24621814  0.02911047]
layer 3 Activation
tanh
layer 4 Dense
40 20
[ 0.03739173 -0.15731096 -0.41223842  0.24375065 -0.06243613  0.27374613
 -0.39874017 -0.36119378  0.11391731 -0.5123042  -0.08186509  0.46028897
  0.43177122 -0.06451538 -0.04315928 -0.17011432 -0.1817151   0.16920112
 -0.22373807 -0.7983066 ]
[-0.4328352   0.5940895  -0.428045   -0.3112262  -0.3325828  -0.3259307
 -0.07749196 -0.31661925  0.00484443 -0.24788104  0.18815199  0.29925364
  0.48059326 -0.48186973 -0.22399722  0.20065203  0.03155408  0.24826223
  0.70504147 -0.07503594]
[-0.37619284  0.12715283 -0.12815401 -0.12594323 -0.25763628 -0.3189225
 -0.23125064 -0.13562527 -0.5027561   0.19433025  0.25829884  0.27311766
 -0.35902813  0.31985196 -0.15608501 -0.3106439   0.01743906  0.05966529
  0.25916883  0.14864983]
[ 0.27793232 -0.3956112  -0.3942413   0.0102016   0.05523322 -0.05894202
  0.22808726  0.468623   -0.42468372 -0.3685043   0.6727124  -0.12808625
 -0.75776416  0.12405721 -0.17046392  0.3238588   0.1455133  -0.07176399
  0.15700316  0.34969994]
[-0.03314028 -0.6073603   0.2608132  -0.22880362  0.17682247  0.19185002
  0.01616146  0.13036424  0.00146403  0.09601358  0.27649158  0.07068964
 -0.01940344 -0.74131876 -0.13581376 -0.23432356 -0.01786758 -0.0253155
  0.12464558 -0.5128671 ]
[-6.83518350e-01 -2.50365824e-01  2.83054054e-01  1.36447221e-01
  3.32775772e-01 -2.07748652e-01 -8.77571572e-03 -1.18694365e-01
  2.07974650e-02 -3.08858603e-01 -3.73152196e-01 -2.48875827e-01
  5.52160084e-01 -3.42655331e-01  2.51781553e-01  1.51064363e-04
 -4.18359429e-01 -4.82798457e-01  2.33083770e-01  2.53650874e-01]
[ 0.37700397  0.08390328  0.04245748  0.33744815 -0.36944145  0.07617218
  0.47972402  0.37438577  0.16791208  0.14949726  0.00733397 -0.27638394
 -0.23376527  0.32497472  0.24707697  0.0077361   0.11104247  0.2938337
 -0.31992742 -0.24859576]
[-0.23310791 -0.12934937 -0.12592502 -0.4757886   0.08951461 -0.0340923
 -0.17748635 -0.05767088  0.30815956  0.34502432  0.24525146  0.3799205
  0.28737664 -0.20815288 -0.06857726  0.4043595  -0.13084048  0.39696294
 -0.03893409  0.01332239]
[ 0.24817851 -0.4618153  -0.09520224 -0.3588886  -0.26959166 -0.35935268
  0.31943125  0.18838133 -0.10577451  0.17634991  0.85461605 -0.33579993
 -0.20560178  0.55033886 -0.40426165  0.29921946  0.05870993 -0.03776336
  0.157875    0.20850529]
[ 0.49477395 -0.1583183   0.17970249 -0.28595805  0.12658569  0.09020603
  0.17875941  0.09278417  0.15653308  0.78243554 -0.37766623 -0.22061516
 -0.09012254 -0.21273589  0.25911757  0.41465876 -0.30759287 -0.20668605
 -0.11834558 -0.35844022]
[ 0.37714958  0.68766075  0.32676873 -0.22175859  0.05908437 -0.34486932
  0.29890397  0.2123245   0.04310605  0.3799065   0.16997378 -0.02690213
 -0.38094106  0.49555936  0.7128566  -0.07272381  0.39819035 -0.07879752
 -0.3198565   0.4722893 ]
[ 0.04855277  0.3383903   0.24221303 -0.13859625  0.09184682  0.3339466
 -0.00616299 -0.019199   -0.39007974 -0.3052416   0.18115498 -0.15057531
 -0.67118293  0.54664224  0.13486353  0.45005476 -0.25838664  0.00477176
  0.37795225  0.6595271 ]
[ 0.5652847  -0.25120687  0.05492672 -0.17349288  0.32493702  0.08701624
 -0.36632964  0.07179939  0.561127    0.26443735  0.19076788 -0.27892807
  0.7652228  -0.08142155  0.2748432  -0.29892328 -0.06785273  0.28705958
 -0.20107116  0.31731975]
[-0.01890666  0.2737365  -0.45730984  0.06547622  0.04533886  0.12605467
 -0.25214452 -0.46280628 -0.21878782  0.05090222  0.0266622  -0.07563505
 -0.19071619 -0.16021402 -0.30765265 -0.40407458 -0.0224502  -0.15770656
 -0.55028343  0.34942713]
[-0.19426847 -0.1166231   0.10007416  0.25195065  0.58720285 -0.04623305
  0.34875396  0.58139515  0.14707397 -0.06461795 -0.47987416 -0.4596293
  0.6046253  -0.50381935 -0.01752607  0.5626248   0.20316207 -0.08285033
  0.207117    0.5937559 ]
[ 0.35028735 -0.3937265   0.74063796  0.21014939  0.52573216  0.53190947
  0.20534895 -0.42586985  0.19363059  0.30519143 -0.18761146 -0.15728422
  0.29259446 -0.19771524  0.44411144  0.19087997 -0.18458177  0.02565332
 -0.11327942 -0.503858  ]
[ 0.5078479  -0.4139903  -0.34846103 -0.31882167  0.2952928  -0.10839066
  0.1871883   0.33369154  0.00488924  0.26838654  0.10230433 -0.23403808
 -0.2755916   0.02074516 -0.21892524 -0.06745926 -0.3174243  -0.6343422
  0.01110851  0.09277486]
[-0.37404296  0.11517113  0.262164    0.44363675  0.08544799  0.6096514
 -0.3688948  -0.5669409   0.18318522  0.5772056  -0.20690614  0.55010456
 -0.02628175 -0.05127406  0.7157696  -0.09216967  0.08421047  0.3426119
  0.03584495  0.4023641 ]
[ 0.08359904  0.255389   -0.16624802  0.02544207  0.10285404 -0.17378616
 -0.39656442 -0.10788392 -0.2663127  -0.40884912 -0.33387864  0.02412413
 -0.06215998  0.8651836  -0.0827817  -0.00854532 -0.05063321  0.47839865
 -0.6333567  -0.25493544]
[-0.11500192 -0.43643826 -0.3316299   0.87741256 -0.22305135 -0.37146503
 -0.49024707 -0.03649849 -0.9967613  -0.6511992   0.59558773  0.09735224
  0.1643133   0.7255988  -0.27851558 -0.1638851  -0.44294113  0.17149833
 -0.33001763 -0.05618731]
[-0.489693    0.6825744  -0.2300749   0.24207844 -0.1834645   0.35280496
 -0.27508911 -0.12617233 -0.04444018 -0.10129779  0.02000265  0.41054234
 -0.46042508 -0.19606058 -0.07069293 -0.3130837   0.12085357  0.00543578
  0.55531377  0.14965466]
[ 0.3599763  -0.22705498  0.07214548  0.5589432   0.03895183 -0.38939455
 -0.09215766  0.18987189 -0.55075693  0.11332311  0.01045208 -0.21785781
 -0.5016728   0.04365061 -0.01017122  0.07245233 -0.21516539 -0.34864816
  0.69502366  0.5302526 ]
[-0.43693113 -0.48493132  0.48166883 -0.34943056 -0.02414759  0.01399787
  0.00456244 -0.7276605   0.40216154  0.19478579 -0.0392559   0.430849
  0.76518327 -0.46139842  0.3932698  -0.91825545  0.11741018 -0.16520989
 -0.3780311  -0.44642255]
[ 0.28719148  0.03657316  0.36495224  0.33180535  0.19472733 -0.16097331
  0.30554858 -0.03899362  0.30186832  0.4609836  -0.22011423 -0.16134529
 -0.46435124 -0.25533548  0.28775203  0.40887558  0.271668   -0.11459354
  0.31952816  0.07278613]
[ 0.34631228 -0.4050359   0.06270602 -0.44304484 -0.19349222 -0.23036915
  0.39664003  0.13121979 -0.43031624 -0.458259   -0.16511574 -0.01309215
 -0.2709944   0.36660987 -0.1997987   0.91796243 -1.2199372  -0.22639899
  1.3015403   0.00306318]
[ 1.0864736e-01 -3.4948552e-01 -2.8832313e-01 -2.4962053e-01
 -3.2244366e-01 -4.2750472e-01  2.5677839e-01  6.5893376e-01
 -5.0521344e-02  8.7653957e-02  3.6639330e-01 -4.7370985e-01
  1.5850757e-01 -2.1832630e-04  3.2656604e-01 -2.9835537e-02
  1.9091490e-01  3.1668094e-01 -7.7259645e-02  5.3573076e-02]
[ 0.40236598 -0.6353238  -0.21811818 -0.19341044  0.01501165 -0.1045545
  0.27030033 -0.10377123 -0.25164264 -0.4774373   0.54528576 -0.28757754
 -0.9974135   0.6025021  -0.58231014  0.38441768 -0.46057758 -0.46396843
  0.31322232  0.15770906]
[-0.38887328  0.27256906 -0.12759441 -0.7235094   0.35707968 -0.16230652
 -0.4872053   0.37338364 -0.05028782  0.591193    0.43735662  0.1443672
 -0.4102073   0.08981952 -0.3000822   0.08853612  0.22861303  0.22088872
  0.14502074  0.75548023]
[ 0.41044983 -0.4409463  -0.03422687  0.22978398  0.07275672  0.21538961
 -0.40064102 -0.00115026 -0.12934485 -0.48533803  0.11892239 -0.34278893
 -0.22063835  0.67849153 -0.3494905  -0.34583738 -0.15744416  0.2523418
 -0.31096816 -0.34787372]
[-0.2455375   0.05559963  0.27019766  0.5645381  -0.41780585  0.1683363
 -0.1428672   0.31815004  0.25990066  0.13034518  0.3098653   0.25823307
  0.3865439  -0.44513437  0.3298663  -0.5653864   0.63387084  0.67302275
 -0.16701496 -0.11069443]
[ 0.06311383  0.5177627  -0.11426923  0.18730453 -0.12477637  0.16904287
 -0.24492547  0.2845589  -0.41782206 -0.24974053  0.25664335  0.11017016
  0.15542553  0.06355679 -0.10654595  0.26339936  0.04821657  0.26093942
  0.3484787   0.3478952 ]
[-0.5266486   0.1895361  -0.5604823   0.15429693 -0.5150843   0.15029883
 -0.7786545  -0.2710286  -0.181682   -0.33821163  0.43234116  0.6129179
  0.21465766  0.82565045 -0.8135907   0.00317389  0.03197175  0.26460958
 -0.6486023   0.05835883]
[ 0.18565811  0.16825037  0.15209836 -0.06257746  0.31728444 -0.4266488
 -0.3093214   0.10931032 -0.18694411 -0.02480945  0.35060742 -0.12959605
  0.07406918  0.1645128  -0.106763    0.46962503  0.17787683  0.16883156
  0.53932995  0.15190588]
[-0.08085448 -0.38653395 -0.16526124 -0.08023831 -0.20119011  0.13229357
 -0.3894852  -0.01210839 -0.08375847 -0.26101595 -0.00436411  0.17381164
 -0.6574748  -0.19469275  0.17360169 -0.07365504 -0.04574297  0.310959
  0.4453797   0.03079221]
[ 0.45170924 -0.06346712 -0.08555509  0.11851821 -0.17089403 -0.5286554
  0.6379202  -0.06220574 -0.24949124  0.35457614  0.0877695  -0.09364191
  0.3325809  -0.15128969  0.32109872 -0.57617676  0.29770303  0.52312803
 -0.29186565  0.04334136]
[ 0.11338891 -0.02892871  0.0273593  -0.3363029  -0.20351966  0.29558948
 -0.0324951  -0.02751721 -0.01281951 -0.26862484 -0.32180533  0.16594702
  0.48832196  0.31932297 -0.19916372 -0.6378986   0.4246026  -0.15176947
 -0.79216045 -0.08497346]
[-0.09647507  0.0089189  -0.22861017  0.18025152 -0.08121994  0.4509174
  0.05847541 -0.19201198  0.3212541  -0.610993    0.36611873  0.17301667
  0.5309962   0.0327481  -0.17280908  0.16913782  0.4044843   0.09743387
  0.20985104  0.4607145 ]
[ 0.6591473  -0.57657945 -0.7174804   0.16589746  0.0776711   0.4731665
 -0.13502942 -0.33002648 -0.3559844   0.14834869  0.02232902 -0.44764325
 -0.22917558  0.30323765  0.39663938 -0.2081203   0.12251426  0.5760833
  0.5497404   0.28202233]
[-0.39411423  0.21025178  0.25028822  0.06739349 -0.17190799  0.15441844
 -0.39443454 -0.08915627  0.29535067 -0.2639743   0.27447182  0.52072066
  0.53180516  0.11728894 -0.370747    0.27138418 -0.7137864  -0.06943171
  0.11631573  0.16554995]
[-0.27047136  0.31717014 -0.27651393 -0.5152803  -0.36114836  0.28377122
  0.16697975  0.01178205 -0.41840038  0.18942596 -0.28810978  0.40516612
 -0.37179008  0.03795994 -0.15548897  0.52916497 -0.14665127  0.566454
  0.26754436 -0.70187443]
[-0.05740255 -0.06960054  0.1095679  -0.03036577  0.22299908  0.26557946
 -0.24656558 -0.12580654  0.14123137 -0.31747392 -0.32705787  0.16268586
 -0.30655402 -0.19541577 -0.21025431  0.2968975  -0.10582867 -0.23181823
  0.21570036  0.24460486]
layer 5 Activation
tanh
layer 6 Dense
20 1
[-0.41663572]
[-0.2698993]
[0.83664083]
[-0.284449]
[0.6401945]
[0.3451362]
[-0.52998734]
[-0.3860409]
[0.21318485]
[-0.50209767]
[-0.30727413]
[0.7744424]
[1.1679733]
[-0.35129222]
[-0.34902745]
[-0.628811]
[-0.9693004]
[-0.40298986]
[-0.4544762]
[0.08407652]
[0.51136464]
