layers 7
layer 0 Dense
20 20
[ 1.5991031   0.58696693  0.3039662  -0.42307284 -0.513099    0.05595167
  0.05386205 -0.2303675  -0.63366246 -0.6886812  -0.5466856   0.34290123
 -0.636276   -0.31577852  0.7805181   0.03285829 -0.24631742  0.5561274
 -0.47510174 -0.28424627]
[ 1.1599895   1.0094836   1.0330224  -0.63480085 -0.714502    0.48072225
 -0.53145885 -0.5400274  -0.7454393   0.13729125 -0.15126137  0.3820436
 -0.7209378   0.16072181  0.40195194 -0.7900093  -0.7593375   0.30770925
 -0.23663025 -0.40921757]
[ 0.45491204  0.54689664  0.93236655 -0.28437126 -0.54257566  0.72209924
 -0.35883433 -0.25419435 -0.51611525  0.39234647 -0.3884405   0.89491236
 -0.8389634   0.04524316  0.57154834 -0.39835247 -0.5064247   0.02522699
  0.10373076 -0.61234546]
[ 1.8642229   0.1495017   0.03447083 -0.05472612 -0.4487879  -0.04600903
 -0.35633743 -0.793505   -0.7324099  -0.20886038 -0.4235523   0.6953459
 -0.45194432  0.36861852  0.8829048   0.18137452 -0.37539232  0.4508751
 -0.45262152  0.29281896]
[-0.24746574 -1.2150115  -0.6501337   0.04018728 -0.07141143  1.0509311
  0.13857193 -0.22578426 -0.09504364 -2.0965126  -0.20243613 -0.65768903
 -0.01849981 -0.25456193 -0.21839719 -0.21654706 -0.62894595 -0.5279864
  0.7367277  -0.0623133 ]
[-0.06403933 -0.5564747  -0.71260434  0.15488124  0.73027253 -0.7572328
  0.49858522  0.30494604  0.31079215  0.43495402  0.58662266 -0.18135986
  0.10942277  0.33684093  0.1542716   0.46455798  0.2304696   0.08618914
  0.19671056  1.2670649 ]
[-0.52919006  0.05080935 -1.3035399   0.17925179  0.94828904 -0.68550915
  0.04550344 -0.05873705  0.34099162  0.81745166 -0.00475058 -0.2855342
  0.4097478   0.5621951   0.3847549   1.0292768   0.34709558 -0.29651722
  0.5186923   1.2907392 ]
[-0.71703017  0.24119884 -0.17802873  0.22581437  0.512331    0.03991164
  0.05506521  0.47673038 -0.01407788  0.32062408  0.5233615   0.03106553
  0.59353393  0.01361826 -0.7672384   0.38947204  0.63745797  0.44417202
 -0.27041215 -0.14559953]
[-0.46537423 -0.24456218 -1.4238919   0.81053674 -0.57561576  0.9036477
  0.66146284 -0.12342038  0.4076339  -1.1606098   0.48340693 -0.14675371
  0.7228373  -1.56668    -0.46262833 -0.15627216 -0.7759748   0.21868077
  0.05571022  0.7147768 ]
[ 0.02959852  0.6593335  -0.8226484   0.10217682  0.10417791 -0.1438769
 -0.25861952 -0.09048588 -0.17658232  0.16508469  0.11608984 -0.7349384
  0.07486435  0.8540734  -0.08654948 -0.49854842  0.05271821  0.08125429
 -0.14122647  0.48301914]
[ 0.9458369  -1.0675056  -0.4345248  -0.26463068  0.00156659  0.56704813
 -1.1874734   0.2810071  -0.15228674  0.03706804  0.35820118  0.5339947
 -0.59393597 -0.00662612 -0.18475834 -0.37791154 -0.8205714  -0.43279168
  0.07257151  0.18056487]
[ 0.12774129  0.46105903 -0.54939437  1.1108005   1.1548096   0.01839319
  1.4923536  -0.02651136  0.7758995  -0.23757999  0.8725079  -1.1049935
  0.91069454 -2.5701442  -1.050046    1.4000005   1.2238227  -0.8357777
  0.1495228  -0.26331553]
[ 0.01509033 -1.3464265  -0.09266096 -1.0276093  -0.18875296  0.06858588
 -0.32398123  0.42558363  0.30664948 -0.25966203  0.38399294  0.13012174
 -0.52536494 -0.065832   -0.31016     0.15197414 -1.1154217  -0.740065
  1.057059    1.3998082 ]
[ 0.06190303  0.49253112 -0.43628126 -0.7732014  -0.52622235  1.1241183
  0.53908455 -0.6769958  -0.7696325   0.63183326 -0.16844323 -0.8846708
 -0.56635267 -0.93489397  0.01502777 -0.6213387   0.459059   -0.43240416
 -0.39524657  0.2693905 ]
[-0.8675063   0.0097098   0.27451167 -0.330919   -0.04645669 -0.00438611
 -0.09386623  0.67790943 -0.24486022 -0.257161   -0.24137026  0.40581223
 -0.31300178 -0.82826495 -0.07040714  0.13837382 -0.06525452 -0.20770617
 -0.28683096  0.51567906]
[ 0.7881723  -0.827745   -0.25161546 -0.55816215  1.6296397  -0.348264
  0.24278721 -1.0031625   1.3616111   0.46125886  0.6904904  -0.5415327
 -0.25532457  0.5120119   0.05241351  1.0382234   1.6104949  -0.918568
  0.89847594  0.08545632]
[ 0.0139409  -0.23519276  1.1971252   0.8528695   0.26002857  0.93444735
 -0.710701    0.05238631 -0.77187854 -1.9194683  -1.015137   -0.5607846
 -0.74474984  0.08778081  0.5273582  -0.13248418  1.7961403  -0.13663195
 -0.4183807  -1.8029532 ]
[-0.17668553 -1.9547166   3.2548864  -0.26927975  0.09900223 -1.0945776
 -1.00457     0.68934965  0.09765946 -0.8483686  -0.11740272  1.8832387
 -0.20869893 -0.24485523 -0.14798003  2.1442657   0.38337094 -0.0787458
  0.6668226  -0.3774281 ]
[-0.2388903   1.9057631   0.3613967   1.2672703   1.558273   -1.6083077
  2.728747   -2.6368854   0.43276325  0.70463383  0.0111676  -1.1100628
  1.621015    1.2230734  -0.2579419   0.18366607  0.77073705  1.2819206
 -0.1089239  -1.9496417 ]
[ 0.23472524  1.1335068   0.9166373  -0.43801504 -1.2693629   0.1340028
 -1.0105948   0.7469968  -1.4410423  -0.39058068 -1.415231    1.5496913
 -1.4477907   0.40486374  0.73349553 -1.4116265  -0.5022531   1.8515512
 -1.5299329   0.03970396]
[ 0.5304064   0.62851113  0.13893123 -0.2116352  -0.28468102 -0.52553606
 -0.12049337 -0.3942921  -0.27358544  0.48523745 -0.2642261   0.42288983
 -0.24254498  0.27714655  0.7603327  -0.04744684 -0.35597193  0.11046876
 -0.10099974  0.0736457 ]
layer 1 Activation
tanh
layer 2 Dense
20 40
[-1.4251572  -0.14467442 -0.30293736 -0.30572662 -0.3817032   0.15460464
  0.49695218  0.21943739  0.22899991 -0.5793335   0.5228467  -0.25268015
  0.43679285 -0.1952032  -0.03502697  0.8385643  -0.8644697   1.2590069
  0.41744193  0.7942193   0.5995583  -0.18559311 -0.25498042 -0.41676104
  0.7472354  -0.3238899   0.53647643  0.08869953  0.69660795  0.37556902
 -0.796672    0.9426111   0.30090207  0.71605206  0.44166228 -0.17464395
  0.706867    0.18852292 -0.54269284 -0.339929  ]
[-1.0330446   0.0031375  -0.69247574  0.19364607 -0.4913384  -0.7218222
  0.15961494 -0.28901199 -1.1641856  -0.02823365  1.478239   -0.61923885
  0.84956276  0.15260507 -0.52078056  0.8403545  -1.0591704   0.7167946
 -0.05039564  0.08058145  0.27372456 -0.7898451   0.9877602  -0.1635878
  1.0872661   0.29754215 -0.3042762   0.45069847 -0.17757817  0.41275197
 -0.8854992   1.0466729   0.39164603  0.16844396  0.45004356  0.15032066
  0.7407907   0.3604646   0.12474274 -0.50997454]
[-0.58319384 -0.10461101 -0.30397537 -0.07468366 -0.1045666  -1.4066043
  0.29735857  0.1366436  -0.00455013 -0.31733844  0.1702587  -0.34713122
  0.93964607 -0.3969351   0.65263706  0.22764592 -1.1490214   0.64909464
  0.06411238 -0.06938481  0.42560184 -0.36904532 -0.42191675 -0.29018012
  0.405277   -0.30332536  0.24094829  0.1930029   0.2515805   0.20988376
 -0.11672458  0.14340068  0.49882132  0.19895044  0.21957168 -0.3185019
  0.7778706   0.23987941  1.7993515   0.30465606]
[ 0.28535908 -0.09753265  0.1026748   0.23298611  0.69038224 -0.20600988
  0.5167193  -0.5267936  -0.72133136 -0.48941305  0.2246439   0.2663876
  0.03521853 -0.53887665 -0.00743218 -0.21012346 -0.03748251  0.12656489
 -0.15675518 -0.09724674 -0.2548016  -0.01944174  0.4367171   0.18693984
  0.21615195 -0.18160427 -0.12584968 -0.00073704  0.08213015 -0.26118422
  0.14398336 -0.15595704 -0.6584356   0.08107014 -0.06812786 -0.5414867
  0.03663113 -0.17045675  0.3058716  -0.08567624]
[ 0.07712634  0.74148786  0.2376834   0.2538998   0.5629979  -0.7016992
  0.16533777 -0.04006597 -0.37072757  0.63221264  0.43291575 -0.16024356
 -0.3323951  -0.18979418 -0.10282913  0.10823663  0.15591358 -0.32012585
 -0.15084285  0.17585713  0.06629334  0.45273256  0.16019504  0.24014801
  0.34414622 -0.3384809  -0.0412685   1.1803318  -0.15112354  0.00798524
  0.14271466  0.24996236 -0.52412003  0.01344275 -0.06623568  0.05665865
  0.08659929 -0.7018704  -0.33009887 -0.14658949]
[-0.02514466 -0.09981883 -0.70623386  0.07399698 -0.03090728  1.4665992
 -1.1126103   0.7127208  -0.14129373  0.11661432 -0.31439894  0.10574615
 -0.84796685 -0.4152948   0.4256432  -0.05163856 -0.5325579   0.39465037
 -0.32434824 -0.42999536  0.18406801  0.1258909   0.5593629   0.46816286
 -0.10446888 -0.51309526 -0.42226171  0.15821223 -0.5945705   0.20566767
  0.02055951  0.3487652   0.63566387 -0.43382618 -0.21471156 -0.5115521
  0.56261903  0.22702543 -0.77549535  0.16063908]
[ 0.03184101  0.75868267  0.10494237  0.05566544  0.5551605   0.24716927
 -0.06968515 -1.199323   -0.45408228  0.8125044   0.65943176  0.10058647
  0.47403383 -0.04060735 -0.35840565 -0.11937559 -0.16931161 -0.36048004
  0.36046967  0.21142142  0.09265842  0.09603108  0.75979435  0.4517571
  0.34576598  0.48147923  0.41515642  0.06362122  0.3574009   0.21501102
  0.03216508 -0.30770501 -0.7622256  -0.02993555  0.2618958   0.3174957
 -0.10428942 -0.43561593 -0.45085412 -0.8252335 ]
[-0.06607866 -0.43749973 -0.2826385   0.20777953  0.1342208   0.0677393
 -0.15564081  0.552553    0.56750077 -0.2671583  -0.46587655  0.08512806
  0.3346237   0.13396527  0.6594305  -0.14926311  0.36727425 -0.4050404
 -0.15480247 -0.41315037 -0.32574987 -0.3358722  -0.17698455 -0.14263466
 -0.4467054  -0.84918916 -0.4808521  -0.5028625  -0.6010409  -0.02682242
  0.02929717 -0.43295246  0.35288304 -0.51960313  0.00180837 -0.26477057
 -0.14587608  0.05891412  0.674728    1.6594906 ]
[ 0.08273894  0.529973    0.7743485   0.37905774  0.22292271 -0.72980684
  1.0699394   0.08784634 -0.48633185  0.5117572  -0.05893096 -0.01322229
  0.3246466   0.59475696  0.1043887  -0.09193684  0.07213832 -0.35069236
  0.12550911  0.10347638 -0.12204529  0.3150746  -0.07860999 -0.45586333
  0.14265722 -0.52215344  0.03137845  0.93389523 -0.6124448   0.02783995
 -0.12818861  0.04906846 -0.12877019  0.14367706  0.01173982  0.56111133
 -0.20259374 -0.64300716 -0.6565232  -0.13258934]
[ 0.555633   -0.06609618 -0.3345159   0.3205714   0.40631235 -0.32442647
  0.08679136 -0.8139891   0.08982935  0.26380682 -0.59070474 -0.36201918
  0.6912373   0.03746408  1.0200332  -0.43768853  0.53870964 -1.1991514
 -0.13748004 -0.17718513 -0.52455705 -0.00475913  0.15282017  0.48486513
 -0.07216332  0.8852923  -0.04459228 -0.34073055  0.16686745 -0.2873487
  0.35776448 -0.31201282 -0.8570553  -0.09160475 -0.24614184  0.2134019
 -0.24438293 -0.7080909  -0.35814974  0.32756525]
[-0.19479176  0.34678063  0.18557896  0.25623897 -0.10913244 -0.34326494
  0.23016416  0.24668038 -0.17660476  0.96663266  0.05827397 -0.16526768
  0.329245    0.27776277 -0.11097985  0.06010295  0.14788511 -0.5061429
 -0.3420973  -0.37408116  0.0214032  -0.06333085  0.24723333 -0.5419114
 -0.24421823  0.22535215 -0.5904918   0.9156372  -0.47111332 -0.04600686
  0.10359798 -0.22571042 -0.00862602 -0.46816236 -0.17069477  0.4534745
  0.068464   -0.2554989  -0.7632877   0.14732355]
[-0.45946947 -0.00900742 -0.35975918 -0.25839487 -1.1232315  -1.0022367
  0.22835991  1.0034858   0.30620295  0.18443015 -0.10776713 -0.7448452
  1.1736833   0.30063626  0.30044246  0.29892915  0.185672    0.7433713
 -0.14724155 -0.24637923  0.26699454 -0.6613975  -0.4381219   0.15822607
 -0.29354987 -0.22942817 -0.23900366 -0.33073792 -0.09301965  0.25356647
 -0.586933    0.3523604   1.1999521  -0.22888716 -0.0913809  -0.11630856
 -0.08712098  0.2941505   1.427907    0.02173252]
[ 0.57995766  0.48641056  0.83572334  0.0428465   0.8466994  -0.33410525
 -0.09233062 -1.4826288  -0.94464976  0.31286475  1.2713876   0.02917899
  0.01254293  0.24817747 -0.57846594 -0.45990214  0.49030483 -0.16572466
 -0.01330164  0.10147192  0.05595542  0.5960277   0.82623875  0.10536114
  0.62993073  0.3740458  -0.1198349   0.39359725 -0.16052371 -0.15183349
  0.05526815 -0.63125944 -1.2818646  -0.18534398 -0.663707    0.70348823
 -0.01842307 -0.74406093 -0.22966057 -0.01587081]
[-7.9724681e-01  5.3242457e-01 -1.0635256e-01 -5.1684672e-01
 -2.7731711e-01 -1.5547214e+00  1.4769180e-01  4.5479631e-01
 -7.4240768e-01 -1.4285380e-01  9.4680190e-01 -3.0698419e-01
  8.9045292e-01 -2.7117515e-01 -2.2887811e-01  4.3437648e-01
 -1.1504087e+00  4.1630507e-01  1.1227354e-01  4.6200287e-01
  1.0235282e+00  2.5194502e-01  1.8479660e-01  9.4423518e-03
  5.8277804e-01 -5.7965398e-01  9.5838636e-02  1.0849074e+00
  1.0122167e-01  1.5371490e-02 -5.4029375e-01  6.1963201e-01
 -4.7024730e-01  2.8712875e-01  4.8053813e-01 -3.7776700e-01
  6.7004293e-01  1.5858331e-01 -6.8827373e-01 -1.3212346e-03]
[-0.7789351  -0.06290313 -0.3056579  -0.542336   -0.74285346 -0.5924391
  0.45460904  0.03680873  0.34391746 -0.49955547 -0.19133985 -0.60094297
  0.3239523   0.3851658   0.24600041  0.8085012  -0.40600762  0.89310306
  1.0782492   0.7763979   0.78590566 -0.21126686 -0.25011745 -0.02451565
  0.42544314  0.18292023  1.1637236  -0.18238945  1.019915    0.02725988
 -0.58326906  1.0846089  -0.00922703  0.74761915  0.6978835  -0.84262526
  0.68467635  0.42854676  0.5839192  -0.17131194]
[ 0.16141699  1.1078063   1.768896    0.48988038  0.9223988  -0.5477212
  0.7596321  -0.5921322   0.19603847  0.24449442 -0.23417704  0.23634541
 -0.18547925  0.12460637 -0.2910233  -0.11726791  0.33795556 -0.5414396
  0.13690136  0.06626305 -0.21119252 -0.06442651 -0.6397973  -0.5602123
 -0.583608   -0.3268691   0.33475408 -0.21611018  0.44451407 -0.03886575
  0.29724002 -0.04812012 -0.9963735   0.23493484 -0.12179312  0.55263436
 -0.09761558 -0.27339777  0.05128228 -0.82835567]
[-0.26671532  0.7512202   0.4793553   0.14789821  1.1855179  -0.43854275
 -0.32550383 -0.10298114 -0.2665035  -0.34194583  1.0388589   0.30871177
 -0.55587643 -0.5830877  -0.3227481   0.32177743 -0.34931993  0.24603428
 -0.16494823 -0.2097839   0.38405553  0.69938606  0.18745561  0.53735477
  0.53003794 -1.0073471  -0.5651666   0.67476493 -0.6323529   0.57001936
  0.5362204   0.09826007 -0.6337439  -0.4299543   0.09441707 -0.1868876
  0.11705524 -0.28968772  0.04861741 -0.6324076 ]
[-2.1858048e-01 -1.8111835e-01 -8.5185403e-01 -8.5327798e-01
 -6.0524273e-01 -3.6547577e-01 -1.9646086e-01 -6.1597925e-01
 -6.6533959e-01 -1.0355742e+00  4.2276868e-01 -3.2542169e-01
  4.5348904e-01 -1.6892929e-02  1.1605736e+00  1.0726582e-03
  5.6356710e-01  7.7261493e-02 -3.6022893e-01 -2.5732303e-01
 -8.3665453e-02 -2.7707711e-01  6.0434288e-01  2.5450665e-01
  1.7145929e-01  5.2210224e-01 -2.6619968e-01 -4.1663456e-01
 -4.0509912e-01 -6.5618825e-01 -2.1605374e-01 -2.0330860e-01
 -3.3124909e-01 -3.2641193e-01  6.2739952e-03 -6.7997140e-01
 -5.0133485e-01  3.6228493e-01  5.3242284e-01 -6.3044317e-02]
[-0.22396155  0.23603645  0.60387117 -0.31503722 -0.17596093  0.28728986
  0.31634063  0.57164943  0.2644826   0.13081692  0.24850486  0.5744323
 -0.62001985  0.39817646  0.14291066  0.3798799   0.20072171 -0.05689658
  0.01208235  0.45470694 -0.21596363  0.2551298  -0.31559783 -0.19103207
  0.29412308 -0.3709046  -0.18713607  0.8924838   0.18058892  0.3791864
  0.27545875 -0.07812969 -0.0307855   0.11336508  0.24684188  0.15023474
 -0.10967012 -0.13227358 -0.15749407 -0.65708137]
[-0.2992341  -0.37259215  0.20621827  0.04989964 -1.3648206   0.55858177
 -0.17454354  0.9931767   1.321395    0.5696656  -0.8595882   0.4534958
  0.16085878  0.336712   -1.3897147   0.00561936  0.600071   -0.853953
  0.19529597  0.26145446 -0.32806677 -0.59573704 -0.57053554 -0.11664112
 -0.8181321   0.7422683   0.12515768 -0.95912814 -0.03610406  0.393046
  0.32970867 -0.3376485   1.6960064   0.3757215   0.24760252  0.43259838
 -0.11954635  0.43401614 -0.8321846  -0.6364286 ]
[-1.2958857   0.08880202 -0.373456   -0.07774266 -0.6292508  -0.6647673
  0.60913527  0.0244308   0.20097181 -0.15081191  0.02266815 -0.3899377
  0.84205294  0.24606605 -0.5540216   0.6244333  -0.88266075  0.5923784
  1.0291463   0.63896227  0.30306563 -0.43807045 -0.06413262 -0.03446254
  0.5407259   0.41996148  1.0963969  -0.28045282  1.2189366   0.29695943
 -0.71148896  1.0234679   0.08009421  1.2203716   0.72298384 -0.4334459
  0.6387394   0.729179    0.5081378  -0.58119243]
layer 3 Activation
tanh
layer 4 Dense
40 20
[ 0.28628376 -0.18094452  0.1513489  -0.09523067 -0.7922522   0.14750427
  0.4971549   0.10569157 -0.11900287 -0.58191234 -0.4032765  -0.7537094
 -0.616274   -0.38686344 -0.3786902  -0.21597046 -0.63273996 -0.2627848
  0.14923517  0.3567684 ]
[ 0.25698796  0.31378087  0.11700054  0.32466784 -0.16962482 -0.13037543
  0.09512012 -0.1752664   0.12733455 -0.21545523 -0.23544349  0.23699161
  0.3369598  -0.30753076  0.02327932  0.18790653 -0.11527102 -0.3795507
  0.20630051 -0.29028943]
[ 0.30763328 -0.00125884  0.3660919  -0.23404047 -0.26045498  0.05384598
  0.1851808  -0.35083607 -0.6445022  -0.25600693  0.01275648  0.07129835
  0.34763557 -0.18807538 -0.61274064  0.6296917  -0.46656063  0.15500313
  0.5297452  -0.12752217]
[ 0.08212566 -0.0156899  -0.04786023 -0.19837473 -0.15385959 -0.03839364
  0.03855303 -0.30954045 -0.3217674  -0.05606201  0.25415745 -0.3518908
  0.05794525  0.20264232 -0.00272543 -0.4435655   0.19324824 -0.04478308
  0.14772333  0.134604  ]
[-0.07637545  0.24537896  0.59463465 -0.52031726 -0.5984778  -0.58442825
  0.2951523   0.2712081  -0.6735516  -0.5754504  -0.29771444 -0.3027779
  0.21800327 -0.59807545 -0.9730995   0.33418244 -0.7181928  -0.5890058
  0.5188764   0.07560248]
[ 0.362193   -0.14875744  0.32808536  0.20217423 -0.74514115  0.3524503
  0.5467303   0.1349458  -0.24934885 -0.7345773  -0.29418942 -0.26652294
 -0.14343028 -0.27888775 -0.52707005 -0.431398   -0.42791575  0.0705154
 -0.17754273 -0.01717338]
[ 0.17835692  0.29883972  0.2225121   0.248202   -0.3014075   0.48079824
 -0.24717306 -0.38969636  0.00818142  0.5823659  -0.41848612 -0.20248672
  0.34397623 -0.06204885 -0.08499045  0.00861149  0.05888611  0.08247968
  0.23109874  0.02174695]
[ 0.11955447 -0.14885932 -0.26742294 -0.06959649  0.04095672  0.7009193
 -0.3518001   0.2016777  -0.01307753  0.47834614  0.48380435 -0.42152193
 -0.38909924  0.26052225  0.83707994 -0.2637472   0.4081047   0.58782357
 -0.14640749  0.03256117]
[ 0.41584864  0.2709709   0.24442682  0.4071187  -0.15242288  0.6577516
  0.19868204 -0.60644954  0.17606032 -0.08992688 -0.3070778   0.43061206
  0.20733139 -0.13759588 -0.48277485  0.43547    -0.13975242  0.35610202
  0.22375399 -0.0618647 ]
[ 0.17205346  0.01876562  0.04219683  0.05651697 -0.20802347  0.37979606
 -0.20679238 -0.68270576  0.09649032 -0.11550117 -0.9555473   0.08345968
  0.137939    0.15732527  0.05986118 -0.372344    0.28591463  0.11629502
  0.450563    0.23431514]
[-0.5998872  -0.31596547 -0.18601103 -0.23623383 -0.08546944 -0.62206936
 -0.3298918   0.3185441   0.09545368  0.6452007   0.41117367 -0.02942949
  0.01173207  0.39663345  0.52103364 -0.05652346  0.5696404  -0.3644056
  0.29039448  0.04090979]
[ 0.36738813  0.12079729 -0.03933583 -0.26289707 -0.16807897  0.28951272
 -0.15180466 -0.02835497 -1.0779892   0.09478687  0.74091494 -0.17281702
 -0.01180012 -0.09833536  0.05764402  0.03591682 -0.10493432 -0.0941246
 -0.0340423   0.28335878]
[ 0.01729554  0.1740935  -0.240437    0.17402256  0.6660297  -0.42809734
 -0.55462146  0.00609749  0.8685595   0.5600676  -0.08040077  0.30144337
  0.01770657  0.35857102  0.34649324  0.03657271  0.4461688   0.09035531
 -0.49253508  0.05357072]
[-0.02361246  0.18506321  0.07086959  0.29500094  0.31680837  0.26310724
 -0.07395609 -0.1409221   0.16779141 -0.02284946 -0.45617387  0.40141004
  0.22445346 -0.00654186  0.05030203  0.09021701  0.07151015  0.31572217
  0.12890004  0.00121194]
[ 0.00541219  0.02453154  0.2292497  -0.05788754 -0.34267992 -0.00925777
  0.1316613   0.64974284  0.20140307 -0.17136474  0.7237262  -0.30117348
 -0.53185654 -0.401761   -0.36868587 -0.21239321 -0.36926153  0.3807162
 -0.4538353   0.53731406]
[-0.27752042 -0.18298218 -0.19052392  0.04013404  0.40707284  0.12941045
 -0.4763081   0.17317192  0.3339872   0.07129475  0.08628003  0.2523934
  0.1591416   0.21550877  0.17695369  0.3469591   0.40535057 -0.11105092
 -0.04375591  0.0961323 ]
[ 0.68557364 -0.15244952  0.50253844  0.47285086 -0.43526745  0.07912521
  0.48754984 -0.40113786 -0.56638783 -0.68454397  0.23896658  0.13872387
 -0.09359471 -0.3582871  -0.20982885 -0.20929092 -0.57913524  0.05709993
 -0.04193607  0.5206086 ]
[-1.2687168   0.18085699 -0.8044325  -0.6670134   0.72872835 -0.53008246
 -0.9805111   0.8308914   0.4883386   1.1767187   0.5701072  -0.31874752
  0.02093469  0.57794875  1.0253057   0.27026677  1.1080813   0.47812352
 -0.46053538  0.15693057]
[-0.30090484  0.29467028 -0.48952648  0.45060664  0.3727273   0.02150195
 -0.40680388 -0.07580531  0.21737882  0.68170905 -0.00567846  0.5893051
  0.5582307   0.3763489   0.4003435   0.41514283  0.45267946 -0.1373697
 -0.10108767 -0.45030814]
[-0.18452252  0.4346944   0.02874178  0.00243895  0.43223432  0.16383716
 -0.24414048  0.04844397  0.18217124  0.14625517 -0.43369     0.30168778
  0.59941727  0.03453465  0.32233486 -0.03359894  0.5746285   0.04260879
  0.12669465 -0.3296704 ]
[-0.12688324 -0.19624564 -0.22246878 -0.40991706  0.45283118 -0.52407855
 -0.07227184  0.80885756  0.00433347 -0.36826417 -0.23751795  0.01806247
 -0.0529477   0.17510237  0.06761685  0.24211624  0.07415255  0.00124518
  0.1189006  -0.02849042]
[-0.30936477 -0.0075783  -0.2561524  -0.79503447 -0.14136027  0.16655527
  0.20895377  0.31790352 -0.79770464 -0.6393242  -0.3008858  -0.0808151
  0.01037069 -0.3095458  -0.10557407 -0.07603848 -0.14399408 -0.09662141
  0.04564616  0.33032247]
[-0.5014987  -0.07390997  0.04542119 -0.20077948  0.3406746  -0.91367143
 -0.24593347  0.16260281  0.34792706 -0.2973662   0.39383188 -0.2257401
 -0.01345998  0.21211427  0.20867646 -0.5115828   0.19974822 -0.15737177
 -0.24349515  0.3432165 ]
[ 0.12057208 -0.04941818 -0.23217362 -0.5589871  -0.25228953 -0.5049648
 -0.19393496  0.4888156   0.3147862  -0.40833637  0.4111296  -0.2532719
 -0.01665876 -0.13304208 -0.24079092 -0.30428502 -0.11617239 -0.37551758
 -0.09744779  0.1386356 ]
[-0.30940643 -0.18619747  0.01452375 -0.17023002 -0.23640494 -0.28333277
 -0.09245963  0.13429883  0.09638617  0.6986587   0.08103777 -0.06780981
  0.06160079  0.43904448  0.31663972 -0.01938575  0.06583072 -0.40300083
 -0.20064647  0.02786701]
[-0.02604341  0.36528793  0.31836858  1.0763216   0.00297963  0.47556728
 -0.031358   -0.8208025  -0.09017349  0.17473081 -0.6676084   0.6588691
  0.30128303 -0.3347893  -0.05429944  0.09560157 -0.3684486   0.11239969
  0.06221757 -0.32070658]
[-0.5301164   0.37448642 -0.44524223  0.64897233  0.48980898  0.35325462
 -0.21437648 -0.11752719  0.4126012   0.49242118  0.08688143  0.42890042
  0.5076766   0.03068248  0.56764346  0.4300912   0.8334079  -0.20256704
 -0.04509851 -0.2625403 ]
[-0.05067147 -0.34563115 -0.10709893 -0.76420856 -0.17400347 -0.06434681
 -0.2953575   0.53840077 -0.36685687  0.14174922 -0.10947655 -0.38793528
 -0.20698495  0.07521074  0.38779342 -0.39344072  0.25403628  0.05072772
  0.12532781  0.26347214]
[-0.3158047   0.47675875 -0.56570655  0.2742291   0.19190077 -0.02639343
 -0.5859493  -0.13731036 -0.12763172  0.99620384 -0.32469064  0.8094158
  0.9690708   0.41991827  0.75993794  0.04511954  0.67507684 -0.03739148
  0.2067898  -0.6432549 ]
[-0.21622454  0.16899653 -0.15989631  0.03446972  0.14166366 -0.27655035
 -0.29131046 -0.04270799 -0.11370331 -0.1602437   0.39983115 -0.13659818
  0.12394821 -0.07394674  0.06311907  0.12815514  0.14987454  0.08366779
  0.249294   -0.05211395]
[ 0.23203492 -0.13974127 -0.02639965 -0.60981524 -0.54878515  0.12419789
  0.29615104 -0.21455413 -0.3571871  -0.4132795   0.21895824 -0.26973844
 -0.5073853  -0.22420545 -0.03725801 -0.01958653  0.05033767  0.16195786
  0.10807506  0.14358139]
[-0.6549946   0.33452606 -0.53735113 -0.1750952   0.39495784  0.11692867
 -0.38142332 -0.0064391   0.5264325   0.6845651  -0.10549919 -0.02624243
  0.18960524  0.59230304  0.26235363 -0.12048461  0.5522289   0.33429447
 -0.00721544  0.04492756]
[ 0.20228422 -0.28868625 -0.6395987   0.18420331  0.21177623  0.5174581
 -0.43702796 -0.06869359  0.09143177  0.45663124  0.58699316 -0.26589668
 -0.5025256   0.32728443  0.7408327  -0.3395473   0.52954155  1.0169036
  0.13109872  0.2085633 ]
[-0.1383864   0.5318488  -0.2503729   0.78709656  0.31264746 -0.09325165
 -0.2164988   0.39328966  0.3683991   0.5643522  -0.10484976  0.7370619
  0.7200878   0.52834445  0.6637391   0.26568764  0.46175966 -0.04264866
 -0.22750646 -0.6970173 ]
[-0.29114294 -0.03154651 -0.20783885  0.3313961   0.43765935  0.05265301
 -0.33180535  0.1714026   0.08863541  0.08532895 -0.30550712  0.04214698
  0.16713497  0.20889556  0.12689212  0.6166297   0.04154854 -0.07474823
  0.00137049  0.19525275]
[-0.00463104 -0.1906394   0.33279967  0.29462922 -0.14719602 -0.08467609
  0.18372616 -0.6104925  -0.4625031  -0.19787501 -0.3135353  -0.029705
 -0.09788831 -0.1478386   0.16870308 -0.3835995   0.20095973  0.2295629
  0.36839563  0.35426715]
[-0.270759    0.23530617 -0.38258776 -0.21126406  0.2675959  -0.14319915
  0.01132187  0.4109745   0.43902102  0.31732044 -0.07405423 -0.06008513
  0.01080175  0.38897634  0.05840477  0.3143993   0.27217525 -0.05251022
  0.11620598 -0.30422145]
[ 0.22260973  0.24581322 -0.24842016  0.41267663  0.36824527  0.33268586
 -0.28323868  0.0343789   0.14249818  0.34955785  0.545548    0.0229122
 -0.04307549  0.06932256  0.0721426   0.28622198  0.14960241  0.11118241
 -0.09165421  0.06542681]
[-0.390646   -0.31578448 -0.5293571   0.14163052  0.5239401  -0.23423389
 -0.17948832 -0.00123206  0.5669015   0.45157924  0.889571   -0.1356254
 -0.06104865  0.32525995  0.3285064   0.14382197  0.7959654   0.1853529
 -0.5330713  -0.22200105]
[-0.35726014 -0.08517104  0.03190427 -0.10345685  0.10038826 -0.27330697
 -0.24782187  0.27638814  0.07322154  0.01653967  0.8257125  -0.55030525
 -0.30343738 -0.2543999  -0.42620257 -0.47710636  0.09765257  0.6225485
 -0.61411935  0.39453748]
[-0.26830897  0.22053917 -0.35290998  0.33452472  0.26662436  0.16844186
 -0.3295046   0.03732419  0.21044688  0.61557055 -0.17442854  0.432542
  0.52621084  0.28592166  0.5474238   0.20807824  0.55210084  0.04415454
 -0.09510529 -0.10102425]
layer 5 Activation
tanh
layer 6 Dense
20 1
[0.08010267]
[0.06292962]
[0.14780594]
[0.06466924]
[-0.15690576]
[0.01620708]
[0.0624901]
[-0.05714404]
[-0.02127774]
[-0.14667223]
[-0.00301726]
[0.34170023]
[0.49689752]
[-0.06594512]
[-0.35053045]
[0.12246273]
[-0.21049672]
[-0.03232908]
[0.11595027]
[-0.01698641]
[0.2626016]
