layers 7
layer 0 Dense
20 20
[-0.01904499 -0.13855244  0.3225615  -0.13672784  0.01891081  0.18657178
  0.09822529  0.17454049 -0.01993289 -0.08596165 -0.41541493  0.10055209
  0.04512906 -0.33062044 -0.16289471 -0.1346003   0.07509731 -0.20602891
 -0.08431052 -0.22959334]
[ 0.325508   -0.2447429   0.28380796 -0.20060171  0.80036795  0.3367645
 -0.49764952 -0.08060613 -0.1134261   0.0689999   0.10816625 -0.14405015
 -0.54183745  0.40342662  0.57375634  0.12174495  0.1144821   0.54134905
 -0.06971387  0.06782624]
[ 0.5319024  -0.01515603  0.03836264 -0.21876971  0.9062112  -0.02679926
 -0.48260474  0.41299337  0.6503361  -0.00987073  0.12859881 -0.51011974
 -0.5459064   0.20278828  0.02921348 -0.14139877  0.47791293  0.39544493
  0.4883892  -0.11263042]
[-0.01253944 -0.06117982  0.12927714 -0.1274091   0.16615824  0.15802374
 -0.20667152 -0.2490966  -0.06732745 -0.02884604 -0.4193354   0.23265572
 -0.10791551  0.2305403  -0.05505521  0.18495041 -0.13535005 -0.18132594
 -0.28928456  0.2730206 ]
[-0.4542656  -0.27557248  0.0111574  -0.1250493   0.29125217  0.06069539
 -0.19568704 -0.14631343 -0.10695267  0.3372255  -0.16664496  0.18220231
  0.08855998 -0.30895963 -0.12605692 -0.11072855  0.29104492 -0.047922
  0.03192603  0.27334166]
[-0.07190639  0.17277795 -0.15835911  0.25315472 -0.27390838  0.16642497
  0.33025396  0.04688085  0.03659561 -0.1725364  -0.05838563  0.35165757
  0.26392794 -0.0924702  -0.05189981  0.525284   -0.34097332 -0.4171595
 -0.31106225  0.02725766]
[-0.49871263  0.44471505 -0.06137883  0.19028471 -0.5204971  -0.00677639
  0.18535988 -0.32515115 -0.4041119  -0.39231867  0.2569932   0.22465925
  0.12338643  0.18851519 -0.1911791   0.16357732  0.00258597 -0.5523055
 -0.05864967  0.06334616]
[ 0.06166337  0.37343222 -0.24717255  0.21515763  0.22752535 -0.32850474
  0.14010556  0.05186061 -0.28342745 -0.03251471 -0.15379323 -0.35060805
 -0.05966574 -0.07614982 -0.00809355  0.25355786 -0.4337498   0.27866486
  0.5017678  -0.4097246 ]
[ 0.20995957  0.05012534  0.23368493  0.11953548  0.06745247 -0.05925409
 -0.39691395  0.11577268 -0.51867414  0.25098693 -0.04156544 -0.15293112
  0.15702382  0.35005477  0.20998773 -0.3501464   0.00381605  0.5457776
  0.26645598  0.2429913 ]
[ 0.01336202  0.569804    0.06968114  0.37611607 -0.08141597 -0.2253221
  0.08430072  0.0953088  -0.2538572  -0.03467191  0.07107386 -0.2661433
  0.19669706  0.01116246 -0.29008493  0.06303083  0.6958765  -0.8289328
  0.09403932  0.22541311]
[ 0.6589478   0.31539598 -0.40366417  0.02374399  0.40372956 -0.48031607
 -0.2366453   0.34713328 -0.2891262   0.8636078   0.50348043  0.4427338
 -0.40233725 -0.11853284  0.5536022   0.23197663 -0.563741   -0.512633
  0.4215643   0.57165617]
[ 0.43489057  0.44832373  0.5256064   0.36992425  0.37404037  0.41864118
 -0.22592317  0.39553595 -0.89499384 -0.0135437   0.6498802  -0.39130577
  0.2699872  -0.15496852  0.18323754 -0.39773554 -0.02140632  0.03750467
  0.2969225   0.01068024]
[-0.27289468  0.4797832  -0.77551615  0.01519417 -0.9602447   0.8570813
  0.4448952  -0.0274387   0.5262562   0.43902227  0.5764667   0.3618168
  0.38218823 -0.00135955  0.0636396   0.255463   -0.33897895 -0.7112929
  0.27520463  0.31262103]
[-0.13613062 -0.10439568  0.05538131 -0.04658275 -0.22518593 -0.22774133
 -0.16346724  0.08724339  0.17696546 -0.34125775 -0.1313944   0.12636769
 -0.09736989 -0.2121065  -0.3167532   0.31421837 -0.2974665  -0.07303931
 -0.12983996  0.14392973]
[ 0.25116    -0.15511793 -0.18333836 -0.24628057 -0.0251602  -0.24919651
  0.38923955  0.13202554 -0.22807571 -0.24812694 -0.05367878 -0.1385843
 -0.32955462 -0.00590628  0.08347888 -0.24473464 -0.20987491  0.14587526
 -0.23525561 -0.09984887]
[ 0.19514783 -0.4384208   0.30960843  0.1239067   0.6036562  -1.2310562
 -0.13562368  0.03130094 -0.23216379 -0.4913935  -0.12295269 -0.6300817
 -0.43622595 -0.3885444   0.2530448  -0.41077328  0.7961335   0.4393967
 -0.41743162  0.281165  ]
[ 0.24588525 -0.02602289  0.330054   -0.09333524  0.48529482 -0.5866857
  0.06218641 -0.36348942  0.15774554 -0.2426139   0.0650605  -0.11451527
 -0.00756214  0.37110022 -0.23869188  0.12652971  0.3742576   0.4915642
 -0.39760092 -0.01361   ]
[ 0.21977885 -0.18754065 -0.3915943  -0.40682372 -0.55436635  0.28525743
 -0.2697243   0.5280757   0.30996814  0.68273467 -0.24170485  0.3229281
 -0.9253176  -0.31850058  0.72092116  0.34027353 -0.22598682  0.88295007
  0.35843992 -0.5601751 ]
[-0.7332479  -0.38852355  0.5887271  -0.36602488 -0.6458454   0.01565056
  0.2182983  -0.5682535  -0.16736016 -0.2108922  -0.24009328 -0.5350743
  0.17767829  0.3548035  -1.1287187  -0.60377353  0.6730191   0.66164905
 -0.1991019  -0.35924187]
[-0.357176    0.22616401 -0.1296024  -0.06907342 -1.3295072  -0.6212895
 -0.0555326   0.10827664  1.1641929   0.8932767   0.03636569  0.5375854
 -0.6058699   0.539698    0.44888306  0.3940631  -0.08630868 -0.79346156
  0.5633399  -0.32092965]
[ 0.02306363 -0.08229151  0.08486019 -0.03716104 -0.00479561  0.05283846
 -0.0573772  -0.0087741   0.07756178 -0.20746754 -0.11241917  0.01847029
  0.10668616 -0.03850514 -0.0305373   0.09407888  0.03706482 -0.13859269
 -0.07199518  0.10582124]
layer 1 Activation
tanh
layer 2 Dense
20 40
[-0.38091308  0.22771588 -0.09630437 -0.17593646  0.2547214   0.24933465
 -0.21444651 -0.21174362  0.06525809 -0.04307448 -0.19797179  0.32477897
  0.09050011  0.27206966  0.183045    0.02753876  0.09181159  0.06061619
 -0.05888003 -0.02120175  0.04080864 -0.24137731  0.22166637 -0.30079526
  0.0267737   0.10144821 -0.02856692  0.19444145 -0.02869428 -0.05712935
 -0.0310797  -0.28057373 -0.15274014 -0.13313363  0.15988778  0.17790939
 -0.09921725  0.23486832  0.498776   -0.02803281]
[-0.1438339  -0.32393986 -0.00117454  0.02468291 -0.03158326  0.06525967
  0.432102    0.11572082 -0.05452914  0.03902828 -0.19784863 -0.02527088
 -0.25441295 -0.24113135 -0.21336794 -0.00203771  0.03839846  0.19231036
 -0.17725894 -0.1505481   0.06442482  0.01065488  0.20604853 -0.09363025
  0.03633067  0.19038117 -0.21780306 -0.2772826   0.0918201  -0.3426052
  0.211664    0.16058965  0.08501311  0.06840604 -0.04631646  0.00983867
  0.15501462 -0.15691511  0.11548541 -0.12535876]
[-0.3494496   0.32869813  0.20517828 -0.21483427 -0.13104506  0.00788347
  0.01776815 -0.18281192 -0.24606803  0.24528225 -0.06176252  0.02566951
 -0.30900764  0.07583865  0.28000385  0.3107565   0.13948214 -0.04676196
  0.30823168  0.09997095 -0.11893834 -0.21494906  0.01201689  0.39768746
  0.18483296 -0.08160853 -0.36580202  0.30632788 -0.09548726  0.14432895
 -0.37142217  0.20506749  0.15777569 -0.02742354 -0.13286902 -0.01012025
 -0.04351415  0.16172425 -0.09086308  0.03446198]
[-0.02345615 -0.02439012 -0.02657113 -0.22021538  0.02543776 -0.05347443
  0.189087   -0.24829952 -0.04854596  0.15909621 -0.29144698 -0.12773831
 -0.26919335 -0.09938807 -0.12064836  0.08402022  0.07510434 -0.03501932
  0.13622765 -0.15761857 -0.24012858  0.24548979  0.31252635 -0.07740419
 -0.02552778 -0.24273121  0.27016574  0.01725588  0.17192543 -0.02241426
 -0.14799769 -0.03837153 -0.1953311   0.16316944 -0.02469558  0.20574938
  0.00101546  0.20797262  0.08822803 -0.03546135]
[-0.5813837   0.32599363  0.06676634 -0.51479316  0.5465128   0.5286016
  0.72600293 -0.8957007   0.35360992 -0.32999957  0.18156452 -0.13209999
  0.66628915  0.20140825  0.3208096   0.48372102 -0.14611822 -0.16411595
 -0.05385502  0.19074957 -0.34541577 -0.8634843   1.1693662   0.02014265
 -0.5136021  -0.365      -0.50376076  0.2172142   0.18701711  0.18045655
 -0.00922115 -0.1934607   0.21605605 -0.37252516  0.8196268   0.12780923
  0.210343   -0.19923715  0.32202816 -0.40899533]
[ 0.05729074 -0.11270653  0.32518405  0.30971855  0.13439728  0.31316954
 -0.5384477   0.26023063 -0.0113637  -0.06092904 -0.42228726 -0.02294583
  0.09667119  0.0768567   0.20604447 -0.21989472  0.03452732 -0.18234417
  0.18157312 -0.12056077 -0.19370121  0.07783194 -0.44995502 -0.45171124
  0.77304184 -0.00476516 -0.03487101  0.05088307  0.27849275 -0.12364557
 -0.1011659   0.00331391 -0.4997023  -0.06841787 -0.04408122 -0.19000395
  0.23726456 -0.39501402  0.12554088  0.44103464]
[ 0.05882317 -0.06363773  0.05944927 -0.15664303 -0.2511451   0.02027016
 -0.01789079  0.18836764 -0.1646789  -0.24037786 -0.0548503  -0.09744643
  0.23620157 -0.05531193  0.23459175  0.03377255 -0.06704815 -0.037677
  0.15491006  0.1513689  -0.18696451  0.2457813  -0.20617938 -0.10131217
  0.05507826  0.37765732 -0.01142465 -0.19260305 -0.08135825  0.11789891
  0.2937119   0.0289023   0.18147607  0.20220347 -0.02973579 -0.02174168
 -0.02206169 -0.38277373  0.21485372  0.11989906]
[-0.26267034 -0.10450853  0.10454844  0.2633447  -0.00254184 -0.02596536
 -0.11993783 -0.13515566  0.10977852 -0.07955464 -0.15862034  0.23898062
  0.24356043  0.28934315  0.32155883 -0.16257857 -0.00115623  0.09563422
  0.273621   -0.23655063 -0.18152483  0.20902148  0.07135025  0.06301788
 -0.204839    0.25382152  0.07608658 -0.19902375 -0.06794017  0.25757045
  0.05244313 -0.20301035 -0.14176424  0.16597795  0.344032   -0.00522712
  0.19562297  0.06297572  0.16836803 -0.18863374]
[ 3.30026411e-02 -7.28435814e-04  1.05194375e-01 -5.24776019e-02
  1.12494342e-01  2.36030191e-01 -7.67199337e-01  4.62180316e-01
  3.20563540e-02 -7.40191638e-02  2.42228620e-02  1.39424041e-01
 -5.53033920e-03  4.55445424e-03  5.98254576e-02  1.39405206e-01
 -2.70872284e-02  2.40468234e-01  1.67090774e-01 -6.66455477e-02
  1.14831142e-02  6.80431724e-02 -1.83561325e-01  9.72102582e-02
 -5.37689507e-01 -9.43260491e-02  1.13257699e-01 -7.87006393e-02
 -3.19795012e-01 -1.32869229e-01 -9.47269350e-02 -3.14945681e-03
  1.60429314e-01 -1.59528315e-01 -7.16542363e-01  2.73880064e-01
 -6.63690120e-02 -7.70121515e-02 -8.33606571e-02 -5.44389561e-02]
[ 0.16257766 -0.46445253  0.07382948  0.42776227  0.1347     -0.12433538
 -0.15218164  0.19154975  0.07403086  0.0028608  -0.00809516 -0.18190612
  0.09362743 -0.30660895 -0.05648799 -0.19631612  0.28281635  0.01481814
 -0.01174984  0.00348584 -0.06033214  0.39065745  0.00906483 -0.31802118
 -0.27853918  0.13253984 -0.19673122 -0.03648808  0.33801624 -0.14094312
  0.08209934 -0.30578223 -0.40501222  0.0579486   0.03349413  0.20594196
  0.27766404  0.2909603   0.20656697 -0.44568965]
[-0.04118431 -0.14069314  0.03354384  0.31174707  0.00941323 -0.16559786
  0.16782765  0.04424085  0.16163951 -0.00201962 -0.16736448  0.14820383
  0.14576438  0.2121232   0.10019736  0.21086948 -0.09098118 -0.169073
 -0.09584428 -0.17880689 -0.31051978  0.01983815  0.20160325 -0.20502049
  0.1427827   0.36013958  0.0253604  -0.22177723  0.14278549 -0.12200666
  0.22453766 -0.14637062  0.085204    0.02329384  0.38697764  0.26656333
  0.36087897  0.22718804  0.02106463 -0.20079286]
[-0.2906739   0.15402631 -0.27276996  0.4041042  -0.01249764 -0.17949454
 -0.5754434   0.03371533  0.11355367 -0.3086465  -0.1382139   0.46757585
  0.15681937  0.22227044  0.09627387 -0.16572537  0.04593583 -0.04546028
 -0.14829734 -0.12552492 -0.05330647  0.03805407  0.14102168  0.20013425
 -0.21874306 -0.07334393  0.10094053  0.12800123  0.30450317 -0.23302141
  0.01267463 -0.21195191  0.11244281  0.03743808 -0.35433725 -0.20926236
  0.07784443  0.34686577  0.27279887 -0.16895618]
[ 0.26225027  0.05205029 -0.03198081  0.27953377 -0.12241749  0.16569422
  0.56395257 -0.23685904 -0.06750849  0.15645654 -0.33774233 -0.3447765
  0.15267073 -0.10746852  0.03328386  0.283342   -0.09321626  0.0587123
  0.16287349 -0.27939785  0.05151098  0.02627257 -0.06033752  0.12765047
  0.31167632  0.30108437 -0.21027236 -0.17530793  0.10697452 -0.2591855
 -0.20484245  0.02494592 -0.24091984 -0.03898723  0.36824763 -0.19515978
  0.19987592 -0.02773312 -0.18234666  0.13567075]
[ 0.32151455 -0.036492   -0.04912281 -0.11766674  0.17050967  0.19092047
  0.06710661 -0.03817426 -0.15637599  0.2464354  -0.26842752 -0.28685567
 -0.03493606 -0.37709543 -0.0300162  -0.26499438 -0.06755268  0.3523989
 -0.12321752  0.05476426  0.17203708 -0.12924325 -0.06415391 -0.05953893
 -0.04095671 -0.09990124  0.21566105  0.03896452 -0.02113771  0.02777538
 -0.27585262  0.01594055 -0.111576   -0.03768203 -0.09111173 -0.01997307
 -0.2400944   0.07398103 -0.21664569  0.05402192]
[-0.3502917  -0.6017903  -0.16916351  0.22878288  0.22416453 -0.07224858
 -0.16883339  0.15256129  0.32336536 -0.37526992  0.10926869 -0.01424848
  0.14150536  0.38933948 -0.09603762 -0.40988633  0.03810255  0.0597118
  0.02795558 -0.03762656 -0.2735073  -0.01053419  0.3464023  -0.3329556
 -0.38742772 -0.10367721 -0.38736638  0.04264319  0.03778031 -0.0011585
  0.32297295 -0.55816114 -0.53924215 -0.35738146  0.08909425 -0.0886417
 -0.23966034  0.36140567  0.60241896 -0.2948403 ]
[-0.2800134  -0.05635364  0.02775494  0.04273229  0.08858415 -0.01005663
 -0.15150638  0.09760275  0.40376994  0.12579302 -0.14699596  0.19959813
 -0.05230291  0.16751018 -0.26427835 -0.03819003 -0.06936803  0.08413815
  0.1681057  -0.22617039  0.12093317  0.09856644  0.04942625  0.03304494
 -0.5198076  -0.15947613  0.2448352  -0.29821444  0.01408566  0.10312132
 -0.126888    0.15483946 -0.28893614 -0.19659203 -0.29001445 -0.13787538
  0.08341654  0.06469609  0.03782929  0.00147164]
[ 0.16689824  0.13668342 -0.02250539 -0.06504082 -0.12121438  0.17127916
  0.10901751 -0.17743056 -0.3671332   0.03177398  0.04896649 -0.02976953
  0.05722143 -0.32766408  0.33693263  0.18091848  0.02742532  0.01354043
 -0.28292632 -0.19729298  0.23772313 -0.3251656  -0.373381    0.09299408
  0.3681908  -0.2982208   0.10717479 -0.26039776 -0.05583216  0.3609233
 -0.24374802  0.22037992  0.19817565  0.33904165  0.08636119 -0.13645083
 -0.09393135 -0.1808254  -0.23053065  0.44819567]
[-1.8913247e-01  1.7504845e-02  7.2316565e-03 -1.9058976e-01
 -1.8161315e-01  1.7702831e-01  1.8906255e-01 -3.6958915e-01
 -3.4765393e-01  9.5596127e-02  6.8618816e-01  2.8035474e-01
 -1.4847898e-01 -3.5498884e-01 -7.9145141e-02 -8.8245724e-05
 -3.7010482e-01 -4.3054721e-01  5.4448920e-01 -2.0923740e-01
 -1.5565044e-02 -2.8009430e-01 -2.6908240e-01  3.9094672e-01
 -6.9905895e-01 -2.8134987e-01  1.7243418e-01 -1.0531036e-02
 -4.8589659e-01 -7.4562252e-02 -2.5791761e-01  5.8148980e-01
  1.1054416e-01 -1.6491180e-02  2.5391546e-01 -2.8414047e-01
 -1.6745217e-01  3.4118104e-01 -2.5926229e-01  2.6728567e-02]
[ 0.11588936 -0.00068939 -0.2144927   0.10689639 -0.02108661 -0.16663219
  0.1377826   0.26930577  0.2147629   0.03546017 -0.17659023  0.07902116
  0.01326424  0.06155577 -0.35485372 -0.34768605 -0.04471901 -0.21700475
 -0.08934645  0.2721334  -0.16855271  0.27048728  0.12079591 -0.18192345
 -0.16981244  0.26935253 -0.09219956  0.05864221  0.04970847 -0.13377729
  0.05139369 -0.00777744 -0.21923608 -0.14272179  0.05039742  0.10868958
  0.36660144  0.370636    0.00423433 -0.30636185]
[ 0.09027939  0.03319537 -0.4236255   0.0823857   0.04752026  0.14992757
  0.260222    0.04967561 -0.06074346 -0.4034867  -0.10640576  0.17121089
  0.14878967  0.4116594  -0.02848786  0.09619672  0.13582349  0.31758213
 -0.18782228  0.14286192 -0.04152141  0.36724743  0.32510605 -0.2674541
 -0.19987783 -0.12498084 -0.01728     0.13506442  0.23925556  0.05757204
 -0.05776707 -0.15798892  0.3202368   0.1458454   0.36159146 -0.1581011
 -0.08526735 -0.12349968 -0.10994622 -0.11549598]
[-0.02853933  0.11462753  0.06036224 -0.03229087  0.07455632  0.12746379
 -0.15278748 -0.07361177  0.08548447 -0.03244735 -0.02852529  0.01761115
  0.13055444  0.13661237  0.19128436 -0.07410263  0.12023754  0.1243815
  0.00214108  0.05448687 -0.00201108 -0.15850213 -0.11015737 -0.03232366
  0.08792742 -0.09367807 -0.07018523  0.03446704  0.03590674  0.03175094
 -0.0184636  -0.03482899  0.01490037 -0.14744252 -0.14938055 -0.00754949
 -0.12255596 -0.00227404 -0.04262364  0.0942554 ]
layer 3 Activation
tanh
layer 4 Dense
40 20
[ 0.48008376 -0.37080345 -0.15674236  0.24555731  0.06969365 -0.02579354
  0.2818846   0.13026983  0.16512874 -0.14907953 -0.086039    0.20499924
  0.20604964  0.1507261  -0.278244   -0.0304185   0.07327225 -0.06573625
  0.12115528  0.26883352]
[ 0.31231955 -0.36078194 -0.00998836 -0.09084895 -0.3164648   0.25862274
  0.21562396  0.03535461  0.22656728 -0.30575463  0.07003827 -0.16800132
  0.11979748 -0.17503408  0.3322067  -0.155176   -0.13568804  0.07352071
  0.08528862 -0.18131247]
[ 0.20470315 -0.08363958  0.08982405 -0.03291117 -0.13836321  0.2771846
  0.23061176  0.00479727  0.18765527  0.0680197   0.07215834  0.31569546
 -0.11113282  0.1919399  -0.02104429 -0.18358472 -0.08642758  0.03805025
  0.3179815  -0.12190156]
[-0.1932805  -0.09464697  0.18922222  0.06569448 -0.06065556 -0.24311233
  0.18263547  0.11227807  0.03090692 -0.33270788 -0.02782243  0.10023682
 -0.00795114  0.30868238 -0.2439618   0.08790036  0.11649245 -0.22678858
 -0.25239253 -0.11633979]
[ 0.00153318 -0.08865633 -0.06223395  0.0704281   0.2356896  -0.13810083
 -0.19109944 -0.16635963  0.25653383  0.04100464  0.28244057  0.24743982
 -0.25568488  0.05618374  0.2228805   0.19688122  0.00380109 -0.17104226
 -0.16516662  0.256961  ]
[ 0.27402258  0.10121498 -0.07332236  0.25648853 -0.23458512 -0.01063946
  0.03849512 -0.14251965  0.17331932 -0.2768946   0.09215184  0.17406479
 -0.1165935  -0.17849801  0.3060143  -0.10488646  0.20443834  0.04583643
 -0.04460245 -0.23631063]
[-0.12004011  0.12590972 -0.34681267 -0.14577775 -0.20799735  0.2981964
 -0.3354018   0.07945949 -0.03769728  0.01667973 -0.29284376  0.16379061
  0.351002   -0.28535047 -0.1300521   0.04669413 -0.21875197 -0.24482471
 -0.01069241 -0.00691235]
[-0.07106096  0.06445076 -0.12632042 -0.03316991  0.41465238 -0.40481737
  0.19409572 -0.16443336 -0.07038215  0.05036623 -0.20589337 -0.23468368
 -0.06695434  0.0386981  -0.43292075  0.3749039  -0.12632704  0.06889073
  0.22277139  0.31754965]
[-0.07429676  0.10934339  0.39518857 -0.14751549  0.17501955 -0.19718596
 -0.16867451 -0.03971364 -0.13343583  0.30501956 -0.02730101  0.14520203
 -0.18712871  0.30393636  0.10164802  0.05698478  0.29234642 -0.26593003
 -0.18484093 -0.14236946]
[ 0.01503773 -0.05876312 -0.11983109  0.15338553 -0.13252637  0.16690153
  0.11652319 -0.01035301  0.28551403  0.06556603 -0.16828127 -0.26873982
  0.06069726 -0.12101673 -0.14942576  0.06504579  0.0511387  -0.01015496
  0.06228676  0.22515336]
[-0.31238872 -0.16447167  0.02008508  0.26089153 -0.37429646  0.02001859
  0.07946683  0.20051904 -0.12671196  0.12107494 -0.2316255   0.22353363
  0.27494073  0.10075317  0.25798672 -0.05394688 -0.293832    0.1439807
 -0.2245815  -0.12471733]
[-0.2397601  -0.06686152 -0.23726009 -0.2644329  -0.02256303 -0.09519526
  0.21847667 -0.00131046 -0.19007748 -0.00904425 -0.07923631  0.1991324
  0.03097278  0.1822229   0.06404059 -0.12960166  0.19097869 -0.10064329
 -0.12512517  0.0960606 ]
[ 0.18794106  0.12138486 -0.15820283  0.11756746 -0.07494499  0.09230857
  0.1487343   0.08919215  0.22363843 -0.11223684  0.2544324   0.10442851
 -0.12271507 -0.01921366  0.0972456   0.45567676 -0.17894143  0.13513963
 -0.30444637  0.18870963]
[ 0.04513542  0.21429381 -0.2101647  -0.03734994 -0.12617172 -0.32357726
  0.04655106 -0.07167961 -0.1992334   0.17853738  0.2627988   0.14771688
 -0.05757578 -0.15961188  0.34072772  0.05659106  0.12071764 -0.1458565
 -0.2535232   0.14517859]
[ 0.13776867 -0.20401616  0.02849209 -0.28049108 -0.5063961  -0.12385767
 -0.01754949  0.08079498  0.07152129  0.20907034  0.35324243 -0.14228627
 -0.06414904 -0.08638228  0.41643894  0.0921461   0.13454965 -0.2792827
  0.20261604 -0.10638521]
[ 0.35641468  0.17914693  0.10200089 -0.12982953 -0.20057005  0.20197372
 -0.38101482  0.06693026 -0.13166116 -0.10229925 -0.16603354 -0.15662658
  0.11278477  0.01843318 -0.01913743 -0.18274781  0.26250613 -0.06787942
 -0.1517427   0.10746327]
[-0.14513642  0.06085771 -0.09843257 -0.07607108 -0.20100132 -0.25701982
  0.03351954 -0.00347137  0.28090358  0.2408371  -0.06945084  0.03895668
 -0.19321632  0.2161947   0.1605588   0.11431822  0.14176877  0.05527209
  0.29468775  0.2666449 ]
[ 0.14294775 -0.32552803  0.01840399 -0.3201596   0.1787553  -0.30821794
 -0.11916663 -0.07362121  0.0380546   0.3142146   0.12435363 -0.1017186
  0.08533639 -0.19353767  0.14184687  0.01170506 -0.07562353  0.29311833
 -0.00413651  0.23475519]
[-0.11997763 -0.12271971 -0.13503031  0.01478324 -0.2442232  -0.2278278
  0.2540108  -0.17199701  0.18113342 -0.03161536 -0.26190743  0.28161383
  0.27471486 -0.11766533  0.09253324 -0.02215916 -0.06627239 -0.0851621
 -0.15540811  0.17402469]
[ 0.08050841  0.14174607 -0.10805576  0.07504975 -0.2325296  -0.17444429
 -0.05913855  0.04762335  0.22217828 -0.04247194  0.03380905 -0.04953326
 -0.04600745 -0.0302224   0.16676363  0.20699915 -0.26419428 -0.13994204
 -0.00093849  0.00134698]
[-0.03289267  0.03531148 -0.12861148 -0.01140204 -0.04994883  0.14726117
  0.05865267 -0.11436921  0.22066359 -0.10659002 -0.2666628  -0.23553537
 -0.02866286 -0.13080485  0.08968883  0.07843786  0.18188894 -0.11900715
  0.41441834  0.14097293]
[-0.2724943  -0.23711684  0.13669385  0.05088783 -0.02062438 -0.52409774
 -0.13319097  0.04481811 -0.34150416 -0.18143912 -0.11710674 -0.25441098
  0.18363178  0.3269718  -0.11532118 -0.2978734  -0.14834842 -0.04751139
  0.26413605  0.06855793]
[ 0.09593877 -0.3656873   0.19795634  0.13177018  0.05249281  0.28540617
 -0.24800192  0.206978   -0.15664624 -0.04443433  0.10848809  0.16429043
 -0.27541423  0.24290316  0.22586566  0.17450167 -0.21821207 -0.04358603
 -0.4155063   0.20015642]
[-0.32460636 -0.02176348  0.14847502 -0.12197693  0.03987368  0.14752397
  0.04871677  0.19670582 -0.19294615 -0.13948965 -0.05185061 -0.05762274
  0.04551344 -0.10375068  0.42050615  0.1340017   0.308427   -0.22514896
  0.29776037  0.1047078 ]
[ 0.4760341  -0.0817457  -0.06931169 -0.14298265 -0.02167957  0.02401895
  0.4482145   0.01814556  0.05285057 -0.1215167   0.53053564  0.14616512
 -0.2263484  -0.28277174 -0.28617373  0.07231444 -0.12863205 -0.2481795
  0.4511795  -0.17413285]
[-0.24755813 -0.08783119 -0.12050331  0.06938141  0.08316781  0.0013562
 -0.27374932 -0.07983817 -0.22127499  0.21423408  0.24880679 -0.20288095
  0.08403997  0.21755975 -0.3957712  -0.10114198  0.02535701  0.06872909
  0.03887129 -0.14176115]
[ 0.13789813 -0.16110452 -0.20534474  0.13647987 -0.0972728   0.10316651
  0.430291   -0.23766334 -0.2365903   0.15251465 -0.2998658   0.02277162
  0.13478233  0.21296133 -0.04896222 -0.04189479 -0.27153423  0.15101263
 -0.00721563 -0.0265929 ]
[-0.12035871 -0.02029129  0.10585956  0.13907935  0.191927   -0.18130171
  0.18209405  0.1558693   0.24414718  0.1233807   0.18272063 -0.01618502
  0.12431362 -0.44697893  0.18353942  0.24734761  0.08259447  0.3064233
 -0.11832612  0.20040202]
[ 0.12018058 -0.04500887  0.17784676 -0.14105299  0.04614307 -0.12556426
 -0.31453487  0.17349687 -0.00087473 -0.07799594  0.33244166  0.01948369
  0.03933328 -0.05896146 -0.13927455  0.04174111  0.1180023   0.23885
  0.00700699 -0.12838127]
[ 0.36394638 -0.12578319 -0.008576    0.276834   -0.13546118  0.18509464
 -0.07328675  0.08780424 -0.13636626  0.04575168 -0.08793994 -0.02218344
 -0.13447985 -0.158909    0.292818    0.23104087  0.17277431  0.01409169
  0.20893991  0.19778433]
[ 0.14760426  0.23937136 -0.10563585 -0.12058097  0.31545752 -0.02925266
  0.12122983  0.21077861 -0.01960212  0.30284703 -0.24290475  0.23215297
 -0.3036224   0.18040998 -0.212617    0.03218637  0.15508196 -0.11028907
 -0.33278754 -0.05508504]
[-0.14135937 -0.16428503  0.165637    0.10572432 -0.00456325  0.1020344
  0.21552093 -0.12696026 -0.19643892  0.08053378 -0.17849486 -0.01111452
  0.27883568 -0.25877634  0.14342873 -0.27945548 -0.13438258  0.2831592
  0.35077825  0.2887018 ]
[ 0.27689236 -0.292731   -0.09089921 -0.09987183 -0.55423474 -0.04267467
 -0.02603642 -0.12929387 -0.18328574  0.09447522 -0.29106656 -0.03957346
  0.17674197  0.1891776   0.14937225  0.0202478   0.02482864  0.2856693
 -0.0165998   0.17182794]
[ 0.18408424 -0.08770715  0.08226397  0.01681546 -0.16454211 -0.02218259
 -0.09441378 -0.1469028  -0.14312303  0.12458166  0.04963426 -0.11287645
  0.26322132 -0.1304037  -0.27442092  0.05948178  0.16312815  0.08234425
  0.11700981  0.00412656]
[-0.28800005 -0.32587668 -0.34468362 -0.04761118 -0.00062017  0.28279737
 -0.29144007 -0.15603378 -0.23416895 -0.26599643  0.13912886  0.27274296
  0.06404837 -0.13798417  0.1969703  -0.17282963  0.08551234  0.08119551
 -0.08421315  0.2644939 ]
[-0.16119038  0.3104092  -0.20454952  0.12749957  0.03021636  0.04962322
  0.11379762 -0.24218646  0.28007132  0.23568615 -0.03146473 -0.02407686
 -0.134056    0.08696634 -0.1400252  -0.08050648  0.12201954  0.19128793
 -0.07255574 -0.03408046]
[-0.34600657  0.16598499  0.06165715 -0.03646906 -0.02022123  0.1052872
 -0.23117495 -0.0244119  -0.23114263  0.00239796  0.38091898  0.09470045
 -0.03609923  0.1171439  -0.11944762  0.26891786  0.23106763 -0.00411273
  0.09727012  0.3279731 ]
[-0.2688738   0.33415487 -0.00548809 -0.02775458  0.1703095   0.03529901
  0.22895633  0.00636205  0.23166156 -0.18516585 -0.41109407  0.24825633
 -0.19048834  0.3258388  -0.07162484 -0.11026396  0.20887163 -0.01539345
 -0.19037499 -0.01012389]
[-0.18306008 -0.07692719 -0.25652725 -0.29718107  0.09828007 -0.19862892
 -0.10850137 -0.09833401  0.13367723  0.22772266 -0.02076017 -0.02284761
 -0.39997327  0.12848069  0.21714368  0.14115904 -0.10047344  0.05364223
 -0.13257281  0.19898789]
[ 0.27065104 -0.01393372 -0.23283632 -0.15466157 -0.39212483  0.07894006
  0.18353966 -0.10686835 -0.01954208  0.17399967  0.15887225 -0.3494953
  0.16416591  0.05782828 -0.0909958  -0.05583502  0.15251966 -0.1965162
  0.01441654  0.24528663]
[ 0.11492222  0.01245487  0.0660934  -0.03153448 -0.15619181 -0.07654601
  0.10530668 -0.02483983  0.03765054  0.01950557  0.08026312 -0.00879775
 -0.06891283  0.04961316  0.103861    0.01618096 -0.01519235  0.01752109
  0.09869739  0.02683724]
layer 5 Activation
tanh
layer 6 Dense
20 1
[0.09248503]
[-0.00971309]
[0.00027277]
[-0.0080251]
[0.00342066]
[-0.12687653]
[0.07204796]
[0.04477929]
[-0.02717228]
[-0.01164388]
[0.07282499]
[-0.0478914]
[-0.1194328]
[-0.00869084]
[-0.0975907]
[0.00773243]
[0.00175353]
[0.01385523]
[0.08915779]
[-0.00070845]
[-0.00426747]
