layers 7
layer 0 Dense
20 20
[ 0.027902890231068872 0.0650259453595562 -0.34632327855498085 0.035565316016861 -0.03530935928305454 0.17647238629594844 -0.5819101681915644 -0.2844838334016084 0.11040284698564409 0.0668519937054865 0.23041998681809842 0.2468447251186428 0.35740580409629286 -0.09181258967536016 0.22796343888197956 -0.03256813783855741 -0.2467235883532493 -0.12446163413941409 -0.49546076097066166 -0.6390167812598819 ]
[ 0.14205803771200345 0.2625643618794784 0.30192173114464677 0.3596270804787461 -0.316616068590245 -0.32154442200640304 0.3805164311424514 -0.11539570782738241 -0.1316921717114657 0.0899381351560303 0.19190456411948936 -0.3327217164607481 0.05313958864353286 -0.14253206510842492 -0.09988819817643597 -0.028443774328915403 0.22377073339124515 0.010663874095078357 0.27408197679661456 -0.18259080923351367 ]
[ -0.10744446168534591 0.35578663579533026 0.060636646254971116 -0.10321311264159083 -0.05410241066694477 -0.15667211286084698 -0.09908238534279358 0.02224561542859159 0.27074498949162606 0.28748878362201247 0.1155022494508941 0.23167527825914652 -0.3599671662074389 -0.28169463833664066 -0.2486508656828285 -0.286831506597389 0.18532089814365346 -0.1595935434994708 -0.14196658153563088 -0.11715033363589905 ]
[ -0.05815922741998785 0.1907159892203143 -0.010899768889488041 0.4158489599045105 0.4639148809463528 0.08162903616759971 0.04488000214918741 -0.19099788011476604 -0.2783314077461117 -0.39885347879912136 -0.31235549796391393 -0.15416563334373515 0.4455069045545312 0.24159019970796453 0.8087957213514242 -0.06721021934975603 -0.4928635206647439 0.3951641994220202 -0.6169636453421782 -0.33702186629621855 ]
[ 0.013460035300545764 0.053765023874112326 0.5088773989052205 0.41954153177222686 -0.379706383262924 0.06103866284896186 0.2292276784480073 -0.45304811473639345 0.19780162919570543 0.236994766694676 -0.27987898386303106 -0.7674398747237662 0.3246150150279138 -0.10095678129385628 0.10376379910100142 0.21075694710160198 0.2968994763204666 -0.06615441593241023 -0.45730308321555335 -0.6711325147263668 ]
[ 0.2541850482149232 0.3083125225637666 0.3199102013536102 0.29347727225549386 0.19183454133963398 0.1759003473111833 -0.3474145960187159 -0.28170102975454564 -0.17130068250148298 0.07966174432285403 -0.26328285534981954 0.23501963167862666 -0.3061317255557342 -0.2544016593801791 0.13549753833784609 0.3617454034718858 0.3284566711257334 -0.1964465455228131 0.02783499971143027 -0.27597512216539777 ]
[ 0.025860699621320107 0.04857007589136303 -0.1951431282551359 0.38485458196710465 0.04207583283400079 0.1422271486523161 0.14644167910122416 -0.022134634722984894 -0.2269406400006182 -0.2067376934416339 -0.34182105215303416 -0.15421543545808747 -0.30991009647161394 -0.03845525321590531 -0.38591379805423875 -0.2439824202837947 -0.05396407049014423 0.19758575475064458 -0.22145253954135202 -0.16154720058855396 ]
[ 0.31930074514618956 -0.5185343520454909 -0.17929640613594802 -0.25953706002635457 -0.5209500278228284 0.4798402751113987 0.1165762924756262 0.07819392585687598 -0.08422462268592194 -0.2509619572219425 -0.19637629426603953 0.18100206615155454 -0.4182665920591165 0.1378445335139856 -0.7846269640050229 -0.31306873724957646 -0.42630848195780985 0.2565306905664278 0.416397081629125 0.25597202809809816 ]
[ 0.23462416423916285 0.21522419277012464 -0.5806850341087383 -0.03942515466980321 -0.7201123420675306 -0.231890647776232 0.1505974994203521 0.006130716040263128 -0.21009579774270778 -0.12385721525440856 -0.018238680349445008 0.3296474519696878 0.5069734207407681 0.02652646932874561 0.22323560257257458 0.44775805824090653 0.9224008409753578 -0.36173486320134557 0.35144441000783255 -0.32072162289659567 ]
[ 0.16340219913341833 0.41147735575851535 0.6078355693463559 -0.3085591315466401 0.14073052702360617 0.527241354935546 0.0007144371280561781 -0.3575821380233954 -0.0999026330435455 -0.0466146706919308 0.4333982963903352 0.0210645165815843 -0.2917414975198859 -0.1448073116447638 -0.15489853690249175 0.10143196817680634 -0.07864134915979676 -0.34231888049928416 0.15549364526574871 0.04200734733395544 ]
[ 0.5970906784462954 0.014439274508261622 0.06561414621521672 -0.1277646109620534 0.20288464953216243 -0.001360336941177519 0.14138911746087038 -0.2267992349798464 0.4996541986049297 -0.6460191381789849 -0.21822339683153752 0.059123635078851336 -0.15915486651964475 0.1839112544649209 -0.23896585832097567 0.41365062173014816 -0.2910148843833304 0.04953109162126032 0.052901037232377254 -0.2818702532790936 ]
[ 0.3544325051869113 0.017520865819524556 -0.375359061878699 0.15244661457697656 -0.5965021339464195 -0.20404216105118814 0.07288583737249699 -0.5880806087951798 -0.4473072078022575 0.07912721785868931 0.2791655564254937 -1.1216927685752658 -0.6115061841960915 -0.6143448327447089 -0.33687293835290744 -0.027966934288401153 0.7362194515698783 0.44806912369164414 0.5608090284823265 0.0514958751161189 ]
[ -0.02693041546775691 1.078807020625371 0.44900691152615346 0.2414106510006067 0.43853999279883915 -0.034678315938164936 0.2153513922950137 -0.2608843928648567 0.04914365248092599 -0.07225936069614801 -0.564090749107227 -0.07734967037023653 0.6917028781021514 -0.3731466685001222 0.2893382837562395 -0.03003865758471228 -1.3353007967000612 0.027135026414025848 0.27448380443382037 -0.3188601272675266 ]
[ -1.0882751910358703 0.1328663298034179 -1.260255533283848 -0.11020042167533015 0.14918673808452887 -1.5871259247743756 0.7018924085747692 -0.9084153922386201 1.045186146761953 0.8805013316039042 -0.2739410921036373 0.6268001580915338 -0.2515877395448119 0.39545633660161394 -0.14191095557011005 0.45752855524590613 -0.12691972349919506 -0.3034858947299321 0.12294434631868305 0.01476791361820372 ]
[ -1.2281720072540163 0.012009719329524158 -0.04744133045724188 -0.5270786064129859 0.254602626933126 0.21324018479157297 -0.5295886882658694 -0.5368723753200889 -0.5845473856696232 0.9617009748577392 0.7318916793517963 0.13833513145114254 0.19230036855562802 -0.5750855802566086 -0.0408870204573688 -0.5186670144178673 0.30539299601468467 0.9493562639576554 0.20674724764653055 -0.3084859163113216 ]
[ -0.9107282866002431 -0.5026500616512071 -0.8907189622769986 -0.5088935509142273 -0.26218666390513423 0.9395119427137255 0.3067620926814137 -0.5186138433567682 0.7508869387549811 -0.7295137488283636 0.2581347326761615 -0.5685660664883438 -0.880406502225526 0.11058995276970546 -1.077517353144904 -0.007172960742030477 -2.270878920768269 -0.2797606595514209 0.6595467528312482 0.6389403770531437 ]
[ 0.06725067189375425 -0.24943321854819772 0.44865835671786103 0.19737195963263796 -0.10417512542451501 -0.3624643619319776 -0.0916660797063201 -0.7320226325419912 0.25335796704757557 -0.04534699049662849 -0.0663354113424238 -1.073056571654344 0.3030802609724971 0.23905901429767049 -0.055658949226676 0.02484411454146487 -0.30899733361505266 -0.16896453972941725 0.057876479911836504 -0.4229870779801345 ]
[ 0.501152174284082 -0.9452910337645021 0.12602028715296476 -0.48969176916790236 -0.2559535825273073 0.6091615733072069 0.03109229152937754 0.6157715945818272 -0.5710509701356214 -0.6442007907013175 -0.019498896553004602 -0.4255653320163961 0.4418215199826633 -0.009760159540711928 -0.1581671172360304 0.1038540497860212 0.013210128192982718 -0.0527049968895955 0.094728686961541 -0.33884849530923433 ]
[ 0.7356021341232157 0.23697935348623422 -0.7133998917383335 0.09756719678790413 -0.617240147529907 -0.3619253373739102 -0.023687856843845206 0.36828314141820795 0.6747845906429641 -1.1496687450244722 -0.6721325515309395 -0.7138582061774296 0.18658451925850064 0.6561601561070913 -0.056571624247223264 0.8854443289493013 0.3785549176001362 -0.5492693686982141 0.09440035561384573 0.33158078921039114 ]
[ 0.5040601116919374 0.5180014423561947 0.04584317905794525 0.347956121502718 -0.06830962252463388 -0.6610893590803825 0.13825550576174245 0.9775841865814352 -0.6694521041788805 0.5573040664606576 -0.2968822882681579 1.4621216992590276 0.7783733493840077 -0.036420887526521145 0.5404674115284945 -0.0986039464667459 0.5060232929296736 0.06180843599350307 -0.4331930574617428 -0.6966768132568457 ]
[ -0.09830553892214226 0.007781815924680445 -0.16363630218663552 0.02176145014154302 0.6699103297290848 -0.010180653691025048 -0.15931233693224067 0.07098995586935418 -0.09793648728512427 -0.1015245514555934 0.13936618690184338 0.1771229063016721 -0.057662167585291704 -0.020611814447868776 0.3913509432361554 -0.023521447053212397 0.0063822408330308335 0.08578922244680144 -0.4222966860784192 -0.07831733582580189 ]
layer 1 Activation
tanh
layer 2 Dense
20 40
[ -0.14633100321466044 0.5504778860051758 1.186566849156335 0.2450704258980173 0.6067085181618569 -1.0390864404269482 0.216231671037058 0.0429632357436459 0.04249320683161336 0.2211143600220453 -0.6404173843939217 -0.23356260870617448 -0.40030236527967433 -0.23366012782134277 0.2651382278741395 -0.10655283911059446 0.3640902032498099 -0.08013611793210595 -0.3227395421539982 -0.09755571375526428 -0.7798892619113021 -0.10256766578271254 -0.05692624227842147 0.3817554802263825 0.12977065752217368 -0.6209148772902413 -0.074608235647202 0.5239193413404315 0.11484028993455841 -0.4174909724213859 -0.024445521418684116 -0.5012535669247937 -0.31862603382585736 1.6580494197782474 0.6466276045121243 -0.7428942659754628 -0.19549451880441174 0.21392446600198722 -0.22216082887176591 0.9984999992801706 ]
[ -0.31799681404888863 0.21295992959392523 0.5969241727170314 0.11491066459972872 0.3203060375226043 -0.5163849882495705 0.2753972163614953 0.3864487847690798 -0.42079399199361367 0.22668880568815233 0.10094980567869144 -0.42087676978729405 -0.22079602748469662 0.14527561853289297 0.38712537612650866 0.19405542723271724 0.05858081832773763 -0.5770456430723049 0.17117984160309593 -0.8311943409236618 0.2502520950153138 0.1377690091965738 -0.3387357733772913 0.35975270838712503 -0.16667764475181124 -0.317125923569358 -0.21685079022350648 0.26965142677942444 -0.20013080059873467 0.19896739004121164 0.1765690514000921 -0.46989760416231663 -0.5086759971633495 0.1665953783146767 0.26813338819641336 -0.01689182091992581 0.021445873269206977 0.12444205525285638 -0.0020335481960701562 0.23142985206934147 ]
[ -0.17037217050501552 0.06833726089336588 -0.14057560050211423 -0.33839278935892303 0.3418528870601445 -0.2053600473556406 -0.32054315049811216 0.2676675977915782 0.4228839888863143 0.05917311271033378 -0.4136494792101887 -0.49007043268677164 -0.20186377420986987 0.426047699516085 0.45214072151175966 0.2553709027215504 0.32336602082526433 0.6045032434892845 0.14985922500597482 -0.4307585141694024 -0.038072186695665124 0.3748857708961353 0.3913517062148118 0.7604483686467656 0.041517090225537796 -0.03973678726664795 -0.2962379813372989 -0.27399324123346835 0.3074871048938907 -0.41067152929089024 0.09534257104196187 -0.4755419268389063 -0.45101812425675436 0.24580291079715075 0.06432871872684803 -0.5856125786758493 -0.23593070634519517 -0.007316583612565171 -0.16269743702777295 -0.4710722171249209 ]
[ 0.12261271891211542 0.10830209349076536 0.054950410807287776 -0.0020995047995996103 0.15702182402735604 -0.13098651970770808 -0.07364183027933968 -0.1233429473662031 -0.16487709931225297 0.05234516793882948 0.33946084148985617 0.3003227021705588 -0.31062773042747943 0.20644526086428094 -0.10552279332545822 0.3089244574908887 -0.21319625932962402 -0.32795604071651985 -0.03366810719560354 -0.0277138466849291 0.18534285113929433 0.08100251283694378 -0.27863866301974255 -0.16325730122187002 0.4680214865174832 -0.21034239662969462 -0.030677893639087368 0.2499097178164659 0.10066607828606773 0.016924074122303946 0.15151491753066262 0.05621834625843601 -0.2077856314989615 0.21489032233086666 -0.023683248027015612 -0.18677641216837793 -0.11224460398572679 -0.027218569370589016 -0.18950998324104054 -0.33854183604256727 ]
[ -0.3427635760306991 0.13281186344127077 -0.1398643729366611 0.41382984087866087 0.3266230213754063 -0.07798630307178575 -0.022649858062575294 0.0022619164921449074 0.08446589025950167 0.13862289070197828 -0.521388945640692 -0.0642520002303964 0.0452470469184791 0.3413457832267837 -0.016087814496202505 0.2646396138585854 -0.26266224529599996 0.03784050455477856 -0.2222502141195956 -0.5462268746096198 0.12135908590290873 0.34384611102867735 -0.07438679170214588 0.14237709040177005 -0.01563703263302651 -0.20238829297548597 0.06333852075631895 0.22295081461837893 -0.055600695025214045 -0.09819449055666775 -0.23105757356213708 -0.3919552101760083 0.08181816435896677 -0.5556785243458979 -0.4447828929968634 -0.27695591384643975 -0.4029607352881034 -0.35649259326881166 0.2745572530875666 -0.37549890161291727 ]
[ 0.5732332596886464 -0.3346006066384561 0.1413769761055995 0.18376259564816627 -0.6457778894331451 0.552579604915077 -0.20285502991233553 -0.32044492791846185 0.7469387005345088 -0.14044687363279987 -0.895771040503123 -0.13462535570041087 0.63908176091492 -0.003210787593960847 -0.26574709420977 0.2422958197381775 0.3677588386797632 -0.3858909858190653 0.057401058868094816 0.5855451620384774 0.34054539702243725 -0.3580717711654966 -0.10263512883827015 0.44617693678378884 0.07820117160553382 0.13036235003145596 0.2603874127201872 -1.1793608737495365 -0.2011706811803477 -0.5556015252321042 -0.2266146787441697 0.06632177487811669 -0.313113110695769 -0.5106523640318401 0.2790601365460667 0.2816783690973922 0.5183220588208616 0.27585148544603566 -0.04939829354689907 -0.45002718484703735 ]
[ 0.16364945810089845 -0.16746041931828787 -0.310907740393153 -0.11033713674324228 0.012232228847520756 0.25045545081080156 0.23744188595362692 -0.3211494439128603 -0.25463809275487675 -0.2336435567099258 -0.11996717223548903 0.2574917894143458 0.10236622126111042 0.02026363238330094 -0.08410621159523886 0.18783623360585014 -0.07031959742626613 0.0852994148638533 0.01736091831111677 0.23745340200474782 -0.8517751678941173 0.17903452875293527 -0.03179065765768548 0.04454111320301412 -0.22586832842166352 0.4136729464288452 0.14237238656144055 0.44618736796076486 0.2710953217874949 0.06598386829392283 0.010814028263267295 0.13524490956803886 -0.10334712358160052 0.43213121201917626 0.0038146640135793206 -0.00041205175910848297 -0.23523117856435014 0.24655183047143125 0.2735709055193317 0.3011430661696551 ]
[ 0.0055074625993728026 -0.0476339144532593 0.1925009745734152 -0.08446398020327672 0.16319060664014043 -0.028389860833454787 0.4173691719568995 0.3104286400154774 0.09060052932050662 -0.2699032229898543 0.09073330098068445 -0.018169381200970048 -0.075579851295521 -0.40743503687204674 -0.015684920926639877 -0.35641592937443917 0.22453602321393742 0.21558878365646403 0.29615706084735005 -0.3139308417090108 0.10951132947115476 0.19632615072094478 0.06525837396319345 0.043621999097595184 0.21203354879562772 -0.23724849632887132 -0.056894430530434956 -0.02113689070153688 -0.17337233033100874 0.08345196705910171 -0.2684966808597834 -0.366094185386468 -0.1450830390038419 0.2300356630922088 0.2782068441329958 -0.2460440792878868 -0.14132730372561433 0.18531870999342645 -0.0780041484313148 0.05469854937677803 ]
[ -0.08522444029463977 -0.14021630663480758 0.24603287551734823 0.052379610602895386 -0.05653228223071816 0.3669404334943582 0.22757199554518145 -0.1577817323581916 -0.13169690369873446 0.6342030956017642 -0.11435934737332422 0.6717763894348835 -0.2710566601866682 -0.042169376472588546 -0.1337272800453099 -0.0744238301107168 -0.6842654053109323 -0.8445345712335552 -0.43874510230204994 0.5944303874408043 -0.34548685468089907 -0.21790043757269797 -0.73879896764905 -0.8683117664017974 -0.11074322235682994 0.009713050548343965 -0.13100470189834382 0.7067303076264283 0.31077886523538445 0.5864448269386883 0.005305539904709407 0.5185522016430171 0.5529139559676132 0.06626653225286701 0.05242866494842043 0.6909111836927918 -0.3712313224805347 -0.2536392053801488 -0.12592554623156574 0.293454792108598 ]
[ -0.4621070584788065 -0.36685021974272336 -0.021979921499165247 -0.2817031196762521 0.24298187197308604 0.492407093372685 0.3649325296364639 -0.33621486475556744 -0.6608726112002538 -0.32637597801029433 0.9302602900454419 -0.40600271866760396 0.15804899199493713 -0.06511112918223613 -0.18449872117404226 0.005717708659488737 0.011873690884569302 0.7164476667615549 0.25692414084521276 -0.638301408563487 0.03410732008579633 0.3546546357491756 1.0661261279044238 0.6196286357707239 -0.23309698928117803 -0.33643980455525574 0.05147784450846232 0.3844512196617992 0.038021900742792374 0.25207493198594605 -0.08973731381353378 -0.3940275956408243 -0.13856046648952045 -0.1933577837927056 0.32836711724577156 0.039420443804032396 -0.5401125911534803 0.2751561957983333 0.2393924317351033 -0.26671294866528555 ]
[ -0.15708217115983983 -0.11945487173529969 0.3061133373353345 0.10279609765889466 0.22815924081901273 0.3886219507322033 -0.22294535604883461 -0.23511648494469226 0.31735332441353764 -0.012121636871110474 0.41664723216865873 -0.08261018513627574 0.35336591968699566 0.040060770963610486 0.22935350369941132 -0.18316312360028827 -0.14334854255697654 -0.05143707734075895 0.16947363004410557 -0.050693267622680394 0.6767013182463407 -0.1933509087425726 0.4479084314156948 0.13374464351930912 0.20709331842253273 -0.17712966422016296 -0.1377204779434095 -0.18452739123751066 0.23160625340887234 0.1970982341990697 -0.11632030313016967 0.14244472191667462 -0.522173667651034 -0.9593594858292944 -0.10595466181404464 -0.2711987269763869 0.20594891425285577 -0.3481468881725499 -0.09894868559138799 -0.12967488630871238 ]
[ -0.20651997400421648 -0.04771640194849287 0.2740603454603191 0.009226575925855355 0.4161768860633599 -0.27416374828793433 0.3407847972851141 0.03440672479826558 -0.4152139505246503 -0.24244133020893416 -0.09373234759064779 -0.06962531475865041 -0.4547838828295369 0.1879147291328482 -0.01650399834341874 -0.2454005179085129 0.2953764270490274 0.4940423790682636 0.4729940787553623 -0.2679957753411525 -0.10431164918831906 0.44586073289462846 0.5908214464197539 0.3715807794801532 0.18734798214121928 -0.014589000315699069 -0.1777157777146642 -0.059385529969095956 0.11286477125711321 -0.07079203468064466 -0.029911074529648356 -0.25938756295202225 0.2454513213088439 0.13567632603814406 -0.327935227585183 -0.27276015217406546 -0.6497310949608791 -0.03596307198834365 0.16140455814506932 0.3658050882444323 ]
[ -0.4380634810360742 0.32892585270320385 -0.24811237129875766 0.17562323270017613 0.7221704853559249 -0.488522871023124 -0.17704607127734062 0.37834302242639845 -0.029455121526956687 -0.08291403156037111 -0.5989342169331229 -0.6986531725867248 -0.30130570831959613 0.5325643760085471 0.2438397443553561 0.23368621082428578 0.43268910561045854 0.5832641459597859 0.1575224609781401 -0.6298159165207027 0.18110164138319504 0.5722266753273779 0.35966914828194113 0.884040273283321 0.1983773120060269 -0.271352089372245 -0.10037966541752734 0.18422588598396533 -0.08903373455720216 -0.2215429187741882 0.19048272725438498 -0.7078412805908608 -0.4054433426354648 -0.1162955352880153 -0.11688686546634142 -0.7106418010134631 -0.35981268340391515 -0.31632032920404396 -0.004132522498379739 0.2868407656464553 ]
[ 0.25878297614964296 0.05964700375254159 0.07482612166291715 0.30214424559260317 0.22185734596873263 -0.14322856106769014 -0.08860987702826928 -0.3043896586630054 -0.3176842387744695 0.3376770218328821 0.16486157627337616 0.03492636306825857 -0.2841807041542591 -0.19961503222397659 0.11155617432223551 -0.24973184964546788 -0.7323708839857115 -0.2746388652945808 -0.16685306109597411 0.13964861577107984 0.004709862370948902 0.2392874150666654 -0.2812447961476892 -0.3003816827084758 0.15673411491882563 0.20716823383541313 0.06615667399004456 0.2075530624306003 0.006223159781761825 0.17664064675777882 0.22574481431477128 -0.1268950183343276 0.21518542153570205 0.1713022827939282 -0.024967936828522653 0.2146975169081135 0.14624811528393702 -0.09335953642513857 -0.10818204390120943 0.2418835262411989 ]
[ -0.5722632769752363 0.343890956629407 -0.03605469166976473 0.6564821229832084 0.625353907958469 -0.14021816780175297 -0.17528514491300473 0.6668467848230717 -0.21190958102765806 0.5644791633989644 -0.4265673885538133 -0.1962392349636015 -0.5108676256628264 0.5813285257110087 0.025170598263279487 0.25358297149381365 -0.23964465839913776 0.4343796134191487 -0.5642545970793118 -0.9668388504890457 0.628391831240686 0.48588667067622754 0.1443070810808069 0.3442513782555172 0.16474113628692036 -0.8083196500474427 -0.30420350263286605 0.35924940607467004 0.6881729836046105 -0.29863765081741284 -0.12753604298232388 -0.6334851668799624 -0.2792991083131084 0.2452706400912356 -0.03429059724413214 -0.505127805856579 -0.5257176623212214 -0.3773751239408307 0.12984317332545192 -0.14209755242765992 ]
[ 0.14919478891763624 0.31386041619579924 0.3655663475575414 0.019626326359076907 0.18145468357799352 -0.47371839130579946 0.03882796569106786 0.28866014947417235 0.03648587402014911 0.3411769133874992 -0.31833911744014043 0.3811177326915429 -0.1432979236009345 -0.1969836188053709 -0.17382277849254288 -0.19062154650227153 -0.38992230865316974 -0.41939772502702644 -0.6239376176187459 -0.1471568680208341 -0.04216090510742703 -0.19405860772362424 -0.5904139796799757 -0.5812829735195052 0.3462945022663732 0.06801302440252023 -0.12358258255328712 0.7871060747957455 0.443494893883758 0.20411120688861462 0.10364451772462419 0.07661740705773804 -0.13084674814010633 0.24371617590493283 0.1600694532355149 0.20610956890409368 0.017971311618743376 -0.12936709099803673 0.11005322841901895 0.08830654489338136 ]
[ -0.22943462980516627 -0.03752158917041602 0.15505542831958286 -0.19509730883555607 0.14158583569488645 -0.47110093177197077 0.05031780902079772 0.42309124208544596 -0.1362956244626162 0.18828770227218639 0.07578878808732185 -0.6716942045198973 -0.2996356236630826 0.44798380082335604 0.026717105028270124 0.06395334813096783 0.38572503247160694 0.26727696352193325 -0.32844454962262865 -0.25751296207155966 0.21855013647985855 0.2546104923699736 0.5575898738678898 0.41965822651761076 -0.28523667515091267 -0.02281972690364615 0.040483590894537166 0.3820704573735507 0.21888241365885674 -0.2813788250381338 -0.17888790612556163 -0.08073732272423294 0.05506423759683318 0.43792036560213715 0.02692668567543727 -0.5141924182607739 -0.5333427608095815 -0.17437446148445304 -0.11336274600419025 -0.02597330500864806 ]
[ -0.2830731175065184 -0.22954386843616661 -0.4522833336025788 0.28851434412699667 0.060360982581984426 0.3313588947101316 -0.14351612587072335 -0.06009069510707061 -0.023104596627052734 -0.07932933082493716 0.28540573380902884 -0.11103878125125183 0.40002597459041817 -0.21560409713960357 -0.1269650508318742 -0.09654000340695555 -0.14016176657364957 0.420635522044811 0.35336825792049914 -0.3011675804102247 0.6037451698167431 0.054366517594542904 0.6859704322688895 0.03523612726200869 -0.3517696328868996 -0.2344226486605045 0.21212686982220327 -0.4238366841973979 -0.040779509960756584 0.21470053372215464 0.18912675702736614 0.05157347370516558 0.22878455919654914 -0.292829889069031 -0.14254875347336618 0.06290651667555687 0.05591114196709064 -0.033261792799301464 -0.04696061301325116 -0.43426700695029297 ]
[ -0.1614023716388901 0.05611376076982181 -0.04104310877325569 -0.5276733372309774 -0.3321274039670933 0.5865381286349641 -0.343102012772311 -0.3818530834053088 -0.13424178611332535 -0.5192753339778815 0.19562740058432027 0.008033355113051154 0.31887853959000784 -0.014241589619369053 -0.18738439127992967 -0.13008752806222135 0.5500277899567578 -0.03090772476561116 -0.01774009817146315 0.41625309757778817 -0.43917967943027336 -0.34130755663832835 0.19135678633919181 -0.26552577258832705 -0.46816808328012277 0.12184904574029698 0.1355863229659002 -0.28874465638069785 -0.5802326271217025 -0.21267598819215008 0.25511158665734035 0.4330825886359904 -0.4697439970120673 -0.5782909816725645 0.20979247240420207 0.3690368653031856 0.5955316283132901 0.46000340314504357 -0.26186740027430155 -0.20367772743493084 ]
[ 0.19645411113535566 0.4869782044667512 0.4915559958111155 0.21734050686174253 -0.15154288423204537 -0.10007657395275064 0.07940287188559333 0.32400097598869193 0.4425646644064209 -0.0009107599513234154 0.204801163004586 0.07892220689005482 0.08686329183997311 -0.20662840057007864 -0.2589487338935126 -0.6143305658504254 0.2383038583959361 -0.06326443675904858 -0.05667097959384075 0.2892005334578607 -0.4044875064096976 -0.37251536390311224 -0.36142030832696703 -0.26234971804705304 0.25784353967584406 0.322266989530018 0.3140787001056912 -0.45368555857313625 -0.016061013925904307 -0.004362195633789096 0.14180657438865726 0.42339090115467354 -0.1344186113277213 0.029819126923528966 0.07686849075989476 0.2436548646255996 0.2884349721837896 0.013197766399008094 0.07644272636970298 0.17035875971970524 ]
[ -0.279496462420443 0.2624793618459157 0.028884163132231126 0.32974174845441045 0.4478172211361455 -0.34288331444167985 0.06331969788430328 0.2950232144032478 -0.03333951558827444 0.19247191593489088 -0.17940847882101463 -0.11677035370420566 -0.31688177594453326 0.24020035347830115 0.2983150543111776 0.07835499164606903 -0.35696941720386044 0.22380856566743468 -0.20286109695571686 -0.578254644004478 0.36273882706231164 0.30111884878696193 0.1670858623873284 0.2946122004741493 0.12208951590873873 -0.3055565860502171 -0.21478908450989667 0.26371522909733863 0.30277431400143284 0.11032506190022243 -0.006183134586383318 -0.3580822613284225 -0.03262463417863592 -0.008697409395791465 -0.24186395494527263 -0.27159701357897575 -0.3043315322096315 -0.5612066790072251 0.01774358293740175 -0.05979034933269426 ]
layer 3 Activation
tanh
layer 4 Dense
40 20
[ -0.1291169516039451 0.24064190276939032 0.11562278757081515 0.12238008689312545 -0.24462933767293327 -0.07546273243470437 0.3392531818461235 0.17508848891866868 0.07121690270266837 0.25121188200775 0.092662513960556 -0.32567795858876025 0.21671759082516376 0.028457216458228195 -0.060342364196460774 0.16064614118232784 0.16493084275479608 -0.18185075625492372 -0.656105107097664 -0.3339884409929219 ]
[ -0.4252191058485047 0.04463468963689718 -0.2768758697157051 0.4220840010864178 0.22113098317293034 -0.44650194117817515 0.030280127851641324 -0.10170499892405002 -0.14557106397229297 0.20912837901194087 -0.17995220605502543 -0.4274332839668598 0.2650753679519707 -0.016811612289226962 0.09367974181437483 -0.16035808645592542 0.13898958662699387 -0.2271349286370404 -0.05913595492498801 0.5400690260640741 ]
[ -0.2316506161522292 0.08600181301408567 -0.2907597031395787 0.03272718097121468 0.11007044137134604 -0.17858845603006185 -0.2025192175873599 -0.33076190652514725 -0.0533756622657167 0.4114269510387666 -0.13931987442733412 -0.30028603748713867 -0.28824150177871716 -0.42590322279057574 -0.018652331392892296 0.06516936121719731 0.01761066409553456 0.4041197869625764 0.44785110932613104 0.29265255166844056 ]
[ 0.24927096338887028 0.26925584228984767 -0.2623411602822977 0.48424637600480236 0.47363685508112763 -0.20056560777896507 -0.35783245390604435 0.45872836390827926 -0.07797997926089686 -0.11076716436550028 -0.4107374157445808 0.026888890532005414 -0.028875738038261024 0.043104655736441906 -0.20985778311935832 -0.2826527167645918 0.2956511132413052 -0.11509092308722407 0.6457952479794218 0.10975694392872089 ]
[ 0.3296188359985596 -0.065073501019394 -0.4005273038281977 0.31369894693788786 0.0062743862415087556 0.0015824928394594492 -0.300566792670945 0.29715079068671907 -0.3471702522548154 -0.11705511445922043 -0.356962924145219 0.5147593002924624 0.20601043304451885 -0.29908495771013854 -0.47832069727331133 0.35572813048045865 -0.20408340672774003 0.20721937767857707 0.13128031258195957 0.5065671948368645 ]
[ -0.012612047972251997 0.10107774501155997 0.1410464466259153 -0.1676241766860492 -0.3101365868187255 0.3636038224029015 0.47801118916754076 -0.29287645474259877 -0.16260563065517958 -0.38981629284770497 0.3080446083515171 0.012835311476561955 0.37260280250773214 0.3651018977486724 0.25293883373017256 -0.5352211087888139 0.2244285065750458 -0.08556936142464056 -0.35845736141739165 -0.2762431240364375 ]
[ 0.005403781017739374 0.08019043199617848 -0.5121547789682093 -0.30649975343055946 0.029180583505347385 -0.1859920131755309 0.14266898740393563 -0.020800619729544764 -0.009786173936210478 0.1581549494070302 -0.013605467068664962 0.08001178746812682 -0.02835843363035545 0.24429867135878985 -0.1380885404725357 -0.07707366734532789 -0.31469713327113025 0.09944810553762891 0.2958596036849488 -0.01671113932284879 ]
[ -0.15739344642242326 0.14790815266146046 -0.31199749663766296 0.8442308350920112 0.2140086186751726 -0.03788837366863219 -0.19224877691707035 0.6749030598173776 0.2630810902106609 0.15484645967770594 -0.14643672255922763 -0.048039202735906984 -0.0894198306600844 0.20392814418958344 -0.09932333903736061 0.0213048883850173 0.2971867046327657 -0.27424291036004833 0.4458608258017491 0.5618317262299338 ]
[ 0.05265656097967515 -0.07254967308497984 0.1918674957216198 0.4206029688474455 0.17918078937660023 -0.32329383320923866 0.1522991918644185 -0.17832346688990586 0.04895573165638393 -0.349795134166752 0.3067209302495241 0.24392234019204612 0.16714312835252187 -0.547972317410568 0.13127980601601016 -0.24354112641180364 0.6534910627571384 -0.3984661726296051 -0.03951496048959725 -0.35524997023383065 ]
[ -0.17056529378479252 0.2259002908260175 -0.34245529921456946 0.324115919407899 0.6699827084014178 -0.16527294288186467 -0.3098241585026412 -0.058896922095970826 0.17992003740090287 -0.2925046081229825 -0.014497567648831297 0.3907521501877584 -0.06686600443940562 0.3295647088853023 0.23414500263309102 -0.20999728080703273 0.056807234431230015 -0.1722016579297622 0.40253227375640344 0.4995678171047255 ]
[ -0.06335942416185972 -0.10700282612197581 -0.0004105882569410292 -0.2146329746378401 -0.030618128768380826 0.332850209894266 -0.03158520841435921 -0.23687511650122642 -0.20177617478793688 -0.016413994149373588 0.2079817198255116 -0.3896844782949178 -0.2501688812583563 0.09660384517193954 -0.18131906577243692 -0.043019451757237634 -0.4293287620367382 0.34770429100620476 0.07514317560733208 0.2583458375096062 ]
[ 0.056272502991279165 0.28468375521351624 0.08853116447361772 -0.07267398387413143 0.11266212581687936 -0.04799586251516535 0.029952218271575057 -0.024263216900458368 0.20392441301056638 0.28430135730711525 0.20540038798916 -0.04741545810142051 0.3601082917824639 -0.011892084365233733 -0.023275573439370496 -0.42679719794073734 -0.3110017568684475 0.12663926480018783 -0.13636998250400284 0.10341253928399574 ]
[ 0.20777536568138416 0.18426229266992963 0.19685374379826365 -0.3891385937832547 -0.7371592272705564 0.1406104415171719 0.21204349181227566 0.08520964517813097 -0.04711690217085977 -0.36618552027825135 0.28130798802019197 -0.16848447677026726 0.3075449865897459 -0.2169355591054708 0.3092376905702263 -0.09912381403276113 0.21582932248226583 -0.1409576395002204 -0.4364028262812828 -0.5232481197929059 ]
[ 0.14551724129846955 0.0063337472014501775 -0.14941551156339167 0.5732060728396435 -0.00998079400234823 0.19778244874679715 -0.06040106027491763 0.27556296914111245 -0.028739980958899767 -0.08553173581822934 -0.19200987413720444 0.40182173515657316 -0.017793960186837914 0.016633086391414618 -0.10588479655417203 0.04593369000655904 0.1936320191221612 -0.1705315694202554 0.11582198985101874 -0.06576191561862671 ]
[ -0.007227959191124211 0.027418890937545286 0.18237150301366992 0.05827924088464781 -0.023761984086690762 -0.08300273556725583 0.06323100197842482 0.042392868024987915 0.06572333145765066 0.0893488381883099 -0.1528485071218148 0.1742319061959305 -0.18596334404967974 -0.21724015148924858 0.016721965457643727 0.2923172009795819 -0.057372977111077667 -0.2574870963475242 0.0877007050051419 0.32343629710062544 ]
[ 0.13002632574026687 -0.05169685372202395 0.27309914918403655 0.31838513821733894 0.14684154719543033 -0.2102806590893204 0.006863798071852367 0.20155727228760653 -0.40645059362880515 -0.21960797494090314 -0.09036659734262535 0.3568811326007791 0.2788249971372852 0.011209796131749526 -0.16709665867263349 -0.11444408787015478 0.37112340935528365 -0.03917928394992569 -0.24505164126578727 -0.061358796082554144 ]
[ 0.1531477945000751 -0.24764643439543238 0.03366105904691988 -0.032745539539241655 -0.38565882996907164 0.5119814218336917 0.1991893440346673 -0.0008125675151520109 0.12266779802070295 -0.036078911683731806 0.23282869805054635 -0.3617070371803709 -0.16983707037290727 -0.38012380174625504 -0.07255233884900028 0.1755704146072234 0.5073104674898792 -0.16226762855747728 -0.08258865075599907 -0.20686368969945762 ]
[ -0.2616571458373994 -0.25384993159962005 -0.07570480592116194 -0.1956717913461164 -0.46926277727429816 0.6198319666869203 -0.27133231477174224 -0.08633310219724968 0.2643137481913695 -0.028346612548043656 -0.37186724395889154 -0.33736688601238723 -0.2694202567989725 0.13441298744144603 -0.3191243048115909 0.3182377336240554 -0.15116941702437997 -0.3287558472451413 0.5403153190918081 -0.12829012230385822 ]
[ -0.27965734080771504 -0.16745998547403596 -0.24924961012084126 -0.15430079074434636 -0.5880410314547553 0.46112898903330496 0.05696640866627713 -0.34331931130123783 0.17174208924066509 -0.22015030264920718 0.31742556104199204 -0.3534186611406765 -0.27100734251485586 -0.07766032476372599 0.11866576054883796 0.2605119226635048 -0.22762940292514827 0.12126677751132107 -0.22385037292679186 -0.0912636398634448 ]
[ -0.14673682956086123 0.5934997866420773 0.6541012688668545 0.09728858043073399 0.24539136846868956 -0.5663922686047105 0.5015402181736994 -0.39068879526441114 -0.06869321808631833 0.012632711769973885 0.7148981555631471 -0.19820640126689956 -0.3231123028325868 -0.029605014391104828 0.3852630047440313 -0.09535081096687367 0.26497166889712365 0.032958407086680366 -0.3896172694277785 -0.5661630366442634 ]
[ 0.20190807327959523 -0.1112813544386359 0.08773600251812066 0.36591791285935626 -0.11557747564864712 -0.20928289018393617 0.004205717050606712 0.5330502496950774 0.14968715697609494 -0.42372927636456686 -0.21941042008928316 0.11273204208313292 0.37697007197250143 0.19570319989127966 -0.4665974226777082 0.3736151074363833 0.11248661957246445 -0.3739043243242985 0.05155015222969382 -0.06128349433187933 ]
[ -0.022006967161281706 -0.3578921539498994 -0.3691703806262251 0.010011732515125243 -0.09191695069461255 0.46514019574567256 -0.14572128594552436 0.02639716120674002 0.0386345883961444 0.017984328398377384 -0.2967773254109852 0.411170825012255 -0.08972860660552646 0.052773104699459665 -0.39172596266876286 -0.035024208767199284 0.18195967782669972 0.11231770007766305 0.3145849214916101 0.10668124351894406 ]
[ -0.22822441348072547 -0.3432826635270512 -0.3953848827401288 -0.008495960868648603 -0.23346476068396582 0.39354383299082163 -0.19639699665249583 -0.30541365465670667 -0.24463284744519304 -0.5219908673845806 -0.15603778142174027 -0.17121615346170319 -0.3264943924186275 -0.040608165124463864 -0.07289291381900852 0.47855048090825847 -0.4503440342240673 -0.29772119676279146 0.12458668460747233 -0.1826539723122181 ]
[ -0.07558058449847325 -0.3132984219007055 -0.5778981031733829 -0.36219549586145394 0.03369386945313397 0.09016681402437536 -0.20920238553255074 -0.21282233013581614 -0.12057279961456706 -0.3210430691867372 -0.5310764500970405 0.027150916271387774 -0.41006079002161744 -0.4614170974445696 -0.11905976581196405 0.5548802744604203 0.1066753231403138 -0.34712018811302126 0.30615849598830835 -0.2785800399308477 ]
[ 0.2643473628416041 0.28702454198032806 -0.48106550974749335 0.29395800872066297 0.30748069117057025 -0.5084109885203626 0.010083354063523793 0.14164229804096715 -0.3000519971206365 0.1732538739618272 -0.10138522569259195 -0.026394887005505838 0.23148019262857047 -0.0526852168818651 -0.3085799636253654 -0.05679366825654919 0.2719764201931597 -0.2231220486186557 0.2000727725740961 0.2780111821855924 ]
[ -0.08660789662354623 0.11188510308499199 0.22544752408660865 -0.15404266340853234 -0.10633440799031814 0.41534251496338587 0.31834595089352963 -0.30208116779825045 0.03649686766651906 -0.07733175583438699 0.1895007483864524 -0.20220268415402512 0.2737269395054305 0.22779178184726068 0.2991928568604255 -0.021877272267161248 -0.12811034394401444 0.031655652420292286 -0.7147520293800826 0.0747925726302744 ]
[ -0.0808357636873471 -0.13337765138482546 0.2169772637871089 0.04494881617031147 0.019642853015453047 0.24147950892998274 -0.015581218249458743 -0.173579962416159 -0.011240947333456066 -0.17626774581541846 0.09896149362026978 -0.3338936104634169 0.1308850248390045 0.09750304202238387 0.17753728438605093 0.006552999816107404 0.017704106057869273 0.0901638221009728 0.16722553021755443 -0.20047471277128132 ]
[ -0.11957240036937254 0.3232033064889131 0.22152260777360772 0.12143595045399151 0.023646272717702567 0.3713317904794691 -0.39949975274047905 -0.08766710498012514 0.22758514869961713 0.37276331063116885 -0.42917727039218173 -0.0033766949934974843 -0.31126409770670355 0.3116202403272098 -0.11829208586030542 -0.3905173361136987 -0.2304886275295644 0.2809903469447 -0.008843473090550112 0.348125938484028 ]
[ 0.22692728060207606 0.372048196758398 0.17710718081203516 0.12425297740354523 0.6541348648084387 -0.2465660560073693 -0.17377769266955895 0.3154840937879183 -0.02394659348465105 -0.01015626609047832 -0.43281680970735004 0.3182479891016006 0.19213354668816815 0.24965502181054577 -0.3554934603005971 -0.10374321292871962 -0.13649011989390034 -0.006243143542533606 -0.1291605350735474 0.11669244654825589 ]
[ -0.0003494109069210765 0.18260141345831604 0.26074138604296004 0.021351035459438995 0.058104337582491686 0.08212897670660464 0.04843010913373935 -0.13263627326830837 0.031072251462458587 -0.10196349868527901 -0.025554047855004935 0.3153299964022819 0.025402034745260257 0.2641430980973803 -0.19959287288072175 -0.2508819613101749 -0.5689199724514977 -0.12163264252095897 0.014370610241738871 -0.1652955797379097 ]
[ 0.005674398043112989 -0.13314083589135361 0.14616644943018026 -0.09881331797093341 -0.0664446409021493 -0.03331225179295641 0.11858490690249267 0.1441148246635331 -0.11315330272100366 0.1404920747729481 -0.04956143765675651 -0.059548031432133795 0.0506794046437142 0.06794393602735892 0.015283367948777594 -0.1085148085253501 0.20780217570360668 0.1331309804910545 -0.036370176914824366 0.10745420244675834 ]
[ -0.23434210196941285 0.275841970439881 0.47148844477696694 0.037071836600959945 -0.21630007126131395 0.15478784744998086 0.42866894984961523 0.15178676435810232 0.06039423543713713 -0.06769918355010668 0.6626916126099658 -0.39321268067863235 -0.24331508415933378 0.4767093660697636 0.4983741100637037 -0.5465703548390387 0.2332551977441102 0.03634807917247886 -0.41975524392843255 -0.054675164881295306 ]
[ -0.08202502754293924 0.04680557248489737 -0.008514635522247873 -0.22331367332570656 -0.0005649334286788283 0.12176286197136248 0.030349472185127083 0.025013219786427718 -0.02516770362290828 0.14410800308164903 0.06853520769721384 0.09216841759064723 -0.06165781993133437 0.4118414330247185 -0.25449200215174445 -0.26617225032546643 -0.5397513745517061 0.2128988100248034 0.12741654706419153 -0.024565022412246694 ]
[ -0.0037057364045446984 0.4823574256176437 0.020167371448099006 -0.06084391192723823 0.004431484242751079 -0.42955745213743235 -0.3620251149686743 -0.5105092047432161 -0.28243786555301187 0.2719207139931845 -0.12221792685459364 -0.3028528373932211 -0.4105913903228622 -0.42737820263580084 -0.3382138685747446 0.020167359409179932 -0.0521332008439382 0.3432663150151009 -0.20709911736220404 0.6584408007379925 ]
[ -0.42404594935896467 0.007017988373982127 -0.1833303399176158 -0.15617986537142417 0.04316005311430871 -0.2655962648788856 0.22928526252152204 -0.2820785660209979 -0.11775585163015892 0.3017052619381951 0.05896683901348128 -0.2557484573727553 -0.2328082970042785 -0.18606925863123217 0.13589769686244488 0.006494702408018373 0.08517530211540147 0.17648727263565672 0.09870930598578002 0.052917235090820795 ]
[ 0.18744597135846486 0.049578810180977144 0.37123762328605475 -0.05023535397168233 0.2590303321907297 -0.13017144375627338 0.15614407070856895 -0.4459580453907807 -0.1561659100361175 -0.26955852561949006 0.35847586133935316 -0.1952057737235883 0.008542027550277248 0.296929504422137 0.2934129863399665 -0.13382550373311036 -0.039913068354178606 0.27820466732149146 -0.43804395123401446 -0.0877836865869176 ]
[ -0.08557779770658014 0.23596138618665616 0.5982691426315454 0.16135235515522497 -0.1872585874328718 -0.42450026050776124 0.39910958917862405 0.024460939499424513 0.033248016315446174 -0.08812303122447515 0.5222040581704861 -0.44116555358180665 0.4616672366787345 -0.10736217351936939 0.5252661677953464 -0.04651787296737351 0.0663856301292761 -0.36507785261112724 -0.13261240619289102 -0.11111915624413649 ]
[ 0.18012541316891814 -0.09261868078591004 -0.04004549925191701 -0.7069319737620046 -0.3400705529927658 0.09607990587162801 0.3180242521962556 -0.3936234223328233 -0.07260739833558731 0.2084367517139961 0.5823272551998243 -0.4693297377067691 -0.3024659756424402 -0.42025510217288103 -0.08353970445387628 -0.14595353653685877 0.18500268725930494 0.049651502358765434 -0.36905585122870826 0.05083028332376299 ]
[ 0.043319908069981504 -0.11863653398817481 -0.01241412675710481 -0.01605992746238543 -0.16361046714057845 -0.040825174510856044 0.03410208331439748 -0.15244874226902444 0.22032434815302768 -0.06789129090418486 -0.1303240769437181 0.04548584305568268 0.21253054854560877 0.18826721373880081 -0.037155770290547674 -0.0561992467071617 -0.07278495273373843 -0.006213800570741408 0.6485826026010034 -0.07406522994809513 ]
[ 0.04565867424069052 0.3660573680930123 -0.16150330800957782 -0.5146422049965066 -0.052216496376909595 -0.25652267694166514 0.006787083702929136 -0.1998641834815962 0.13505434726961188 0.40584928003500187 -0.2314518855027454 -0.21547502205749725 -0.0009303838872588869 -0.03328373726842166 -0.32624377017285294 0.19724235295943332 0.028952100762012947 0.31966503849994804 -0.15492949546694762 0.27815892460687597 ]
[ 0.11717528888179221 0.07342974760477931 -0.16042898001807576 0.366749843434758 0.12778245406015318 -0.07533816531401713 -0.3049119241071367 0.1491086585124052 -0.03876819360231327 -0.1596729373719595 -0.39802567465315725 0.12168957117353832 0.10260219123010289 0.1202250584014647 -0.16917028796933614 -0.043350271818850546 0.0028862354028739664 -0.08328641657060479 0.19947956588855134 0.07713792587799938 ]
layer 5 Activation
tanh
layer 6 Dense
20 1
[ 0.02384944822951709 ]
[ 0.2706235333284032 ]
[ 0.1998162443141372 ]
[ 0.10903879184315175 ]
[ 0.11990670432436777 ]
[ -0.08096602179065056 ]
[ 0.4389198140925327 ]
[ 0.24451085017922713 ]
[ 0.042070515711647195 ]
[ -0.2771320631793847 ]
[ 0.45435968607145766 ]
[ 0.636666295897172 ]
[ 0.005559000500394449 ]
[ 0.34437812719928734 ]
[ 0.2769574202148353 ]
[ -0.2189943866534936 ]
[ 0.2712197536235391 ]
[ -0.34190008862900906 ]
[ -0.04330017567911832 ]
[ -0.16241479303643844 ]
[ 0.23774032721683408 ]
