layers 7
layer 0 Dense
20 20
[ 0.08860232 -0.10694949  0.26499218  0.21681325 -0.28938618  0.0041506
  0.18092887  0.21891442 -0.1252699   0.43723863  0.0881815  -0.03497368
  0.27606615 -0.14634688 -0.3327642  -0.06118998  0.14336427 -0.32421848
  0.08795943 -0.04341643]
[ 0.09787138  0.11407427 -0.28678557 -0.08186654  0.4462359   0.03134124
  0.40040094 -0.02575175  0.01133    -0.19180924 -0.28616977 -0.19616286
  0.33240068 -0.11379857  0.11566386 -0.41906276  0.06871772  0.17030118
 -0.5302044  -0.05404405]
[-0.37559354 -0.6268626   0.3548659  -0.28846705  0.43478993  0.23878528
  0.11494156 -0.0960694   0.51056206 -0.06895632 -0.43708467  0.1328346
 -0.03262525  0.25598556 -0.18763885 -0.13080485  0.13062072 -0.5740507
 -0.4196138   0.00422069]
[ 0.1759851  -0.13751653 -0.00260215  0.31720755 -0.44288138 -0.24909475
  0.17982462 -0.36238545  0.00618319  0.40988517  0.14039113  0.00727239
 -0.25789517 -0.02699596 -0.01968964 -0.3951758   0.08620159  0.06870464
  0.03683522  0.11594371]
[-0.4008684   0.03971417 -0.05531573  0.05645986  0.51693726 -0.3642976
 -0.09758892  0.0094468  -0.04898448  0.26149046  0.02514143  0.11941673
  0.12708622 -0.32810917  0.08537459  0.16124122  0.42297348  0.01113807
 -0.19011924 -0.00938533]
[ 0.23158267 -0.09203812 -0.07967683 -0.132711   -0.49171045  0.30452663
 -0.66098547 -0.32064116  0.09277274  0.23358591  0.17826343  0.345067
 -0.47077212  0.02407002 -0.03023095  0.5436562  -0.05046857  0.48527256
  0.31824595  0.16027692]
[-0.05463174  0.15785648 -0.31096208 -0.15780336 -0.08743646  0.09407523
 -0.22720295 -0.31574574  0.03881001 -0.05923842 -0.11382959  0.3943152
 -0.11750917 -0.0997924  -0.06084203  0.23992696 -0.41361508 -0.04736905
  0.7000043  -0.06258076]
[ 0.32372832 -0.2751491  -0.03038529 -0.05904381 -0.16601795  0.36982447
  0.13653973  0.22640334 -0.31203857  0.20708103  0.2418375   0.16492854
 -0.17758767  0.21971886 -0.41693464  0.10833222 -0.31417048 -0.4470898
  0.4020593   0.08367942]
[-0.00207958  0.21923217  0.03152763  0.29076752  0.5876826  -0.3615329
 -0.37119415  0.02188473 -0.27951753 -0.4272444  -0.58073646 -0.208747
  0.45166007 -0.13942362 -0.47861078 -0.08932462 -0.06775936 -0.675842
  0.01057396 -0.1618769 ]
[ 0.06215979  0.2235203  -0.47976658  0.21716858  0.05974912  0.18357226
 -0.23491465  0.29408967 -0.3291653  -0.01207426  0.5069468  -0.64326006
 -0.6601877  -0.1222003   0.44231382  0.21668325 -0.96147317 -0.35193828
 -0.32434264 -0.10171416]
[ 0.1094107   0.7609955  -0.36532363 -0.50500804 -0.06147619 -0.42156455
  0.34043437  0.14267038  0.58521795  0.15213767  0.02831409  0.22243011
 -0.09879245 -0.68537056  0.88858104 -0.23894174 -0.45780963 -0.28025326
  0.8649642   0.4713719 ]
[-0.27937898 -0.48560026  0.0785104   0.202493   -0.08188977 -0.31614566
 -0.23246588 -0.14290437 -0.08860504 -0.05175303  0.05607767 -0.01441179
  0.34435764 -0.04196279  0.1308254   0.3687402   0.21949436  0.14325728
  0.26913893  0.06846155]
[ 0.2912431   0.02309928  0.10033273  0.28668568  0.10807116  0.15278102
 -0.10322357  0.21777709 -0.06036131 -0.13075976 -0.01227609  0.31968
 -0.28268436  0.07647309 -0.35171953 -0.38290817  0.12875985 -0.4826394
 -0.3490841   0.2211231 ]
[-0.09411788 -0.2129153   0.25704265  0.01144203 -0.39407557 -0.24887945
  0.6643407  -0.58490527 -0.40661526 -0.49005675 -0.32125407  0.35907114
  0.35122752  0.09448681 -0.48172075 -0.2680822   0.9761334   1.0598164
  0.43502656  0.6689128 ]
[-0.11895585 -0.59653074  0.36661646 -0.05062967 -0.08826913 -0.03589382
 -0.02821533 -0.28072003 -1.0361508   0.15543473 -0.19230042 -1.2959343
 -0.27022606  0.99383205 -0.32200274  0.23607877 -0.03540493  0.21561772
 -0.16963607 -0.20336683]
[-0.11468118  0.03694669  0.1117238  -0.13830155  0.3235515  -0.03173005
  0.23688467 -0.06567694  0.26256943 -0.27091718  0.1084592  -0.07595224
 -0.24678601 -0.14545245 -0.15342127 -0.24010065 -0.2907679  -0.83403814
  0.05856384  0.5030403 ]
[-0.54542667 -0.14691702 -0.05220392 -0.28707242 -0.5857692  -0.50904846
  0.5458074  -0.24582514 -0.11545736  0.8199088  -0.26384974 -0.24621025
 -0.4608528   0.424001    0.43895406  0.03644155  0.22068435 -0.46868902
  0.1777255   0.05353339]
[-0.2699902  -0.10101254  0.39529186  0.01734614 -0.3269314  -0.34035158
  0.20194517 -0.08941714  0.60451466 -0.15274478  0.2988225  -0.28569725
  0.46553427  0.04016844 -0.15177064  0.35213545  0.04637811  0.10981094
 -0.2356498  -0.10124397]
[ 0.12274405 -0.19572116  0.29207233  0.10645876 -0.4740522   0.03577511
  0.0979519  -0.13427147  0.04573614  0.3134801  -0.11994196  0.18179764
 -0.28397477 -0.231274   -0.02631564  0.28739262  0.1968134   0.05146484
 -0.32390666 -0.09802211]
[ 0.7527966   0.10856286 -0.28398392 -0.0516436  -0.5331274   0.6257409
  0.19873844 -0.02276011  0.2521006   0.5632593  -0.13178346  0.02415001
  0.05196523 -0.25226972 -0.35597062  0.21662778 -0.5017772   0.12430363
 -0.3285467  -0.01006242]
[-0.08727662 -0.01514879  0.05294146 -0.04749091 -0.08555567 -0.03360932
  0.03265797 -0.00511568  0.06460896 -0.03482684 -0.04370857  0.03756838
  0.06616502  0.04403917  0.03052144 -0.04068458 -0.07873937  0.22459346
 -0.03761475  0.13591741]
layer 1 Activation
tanh
layer 2 Dense
20 40
[-0.20739391 -0.17305633 -0.25986952 -0.07727203  0.2850581  -0.23734434
 -0.23586082  0.3719929   0.08086199 -0.3942652  -0.20564783 -0.22588487
 -0.25617832  0.16244154  0.10350472  0.19273496 -0.36422047 -0.35881132
 -0.33249348 -0.04796118 -0.15236624 -0.19657947 -0.19117248  0.15690926
  0.07318223  0.25372562 -0.27059522 -0.18564491 -0.2557341  -0.02040816
 -0.2544034  -0.08568837 -0.00379437  0.24917325 -0.26707414 -0.11198234
  0.27192128 -0.30078202  0.27913275  0.31960526]
[-0.08153671  0.0155143  -0.05221017  0.34289512  0.06746855  0.10442907
  0.21614538  0.47895107 -0.23496753 -0.02165473  0.04466629 -0.47031492
  0.00954865 -0.38685822  0.30955842 -0.0963541  -0.28742346 -0.17274211
 -0.02057332  0.15383963 -0.0198731  -0.14829206  0.17917089  0.00781513
  0.26141623 -0.06714951 -0.27401456  0.20799549  0.18252225 -0.18953742
  0.01290344  0.24439266  0.2044388   0.10701314  0.23339255 -0.5415921
  0.29118124 -0.5443133  -0.0672678   0.12428018]
[-0.06034488 -0.24192032  0.04377713  0.08191675 -0.22469848 -0.24460147
  0.20278387 -0.3790392  -0.08903015  0.40018064 -0.1330982   0.28473175
  0.19995102 -0.06147283 -0.09377478 -0.16986756  0.00361331  0.27278095
  0.0663016   0.1534576  -0.18865804 -0.10643329  0.03328292  0.08599438
 -0.06025345 -0.05238875  0.12439345 -0.14881277 -0.46238217  0.27115154
  0.10204885  0.0205464  -0.1449114  -0.11461204 -0.23228528  0.43526736
 -0.00131721  0.32151258  0.05007967  0.34827042]
[-0.18214716 -0.02854152 -0.22547796  0.17535353  0.24662843 -0.03476023
  0.13470066 -0.30030167  0.21011896 -0.02957046 -0.1709863   0.01812586
  0.1324736   0.01031095 -0.13818619 -0.03893182  0.14440161 -0.10468391
 -0.15683837 -0.2779463  -0.23153205 -0.19890334  0.11299053  0.43878263
  0.25933233  0.17937554  0.07385164  0.07349162 -0.15114063  0.0895078
  0.24289858 -0.22997953  0.16602083 -0.17108169  0.0612205   0.13913232
  0.03567785 -0.01388046 -0.04948381 -0.27071416]
[ 0.03512124  0.19858164  0.00377745 -0.20561     0.11054561 -0.3101891
  0.23807281 -0.27005515  0.3512561   0.17559436 -0.23138487 -0.00755082
 -0.28087634 -0.2371267  -0.02471776 -0.01237457 -0.22120246 -0.13187666
  0.05302916 -0.06795976 -0.16388342 -0.25496018  0.16298349 -0.23877573
  0.18766013  0.09139667  0.258181    0.34449223 -0.36029166 -0.11096579
 -0.00928983  0.31460255 -0.01265255 -0.0262587   0.10756203 -0.2697548
  0.31688207 -0.05575658  0.12143351  0.03354268]
[-0.03068055 -0.17510948 -0.25038904  0.0019831   0.19098118 -0.23472169
  0.07907787 -0.05387492  0.30361545 -0.2934503   0.28770941  0.06729721
  0.1594424   0.25079736  0.13168758 -0.33731657 -0.02971934 -0.01347315
  0.01914332  0.06892995 -0.35638306  0.1220353   0.02679957  0.21269546
  0.24039768 -0.03237242 -0.20439494 -0.162094   -0.3294187   0.10270222
  0.22876555 -0.06554426 -0.03813329 -0.1407259   0.08729099 -0.3379456
  0.2839603  -0.30352634  0.41630256  0.14462663]
[ 0.1863772  -0.14711711  0.1212414  -0.01204688 -0.00772836  0.22579725
 -0.08327404  0.07800515  0.132114    0.21972913  0.01905433 -0.28993177
  0.01860312 -0.1944776  -0.11122978 -0.01142047 -0.02031258  0.03059034
  0.32243842 -0.2131751   0.16909002 -0.09424508  0.22021697 -0.22480582
 -0.53451204  0.45849884  0.03659104 -0.0650282  -0.14854236  0.07437002
 -0.16246192 -0.12235888 -0.06367196 -0.09409615  0.5327381   0.16631687
 -0.01645546  0.01412406 -0.18261068  0.01901846]
[-0.01344548  0.24830285 -0.01424318 -0.08704251  0.30806404  0.172433
  0.03550508  0.25259653 -0.10188776 -0.38650465  0.30105114 -0.17893621
  0.18800645  0.1472734   0.33010364  0.16233866  0.2605503  -0.15396257
  0.32624406  0.01988574  0.1901534   0.30290928 -0.27083266  0.27934816
  0.16779374 -0.21233772  0.26435563  0.22732125 -0.01482253 -0.12042137
 -0.11357614  0.06808675  0.47941113  0.19591406 -0.39803934 -0.3063044
  0.3310896  -0.3305028  -0.22707732 -0.17704566]
[-0.28196025 -0.22667563 -0.1422906   0.25885385  0.14209422  0.10230839
 -0.14036986 -0.03107912  0.26909792  0.5607864  -0.06976865 -0.12782623
  0.16607626 -0.45648232  0.3000637   0.30279934  0.1978664  -0.05135141
  0.34694472  0.70039797  0.3987167   0.35596666  0.38949245 -0.617338
 -0.21468407 -0.0581263   0.20176437 -0.06744072  0.2083497  -0.00622854
  0.4455121   0.07878456  0.34583792  0.3874048   0.28837097 -0.41388568
  0.42646506 -0.50576866 -0.04567268  0.5272003 ]
[ 0.27046117  0.2655029   0.17397752 -0.26082447  0.17009364  0.2658253
  0.10844298 -0.05471914 -0.20177114  0.2162987   0.09141544 -0.05839399
  0.40285116 -0.15354659  0.03805985  0.23758323  0.0538939   0.25373593
 -0.06500663  0.16642629 -0.18395871  0.2235951   0.3429902   0.28391576
 -0.3334058   0.18901278  0.23751858  0.16359128  0.65188444  0.12429493
 -0.11575774 -0.12454624 -0.22471742  0.22374488 -0.05255998  0.35947046
 -0.1098254  -0.22135068 -0.14427464 -0.0701073 ]
[ 0.2276855   0.22397704 -0.20691659  0.07502916 -0.17244853 -0.12678237
  0.06795723 -0.13814087  0.1955731  -0.06193814  0.18166451  0.03297993
  0.34111065 -0.1915253  -0.02599816 -0.04029461 -0.29329652 -0.20495962
 -0.0431563   0.33536658  0.02785858 -0.04101356  0.14928044 -0.37032402
 -0.07560235 -0.01744187 -0.13295539  0.04118034  0.30386308 -0.03333601
  0.2815847  -0.24323003  0.28338608 -0.02039463  0.1206271  -0.34001863
  0.18920523  0.03974086 -0.08752429  0.23252541]
[ 0.1596469  -0.06529285  0.27707526  0.26318982 -0.19706239  0.2454311
  0.1797418   0.38926134 -0.09614402  0.16971007  0.03902586  0.01857917
  0.22913423 -0.36512902  0.06698658 -0.08136911 -0.0438744   0.23778509
  0.04964866  0.24301842  0.18219955 -0.02383051  0.2616259  -0.32695198
 -0.28084666  0.4830736   0.1636819  -0.18257974 -0.40523902  0.46154007
  0.47510207  0.2004837  -0.04976293 -0.14584237  0.27886933 -0.05297818
  0.21148096 -0.25440174 -0.5307368   0.09013385]
[-0.25890243 -0.36956632 -0.20755574  0.0407912   0.23011804  0.06360315
 -0.06527732 -0.16707902 -0.07985193  0.17299421 -0.29107553  0.00666418
 -0.07293385  0.08501203 -0.2825766  -0.19445279  0.13783826 -0.06050753
  0.50556916 -0.09770628  0.11850046 -0.26863956 -0.1827157  -0.38252676
  0.03632656  0.11680307 -0.1667314  -0.08476517 -0.49752778 -0.08809011
  0.30768234  0.3408622  -0.33863726  0.04605297  0.28020257 -0.00246585
 -0.5477849   0.0382035   0.13698317  0.08282112]
[ 0.09839115 -0.09789722 -0.06206925 -0.44130114 -0.17771102 -0.24010824
  0.09564845 -0.21071088 -0.03546323  0.16536237  0.14847854  0.35785723
 -0.11505624  0.37626567  0.20901287 -0.07705802 -0.13086219  0.02864186
  0.1194655  -0.6248684   0.01775458  0.24206202 -0.07926799  0.31014514
 -0.3091883  -0.12750429  0.19235033  0.30628067 -0.17238247  0.06393421
 -0.32688484 -0.02633962 -0.09572652  0.06249984  0.25050008  0.30428222
 -0.2277908   0.13989107 -0.02197848  0.12773173]
[-0.02129468  0.21121265  0.1250655   0.34764192 -0.09280175  0.05161943
  0.10454893  0.25046024  0.18588932 -0.24186273  0.13577215 -0.33907685
  0.02119899 -0.05667296  0.13324213 -0.18459718  0.12154029  0.04478538
 -0.2401135  -0.1288868   0.362037   -0.01160265  0.35787255 -0.24672605
  0.14842397  0.12394061  0.06100444 -0.2587803   0.82032925  0.15588503
  0.072396   -0.24757662  0.06486476  0.22013474  0.11735914  0.00563793
  0.02606568 -0.41075343  0.3983393  -0.18256947]
[ 0.13920587  0.06299917 -0.03993627  0.04789412 -0.20998544 -0.04136761
 -0.18221955  0.10106911 -0.29206747 -0.11025595  0.10459419 -0.11854876
 -0.07935341 -0.22321394 -0.13911498 -0.14679794 -0.03668268  0.09665442
  0.29539502 -0.11473732 -0.28459632 -0.12755044 -0.36592373  0.16394667
  0.17772351 -0.07077459 -0.10449357  0.01934907  0.17764422 -0.01195598
 -0.04404239 -0.10652588  0.08272606  0.11936967 -0.3238416  -0.10148513
  0.27002004  0.15199867  0.05089308 -0.02529214]
[-0.00840765 -0.18227403  0.02496616 -0.2620869  -0.11500463 -0.09528368
 -0.08645088 -0.22508428 -0.11497256  0.22021998  0.22560734  0.18523021
  0.1507049  -0.25947416 -0.14466871  0.07991293 -0.04399822  0.17623323
 -0.21297278 -0.21273518  0.26928857  0.02215299  0.18681325  0.07000165
 -0.24651602  0.18196338 -0.2872402  -0.28266427 -0.2768891  -0.09658773
  0.14266631  0.34022304 -0.5141731   0.07712697 -0.06850235  0.3179229
 -0.02763534  0.08675893 -0.171325    0.05168166]
[-0.0984344   0.13619243  0.30804867  0.0739335  -0.2717262   0.24742855
 -0.40868086  0.3547616  -0.1704184   0.3440754   0.08438209 -0.20519042
  0.0588112   0.5017186  -0.34762868  0.08937971 -0.12984532  0.11315688
 -0.28828186 -0.24852435 -0.40893263 -0.09234623  0.13372429  0.39727774
 -0.54087496  0.3592933  -0.20894735  0.14298388 -0.06439371  0.32559574
  0.20616598 -0.05700845 -0.40380594 -0.32291245 -0.02260228  0.37981972
 -0.19854154 -0.00411392 -0.18601905 -0.42278737]
[ 0.16455786  0.23570096 -0.14069535 -0.15574859  0.3123686  -0.04942793
  0.13511236  0.361161   -0.4030998  -0.01941596 -0.33464763 -0.37842566
  0.1460535  -0.11380199 -0.08635992 -0.24331535  0.02715029  0.14717185
 -0.08821208  0.03458283  0.38315362  0.31285933  0.1168614  -0.39596632
  0.10130528 -0.20133291  0.13147299  0.03994603 -0.16143699 -0.288534
 -0.0925008   0.394105   -0.2545376   0.14911722  0.26729578  0.20325634
 -0.09085491 -0.0348766  -0.03552517  0.22803299]
[-0.00688432  0.06215802  0.28262925 -0.32572895  0.21271767  0.28404543
  0.08968502  0.04550681 -0.18155609  0.1676434  -0.15331967 -0.38490435
 -0.35424685 -0.3626539  -0.1500948  -0.28041455  0.12749594  0.08684964
 -0.04747132  0.06891164  0.28775677  0.13280736  0.23186035 -0.03378024
  0.06934758  0.40559307  0.11980902  0.10085946 -0.44769084  0.16313237
  0.00191643  0.3364502   0.16199969  0.24935259  0.18662372 -0.00410047
 -0.16160633 -0.18044838  0.04568039  0.17824991]
[-0.02302969 -0.02495809 -0.01646884  0.03734697 -0.06137529  0.09228563
 -0.06002092  0.03457463  0.01445521  0.02479989 -0.03382701 -0.01055051
  0.3269128   0.03418009 -0.01313855  0.05605274  0.00410806 -0.00897754
 -0.11897706 -0.09741823 -0.02019248  0.02565007  0.08167872 -0.10784324
 -0.13543506  0.10068383 -0.01532905 -0.06271745  0.3884119  -0.01285824
  0.0459598  -0.01857094 -0.09694888 -0.03710154  0.09366076  0.0787304
 -0.04432959 -0.02886874 -0.0630118   0.00798083]
layer 3 Activation
tanh
layer 4 Dense
40 20
[-0.06456401  0.21284944 -0.11844882 -0.11627053  0.14538483  0.02875442
 -0.09315421  0.10241435 -0.14563493 -0.19398019  0.1859762   0.17022918
 -0.17784292 -0.24577032 -0.13870871 -0.00213892 -0.07091625  0.15505444
  0.12042974  0.01589999]
[ 0.04292702 -0.2080272   0.0178296   0.22503427  0.1578393  -0.03276878
  0.25873932  0.23942204 -0.1406451  -0.23840076  0.23972397  0.0692534
 -0.23637609 -0.01411258  0.29628238 -0.18034118  0.17876212 -0.21574529
 -0.07537755  0.14431506]
[ 0.17661835  0.04637529  0.1881212  -0.15771113 -0.1223727   0.10558774
 -0.0671073   0.08620074 -0.2024321   0.126384   -0.26848832  0.2371215
  0.14333397 -0.25985783 -0.37291452 -0.11460656  0.26138654 -0.10564867
  0.16869208 -0.12497081]
[ 0.48785943 -0.01505319  0.0614586  -0.39397478  0.29244864 -0.1573425
 -0.11688101 -0.33923432 -0.17021707 -0.04946758 -0.00532591  0.00710401
 -0.1462241  -0.16131905  0.12270787 -0.16310902 -0.03169428 -0.20938106
 -0.3794391   0.2094215 ]
[-0.40551773 -0.03542445 -0.25865796 -0.15620832  0.04873105  0.28531468
 -0.08176673  0.12713748  0.0922922  -0.09359769 -0.18505077  0.07965549
  0.20663968  0.03619819  0.01944499  0.132367    0.33925408  0.08235601
  0.15520073  0.3955009 ]
[ 0.27648652 -0.13501799 -0.29245377  0.20411679  0.42611563 -0.10977185
 -0.0766231   0.02311548  0.21897326 -0.3067858  -0.05970475 -0.02041615
  0.2177522   0.17720385 -0.04648507  0.30462065 -0.05180122 -0.1921077
  0.02991174 -0.19430904]
[-0.03004431 -0.18441153  0.06031182  0.02023154  0.20290329 -0.26508936
 -0.19592427  0.285744   -0.09365606  0.14877734 -0.09571287  0.12542713
  0.00758555 -0.1939205   0.07892255 -0.19974636 -0.04036191  0.05880979
  0.25431374  0.03823887]
[-0.34071988  0.31165618 -0.23566946  0.09282298  0.19437207  0.24449031
  0.36089218 -0.39597127  0.33642083 -0.40339664 -0.1394077   0.09695004
 -0.04449208 -0.0697479  -0.28027228  0.00067282  0.2641741  -0.18845774
  0.27576542  0.24314506]
[ 0.08203375 -0.1847253   0.15898246  0.01433294 -0.27509633  0.03610052
  0.17318974 -0.01436038  0.10421626 -0.236494   -0.08203567  0.12977327
  0.23397605  0.30628905 -0.03527341 -0.01537736 -0.10268166  0.04188419
  0.05827787  0.04211138]
[-0.30092114  0.22194089  0.04049152 -0.13388452  0.22573291 -0.13720675
 -0.3079611  -0.11342672  0.02319443  0.3999907  -0.23418035 -0.22219142
  0.12653561  0.05089587 -0.3135677   0.0009437  -0.21140474  0.11645357
 -0.26270455 -0.24110666]
[ 0.16580166 -0.23128994 -0.24067286 -0.20815793 -0.11794417 -0.13582598
  0.18186302 -0.21259557 -0.00834912  0.0569445  -0.04075478 -0.076094
 -0.20422564  0.23767132 -0.04870253  0.08268362  0.18697573  0.25147283
 -0.08386367 -0.2582449 ]
[-0.00232657 -0.26435164 -0.15491973 -0.16000865 -0.21688876 -0.3175866
  0.11205226  0.3237152   0.0952065  -0.00502375  0.08203918  0.1951258
  0.21725968 -0.15816468  0.05467702  0.10690909 -0.04831784  0.14324595
 -0.29596168 -0.10480998]
[ 0.45062843  0.03716597 -0.22484326 -0.134825    0.00811371  0.08911861
  0.00908468 -0.11987367 -0.13857535 -0.22199509  0.14306855 -0.09190481
  0.03780819 -0.02901201 -0.19873832 -0.19884568 -0.34287795 -0.16794136
 -0.1849819   0.2030022 ]
[ 0.01083553  0.19035973 -0.25164205  0.07310228 -0.2559121   0.22018279
  0.3521415  -0.03595041  0.04777348 -0.15205142  0.1633973   0.09126955
 -0.13222133 -0.18054222  0.11074228  0.17828093  0.1760817   0.11084321
 -0.2900607  -0.2872366 ]
[-0.03730948  0.12827066  0.24661775 -0.08801916  0.28325984 -0.09307462
  0.16643956 -0.1382488   0.18069103 -0.27876958 -0.02746692 -0.24959727
 -0.07107795  0.03441563  0.19341862 -0.18618977 -0.05216271  0.14379388
  0.16866855  0.34064597]
[ 0.08593382  0.07003486  0.18124321  0.19307113  0.22140889 -0.07547382
 -0.24940163  0.0635655   0.04727604 -0.09513295  0.12926444  0.30954668
  0.42120963  0.13974369  0.04415006  0.22513749 -0.35283202 -0.01672791
 -0.3384762  -0.2308483 ]
[-0.1016307  -0.22791219  0.21642259  0.20392805 -0.10833712 -0.38307735
 -0.07052856 -0.26806873  0.1969896   0.02954461 -0.17045256 -0.22888744
  0.21291704 -0.0889388  -0.18591373  0.20813854 -0.13408245 -0.21854408
 -0.05172503 -0.01753684]
[ 0.4736171  -0.16001035  0.0937103   0.24994887  0.01162635 -0.21877803
 -0.17468135 -0.23264445 -0.10425585 -0.06489895  0.04884229  0.263717
 -0.03322561 -0.03613446 -0.26665863 -0.2390658  -0.06084915 -0.13661261
 -0.18138665  0.06625442]
[-0.49276343  0.01819581 -0.0571171  -0.21593416  0.24143612  0.14244059
  0.27438286  0.13360788 -0.04019936 -0.11071684 -0.1269445  -0.06462047
 -0.12535803 -0.11063689 -0.13467596  0.1354473  -0.00523827  0.01120483
 -0.03894566 -0.02221842]
[-0.17992751 -0.20447014  0.17128891  0.05310842  0.33336267 -0.23900096
  0.09390619 -0.22127365  0.28463894  0.02927047 -0.27104    -0.15808955
  0.00408741 -0.15231776  0.23318386 -0.18939671 -0.13888139  0.10402274
  0.04721416 -0.01989343]
[-0.13405341  0.07299004 -0.13982555 -0.09890401  0.2882614  -0.24661529
 -0.32760367  0.08446351 -0.14392668  0.13733633 -0.28763616 -0.31570852
  0.12279986 -0.2049343   0.15229963  0.26650319  0.05981564 -0.25172684
  0.14820123  0.11629542]
[-1.50406018e-01  2.79095262e-01  9.45604444e-02  1.66654572e-01
  1.29791692e-01  5.10162823e-02 -6.93939859e-03 -8.45117867e-02
  1.40341610e-01 -2.04054072e-01  4.00478505e-02 -8.02787691e-02
 -2.51903355e-01  3.73268336e-01 -1.28030568e-01 -1.51996434e-01
 -2.31328085e-01 -1.79870403e-05  1.93736956e-01  1.00128435e-01]
[ 0.45992166 -0.14543043  0.2466478  -0.07946555  0.3682776   0.21558616
  0.15918061 -0.3439707  -0.03637681 -0.10548449 -0.02021136 -0.06414838
 -0.02088958  0.19615261 -0.16434292  0.06115219 -0.01993205 -0.3472136
  0.09715699 -0.34458712]
[ 0.4386283   0.07427178 -0.06006517  0.33668643 -0.2910006  -0.03551275
  0.12605295  0.22736038 -0.34537876 -0.2073538   0.2443706  -0.18132901
  0.17878725  0.31740165  0.11533657  0.11514799  0.08261794  0.12659891
  0.07178484 -0.344296  ]
[ 0.06689791  0.15127638  0.05253889  0.01585312  0.11595153 -0.15128843
 -0.14161806  0.2096244   0.09153796 -0.18879245 -0.04650893  0.06753657
 -0.14706941 -0.13028191  0.07336422  0.00880197  0.3411588   0.11922413
  0.05774395  0.38087848]
[ 0.3720387   0.10243528  0.2689301  -0.19495088  0.07860736  0.22984503
  0.21985637 -0.21489666  0.2873874   0.2247163  -0.10518137  0.10397505
  0.02977617  0.17956229 -0.38256764 -0.10555705 -0.01180337 -0.25638372
 -0.322477   -0.28549498]
[-0.15672185 -0.09043926 -0.12440386  0.17805156 -0.12316463 -0.00795409
  0.01767117 -0.2815199   0.06877156  0.1295403  -0.32034254  0.20706485
 -0.02195267  0.11630147  0.15301223 -0.1446081  -0.07876538  0.10168891
 -0.22606716  0.09328671]
[-0.18199447 -0.2952704   0.17104776 -0.2388579  -0.12905133  0.14420114
  0.34867045 -0.06721813 -0.35777953 -0.1968244  -0.14449966  0.07360972
  0.12445054 -0.04504339  0.10384044  0.17727877 -0.11347005  0.15378557
 -0.20826069  0.22230245]
[-0.13707131  0.11281575 -0.04737887 -0.03284781  0.37844422 -0.02880617
  0.34232876 -0.4384164  -0.37557542 -0.10024902  0.20081918 -0.20942417
  0.17357917  0.01623384  0.23909192  0.03223574  0.08036302  0.13458474
 -0.12774952  0.17470476]
[ 0.19651665 -0.22004062 -0.15105274  0.04902166  0.1957453  -0.1815992
  0.03948586  0.01271699  0.26843384  0.13249138  0.12328853 -0.01422263
 -0.28528953  0.02631825  0.00967112 -0.09117124  0.12577833  0.09650008
 -0.1939622  -0.2511341 ]
[ 0.5315631   0.14714538  0.04873367  0.20621222  0.22903289 -0.3562326
 -0.07700764 -0.3102221   0.21923621  0.03500436 -0.2765269   0.12971655
 -0.06714253  0.11862353 -0.12943806  0.16148475  0.13609555 -0.21269943
 -0.39615428 -0.18495701]
[ 0.10268475 -0.1264106  -0.05647995  0.26839805  0.01330762  0.20625122
 -0.22728539  0.29713228  0.01150571  0.10188046 -0.34586126  0.08504849
 -0.02082166  0.16860206 -0.11455169 -0.24088532 -0.19412974  0.08940527
 -0.27011868  0.17753948]
[-0.09161488  0.45021704 -0.15895095 -0.06505495 -0.27564716 -0.13514858
  0.24977645 -0.1902346   0.19324139 -0.2778606  -0.23968948  0.11254955
  0.1265661   0.3252134   0.3469228  -0.04237822  0.01404093  0.12285494
  0.44347093  0.18500583]
[-0.20202756 -0.10631629  0.01873689  0.08675732 -0.06097001  0.033003
 -0.24516155 -0.17257653 -0.04270465 -0.11921133 -0.18674468 -0.00400681
  0.04719938  0.25757346  0.08374962  0.10523826  0.01833567 -0.25176772
  0.04649999  0.22986077]
[-0.35791093 -0.21480003 -0.17934023 -0.02453392  0.21027733  0.36975533
 -0.32127294 -0.19153108 -0.00161391  0.03187089 -0.31215128  0.06063849
 -0.25961974 -0.22326435 -0.1809493  -0.08953317 -0.2094347  -0.11578166
  0.20768687 -0.1815367 ]
[ 0.3201883   0.07436218 -0.0750884  -0.06354843  0.34848583 -0.08686764
  0.01409499  0.14243713 -0.4619905  -0.03267262  0.15781307 -0.08426788
 -0.22418968  0.18549322 -0.33546594  0.00381217  0.19981337 -0.2152677
 -0.34827855 -0.49234962]
[ 0.43248987 -0.20820759 -0.07687085  0.16711462  0.19954164 -0.10809925
  0.2233952  -0.23405387  0.08055238 -0.23816076 -0.3334273  -0.20074166
  0.11597633  0.22648303  0.19653603  0.15967439  0.3472847   0.32903478
 -0.28228256  0.2717114 ]
[-0.21160391  0.26361382  0.11429455 -0.09587321 -0.35026762 -0.26405758
 -0.31223294  0.34060842 -0.12378837  0.34971112 -0.03190736 -0.21557815
 -0.10421252 -0.25141838 -0.19058864 -0.2620612   0.00823647  0.04786335
  0.15165634 -0.11292829]
[-0.20920607 -0.06420585  0.31663734 -0.11719622 -0.18083613  0.20409456
  0.041139   -0.0705028  -0.26492393 -0.24779725 -0.09643345 -0.23966739
 -0.09194678  0.18030375  0.17532407 -0.08431205  0.11267794  0.21082872
  0.23243323 -0.06058357]
[-0.3193976   0.02469774 -0.07092154  0.04586338  0.0850241  -0.05843918
 -0.04349622  0.30564398  0.22992408  0.03561811  0.05489056  0.00834769
 -0.06661788  0.33754715 -0.00301112  0.05035311 -0.02350242 -0.13906743
 -0.19277593  0.26365528]
[ 0.18379848 -0.00853205  0.02351964 -0.04028726  0.06627943  0.06806091
  0.04655281 -0.08202405 -0.00775595 -0.02387877  0.04807416  0.01694228
  0.18568628  0.05131486 -0.0622224   0.03722318 -0.06095594 -0.05243973
 -0.03979586 -0.09326334]
layer 5 Activation
tanh
layer 6 Dense
20 1
[-0.11587293]
[-0.00314206]
[-0.00199974]
[-0.00260279]
[0.14765185]
[-0.0513928]
[0.02428669]
[-0.10785189]
[-0.16819087]
[-0.12037162]
[0.16401383]
[0.01539674]
[0.03424827]
[0.00828411]
[-0.1604071]
[0.02428926]
[0.09757616]
[-0.1365628]
[-0.0126049]
[-0.10764274]
[-0.04657445]
