layers 7
layer 0 Dense
20 20
[ 0.2836768   0.7617037   0.76736665 -0.99344647  0.22378854  0.42999548
  0.40882766  0.7888559   0.04009049  0.5423518  -0.06498539  0.66916585
  0.17483829  0.2377251   0.579431    0.43345904  0.34689653 -0.17411976
 -0.04748866  0.7807653 ]
[ 0.6809681   0.12792656  0.38967133 -0.12832594 -0.80824023  0.80194426
 -0.254702    0.17402022 -0.1785879   0.5092448  -0.44411176  0.43387222
  1.6512865   0.6233054   0.15147053  0.45001596  0.05452955 -0.9281275
  0.16413862  1.0418757 ]
[ 0.78369933  0.05856659 -0.07481782  0.01604178 -0.24267274  0.663818
 -0.15758584 -0.08829205 -0.00625782  0.5108934  -0.555896    0.4025643
  1.3307892   0.5330896   0.1732623   0.16747971  0.3403471  -1.2080367
 -0.353814    1.0807197 ]
[ 0.25053906  0.37799218  0.6919328  -0.8095543   0.01719548  0.0744743
  0.48637533  0.5987769   0.07639031  0.5773091  -0.28894377  0.05251064
  0.52815396  0.41453826  0.19840169  0.23111244  0.47704497 -0.3226077
 -0.3849309   0.93122774]
[-0.09275568 -0.8492807   0.96228474  0.6105138  -0.72287875 -0.6254653
 -0.4042482  -0.9284798  -0.62887836 -0.23478507  0.04146478 -0.05436291
  0.1983267  -0.17526577 -0.7641832   1.4938197  -0.19647484  0.3267239
  0.438521   -1.255544  ]
[ 0.03298239  0.655381    0.00681397  0.4450968   0.31752992 -0.928102
  1.1458868   0.20095192 -0.21210009 -0.39576682  0.03486624 -0.20700659
 -0.7518779  -0.03732722 -0.44670585 -0.22787671 -0.4928133   0.46095398
 -0.2875358  -1.0894836 ]
[ 0.03385795  0.33809006 -0.16369303  0.20874172  0.9190503  -0.6856477
  0.8828893   0.19329822 -0.7089936  -0.2484432  -0.06440287  0.21979012
 -1.3676239   0.32459882 -0.02454912 -0.2793651  -0.10777485  1.0991541
 -0.17588535 -0.7678854 ]
[-0.29807863 -0.00760679 -0.697966   -0.1976453   0.5885717   0.47024667
 -0.02406862  0.29839215  0.440215   -0.08475608  0.03247285 -0.23392451
 -0.6506199  -0.14969228  0.45233727 -0.604991    0.1169747  -0.46638384
  0.50781786 -0.7931773 ]
[-0.7617408  -0.5338467   0.8842424  -0.6680044   0.18418528  0.89500314
 -0.93575853 -0.47014156  0.945075    0.58115786  0.0111606   0.9131099
 -0.36648548 -0.3448095  -0.05679327  1.5776378   0.8187165  -0.10896847
 -0.7979169  -0.67125475]
[-2.4473663e-01 -1.4703342e-01 -1.4179735e-01 -1.4535387e+00
 -7.6221977e-04  3.0298179e-02  1.9602703e+00 -1.0587230e+00
 -9.9647307e-01 -1.0205021e+00  1.7701899e-01  3.2991841e-01
 -7.1007025e-01 -7.4877238e-01  3.6426240e-01  4.3005371e-01
  4.3396201e-02 -1.1413929e+00 -2.2163886e-01 -8.7297750e-01]
[ 1.9208746   0.13602741  0.7132799   0.12958552 -0.8869329  -0.78069544
 -0.61050826 -1.3513262  -0.4642865  -2.2700837   1.8876643  -1.2007139
 -1.774494    0.8600514  -0.78358984 -0.12271719 -1.0240065   0.60199946
  2.599124    1.5001007 ]
[-0.45894727 -1.3204606   1.6618639  -0.9840803   0.14906715  0.04931492
 -1.0948646   0.683797    0.6436016   1.0625272  -0.5257065   1.6333406
 -0.65518504 -0.9628578  -1.0054476   1.0589454   0.09793973  1.3930432
 -1.5177217   1.9802943 ]
[ 1.1143287   1.0692515  -0.9818396   1.4038612  -0.49347818 -0.7514583
  1.2438242   0.7016441  -0.59252864 -0.40997222 -0.23984441 -0.32716253
 -1.014129    0.08965597 -0.91333735  1.1248987  -1.6832138   1.3524525
  0.7365302  -2.097328  ]
[ 0.54510623  0.15041807  0.42620152  0.9519419  -0.1582887   0.1466126
  0.05824053  0.2578088  -0.64731205  0.8886208  -0.32683927  0.24421011
  0.881722   -0.15184376 -0.16666083 -0.6151996   0.38781852 -0.18702024
  0.08193602  0.71070254]
[ 0.14664659  0.05550703  0.16544028 -0.18429916  0.02031415  0.29996708
 -0.01677108 -0.1471094   0.22951996  0.7001852  -0.10088159 -0.16554998
  0.74038357  0.493666    0.63653696 -0.28943092  0.08682031 -0.11189783
 -0.88733786 -1.5834417 ]
[-0.35518548 -1.4252698  -1.2572775  -1.4647392  -1.2331022  -1.0922514
 -1.2503875   1.0472597  -1.7182026   2.2479951   1.2126929  -1.1426213
  2.0397017  -1.5644212  -1.3786925  -2.759762   -1.0195508  -0.768316
 -0.43273854  1.2181306 ]
[-0.9195059   0.14343326  0.5081541  -0.7891854  -0.0062749   0.3395307
 -0.39948002 -0.36849558 -0.28496042  0.31825572  0.4316185  -0.44209844
 -0.16826312  0.1333895   0.45135123  0.6659581   0.87798715 -0.9964081
  0.35168377  0.30080533]
[-0.13497001 -0.11300208 -0.6951352   0.1544718  -0.6285505  -0.989631
 -2.1913319  -0.26040408  3.177318    0.744591   -0.52704823 -0.2265054
 -0.47406316  0.55583984  0.30176017  0.65889156 -0.7675053   1.6045772
  0.10739722 -0.02300426]
[-2.1736958  -0.21075718 -1.0747141   0.5834809   0.14598146  0.37098005
  1.1801105   1.8710532  -0.16556668  0.88391036 -2.271528    2.2337
 -0.00306603 -1.7702454   0.18197091  1.1387559   1.6738107  -0.30870858
 -1.0196939   0.8749143 ]
[ 0.9435914   3.7696373  -2.1375296  -0.24579678  3.0619242   2.4328105
  1.1556436   1.3626136   0.59582806 -1.7121276   1.4135522  -0.89061666
 -1.9959767   2.6680915   4.518372   -1.2653297   1.4234042  -2.3302453
  1.4599782  -1.348058  ]
[ 0.30977115  0.2792861   0.22746499 -0.01025133 -0.06131336 -0.22627668
  0.26838604  0.05968134 -0.18823075  0.26369342 -0.04702744  0.16043015
  0.5163496   0.26616144 -0.01518832 -0.33957422  0.2522952  -0.02995752
 -0.30140555  0.74216086]
layer 1 Activation
tanh
layer 2 Dense
20 40
[-0.41700697 -0.690625   -0.7715109   0.06614971 -1.3464764  -0.9098134
  0.02157392 -0.96398354 -2.0341833   0.19765784  1.4722966  -0.01880121
 -0.42346606  0.90133345 -0.7134973  -0.28637972 -0.9113693  -0.00220985
  0.21977428  0.63146055 -0.1520021  -0.4875504  -0.00415542  0.820902
  0.6304251   0.44994888 -0.47620028  0.9830626  -0.04673164 -0.3829413
  0.15642813 -0.6307898  -0.1529879  -0.11881481 -0.39550123 -0.41965508
  0.82848173 -0.9266264   0.5634854   0.37369728]
[-0.33017933  0.9655178  -0.6390217  -0.6866938  -0.7884217   0.56285787
 -0.44230112 -0.5999758  -0.78055006  0.34894747 -0.09398351 -0.26906264
  1.0227295  -0.04769494 -0.43996483  0.56300616 -0.04121607 -0.16372094
  0.57216644  0.01984199 -0.51929134  0.64570063  0.6495449   1.1520312
 -0.7859031   0.6536771   0.7111631  -0.44876152  0.19152594  0.13886346
  0.7445283   1.0077033   0.2923824   0.2859659  -0.2763662  -0.72033477
 -0.7539764  -0.4804439   0.20676677  1.0266935 ]
[ 0.53829056 -0.20364933 -0.42987433  0.3092077  -0.23748666 -0.9182897
  0.7653867  -0.82461816 -0.2515616   0.19449425  0.7412649  -0.33227068
 -0.06088849  0.5779136   1.0535345  -0.57258356 -0.21105035  0.00826408
  0.5592787   0.18818305  1.2169365  -0.65561545 -0.07647382 -0.9364831
  0.45070773 -1.1449181   0.39550862  1.0197891   0.3587067  -0.8198793
 -0.6826985  -1.173737   -0.11303926 -0.2568774   0.6613437  -0.26445323
 -0.10374936 -1.0148667   0.71445364  0.74878037]
[-0.41296852 -0.4779642   0.5163843  -0.30261073  0.16515945  0.09502751
 -0.21575186  0.1097259   0.13349046 -0.97874504 -0.41659904 -0.3991752
  0.48205233 -0.4748331  -0.91731167 -0.3109193   0.87310064  0.0051898
 -0.2564321   0.17131655 -1.5351453   0.6145362   0.40768427  0.67842895
 -0.54662    -0.08550201 -0.59112895  0.09840173 -0.75311357 -0.00937589
  0.5411567   0.37309524  0.16078319  0.24122429 -0.66903305  0.9039477
  0.44367954  1.5156233  -0.09259029 -0.4788475 ]
[-0.5569698   0.8039022   0.1652742  -0.10799211 -0.41917893  0.68640375
  0.2012408   0.92218965 -0.5722061  -0.60865754  0.04322973 -0.37461522
  0.39515397 -0.09940601 -0.09792209  0.9515909   0.6600338   0.01408373
 -0.1978216  -0.63597584  0.00834683  0.5458927   0.4276011  -0.03912294
 -1.1256714   0.7667036  -0.1722478  -0.6905107  -0.14333642  0.6570979
  0.46912855  0.2252914  -0.11779149  0.66966414 -0.60977876 -0.40569955
 -0.63310105  0.13341255  0.10749692  0.1731595 ]
[-2.06144661e-01  4.42843616e-01 -3.18132453e-02 -2.86059380e-01
 -4.40313488e-01  4.16501641e-01  1.89654529e-01  1.98137641e-01
  1.98626950e-01 -1.23259984e-01 -4.16214198e-01  1.80133432e-01
  7.30389297e-01  1.61180213e-01 -3.47732380e-02  1.13409865e+00
  3.34635139e-01 -4.20000076e-01 -6.77698990e-04 -5.37310481e-01
  1.20685950e-01  6.56274140e-01  1.03383291e+00 -4.17426676e-01
 -5.66909134e-01  3.00445646e-01  2.66892046e-01 -3.79962057e-01
 -2.00796500e-01  4.43605006e-01  1.05545974e+00 -2.21409705e-02
 -6.77758381e-02  6.03085399e-01 -6.90765679e-01 -5.31714857e-01
 -7.51233935e-01  4.65238959e-01  4.70381379e-01  2.60596186e-01]
[-0.75603354 -0.6086044   0.6747399  -0.07073679 -1.3622609  -0.795461
 -0.7843785  -0.7818382   1.0055473   0.5814656   1.6321687   1.3497641
  0.58246     0.07219178 -0.22672376  0.87205935 -1.3544127  -0.41457787
 -0.3956115  -0.12683383 -0.61971384 -0.2974109   0.92447174  0.49172932
  0.7793682   1.0062866  -0.57763475  0.5512255   0.56372446  0.46593198
  0.09536356  0.06883845 -0.38353935 -0.17217818 -1.3137052  -0.15569763
 -0.38987058  1.4707834  -0.10668445 -0.44585148]
[-0.2959896   0.8361544   0.288703   -0.8542278  -0.18676747  0.13158414
 -1.1818267   0.354977    0.01063046  0.37640628 -1.0085795   1.2444543
  0.46728593  0.00807517 -1.2017286   0.43286678  0.3729717  -0.9080802
 -0.45614287  0.43534893 -0.69960237  0.5101896   0.2078146   0.8371307
 -0.19590428  0.5422999   0.39337334 -0.6520759   0.22166704  0.3357343
 -0.22258358 -0.05543121 -0.3696337   0.27914563 -0.649908    0.713908
 -0.29948315  0.82120085  0.2475543  -0.6471825 ]
[-0.36908737 -0.16685502  0.10716548  0.03396916 -0.02247338 -0.43765184
 -0.74334216 -0.25770298  1.0619118   0.21953295 -0.7531428   0.06119926
  0.58420944  0.9881073  -0.6568542   0.6031158   1.0916421  -0.08132946
 -0.2896631   0.3627119   0.1666198   0.2913794   0.001568    1.0969185
  0.42277235  1.1718223   0.31111854  0.27095908 -0.02302924  0.9647869
  0.44464457 -0.01076496  0.09097496  1.0557466  -0.645023    0.93837297
 -0.09855187  0.7321822   0.42551738  0.8044299 ]
[ 0.0695404   0.5672449   1.0750544  -1.3007113   0.79565585  0.07003224
 -1.2299749   1.1042525   0.71944976  0.1948598  -0.9953163   0.7486145
 -0.47802502 -0.25703168  1.721053    1.058259    0.4570725  -0.32877162
 -0.9497386   1.2209227   1.0144523  -0.18899071 -0.6829308   0.1088085
 -0.06849344  0.06576282  0.66830295  0.79212946  0.38161328 -0.14170113
  0.4571061  -1.5410514  -0.13366313  1.2432514   0.51090544  0.5372802
 -0.22048517  0.32693052  0.0377915  -0.24372035]
[-0.11495847 -0.31885746 -1.2849878   0.83493006 -0.21208657 -0.25775385
  0.39385045 -1.7304391  -0.5350346  -0.2040258   0.39345863 -0.7170827
  0.31991622  0.06349645 -0.3321899   0.0750634   0.02527008  0.40622646
  0.97797465 -0.31732425  0.07521341  0.23166667  0.7096078  -0.02709453
 -0.23047319  0.39959213 -0.15522097 -0.05733492 -0.12726903  0.1969529
  0.51307195 -0.03960707  0.83570474  0.0892675   0.04594968 -0.5080322
  0.03596125 -0.3385344   1.017644    0.7788835 ]
[-0.59904397 -0.3125921   0.9949093  -1.0259191   0.25581473  0.3396878
  0.32793617  0.7345824   0.9793135   0.20442466 -0.33685493  0.62055415
  0.67390126 -0.4739032  -0.4092725  -0.39077562 -0.1622678  -0.95367384
 -1.1833416   0.01678837  0.2591386   0.341773    0.3800474  -0.20635039
 -0.05287702  0.27740827  0.11893898  0.16357659  0.3346111   0.5793064
 -0.6995115  -0.5286289  -1.3551714   0.657548   -0.2709592   0.9172333
 -0.62844646  1.3078203  -0.40853932 -0.3055803 ]
[ 0.36855295  0.39875478  0.0597346  -0.31355095  0.5214787   0.44755366
  0.25454137  1.0320934  -0.5261092   0.33171707 -0.7989872  -0.04118878
 -0.41058266 -0.5328069   1.4347106  -0.00963918  0.2571014   0.45181277
  0.30919322  0.10387744  0.42405182 -0.00589668 -1.0020373  -0.2099085
 -0.16463637 -0.94543046  0.40004572  0.52084446  0.1872702  -0.73808444
 -0.07594189 -0.5956683   0.31246844 -0.3557414   0.23055509 -0.3024574
  0.53037965 -0.18130448 -0.7439626  -1.2094152 ]
[-0.57815593  0.10470916 -0.16330136 -0.07457256 -1.2225268   0.28057218
 -0.08100681 -1.3141005  -0.7907209   0.297431   -0.04463507 -0.5004882
  0.58327824  0.7951979  -0.09976442  0.60294783  0.00499724  0.49279442
  0.7630952  -0.42013833  0.4443285  -0.27209496  0.71507776  0.7880379
  0.00726296  0.27397168  0.33471566 -0.15757369  0.54550034  0.14908051
  0.45812374  0.3462686   0.49290892  0.11791147 -0.70861065 -0.03559315
 -0.25408152 -0.17363897  0.69596314  0.9070907 ]
[-0.8864052   1.072109   -0.28212374 -0.16015163 -0.15835044  0.6760769
 -0.30277666  0.13207528  0.42492995 -0.243636   -1.0387307  -0.40423045
  1.0233035  -0.26061603 -0.16944541  0.98527837  0.24443966  0.0408448
 -0.19397387 -0.24392894  0.85108536  1.3521146   0.5301453   0.5446588
 -1.297586    1.5780718   0.6801036  -0.98617065  0.07878477  0.82221895
  1.2253168   0.97533125  0.188662    0.71508    -0.9930349  -0.29732898
 -1.0237074  -0.07284115  0.23427771  1.1324711 ]
[-0.4154566  -0.3744308   0.72397757  0.03624246  0.6548912  -0.6492184
  0.28882533 -0.14319447  1.4949553   0.32298812  0.6361292   0.14120863
  0.41390252 -0.22814752 -0.4416279   0.11707371 -0.15232271 -0.1641481
 -0.4930539   0.24709158 -0.29501456  0.04514462  0.13794945  0.13048644
  0.8505238   0.27572104 -0.36739767  0.19963397  0.2866279   0.6682152
  0.31689143  0.2078625   0.08314869  0.6987389   0.5273035   0.8065377
 -0.78673226  1.0124296   0.9263579  -0.32626888]
[-0.69061404  0.16910332  0.18070945 -0.78870916 -0.2877085   1.1106849
  0.50264543  0.00989072  1.3120028   0.29956418 -0.56442136  0.3459397
  0.6198098  -0.8887754  -0.33649844  0.8989118   0.55329543 -0.23339413
 -0.6446484  -0.49644724  0.1762257   0.9436869   1.0092033   0.56524134
 -0.6381797   0.5786868   0.56659067 -0.4256904   0.04451806  0.3497148
  0.95550644  0.09199777 -0.70445764  0.6193661  -0.7156422   0.2117745
 -0.34224468  0.7714484   0.02499319  0.35814676]
[ 0.4784012  -0.11812135  0.07184438  0.26411444  0.9476559  -1.62463
 -0.92325103 -0.08349185  0.12233584  0.07867101  0.67603344  0.69517046
 -0.54999816  0.39131284 -0.2801528  -0.6217812   0.13235983 -0.50895053
 -0.30378845  0.95296055 -0.11317372 -1.1135774  -0.81570846  0.13229397
  1.5172217  -0.8874933  -0.22403869  0.55250853  0.27686012 -0.7231835
 -1.1391007  -0.09941833  0.12848987  0.4288593  -0.16318907  0.9491558
  0.47883886  0.23164885 -0.06973688 -1.0194008 ]
[ 0.59236044  0.47979328 -0.9240883  -0.45432812 -0.7493457  -0.2938588
  0.15285337 -1.182142   -1.0958883   0.30624157  0.41317248 -1.2508726
 -0.7110641   0.08584643 -1.159914   -1.0758363   0.22760019  0.9223358
  1.2318366  -0.3250803  -0.20028211 -0.4183462  -0.17822114  0.00892923
  0.31042248 -0.71427685  0.05093257  0.40196934  0.0924949  -0.22213557
 -0.07973118  0.01556244 -0.11792944 -1.1646276   0.27290466 -0.7900567
  0.9870679  -1.0852542  -0.08116364  0.2340046 ]
[-0.02941622  0.4102535   0.3413048  -1.2896796  -0.22356783  0.4962736
 -0.08400533  0.03589517 -0.5184589   0.44525355 -0.949711    0.01473985
 -0.6804266  -0.39211634  0.5715922  -0.4689538   0.03402392 -0.37712637
 -0.61091274  0.49088615  1.9353979   0.13040802 -0.22804345 -0.24226952
 -0.38233897  0.12497456  1.2950137   0.99050915  0.596766   -0.17942743
 -0.37596902 -1.0767766  -1.582503   -1.274029    0.3037322  -0.3925569
  1.0825155  -0.29549772 -0.6474615   0.19593613]
[ 0.11354847 -0.15295358  0.55235004 -0.00368282  0.00296767 -0.5707421
 -0.46465895 -0.01367952  0.4203545   1.161316    0.4064293   0.71229434
 -0.5333173   0.0743747   0.79276204  0.42258352 -0.57813555 -0.32684577
 -0.48813766  0.47793487  1.3598424  -0.78257143 -0.7056834   0.36507306
  0.8868671   0.0116416   0.51264924  1.2777164   1.4240049   0.12675644
  0.08051486 -0.52902716 -0.6965076  -1.047883   -0.17004211  0.47836074
  0.6817433   0.5301719  -0.28004774  0.02472484]
layer 3 Activation
tanh
layer 4 Dense
40 20
[-0.26241133  0.05988505 -0.18971856  0.0933544   0.7096062   0.22412361
  0.06478045 -0.29189786 -0.4727614   0.10918732  0.45567507  0.04670672
  0.16631688  0.06465591  0.17149858  0.84965485 -0.20334758  0.45846292
 -0.05205377  0.26878545]
[ 0.3673318   0.11042789 -0.84717333  0.55175364 -0.59538335 -0.18218547
 -0.1558076  -0.26235795  0.13456944 -0.21363212  0.28173417 -0.6434312
  0.06879331 -0.62151957  0.07200006  0.6777849   0.29147932 -0.25280648
  0.17150468  0.39874047]
[-0.29674345 -0.2286539  -0.45207953 -0.01328814 -0.24629277 -0.45625514
 -0.7360521   0.48576796 -0.16390726 -0.45610607 -0.1361777   0.02453066
  0.13507849  0.41344398  0.23748901 -0.10582895 -0.3447382  -0.13153967
  0.51628584  0.14176948]
[-0.33016446  0.03515923  0.57783234 -0.14355132  0.12069108  0.23506361
  0.13560465  0.25721097 -0.22696297  0.16715597  0.24667862  0.5676186
 -0.44400844  0.19113763  0.11098561  0.5395629   0.3284858   0.28675142
 -0.05941939 -0.2202806 ]
[ 0.41988137 -0.01725323 -0.03995383 -0.17008051 -0.5561559  -0.40800735
 -0.00727971  0.40176165  0.5490047  -0.5397486   0.22487256 -0.08605209
  0.21185349  0.25029096  0.6111997   0.00117083  0.43954247  0.10047092
  0.33229753  0.2771868 ]
[ 0.6437379   0.05281882 -0.5092932   0.7449453  -0.5509041  -0.13535267
  0.01844765 -0.18982202  0.49417967 -0.3280372  -0.15170477  0.04593319
 -0.10570361 -0.33412236  0.23759656  0.08645593 -0.398773   -0.53614664
 -0.25066063 -0.18862654]
[ 0.3521528   0.38004822  1.0159692  -0.14694993 -0.54298884  0.8043715
  1.1038865  -0.23739949  0.13803078  0.04596024  0.08931768 -0.07073838
  0.01980686 -0.8089378   0.13821569 -0.6586985   0.33676508 -0.08983062
 -0.36118323  0.18987793]
[-0.19162026 -0.13557707 -0.42824444  0.01257031 -0.01245148 -0.58160484
 -0.40036786  0.87593853  0.50286067 -0.42043212 -0.638149    0.35014457
 -0.4160724   0.63364947  0.1565974   0.5281298   0.1801852   0.11503617
  0.775904    0.5199746 ]
[-0.6359593   0.5050386  -0.38495055  0.59173644  0.18366781 -0.06077752
 -0.11761066  0.6020419  -0.74179614 -0.27905267 -0.36476463  0.85860455
 -0.28792804  0.67938155  0.738048   -0.5436381  -0.39360425 -0.67350066
  0.7765054  -0.8965177 ]
[-0.81895435 -0.29907355 -0.12421367 -0.75409436  1.0978069   0.03826668
 -0.4222796  -0.01659831 -0.04203252 -0.2013631   0.13912235 -1.5486465
  1.1348994   0.2998702  -0.47075766  0.3736688  -0.1352999  -0.02617954
 -0.23219642  0.18572837]
[-0.36911407  0.23232877  0.54661804  0.1448627   0.7677781   0.53588766
  0.4627928   0.02415011 -0.7709283   0.8807094   0.2713146   0.11705068
 -0.6182517   0.09275553 -0.77500236 -0.12504081 -0.26991922 -0.09271129
 -0.29175958 -0.6214424 ]
[-0.47216472 -0.81855446 -1.4195949  -0.22821799  0.28043193 -0.38124463
 -0.89428365  0.9605239  -0.5692134  -0.40315935 -0.22862516 -0.24616458
 -0.20012546  0.71490943  0.42140067  0.4391996  -0.6250915   0.36130917
  0.29084918 -0.06697218]
[ 0.5676478  -0.00089204  0.29483512  0.5186182  -0.74340975 -0.13646866
 -0.6506445   0.10370445  0.4986094  -0.2356626  -0.2724261   0.61058694
 -0.32937986  0.44528905  0.13590795 -0.6984496   0.12367845 -0.22924389
  0.18599479 -0.43303943]
[-0.43101993 -0.20105866  0.00815499 -0.14692529  0.3064569  -0.01667853
  0.07902496 -0.06721327 -0.48821297  0.00735402 -0.5008417  -0.20059314
  0.05982799 -0.03564922 -0.14650929 -0.05954056 -0.23924954  0.29554737
 -0.3401712   0.10097256]
[-0.02487564 -0.37868324  0.01409011 -0.14992489 -0.45508102 -0.17519698
  0.2290034  -0.635558    0.26701248 -0.01960864  0.4194851  -0.82695067
  1.0559114  -0.11676133  0.64217836  0.45607585  0.20467934 -0.00508728
  0.34313625 -0.0323688 ]
[-0.14664775  0.4697705  -0.06865355  0.04116889 -0.25111133 -0.6477831
 -0.3881328   0.5956246   0.45143157  0.14382859 -0.24133317 -0.20068818
 -0.21564561  0.2760246  -0.42865813 -0.3106625   0.1773266  -0.86900425
  0.02697826 -0.29630995]
[ 0.48222136  0.36766618  0.20260383  0.37419587 -0.7172378  -0.23984613
 -0.24972811  0.05843259  0.24375764 -0.23790126  0.4430255   0.07537878
 -0.2411898  -0.48269024  0.8285953   0.4412021   0.2233047  -0.17606585
 -0.09541353  0.41717303]
[ 0.12868471  0.21552427  1.4045259  -0.10654408  0.253855    0.02434811
  0.22854641 -0.36919904 -0.25584978  0.29211953  0.04784843  0.30274212
  0.06647106 -0.18670945 -0.4461936   0.47010365  0.21100271 -0.44992122
 -0.4246314  -0.01698705]
[ 0.00162646  0.596562    0.7643899   0.2921669   0.06370931  0.64073986
  0.51917756 -0.5254865  -0.26849988  0.3553812   0.18002172  0.31745037
 -0.22903548 -0.49844676 -0.5099558  -0.10220104  0.44968903 -0.38894472
 -0.62923855 -0.28322056]
[-0.46081287 -0.02229882 -0.29759198 -0.25675988  0.62684244 -0.47862503
 -0.02045297  0.17352533 -0.18717156  0.0203598  -0.15865132  0.02784843
  0.03248166  0.46756303 -0.2099596  -0.09927464 -0.2738603   0.01219441
  0.3196597  -0.02171742]
[ 0.2781426  -0.7216707  -0.5711097  -0.21083397 -0.5083337   0.1431847
  0.5223206  -0.7750441   0.323154   -0.74757063  0.87132293 -1.8080063
  1.4101523  -0.91856414  0.7262624  -0.08705074  0.5606443   0.40134495
 -0.21932016  0.8460093 ]
[ 0.18466948 -0.30764878 -0.31997666  0.65767497 -0.6645381   0.06744108
  0.06854149  0.08045637  0.3582672  -0.03680507 -0.33482775  0.519145
  0.05283414  0.11533774  0.13332874 -0.11627841 -0.20540503 -0.15427348
  0.3663565  -0.04907435]
[ 0.23864146  0.2698659  -0.04902193  0.45469347 -0.53003794  0.3452941
  0.32962254  0.15933725  0.44996127  0.5836992  -0.11209992  0.5407445
 -0.7833242  -0.33025855 -0.19850904 -1.2586284  -0.4849367  -0.7534079
 -0.03056501 -1.0394269 ]
[-0.23085015  0.2716668   0.11934058  0.41978097 -0.3803999  -0.12353562
 -0.20899075  0.07617297  0.5233528   0.71493894 -0.39737096 -0.16501445
  0.03344702  0.42888206 -1.063945   -0.38641128 -0.9152473  -0.54388016
  0.38679075 -0.45305708]
[-0.660574    0.12267524  0.6670805  -0.62968767  0.708378    0.07770541
  0.11473582 -0.01769404 -0.2554539   0.3567435   0.6127846  -0.09012181
 -0.07653578  0.54278195 -0.38789526  0.41080996  0.7279596   1.0180956
 -0.3305379   0.53407586]
[ 3.2398364e-01  2.6957941e-01 -5.9812088e-02  5.5932319e-01
 -3.1690741e-01 -1.5805607e-01 -3.4197080e-01  1.5438610e-01
  4.2317176e-01 -1.9159788e-01 -4.4674399e-01  2.8512934e-01
  3.7296897e-01 -1.8318489e-01 -1.4152817e-01 -1.1955246e+00
  7.7189699e-02 -2.8303879e-01  1.9178540e-04 -7.7302021e-01]
[ 0.19805577  0.02468101 -0.01017507  0.17386322 -0.33644083  0.11045887
 -0.02314603 -0.27556574  0.3415782  -0.13312586  0.7168617  -0.7788223
  0.2897459  -0.23672526  0.12824126  0.0189707   0.04579946 -0.24301
 -0.12337513  0.7838667 ]
[-2.2899783e-01 -8.4262535e-02  1.6288202e-01 -5.6616855e-01
  4.7258106e-01  6.0869250e-02 -3.2573450e-01  2.7890581e-01
 -2.7303430e-01  3.3410096e-01  2.4604014e-01 -1.0626439e+00
  4.0654773e-01  2.2284251e-01 -6.4408463e-01  5.6533593e-01
  1.1770897e-01  9.3825787e-01  5.2827305e-01 -2.9851659e-04]
[-0.29953286 -0.74545753 -0.40053126 -0.4670557   0.37208566 -0.4485085
 -0.4103994   0.52982527 -0.01497038 -0.31004664  0.3433342  -1.3518088
  0.92479986  0.52447945 -0.17485821  0.24057958 -0.37789503  0.18888013
  0.13494621 -0.25975934]
[ 0.4036907  -0.05333751  0.21487424  0.06531615 -0.25738516 -0.32659194
 -0.3158281   0.282169    0.17480761 -0.2971978  -0.05661467 -0.17537218
  0.34205148  0.21154228 -0.20285554 -1.0477948   0.15529044  0.07789568
  0.14088348  0.00945759]
[ 0.62872595  0.26511487 -0.05926693  0.49288648 -0.38625163 -0.2424949
 -0.07221302  0.1934209   0.4995345   0.07859861 -0.17646228  0.35529384
  0.0993708   0.02431678  0.12812567 -0.70133793  0.3631568  -0.6270312
  0.20638876 -0.44593012]
[-0.15134099  0.40740228  0.38880286 -0.39066544 -0.60721684  0.6100058
  0.20300484 -0.4905813   0.6070278  -0.2649273   0.42988995  0.47032586
  0.18005556 -0.52619517  0.06628273  0.05932936  0.6206462   0.00550791
 -0.25510317  0.15461984]
[-0.25187254  0.02259631  1.2965173  -0.27599394  0.34785137 -0.14728451
 -0.08813863 -0.5246922  -0.45413077  0.33580709 -0.16843775  0.65903515
 -0.61104727 -0.6144173  -0.37628633  0.7830943   0.5290454   0.00909252
 -0.02037597 -0.05640071]
[ 0.37240475  0.1069797  -0.01715005  0.40290385 -0.22521067  0.12577711
 -0.20254628  0.12459353  0.04422433  0.20410158 -0.11281224  0.7661182
 -0.83345234  0.36033383  0.29776162 -0.8345658   0.13801539 -0.2145337
  0.16605139 -1.043257  ]
[-6.2834918e-02 -6.6180140e-01 -1.4938660e-01 -2.2236830e-01
  4.3118590e-01  5.5095774e-01  3.3652750e-04  4.7204398e-02
 -8.9069486e-01 -6.7983937e-01  9.8370284e-01 -3.4771833e-01
  6.7026675e-01 -9.0912886e-02  7.0234013e-01  9.2044199e-01
  4.0624779e-01  8.7433165e-01 -5.0992268e-01  3.5676602e-01]
[-0.8789942   0.10648081  0.03949444 -0.37866336  0.3436946  -0.79521435
 -1.0757254   0.5292411  -0.19136915  0.1665208  -0.08740286  0.17647049
 -0.2278451   0.5843005  -0.04651084 -0.13270208 -0.08494139  0.05488182
  0.07533992  0.08565959]
[-0.26810145 -0.5950023  -0.28203633 -0.7728391   0.17413938  0.20268244
  0.47791255 -0.07780638 -0.18325438  0.27978653  0.16706862 -0.6116213
  0.5415534  -0.62110406 -0.40739703  1.4306142  -0.13066582  0.26223123
  0.06411104  0.79677933]
[-0.11062355 -0.5429519  -0.5740904  -0.07820124  0.27143463 -0.3031387
 -0.32763508  0.49613342 -0.71829164 -0.05483764 -0.50844467  0.37875286
 -0.39510864  0.43965465 -0.33690274 -0.6091771  -0.71162415 -0.03057248
  0.7346103  -0.7235189 ]
[ 0.40467927 -0.16418456 -0.48801968  0.32654765  0.5721822  -0.02956833
 -0.38672394 -0.33977607 -0.2422789   0.0567367  -0.3825468  -0.02930967
  0.05346282 -0.10567741  0.05282493 -0.85766596  0.42559165  0.01986292
 -0.34573436 -0.87092537]
[ 0.13898721  0.20108435  0.05530037  0.13069558 -0.10158103  0.03685158
  0.4371927  -0.16542113  0.24115996  0.35109797  0.24925576  0.1807864
  0.49644938 -0.4889469   0.06697585 -0.9894796   0.23222005 -0.51279336
  0.00417928 -0.8989886 ]
[-0.46180794 -0.26273102 -0.1273248  -0.34337094  0.49731508  0.01809896
 -0.2534963   0.66027886 -0.08175129  0.19354096  0.24691966 -1.7123495
  1.2039784   0.17417523 -0.12254594 -0.2883031  -0.14498018 -0.03812154
  0.16466007 -0.05183433]
layer 5 Activation
tanh
layer 6 Dense
20 1
[-0.13705274]
[0.0172894]
[0.00739143]
[-0.00471317]
[0.05403427]
[-0.03140277]
[-0.01551447]
[0.10785688]
[-0.10361356]
[0.16229849]
[-0.10233899]
[0.3003013]
[-0.3318176]
[0.07240508]
[-0.11563282]
[-0.06038988]
[-0.08773002]
[-0.08467451]
[0.0154288]
[-0.06103131]
[0.594426]
