layers 7
layer 0 Dense
20 20
[ 0.1687569   0.08962971 -0.11743172  0.15218624 -0.16093884 -0.28347087
  0.242012   -0.2784726   0.5841021  -0.16332147 -0.42816007  0.13546993
 -0.3316462   0.05990157  0.2214898  -0.2648001  -0.07554732 -0.00837724
  0.20655306  0.22168718]
[-0.11058441 -0.22401296  0.09017202 -0.27393073 -0.1931029  -0.01927578
  0.07973382  0.03900072  0.28456837 -0.2234954  -0.22299482 -0.27584234
  0.08504072  0.0034146   0.31273526 -0.361125    0.29171646 -0.01397127
 -0.22019307  0.01788896]
[ 0.23873931 -0.34711725 -0.01580375  0.30374706 -0.06386295  0.17428702
 -0.28801525 -0.24708767  0.2631322  -0.0939737   0.21973598  0.07290366
 -0.21655269  0.34206587 -0.04047501 -0.33114398  0.26439583 -0.0986867
  0.00284562 -0.10389405]
[-0.0949757  -0.00894422 -0.44916785 -0.38715577 -0.09069514 -0.164945
  0.3599792   0.07846294  0.5749068   0.06479471 -0.08519236 -0.07315587
 -0.56130147 -0.22916478  0.3561392  -0.00115051  0.35207358 -0.44120008
 -0.17541283 -0.23967087]
[-0.1016177  -0.25058854  0.10429861 -0.58939976 -0.3185541   0.09048194
  0.00831638  0.19657545 -0.2811168  -0.04225748 -0.5819228   0.27913427
  0.5164188   0.15154953 -0.1342862   0.01599367  0.24028967  0.04780096
  0.0320711   0.66317296]
[-0.35629475 -0.2044764  -0.2679842   0.02981779 -0.13206038 -0.2709131
 -0.35591394  0.23833752  0.38681918 -0.17951038 -0.1853599  -0.16066629
 -0.00118065 -0.29439005  0.37144417 -0.2411691   0.01928973 -0.20831105
 -0.00450578  0.07462415]
[ 0.22210532 -0.03660646  0.03313118 -0.35546213  0.22243541  0.12993783
 -0.36049655  0.33131754 -0.38493484  0.11833757  0.33660573  0.10251442
 -0.28008902 -0.028294   -0.13189563  0.38420415 -0.06852329 -0.3821717
 -0.2960927   0.2505299 ]
[-0.04960911 -0.02330863 -0.2969908   0.26741853  0.2919202   0.05805748
 -0.10752086 -0.08971527 -0.1369003  -0.32822984  0.8618806  -0.23211627
  0.5698147  -0.18100232 -0.38406998  0.20892242 -0.1438459   0.05736251
  0.03187845 -0.1415194 ]
[-0.10567845 -0.13472706 -0.07610905 -0.33751    -0.00421312  0.00565418
 -0.20928328 -0.00989218  0.07926959  0.06446159  0.56281257  0.10058871
  0.39554125 -0.10248374 -0.15560605  0.12982562  0.09291833 -0.02130062
 -0.02882132 -0.1366809 ]
[-0.35005513 -0.15527625 -0.23091562  0.04477614  0.17695296 -0.29450172
  0.13324696  0.47514987 -0.15919629 -0.26461488 -0.15043554  0.11265292
  0.09760866  0.44728255  0.59002817 -0.4583793   0.06522852 -0.27661574
 -0.7369494   0.25397113]
[-0.20664562 -0.07086679  0.7310942  -0.28665006 -0.11137239  0.35880753
  0.3318794  -0.4493275  -0.11877527  0.33072877  0.46274132  0.27086684
  0.19578429  0.09550241  0.70877814 -0.46959007 -0.0446025   0.08647409
 -0.3440276  -0.23639813]
[ 0.6321051  -0.19412488 -0.42436293  0.39342967  0.2677983  -0.15888001
 -0.24321024 -0.73974705 -0.1256783  -0.08486053  0.08724157 -0.19102924
  0.74215096  0.60547924 -0.20421658 -0.09144264 -0.5141428   0.5050724
 -0.746818   -0.6371697 ]
[-0.01337269  0.1977932  -0.08903624 -0.03343718 -0.44418487  0.469598
  0.05511169 -0.27590638 -0.2699189   0.09955115 -0.05792121  0.3136285
 -0.40617    -0.02583004 -0.69337714 -0.09232958 -0.09122452  0.00985139
  0.27628887  0.47422165]
[-0.47571316  0.51083267  0.14506274  0.02879272  0.14942008  0.46814445
 -0.23053692 -0.22615887 -0.04337212  0.41208205 -0.07342365  0.18944262
  0.11229958  0.3150453   0.37074926  0.1549999   0.5271851  -0.00935565
  0.2147686  -0.16544703]
[-0.16923366  0.58370566 -0.17730747 -0.33236828 -0.15233393 -0.28580004
  0.45794794  0.23968373 -0.03697517  0.44810984  0.58131295  0.16014351
  0.15329523 -0.09034102 -0.1544984  -0.37327763  0.01245114  0.4587329
 -0.13617797  0.0672439 ]
[ 0.05975061  0.39971915 -0.5867349   0.0676145  -0.02194364  0.17227189
 -0.70161796 -0.24240434  0.43814722 -0.9609649   0.283231   -0.5496879
 -0.85236865  0.03200056 -0.5011597  -0.3270088  -0.45159876  0.349965
 -0.257143   -0.30895793]
[ 0.04131581  0.07760813  0.2725049   0.5633233   0.5199289  -0.27658594
 -0.1091074   0.23046231 -0.26143935  0.43366292 -0.14952439 -0.26788014
 -0.05388689  0.22496668 -0.08701463 -0.10213835 -0.01123221 -0.23692182
  0.22532657  0.07265045]
[ 1.0801502  -0.85629267  0.04415558  0.16810527  0.43289977 -0.37761664
  0.3261225  -0.8203741  -0.4581773   0.23769425  0.33888343 -0.1048403
  0.07571792 -0.8599218  -0.59549177 -0.5120526  -0.43792564 -0.05372801
  1.0162767   0.61578584]
[-0.25835997 -0.34282055 -0.9047314   0.03739215 -0.21670526 -0.11535915
 -0.55064476  0.31914872  0.1294637  -0.8991496  -0.8175072   0.03635853
  0.15175417  0.3780815  -0.54498094  1.2306217  -0.24013856 -0.87437916
  0.511759    0.00472333]
[-0.5132244  -0.4516779   0.5473244  -0.35547942 -0.10300869 -0.1484299
  0.7663073   0.5122189   0.30329806 -0.05639612  0.22106184  0.04491313
  0.09690162 -0.20767067 -0.03720828  0.33926976  0.5399952  -0.6857895
  0.45907983  0.141989  ]
[-0.05374963 -0.07663876 -0.1768767  -0.06937972 -0.17381291 -0.18647318
  0.02473898  0.03810753  0.11749903  0.03728381 -0.13754162  0.1304459
 -0.29218864 -0.10726345  0.0178982  -0.0980551   0.16184184 -0.144295
  0.05993626  0.06162979]
layer 1 Activation
tanh
layer 2 Dense
20 40
[-0.19330516 -0.39886206 -0.43508175 -0.05425096 -0.00739152  0.03064887
 -0.22009057 -0.16673285 -0.5582973  -0.24052398  0.03683423 -0.11512253
 -0.19415708  0.3252451  -0.47971323  0.0533218   0.17698811 -0.0488992
 -0.0078422  -0.1524935   0.30107778  0.24735041  0.18850124 -0.3828375
 -0.17418084 -0.18634835 -0.13228965  0.12761125  0.23246731  0.5029181
  0.13176762 -0.8657892   0.35850623  0.18696052 -0.01048527 -0.46622336
  0.6419328  -0.2799324  -0.02790542 -0.84436   ]
[ 0.09728489 -0.0620724   0.29099813 -0.05038001 -0.25029913  0.28135484
  0.14231941 -0.07549432  0.0040764   0.08926389 -0.05567723  0.42495182
 -0.04936294 -0.17825384  0.16194862 -0.39735278 -0.07414994 -0.43236998
 -0.07261744 -0.13148165 -0.13890268 -0.2601532   0.52129054 -0.01767445
  0.44407484  0.13792697 -0.5339727   0.05684967  0.38914913 -0.552258
  0.11389591 -0.52993536  0.10286149 -0.26126215 -0.24848823 -0.42216164
 -0.2220117   0.21199389  0.05282822  0.36474752]
[-0.01718603 -0.33406186  0.20768186 -0.10481367  0.51946366 -0.30328584
 -0.58268195 -0.16198207  0.07275198 -0.15197392  0.10851011 -0.22010656
  0.28068125  0.32313183 -0.24460742 -0.21400233 -0.49037632  0.2577747
 -0.21528375  0.62686914 -0.09436505  0.02054263 -0.462951    0.34579122
  0.4948739   0.13899425  0.2983627   0.06542441 -0.2963695  -0.18636563
 -0.08091292  0.9380795  -0.3317938  -0.19223681  0.44905102  0.5643412
 -0.20401286 -0.38243288 -0.23908584 -0.21457103]
[ 0.23526311  0.4869241   0.67426664  0.5441486  -0.96648073  0.48933807
  0.97592604 -0.05684659 -0.06854047 -0.12855396  0.3443676  -0.2705999
 -0.46767306  0.14148203  0.5037088   0.444872    0.5828295   1.8835229
 -0.69649607 -0.6963395   0.68415993  0.3278983   0.92686796 -0.8689104
 -1.0347933  -0.9539651  -0.06198955  0.6202208   0.5906614   0.4047811
 -0.0791574   0.09289566  0.32474476  0.20262331  0.10825991  1.0371443
  0.5582281  -0.29406995  0.5957492  -0.07851125]
[ 0.31245744  0.34999394  0.20232743  0.6154606  -0.4877677   0.62123257
  0.05882962  0.41361678 -0.26827562 -0.5040567   0.08490093  0.27131975
  0.46614015  0.5592699   0.08843352  0.14799213  0.38680404  0.60825014
 -0.23093723 -0.69620883  0.5500688   0.5463265   0.32756385 -0.83424693
 -0.3876839  -0.534275   -0.3063439   0.52213824  0.29775792 -0.17396168
 -0.33763304  0.6299168   0.18202402 -0.05747347 -0.08313566  0.7991194
 -0.25030598 -0.66458195  0.0379008  -0.08468852]
[ 0.35672796 -0.27413628  0.075473   -0.21118751 -0.25893122 -0.62487316
 -0.23008074 -0.3801009   0.15611523  0.31374505  0.4554491   0.09291401
 -0.3477417  -0.41431764 -0.21313308  0.02075137  0.11347265 -0.20957595
 -0.16570273  0.04037685  0.08426484 -0.07440946  0.13239492  0.16973767
 -0.10241867  0.12988596  0.17383096 -0.12515213  0.26837584 -0.14501995
 -0.18305856 -0.32794368 -0.5391178  -0.02410223 -0.13870685  0.10562593
  0.08835553  0.18566808 -0.0152361  -0.14269944]
[-0.08847006  0.19384544 -0.4729638  -0.2517148   0.6116243  -0.00390148
 -0.19546193 -0.22997889  0.09630518  0.00351463 -0.06774612 -0.2290698
  0.63352853  0.03106731 -0.38470966 -0.09003137 -0.31333372  0.24527462
 -0.04038588  0.5591763  -0.7402187   0.21103576  0.1924507   0.4063108
  0.32373     0.13588864 -0.03483093 -0.5685737  -0.4971902   0.06074045
  0.35808155  0.58695596 -0.35737696  0.14463623  0.17201264  0.4995175
  0.11073609  0.01826939  0.15281375  0.19262789]
[-0.23059246  0.2106111   0.08704676  0.11488371  0.3555273  -0.15360649
  0.34143817  0.31156626  0.34691778  0.1689805  -0.38395387 -0.11590732
  0.2680815  -0.4388684   0.5698486   0.02162762  0.15154512  0.16022174
 -0.1024019   0.5690652  -0.86368704 -0.40934157 -0.31233564 -0.0536309
  0.1585238   0.14092985  0.32148787  0.00432233 -0.4517175  -0.15293002
 -0.47817126  1.0894824   0.16926724 -0.21018128 -0.03959566  0.7371182
 -0.83493054  0.0371603   0.35574198  0.14476205]
[ 0.13513659 -0.20464858  0.18519379 -0.11680241  0.30375433  0.35755482
  0.1593407  -0.05062569 -0.03770689 -0.17475097  0.03587836 -0.00158859
  0.11210618  0.15537827  0.04712563  0.23301369 -0.30904612 -0.08447894
 -0.07384102  0.17768985 -0.03327826 -0.39988276 -0.18935913  0.11785524
 -0.10952207 -0.03567504  0.0078211  -0.39252034 -0.02487634 -0.4425106
  0.30330572 -0.4615497   0.2759884   0.01811173  0.12303758 -0.13402629
 -0.2777357   0.33620998  0.07283064 -0.13733855]
[-0.45750055 -0.40222976  0.32183433 -0.19650112  0.5528325   0.19944611
 -0.6018146   0.16272624 -0.33472568 -0.318889   -0.02839465 -0.15733391
  0.6206728   0.21854745  0.39170346 -0.21335432 -0.17452872 -0.08741888
  0.20412321 -0.00356973  0.16065882  0.19657068 -0.43692407  0.5771201
  0.42817888 -0.1534453  -0.1690216  -0.23476942 -0.10721631 -0.47373614
 -0.22139114 -0.36705765  0.24035408 -0.34820315 -0.162628   -0.23418194
 -0.5114556  -0.16797242 -0.28436527  0.05779256]
[ 0.492308    0.4046856  -0.38442126  0.19345896 -0.01762036 -0.13077094
 -0.3295794  -0.4759329   0.26106185  0.24778004  0.18687403 -0.21123655
  0.34845003 -0.0696169  -0.45500246 -0.71273303  0.28984025  0.40730524
 -0.15721853 -0.4388393   0.0306336   0.4905759   0.08807444  0.00158669
  0.23199943  0.5342766  -0.26682878 -0.13942267  0.07747211  0.42755282
  0.03948754  0.14685573 -0.3564717   0.3530742  -0.19721456 -0.19494031
  0.3478933   0.12220833 -0.55346197  0.24788952]
[-3.4613416e-01 -5.3410042e-02 -8.8896789e-02  2.4386381e-01
  2.2197905e-01 -1.1763022e-02 -5.1377153e-01  3.9159592e-02
  1.1815744e-01  1.1788586e-01 -4.7585654e-01  4.9953315e-02
 -3.5933748e-02  2.8641528e-01  9.6989200e-02 -1.1493116e-02
 -3.3288985e-02 -4.4108486e-01 -1.3343181e-01 -1.4304803e-01
  1.8507445e-01 -7.0041925e-02 -2.3324895e-01  2.3022114e-01
  2.5697336e-01  3.5715127e-01  4.1993911e-04  6.8783522e-02
 -4.6206623e-01 -3.0145815e-01  3.3129621e-01  1.7686455e-01
 -2.2546440e-01 -1.0362147e-01 -2.5919819e-01  2.3196247e-01
  1.0375829e-01  2.9193851e-01 -5.2436447e-04  2.7642900e-02]
[ 0.6743988   0.17172743  0.28260666  0.6939904  -0.52611333  0.20635042
  0.27628672 -0.36491624  0.22796053  0.02671658 -0.02844672  0.15809183
  0.12870575  0.14178334  0.06446155 -0.02582172  0.50990456  0.28917927
 -0.571262   -0.63011664  0.36602905  0.34461492  0.2613247  -0.7215207
 -0.41230452 -0.44381815 -0.01223946  0.34136784  0.44861156 -0.25196642
 -0.30444795  0.22026008 -0.06332236  0.18515201  0.10622077  0.5817838
 -0.05198319 -0.3371466   0.1181941   0.60169464]
[ 0.0830159  -0.4457324   0.31565928 -0.00984696 -0.35869786 -0.25151706
 -0.54459864  0.2919823   0.49347195  0.17342918 -0.51819074  0.3903548
  0.220006   -0.69418395  0.33419716 -0.3624639   0.2406682  -0.21956234
 -0.35255423 -0.1829552  -0.09720809 -0.6577396  -0.338866   -0.17006877
 -0.15730311  0.05618979  0.28085586  0.23122668  0.17425366 -0.3345448
  0.35343248  0.21152928 -0.25792602 -0.22109483 -0.59441066 -0.06112212
 -0.90779346  0.01677609  0.249716   -0.24741234]
[-0.14067365 -0.12322468  0.43160534  0.05783179  0.30238485 -0.2768216
 -0.40905175 -0.20020948 -0.06518919  0.09884951 -0.18371534 -0.10335664
  0.2509398  -0.05380803  0.28191     0.27635425  0.04745043 -0.15718812
  0.04093095 -0.10392085  0.1878618  -0.34253472  0.07781091 -0.33494684
  0.01110164 -0.01539516 -0.14423248  0.33095944 -0.19643143 -0.30863702
  0.27298725 -0.30272985 -0.37715408 -0.1639433  -0.42552236 -0.31835505
 -0.57737005  0.00163431  0.30545956  0.01813232]
[-0.20107627  0.42889458  0.18143378 -0.19135126  0.3059209   0.205619
 -0.18858103  0.2658472   0.16920324 -0.41601086  0.15715253 -0.10995396
 -0.4308073  -0.49908105  0.31681627  0.36503825 -0.28908294  0.04896002
 -0.1567706  -0.1281456  -0.24240115  0.1554661  -0.693764    0.18364614
  0.60233843  0.21177205  0.5368555   0.15814826  0.01529647  0.47609088
 -0.58623374  0.53348315  0.12243777 -0.1810096  -0.07190855  0.04949735
  0.03376346  0.43238056  0.01704665  0.45025894]
[-0.43249413 -0.00444096  0.38912264 -0.24697436  0.3508283   0.04824511
  0.0223366   0.09785494  0.20807712  0.17135404 -0.11571717  0.13131599
  0.12171651 -0.05975996  0.43562293 -0.27487618 -0.3690071  -0.17990747
 -0.01343188  0.20018889 -0.3171565  -0.34040406 -0.3180383  -0.1737897
  0.21115644 -0.00647411  0.12078387  0.27921718 -0.28798455 -0.32569823
 -0.01642053  0.22000286 -0.13946766  0.1684165   0.04762289 -0.0608354
 -0.21570878  0.12127156 -0.11154631  0.36319637]
[-0.09218442 -0.4716297   0.20972538  0.66543347 -0.5748549   0.2137549
  0.12671404 -0.11734375 -0.30969095 -0.03969458  0.40438208  0.21521077
  0.3340879   0.30240867 -0.2357231  -0.1900719   0.4061257  -0.29026857
  0.0598754  -0.45601344  0.7766341  -0.35974106 -0.15202838  0.0562306
 -0.1995699  -0.0237781  -0.45687237  0.16045494  0.6234155  -0.36842397
 -0.3272141  -0.3992608   0.4341875  -0.10118991 -0.40580794 -0.56532717
 -0.11548319  0.00983443 -0.35169467  0.04055382]
[-0.02733461 -0.3310617   0.16246106 -0.32897455  0.4265402  -0.01580772
  0.20315935  0.03057947 -0.42026418 -0.0022658  -0.35515106 -0.10633445
 -0.6137346   0.0372332  -0.15426344  0.12570323 -0.39002287  0.38578725
  0.13841304  0.6409335  -0.29985753  0.45315117 -0.6866084   0.19586857
  0.33640358  0.17736314  0.10044724 -0.15084879 -0.4998396   0.01248934
 -0.30977353  0.28964525  0.29025373  0.3298393  -0.02590309  0.53204566
  0.5299543  -0.18578376 -0.02782088 -0.11262622]
[-0.2854424  -0.2913884  -0.40396255 -0.3206908   0.36260974 -0.5939647
  0.36565757 -0.16500984 -0.15060541 -0.05472827 -0.13498797 -0.35525742
 -0.17999105  0.16448033 -0.46864402 -0.12854996 -0.37867326  0.16598526
  0.18443283  0.21307851 -0.20374033  0.11206935  0.07319161  0.19456553
 -0.4617129  -0.16232029 -0.19653307 -0.13356237 -0.14301702  0.25996274
  0.43407598 -0.3052063  -0.0389676   0.06067298  0.5638817   0.24837999
  0.5781235  -0.09127411 -0.3147715  -0.39746246]
[-0.28765157  0.03672963 -0.13437338 -0.29313743  0.35153306 -0.17259316
 -0.19377261  0.19165444 -0.02091246 -0.02336174 -0.13161178  0.00439999
  0.00271099  0.03149274 -0.11278352  0.02352062 -0.42505395 -0.4158684
  0.29478374  0.5687427  -0.32567552 -0.05977842 -0.31115228  0.36430985
  0.39523548  0.1680755   0.12928064 -0.22073035 -0.30029827  0.0595298
  0.2027161  -0.31709057 -0.07352237 -0.00651855 -0.0891885  -0.441864
 -0.14377005  0.07330605  0.06311727 -0.24536869]
layer 3 Activation
tanh
layer 4 Dense
40 20
[ 0.47308278  0.4656241  -0.53288156  0.1631633  -0.49436694 -0.10628018
  0.35848933  0.01282682 -0.34714937 -0.3252539   0.1771702  -0.00159444
  0.01580018  0.10340381 -0.04493637  0.23436776  0.00366727  0.03923439
  0.73035485 -0.08930644]
[ 0.06629618 -0.3089559  -0.3911723  -0.13038453 -0.50482726  0.2685607
 -0.1766681   0.02873674 -0.0324659   0.1409175  -0.14952365  0.10847341
 -0.13390142  0.01821709  0.30070803  0.3754308  -0.09228733 -0.21352513
  0.34590164  0.4236292 ]
[ 0.6735533   0.18434194  0.19180189 -0.2102752   0.46439213 -0.16831332
  0.22205512 -0.34813753 -0.39806712  0.6418528   0.68951225 -0.49143773
 -0.06042213 -0.6743131   0.6176824   0.42469195  0.13527803  0.09517784
 -0.08590432 -0.39290106]
[ 0.24804516  0.5570389  -0.33242467  0.05466557 -0.06856261  0.26552188
  0.03368147 -0.28276625 -0.08615465 -0.05277145  0.82789075 -0.04556931
  0.24716389 -0.4909173   0.05056155  0.21159652  0.00564876 -0.27143633
  0.47973472 -0.28910324]
[-0.16956419 -0.784647    0.04676352  0.20919593 -0.09149132  0.06553714
 -0.81302327  0.53883684  0.19818188 -0.12699953 -0.73447156  0.9561809
 -0.56208366  0.22453342 -0.65723616  0.12366839 -0.13452205  0.32400027
 -0.09867825  0.41435856]
[ 0.4750542   0.37953514 -0.12293034 -0.08452731  0.24385528 -0.05825053
 -0.6607443  -0.30116925  0.02881515  0.24047856 -0.12428087  0.29815456
 -0.24404156 -0.16949488  0.18317111  0.08347072  0.09271082 -0.16093017
  0.18761648 -0.20948252]
[ 0.00232287  0.16724584  0.05725419  0.43458247  0.08270099 -0.16640165
 -0.07630309 -0.41020265  0.02633389  0.15450165 -0.11983407  0.33164644
 -0.03193453 -0.01475369 -0.025957    0.08000166  0.39710832 -0.5186574
  0.0110458   0.38407388]
[-0.29050997 -0.06020658  0.22328259 -0.01933814  0.05646472 -0.37469786
  0.24141468 -0.17479528  0.26969674 -0.18164332 -0.24447908 -0.1219612
 -0.3492244  -0.3297563   0.33231792 -0.13217406 -0.17108113 -0.13267435
 -0.16948462  0.07698402]
[ 0.17695567  0.02967642 -0.30797344  0.35090756 -0.01561267  0.2230492
  0.9235563   0.2670049  -0.02801245  0.18443196 -0.0958023   0.46723092
  0.49442294  0.32195652 -0.50607055  0.06839166  0.5098359  -0.36559048
  0.2874904   0.40581024]
[-0.27962077  0.01414682 -0.15400335 -0.13722605 -0.28454494  0.37098783
  0.5566183  -0.2827697  -0.27123785 -0.16881824 -0.17187063 -0.14336751
  0.13599275  0.19629027 -0.40553606  0.18388937 -0.03032737 -0.12879428
  0.13554853  0.13494614]
[ 0.1975032   0.2510566  -0.43285424  0.09547728  0.05079191  0.06452759
  0.31966412  0.04933649 -0.15433323  0.15410286 -0.15495132 -0.682459
  0.30601108  0.30832753 -0.12386546  0.18433107 -0.17844199 -0.12238438
  0.3141115  -0.15461469]
[ 0.14174302  0.4019813  -0.08192962 -0.23004028  0.567327   -0.01526332
 -0.15223181  0.162059    0.13908239  0.28584805  0.14752053 -0.24951585
  0.06130837  0.14737195  0.12890328  0.3454824  -0.2532358   0.00886577
  0.09436795  0.47561365]
[-0.23715053  0.13220684  0.1061246   0.08448905  0.0518756  -0.27517018
 -0.4162649  -0.18857707  0.14927712 -0.00093531  0.39951938  0.28258145
 -0.28399152  0.05278515  0.03989718 -0.20608307 -0.35902357 -0.15324716
  0.04130122 -0.6636872 ]
[-0.17737445 -0.01106338  0.18754464 -0.00609483 -0.12824576 -0.0759128
  0.2791011  -0.02192726  0.31198066 -0.30524454  0.28282595 -0.22493626
  0.47481668 -0.29641476  0.4321434  -0.41063172 -0.04466738  0.4421608
  0.11042633 -0.45335677]
[ 0.16372028 -0.02602618  0.49333656 -0.19804573 -0.02987851 -0.37735578
 -0.33126375 -0.17266664 -0.29252994  0.19664247  0.37700233 -0.18044004
  0.1344641  -0.5826318   0.3558433   0.39090332  0.00973072 -0.08048254
 -0.2446105  -0.31530234]
[-0.14804219  0.29613224  0.1355567  -0.06875612  0.24384281 -0.14159073
 -0.03020182 -0.35701802  0.1062099   0.39264184 -0.20816493  0.13520433
 -0.02692288 -0.03143699  0.22870748 -0.1881568   0.24020974  0.09403762
  0.06163235 -0.41044885]
[-0.07390983  0.56362116 -0.42757982 -0.10339001  0.38102406 -0.21886764
  0.01287466 -0.22152908 -0.3632834  -0.10912246  0.7848976  -0.5509996
  0.4604127   0.00579818  0.12216537 -0.11525442  0.17421068 -0.33151358
  0.20617856 -0.62347615]
[ 0.61762935  0.09390111 -0.20677654 -0.18970858 -0.24325776 -0.06353877
  0.12118529 -0.37591255  0.17280182 -0.22174358  0.22191978  0.12531002
 -0.44019073  0.0501253   0.6131753   0.05252449  0.42198431 -0.43839607
  0.37685272 -0.34434623]
[-0.3588172  -0.10969755  0.00158573 -0.2973593  -0.09456767 -0.19741444
 -0.44191304 -0.02441753 -0.0194567   0.2931111  -0.54085636  0.03298443
 -0.09228394  0.2791589  -0.18460415  0.16338356 -0.43084985  0.24114448
 -0.18303007  0.21628112]
[-0.10546196 -0.78258264  0.5332382  -0.2970423  -0.36730397  0.03119231
  0.11730178 -0.12010632 -0.1977995  -0.24382487 -0.6038683   0.41720212
 -0.40526763  0.4823636  -0.24097271  0.07977917 -0.06932608 -0.2584937
 -0.3472961   0.67888176]
[ 0.07172094  0.5878899  -0.34311742  0.3103282   0.39673528 -0.53055805
  0.8558468  -0.02176093  0.36194646 -0.20252322  0.40272456 -0.54277974
  0.34718573 -0.14196682  0.25733018 -0.02602722  0.38581732  0.2248827
  0.47175592 -0.2764952 ]
[-0.00177685 -0.14268513 -0.20036145 -0.0585141  -0.26180303  0.00791656
  0.23482397  0.21575554  0.18942425 -0.4429511  -0.20803809 -0.2224142
 -0.13649991 -0.26028362 -0.05089265 -0.01210517  0.09665141 -0.06391722
  0.15680178 -0.07926157]
[ 0.22036467  0.46001706 -0.41176826  0.15152527 -0.08068822 -0.04890695
  1.0670625   0.00430922 -0.03874914 -0.2698243   0.06195144 -0.69378686
  0.35230112  0.20580241 -0.13354847 -0.05597048  0.0825328  -0.21853009
  0.63710976 -0.48563838]
[-0.34543994 -0.6353067   0.1455354  -0.43308687 -0.5375511   0.44712052
 -0.05916383  0.39456844  0.391447    0.4238859  -0.9374532   0.21007274
  0.00277438  0.32198298 -0.31866604  0.19536185 -0.38087115  0.5964481
 -0.2938856   0.29983678]
[ 0.23758079 -0.50062656 -0.32372916  0.03219024 -0.5218226   0.31914976
 -0.477919    0.4287395   0.19531104  0.22468056 -0.3077293   0.12540777
 -0.6686191  -0.25505912 -0.04518725  0.29533404 -0.3057767   0.4770067
 -0.09272425 -0.11873079]
[-0.21619652 -0.5583061  -0.2990861  -0.40485317 -0.21761025  0.6844875
 -0.39199743  0.44688863  0.24500477 -0.22726735 -0.31454808  0.37491506
  0.01010929  0.17892931 -0.08897626  0.48374948 -0.48562428  0.5719819
  0.21319155  0.2126121 ]
[ 0.31482425 -0.40369108 -0.24187088 -0.23337038 -0.6755277  -0.14029418
  0.2728779  -0.31779885 -0.14075024 -0.2776796  -0.4993063   0.3979569
 -0.04988258  0.04423695 -0.1831361   0.06725156  0.15375786 -0.34152624
 -0.2019125  -0.26174378]
[ 0.27661368  0.16785882 -0.19234414  0.34663004  0.15476218 -0.00574398
  0.02864129 -0.18015154 -0.49769777  0.3249239   0.6945797  -0.34445086
  0.36571497 -0.5415425   0.17475061  0.2819143   0.12271488 -0.56202364
  0.26522884  0.07686799]
[ 0.01763211  0.39030483 -0.4902936   0.38928586  0.12679578 -0.48072106
  0.74805343 -0.27611125 -0.18976834  0.37420312  0.5602977  -0.374113
  0.35593006 -0.13375926  0.4086082   0.24528717  0.11621106  0.02335925
  0.0916582  -0.05016688]
[ 0.274289   -0.4021074  -0.09534658  0.31191814 -0.4990325   0.20518126
  0.19932973  0.38357562 -0.06614706 -0.29561487 -0.32007897  0.08546227
 -0.03020325  0.358061   -0.16837811  0.02593945  0.20059276 -0.33081734
  0.28569165  0.45456955]
[-0.52567834 -0.05898905  0.11855437 -0.38998327  0.04837423 -0.18891539
 -0.27960327 -0.06106495  0.30207032  0.0766718   0.01965042 -0.12230719
  0.0847371   0.15361501 -0.4338284  -0.18332866 -0.29528356 -0.12799095
 -0.45326135 -0.2851625 ]
[ 0.3648338   0.05349386 -0.1296245   0.01527287 -0.7720126   0.20276399
  0.1914051  -0.09310472 -0.26454785  0.30245233  0.1439088   0.3019369
 -0.35679203 -0.2389444   0.78688645  0.34930295  0.5683362   0.30350775
  0.14177272 -0.71132815]
[ 0.34447983  0.17366482  0.2193852   0.00263028  0.82426065 -0.26378205
 -0.7987217  -0.134724    0.03836227  0.12595072  0.36552384 -0.4579876
 -0.330678   -0.12669289  0.41987076  0.06655979  0.03628555  0.17123346
 -0.45661366 -0.36532766]
[-0.11934823 -0.0174759  -0.04468872  0.1087957  -0.3273516   0.0703735
 -0.06844559  0.02595161 -0.08709119 -0.21021467  0.19952697 -0.30372995
 -0.24579476 -0.039978    0.08486045 -0.17921351  0.27776715  0.07532258
 -0.09766854  0.27841136]
[-0.23044041 -0.11145344  0.11205808  0.38993466 -0.04401534 -0.15345098
  0.68067634 -0.35399345  0.0724519  -0.27045026 -0.03397182 -0.13768755
 -0.4537269  -0.17514224  0.03275657 -0.38972938 -0.00829181 -0.23697944
  0.1273513  -0.20040815]
[ 0.01096635  0.14981689 -0.10775819  0.4418692  -0.31137544  0.08572423
  0.17563772 -0.57222354 -0.37642065  0.15250824  0.5392041  -0.34311768
  0.04070061 -0.2628624   0.5136964  -0.46626002  0.48712897 -0.51807547
  0.21617115 -0.5610304 ]
[ 3.1216627e-01  2.2202949e-01  7.6391146e-02  4.4958168e-01
 -2.8466132e-01  2.2925113e-01  2.6880994e-01  6.8558164e-02
  3.8231816e-02  4.5091107e-02 -3.3339965e-01 -2.5273648e-01
  3.4558016e-04  4.8651269e-01 -2.0199251e-01 -6.3214637e-02
  4.5281833e-01 -4.3382922e-01 -5.1424198e-02  4.8363063e-01]
[ 0.2847521  -0.10574679  0.10417421 -0.10571644 -0.19505009  0.2750592
 -0.02472308  0.3303125  -0.28256863 -0.23035698 -0.52166855  0.0115648
  0.17764708  0.27426043 -0.359683    0.19625834  0.00711809  0.06663828
  0.27131566  0.01454586]
[ 0.16109686 -0.03062612  0.1515056  -0.22385216  0.3873651  -0.35134825
 -0.00387085 -0.40192378 -0.01102059  0.29205132 -0.08164064 -0.00699279
  0.1104354  -0.28112504  0.34637144  0.01485209 -0.05390548 -0.12344134
 -0.38390034 -0.16164182]
[ 0.4558492   0.06283075 -0.31071305  0.4575722  -0.05917071  0.2916346
 -0.08996707  0.45212278 -0.47769204  0.43017763  0.41710934  0.06780096
  0.01524363 -0.15880041 -0.06052161  0.4003363   0.45814854  0.22710694
  0.29460958  0.15794782]
[-0.12603611 -0.20917356  0.05461935 -0.16795209 -0.01031868 -0.06143344
 -0.11621473  0.01460095  0.16817841  0.0462467  -0.26283276  0.1120121
 -0.05747924  0.08784102  0.01844433 -0.06105628 -0.12375198  0.10760526
 -0.13936637  0.10381088]
layer 5 Activation
tanh
layer 6 Dense
20 1
[-0.86834705]
[1.1123953]
[1.2531774]
[-0.8164353]
[-0.04857934]
[-0.23650208]
[-0.62668705]
[-1.3342063]
[0.8582101]
[0.9545287]
[1.0478061]
[-0.6818936]
[0.33184615]
[-1.2442514]
[0.8155483]
[-0.89390564]
[-0.8336864]
[0.95711845]
[-0.74212044]
[-0.99686927]
[0.46690485]
