layers 7
layer 0 Dense
20 20
[ 0.30253685  0.03848682  0.22541012  0.25147063  0.14746907 -0.28389895
 -0.25691596 -0.16844992  0.15423289  0.18745667 -0.27934498 -0.09569488
 -0.13698712 -0.12022863 -0.14222218  0.3532089   0.08849765  0.23292138
 -0.42524523 -0.10926507]
[-0.33544934 -0.3374679  -0.29675865 -0.06073037  0.16659093  0.30465305
 -0.24932331  0.11644906 -0.52125657  0.31602627  0.03915923 -0.41105384
  0.7928642  -0.14214188 -0.44518661 -0.21370125 -0.29425672  0.12786058
 -0.29866567 -0.18346846]
[-0.3800452  -0.19525327  0.09360909  0.02580415 -0.31191942 -0.06084985
 -0.13691176 -0.19399004 -0.07867864  0.24767174  0.1194446  -0.1821089
  0.2795257  -0.60029     0.05490526 -0.1712024   0.14867146  0.25643128
 -0.2406374  -0.31152892]
[ 0.27111864  0.17685722  0.0785541   0.3722555   0.30583113  0.45644566
  0.31739283  0.03685377  0.21398374  0.15506887  0.00642634 -0.27704743
  0.36228886  0.12476063  0.08828764 -0.3315962   0.06661382 -0.23115838
 -0.46659318  0.24088281]
[ 0.31046787  0.12830314  0.1568427   0.15253843  0.11387069  0.36563236
 -0.04407539 -0.09514657 -0.16133477 -0.04024369 -0.26446155 -0.03675641
 -0.23039734 -0.11451128  0.32074007  0.01413037 -0.23810217  0.33197635
 -0.24548797  0.26297697]
[-0.00957229  0.4112588  -0.12435264  0.25651193  0.21906203  0.20033029
  0.15878172 -0.36858052  0.37877986 -0.31116533  0.22108413  0.29198033
 -0.77070683  0.03890492  0.14747348  0.17994656  0.01373726  0.20396578
  0.22188467  0.03904717]
[ 0.20566754  0.60328203  0.4527245   0.18077232  0.03124943 -0.21602948
 -0.42123312 -0.468683    0.18901455  0.06897519  0.22203898 -0.23776013
 -0.5991178   0.13885619  0.3432017  -0.13672428  0.38040796 -0.33060297
  0.59516996  0.05541499]
[-0.52186906  0.32532313 -0.19428155 -0.13047136 -0.45251742 -0.16773187
 -0.13732812 -0.7325135  -0.04838598 -0.00389087 -0.01071712 -0.24761388
  0.3436736   0.28521514 -0.09689262  0.2451567   0.19734117 -0.1531934
  0.28103358 -0.40197936]
[-0.19291936  0.15905458  0.65733296 -0.02171205 -0.4539809   0.35926348
  0.2913773  -0.28566986  0.5843631   0.09955611  0.2532187   0.34642592
 -0.85258985  0.1071055   0.23601401  0.04883301  0.66164386  0.0482043
 -0.1441485   0.6886373 ]
[-0.1052234  -0.05659671  0.08772656 -0.17608093  0.08609435  0.25091508
 -0.02029035  0.22583017  0.04238086 -0.312156   -0.35131526 -0.26701978
 -0.04183745  0.5779519   0.31671894  0.28582275  0.35015512  0.08603843
 -0.35476655 -0.2652941 ]
[-0.2711479   0.19015232 -0.14117722 -0.26973072 -0.06169008 -0.12073642
 -0.26486328 -0.21305381 -0.01458589  0.09276804  0.15670861 -0.21844415
  0.00423466 -0.18829162  0.6079858   0.182374    0.26329407  0.08137837
  0.6248254  -0.07111026]
[-7.07594454e-02  2.67738372e-01 -4.52309027e-02  1.88126728e-01
  4.30147387e-02 -3.95138174e-01 -4.91160780e-01  5.39079487e-01
 -1.03067899e+00 -4.75801021e-01 -2.69026011e-01  7.36718252e-02
  2.58727282e-01 -2.28226967e-02 -3.36491048e-01  2.86004156e-01
 -1.07288884e-04 -2.46020123e-01 -2.27906033e-01 -2.20889449e-01]
[ 0.36789638  0.27388695 -0.22096418 -0.19640703 -0.10352531  0.1510254
 -0.08311076  0.11661102 -0.7551941  -0.29389608 -0.18254268  0.1775799
  0.29672703  0.30568892  0.0924969  -0.08880193 -0.18133509 -0.1524888
  0.46546108 -0.20114748]
[-0.19157973 -0.36980554 -0.3429807   0.59673744 -0.03327995  0.05602465
  0.20636915  0.15216137 -0.0541809   0.62266934  0.00973508 -0.4019735
  0.31781384 -0.80749446 -0.66782457  0.44088838  0.62577254  0.01053804
 -0.30833697  0.5143113 ]
[-0.4425808  -0.63933134 -0.5190921  -0.06012429  0.20081389  0.5092523
  0.9781208  -0.6647534   0.05939871  0.38317767 -0.18272883 -0.04623231
  0.00204535  0.47597542 -0.53934324  0.42974073 -0.6570186   0.58091646
  0.44221437  0.2921406 ]
[-0.04693017  0.17618045  0.77293134 -0.30504397  0.37576005  0.640443
 -0.24110034 -0.50629455 -1.1806409  -0.29171428  0.4450117   0.45550165
  0.23878415  0.70019364 -0.03904903  0.1342225   0.09137575 -0.41934612
  0.8682993  -0.00671987]
[ 0.00756218 -0.6720448  -0.89948946  0.46327856  0.35989308 -0.3554323
 -0.4059899   0.20370321 -0.37333617  0.12184612 -0.18607424 -0.28739882
  0.22222093 -0.14799346  0.03915872  0.2576002  -0.24473363 -0.04089227
 -0.47630557 -0.3714792 ]
[ 0.30312613  0.6034793   0.8138262  -0.76011604  0.48917598 -0.42538846
 -0.5956624  -0.47961828  0.33458287 -0.58644646 -0.08803127  0.37344736
 -0.01796197  0.62736166  0.34110108 -0.6219106  -1.4975365   0.4313704
  0.4713059  -0.5641371 ]
[ 0.613       0.8243021   0.46400028  0.4590622   0.48608595 -0.6603964
 -0.9282894   1.0166814   0.1295585  -0.16643526 -0.01645356 -0.25653374
  0.13116713 -0.10076346  0.31773984 -0.42276493  0.37852132 -0.05762754
 -1.2082983  -0.5609094 ]
[-0.2742611   0.2295281  -0.40190455 -0.44437593 -0.6993178  -0.464585
  0.2917448   0.08764105  1.8354434  -0.04674121  0.24671149  0.06946627
  0.37007973 -0.44773236  0.6836261  -0.3496798   0.5465907   0.17524603
  0.34249038  0.01865003]
[-0.04740737  0.01607645  0.18784273  0.12474828  0.09634029  0.16571082
 -0.00646738  0.1258095   0.02541523 -0.11652903 -0.02548906 -0.09360043
  0.0376103  -0.21881148 -0.1472998   0.02910579 -0.07729559 -0.02701041
 -0.09242018  0.01254751]
layer 1 Activation
tanh
layer 2 Dense
20 40
[ 0.01375584 -0.11746258  0.10003958  0.09485377  0.11783697  0.16186088
  0.15482879  0.07211752  0.14499123  0.0560555  -0.14214785 -0.30384964
  0.04503203  0.085088    0.10771203 -0.24819341 -0.09115779  0.3348126
  0.12141746  0.2612257   0.11383748 -0.24999909  0.14742686  0.26034182
  0.18656455 -0.12491746  0.25014487 -0.15516199 -0.06009006  0.0693476
 -0.05217512  0.34304845 -0.09862962  0.02392279 -0.00457855  0.1112876
  0.18320945  0.03607561 -0.03177905  0.02134305]
[ 0.18393078  0.07146034  0.07203466  0.07978716 -0.22770971 -0.2589326
 -0.2653276   0.0903555   0.27506024  0.10382492 -0.07978825 -0.4521702
 -0.04323504  0.13337582 -0.00321966 -0.26490566 -0.2061523   0.27706832
  0.15244485  0.1425709   0.29621258 -0.05779415 -0.01037758  0.07923038
  0.1896323   0.528615    0.12187672  0.6096319   0.21552387  0.18583506
  0.10556008 -0.16035357 -0.07095156 -0.17646496  0.3293675   0.35205242
  0.29989126  0.07753282 -0.3067634  -0.01249181]
[ 0.5516096   0.20983912 -0.29809874  0.40554187 -0.16452552 -0.40569985
  0.11493979 -0.11978897  0.41686663 -0.27346808  0.03574939 -0.37128675
 -0.01588819  0.09936291  0.09493966 -0.14418377 -0.37181896  0.01590662
 -0.2072076   0.5763802   0.6924261   0.01393772  0.09318955  0.26325807
 -0.02886277  0.40282628 -0.14025763  0.06892385  0.36593547 -0.29908803
  0.6151946   0.00922808  0.1068679   0.32553512  0.07633984  0.5834935
  0.06218653  0.1763993   0.00506498  0.3852475 ]
[-0.05789828 -0.5151841   0.2100038  -0.07824459 -0.18593125  0.07321084
  0.0289863  -0.25100735  0.21194519 -0.34219676 -0.02456291  0.15677556
 -0.04222573 -0.11832336 -0.05020229 -0.11637221 -0.19566345 -0.14520435
  0.0584901   0.39428034 -0.0067882   0.24621089 -0.09126665  0.01730429
 -0.22071356 -0.30037764  0.18797754 -0.16284564 -0.21789289 -0.2502153
  0.12486558  0.03573866  0.24610685  0.04968441  0.14160717 -0.02333896
  0.12795873  0.00443079  0.22849903  0.10173471]
[-0.11147114 -0.08678819 -0.16397032  0.08789799  0.04470376 -0.35018745
 -0.20380755 -0.20913672  0.06312928  0.00071757  0.18602926 -0.30983835
 -0.14690873 -0.21503736  0.05159892 -0.18308194 -0.11055992  0.19946896
 -0.22166108  0.31327114 -0.02029225 -0.10378163 -0.06162637  0.17816965
  0.10055032  0.06485856  0.04824495 -0.36386672  0.18785907  0.02539213
  0.21372035 -0.1739728   0.21383192  0.16115801 -0.1460591  -0.08636557
 -0.06213153 -0.18325436  0.01930503 -0.20641886]
[ 0.66057605  0.46839103 -0.08137705 -0.18720593 -0.03384941 -0.39456668
 -0.19554053  0.09244137 -0.13576928 -0.31621286 -0.06798085  0.6110744
 -0.03697894 -0.09779111  0.04144359 -0.06321336 -0.2768325  -0.17745548
 -0.20095597  0.04451982 -0.39281872  0.13550194 -0.20909211  0.06624965
  0.41288844 -0.04846265 -0.20572571 -0.42059347 -0.22125234 -0.05492993
  0.12174447  0.07380003  0.12987107 -0.22707827  0.09956165  0.40646076
 -0.1073074   0.06602275 -0.23426293  0.04722524]
[ 0.38409096  0.04368349  0.15617652 -0.26095724  0.13963035  0.2536227
  0.1647977   0.30056405 -0.23328784  0.20199078 -0.00359586  0.6062468
 -0.3196596  -0.03246986  0.08556599 -0.08297714  0.31678566 -0.16502345
 -0.11340374 -0.04334865 -0.19006276  0.1846826   0.2100918  -0.52387923
  0.10713135 -0.24031527 -0.44817567 -0.3379781   0.07717213 -0.13578333
 -0.39681843  0.258274   -0.1744277   0.00735453 -0.26875803  0.21133633
 -0.10289492  0.09364918 -0.0849134  -0.29734522]
[-0.28840035  0.36946282  0.20307402  0.35895628  0.18041559  0.13742843
  0.04239017  0.01434436 -0.06902286 -0.23404144 -0.04152067 -0.4091106
  0.13864546  0.22325334  0.16202365 -0.27903435  0.11570133  0.27258372
 -0.07011463  0.607821   -0.13554175  0.22696733 -0.33721808  0.10510986
  0.16548035 -0.08569897 -0.03681327  0.20850319 -0.14629038  0.15373029
  0.34503183  0.25615418  0.07902838 -0.29375184 -0.32334206 -0.02818133
 -0.11097036 -0.1545653   0.11721981  0.24882364]
[-0.01205948  0.6010777  -0.14129297 -0.31684792 -0.01053175  0.69771606
 -0.2341149  -0.18624333  0.4790729  -0.26003757 -0.25318578  0.18219683
 -0.11864199 -0.077528   -0.19100118 -0.06810275 -0.1963778   0.35813007
 -0.19616692 -0.02483356  0.75984997 -0.25401434 -0.0063653  -0.6356154
 -0.02115226  0.18225878 -0.34322512  0.5998821   0.02134125 -0.28268927
  0.07732387 -0.14805998 -0.06226133  0.27181157 -0.22657949  0.2566325
  0.23277207  0.43821183 -0.39401832 -0.04489082]
[ 0.07541302 -0.27269396  0.13694625  0.10079427 -0.2225464   0.23976223
  0.14854532 -0.02539017 -0.0766173  -0.30810535  0.11475842 -0.1331843
  0.09942968  0.23417892 -0.10300198  0.21289663  0.34233478  0.03229934
  0.12977177  0.15551586  0.10296173 -0.08827059 -0.1474153  -0.3912094
 -0.16752644 -0.13060656 -0.09926373 -0.15344734  0.21691753  0.02657782
  0.07737052 -0.16288133  0.08899336 -0.23593761 -0.18241067  0.1560793
 -0.27924484 -0.26241946  0.23932025 -0.35344714]
[ 0.04979167 -0.5454527  -0.21836738  0.04474624  0.12315916  0.07468025
  0.2881325  -0.12905923  0.12169164  0.18989739 -0.06194234  0.20380825
  0.3177681   0.13912205 -0.33810058  0.2011446   0.07430168 -0.06410559
  0.20658125  0.05352458  0.06453677 -0.14797047 -0.3172106  -0.3132217
  0.314423   -0.22061647 -0.07138784  0.15965748  0.00276501  0.07400589
 -0.02123846  0.12099914 -0.39845186 -0.10586841 -0.03289321  0.24047533
  0.01700556 -0.03205816 -0.15137297  0.23073964]
[ 0.15690005 -0.08622158 -0.16946189 -0.14183901 -0.09447408 -0.26479563
  0.04488323 -0.02879185  0.14502597  0.28133512  0.14249198 -0.07953732
  0.20575602  0.01498601  0.12198851  0.02465052 -0.01931079 -0.11987118
  0.14450882 -0.16680509  0.24185541  0.20986897  0.04616491 -0.10003879
 -0.242128    0.40147293  0.084626   -0.01866309  0.02763949  0.10964343
  0.245654   -0.2004222  -0.09927462 -0.04606924 -0.02653871  0.27599794
  0.17230812  0.29734242  0.3321266   0.00060678]
[-0.41599548 -0.03134715  0.29297873 -0.1769246  -0.2987958   0.14131196
 -0.03513451 -0.0769916   0.08843706 -0.17322056 -0.07733586  0.19422406
 -0.08200695 -0.14006306  0.03709979  0.02803833 -0.24032123  0.03081303
  0.08298302 -0.05380439  0.04722857  0.09421225  0.23934856  0.2438346
 -0.28349707 -0.0391597   0.05158372 -0.09150403  0.16039063 -0.16999328
  0.18829395 -0.20822729  0.14935233  0.19090836  0.18641694 -0.25747663
 -0.05768574 -0.0544889   0.06850679  0.27331057]
[ 0.26056048  0.761293    0.16015278 -0.08003806 -0.11934951 -0.41334146
  0.23424794  0.2369681  -0.05817084  0.31662545  0.3944718   0.091333
  0.11063791 -0.10217121  0.20351604 -0.17117171 -0.285725    0.1762466
  0.21139875 -0.40682638  0.17884108  0.17069054  0.0325388   0.3370954
  0.09811971 -0.00441487  0.24037097  0.23043878  0.00376591  0.02168955
 -0.3268071   0.12507504 -0.21148588  0.16973001 -0.04734123  0.36305523
  0.04524942 -0.03028054  0.03465489 -0.16260041]
[-0.17637038  0.33220112  0.15844749  0.0562106  -0.02412785 -0.01946459
  0.01650916  0.2887461   0.18986037 -0.01179283  0.40254965  0.26084185
  0.25620374 -0.11922744 -0.34997097  0.2748654  -0.19043237  0.4376627
  0.33117223  0.39376733  0.34615088  0.02612235 -0.20072947 -0.14439951
  0.17414634  0.37888688  0.3864711   0.5651365   0.24937952  0.00949702
  0.04071908 -0.15743634 -0.03876184 -0.1005551   0.04953632  0.31346008
  0.03940062  0.04924032 -0.02861254  0.19244961]
[ 0.03754212 -0.01719309 -0.27379867 -0.05209586  0.00511735 -0.2785537
 -0.12062097 -0.02002228 -0.2966017  -0.12341647 -0.05837111  0.20944276
 -0.24298216 -0.03920706 -0.01098357 -0.04079212  0.09041698 -0.26978025
  0.28161097 -0.28060877  0.15484795  0.11265809  0.02779263 -0.32281053
 -0.06332982 -0.11288062  0.00090332 -0.30556676  0.17024271  0.19310652
 -0.00406486  0.2051033  -0.04936484  0.04394318  0.32406956 -0.10187703
  0.03620801  0.18178934  0.25265104  0.12345356]
[ 0.22679926 -0.25132936 -0.05370912 -0.20770271  0.07222695  0.5044895
  0.01334004 -0.25457543  0.05860987 -0.5927036  -0.16748577  0.51222944
  0.4656544   0.23058179  0.08802508 -0.09784549  0.29614347  0.07943691
  0.6551112   0.48896417 -0.26377094 -0.1519513  -0.12040163 -0.07547722
 -0.47086057  0.25102365 -0.03078075  0.47469485 -0.17850065 -0.06221576
  0.34558842 -0.1610037  -0.20905204  0.04974068  0.8008079   0.14897275
 -0.01220587 -0.0400821   0.27436414 -0.09444804]
[-0.10862434  0.21137975  0.23851113 -0.10305866 -0.14767964 -0.01461875
  0.01379182  0.02556901  0.02695559  0.08429167 -0.23852418 -0.06257442
 -0.02276414  0.263295    0.03448502 -0.00231814 -0.03366363  0.19585708
  0.25089297 -0.14421262 -0.19541408  0.08832329 -0.29120958  0.00499058
 -0.15382187  0.02625592 -0.1141166  -0.08668252 -0.03344076 -0.17198665
 -0.05395093  0.26993164  0.09854615  0.21327056 -0.21391225 -0.02775278
  0.10842663 -0.2990848   0.07061536  0.1080759 ]
[-0.01411625 -0.03231435  0.13544501 -0.10531281 -0.37942222 -0.0286663
  0.3321668   0.06882416 -0.1408625  -0.06204924 -0.15743354  0.27636397
 -0.44596735 -0.21838968 -0.12731259  0.03752075 -0.13281488 -0.66377354
 -0.471965   -0.05479997  0.23846145  0.16167177  0.04858509  0.05641617
  0.06354102  0.13181986 -0.30739778 -0.05494628  0.26884028 -0.15502305
  0.06300654 -0.28540474 -0.3897252  -0.1425473  -0.3416092   0.17115231
  0.04628471  0.1400772  -0.2498993  -0.11532978]
[ 0.55232537 -0.18636602 -0.10005149 -0.17837772  0.11036742  0.36381552
  0.14256363 -0.19788308 -0.1911917  -0.24247925 -0.2549128   0.54518574
 -0.30064023 -0.0193939   0.14733404  0.34097034  0.35362417 -0.11056668
 -0.39247766  0.31461444 -0.23767072  0.14634722  0.25932732 -0.3974924
  0.14680697 -0.03861322  0.04487259  0.05011725 -0.20736802 -0.06613129
  0.24870713  0.05220458  0.20513113  0.07358845 -0.02473516 -0.01905806
  0.18244636  0.10579293  0.09828157 -0.01309719]
[ 0.12033175  0.43914956  0.08207908  0.03914624  0.07689195  0.08686504
 -0.07681194 -0.16414225  0.2636011  -0.00180256  0.03421666  0.20744339
 -0.07296436  0.02132625  0.17184825  0.01528163  0.05581316  0.25553882
 -0.26222712  0.13957009  0.12770891 -0.02937227  0.02519908 -0.1742374
 -0.07030971 -0.0055959  -0.0304007  -0.01384517 -0.02699956  0.00238062
  0.1973228   0.11658957  0.16122577  0.01222467 -0.02494231 -0.01832515
  0.03194716 -0.09501519  0.0039739   0.04747858]
layer 3 Activation
tanh
layer 4 Dense
40 20
[-0.4888378  -0.25341314  0.23584954 -0.27515817  0.23048383 -0.22684993
 -0.05466504 -0.03274328  0.24378516  0.00386787  0.3692294   0.06423811
  0.10442934 -0.03003832  0.09645686 -0.2323266   0.13363977  0.1439592
  0.32987416  0.13248563]
[-0.37861675  0.06588345 -0.05726871  0.15301771  0.19843264  0.02858775
 -0.3057221  -0.18608606 -0.355523    0.2565181   0.30503008 -0.24261756
  0.30123055  0.01191503 -0.16621104  0.1130264   0.08111384 -0.17750482
 -0.03806659  0.09906741]
[ 0.2230198   0.12429712 -0.1439406  -0.12131287  0.25213286 -0.15667832
  0.01256643 -0.18506885 -0.03918226  0.2921069  -0.11014882 -0.02147331
 -0.204173   -0.03923765  0.07616219  0.00977673  0.05576526 -0.15761082
 -0.04205735 -0.129533  ]
[ 0.2853066  -0.00780319 -0.26353207 -0.16355175 -0.13275948 -0.04468612
 -0.01454667  0.3419373  -0.19503301 -0.36313695  0.01441     0.12545256
 -0.19873483 -0.17090955  0.2014758   0.153393   -0.08417404 -0.2383467
  0.2648301  -0.01557831]
[ 0.14443308  0.00606656  0.11894768  0.24001746  0.08168758 -0.19295807
 -0.04004502  0.00184125  0.13803944  0.17881128 -0.17270848  0.05511159
  0.19108288 -0.25561538 -0.07774384  0.10477317 -0.2588774  -0.24001354
 -0.04833361  0.10853878]
[ 0.11396191 -0.24540184  0.14207295  0.29081777  0.1998356   0.24255969
 -0.313016   -0.24445462  0.38161337  0.22801937  0.1570959   0.03297104
 -0.1467397  -0.11643372  0.07833249  0.42646796  0.28881165  0.14576218
 -0.13027403 -0.18804099]
[ 0.09129017  0.11671466 -0.17896561 -0.1272401   0.12985797  0.1260634
 -0.18822496  0.05766567  0.07702382 -0.29062906  0.19140075 -0.00350269
 -0.10076007  0.177521    0.18888709 -0.22053522 -0.01952624  0.25245398
 -0.23566079  0.09133392]
[-0.27153802  0.11972457  0.00887736 -0.08667023  0.1427872   0.06947903
  0.22549517 -0.11791161 -0.3654313  -0.12510453 -0.09012593  0.12587132
  0.30490753  0.08486623 -0.08959395 -0.25757352 -0.00623542  0.37921146
  0.08855245 -0.1383103 ]
[-0.24834996  0.31595087 -0.25066847  0.13921666 -0.30339232  0.22915716
 -0.3860985  -0.15531783  0.17579119  0.1622429  -0.17249487 -0.10447528
 -0.05757304  0.12335851 -0.0547769   0.15458128  0.32030407 -0.19200233
  0.15123355 -0.25053534]
[-0.3779824  -0.09743059 -0.33197773  0.07130988 -0.17285955  0.24304427
  0.27429286 -0.30144635 -0.14397688  0.24825144 -0.00094814 -0.11358672
 -0.04969098 -0.23661585 -0.04039427 -0.31253973  0.30442387 -0.248337
 -0.32588807 -0.26741454]
[-0.21683091 -0.03010853 -0.31756666 -0.21220702 -0.2766615  -0.20916863
 -0.1231226  -0.25562915 -0.26894575  0.27113053 -0.18020488 -0.07454481
  0.34308568  0.10150336 -0.1642261  -0.20756316  0.07715712 -0.07512347
  0.25196075 -0.05918041]
[-0.14208858  0.11636437 -0.14547977 -0.01577133  0.01675046 -0.09554984
  0.22515522  0.00554674 -0.00194083  0.27411112  0.31922728 -0.18194556
  0.3353671  -0.01557792  0.04577646 -0.07967798  0.01032976  0.3330613
 -0.17385468  0.26053324]
[ 0.2574296   0.16379699 -0.18519288  0.10395651  0.1116543   0.18695289
  0.03910304 -0.22897689 -0.01833092 -0.22573976 -0.09745911  0.19484566
  0.06346704  0.15715915  0.02189256  0.290275    0.11814576  0.28032967
 -0.02512313  0.15812807]
[ 0.20381944  0.17280456 -0.1484099   0.1717608  -0.14001022 -0.08104096
 -0.13938983 -0.05885427  0.18953227 -0.07128622 -0.1034134  -0.12211501
 -0.03027129 -0.08244617 -0.32759872  0.06656322 -0.00409334  0.01101928
  0.0798022   0.0018391 ]
[ 0.0774264   0.09866145 -0.01754925  0.1700669   0.0552799  -0.08593751
  0.07101181 -0.02031375  0.09773771 -0.28128242  0.07870939  0.01207883
  0.1751124   0.21573228 -0.10046219  0.02465253  0.11986458 -0.29308456
 -0.10919211 -0.02541397]
[-0.05911685 -0.10391502 -0.09197789  0.2708368   0.16999982 -0.1541887
  0.08229818  0.03696087  0.06636325  0.19415231  0.03910274 -0.10702646
 -0.04585966  0.14336802  0.02123164 -0.14138703 -0.07755323  0.3016871
 -0.09049469  0.28543028]
[ 0.37070802 -0.0540347   0.08539585 -0.2122061   0.04971177 -0.06768049
  0.34158155  0.06067077  0.2836314   0.22358876  0.10070775 -0.23992366
 -0.16958296  0.13004091 -0.16390866  0.19122477 -0.2661421   0.22192629
 -0.31097838 -0.11495073]
[-0.30173782  0.10577852 -0.14189471 -0.2059008  -0.14816469 -0.07843775
 -0.35096824 -0.2825312   0.19211884  0.17048831 -0.16453435  0.23408224
  0.01427918  0.1564418   0.02876452  0.3402739  -0.01622959 -0.22557797
 -0.16349411 -0.1790552 ]
[ 0.38104033  0.00517679  0.2902296  -0.07607745 -0.04801923 -0.09871884
 -0.01989575 -0.04360655  0.06147891 -0.17317289 -0.3085087  -0.35525826
  0.2261545   0.07989682  0.03875209  0.1030811  -0.00676433  0.33012885
 -0.0967548  -0.18504067]
[-0.14331041 -0.13817124 -0.04646416 -0.29560718 -0.10769648 -0.24918085
 -0.09079791  0.24946079  0.21117207  0.12891077 -0.26416248 -0.2557532
  0.1704291   0.21870945  0.08970295  0.3114549   0.07552379 -0.3174381
  0.0240497   0.03650064]
[-0.3294452   0.31143972 -0.14630978 -0.27672604  0.05155295 -0.11786871
 -0.17396928 -0.21482682 -0.04709826 -0.16865118  0.18762524  0.07875406
 -0.20800498  0.0286341   0.03431511  0.11668329  0.29124293 -0.1379734
  0.09474035  0.3306839 ]
[-0.09634759 -0.08360603  0.31017175 -0.03259038 -0.0876654  -0.02198025
  0.28910673 -0.02203917  0.00649511 -0.33706075  0.06803314 -0.3497728
  0.24826406 -0.14666317  0.15851772  0.00985121  0.01784056  0.18213195
 -0.08310911  0.29405397]
[ 0.01558969  0.06734711  0.02012974 -0.09670821 -0.05695299  0.27071786
  0.0813703  -0.02088026  0.07409315 -0.05704229  0.10534355 -0.25199875
 -0.18010168  0.03991747  0.22737433 -0.1062824   0.27991867 -0.05803642
 -0.0491839  -0.14549053]
[ 0.10962439 -0.023801   -0.5430723   0.3339042  -0.02521039  0.04913246
 -0.01166121  0.1690756  -0.3277143  -0.29272217 -0.32397076  0.07351822
  0.24336798  0.19362043  0.22325578 -0.06185702  0.00205233  0.06376439
 -0.1343843   0.10239427]
[-0.07624365  0.2042873  -0.34649298  0.18593052 -0.06299314  0.20236601
  0.16059707  0.21450676 -0.07512669 -0.00360501  0.05701149  0.34695652
  0.2515107  -0.1603063   0.01796322 -0.09971493  0.07439319 -0.13666624
 -0.11449636 -0.3383519 ]
[ 0.06557057  0.09393239 -0.10358301  0.16150345 -0.26351014 -0.2860692
 -0.19004737 -0.24551253  0.01099706 -0.19989125  0.23728833  0.14256452
  0.15915315 -0.03482668  0.24554771  0.08368348  0.31563318  0.34714678
  0.15920673 -0.28347728]
[-0.11552572 -0.05040073 -0.04806381 -0.33588448 -0.33609995 -0.10224
 -0.26453713 -0.27235264 -0.12953544 -0.05392357  0.01778485 -0.13945019
  0.26010653 -0.22250879 -0.07163046  0.1794098  -0.17355119  0.07137866
 -0.12484599  0.03524536]
[-0.28995618  0.14008723 -0.2340435   0.08419156 -0.2259605   0.06346213
 -0.42299852 -0.14910276  0.24242952 -0.07361283 -0.01920621  0.00943423
  0.05907563  0.00847899  0.04680025  0.26493827  0.19673501  0.49514577
  0.34823433 -0.04615111]
[-0.03984723  0.4192798  -0.5648151   0.15485007 -0.21830241  0.04021932
 -0.0940663  -0.2237504  -0.22612259  0.00590642  0.24418792  0.03555472
  0.0934324  -0.19993468  0.23734845 -0.16958028  0.3602161   0.18415628
  0.10002149 -0.22860336]
[-0.09509911  0.11646121 -0.24442486 -0.11969727 -0.04059406 -0.02252864
  0.03467097  0.1376952  -0.17966661 -0.22772384 -0.2589023   0.13108006
  0.05033005  0.02693829 -0.01425985 -0.0520856  -0.32307884  0.1371413
  0.12771615  0.30292103]
[ 0.02260524 -0.03129102  0.01246141  0.1683471   0.05804413  0.23615772
 -0.1287726   0.32436734  0.16603483 -0.07813959 -0.17836069  0.00713229
 -0.189177   -0.02258699  0.03099617  0.30889234  0.35792917 -0.29519552
  0.12191704 -0.22053564]
[ 0.22883078 -0.06179282 -0.0159845   0.13125488 -0.24496773  0.1471159
  0.03395693 -0.04548936  0.20141026  0.18495968 -0.04456512 -0.09860169
  0.3315452   0.06401689  0.17923741 -0.09827189 -0.07748011 -0.42133352
  0.11167652 -0.01231686]
[ 0.14391856  0.09644648 -0.05300447  0.18024829 -0.16379105  0.23123735
 -0.24106878  0.14418502  0.14170107  0.11917232  0.04999793 -0.22225581
  0.06971739  0.09221905 -0.06827985 -0.17797129 -0.18926954 -0.51409537
  0.29972443 -0.04872302]
[-0.09828483 -0.08375984  0.03851613  0.24978548  0.13011551  0.1570414
 -0.02922873 -0.35648927 -0.05278331 -0.01038124  0.12159451  0.15879896
  0.16574642 -0.15792972 -0.26875174  0.02544575  0.3651672  -0.11360197
  0.17709082  0.01449315]
[ 0.15699777 -0.10044419  0.0329016   0.10994221 -0.04440337 -0.02656128
  0.21625537 -0.16482739  0.08881648 -0.22888502 -0.22619855 -0.11941426
  0.13752006 -0.1007951  -0.21585798  0.17467372 -0.07692327  0.34638146
  0.15159    -0.19402073]
[-0.34070322  0.2741449   0.12470839 -0.22565375  0.17861532 -0.13364872
 -0.00776446  0.22954838 -0.27404934 -0.22541253  0.31692234 -0.16694942
  0.25443965 -0.17349301  0.02364591  0.16408326 -0.04855621  0.10684031
  0.14543518  0.08848391]
[-0.21509588  0.3517632  -0.12222035  0.08061037 -0.28643999  0.18052202
 -0.15622543 -0.13224244  0.11671482 -0.14911078  0.09211773 -0.25114506
  0.1174107   0.11859336  0.07708377 -0.09468603  0.18754931  0.08393887
  0.28624976 -0.1182197 ]
[-0.32687932 -0.04112105  0.21316811  0.01912161 -0.03441167 -0.01431073
  0.04706942  0.11277219 -0.18209243  0.3279544  -0.00110025 -0.07941769
 -0.14523467  0.37785265  0.04149811  0.06095784  0.20991135  0.26638484
  0.18377192  0.23214853]
[ 0.06633159  0.00489638  0.15565273 -0.30996525  0.19915402  0.23351601
  0.09939637 -0.20258445  0.33904067 -0.03115818 -0.17945825  0.17061816
  0.3641542  -0.19918247  0.1592467  -0.15288205 -0.3304369  -0.10885572
 -0.1143962  -0.2580527 ]
[-0.05022929 -0.01239789 -0.2538821   0.0431617   0.15097772 -0.11374148
 -0.12986763  0.2657566  -0.09859671  0.03574887 -0.15502582 -0.17238462
 -0.22918715 -0.27276075  0.03115473  0.11798685 -0.08306826 -0.08687816
  0.1995918   0.29112998]
[-0.10228538  0.01998171  0.01077373  0.01191095  0.07354213  0.03060794
 -0.1140293  -0.08095498  0.08094271  0.06496426  0.1257867   0.02571793
 -0.05240828  0.01975408  0.00073396  0.07658373  0.10747638 -0.279705
  0.07653173 -0.06880134]
layer 5 Activation
tanh
layer 6 Dense
20 1
[-0.07705973]
[0.01470301]
[-0.01927626]
[-0.02488214]
[0.07033303]
[-0.05043419]
[-0.02296848]
[0.06013325]
[0.1030194]
[0.0468875]
[0.08890548]
[-0.04121485]
[0.06698806]
[0.01582766]
[-0.0007557]
[0.10566483]
[0.05923531]
[0.11373482]
[0.05963329]
[0.01619666]
[0.00085154]
