layers 7
layer 0 Dense
20 20
[ 0.2541996  -0.23658718  0.22123949 -0.303793   -0.49515584 -0.15293352
 -0.00878646 -0.37181017 -0.38124672 -0.19288112  0.35473633 -0.04527304
 -0.02671988  0.09145657  0.11906119  0.07413131  0.07407451 -0.3067283
  0.26828426  0.5728991 ]
[ 0.6189257   1.1361281   1.0018967  -1.0861142  -0.17546871 -0.2642994
 -0.7215541  -1.4219997   0.36367786  0.922981    0.83428186  0.41940603
 -0.10605555 -0.5198148   0.44432262  0.6271652  -0.61062455  1.2535409
  0.30206347 -1.1472387 ]
[ 0.5338626   1.1339438   1.1894156  -0.77252126 -0.6837835   0.13833418
 -0.3194822  -1.5178806   0.5208643   0.53146714  0.32596737  0.5619258
  0.05436009 -0.34295145  0.29930595  0.7369821  -0.5071936   0.77884763
  0.32592568 -1.040601  ]
[ 0.3457357   0.17564265  0.20135759  0.21931316  0.17401844 -0.26983646
  0.11996491 -0.32996222  0.1098818  -0.26894948 -0.20130146  0.08499998
 -0.536323   -0.28019223  0.24346232 -0.2318314  -0.2842542  -0.43200916
  0.01762746  0.74669343]
[ 0.08769811 -0.00215866 -0.03943036  0.30727327  0.09932853  0.35850406
  0.46849304  1.1357621   0.31622294 -0.23498733 -0.25000253  0.11482948
  0.34915006 -0.16585727  0.39149755  0.2341949  -0.12896198  0.26155978
 -0.14107054 -0.09637576]
[-0.26160148 -0.8246968  -0.6453185   0.35064107  0.68605334 -0.12633531
  0.5051248   1.7400792  -0.6873403  -1.1352006  -0.0932594  -0.5185673
 -0.16882165  0.30603874 -0.46620554 -1.0916048   0.29405293 -0.79262024
 -0.2568257   0.8874207 ]
[-0.35644817 -0.5045321  -1.1981721   0.6092362   0.04905374  0.32076877
  0.28812882  1.8330574  -0.53058773 -1.026907   -0.71466947 -0.38053554
  0.17977016  0.9022682  -0.586551   -0.95100796  0.4192053  -0.5845055
  0.07403161  0.8623513 ]
[ 0.14519411  0.28735876 -0.01863307  0.0765502   0.23393194 -0.33899552
 -0.7468498  -0.63994956 -0.04681387  0.11292385  0.38230973  0.5924728
  0.05749628  0.58471817  0.22516145 -0.15516469  0.47972962 -0.32507035
  0.01228478  0.12950148]
[ 0.33104572 -0.30446428 -0.08764507 -0.6572926  -0.16943967  0.2631237
  0.8344836  -0.17069031  0.3884711  -0.6533402  -0.3536887  -0.6298568
 -0.19532351 -0.4989092   0.61451995  0.09585643 -0.05549171  0.02115442
  0.10936461  0.8705307 ]
[ 0.5808865   0.67986816 -0.005995    1.1531564   1.0500426  -0.33768374
  0.09067876 -0.07230986 -0.38602352 -0.32140183  0.7562151  -0.09894271
 -0.8190274   0.07428488  0.90617526  0.5253622   0.52245015  0.01916105
  0.31842005 -0.09205797]
[ 0.13211708  0.07696354  0.20369859  0.7293607  -1.5775806   1.3709676
  0.5595369   0.57851356  0.0076142   0.22181115 -0.04841204  0.74727947
  0.9591458  -0.8856006   0.34294236 -0.03050619  0.36668137 -0.95399195
 -0.89277464 -0.4909722 ]
[ 1.3878365   1.7064551   1.7118497  -0.4421769  -0.51600236  0.8638529
 -0.21813959  0.6183787   0.39888144 -0.18027923 -0.11262168  0.70461947
  0.3001581  -0.19388455 -0.66214436 -0.46004885 -0.7895878   1.0850236
  0.5180318  -0.18823017]
[-0.32997543  0.1413164   0.94371206  0.72326785  0.6406975  -0.06302107
 -0.26674378  0.41224867  0.02922503  1.6247945  -0.27159205 -0.37098825
  0.37630725  0.46851042  0.23378496 -0.39098316 -0.33427015  0.2726722
  0.58968776  0.11738289]
[-0.25718868 -1.2270548  -0.0189696  -1.1590991  -1.3603373   1.11404
 -0.7864936   0.00895463 -0.42896798  0.28088725  0.3564899   1.5777065
 -0.47572318 -1.3831615  -1.2428217  -1.0547109  -0.641409    0.5558645
  1.6456925   1.1512376 ]
[ 1.3183496  -0.80204654  0.5119518   0.86725956 -0.31029162 -0.31322175
  1.1751401  -1.0374066  -0.24556999  0.49444756 -1.7651247  -1.0146594
 -1.4576485   0.94332474 -1.077478    0.44209862 -0.18396464  1.6632445
  1.1411366   0.317303  ]
[-1.0732775  -1.6575841  -1.7856836   0.40551695  0.46086088 -0.00709379
  0.78658795 -1.8670479   0.79263496 -0.08246069  0.21699935 -0.5337497
 -0.26183128  0.40228528  0.68612707  1.0252595   0.5062458  -1.3478049
 -0.03899615  1.166222  ]
[-0.0944472   0.09221786 -0.41812494  0.06855844 -0.344053    0.44365624
  1.245105    0.7105834  -0.52845275 -0.8649519  -0.01424859 -0.20701462
 -0.6006292   0.03562939 -0.32469514 -0.1631541  -0.1917138  -0.29685193
  0.5781381  -0.12036379]
[-0.14771633  0.53234404  0.24112311 -0.1658003  -0.32197002 -0.44364816
  0.23184861 -0.7191738   0.17119046 -0.0517457  -1.6190804  -0.575327
  0.9581368   0.7895746   0.3303062   0.35449636  0.22658698 -0.16607963
 -1.5329982  -0.9776777 ]
[-0.71598893  0.6794949   0.03308725 -1.6830798   1.7108808  -1.1970944
 -1.1364043  -0.63253915 -0.00698685 -0.31316674  0.7223326  -0.30453205
 -0.03656553  0.8761834   0.8975754  -0.59274364 -0.20079388 -0.538706
 -0.14409074  0.01711948]
[ 0.6579528   0.9625363   1.017807   -0.49026722  0.13474725 -0.5832931
 -1.213664   -0.3924872  -0.71985626  1.0271224   0.36176077  0.310095
 -0.19584642  0.44677755 -0.4691374  -0.8763975  -0.27580088  0.27298403
  0.03198994 -0.32966718]
[-0.06586494 -0.15272434  0.05853856 -0.00898946 -0.11892046  0.05107476
 -0.04999259 -0.20266539 -0.0600201  -0.19021712  0.13521515 -0.11210085
 -0.07288679 -0.11643834  0.02594398  0.02121719 -0.06364381 -0.0083042
 -0.33592668  0.11360681]
layer 1 Activation
tanh
layer 2 Dense
20 40
[ 1.20794289e-01 -2.16144353e-01 -3.44182581e-01  7.54164979e-02
 -4.89517659e-01  1.73756868e-01  1.59348726e-01  2.17286393e-01
 -5.43422773e-02 -5.26752353e-01  1.36374459e-01 -2.59832621e-01
 -6.07550293e-02  5.44828653e-01  1.47578329e-01  1.89346194e-01
 -6.06827974e-01  2.73528665e-01 -1.94396421e-01 -9.18271542e-01
  3.74733895e-01  1.62274703e-01  5.28714731e-02  6.35682140e-04
 -4.60115582e-01  5.54886043e-01  5.35291612e-01  4.27357197e-01
  2.31875271e-01 -2.83592701e-01  3.04265134e-02 -2.28953958e-01
  1.08433671e-01  1.53115645e-01  2.59289779e-02  1.03411816e-01
  2.43325323e-01  2.36893445e-01 -6.75539598e-02 -7.62873441e-02]
[-0.2255445   0.05762697 -0.17954263 -0.0479461  -0.02690151 -0.07606263
  0.27606764  0.68809396  0.16653062 -0.6582266  -0.23818009 -0.05968231
  0.19803801  0.3600001   0.1043917  -0.22125673 -0.37806088 -0.32314923
  0.03961438 -0.8095191   0.38179076  0.11014006 -0.197789   -0.19529834
 -0.22076575  0.16379277 -0.00539028  0.38447797 -1.2534298   0.17892013
  0.21660101 -0.0830821   0.09582798 -0.05581618  0.02943253  0.08417017
 -0.34025258 -0.05526614  0.00205377  0.0186234 ]
[-0.03024153 -0.60565466  0.12272816 -0.28281912 -0.33496988 -0.18526132
  0.33897492  0.50695217  0.02549738 -0.5338412  -0.18264471 -0.09622741
  0.18775372 -0.13077866  0.29468432 -0.18456073 -0.55614156  0.01580819
 -0.23172683 -0.45979     0.8521719  -0.06345031  0.00103819  0.12646908
 -0.01236153  0.05852155  0.07875496  0.15719733  0.18301293 -0.216176
  0.20724542  0.11580868  0.35628933  0.16193874  0.2831798   0.05464431
  0.10713488  0.40863916 -0.11268348  0.27444997]
[ 0.3634677  -0.73064715 -0.74622476 -0.33836234  0.07001474 -0.3049998
 -0.11377824  0.49862766 -0.20298621 -0.29912037  0.07482063  0.49291307
  0.02103936  1.0416019  -0.25306514  0.00141094  0.28428906  0.9470583
 -0.605934   -0.63116294 -0.24165176 -0.2132025   0.32886955 -0.45051792
 -0.37542525  0.9621796  -0.22848257  1.1837763   0.6930422  -0.18564472
 -0.01947638  0.80719477 -0.6409977  -0.34127304 -0.04103634  0.69774735
 -0.8423593  -0.4083121   0.12361093 -0.22773068]
[ 0.18884405 -0.9503821  -0.43703496 -0.34718534 -0.29568213 -0.5945617
  0.07539225  0.62906057 -0.00831015 -0.32444477  0.05230055  0.03960199
 -0.3040775   0.6440069  -0.21482113 -0.09974039  0.17619775  0.27274314
  0.0456861  -0.8256795   0.09858435  0.2718989   0.35262892 -0.16545384
 -0.39738312  0.94477725  0.7001854   0.31898874 -0.40652525 -0.3688883
 -0.10636999  0.2758369  -0.49452996 -0.34145257  0.22512163  0.58668774
 -0.04454379 -0.22872731  0.02947107 -0.03775648]
[-0.10367134  0.18413281  0.38478538  0.27448484 -0.229682    0.89804053
  0.08417907 -0.09766454  0.04674472  0.5420283   0.26225728 -0.2610547
  0.07581266 -0.33630228 -0.26404995 -0.11744738 -0.21531372 -0.20542501
 -0.00868248 -0.31645608 -0.5763802   0.01731477 -0.14601758  0.11605356
 -0.08441675 -0.44345343 -1.000737   -0.38474202 -0.43351772 -0.00752035
  0.17421083 -0.3966399   0.5068539   0.04088261 -0.13278984 -0.5208717
 -0.06234689  0.06910718 -0.03110189  0.27372742]
[ 0.06866018  0.44905052 -0.08678423 -0.5438907   0.53107965 -0.09392108
 -0.52520704 -0.16557267 -0.01419566  0.28621975  0.16886929 -0.09956706
 -0.24544726  0.07554623 -0.09638356 -0.5436727  -0.25100636  0.14232367
 -0.6345728   0.15709324 -0.7854235   0.01862903  0.35084406 -0.18488178
 -0.6915721  -0.12445517  0.6188356   0.9399302   0.27964705 -0.7390055
 -0.02713649  0.70989317 -0.45286006  0.05318807  0.31763393  0.2541944
 -0.50183696 -0.09455352 -0.12628596 -0.28526604]
[-0.66674185  0.28313455  0.09019491 -0.08016429 -0.6779418   1.0448267
  0.29578373  0.3623196   0.06828072  0.11861835 -0.09668034  0.149911
  0.05629853  0.23852283  0.29795986  0.30926123 -0.65151113 -0.08668565
  0.33522275 -1.0780966  -0.21499953 -0.13160464 -0.13481022 -0.08909553
 -0.05571892  0.36384174 -0.6204327  -0.17093626 -1.0799582  -0.02832678
  0.22874956 -0.36191523  0.49463364  0.01860659  0.14349182 -0.24651241
  0.5892493   0.25596863 -0.00476548  0.27974203]
[ 0.26516914 -0.21806394 -0.15334997  0.14890304  0.7510289  -0.19089176
  0.43313226  0.2800851   0.02887866  0.41225296 -0.06882183  0.12474033
  0.00338646 -0.052794    0.0631592   0.09714189 -0.00126107  0.06980199
 -0.19079678 -0.13951692  0.02806059  0.21970314 -0.13232125  0.10362385
 -0.23685007  0.23886286 -0.22731517 -0.10392182  0.0718699   0.25198042
  0.10152008 -0.07728631 -0.28115055  0.15435639 -0.12245536  0.19968154
 -0.22383128  0.194426   -0.3058469  -0.19889578]
[-1.17324062e-01 -6.43273294e-01 -2.65863419e-01 -1.29202008e-02
 -1.27686918e-01 -9.59399194e-02 -4.88664806e-01  4.66299266e-01
  2.52312180e-02 -2.67437220e-01 -1.02746636e-02 -9.40727368e-02
  7.60764182e-02  3.43137681e-01  1.57660335e-01 -3.83148611e-01
 -1.02169804e-01  8.14474449e-02 -1.09309971e-01  8.29307795e-01
  9.60332274e-01  1.61519080e-01  3.21776420e-02  2.74983436e-01
 -1.34241590e-02  1.01901621e-01 -5.22986710e-01  2.98853606e-01
  3.96362007e-01 -1.41584314e-04 -3.50165963e-02  4.90190051e-02
  1.44579023e-01 -1.81658892e-03  8.65833387e-02  8.08964849e-01
 -1.28583193e-01  1.41355842e-01 -1.17662229e-01 -2.72387058e-01]
[-0.13900407  0.6525716   0.5913038   0.2761831   0.4884055   0.90987104
  0.01722488  0.9652606   0.12020694 -0.38349077  0.29283625 -0.1847068
  0.35676566 -0.61333054 -0.1395072   0.58480936  1.2417791  -0.361639
 -0.0770824   0.34078267  0.11038298 -0.05198879 -0.16596496 -0.16171959
  0.5727331  -0.7130649   0.4671341  -0.07961291 -0.8643487   0.18381014
  0.00736114  0.1094889   0.10856953  0.40734717 -0.16026926  0.28181815
 -0.10241301  0.07329336 -0.01459507  0.4066006 ]
[-0.39361078  0.3390976   0.3802374  -0.24415648 -0.47069466  0.5710078
  0.09154114  0.29754147 -0.0732996   0.22810137 -0.2101096  -0.17002484
 -0.13894215 -0.43240726  0.01560979  0.20981517  0.69889724 -0.22446573
  0.461929    0.38213295 -0.0710461   0.02121003  0.1460705  -0.18574873
  0.84349066 -0.56598485 -0.954048   -0.5040402  -0.47301427 -0.13515921
 -0.04551895 -0.312768    0.5588419  -0.21758933  0.17197321  0.27784434
  0.3490909  -0.13001153  0.10296371  0.0752047 ]
[-0.00810578  0.01335951  0.29212546  0.06541325  0.639805    0.4096562
  0.05648771  1.159577    0.14787123 -0.7680446   0.00651787  0.17404492
 -0.23232134 -0.06109729  0.2865089   0.5248164   0.53097355  0.5602133
 -0.28276393 -0.41961807  0.6779597   0.21247998  0.17482588 -0.00193224
  0.00482922  0.02797224 -0.11181151  0.53260815 -1.0471374  -0.15305418
 -0.02674051 -0.0432056  -0.3644093   0.26120654 -0.00763587  0.51369923
 -0.06463961 -0.0186946  -0.07163677  0.24974704]
[-0.18490171 -0.36473212  0.21085134  0.13911775 -0.31130046 -0.5894445
 -0.17794575  0.35983077  0.04328509 -0.8433031   0.08809278  0.11629366
  0.23575506 -0.13108759 -0.03421238  0.03923119 -0.39325166  0.2847117
 -0.38124678 -0.55562514  0.5329905   0.12375406  0.05341367 -0.14162065
 -0.03683993  0.08019739  0.52532643 -0.45939118  0.12868468  0.0243978
  0.00723585  0.01305251 -0.3347022   0.24941643 -0.03745906  0.11195049
 -0.10771082  0.2628462   0.0142492  -0.16058774]
[-0.01029584  0.50463325  0.29759556 -0.04176655  0.5171288  -0.10967404
 -0.02422766  0.3664169  -0.24543373  0.0602194  -0.11987683 -0.4518345
  0.03568823 -0.21784854  0.2917756  -0.08131148  0.61691093 -0.44346336
  0.08208629  0.26779732 -0.10548308 -0.00568205 -0.17576711  0.29178086
 -0.19442941 -0.899231    0.521382   -0.01139345 -0.44490397 -0.12003306
 -0.00738037 -0.10886397 -0.58153874 -0.05929324  0.0376073  -0.6640788
 -0.608166   -0.09803299 -0.1400695   0.09649561]
[ 0.28266543 -0.03973657 -0.07012316  0.1017221   0.6334802  -0.2505821
 -0.40237176 -0.09946575  0.09607623  0.28133398 -0.06295278 -0.06732643
 -0.07876912  0.23386072  0.09120259 -0.07320224 -0.13810599 -0.05094084
  0.09858196  0.067936   -0.48325777  0.27565894  0.3123704  -0.13304463
 -0.5100864   0.05368396  0.807625    0.292308    0.6734042   0.07105516
  0.0090197   0.46935132 -0.27469984 -0.1855566  -0.04112044  0.06330211
 -0.5638383  -0.08432277  0.13840194  0.06231999]
[-0.09677686 -0.27480078 -0.21755236  0.12691385  0.19782887 -0.23007531
 -0.3922449   0.473004    0.0244841  -0.48655063 -0.23153281  0.12781057
  0.35950682  0.16770649 -0.0681221  -0.06088422  0.4916108  -0.19642162
 -0.26454625 -0.34797508 -0.5222767   0.21637021 -0.16907316 -0.3966751
 -0.02368131  0.34389722  0.42112464  0.2250261   0.28719586  0.33098346
  0.07987302 -0.14942367  0.38419056  0.24896182  0.0057618  -0.12324563
 -0.09043172 -0.12157238  0.00914588 -0.20270316]
[-0.41269043 -0.83552754 -0.32064596 -0.10057829 -0.34458426  0.19774301
 -0.08009079 -0.1823179   0.02234516 -0.24466641  0.20106138  0.00833217
 -0.13408872  0.43982983  0.08345631 -0.023716   -1.2116796   0.07253773
 -0.12275591 -0.30353114  0.41275212 -0.10452164  0.1804356   0.11829185
  0.26474088  0.6330007  -0.43972966 -0.13583036  0.24613702 -0.14953141
  0.09346821 -0.33052808  0.68454427  0.20113721 -0.18539801  0.38916513
  0.41193667 -0.09901732 -0.27808827  0.10847011]
[-0.40394396 -0.25569972 -0.7675344   0.30269876 -0.5812212  -0.47569016
 -0.09817099 -0.51765007 -0.07623192  0.83920777 -0.31711298  0.19173516
  0.2512222   0.93923664  0.32892573 -0.42289418 -0.75890106 -0.2868469
 -0.15877336  0.82530665  0.05536259  0.3063532  -0.12016511 -0.24110077
 -0.20315807  0.989838   -0.40295643  0.3896512   0.19831416  0.18033879
  0.00888945 -0.49114168  0.5079517   0.13800621 -0.09367174 -0.03669846
  0.8723176   0.00901665 -0.05502152 -0.20503724]
[-3.7878516e-01 -6.9082692e-02 -2.5226644e-01 -1.6352548e-01
 -1.5394564e-01 -6.3669980e-01 -1.0370197e-01 -8.9046097e-01
  1.6315679e-01  2.8047892e-01 -2.1717449e-01 -4.4938762e-02
 -1.9009610e-01  3.8970064e-02 -1.0877880e-03 -4.5741954e-01
  6.2179238e-01 -1.2911563e-01  3.0305237e-01  1.3450766e+00
 -2.7066106e-01 -8.0095924e-02  9.4301321e-02 -9.7291380e-02
  4.7887164e-01 -4.6956513e-02 -3.4718031e-01 -3.3254144e-01
  4.1759086e-01 -7.1946308e-02  3.6432984e-01 -6.1055463e-02
 -2.0620477e-01  5.5235483e-02  1.3225485e-01 -1.2639169e-01
  2.3561166e-01 -7.5380668e-02  1.9471429e-02  1.5686771e-01]
[-0.29235238  0.16124207 -0.13676246 -0.21400881 -0.02749264  0.01690855
  0.49748188 -0.27701032  0.24094208  0.14918223 -0.26703307  0.11753219
  0.43146703 -0.14345226  0.6105822   0.06016884  0.28694326  0.04710697
 -0.16329731  0.25720358  0.22349879  0.18102093 -0.06074875 -0.08889952
  0.13751893 -0.04447835  0.17832299  0.09678399  0.12290768 -0.03883412
  0.23324703 -0.01743979 -0.17682314  0.01964762  0.1199471   0.35980305
 -0.02573609  0.2224897  -0.05742411  0.11319681]
layer 3 Activation
tanh
layer 4 Dense
40 20
[ 0.0379537   0.05214199 -0.17782345 -0.05358227  0.11971206 -0.05931873
  0.0332448  -0.23285545 -0.2615277  -0.07930573  0.15496421  0.00254769
 -0.23691379  0.01971171  0.07458256  0.03641678  0.14234582  0.12970352
  0.24236439 -0.10760904]
[-0.04061352  0.04838018 -0.00194066 -0.4294482  -0.3363108  -0.284656
 -0.05575097 -0.23471297 -0.20720303  0.03718705 -0.03814726  0.17923662
  0.11858486  0.19074439 -0.25166157 -0.12547445  0.10467932 -0.28844804
  0.16800584  0.2908065 ]
[ 0.00771821  0.00158101  0.10074478 -0.16487351 -0.03977227  0.14887011
 -0.141494   -0.01896435 -0.13330834  0.1839117   0.13699667  0.32256222
 -0.05119941  0.08159062  0.09058534 -0.00397111 -0.24139692 -0.17426036
  0.19233686  0.01300876]
[ 0.05147982 -0.06827716 -0.11807439 -0.06211863 -0.04055261 -0.03516509
 -0.08760513 -0.02100639 -0.01296775 -0.04826998  0.09974242  0.00667216
 -0.04166531  0.11647787 -0.1253478  -0.06059192 -0.31748056 -0.05486869
  0.01035921 -0.1226751 ]
[-0.175158    0.06266297  0.02543713  0.05217715  0.11991586 -0.02360373
 -0.26685998 -0.26205328 -0.4103857   0.1997965   0.15115236  0.19873896
 -0.12062535 -0.18292528 -0.36840165  0.13658148  0.33960974  0.03458081
  0.19045897 -0.26970744]
[-0.04383563 -0.19030601  0.1006588  -0.36640576 -0.03554247  0.03335834
  0.06180964  0.03614606  0.38057798 -0.10015035  0.14075811  0.32489815
  0.01059703  0.23065814 -0.01063045  0.07952678 -0.30564123  0.01957349
  0.08673816 -0.18431006]
[ 0.04452595 -0.13403228  0.02421029 -0.04724412 -0.09560301  0.18350737
 -0.09726383  0.32643566  0.2513829  -0.01660777  0.11691684  0.08089155
 -0.17662267 -0.08376341  0.27537352  0.03961185 -0.17704652  0.2939614
  0.4090415   0.06142506]
[-0.0917538   0.00195374 -0.02344072 -0.36778966  0.5778052  -0.09106274
  0.25001583  0.0243341  -0.04081253 -0.09077438 -0.01097342 -0.16099061
 -0.10050153  0.11708299  0.43479475 -0.18864104  0.05281143 -0.06064173
 -0.296813    0.04568991]
[ 0.05237326 -0.02821865 -0.10294319  0.04556802  0.01232565 -0.02770438
 -0.08590582  0.18835999  0.00266487 -0.07353436 -0.00850859  0.03406761
 -0.16840076  0.17208272 -0.01235244  0.03222242 -0.00185701 -0.13074082
  0.13119073  0.15559281]
[-0.26910397  0.21109481  0.03179766  0.4212773  -0.07220612  0.03949542
 -0.09857209 -0.0030266  -0.11952884  0.18131147 -0.02630151  0.38297513
 -0.12086421 -0.00104253  0.02158146 -0.00369471  0.12848553 -0.03437314
  0.2054316   0.12098657]
[-0.10067856  0.1231894  -0.01997285 -0.04175274  0.00025332  0.1068371
  0.07381975 -0.0308159  -0.06520482 -0.00095249 -0.11116561 -0.00473773
 -0.03639143  0.0446737  -0.08015915  0.14756486 -0.02355006 -0.04415962
 -0.08797262  0.06973354]
[ 0.00390549  0.00294301 -0.05589319 -0.08178874  0.08819663 -0.10669357
 -0.00568285 -0.17150067 -0.06337716 -0.02771957  0.1700313  -0.21321452
 -0.09877498  0.11005927  0.00543368 -0.01944169 -0.00637997 -0.04335608
  0.02057439  0.1087103 ]
[-0.10616626 -0.04408121 -0.02666163  0.05458387 -0.15256663  0.10637761
 -0.12684639  0.19610006 -0.07645138 -0.28251725 -0.04542227  0.10359161
  0.1487665   0.0989158   0.3014502   0.06602907 -0.07352173 -0.10620324
  0.09100786  0.02295881]
[ 0.08146966 -0.11649197  0.10369949  0.3674595   0.21402657  0.21445408
  0.05671359 -0.1327409   0.08925976 -0.15569767  0.16368861 -0.2977886
 -0.14387093 -0.09171     0.4309324   0.12956616  0.17396599  0.10154632
 -0.24748914 -0.10994314]
[ 0.13205257 -0.03177648 -0.22536701  0.04432045  0.02119803 -0.02491485
 -0.02543726  0.3302415   0.00791218  0.06498294  0.10403644  0.05521176
  0.03281387  0.009673   -0.01692775  0.0365925   0.10277164 -0.09666611
 -0.09056384 -0.03895184]
[ 0.18725409  0.02258279  0.02578829 -0.21939826  0.23166001  0.29684702
  0.02641471 -0.03183547 -0.07966367 -0.14235674 -0.19118667  0.27402356
 -0.08229285  0.08769165 -0.07415241 -0.01878886 -0.28031963 -0.06035899
  0.1530876  -0.04426497]
[ 0.01961131 -0.15024434 -0.07018839 -0.34688675 -0.7623093  -0.06653663
  0.04670349  0.01122324 -0.34175515 -0.24025232 -0.16630323  0.6328529
  0.19084795 -0.18125983  0.03370153 -0.2042375   0.09142816  0.07860559
  0.11346638  0.22068386]
[-0.08955757  0.02105951  0.15352558 -0.12208842  0.12584479 -0.08569247
  0.15725844 -0.10483019 -0.2199102   0.03590012 -0.09763866 -0.21952704
 -0.04485393 -0.18743709 -0.10994949 -0.03183444  0.08680563  0.10092261
  0.01754443  0.05095354]
[ 0.17397776 -0.11239931 -0.20057814  0.00131062 -0.06350404 -0.01909127
  0.00264506 -0.10392126  0.17234746  0.05085092  0.0760622   0.15811118
  0.10048317 -0.08103203 -0.1885343   0.08850727 -0.39568642  0.15764442
 -0.02777751 -0.09204961]
[-0.08677503 -0.04184216  0.06758557  0.42870829 -0.4827491   0.14046401
  0.08368661 -0.3019056   0.52506196  0.13968346 -0.04601717  0.33605796
 -0.13988107  0.18255909  0.20962743 -0.06713043 -0.5203554   0.16648774
  0.12351476 -0.08507477]
[-0.02737527  0.1698792  -0.10176412 -0.26159263  0.08006919  0.07038383
  0.15194252  0.31642932  0.45695293  0.17064221 -0.06614836 -0.04688622
 -0.07181898  0.23026378  0.24176364 -0.03384266 -0.4566959  -0.09866532
  0.23042156  0.07850008]
[-0.09991809  0.07023428  0.05060561  0.05628132  0.04038574  0.03964987
  0.055857    0.20936938 -0.04470454  0.03474472  0.02987437  0.02794558
  0.13548702  0.09585342 -0.10566599 -0.0069587   0.0390555   0.12240934
 -0.03246435  0.06141445]
[ 0.04705537  0.10218453  0.14864084 -0.02539471  0.10841212 -0.08913273
  0.00354092 -0.01207484 -0.07131341  0.05121228 -0.09377612 -0.09259591
  0.13048038 -0.24143392 -0.22303098  0.06381734  0.15482898 -0.09063839
 -0.03595098  0.08379343]
[-0.15525635 -0.00967397 -0.00110987  0.00710408  0.10213239 -0.11676811
  0.01382416  0.15643196 -0.04605741  0.0667418   0.07940615  0.06167665
 -0.20470327  0.06112362  0.04352488 -0.00947896 -0.15659168 -0.02967688
 -0.00341882 -0.04412939]
[-0.0558268  -0.00414727  0.08078347 -0.31863216  0.02255246 -0.24545571
 -0.11089256 -0.02687106  0.14930657 -0.05391291  0.13189906  0.09511213
 -0.10696648 -0.17001934  0.16798346 -0.08401203 -0.25528866 -0.03966677
  0.0580393   0.14391042]
[-0.16784503 -0.06582935 -0.02871     0.48586014  0.10417244 -0.22199638
 -0.16234691  0.07128023  0.20285258  0.10666394 -0.08284903 -0.48161742
 -0.03537739 -0.04947115  0.26347306 -0.21362877  0.15931547 -0.26314554
 -0.10670085 -0.20362002]
[-0.1385923  -0.03855244  0.12617426  0.39545432  0.0086167   0.01584116
  0.13143362 -0.04656772 -0.4830198   0.04352858  0.09132396  0.48943543
 -0.01007354  0.251564   -0.14430575  0.0414629   0.5415025   0.02284031
 -0.11708535  0.15385213]
[ 0.0427713   0.09621007  0.0532832   0.18353716  0.36924326  0.05768346
  0.15403962  0.16456679 -0.49160329  0.11478992 -0.06865419 -0.03312009
  0.08295323 -0.08568434  0.063954   -0.08584855  0.4349045   0.14316133
 -0.03660178  0.23155434]
[ 0.05475857  0.08347381 -0.01393654  0.40519494 -0.44053316 -0.11421602
  0.07735515 -0.17963807 -0.53652036 -0.01611074  0.0330791  -0.46246707
  0.08798467 -0.40380034 -0.04500775  0.06566323  0.44373074 -0.15591449
 -0.00816179  0.36191842]
[ 0.0586775   0.02424881  0.02090759 -0.06231293 -0.08319537 -0.01875497
 -0.19951601 -0.07351619 -0.0398518  -0.02676626  0.10339449  0.05088271
 -0.04982315  0.1544188   0.20443584 -0.12316279 -0.41459537 -0.10278931
  0.22833699 -0.12909886]
[ 0.14225121 -0.07695592 -0.25084317  0.04479823 -0.06576114  0.00749396
 -0.0636532   0.036479    0.07338628 -0.03830656 -0.0704685   0.02448826
  0.12908709 -0.11547976  0.15889682  0.01016291 -0.00667816 -0.0873055
  0.05130742 -0.14550193]
[-0.17478864 -0.17962964  0.18666376  0.01974253  0.32007602  0.0813176
 -0.0937962  -0.05395778 -0.2608614   0.01161037 -0.03030497 -0.00811956
 -0.09223403  0.43617222 -0.22324955 -0.07785519  0.53032     0.0269796
 -0.21035045 -0.03061009]
[-0.23647334  0.08520253 -0.16018076 -0.3918223  -0.23223855 -0.11485731
 -0.09186897 -0.00735107  0.39767662  0.28248018  0.0693845  -0.12048987
 -0.01180286 -0.19948679  0.01022172 -0.05976456 -0.33110127  0.1140608
 -0.03338229 -0.01415158]
[ 0.00998414  0.04728804 -0.03313728 -0.01786311  0.00394183  0.00921028
 -0.0624345   0.06358038  0.06214364  0.00850646 -0.04145699  0.01009045
  0.1406421   0.21738622 -0.04652948  0.08099442  0.00862999 -0.03241635
 -0.13458307  0.09121723]
[-0.10173786 -0.01807564  0.00708011  0.08989035 -0.03804475 -0.05073282
  0.1172529   0.12724507  0.03643103  0.00660786 -0.0940958   0.04470206
  0.13316745  0.0319179   0.10623298  0.05267837  0.24195407  0.02769535
 -0.00089596 -0.07359098]
[ 0.05287102 -0.0604235   0.04972902 -0.04014292  0.2910437   0.14553253
  0.00903161  0.12318598 -0.34115893 -0.02344651  0.25127023 -0.03460706
 -0.00721288  0.00463079  0.08967551  0.00087431  0.35431975 -0.01273908
 -0.13650042  0.09529191]
[ 0.02506637 -0.04033671  0.04072176  0.06470998 -0.3156429   0.09828914
 -0.05640118 -0.16045138  0.31991532 -0.03662601 -0.04596151 -0.34969825
  0.06822927  0.03280735 -0.01750496  0.09711189 -0.2023092   0.061807
  0.09209618  0.13699462]
[-0.16244867 -0.00556512 -0.06425346  0.06101858  0.00811307 -0.10308196
 -0.2382075   0.324396   -0.00609229  0.08453816 -0.12687708  0.05951376
  0.2206239  -0.00586963  0.04051864  0.017255    0.07244027  0.05280698
  0.03599263 -0.21687682]
[ 0.02813173  0.0394156   0.1927839  -0.0036248  -0.04782087  0.06338609
 -0.14596756 -0.08596579 -0.01285908 -0.02508634 -0.01980222 -0.00773528
 -0.03974451  0.07958122  0.04727805 -0.07778911 -0.07720898  0.08977689
  0.06435664 -0.08647233]
[-0.08857021  0.03454705 -0.02243603 -0.0910328  -0.04649056  0.04698669
  0.06063366  0.04148714  0.08995816 -0.05766637 -0.00687591  0.19869728
  0.15831509  0.12532382 -0.07200168  0.11287168 -0.1685982   0.09679656
  0.01865887 -0.04869704]
[ 0.11737673 -0.02805585  0.12472795  0.01054236 -0.03608303  0.13281453
 -0.05188161  0.33561698 -0.04535009 -0.1601876   0.03857929 -0.03615825
 -0.12914501  0.4087398   0.39085433 -0.11704537  0.04237662  0.04921208
 -0.02964553 -0.08414777]
layer 5 Activation
tanh
layer 6 Dense
20 1
[-0.01906798]
[0.02327566]
[-0.00116033]
[0.14345464]
[-0.15441896]
[-0.02494707]
[-0.00606913]
[-0.0091498]
[-0.09632639]
[0.01016179]
[0.00344327]
[0.15057595]
[-0.0106437]
[-0.00731508]
[-0.04102206]
[0.01595782]
[0.07504641]
[0.00290103]
[0.00926058]
[0.02566301]
[-0.03109248]
