layers 7
layer 0 Dense
20 20
[ 0.10037488  0.37500024  0.7564496  -0.01555766 -0.42625475  0.5472722
  0.34702158  1.1153394   0.59506047  0.02217957 -0.3510786   0.4273967
  0.93677515 -0.03621042  0.31087428  0.44008932 -0.97527    -0.41665933
 -0.03738939 -0.17564216]
[-0.05920276 -0.01214066  0.04828468 -0.31914708 -0.18993862  0.38542682
 -0.03075686 -0.23927458  0.25769067 -0.2750402   0.29424316  0.18312788
  0.13046873 -0.17416202 -0.06295431 -0.2561188  -0.3530625   0.3184405
  0.03400424  0.34661853]
[ 0.31587088 -0.19524415  0.30249965  0.24358451  0.1564182   0.1566655
  0.3490367  -0.21215531 -0.22364849  0.3555758  -0.04137754  0.10769391
  0.02611259  0.02193746  0.27591854  0.1546272  -0.08785403  0.30421484
  0.29841113  0.12729704]
[-0.3769164   0.12572521  1.0104223   0.35940874 -0.12687884  0.15622087
  0.02354228  0.44337845  0.39150056 -0.02734967 -0.03966659  0.14165507
  1.1092137   0.16954914  0.08542769  0.31337488 -0.66325325 -0.21711527
 -0.40619776  0.39058036]
[-0.45142785 -0.030971    1.2222329  -0.01956565 -0.22077434  1.5827696
  0.2876895  -0.36552492  0.5362395  -0.19177154 -0.02242479  0.25638518
  0.6180428   0.4208218  -0.04329831 -0.91736287 -0.81007016 -1.0668606
 -0.34398162  0.5064134 ]
[-0.30223712 -0.0297803  -0.05651248  0.35294193  0.0155139   0.11524791
 -0.13781919  0.36537528  0.268812   -0.02543914  0.08683774  0.368115
 -0.29559118  0.02112183  0.22080648  0.17159593 -0.28237867  0.3672349
  0.14090472 -0.04855192]
[ 0.02550304  0.0709219  -0.02506685 -0.15923622 -0.01750049 -0.37196118
  0.27486402  0.02798319 -0.31514633  0.37664747  0.01009405 -0.12880477
 -0.2724778  -0.27928686 -0.22419699 -0.3254953  -0.22894257 -0.1935982
  0.1559397  -0.14323229]
[ 0.06481653 -0.24599269 -1.5045059  -0.45727238  0.3603677  -1.614255
 -0.24793974 -0.46574596 -0.80823565  0.23225908  0.41197538 -0.4836576
 -1.4740667  -0.3043904  -0.721682   -0.09109533  1.1121986   0.4092104
  0.5799169  -0.39225197]
[-0.4770223  -0.31217122  0.24092558 -0.7165673  -0.7297288   0.7554937
 -0.50435686  0.17033441 -0.6389488  -0.441719    0.6185199  -0.6486268
 -0.20800658  1.4484273  -0.40122    -0.20000733 -2.1945953   0.39619508
 -1.6681244  -0.76496154]
[ 0.50046426  0.8265339   0.02191859  0.15798654 -0.11382302  0.15809712
 -0.17858411 -0.16115113  1.1927022  -0.20757441 -0.09967589 -0.21902949
  0.04153221  1.1448549  -0.72895855 -0.00891757  0.0233553   0.26583874
  0.24878807  0.0151712 ]
[-6.79556608e-01  1.77325308e-01 -8.11078819e-04 -4.44019020e-01
  1.20141976e-01 -3.39454532e-01 -5.21490946e-02  3.07825178e-01
  5.63549876e-01  3.96886587e-01  6.30840212e-02  5.26150227e-01
  1.40219003e-01  2.15396002e-01 -3.83029699e-01  6.06026268e-03
 -1.71421528e-01  1.25685558e-01  1.37212884e+00 -3.04373085e-01]
[ 1.8455292  -0.20702942 -1.7775542   0.59675545  0.8237742  -2.2191195
  0.07217629 -2.1414192   0.3799529   2.362799    0.10983483 -0.25379398
 -1.9703106  -3.1404104  -0.06536797  0.7289326   4.871968   -0.17662664
  3.518086    0.83878374]
[ 0.05983174 -0.58854157 -0.2910691  -0.15476668 -1.3782563   1.7440594
  1.5153105   0.1429906   0.88736755  0.5474259  -1.4214154  -0.5954219
  1.5575168  -0.5516476  -0.7656602  -0.25739533  0.76080614 -1.3824582
  0.35615265  1.2639866 ]
[-0.03689213  0.8042766   0.07066091  0.25100818  0.00984526  0.07764543
 -1.0844289  -0.15618359  0.11694545 -0.2012182  -0.58854914 -0.2894127
  0.09070596 -0.0088563  -0.7363489   0.04691541  0.06330556  0.04558302
  0.12874573 -0.2104478 ]
[-1.6588983e-01  1.6057108e-01  9.6260555e-02 -4.6662956e-01
  1.4512901e-01 -1.9288616e-01  6.1757237e-01  2.3842907e-01
  7.5142704e-02  3.6171663e-01 -1.2769014e-01  6.1753219e-01
  1.2981766e-01  5.0421857e-04 -3.3667958e-01  5.5908006e-02
 -9.7987764e-02  8.9474820e-02  1.6614586e-01 -1.1135412e+00]
[ 0.02113822  0.09935497 -1.2295817  -0.20106657 -0.45856774 -3.3045318
 -3.1242602  -2.1714976  -1.7603586  -1.0016521   2.6048913   0.02625234
 -4.495431    0.7347699   0.46610135  0.88860375  0.86630166  2.8565373
  0.00856012 -2.3781536 ]
[ 0.43905213  0.20569554  1.2943711   0.20251991  0.93038285 -2.682837
 -0.6958827  -0.49988106  0.19890527 -0.08343419  0.22607394  0.12508613
 -0.08591548 -0.49078053  0.30411404  0.1251366   0.24814746  0.45028493
  0.3459398  -0.4222351 ]
[-0.9906088  -1.4160875   0.3324052  -1.1271476   0.03070904 -0.11879762
  1.0479268  -0.34015122 -1.584037    0.9508409   1.7951987   1.0153133
  0.01443757 -2.2572818   1.4662404   0.05504498  0.02367075  0.3044448
 -0.28053066  0.36936843]
[ 0.79332656 -1.019087    0.0608732   1.6317458   0.14251103 -0.41213602
 -1.1084921   0.19208482 -0.8161232  -0.92026234  0.9499797  -1.4663643
  0.09628241 -1.0104836   1.228099    0.08184206 -0.13858901  0.02954871
 -1.7308564   1.1175758 ]
[-0.77639836 -0.6750963   0.0710583  -0.33167398 -0.17891093  1.7471205
  0.9371464   2.7771497   0.48696423 -0.53972125 -1.194664   -0.22134474
  2.5601132   1.1912764  -0.5276068   0.26016757 -1.9570072  -1.0756487
 -1.382188    1.1260961 ]
[-0.17290375  0.29925987  0.85265833  0.29740253 -0.22712131  0.8631419
  0.10088038  0.59236753  0.4370304  -0.06819457  0.0544651   0.27178344
  0.7908125   0.08336189  0.39856112  0.0754445  -0.69687116 -0.14854644
  0.02631158  0.068037  ]
layer 1 Activation
tanh
layer 2 Dense
20 40
[-0.04184293  0.46730348  0.60011786  1.1317055   0.22035326  0.22838722
 -0.9712556   0.09274183 -0.4664891  -0.4935853  -0.06568342  0.08098864
  0.8429145  -1.6377469  -1.1542546  -0.38683897 -1.1105598  -0.23465754
 -1.2519209  -0.6497061  -0.14477757  0.37098405  0.60615176 -0.44753549
  1.0396804  -0.31781664 -0.14908007  0.62180763  0.43445814 -0.7500481
  0.05908304 -0.9368424   1.0907406   0.273184   -0.19407894 -0.38295606
  0.19166853 -1.3756341  -0.03679701 -1.4068509 ]
[ 0.48166367  0.19282234 -0.813713   -1.7154737  -0.88636917  3.6132982
 -0.55237615 -0.45196536  1.4826845  -0.14415298  2.229556   -0.21814142
 -0.5221896  -1.4189993   1.0422071  -0.34395128  0.98069525  1.0259818
  1.6611174  -2.3321714   0.05515331  1.1901555   0.4184574  -0.00483682
  1.6188985  -0.28858748  0.6687464  -0.85502017 -1.0320388  -2.2531176
  0.48533863 -2.2151074   0.16448289  1.3788419   0.3514593   1.3448491
  0.17784879  0.91832    -0.6722082  -0.0659634 ]
[ 2.3388953   1.420452    2.7617853  -0.79343694 -2.0316207  -0.47022653
 -0.73135424 -1.4018219   1.8714153   0.5042144  -0.4783199   1.6089287
  0.80956936 -2.2836473   0.27770728  0.5350505   2.1947262   0.8108258
 -1.0141016   0.8236931  -1.9272922   0.34699506  1.9881271  -1.0019044
  2.770093    1.4526837  -1.1442331  -2.4953444  -1.6497197  -0.96600074
 -0.280377   -0.2876779  -0.5306561  -0.15763633 -0.705277    0.49771598
  2.044833    0.19734699 -0.5227562   1.6235166 ]
[ 1.3052039  -0.00862054  0.56879264  2.3446488  -1.0536821   0.08987974
 -0.24155979 -0.28293368  0.08483063 -2.6517363   1.469964   -2.8252165
  0.48324418  0.61411417 -1.5183645  -0.31396428 -0.4180394   0.8108134
 -1.3736415   1.049078   -0.15641658  1.3068576   0.85542566  0.2264396
  1.0970646  -1.071523    0.6660874  -0.40254143  0.38264203  1.3058296
  0.4606252   0.3025062   0.70989156 -0.07413337 -0.72886765 -0.7061222
  1.3661667  -2.9318461  -0.548802    0.7682765 ]
[ 0.60133696  0.21374696 -1.009436    1.2726182  -0.10461337 -0.62571585
  0.22558047 -0.38242763 -0.10107038  0.45036274 -1.1377273  -0.1228162
 -0.44613785  2.7954843   1.4644848   0.15189116  0.9523376   0.44771913
 -1.5549253   0.08559642  0.3071317   0.21144237 -0.19833674 -1.6502863
  0.17706636  0.19637586 -0.18207066  0.26853356  0.39891163  0.31012946
  0.4068183   0.5196922   0.69590575  0.44550464 -0.12368354  0.06396652
  0.9273076   0.5118406   0.40284023 -0.7812449 ]
[ 0.878984   -0.00657192  0.3439142   0.42833382  0.5243286  -0.31249854
  0.08707864  0.01264058 -0.5889166   0.2185165  -0.38267457 -0.19414157
 -0.13451406  0.09925266  1.1657578   0.23684739  1.7647128   0.5678533
 -0.71428204 -0.11293959 -0.7843973   0.22004148 -0.82135457 -0.28586078
  0.8862715   0.09448726  0.68807745 -1.1268072   0.92650646  0.67139864
  0.7324477   0.11479554  0.10723546 -0.3158912  -0.11812004  0.07126698
  0.27740923  0.15814668 -0.32321262  0.30269584]
[ 0.45908654  0.44626588  0.0969983   0.23992148 -0.13023895 -0.71127987
 -0.85383797 -0.04275877 -1.5851514   0.199226   -0.26475814  0.0298556
 -0.10444061 -2.0787995   0.80689627 -0.05207675  2.048742    0.05741806
  0.21673013  0.18813136  0.40747672 -0.45640835 -1.8818321   0.667033
 -0.55594987  0.43089113 -0.02749222 -0.31922987  0.248305   -0.15661754
  0.45270887 -0.17732139  0.19913933 -0.32476184  0.19194071  0.10519657
  1.1974994   0.33755347  0.06789192 -0.26582795]
[ 2.8858747  -1.9997647   0.4239609   0.10497022 -0.6935971   0.09113248
  0.4609152  -0.44369766  0.1438762   0.88036895 -0.44532362 -0.3166034
  0.20128223  0.35604298 -0.4981989  -0.3718687   2.3316817  -0.8742079
 -1.5242138  -0.8845264  -0.7063244  -0.40663883 -0.42286736 -1.1161534
  0.16013439  1.5382314   0.18150736 -0.24286766 -0.01886238 -0.11345586
  0.20830865  0.11004276  0.28857908  0.6678088   0.37430778 -0.4500713
  1.1525036  -0.24389514  0.44599995  0.9553887 ]
[-1.7097650e-02  6.1058365e-02  9.6788454e-01 -5.4242724e-01
 -1.5892531e+00 -2.7019086e-01 -5.8650154e-01  1.1689680e-01
  1.1984519e-01 -5.9655148e-01 -1.0672700e-01  2.6842743e-01
 -1.3088998e-01 -1.3580519e+00  2.8957999e-01 -9.2227559e-04
 -2.5366312e-01  2.6244047e-01  1.2360188e+00 -6.9298878e-02
 -4.5825136e-01  1.2230360e-01  4.9067114e-02  2.9071545e-02
  1.2606667e+00 -1.3326408e-01 -2.5307724e-01  7.7711570e-01
 -1.3765733e+00 -1.0917711e+00  3.0492964e-01  8.6277112e-02
 -1.3347289e-01 -7.5083441e-01 -1.0435518e-01  7.2113246e-02
  9.8921144e-01 -6.3240960e-02 -7.0704363e-02 -5.1979572e-01]
[-0.43694144 -0.39436495  0.8093599   1.4541624  -1.0729944   0.30336717
  0.5456796  -0.15328613  0.26737007  0.7743395  -1.1725432   0.03618852
  0.8530798  -0.42419255  0.9577431   0.2963515  -1.1965889  -0.44977075
  1.3109365   0.34058267  0.08773453 -0.39753997 -1.134101    0.8373969
  0.15615585 -0.2965932  -0.06311042 -0.37517276 -0.42404136  0.17799953
  0.17544502 -0.94696414  1.5548213   0.3180055   0.5406104   0.26211005
  1.4553505   0.32727575  0.32970446  0.13177042]
[ 0.16267693  0.12289221  0.27119935  0.60626376 -0.06159719 -0.3579896
 -0.04405108 -0.02939109 -1.2343029  -1.0956358   0.22346063  0.17894016
  0.0625338   1.9254416   0.02770529  0.05836075 -0.7858931  -1.120911
  0.49380165  0.96759063 -0.5329052  -0.47560564 -0.09527703  0.64573824
  0.5196032  -0.6633357   0.09061474  0.22156176 -0.57936704 -0.10407938
 -0.30702904  1.1028975  -1.1554155  -1.1028081  -0.12699004 -0.08781742
 -1.8024771   0.9245249   0.6351617   0.14862426]
[ 1.2650198  -0.11915091 -0.4292001  -0.6306034  -0.3506309  -0.78305376
  0.33703822  0.08226247 -0.671879    1.0143911  -0.75372785  0.97747236
  0.11157582 -0.2990301   2.6435175   0.8105084   1.4764885   2.110144
  3.8937075   1.4388803  -0.88943    -0.20320675  0.662348    2.3900478
  1.2848725  -0.5965934   0.8043987  -0.11456635  0.19751942  0.38765135
  0.4946904   1.1917157  -0.1950929  -1.0533499   0.7292187   0.88683856
  0.1778868   1.8567818  -1.2204167  -0.3140469 ]
[ 3.2120144   1.5134864   0.39907765  1.369607   -1.426277   -0.7606159
  0.4801309   1.4462222   0.8555308   3.3443058  -0.78076595 -1.5277449
 -1.054318   -0.8437122  -1.4811488  -0.7190563   3.3905542  -1.7480861
  0.3336633  -1.032535   -0.79279774 -0.51069033  0.37850887 -0.6296264
  2.6875637   0.6455905   0.68122405 -5.4876204  -0.06207707  0.03055399
  1.6544781  -0.9188909   0.96083355  0.36527368  0.9942231  -0.52236724
  3.7918854  -0.81064063  0.7544816   0.39663357]
[ 0.29990566  0.70024496  0.0559012  -0.65174603  1.6069168   0.04175024
 -0.53553146  0.01202047  0.5264904   0.99024177  0.18609445 -0.89641607
 -0.58362764  0.6121822  -0.88669485 -0.26354578  0.43445346  0.60414857
 -0.5450316  -0.25574258 -0.1373877   0.28893885 -0.34378234 -0.6334372
 -0.4632345   0.25824887  0.02545086 -0.7100861   1.6743822   1.0642645
 -0.23196794  0.11584702  0.42320335 -0.510755    0.06496796  0.0808221
 -0.973027    0.50491214 -0.25186607  1.4255623 ]
[ 0.01309822  0.08733673  1.0296227   1.6789784  -0.71538603 -0.7264655
  0.45583716 -0.20462793  1.3965667  -3.17406     0.0280683   0.8343462
  0.88442844  0.61567533  0.45796448  0.8709497   0.5091571  -1.7935791
  0.9738351   1.8593228  -0.8657157  -0.42254263 -0.04528612  4.121315
  1.0289646  -0.21970898  0.80371875  0.66382873 -0.94246596 -1.774395
  0.6890406   1.1067837  -0.9023704  -0.7892229  -0.777734   -0.01044474
  0.42488864  1.0982631  -0.19777164  0.2468005 ]
[-0.86275125 -0.08936846  1.7870538   0.7396696  -0.34196383 -0.55496293
 -0.18784373  0.15463665  0.07263317  0.05031383 -0.5615495  -0.17699192
 -0.75515    -0.49432173  0.8401605   0.17557657 -0.75527936  0.4402442
 -0.98607045  0.8442953   0.01329     0.33393228 -0.02637083 -0.65276015
  0.9470673   0.33923736 -0.26387376 -0.47472426  0.42308214  0.09052139
  0.43499595  0.38892052 -0.24456823 -0.5960449  -0.25922698  0.21585152
 -0.39765215  0.2927239  -0.17343153  0.05589603]
[-4.0098248  -0.26745462 -1.4118993   0.7099195   1.1316649  -0.9315456
 -0.6408406  -1.6457511  -0.43106687  0.41598123 -0.34541485  0.41557738
  0.1746093  -0.5398882   0.3244299   0.2853258  -2.2067795   0.9046478
  0.12420311  0.98006266  1.4122086   0.23054567  0.7262687   0.9193365
 -1.9185479  -1.4851228  -1.6832734  -2.1293972   0.6034585  -0.16861641
  1.2194344  -1.3896688   0.34424827 -0.1306218  -0.17222203  0.40903232
  0.5380937  -0.85900944 -0.2591814  -2.621478  ]
[-0.8756781  -0.4084819  -0.07838014 -1.1311179   0.8896144   0.43423066
 -0.07455214 -0.40215173  0.00345279  0.2160702   0.65235084 -0.21736632
 -0.04570068  0.2371719   0.12534694 -0.20657545  0.14569563 -0.18447337
 -0.05023756  0.0798346  -0.17219861 -0.1342904  -0.27886474  0.51463175
 -0.66694534 -0.25711444 -0.11827302 -0.9177284   0.26735884  0.4239966
 -1.4305571   0.46763027 -0.2598008   0.16440974  0.05285015 -0.09101102
 -1.1866603   0.271787    0.5967011   0.33560425]
[ 0.34400713  0.14260226  0.24247889 -0.18453352  0.22747833  0.1505126
  0.47435573  0.08797799  1.4099063   0.19167748  0.22191378  0.93115693
  0.33349118  0.73030037  0.5009446   0.26932365  0.1916822   0.63336295
  0.18993641 -0.29649547 -0.2463827  -0.10741896 -0.2564612   0.32827505
  0.7528239  -0.25279623 -0.13315581  0.35165963 -0.2885984   1.0868353
  0.12830304 -0.7112716   0.552802    0.21262214  0.11072796  0.12457905
  0.59528726 -0.7008616  -0.37321958 -1.4717387 ]
[ 0.2167797   0.16141987 -0.40651038  0.299904    1.8480742  -0.49032593
 -0.26419252  0.04357477  0.6279174  -0.70318687 -1.0390301  -0.33927295
 -0.03676863 -1.8269695  -0.5426005  -0.07888256  0.66742516 -0.866634
 -1.5080717   0.5225641   0.27083546  0.1265826   0.5625159  -0.22031829
 -0.37040663  0.33004478 -0.15617797 -1.5685868  -1.1476841   0.6075678
  0.61817783 -0.3966627   0.2810977  -0.82453924 -0.2373008  -0.13091154
  1.2902144  -0.44814646  0.63611245 -0.586882  ]
[ 1.7788227   2.5631158   2.4062352  -0.8127334  -2.6197557  -0.58980554
 -1.007972   -2.3427806   1.9442455   1.1351275  -0.49518582  1.1024607
  0.67749894 -2.213841    0.23521821  0.27147046  2.2770736   0.49638018
 -1.37136     0.44373378 -2.015093    0.42213473  2.6481793  -1.659615
  2.6698868   1.6594925  -0.3974677  -2.6370795  -2.6015582  -1.5084139
  0.2812016  -0.5483968  -0.37243873 -0.9524743  -0.7388065   0.2936694
  2.643242   -0.08669544 -0.26426116  1.7355703 ]
layer 3 Activation
tanh
layer 4 Dense
40 20
[ 0.05295647 -0.431175   -0.4948366   0.41739383  2.518839   -0.38626862
  2.4725702   0.72243774 -0.24975404  1.944153    0.8046385  -0.04684536
 -0.49097192  1.6073098   1.5350008  -0.7042737   0.31557816  0.21205758
  1.614849    3.066666  ]
[-0.600692    0.4326158   0.22872265  0.8944357   1.5239332   0.48222443
  0.33154443  0.6607124   0.4586392   0.6351947   0.9193111  -0.49911144
  0.53158706  1.3073373   1.1918699  -1.3559502  -0.22553048 -0.16441612
  1.0914837   1.3073534 ]
[-0.4573661   0.1605154   0.5421875   0.6372248   1.474875    0.15977898
  1.3023859   1.0856558   0.05841907  1.404494    0.6002312  -0.55057806
  0.4452004   1.3727163   2.0146484  -1.497731    0.16700356 -0.11423865
  1.0688704   1.7624702 ]
[ 0.35994133 -0.10224725 -0.18339333 -0.8585689  -2.3513808   0.10974804
 -2.7384536  -0.33224276  0.1092907  -3.0074408  -0.47779176  0.15585452
 -0.18761607 -0.8495824  -0.9906414   1.6581006  -0.19859494  0.30426648
  0.4079309  -1.2643976 ]
[ 0.50405866  0.07289453 -0.54134417 -1.0182402  -1.3374325  -0.251954
 -0.52074105 -1.1425446  -0.45945388 -1.2112012  -0.74946177  0.37130207
 -0.5421161  -0.95066226 -1.6260056   1.3773537   0.2463813   0.03892457
 -0.9796642  -1.5139159 ]
[-0.4154856   0.55250347 -0.46337277 -0.02689657  0.6646898  -0.4496096
 -1.8303096  -0.09927186 -0.445885    0.61908984  0.30402148  0.76494765
  0.54526305 -1.8938849   0.68380433  0.63939285  0.3603889  -0.8885664
  0.46247154 -0.41201505]
[ 0.21661566 -0.07861927 -0.05178297 -0.16936113  1.970855   -0.07459801
  0.63287675  0.66921604 -0.07531685  0.70520955 -0.35708785  0.18586373
 -0.08156009  0.6346388  -0.04971097 -1.0818839   0.03154577  0.03721586
 -0.26972973  1.4236785 ]
[ 0.50709486 -0.37438878 -0.48324206 -0.0702004  -1.2601582  -0.2680784
 -0.49136788 -0.31251892 -0.04372275 -0.80163133  0.05090565  0.18018691
 -0.588966   -0.04185674 -0.9635792   0.53430235  0.232647    0.5766897
 -1.4491758  -0.9534687 ]
[-0.01670952  0.53725743  0.03643493  0.9421223   1.4122728   0.62870526
  0.6761403   0.12220348 -0.09073512  1.8745776   0.5760044  -0.2697419
  0.30450213  0.47312894  2.0790071  -0.96001965 -0.08574845 -0.40949982
  0.9866643   0.65552384]
[-0.24876238 -0.36782002  0.35664764 -0.02692529 -0.20958143 -0.11923683
 -2.0864499   1.484483   -0.19263886 -1.5990396   0.2144497  -0.7589193
  0.2458181   1.3498286   0.5599222  -0.4426572   0.1899746  -0.35127026
  0.3344884  -0.22271898]
[ 0.562274    0.24587072 -0.1771247  -0.1379436  -1.4131836  -0.10890929
 -2.3358228  -0.79621947 -0.13489322 -0.8370667  -0.1106727   0.16744252
  0.14656806 -1.4824826   0.07069411  1.6107763  -0.14077815 -0.26784348
  0.6710535  -1.0298914 ]
[-0.44981292 -0.21931824  0.37185818 -0.06576791  1.3458892   0.11856803
 -0.42059454 -0.19509834  0.42541093  0.7004074   0.03065728 -0.23610167
 -0.03824816 -0.11335278  1.595507    0.4950455   0.20715383  0.12343489
  0.48974794 -0.40635744]
[ 0.54318976 -0.32714045 -0.00704157  0.8154592   0.07861787  0.27483863
 -0.75388837  0.631786    0.23299466 -0.6927046   0.31022775 -0.26952443
 -0.2084495  -0.11230495  0.29158738  0.63681376 -0.05384267  0.44108835
  0.20500205 -1.2814703 ]
[ 0.03111169  0.03866707 -0.18002367 -0.49286115 -1.3143643  -0.26720092
 -0.9211541  -0.961112    0.07083508 -1.580903   -0.6152951   0.05881818
  0.07139053 -1.0736529  -1.659454    1.7400051  -0.09084532 -0.00408708
 -0.6821428  -0.63554484]
[-0.28559974 -0.03030771  0.12210567 -0.16249543 -1.9603969   0.01846622
 -2.0692747  -0.5330397   0.42741704 -2.033227    0.08498514 -0.31713566
  0.28084368 -2.2103112  -0.5884086   1.1979768   0.14894637 -0.38115552
  0.54025763 -1.0531174 ]
[-0.63460934  0.32872006  0.23304714  0.34198275 -1.1718906   0.2521436
 -0.44555286 -1.3170998   0.2838176  -1.0696816   0.10957746 -0.22503947
  0.07814154 -1.2714866   0.6101622   0.8404432  -0.16128387 -0.1490565
  1.2166649  -0.38260457]
[ 3.4694024e-04  1.3242432e-02  5.5848368e-02  5.6308424e-01
  1.9844904e+00 -2.5230065e-01  3.5430162e+00  1.0706853e+00
  9.9184960e-03  3.0357747e+00  5.3875893e-01  2.6701981e-01
 -2.0018721e-01  3.2459047e+00  1.3937463e+00 -2.7087388e+00
 -1.3965766e-01  7.5375848e-02  9.9394470e-01  3.4598196e+00]
[-6.5202999e-01  6.5461808e-01  4.3067098e-01  3.6434580e-02
 -4.8815218e-01 -2.9258531e-01 -1.4466007e+00 -9.2127699e-01
 -9.4250292e-02 -2.5047129e-01  1.7595106e-01  3.9661434e-01
  2.3750615e-01 -2.6022329e+00 -4.0125659e-01  1.1093217e+00
 -1.0958005e-03 -6.5921736e-01  1.4165671e-01 -9.6430516e-01]
[-0.3939009  -0.64589006  0.4043453  -0.38658744 -0.3641012  -0.38085932
 -0.4110277  -0.9971153  -0.76403666 -0.66019356 -0.4700395  -0.68697786
  0.29196268 -0.9591837  -1.0680197   1.246577    0.2620915  -0.03790042
  0.6638196  -0.8012746 ]
[ 0.40048674 -0.5674212  -0.02126502 -0.02510654 -0.00650647  0.43797708
 -1.4388219  -2.1755025   0.54038346 -1.7146194   0.25754887 -1.1365429
 -0.5509094  -2.125602    0.73253435  0.7692666   0.02294159  0.66908956
  0.19027787 -1.1424084 ]
[-0.05157393  1.0010295  -0.2197353  -0.766626   -0.85309243  0.24914311
 -1.1902146  -0.9207042   0.39938447 -2.9563727  -0.29768085 -0.05693284
  0.5885637  -1.983098   -1.7307245   1.2445582  -0.1932714  -0.25901154
 -1.1618183  -2.35798   ]
[ 0.15266967  0.2301364   0.01199493  0.72831845 -2.451302    0.07810975
 -1.1662682  -1.5532144  -0.36616457 -1.0091156   0.45319855  0.13876969
  0.2804678  -2.4272687  -0.46551996  1.0151871  -0.47548044 -1.1750447
  0.3991116  -1.8680345 ]
[ 0.08853105  0.4097471  -0.21255466  0.5993744   1.6684479  -0.06556687
  1.2757612   0.8277818   0.1394472   0.8701468   0.625128    0.19200204
  0.05367258  1.0640144   1.7825963  -1.0144014  -0.3812884  -0.62981176
  1.1376592   1.4081539 ]
[ 3.7290946e-01 -1.7680758e-01  3.6801499e-01 -4.4797122e-01
 -1.4977928e+00  1.8900909e-01  2.3167910e-01 -1.5453290e+00
  9.4751298e-02 -2.3990748e+00 -4.6753708e-01 -4.8205623e-01
 -2.1048942e-01 -1.7039244e+00  3.1316164e-01  2.5891881e-03
  3.5755390e-01  2.3523985e-01  8.1244968e-03 -2.9782419e+00]
[ 0.11350859  0.15451024 -0.20422137  0.70875514  0.8135248   0.07260303
  1.5033234   1.1306285  -0.39760593  1.4771162   0.5186637  -0.23119013
  0.24031308  0.8752456   2.4630768  -1.5256875   0.20797984 -0.1780334
  0.8842673   1.8808312 ]
[ 0.6689078  -0.47773665 -0.26872885 -0.13182187  4.0625362  -0.50178033
  3.9842894   1.9104104  -0.5063508   2.6581793   0.43911052  0.4549677
 -0.4932163   2.4303617   0.720141   -2.6808727   0.51995426  1.1231672
 -0.01659702  2.9766443 ]
[ 0.21485536 -0.31025252 -0.5425856   0.33030218 -0.9312681  -0.3284883
  1.820057    0.5724493  -0.24428217  0.12053689  0.90278655  0.3395394
 -0.15137318  0.7570293  -2.30243    -1.0312357   0.41586125 -0.01119074
 -0.06939626 -0.00419545]
[ 0.7390362  -0.38328144 -0.5260075  -0.9763984  -0.4945794  -0.00699965
 -0.54867643 -0.14368919 -0.62773657 -1.1611785  -0.7494714   0.48478
 -0.07865926 -0.20126966 -1.2261026   1.1357503   0.6583113  -0.11711612
 -1.5180591  -0.6333277 ]
[ 0.2328015  -0.44175726 -0.02312873 -0.81780136 -1.0013512  -0.36631978
 -0.5575845  -0.878217   -0.6116231  -0.91849923 -1.0777464   0.12971826
 -0.6137406  -1.3996503  -1.4606625   0.7137241   0.44641107  0.34199485
 -1.3938291  -1.2556742 ]
[ 0.05941977 -0.5022127  -0.04783028 -0.8540441  -1.7520385  -0.57510686
 -1.0367259  -0.6824602   0.15025419 -1.1657649  -0.87913173  0.11154807
 -0.5017112  -1.2377499  -1.6673954   1.2558025   0.03508025 -0.02277826
 -1.0294607  -1.504741  ]
[ 0.5172642  -0.31253    -0.30098215  0.29858702  4.310067   -0.3541441
  3.2383604   0.09994984 -0.37521505  3.11432     0.27930486  0.3296269
 -0.3920453   1.1864951   2.3105404  -1.453844    0.20350559  0.4254536
  0.97387534  2.4667592 ]
[ 0.16313922 -0.28650215  0.15767542 -0.03970266  0.02524702  0.29097316
  0.9495053   0.03333765  0.30361497  0.13657191  0.01422234 -0.29523176
 -0.31569317  0.73823225 -0.655745   -2.476246   -0.08229329  0.4008574
  0.21728216  0.45468724]
[-0.4241733   0.31915623 -0.01554216 -0.08014216 -0.22051254 -0.20704351
 -1.3743709  -0.35288063 -0.16359513 -0.05564502  0.25538498  0.23331249
  0.23514032  0.8665364  -0.7151394   1.0261836  -0.05437233 -0.39222184
  0.30055952  0.09351085]
[-0.10138921  0.10274435 -0.13166    -0.21266003  0.20103532 -0.10168253
 -0.56074643  1.5174407  -0.2942532   0.9250471  -0.06162712  0.07001171
  0.24539612  0.7419157   0.2419456   0.4452873   0.12395108 -0.17591424
 -0.35214093 -0.22296892]
[-0.20725958 -0.9073611   0.07255896  0.04512519  0.570655   -0.30219433
 -1.1208531   1.8620107  -1.245427   -0.5105686   0.0712828   0.13897741
 -0.4894937   1.5471623   0.8365934  -0.48209992  0.40043014  0.21791157
 -0.19390409 -0.93640345]
[ 0.03919646  0.3058976   0.327579    0.88879955 -1.6992701   0.4258712
 -0.9451971  -1.4782258   0.09781658 -0.822929    0.84923154 -0.48276052
  0.4782948  -2.340732   -0.44553444  1.3912838  -0.32792458 -0.9949071
  0.45518276 -0.39593115]
[ 0.08697236 -0.27171233 -0.29055017  0.59712535  5.4084315  -0.21818168
  3.2791238   1.1144652  -0.44652945  2.5736077   0.92786205  0.7819048
 -0.3487438   2.4918337   2.7122846  -2.7024763   0.31147915  0.8066328
  0.52237546  3.692593  ]
[-0.4517732  -0.08937918  0.22435546  0.22551851 -2.1082783  -0.0578173
  0.7057111  -0.24182966  0.34020242 -2.2202413   0.5920385  -0.43229124
  0.04220765 -1.2185719  -0.31717277 -0.89774024  0.16508353 -0.45040786
  0.6557006  -2.0061681 ]
[ 0.32382032 -0.3548159  -0.09593864  0.05751811 -0.48904887  0.12239527
 -0.0604398   0.5030506   0.1152676   0.14964029 -0.40545702 -0.20501058
 -0.3358274   0.00642234 -0.5939732  -0.21587983  0.07664983  0.5042401
  0.1190656  -0.2527293 ]
[ 0.49625465 -0.31624436 -0.463892    0.5809909   0.68054825 -0.2936942
  2.8277652   2.208309   -0.6317742   2.2360504   0.4545966   0.18977202
 -0.66223305  3.5000439   0.8989629  -2.9575245   0.10584308  0.08803112
  0.3612363   2.487124  ]
[-0.44990966  0.3485578   0.31153417  0.77376086  1.5055317   0.43092516
  0.9290134   1.0344803   0.22502932  1.2477795   0.4602319  -0.43451956
  0.3892719   1.2685231   1.7437576  -1.3406188  -0.24021335 -0.06829384
  0.9066121   1.540956  ]
layer 5 Activation
tanh
layer 6 Dense
20 1
[-0.6769982]
[1.1036712]
[1.1873949]
[2.335658]
[-1.1394428]
[1.677726]
[-1.205901]
[-1.671438]
[1.4684591]
[-1.4690427]
[2.3778863]
[-0.63358504]
[1.4416956]
[-1.2662091]
[-0.7294543]
[1.3958781]
[-1.7503248]
[-0.61747545]
[2.3125997]
[-1.1367661]
[1.9016736]
