layers 7
layer 0 Dense
20 20
[-0.37762812  0.36335376  0.18348849 -0.0031625  -0.16627318 -0.13260604
  0.31108966 -0.75475866 -0.10066299 -0.1134581   0.23058699  0.42032462
  0.07544535 -0.37241918 -0.01489139  0.23482858  0.2891435   0.06124106
 -0.22694393  0.5994842 ]
[-0.20689265  1.2289778  -1.0594746   0.63039845 -0.49046355  0.5617557
 -0.17702568 -0.07128242 -0.0363122   0.5154495  -0.23800555  0.86777717
  0.334397    0.79961354 -0.5262846  -0.98932433  0.14864987  0.2364438
  0.54880404  0.32758915]
[-0.28891256  0.496196   -0.35405347  0.96536714 -0.46079335  0.29326114
  0.42135534 -0.18701883  0.19343588  0.54323024  0.15061836  0.7757337
  0.63333726  0.11779664 -0.29854205 -0.5253666   0.4481076  -0.25269783
  0.3132837   0.83607215]
[-0.15965815  0.4077556   0.04796105 -0.24991834  0.07407404 -0.06429878
  0.33031076 -0.25943094 -0.27959058 -0.24437511  0.02134163  0.7274263
  0.12468921 -0.16988593  0.22684103  0.05779977  0.22614224 -0.52938193
 -0.09981811  0.6357711 ]
[ 0.32406044 -0.5291352  -0.0492507   0.14771736 -0.36724323  0.3971309
  0.22469372 -0.10837094 -0.05330518  0.24331969 -0.46701244  0.10362457
  0.34476677 -0.2863133   0.1262296   0.26539633 -0.05739515 -0.47024018
  0.26510614 -0.17171614]
[-0.01747593 -1.0336404   1.0041659  -0.5542544   0.8939735  -0.00636492
  0.06730203 -0.51810575 -0.288869   -0.44682977 -0.10693038 -0.83689755
 -0.51435375 -0.26298207  0.85725176  0.46835914 -0.3982292  -0.06731656
 -0.22275707 -0.35432842]
[ 0.00880121 -0.6830498   1.0585774  -0.7377471   0.7018774  -0.28316778
 -0.15054035 -0.43850923 -0.3783914  -1.008892    0.43232834 -0.36037928
 -0.3653302  -0.8275413   0.27987462  0.7690487  -0.32328522  0.04098349
 -0.29133588 -0.32485926]
[ 0.49501774  0.13339749  0.13464032 -0.15654619  0.6006629  -0.3528577
 -0.48772782  0.5922143   0.10168076 -0.2062692   0.73053396 -0.9327111
 -0.5149807   0.70098454  0.2078172  -0.36988243  0.11710253  0.5231809
  0.41426492 -0.32500786]
[ 4.7313529e-01  1.6940603e-02 -5.0931239e-01  5.2687877e-01
 -5.4148018e-01 -1.7528208e-01  1.6714726e-04  1.8365489e-01
  1.5034839e-02  7.1259642e-01 -3.7388641e-01  4.6332368e-01
 -3.7986460e-01 -4.3373483e-01 -9.5509753e-02  2.6289424e-02
  5.4446131e-01 -3.2891667e-01  3.1649210e-02  3.2640129e-01]
[-1.3786871  -0.2990515   0.18120214  0.5626393   0.79629624 -0.00318891
 -0.05150164  0.42744565  0.6250616  -0.18246627 -0.06165566  0.7220386
 -0.11370829  0.08132197  0.20881402  0.05088801  0.60129374  0.27534536
  0.36311814 -0.15383336]
[-0.71190745  0.49798355 -0.8273636  -0.21270996  0.76498646  0.8993998
 -0.32652098  0.33434963 -0.08915061  1.0466261   0.14136653 -0.608635
 -0.20142835 -0.9399505  -1.0131043   0.4251475   0.83450574  0.21523204
  0.97633946  0.14929879]
[ 0.8016487   0.8113241   1.0462508   0.80385137 -0.53933525 -0.5852412
  0.85908794  0.93130404  0.19441694  0.53754103 -1.0827302  -0.9418257
  1.2152244   0.07344449 -0.26168838  0.827087    2.2416518  -2.0523272
  0.78507185  0.09404442]
[-1.2512543  -1.1408178   1.1725482  -1.0008825   0.80863833 -0.07367792
 -0.18001385  0.59458256 -1.2905538  -0.12045587 -1.0014516  -0.61548877
  0.5294775   0.9434251   0.42472556  0.9589762   0.2566922  -0.53417826
  0.03329692 -1.0598884 ]
[-0.33907717  0.12225986 -0.13318852 -0.14489102  0.10781135  0.07716554
  0.2736215  -0.4129916  -0.01032635 -0.06102467  0.21540953 -0.19250315
 -0.02450583 -0.37026712 -0.31031552 -0.05118319 -0.20431344  0.03171147
 -0.21702075  0.8092556 ]
[ 0.07211387 -0.3101429   0.0169539  -0.25005102 -0.37123573 -0.20134088
  0.12969682 -0.50670457  0.46342215  0.17322037  0.0653752   0.74212897
  0.06789906  0.32870013 -0.6974972  -0.03614486 -0.19842173 -0.29796916
 -0.2681872   0.22720216]
[ 0.88779134  0.7333714   0.10549774  1.1145947  -1.4678757   0.1519295
  0.24321741 -0.10714114  0.3186619   0.8537561   1.0297391   0.65133715
 -0.4987194  -0.10035323 -0.39917076 -1.4698303   0.47900948  0.8004454
  0.24348748  0.21906784]
[ 0.3266178   0.34244138 -0.79681647  0.5870589  -0.27593067 -0.14239992
  0.18065202 -0.11368633  0.5440842  -0.25034368  0.30013683  0.45035335
  0.04974902 -0.4876986   0.07690463 -0.15735878 -0.07162429  0.38554618
  0.05066637  0.35798356]
[ 1.4518266  -0.04517464 -0.94039893 -1.1987443  -0.06715459 -0.13677813
 -0.46754992 -0.2842092  -0.2920531   0.5660351  -0.32486704 -0.1389886
  0.1935643   0.43356195 -0.3199819   0.4710076   0.04916377 -0.45110044
 -0.4492614  -0.7617141 ]
[ 0.5256671  -0.2847971   1.1239417   0.44646174 -0.22625148 -1.0661604
  0.10836249  0.30323583  0.4970102  -0.76207215  0.41797948 -0.47128808
  0.4313173   0.86326057  2.3624074  -0.8353224  -1.0020989  -0.02800647
 -0.9092156   0.26106858]
[-0.60923636 -0.12987553 -0.5223526  -1.7579513   1.7294624   0.19299375
 -1.5746342  -0.28586414 -0.31663713 -1.7315418   0.61998963 -0.7869557
 -0.354225    0.6719359   1.1235733  -0.504244   -1.5357577   2.3835824
  0.01487223 -0.8756895 ]
[-0.2775588   0.03722937  0.2490393   0.00599083 -0.16818064  0.08538972
  0.36743692 -0.23530534  0.01185489 -0.01189962  0.07857813  0.21215177
  0.10430632 -0.07925348 -0.05234457 -0.09743872 -0.11499561 -0.32869762
 -0.12398782  0.28487927]
layer 1 Activation
tanh
layer 2 Dense
20 40
[ 9.18500721e-01 -1.93925008e-01 -5.14151990e-01  3.97933275e-02
 -1.89083278e-01 -5.48436642e-01 -3.54369909e-01 -2.69662112e-01
 -7.72640407e-01  1.17089279e-01 -2.35348880e-01  5.22853136e-01
 -7.92923033e-01  8.60413969e-01 -6.54517591e-01 -4.85215545e-01
  1.24324799e-01  4.69222546e-01 -4.55466777e-01  1.76367685e-01
  1.07803375e-01 -1.88551247e-01 -2.04710737e-01  3.33610952e-01
 -2.09925860e-01 -7.96640456e-01  6.86275661e-01 -7.80666113e-01
 -3.10770005e-01 -1.14943370e-01  3.82677853e-01  7.31966645e-02
 -6.04231477e-01 -4.05152947e-01 -3.92739475e-01 -3.13620299e-01
  1.25883846e-02 -2.47510284e-01 -1.82153478e-01  4.54291236e-04]
[ 3.1220666e-01  2.3509316e-01  2.0149271e-01  2.2416645e-01
  3.5705504e-01  1.4533696e-01  1.0043186e-01 -5.0120030e-02
 -1.9061810e-01  6.3437633e-02  8.8994436e-02  1.3927557e-01
  5.4676607e-02 -1.1345957e-01 -1.8730798e-01 -1.5657219e-01
 -1.3495485e-01  2.5321457e-01 -2.0432918e-01 -5.2615893e-01
 -3.5335489e-02 -1.5180006e-02 -3.8159471e-02 -3.8290519e-02
 -2.4047664e-01 -2.9539916e-01  8.1366621e-02 -2.3038092e-01
 -4.0594518e-01  3.0046387e-04 -6.8672282e-01  3.5432562e-01
 -1.9049865e-01  5.1756918e-01  7.9099372e-02 -1.1508611e-01
 -4.1856643e-02  7.7545345e-02 -2.8608543e-01 -1.8733482e-01]
[-0.49939367 -0.39442176 -0.08983451 -0.2536469   0.14645877 -0.29984215
 -0.35601357 -0.2949067  -0.38176197  0.0518124  -0.2948732  -0.4992001
  0.05672156  0.65921843  0.15004647 -0.165274    0.23034889 -0.09628933
  0.10964198  0.16050315 -0.19025534  0.98086035 -0.51739615 -0.05804746
 -0.18940866 -0.3582571   0.16663828  0.6184937  -0.23091507 -0.26772863
  0.11517233  0.23300114 -0.09549335 -0.3875055   0.3036551   0.14780007
 -0.32536632  0.04942795 -0.02266268  0.03480123]
[-0.251202   -0.14054513  0.17888609 -0.7113786  -0.10908184  0.35011345
 -0.32320812  0.16133526  0.26174778  0.02094131  0.10379594  0.00577604
  0.15945949  0.20081276 -0.650173    0.28921455 -0.20880598  0.60238665
 -0.3909446   0.06876285  0.20899554 -0.06612524 -0.41970298  0.48344603
  0.22403386 -1.5907221  -0.05990797  0.44021672 -0.49858055  0.10550842
 -0.31721377  0.27739826  0.2476298   0.24625264 -0.09702244 -0.6414165
 -0.30598763  0.00964335  0.09139421  0.01442445]
[-1.05724171e-01  1.77864671e-01  9.61313695e-02 -2.64026076e-01
 -1.30687058e-01  3.77367687e-05  4.47423398e-01  2.30443373e-01
 -1.17798015e-01 -2.62432247e-01 -1.60004601e-01  2.33257338e-01
 -2.34491065e-01 -2.08897933e-01  6.98454738e-01  3.23499352e-01
 -4.73022431e-01 -3.23318511e-01  4.42668527e-01 -5.56393266e-01
 -1.36308372e-01 -1.72744796e-01  3.06578577e-01 -7.63491571e-01
  1.63852684e-02  4.03375000e-01  3.09312373e-01  1.09620802e-01
  2.00452298e-01  6.36904657e-01 -4.03189734e-02 -2.78051466e-01
  4.33483332e-01  2.87082583e-01  1.33661544e-02  7.88138658e-02
 -1.86640680e-01 -1.51585758e-01 -1.13807917e-02 -4.82322097e-01]
[-0.11820901  0.5872916   0.22820853  0.2694945   0.14226115  0.1805675
  0.2692866  -0.12324687  0.10845091  0.19664851 -0.01960472  0.26423106
  0.10550963 -0.30529636 -0.18557703  0.3615823  -0.34745908  0.18635102
  0.20392832 -0.5433067  -0.04195457 -0.47633725 -0.01146799  0.07688174
  0.19876316  0.04816286  0.18539801 -0.2008347  -0.02905378 -0.11413492
 -0.40886608  0.16503721  0.38326335  0.7075283  -0.06168259  0.02852228
  0.24661106 -0.11537301  0.01418629 -0.12848228]
[-3.82413343e-02 -1.67126015e-01 -5.58799654e-02  2.43914217e-01
 -1.16998926e-01  1.44489929e-01  1.58674911e-01 -1.07542528e-02
  1.40881211e-01  1.40441731e-01  2.53317744e-01 -2.30565891e-01
  4.07403499e-01  1.25579134e-01 -2.53905309e-04 -1.25665024e-01
  6.92934543e-02  2.10915893e-01 -3.24263662e-01  3.93774100e-02
 -1.16755843e-01  7.82113373e-02  1.51701257e-01  2.89074957e-01
 -6.10919087e-04 -4.02908713e-01  2.21083865e-01  2.47755811e-01
 -2.68977195e-01 -7.85930827e-03  8.84169526e-03  1.04643226e-01
 -4.35777754e-01  1.63501631e-02 -4.60717268e-03 -3.08164004e-02
  5.76231778e-02  1.05535924e-01  4.44255397e-02  1.31776974e-01]
[ 0.11437594 -0.5907722  -0.69269836 -0.26287913 -0.15274201  0.2171534
 -0.37140483  0.1470306   0.14041099  0.5524702  -0.22330892  0.26254347
  0.00949339  0.08249459  0.00295552  0.34797484 -0.07015338 -0.24244131
  0.00543023  0.04114336 -0.02793752  0.16665782 -0.38566267 -0.3138378
 -0.26886937 -0.37014857  0.14264391  0.00486011 -0.15242738 -0.24435602
  0.32656413 -0.23654579  0.10910685  0.27570605  0.11607489 -0.35009176
 -0.6023592  -0.34993857 -0.07871909 -0.2442761 ]
[-5.6784767e-01  6.4484900e-01 -3.4933144e-01 -6.1867142e-01
 -5.9947383e-01 -1.9232390e-02 -3.0569357e-01 -1.9273803e-01
 -5.8612093e-02  2.6189885e-01 -7.3136084e-02 -1.7870025e-04
 -3.4446678e-01 -2.0671561e-01 -6.5931581e-02  4.8437542e-01
 -6.6919470e-01 -2.3212926e-01 -2.6521843e-02  2.0379192e-01
  3.4208584e-01 -5.4729867e-01  3.4935710e-01  2.5860646e-01
  1.4904369e-01 -7.4145478e-01 -1.6709805e-01  4.1202357e-01
 -1.5522437e-01  2.1591122e-01 -3.2019326e-01  6.0985081e-02
 -1.1474916e-01 -9.5488243e-02  3.1428641e-01 -3.2734271e-02
 -2.6377937e-01 -3.1369531e-01  4.6378112e-01 -1.7236198e-01]
[ 0.54894197  0.17079794  0.02983321 -0.32761627 -0.04062041  0.13550052
 -0.1751561  -0.27026027  0.25184464  0.17997704 -0.25358498  0.14671056
  0.5256649   0.26559103 -1.1672311   0.06172327  0.32375804  0.24585047
 -0.27415064 -0.30722144 -0.49215165 -0.4998055   0.15953556  0.03101443
  0.17180502 -0.39793164 -0.5156256  -0.46262312 -0.2758944  -0.43946505
 -0.0367805   0.08202734  0.19913112  0.53374964 -0.14246948 -0.7382459
  0.17337836  0.12428025 -0.24350317  0.36651415]
[ 0.33775058  0.24737844 -0.07752509  0.06983624 -0.13719706 -0.15526894
  0.11024821 -0.35796168 -0.65929526  0.09376387  0.32734078  0.10293842
 -0.1985969  -0.05685963  0.1761209  -0.25640434 -0.38646704  0.05465437
  0.06576972 -0.53417265  0.09849203 -0.22572704 -0.03840844 -0.08190014
 -0.03799576 -0.17877173  0.09713187 -0.21133514 -0.04964337  0.18304694
 -0.47330415  0.36571017 -0.02938747 -0.05439118 -0.17720526 -0.11279256
 -0.13896573 -0.59008497  0.1559108  -0.25416243]
[-0.1768908   0.1304729   0.69481504 -0.11819719  0.19115813 -0.1670687
  0.06439066 -0.3511196  -0.36895952 -0.35675007 -0.1258475   0.0765934
 -0.59979135 -0.11230029 -0.05590029 -0.3162351  -0.48310542  0.4633119
 -0.684755   -0.24319108 -0.13072298  0.00523065  0.07258757  1.1183408
 -0.15480347 -0.6418439   0.05408916  0.0296512  -0.11537844 -0.01408756
 -0.04486475  0.2948126  -0.07963152  0.2736859   0.3103039  -0.46562645
  0.95178366  0.33822492 -0.19512965 -0.20331034]
[ 0.09695739 -0.00392665  0.34021616 -0.09066105  0.3919317   0.12302261
  0.2005513   0.17137042  0.15387201 -0.38244855 -0.00512615  0.11174844
  0.23494121  0.27550414 -0.06777806 -0.27294406  0.17752537 -0.03360506
 -0.23540409  0.4016165  -0.31190562  0.12021747 -0.18065713  0.04615448
  0.0072474  -0.24995276  0.03305908  0.05624423  0.12577386  0.2000328
  0.17740136  0.34752494  0.04147629 -0.49549627  0.36872345  0.34524462
 -0.08937184  0.41192156 -0.27072218 -0.04829312]
[ 0.0534828  -0.21946919  0.08600422 -0.07015269 -0.17063843 -0.29703936
 -0.1451958  -0.26883987 -0.4660397   0.55305386 -0.088146   -0.3701467
 -0.7477153   0.65672415 -0.02909934  0.06154609  0.3257033  -0.11753435
  0.3256449   0.8733248   0.04446977  0.8116884  -0.23995249 -0.4281709
 -0.28109488  0.06570959  0.22939019  0.40578148  0.01356346  0.09727561
  0.4228572   0.04001565  0.08952726 -0.59792924 -0.23999448  0.39238092
 -0.3457854  -0.174583    0.07473107  0.20760402]
[-0.290844   -0.4141517   0.14815688  0.10579204  0.25237647 -0.10798264
 -0.5884185  -0.34970453 -0.49615645 -0.15705022 -1.1171774  -0.44190612
 -0.6853895   0.2177236   0.28746766 -0.86869204 -0.09864498  0.09189851
  0.28860855 -0.28882134  0.60207045  1.1155678  -1.0032791  -0.7092638
 -0.80156887 -0.14082348  1.3429445   0.41486228  0.07701886  0.45795363
  0.2039751   0.3838443  -0.5898318  -0.14426892  0.15049277  0.16349211
 -0.17074226 -0.05570847 -0.04156417 -0.23375662]
[ 0.12359453 -0.09301768  0.04612964  0.00991451  0.13454716 -0.03091699
 -0.04723464  0.12409224  0.43921673 -0.20557909  0.0496428   0.11213134
  0.24115418 -0.3157184  -0.19040293  0.09039842  0.2910717   0.34949392
 -0.04332223  0.06218394 -0.1745471   0.02421026  0.08646744 -0.18219168
  0.41799465  0.09004445 -0.23209229 -0.00411656  0.15724973  0.12185413
  0.12285384  0.10005376 -0.10041118 -0.0572181  -0.05911425  0.10619378
  0.2750728   0.31742558 -0.2224675   0.00244795]
[-0.13667649  0.16575727  0.23768166 -0.44473007  0.02740051  0.12634774
 -0.11507189  0.0683352   0.6364553  -0.0932803   0.1865181   0.25526145
  0.54293334 -0.28123757 -0.62020916  0.63222957  0.38419425  0.24274285
 -0.09824536 -0.3220901  -0.4626086   0.00975223  0.07000336 -0.27469018
  0.48061433 -0.5746598  -0.14710389  0.20405163 -0.5121927  -0.34661946
 -0.1662941   0.05809915  0.19181062 -0.04780963 -0.36041218 -0.41642267
 -0.4717543  -0.25801763 -0.0291775   0.45577303]
[ 0.12303156  0.4785147  -0.39178887 -0.10559653 -0.29433566  0.29770312
  0.30154964 -0.02058185 -0.61763316  0.14694186 -0.10553229  0.37445736
 -0.8771407  -0.05190615  0.37294292 -0.19516307 -1.0027009  -0.06792529
  0.12322383 -0.25518423  0.28526947 -0.03730673  0.26091838  0.15536816
 -0.11600392  0.14021553  0.08493982 -0.5090294   0.28959945  0.45653862
 -0.5575218   0.07460994  0.03848697  0.47001195  0.0791291  -0.08268342
 -0.3356528  -0.2717825   0.09557506 -0.58537966]
[ 0.00590465  0.46975127 -0.25270018 -0.06378067 -0.2915021  -0.12391985
  0.2574468   0.13036577  0.37227383 -0.09943606  0.01120618  0.01905966
 -0.20575455 -0.22463314  0.2661758   0.54564404 -0.17114727  0.22789268
 -0.08665475 -0.19726059 -0.08819973  0.09379379  0.24487405 -0.3756301
  0.40614894 -0.34946606 -0.17008308 -0.2600485  -0.25935805 -0.21096537
  0.3627403  -0.08213647  0.49422002  0.38973048 -0.1256702  -0.2991874
 -0.32008725 -0.16143861 -0.03853929 -0.02366536]
[-0.10940476 -0.00112129  0.17553286 -0.00881453  0.48070183  0.13315122
  0.00883824 -0.04089241 -0.5991159  -0.0635102  -0.1052343  -0.04264024
 -0.12630565 -0.46867988  0.08554708 -0.49499577 -0.03187573  0.47495127
 -0.33072722 -0.3007968  -0.06940984  0.04372598 -0.07974248  0.66454
 -0.19716676 -0.39765906  0.32161236  0.1481528  -0.3656194   0.27541065
 -0.67424774  0.04345195 -0.07528119  0.42767262  0.30251166 -0.27956066
  0.50991964  0.16249394 -0.15032944  0.09142423]
[-0.29748762 -0.06198483  0.5360575   0.09342013  0.57329506  0.07802842
  0.0940445   0.0804582   0.01102302 -0.30831257 -0.05406868 -0.07682627
  0.31636596 -0.38822508 -0.07780709 -0.02570868  0.27336836  0.12228136
 -0.15894838 -0.10256615 -0.14553857 -0.01555863 -0.17670082  0.25419343
  0.1840464   0.14984186 -0.06432469  0.30242106 -0.10733515  0.0162309
 -0.12095851  0.08956137 -0.08936812  0.01094662  0.17436142 -0.13492815
  0.21198146  0.17558552 -0.04503558  0.07005186]
layer 3 Activation
tanh
layer 4 Dense
40 20
[-0.4826069  -0.38160267  0.31031892  0.06226581 -0.02784858  0.00756103
 -0.05394546 -0.18215011  0.09310105 -0.08973414 -0.15723653  0.14252739
  0.21762002 -0.47903663  0.00405508 -0.4522861  -0.10412068 -0.18142667
  0.23472069  0.15101732]
[-0.01233888 -0.31974804  0.02076077 -0.5874609  -0.01752627 -0.7041012
  0.05230898  0.14524463 -0.2731174  -0.281698   -0.07603221 -0.2645657
  0.43641487  0.0235427   0.13127998  0.07921048 -0.29420024  0.2753713
  0.18432114  0.17717996]
[ 0.14280204 -0.12446906 -0.5008743   0.05879736  0.11318041 -0.04608203
  0.2606782   0.3454118   0.29128525  0.12712233 -0.38481838  0.15761489
  0.01354033 -0.15949742 -0.47534075  0.46538484 -0.13886604  0.10498364
 -0.20079455  0.13107397]
[ 0.34384355  0.50136566 -0.20513277  0.22386247  0.0519903   0.01464005
 -0.09175812 -0.22726855  0.0544326   0.007063   -0.34799054 -0.35214972
 -0.13673474 -0.22761945 -0.17148024 -0.08914767 -0.04339361 -0.26419568
 -0.19002771 -0.00779641]
[ 0.30692932 -0.01681464 -0.4889693  -0.19976304  0.22846365  0.33483705
 -0.12246058  0.07014971 -0.08203641 -0.2210666   0.01513751 -0.17245775
  0.03121571 -0.02589067 -0.36382753  0.19646075 -0.11903001 -0.28410333
  0.17786478 -0.07133339]
[ 0.05094901  0.20263216  0.14652824 -0.05677472 -0.07173064 -0.45635465
  0.10580017  0.30543137  0.03330487  0.05106879 -0.06378489 -0.05167612
  0.43066528  0.33375618 -0.17048226  0.14560497 -0.20666699 -0.11133149
  0.01357255 -0.14882794]
[ 0.21999925 -0.15330166 -0.3591083  -0.03149257 -0.08519883 -0.05595317
  0.08239515  0.04900482 -0.09301199 -0.04111509 -0.26088902 -0.46163353
  0.20501699  0.11691251  0.06602685 -0.12319138  0.06486285 -0.1033852
 -0.10711009 -0.00704972]
[-0.03546013  0.13721241 -0.18096483  0.15738483 -0.24869451 -0.02078765
  0.23508294  0.03988655 -0.07913645 -0.4101342   0.16570188 -0.23607868
  0.22059976  0.17669159  0.0181362   0.01824673 -0.24278979 -0.19547264
 -0.27590916 -0.42278707]
[-0.27496973 -0.02894574 -0.09291776 -0.05714246 -0.18972671  0.1163511
  0.4196944   0.13453104  0.05156703 -0.11919414  0.332317   -0.26003006
 -0.12769577 -0.02995049  0.31702608  0.24459812 -0.268081   -0.5766182
 -0.25886303  0.06165188]
[ 0.15887417  0.08894353  0.49154848 -0.01000362 -0.11087178 -0.02950209
 -0.19740166 -0.25139514 -0.021118    0.02055025  0.07657508  0.29440743
  0.08818293 -0.18747297  0.29114932  0.16362871  0.33277556 -0.01884104
  0.01440357 -0.2189869 ]
[-0.32365593 -0.5147417   0.08330558 -0.28128132 -0.02656411  0.29234248
  0.28585023  0.3205321  -0.09686843 -0.3827041  -0.21646069 -0.28196737
  0.15826342 -0.04408129  0.19864343 -0.14081216 -0.15143973 -0.12451659
 -0.51507735  0.1318076 ]
[-0.16841392 -0.55094254  0.22765969  0.09948295 -0.02903453 -0.0883573
  0.15523082 -0.05318837 -0.09290537 -0.18103962 -0.14507945 -0.20312281
  0.13659577  0.09988294 -0.24610482 -0.33336976 -0.09439719  0.19280297
  0.0201059  -0.13004869]
[-3.8674480e-01  1.7902468e-01 -1.5405603e-02 -6.8536609e-02
 -2.0892940e-01  2.9506728e-01  5.0692272e-01  2.0835237e-01
 -1.5687829e-01 -2.4611992e-01  1.8692149e-01 -4.6409324e-01
 -5.3424889e-01 -1.7608835e-01 -2.6581861e-04  4.7719958e-01
 -2.6377240e-01 -6.4943528e-01 -7.1141273e-01 -5.4935675e-02]
[-0.0447188  -0.11491784  0.16689295  0.173854    0.27782038  0.33644387
  0.09456071  0.00114603 -0.07698371 -0.12920956  0.03266326  0.29927918
 -0.22720486 -0.02103016  0.11419862 -0.12986507 -0.24706106 -0.06051886
  0.32707232  0.0586913 ]
[ 0.30535397  0.30060723 -0.23147988  0.36509138  0.10383181 -0.5679533
  0.10470046 -0.40112874  0.33069855  0.23942411  0.2850455  -0.2992258
  0.11818441 -0.09162551  0.04100417 -0.01294152  0.17661327  0.20325315
  0.0220419  -0.34171942]
[-0.1576539  -0.38246644 -0.15131468 -0.4395027  -0.35613716 -0.02075032
  0.27881852  0.1414512  -0.04018376 -0.2034496   0.04787392 -0.1231388
  0.3186515   0.03524015  0.32383943  0.28885362  0.14284131 -0.09451365
 -0.20181113  0.13883263]
[-0.25782022  0.01242134 -0.26464546  0.32289046  0.09968632  1.0129234
  0.11566056 -0.01604768 -0.05003404 -0.05735556  0.27028677 -0.08259364
 -0.36638772 -0.36192298  0.13905698  0.36233625 -0.20667769 -0.8530181
 -0.35259673 -0.23894252]
[-0.26034597 -0.23192157 -0.07866241 -0.21729724 -0.13044493 -0.09996761
 -0.17360164  0.14538741 -0.05380821 -0.22317475 -0.40752628  0.13970207
 -0.2210576  -0.17490342 -0.28669208  0.11663876  0.17339948  0.03928303
 -0.22659865  0.13959096]
[ 0.49758258  0.03232279  0.13166758 -0.05543913 -0.09099817 -0.37706405
 -0.07127666 -0.08110821  0.31078818  0.08619913  0.30775976 -0.47405818
  0.15450744  0.14271702  0.30899036 -0.22014579  0.031756   -0.22202557
  0.1844532  -0.44064125]
[-0.08324993  0.12094592 -0.17211522  0.46592504  0.05751946 -0.07804217
 -0.23852398  0.00957656  0.14402187  0.2867919  -0.14326532  0.08512775
 -0.31040007 -0.16233167  0.47420654  0.30598632 -0.02330621  0.05640946
  0.16352916  0.05207174]
[ 0.21994957  0.10992128  0.13870473  0.10999046 -0.13043128 -0.32890892
 -0.18945976 -0.07858395 -0.29310727  0.13866448  0.18542811  0.22868466
  0.22730216  0.3676546  -0.00540965 -0.23168595  0.38945377  0.4662922
  0.3249894   0.14079547]
[ 0.2979654   0.3819203   0.06307491  0.18471013  0.5184755   0.14152104
 -0.2985462  -0.07828683 -0.10054357  0.12199703 -0.0445717   0.10446172
 -0.3176177  -0.01958022  0.09722283  0.27730513 -0.034204   -0.04277144
  0.3452552   0.07069337]
[ 0.03617381 -0.57506895  0.03813273 -0.38308093 -0.21504992 -0.02267283
  0.32947993  0.01504404  0.16703084 -0.14853515 -0.19271182 -0.09337904
  0.1553854   0.00467157  0.32260084 -0.18901718  0.07754304  0.11347161
  0.04208825  0.18054351]
[-0.546768    0.06932539 -0.43944308 -0.40787634 -0.47107792  0.29123375
 -0.5394367   0.25804752  0.33440652 -0.18202516 -0.77308977  0.16653001
  0.04349588 -0.21118361 -0.5951066  -0.20748828 -0.36265928  0.18867315
 -0.2057861   0.65550363]
[ 0.0042802  -0.11551078 -0.07944071 -0.37617657 -0.32899654 -0.0080293
  0.22040589  0.28560305  0.10272904 -0.17018025  0.05568091 -0.1209264
 -0.23148821 -0.01386707  0.01365354  0.0650939  -0.11808471 -0.3661282
 -0.09808591  0.00295294]
[ 0.8714647   0.5540444   0.1909423   0.2270041   0.01724502 -0.35221097
  0.3182812  -0.21516164  0.00408392  0.23793155  0.4955566  -0.52411586
 -0.3592015  -0.26849157  0.0471263  -0.16850011  0.2173752  -0.6423592
  0.28190023 -0.28656512]
[ 0.27388614  0.10662851  0.1131604   0.11533778  0.16506083 -0.5832245
 -0.32264364  0.10083289  0.17358199  0.24208626  0.1739385   0.24165219
 -0.15073252 -0.06281096 -0.10456811 -0.10897188 -0.05752226  0.34917647
  0.19730797  0.12904945]
[ 0.7403193   0.20260154 -0.11105619 -0.38990715  0.5243945   0.06860534
  0.32993498 -0.17736903 -0.19467144 -0.04097425  0.32795432 -0.06357308
 -0.19408582 -0.03111572  0.05675514  0.59298104  0.24125025  0.01487274
  0.08074065  0.00376813]
[ 0.39195773 -0.00279128 -0.42304716  0.39216965 -0.03025653 -0.22884023
  0.05521305 -0.339639    0.17553434  0.32078895  0.13369346 -0.28763905
 -0.02618181 -0.1887213   0.30251116 -0.44363502  0.0572669   0.53334343
  0.26863104 -0.10605013]
[ 7.2287008e-02  3.1186411e-01 -6.5763362e-02  2.4329337e-01
  8.3122356e-04 -8.6435837e-01 -2.1458594e-02 -6.0711829e-03
  5.6993291e-03  2.7578399e-01  1.3577905e-01 -1.4215983e-01
  2.3178960e-01  2.5484439e-02  3.7378926e-02  1.3276425e-01
  1.8765036e-02  5.2240765e-01  1.5957190e-01 -2.1165608e-01]
[-0.001587   -0.06615613 -0.29402912  0.1994188   0.02041214  0.48009324
  0.17266239 -0.15490477 -0.0012314  -0.06930123  0.4393023   0.34353334
 -0.1607229  -0.27154315  0.3928064   0.03994609 -0.07080252 -0.2743935
 -0.20664676  0.11911001]
[-0.07537872  0.01066017 -0.11131465  0.09711546  0.28884605 -0.5126091
 -0.2971514  -0.00864835 -0.05012389  0.1536797  -0.27630767  0.12477306
  0.08177121 -0.20051534 -0.3204272   0.28452083 -0.1816873  -0.22217558
  0.17757067  0.28002432]
[ 0.00366139 -0.6417186  -0.2738771  -0.06729212 -0.23159736  0.02021378
  0.24637218  0.13833094 -0.01131884  0.06838609 -0.00644161 -0.2497035
  0.15014595  0.42682755  0.20490135  0.28940797 -0.11068932 -0.03936633
 -0.25058156 -0.03824468]
[ 0.17662412 -0.15689422  0.20282438 -0.29107997 -0.25996736 -0.38576865
  0.1645346   0.07491177  0.09502014  0.06709305 -0.15681182 -0.24357353
  0.08195954  0.44187582 -0.3328581  -0.10676006 -0.19903691  0.15597656
 -0.16573754 -0.1893171 ]
[ 0.13952897  0.24663809 -0.36608112  0.05804995  0.07068139  0.00451823
  0.13870701  0.0290619   0.11681657  0.12826863 -0.19814585  0.11880833
 -0.01260502 -0.01021583 -0.08306969  0.21797958  0.1298512   0.12766662
  0.06204804  0.16186836]
[ 0.37662923  0.7662462  -0.15749596  0.6976106   0.24064665 -0.23417771
 -0.16144636 -0.18669826 -0.24114956  0.17870021  0.2514142  -0.20313732
 -0.32314238  0.0773673   0.42606166 -0.26609415 -0.06758042  0.41538888
 -0.10412303  0.16602726]
[ 0.19068599  0.20982441 -0.53794074 -0.08177306  0.30866784  0.09832638
 -0.14954565  0.31250632 -0.16233678 -0.1520526  -0.39347306 -0.165486
  0.14174601 -0.13388167 -0.3146234  -0.19276634 -0.14646539 -0.05136744
 -0.3411474   0.49561283]
[ 0.24819279 -0.04176483 -0.42325532 -0.08723527 -0.19835433  0.4666097
  0.0824037   0.3150558  -0.13547114 -0.34289652  0.13583846  0.13033931
 -0.2766004  -0.25682497 -0.13681675  0.08615205 -0.2404064  -0.03899213
 -0.4399004   0.11763572]
[-0.09083815  0.01161086  0.01420303 -0.03642013 -0.15358497 -0.24746627
 -0.07386579 -0.18765949 -0.21434766 -0.06986324  0.00279056 -0.05227782
  0.05567393  0.13740143  0.2616001   0.12472516  0.16806294  0.01790505
 -0.08846518  0.04169498]
[-0.1407292   0.00247874  0.09551329  0.05013575  0.03101387  0.63002145
 -0.01449587  0.36630246  0.10437383 -0.15562421 -0.16716062  0.03878075
 -0.23306367 -0.28467494  0.15506169  0.12893261  0.13144758 -0.45784795
 -0.0992948   0.158763  ]
[ 0.25951874  0.04948681 -0.07965805 -0.001888    0.11107899  0.00378076
  0.16846     0.15781191  0.05696807 -0.08836453 -0.00211906 -0.24155138
 -0.07239704 -0.1434617  -0.11408702  0.2001009   0.02553409 -0.21782199
 -0.00408092  0.11821949]
layer 5 Activation
tanh
layer 6 Dense
20 1
[0.09876536]
[0.03582885]
[0.165731]
[0.01856431]
[0.07349138]
[-0.01000036]
[0.06600385]
[0.00337862]
[0.01819989]
[0.01873572]
[0.056881]
[-0.10226471]
[-0.0424496]
[-0.00178156]
[0.11538336]
[0.07310474]
[-0.00041701]
[-0.06170442]
[-0.02534911]
[-0.01464923]
[0.25702578]
