layers 7
layer 0 Dense
24 20
[-1.4557031   1.8272336  -2.1449237   1.0443358  -0.7265037  -0.85125405
 -0.9744385  -1.0044793   1.371463   -3.1407878   0.96307456  1.636219
 -2.447802   -1.2725316  -1.3646346  -1.8485255   0.99555266  1.3476334
  2.8515944   2.8457663 ]
[-0.24605457  0.30657485 -0.7129104   0.31434837 -0.42193717 -0.81755894
 -0.09105963 -0.16379826  0.02393403 -1.1521229   0.5627369   0.3004042
 -0.6863007  -0.2424536  -0.682902   -0.09883175  0.10713958  0.43968037
  0.46768963  1.3508352 ]
[-0.50350606  0.35477918 -0.41764396 -0.09413712 -0.29381236 -0.23907349
  0.11557703 -0.02329937  0.3225733  -1.0661249   0.9272562   0.39061874
 -0.6037273   0.03379281 -0.4927574  -0.38831782  0.6134202   0.39730218
 -0.18917911  1.1934841 ]
[-1.0376487   1.3949624  -1.4488884   0.9441964  -0.8064363  -0.71529746
 -1.2995404  -1.5087454   1.4668204  -1.9238353   1.4554679   0.9941246
 -1.3489649  -1.1541262  -1.1757612  -0.99548507  1.3880496   1.4611741
  1.4516898   2.3788605 ]
[ 0.22890064 -0.05031389 -1.079709    1.5117805   0.5567138  -0.75276643
  0.08353149  0.23199993 -0.18117866 -1.162242    0.06234235  1.5528736
 -1.2021825   0.08873682 -0.53872645 -1.2774553   0.02513328  0.15533902
  1.6748842  -0.22409713]
[-0.19131154  0.6471528  -0.21372865  0.2616254  -0.35293123 -0.35785133
  0.03649411 -0.27765626  0.23380736 -0.53080827  0.1098857   0.25829154
 -0.10564702  0.2161542  -0.14189638 -0.08691885  0.07562118  0.30274227
 -0.03675364  1.0604922 ]
[ 0.09039198  0.5213867  -0.2790344   0.04384286 -0.16783844 -0.3851053
  0.12830834  0.25970897  0.00694159 -0.39361212  0.62452877  0.25973767
 -0.2519705   0.13985145 -0.09324509  0.13357429  0.2027913   0.26575142
 -0.21519732  1.3777956 ]
[ 1.5707532 -1.8935941  1.516881  -1.1712859  1.0499164  1.3487135
  1.5844969  1.4372678 -1.6939492  2.2454946 -1.2508605 -1.3372142
  1.6508005  1.4275026  1.5983301  1.5171441 -1.4712367 -1.4488206
 -1.4644881 -2.0998209]
[ 0.7252707  -0.8548324   0.49545842 -0.2056139   0.9530925   0.43375677
  0.54646295  0.8021407  -0.5531452   0.3227916  -0.77172315 -0.09401708
  0.27729234  0.94519466  0.47566518  0.11646407 -0.21250655 -0.7498
  0.55141544 -1.1258595 ]
[-0.03469636  0.00700786  0.83272237 -0.53552526 -0.78821105 -0.07011934
 -0.21701477 -0.52946955 -0.18642184  0.4629803   0.19918397 -0.8962438
  0.74106544 -0.02318679  0.26308584  1.3753682  -0.21282618  0.01815938
 -1.2554919   0.64819854]
[ 0.22730882 -0.87569696  0.28972566  0.93479574  1.0673175  -0.14630875
  0.2242681   0.37771815  0.16539668 -0.84870416 -0.23362468  0.40333903
 -0.8928048   0.32491222 -0.46229565  0.03328908  0.10113303 -0.06828737
  0.51861846  0.00741587]
[ 0.715624   -1.0836346   0.43184215  0.28832296  1.0755564   0.41663185
  0.6038071   0.31192464 -0.8471205   0.47791624 -0.57237357 -0.5733596
 -0.13696697  0.41885853  0.8298639   0.34919858 -0.61049527 -0.6361132
  0.25126213 -0.6665001 ]
[ 0.63044083 -0.7612054   0.50514805 -0.67894316  0.2351096   1.2449641
  0.49204296  0.45837742 -0.821826    1.1047802  -0.5104208  -0.5043939
  0.7458775  -0.05516312  1.0936383   0.33071253 -1.0164782  -0.63162017
 -0.503518   -1.5438136 ]
[  0.44126445   1.7291855   -7.065098   -14.414588    -0.25363582
  -9.501177     0.11849231  -0.14734235  -0.14155625   1.3569646
   0.0702784   -2.2319233    6.145547    -0.1503267    1.0575315
  -8.611832    -0.55147904  -0.2132145    9.744846    -6.2437887 ]
[ 0.06265255  0.62713265 -0.07312238 -0.48515144 -0.59132695  0.40424752
 -0.09423182 -0.24176086  0.30209413  0.29894346 -0.32908607 -1.0471215
  0.82521474 -0.19133422 -0.14395025  0.68476367  0.01327913 -0.0653118
 -0.6704137   0.1121415 ]
[ 1.2986008  -0.706537    1.0546571  -2.6926877   0.07995584  2.947641
  0.89131564 -0.11360312 -1.5014342   3.271629   -1.2946733  -0.90619516
  1.3683577   0.5091521   1.0735147   1.6936662  -0.8984607  -1.6847737
  0.58159167 -1.7923675 ]
[ 0.2801064  -0.22355668 -0.31409636  0.94383323  1.5986584  -0.49849805
  0.527589    0.87388134  0.12774871 -0.8283688   0.00314398  0.2834022
 -0.93886554  0.70912445  0.27469417 -1.0730783  -0.09222186 -0.00770304
  0.88470376 -0.05837493]
[ 0.3365178  -0.05423412  1.0571749   2.110504    0.8645135  12.290688
  0.1475036  -0.13556902 -0.3520179   1.4459784   0.14526203 17.090803
 -0.8336641   1.2983723   0.54659563  2.1883175  -0.23397738 -0.33608893
 -3.053425   -8.296122  ]
[ 0.50124156 -0.55830115 -0.7746753   0.41575518  0.6374685  -0.41199502
  0.43778303 -0.2537535  -0.03868909 -0.80277365 -0.61561066  2.2826436
 -0.6915552   0.45787576 -0.50652    -1.0161966  -0.23446885 -0.21043369
  0.72459376  0.13498278]
[ 1.267748   -1.3765693   0.49006623 -0.43498915  0.9745455   0.1788414
  1.4816968   1.0289327  -1.1467298   0.6886237  -1.44012    -0.73999625
  0.06841721  1.7021646   0.89163905 -0.09748409 -1.1737857  -1.0492865
  0.15024765 -1.1814979 ]
[ 0.70423096 -1.0011609   0.50763345  0.02299744  0.23142812  0.28142184
  0.42295003  0.42965648 -0.45054525  0.31825736 -0.618566    0.3530373
 -0.23646921  0.7092637   0.4846357   0.24752192 -0.2984887  -0.30058423
  0.6038256  -1.1535112 ]
[ 0.08578156  0.23495504 -0.92650485  1.525948    0.40332463 -0.32502902
 -0.14569403  0.03530001  0.09010161 -1.0517737   0.367839    0.26807022
 -1.2579829   0.3571882  -0.31838253 -1.2177956   0.28310296  0.34729168
  0.56142396 -0.18477681]
[ 2.27084786e-01  1.06845319e-03 -2.13587120e-01  3.28154534e-01
  3.78132999e-01 -9.62045491e-01  1.11587256e-01  2.39947498e-01
  1.05257221e-02 -4.42872167e-01 -2.47729957e-01  7.77029634e-01
 -5.83684325e-01  2.60527998e-01 -3.25758904e-01 -1.11092949e+00
 -3.53540890e-02 -6.71329275e-02  1.14183033e+00 -3.09469134e-01]
[ 1.4811023  -1.1951128   2.0390651  -1.4542693   0.10316293  0.76114357
  1.301173    1.2034601  -1.4014373   2.325487   -1.3281629  -1.8329837
  1.8628662   1.100946    1.3822112   1.3921301  -1.4723506  -1.6392541
 -0.61748534 -2.1676419 ]
[-1.2232597   1.2887355  -0.62774897  0.3956507  -0.92376107 -0.580047
 -1.3593012  -1.095908    1.2785249  -0.8244642   1.2561169   0.5409847
 -0.5514193  -1.27702    -0.98843986 -0.3244748   1.1614802   1.2088022
  0.28361225  1.5160019 ]
layer 1 Activation
tanh
layer 2 Dense
20 40
[ 0.51576686 -0.02760145 -0.20533781 -0.47456217 -0.402306    0.6322658
  0.57082224 -0.17437452  0.37289637  0.6291134  -1.1015646   0.47583756
  0.12155905  0.8994307  -0.6506946  -0.6353634  -0.664209    0.8383313
 -0.50927687 -0.19396417  0.46944046  0.6127106   0.7277925  -0.45873025
 -0.63929075  0.566405   -0.5691418  -0.6554978   0.31459633 -0.7576997
  0.19292352  0.61686176  0.28536108  0.7087563   0.7220472   0.65914863
 -0.51144207  0.79008555 -0.21904074  0.7153824 ]
[-0.9069367  -0.5722966   0.03881729  0.99020374  0.96343374 -0.43688592
 -0.7571983   0.8968009  -0.18960407 -0.39396814  0.7636045  -1.2014006
 -0.54265165 -0.69120914  0.9270105   0.44015875  0.6810904  -0.40349662
 -0.06590602  1.415354   -0.30943874 -0.59153587 -0.74717283  0.4634857
  0.89986444 -1.2745042   0.67644674  0.7923048   0.8690019   0.69594765
 -0.53931034 -1.1441576  -1.0377485  -0.36455867 -0.59981674 -0.33743948
  0.56620663 -0.9466586   1.0846705  -0.65186644]
[-0.1459401   0.29828337  1.201275    0.44838527  0.46007034  0.8718171
  0.43618047  1.2892921   1.5917964   0.49717742  0.49449864  1.3961481
  0.35896328  0.6086587  -0.6537465   0.15392195  0.30557847  0.92579997
 -0.3078757  -0.4604559   0.04416994  0.12388573 -0.2535461  -0.37182662
 -0.4570028   0.00543407 -0.1832125   0.11139461 -0.9603318  -0.2720454
 -0.9720387   0.2108983   1.0371315   0.5294786  -0.39492336  1.8828194
 -0.50076216  0.84362227 -0.08016884  0.07182615]
[-1.5819112  -2.1685436  -0.28975594  1.1817209   1.0671377  -1.7442638
 -1.9998841   1.6122462   2.361285    0.21648557  1.5213952  -0.527808
 -0.19752018 -0.55270946  1.8547955   2.1742678   0.63874376 -1.6828347
  2.4050038  -1.9187489  -0.87045306 -1.3348806  -1.091492    0.8502662
  2.24936    -0.94747394  1.9811467   1.7856395   1.6764911   1.5270379
 -2.36425    -1.5925887  -0.12204758  2.1642883  -1.3803375   2.2057326
  2.266975   -1.9870527   1.4014066  -1.1808754 ]
[ 1.0837569   0.73335254  0.1580758  -0.8739868  -0.86970395  0.775063
  0.8138722  -0.44332284  0.22154856  0.04165681 -0.8362942   0.11273998
  0.204864    0.72891563 -0.78285605 -0.62241036 -0.57961684  0.59909874
 -0.7658189  -0.20837234  0.49887097  0.719088    1.0480008  -0.41172272
 -0.4458932   0.7003387  -0.6331678  -0.94233173  0.21319921 -0.6803716
  0.60889703  0.47952902  0.32900915  0.5787838   0.9727118   0.16358128
 -1.0146115   0.63825345 -0.72593164  0.82714975]
[ 1.2521999   0.95051306  2.4751644  -1.333913   -0.2857114   2.4077787
  1.5893443   0.25009394 -0.8898602  -0.72144    -1.6104031   2.3171165
  0.20624453  1.1573364  -2.1238878  -1.1541984  -1.5787252   1.6137191
 -0.9935592   0.30185482  0.05722769  1.2511425   1.3599763  -0.38344145
 -1.5605451   1.2563336  -0.7444763  -1.5413179  -2.5383215  -2.0104375
  0.09600358  1.8777337   2.4609315  -1.4899933   0.9940337   0.81823033
 -1.8383665   1.1155818  -1.5472199   0.16264273]
[ 0.82383925  0.97682136 -0.04248469 -0.8232764  -0.43281662  0.74150544
  0.6319637  -0.59255785  0.38892865  0.06013027 -1.0120587   0.3637355
  0.13269117  0.8516262  -0.8149299  -0.7430515  -0.6450815   0.7101253
 -0.17624882 -0.77780867  0.56835     0.78868926  0.80466056 -0.7430594
 -1.0639199   0.6347305  -0.9738708  -0.60866237  0.44664186 -0.8883884
  0.5601652   0.79656595  0.48766094  0.74989516  0.90378034  0.5120663
 -0.87411726  0.7659376  -0.7957443   0.8112049 ]
[ 0.64613247  0.90782326 -0.04169567 -0.8496804  -1.1270612   0.7523411
  0.7816799  -0.35465902  0.42616114  1.5086051  -0.7644627   0.25566414
  0.59935635  0.69640136 -0.7354605  -0.7638457  -0.6156154   0.23641711
 -0.6478723  -0.39909947  0.8197626   0.31165716  0.72419226 -1.1749187
 -0.47459206  0.88222957 -0.5295847  -0.47436753  0.38681012 -0.61964726
  0.7234988   0.5651199   0.44284603  0.49949425  0.7911076   0.3336004
 -0.5273605   0.8385143  -0.5804931   0.42362297]
[-0.92062753 -0.9127658  -0.43848875  0.7559444   0.7199601  -0.7273991
 -1.0368397   0.5853227  -0.07128853  0.06120247  0.5099046  -0.68658024
 -0.45466942 -1.2591166   0.80238605  0.7364141   0.8945175  -0.39841813
  0.54708564  0.6705567  -0.33244598 -1.1312748  -0.9195105   0.9478581
  0.85702914 -1.042335    0.72982854  0.78855157  0.34499094  0.3875623
 -0.21789563 -0.50691605 -0.87634546 -0.8091764  -1.0380569  -0.07172567
  0.95312744 -0.8362247   0.93280613 -1.4137875 ]
[ 0.9539786   1.8209585  -0.34906808 -1.1449894  -0.6089541   1.8066998
  1.8085042  -1.3911415  -1.0549252   0.15639521 -0.32196075  0.12772352
  0.66095036  0.7697463  -1.3114053  -0.501323   -0.7289136   2.2007482
 -0.8486485   0.66141605  0.48078284  0.6779093   1.1181641  -0.9869852
 -1.1584244   0.61045015 -1.511556   -1.3991528  -1.488413   -1.348047
  1.3912148   1.920901    1.941618    0.4562658   0.3223604  -0.36803615
 -1.1884892   0.64297044 -0.25906235  0.72759336]
[-0.6962687  -0.86488336 -0.10898899  0.8474633   0.45732373 -0.7867866
 -0.6879527   0.22813551 -0.46061033 -0.25115588  1.0642176  -0.6293464
 -0.51391596 -0.9277324   0.73225844  0.82846683  0.633202   -0.9881849
  0.16007221  0.35604    -0.98589975 -0.90118045 -1.2956346   0.8163445
  0.8558413  -0.75655     0.4704738   0.8117165   0.0191118   0.9601356
 -0.178914   -1.0827267  -0.582678   -0.8585149  -0.73007876 -0.6394699
  0.6227859  -0.624544    0.11124636 -0.7848776 ]
[-1.7495692  -2.2739513  -1.000248    1.5765799   0.6885971  -2.0858748
 -2.368868    1.6949742   2.3080313  -0.02286489  1.5297147  -0.46444935
 -0.7116614  -1.4816405   2.2674387   0.7595176   1.446994   -2.2983189
  2.3673854  -0.77653927 -1.1363617  -2.0199194  -1.5263207   1.0244606
  2.1923301  -1.3740535   2.023915    2.041794    1.4928075   2.3558424
 -1.7162333  -2.281901   -2.9701362   1.8571637  -1.4762893   1.9730346
  2.1262946  -1.1942121   1.3227706  -1.1742917 ]
[-1.0466075  -0.02600838 -0.40150002  0.5779715  -0.41897956  0.6986314
  0.501637   -1.5698186  -1.107836   -0.11469962  0.66428095 -0.51695144
  0.6353993   0.80956733 -0.35810986 -1.4175627  -0.09237237  0.49869308
 -1.0396749   1.180879    0.47847846  0.67134273 -0.19559348 -0.5973348
 -0.35570812 -0.23976594 -0.6151463   0.71923614 -0.9992906  -0.0068937
  0.7494306   0.4591961  -0.87496877 -0.5040109  -0.19793168 -0.7726046
 -0.14530057  0.5077289   0.40801013  1.2716668 ]
[ 1.1537172   0.87580985  0.02771676 -1.0741962  -0.8799842   0.59549415
  0.733288   -0.07430943  0.19957644  0.3417345  -1.1984653   0.4524096
  0.5839223   1.1549988  -0.75074226 -0.8672286  -0.937855    0.65054864
 -0.4890016  -0.6312259   0.6073089   0.90825564  1.0780909  -1.062405
 -1.1523379   0.5251838  -1.3393013  -1.159177    0.11328117 -0.9253866
  0.51810014  0.9254269   0.8742      0.9183031   0.62048453  0.4903298
 -0.86071306  1.3742467  -0.937602    0.60377705]
[ 0.6389942   0.46569732 -0.0965463  -0.38964266 -0.7098504   0.550633
  0.1697589  -0.46241948  0.45503318  0.9876893  -0.36518875  0.15846322
  1.15938     0.77810544 -0.45753407 -0.9189065  -0.5382489   1.0157872
 -0.21117973  0.00171427  0.81257313  0.5920735   0.68592924 -0.90611625
 -0.39013726  1.1693362  -0.58452934 -0.6318649  -0.35510418 -0.5653578
  0.06920826  0.7952489   0.2634205   1.2003926   0.7384184   0.6408895
 -0.1920462   0.8572961  -0.35653016  0.5223227 ]
[ 1.2301214   0.5107613   2.1514196  -1.1354514  -0.29194272  0.6601945
  0.80083764  1.0476426   0.26988068  0.55464214 -0.7404466   1.1610256
  0.10271109 -0.3310784  -0.40285006 -0.3207596  -0.7314656   0.45470494
 -1.2433875  -0.02233901  0.61716926  0.5864264   1.0632855  -0.5324894
 -0.968542    0.21636885 -0.13398086 -0.5729121  -0.7135214  -0.549183
 -1.0201824   1.0736192   0.87461793 -0.5175917   0.38764015  0.8301211
  0.21370593  0.97243255 -0.72823316 -0.03226538]
[-0.71223897 -0.777697   -0.5122664   0.6674012   0.693391   -0.598901
 -0.53686994  0.07174999 -0.35485706 -0.5354268   0.55204445 -0.3792793
 -1.0751317  -0.6897876   0.41350785  0.81694686  0.6805474  -0.63068074
  0.17404406  0.44459686 -1.0210223  -0.7519875  -0.9668716   0.66246927
  0.51449054 -0.9011377   0.68745327  0.7648423  -0.03770484  0.4786074
 -0.2793203  -0.4440492  -0.3774006  -0.9345409  -0.4903117  -0.60411686
  0.5412441  -0.87017107  0.3935978  -0.6757642 ]
[-0.5150974  -0.46364227 -0.29290894  0.93058527  0.73327655 -0.6489809
 -0.8023549   0.4706126   0.12920544 -0.52037895  0.62619823 -0.31674102
 -1.0182873  -1.146165    0.30284813  0.6023501   0.68219835  0.07034384
  0.59587556  0.20680308 -1.1025137  -0.64503586 -0.5529632   0.95269716
  0.6850832  -0.5431275   0.5486059   0.29693475  0.11972283  0.6477202
 -0.15094264 -0.5317949  -0.2651127  -0.67157644 -0.8407236  -0.17140795
  0.75358665 -0.26523528  0.5624553  -0.9958423 ]
[-0.3868076  -1.1423861  -2.5749817   0.5625338   0.47572482 -0.5833454
 -0.95320845 -1.8146425  -0.44109538 -0.39269608  0.55452245 -0.8933375
 -0.05562105 -0.4674157   0.5622671   0.63275707  0.32848457 -0.73079294
  1.2734796   0.2589942  -0.4198318  -0.5039552  -0.9398571   0.6515821
  0.9573836  -0.86489713  0.5764594   0.49596763  1.6146376   0.62442964
  0.9234857  -0.39067534 -0.7618387   0.01972685 -0.45010093 -0.62975335
  0.93419015 -0.5759139   0.24548112 -0.7214775 ]
[-1.6839577  -1.0514575   0.2697208   1.1912544   0.6227083  -0.9167847
 -1.007532    1.2233752   1.6359224  -0.3738469   1.5305196  -1.1190757
 -0.6834257  -1.0154823   1.900476    1.0737647   1.8725631  -1.3206316
  0.54564255 -0.57122946 -0.61859834 -1.572442   -1.1440145   1.0504097
  0.90656596 -1.2551316   1.249145    1.9915      0.1684012   1.8935548
 -2.831747   -1.2488354  -0.76085633  1.0160359  -1.5968361   0.5057839
  1.4414182  -1.1674937   1.7058647  -1.1375328 ]
[-0.7458431  -0.36166948  0.11977694  0.81818175  0.74229944 -0.36418408
 -0.3436704   0.07719184 -0.5041758  -0.72299725  0.9924426  -0.33788523
 -0.801906   -0.57203907  0.37996268  0.5052087   0.54610413 -0.5292088
  0.1434923   0.77446455 -0.88081163 -0.6408954  -0.8944033   0.9632569
  0.6205887  -0.34418154  0.48865187  0.6333741  -0.14642689  0.373506
 -0.01511294 -0.76541203 -0.14724742 -1.2836269  -0.4283334  -0.4744216
  0.5113495  -0.3722288   0.17120214 -0.66417074]
layer 3 Activation
tanh
layer 4 Dense
40 20
[ 0.33924916 -0.39276248 -0.51344144 -1.5127071  -0.44201517 -1.9166757
  0.92811435  0.88862205 -1.1016848  -0.7115399  -1.4657712   1.0075713
  0.6701768  -0.6985972  -0.86591184  1.456008    0.21076272 -1.9550577
  0.71093374 -0.8978395 ]
[-0.07338149 -0.18787216  0.2859093   0.21028149 -0.652152   -1.1838748
  0.2758871   0.6657552  -0.50700414 -0.11066997  0.07894319  0.312491
  0.26595125 -0.54741514 -0.2757327   0.54579103  2.1164446  -0.7278084
  0.63347447  0.26190105]
[ 0.13585824 -0.5823426   0.7570496   0.6986641  -0.12814681  0.46017155
 -0.17254773  0.19698748 -0.50340873 -0.8138736   0.28003573  0.11368164
 -0.77274066  0.59923536  0.6360891   0.16811568  2.0647686  -0.01835352
 -0.73449755  1.2006458 ]
[-0.06562003  0.2537357   0.1256025   0.12527376  0.09703353  0.78913575
 -0.41342705 -0.36492303  0.98910797  0.41543245  1.1449068  -0.2648067
  0.05999474  0.6259012  -0.51118404 -0.02201709  0.0506795   0.45696455
 -0.21750137 -0.28686512]
[-0.8703724  -1.4200205   1.7286928   0.50135404  0.23621072  0.85716754
 -0.6221471  -0.38622966  1.2903688   0.5328583   0.33149114  0.5190946
 -1.1149224   0.6203501   1.2802463  -0.62774    -0.22235331  0.48749888
 -1.4634173   1.7670238 ]
[ 0.1044338  -0.7017996  -0.30445513 -0.19474243 -0.5204342  -0.56501323
 -0.24852072  0.38136837 -0.2230521  -1.2509859  -0.9919853   1.151598
  0.36538494 -0.2588121  -0.54928136  0.56636757  1.0936027  -0.7835575
 -0.11088438 -0.13409002]
[ 0.17454553 -0.37500545 -0.28693718  0.02618447 -0.01853739 -1.1289402
  0.89351887  1.082609   -1.3458301  -0.65683526  0.16077912  0.5792149
  1.0696456  -0.17280059 -0.86272997  0.7959755   2.0049622  -0.5136139
  0.6920943  -0.5513368 ]
[-0.25947577 -0.28524083 -0.4069752   0.1761804   0.11227999 -0.20339751
 -0.43084508 -0.7803443   0.9256937   0.21141802  0.09734163 -0.40074927
  0.24396464  0.20080787 -0.16913895 -0.396397   -0.53069115  0.4854272
  1.2970551   0.07951031]
[-0.40007284 -0.14793961  0.24834624  0.7983776   1.51964     0.18882233
 -1.1406306  -0.28596175  0.2378778   0.8625264   0.52783763 -0.6342959
  0.27061182  0.86997986  0.38997963  0.15471423  1.0156217  -0.29160726
 -0.27862296 -0.59359396]
[ 0.7011059   1.0646355  -1.3756486  -0.6277203  -0.07399377 -0.7617248
  0.55818564  0.1430497  -0.35298458  0.20942964 -0.24598517  0.544054
  0.48521206 -0.1508375  -0.7215358   0.18368286 -0.6366405   0.0538394
  1.40755    -1.6992273 ]
[-0.26206896 -0.428604    1.4521441   0.9469385   1.4906815   0.7899372
 -1.7386385  -0.88537776  1.3843452   1.8640203   1.581857   -0.86810845
 -0.0710577   1.0456712   1.0009853  -1.2169707   0.06931873  0.6523617
 -0.68389887  0.5364407 ]
[-0.4095229   1.2777805   0.2685684  -0.20923372 -0.7684302   0.9712952
 -0.44468343  0.35901576  0.6758211   0.30735597  0.3333341  -0.45440963
 -0.68574774  0.46365556 -0.04890311 -0.056953    0.23096895 -0.1892181
 -0.3354264   0.6380368 ]
[ 1.3674918   0.7506456  -1.0605533  -0.9440769   0.10708682 -0.8278472
  0.8804437  -0.24688758 -0.46678907 -0.03668087 -0.25497794  0.6101116
  1.3371618  -0.6501644  -0.5645681   0.12256242 -0.6559319  -0.25951797
  1.274122   -1.3498538 ]
[ 1.7966927e+00  2.4959631e-01 -1.6209253e-03 -4.7262976e-01
  4.8105174e-01 -3.9474782e-01  1.3953686e+00  1.4794661e+00
 -8.5681653e-01 -1.8136101e+00 -8.2595235e-01  1.2452437e+00
 -2.3127584e-01 -1.3197578e+00 -9.3513447e-01  1.1238337e+00
  3.4751758e-01 -8.5054797e-01  1.9897057e-01  2.5617132e-01]
[ 0.00845714 -0.9794176  -0.14606151  0.8299681   1.8871799   0.73338556
  0.09794403 -1.5082136  -0.9991591   0.15569068  0.84758395 -1.114369
  0.38455862  0.40222165 -0.0302435  -0.18412632 -1.3756218   1.0994092
  0.53114754 -0.5582835 ]
[-1.1417962  -0.25300997  0.01906005  0.7337109  -0.51007164  0.50258243
 -0.9163399  -0.7247998   0.2877032   1.5071584   0.00762845 -0.66518486
  0.57231355  0.7706357   1.173477   -0.42632905 -0.1699101   0.7427271
  0.16650233 -0.36616802]
[-0.71990216 -1.6674005   0.280352    1.5488789   0.8695827  -0.07851098
  0.27999958 -0.72678024 -0.32228994 -0.18293007  1.1343142  -0.40608355
 -0.356908    1.0202113   1.4324213  -0.36652693  0.6034687   0.8201194
 -0.38516113  0.5228096 ]
[-0.53277034  1.1898414   0.07073812  0.47938192 -0.88893116 -1.2337892
  1.1780338   0.25335392 -0.4833425  -0.00405461 -0.08867404  0.4290945
 -0.2616611  -0.2682114   0.1721695  -0.1601095   0.8566039  -0.18432647
  0.66473687 -0.3340155 ]
[ 0.06097491  1.2018133  -1.2764528  -0.8106607  -0.10939951  0.45056233
 -0.7056847  -0.3364122  -0.23958674  0.46351537 -0.41193604  0.0650843
  0.9207668  -0.57351935 -0.13843895  0.05653702 -0.9173549   1.0902618
  0.6586347  -0.57817066]
[ 5.4771847e-01  9.8558015e-01 -1.0583994e+00 -4.2321363e-01
 -3.6272693e-01 -5.1785564e-01  8.4560560e-03 -8.0267218e-04
  1.8878302e-01 -1.2005619e+00 -4.1574925e-01  5.4999024e-01
 -6.6270888e-01 -1.8548797e-01 -4.2542759e-02 -3.7148789e-01
 -1.4336535e-01 -5.0386804e-01 -4.0802184e-01  2.4505185e-01]
[ 1.3709571   1.0530518  -1.269009   -0.7204833  -0.3634931  -0.8734147
  0.89936817 -0.04394984 -0.79729384 -0.4845581  -0.5754514   0.72673595
  1.3612671  -0.8406149  -0.7455348   0.23689544 -0.27720454 -0.5524927
  1.7033522  -1.3170154 ]
[ 0.48742002  0.54738    -0.24892105 -0.38759914  0.11419767 -1.3937379
  0.42079696  0.81834143 -1.639436   -1.7082605  -0.74370503  1.3323177
  1.0082442  -0.8468236  -1.0549759   1.4684093  -0.1072872  -1.5447851
  1.2828208  -1.3725923 ]
[ 0.9813055   0.5361236  -0.3109971  -0.2954444  -0.6054693  -1.0960453
  0.5992001   1.3154241  -0.964527   -1.4296901  -0.29158476  0.968263
  0.0896729  -0.7549342  -1.1020118   1.4241      0.2960764  -1.1355916
  0.0778741  -0.23017377]
[-0.9812475  -0.8169763   1.0701016   0.8067372   0.15377319  0.64922184
 -0.7841486   0.1960091   0.9535306   0.24244137  0.6047083  -1.0520483
 -1.4186281   0.32640123  1.0059612  -0.35621905  0.29333276  0.6469267
 -1.8884622   1.3522018 ]
[-1.27125    -0.3809091   0.73271304  0.5174063   1.311182    0.9908385
 -0.9177971  -1.4684616   1.1964616   0.40393367  1.2008555  -0.41031098
 -0.7655075   0.9005169   0.3804834  -1.3468841  -0.7326502   1.0631686
 -0.98807627  0.27240926]
[ 0.83851945  0.05876347 -0.38882545 -1.2349725  -0.07657003 -0.64602894
  0.46879414  0.83521223 -1.1035734  -0.8661215  -0.37526214  0.27171373
  0.40652898 -1.3690368  -0.99718094  1.2605648  -0.08456977 -0.38346443
  0.11656094 -1.0327412 ]
[ 0.6085468   0.11759189 -0.13245387 -0.61015993  0.5519071   0.41429833
  0.47152653 -1.6677494   0.6606705   0.6253356   0.07119688 -0.53375137
 -0.01544992 -0.17617421 -0.1857799  -0.5482322  -1.0076417   0.3194716
 -0.0514804  -0.44043478]
[-0.5937349  -0.47261918  0.5558347   1.7889916   0.9096836   1.7601134
 -1.2177478  -1.1189651   2.2591362   1.3048046   1.7839613  -1.7335109
 -0.91506284  1.7010989   2.0216277  -1.7912561  -0.59701824  1.5911512
 -0.6780254   0.8789062 ]
[-0.4724952  -0.9194654   1.1713976   0.07866079 -0.0129734   0.3190216
 -1.1284145   0.18756405  0.06739757  0.7306061  -0.01291745 -0.10958852
 -0.9914511   0.6363446   0.15713102 -0.74905664 -0.1880602  -0.32330886
 -0.86734957  1.0135669 ]
[-1.0786024   0.12559414  0.4692106   0.93228585  1.890613    1.0866278
 -0.7504775   0.0732414   0.11637458  1.1153945   0.876395   -0.45163476
  0.06418613  1.3426785   1.4379824  -0.5690701  -1.0486566   0.74709386
 -0.0940171   0.33461684]
[ 0.28706965  0.92298317 -0.31584963 -0.9937605  -0.6503865  -0.4534019
  1.7576437   1.3918417  -0.6970975  -0.6970911  -1.2714819   0.6235811
  0.23116095 -1.1126949  -1.435797    0.24946919 -1.6191342  -0.00326767
  0.6089378  -0.10172457]
[ 0.14594814  1.3610586   0.20819876 -0.10432653 -2.3686855  -0.45317787
 -0.52955055  1.0132438   0.8682474  -0.02553783 -0.26477045  0.9057108
 -0.51757646  0.23680438  0.56557316  0.5203934   1.7260287  -1.023842
 -0.76247627  1.0016086 ]
[-0.45370695  0.28365618 -0.3418573  -0.47852308 -1.7222415   0.28366926
  1.7141026  -0.02524453 -0.95964164 -0.08203702 -0.60492516  0.38592362
  0.13364989 -0.31997427  0.7951181   1.1008242   0.6865977  -0.45649505
 -0.43375286  0.1970021 ]
[-0.5290413  -0.4168424  -0.0545121   1.1727921   0.5917045   0.05672578
 -0.9868791  -0.25662866 -0.10143405  0.3830395   0.08153057 -0.2197439
  0.20137529  0.69663     0.73520046  0.01787391  0.25651658 -0.03210356
  0.435718   -0.39142525]
[-0.4142217   0.731286   -0.59774405 -0.6573863  -0.9531363  -0.7681406
 -0.37608027 -0.03407386 -1.2992864  -0.3178656  -0.73471886  0.84321505
  0.00179393  0.20387307 -0.05023179  0.49027494 -1.2294503  -0.45118698
  0.1873909  -0.5210976 ]
[-0.6370982  -0.43000218  0.18693823  0.6158436   1.1525403   0.3395653
 -1.3133805  -0.1853763  -0.5829258  -0.41609824  0.7685691  -0.12956288
  0.06262031  0.82686514  0.00336985  0.11001361  0.99459904  0.29259172
 -0.24660297 -0.04089644]
[-0.9445503   0.00950893  0.46547017  0.43940917  0.7481323  -0.12544423
 -1.8732777  -0.88958323 -0.02429851  0.5031382   0.6795328  -1.2722251
  0.46089256  0.8123295   0.17503951 -0.0990454  -0.79358757 -0.02012721
  0.11854557 -0.5521974 ]
[ 0.01307217  0.21419546  1.51995     0.24905413  0.7392213   0.02281308
 -0.08828033 -0.00630336  0.9611284  -0.64037865  0.32782608  1.3742454
 -0.99338233  0.26798382  0.32642722 -0.3180592   0.50535977 -0.3927767
 -0.5177625   0.65882534]
[ 0.57022655 -0.5231762   0.67355007  0.8351486   0.41221148  0.31663945
  0.36057594 -0.0021871   0.7858475   0.47157806  0.23229271 -0.39173946
 -0.45588848 -0.04691013  1.3234304  -0.10956913 -0.12485679  0.9852892
  0.3543402   0.22017685]
[-0.41553795 -0.09634216  0.67410356 -0.46329388  1.1571276   0.3057618
 -0.8685987   0.34994134 -0.27837643 -0.08052994 -0.97186273  0.46690476
  0.6179443   0.12091631 -0.1710131   0.41490126  0.12935361 -0.04879064
  0.15079427  0.21005411]
[-0.71871954 -0.5056547   0.5799481   0.14829287 -0.4385201   0.4339882
 -0.7551032   0.13707331  0.37970835 -0.06235633  0.12237177 -0.21889028
 -1.2008713   0.42533562  0.8090365   0.04047741  0.8455034   0.37217158
 -1.2830994   1.3993449 ]
layer 5 Activation
tanh
layer 6 Dense
20 1
[0.64012873]
[-2.6886199]
[2.2145307]
[-1.0961851]
[-2.7250304]
[-0.8903134]
[4.1855145]
[1.1664453]
[0.1976252]
[-0.95816743]
[-0.8622012]
[0.90472114]
[-3.4721758]
[-0.82154334]
[-0.55803645]
[0.9799826]
[6.083945]
[-0.91297066]
[-3.271825]
[4.0693035]
[6.866506]
