layers 7
layer 0 Dense
20 20
[ 0.0914647  -0.02595474  0.17493959 -0.05552866 -0.08377809 -0.1949755
 -0.28559452  0.45376816  0.5906962  -0.32788143 -0.20338877  0.0888043
  0.00853241 -0.40184683 -0.43809873  0.03517065  0.09101214  0.04042415
  0.04168205  0.2627479 ]
[ 0.00814547  0.4856466   0.15528789  0.09006825  0.28458777 -0.34948573
 -0.28182122  0.07350386 -0.10952889  0.2152996  -0.5113878   0.39143983
  0.11851416 -0.1865672   0.3094033  -0.4469903  -0.31969553 -0.01810594
  0.14309871  0.00973316]
[ 0.17686227  0.32766318 -0.26011792 -0.11260208 -0.40299204 -0.16144043
 -0.15631178 -0.21253976 -0.31147912  0.07119239 -0.08265887 -0.17629573
 -0.07807295 -0.5002186  -0.30405626  0.22273362  0.01978892 -0.27779004
  0.26851407 -0.09331231]
[ 0.1335071  -0.10071658 -0.27364326 -0.11833633 -0.14907227  0.25810575
  0.24039027  0.17990838  0.29198888  0.31620413 -0.23342057  0.10101265
  0.28739572 -0.5050046  -0.3936711  -0.35541776  0.20512196  0.34454077
  0.34900665 -0.31757313]
[ 0.3654829  -0.06401774 -0.14549081  0.08640447 -0.4626652   0.12550186
 -0.19394627  0.09373225  0.24153385  0.22413555  0.10115715 -0.23707817
  0.05617582 -0.3739369  -0.3514881  -0.14277399 -0.0412085   0.36943126
  0.25123546 -0.29996946]
[-0.00509994  0.06144629  0.16788252 -0.1569686  -0.07742065  0.23069286
 -0.08689922 -0.25148138 -0.10883948 -0.14717358  0.36476964 -0.35454965
  0.10435498  0.3016436   0.1365059   0.3043346   0.02189698  0.2894583
 -0.07911666 -0.12747683]
[ 0.13213167 -0.44470376  0.00109559 -0.06400584  0.07581367  0.04693599
 -0.20093673 -0.0907135   0.08500113 -0.15975441 -0.11892081 -0.12898934
 -0.1308378  -0.23884822  0.12959522 -0.03137876 -0.06556995 -0.06204639
  0.18408455  0.4132528 ]
[-0.45048502 -0.32753035 -0.47380108 -0.17978947  0.10674317 -0.01618042
 -0.31599402 -0.36205748  0.01399544  0.22087982  0.24265483 -0.33620432
 -0.01743274  0.3492609   0.3587763   0.28230825 -0.02545407 -0.27542582
 -0.23966971  0.32178196]
[ 0.12071638 -0.21538621 -0.16411464  0.1168253  -0.14108846  0.08470441
  0.44852915 -0.00287862 -0.16839194  0.27992836  0.01839211  0.21270506
  0.20304249  0.02428755 -0.394334    0.3110855  -0.27520204  0.1997332
  0.26069102  0.06462297]
[ 0.03544954 -0.35314238 -0.19801684 -0.20735519  0.09750643 -0.41377428
  0.09727099  0.28509152  0.32210067  0.11012848  0.25446936 -0.26283473
 -0.39474815  0.12613371  0.38406006 -0.01479238 -0.26367888  0.05220287
  0.2120323  -0.24100335]
[-0.42931184 -0.2259958   0.06428245  0.5749376  -0.0930989  -0.17174888
 -0.28384882  0.00429525 -0.1855626   0.5100152  -0.39584282  0.41434446
  0.43201202 -0.34000096 -0.1098739  -0.4070751   0.28423944  0.31101245
  0.2409094   0.00468518]
[ 0.02899209 -0.02522115  0.06972067 -0.19807795  0.06964438  0.2850871
  0.30539244 -0.13859534  0.15839343 -0.26182517  0.04258135 -0.13229108
 -0.35416642  0.2850122  -0.08745754  0.27540207  0.07836771 -0.15164845
 -0.1814369   0.08204082]
[ 0.28944325  0.13332042 -0.09819204  0.08873139 -0.2710505  -0.26633942
  0.33325475 -0.26375973  0.17206354  0.47172427 -0.09740561 -0.27966306
 -0.3309393  -0.33843437 -0.20121063  0.16326316  0.00200836 -0.37716502
  0.321735    0.09829924]
[-0.10813512 -0.04605741  0.16466887 -0.13604008 -0.06468782  0.06794664
  0.03780341  0.31542307  0.11073473 -0.0931657  -0.11188902 -0.25025928
  0.51223314  0.00756015 -0.24597502 -0.14286797  0.05407542  0.0446761
  0.01373417  0.18242311]
[-0.2124946  -0.2647522   0.13837461 -0.4541671  -0.10209387 -0.14303918
  0.26657283  0.2283979   0.25915205  0.19963382  0.16371576  0.2652222
  0.217354   -0.4361982   0.04364603  0.09872842 -0.4941251   0.26316696
  0.1186472  -0.38856697]
[ 0.5392347   0.39736214 -0.37084085 -0.21181983  0.2860238   0.38933545
  0.1657801  -0.0962289  -0.22720888  0.40251958  0.33794197  0.09172432
  0.52833354 -0.5184032  -0.27834466  0.04265422  0.17836785  0.17796177
 -0.04354697 -0.35126776]
[-0.3190054   0.14997207  0.37010744 -0.2598458   0.30741665 -0.36969584
 -0.3159     -0.11109843  0.37001735  0.36014712 -0.43283883 -0.4250967
  0.29032728  0.02540378  0.20528777  0.1726688   0.46539274 -0.40171036
  0.20102488 -0.19430174]
[ 0.23650531 -0.04490617 -0.13172413 -0.4049682  -0.12250878 -0.15777764
 -0.10755251  0.08165507  0.12015925 -0.17878537  0.20899655  0.02321027
  0.07693566  0.025737    0.17923759  0.2439999   0.15896355 -0.25490615
  0.06241515 -0.03448971]
[-2.74083108e-01  3.84529501e-01  1.07125915e-03  2.17906520e-01
  1.10103749e-01  1.24202415e-01  1.82426557e-01  1.67891786e-01
  2.48190656e-04  2.17029154e-01 -2.82146186e-01 -4.10951585e-01
  2.66275138e-01 -1.37416795e-01  1.63354874e-01 -3.61474872e-01
  2.78258562e-01 -2.49519974e-01 -1.91489279e-01  1.93116348e-02]
[-0.3759869   0.27647734 -0.52336174 -0.32802275  0.0331917   0.04857945
  0.1345712   0.4283799  -0.33780938 -0.16555925  0.28761864  0.11247616
  0.02592135 -0.21339144 -0.2917439   0.33600885  0.16492343  0.01428473
 -0.28845888 -0.0905403 ]
[ 0.08272626  0.0277991   0.10743533 -0.05710352 -0.0812293   0.02063473
 -0.01242345 -0.0002462   0.04849371 -0.02441763  0.03762242  0.09441831
  0.09016949 -0.09643896 -0.04890741 -0.03588184 -0.03660415  0.08422002
  0.07160371 -0.04844854]
layer 1 Activation
tanh
layer 2 Dense
20 40
[ 0.02599187 -0.0374549  -0.28288627  0.00959327 -0.23143752 -0.20124735
 -0.12115892  0.53618526 -0.08548101  0.2926124  -0.08210762  0.19654974
 -0.3088504  -0.44689605  0.37022525 -0.25021178  0.25944415 -0.256056
  0.01523421 -0.17189813 -0.18555504 -0.1966441   0.18104322  0.24026597
 -0.08018503 -0.1794327   0.0708298  -0.16565795  0.22126898  0.26524147
 -0.02899813 -0.22960311 -0.06002241  0.26884678  0.2845128   0.30188966
 -0.03921357 -0.25136605  0.08937385  0.00380944]
[-0.08761827 -0.16361228  0.06995744 -0.17820616  0.12136603 -0.237423
 -0.00390578 -0.04779977  0.05442969 -0.03537251 -0.1494045  -0.2711933
 -0.23094206 -0.05644267 -0.02717478  0.13309067 -0.00752429 -0.15578179
  0.06484151 -0.20108107 -0.04354881 -0.32392094 -0.21326542 -0.1434762
  0.15510616  0.21980263 -0.2670274  -0.2157019   0.03007005  0.3252607
  0.2348999   0.02262587 -0.05152882  0.33860227  0.04908165  0.11460646
  0.06770251  0.21187413  0.11679241 -0.10241505]
[-0.04693482 -0.07338486 -0.13245125  0.15123662 -0.32316586  0.17831841
 -0.3434325  -0.11357931  0.02421462 -0.00341096  0.15730545 -0.23206209
 -0.26680976 -0.03462537  0.24497332 -0.29738384  0.13538752 -0.12669423
  0.14624904 -0.3079006   0.24479105  0.38372698  0.12660754  0.00493046
  0.16779597  0.10794434 -0.29710162 -0.16315773  0.44891694 -0.08330161
 -0.30397135 -0.33320093  0.2371767   0.27784428 -0.16043887 -0.25883195
  0.18036553 -0.2309182   0.18949945  0.2554171 ]
[-0.17210554  0.26532656 -0.30056354  0.03866804  0.30603248  0.20084508
  0.18513222  0.00426101  0.3065735   0.24382386  0.16405426 -0.1445194
 -0.10460107 -0.36119294  0.23717605 -0.07974602  0.0380614   0.29792017
 -0.23292379 -0.06875182 -0.1668001   0.285896    0.09134074 -0.01148957
 -0.17631797  0.11022805  0.2682787  -0.23799528 -0.19300099  0.02064276
  0.06469171 -0.33092442 -0.1374827  -0.37212184  0.15323576  0.04229924
  0.30302387 -0.04841645 -0.04749997 -0.07832658]
[ 0.15883444 -0.24668732  0.28499824 -0.22362158 -0.02820856 -0.24325027
 -0.13720953 -0.1172661   0.27622676 -0.19695096  0.22115196 -0.01708085
  0.22989577 -0.26504344  0.08315311  0.0599096   0.03593935  0.1808719
 -0.02460774  0.06839238  0.08136902  0.08295547 -0.12080128 -0.15449807
 -0.2508569  -0.210183   -0.12703662  0.08241017 -0.02807788  0.07721002
 -0.07646322  0.12152739 -0.01882139 -0.0750372   0.06292602 -0.09821236
 -0.2466657  -0.04364272 -0.22939242  0.22669819]
[-0.18162294 -0.07516848  0.2280937  -0.12231336 -0.31755823 -0.27915335
 -0.09366925  0.16102277 -0.15063202 -0.06715452 -0.1573016  -0.01732067
  0.1593226   0.20705254  0.0740082   0.26203266 -0.00665416 -0.21408227
 -0.06871823 -0.18203254  0.24910818 -0.00906664 -0.16392596 -0.09882784
 -0.08843976  0.22305627  0.21753593  0.27212435  0.09808244  0.05715586
  0.02638586  0.23571014  0.01276748  0.23757234  0.30172113 -0.2782073
  0.26900077 -0.34815994  0.02763475 -0.00436781]
[ 0.15908001 -0.3367796  -0.28735417 -0.2863067   0.00313501 -0.34481537
 -0.22609727  0.10578723 -0.1855455   0.30841053 -0.07772022 -0.11962613
 -0.04140454 -0.48204288  0.03101341 -0.15013725 -0.32540074 -0.47283515
 -0.08712733  0.27966404  0.06451439 -0.152026   -0.3381932   0.12811315
  0.29925317  0.07584061  0.15894103 -0.23818459 -0.04646882 -0.12717454
 -0.20211738 -0.19203849  0.00197197 -0.07173197  0.379436   -0.31865224
 -0.08074549 -0.25606993  0.28276035 -0.35704878]
[ 0.24017397 -0.13315986 -0.03097226  0.19595414 -0.31784955 -0.38755754
 -0.37175673 -0.03801585 -0.24813183  0.29425487  0.20734377 -0.18434435
 -0.16118251 -0.27336958 -0.11066241 -0.1353156  -0.20351012 -0.38327095
  0.301157    0.28470036  0.11666282  0.16755995 -0.1694307  -0.25033578
 -0.26124242  0.18135543  0.00356387  0.13355096 -0.20329486  0.1713159
 -0.0380579  -0.321316   -0.29594392  0.33989516  0.06350741 -0.04020989
 -0.1340814  -0.00616653  0.12940045  0.2353349 ]
[ 0.20279175 -0.08056742  0.21363835 -0.06695171  0.08603862  0.19478415
 -0.3090493   0.39406514  0.06691355 -0.05426922 -0.22129191  0.3282949
  0.06579012  0.08507616  0.28249577  0.05973876  0.24804956 -0.45136482
  0.23115805  0.29975808 -0.28692222  0.03509339 -0.38342002 -0.34729478
  0.193778    0.27988157 -0.06016173  0.00814414  0.31758374  0.0714633
  0.20542073  0.17320624 -0.4152533   0.29772785  0.25632212 -0.24582979
 -0.22321124 -0.04040661  0.18720454  0.3442793 ]
[ 0.17876989 -0.03404405  0.3204686  -0.3383602   0.0663379   0.13280517
  0.2592689  -0.17615068 -0.09855595 -0.13957052  0.07329709  0.1227734
 -0.21301126 -0.3429843   0.02653732  0.25399998  0.17360358 -0.05088168
  0.1924981   0.14853089  0.03630874  0.30668482  0.03297407 -0.14380606
 -0.11938218 -0.350962   -0.00608463 -0.31496698  0.30600926 -0.4124366
 -0.24534133  0.12445091  0.13843188  0.19091755 -0.1996079  -0.17977704
 -0.10010894  0.02137758  0.10143771  0.16234742]
[ 0.07705021  0.00794777  0.18680245  0.2555612   0.26192465 -0.21631923
  0.44882578 -0.32112592 -0.16502993 -0.0936937   0.2091957  -0.05308951
 -0.02053917  0.01458412  0.27213272 -0.1371885   0.06068303 -0.23868741
 -0.11063464  0.26152635  0.04335181 -0.01642845  0.05213352  0.16139129
  0.12007955 -0.25004235  0.02515306  0.26991254 -0.01084155 -0.18256357
  0.10135456 -0.00234671 -0.13084102 -0.20008552 -0.3062284  -0.3057173
 -0.17523682 -0.00074184 -0.08488227 -0.13027138]
[-0.17207901 -0.0645439   0.01578642 -0.02606346  0.34686077 -0.21915078
 -0.02391826  0.1548451   0.01539023 -0.29202828 -0.11039424  0.13801047
 -0.23362659  0.21959141  0.1593133   0.28557065  0.05527734  0.36427164
  0.23134436  0.21626309 -0.04919481 -0.22456281  0.0642138   0.04263056
  0.02630109  0.1096855  -0.25635037 -0.18111049  0.23728305  0.2712711
  0.12741362  0.12117456 -0.1091929   0.17619887  0.16984731 -0.00796566
 -0.05538648 -0.41396844  0.3721552  -0.28920424]
[ 0.1982452  -0.3006238   0.33883744 -0.31884867  0.12159469  0.14793219
 -0.07430083 -0.2520326   0.06865317 -0.1266776   0.23598653  0.21828926
  0.07710131  0.10123346  0.2247609  -0.30753455  0.11034562 -0.00456698
  0.11964056 -0.16538492  0.14724787 -0.12436488  0.40208814 -0.3963821
  0.0268573   0.35295364 -0.1887022   0.1466161  -0.01294289 -0.12075103
  0.302419    0.0526334  -0.21680528 -0.01485376  0.12578404  0.01891802
 -0.24707222 -0.34747714  0.15879488 -0.28006688]
[-0.3177453  -0.3019385  -0.2727285  -0.1327993   0.00583109  0.05265822
  0.13660793 -0.22931048  0.17832504  0.3535736   0.22117001 -0.34970993
  0.22131045  0.24371438 -0.15414232  0.04752766 -0.25755808  0.11990488
  0.2600857   0.0169167   0.2989552  -0.12247831 -0.21062045  0.32092577
 -0.04128198  0.01251394 -0.02007837 -0.0708293  -0.3264015  -0.28607342
 -0.10365828  0.3975321   0.3593395  -0.10996843  0.13196982  0.03624811
 -0.04650483  0.51595634 -0.25104716  0.13277   ]
[-0.33542076 -0.18302174 -0.39058122 -0.27614522  0.17566948  0.32540324
  0.07110808 -0.12166787 -0.03508617 -0.3289917   0.17367458  0.09216984
 -0.24548756  0.18499964  0.2123571   0.17020234 -0.15400963 -0.2912426
  0.17490914 -0.24728985  0.18298939  0.08444379 -0.18631473  0.03416729
  0.01431671 -0.3094536   0.16049303 -0.26468307 -0.20452882 -0.0239902
  0.08623592  0.139458   -0.21167393  0.01601467 -0.20970148  0.20763604
 -0.34224454  0.36862352 -0.08997279 -0.07085832]
[-0.14350218 -0.2486314  -0.04511434  0.12016211  0.16470098 -0.11137854
  0.3165432  -0.09297969 -0.07502308 -0.08511544  0.19000958 -0.25467855
 -0.1638199   0.20052037 -0.18165067 -0.02731478  0.24490629  0.24209677
 -0.18174328  0.12572943  0.304673    0.2638962  -0.24299844 -0.0279452
 -0.15122736  0.22831486  0.04000052 -0.04707748 -0.15531754 -0.33839616
 -0.04419308  0.2860946   0.21317397 -0.1055296  -0.14475465 -0.15204726
 -0.04592201 -0.0675819  -0.12428954 -0.11310977]
[-0.28946596 -0.14215624 -0.11758333  0.08106557 -0.20149113  0.24649099
 -0.1199539   0.21749793 -0.2592171  -0.01384796 -0.08424026 -0.27781495
  0.14892966 -0.21270387 -0.10686767  0.04643745 -0.32747182  0.370834
 -0.12367504 -0.31832537  0.04656705 -0.21953899  0.15429927 -0.02552093
 -0.2015956   0.2851954  -0.21453762 -0.0071055   0.12294976  0.2216433
  0.05193103 -0.28371963 -0.34656513 -0.21217304  0.03744332  0.03820553
  0.05906339  0.23909122  0.11837871  0.24947596]
[-0.23753649  0.01935253  0.10159293 -0.22553444 -0.07775337  0.27742058
 -0.3649768   0.307845   -0.20221063  0.1957069   0.12634698  0.25796926
 -0.23005944  0.17156719  0.2445376   0.11467239 -0.13898712 -0.01658303
 -0.14255789 -0.21331783  0.09051529  0.10827838  0.06363589 -0.28484246
 -0.08211326  0.27727598 -0.11458085 -0.08686822  0.29688555 -0.01794951
 -0.32385528  0.09833371  0.13563101  0.34061575 -0.17383224  0.23342438
  0.01507017 -0.3033059   0.15174715 -0.09331231]
[-0.09511218 -0.13037896  0.06841054 -0.00074988  0.01789776 -0.010044
 -0.02038077 -0.03077264 -0.3093888   0.09892196  0.06057639  0.39753765
  0.07401641 -0.18422306 -0.1844425   0.14666294  0.13518693  0.02190894
 -0.26942948 -0.24912323  0.08449887  0.2355593   0.01256727  0.05937679
 -0.15274385 -0.23382834 -0.2537828   0.22907422  0.37371927 -0.13365081
 -0.14848292 -0.24122404  0.23766536 -0.11581493  0.14631413  0.23536979
  0.0900255  -0.2973233   0.05154587  0.01565287]
[-0.06672222  0.21320863  0.32761967 -0.249991   -0.17104629  0.06483285
  0.2295186  -0.04325129  0.01313962  0.16877766 -0.06680506  0.10836481
  0.15854874  0.03079436  0.19892272  0.19245373 -0.35410187  0.38189942
  0.03083367 -0.06919502  0.11008171 -0.00684754  0.22849534 -0.1808833
  0.10384349 -0.25040138 -0.09569409  0.3105087  -0.18821494  0.03368312
  0.25383785  0.27502397  0.20453085  0.11181559 -0.08651788  0.07763473
  0.34601325  0.45770156 -0.1119514   0.2103677 ]
[-0.01320069  0.09342958  0.03329875  0.01891286 -0.03110756 -0.04803546
 -0.18403918  0.19935277 -0.03804782  0.02980242 -0.00925568 -0.00521083
 -0.01495653 -0.0638235   0.01083256 -0.01617892  0.09667104 -0.03419622
  0.01401887  0.00649762 -0.04346519 -0.01731977 -0.08121713 -0.02117781
  0.00789264  0.06524444 -0.04237247  0.04097757  0.13027985  0.10114075
 -0.00429238 -0.09228511 -0.00420783  0.08210422  0.09966612 -0.0023259
 -0.03742985 -0.159204    0.08899371 -0.00295912]
layer 3 Activation
tanh
layer 4 Dense
40 20
[-0.183544    0.24969558  0.16486213  0.10297288 -0.1882397  -0.13151081
 -0.3467041  -0.173807   -0.34652457 -0.0350528   0.22644669  0.04396335
  0.02588476 -0.0168193   0.21710005  0.05448824 -0.35697478 -0.19391312
 -0.28875372  0.18603721]
[-0.26585233 -0.22233917 -0.08644355  0.37495443 -0.11883003 -0.18847725
 -0.080359   -0.10926469  0.2992964  -0.13677958  0.07783685 -0.06507019
 -0.13116696 -0.05516706 -0.07759615 -0.21188973 -0.00259515  0.35013354
  0.23531923  0.0295376 ]
[ 0.18878326  0.25774893  0.02513024 -0.08166491 -0.20744215 -0.09087386
 -0.1263992  -0.22006837  0.133429    0.32688963  0.0247048  -0.158782
 -0.3169729   0.2523137   0.05821297 -0.25493062  0.23435827 -0.2580036
  0.16821718  0.07438689]
[-0.36364526 -0.17490196  0.30409238 -0.02425985 -0.00641237  0.13657859
 -0.31671348  0.12555254  0.262307    0.19786818 -0.03920699 -0.09266908
  0.07652046  0.0238727   0.34482113 -0.06935493 -0.19677176  0.00942606
  0.0911001   0.2815667 ]
[-0.39673647 -0.26202515 -0.29748127  0.17751221 -0.05221597  0.01591088
  0.20989275  0.10168998  0.23572418 -0.05544566  0.01498808 -0.05585457
 -0.01689306  0.2960451  -0.01722225 -0.05379383  0.09158122 -0.19361179
  0.04193942 -0.26358598]
[-0.40358377 -0.35464084 -0.04469847  0.24471216 -0.02271723 -0.10879596
 -0.00200939  0.29027548 -0.2843888   0.16648783  0.246229   -0.09862143
 -0.10105751  0.20803708 -0.2513985   0.28993243  0.09036483  0.32832557
 -0.2578744  -0.27060807]
[-0.04024594 -0.07490341  0.2656114  -0.16366145  0.1699705   0.28565273
  0.01445468 -0.33867142 -0.24104427  0.20102935 -0.12857005  0.05680277
  0.17845875  0.3398001  -0.03104996  0.07207807 -0.14269999 -0.2521559
 -0.22860597 -0.19514705]
[ 0.0762673   0.15862192 -0.18052301 -0.05744613 -0.14291576 -0.09524374
 -0.07743079  0.28384775  0.2527746  -0.02052221 -0.1370835   0.00082685
  0.11705328 -0.04362213 -0.08035034 -0.12742426 -0.01770316  0.01030104
 -0.16557541  0.13975471]
[ 0.22766869 -0.23793228 -0.00987909  0.03949899  0.09905278  0.09543244
 -0.0426162  -0.31732067 -0.2637432   0.08808349 -0.08890796  0.18857293
  0.1608186  -0.22743532 -0.0888423   0.02692984 -0.222466    0.26742885
 -0.12847845  0.05298436]
[ 0.31891882  0.04862842  0.00073132 -0.20579901 -0.11432829 -0.13250361
  0.00081673  0.08125068  0.03381642 -0.31543064  0.24747545 -0.07498538
  0.0990305  -0.14094211 -0.214429   -0.3656646   0.12823881  0.39115658
 -0.04387782 -0.31879428]
[-0.35633385  0.12101942  0.22899765  0.09586477  0.21188185 -0.05834257
  0.2638346   0.17108701 -0.10684867 -0.30252188  0.22790036 -0.0422845
 -0.04572959  0.06667183 -0.11486961  0.00401849 -0.159494   -0.39259216
  0.23448321  0.17016527]
[-0.25887552  0.20768672 -0.13758841 -0.07141335  0.21763259  0.04462054
 -0.19699164 -0.00360103  0.04463615  0.17603315  0.08113059 -0.17404471
  0.2280047  -0.04079475  0.3765868   0.17274025  0.19630185  0.12861417
 -0.10116963 -0.15489784]
[ 0.029329    0.23887464 -0.02588128  0.29601872  0.10224076  0.16416728
 -0.13417897  0.10317887 -0.27510044 -0.04243632  0.15137993 -0.1657337
  0.12993017  0.1324998  -0.16391996 -0.1442395   0.17415793  0.07014102
 -0.03500403 -0.10414618]
[-0.18897168  0.10269544 -0.09533507  0.17376646  0.14889652  0.18002172
  0.09424881 -0.3343619   0.36876732  0.10856777  0.08043824  0.02669364
 -0.15201202  0.01674578  0.11522278 -0.22656779  0.06299862 -0.11415158
  0.26620758 -0.26158434]
[-0.02958187 -0.06513859  0.14579998 -0.18366651 -0.18989196 -0.16163397
  0.1182232  -0.01468596  0.26545814  0.0683332   0.07374548 -0.02801191
 -0.37963527 -0.27303013 -0.02395946 -0.11186392  0.07678031 -0.11340858
 -0.10155227 -0.07572531]
[-0.19434807 -0.28126386  0.32950968 -0.2063484  -0.17289183 -0.12897912
 -0.19701067  0.04061764  0.02394304 -0.24037315  0.25730693 -0.29016018
  0.24527015 -0.04098025 -0.22277515 -0.02558362  0.11903316 -0.20147012
  0.08518527 -0.3143309 ]
[-0.31339964 -0.31700787 -0.09302839  0.22096066  0.00109254 -0.18823047
 -0.2736091   0.14890584  0.05224678  0.21880412  0.19983482 -0.02271807
  0.2868932   0.03237021 -0.10002776  0.1215212  -0.2443283   0.02836898
 -0.14128558  0.09318583]
[-0.09868047 -0.22725096  0.34715986  0.04426416  0.09073441 -0.18712462
  0.2515293   0.19329506  0.21784945  0.24923606  0.34933734  0.15567549
 -0.2329436   0.41941187 -0.15804403 -0.15753798  0.27211308  0.26444948
  0.09624808  0.317022  ]
[ 0.00098169  0.16731665  0.372843    0.13874242  0.08716044  0.05497681
 -0.14454977  0.06562649  0.2819229  -0.12911108  0.13194163  0.00388619
  0.05790681 -0.13102764  0.11068808  0.09808081  0.01185177  0.13458207
  0.13468869 -0.00678937]
[-0.2666003   0.26561666  0.3066202   0.23749138 -0.03422093  0.01404846
  0.11804744  0.01109865 -0.16074751 -0.09771466 -0.04406704 -0.22929896
  0.3208349  -0.16528645  0.21966259  0.114008   -0.19452903 -0.41951245
 -0.22735     0.32408983]
[-0.0112881  -0.04484205 -0.0500722   0.03792313 -0.13165869  0.33778897
  0.22308943 -0.02874656  0.09076988 -0.12722507 -0.34757295  0.2907199
 -0.12273487  0.21805002 -0.15263    -0.01493731  0.20104311  0.09576418
  0.2960709   0.09426164]
[ 0.00672031 -0.3094633  -0.02578647 -0.1803154   0.18688145  0.23177189
 -0.04675463  0.0444415  -0.22567257 -0.23316666 -0.2762853  -0.20623384
  0.28547034  0.01919354  0.12475247  0.046185   -0.18712147 -0.12412196
 -0.02850572  0.22398925]
[-0.39686427  0.03595145  0.23675144 -0.16026603  0.10437731  0.29142743
  0.18125471 -0.0886087  -0.01892182  0.05204178 -0.25118384 -0.231129
  0.13638107  0.26773214  0.19231892 -0.24141155 -0.11935453  0.39830685
 -0.14204693  0.18220194]
[-0.27536574 -0.21945845  0.11182188  0.12323136 -0.01018291 -0.13813257
  0.32581997  0.24263945  0.16022417  0.29858235 -0.12944995 -0.1790453
  0.11689012 -0.10810447 -0.23866546 -0.22894834  0.16417569 -0.09678941
 -0.21643072  0.16643701]
[-0.07190543  0.11697192 -0.21056274 -0.16567393  0.08646784 -0.21564624
 -0.13733867  0.00243014 -0.1675819  -0.23630539  0.17451206 -0.01805276
  0.18273541  0.03331036  0.13712204 -0.00847639  0.05386796 -0.23007178
  0.15496524  0.0757582 ]
[ 0.01138699  0.24546173 -0.2359096   0.186857   -0.12972744 -0.26382205
 -0.21503334  0.03589372 -0.24653997  0.15368833 -0.33303517  0.26862136
 -0.02635922  0.11115006  0.12090149 -0.17272244  0.1637512   0.21166395
  0.28319556  0.07009467]
[ 0.14733356  0.13728932 -0.15126781 -0.16729316 -0.20558621  0.17041205
  0.12505601  0.2158961  -0.27528605 -0.10138617 -0.2679921  -0.02691198
  0.09685302  0.17820023 -0.31414187  0.0857114  -0.03853453 -0.15230717
 -0.10046914 -0.03957205]
[-0.19377702  0.30882713 -0.19177146 -0.09015449 -0.20968793  0.1342418
 -0.00125309 -0.03129334  0.40457645  0.26922283 -0.25139612  0.15277475
 -0.11642607  0.09002691 -0.02494646  0.25315806 -0.31918904 -0.22042936
  0.12922516  0.05304145]
[-0.2904679   0.24525812 -0.33159584  0.16165017 -0.23848586  0.11787554
 -0.01438298  0.26579544 -0.05325267 -0.12341867  0.19061004  0.04431938
  0.14422922 -0.08726067  0.39385685  0.33168885  0.24415658  0.15090093
 -0.32751352 -0.21864149]
[ 0.27348974 -0.18684003 -0.3240343  -0.02758118  0.10786868 -0.31784037
 -0.19474076 -0.09175642  0.23232612  0.25830004  0.19389312  0.13044485
 -0.1062363  -0.24587615  0.30001158 -0.20724921 -0.21450703  0.16143243
  0.21948396  0.03362128]
[ 0.14476982  0.18769465  0.2502199  -0.40861508 -0.10207421 -0.14441212
  0.06558529 -0.2858172  -0.14660768  0.07316574 -0.0603653  -0.19756354
 -0.19184208 -0.12189426  0.07054469 -0.26822677 -0.07734533 -0.15706296
 -0.20934568 -0.19798313]
[-0.2363133  -0.1569371   0.2491651  -0.10818543  0.25939938 -0.03021611
  0.27335075 -0.11989952 -0.21419287  0.27346456  0.12137818  0.00884808
  0.34174275 -0.12963694  0.24246569  0.28741658  0.0541553  -0.38127947
  0.03570072  0.12085883]
[-0.34910572 -0.06239526  0.10757652 -0.24127297  0.16949825 -0.04276495
  0.32241172 -0.24366352  0.2603424  -0.15272968  0.07340627  0.07203052
  0.11422245 -0.17103389  0.10977509  0.08105054  0.18366425 -0.1886496
  0.17472196 -0.03083831]
[ 0.13001557  0.13341266  0.18191704  0.08097664  0.19654772 -0.12544751
 -0.15035361 -0.19388582  0.33812824 -0.10775218 -0.13382179 -0.04634154
 -0.238861   -0.33139825  0.25980067 -0.0772976  -0.10835809  0.05111772
 -0.23650405 -0.32213965]
[ 0.42010045  0.37926424 -0.3862178  -0.10190644 -0.16357842 -0.26479042
 -0.31923285 -0.13158347  0.02423376 -0.29859534 -0.16254543 -0.31456536
 -0.328211    0.03538223  0.16603339  0.20814432  0.10666587  0.2705893
  0.15944453  0.242312  ]
[-0.07469491 -0.14852993 -0.01854299 -0.1252609  -0.29832342  0.19449188
 -0.11843446  0.16219033  0.26380745  0.04657426  0.09248239  0.0965369
 -0.15005602  0.16111709  0.06019507  0.20013848  0.22566469  0.20160306
  0.30354515 -0.09472644]
[ 0.26174554  0.07655588  0.19212738  0.22650582  0.11533739 -0.24102984
  0.11761511 -0.163165   -0.28929    -0.2948917   0.04761804  0.04229868
 -0.16020395  0.2436354   0.00533018 -0.0264773  -0.14129752  0.52022374
 -0.0739413  -0.2434182 ]
[ 0.28524107 -0.17734307  0.140818   -0.08674533  0.30502814  0.3013811
  0.17074902 -0.19210462 -0.37384224  0.334654    0.19597276  0.11260819
  0.11018241  0.2234103  -0.42704937  0.15518008 -0.04894821 -0.00044058
  0.26157367  0.18685041]
[-0.18113266  0.24631989 -0.26938748 -0.15118928 -0.32704768  0.0524075
  0.07082304  0.20116791  0.30476826  0.1307224  -0.24937963  0.24663897
 -0.1579013  -0.14964598  0.29475433  0.25676024 -0.140656    0.2868288
 -0.323712    0.27361354]
[ 0.16569692  0.0547617  -0.03583628 -0.08377232  0.11155117  0.17082648
 -0.2224719   0.28762928 -0.3405749  -0.17369255  0.0928787  -0.213205
 -0.06285437  0.08928707  0.15403439 -0.13316001  0.14882034 -0.08985207
  0.18339269  0.0400382 ]
[ 0.04909471  0.06220694 -0.03908778 -0.02145587 -0.02554686 -0.0168722
 -0.06090498  0.03747302  0.04176173 -0.02020432 -0.01209941 -0.01953945
 -0.03843709 -0.05630881  0.02186463  0.00810345  0.02242579  0.04602969
  0.01017827 -0.00229291]
layer 5 Activation
tanh
layer 6 Dense
20 1
[-0.22616506]
[0.22157341]
[-0.11002701]
[-0.00653505]
[0.3165049]
[0.28796577]
[-0.33794218]
[0.19817144]
[-0.2983494]
[0.1143279]
[-0.03833047]
[0.00163241]
[-0.22091688]
[-0.39662957]
[-0.27633893]
[-0.00426631]
[-0.00346018]
[0.10713705]
[0.18286033]
[-0.00499525]
[0.01052301]
