layers 7
layer 0 Dense
20 20
[-0.53775096  0.11271108  0.24704012  0.14917631  0.37929416  0.05677184
 -0.1381402  -0.16876863 -0.14664017 -0.43829787 -0.05480625 -0.43228656
 -0.02099139 -0.14003105  0.19233926  0.19265121  0.34683207 -0.24972863
  0.2761613   0.14015785]
[-0.21769476  0.22777078  0.19511986  0.16495024  0.00822042 -0.52816266
  0.53512985 -0.02581216 -0.44122496  0.3996154  -0.2722143  -0.20010614
  0.08518866 -0.13096324  0.07357085  0.22453865 -0.6746357   0.2624994
 -0.39022803 -0.508721  ]
[-0.08484862 -0.14415707 -0.5369296  -0.25295693  0.12644652 -0.369929
  0.2691836  -0.42927226 -0.25853738  0.4189943   0.31384763 -0.33905572
 -0.02488522 -0.47041708  0.48940057 -0.11489138 -0.1787406   0.07068933
  0.21704668 -0.48272732]
[-0.00159766 -0.24781711  0.06289096  0.28038412 -0.4006262  -0.17511614
  0.30467084 -0.17350565  0.2936601  -0.25105262 -0.19688068 -0.01734481
  0.40430057  0.3055287  -0.36434418  0.15665296  0.03747492  0.33468282
  0.25656715 -0.34261635]
[ 0.25556684 -0.15989691 -0.32740864  0.10970479 -0.3899529   0.20990309
 -0.10165805 -0.10136229  0.3125122   0.12642242 -0.23889214 -0.6968021
  0.33635244 -0.42029485 -0.43493953 -0.133124    0.15330733 -0.11194707
 -0.01481349 -0.16126892]
[ 0.14019074 -0.06808209 -0.10372575  0.07893493  0.12155554  0.21807788
 -0.46192136 -0.12618515  0.42427891 -0.48094612 -0.02944752 -0.28699586
 -0.32908428 -0.04943933 -0.05344554  0.14354898  0.53887147 -0.4003024
  0.16980517  0.24861743]
[ 0.1009749   0.10257596  0.34365562  0.284389    0.27040282  0.11225674
 -0.2091367  -0.16742587  0.06843718 -0.46893215 -0.18022859 -0.4350857
 -0.3040353  -0.06139152 -0.38340026 -0.20422511  0.42590204 -0.32192308
  0.26672044  0.1941053 ]
[ 0.30036756 -0.06189063  0.20667711  0.4780089   0.06673582 -0.13588525
  0.00885431  0.49194583  0.11118896  0.09227263 -0.10750619 -0.30286092
 -0.27175248  0.04073862  0.390915    0.3181716  -0.3156673  -0.07230381
  0.25399226  0.2674236 ]
[-0.27857715  0.2433171  -0.02236754 -0.06486848  0.48933923  0.38971335
 -0.06025562  0.10067788 -0.14624111  0.24777897  0.38640985 -0.36495045
  0.3102222   0.06631526  0.27298087  0.04165107  0.05866332 -0.2840162
 -0.28403926 -0.0506805 ]
[-0.10716759 -0.13769795 -0.1120059   0.19236839  0.05941911  0.25242165
  0.06406073  0.01981186  0.02298377  0.06285783 -0.29715168 -0.206457
 -0.00904869  0.05351414 -0.27424243  0.03325723  0.0459325   0.2617146
  0.29646912  0.32387754]
[ 0.29615164  0.07928994  0.275967    0.30130333  0.24736577 -0.14012419
 -0.06586418  0.11248787 -0.10704894  0.42697954  0.2727519   0.01255204
  0.2360144   0.10073433 -0.26857013 -0.252622    0.18298972 -0.3318974
  0.11799094  0.26924527]
[ 0.12364202  0.01847021 -0.23025315  0.24639653  0.33821988 -0.04345279
 -0.09619881  0.16799128  0.28213605  0.24164727  0.03722366  0.365221
  0.33273923  0.35950193 -0.03417645 -0.31072977  0.12429561 -0.06334388
  0.16555363  0.47404435]
[ 0.1023901  -0.38371244  0.5151545  -0.18117528 -0.4305919  -0.4796065
  0.19732791 -0.57956743  0.04856882 -0.2546612  -0.31048882 -0.40603256
 -0.32375753 -0.40695208 -0.45310527  0.14146261 -0.11244722  0.14297353
  0.25418758 -0.26278502]
[ 0.19091421 -0.0699743  -0.54727095  0.11542741  0.00137107  0.02046913
 -0.19489634 -0.15614747  0.18725184 -0.35523668 -0.1319736   0.15512362
  0.19426474  0.0130401   0.26009417  0.07818187  0.13952863  0.10664263
  0.30555898 -0.31237236]
[ 0.17495775  0.09902968 -0.38835377 -0.33904603 -0.2805083  -0.09983834
 -0.1267821   0.00174842 -0.00922031 -0.26556262  0.35195392 -0.29419836
  0.4850288   0.19723251  0.17817865  0.1566457   0.1511012   0.02460026
  0.08962879 -0.37016377]
[-0.40248218 -1.0721213   0.93332887 -0.0740614   0.21555965 -0.12194363
  0.53297555 -1.2429421   0.615674    0.02950772 -0.25293273 -0.08908573
  0.1659098  -0.24875335 -0.48206183  0.3256582  -0.45499998  0.47950983
 -0.10894058 -0.74737245]
[ 2.3917820e-01  6.5261155e-01 -2.1529862e-01  8.2909591e-02
 -1.8626553e-01  3.6200517e-01  2.3237935e-01  4.3388799e-01
 -1.6618064e-01  2.0628047e-01 -2.2073535e-02 -4.5633590e-01
  5.7182032e-01  8.2255408e-02 -8.3755180e-03 -5.4054193e-02
 -7.5763586e-05  1.6563061e-01  1.6502164e-01 -4.6478521e-02]
[-0.5515815   0.16080561 -0.04643674 -0.1294822  -0.30110297 -0.272352
  0.28791884 -0.12483843  0.23772058  0.24463244  0.17669632 -0.1288034
  0.32724357  0.3271877  -0.1437148   0.06351592  0.16377433  0.19187422
 -0.3305089  -0.13358739]
[-0.0300984   0.3461389   0.17448309  0.15757042  0.30992156  0.22662576
 -0.21742171 -0.19690101 -0.11755562  0.00162492 -0.2095109  -0.07151229
  0.26700187  0.18258235 -0.3423965  -0.20773247  0.3619982   0.22900896
 -0.22272494 -0.03448268]
[ 0.10733844  0.61353195 -0.01403367 -0.05862363  0.41016525 -0.22033149
 -0.18190083  0.2043957   0.01219307 -0.2336321   0.45711514  0.2495839
  0.33185703  0.02296942  0.15776265  0.05382949  0.4191541  -0.19845563
 -0.40496677  0.4654879 ]
[-0.06332006  0.03271283  0.04742851 -0.12066443 -0.10532334  0.00392493
  0.03452723 -0.08605517  0.00760113  0.01828711  0.04930114  0.06302502
 -0.04525656 -0.08738168 -0.08858445 -0.03973024 -0.04941735  0.03572634
  0.01918015 -0.05771718]
layer 1 Activation
tanh
layer 2 Dense
20 40
[ 0.06993921  0.12037516  0.07965511  0.22777556  0.23760656 -0.20297037
 -0.17578419  0.26422086  0.03438761  0.18762209 -0.4009316  -0.19463237
 -0.1867331  -0.17305341  0.01146623 -0.11637337 -0.1907832   0.0051878
 -0.12217472  0.35671732  0.32337704  0.41935736 -0.16906987  0.19552231
  0.1769791   0.00747759 -0.10312027  0.06715612  0.16006966  0.05944723
 -0.22362785  0.3438667  -0.14822926 -0.21127024 -0.10481074 -0.30378756
 -0.12207424 -0.10267431  0.23770937 -0.01363387]
[ 0.20079374 -0.117636    0.18096954  0.23831709 -0.13560122 -0.20334224
  0.28274518 -0.02613128 -0.08328965  0.34097943  0.00852863  0.07898573
 -0.05434553 -0.11342639 -0.24492398 -0.20149027 -0.18854871 -0.09753892
  0.02417684  0.28109056  0.14614113 -0.20626885  0.2653754   0.05061481
 -0.15140988 -0.09224508  0.38892075 -0.21606539  0.05792829  0.33023444
 -0.02336258  0.1334795  -0.16399433 -0.16935977  0.18281433 -0.20482345
 -0.20600943 -0.0630912   0.24048391  0.14969489]
[-0.3918075  -0.08485207  0.15695103  0.05070176  0.11225043 -0.07644492
  0.2553725   0.02998231  0.27805853  0.4212567  -0.09528685 -0.3150479
 -0.02482327  0.09129927  0.26278025 -0.250785    0.402073   -0.09847451
  0.23814565 -0.22203492  0.06128875 -0.03623397  0.13393311  0.06192938
  0.07381225 -0.21652234 -0.13468917  0.20869103 -0.19301924 -0.13099758
  0.09471335 -0.21001333  0.08355963  0.2784917  -0.03348102  0.0893793
  0.23231263  0.09401676 -0.06423125 -0.19712916]
[ 0.10227602 -0.07336835  0.05514037 -0.28556985 -0.0227823  -0.02231235
  0.12867099  0.06879513 -0.1163331  -0.10539088  0.22561485 -0.11401737
 -0.07168972 -0.25372863 -0.24193564  0.15421954  0.11786781  0.00708769
 -0.04897011 -0.04584974  0.1363235   0.10312194 -0.12722951 -0.32315308
 -0.12696008 -0.07081409  0.01909743 -0.23841192  0.21063074 -0.20953792
  0.11799797 -0.12401249 -0.25191766  0.21888635 -0.14748523 -0.00110707
 -0.17878442 -0.27393925 -0.0408874   0.03493444]
[-0.04807773  0.26274553  0.24604693 -0.11905523  0.07183564  0.2836136
  0.2370399  -0.24887489 -0.31079912  0.26582015 -0.14867334  0.10349444
  0.18986149 -0.18658169 -0.38331974 -0.28793105  0.0912752   0.16425022
  0.0865889  -0.20640858  0.19589636 -0.2560826  -0.11388416  0.0651399
  0.17655791  0.16225584 -0.3361021  -0.27964878  0.07746999  0.14678575
 -0.03528702 -0.16180164  0.20910637 -0.0815282  -0.29076993  0.18775325
  0.0382475  -0.19446641  0.13096848 -0.11453838]
[ 0.18574362  0.04408722 -0.05076723  0.22270529 -0.0248849  -0.2816649
  0.22389632  0.18136403  0.03427325  0.24497737 -0.0039873  -0.11453637
 -0.06095358  0.27870136 -0.09552522  0.12649076 -0.1180155   0.03679592
  0.16484948  0.22911777 -0.2425862   0.14146098  0.16459571  0.10904484
  0.00309145  0.17897616  0.14072908  0.23757929  0.217632    0.04011503
 -0.0296394  -0.06988161 -0.19243598 -0.20465891  0.18429117 -0.12640719
 -0.2113205  -0.31898516  0.09124186 -0.10151371]
[-0.07779207  0.1709804  -0.05575067 -0.20946647  0.26964006  0.1074272
  0.24741146 -0.13972916  0.0458075  -0.00145778 -0.08769418  0.01820897
  0.11733833  0.37130085  0.33811125  0.03053692 -0.23956558  0.23266365
  0.26227742 -0.22083169 -0.08431847 -0.2597342  -0.23838612  0.01825584
 -0.02087091 -0.20586306  0.15798119  0.16800623  0.15929699  0.30073842
  0.11360353 -0.41856524  0.08514029  0.02278072  0.20056549  0.08865394
  0.3071626   0.05160849 -0.0884194  -0.2515069 ]
[ 0.40235376 -0.19410822  0.08688567  0.34596983 -0.39899787 -0.16064757
  0.2530951  -0.25298646 -0.33925122  0.32752258 -0.00628335 -0.08432943
 -0.20683013 -0.10927469 -0.65223813  0.35447162 -0.33209416  0.28033954
 -0.13087067 -0.02551216 -0.19252631  0.32588273 -0.07166316  0.02205914
 -0.12288942  0.13695161  0.3802562  -0.03399207  0.0987606  -0.01971296
  0.11732733  0.29189852  0.29177842 -0.04131228  0.11295535  0.24726896
 -0.17690346 -0.32426104 -0.1105394  -0.05350819]
[ 0.13800123 -0.05079538 -0.10987425 -0.18932675  0.05543578 -0.04862441
 -0.17057613 -0.1633147  -0.28643176 -0.23378101 -0.15940243 -0.01379643
 -0.14018151  0.22974633 -0.10707728 -0.21476954  0.08928666  0.03237793
  0.23546225  0.15199749 -0.27020717 -0.0303505  -0.13213708  0.08567335
  0.20992148 -0.20903915 -0.06019707  0.20450199  0.09912047  0.01829944
  0.02844371 -0.35039702 -0.2785767  -0.29379174 -0.160927    0.0069334
 -0.01265755 -0.19359542  0.38088587  0.09667889]
[ 0.18253587  0.3178376  -0.37859195 -0.19992368  0.26115996 -0.37847435
  0.0555623   0.15494184 -0.24001762  0.1810822   0.03883526 -0.00039459
 -0.07167915 -0.09790015 -0.2906468  -0.1918652  -0.06792139  0.15129344
  0.12798502  0.05564215  0.11946798 -0.33441713  0.07094818 -0.0401134
  0.26102188 -0.22065638 -0.16572487  0.2198303  -0.20089172  0.18926378
  0.15864289 -0.1193222  -0.18514584 -0.20756197  0.13743623 -0.03053696
  0.09746381  0.02958361  0.27066994 -0.043792  ]
[ 0.1441326  -0.30118155 -0.19626427 -0.06739929 -0.25568515  0.2204401
  0.26062796  0.02275814  0.03602744 -0.2106013   0.10415629 -0.04655864
 -0.05476445  0.25884694 -0.04132955  0.32844177 -0.19779907 -0.02051207
  0.33577162  0.02772824 -0.14217974 -0.1559734   0.03332749  0.01704232
  0.0632366  -0.30334908 -0.13057482  0.083651    0.13875623 -0.15084039
  0.28215912  0.10849356  0.13833211 -0.17168188  0.094458    0.01536514
 -0.31253973  0.2627344  -0.08449938  0.24835698]
[ 0.21980391  0.0194068   0.33524075  0.314437   -0.1131832   0.09776139
 -0.05720749  0.20405066 -0.25871348  0.10379211  0.06157432 -0.03442128
 -0.13246582 -0.25993228 -0.19522817 -0.2402739   0.05715168 -0.12496069
 -0.03070795 -0.15290017  0.00169064  0.23744603  0.05865175 -0.09597625
  0.2898484   0.16833119 -0.33603355 -0.3221414   0.1158003   0.07745389
  0.29558456 -0.16831328  0.16566792 -0.10062423 -0.08146115  0.19679102
  0.08960879 -0.13375035 -0.24209556 -0.02932805]
[-0.03755267 -0.05239852  0.07663096 -0.00107441  0.27893072 -0.0904094
  0.21903326 -0.18241146  0.19127855  0.13092557 -0.03861392 -0.22988692
 -0.26588285  0.06069005  0.09736227 -0.11404335 -0.41814715 -0.22618784
  0.18135424 -0.21017559 -0.07915685  0.25918496 -0.20435746  0.03376264
 -0.28459308  0.20462656  0.52308047  0.07995143  0.1023951   0.2821929
  0.06683527 -0.18970212  0.2951445  -0.36435804  0.15000768  0.0388949
  0.15024142 -0.01743784  0.14279835  0.0150906 ]
[ 0.03414074  0.07454327  0.19761114 -0.23564969 -0.35748032  0.01863538
  0.26441455 -0.06112504  0.29783556 -0.14735243  0.11466573 -0.00757578
  0.10683495 -0.11325999 -0.18932039 -0.23124874  0.27157822 -0.14369364
 -0.02972356 -0.21104676  0.15682116 -0.0214083  -0.29364672  0.00700068
 -0.26367414 -0.22226353  0.26568937  0.25666294  0.09210519 -0.09243485
  0.12624314  0.28515783 -0.17473581 -0.18885562 -0.06022911 -0.0278278
 -0.12356983  0.25127253  0.26085946  0.11713106]
[ 0.01439044 -0.1292333   0.14639679 -0.04070184 -0.0960128  -0.26761636
 -0.22019897 -0.14632264 -0.0258767  -0.15687913  0.25177202 -0.29862648
  0.24730441  0.1269613  -0.2861922  -0.11638574 -0.17278974  0.05512115
  0.25681445  0.28510126 -0.16805494  0.07216404  0.0983802   0.03636367
 -0.09779055  0.33706355 -0.37090075 -0.04154222  0.20697889 -0.07127008
 -0.11039048 -0.01445537  0.3567729  -0.3066054  -0.01962979  0.23285064
 -0.29259434 -0.25994092  0.2089637  -0.33658975]
[ 0.13530283 -0.07113989  0.06565222  0.26730487 -0.10193607 -0.17620714
  0.08059611  0.16348329 -0.1480646   0.22804628 -0.1803527   0.1156702
  0.45618406  0.22840206  0.04223089 -0.05908948  0.05883739  0.18792516
 -0.00570841  0.19380818  0.12832418 -0.23004901  0.12497331 -0.2966435
 -0.20741948 -0.16708493  0.171788    0.0360865   0.01378863  0.20678085
  0.15676421  0.16504614  0.04249049  0.06483031  0.04217754 -0.0328924
  0.21720123  0.10314958 -0.17764533  0.213241  ]
[ 0.21230295 -0.00251827  0.19877587  0.15904956 -0.07770986  0.20347467
  0.33580247 -0.15829165  0.1450478   0.26475877 -0.01549097 -0.02555988
 -0.16340746  0.1774237   0.16698651 -0.04002101 -0.01241812 -0.14235388
  0.20589189  0.18025196 -0.2527855   0.06750751  0.20151211  0.06521114
  0.05207669  0.21781445  0.2185529   0.11919221 -0.13845398 -0.0917293
  0.08206246 -0.01409625  0.13082252 -0.23090674  0.1730556  -0.14031488
  0.26411307  0.18871213 -0.2424612   0.06573123]
[-0.07584374 -0.19461809  0.24274819 -0.09088377  0.01907823 -0.2348855
 -0.25518733 -0.01760883 -0.13747603  0.0465979   0.2736362  -0.04655319
 -0.15498729 -0.10091735  0.32513887  0.04564248  0.06442758  0.1673099
  0.1415463  -0.06582262 -0.0881391  -0.06248916 -0.12305319 -0.17969218
  0.09193684 -0.05807912 -0.12412671  0.02564972  0.238425    0.04395141
  0.0450153  -0.2865966   0.14790668 -0.06198289  0.17230172 -0.1087253
  0.34094167 -0.04587734 -0.09742357 -0.23018767]
[-0.31836292  0.28370714 -0.20884626  0.14999019  0.3389693   0.32503602
 -0.2363093  -0.16216615  0.00177086 -0.24228634 -0.1564179   0.07652501
 -0.32630438 -0.2760506   0.12554483  0.16943656 -0.22605571  0.10413828
 -0.00355817 -0.33869398  0.2241208  -0.13825358 -0.2935564   0.13619478
 -0.02402177  0.19795832  0.00892269  0.09456388 -0.03008011 -0.18903075
  0.08297959  0.13969836 -0.05942257 -0.12938982 -0.18639809 -0.08467954
  0.00637183 -0.00883973 -0.0968003  -0.09940604]
[ 0.20290318 -0.21062271 -0.27814943  0.10466744  0.17550239  0.07295831
  0.28819093 -0.1635784   0.09829541 -0.04962138  0.02837437  0.06545509
 -0.10182109 -0.12104374 -0.32008442  0.3319125   0.19896005 -0.15549816
 -0.04298724 -0.39518854  0.11139171  0.17944327  0.247433    0.38636318
  0.15115793  0.17209986  0.24811295 -0.14819121 -0.2524812  -0.06709418
 -0.01994357  0.21606012  0.00646894 -0.03243127 -0.15114549  0.09722333
 -0.09909373 -0.16657491 -0.02589961  0.06091725]
[-0.0153129  -0.0250667   0.0661605   0.05167162 -0.05164606  0.09545486
  0.01002615  0.00439802  0.01213064 -0.03705579  0.07901414 -0.0004467
  0.11601228 -0.03674265  0.07797714  0.04413159 -0.00546577 -0.05068602
  0.02786593 -0.1230203  -0.04376652 -0.08019609 -0.03344559 -0.01614445
  0.03903817 -0.01813229 -0.04812234  0.05205125 -0.06050261  0.00513999
  0.06581397 -0.0094245  -0.0411328   0.02829145  0.10207678  0.02637601
  0.02512384  0.04281728  0.00345429 -0.00854995]
layer 3 Activation
tanh
layer 4 Dense
40 20
[ 0.19694279 -0.18455866  0.074504    0.3266634  -0.11264361  0.02090011
  0.14515223  0.24086088 -0.13371137  0.1973496  -0.19009838 -0.2148472
  0.20553397  0.09295075 -0.27514848  0.273796    0.1330325   0.08782002
 -0.26819924 -0.07022769]
[ 0.06879827  0.10715801 -0.29132083 -0.11229373  0.305081    0.12530582
 -0.06082113 -0.18395472 -0.10925539  0.01167575  0.03093712 -0.13325156
  0.12247156 -0.17353413 -0.2012352  -0.09115924  0.00790173 -0.16129522
  0.11654212  0.10155858]
[-0.2571531  -0.28981254 -0.25084502 -0.10292375  0.30936047  0.01036125
 -0.02324073 -0.05620624 -0.21409434  0.18879734 -0.06741585  0.09387849
  0.19760309 -0.06963606 -0.05502262  0.1221128   0.09083386  0.35311526
 -0.194778   -0.12359868]
[ 0.1327136   0.3041581   0.28640354  0.03492954  0.03261212  0.14840618
 -0.20485534 -0.1878984  -0.17198808  0.17400265 -0.06752528  0.23781756
 -0.16109452  0.3004952  -0.27672464 -0.1505494  -0.0279516   0.01601657
 -0.00045706 -0.42625782]
[-0.20024152 -0.18201369 -0.15483479  0.02717682  0.00370312  0.01950177
 -0.10409741  0.33556423  0.36015794  0.15640542  0.27345106 -0.2126171
 -0.24622896  0.3284519  -0.24515364  0.07839018 -0.28667852 -0.3030693
  0.11116257  0.11424141]
[-0.1536298   0.2045964   0.20038143 -0.3167071   0.12134688 -0.13796781
 -0.09974483  0.07899474 -0.12555602  0.13894661  0.11222191 -0.14135537
 -0.27809793  0.07012065  0.05113948 -0.24825148  0.22065349 -0.03107351
  0.15151577 -0.3524831 ]
[-0.21443646 -0.26094383 -0.06678932  0.16513143 -0.00777848  0.06081367
  0.15768263 -0.29285786  0.23787843 -0.06762762  0.3629988  -0.15994422
 -0.24711771 -0.12415497  0.02170587 -0.25835192 -0.10575935  0.03733421
 -0.32620066 -0.20551428]
[ 0.20684661  0.1235158   0.0831753  -0.19937082  0.0122016  -0.0523391
 -0.05591083  0.02252955  0.20790525  0.02880228 -0.12079694  0.00972497
  0.08287     0.04956632 -0.34088257  0.07536717  0.15753059 -0.16103698
  0.02317581  0.36963037]
[-0.0334952  -0.26026478  0.294382   -0.13361087 -0.2434961   0.18275626
 -0.21118861  0.27334198  0.23722965 -0.21531442  0.12199484  0.0422496
 -0.0423112  -0.12781842  0.14287043  0.12258255  0.36907345 -0.15449229
 -0.19957486 -0.12939477]
[ 0.22734918  0.2661578  -0.26699725  0.18639722 -0.00222094  0.21739767
 -0.09553172  0.00520579 -0.00907418 -0.22019202  0.2832116  -0.00360584
  0.11509029 -0.07445375  0.03300431 -0.11651873 -0.2692595  -0.29445913
  0.02085225  0.31475562]
[-0.02561824  0.01894923  0.02685494 -0.07416843  0.0872318  -0.04550104
 -0.06895207 -0.19137633 -0.15032959 -0.10610484 -0.1708209   0.0884084
 -0.14265051  0.0451262   0.06305517 -0.11611049 -0.15062937  0.32527396
  0.02501152 -0.0457254 ]
[-0.16720633 -0.06776611  0.01054421 -0.14697236 -0.09818286 -0.08659343
 -0.13714105  0.22781993  0.03277356 -0.20205991 -0.0446179   0.2403264
  0.04049513 -0.07114617 -0.05996813  0.28946933  0.25021675 -0.05780627
 -0.07896789  0.27363482]
[ 0.01898217  0.24372141  0.02364371 -0.06386254 -0.2621394   0.12585613
 -0.07401378 -0.20365286  0.06698358  0.28536436 -0.07750086  0.01134264
  0.18620643 -0.20514381  0.3074719  -0.02744935  0.06607669  0.30074838
 -0.18060118  0.09072141]
[-0.09343619 -0.27837402  0.29848972  0.02626745  0.08279863 -0.0798194
 -0.10756648 -0.06989094 -0.09042046 -0.06612949 -0.19750467 -0.01840002
  0.03298938 -0.17956142  0.3734989   0.35134944 -0.04645289 -0.20026563
  0.11495461 -0.19208336]
[ 0.01608834 -0.04858926 -0.06658829 -0.4789799  -0.08525737  0.277859
 -0.23684107 -0.2869991  -0.04503221 -0.21497555 -0.23104863  0.10001821
 -0.02650961  0.14957882  0.2140541   0.14164309  0.0178101  -0.22855459
  0.12342616  0.4734184 ]
[ 0.02140811  0.02754666  0.13439082 -0.03629844 -0.25261983 -0.14313658
 -0.23229334 -0.10239127  0.07044481 -0.02984197  0.11940308  0.16839218
  0.12517199 -0.19780762  0.00607368 -0.24705605 -0.22725739 -0.0213618
  0.22513624 -0.19253704]
[ 0.05027005  0.09001557 -0.3449625  -0.3718926  -0.2547296   0.09471153
  0.07088938 -0.00159982 -0.11017432  0.07538975 -0.2419932   0.07240454
 -0.04225929  0.22218414  0.2986398  -0.35947442  0.16334699  0.1503768
 -0.32557565  0.1001649 ]
[ 0.22821648 -0.21594211  0.2216046   0.17956474 -0.2617134   0.19855447
 -0.10336767  0.01436668  0.18213515 -0.11569025 -0.03303834  0.20197101
 -0.03636469 -0.20265214  0.12646136 -0.09350333 -0.0599457  -0.2388212
  0.06756777 -0.00963462]
[-0.25749484  0.38975367  0.07939899 -0.06908353 -0.17135824 -0.04390191
  0.14588176  0.07403257 -0.04567776  0.27126804  0.13992782  0.05909112
  0.23502389  0.33605605  0.23940264 -0.02107575  0.16470753 -0.13877569
  0.09261096 -0.19393842]
[ 0.33621722  0.06233734  0.08527813  0.1576359  -0.22328381 -0.08708002
 -0.16951628  0.25806773 -0.34298766 -0.06116383 -0.20391102 -0.23571546
 -0.10675738  0.02959407  0.02424654  0.33257517 -0.23665445  0.07164622
  0.07758148  0.268354  ]
[ 0.21787098  0.18780287 -0.05346715  0.0729242   0.12265022 -0.08736104
 -0.11301161 -0.1692286   0.06318481  0.12482112 -0.02112323 -0.2843583
  0.09243722  0.05060707 -0.12197582 -0.3034842  -0.0774064  -0.16903476
 -0.044706    0.07382267]
[-0.0006848   0.06038708  0.03861139  0.10197701 -0.0762691   0.36509043
 -0.09513392 -0.05554416  0.12524663  0.19655679  0.00868041 -0.01703703
 -0.20988071 -0.2496942  -0.44917867  0.02077211 -0.21702273 -0.02694909
 -0.00315823 -0.356596  ]
[ 0.09180471 -0.00097418 -0.21301033  0.15426508 -0.19205144 -0.08610384
  0.31277874  0.13577716 -0.09989275  0.23205519  0.01161282  0.24888894
 -0.09318741  0.22812289  0.11943273 -0.08413036 -0.32742065  0.183203
  0.1478151   0.31241584]
[ 0.09172938 -0.22140223  0.14525196  0.05526278  0.23034221  0.06978919
 -0.06332234 -0.21561216  0.23747762  0.1112998   0.2885942   0.23011546
  0.06839596 -0.13244298 -0.18301623 -0.32268903 -0.22804856 -0.24833165
  0.20137519 -0.0843896 ]
[ 0.21777296 -0.10153522 -0.05246012 -0.32662162 -0.3112067  -0.03473242
 -0.04598244 -0.26674056  0.01097117 -0.12590644 -0.01150841  0.28346375
 -0.17117874 -0.16093044 -0.265091   -0.18610406  0.02046265  0.11908157
 -0.06623228  0.16952613]
[-0.07598823 -0.03798926 -0.02889141 -0.09545124  0.08522217  0.07317389
  0.15616754  0.1351432  -0.28565162 -0.32300964 -0.1770429  -0.05096612
  0.04309303  0.06954643 -0.39473912 -0.02921396 -0.07239268  0.02532602
 -0.06637108 -0.35758004]
[-0.04447225  0.2560089   0.2921356   0.16841315  0.10419506  0.10426057
 -0.07554609 -0.1638579  -0.06178789 -0.07030618  0.3393885   0.01592642
 -0.20943649 -0.08412489  0.3067948   0.26209772  0.01016254 -0.05424336
 -0.01773581 -0.02963162]
[-0.00978327 -0.10005058  0.22316007 -0.0540925   0.20321667  0.17793937
  0.06992755 -0.14334404  0.07803115  0.25532433 -0.22223891  0.1446425
 -0.05885191 -0.1459447   0.17784348  0.01534465 -0.088332    0.32316947
 -0.02289511  0.08296111]
[-0.04022916 -0.24956328 -0.13089241  0.16955006 -0.23942761 -0.05072512
  0.09508499 -0.19828694 -0.20561776  0.32761624 -0.00707379 -0.15683636
 -0.20133245  0.08451109 -0.16772509  0.21057442 -0.21576537  0.03430643
  0.06555566 -0.1249347 ]
[ 0.17202793 -0.2520147   0.00406283  0.04119319 -0.11060882  0.12206399
 -0.03376248 -0.06336056 -0.10591538 -0.24815662  0.25917095 -0.23945214
 -0.2166716  -0.2745509   0.02093689  0.30086982 -0.04053074 -0.30875555
 -0.2212836  -0.15579692]
[-0.06100683  0.15169868  0.1709702  -0.16824046  0.01230101 -0.2949619
 -0.1626093   0.03530603 -0.00159494  0.23523588 -0.10258006  0.16884795
  0.23381144 -0.08675522  0.20750985 -0.32812414  0.34298965 -0.0601636
 -0.28601834 -0.3259636 ]
[ 0.2556784  -0.08484679  0.3006653   0.07751384 -0.0024081  -0.02578505
 -0.05513994 -0.01135956 -0.06719559 -0.04229986  0.0393912   0.2331019
  0.06935773 -0.21441394 -0.36320865 -0.09967604  0.14353961  0.11100686
  0.22852185 -0.18737537]
[ 0.24878812 -0.10589472 -0.1067606   0.27333874 -0.01229826 -0.09293376
  0.22387934  0.18089658 -0.12890233 -0.13196649 -0.02977075 -0.08929227
  0.15081301  0.23724853 -0.1995295  -0.26937076  0.10763784  0.23797376
 -0.14730386 -0.25294572]
[ 0.21372668 -0.12995178  0.20136905 -0.14157823  0.27792153 -0.25346372
 -0.09735438  0.12469089  0.18256222  0.10856079  0.19117223 -0.2250236
  0.06395219 -0.22553794  0.22122121  0.05722088 -0.2722739  -0.18375868
 -0.00501437  0.47239205]
[ 0.04539769  0.1728372   0.3076715  -0.11614303 -0.08771846 -0.22524972
  0.12204751  0.21486409  0.07553716  0.1651786   0.02814719 -0.12128548
  0.24660043  0.12617199 -0.10433932  0.10554519  0.14490727  0.20183659
  0.00250875 -0.1450566 ]
[ 0.10668791 -0.11508927  0.26546094 -0.09446751 -0.02955303 -0.2609361
  0.08858968  0.11713415  0.1289811  -0.14660159 -0.16316323  0.03435778
 -0.317412    0.13178004 -0.01409336 -0.25492623  0.37934393  0.03972035
 -0.3366818  -0.20227472]
[-0.33727863 -0.2818374  -0.17634    -0.08990689  0.16562513  0.30530223
  0.30191314  0.28102717  0.27564168  0.18368821 -0.11264765  0.2224667
 -0.3097242   0.11187794  0.14361082  0.26681828  0.26541936  0.00989333
 -0.1474102   0.21797174]
[-0.07931941  0.25462434  0.20399871 -0.19879536  0.10155889 -0.27194276
  0.26802695 -0.21487331 -0.02221844 -0.10198597 -0.15746942 -0.19134304
  0.04747985 -0.01179839  0.36259472 -0.03899792  0.13379323  0.30409652
 -0.11227841 -0.17363054]
[ 0.08909875 -0.00933233  0.10577203  0.23307176  0.2846842   0.11218564
 -0.25362822  0.06592864 -0.02196891  0.2385762  -0.17569445  0.1892582
  0.0920188   0.2984785   0.21226162 -0.02717801 -0.14510058 -0.24659872
 -0.08049218  0.20049754]
[-0.04416325  0.06496374 -0.03057335 -0.13551258  0.08561961 -0.04619156
  0.05407123 -0.1649354  -0.30834457 -0.03175095 -0.03509867  0.21441077
 -0.18474817  0.12208597  0.20278361  0.18460602  0.00166024 -0.1271007
 -0.23784904 -0.05180531]
[-0.1227643  -0.04296925  0.05014012 -0.01216141 -0.0227054   0.07519264
 -0.07514685  0.03568847 -0.05244889 -0.02160462  0.03652336 -0.04358924
  0.01358138 -0.01851772 -0.04615531 -0.06354304  0.09901103  0.04677008
 -0.06660246  0.04174619]
layer 5 Activation
tanh
layer 6 Dense
20 1
[-0.16645841]
[-0.0080498]
[0.12267207]
[0.22924434]
[0.01684329]
[0.00734806]
[0.00394626]
[-0.00456619]
[-0.14457004]
[0.00076283]
[0.1261496]
[-0.02532309]
[-0.00601524]
[0.00388628]
[-0.05902109]
[-0.086873]
[0.03087123]
[0.04127]
[-0.09268633]
[0.03531206]
[0.07208671]
