layers 7
layer 0 Dense
20 20
[ 0.35097086 -0.7804107  -0.12453419  0.17105743  0.90082973  0.2706995
  0.36325926 -0.30616158 -0.376732    0.07306238 -0.01112952  0.313142
  0.3886251  -0.22904824  0.37559304 -0.64866996  0.25404418 -0.5288786
 -0.19549115 -0.20241427]
[ 0.5041006   0.06034563 -0.00568592  0.30056405  0.01154435  0.3514068
  0.8655611  -0.3175043  -0.17796756 -0.26001468 -0.23400278 -0.3638406
  0.29995993 -0.03292262  0.04270888 -0.05620985 -0.24082915 -0.5696483
  0.06121848 -0.09359054]
[ 0.24498758  0.14306194 -0.04605896  0.15747015  0.10799509  0.04659521
  0.7997765  -0.14703868 -0.53118765  0.08353831  0.28281066 -0.35645458
  0.5700984  -0.1222989   0.05936309 -0.45257533 -0.06896511 -0.29537207
  0.20737939  0.2190927 ]
[ 0.55769736 -0.04743832  0.150538    0.3308248   0.78980345 -0.01392923
  0.43140802 -0.27684593 -0.5068854   0.12269925 -0.13232043  0.12939417
  0.11221197 -0.2772988   0.14816155 -0.1636524   0.66718185 -0.38724875
  0.15758187 -0.24108125]
[-0.10143384  0.13831632  0.15696946 -0.30417773  0.24281451 -0.15679121
  0.12490264  0.9090939   0.45890757  0.03444994  0.14161773 -0.5217831
 -0.34114802  0.42256495 -0.57865274  0.5025795  -0.10762108  0.27470157
 -0.12290277  0.46596217]
[ 0.00425188 -0.11819778 -0.32579458 -0.6898563  -0.39220646 -0.03643535
 -0.49147195 -0.08047886  0.80122215  0.00499879  0.2208201   0.7757828
  0.10781759  0.40607965 -0.74644786  0.00894075  0.20135352 -0.10901385
 -0.13309476 -0.03975582]
[-0.14933674  0.2697481  -0.5296575  -0.2789466  -0.09657738 -0.12779321
 -0.22702096 -0.1724798   0.8124     -0.00329864 -0.03352539  0.438943
 -0.14561564 -0.19387466 -0.6864429   0.5895013   0.46240377  0.2986953
  0.06623281 -0.2564373 ]
[-0.15514256  0.2877914   0.04783903  0.09553576 -0.4545236  -0.10916781
 -0.3091771  -0.31644112 -0.16461688 -0.13056718  0.11569264 -0.12390492
 -0.46007985 -0.01485983  0.02748821  0.02098928 -0.08957247  0.43810084
  0.22527559 -0.31691137]
[ 0.00619042  0.69502956 -0.25777695  0.14920214  0.23868024 -0.4731571
 -0.65663964 -0.33194456 -0.24983318  0.12317694 -0.07545502 -0.13255627
 -0.60468346  0.480733   -0.7827708   0.48563945 -0.20906223  0.5277877
 -0.18222065  0.40048277]
[ 0.47503564  0.38276657 -0.80986464  0.00168464 -0.4582336  -0.36611697
  0.3043178  -0.61987174 -0.12115936 -0.4260875   0.06196368  0.5473121
  0.18719733  0.188153   -0.46127492  0.457892    0.5613897   0.10335099
 -1.0074285   0.27664468]
[ 0.48592478  0.5174077   0.08771355  0.6015367   0.2459421   0.15766628
 -0.24724722  0.21390365 -0.06801993  0.18693562 -0.35424936  0.00308531
  0.06280533  0.20071238 -0.51661974  0.21456835  0.16143747 -0.31496912
 -0.04005721  1.0289272 ]
[ 0.2723976   0.6550287   0.5502665  -0.15383129 -0.9577441   0.41455892
 -0.79465985  0.27831233  0.6526415   0.18026738  0.03629683  1.5826317
 -0.4890552  -0.93459404  0.26084632  0.22256257  0.10029111  0.6820873
  1.338582    0.5788573 ]
[ 0.27331308  0.12928863  0.2560328  -0.19760096  0.23584288  0.07176463
 -0.51105386  0.3977073   0.67996067  0.2743419  -0.00839688 -0.24912949
 -0.62584054 -0.0360245  -0.01540415 -0.09250564 -0.37218493  0.25886235
 -0.05890438 -0.24460848]
[-0.6864231   0.6045904   0.18636271 -0.003644    0.43369332 -0.31088933
 -0.0059756  -0.14254954 -0.6604798  -0.39656252  0.2780421   0.25135612
 -0.2626859  -0.14594395 -0.6204313   0.5054437  -0.08668952  0.25440225
 -0.4561998  -0.24613057]
[ 0.69624543  0.2187268   0.15544651  0.56210554 -0.3251836   0.47767603
  0.4616299  -0.5910667  -0.32026765  0.5135444  -0.35310164  0.2378077
 -0.27322245  0.81204396  0.34126577 -0.31084436 -1.0852426  -0.07317602
  0.5395111  -0.21345605]
[-0.01545565 -0.02412037 -0.11183496 -0.26139858 -0.1134996  -0.49426982
 -0.13490456  0.7491951   1.1253762  -0.45517638  0.04180585  1.4444166
 -0.8144049   0.30200028  0.14939958  0.40879196 -0.55422527  0.5483466
  0.5268424  -0.61134565]
[-0.43881643 -0.6772859   0.2648389   0.46016875  0.8177874   0.2708343
  0.87505317  0.46909586 -0.6678927  -0.53837407 -0.3538007   0.0764708
  0.9887921  -0.47536263  0.7874905   0.1078528  -0.10882946 -0.88698137
 -0.13761657 -0.22680938]
[ 0.868971   -1.9617293   1.0335745   0.69112873  0.15339604  1.2664937
  0.3577499   0.1297229   0.7983126   0.44240418 -0.66318595 -1.4557906
  0.01778125 -0.5893623   2.111964   -1.8363682  -0.41122422 -0.22545853
  2.238124    0.2570654 ]
[-0.88201386 -0.00321364 -1.6225593  -1.6587672   0.61381584 -1.117616
  0.14502811  1.4340086   0.28760883 -1.0048414   1.3248345  -0.17288819
 -0.24473742 -1.5596473  -0.28274232 -0.42073733  2.2693484  -0.29926845
  0.21991734 -1.9149716 ]
[ 0.02855786 -0.47422424  0.14102449  0.43158552  0.31213853  0.44925264
  0.8836427  -1.2826825  -1.2645715   0.35319626  0.03868268 -0.77458763
  0.10615858  0.16522026  0.05969492 -1.5437032   0.49126336 -0.7103567
 -1.102123   -0.18328533]
[ 0.22850507 -0.1646914  -0.07691919  0.13664204  0.1284668   0.03961627
  0.20475952 -0.05282435 -0.13813213  0.00611351  0.13438995  0.0187956
  0.21045238  0.08583433 -0.01105554 -0.0820305   0.18195601 -0.1611872
 -0.07490452 -0.18173225]
layer 1 Activation
tanh
layer 2 Dense
20 40
[ 1.0368273   0.29027903  0.12828545 -0.4292441   0.3440512  -0.14308314
  0.11517289  0.07153351  0.15726191 -0.22245048 -0.3782398  -0.3373722
  0.3390278   0.11133006 -0.34086844  0.08113562  0.16646774 -0.11197005
  0.0311341   0.53298604 -0.11392611 -0.17509499  0.27605668  0.14566806
 -0.10335106 -0.15876049  0.14737883 -0.31748894 -0.02621669 -0.66262096
  0.09744527 -0.10844448 -0.07730823 -0.16259643  0.2614259   0.03789223
 -0.17411232 -0.07000618  0.3427771  -0.02663562]
[ 6.70438409e-01  2.23957554e-01  2.75208443e-01  4.56500739e-01
 -8.31016302e-01 -6.11860394e-01 -5.66091716e-01  4.89799976e-02
  6.98057175e-01  2.38668606e-01  5.69351763e-02  4.67328764e-02
  1.12205604e-03 -1.03717732e+00  3.78651649e-01 -5.66571020e-02
 -3.44801366e-01  1.26011685e-01  1.77161470e-01  1.25174567e-01
 -2.82422900e-01  1.02672175e-01 -1.24813676e+00  5.88888079e-02
 -2.57815719e-02  1.72011014e-02 -3.71830553e-01  6.60183728e-01
 -5.84389567e-01  4.65038657e-01 -1.64185524e-01 -2.44845226e-01
 -7.58791804e-01  4.62164640e-01 -2.49102920e-01 -8.57867897e-01
  1.77479386e-01  3.19189042e-01 -6.52748287e-01 -2.72601306e-01]
[-0.6970212  -0.11129586  0.16550411  0.00931297 -0.0221119  -0.08406051
  0.17227647  0.09562156  0.24538606  0.5462229  -0.53785324 -0.38026303
  0.04182053 -0.10912939 -0.30187774 -0.05094216  0.50367147  0.1838283
 -0.01389731  0.09202729  0.11091793  0.25621805  0.5065461  -0.10779365
 -0.00313683  0.10759263 -0.31408018 -0.16851956 -0.20596187 -0.19849476
  0.03748003  0.24785732 -0.05804597  0.04643195  0.794966    0.06364279
 -0.09492274 -0.09199814  0.28446832 -0.29155537]
[ 0.38173974  0.23385544  0.03482368  0.05411668  0.19667378  0.5475979
  0.26590452 -0.35673827 -0.08653779 -0.0217933  -0.75836176 -0.5428678
  0.0503654   0.17950185 -0.23639956 -0.05501843  0.5627316  -0.08469339
  0.20888007  0.7917875   0.09276672 -0.36214778  0.7395894  -0.39283732
 -0.3455607   0.20064963 -0.2819228  -0.21471782 -0.20463754 -0.20458624
  0.00388968  0.21340118 -0.0189897   0.4275697   0.3001252  -0.3036117
 -0.11102389  0.03986774 -0.30191615 -0.35432795]
[-0.22116219  0.42278197 -0.07084753 -0.08066225  0.26692638  0.3066485
 -0.0370592  -0.00443195  0.3169035  -0.30289426  0.18474059  0.21276286
  0.11257648 -0.23364374  0.47123963  0.10160958  0.14932093 -0.23940188
 -0.12854329 -0.28870958  0.11161822  0.00887401  0.09176742  0.04353832
 -0.11544587  0.21352394 -0.0784632  -0.11298393  0.08632376 -0.09740123
 -0.01072492  0.32099548  0.17039633  0.2421034  -0.4587896   0.25454226
 -0.25922063  0.19880049 -0.21071367 -0.1994136 ]
[-0.15414034  0.36277542  0.23398456 -0.01128574  0.40914318  0.06934813
  0.06336566 -0.06493782  0.31530932  0.16263689 -0.29641756 -0.43946713
  0.10357478 -0.04135394 -0.48975125 -0.172523    0.25912392 -0.3080812
 -0.06291526  0.10169191 -0.26650628  0.08658467  0.251741   -0.04314056
  0.08163194 -0.11849562 -0.11078496 -0.42772123  0.09814692 -0.25135848
  0.06355564  0.10900746  0.04937661 -0.01642651  0.37052876 -0.05370864
  0.32954252 -0.39121896  0.16866493 -0.24081594]
[ 0.02580086  0.88206965 -0.14230888 -0.286516    0.60706884  0.29540667
  0.11145565 -0.927339   -0.07230271 -0.24818403  0.01673511  0.17835864
  0.1822927  -0.00995993  0.39195746 -0.7783138   0.38882333 -0.3381493
  0.2962054  -0.24740027 -0.21079919 -0.56315875  0.3250558   0.27389374
 -0.09275682 -0.09708847  0.5444227  -0.39516422  0.3182681  -0.3313597
  0.14328982  0.18608281  0.30555576  0.30797702 -0.26088664  0.1812293
  0.1711657   0.0578537   0.33693457 -0.22663277]
[-0.55177844 -0.1120843  -0.0902776   0.02122882 -0.24632405 -0.36770844
 -0.29134277  0.15695655  0.08996484 -0.07513382 -0.33453026 -0.12623988
  0.40975443  0.10676502 -0.24577017  0.1868781  -0.49637228 -0.00880714
  0.08421125 -0.9043933  -0.04883352  0.12884437 -0.67513     0.1815333
 -0.12067315 -0.15887575 -0.3712753   0.06614799  0.07035273  0.5201525
 -0.17677717  0.0211242   0.09415538 -0.16467437 -0.30649045 -0.17051287
  0.23420936 -0.28453532  0.18132015  0.7143785 ]
[ 0.6293837  -0.13735217  0.3247281  -0.33263522  0.17393103  0.15090159
 -0.16506852  0.15110035 -0.24885464 -0.43037817 -0.58897346 -0.612306
  0.096626    0.5295658  -0.5815189  -0.04458457 -0.35855573  0.33917022
  0.1025319  -0.4433199   0.07651819 -0.03767007 -0.0360917  -0.13368511
  0.00467078 -0.2375685  -0.59205943 -0.11755119 -0.04163218  0.01302719
 -0.37041783 -0.13422456  0.37212417 -0.11124439 -0.45176733 -0.0611507
 -0.14618346 -0.37114763  0.17977646  1.0313512 ]
[ 0.34119827 -0.00941481  0.08896909 -0.0884119   0.20865136 -0.0499439
 -0.12721623 -0.09927791  0.07925064 -0.05649346 -0.13457154 -0.19369362
 -0.13616264 -0.3555558  -0.1776179  -0.02756541  0.15789229 -0.03360031
 -0.09654836  0.30808115 -0.17985551 -0.06426243  0.11807248 -0.17971995
  0.10518737 -0.14996092 -0.04151218 -0.22812983  0.13668354 -0.46810606
  0.07821015 -0.38537547  0.16461867 -0.24440151 -0.04004002  0.11383473
  0.1796257   0.00948183 -0.06774798 -0.5642759 ]
[-0.26855308  0.12865655  0.21549469 -0.00876143 -0.60906917  0.03578396
 -0.33798224  0.24142641 -0.11552706  0.15485685  0.5855688   0.13992529
 -0.08319281 -0.08161501 -0.01675304  0.04074442 -0.3472985   0.12722546
 -0.05857168 -0.21007025 -0.16575898  0.11796743 -0.49322152  0.11972488
 -0.17383315 -0.0335523   0.08474955  0.53431404 -0.06317656 -0.04197587
  0.10392684  0.0567518   0.04727186  0.12053624 -0.2241055   0.07632367
  0.2267327   0.04030506 -0.02162832  0.08646692]
[ 0.4114958   0.4903505   0.28844222  0.19939281 -0.15344495 -0.04728067
  0.09918986 -0.00878933 -0.20041202 -0.07992785 -0.47070023 -0.20396993
  0.32529834 -0.06800123 -0.21083836  0.096706   -0.3208091   0.2307868
 -0.10643881 -0.43585572  0.1277179   0.10507607 -0.00746362  0.11812797
 -0.37854674  0.09696592 -0.34405395 -0.08714125  0.18617794 -0.45289165
  0.01913494  0.2230861  -0.09319516 -0.1204175  -0.65698946  0.0794939
 -0.26557532 -0.00975804 -0.48389602  0.3207952 ]
[ 0.32735586  0.28508005 -0.3273253  -0.40931296  0.15494783  0.11485787
  0.03476987 -0.57231504  0.02565912  0.10187187 -0.51729923 -0.40346193
  0.42325076  0.30449295 -0.02324514 -0.3494386   0.25350034 -0.35384095
  0.18921833 -0.08585506 -0.30837116 -0.17449746  0.42436278 -0.09452254
 -0.32500288 -0.03760199  0.07099541 -0.44475934  0.13576004 -0.2394838
 -0.08948258  0.2545972  -0.14915879  0.17484444  0.1256403   0.07631513
 -0.6324797  -0.04053851 -0.06712979 -0.2950059 ]
[ 0.64450204 -0.11265682  0.05762473  0.1982057   0.14979401  0.1625062
 -0.00659543  0.21161145  0.171417    0.0027574  -0.19788222 -0.30662227
 -0.20169704 -0.17047697 -0.04102019 -0.22256811  0.6142484   0.04663386
 -0.2649764   0.7263685  -0.03145752  0.13280289 -0.06477673  0.0591205
  0.38906062  0.2514438  -0.6286767   0.03637171 -0.17266648  0.06035804
  0.14093377 -0.21782842 -0.5055805   0.29305506  0.33747885  0.04390741
 -0.04914863  0.01500807 -0.4196432  -0.3533898 ]
[-0.10392459  0.12299813 -0.0104885  -0.11987603  0.22884518  0.4990888
  0.4727412   0.09024341 -0.0301576  -0.603124   -0.5955043  -0.30104956
 -0.08244393  0.7210099  -0.44168976 -0.03559264  0.7895365   0.14506549
  0.02919633 -0.35178703 -0.06092751 -0.20607816  0.9332054   0.25581655
 -0.07302754 -0.15491788  0.02908202 -0.3550205   0.14139101 -0.43056327
  0.22028933  0.14358686  0.43458062 -0.31760958  0.43661797  0.15436015
 -0.3186261   0.0791567   0.49236593  0.37856498]
[ 0.29969528  0.48739758  0.19180083  0.28950605 -0.77901673 -0.7290911
 -0.6323295   0.07291026  0.3758341   0.57732064 -0.7373068  -0.18867444
 -0.10412747 -0.8464211   0.0189977   0.05338936 -0.8728923   0.27774733
 -0.22797766 -0.20352972  0.21627723  0.16381629 -1.1161916  -0.28125876
  0.40983504  0.30663955 -0.74412537  0.7463186  -0.27237213  0.7860797
 -0.0580509  -0.2074223  -0.6483727   0.18368505 -0.5470769  -0.7145228
  0.33725795  0.19594821 -0.42261285  0.09447094]
[-0.3954126   0.10219622 -0.25609457 -0.0081557  -0.04546983  0.21092896
 -0.14692378 -0.39362139 -1.0399404   0.03630691  1.1676944   1.0056018
 -0.09201512  0.11845995  0.66616106 -0.08188709 -0.9530003   0.1536145
 -0.09974462 -0.543649   -0.03704565 -0.2932189  -0.0925121  -0.26711506
 -0.13791321 -0.60424674  0.57175344  0.11442322  0.20236886  0.5551966
 -0.378507    0.00592858 -0.01726034 -0.3237838  -0.5941856   0.07619227
 -0.20638438 -0.5604172  -0.3654035   0.28453627]
[-0.14432345 -0.26770747  0.31572634  0.25097117 -0.40354806 -0.32467356
  0.06420252  0.16472296 -0.06609135  0.08216578 -0.2544565  -0.27431157
 -0.2211168  -0.13011393  0.01527235  0.3266943  -0.07405259  0.29603913
  0.10653342  0.1795098   0.15317568  0.5631104  -0.25914624  0.18389185
  0.12927982 -0.12991047 -0.3290553   0.43108818 -0.36267665  0.1059081
  0.06597282 -0.28540215 -0.07768823  0.04648208  0.25406772 -0.07837846
  0.04583867  0.08352379 -0.37832898  0.2601222 ]
[-2.3864843e-01 -2.0557025e-01 -4.7735378e-02  2.9697422e-02
  5.1750010e-01  4.6100184e-01  3.6132434e-01  6.3693255e-01
 -5.2027786e-01 -2.1495311e-02 -1.0020504e+00 -1.1041104e+00
 -7.9554707e-02  1.1251878e+00 -1.6068107e+00  1.9920020e-01
  1.7781503e-01  5.9149003e-01 -4.0725604e-02 -4.6075091e-01
  1.1124740e-01  7.3579341e-01  4.3663725e-01 -2.0938863e-01
  2.0386346e-01  2.6164195e-02 -7.0630026e-01 -4.0293199e-01
  2.9801631e-01 -8.0797595e-01 -3.2159746e-01 -7.7235547e-04
  7.9217374e-01 -2.7913308e-01  6.1493272e-01  8.5307842e-01
 -3.4329566e-01  1.8442929e-01  9.1890186e-01  4.6790609e-01]
[ 0.42774227 -0.1758779  -0.04995143 -0.28206143 -0.07977944  0.07555139
  0.2149943   0.01382344  0.00649267 -0.17747734 -1.3778123  -0.47123307
 -0.44441333  0.11253003 -0.03094909  0.204528    0.6312928  -0.10726699
 -0.1543464   0.6008441   0.05963618  0.16442029  0.25133282  0.3495034
  0.04368737  0.3713033  -0.56654966  0.01753337 -0.27458024  0.48734337
  0.60868645  0.19127232 -0.17971814  0.18705125  0.37084493  0.01415098
 -0.22784479  0.5418259  -0.36560804 -0.3201805 ]
[-0.0238779   0.68810034 -0.14064631 -0.281108    0.12041818  0.23378126
  0.05933013 -0.50642204 -0.09626897 -0.17677902 -0.0861598   0.15282407
  0.6836331   0.32512903 -0.16188914  0.12819882  0.08472173 -0.27334055
  0.11108614  0.0570811  -0.09836934 -0.22799736  0.09010851  0.16327609
 -0.38362393  0.16404544  0.14836338 -0.08375373  0.45265326 -0.3778992
 -0.00586612  0.47776398  0.12912606  0.09766114 -0.36601576  0.4289718
 -0.23348083  0.19854872  0.0716933  -0.4277886 ]
layer 3 Activation
tanh
layer 4 Dense
40 20
[ 0.6227625  -0.33061922  0.47953838 -0.0696198  -0.12392601  0.24790631
 -0.32055536 -0.10995103 -0.11197025 -0.26451132 -0.3048827  -0.07473394
  0.45760062  0.65186805  0.15707761  0.05285978  0.34170637  0.1909422
  0.19332698 -0.24316137]
[-0.06824382  0.05926072  0.09343762  0.03321677 -0.15865675  0.05420815
 -0.16483545  0.00075926 -0.27703056  0.31077802  0.3652375  -0.31961292
  0.17626071  0.12896492 -0.27282757  0.10871799 -0.43544215 -0.30690897
  0.17202693 -0.16824397]
[ 0.01143515 -0.23153813  0.035897   -0.14694712  0.04756044 -0.20092373
 -0.3322512  -0.07189494  0.21148491 -0.21135469 -0.03677909 -0.08655532
  0.00439821  0.34393296 -0.08941358  0.00900341  0.03056002  0.12049243
  0.19988732 -0.23465014]
[ 0.4514721  -0.17053145 -0.13179527 -0.09012327  0.47748482  0.10766038
  0.11057344  0.14536841 -0.15599321 -0.1841052   0.05246508 -0.19500352
 -0.21241958  0.11808398  0.11896694  0.05084948  0.08422599  0.28255504
  0.20898667  0.00066034]
[-0.35074154  0.11286924  0.43017083  0.12584375 -0.24142063 -0.24460304
 -0.1488335   0.28573677 -0.21279484  0.05244206 -0.10020958  0.29329038
 -0.34844425 -0.20760296 -0.10207283  0.39137727  0.03311191 -0.21585663
 -0.21879293  0.1790413 ]
[-0.4484196  -0.08040029  0.38329306 -0.21185692 -0.25937065 -0.28908342
  0.04408301  0.06764454  0.29348868  0.22620563  0.24607834  0.288217
 -0.30497566 -0.21201383 -0.12928584  0.5688345   0.04268929 -0.16097637
 -0.15295875 -0.1499181 ]
[-0.23715797 -0.11223995  0.3138696  -0.1718145  -0.18028985  0.03463461
  0.04671183  0.27027205 -0.04092842 -0.00221782 -0.14973173  0.18244533
 -0.60606176 -0.14158803  0.01003129 -0.03825711 -0.13806506  0.07767422
 -0.25400984  0.12753826]
[ 0.28109267  0.19912635  0.0629127   0.08371247 -0.15892987 -0.00370577
 -0.152681   -0.21835859  0.11516041 -0.01437597 -0.4313943  -0.03310928
 -0.01000002 -0.22199655  0.22304507 -0.31624216  0.13140485  0.06275988
 -0.0092286   0.09320666]
[ 0.33122122 -0.18569478 -0.18183263 -0.0552306  -0.08695372  0.20574503
 -0.16412143 -0.26952553 -0.30096573 -0.25377005 -0.5172075  -0.10586501
  0.07589742  0.15603793 -0.07762039 -0.07469956 -0.03214908  0.08790318
  0.04618829 -0.06022089]
[ 0.22522078  0.06840043 -0.23861307  0.02296615  0.10046557 -0.00891
  0.14593604  0.09603327 -0.10239866  0.03728346 -0.02331724 -0.28515938
 -0.15189546  0.2098059   0.10939157 -0.2815017  -0.03756259  0.1612705
  0.12371955 -0.2595937 ]
[-0.15894796 -0.14658783 -0.08455963  0.17763136  0.10227736 -0.05489634
  0.45792592 -0.26170352 -0.2625563  -0.16703364 -0.10298573  0.21832214
  0.07272922 -0.37731487 -0.4611326   0.17967452 -0.40192446  0.06859711
  0.43921468 -0.12214427]
[-0.01783403 -0.06565441 -0.38332707 -0.16273831 -0.25722414  0.11764941
  0.11137005  0.14021213 -0.16697514 -0.21834908  0.254842   -0.27605948
  0.07733344 -0.22279824 -0.40034038  0.32690507 -0.38080248  0.07017053
 -0.08933675 -0.02304308]
[ 0.12284829 -0.02973372  0.18491544  0.15025893 -0.04619495 -0.07197229
 -0.07034809  0.08304944  0.08712147  0.27482352  0.19643663  0.04943769
  0.17323749  0.11693495 -0.35208416  0.37028125 -0.50053453 -0.5180107
 -0.10594206  0.00326507]
[-0.22420602 -0.02284462  0.32178476 -0.11137325 -0.21147235 -0.13192517
  0.15707053 -0.3231327  -0.12316296 -0.1631694   0.12662117  0.43497133
 -0.10536099 -0.652951    0.32360947  0.05373952 -0.07035004 -0.2060987
 -0.31218228 -0.06745501]
[ 0.25214598 -0.07878564 -0.26142138 -0.02355707  0.19696842  0.06817789
  0.07718719  0.13754737 -0.2703168   0.27542922  0.01919135  0.01002782
 -0.09014369  0.25558943 -0.3858472   0.02571587 -0.14655642  0.17518438
  0.32126707  0.20523524]
[-0.18713762 -0.25352103  0.00333897 -0.13939622 -0.13677523 -0.10325676
 -0.26819214 -0.04725171 -0.05126866 -0.03432991  0.10652798  0.0422482
  0.03622989  0.10162763  0.25903141 -0.22899663 -0.13292219  0.13081533
  0.08297263 -0.00551922]
[-0.10197085 -0.09061737  0.15449221 -0.25997207 -0.01396757 -0.04515458
 -0.00881214 -0.13424979 -0.11087105 -0.3260925  -0.5124919   0.6534954
 -0.71545887 -0.74773973 -0.42685845  0.18006699 -0.7112109   0.34455338
  0.04606302 -0.20713028]
[-0.05345365 -0.3923868  -0.1354518   0.15978979  0.07593217 -0.10005083
 -0.17032185 -0.32407913 -0.14234203 -0.12209526  0.13560607 -0.11701875
  0.01804589 -0.06485879  0.21005501 -0.51116204  0.00446971 -0.03964125
 -0.2217713   0.15194003]
[ 0.05125139 -0.02068198  0.03335212  0.09011896  0.08378408  0.16349949
  0.09542462  0.27151898  0.00432453  0.25628403 -0.0237029   0.06471714
 -0.16317736 -0.0839764  -0.13182127 -0.13186748  0.02655385 -0.2842968
 -0.13388811  0.12346226]
[-0.10010598 -0.02614477 -0.06637607  0.04860248  0.27192605  0.08045102
 -0.1292189   0.41869608 -0.25740728  0.08377507 -0.23775885  0.5349948
 -0.2534634  -0.06777376 -0.25304645  0.17172313 -0.30609322  0.58199733
  0.6092615   0.02695439]
[ 0.00698771  0.07522344 -0.01158806 -0.21805885  0.39647374 -0.09091604
 -0.11648355 -0.08531155 -0.03918786 -0.08146403 -0.02564604  0.02357837
  0.31575295  0.07608635  0.0894473  -0.01161108 -0.12006448  0.14596346
  0.11887479 -0.02803291]
[ 0.2554231  -0.08806313 -0.0728623   0.06167677 -0.17282589 -0.14117213
 -0.1468326  -0.41598982  0.12592627 -0.05712143 -0.19813117 -0.0965151
  0.02189545 -0.01031669  0.17684387 -0.14487006 -0.13529795 -0.06258962
 -0.0272179  -0.10449836]
[-0.35501468 -0.128919    0.61028314  0.13988887 -0.07369297 -0.08268666
  0.01453922  0.19853374  0.25514182 -0.23705798 -0.20483725  0.5104822
 -0.5367129  -0.22339326 -0.1666312   0.15036345 -0.33419833 -0.2939807
 -0.34646064  0.21944524]
[ 0.13304274  0.06172653  0.07101095  0.04714947  0.01513214 -0.16970219
 -0.14667946 -0.24527101 -0.16580656 -0.0667835  -0.34372145  0.0400588
  0.36793157 -0.23395172 -0.1863178   0.11080108 -0.06236749 -0.4681059
 -0.09683222  0.01207234]
[ 0.2185808   0.15380576  0.0227138  -0.06753834  0.0065513  -0.20524018
 -0.03060821 -0.5700862  -0.0850943  -0.19268641 -0.57844925 -0.22045052
 -0.1826028  -0.09159239  0.06896263 -0.11480577  0.4792598   0.51145744
  0.15481979 -0.14859773]
[ 0.24426973 -0.21946536  0.11659705 -0.12569599 -0.21332638  0.21354379
 -0.1363504  -0.23696372 -0.02245411 -0.05733411 -0.39820343 -0.04334154
  0.5397416   0.13716377  0.09775052 -0.04148596 -0.19008064  0.23501608
  0.13388231  0.10704339]
[-0.25682274  0.34790364 -0.55862206  0.28545636  0.10654628  0.00365675
  0.62399507  0.06066052  0.2776006   0.29871464  0.45398432  0.26275682
 -0.08252191 -0.67116994 -0.44720176  0.26102743 -0.503918   -0.2150665
  0.09608235  0.18459415]
[-0.06202075  0.09791278 -0.23461856 -0.1826985  -0.15469024  0.18132566
  0.27159134 -0.06172153 -0.11907481 -0.12264344 -0.24398628 -0.4427252
  0.29020196  0.21888873  0.02514883 -0.05990455 -0.02539443  0.5068672
  0.00504481  0.08101936]
[-0.22202106 -0.1197273   0.21769664 -0.3438226  -0.0686127   0.08205357
  0.05898295  0.031661   -0.09544931  0.2073705   0.36236438 -0.06430354
 -0.00467276 -0.17597848 -0.07721833  0.30844325 -0.10985871 -0.38298854
 -0.02570347  0.28792366]
[-0.21109098 -0.16633257 -0.4389287   0.04175708  0.19912936 -0.10727835
  0.39990908 -0.24890943 -0.19930625  0.1852344  -0.41925743 -0.49673232
  0.5059724   0.14022174 -0.01753245 -0.05600747  0.14369234  0.05856695
  0.32096693  0.0384032 ]
[ 0.07098324 -0.04019273  0.13589929  0.12124167  0.0298903  -0.07534719
 -0.05590571  0.27255997  0.00181885  0.27310583 -0.42838132  0.1440214
 -0.31538305 -0.03079479 -0.10804821 -0.1763605   0.10810924  0.49314168
  0.19127229  0.04394626]
[-0.13054577 -0.0018282   0.26613325 -0.01771024 -0.12436477  0.12898548
  0.10334513  0.30121005 -0.06500714  0.24130414  0.02281955  0.30765387
  0.06696672 -0.03559587 -0.17724752  0.47345912 -0.4057106  -0.3546106
 -0.19779241  0.05544843]
[-0.17698102 -0.00849454  0.23062761  0.15125892  0.01070022 -0.2948073
  0.33636898 -0.05056044  0.4351999   0.20885512  0.12780194  0.07496005
 -0.22337765 -0.33045283  0.00439579  0.16586009  0.0311767  -0.42466503
 -0.3593619  -0.15344544]
[ 0.23292223 -0.0275651   0.07728466 -0.25368205  0.09203725 -0.04882102
 -0.01226328  0.08078664 -0.15946683 -0.2568069  -0.22085206 -0.06341388
  0.07280265  0.11089402 -0.11151017  0.12801899 -0.00629391  0.31998277
  0.06814325 -0.19787253]
[-0.18756275  0.3053965   0.19347602  0.0971534  -0.32201493  0.23617683
  0.65879565  0.14508528 -0.24518117 -0.2961309  -0.6403986   0.41624042
 -0.30610433 -0.73494816 -0.17421554  0.09026933  0.17343695  0.25834975
  0.2682641   0.17425625]
[-0.14578007 -0.05879072  0.29193476 -0.17409639 -0.09577574 -0.20410776
  0.0573661  -0.41026306  0.16725859 -0.02724933  0.14019322 -0.02563277
 -0.14207591 -0.32201883  0.0962209   0.02639465 -0.32012603 -0.3180132
 -0.2595484   0.06013067]
[ 0.2939156  -0.08369669 -0.1483943  -0.0924335   0.06511428 -0.09124669
  0.3798941  -0.29476982  0.16823906 -0.18504633  0.05925371 -0.11216098
  0.03956595  0.31270888 -0.0621626  -0.00876549  0.284495    0.3695303
  0.10699183 -0.13846488]
[-0.14146979 -0.1697198   0.10611361 -0.1136372   0.05355646 -0.15320472
 -0.15486771  0.01878009 -0.03353877  0.14293295 -0.50955904 -0.06778631
  0.06988526  0.20419647  0.16110091  0.20580904 -0.15326414  0.2812957
  0.09733196 -0.08328164]
[-0.34192768  0.08582268  0.37778553  0.25434905 -0.09957698  0.1912372
  0.3306587  -0.14257617 -0.08655268  0.14941198 -0.39482012  0.30843276
 -0.307857   -0.31115478  0.21633796  0.27520144  0.15022305 -0.1454986
 -0.35385326  0.19990079]
[ 0.19741823 -0.22425303  0.31963956 -0.18137224 -0.10617122 -0.11782685
 -0.31252646 -0.31703407  0.09990338  0.08230786  0.40696126  0.02928211
  0.34502077 -0.39624485  0.36697638 -0.1729321   0.665344   -0.6700444
 -0.5140141   0.02782635]
[ 0.01515486 -0.05886972  0.21481559  0.04369519  0.38194576  0.0214071
 -0.064804    0.22773984 -0.00092606  0.11864316  0.11957915  0.0057457
  0.04671616  0.04918972 -0.3000345   0.14602782 -0.6390594  -0.39480418
 -0.15910004 -0.01553273]
layer 5 Activation
tanh
layer 6 Dense
20 1
[0.08496674]
[-0.0446071]
[0.18014278]
[-0.01810163]
[0.0117375]
[-0.01796137]
[-0.17437918]
[-0.01179325]
[0.03634123]
[-0.02157335]
[0.10834081]
[-0.1705646]
[0.03425241]
[0.12516522]
[0.1391377]
[-0.01233384]
[0.23209186]
[-0.06035135]
[-0.2137834]
[-0.0094211]
[0.30006954]
