layers 7
layer 0 Dense
20 20
[-0.15830651  0.19006036 -0.31780314 -0.18403204  0.06725289 -0.62074894
 -0.1855173   0.04010849 -0.09258588  0.1559685   0.26465535 -0.13126612
 -0.11277352  0.03150048 -0.18792619 -0.01943761  0.34478343  0.03707007
 -0.06724717 -0.24426363]
[-0.00800636 -0.33734325  0.10013595 -0.28501365 -0.01270753 -0.03499699
  0.2968095   0.26859707  0.27615803  0.04726377 -0.21885905  0.37822402
 -0.19459398  0.2907436   0.05161268  0.12349933  0.12856632  0.18260151
  0.27686048 -0.01513594]
[-0.13620067  0.11185804  0.22222197  0.28484678 -0.12909573  0.1162762
 -0.26127243  0.3683192  -0.28089496 -0.3378634   0.10977969 -0.3870253
  0.0404571  -0.08598712  0.08545101  0.19746488  0.3234629   0.13462806
  0.00611636 -0.22019002]
[-0.08129568 -0.32100517 -0.6540725  -0.18552779  0.18407835 -0.8220482
 -0.22703208  0.20470127  0.14541808 -0.11304875  0.21719004  0.25741047
 -0.3535357  -0.31442672 -0.09261888  0.02609498  0.05375275 -0.28375342
 -0.13174282 -0.38949138]
[-0.34625375 -0.19396916 -0.33077002  0.19001058  0.04377745 -0.18611816
 -0.3730323   0.33268425  0.65250766 -0.14179608  0.4554729   0.2716182
 -0.11649465 -0.06065496 -0.09124032  0.22503468  0.03860683 -0.40439847
 -0.36604205  0.24991067]
[ 0.03630516  0.17796546  0.26551938  0.27887154  0.07904524 -0.20326684
 -0.22582105  0.11013177  0.3453375   0.24704766  0.34537572  0.16988724
 -0.04502937 -0.05358014 -0.11096781 -0.14836514 -0.07832739  0.27267033
  0.16314936  0.20869029]
[-0.02490118  0.11426228 -0.17355046 -0.3518706   0.31345546  0.02280721
  0.33244002 -0.29119974  0.24565381 -0.20517476  0.11303234  0.25171512
  0.37503463  0.08136222  0.2725814  -0.2529728   0.2579714  -0.17450294
  0.16892701  0.3028553 ]
[ 0.11922065 -0.20097554  0.9197748  -0.32881656 -0.02123007  0.6126384
  0.68324685 -0.06395024 -0.27989823  0.3242851  -0.45564264 -0.12070501
  0.04297838 -0.09818536  0.19080222 -0.22523734 -0.6053277  -0.01871978
 -0.04456894  0.31437275]
[-0.67972314  0.3593668   0.62691283  0.45783657  0.12068496 -0.81551933
  0.0108692   0.23289831  0.1456866  -0.288316    0.39932072  0.39713314
  0.27124456 -0.36496082  0.60298854 -0.07890602 -0.5785132   0.06670144
 -0.5914172   0.6105197 ]
[-0.4095059   0.46146727 -0.46916848 -0.48147866  0.47228447 -0.21150947
  1.056385    0.27365166 -0.7007911  -0.467336    0.38353944  0.27386197
 -0.61033964  0.2799073   0.83872557  0.52230394  0.6321643  -0.92136025
 -0.25116315  0.20707385]
[ 0.19378994 -0.5183308  -0.14158145  0.6006775  -0.802301   -0.00462742
 -0.5438747   0.3125986  -0.6577186  -0.37863368 -0.09227099 -0.81828624
 -0.9842623  -0.24542886  0.92166054 -0.36383024 -0.3121978   0.35545507
 -0.3986497  -0.34856394]
[ 0.6670427  -0.372186    0.6142302  -0.35477987  0.6374932  -0.8416727
  0.5994621  -0.20021768 -0.43804738  0.22636503 -0.59874374 -0.92104274
 -0.7691059   0.23336221  0.25433916 -0.37305984  0.03025861  0.1025658
  0.3486675   0.01496786]
[ 0.09258223  0.07129907 -0.15223     0.2307562  -0.14414239  0.5960481
 -0.41314214  0.13933557 -0.20124032 -0.17490698 -0.50068665  0.07498826
  0.45820954 -0.28640708 -0.1552105  -0.3439112   0.464988    0.31055918
  0.5231966   0.6026933 ]
[ 0.04213738  0.17435545  0.11484277  0.35133284  0.4729598  -0.16329743
  0.10799691 -0.11714254 -0.26216695  0.04386958  0.00620928 -0.19169801
  0.758317    0.46551087 -0.60136044  0.28471437 -0.14934038 -0.3257611
 -0.11115117  0.76303   ]
[ 0.58578986 -0.16601631 -0.07181979 -0.631182    0.0035228   0.14018135
  0.17381231  0.3915766  -0.11507351 -0.35340708  0.06166832  0.43635547
  0.40126947 -0.05710563 -0.35849214 -0.37859127  0.07225288  0.27855155
 -0.33383074 -0.31495944]
[ 0.17846632  0.2948465   0.43442947 -0.73730594 -0.09262328  1.0558518
 -1.1100937   0.5075347   0.51901954 -0.6062653   0.13321596 -0.2516221
 -0.05601415  1.0202144  -0.724485    0.3315623  -0.6272938  -0.40737897
  0.61483735  0.09382188]
[-0.03080261  0.00620749  0.16096544 -0.3395994   0.28269178  0.07742649
 -0.27525112  0.41584226  0.11350638 -0.5987627   0.22531837  0.23092976
 -0.12294894 -0.3243518   0.00722563 -0.06057424 -0.6279525  -0.73137105
  0.39340162 -0.11206701]
[-0.23931943 -0.728603    0.0283843  -0.55457795 -0.18517442 -0.32102665
 -0.99486953  0.06214572  0.96797574  1.0238259   0.17625044  0.79669076
  0.27878895 -1.536397   -0.5691574  -0.8713067  -1.284334    1.3967541
  0.6893086  -1.000234  ]
[-1.0762188   1.6096003  -0.54029626  0.38509184  1.3942242   0.29160738
  1.1282036  -1.0344771   1.2632438   0.9499428  -0.01133425  0.04163838
 -0.05318826 -0.00909359 -0.93765444  0.25676525  0.98174727 -0.659552
  0.9565415  -0.44961172]
[-0.6309517  -0.06941377 -0.03648373  0.57300895  0.2366292  -0.61246043
  0.96658325 -0.8239194  -1.2477192   1.1096492  -0.2880798   0.5600985
  0.45005676 -0.59822905  0.3996397  -0.3379623  -0.79107285  1.1669285
 -0.48347178  0.403618  ]
[ 0.04253567  0.04772515 -0.2629931  -0.03371912  0.10436847 -0.22122209
 -0.09073593 -0.12848794 -0.03744346  0.01379859  0.03780653  0.15096462
 -0.00969224 -0.03531014 -0.08309545  0.14009617  0.17511493  0.03002983
 -0.02141944 -0.0283923 ]
layer 1 Activation
tanh
layer 2 Dense
20 40
[ 0.28248867 -0.3802591   0.06235452 -0.342395   -0.7276139   0.13670613
  0.38017556 -0.05380802 -0.86498123  0.69478625 -0.20175906  0.43929723
  0.2567806  -0.5495945  -0.5318971   0.31324705  0.12853083 -0.09865834
 -0.27341563 -0.3415588  -0.18421309  0.122668    0.5180269   0.12418433
 -0.2627441   0.16271539 -0.4517918  -0.5163674   0.2571956   0.01759837
 -0.10703458  0.21297912  0.6817342  -0.5317314  -0.559124   -0.09556089
 -0.303001    0.28404263 -0.2665083   0.27935928]
[-6.67200089e-01  2.81022489e-01 -1.41190082e-01 -1.37939543e-01
  7.77982056e-01 -3.07738036e-01 -4.09951299e-01  2.17976958e-01
  1.30946010e-01  1.91915736e-01  6.48032069e-01  8.94055009e-01
  2.60997832e-01  5.07911444e-01  4.48233681e-04 -2.70281792e-01
  2.00283647e-01 -1.43745378e-01  2.08811939e-01  1.58396676e-01
 -2.88071960e-01 -1.04641005e-01 -8.24404299e-01  2.85570323e-01
 -1.16460495e-01  1.09048717e-01  1.51896954e-01  3.29607576e-02
 -8.95610675e-02 -5.27711570e-01  3.07981938e-01 -3.59824896e-01
  2.97032129e-02  5.29840529e-01  9.63041663e-01  1.85012352e-03
 -3.10276002e-01 -1.09137319e-01  3.60883266e-01 -8.57681692e-01]
[-0.47287136  0.28940445 -0.12110515 -0.52987444  0.17847452 -0.14846937
 -0.20361416 -0.7705402   0.14086172 -0.21390763 -0.21180777  0.28051257
 -0.15174617  0.31599864 -0.1419462  -0.2546562   0.19650902 -0.46351203
  0.1738487  -0.03419863 -0.22715989 -0.20152207  0.4909601  -0.45516348
 -0.22444652 -0.8841865  -0.13311622 -0.694265    0.23018493  0.50272655
 -0.38028744 -0.14659293  0.3025123   0.06914197 -0.35747474 -0.5656197
  0.45185205  0.23189369  0.4710398   0.15225363]
[ 0.02549472  0.08599852 -0.08457122 -0.12235434  0.47621667  0.32573646
 -0.44104394  0.24817944  0.4814406  -0.7370096  -0.47453022 -0.59934765
  0.29059696 -0.539101    0.17486192 -0.34378928 -0.25359133  0.43289897
  0.30873522 -0.04709052  0.14804149 -0.24018501  0.52202314 -0.607589
 -0.12219791 -0.11552466 -0.5923755   0.37718758 -0.5774591   0.3129481
  0.07740079  0.13101624  0.05723121 -0.5646256  -0.34930393 -0.08016617
  0.09675485  0.25905332  0.05679737  0.21696888]
[-0.7336165  -0.59009427 -0.01204055  0.15279824 -0.21199381  0.800306
 -0.53747207  0.08467636 -0.34584445  0.0895591  -0.36750424  0.77772826
  0.35670963  0.38316002  0.37999874  0.2509332   0.07690913 -0.05018777
 -0.00805675 -0.01220724  0.3525319   0.10979883 -0.41799182  0.51292074
  0.37793985  0.1632592   0.11786727  0.12862514 -0.28788483 -0.35414484
  0.38764805  0.08122119  0.50472635  0.47855157 -0.24921025  0.07964679
  0.02334869  0.3415384   0.70374024 -0.24728063]
[-0.07762371 -0.32288915 -0.49659076 -1.0712811  -0.13795054 -0.46631426
  0.9481478  -0.08693946 -0.16041641  0.62823373  0.74697053  0.6968349
 -0.65520114  0.0645249  -0.72885615 -0.16770138  0.08114311 -0.5013285
 -0.10219413  0.18883303 -0.323338    0.25892946 -0.4056141   0.631752
 -0.17420273 -0.41882816  0.16483645 -1.4428694   0.7134821  -0.33422664
  0.41973466 -0.78669894  0.24805298 -0.10528477  0.2745203  -0.2957092
 -0.4256902   0.01591707  0.00733496 -0.75689626]
[-0.23595557 -0.24000876 -0.44374755 -0.00137518 -0.20047124  0.82485133
 -1.2662216  -0.47915274  0.342866   -0.68972015  0.1339523   0.3053659
  0.36464062 -0.3031895   0.375325    0.3504907  -0.0366889   0.13818052
 -0.26176682  0.1862051   0.1156838  -0.00844159 -0.64349973  0.7094595
 -0.91638064 -0.6153323   0.17948398  0.1303274  -0.18753192 -0.65691227
 -0.4920597   0.0283194  -0.28681347  0.6155906  -0.1448914   0.1046596
 -0.2865186   0.7255113   1.3545742   0.15019907]
[ 0.2659854   0.01786988  0.33948785  0.15049532 -0.24675637 -0.01031932
  0.44887707  0.458032    0.04991743  0.39305046 -0.3160976   0.0173679
 -0.2362896   0.08943564 -0.27778068  0.28229025 -0.06474618 -0.06784543
 -0.22715005  0.2832564  -0.09259574  0.2572346   0.34459513 -0.17471787
  0.11021526  0.05131461  0.16972324 -0.07747366 -0.01377427 -0.03992306
  0.02908471  0.30193207  0.21422927  0.05242849 -0.17159915  0.02402019
 -0.3493254   0.03515486 -0.43697205  0.08307774]
[ 0.42809957 -0.53946155  0.89415365 -0.03318925  0.51389676  0.4883873
  0.30005705 -0.37123203  0.29994008 -0.0055304  -0.77067965  0.21822801
 -0.33815432  0.2862437   0.69208264 -0.54400563  0.3374391   0.01367664
 -0.5069049  -0.16024488  0.61883795 -1.2934318  -0.31696716 -0.7450615
  1.6517491   0.18532455 -0.1415895  -0.03113572  0.5952571   0.3613833
  0.7529355  -0.56797385  0.56056356  0.60805017  0.8268387  -0.47223088
  0.84832984 -0.6639561  -0.12584484 -0.20092107]
[-0.38680238 -0.8102093  -0.72148174  0.02170558  0.36718276  0.21881309
 -0.26116332  0.30075642 -0.5115189  -1.2042838  -0.0991988  -0.26067346
 -0.25729266 -0.19976504  0.58215845 -0.3777824   0.37537304 -0.01485256
 -0.19923447  0.560405    0.27777967 -0.5014863  -0.91528803  0.01054564
  0.2403775  -0.20697337 -0.7134071  -0.04515054 -0.01348091 -0.15833509
  0.08279996 -0.6083603   0.25222257 -0.30749777 -0.2563957   0.30748007
  0.5176338   0.6275898   1.192597   -0.2160432 ]
[ 0.29941985 -0.08648329  0.21858747  0.550074   -0.21278772 -0.16401584
  0.11633808  0.16873695  0.4075105  -0.02717267 -0.4100534  -0.2293582
 -0.05399343  0.25962782  0.05093173  0.02524174  0.27403748 -0.09910633
 -0.15829316 -0.03089616 -0.04630718 -0.21921885 -0.14532138  0.20139055
  0.20127387  0.58374894 -0.01664522  0.21657646 -0.46031994  0.20790577
 -0.0512705  -0.2548969   0.12121039  0.11283277 -0.13162576 -0.04431359
 -0.10246967 -0.66202766 -0.08594408 -0.14573644]
[-0.28906566 -0.13041182  0.303352   -0.07908996  0.26894832  0.7044864
  0.35455918  0.2269571   0.69596994 -0.2280452  -0.02694546 -0.09863095
  0.16340856  0.21558112  0.32277474 -0.3411815  -0.14402348  0.16505
  0.25132433 -0.40439412  0.38536885 -0.08628294  0.08261047 -0.21407361
  0.47151983 -0.1782947   0.47848263  0.1994911   0.1446296   0.29428476
 -0.17075615  0.13779905 -0.58975345  0.9705351   0.46787202  0.3808244
  0.59267765  0.14094064  0.36505488  0.16967486]
[-0.31013831 -0.19926561  0.12392613  0.01086171  0.17189716  0.8356573
  0.15570344 -0.3032702  -0.07127205  0.22677504 -0.07846246  0.06524016
  0.5708097   0.27570167  0.06056147 -0.33495542 -0.20075606  0.13817883
  0.41335154  0.276903    0.2941235  -0.6535568   0.29117167 -0.50212926
  0.4288796  -0.26229525  0.03530964 -0.21607535  0.12983607  0.24770986
  0.12530114 -0.0475802  -0.02903266  0.6775599   0.21379146  0.01360051
  0.260153    0.43772498  0.06099638  0.2414461 ]
[-0.39717713  0.17143637 -0.38608336 -0.06081657 -0.66666853 -0.1588166
 -0.32064354  0.0487416  -0.533381    0.9938107   0.20444094  0.08494283
  0.27385905  0.42132506 -0.36188132  0.6141917   0.06883401  0.1394976
  0.28036264 -0.10959984 -0.08870947 -0.4497208   0.10605013  0.78007066
 -0.2391727   0.20728347  0.20259911 -0.42505008  0.14436023 -0.24094772
  0.591893    0.30753443  0.74886626  0.19402438  0.2907435   0.21143572
 -0.58503073  0.1524818   0.11627828 -0.13142988]
[-0.32679626  0.5846603  -0.05557381 -0.04588696  0.17242116 -0.9361471
  0.36267763 -0.4055644   0.26886466  0.13615957  0.57664394 -0.74431545
 -0.3431287  -0.12732059  0.08020047  0.38016886 -0.06845491  0.32924676
 -0.04391494 -0.32491064 -0.00245843  0.14824674  0.5125287  -0.24590975
 -0.41329637 -0.2822023   0.45543006 -0.00237634  0.06944136  0.08524299
 -0.5734043   0.29744312 -0.8591607  -0.08888967  0.00718895 -0.7118158
  0.00473679  0.19097416 -0.10945804  0.11406124]
[-0.45081377  0.45083645 -0.42996702  0.1726751  -0.12756778 -0.14134808
 -0.14517276 -0.1432444   0.28773332  0.2412228   0.3244967  -0.04950922
 -0.089471    0.20610502 -0.3063639   0.13757455  0.03546158  0.24237837
  0.5433961  -0.39481577 -0.11728092 -0.3262359  -0.24099144  0.5324947
 -0.33429876  0.20573997 -0.20364387 -0.13606167 -0.06673433 -0.17612742
  0.6051523  -0.13673607  0.05017168 -0.02873869  0.39370206 -0.00154375
 -0.13181397 -0.33828893 -0.10954829 -0.32478404]
[-0.39495584 -0.21431413  0.054259    0.3185751  -0.27305558 -0.30760935
 -0.21175033  0.1248524   0.65424466  0.13007931  0.9035063  -0.01285565
  0.31405807  0.5048834   0.29634377  0.53328484 -0.0632823   0.56663805
  0.17834681 -0.35177737  0.57265365  0.5453476  -0.6000626   0.7095478
 -0.42308095  0.5104152  -0.15195657  0.3834846  -0.04898275 -0.49347752
  0.00152862  0.3869266  -0.7591992   0.25333425  0.518021   -0.32481965
 -0.29252326  0.18169425 -0.39806882  0.23115532]
[ 1.718043   -0.9013561  -0.3679347  -0.199882   -0.27109948  0.10205059
  0.6937283   0.10718361 -0.27196193 -0.79979616  0.38070965 -0.5689215
 -0.60968727 -1.0606391   0.25998655 -0.38885108 -0.02840368  0.04780923
 -0.79499954 -0.08682285 -0.19636038  0.25476915 -0.1257677  -0.3840468
 -0.03283704  0.05194486 -0.44838998  0.39592397  0.27958974  0.17112337
 -0.32657155 -0.07513984  0.5911453  -0.7564456  -0.69416785  0.5070229
 -0.08487709  0.3753604   0.49251074  0.48226058]
[ 0.07628253 -0.4079253   0.23931876 -0.18238261  0.5637363  -0.43214035
  0.25872436 -0.36756143 -0.44233897 -0.6854785  -0.34889024  0.45526034
 -0.57713914  0.7633545   0.27923673 -0.3795457   0.11708579 -0.519679
 -0.7460317   0.6831529   0.30171382 -0.44764784 -0.59628654 -0.33058462
  0.4963809   0.06337193 -0.8994843  -0.1092027   0.9310026  -0.8109958
  0.5823204  -1.0145625   0.50131404 -0.13728361  0.44504398 -0.7040142
  0.6509928   0.03811741  0.04426508 -0.5696826 ]
[-0.97380054  0.2646195   0.04604902 -0.35733312 -0.19968043 -0.19794324
 -0.20480871  0.07484998  0.5800694   0.49802935  0.25546184 -0.2559114
  0.49828956 -0.04300926  0.14941818  0.03853256  0.20882618  0.05160331
  0.57811886 -0.30355945 -0.04674276  0.16828462 -0.04212244  0.46720332
 -0.33008736 -0.24695876  0.45477498  0.03069068 -0.22832178  0.03098999
 -0.42436942  0.3506882   0.12175661  0.40869617  0.5065893  -0.05425516
 -0.24713424  0.7181104   0.09522683 -0.05710582]
[ 0.29634723 -0.12189789  0.04209212  0.2824547   0.00301517 -0.19421874
  0.02265558  0.50718856 -0.0405136  -0.10366171  0.06068793  0.00796896
 -0.22127093 -0.10140688  0.08117649  0.16407245 -0.03809977  0.23776995
 -0.09810416  0.03335765  0.01659471 -0.07461117 -0.21984833  0.22065948
 -0.024021    0.5785184  -0.13441698  0.2961553  -0.15541017 -0.2419673
  0.23172565 -0.01340478  0.0522618  -0.29797986  0.05598741  0.35294768
 -0.22204843 -0.27105337 -0.09639701 -0.15833154]
layer 3 Activation
tanh
layer 4 Dense
40 20
[-0.42736885 -0.42119187  0.01244367 -0.38851222 -0.8014016   0.5995019
  0.11663818  0.01699039  0.4205227   0.08581463  0.0781358  -0.05337895
 -0.3241933   0.1545688  -0.8356853  -0.17355226  0.00552673 -0.11159754
  0.87743616 -0.90102494]
[ 0.28300676  0.23246138 -0.15907565 -0.11662765  0.53835034  0.40271074
 -0.25000677  0.13043608 -0.0731324  -0.19861759  0.02327128  0.5057813
  0.60715926 -0.42211774  0.3938447   0.51898545 -0.11642642  0.49770197
  0.02069887  0.39914966]
[ 0.3338696   0.23746292  0.3877448   0.23738682  0.22997077 -0.03895971
  0.06898654  0.666747   -0.14265022  0.2810398   0.34406456  0.1670372
 -0.64608526  0.8818125  -0.20769899  0.42150754  0.15478344  0.30726716
  0.05155797 -0.39781833]
[-0.16252676 -0.1545048  -0.05533963 -0.03085088  0.09046663 -0.03554856
 -0.2092548  -0.6389321  -0.35312316  0.77303565  0.63942534 -0.01295445
 -0.36220002  0.01117718 -0.33380356  0.10533632  0.56108236 -0.1609124
  0.312192    0.10209697]
[ 0.21087308  0.17633583 -0.08652716  0.05408366  0.19663787 -0.18904537
  0.13631585 -0.03370469  0.04989093  0.03205505 -0.21720858 -0.39318147
 -0.17178738 -0.17979582 -0.40646002  0.0772203  -0.3358754  -0.24514024
 -0.41294008 -0.5136041 ]
[-0.33159024  0.01008035 -0.06653085  0.36724916 -0.17644292 -0.33126506
  0.32326776 -0.27044407  0.4551187   0.23765196 -0.46797812 -0.5768118
 -0.29526296  0.5990378  -0.31973895 -0.08523101  0.42137966  0.31345907
 -0.38292804 -0.0367268 ]
[-0.06571159 -0.6531957   0.29920533 -0.1525847  -0.8081171  -0.20124646
  0.46153736  0.1719679  -0.57229114 -0.14361593  0.34082317 -0.16635661
 -0.3320307  -0.11872362 -0.4859943  -0.01526306 -0.03075677  0.7886475
  0.6014679  -0.09593257]
[-0.03449053 -0.19283938  0.09379292 -0.4056435  -0.20360973 -0.00982256
 -0.3088634  -0.42201418  0.18231976  0.5641639   0.5489169   0.4974207
 -0.11289696 -0.28492928 -0.30461177 -0.0934908   0.56897545 -0.28190586
  0.23148212  0.0116363 ]
[ 0.4657797   0.53411984 -0.3867919   0.38201374  0.27798584  0.00563996
 -0.33866927  0.23440874 -0.42952347  0.31297284 -0.22125486 -0.05770867
 -0.39547208 -0.4111119   0.09503824  0.45286378  0.8853216   0.03550934
  0.10456616 -0.06523792]
[ 0.5333599   0.7317568   0.63195294 -0.5218803  -0.09424334  0.319486
 -0.6314546   0.50511074 -0.65500176 -0.26016608  0.69418603  0.7354419
  0.00461649  0.27647978  0.57924014 -0.19207078 -0.7490752  -0.23570414
  0.45371005  0.20419538]
[ 0.36715174  0.11009797 -0.05522467 -0.21656056 -0.51672065  0.2845662
 -0.44447213  0.07857539  0.0874288   0.21143104  0.3344592   0.44828278
 -0.08603565  0.02488991  0.18153833  0.0452414  -0.2929561  -0.49900135
  0.16779597 -0.37396377]
[-0.03412291 -0.33346498  0.2162458   0.10716773  0.48434234 -0.40910724
 -0.06873193  0.04320779  0.20965561 -0.5002485   0.1919842  -0.06501218
 -0.43070328  0.44317353 -0.08828484 -0.380221   -0.2140659  -0.37781596
 -0.16465494  0.01537472]
[ 0.12316028  0.21570398  0.02483405  0.13561448  0.34443644 -0.2999744
  0.03304929 -0.10460123 -0.23846255  0.42743036 -0.3510238   0.01950771
 -0.052325    0.33284083 -0.08532131 -0.49928927  0.12560704 -0.41491243
 -0.12859923  0.22625548]
[ 0.19658737  0.44145775  0.3861542   0.30987862  0.4380165  -0.13788344
 -0.15129648  0.4738652  -0.19613029 -0.20876631  0.40823823 -0.15586671
 -0.27842373  0.11804625  0.32793558 -0.10628184 -0.521997   -0.36760446
 -0.40309972 -0.28300443]
[-0.3785203  -0.00975506 -0.35038567  0.7719895   0.37258708 -0.2280161
 -0.10250556  0.04832141  0.5712543   0.53766066  0.01762865 -0.20180327
 -0.55872947 -0.20219392 -0.23971778 -0.26186743  0.04492244 -0.43953404
 -0.57972634 -0.6094001 ]
[ 0.22817358  0.16981202  0.22370873 -0.12712885 -0.2741921   0.4342119
 -0.39681837 -0.16184655 -0.32749853  0.01136009  0.06769226  0.38121042
 -0.34602892  0.22102454  0.4374341   0.00089255  0.20134158 -0.25897545
  0.28481528 -0.11002336]
[-0.21169429 -0.07319822 -0.06309263  0.1620306   0.13634333 -0.02060472
 -0.0824683  -0.10001839  0.05797225 -0.21991383 -0.02335442  0.21016984
  0.06659353  0.06009376 -0.06449901 -0.15044451 -0.07374271  0.06145336
 -0.257885    0.06739257]
[-0.00637235  0.23989175  0.14635132 -0.00181505  0.04841971  0.05299434
 -0.11665562  0.12515064  0.12596312  0.31446433  0.06743954  0.36466432
 -0.33060527 -0.2471392   0.05816556  0.39031348  0.37715074  0.00389898
  0.27054593  0.01142339]
[ 0.5200427   0.10281    -0.23080082  0.08868555  0.28848273 -0.04842069
 -0.1525272  -0.16437407 -0.22896016  0.05157996  0.29590243  0.6430069
  0.00501059 -0.25179738  0.55005103  0.20513812  0.38105527 -0.44181865
 -0.18408138  0.578263  ]
[ 0.00550607 -0.23599331 -0.08207872  0.06318448  0.0068399  -0.57360977
  0.07664278 -0.11680632  0.17179699 -0.02458084 -0.24413732 -0.47298792
  0.39524505 -0.19032    -0.45396134 -0.03491028 -0.13478039 -0.339245
 -0.38450402 -0.193756  ]
[-0.1266422   0.2057931   0.28422806  0.2562275  -0.03258566  0.1990119
  0.04263064  0.04859075  0.11619562  0.11351968 -0.08879383 -0.41849598
 -0.59524864  0.21622622  0.12872986 -0.33257365  0.4933599   0.08505286
 -0.18242323 -0.23755115]
[ 0.54766214  0.06560258  0.08200618 -0.16214089 -0.28534943  0.14687267
 -0.25484905 -0.43093586 -0.41597116  0.21011418 -0.40219572  0.37077004
 -0.04386058  0.22328554 -0.16493638 -0.21116242 -0.02872335 -0.17876689
  0.3380975   0.02902495]
[ 0.6052959   0.29536778 -0.2369257   0.0228002  -0.11943289 -0.45730355
  0.47185087 -0.04336196 -0.8727143   0.21728627  0.25353926 -0.3746804
  0.39752704 -0.01801138  0.8506215   0.6609598  -0.08840321  0.9759842
  0.16697855  0.89604414]
[ 0.06712134  0.18078047 -0.07291806 -0.70998204 -0.23891196  0.77472115
 -0.4336202  -0.14126866  0.4594044   0.00632724 -0.24734342  0.8708755
 -0.4204488   0.34729117  0.21523164 -0.35663298  0.03119714 -0.73072433
  0.49205172 -0.44296837]
[-0.5351214   0.8867195   0.6203867   0.43794963 -0.08894759 -0.329843
  0.24117726  0.00362714 -0.00292508 -0.01270763  0.66464263 -0.64653337
 -0.10331892 -0.09002787 -0.29995582  0.40134144  0.04936294  0.5349339
  0.168279   -0.48421687]
[-0.00814736 -0.32464316  0.5463967   0.10931548 -0.19867353  0.38023224
 -0.15464649 -0.24234283  0.00681317  0.7515988   0.88485295 -0.12622127
 -0.49909306 -0.32537508 -0.22271805 -0.2628686   0.33432516 -0.2851688
  0.01207259 -0.40109724]
[ 0.23956579  0.18640932  0.24291462 -0.23240587  0.19130783  0.08551303
 -0.2971484  -0.2028518  -0.4093842  -0.2078426   0.06004099  0.6300319
  0.31480202 -0.08570871  0.2370742  -0.532479    0.2976641  -0.3058105
 -0.08401216  0.42755917]
[ 0.1042488   0.14704375 -0.04327407  0.30016792  0.11547446 -0.17041121
 -0.2322544   0.09013426 -0.07617377  0.91569453  0.17470534 -0.11163092
 -0.26481533 -0.57401896 -0.15520915  0.13700902  0.53332675  0.22212543
 -0.21459879 -0.19899665]
[-0.29014423 -0.3259139   0.5043286   0.05931747 -0.03021403 -0.02424537
  0.37781173  0.270541    0.1384842  -0.7447596  -0.16767612 -0.2678603
 -0.21435568  0.18803684 -0.43028197 -0.0859705  -0.53406405  0.43148902
 -0.30219448 -0.41690826]
[-0.4470151  -0.47938588 -0.37854365  0.03558085 -0.3119017  -0.07638192
  0.40562156 -0.42557564 -0.46072143  0.1341527   0.04154137 -0.17457373
  0.2799131  -0.22131515 -0.07751676  0.55622786  0.2179948   0.78250164
  0.02509333  0.46233192]
[-0.38582483 -0.17874779  0.50937444  0.19088286  0.0756145  -0.3783153
 -0.2438881  -0.51831084  0.18245023 -0.01993239  0.47623628  0.20624632
 -0.5660956   0.12246794 -0.0343431  -0.33046618  0.16504087 -0.33002627
 -0.09096078 -0.3793745 ]
[ 0.14308466  0.33360708 -0.09091591 -0.4870509  -0.10729751  0.30759653
  0.09928896 -0.6364907  -0.4149546   0.59469014 -0.35815117 -0.1049815
  0.00306837  0.35411355  0.43065315 -0.01746712  0.5176781   0.3756727
  0.5021414   0.4478488 ]
[-0.3525423  -0.10109498  0.25393158 -0.3939105   0.13883688 -0.36962745
  0.1360701  -0.322324    0.26053557 -0.25650096  0.10553697 -0.13943014
  0.24026763  0.17216045 -0.0677648  -0.15886246 -0.23469058 -0.22998653
 -0.17847651  0.28137848]
[ 0.23461239  0.5129067   0.15983884  0.5330817   0.26757115 -0.5103259
  0.00139327 -0.13447037  0.03218712 -0.18365155  0.05404613 -0.13996512
  0.09234844 -0.03522381  0.46977207 -0.33763587  0.03867579 -0.22381675
 -0.5388534   0.27274993]
[ 0.09927192  0.38949132  0.18105127  0.27748606  0.34265557  0.09797888
  0.08271277  0.6413993   0.02251088 -0.01325927  0.37644082 -0.04938279
 -0.4340568  -0.555007    0.21841753 -0.3794977  -0.35010308 -0.19375265
 -0.47764906 -0.37612706]
[ 0.04181828  0.08560991  0.3052205  -0.49364173 -0.10507808  0.30692652
  0.11210623 -0.813075    0.10761036  0.39139667  0.37929717  0.34934533
  0.22821605 -0.16746378  0.11616959 -0.26572308  0.7600049  -0.09596306
  0.2820312   0.48049724]
[-0.06505433  0.1758257   0.0633598   0.8896786   0.35965806 -0.26471332
  0.39750186  0.27106312 -0.03246595  0.1730357   0.06389991 -0.6416004
  0.21820457 -0.38878775 -0.06093175 -0.01836835  0.20431545  0.36775628
 -0.62251973 -0.09353064]
[-0.07461993  0.23676889 -0.49205086 -0.12772657  0.00554098 -0.35922384
 -0.1894203   0.25771645  0.03541368 -0.47877422 -0.4281143   0.29217508
 -0.24140523  0.35271287  0.0205596   0.03102226 -0.18847749 -0.07396193
  0.19910698  0.13175932]
[-0.50835776 -0.24691434 -0.09470001  0.28095144  0.39307702 -0.32284486
 -0.20690846 -0.47557485  0.19035518 -0.04709814 -0.86264837 -0.21247691
 -0.1384932  -0.37243164 -0.2907278  -0.3569188   0.58549345 -0.14228807
 -0.38662606 -0.28727633]
[-0.09674016  0.03172327 -0.3301802   0.06381024 -0.3394992   0.1774949
  0.28281182 -0.36413443 -0.2614002   0.05507543 -0.48572236 -0.2741767
  0.35131204  0.27533922 -0.09143573  0.29682273  0.5627375   0.5367914
  0.36892357 -0.17517874]
[-0.11804587 -0.2491046   0.20496467 -0.06680517 -0.1873136   0.20861499
 -0.18817243 -0.26960844  0.09069419  0.42319942  0.40266818  0.28045964
 -0.20069824 -0.20280714 -0.29032525 -0.07190794  0.21629633 -0.3096916
  0.13525023 -0.249429  ]
layer 5 Activation
tanh
layer 6 Dense
20 1
[-0.19399177]
[-0.25411445]
[-0.08947626]
[-0.2849067]
[-0.3452174]
[0.2727802]
[-0.2931547]
[0.1023987]
[0.3148207]
[-0.4031035]
[-0.35007924]
[0.18478924]
[-0.28835127]
[0.14410733]
[-0.2820508]
[-0.15745206]
[-0.19974713]
[-0.21731125]
[0.26334095]
[-0.2272572]
[0.22811185]
