layers 7
layer 0 Dense
20 20
[ 0.25689533  0.05706542 -0.28020716 -0.07102874  0.05027879 -0.22806461
  0.32141632  0.29190752  0.05106467  0.25334206  0.31443587 -0.06233513
 -0.03341425  0.07194247  0.14330049 -0.10202187  0.03886227 -0.00311143
 -0.04520521  0.28594306]
[ 0.176189    0.33706838 -0.14155132  0.1984608  -0.08403873 -0.39787716
  0.5176187   0.5118555   0.02228904  0.61312383  0.48294696  0.04632983
  0.52850324  0.42766905 -0.7946463  -0.24884304  0.30996183  0.24005006
  0.6542308  -0.04070987]
[ 0.12466913  0.59036213  0.20982738  0.5729347   0.5495159  -0.16389477
 -0.04288573  0.7436182  -0.077067    0.60506296  0.5741251   0.23153384
  0.40304267  0.07344012 -0.13724576 -0.22050193  0.5548386   0.26647508
  0.3052548  -0.23510236]
[ 0.20994216 -0.19431557  0.090485    0.10067231 -0.30083272  0.14032827
 -0.08707993  0.1223132   0.07215097 -0.28739357 -0.279662   -0.05518856
 -0.07240073 -0.20474522 -0.07355556 -0.24799308 -0.06749298  0.26887664
  0.16808945 -0.35893375]
[ 0.36848676  0.1108833  -0.02182355  0.1827889   0.6432183  -0.01533822
 -0.02201524 -0.0706718   0.39172482  0.12238895 -0.02050253  0.18244065
  0.5642606   0.20040512  0.01454363  0.00129931 -0.3090869  -0.09653718
 -0.10646331 -0.28483862]
[ 0.06639869 -0.03997899  0.23089139 -0.15024427 -0.4791123  -0.1056785
 -0.6161901  -0.41221413  0.54628205 -0.1426729  -0.22436215 -0.296379
 -0.6670354   0.22600691  0.21465912  0.3578685  -0.33132488 -0.442405
  0.05351249 -0.30267337]
[-0.3548372  -0.40902117  0.18210207 -0.02020835 -0.4500862  -0.00686903
 -0.09146612 -0.7391975   0.35237694 -0.4455899  -0.13030247 -0.2371453
 -0.24957287  0.08450041  0.20348904  0.05888764 -0.44836912 -0.36197978
 -0.57895553  0.05327918]
[-0.34619176 -0.28221115  0.16952795 -0.25557554 -0.1413173   0.03877535
  0.0691288   0.12946053  0.14431569  0.23165464 -0.03598472  0.09877551
 -0.36714128 -0.02683026  0.36004293  0.3838274  -0.19058596 -0.12098959
 -0.1674887   0.11356393]
[-0.04341982  0.21341993 -0.2421764   0.10637754  0.03044129  0.05455752
 -0.2235977  -0.06022469  0.1950938   0.17144886 -0.2725353  -0.03196876
  0.35557288 -0.16382115  0.40869093 -0.31111807  0.07953949  0.38258767
 -0.28744644 -0.17962176]
[ 0.11963847  0.5190686   0.29131696 -0.10644411  0.3009616   0.27426383
  0.17506273 -0.36705336  0.11038873 -0.09286439  0.28318873 -0.29769573
  0.0167504   0.2904257  -0.04936371  0.15153636  0.2929826  -0.2444223
  0.3325516  -0.1874602 ]
[-0.08176091  0.062361    0.2927204   0.13974163 -0.1270598  -0.31979668
 -0.0059237  -0.25192     0.22566728 -0.07583255  0.12960352 -0.18094455
 -0.07003364  0.03753742 -0.19270407  0.24077243  0.14062983 -0.16392525
 -0.25500336 -0.05892385]
[-0.29767108  0.13577944 -0.38346457 -0.03801403  0.14247015 -0.01638096
  0.2927418  -0.32481468 -0.1747376   0.11198708  0.14357333 -0.1433771
 -0.14648019  0.04829234  0.06808809  0.33342433  0.0850809  -0.24445331
 -0.29300186  0.31828815]
[ 0.08971231  0.36302397  0.33070663  0.02204847 -0.15911573 -0.07902492
  0.19939767  1.0187862  -0.0964696  -0.04463644 -0.0766133   0.06166678
  0.53305656  0.19043554 -0.03298556 -0.64156413 -0.280574    0.2565649
  0.25809005 -0.17126146]
[-0.08088242  0.31641376 -0.18015026 -0.34130502 -0.02622834  0.41436234
  0.14736925 -0.11848899  0.03570272  0.2709505  -0.03216884  0.14355458
 -0.02620197  0.10007802 -0.09405609 -0.28914058 -0.0627467  -0.0420652
  0.02367053  0.00232447]
[-0.09336577  0.46115515  0.17514305 -0.15984114  0.62305915 -0.6853043
  0.17284808  0.00999946 -0.15566422 -0.07253347  0.15534253 -0.1995326
  0.98135364 -0.02552313  0.03556071  0.1893467  -0.00503961 -0.37577698
 -0.32226837  0.05901064]
[-2.66596317e-01  5.79238713e-01 -5.04176497e-01 -1.07791938e-01
  2.61775464e-01 -7.87971541e-02 -3.05379242e-01 -7.48833716e-02
  6.99522614e-04  3.29960078e-01  1.12188414e-01  1.25341445e-01
 -1.00273001e+00  3.61403763e-01  3.40694129e-01  9.16431695e-02
  1.00935344e-02 -1.39107913e-01  1.51483849e-01  6.28291965e-02]
[-0.00265184 -0.6115328   0.13104567  0.29852796  0.3394507  -0.17321464
  0.1027016  -0.09270983 -0.19945629 -0.08340756 -0.24254312 -0.07106222
 -0.08957667 -0.33276308  0.08075889 -0.5975405  -0.13989365 -0.08100589
 -0.4576602   0.05593953]
[-0.23696937  0.09355856 -0.19351327 -0.5400891   0.13168196 -0.21415928
  0.03544526  0.36724117  0.06902799 -0.00479788  0.1815693   0.01183812
  0.1165904   0.0710384   0.19815902  0.28745243 -0.01934185 -0.05134007
 -0.0453064  -0.15386777]
[ 0.00331592 -0.28238153 -0.33788723  0.19457841 -0.9687055   0.5183712
  0.1102263   0.67600745  0.18022163  0.04881375  0.22207347  0.02150097
 -0.6960342  -0.25680417  0.24862152 -0.11697135 -0.45385268  0.21344568
  0.48406672 -0.07198413]
[-0.04036525 -0.22371054 -0.23327225  0.35415307 -0.4831182   0.10369871
 -0.05886626  0.7535107  -0.11306719 -0.4797006   0.10792286 -0.41640243
 -0.63838404 -0.26423746 -0.24174696  0.17265667  0.18204059  0.01837337
 -0.37149912  0.17555465]
[ 0.01011863  0.14917925  0.0660269   0.10020373 -0.25521913 -0.01368855
 -0.09039842 -0.04053582  0.05637707 -0.03405236  0.05624866  0.07768054
 -0.20461956  0.04960079 -0.04525588  0.07705127  0.02116416 -0.06684711
  0.1484576   0.0021549 ]
layer 1 Activation
tanh
layer 2 Dense
20 40
[ 0.15703282  0.13214421  0.11804699 -0.11922378 -0.02435477 -0.00935945
  0.19220972  0.04049689  0.21745645 -0.26342124 -0.08189799 -0.01051999
 -0.08203843 -0.06810112 -0.08349588  0.07524697 -0.12867509 -0.09282595
  0.12131757 -0.01331419 -0.12288172 -0.14801002  0.18855172 -0.1304358
 -0.01929089 -0.18864095 -0.08394109  0.2028042  -0.16241285 -0.07043725
 -0.09831205  0.18533269 -0.16045755 -0.15541969  0.085248   -0.09523116
  0.1809818   0.095226   -0.15045214 -0.05758223]
[-0.18762255 -0.11414532 -0.10870585 -0.12275502  0.22441764 -0.02847946
 -0.02073966  0.00275038 -0.18912077  0.14237614 -0.01798103 -0.08516733
  0.0253504   0.03504875  0.09066992  0.20860982 -0.10452639  0.18288913
 -0.06540646  0.04802767  0.15876395 -0.0906406   0.17857985  0.00555049
 -0.25976172  0.0131159  -0.14081684 -0.0455625  -0.01241721  0.17528807
  0.00529274 -0.1538761  -0.0708771  -0.0658818  -0.20230415 -0.03515526
  0.15809803  0.24391349 -0.11760467  0.25612321]
[-6.9735602e-02  1.3612823e-01  1.2658964e-02  1.1617225e-01
  1.4033358e-01  5.1418062e-02  6.1328214e-02  8.1203640e-02
  7.3300092e-05 -1.6102545e-01  6.9535904e-02  2.0811491e-01
 -1.6965041e-01  1.6997300e-01  1.7603056e-01 -6.5342918e-02
  2.1482736e-03 -6.0158973e-03 -1.6378994e-01  8.4097207e-02
 -3.6494669e-02  1.7127037e-01 -3.8569633e-02 -1.8052018e-01
  2.7406149e-02 -6.6712148e-02  2.1098745e-01 -6.7898937e-02
  2.4777560e-02 -1.9818828e-01 -2.0537546e-02  2.7856687e-02
  1.5105172e-01  4.8441503e-02 -2.3311403e-02 -2.7738336e-02
  1.8299630e-01 -1.0362151e-01 -1.8431759e-02 -2.2574987e-01]
[ 0.06137923  0.08614663  0.05498042  0.05084232  0.08079308  0.05256252
 -0.02427236  0.11568191 -0.00464932  0.20354658 -0.03506657 -0.10202613
 -0.16104436  0.13454425 -0.26997834 -0.06238626 -0.10378207 -0.08756831
  0.01896595 -0.13355933 -0.03033331 -0.07387072  0.07760216 -0.03381733
  0.10535741 -0.06818892  0.07578752  0.03746712 -0.04329546  0.08790271
 -0.09101261  0.04375042 -0.05605427  0.03604008 -0.02371871  0.100584
 -0.17987427 -0.13106251  0.03066103  0.06624331]
[ 0.11140223  0.02256711  0.20295902 -0.17433535  0.1280397  -0.14539558
 -0.10247505 -0.05623361  0.0559331   0.04565068  0.13489832 -0.12732601
  0.10000967  0.01039843 -0.00106814  0.23370235 -0.17589223 -0.03128397
 -0.10521514 -0.22679006 -0.06043256  0.1717419  -0.05488005  0.02322619
  0.0675142   0.06572643  0.20774224 -0.13076238  0.04919754 -0.01019933
  0.07831878 -0.08564902 -0.15235741  0.03737208 -0.03333382 -0.15314208
  0.09099047 -0.12828656  0.1237029   0.10858253]
[-7.31126666e-02 -1.49567083e-01  1.21659502e-01 -1.44766703e-01
  4.65384349e-02 -5.17300004e-03  2.03927144e-01  5.85942790e-02
  1.06537081e-01 -2.13466465e-01 -8.03832430e-03 -1.47051379e-01
  6.25828728e-02 -1.49471954e-01  1.30265374e-02  2.32099984e-02
  2.14034803e-02 -6.37188461e-03 -1.22747654e-02  1.58896893e-01
 -2.82449182e-05  4.63598408e-02  1.28061473e-01  5.93367927e-02
  1.73561156e-01 -1.13541605e-02 -9.74588096e-02 -7.79970288e-02
  4.26489078e-02  2.14648485e-01 -1.66428879e-01  4.41586860e-02
 -7.23081306e-02  1.29023120e-01 -4.22072932e-02  1.24651222e-02
 -1.66265249e-01  2.74220146e-02 -5.48100360e-02 -2.29465198e-02]
[-0.13468888 -0.19955698  0.02107473 -0.14536518  0.03015178 -0.08658182
 -0.12553428  0.02684526  0.02333929 -0.21959843  0.00863051 -0.03483434
  0.08066946 -0.03624292  0.01867393  0.04839533  0.03487549 -0.02241784
 -0.21933737  0.12456139  0.18168616 -0.08511429  0.05963112 -0.11274163
  0.10680918 -0.08487672 -0.08189026 -0.01924506 -0.09472243 -0.04977483
 -0.24628665 -0.05121661  0.00872396 -0.18405919  0.08725632 -0.05252822
 -0.127201   -0.1168974   0.14175569 -0.04886808]
[-0.05441226 -0.01179597  0.16024832  0.19297202  0.23594329  0.02225724
  0.11017802  0.09964071  0.0483467   0.10212029 -0.19212285 -0.00942546
 -0.13809712  0.10035207 -0.1452932  -0.24335432  0.10811153  0.02266018
  0.01706931  0.06419656  0.09530477  0.05192902  0.31838614  0.04281631
  0.04579708  0.08110441  0.18309645 -0.27245027  0.06876743  0.00174437
 -0.07564029  0.03691538 -0.1739968   0.06342477 -0.14735985 -0.05919867
  0.1365583   0.14720477  0.18677418  0.03173888]
[ 0.07760306  0.13396545 -0.13533911 -0.08944228  0.11939735 -0.14477572
  0.154146   -0.0208817   0.24309455  0.08237775 -0.09814171 -0.12696925
 -0.05421168  0.1750965  -0.14505522 -0.02823915 -0.10711653  0.03163891
  0.01473688 -0.02807584  0.00247512  0.11124028  0.16803384 -0.02127099
 -0.04150617  0.0668772   0.07690395  0.121931   -0.1442099  -0.09413565
 -0.00202958 -0.06552171  0.03184913 -0.06786945 -0.00585909  0.01826362
 -0.04102716 -0.09448254  0.0805696   0.05091217]
[ 0.0561233  -0.04626236  0.00893111 -0.01689258  0.01616479  0.04499885
 -0.09139007 -0.08888512 -0.07855999  0.08909883 -0.07350758 -0.0137504
  0.04803918 -0.07945698 -0.05154748  0.07221313 -0.03763368  0.15135801
 -0.10181633 -0.0159355   0.05529007  0.09571146 -0.01043786 -0.03504787
  0.12796627  0.00054038  0.17391093 -0.14777768  0.07591633 -0.09179144
 -0.08444267  0.09623391 -0.10278565 -0.00864452 -0.02610803 -0.02110642
  0.26022243 -0.0280505   0.01040278  0.03986549]
[-0.08571769 -0.1093252   0.15930192 -0.19283587 -0.13031991  0.02775143
 -0.13926394  0.13971192  0.05048379  0.00845375  0.3150434  -0.06005939
  0.17760509 -0.0207746   0.08749504  0.23797834 -0.02963894 -0.34648418
  0.06184018 -0.04466173  0.22336575 -0.03503547 -0.14740473  0.20786577
  0.06743032 -0.03143    -0.24793486 -0.08856654 -0.03748071  0.168005
  0.25511134 -0.06990922  0.02798471 -0.00443143  0.15003382 -0.16151164
 -0.11463496 -0.04512945 -0.02792662 -0.04449008]
[ 0.08038714  0.07692912 -0.04876179  0.00218758  0.10320017 -0.07422847
  0.05192819 -0.02738996  0.1107058  -0.10255851 -0.05348326  0.00942959
  0.16147836 -0.02130408  0.00408416 -0.00775387  0.03929003  0.06877914
 -0.05338941  0.0635387   0.06800499 -0.05636089  0.00265276 -0.00375527
  0.10353035  0.24978063 -0.0695131  -0.01216889 -0.1107007   0.0545999
  0.09903252 -0.11334977 -0.15611796  0.1379868   0.13898784  0.02220941
  0.10414442  0.18153213  0.04206111  0.0528712 ]
[-0.01249977 -0.01616262 -0.10805813  0.14919041  0.10891786 -0.01447707
  0.26658788  0.15013924 -0.06495004 -0.16225255 -0.18635611  0.09036809
 -0.07556303 -0.19671397 -0.0856452  -0.2836497   0.10744052 -0.04653321
  0.05597045  0.06859279  0.00799755 -0.09836549  0.27500343  0.04218781
  0.05673521  0.0830675  -0.2667405  -0.14038892 -0.05418737 -0.05919845
 -0.0192357   0.02263862 -0.13512893  0.09081508 -0.02141357  0.06475411
  0.10194835  0.24324322  0.03375236 -0.13389964]
[-0.00356369 -0.09729184 -0.10521793 -0.15894476 -0.01778398 -0.07511053
  0.25381854 -0.05116609 -0.15143293 -0.18782584  0.02342566  0.12857747
  0.06466635 -0.24303673 -0.12746781 -0.23290342 -0.04613596  0.05260204
  0.17315401 -0.01986511 -0.09764704 -0.05077009  0.09060203 -0.040971
 -0.04665096  0.05230153  0.1343195  -0.09594791 -0.12114587 -0.14580542
 -0.1447989   0.01143419 -0.09356181  0.06166268  0.12925726  0.0302408
 -0.06512875  0.00339998  0.04215765 -0.02134901]
[ 0.11970481  0.11820345 -0.10764498  0.08742008 -0.15484564 -0.05741421
 -0.18062086  0.12059332 -0.00838876  0.31520465 -0.11182832  0.13970244
 -0.06948464  0.14187035  0.26732558  0.15651678 -0.07997797  0.15921219
 -0.12907112  0.05723917 -0.13417885 -0.09806141 -0.10467301 -0.18167008
  0.03781534  0.12780151 -0.0866949  -0.01286588  0.09605672  0.02227033
 -0.06021238  0.10899998  0.08454486 -0.12338466  0.09635455 -0.06242379
  0.10314934 -0.14703147 -0.05302698  0.02174171]
[ 0.09773021 -0.04146224  0.17372708 -0.25337     0.185354    0.01335048
  0.21235068 -0.06725658 -0.12232902  0.08376814 -0.07780509 -0.05625284
  0.17776106  0.06763427  0.13632342  0.08616485 -0.11809672  0.18215069
  0.05420065  0.02050104  0.03057902 -0.06697611  0.09529505 -0.14118148
 -0.07752617  0.06072605  0.21559538 -0.0762545   0.09044328  0.17602803
 -0.12794924  0.20922779 -0.04588255 -0.14041737  0.02066059  0.07003905
 -0.04742774 -0.13152744 -0.02772239 -0.06848738]
[ 0.20533864 -0.07741965 -0.09520774  0.09166475 -0.15194482  0.00814328
 -0.18239383 -0.12574275  0.15858747 -0.21820025  0.1142766   0.05362994
 -0.14394166 -0.02915524 -0.12102261  0.06616094  0.07113177 -0.02288173
 -0.06223546  0.02397121 -0.0103038   0.06834877 -0.01714405  0.02746273
 -0.15325291  0.17379485 -0.11231053  0.15869002  0.16718651 -0.0629818
 -0.13196237 -0.23729265  0.0989596   0.19451767  0.10379365 -0.01014016
  0.09344953 -0.00969783  0.17280883 -0.04005669]
[ 0.10826929 -0.08532122 -0.12323653 -0.14966677  0.22375388  0.1593931
  0.29645115  0.04231747 -0.13033321 -0.13831007  0.13819788  0.06771782
  0.30026454 -0.1281986  -0.10729975  0.15698089 -0.28215122  0.14725006
 -0.02724651 -0.05053252  0.05915596  0.14373997  0.05117251 -0.09929024
 -0.21046603  0.24320176 -0.09494068 -0.01395645  0.12171008 -0.01976868
  0.02979724 -0.12821074  0.14115472  0.0490264  -0.03487496  0.10512653
  0.08438951  0.10102472 -0.11422274 -0.05650143]
[-0.05122738  0.2608877  -0.05410019  0.34868634  0.24121697 -0.04063446
 -0.03612342  0.1889996  -0.03540245  0.0640945  -0.01717264  0.08870699
 -0.25899306  0.11271609 -0.03054127 -0.23260602  0.10086408  0.02637993
 -0.00103471  0.09833244  0.03806151 -0.10528637  0.17153463  0.14217669
 -0.08318578 -0.0758988  -0.21780474 -0.17122434  0.04963349 -0.02591305
  0.09513073  0.00505627  0.11536957  0.06452485 -0.06507414  0.02713585
 -0.02302899  0.0556312   0.03239606  0.04036889]
[ 0.16204783  0.04524912  0.02039392 -0.2507356   0.1541532  -0.0084353
  0.17940634 -0.09024583 -0.12177614 -0.13259912  0.09157284 -0.0489945
 -0.02584882 -0.00259587  0.06662805  0.01709105  0.0904787   0.01155333
  0.1679407  -0.04518703  0.14730312 -0.05581883 -0.10931294  0.04511029
 -0.07552144 -0.00236314 -0.16976832  0.0421724  -0.17751919  0.01621241
 -0.01915189 -0.09247354 -0.09932546  0.11368233  0.00475891  0.04837848
 -0.07783795 -0.15436567 -0.0025192  -0.07929055]
[-0.11651803 -0.11303598 -0.08635488  0.15210299  0.08621253 -0.05399342
  0.01606975  0.1866462   0.00296914 -0.07942586 -0.1332571  -0.03055405
 -0.12817724  0.01497769 -0.04845521 -0.25738138  0.01147399  0.07007415
 -0.03484814  0.188373   -0.11088453  0.09195121  0.25970975 -0.00089588
  0.02848374  0.06062469 -0.1461957  -0.05309284 -0.02017769 -0.06429049
 -0.1352825   0.09953097  0.04424303  0.16743433 -0.00815246  0.02349712
 -0.07765     0.188495   -0.06270392 -0.07422338]
layer 3 Activation
tanh
layer 4 Dense
40 20
[-0.1427904   0.11408057  0.00225411  0.06873988 -0.05484967  0.18323062
 -0.05581514 -0.00317493  0.11966835  0.05254307 -0.04652008  0.1104868
 -0.07368185  0.1590705  -0.01084261  0.11306082 -0.06458648  0.12959693
 -0.14300448  0.05371701]
[ 0.11524003 -0.06826442 -0.14720519  0.2575855   0.05968578  0.12198806
 -0.00955482 -0.09926865 -0.09523453  0.09738352 -0.03722498  0.07656188
  0.08161131  0.11777692 -0.07739256  0.08560123  0.08283915  0.01831473
 -0.16133134  0.09705646]
[ 0.17382385 -0.04127431 -0.06840353  0.08594212  0.13739036  0.02948537
  0.12934676  0.086581   -0.15472376 -0.10513955 -0.08615218  0.1781555
  0.2803553   0.04194151  0.21957709  0.10329553 -0.06263397 -0.0758469
  0.14923906 -0.13641205]
[-0.03770702  0.08522393 -0.0181665   0.0510389   0.10083174  0.1661318
 -0.20048259  0.05397417  0.1171058   0.05242376  0.04349155 -0.04713482
  0.02314912  0.05432184 -0.0144168  -0.12278803  0.02854254 -0.1400031
  0.17353255 -0.1448347 ]
[-0.2013791  -0.08964523  0.27473673 -0.08780495 -0.23613064 -0.1363873
  0.01683422 -0.04446171  0.21019964 -0.09918193  0.07113922 -0.25281608
 -0.03410743  0.02445266 -0.13119271  0.01472533  0.13937573 -0.24135306
 -0.00444807 -0.12023606]
[-0.07688735  0.15527803  0.25523645  0.18464707 -0.03911064  0.15100032
 -0.04292126  0.00464465  0.10653695  0.04939548 -0.00937404  0.01953275
 -0.18549778  0.08125805  0.00238312  0.00730719  0.03366652 -0.20414217
  0.06467558 -0.06349849]
[-0.15102547 -0.06399515 -0.1457443  -0.154859    0.0997781  -0.17780316
 -0.10082786  0.05302829 -0.24043809  0.12197485  0.20167865  0.26818284
 -0.0904701  -0.15122595 -0.04684421 -0.10092875 -0.09242418 -0.05879565
  0.14532213 -0.23510563]
[-0.14790908  0.03810216 -0.06225372 -0.0367268   0.01211238  0.09268367
 -0.15286586  0.1908264   0.063193   -0.07680377 -0.09244753  0.14376532
 -0.17220275 -0.02625951 -0.07300451 -0.05912361  0.05830545  0.03277806
  0.07011345 -0.03971311]
[-0.13491008 -0.07422649 -0.12148795 -0.10675018  0.00962037 -0.17671245
 -0.00668187  0.05570937 -0.03999779 -0.09047998 -0.00405656  0.00603612
  0.02146164 -0.05351951 -0.06454425  0.05812476 -0.281172   -0.0283576
  0.01599413  0.00209355]
[-0.0721436  -0.26976654  0.11102518 -0.15122436  0.13765673 -0.12533846
  0.29869846  0.0587625  -0.00910716  0.10969819 -0.02386986 -0.01730081
 -0.10430302 -0.08699431  0.00301634  0.0397012  -0.09464117 -0.19967635
 -0.06653182 -0.21938242]
[ 0.05761071 -0.01849942 -0.08438478 -0.1004106   0.1995441   0.21978743
  0.12299063  0.12221482 -0.02801542 -0.1070333   0.0730034   0.05927728
  0.02683203  0.08134159 -0.08061535 -0.2681683  -0.01481181 -0.17229584
  0.15777902 -0.09953365]
[ 0.18596096 -0.08603743  0.02473409 -0.18376671 -0.06719524  0.24816778
 -0.06356252  0.090586   -0.00709069 -0.02486448  0.12173051  0.05000181
  0.02272527  0.05901634 -0.16640125  0.04417795 -0.12967673 -0.02635873
  0.24949515 -0.06890696]
[-0.17810938 -0.05846094 -0.08228703  0.26012114  0.09047458 -0.2181777
  0.20512831  0.09905029 -0.06288985 -0.12261177  0.2525273  -0.10224309
  0.04684243  0.18249059 -0.03610276  0.11516996  0.05694719 -0.07452395
  0.05044061 -0.13781124]
[ 0.1310665   0.08579423 -0.07888071 -0.08915217 -0.10825501 -0.17687297
  0.16848351 -0.10275257 -0.15454282 -0.04097646  0.12130708  0.02792828
  0.06737237  0.0791761   0.10293667  0.04451067 -0.03808973 -0.19925953
  0.06824973  0.06721836]
[-0.0496954   0.04181657 -0.16892022  0.0016794  -0.10767233  0.06895401
  0.10435912 -0.03577271 -0.1570873  -0.10786512 -0.0176333   0.03854967
 -0.09531356 -0.08804379 -0.0721443  -0.04706189  0.09841143  0.27086127
  0.08735666  0.05872762]
[ 0.06258006  0.07379154  0.20502418 -0.05517034 -0.00161167  0.25410494
  0.12588082  0.02036333  0.07113083 -0.00656304 -0.05144199  0.07089479
  0.00117871 -0.08578311  0.06786082 -0.13647927  0.04598052 -0.10239565
  0.13907787 -0.03342758]
[ 0.10011717  0.06923739 -0.0765776  -0.06047285 -0.13099317  0.03203599
 -0.00427446  0.12788753  0.05920706 -0.05564047  0.02991781  0.16753545
 -0.04673843  0.15367568 -0.16137785  0.212141    0.10264741  0.06709613
 -0.05830544  0.04251177]
[ 0.12311845 -0.00848104  0.16321987  0.1027552   0.12554666 -0.03747324
 -0.0750927   0.09673578  0.12412902  0.07834512 -0.08476301  0.16750562
  0.20327742 -0.09800842 -0.00727827  0.25766927 -0.14577186 -0.06453725
  0.00106487  0.07775154]
[ 0.06092741 -0.08346742 -0.09123193 -0.11648153  0.05380565  0.0899412
  0.15669762 -0.09130107 -0.13822807 -0.03836479 -0.13006318  0.0709436
  0.1852177   0.0319501  -0.25785285 -0.06619605  0.16626173 -0.01769634
  0.11038595  0.2096014 ]
[-0.05288977  0.06257024 -0.12295676 -0.15062538  0.21783444  0.00896737
 -0.11331725  0.0844387  -0.00802885  0.04947468  0.10064808  0.15636991
 -0.08946557 -0.01807969  0.11131494  0.00823828  0.0656302  -0.07407
 -0.06541056 -0.16206108]
[ 0.20385766 -0.01830428  0.22612703  0.05346393 -0.01194538  0.13228175
  0.00836733  0.08439107  0.20977978 -0.04464041  0.01991364  0.13888493
 -0.03484831 -0.04325045 -0.0186088   0.40125543 -0.08069835 -0.0444931
 -0.14789763 -0.05817808]
[ 8.3076470e-03 -1.7506741e-02 -3.9886490e-02  3.3879671e-02
  8.9138322e-02 -2.3592781e-02  6.9311438e-03  5.9635747e-02
  9.4521529e-05  8.0625631e-02 -1.4028069e-01  1.7768830e-01
  2.4348064e-01  9.8545723e-02  1.4324252e-02  1.4480433e-02
  1.8510024e-01  9.7926147e-02 -7.6689295e-02  1.7374742e-01]
[-0.11479659 -0.04414613 -0.08526418  0.02362128 -0.07695214  0.02655134
 -0.29571736  0.0652693  -0.01839859  0.01526857  0.1647407  -0.17255448
 -0.18680446 -0.12465094 -0.00940678 -0.09822982 -0.08618248  0.02661479
 -0.08060966  0.16881219]
[ 0.01755998  0.06141693 -0.13342097 -0.08738126  0.03833168  0.16820416
 -0.06148105  0.18101697 -0.0463322   0.00740243 -0.05072654 -0.24399106
 -0.0607339  -0.04589647  0.02820309 -0.03597568 -0.06826047 -0.0416113
 -0.0010471  -0.013271  ]
[-0.10556547 -0.02482083 -0.05334715  0.03854454 -0.28127193 -0.20498398
  0.18199067 -0.26548567  0.13424253  0.06001194 -0.06063377  0.16969271
 -0.15760373 -0.08795161 -0.01332438 -0.14345682  0.24610297  0.12251201
  0.03027166  0.07650599]
[ 0.02365273  0.1866755   0.17141221  0.23215255  0.00610909  0.1280214
  0.02414592  0.10394868 -0.09745795 -0.09142093 -0.22298291  0.09608017
 -0.03647796  0.06888467  0.11840858  0.00712426  0.03682836  0.13876401
  0.01047671 -0.2134096 ]
[-0.12106256  0.17078926 -0.18261845 -0.19484055 -0.09474649 -0.06934495
  0.5080645   0.00602469  0.09580958 -0.06226505  0.14223488 -0.20652089
 -0.16482024  0.04964992  0.04266353 -0.09458066  0.07633256 -0.16149473
 -0.04012087  0.00969481]
[-0.06833664  0.03757785 -0.09389771  0.07441997  0.06024913 -0.09278252
 -0.00966631 -0.00634452  0.11618654 -0.04135557  0.1833271   0.14976351
 -0.07458515 -0.054112   -0.00862014  0.05281283  0.12958574 -0.06827378
  0.0048469   0.05712401]
[ 9.40318555e-02 -1.07235625e-01 -4.17961329e-02 -1.05334871e-01
  2.07843594e-02 -1.63753226e-01 -9.44228284e-03 -7.14452267e-02
 -4.85361554e-02 -1.50999762e-02  1.77044511e-01  7.26529360e-02
  1.53255640e-02  6.26822293e-05 -2.27038249e-01  3.87582034e-02
 -1.39181293e-03  2.02303212e-02 -4.15620692e-02  2.17572339e-02]
[-0.06459887  0.07015801  0.06050198  0.12255208 -0.06840973  0.04226883
  0.1615218  -0.13345282  0.0956779  -0.0136122  -0.01239066  0.24064566
  0.13891941  0.03209177 -0.04688881 -0.08486976 -0.15412366  0.18801199
 -0.00163327  0.06765419]
[ 0.1784452   0.15480578 -0.07123349  0.14057647  0.1747741   0.01401222
  0.11442526  0.11247857  0.17283991 -0.02252121 -0.17539412 -0.09561183
  0.09893545  0.03314232 -0.01507385 -0.05407568  0.19024487  0.18661813
 -0.09245347 -0.06088086]
[-0.05475422 -0.06443685 -0.14582196  0.12032469  0.01760226 -0.0088956
 -0.04336615 -0.07360843 -0.01639816  0.04443958  0.06391715  0.04309575
  0.15859331  0.04874505  0.07370223 -0.03201206  0.11303166  0.12067717
 -0.02504732  0.16959698]
[-0.03927894  0.01615177  0.03402923  0.26195672  0.1265264  -0.03910515
 -0.08287242 -0.09149474 -0.11880291  0.17476797  0.09766504  0.04029054
 -0.06858511 -0.00881575  0.01591527 -0.08710481  0.03702366 -0.06283097
 -0.03947371 -0.09234874]
[-0.0120105  -0.01501923 -0.17529629  0.13948032 -0.06062198  0.03694635
 -0.1616399  -0.01589254 -0.00241894 -0.20292965  0.21308948 -0.10199396
 -0.1480617  -0.10746367  0.06678091 -0.29555112 -0.08760619  0.15463756
  0.12834099 -0.03948944]
[-0.14730428  0.01389546 -0.10449716 -0.08814043  0.17701957  0.15717275
 -0.02838111  0.12088953  0.12511702 -0.03499436  0.0246463  -0.20694768
  0.19438967 -0.05014763 -0.04927569 -0.04616501 -0.09292313  0.01088193
  0.04802718 -0.03088358]
[ 0.07133283  0.08616702  0.15903512 -0.02105094 -0.02466962 -0.08931544
 -0.01615703 -0.04535782  0.1860039   0.07702593  0.06992631  0.11986928
  0.15686414 -0.08186194 -0.00276419  0.05079587  0.00077663 -0.01329366
  0.12083727  0.03193371]
[ 0.18151984  0.02506957  0.21584527 -0.1588221  -0.10554664  0.13271587
 -0.13786526 -0.02550177  0.03739101  0.0663458  -0.134467   -0.05384338
 -0.1991941  -0.01865296 -0.11517338  0.10782257 -0.00980251  0.02163721
 -0.10244326 -0.11775322]
[ 0.08768637  0.04609223  0.12847733 -0.02025292  0.05513077 -0.13199425
 -0.25061217 -0.18873124 -0.13838817  0.17119232 -0.152149   -0.0329844
  0.14838858  0.06751976  0.02447633 -0.05687616  0.2675461   0.0151909
  0.1133414  -0.01737755]
[ 0.00329532 -0.11625335  0.13809055 -0.05579091 -0.06132631  0.1663872
 -0.00963682 -0.14262755 -0.09864134  0.02707945  0.05783825  0.10284948
  0.1157162   0.09507671 -0.07311097  0.20585568  0.04167724 -0.00388344
  0.08759976 -0.28170633]
[-0.06607103  0.15113294  0.11982802  0.1465457  -0.12121708  0.18117908
 -0.04637539 -0.13283236 -0.09355245  0.00108007  0.14244524  0.16573815
  0.06807186 -0.0443454   0.04140588  0.11233877  0.17323911  0.12789655
  0.18578683  0.05670481]
[-0.0026441   0.01380325 -0.1253583  -0.00751594 -0.04159544 -0.00893245
 -0.21377431 -0.0444649  -0.01163775 -0.08098528 -0.04932724 -0.02176085
  0.05292373  0.08413649  0.03451146  0.07080149  0.02542088  0.05151816
 -0.02518144 -0.07726009]
layer 5 Activation
tanh
layer 6 Dense
20 1
[0.00597622]
[0.01049493]
[0.0157652]
[0.00200533]
[0.01938874]
[0.01070015]
[0.0567007]
[-0.00092961]
[0.00452382]
[0.01997656]
[0.01453318]
[-0.00687527]
[-0.0128793]
[-0.01114523]
[-0.01349498]
[0.00077289]
[-0.00285681]
[-0.00357776]
[-0.00420108]
[0.00792696]
[0.04130528]
