layers 7
layer 0 Dense
24 20
[ 0.9521468   0.21882685 -0.9021328   0.9345321  -0.02230043 -0.93205726
 -1.0193536  -0.43999943 -1.1607052  -0.5946908  -1.9012966  -0.9170708
 -0.9520055   0.33017674 -1.6839323   1.2356597   0.5486567  -0.31878126
 -0.18253669 -0.9092811 ]
[ 0.07868975  0.10526794 -0.1458927  -0.23275459 -0.6584419  -0.3576852
 -0.21111618 -0.08532636 -0.10438953 -0.19593361 -0.13551538 -0.36888966
 -0.18091366  0.68903714 -0.2756959   0.35706246  0.35157242  0.02568783
 -0.35797513 -0.43665445]
[ 0.05919565 -0.01836401 -0.6722638   0.25097197 -0.81173927 -0.46256328
 -0.79373866  0.22212338 -0.26316676 -0.53821945 -0.48953974 -0.5012389
 -0.56012326  0.45750684 -0.09462954  0.6156085   0.39765748  0.15293953
  0.20744206 -0.7838519 ]
[ 1.0726955   0.35483488 -0.75809777  0.6444322   0.12322304 -0.81982046
 -0.8881088  -0.24790044 -0.9642494  -0.8020675  -1.0965981  -0.45837197
 -0.5577397   0.45849586 -1.0203441   0.7785871   0.81710714  0.11593274
 -0.07518844 -0.48329127]
[ 1.210405    0.06622969  0.01540789  0.08973253 -0.62257004 -0.51992685
 -0.7398931  -0.77190924 -0.63509613 -0.07198656 -0.9035937  -0.265397
 -0.33139327 -0.32678616 -0.97385514  0.62472075  0.3715377  -0.76027113
 -0.76844525 -0.4711053 ]
[-0.12182261  0.0988249   0.07921142  0.9443888   0.48275873 -0.06228185
  0.04923062  0.26507813 -0.06449519  0.21025601 -0.5305164  -0.47420925
 -0.11059017 -0.39563394 -0.18911274  0.15890929 -0.14744304  0.27046144
  0.2347669   0.02399866]
[-0.03178587  0.66167    -0.30838528  0.5708417   0.10775476  0.09057462
 -0.4168297   0.3562664  -0.36488208  0.35900158  0.02718551 -0.00868301
  0.14891174 -0.20605157 -0.19215088  0.47177365 -0.04506398 -0.12403005
 -0.20752998 -0.1558046 ]
[-1.2894793  -0.53413236  0.9800231  -0.54523265  0.92497146  0.622335
  1.4518969   1.0367364   0.63491017  0.4743732   1.8376275   0.93818194
  1.0456367  -0.4038069   1.1309516  -1.4819427  -0.61767817 -0.24051425
  0.7954567   1.1212105 ]
[ 0.6323954  -0.11285404 -0.04150535 -0.45001394  0.4778901  -0.15327674
 -0.12095259 -0.6704244  -0.5146695   0.28599933 -0.87059456 -0.04850196
  0.15907012 -0.42269796 -0.47215316  0.17261767 -0.39206398 -0.3392185
 -0.537682    0.04452014]
[-0.24256189 -1.2192975   0.06840748  0.30654618 -1.873801   -0.0443193
  0.02604784  2.055181    0.57132447  0.15864196  0.16162951  0.08454727
  0.02755596  0.05382194 -0.40675622 -0.09424315 -0.21707715  0.4471371
 -0.5894148   0.08369361]
[ 0.21958905  0.81173086 -0.06074512 -0.22297922 -0.9363062   0.10598007
 -0.30993378 -0.7344269  -0.1795837  -0.08492962 -0.28323787  0.2996882
  0.02351584 -0.17224467 -0.48702055  0.15650718 -0.32195032 -0.24538718
 -0.24868567 -0.22964734]
[-1.5699408  -0.4674051   0.12985176 -0.71957374  2.9965017   1.4958825
  0.78230387  1.0313591   0.20423058 -0.04991051  2.698847    0.6390924
  1.0353204  -0.09908202  1.0978904  -1.4974144  -0.48181337 -0.49173406
  0.62021285  0.85072356]
[ 0.18437415 -0.01115306  0.0506857   0.06634635  0.13488021  0.10282681
 -0.30867347 -0.6156499   0.01302964  0.20994051 -0.5603741   0.12551467
 -0.19300258 -0.2258549  -0.4544814  -0.05915365 -0.39798337 -0.0025241
  0.13261257  0.29019138]
[-0.35142633 -0.5838666   0.12322862  0.3242506   0.26987737  0.06983779
  0.131387    0.09876399  0.41332066  0.02793928  0.605067    0.09553979
  0.02858162  0.4536616   0.41730025 -0.2663131  -0.02826347  0.5807279
 -0.01278939  0.10304342]
[-0.9521431   2.596475   -0.10475992 -0.47319108 -0.63403124 -0.25604835
  0.16362824 -1.915924    3.8151937  -0.15349324  0.05745553  0.02792268
  0.07689057  0.15229334  0.7263448   0.18059042 -0.03972761  0.4061791
 -4.5885963  -0.26280475]
[-1.6405056  -1.0973719   0.37953866 -0.7182455   2.0618806   1.0226263
  1.2049551   1.3708488   0.2979584   0.48203337  2.8274357   0.67812485
  1.1912153  -0.23165463  1.0235995  -1.3390545  -0.31024295  0.09712038
  2.3763793   0.6623164 ]
[-0.05019753 -0.8173806   0.64222014 -0.8175987   0.75011605  0.6933462
 -0.11634783  0.6846993  -0.6812365   0.24026221  0.37780836  0.14951867
  0.21012197 -0.5164237  -0.3213072  -0.10158195 -0.55543536 -0.14061694
  0.8572381   0.09760842]
[ 0.3525881   0.841666    0.07707085  0.3731068   0.52333117 -0.30345955
 -0.56250197 -1.1417359  -0.10716005 -0.02874679 -0.48190835  0.09840816
 -0.3126998  -0.10662518 -0.38493815  0.4359775  -0.00919638  0.04012988
 -0.07335941 -0.12017217]
[-4.4074339e-01 -1.8458465e+00  3.8170138e-01  4.6494266e-01
  8.6953074e-01 -1.2117305e-01  5.9972668e-01  1.1126477e+00
 -1.5837210e-01 -3.5727033e-01  1.0324836e+00  1.4046282e-01
  1.9957821e-01  3.1022200e-01  4.2971721e-01 -4.4716617e-01
  1.4980225e-03  7.1447265e-01  1.1049809e+00  2.1610081e-01]
[-0.21362413 -2.5412261   0.6268244  -0.510335    2.1747162   0.85525167
  0.8591297   2.4018626  -0.5087376   0.62256783  1.5983168   0.68700004
  0.60589045 -0.4225158   0.8509512  -1.0287282  -0.47085667  0.02543966
  1.4801203   0.6152468 ]
[ 0.40985373  0.05188197  0.24803855 -0.26893675 -0.3122049   0.1496663
  0.04237045 -0.05393403 -0.1436151   0.10830457 -0.43011424  0.431022
 -0.11966117 -0.44623375 -0.34008366 -0.06560688  0.00426151 -0.21861526
 -0.32394013  0.5336962 ]
[ 0.84567356 -0.20016776  0.45136598 -0.25790596  0.35957503 -0.1874887
 -0.5983097  -0.30436242 -1.043591    0.30160254 -0.68840426 -0.25553662
 -0.43159807  0.05354594 -0.65127355  0.34423783 -0.08022176 -0.5839229
 -0.16985779 -0.16394398]
[ 0.49365073  0.8757402   0.7230706   0.10337275  0.62071776 -0.3622212
 -0.3359083  -1.885889   -0.5778815  -0.06365231 -0.6301789   0.12928997
 -0.50514895 -0.17264858 -0.5473733   0.66201395 -0.03386708  0.2473093
 -0.05605226 -0.18737541]
[ 2.7921301e-01  3.1748581e-01  3.1428608e-01 -4.1260506e-04
 -2.3512502e-01  4.5959994e-01  9.5300019e-02  1.1812787e-01
 -1.2593721e-01  5.3144228e-01  1.6817562e-01  1.2352596e-01
  3.1364769e-01 -1.1425308e-01 -2.1756296e-01 -2.5648072e-01
 -3.7104398e-01  6.7698248e-02 -5.6385200e-02  3.6240113e-01]
[ 0.33630148  0.38198364 -0.44937488  0.4746235  -0.349892   -0.47409606
 -0.42132106 -0.10443316 -0.22822219 -0.42846557 -0.42707705 -0.5027632
 -0.38330045  0.3806315  -0.3056694   0.48330748  0.47493815  0.12366534
 -0.2332189  -0.5882864 ]
layer 1 Activation
tanh
layer 2 Dense
20 40
[ 0.54771733 -0.6622258  -0.16214728  0.9036151  -0.22575188  1.1811135
  0.45744926 -0.09902253 -1.3105654  -0.00181852  0.06416332 -0.2974019
  0.42010483 -0.01212142 -0.21073785  0.02473923  0.3659626   0.10318126
  0.4667323  -0.41652384  0.5582342  -1.6035492  -0.79058605 -0.3842029
 -1.0673515   0.41557527  0.4517202  -0.25454357 -0.4456874   1.0551531
  1.6011746  -0.40548047  0.3275475   0.6377401  -0.2472357  -0.29623803
 -0.8062244   0.05881305 -0.6005267   0.7003177 ]
[-0.2627057  -0.41825065  0.43682584  1.0467991   0.1110114   0.8353434
  0.7793959  -0.9378214  -0.46896258  0.2951411   0.5654476  -0.58928424
  1.047634   -0.3807623  -0.10145066 -0.34172353  0.2453633   0.85252607
  0.5935522   0.06320872  0.69592893 -0.6940005   0.10168494  0.18764155
 -0.65744865  0.7190265   0.6550901  -0.7119241   0.14476112 -0.11034914
 -0.44117016 -0.5034652   0.51826966  0.485712   -0.06401178  0.41813433
 -0.39079756 -0.3513184  -0.77591103  0.39853725]
[-0.9038426   0.8259635  -0.5597009  -0.3744115   0.389879   -0.1850541
  0.25424242  0.25451636  1.0187938  -0.33505416  0.0808017  -0.29570767
  0.00357057 -0.4160964  -0.36320177 -0.33638626 -0.3967739  -0.7168904
 -0.23653042  0.47220063 -0.5364335   0.42821163  0.30229205  0.4414814
  0.42636165 -0.51557827 -0.6479961  -0.154485    0.3000056  -0.52684987
 -0.15717497  0.23376471 -0.77395797  0.17730357 -0.2961524   0.54851097
  0.28048393  0.5125439   0.03778141 -0.27447253]
[-0.54463536  0.60168105 -0.03953618  0.5233828  -0.1132609   0.53394747
 -0.49495834  0.06476619 -0.48235032  0.07237889  0.3902045   0.00772522
  0.83835626 -0.15422188 -0.67574    -0.5961599   0.11349911  0.7115662
  0.2604709  -0.02390836  0.07218773 -0.5846451  -0.5511857  -0.20778893
 -0.6300991   0.02128543 -0.86123955 -0.03877315 -0.00943541 -0.0658008
 -0.01495211 -0.2656417   0.0536771   0.654515    0.11535576 -0.11014383
 -0.14104141 -0.19709264 -0.3678842   0.5442108 ]
[ 0.40649253  0.5489784  -0.2032822  -0.03745873 -0.38297537 -0.5045771
 -0.35238194  0.39308462  0.71374166 -0.02658206  0.10495912  0.26167032
 -0.15196387  0.44474587  0.21824872 -0.12084602  0.43742153 -0.13437693
 -0.16533646 -0.22100474 -0.37834206  0.5444239  -0.11466394 -0.29711777
  0.33071393 -0.2947587  -0.69033104  0.27988252 -0.38792503  0.19528554
  0.03455612  0.30143335 -0.34370047 -0.31334049  0.5652236  -0.04415789
  0.19769023  0.00151851  0.16699286 -0.5575416 ]
[-0.21149155 -0.5325209  -0.7083717   0.05733461  0.0509079  -0.01040411
  0.14247458  0.02302576 -0.1867592  -0.6227892  -0.43276656  0.30836138
 -0.5884052  -0.11396343  0.5865138   0.9861912   0.1214902  -0.55331683
 -0.1835646   0.01909064 -0.18443118 -0.2684351   0.17257698  0.33968782
  0.23823607 -0.6055948   0.5895165   0.22859995 -0.02503639 -0.33806401
  0.05728189  0.3070067  -0.51924974  0.1685346  -0.3531787   0.12904505
  0.15224862  1.0333887   0.44879454 -0.7509974 ]
[-0.3160635   0.2910088   0.05742596 -0.48665905  0.5510806  -0.8314155
 -0.16324443 -0.16056895  0.9065217  -0.09853397 -0.21769734  0.28921717
 -0.65590113 -0.25734288 -0.4615657   0.2831504  -0.39693287 -0.08293426
  0.33326823  0.09067601  0.05247863  1.1303247   0.44432727  0.03694134
  0.61194247 -0.4994302  -0.5143652   0.2202377   0.5995026  -0.78009
 -0.9658134   0.06983977  0.50496286 -0.43740413  0.22146931  0.6002934
  0.5827744  -0.39890474 -0.23979616 -0.01702737]
[-0.00823565  0.3899152  -0.23235498 -1.0239261  -0.4029469  -1.3559818
 -0.9793443   0.3926352   1.1705652  -0.05772744 -0.40927646  0.82357776
 -0.66881776 -0.39108595  0.8897749   0.3874478  -0.9310614  -0.73317116
 -0.7416711  -0.03071282 -0.9846765   1.2937286  -0.2514104  -0.24200758
  0.7251701  -0.94592893 -0.58911693  0.99909353 -0.13162363  0.44658208
 -0.9748682   1.0233682  -0.74471784 -1.06561     1.0488838  -0.27116984
  0.22707452  0.28761548  0.7677412  -0.5354244 ]
[ 0.3491059   0.6159593  -0.6519614  -0.7363761  -0.47332883 -0.8828786
 -0.120377    0.34158227  0.4481958   0.279177   -0.2931635   0.7928481
 -0.43985176 -0.05569079  0.60779387 -0.10134406  0.07039854 -0.580477
 -0.64194214  0.05343318 -1.0172079   0.6114409  -0.11362308 -0.34757435
  0.61089396 -0.4191181   0.2308768   0.8003817  -0.15896998 -0.09590598
 -0.9937738   0.651433   -0.50238293 -0.4200681  -0.1620564  -0.01820238
  0.3403572   0.4782725   0.44221506 -1.0168904 ]
[-0.6581916  -0.3150792   0.06118478 -0.20294017 -0.01488426 -0.44468096
  0.22855224 -0.38381326  0.5549816  -0.57767653 -0.18608409  0.39959118
 -0.14287482 -0.18030833  0.31856716  0.42036197 -0.56598735 -0.3881323
 -0.1813315   0.74413043 -0.0863364   0.17865752  0.51776445  0.41399434
  0.4993161  -0.38541937  0.04255303 -0.22509447  0.46842042 -0.36413065
 -0.04269558  0.5282139  -0.09309793 -0.15447623  0.56981426  0.4083196
  0.26950675  0.16157864  0.2076414   0.07137963]
[-0.11441569 -0.12854065 -1.5613359  -2.3544235   0.06625284 -1.9829084
 -2.8831985   1.3408376   1.9793186  -0.32634842 -1.7386067   2.2608275
 -1.3270713  -0.17878275  2.4941823   0.6641408   0.25520158 -2.0501084
 -1.1910605  -0.00445017 -2.240836    1.9340997   0.21983533  0.30793038
  1.6605264  -1.3915819  -0.6419553   2.72125    -0.2093788  -0.59901243
 -1.5554912   1.7816265  -2.2364058  -2.8982434   1.3062007   0.07712577
 -0.19359612  1.7630044   3.0615401  -1.1207529 ]
[-0.17007293 -0.54109406 -0.04485764 -0.41990155  0.18542217 -0.522712
 -0.11861699 -0.0480571   0.22721113  0.02065169 -0.14422028  0.19619928
 -0.54349035 -0.27296013  0.20980747  1.0385363  -0.30490148  0.04678281
 -0.21043444 -0.07451615 -0.25630322  0.70029366  0.28899008  0.0281357
  0.9016128  -0.5355542   0.72124726 -0.08314107  0.10985514 -0.16363226
 -0.5908454   0.49657157  0.03094391 -0.52556485  0.11629978 -0.01149468
  0.35699627  0.14217629 -0.08604103  0.14231074]
[-4.73887682e-01 -1.15248859e-01 -4.03007232e-02 -2.13999286e-01
  8.82653773e-01 -5.76745629e-01  2.21102521e-01  8.48476484e-04
  7.17873931e-01 -3.92228425e-01 -4.66840148e-01 -3.14439207e-01
 -3.60436946e-01 -3.31107050e-01  3.78962308e-01 -3.44770700e-02
 -3.43120843e-01  3.83814946e-02  6.60482654e-03  7.53739715e-01
 -4.65977311e-01  3.23694736e-01  6.64003491e-01  7.51902461e-01
 -1.82531312e-01  1.22272065e-02 -4.43822369e-02 -1.11774698e-01
  5.10059476e-01 -6.90819442e-01 -3.30243632e-02 -1.04175046e-01
 -2.84901947e-01 -2.86487013e-01 -3.02337736e-01  1.12317109e+00
  2.47874260e-01  3.49365890e-01  3.09012353e-01  1.15200639e-01]
[ 0.74115527  0.08287343  0.45692095  0.17248279 -0.5680629   0.55626357
  0.05744847  0.10084414  0.00528485  0.33149964  0.71042395  0.02213567
  0.12451339  0.43104154 -0.4108571  -0.30766463  0.87292033 -0.00114925
  0.56656444 -0.38106167  0.52988535 -0.31550395 -0.36822602 -0.5563978
 -0.09243891 -0.01413925 -0.25362286 -0.2401633  -0.40480602 -0.02697039
  0.10509835  0.05696658  0.35876513  0.23623948 -0.3162529  -0.4211557
 -0.1089324  -0.20778543 -0.601778   -0.57944214]
[ 0.25887164  0.5166004  -0.20446463 -1.0701907  -0.04229358 -0.8629516
 -0.25349957  0.92510647  1.35978    -0.36198086 -0.3899034   0.7084745
 -0.95265526  0.34217998  0.5247868   0.1909626   0.09635197 -0.950409
 -0.40374863  0.04280543 -0.43160692  1.122345   -0.20153049  0.01640827
  0.81403786 -0.97886527 -0.07562631  0.9413842   0.16815175 -0.11280424
 -0.83624876  0.56144124 -1.0330259  -0.7771418   0.29431543 -0.09693884
  0.01855481  0.5788909   0.88440263 -0.86036444]
[ 0.4117452   0.42069024  0.2557824   0.14552812 -0.34582666  0.4082727
  0.23203467  0.04591025 -0.00765808  0.59468514  0.8448879  -0.47015038
  0.7256747   0.7370496  -0.77047735 -0.5393365   0.33925098  0.3222038
  0.2661588  -0.44588763  0.39933753 -0.34808493 -0.2998218   0.12971611
 -0.11711198  0.44499418 -0.4620662  -0.42020863 -0.13079487 -0.20170836
  0.31099048 -0.35737872  0.7341496   0.6777354  -0.4163533  -0.986003
  0.20480235 -0.8573999  -0.63434035  0.46347666]
[ 0.5597165  -0.14236075  0.23633774  0.27300745 -0.6572992   0.42952764
 -0.26849774 -0.05030812 -0.36579755  0.32028583  0.35599217 -0.22852115
  0.18670897  0.51241046 -0.29910722 -0.19306715  0.81305885  0.37264597
  0.11161025 -0.87711453  0.28240266 -0.40989006 -0.93171525 -0.53693223
  0.01239938  0.10922243  0.4281291  -0.05533719 -0.42170325  0.6433084
  0.15126286 -0.11926439  0.34086686  0.22502728 -0.18149471 -0.70844823
  0.12029856 -0.3343949  -0.21677315 -0.07762479]
[ 0.49156117  0.40020844  0.5550168   0.24860094 -0.01353046  0.01821783
  0.25516117 -0.09005474  0.31773183  0.3923535   0.5078157  -0.7096127
  0.2723033   0.18660134 -0.43259186 -0.36157343  0.51831406 -0.66098356
 -0.43319997  0.24564593  0.02882718  0.19826692 -0.07445289  0.1977481
 -0.10521434  0.44971848 -0.84025806 -0.19834374  0.34108737  0.08960649
 -0.39372763 -0.4416655   0.08015547  0.20713472 -0.5285483  -0.24988033
  0.47982523 -0.63266516 -0.47792482 -0.5467514 ]
[ 0.5104063   0.27249286 -0.67582613 -0.5810314  -0.15861855 -1.0829393
 -1.1148031   1.3251723   0.859041   -0.21193106 -0.6526317   1.155037
 -1.0493556  -0.00690546  1.0543774   0.7043144   0.65191716 -0.66603076
 -1.1048073  -0.24104819 -0.8306881   0.95018    -0.52241105 -0.3326459
  0.4861812  -1.1938835  -0.7459787   0.7066901  -0.21973644  0.4905288
 -0.14904788  1.3252431  -0.70331204 -1.2313935   1.6117176  -0.33027378
  0.07862367  0.648974    0.86436456 -0.49013633]
[-0.10336968 -0.7445512  -0.3911752   0.11900914  0.26484516 -0.08191052
 -0.08016893  0.03392043  0.47536692 -0.49388158 -0.5665667   0.33379146
 -0.4103475  -0.6119433   0.53995734  0.48733237 -0.5278262  -0.14443113
  0.135838   -0.11718532 -0.07306547  0.23158751 -0.04297802  0.03442968
 -0.21011135 -0.39336857  0.26438782  0.05301895  0.06071335 -0.05782083
 -0.23080644  0.37257355 -0.31429392  0.13002916  0.39779544  0.40097332
 -0.25774717  0.5196782   0.18281475  0.1427545 ]
[ 0.5633053   0.17555787  0.10742071  0.46241423 -0.47098553  0.15993968
 -0.04425109  0.15181503 -0.48752257  0.44346243  0.35611242 -0.02537813
  0.3335423   0.33546874 -0.07865075 -0.07680559  0.78667194  0.25637397
  0.03117209 -0.5971899   0.1958628  -0.39161107 -0.44578785 -0.3894226
 -0.144777    0.04201345  0.15502712  0.02409424 -0.39915106  0.42545867
 -0.01421398 -0.14866327  0.42596078  0.07499707 -0.00668738 -0.66273654
 -0.15041652 -0.31139287 -0.21982203  0.01443324]
layer 3 Activation
tanh
layer 4 Dense
40 20
[-0.43235922 -0.04031083 -0.36413896  0.8187926   0.9509086   0.48316255
  0.5783258  -0.37243888 -0.781183   -1.3124316  -0.04170515  0.8325709
  0.57649446  0.864891   -0.6685679  -0.5215855  -0.03381149  1.0909332
  0.05857327 -0.6481295 ]
[-0.36766765  0.23239298  0.17325993 -0.03280198 -0.11386036  0.06323209
 -0.49330953 -0.09268783  0.1099526   0.38596776 -0.38028333 -0.15544873
 -0.246567   -0.07479964 -0.70038503  0.7014777  -0.931182    1.2535036
 -0.25348544  0.30522245]
[-0.316788    0.6057463  -0.70128417  0.02200525 -0.26935086  0.23081788
 -0.09617411  0.13057779  0.11304688 -0.1921848   0.3803911  -0.07465697
  0.6074378  -0.19005299 -0.39820442 -0.20749599  0.8007932   0.3946342
 -0.13461056 -0.4318608 ]
[ 0.4166413   1.2330493   0.02796049 -0.04355915  0.37085336 -0.08405115
 -0.50065184  0.2464902   0.05996063 -0.05192783  0.6969193   0.09775531
 -0.2518546   0.00224041 -0.44908446 -0.9971902   0.8128667   0.6949964
 -0.59097874 -1.0162652 ]
[ 0.22967896 -0.01854123  0.4126813  -0.7119957  -0.5398872  -0.553955
 -0.6907474   0.5002687   1.0948532   0.22276728  0.09383582 -0.61912066
 -0.45772672 -0.9163179   1.098723    0.17039792 -0.3750727  -1.0065528
 -0.19483571  0.43046167]
[ 0.46318898  1.0427637   0.53722703  0.24191567 -0.07200125  0.07808402
 -0.2704887  -0.03294276 -0.23290557 -0.06595143  0.60141474  0.09667511
 -0.11738649 -0.01825571 -0.46264622 -1.229009    1.2279543   0.50651425
 -0.832988   -0.94196844]
[-0.49387637  0.2743439  -0.34820482 -0.2834382  -0.1149829   0.05736385
  0.29232827 -0.32270813  0.5043516   0.00236019  0.51330394  0.13169716
  0.38608518  0.01490595  0.03274911  0.14720002  0.01525067  0.5616136
 -0.4921524  -0.75741833]
[ 0.03278878 -0.446113    0.23364796  0.29096577  0.00502975  0.27722913
  0.19042744 -0.1203151  -0.42176884 -0.00766899 -0.15918133  0.13930799
 -0.14864412  0.14321236 -0.37862977 -0.01673819 -0.642598    0.44337535
  0.3327061   0.41755632]
[-0.5554972  -0.5792     -0.19601464 -0.17831568  0.05889721  0.02606063
 -0.05517742 -0.46280473  0.30845216  0.17899072 -0.99412614 -0.43933958
 -0.03426723 -0.07793772 -0.7532551   0.4408107  -1.6137466  -1.2296789
  0.9308699   1.1306727 ]
[-0.7285424   0.06478886 -0.68397397  0.00132569  0.5493446   0.48670146
  0.28222284 -0.46786523  0.15843342 -0.5910121   0.38989812  0.09509046
  0.26700655  0.18057364 -1.1113648   0.7815094  -0.71275634  1.0374047
 -0.15862931  0.6842245 ]
[-1.0826187   0.44897702 -0.0846957   0.41274193  0.23826565  0.40773648
  0.47133932 -1.2049342   0.46898273  0.13068128 -0.01494871  0.12021498
  0.27234295  0.2293839  -1.2574414   0.1672923  -0.23911132  1.2130069
 -0.4074326  -0.7219976 ]
[ 0.68059766 -0.4942373   0.64629984  0.29463956 -0.19635767  0.01784624
 -0.19765073  0.41355082  0.05975148 -0.0654644  -0.3013102   0.34115267
  0.25477895  0.04374168  0.25661108 -0.06570646  0.42590454 -0.8033057
  0.62114435  0.94217914]
[-0.4919945   0.48235667 -0.24740906 -0.35740486  0.4860939   0.10904334
  0.2193058  -0.45498264  0.23979959  0.13794042  0.58277434 -0.04110498
 -0.15421817 -0.22953658 -0.3571961   0.52621686 -0.42865852  1.8236427
 -0.62224096 -0.7280954 ]
[-0.91650784 -0.4861703  -0.4900974   0.69923544  0.14558648  0.6853268
  0.90578014 -0.9361973  -0.3484853  -0.6786479  -0.1043243   0.74465096
  0.39194453  0.55393076 -0.580071    0.18261738 -0.43949372  0.6213172
  0.65470827 -0.1290377 ]
[ 1.2180133  -0.65581316  1.1760615  -0.08171704 -0.19649498 -0.16507082
 -0.26061454  1.0033549   0.04453705 -0.27254677 -0.23162039 -0.04550788
 -0.2079899  -0.27618033  0.4885163  -0.24655789  0.19238004 -0.92051303
  0.7477305   1.0198815 ]
[ 0.619868   -0.4909827   0.02161972 -0.04850994  0.10267337 -0.47270718
 -0.34988585  0.24529995  0.27062413 -0.03895166 -0.27048373 -0.16116662
 -0.4202329   0.53012365  0.9289673  -0.06913728  0.18088697 -0.35592183
  0.37069783  0.39621136]
[-0.06559538 -0.27074084 -0.30951208  0.87014127  1.1277936   0.71768725
  0.40542468 -0.14463152 -0.99867487 -1.3685033   0.17591786  0.9155061
  0.49544096  1.0173124  -0.5801814  -0.52852416  0.26048863  1.0610896
  0.07655956 -0.37033015]
[ 0.11782505  0.9282023   0.23624168 -0.16305156 -0.02290739  0.01904981
 -0.23876344  0.2315598   0.20852785  0.1782902   0.26496562 -0.10661449
 -0.42524317  0.07059066 -0.2868455  -1.0240016   0.6980201   0.66045684
 -0.6332855  -0.31036115]
[ 0.33731326  0.33259004  0.329437   -0.16744342 -0.58226746 -0.2708777
 -0.3223653   0.57997143  0.3930229   0.3002998   0.45959076 -0.37900147
 -0.5136332  -0.71294326  0.45582148 -0.59971046  0.18918845 -0.7347334
 -0.63607717 -0.28718704]
[ 0.0614485   0.22158954  0.56903005 -0.62513864 -0.48258442 -0.7879207
 -0.87541914  0.39581922  0.7882511   0.36684108  0.10142139 -0.65921724
 -0.5195357  -0.9256728   0.8651169   0.02026523 -0.71824664 -0.9494096
 -0.3205144   0.60375905]
[ 0.01535341  0.4300141  -0.1608764   0.09085596  0.07171727  0.21677138
  0.39080444 -0.35485953 -0.39772138  0.35078877  0.34357953 -0.20374116
  0.3906977   0.06974636 -0.03046103 -0.51192313  0.76736253  0.7626204
 -0.36742255 -1.0360755 ]
[-0.25749123 -0.71853733 -0.5215097  -0.06744258 -0.1121316   0.1842427
  0.3946561  -0.2580556   0.5982854  -0.19878145 -0.8232145  -0.26394197
  0.36857513 -0.7088989   0.03179936  0.91294634 -1.603434   -0.7025082
  0.88857526  1.5081744 ]
[ 0.17848165  0.09608766  0.5811604  -0.8077495  -1.0022577  -0.52554035
 -0.6793957   0.563072    0.9840061   0.3834168   0.19349562 -0.7443674
 -0.8515142  -0.76621103  0.77640486 -0.0166917  -0.4561209  -0.64959157
 -0.3156233   0.24019167]
[ 0.84400713  0.5104734   0.8043528  -0.798632   -0.7806322  -0.4641732
 -0.6676383   0.8077107   1.0533718   0.7141245   0.21847452 -0.7240876
 -0.76559484 -0.5314035   0.98136634 -0.0599837  -0.05558225 -0.20690444
 -0.37987232 -0.12767103]
[-0.52991235 -0.75750506 -0.7638471   0.01136332  0.00177289  0.01075895
  0.10422949 -0.5812391   0.32553348  0.31821468 -0.5340043  -0.07481198
  0.2822183   0.4813198   0.45151007  1.0600257  -1.0732361   0.46988374
  0.597104    0.1619858 ]
[-0.20538883  0.48346117 -0.5041834  -0.27571842 -0.27497467 -0.08076727
  0.67234224 -0.0339099   0.12520164  0.3846444   0.9142724  -0.09755934
  0.23328993 -0.26067334  0.5936458  -0.2134909   0.6859202  -0.08597274
 -0.698275   -0.31178883]
[ 0.43877265 -0.11514586  0.19228654  0.14256644  0.12966453 -0.01461447
  0.12871706  0.20114118 -0.22627054 -0.3987771   0.542877   -0.03611825
  0.1415842   0.37741253  0.08721706 -0.59986866  1.153108   -0.894615
 -0.20224173 -0.6923422 ]
[ 0.5489126  -0.40391272  0.29310757  0.06903969  0.01774017 -0.09932552
  0.02331159  0.6036501  -0.11692318  0.131578   -0.35704228  0.13697337
  0.2006272  -0.29952672  0.3259976   0.11574805 -0.0576185  -0.78118473
  0.7828486   0.9023983 ]
[ 0.6165869   0.5397058   0.38130638 -0.68296903 -0.49799767 -0.6870478
 -0.7097268   0.8658975   0.70143914  0.6889829   0.36587286 -0.6349821
 -0.45648825 -1.0817404   0.6389506   0.09166516  0.09641013 -0.70062184
 -0.5012978   0.24558611]
[-0.24707538 -0.42419738 -0.45315462  0.5814815   0.8877701   0.54813457
  0.8484165  -0.2034741  -0.7957963  -1.1512443  -0.2518843   0.5390517
  0.6219543   0.75860906 -0.5134592  -0.11490332  0.31574798  0.75527894
  0.19394605 -0.4292471 ]
[ 0.4422448   0.5881547   0.46484745  0.19188277 -0.03270114 -0.20472674
 -0.11022363  0.08153515 -0.11791889 -0.06863442  0.6121498  -0.19228674
 -0.0988459  -0.34499565  0.03473441 -1.3118122   0.98199046 -0.25828496
 -1.0444744  -1.0547905 ]
[-0.55031943 -0.5483378  -0.63130283 -0.08704726 -0.10526005  0.17050476
 -0.04695    -0.59104514 -0.59769136  0.62950224 -1.0414504   0.13516426
  0.17898381  0.2918681  -0.39518553  0.70003533 -0.19298248  0.11771914
  0.74941     0.8921102 ]
[-0.47285566  0.3834536  -1.0114642   0.03928339 -0.08214653 -0.01982952
 -0.09767477 -0.3771019   0.10763799  0.13200742  0.32721055 -0.34307453
  0.40285552  0.20473912  0.16770622 -0.2681081   0.68159497  0.7503797
 -0.39542285 -0.90331423]
[-0.16844973  0.6559597   0.4249024  -0.2118548  -0.05325674  0.09391564
  0.1113233  -0.4362157   0.33662888  0.47870573  0.4502287  -0.05007927
  0.3127697   0.33180314 -0.26916814 -0.33787194 -0.15734363  1.2565482
 -0.8759055  -1.2063633 ]
[-0.35185096 -0.22016983 -0.73635465  0.17904425  0.29052767  0.01276648
  0.24977611 -0.61815536 -0.4374061  -0.12721215 -0.47477728  0.07979191
  0.03817107  0.83911157 -0.20238206  0.4910656   0.00799119  0.578515
  0.42867163  1.0326939 ]
[ 0.08136522  0.13436663  0.48967373 -0.8118064  -0.685547   -0.56830317
 -0.5346179   0.21550624  0.72699875  0.8355126   0.04075501 -1.0858278
 -0.87027866 -1.0987464   0.7193556   0.19372381 -0.1474412  -0.45441827
 -0.12854947  0.3951527 ]
[-0.5286844  -0.30397052 -0.49688748  0.09096701  0.45213062  0.13727283
  0.10384813 -0.74435765  0.70094216 -0.14497446 -0.5544463  -0.42010638
  0.01874939 -0.22868226 -0.0849616   0.64164174 -1.187556    0.21829455
  0.2605102   0.5614964 ]
[-5.14003709e-02 -7.00833857e-01  3.74632418e-01 -9.15841088e-02
 -8.84955097e-03 -1.00004025e-01  8.53090460e-05  2.73013353e-01
  2.49353554e-02 -1.31829649e-01 -4.06004101e-01  1.29551187e-01
 -4.63899821e-01  4.12849396e-01  1.82343125e+00  3.97269249e-01
 -7.05309093e-01 -8.70401502e-01 -1.83056220e-02 -2.33111847e-02]
[ 0.31831512 -1.0212163   0.29090673 -0.25296596 -0.1386989   0.15020001
  0.41214105  0.46077755 -0.1304015  -0.20746072 -0.51699024  0.38650948
  0.17397657  0.280215    0.2968316   0.6089669  -0.8470613  -0.51234096
  0.77260923  1.4959574 ]
[-2.1355748e-01  5.2230079e-02 -4.4183794e-01 -4.2699311e-02
 -1.9479442e-01 -1.3241306e-01  1.1913423e-02  2.9101133e-01
  1.5170516e-01  1.9546309e-01  9.4736807e-02 -4.7851272e-02
 -1.4861237e-01  2.1639554e-01  1.1971676e+00  3.2818891e-02
  6.2021375e-01  1.0374978e+00  3.9110021e-04  1.4368434e-01]
[-0.07241827 -0.33377272 -0.4046443   0.49660867  0.5405864   0.152773
  0.34255168 -0.13189144 -0.53029263 -0.79107195 -0.22595857  0.6067529
  0.23620039  0.73034376 -0.57324445 -0.09846471  0.24345087  0.56009376
  0.50504154 -0.27881536]
layer 5 Activation
tanh
layer 6 Dense
20 1
[-6.514464]
[-17.624353]
[-6.812196]
[6.9539113]
[7.0792446]
[7.099742]
[7.163219]
[-6.4691596]
[-6.993062]
[-7.1838465]
[-17.290499]
[7.0657334]
[7.0301795]
[7.141824]
[-6.372248]
[17.168264]
[-17.16163]
[6.798534]
[17.59225]
[17.349302]
[7.5047092]
