layers 7
layer 0 Dense
20 20
[-0.16330943  0.0639983  -0.09129307 -0.33485776  0.33308902  0.15824033
  0.45676863  0.06190692  0.13649327 -0.22638422  0.00989803  0.09914725
 -0.02642354  0.17661695  0.33309534  0.3999987  -0.02926468  0.17445852
 -0.19007447  0.47417033]
[ 0.11945427 -0.45318478 -0.29623336 -0.3992025  -0.04094904  0.064308
 -0.12278435  0.08198289 -0.1514894  -0.00250405 -0.2632692   0.20128745
  0.2860116  -0.3788177   0.04774494  0.05580048 -0.02145495 -0.21982907
  0.0429563  -0.02685915]
[-0.03637609  0.16663407 -0.01178232 -0.307957    0.31882006 -0.06888717
 -0.42773452 -0.08683874  0.13546956 -0.0065433  -0.18043782 -0.1837382
 -0.29142177 -0.06064043  0.37265903 -0.19377305  0.404548    0.14477645
 -0.02672334  0.3737064 ]
[ 0.17047954 -0.5711374   0.2626574  -0.07796638  0.0067863  -0.36573955
  0.21688142  0.35929123 -0.13231629 -0.42641824  0.34185913 -0.19418296
  0.16214453 -0.44406468  0.0927757   0.14198716  0.12715328  0.4164969
 -0.43655056  0.11439356]
[ 0.16541937 -0.01656418  0.06751025  0.21971384 -0.60551995  0.04535996
 -0.4848098  -0.39155334  0.54044545 -0.22372311 -0.48477736  0.5241511
 -0.01006753  0.17518476  0.21288572  0.05346468  0.3879796   0.2516835
 -0.2653469  -0.21214081]
[-0.3382047  -0.42656112 -0.35037363  0.19167909 -0.24315289  0.04814166
  0.2955559   0.13041057  0.09887178 -0.27467108  0.19961953  0.19034058
 -0.26343533 -0.00362713  0.37488133 -0.24913898  0.10221007 -0.0071554
 -0.17678493  0.12599197]
[-0.12284902 -0.3051311  -0.19627099  0.02212576  0.0156164  -0.03306231
 -0.1801941   0.12236617  0.02881827 -0.0232997  -0.32925364  0.11122091
  0.2761314  -0.4976248   0.28558373  0.1062597   0.07873492 -0.17588766
 -0.34615195 -0.07499414]
[-0.35224864 -0.2680508   0.25647408 -0.10094811  0.1605814   0.13445373
 -0.00212545  0.37053984  0.3219794   0.17610198  0.59885603 -0.06088321
 -0.03853257  0.5739148  -0.00960716 -0.06134712 -0.21598125 -0.15759014
  0.24494761 -0.13594127]
[-0.182337   -0.70861506  0.3034835   0.49845666  0.01175359 -0.32362726
 -0.7588103   0.07000304 -0.1118367   0.23634776  0.540536   -0.6515157
  0.00190009  0.14454225 -0.18473716  0.09249043 -0.15888402 -0.6815463
 -0.01014374  0.2844054 ]
[ 0.7467585   0.23022111 -0.878415   -0.21860373 -0.1243673  -0.26669103
  0.07226849  0.6946347   0.40804246  0.3617231  -0.5844471  -0.797118
  0.3758778   0.7571374   0.0329936  -0.56262714 -0.04888337 -0.14702243
  0.25318754  0.5791556 ]
[ 9.21365693e-02  1.17157236e-01 -4.60106246e-02  4.00457799e-01
 -3.07889551e-01  8.73291373e-01 -3.54168177e-01 -2.52056360e-01
 -9.74030137e-01  4.75561246e-04  3.45801890e-01 -5.47625124e-01
 -1.02554709e-01  2.82296658e-01 -1.02247477e+00  1.05833083e-01
  4.81503367e-01  6.75276935e-01  5.78515828e-01 -1.21250160e-01]
[ 0.34808856 -0.998546   -0.68805385  0.226771   -1.0196594  -0.00353706
 -1.5535018  -1.0098404   0.17279866  0.6382886   0.08633979 -2.0876217
  0.03762688 -1.3043754   0.03729156 -0.69667995  0.17917503  0.18609866
  0.2926435   0.5102497 ]
[ 0.28247318  0.7054119  -0.74459827  1.0601951  -0.70990753  0.32198262
  0.24543706  0.29698476 -0.5049638   0.3302917  -0.40543768  0.05852202
 -0.65403104 -0.9200043   0.87772405 -0.9535914  -0.02581123 -0.04923132
  0.45375    -0.32609677]
[-0.10318629  0.10373114 -0.05978078  0.2161546  -0.245438   -0.13752453
 -0.09721639  0.16909945 -0.11298818  0.3466011  -0.10597026  0.18851995
  0.21682766 -0.21738087  0.15773307  0.29440144 -0.3480397   0.320199
 -0.35491383  0.24723488]
[ 0.21379569 -0.1058436   0.22182424  0.23644127  0.04994817 -0.2865657
  0.00101894 -0.10663019 -0.20984034 -0.0892842   0.23638289 -0.15006764
  0.13280714 -0.30864203 -0.12091389 -0.6441053   0.04775201 -0.31128442
 -0.69106823 -0.26079634]
[ 0.63451266 -0.22272824 -0.16364391 -0.3559436  -0.13168566 -0.2756405
  0.6543442  -1.1531981  -0.03317042  0.18711853  0.08909866  0.2171026
  0.52956873  0.24384333 -0.9587094   0.8482858  -0.01617733  0.53753453
 -0.07849539  0.9026513 ]
[ 0.6584882   0.11841218  0.41151544 -0.31764695  0.6933604  -0.28717178
 -0.19825432 -0.5322464   0.29260933 -0.6198685   0.12264475 -0.0743712
  0.379606    0.5521992  -0.6267765   0.03456958  0.43900818  0.540319
 -0.34027442  0.15880966]
[-1.1398576   0.10287036  0.17822668 -0.4756295   0.30507195 -0.28201118
  0.42202356 -1.0908207  -0.468063   -1.0604235   0.8575023   0.605484
 -0.51925075 -0.9565522   0.3391344   0.48858267  0.16578442 -1.1248472
  0.5397131  -0.7183521 ]
[-0.6938251  -0.18442133 -0.33343345 -0.48587698  0.18560864 -0.66792965
  0.54876107  0.2808175   1.1913218  -0.77178204 -0.78349966  0.41149274
  0.6428774  -0.35114592  0.58432245  0.5735029  -0.8283612  -0.5389021
 -0.14438795 -0.19114372]
[-1.0488961   0.3331394  -0.06852926  0.099194    0.96943104  0.26054555
  1.5186355   1.4390743  -0.10127344 -0.18502799  0.6597594   0.7348436
  0.20891598  0.8026281   0.10429168 -0.05764287 -1.1963096  -0.68109816
  0.4759709  -0.43815762]
[-0.10418892 -0.12664808 -0.0329346  -0.08901768  0.08605031 -0.07516244
 -0.09746981  0.03279503 -0.05606936 -0.09483906 -0.14117432 -0.21908261
 -0.05300324 -0.21181414  0.08015758  0.21428679  0.06221443  0.10060947
 -0.03726796  0.06472157]
layer 1 Activation
tanh
layer 2 Dense
20 40
[ 0.10480937  0.38458136 -0.11507356  0.7343072   0.07796235 -0.60996866
 -0.4789292  -0.3352402   0.45807865  0.05766228 -0.28918117 -0.36007679
  0.16892335  0.07807531  0.42379618  0.20155418  0.16530977 -0.06172052
 -0.3431059   0.14955649  0.149514   -0.05217916  0.3975055   0.01652364
 -0.09245726 -0.04145127 -0.36156267  0.2955392  -0.18798709  0.34532496
 -0.28649276  0.6673294  -0.06391416 -0.3901744  -0.34976208 -0.02245589
  0.23298962 -0.22983068 -0.0858513   0.7825164 ]
[-0.45276567 -0.58811754  0.39303166  0.41034448 -0.5706568   0.20903808
 -0.34860018  0.26864356  0.16740572 -0.3589477  -0.32572708 -0.19458441
 -0.29807976  0.35145476 -0.27400652  0.22336428 -0.22562096 -0.22342463
 -0.4080715   0.19255303 -0.02508085  0.17935711 -0.13971154  0.3738917
  0.25227177 -0.05999206 -0.12971176 -0.3457893  -0.29909623  0.04158064
  0.21824035  0.56945497 -0.11724915  0.44863307 -0.18037511  0.14026037
  0.12444727 -0.2957284  -0.43278614 -0.01386983]
[-0.00878601 -0.41021654  0.15120853 -0.38694793  0.24501637 -0.19582792
  0.33116266 -0.38526502 -0.15525062  0.01551337 -0.17497988  0.47892547
 -0.11274043 -0.4809621   0.07049927 -0.23953342 -0.01969525 -0.5548944
 -0.29719627 -0.16502678  0.2503708  -0.14506018 -0.21774597  0.2579817
 -0.05285425 -0.0279045   0.25206986  0.2625202   0.04579744  0.13788776
  0.33605802  0.0856622  -0.286315   -0.07819553 -0.00657658  0.2148839
 -0.16487922 -0.09275869 -0.05377507 -0.4798293 ]
[ 0.0537944  -0.41300303  0.08179056 -0.07052275  0.6055643   0.17953695
  0.15888569 -0.10132036 -0.22821273  0.1496576   0.00114595  0.38890806
 -0.23787053  0.30561796  0.24928756 -0.5749697  -0.04716558  0.11731676
 -0.23073924 -0.2986795   0.05348871  0.1648242   0.1775687  -0.42128977
  0.12445072 -0.5918118   0.08651444 -0.22351983 -0.39980322 -0.30843368
 -0.07891621  0.20419382 -0.16623779 -0.28781876 -0.0569938  -0.37353858
  0.05109822  0.19145148  0.06590261  0.1840818 ]
[-0.17604795 -0.49650842 -0.0975526  -0.32171047 -0.48153007  0.3543799
 -0.10630596  0.04989093  0.13480768 -0.23752385 -0.09102278 -0.27319357
  0.08053939  0.55225736  0.02451311  0.3680295   0.05475124 -0.5345558
  0.20330894  0.1920487  -0.14652261 -0.16431731 -0.02878095 -0.0240222
  0.09288702  0.27410424  0.16874874  0.07758971  0.361511    0.05167543
  0.25745004  0.25879934 -0.20272438  0.25029168 -0.4357029   0.12078347
 -0.01128968  0.29207703 -0.07117778 -0.3827175 ]
[-0.2001182  -0.41753918 -0.10708529  0.04215952  0.00783587  0.34341088
 -0.21717653  0.5435157  -0.57833654 -0.26972324 -0.369786    0.14838175
 -0.43183938 -0.03511714 -0.02270429  0.04653212  0.07424795 -0.00777944
 -0.21828803  0.00205223 -0.22879486 -0.4310152  -0.00252807 -0.13250837
 -0.14130814 -0.39553118  0.21208411 -0.24952109 -0.07744773 -0.20138623
 -0.6066757   0.570291   -0.20198423 -0.5114854  -0.20094202  0.44336054
  0.54679227  0.24469325  0.42909    -0.3208587 ]
[-0.19664298  0.10915798 -0.01814249 -0.51581174  0.21167444  0.27202493
 -0.55586004 -0.18376526  0.21960779 -0.00742273 -0.40593576 -0.13083376
 -0.04777268  0.2026935  -0.11897032  0.554009   -0.28802103 -0.14330317
  0.03173656  0.11629095  0.00641431 -0.15629263 -0.29310653  0.14948651
 -0.02813904 -0.08808032 -0.26180565 -0.34405306  0.2500211  -0.12285089
 -0.03339306 -0.04974361 -0.29953167  0.8551153   0.06814573  0.09928787
  0.29703063  0.4507246  -0.3134111  -0.33756816]
[ 0.05125206  0.11808857  0.21999031 -0.2648562  -0.42778987  0.5101853
 -0.9225401   0.59824365 -0.02885361  0.04418707  0.15926982 -0.22452228
  0.10261188  0.32419285 -0.38977483  0.4233696   0.0963899   0.41384855
 -0.06702178  0.09198693 -0.03659121 -0.01594618 -0.38229644 -0.14320345
  0.8284552  -0.659055   -0.30775505 -0.08101194 -0.51803976 -0.25507888
  0.13928276 -0.14716646 -0.62875086  0.6529633  -0.29342088 -0.31206262
  0.08704729  0.19994655 -0.65539813 -0.9225097 ]
[ 0.11348183 -0.22041208 -0.00913452  0.06773421 -0.27234712 -0.0056722
  0.39743814 -0.3611366   0.3127436   0.34415042  0.00556183  0.10292705
  0.00997824 -0.12854543  0.06850053  0.15444574  0.40018404  0.17287873
  0.28564644  0.46344885 -0.17782724 -0.17342308  0.2773444   0.54702103
 -0.18780161  0.77706426  0.02385572  0.6102512   0.05842706 -0.04446447
 -0.34307876  0.0035694   0.44845727  0.3263587  -0.1540869   0.13066885
 -0.8190055  -0.14660482  0.17807448  0.56102294]
[-0.04962869  0.4841107   0.1329472   0.41148907 -0.13093127  0.32661486
 -0.3368914  -0.17617644  0.38907552  0.26677445 -0.2885243  -0.5198073
  0.08447735  0.08462352  0.16526149 -0.580169   -0.08090343  0.20981702
 -0.01727859  0.6447192  -0.1492077  -0.15303406  0.120299   -0.18281323
 -0.27833062 -0.63455325 -0.25842017  0.09943845 -0.30145016 -0.3825398
 -0.11285081  0.0865759  -0.12271868 -0.35714495 -0.0791731   0.05907192
 -0.04533838  0.4688813   0.40332603  0.20007291]
[ 0.1385257  -0.1808276  -0.24869284 -0.0933764   0.24838942  0.3458399
 -0.07434668  0.33420956 -0.63495547 -0.3280222  -0.4064048   0.01632983
  0.51895434  0.50152844 -0.36902803  0.15380359 -0.0725091  -0.6807252
 -0.23469307 -0.3487377   0.38504472 -0.04300934 -0.4040336   0.06271621
 -0.31638    -0.41718596  0.3008441  -0.14445534  0.18103059  0.28077832
  0.03984994  0.1701437   0.0022413  -0.62796754  0.07000087  0.1241082
  0.28413314  0.46244666  0.27101865 -0.7675306 ]
[-0.3408801  -0.28275478 -0.22084293 -0.70675653 -0.6038744   0.23999609
 -0.03908555 -0.34402016  0.36327782  0.03450902  0.11314543  0.09298212
  0.23990245 -0.03590577 -0.16654205  0.1716269  -0.19746548 -0.33441737
 -0.65935504 -0.08131766  0.15578106  0.21410644 -0.5077945   0.44212127
  0.32284454  0.3280616   0.3747479  -0.68467057  0.262625    0.19379209
  0.6042387  -0.4175031  -0.4427199   0.80978274  0.11520697  0.03900636
 -0.04255911 -0.16585107 -0.0976145  -0.7586506 ]
[ 1.78651914e-01  4.05972540e-01 -2.11175829e-01  2.82014664e-02
 -1.18596032e-02  8.66402462e-02 -2.83203237e-02 -8.59558582e-03
  2.93722954e-02  4.59922314e-01  4.44585569e-02 -5.31936467e-01
  6.69156685e-02 -5.63613057e-01  1.87009767e-01  2.24790454e-01
  2.67615058e-02 -1.11039445e-01  1.25516235e-04  5.29934227e-01
 -2.85055041e-01 -1.04846127e-01 -1.80355266e-01  6.34300113e-02
 -1.73907369e-01  8.72626621e-03 -1.11970633e-01  3.34598690e-01
  2.32956782e-01  2.58609295e-01 -3.41943860e-01 -2.59605020e-01
  3.08263481e-01  3.00958782e-01 -1.86906293e-01 -5.84078655e-02
 -3.42989624e-01  4.15561721e-02 -1.91468060e-01 -2.69434690e-01]
[ 0.20415293 -0.6139892   0.0366028   0.67357945 -0.58085793 -0.01266925
 -0.2546843   0.22599238 -0.42395422  0.18809612  0.13301452  0.20734365
  0.29254857 -0.06335191 -0.01893385  0.00622656  0.11865649 -0.8740371
  0.01919687  0.41378236  0.1269516  -0.34774455  0.01013918  0.14974004
 -0.0824763  -0.0941902   0.3316708   0.04032877 -0.02559659  0.36596027
 -0.5175069   0.5559657   0.12718341 -0.2670142  -0.11185148  0.15484124
 -0.35614294  0.4677465   0.283899   -0.16321102]
[-0.02464233  0.20074357 -0.37495264 -0.5090912  -0.47673047 -0.14267391
  0.04226783  0.5334097   0.44782364 -0.11853159  0.3863622  -0.3261466
 -0.17953873  0.45670357  0.14087468 -0.25343385 -0.24675019  0.8530204
  0.01382442  0.01194489  0.4961902  -0.05157568  0.4348612  -0.21187882
  0.42239147 -0.13445607  0.21131311  0.2661874   0.0752917   0.02525537
  0.6106174  -0.62563413  0.1432607   0.4571616   0.20988435 -0.03476981
  0.07716127 -0.13943006 -0.31014192  0.4445643 ]
[-0.32117617 -0.3747815  -0.2429035  -0.48393255  0.14197893  0.3168448
  0.24408074 -0.29934356  0.0441575  -0.38222793  0.27555746  0.00511315
  0.30652758 -1.1251754  -0.19888075  0.27529922  0.18731211 -0.40359902
 -0.29297     0.29732582  0.16040716 -0.13890478 -0.42132676  0.31784764
 -0.24454033  0.16571532  0.3171908  -0.19731215 -0.19492638  0.50568455
 -0.14452183 -0.35291418  0.11241332 -0.2721527  -0.00250331 -0.05541591
 -0.10124499  0.13511042 -0.04834027 -0.27604508]
[ 0.17325471  0.20432861 -0.05217836  0.06009353  0.65932846 -0.74945617
 -0.31147993 -0.40144613 -0.35919383 -0.37398082 -0.2524022   0.10317823
 -0.13213894 -0.3140283   0.16353548  0.49368528  0.09111778 -0.19073844
 -0.31794128 -0.55826014  0.29133824 -0.01980954  0.60339934 -0.01416974
 -0.31189016  0.14668937  0.07644247 -0.18024433  0.06457628  0.26272112
  0.36396256  0.3243033  -0.37648684 -0.47086763  0.04121438  0.05817158
  0.15586154 -0.11181504  0.45062658  0.60687613]
[-0.03146295  0.26688644  0.33264142  0.41450343  0.30051196 -0.2364926
 -0.3087417  -0.29544908  0.18944386  0.30963898  0.38040727  0.10235766
 -0.2251086  -0.25481954  0.15061317  0.19288705  0.19012909 -0.23775496
 -0.10644609  0.1245966   0.22252943 -0.17476703  0.520867    0.24168758
 -0.27442637  0.3301725  -0.1747797   0.07666649 -0.22011161 -0.11335331
 -0.5451732   0.5188127   0.00326861 -0.4636467  -0.05221176 -0.09317476
  0.7020362  -0.11315163 -0.14489666  0.48617852]
[-0.1460779   0.0775114   0.2100335  -0.03372898 -0.02244169  0.07076003
 -0.6492769   0.36038432 -0.04311118 -0.0065599  -0.19851549 -0.18040594
  0.01940641  0.27802467 -0.0956714   0.0991213  -0.19502135  0.3411054
 -0.16615532 -0.08118787  0.2533261  -0.14798912 -0.13068368 -0.39043397
  0.3258028  -0.23065841 -0.02517791  0.16885713 -0.11214326 -0.43898356
 -0.02326283  0.2876973  -0.30462262  0.08802679  0.22895758 -0.32504463
  0.39845008  0.1878206  -0.12484717 -0.08551626]
[ 0.0482229   0.18818134 -0.06204078  0.32016215  0.23051506 -0.09544409
  0.18723056 -0.75889987 -0.06298033  0.2995648  -0.13812804 -0.341238
  0.27807045 -0.35832512  0.22920416 -0.13893847  0.15747805  0.06831966
  0.05138322  0.18259397 -0.33807296 -0.03485024  0.06493592 -0.23408751
 -0.2791302  -0.04203442 -0.256881   -0.07161523 -0.16724908  0.09638559
 -0.29301172  0.03483753  0.695877   -0.14205025 -0.3081519   0.34460178
  0.5589716  -0.3040654   0.27764982  0.24043879]
[ 0.13173544  0.2850436   0.15274636  0.12773937  0.4558777  -0.44153723
 -0.06638555 -0.82362235  0.00160084  0.09884122  0.22770004 -0.06766518
  0.16886817 -0.6081593   0.13126169  0.5691671   0.03497421 -0.03126283
  0.22864163  0.1224995  -0.18570901  0.01337268  0.1976344   0.29937968
  0.10326148  0.08145987 -0.11720914  0.05805619 -0.04587452  0.11214048
  0.06133818 -0.12381238 -0.03282848  0.21943302 -0.16294177  0.15520726
  0.37154952 -0.04877222 -0.06357273  0.15297377]
layer 3 Activation
tanh
layer 4 Dense
40 20
[-0.2303237  -0.21184385 -0.04630947  0.340946   -0.25720257 -0.02232134
 -0.20372523 -0.03177322 -0.27069145 -0.16030979  0.01446606  0.56624514
 -0.23030593  0.05510797  0.06473465 -0.01806702 -0.22722748 -0.10117865
  0.14306328 -0.21586753]
[-0.36834192  0.192187   -0.1995056  -0.15768205 -0.20404422  0.02828274
 -0.05043876 -0.270211    0.29422885  0.18398017 -0.29790324  0.34699753
 -0.00867553  0.17507772 -0.23391783 -0.27182266  0.19443193 -0.05147196
 -0.20563444  0.26627222]
[ 0.07947102  0.1616451  -0.21345162  0.06765012 -0.0927726  -0.03340676
  0.17222655  0.12255813 -0.29330623  0.18502766 -0.13193464 -0.08168723
  0.07476025  0.28628957 -0.15345955  0.17226885 -0.17721267 -0.19673587
 -0.02267512 -0.08694215]
[-0.06454656 -0.14076242 -0.3409751   0.2891441   0.07237118 -0.00857533
 -0.42020586  0.4809572  -0.59851515  0.38184562  0.0993357   0.07621675
  0.2266336  -0.07705986  0.23892808 -0.12866156  0.2100459  -0.29804328
  0.30103275 -0.48649752]
[-0.10390143 -0.20926467 -0.32462198  0.06214981 -0.30852723 -0.26019645
  0.28394595 -0.38424012  0.29101992 -0.03968399 -0.34940615  0.4541085
  0.09282046  0.24688166  0.18154658  0.07473034 -0.16090482 -0.17910092
 -0.07677946  0.38981068]
[ 0.2711591  -0.1268079   0.15136528 -0.0217783   0.31424066 -0.11702919
  0.0135261   0.08300038  0.27374002 -0.40610915  0.42439765 -0.42934906
  0.04954271  0.2572254  -0.20829952 -0.18753855 -0.05825188  0.32203987
 -0.33262926 -0.20470099]
[ 0.36922657 -0.05926493  0.33376083  0.13038722  0.3621322  -0.6438752
 -0.41877788 -0.2748872   0.26618475 -0.09961433 -0.2159234   0.15949109
 -0.404829    0.23177561  0.35019282  0.45786974  0.16648522 -0.32392353
 -0.15878338  0.4026326 ]
[ 0.02781496  0.14566766  0.12413329 -0.16555323  0.21464273 -0.12520614
 -0.08445192 -0.00760383 -0.38292694 -0.35831875  0.34769338 -0.4459093
  0.07780783  0.07857063 -0.41997576  0.31030363  0.11891272  0.22317034
  0.10520379 -0.15105417]
[-0.30379203  0.06752443  0.20505562 -0.14687113 -0.00812584  0.3713176
 -0.1699696   0.29380995  0.36923328  0.1901637  -0.11023554 -0.30841583
 -0.1434989  -0.2329731   0.04563604 -0.5286765  -0.10171334 -0.02902106
  0.04077473  0.2166414 ]
[-0.1364895  -0.06573816 -0.13012451 -0.1013585  -0.23254697  0.07530659
 -0.222729    0.32619256 -0.00064882  0.02194623 -0.11841016  0.16334166
 -0.00600312  0.06263396 -0.00251475 -0.32329178 -0.16233927 -0.0896299
 -0.31098008  0.34271088]
[ 0.18469572 -0.28922677  0.25561807  0.09693058 -0.24673569  0.18583338
 -0.2184852  -0.21538232  0.04426499  0.26259977  0.0834697  -0.19598374
 -0.04734928  0.16065238  0.11694591 -0.34648284  0.34942853  0.13799779
 -0.39015102  0.5671945 ]
[ 0.27796784 -0.1578187   0.13654861  0.09081915  0.26511654 -0.23133501
  0.187812   -0.24604934  0.10584144  0.15937483 -0.24913633  0.04355519
 -0.13698912 -0.3946312   0.04511294  0.37815222  0.31729063 -0.1812233
  0.08809915  0.02289845]
[-0.2812629   0.15486404  0.11296034 -0.16774148 -0.04359812  0.3393374
  0.10888296 -0.11569593  0.06170542 -0.0818891   0.06173352  0.3716781
  0.13208985  0.0826877   0.24766254 -0.2532576  -0.06676183  0.33219105
 -0.16284037 -0.19374545]
[-0.24409264 -0.02651793  0.22569354 -0.10960396 -0.1074874   0.10621903
 -0.42443293  0.4360663  -0.27311417 -0.594841   -0.14986129 -0.03656443
 -0.17201027 -0.23972093 -0.43078363 -0.26492006  0.21440916  0.31929713
  0.35549325 -0.12311721]
[-0.02346756 -0.18347198 -0.10999465  0.16722296 -0.1493213  -0.23674862
  0.04433895  0.18268354 -0.06840739  0.12817289 -0.44856313  1.1740844
  0.16588107  0.2187296   0.14003626 -0.1982856  -0.01113723 -0.61170375
  0.01133372  0.19661982]
[-0.2815055  -0.00521269 -0.09540401  0.18397757 -0.01627929 -0.02264262
  0.15965855 -0.242316    0.3004591   0.36617064  0.093513   -0.34206423
  0.1386242   0.05316033  0.2620745  -0.15823148  0.06000035  0.27690783
 -0.07176974  0.27672908]
[ 0.34439397 -0.04169465 -0.00640297  0.14590554  0.13429135  0.30644873
 -0.05910288  0.05669726 -0.15053125 -0.00888154 -0.15851036  0.3009538
  0.14652583  0.30996314  0.10315853 -0.10208804  0.0983822  -0.1792447
 -0.11336944 -0.15477784]
[-0.25147384 -0.10571647  0.16628714  0.16144963 -0.39492223  0.26353052
 -0.28215504 -0.01245477 -0.06314754 -0.20463307 -0.44730112  0.19672565
  0.1810451  -0.01868276 -0.57441276  0.11461084 -0.08326358  0.22454295
 -0.37461808  0.3469728 ]
[ 0.13528861  0.2583353   0.04295676 -0.02914099 -0.4000476   0.31560525
 -0.30460602  0.20443074 -0.12667228  0.11790513 -0.22459212 -0.17254554
 -0.15825969  0.22647105  0.09569097  0.14106321 -0.01724179  0.06991857
 -0.07829893  0.27438486]
[ 0.07105898  0.4134476  -0.1518889  -0.15826623 -0.3110913   0.57870936
 -0.02871501  0.4646351  -0.2963553   0.17546512  0.19292654 -0.1829001
  0.39259794 -0.02569884  0.3099473  -0.4729708  -0.12891655 -0.02826988
 -0.3629505   0.00796623]
[ 0.07645407  0.18436736  0.27444333  0.04094214  0.07798637 -0.11535792
  0.15185031 -0.23715827 -0.1350905  -0.07216393 -0.18445645  0.34614897
 -0.31140947 -0.17340884 -0.07937826  0.34646553 -0.03595758 -0.12719499
  0.18658814 -0.04169257]
[-0.32691336 -0.00592177  0.05693044  0.10419522  0.07596992  0.14269121
 -0.1678151  -0.10105883  0.38745755  0.19505362  0.00261246  0.5970263
 -0.3229134  -0.06507338 -0.0785755  -0.00475776  0.30105388  0.14650019
  0.17486009  0.281091  ]
[ 0.01678301  0.06243229 -0.02983201  0.2572633  -0.17694767 -0.24817497
 -0.03695777  0.06220441 -0.2657277   0.24667454 -0.39541182  0.953722
  0.31618935  0.45253268 -0.10174713  0.27235785 -0.12883797 -0.649195
  0.27567127  0.21701747]
[-0.05047887  0.39130455 -0.06080475  0.10661816 -0.0796404   0.11143197
  0.08760706 -0.3192855   0.26262477  0.4609993   0.04610821 -0.4917887
 -0.42361414 -0.24589795  0.16861722 -0.23750497 -0.02205692  0.05220873
 -0.08204146 -0.01550044]
[-0.3751534  -0.00061227 -0.04007511  0.00981058  0.03041283  0.39150843
 -0.1640351   0.0478449  -0.07128646  0.01152179 -0.22853003 -0.49428388
  0.04994063 -0.34759107 -0.14852434 -0.05695028  0.07258859  0.5277812
  0.00858722  0.08186874]
[ 0.03178024  0.24972199  0.54478586 -0.26894382  0.03597637 -0.08491111
 -0.5411456   0.0404146   0.4249699   0.23419721  0.26470432 -0.23976678
 -0.08645297  0.30887142  0.5051416  -0.1420104  -0.31306654 -0.22178386
  0.11776844  0.36017317]
[-0.18578488 -0.0494919   0.42256448 -0.00674795  0.26299012 -0.11401855
  0.36778545 -0.02458312 -0.2150523  -0.08619453  0.24204548 -0.10465624
 -0.2904611  -0.05164083  0.01012261  0.30371538 -0.06031157 -0.22714639
 -0.24682963 -0.2234403 ]
[ 0.40208498  0.1267242  -0.05974519  0.03489849 -0.28009865  0.22889192
 -0.37113053  0.47626746 -0.07663244 -0.14449693 -0.44494492  0.12887034
  0.19285287  0.2546533   0.2627238   0.2626358   0.01509912 -0.4048375
  0.03246729  0.11095841]
[-0.06947123  0.17675525  0.288557   -0.08409367  0.10963515 -0.2583792
  0.05616055 -0.16139731  0.11353079 -0.13590801  0.21606801  0.01641544
 -0.13782014  0.20520923  0.14403915 -0.06117498  0.08267913 -0.12273724
  0.28011802  0.12300247]
[ 0.18099982  0.03112307  0.1253792  -0.11553232  0.2786761  -0.23652044
  0.0181139  -0.5641435   0.17830668  0.35032147  0.16041268  0.36674622
 -0.31613043  0.10718465  0.36264813 -0.3920499  -0.18071948  0.23927882
  0.2066377  -0.01380881]
[-0.33311915 -0.3380848   0.17081375 -0.47351328  0.12873766 -0.30636203
 -0.11704051 -0.32736155  0.09663302  0.24567783  0.43500736  0.06931188
 -0.33191678 -0.3293113  -0.3451537   0.01868827 -0.10324349  0.5812767
  0.3635634   0.42108014]
[ 0.1260678  -0.03535624 -0.22184761 -0.11078474  0.27377307  0.02301751
 -0.01210646  0.15590595 -0.2802153   0.3238303  -0.14607233  0.21037088
  0.29304343  0.3042099  -0.21848711  0.16478737  0.12449539 -0.2294076
  0.22533308 -0.3691125 ]
[ 0.30186072 -0.11941134  0.21017134 -0.019232    0.10859185 -0.23797049
 -0.21939929  0.10692944  0.26886305 -0.2892701  -0.23527649  0.00365005
  0.05168073  0.2844235   0.20960765 -0.2868712   0.07729722 -0.40047035
  0.01060255  0.30303442]
[-0.3915996   0.36297858  0.08893255  0.13320024 -0.45219335  0.25743207
  0.20606789 -0.19828884  0.4597132   0.09710428  0.14183623 -0.15015431
 -0.30325037  0.06048691 -0.49678743 -0.39344314  0.30421972  0.35417533
 -0.09592993  0.16034251]
[ 0.23506632  0.04822524  0.21522436 -0.29279345  0.02946505 -0.15806337
 -0.15487993 -0.07719459  0.3092918  -0.09554175 -0.19998239 -0.31505853
 -0.1798368  -0.27173012 -0.15213901  0.46484387  0.29304633  0.04752645
  0.03914056  0.23037629]
[ 0.06630595  0.3506693  -0.14873601 -0.04103239 -0.04672148 -0.41234285
  0.1788938  -0.12773521 -0.06728514  0.03548967  0.21693926  0.21932074
 -0.16367693  0.19567832  0.0799697   0.1523313  -0.21085557 -0.10750752
  0.22825627  0.05930304]
[-0.20267953 -0.3853628  -0.23765247 -0.01529248 -0.07621314  0.25441825
  0.3332198  -0.21802196  0.01936516 -0.00802703 -0.30646405  0.37492457
 -0.054274    0.0110371  -0.2793781  -0.46471378  0.15906018  0.20419018
 -0.06756023  0.24853113]
[-0.1375207   0.3311845  -0.20335889 -0.18473794  0.13779306 -0.14490518
  0.2179398   0.23828894 -0.04114918 -0.47301227  0.18621217 -0.24696727
  0.40027207 -0.13078935  0.19010963  0.11327146 -0.00979376  0.45421475
 -0.21725193 -0.26146585]
[ 0.1290707  -0.13703243  0.21006311  0.24898285  0.22946054 -0.46605456
 -0.24328187 -0.07678059 -0.26029685 -0.26215607 -0.02261888  0.30347404
  0.39171636  0.11560729  0.35152623  0.09136522 -0.05650632 -0.17864572
 -0.09258136 -0.3805707 ]
[-0.09440869 -0.35151362  0.33725995 -0.10839707 -0.12420493 -0.21547453
 -0.17213026  0.20271051 -0.41072577  0.25056666 -0.5109169   0.548208
 -0.06634645  0.22390619  0.08107809  0.30504197  0.09047933 -0.65228194
  0.30015633 -0.01637177]
[-0.1297643  -0.00259685 -0.10454256  0.02829001 -0.0969685   0.05287235
  0.11966883 -0.08566242  0.04796245  0.3159823  -0.05700996  0.13791916
  0.02261612  0.00396752  0.21716519 -0.01829714 -0.01081262  0.0133648
 -0.09677855  0.10590106]
layer 5 Activation
tanh
layer 6 Dense
20 1
[0.04320108]
[-0.01543046]
[-0.20836781]
[0.00329263]
[-0.18407579]
[0.06011502]
[0.16591494]
[-0.13792433]
[0.10843475]
[-0.18485266]
[-0.07625795]
[0.05518314]
[-0.01499758]
[-0.02884663]
[-0.20600305]
[-0.11376647]
[0.01428189]
[0.1266341]
[0.12299656]
[0.1575583]
[0.01119541]
