layers 7
layer 0 Dense
20 20
[ 0.31573957 -0.3635135  -0.13948919  0.08672524 -0.14665063  0.07008181
 -0.32263544  0.23389271 -0.0609095  -0.21535529 -0.1223383  -0.10433984
  0.3046393  -0.17971697 -0.11868896  0.20628282  0.16501643 -0.32266718
 -0.3452201   0.10945377]
[-0.15766132 -0.24011295  0.09435979  0.39593384  0.2507538   0.28275028
  0.10515888  0.38790846 -0.03587712 -0.28759545  0.12536186  0.2810415
 -0.30248582  0.16868968 -0.05058418  0.02328636  0.47584024 -0.00463016
  0.20239967 -0.16125953]
[ 0.07797597  0.34942317 -0.05134874 -0.23710129 -0.056996   -0.30078858
 -0.02637739  0.34998435  0.16296385 -0.29886085  0.36687487  0.37806106
 -0.3121769   0.16961148  0.49808407 -0.2280031   0.50829995 -0.3832104
 -0.0944094   0.05482377]
[ 0.08105723 -0.13785759 -0.19454388 -0.10642864  0.41770768  0.11132625
  0.21435028 -0.42554286  0.00144642  0.01155923  0.26137927 -0.15855458
 -0.35169485  0.31339303  0.2199281   0.22634415  0.02094847  0.09707285
 -0.26402545  0.0557167 ]
[-0.1973741  -0.11193626  0.20856507 -0.06072826 -0.08561785  0.17456932
  0.16885562 -0.46566942 -0.27563015  0.2163285   0.04455773 -0.14408094
  0.17209958  0.10641616 -0.30803823  0.24567893  0.33823168 -0.252703
  0.0543714  -0.26727596]
[ 0.17043345  0.1325947   0.12270429 -0.246808    0.01971411  0.42133015
 -0.4010753  -0.10827857 -0.5543165   0.36199635 -0.2291191  -0.1720988
  0.03932801  0.08305935 -0.03128222  0.4757844  -0.2517476  -0.02354011
 -0.0042615   0.23708035]
[ 0.1792373   0.06339427  0.02857504 -0.2653368  -0.29352456  0.00323476
  0.02955094 -0.05749399  0.08979208 -0.1944191   0.01904739  0.00240213
 -0.10447089 -0.1642881  -0.41617128 -0.0958537  -0.18056923 -0.32218835
 -0.38210315 -0.01267848]
[-0.5196433   0.00691043 -0.1178905  -0.30183977  0.04811257 -0.27209446
 -0.38259593  0.21977477 -0.07856296 -0.23847724 -0.5704404  -0.20447485
 -0.11830024 -0.39288235  0.37609375  0.12605643 -0.23940508  0.6955261
 -0.30648485 -0.29983005]
[-4.6488458e-01  5.5412106e-02  4.8583260e-01  2.6640892e-01
  2.7415162e-01 -8.7515041e-02  1.4214748e-02  1.9362198e-01
 -3.6005756e-01 -2.6922178e-01  1.7870989e-01 -1.6099877e-04
 -3.8369417e-01 -2.6200354e-01  1.0544933e-01  2.0438910e-01
 -5.6312132e-01  2.2775821e-01  4.3662086e-01 -7.2720580e-02]
[ 0.260774    0.15152708  0.02058855  0.04142985 -0.15061088  0.01952865
  0.15316497  0.07763756 -0.35033014 -0.24822313 -0.09082615 -0.08573049
 -0.2327673  -0.02077188 -0.1330334   0.17551829 -0.00647511 -0.0026844
 -0.19692175 -0.38714528]
[ 0.22966488  0.05164858  0.17331614  0.11606856  0.3024872   0.1931819
 -0.10062789  0.02012063  0.46450406  0.06512959  0.04050842  0.31377947
  0.21744049  0.19226585 -0.12887068 -0.12023704 -0.29380646  0.26456305
 -0.07728181  0.33571145]
[-0.0745731   0.1619269  -0.0867147   0.16547129 -0.3164699   0.56045926
  0.27245453 -0.2784045  -0.0779206  -0.0614275   0.22511566  0.12173884
  0.16815071  0.36409017  0.41882634 -0.38713643  0.18399236 -0.35117957
 -0.20778991 -0.33594486]
[ 0.02569797 -0.17687115 -0.41654867 -0.14989609  0.40295133 -0.10513783
 -0.1324591   0.2583977  -0.13647394  0.24762708  0.11580907 -0.0732914
  0.2574064   0.05402431 -0.15832517 -0.4881738   0.17489615 -0.3938525
 -0.01968473 -0.06067739]
[-0.30737972  0.23639601  0.21314944 -0.33042067  0.49723706 -0.39336485
 -0.5179178   0.10733284  0.28694975 -0.04337636  0.34784538  0.29985747
 -0.18723638  0.41612664  0.6257182  -0.23137653  0.01279449  0.03576537
  0.21660078 -0.37821832]
[-0.20412207  0.07390636 -0.05958498  0.18382959  0.39458197 -0.16325198
  0.14967406  0.01076519 -0.14609118 -0.34337756  0.6039957   0.42682076
  0.4727999   0.29535037  0.4595712   0.00595262  0.07955915 -0.21804953
  0.49955097 -0.7534447 ]
[ 0.12081912  0.1285531  -0.35710278  0.3173909   0.11340863 -0.14517751
 -0.1967462  -0.09135711 -0.13209604 -0.07750542  0.17906408  0.3278238
  0.05550452 -0.30242762 -0.42792377 -0.15267006 -0.3395264  -0.02442083
 -0.19370121 -0.51928586]
[ 0.40460512  0.41179323 -0.23810813 -0.20915169 -0.11623949  0.04539636
 -0.19777724 -0.20384505 -0.18678537 -0.26267263  0.01257002  0.2025601
 -0.26686743  0.4111526  -0.08332711 -0.3579932   0.4719029   0.08181667
 -0.32478824  0.2879566 ]
[-0.19534306 -0.17770454 -0.21465376  0.31961972 -0.66900605  0.06556688
  0.7031577  -0.2704021   0.16122542  0.9965227   0.17764457 -0.3650776
  0.47146362  0.34046343  0.48390937  0.57373196 -0.34691525 -0.45893484
  0.20290093  0.490893  ]
[ 0.0378444  -0.2539195   0.55237645 -0.49067956 -0.80581677  0.29911095
  0.07469507 -0.7710737  -0.07901505  0.46338058 -0.24699804 -0.70412034
 -0.40144223  0.3981679  -0.09060838 -0.06426097 -0.30879962 -0.18781963
  0.27923426  0.3651629 ]
[-4.3956318e-01  5.4042581e-02  7.3709130e-01 -4.1132605e-01
  1.3413435e-01  8.7383697e-03 -5.0546501e-02  1.7600329e-01
  2.3576608e-01 -4.1244203e-01 -3.4314024e-01  3.0475801e-01
 -8.1169802e-01 -3.8230547e-01  3.7469447e-01  7.4992573e-01
 -1.6377905e-01  5.3632522e-01  3.5489824e-01  7.6676626e-04]
[ 0.16665886 -0.06783007  0.01558532  0.01388387 -0.07676439  0.04892955
 -0.11893464 -0.02370705 -0.01368384  0.07492163  0.12346891 -0.07682905
  0.01777053  0.13264278 -0.06094244  0.0566615   0.1400278  -0.07348923
  0.08959728  0.08007809]
layer 1 Activation
tanh
layer 2 Dense
20 40
[ 0.00522696 -0.11931419  0.04837462  0.02782893 -0.01871349 -0.3123031
 -0.14465776 -0.01421341 -0.19233777  0.32661408 -0.2061399  -0.17351355
 -0.11449841 -0.10971142 -0.03369347 -0.05135584  0.0067403   0.10409058
  0.33921236 -0.00929449  0.07753974 -0.09655514  0.26427817 -0.03097763
 -0.2378913  -0.01901221  0.16840354 -0.33883446 -0.00942766  0.2840401
  0.16705357  0.22044526 -0.32135716 -0.06217678 -0.06238796  0.30897838
 -0.06293269  0.04342948 -0.3427498  -0.15294218]
[-0.16999483  0.0544069  -0.03764737 -0.23478916  0.29673102 -0.03119444
 -0.10866129  0.23246521 -0.24961782 -0.10376529  0.18611306 -0.11624531
  0.11887994 -0.12553605 -0.02580895  0.08639414 -0.01971996 -0.17925075
  0.16992974 -0.04304868 -0.30625185  0.11963847  0.17315127  0.11360867
  0.09948526  0.18771066 -0.03263843 -0.12271711 -0.268651    0.06130532
 -0.07456323 -0.01505027 -0.21343537  0.07425499  0.26584297 -0.24931607
 -0.16190332 -0.22190863 -0.01427549  0.11731693]
[-0.15628609 -0.32746133  0.5138163  -0.3441647   0.10041101 -0.1530157
  0.01207972  0.4431597   0.24573986 -0.08567902 -0.44281778  0.43408972
 -0.30962685  0.23611525  0.2704144  -0.10141838 -0.4876124  -0.02351818
 -0.11396439  0.56920546  0.13551217 -0.45724502  0.17293505 -0.14364946
 -0.06357542  0.2802583   0.35094884  0.33554882  0.4329945   0.1828125
 -0.20146717 -0.00429171 -0.03033272  0.2607218   0.19776355 -0.33698064
 -0.24114238 -0.11046216  0.31639698 -0.2792757 ]
[ 0.00432892  0.04221389 -0.27058905  0.42189372 -0.26258364  0.07602097
 -0.11809619  0.10923468 -0.11265432  0.2977189   0.28860632  0.12384596
 -0.09083339 -0.19044401  0.24060857  0.08880284  0.00952271  0.06571139
 -0.30019292  0.04776568  0.01236286 -0.37093875 -0.13961336 -0.07243435
  0.00088    -0.08840334  0.09935193 -0.3941436  -0.22245727 -0.01633786
  0.07448666 -0.01834722  0.2405918   0.25040156 -0.22648442  0.09615397
  0.10131504 -0.142521   -0.09632079 -0.04502524]
[-0.08333788  0.35757828  0.17921337 -0.1597461   0.06999278  0.02892883
 -0.3540202  -0.09902234  0.2023619   0.40499726  0.31736633  0.3623084
 -0.1730906   0.00433091 -0.20445298 -0.12858689  0.20176107  0.16755055
  0.31375217  0.19482157 -0.03683888  0.4493895  -0.33900678  0.22318523
  0.3082083   0.12944387  0.39156398 -0.40839612 -0.2471828   0.2759762
 -0.3149321   0.6772075  -0.09580113  0.05774555  0.2760403  -0.22488962
 -0.18820515  0.0564758  -0.00112892 -0.1930415 ]
[-0.15008101 -0.06836121  0.13364038  0.2084485  -0.28528795 -0.29017907
 -0.02922494  0.2065935   0.12021835  0.28640723  0.00509288  0.01611124
  0.10645606  0.195944   -0.26544136  0.27609363  0.12423892 -0.11218091
  0.2857674   0.10876466 -0.23340642 -0.10348934  0.46837848  0.12059045
  0.06173226 -0.4882325   0.0317717   0.2287439  -0.19626133  0.16673927
  0.2649055  -0.16684464  0.28601027  0.07268985 -0.15660489 -0.05105903
 -0.08245143 -0.06158915  0.08487818 -0.07067819]
[ 0.1670888   0.03181955  0.13040003  0.43867254  0.03068936  0.06887854
 -0.14100695 -0.09294107 -0.14644682  0.04175707 -0.10485557 -0.08595531
 -0.06848594 -0.14008044 -0.15578306 -0.21084797  0.12916441 -0.34068066
 -0.20949723 -0.23720652 -0.23366874 -0.13725998 -0.21403548  0.26531655
 -0.0629628  -0.09557962 -0.0564643  -0.0844674   0.04156404  0.20278895
  0.20651703 -0.3376765   0.35616916  0.12937342 -0.13039458 -0.13151535
  0.03385636  0.13106185  0.10048202  0.00713068]
[-2.65889568e-04  3.08530390e-01  1.33221835e-01 -2.29262590e-01
  1.41142935e-01  6.72777370e-03 -1.86427571e-02 -2.19950944e-01
 -3.97619158e-01  1.17240019e-01  3.35691988e-01  3.50160487e-02
  3.99314970e-01  1.22063547e-01  1.01572432e-01  1.08361235e-02
 -1.55767962e-01  1.91337913e-02 -2.89399952e-01  1.38960317e-01
 -3.90699208e-01  6.41504765e-01 -1.67621270e-01 -1.04879150e-02
 -8.24339241e-02  6.73783347e-02  2.91593790e-01 -2.16784894e-01
 -5.25129616e-01 -8.34228396e-02 -1.46899924e-01 -1.48672596e-01
  1.34177268e-01 -4.66151237e-01  2.11684048e-01  3.92921627e-01
 -1.06408097e-01 -1.75394222e-01 -1.39726967e-01 -7.99139291e-02]
[ 0.29493833 -0.03338262 -0.26743254 -0.1324098  -0.00192272  0.06019888
 -0.12100644 -0.03358179  0.08270993 -0.00493565 -0.04792864 -0.03718989
 -0.03330521 -0.00104662 -0.27329588 -0.17573835  0.08700397  0.00035023
  0.2589429  -0.04325745  0.09865727  0.09896944  0.28809202 -0.15098158
 -0.15231253 -0.06621812  0.00317901 -0.21502192 -0.03860633  0.05375442
 -0.23902346  0.24916369 -0.20454775  0.07852256  0.2075089  -0.12832946
 -0.12595233 -0.18399858 -0.06183743 -0.25580898]
[ 0.23886003 -0.3034725   0.18758582  0.38030106  0.14231648 -0.41606084
 -0.04702878 -0.13994935 -0.08623088 -0.11249481 -0.13680439  0.04897518
  0.18573563  0.19859865 -0.07710798  0.09850989  0.19570288  0.37958044
  0.08467639 -0.1701079   0.28661308 -0.01457878 -0.03824516 -0.07806641
 -0.09461486 -0.02403297 -0.40339974 -0.13838674  0.2573538  -0.24173646
  0.2895911  -0.15705277  0.01036694 -0.06119907  0.09634339 -0.04210285
  0.15916044  0.04099452 -0.29698694  0.02421411]
[-1.37046501e-01  4.15969223e-01 -1.59841584e-04  7.12767690e-02
 -1.21819951e-01  1.18367679e-01  5.83226196e-02 -1.31446645e-01
  1.64445445e-01  4.07108784e-01 -3.05009723e-01  3.11517641e-02
 -3.32334265e-02 -2.50270575e-01 -2.03813374e-01  2.35754371e-01
  1.41540080e-01 -2.80450940e-01 -8.53436366e-02 -3.45130652e-01
 -3.13112795e-01 -3.00915927e-01 -2.25533232e-01 -1.90477762e-02
 -9.30700004e-02 -3.74806464e-01  3.35904270e-01 -4.26160008e-01
  6.17164979e-03 -4.37170826e-02 -8.89457911e-02  1.86840996e-01
 -4.52731878e-01 -4.19341236e-01 -1.56272113e-01  1.14336796e-01
  2.62747765e-01  6.14803769e-02 -2.99389418e-02  1.76680088e-01]
[-0.40949214  0.09047837 -0.05389516  0.05022552 -0.34325984 -0.05398604
 -0.35238153  0.17402562 -0.12694341  0.02040985  0.43849847  0.08274072
  0.2130906  -0.15060005  0.11617944  0.20571005  0.25871283  0.13868855
  0.23718905 -0.20061165 -0.07035852  0.17537132 -0.02499045  0.22571789
  0.36804554  0.34284624  0.40973833  0.12081438 -0.34553102 -0.05272205
  0.1753986   0.3525475  -0.09840939 -0.1860538  -0.19304575 -0.13834538
  0.28216538 -0.08748794  0.17409939  0.11547874]
[-0.16442068 -0.03437726 -0.40276355  0.4421442   0.20551585  0.10133928
 -0.14581297 -0.24100052  0.22576791  0.32093927  0.14684342  0.2598324
 -0.15956722  0.01789075  0.0294026  -0.06644016  0.40096992  0.02206264
 -0.20908329 -0.29569107 -0.06227547  0.27451     0.05821025 -0.33046052
 -0.26475012 -0.36207256 -0.4643782  -0.5811512   0.15009017  0.22665024
  0.39051676  0.37211445  0.051612    0.25831023 -0.0052351  -0.2497396
  0.06607325  0.3672838  -0.30595824 -0.21324489]
[ 0.4431318   0.21956824  0.08506498 -0.0075304  -0.39686802  0.25564966
  0.17454116  0.05908463  0.35740817 -0.05676592 -0.20349945 -0.19427155
  0.002515    0.07592987 -0.10509643  0.08804438 -0.15883079 -0.3952789
  0.38108957 -0.31974214  0.00641068  0.0379019   0.05514421 -0.08125867
  0.32581437 -0.0514813   0.11587492  0.1636816   0.34110448 -0.10231181
  0.05569742 -0.12755147 -0.42165345 -0.19631587 -0.23893848  0.04095935
  0.13201688  0.2452334   0.07743946  0.01853221]
[-0.33482873  0.19802056  0.13992955 -0.21486664 -0.01093018  0.13050258
 -0.15543042 -0.19011943  0.22019029 -0.06545186  0.08673394  0.14818841
  0.0911533  -0.16838612  0.4059638  -0.31224212 -0.13627584 -0.06659023
  0.11999091  0.20302211 -0.20450032 -0.2947581  -0.09273295  0.36243978
  0.01235699  0.16032808 -0.02366884  0.0262839  -0.10787913 -0.03900522
  0.11820594 -0.00524125  0.15445758 -0.12543274 -0.2893043   0.25992632
  0.1360644   0.13431016 -0.27441016 -0.13846186]
[-0.02644253 -0.04827702  0.16208726  0.11882265 -0.21322612 -0.319707
  0.14691065 -0.10427694 -0.25769544 -0.23449214 -0.05171873  0.04339408
 -0.2549293  -0.20036945 -0.32580945  0.1032583  -0.07762508 -0.17871732
 -0.4114621   0.3821022  -0.09311763 -0.1428949  -0.1237651   0.09323432
  0.02248583  0.05561838  0.40658975  0.17878945  0.2403102  -0.10359757
 -0.22606581  0.08415527  0.08974694  0.17475164 -0.11652488 -0.03113336
  0.32141724 -0.12683202  0.05286344  0.28433913]
[-0.2980216  -0.09678885 -0.12285206 -0.29868942 -0.13382646 -0.17876802
  0.31178942 -0.33466643  0.19910367  0.45266643 -0.4219986  -0.19092982
  0.22367778  0.1830486  -0.18741806 -0.1764973   0.41637114 -0.22473201
  0.22121291 -0.3290335   0.36129496  0.1907039   0.15596446  0.2149055
  0.14525096 -0.35148388  0.09982759 -0.12434682  0.02322781 -0.1322281
 -0.05144508  0.0048924  -0.30688676 -0.26015916 -0.10352527  0.0805374
  0.06838414 -0.03236754 -0.3875125   0.25263947]
[-0.23830588 -0.27727792 -0.04864818 -0.2674204   0.18070447  0.1364133
  0.2320091  -0.24213605 -0.39801732  0.16885205 -0.18065065  0.4414634
  0.25502515 -0.07294638  0.20062687  0.08366027 -0.19315083  0.13846618
 -0.14340489  0.18295963  0.10136331  0.23419712  0.31075662  0.05064378
 -0.25594622  0.17605063  0.09014235  0.13945739 -0.37602088  0.1580475
  0.06494056  0.03497845  0.39917994 -0.2579834   0.17701554  0.01525667
  0.19651185 -0.5644113   0.2578702  -0.01098035]
[-0.08645615  0.27997723  0.19820137 -0.06925516 -0.10701136  0.06680388
 -0.22700873  0.15805276 -0.0780625  -0.1378402   0.02168079  0.53589064
 -0.05004844 -0.24834949 -0.19839598  0.16670252 -0.01045115  0.07549847
 -0.17868835  0.30921805  0.04381795 -0.05164413  0.15212633 -0.16595042
 -0.1767301   0.02071423  0.08397336  0.20444399  0.07131784  0.09619968
  0.17177567 -0.09955175 -0.08500712 -0.10026108  0.08262821 -0.08312149
 -0.17033324 -0.24840462 -0.24166726  0.29042616]
[ 0.4560991  -0.06958806  0.04366821  0.12431137 -0.2251906  -0.20307897
  0.30395296  0.27783334 -0.1457453   0.20827639 -0.09480877 -0.3500448
 -0.05776187 -0.17215048 -0.04602328 -0.01654759 -0.22724667  0.07783074
  0.01399762  0.22373381  0.07366982  0.11099118  0.12579377  0.22868457
  0.05189941 -0.0252189  -0.12390537  0.06833626  0.4823725   0.01335503
  0.15892383 -0.10984939  0.40319318 -0.20304355  0.07361049 -0.13004072
  0.17486611  0.05849021 -0.16646697  0.22131841]
[ 0.10265202  0.02528268  0.00302091  0.21576469 -0.23041302  0.04935626
  0.04987115 -0.01248714  0.16046743  0.01125584 -0.00714104 -0.00916422
 -0.06106994 -0.09668491 -0.10298122 -0.01383123 -0.03113705 -0.09809483
 -0.02799355  0.01593052 -0.07550397 -0.05180806  0.00905919  0.01866215
  0.07751878 -0.03657411  0.18736583 -0.14682531  0.09789088 -0.08051637
 -0.00560584  0.02332705  0.03141017  0.03327105 -0.08158866 -0.00654546
 -0.0042449   0.0788306   0.01988808 -0.03267697]
layer 3 Activation
tanh
layer 4 Dense
40 20
[ 0.19277881 -0.12376359 -0.18421556  0.22387688 -0.36379394 -0.16819346
  0.25316226 -0.1263414  -0.08945902  0.26433322 -0.10182349 -0.18533726
 -0.25045994 -0.19007823  0.19595481  0.05275232 -0.01075807 -0.35998
  0.22635628 -0.33840832]
[-0.19429544  0.2325082  -0.09037812 -0.18068549  0.18296693  0.1146426
  0.39248836 -0.01361223  0.2824345  -0.37829125 -0.21800216 -0.24517795
 -0.17444256 -0.06484811  0.03089187 -0.29259062  0.29491743 -0.04247964
 -0.14577875  0.1252889 ]
[-0.37613297 -0.18756768  0.22692192 -0.02199744 -0.12242936  0.1588806
 -0.3637192   0.18559156  0.01229841  0.02186842 -0.05494832  0.01171431
  0.00764662  0.20762962 -0.17806686  0.26915067  0.01560741 -0.03444471
  0.04655519  0.28173614]
[-0.01124098  0.20500092 -0.33593532  0.22146979 -0.33330667 -0.13606498
 -0.13115227 -0.15694185  0.23201488 -0.19698684  0.17247759  0.127329
  0.12267118 -0.14257674  0.17055036 -0.06788719  0.2096283   0.12518927
  0.09769532 -0.24647476]
[ 0.3906891  -0.21702401 -0.04117705  0.23634456  0.03927754 -0.29277003
  0.07830482  0.17964664 -0.263106    0.13824317  0.02331843 -0.36056632
  0.22235999  0.31420088 -0.36144373 -0.34194338  0.28560525 -0.23538843
 -0.05709822  0.32075068]
[-0.11363156  0.16625367  0.17154314  0.14016972  0.11911824 -0.07185667
 -0.23294549  0.01259582 -0.05088365 -0.13562076  0.11863755 -0.2908853
 -0.07317847  0.06789684 -0.26867986  0.52028656 -0.16663061 -0.02914529
 -0.18833265 -0.00138483]
[-0.21110521 -0.32316226  0.26049742  0.14038175 -0.24862203 -0.14687526
  0.11971081 -0.24299702  0.05979118  0.210657    0.04750472 -0.17299022
  0.0131078  -0.17805599 -0.02457431  0.22262843  0.2636607   0.20826817
  0.20314002 -0.0713859 ]
[ 0.2516013   0.05455888  0.2886185  -0.12027387 -0.20649688  0.06411146
 -0.06047812 -0.11610159 -0.19211246 -0.11402932  0.34408814 -0.15900879
 -0.09147742  0.20274729 -0.07449728  0.10256457 -0.02857713  0.06753466
 -0.1525313   0.00240016]
[-0.41816628 -0.09825761 -0.04082822 -0.2625299  -0.03261625 -0.10872207
 -0.18018636  0.18236569  0.19760586  0.09674998  0.14552516 -0.13965686
  0.12874779 -0.25284377 -0.19175941 -0.0179954  -0.13602944  0.26740837
 -0.1602945   0.01107997]
[ 0.1829618  -0.00321456  0.11789139  0.14912076  0.3077355   0.06684971
  0.11320291 -0.21506417  0.17948627 -0.10162576  0.0103452  -0.18974529
 -0.0278248  -0.32591343  0.12936355 -0.21014893  0.00068899 -0.06954522
 -0.05445289  0.28357604]
[ 0.04862786 -0.11636864 -0.06867325  0.0922645   0.33835846 -0.06027817
  0.12197752 -0.19844183  0.06722437 -0.16607118  0.28706115 -0.31993863
 -0.09977587  0.34178925  0.0433443   0.14173588  0.28725737 -0.14401184
  0.06102452  0.20604101]
[-0.1544987  -0.26042226  0.14246227 -0.0566018   0.18253164  0.19183268
  0.25940767  0.29486245  0.17532136 -0.37546363 -0.06843004  0.12460144
  0.02773177  0.30537936  0.04814341 -0.02987415  0.20377085 -0.16606726
  0.15460539  0.00800473]
[ 0.23162259  0.20141025 -0.026988   -0.02884239  0.09759419  0.05698704
  0.0710254   0.02720162  0.08377184  0.27169174 -0.3446051   0.11711564
  0.03060789  0.15558451 -0.07482364  0.1836314  -0.28764498 -0.27932096
 -0.26849356  0.07429478]
[ 0.33601716 -0.19279319  0.22223356  0.00078851 -0.12388764 -0.22857812
  0.06095256  0.14772286 -0.07967208  0.28203353  0.06958386  0.21776012
  0.08652571  0.05455844 -0.06230635 -0.31984052  0.27968866 -0.2312825
  0.11713682 -0.02998936]
[ 0.16795233  0.16978924  0.29804018 -0.15877981  0.32331222  0.13278751
  0.03381315 -0.04102156 -0.33783573  0.02152755 -0.29134968  0.29545176
 -0.24590203  0.03263256 -0.20899914  0.13489719 -0.37075174 -0.01720882
  0.13627678  0.09974677]
[ 0.14734562 -0.10572872 -0.00299057 -0.30975533  0.07448076  0.05092313
 -0.01001517 -0.04342999 -0.12802064  0.01610778 -0.17287777  0.24106672
 -0.09136245  0.04688275  0.11248053 -0.13559873  0.1862602  -0.21504676
 -0.13027331 -0.3662828 ]
[-0.26560298 -0.24391432 -0.33883238 -0.03211504  0.29071483  0.26428583
 -0.24738683  0.13657673  0.2474342   0.00221462  0.13494457  0.10978785
  0.12487826 -0.23837547  0.25025758  0.28758526 -0.31798106 -0.28619936
 -0.04789032  0.12331913]
[ 0.05823215  0.07514232 -0.04917479 -0.23994151 -0.18485513 -0.305863
  0.2167779   0.26040038 -0.11501544  0.08399034 -0.2203553   0.17094825
 -0.09468909  0.2343202   0.02463074  0.06910234 -0.08639989  0.17212121
  0.29514334  0.13436796]
[-0.11819629  0.07521825  0.09547591  0.04875895 -0.1722391   0.04094259
 -0.36905342  0.13997285 -0.20777924  0.1719527   0.1722032   0.01648639
  0.0020499  -0.14412719  0.2705864   0.16994539  0.11786429 -0.13462213
 -0.20134081  0.2649922 ]
[ 0.24636659  0.29872724  0.37612203  0.05778339 -0.34447482  0.3578608
 -0.10334028  0.06712967 -0.4522443  -0.16780551 -0.32252643 -0.16283822
  0.11019695 -0.00718553 -0.21082619  0.31975538 -0.32037264  0.0771801
  0.27951723 -0.18029174]
[-0.05949447  0.27522075  0.1277407  -0.07383302 -0.14392176 -0.0723273
 -0.15612009  0.3058041  -0.31726474 -0.11265837  0.07154127 -0.1460883
  0.01213156 -0.19746466 -0.24960388 -0.17189263 -0.24932888  0.02972949
 -0.20311686 -0.2563636 ]
[ 0.03384565 -0.12721129 -0.20525622 -0.04848341  0.3326887   0.29703456
 -0.2215158   0.31347921 -0.19370669 -0.22019278 -0.128397   -0.01151787
  0.3563078   0.12096904 -0.05939851  0.20868975  0.19132927 -0.0490142
  0.02662327 -0.24654378]
[ 0.0727402   0.21242382 -0.15019938  0.002328   -0.07199706  0.24634302
 -0.04327467  0.08225272 -0.23790765  0.24401008  0.02973027 -0.06817434
  0.23091494  0.09114257  0.09955355  0.3046115   0.1698692  -0.15468496
 -0.03393022  0.0544479 ]
[-0.09609346 -0.29827785  0.3998755  -0.20682834 -0.08181164 -0.25311625
 -0.0185837  -0.10736787  0.07621198  0.15081033  0.00369337 -0.16758886
  0.11130346  0.07858142  0.1241338  -0.19874933 -0.03657618 -0.19164948
  0.2561416   0.13971047]
[-0.05740761  0.03821852  0.35307562 -0.16901967  0.18501385  0.09712014
  0.32081825 -0.26894376 -0.13982742 -0.180898   -0.07872523 -0.23475274
  0.03467655 -0.28758848 -0.02936525 -0.27128026 -0.24407333 -0.15282
  0.20043534 -0.24304627]
[ 0.14406511 -0.29023746  0.36044636  0.18516034  0.08983384 -0.18439485
 -0.07490431  0.0339674  -0.3005394  -0.22166137  0.12875131 -0.21645069
 -0.11140449  0.15101668 -0.07537507  0.04124325 -0.01679173  0.1735781
  0.05592173 -0.158981  ]
[ 0.02164038 -0.06622524 -0.16209951  0.13060842 -0.0777598   0.21312325
 -0.07961062  0.00564728  0.21778412 -0.35810378  0.02302224  0.36186102
 -0.14559339  0.14606428  0.19918162  0.04003581 -0.10717621 -0.07836334
  0.11807144 -0.03550695]
[ 0.31923783  0.15943283  0.39391845 -0.14568812  0.11315174  0.07426838
  0.17607017  0.09454196 -0.2977883   0.23383656 -0.15736987  0.30042052
 -0.20552711  0.00489142 -0.28347835 -0.0879216   0.33611852  0.15599273
  0.31279802 -0.12733379]
[-0.2977419  -0.2423555  -0.08453201 -0.22977315 -0.00192809  0.38067812
 -0.24052735 -0.13083561 -0.30182382  0.4153775  -0.02570618 -0.2203597
 -0.20930332 -0.0816491   0.02130061  0.1533009   0.1874271   0.28459722
  0.25379416 -0.27667245]
[ 0.15316927  0.05534451  0.06826483 -0.09911171 -0.01779621 -0.12165987
 -0.33792362 -0.11826021  0.20676902  0.14614151  0.17927688 -0.12303039
  0.299681    0.28496978  0.17050019  0.01697355 -0.10467423  0.07034623
 -0.21408024  0.13503504]
[-0.36380208  0.04189842  0.03725865  0.14399622 -0.02614696  0.06814069
  0.1635579  -0.10303612  0.2440555   0.19281568 -0.32421753  0.22699559
  0.00334981  0.12792113  0.1417812  -0.03484331 -0.2613771  -0.22491917
 -0.20086287 -0.09212916]
[ 0.07512974 -0.0909045  -0.06925595 -0.25092274  0.01270167 -0.01052424
  0.30995634  0.06764156  0.30907106 -0.32790565 -0.26902205  0.09886016
 -0.00663291 -0.23072265  0.2595108   0.00634204  0.1672908  -0.26312187
  0.12077274  0.22472759]
[ 0.19170967 -0.08347366  0.10490542  0.00065579 -0.21632594 -0.13775207
 -0.00257604 -0.19147259 -0.07167228 -0.2049728   0.16692008  0.01811674
 -0.29497367  0.19719458  0.25269458 -0.17427818 -0.2618664  -0.18252659
  0.01713512 -0.08605152]
[-0.15064412  0.14451864 -0.1841556  -0.04833756 -0.19721073 -0.08875707
 -0.18935324 -0.19758916 -0.21416575  0.02484306  0.23720796  0.15483318
 -0.00099791 -0.00321109 -0.02538304 -0.11724924 -0.22326495  0.00128833
  0.21868691  0.24625498]
[ 0.08990458  0.00467263  0.15954085 -0.04749749  0.12568     0.12922692
 -0.11782455  0.30062097 -0.21359862 -0.06346127 -0.4154473   0.21939848
  0.5016392  -0.20904356  0.18264173 -0.09422373 -0.20134759 -0.34731552
  0.3913345   0.26366702]
[ 0.0883663  -0.40011102  0.18058363  0.29563108  0.20758972 -0.07144307
 -0.13356465 -0.16255152 -0.01469137 -0.09855983  0.05183304  0.03313554
  0.16664356  0.09326287  0.10932799  0.0061642   0.13351732  0.26494205
  0.12052286  0.19480683]
[-0.04120659  0.14440832 -0.09861961 -0.36664864 -0.05387572  0.1701935
 -0.21132325 -0.13149598 -0.11193741  0.03616697 -0.24546711 -0.05230867
 -0.3171023  -0.03336218  0.13165416 -0.02538358 -0.2036743  -0.15266994
 -0.02185004  0.23735411]
[-0.33449447  0.18043347  0.04984387 -0.23331463  0.01567499  0.21652061
  0.01124349 -0.18304175  0.20363843 -0.00453218  0.24634196  0.06586716
 -0.3796015  -0.2983111  -0.19416851  0.11668728 -0.20857088 -0.1537503
 -0.10302537  0.00058385]
[ 0.24555987 -0.09316225  0.15858755 -0.1509531   0.15904446  0.18089385
  0.09562571  0.1042738   0.11234259 -0.28144827  0.01843679 -0.0907985
 -0.1366479   0.2564347  -0.13633946 -0.17498964 -0.24695034  0.2728948
  0.21260956 -0.07521775]
[ 0.07280743  0.16375865 -0.17871036 -0.2619254  -0.07709705 -0.34060732
  0.10232821  0.20956102 -0.18821889 -0.0929848   0.35412067  0.08951398
 -0.13122663 -0.15961814 -0.00202658 -0.16440119  0.03067775 -0.03880402
  0.08005331  0.23391539]
[ 0.0105011  -0.01023497 -0.13446563 -0.05821209 -0.09974463 -0.12338387
  0.05593513 -0.10296693  0.13299815 -0.08840773  0.01747492  0.01896828
 -0.00312087  0.03648868 -0.00854508 -0.09822736  0.06143944 -0.05676594
  0.0519882  -0.0786252 ]
layer 5 Activation
tanh
layer 6 Dense
20 1
[0.125198]
[0.00302552]
[-0.1795686]
[-0.12844875]
[-0.22614712]
[0.02227971]
[-0.00736929]
[-0.16658546]
[0.20871554]
[-0.23021579]
[-0.01314769]
[-0.00407018]
[0.06486112]
[0.14523184]
[-0.31969783]
[0.00214864]
[-0.00294549]
[-0.04359401]
[0.14193107]
[-0.09018338]
[0.05764656]
