layers 7
layer 0 Dense
20 20
[ 0.1534875  -0.4897937  -0.2084654   0.57685345 -0.55836815 -0.48648933
 -0.08714754  0.31973544  0.17105773 -0.22463611 -0.22609091  0.49229607
 -0.19166383 -0.29881704 -0.3527691  -0.67431545 -0.2885095   0.02762951
  0.02576443  1.0140451 ]
[ 0.2907186  -0.535497    0.07172694  0.27986404  0.15616967 -0.21228294
 -0.42006853 -0.33304307  0.35425162  0.31793597 -0.09193182  0.07547569
 -0.05948719 -0.2509896   1.1712354  -0.22167899 -0.2851291   0.06057402
 -0.13096543  0.3312932 ]
[-0.1831043  -0.62415165 -0.09920045  0.06950205  0.04643215  0.02732136
  0.1869732   0.20128495  0.3057625   0.2792729   0.29028404  0.5687071
 -0.49325937 -0.41690102  0.9513812  -0.48421094 -0.25353283 -0.22803155
 -0.5411026   1.0745898 ]
[ 0.38944754 -0.7470337  -0.16287433 -0.27243978 -0.38287607 -0.11270588
 -0.62818617 -0.3963508   0.1639409  -0.21475935 -0.37620845  0.12671681
 -0.18884824 -0.30449313 -0.5431793  -0.01416875 -0.29056463 -0.16925354
  0.04021867  0.73950094]
[ 0.56350267 -0.31900054 -0.6833287   0.4089612  -0.269388   -0.6226311
  0.06746274  0.24628657  0.5356222   0.15636288  0.38637105  0.12869753
 -0.31325382  0.35847837  0.2660817   0.31715202 -0.09214634 -0.20649034
 -0.51243967  0.03440082]
[ 0.3178157   0.16670844  0.17711717 -0.23214735  0.0072677   0.57057434
 -0.34100643  0.1833322  -0.29854572 -0.47261062 -0.31764004 -0.34752047
  0.17663835  0.24055222 -0.9756947   0.23537542  0.7479099   0.10762726
  0.35955843 -0.16233331]
[-0.10828929  0.35244823  0.14619538 -0.03517813  0.4058252   0.10297504
 -0.16543375 -0.33988282  0.28115702 -0.43864393 -0.26726058 -0.18183298
 -0.00553176 -0.05887872 -0.99200106  0.01547106  0.36470497  0.2029258
  0.6702004  -0.46321458]
[-0.728244    0.8925288   0.3868134  -0.25354502  0.5354723   0.76489836
  0.7781416  -0.46774286 -0.42661878  0.4153577  -0.4789355  -0.5537339
  0.49539343  0.24916701  0.13976207  0.54699063  0.3080131   0.45512402
  0.7379718  -0.95147973]
[-0.37816182  0.7040798  -0.23434253 -0.62341684  1.0730712   0.12656395
  1.1092114  -0.31022894 -0.87664926  0.12783141  0.24230835  0.16635878
 -0.8603882   1.5090462  -0.9644463  -0.29637498  1.2158937  -0.03735143
  0.32850075 -0.40237015]
[ 0.27701104  0.7398992  -0.32147852  0.45205358 -0.41667688  0.17859983
  0.4410306   0.4921369   0.40231565  0.2427854  -0.23030482 -0.01070186
 -0.01752493 -0.195982   -0.02008606  0.28702977 -0.00922913 -0.02069845
 -0.03318893 -0.30019116]
[-0.3300585   0.36324397  0.07694019 -0.08382312 -0.03875064 -0.204038
 -0.7555988   0.36032122 -0.38483235 -0.19173402 -0.0466103  -0.08399586
 -0.37134755  0.0266555  -0.05319907 -0.1087096   0.09709699 -0.90359044
  0.42245284 -0.13059458]
[ 0.17673934 -1.098896   -0.39532384  0.46690562 -0.09036058  0.67230004
 -0.4747069   0.5010189   0.90166324 -0.15812291 -0.75454336 -0.00132227
  1.0349063  -0.2326302   1.2510319  -0.05710714 -0.6082219  -0.29231405
  0.28806525  1.3222476 ]
[ 0.47420797  0.01954567  0.11015148  0.21509147 -0.4047631   0.13318731
 -0.47477654  0.22017205  0.11562832 -0.154319    0.30892226  0.2663036
  0.16989577 -0.76172686  0.67391986 -0.3451118  -0.6565367   0.52430075
 -0.3431401   0.2762642 ]
[ 0.99182534 -0.58995956  1.265727   -1.1426316  -0.06706298  0.28140083
 -0.9427391  -0.51892906  0.38059112  0.5921638  -0.44495195 -0.6139655
 -0.67712855 -0.23214102 -0.33015093 -0.36272237  0.15699373 -0.08599405
 -0.24850295 -0.02430228]
[ 0.11679921 -0.56803375 -1.0558687   0.24663669  0.23314361 -0.30080116
  0.26886043 -2.064396   -0.1722704  -0.8609939   0.9330577  -0.33781335
 -0.8130614   0.46998194  0.2353832   0.14914483 -0.46079558  1.7053237
  0.9535333  -0.24025695]
[ 0.7238761   1.1774141   0.33784157 -0.50327456  0.17768188 -0.02821844
  1.4332886   0.47600707 -0.7863158   0.280989    0.5446441  -0.28539702
 -2.7531366  -0.71026903  1.5286225  -0.09726519  0.02400217  1.0115232
  0.02170834 -0.8775604 ]
[ 0.5136666  -0.4906136  -0.02994414  0.79554635 -0.7308501  -0.3100178
 -0.44829553  0.2677064   0.8638204   0.0723827  -0.5410813  -0.07113153
  0.8405689  -0.28928304 -0.27385342 -0.1116218  -0.7602134  -0.20880164
 -0.31779894  0.5447361 ]
[-0.31138927 -0.12209035 -0.45951855  0.26478708 -0.2622578  -0.7418648
 -0.84287053 -0.27166292 -0.570165   -0.80275565  1.0309637   1.6526755
  0.5579055   0.07071322  0.19285308  0.21025665  0.27778634 -0.18318836
 -0.13353217  0.6141895 ]
[ 0.4739205  -0.16274515  0.7333579  -0.44293088  0.5245455   0.31344262
  1.4999529   1.0088137  -0.32377413  1.1661929  -0.7411304  -0.22934
  0.553362    0.26386455  0.23617405  0.08463328  1.0750431  -1.0419838
 -2.8196309   1.1801934 ]
[-1.046999    0.8631586  -0.0209288   0.04395082  0.79032755 -0.29376924
  0.950364   -1.4022853  -0.12555096 -0.608676   -0.75140214  0.32141837
  1.0126896   0.07911097 -2.1178815   0.7403679   0.21821307  0.12870806
  0.7451104  -1.0599378 ]
[ 0.09836557 -0.29529247  0.15172236 -0.08056107 -0.20031269 -0.03178986
 -0.19624425 -0.05057862 -0.03214894 -0.14767198  0.08870629  0.17744668
 -0.11051528 -0.21081483 -0.04589164 -0.21984604 -0.12150263 -0.17908059
 -0.08978146  0.28101364]
layer 1 Activation
tanh
layer 2 Dense
20 40
[ 0.2490186   0.36108544  0.17155676 -0.17910463 -0.43457684 -0.462816
 -0.21635562 -0.12967362  0.34191453 -0.16553397 -0.08084787  0.21339588
 -0.26750818 -0.02454817  0.14744839 -0.09850907 -0.08898097  0.2188305
 -0.28497866 -0.03133187 -0.461294    0.20116475  0.48272613 -0.09057266
 -0.44801375  0.26306325  0.26552483  0.05792801  0.38888448  0.38241476
 -0.02997198  0.6315924   0.202217    0.02247663  0.15964782 -0.248682
 -0.8237012   0.39691132 -0.34609002  0.16891976]
[ 0.08989482  0.14204818  0.34380448  0.5014769   0.03263934  0.7393292
 -0.31553748  0.23613164  0.08204061 -0.5759651   0.09459892 -0.27773437
 -0.06898896  0.19427101  0.19408813 -0.55027103  0.06593886 -0.3184553
  0.44959134 -0.33715886 -0.22552387 -0.39253205  0.30855334  0.01127484
  0.24991308 -0.06767013  0.31035972 -0.0439182  -1.433867   -0.39497027
 -0.42109892  0.11812026  0.47373712  0.6262641  -0.1806449  -0.25710475
 -0.1124796  -0.6718132  -0.4166892  -0.03023948]
[ 0.42149642 -0.13027337 -0.32060885 -0.14991616 -0.65963966 -0.65865153
  0.28154954 -0.09477816 -0.07989223 -0.08275242 -0.00588326 -0.04501497
 -0.12167218  0.11339818  0.26032946 -0.54021597  0.21228828 -0.16556197
  0.03954559 -0.15738328  0.5890973  -0.14319964 -0.5444505   0.21884352
  0.36853075 -0.3534479  -0.06319448  0.1558859  -0.27028117  0.6566739
  0.07400777  0.64706945  0.4341703   0.3138082  -0.1613472   0.30792263
 -0.1331563  -0.16205637  0.10228666 -0.08006456]
[-0.14370039  0.27574283 -0.10297048 -0.23689738  0.61151814  0.54174024
 -0.39854065 -0.0590913   0.00245724 -0.13676879 -0.01739773 -0.13834986
  0.27312925 -0.02651749 -0.20780079 -0.36713424  0.19635913  0.33117253
 -0.2701433  -0.09109873 -0.18738015  0.02462095  0.31788266  0.12072189
 -0.1631623   0.46093756  0.31699222 -0.0950608  -0.27134314 -0.712844
  0.25734836 -0.21882217 -0.31336918 -0.29780015  0.11321753  0.38106832
  0.27556866  0.00406712 -0.27328703 -0.18441097]
[-0.04523894 -0.3015361   0.4931083   0.33762312 -0.12469605 -0.64779484
  0.2540733   0.0376731  -0.25659347 -0.29680353 -0.5068091  -0.1904121
 -0.01141567  0.40080234  0.4500438   0.2757466   0.13191676 -0.5157348
  0.7426936  -0.15502621 -0.19800949 -0.20392577 -0.33346114  0.27267766
 -0.4589927  -0.2253839   0.60620594  0.08041479 -0.00565427  0.42563617
 -0.32434213 -0.38906318 -0.06373756  0.711909    0.21743338 -0.2090503
 -0.14688754 -0.60106033 -0.33872843  0.33743507]
[ 0.23682944 -0.12144297  0.09028828  0.08247263 -0.12440605 -0.6068384
 -0.29202104 -0.12531158  0.07582983 -0.14283064 -0.06459755 -0.18065085
 -0.43931735 -0.1587297   0.08962677 -0.00153858  0.46777663 -0.1337754
 -0.05746169  0.14814225 -0.06639907  0.12605815 -0.1517208  -0.06621896
 -0.03304557 -0.11643666  0.13807712 -0.13185394 -0.00449162  0.44225976
 -0.0923622  -0.14936246  0.6335997   0.06996206  0.0734172  -0.2466789
 -0.10147945 -0.09243684  0.23581034 -0.2076253 ]
[-0.07785536 -0.10018738  0.8851548   1.0105804   0.12527293  0.28775066
  0.2237673  -0.31208813  0.32862112 -0.50698966 -0.948951   -0.07352516
  0.08859835  0.54992753  0.00219477 -0.41379917 -0.08741776 -0.46974683
  0.7984944  -0.73639905 -0.09845582 -0.33096126  0.740451   -0.46059188
 -0.03353187 -0.00295429  0.40677074  0.7876694  -0.77614284  0.2884234
 -0.9503402  -0.5097289   0.08448378  0.8788429   0.2996095  -1.2019728
  0.01395058 -1.00292    -0.6809438   0.28578985]
[ 7.6816654e-01 -3.8280734e-04 -3.6625242e-01  1.6009219e-01
  1.4619717e-02  2.2832124e-01 -1.0860665e+00  5.1349804e-02
  4.2040679e-01 -1.1493295e-01 -4.6538195e-01 -6.4582163e-01
 -9.1406152e-02 -2.2755751e-01  3.4157810e-01 -1.3988070e-01
  3.5926723e-01  6.8630898e-01 -5.0403273e-01 -5.0585549e-02
  8.4607816e-01 -1.1663576e-01 -6.7248535e-01 -6.2940538e-01
  5.8061844e-01 -8.6116016e-01 -6.6085804e-01  4.6515927e-01
 -6.9934845e-01 -6.3663435e-01 -1.1464069e-02  7.4174625e-01
  5.4305726e-01 -3.4875175e-01 -3.9425266e-01  4.6512431e-01
  2.6977164e-01 -1.2861392e-01  1.9105056e-01 -2.1292323e-01]
[-0.02405985  0.7375229  -0.11658095 -0.20069383  0.02176729 -0.40810612
 -0.71714157  0.17547628  0.17971689  0.18557408 -0.06851852 -0.22658628
  0.18852696 -0.313846   -0.10654486  0.28005087 -0.64041215  0.40984464
 -0.26839906  0.2892396  -0.30544966  0.49800885  0.36160657  0.15990132
  0.26737416  0.43022835 -0.34638035 -0.08059639 -0.14255369  0.35801968
 -0.19466172  0.05623816 -0.26055092 -0.18605068  0.34783316 -0.16008341
 -0.4384649   0.0994089   0.19624257 -0.21582046]
[ 2.1789737e-01  6.9432594e-02  5.2973840e-02 -8.1075266e-02
 -2.0896307e-01 -4.1556105e-01 -5.1983964e-01  3.1473923e-01
 -5.1961359e-02 -4.7935486e-02 -4.1365770e-01 -4.8312494e-01
 -5.0365406e-01 -5.0707836e-02  3.5176513e-04  4.1401498e-02
 -3.0559009e-02  1.5065952e-01 -8.2877986e-02 -6.7235135e-02
 -5.4631162e-02  2.3918712e-01 -1.7040476e-01 -2.1367751e-01
  2.4465854e-01 -3.3524889e-01 -1.0555989e-01  2.2535993e-01
  5.5868018e-02  5.7461393e-01  1.5602256e-01 -9.4497360e-02
 -5.1844623e-02 -1.7259699e-01 -3.3087302e-02  3.3501202e-01
 -3.0252388e-01 -2.7637714e-01 -5.4758531e-01  1.7651749e-01]
[-0.2521804   0.5533593   0.15886007 -0.12519483  0.6262884   0.80200744
  0.26209012 -0.28733838  0.07787542 -0.0867963   0.2854691   0.09899613
 -0.09600537  0.05517828 -0.28882188  0.08920737  0.346035   -0.3967716
 -0.13587576 -0.12341778  0.2798814  -0.4024458  -0.5621186   0.01301529
 -0.29630902 -0.00217226  0.30890906  0.14185487  0.22803402 -0.7507803
 -0.10111459  0.41680354 -0.03008849 -0.24022886  0.05635909  0.00193873
  0.1365822   0.23983814 -0.48952693  0.05736991]
[-0.11077497 -0.41451967  0.17548284 -0.21647705  0.3986589   0.63444984
  0.32688233 -0.6439765  -0.16171989 -0.04560114  0.36766678  0.22543363
  0.2971633   0.28372464 -0.27228463  0.14330862  0.64804745  0.00393265
  0.4720864   0.4612569   0.5614741  -0.27885494  0.18090141  0.1526431
  0.5072471   0.0182957   0.39944756 -0.08174207  0.05409832 -0.6412531
 -0.00883051  0.16561453 -0.2768494   0.26087844  0.03405688  0.04493285
  0.36198625  0.3117594  -0.33758116  0.44035533]
[-0.59154725 -0.11951383 -0.06390486 -0.33598357  0.22094499 -0.78204876
 -1.1490793  -0.06250607 -0.31754696 -0.032291   -0.40084127 -0.21522152
 -0.0362539  -0.46361294  0.57314533  0.06960497  0.23502257  0.5662766
 -0.5072859   0.05050509  0.07351825 -0.51126945 -0.39626375 -0.3160696
  0.39753872  0.17738646  0.20033097 -0.4797773   0.01540872 -0.9521828
 -0.08889666 -0.8465636   0.01589933 -0.24901164  0.12728712  0.17657721
  0.50611466  0.48793712 -0.48634028  0.09841123]
[-0.33820593 -0.57746834  0.8844857   0.10710875  0.5498843   0.3218383
 -0.17122866 -0.321776   -0.13551296 -0.00394313 -0.47871348  0.03755341
  0.22746535  0.43686002 -0.36830756  0.15367264 -0.40103936 -0.38495055
  0.34618986  0.09612008 -0.44829223 -0.09298285 -0.25281808  0.14785565
  0.12432076  0.4074597   0.30389404  0.02150302  0.17210455  0.17271721
 -0.19889992 -0.87203526 -0.25616932  0.20680758  0.19507037 -0.18971737
  0.19593126 -0.55704194 -0.7036142   0.36241263]
[-0.03285151  0.8970191  -0.06951454 -0.3189286  -0.21602814  0.7645418
  0.06829131  0.29226476  0.2532696  -0.14665517 -0.33840838 -0.4571269
  0.24028578 -0.71937287 -0.14859019 -0.3296253   0.39488468  0.1312034
 -0.971971   -0.072058    0.0049688   0.32950538 -0.2867378  -0.5087749
 -0.5877871   0.3046585  -0.31654125  0.15514864  0.99753976 -1.4758004
  0.14176576  0.9659802   1.0001928  -0.3724568  -0.38713953  0.09329154
 -0.0314283  -0.20853464  0.36775467 -0.35822016]
[-0.19013369 -0.23339461  0.1621981   0.03170742  0.39937076 -0.14340065
 -0.13881521 -0.13511485 -0.2822027   0.26633328 -0.26208234 -0.05537695
 -0.00564749 -0.1366683   0.02089465 -0.06505994 -0.32292557 -0.12548181
 -0.09748334 -0.13597615 -0.1134415  -0.1931815  -0.17563139  0.32886377
 -0.01960433  0.11419375  0.1334265   0.0583108  -0.11530679 -0.34412438
  0.15350114 -0.0266295   0.2020278  -0.07220043  0.3064275  -0.08572439
  0.00098117 -0.1099642  -0.00408967 -0.05347304]
[ 0.597905   -0.77909577  0.8248538   0.7570025   0.01801419  0.42637575
 -0.48458493 -0.3310387   0.02108715 -0.09944782 -1.0852485  -0.05468372
 -0.11143931  0.16799118  0.55642545 -0.4391708   0.0316116  -0.72573185
  0.26266515 -0.14857797 -0.16650292 -0.20265539 -0.3930098  -0.29893208
  0.02497126 -0.7687322   0.38531387  0.30773982  0.31222963  0.38226196
 -0.6588649  -0.65999657  0.05034953  0.90005463 -0.30137175 -0.62166756
  0.36004025 -0.231255    0.03861894 -0.05205262]
[-0.89810085  0.32545328  0.00895789  0.03782463 -0.08785109  0.13620861
  0.5459803   0.09743919 -0.31085405 -0.24819468 -0.05483507  0.36421904
 -0.15780605  0.15805247 -0.11083344 -0.19288263  0.1469314  -0.09625409
  0.11143379  0.04077893 -0.45551243 -0.10922676  0.6414658   0.04990034
 -0.9535263   0.26229972  0.13319716 -0.24815936  0.0179968  -0.4553702
 -0.12733984  0.20878409 -0.16913103 -0.2903048   0.04205106 -0.38685519
 -0.4513064   0.15164644 -0.27049097 -0.08654046]
[-0.37010553 -0.40468743 -0.06295896  0.09851303  0.13155857  0.36818486
  0.89599013  0.10092063  0.21211189  0.00566239  0.4503684   0.43800706
  0.12317781  0.3178471  -0.79768354 -0.08523515 -0.01089043 -0.34437245
  0.13797395 -0.14774486 -0.7107687   0.5524356   0.77511746  0.22060277
 -0.41847074  0.26767555 -0.28991944 -0.99950945 -0.28209263 -0.11307471
  0.28046167  0.12120491 -0.70579845 -0.20334037 -0.0690688  -0.32776076
  0.05087312 -0.1115846   0.07915996  0.1999208 ]
[ 0.17375444 -0.11222673 -0.5697203  -0.71521276  0.37800637  0.6746145
 -1.0736469  -0.42674842  0.3700441   0.73724896  0.00498722 -0.61313933
  0.14972444 -0.03679083 -0.01390543  0.42000586  0.15166715  0.24530911
 -0.01540725  0.80838084  0.30480525  0.2906873   0.0574369   0.2551263
  0.64484996 -0.5816331  -0.336237    0.2718507   0.9390126   0.07435282
  0.7515752  -0.2512693  -0.04810188 -0.64134914 -0.6314434   0.58368236
  0.42683396  0.9364532   0.8922677  -0.56626695]
[ 0.17739402 -0.00370021 -0.19467604 -0.20671268 -0.03592812  0.48942426
  0.54622746  0.04343341  0.0299361   0.48997077 -0.15127508 -0.09788752
  0.02237657 -0.12246272  0.04578932  0.41688532  0.03109076  0.13916348
 -0.25715095  0.26388216  0.06392728  0.07194415 -0.24299307  0.00076614
  0.14670895 -0.17403366 -0.5653132   0.17981894  0.39324552  0.40138006
  0.27372018  0.39335155  0.16883422 -0.13994054 -0.39429882  0.3699934
  0.23523429  0.13625489  0.53348815 -0.3245233 ]
layer 3 Activation
tanh
layer 4 Dense
40 20
[ 0.49368185  0.09179963 -0.367604   -0.27729464 -0.25079188  0.26298025
 -0.03765349  0.28767192 -0.34425572  0.2587714   0.05240527 -0.09541503
 -0.00218728 -0.04273318  0.17328618  0.3006575  -0.06394602  0.2926497
  0.6062289  -0.0751333 ]
[ 0.18220146  0.26966354  0.01121589 -0.01287385 -0.27531052  0.54564846
  0.01602435  0.22675607 -0.60712475  0.05664787 -0.31805     0.0080879
  0.24913082  0.11486752 -0.74000984  0.09082798  0.11617681  0.12790538
 -0.04999417  0.25178066]
[-1.1848944  -0.44682786  0.0473726   0.18364729 -0.2864866  -0.5475367
  0.69831735  0.26740786  0.924574    0.1113954  -0.01369669 -0.4416262
 -0.42355037  0.13049252  0.2427724  -0.04325455 -0.41047522 -0.39884362
 -0.50058377 -0.32959765]
[-0.44017592 -0.5099351  -0.8119289   0.25082815 -0.36208752 -0.523781
  0.10218652  0.23689789  0.02031953  0.16438033  0.3044559  -0.4837841
 -0.3101088  -0.11808728  0.3628513  -0.07313462 -0.01982246 -0.52970773
 -0.10391103 -0.03082799]
[-0.32638383 -0.30480543 -0.24043359  0.06728433  0.19623663  0.11493821
  0.4662999  -0.22263288  0.2591906   0.1101116  -0.04685255  0.35673657
 -0.08647637  0.25115743 -0.13500038  0.04875625  0.1277803   0.279728
 -0.4510206   0.15374786]
[ 0.09958133 -0.37865245 -0.37890092  0.5170941   0.32241794  0.54445326
  0.27344143 -0.20377526  0.50064045  0.18043706 -0.62070185 -0.1313867
  0.16279368 -0.23801932 -0.4062202   0.64928067 -0.08650144 -0.08659545
  0.22246645 -0.06334888]
[ 0.18076326  0.06923281 -0.55809057  0.44369796  0.38210812  0.39244086
  0.3013673  -0.52471894  0.01726005 -0.55488276 -0.1856975  -0.58256
  0.04866657 -0.33732113  0.21845934 -0.3201352  -0.00243486 -0.28723037
  0.5973429  -0.29723155]
[-0.20632502 -0.19015762 -0.17790745  0.00817508 -0.17414102 -0.0815694
 -0.11772161  0.02958542 -0.05798503 -0.28495538 -0.03144633 -0.05194203
  0.08017162 -0.01022789 -0.1181094  -0.15788093 -0.14862557 -0.336663
  0.31338242  0.2456075 ]
[ 0.32633507  0.0080373  -0.1732368  -0.1746057  -0.14114434  0.3471032
 -0.09514318  0.2589482  -0.4703406   0.22671092 -0.12391906 -0.24179867
  0.19454628  0.04010563 -0.11428149  0.04991536 -0.20672677  0.14336617
  0.32713518  0.32907254]
[ 0.23837377 -0.00412627  0.39067343  0.05740534 -0.0420751   0.08173317
 -0.26343197 -0.23662525 -0.1180546  -0.1714627  -0.04995063  0.17981036
 -0.1513194   0.07902723  0.08512796 -0.02842     0.01952715  0.60401964
  0.2919644  -0.06227516]
[ 0.11968514  0.63227105 -0.19026761  0.1338159   0.24676244  0.8086226
 -0.28282917 -0.00109429  0.06300469 -0.25307617 -0.6878455   0.10758115
  0.09053557 -0.47453305 -0.16496554 -0.26358396  0.37538368  0.13988985
 -0.19623235  0.17472039]
[-0.26271418  0.52621174  0.21700093  0.30794817  0.48722956  0.15624842
  0.07643722 -0.12811051  0.3565933  -0.10171535 -0.2277248  -0.20069192
 -0.17599937 -0.2628918   0.13350715 -0.43892673 -0.00856413  0.14074409
 -0.38841608 -0.12152275]
[ 0.1414686  -0.24335407  0.05626473  0.14046888 -0.22922377  0.12269352
  0.04926177 -0.0458696  -0.02353035  0.05233844 -0.00965549 -0.10435043
  0.02674015 -0.05258176  0.14329082 -0.16955209  0.08698789 -0.05788266
 -0.09170173  0.20672822]
[-0.5097549  -0.28001684 -0.56074864  0.04539935  0.27259758 -0.21630818
  0.10428549 -0.5623032   0.4331855   0.25291857  0.07239549 -0.26449707
 -0.57645327 -0.15380073  0.26361907  0.15570241  0.06012172  0.06626581
 -0.2000483  -0.22464956]
[ 0.04398023  0.02254992  0.31964695 -0.02189182 -0.49918723 -0.2034917
 -0.35993445  0.3254057  -0.05429873  0.29523504  0.5595938   0.15902087
 -0.20205855  0.01292201  0.24188973  0.1708695  -0.23521915 -0.10266533
 -0.00945687 -0.13163938]
[ 0.6183529   0.05619814  0.17639652  0.16853221  0.05930306  0.08161169
 -0.17893825 -0.3827362  -0.03776921  0.00744948 -0.09912333  0.13923429
  0.1572128   0.17597204 -0.06038644 -0.0537159   0.25401202  0.11744604
  0.11089624 -0.23751362]
[ 0.27802056  0.11197129  0.02955741 -0.13403288 -0.26047063 -0.05885556
 -0.12357471  0.3050633  -0.18058224 -0.04327652 -0.03119504  0.09019423
 -0.03735396 -0.2533127   0.02395129  0.1576018   0.00732374  0.12482993
 -0.23355637 -0.08491129]
[ 0.709554    0.14325073  0.35302466 -0.22653182  0.14705838 -0.24954535
 -0.45277402  0.6145536  -0.39945635  0.20239054  0.27362683  0.35487932
  0.17783405 -0.11846764 -0.23875505 -0.07991862 -0.18451394  0.3485561
  0.07980543  0.19989207]
[-0.6853428  -0.21463779 -0.12543948  0.14593852  0.27692947  0.08269326
 -0.09505967 -0.4555202   0.418537    0.53918326 -0.27646524 -0.13253239
 -0.10541303 -0.25511637  0.1595656  -0.01620628 -0.12898709 -0.2270145
 -0.23690948  0.13244253]
[ 0.6404512   0.13321693  0.22534837  0.07157416 -0.20169191  0.12066054
  0.04809738 -0.4400444  -0.5076259  -0.12368606 -0.1126413   0.17261037
  0.39431453  0.13763198 -0.18184961 -0.02437069 -0.02848678  0.5027948
  0.25524318  0.06754963]
[ 0.2997159  -0.0493577   0.05528977 -0.24048619 -0.35238543 -0.19405925
 -0.07267957  0.26879257 -0.02863611  0.31562838 -0.09713278  0.28997508
  0.25594336 -0.35135582  0.22081487  0.31543648 -0.21608406  0.04108978
 -0.11588684 -0.20305362]
[ 0.37534073 -0.12084128 -0.02978179 -0.19957551  0.29098877  0.29190904
 -0.19261158 -0.25432384 -0.12846644 -0.32763016 -0.18922246 -0.13863908
  0.40802383  0.12073515  0.10117852 -0.00602442  0.4368874   0.4143821
  0.30913755  0.29275578]
[-0.07822175 -0.282615   -0.306803    0.3503358   0.6170743   0.19428156
  0.02821857 -0.30315045 -0.1334461  -0.3529707  -0.5265623  -0.74051327
  0.14661402 -0.08595623  0.04099716 -0.40287143  0.15148188 -0.20048362
 -0.24539539 -0.0943944 ]
[-0.05396177  0.39926845 -0.0170891   0.25422877  0.39375806  0.48079944
 -0.00536111 -0.55948496  0.23376085 -0.3968392  -0.00059063  0.19387856
 -0.00556454  0.01210228  0.25932363 -0.2750687   0.35332394  0.08151729
  0.0664176  -0.21818966]
[ 0.28612494 -0.3147844  -0.2964933  -0.08343609 -0.13008687 -0.10307311
 -0.30482578  0.07843198 -0.12318822  0.43625358  0.12365931  0.30529648
  0.09178552 -0.39345804  0.45238104  0.26244828  0.11000422 -0.09619408
 -0.07482622  0.0452435 ]
[-0.01626083  0.06461039  0.41202515  0.36180526  0.4183766  -0.16047327
 -0.03988526 -0.17552722  0.00270704 -0.4050254  -0.2716564  -0.06698141
 -0.02984707  0.0767555  -0.22050057 -0.259786    0.14251097 -0.00429418
 -0.16088966  0.15405631]
[-0.4735432   0.06689441 -0.05641687  0.1862948  -0.1310721  -0.2525599
  0.26149878 -0.24999847  0.5111457   0.03251173  0.37810045 -0.16744258
 -0.05407055  0.01999133  0.04254286 -0.04268434 -0.15433837 -0.2260821
 -0.575588   -0.5107509 ]
[-0.05875421  0.06921829 -0.10793903 -0.17151861 -0.23354732 -0.11273041
  0.43196404  0.38079748  0.0754736   0.5894514   0.05086448 -0.37283185
 -0.3126992   0.15340173 -0.06788787  0.30333814  0.07321925 -0.1500273
  0.45964321 -0.12915826]
[ 0.2795799   0.44041428  0.572823   -0.27763844  0.22536904 -0.16929027
  0.11765689  0.2506269  -0.27644086 -0.21205041  0.12039823  0.18637335
  0.2278984   0.911164   -0.05113583 -0.22445643  0.0565106   0.68957776
  0.19793789  0.12187491]
[-0.2324941  -0.3598863  -0.3046608   0.60672736  0.29119495 -0.07569786
  0.28315932 -0.45959854 -0.15737855  0.24755077  0.4478099  -0.3563043
 -0.2832557  -0.25415385  0.6778947   0.5360424  -0.01396753 -0.04709717
  0.19689411 -0.19816987]
[ 0.41531098  0.39179632  0.26277715  0.04967633  0.15473115  0.7369945
 -0.40317696 -0.12073055 -0.01057669 -0.27675706 -0.5889302   0.26567343
  0.18429789  0.11975499 -0.04601783  0.00846461  0.4316534   0.17506133
  0.28864887 -0.09529277]
[ 0.51842064  0.63533604 -0.0339842   0.18869542  0.28749883  0.40084743
 -0.20624182 -0.04726774 -0.11871125  0.310077   -0.41003266  0.17174096
  0.23993854 -0.30957487  0.05316812  0.38827485  0.03042915  0.23569548
  0.57555705  0.4285363 ]
[-0.17729352  0.04064343  0.21505822 -0.18248144 -0.3935462   0.19830087
 -0.07766441  0.41666767 -0.05794633  0.16320972 -0.0086772   0.07867082
  0.1465188  -0.02172529  0.07549145  0.22796686 -0.12755552  0.05235783
  0.3227749  -0.02702888]
[-0.34728044 -0.2945641  -0.23223862  0.3302012  -0.20768541 -0.56142604
  0.19315486 -0.091004    0.13583504  0.24946922  0.39575452 -0.5296777
 -0.47505006 -0.20423245  0.03987559  0.07381    -0.1633995  -0.18182227
 -0.16908285 -0.23503572]
[-0.5767231  -0.01537408  0.04490466  0.12438209  0.15070261 -0.25953653
  0.19584042 -0.11860397  0.30292943 -0.47640273  0.33770722 -0.03341184
 -0.01874747 -0.16240305  0.15297803 -0.25764704  0.02009206 -0.1461363
 -0.48699635  0.0383449 ]
[ 0.53918964 -0.01783161 -0.03682326 -0.2278681  -0.0265524   0.13752224
 -0.35724688 -0.45145446 -0.4514229  -0.24035473 -0.2708559   0.40038803
  0.14528346 -0.0497323   0.16997302  0.36468235  0.1744134   0.07332569
  0.1699574   0.45971724]
[ 0.02781754 -0.39217257 -0.04590227  0.15970229 -0.02282013 -0.04072012
 -0.10540714 -0.06663704  0.10431658  0.23176542 -0.14690942  0.15832919
 -0.04233945 -0.12577102  0.33505052  0.04196369 -0.09673182  0.1394423
  0.085714    0.04693814]
[ 0.22809204  0.56543404  0.8445621  -0.33596775  0.0088661   0.11234386
 -0.68039906 -0.38839555 -0.04303928 -0.04550865 -0.35107142  0.64824796
  0.07032716  0.5695747   0.1186521  -0.22918694 -0.02933755  0.45463872
 -0.02756429  0.09314436]
[ 0.40294883  0.18196334  0.31005517  0.0112418  -0.38831356  0.5507961
 -0.45672938  0.11337674 -0.50749993 -0.27554432 -0.00895637  0.03830258
  0.01779039  0.37291747  0.23395215 -0.05501759  0.32354006  0.17346579
  0.63353723  0.21765278]
[-0.52093107 -0.09881771 -0.05503916  0.172488    0.20074347 -0.17423335
  0.16390128 -0.25033727  0.4983885  -0.27344936  0.14800571 -0.00461056
  0.00651298 -0.06455999  0.15767047 -0.03011614 -0.16078016 -0.26704317
 -0.3686948  -0.16251697]
[ 0.40732887 -0.00996337 -0.00137176  0.20330106  0.00846015  0.063453
 -0.04223847  0.0708758  -0.14397413 -0.11516969  0.05246729  0.00969516
 -0.18406054  0.0062059  -0.22945084  0.24358273  0.06107741  0.10228654
  0.35727277  0.14826387]
layer 5 Activation
tanh
layer 6 Dense
20 1
[0.01271975]
[-0.02338321]
[-0.0242107]
[0.04084934]
[0.04417171]
[0.03430817]
[0.0978803]
[-0.05956727]
[0.00680104]
[-0.01069559]
[-0.02115001]
[-0.09713495]
[0.01305369]
[-0.12315992]
[0.06625925]
[0.11998519]
[0.01070117]
[-0.01010315]
[0.0302821]
[-0.05494578]
[0.3273179]
