layers 7
layer 0 Dense
20 20
[-0.89300174 -0.31793326  0.22135913 -0.13456224  0.21443816  0.8669698
 -0.04514791  1.2478143  -0.1836187   0.60040766  0.07666704 -1.0200729
 -0.16917047 -1.1879567   0.9694836  -0.70448023  0.05088107  0.8967628
  1.1316258  -0.6486976 ]
[-0.9405803  -0.72981745  0.6506559   0.4085015  -1.2247345   0.94020265
  1.133144    0.789089   -0.37795103  0.40398267 -0.11982386 -0.11662147
 -0.02866665  0.27411968 -0.43555123  0.13173512  0.2281748  -0.8391692
  0.36511967  0.22028798]
[-1.2377653  -0.7396985   0.6310147   0.30825865 -1.3090138   0.5731684
  1.2004673   1.0573282  -0.5154905  -0.10295711 -0.752825   -0.5788751
 -0.06675094 -0.13847913 -0.98845935  0.25784293  0.5592338  -0.7179041
  0.73725015  0.39472726]
[-1.6373012e+00 -8.2574576e-01  3.0916575e-01  1.6606897e-01
  2.2083573e-01  1.0024769e+00  4.7522813e-01  4.9864635e-01
  1.5798183e-01  2.4753593e-01 -9.7945221e-02 -7.0772183e-01
 -1.6531456e-01 -9.1015065e-01  2.2169790e-01  4.3146132e-04
  1.4169708e-01  8.8339150e-01  9.9550873e-01 -5.9896238e-02]
[ 0.5336579  -1.7361933   0.5072044   1.6447655   1.2137663   0.49330038
 -1.0558883  -0.49165714 -2.059976   -1.5700717   0.82174575  0.31654847
 -0.10484905  0.6745769  -0.8769342   0.34459132  0.49458265  0.14093994
 -0.93095756  0.75113267]
[-0.5856732  -0.4587758  -0.20983836 -0.2465221   2.569843   -1.901638
 -0.8513891  -1.0382954   0.959939   -0.5872456   0.8239329   0.6715857
  0.02623615  0.76612985  1.312774    0.52037805 -0.989506    1.4857419
 -0.5019017  -0.43794173]
[-0.69750077 -0.10044562 -0.5495593  -0.1816209   2.6320803  -1.4674106
 -0.7323148  -1.267528    1.0777494  -0.08710574  0.98158735  0.64238304
  0.21885753  0.15357253  0.8582445   1.1720058  -0.47381592  1.5573331
 -0.80410945  0.08934152]
[ 1.2755965   1.7523495  -0.2808871  -1.218682   -0.25480565  0.01804663
 -0.11785257  0.41644084  0.790118    0.6937284  -0.4833885  -0.31704587
  1.046484   -0.6175418   0.10906602 -1.1410427  -0.12936881 -0.8732143
  0.22316961 -0.42534444]
[ 0.4730092   0.21464519  0.6692387  -0.82399136  1.1725733   0.6809508
 -1.4556826  -0.42387202  0.8454249   0.48960924  1.1608689  -0.39317018
  0.90987885 -0.28892034  1.9641398  -1.2569758  -1.1853635  -0.49157575
 -1.2080661   0.66220874]
[ 0.20035765 -0.7886506  -0.6396592   0.11996821 -0.4774141   0.5605481
 -1.3446004  -1.3304356   0.8339922   1.4312234   2.1275392  -0.21446696
 -0.630535    0.52730733 -1.8142762   0.6952993  -2.9706647  -0.41834062
 -0.7265962  -0.5854683 ]
[-0.27593303 -0.35224283 -0.01629047  1.0089158   0.7523018  -0.2973068
  0.14074506 -1.2501698   1.3656002  -0.22398823  0.22695513 -0.01497301
 -0.7074359  -0.16809528 -0.0926141   0.88627493 -0.2537752   0.5801862
  0.99385333 -0.01954106]
[ 1.1855836   1.0612127   0.288184   -1.0960821   0.71092004  0.34222016
  2.142609   -0.11949669  1.442427   -0.26876086 -0.27055025  0.6093317
  1.7765572  -0.3479021   2.8598485  -2.8724155  -2.7292876  -0.90331244
 -1.2687324   0.16101046]
[ 0.4880593   0.5758979  -0.8615024  -0.73879105  1.9998859   0.38096675
 -2.5197563  -0.37182212  0.10733014 -0.8092233   0.703712    1.7671025
 -0.6134685  -0.55718124 -1.4509543   0.71930045  0.66540605  1.5827127
  0.6870146   0.46153662]
[ 0.03644837  0.04109786  2.2568738   0.27212712  1.4261969  -1.0622414
  1.0253574   2.2685509   0.26176208  0.16853358  0.518629   -0.7750744
  2.023932    1.0448045   0.3470134  -0.13038583  0.6799531  -1.2301346
 -1.3209972  -1.954398  ]
[ 0.34451964  0.11645305 -1.0232842  -1.4603665   0.20849651 -1.7044966
  0.7433782  -0.03076502 -2.769341    1.1895788  -0.85660714 -0.11558642
 -0.72725195 -0.19919337  1.2985946   0.33692133 -0.7623498   0.225756
 -0.2908448   0.50849813]
[ 1.3966167   2.280043   -0.8890557  -0.9987452  -0.8296117   0.21525645
 -1.7459      2.7464237   1.3092619  -1.7461128  -0.684733    1.7617395
  1.0943551   0.40583977 -0.98492306  0.39292395 -0.22270074  1.8728544
  2.638971   -2.560621  ]
[-3.2223836e-01 -1.7881298e+00  9.4498914e-01  1.4842540e+00
 -6.9548345e-01  1.1736226e+00  5.2875745e-01  1.0416859e+00
 -2.6350040e+00 -1.0281833e+00 -4.4939555e-02 -1.4034890e+00
  2.0111656e-01 -1.3072541e-01  5.2824978e-02 -1.5925195e+00
  2.6461110e-01 -5.1162922e-01 -1.7154879e-03 -1.0384627e-01]
[ 0.19572178  0.47278506 -3.676424   -1.3635043  -1.9955068   1.9482689
  0.21349902 -2.6532764  -1.1700355  -2.0988767  -4.964972    0.4440729
 -1.679467   -3.4110444   1.6530085  -2.0287542   3.9430451   2.4072266
  3.3517954   6.1765594 ]
[-0.12803161  0.8150591   1.6485794   0.03959956 -2.9564574   2.8007321
 -0.9284462   1.9675851   0.3596521  -1.1300397   0.678709    0.77403307
  2.5033066   0.25539488 -0.5575487  -2.7999837   0.81368864 -1.478764
 -1.6875257  -0.7906026 ]
[-0.5323122  -1.1499169  -0.13559341  0.23355554 -1.0831673   0.6120657
 -0.2937981   0.49153957  0.02323489  3.028578    0.505788   -2.6313663
 -0.6209997  -2.2318497  -0.6177611   0.58048946  1.2108995  -0.69441336
  1.2329534  -0.47418875]
[-0.8830518  -0.33767262  0.06562766  0.22544998 -0.03894093 -0.1537842
  0.96225923  0.00216563 -0.0584381   0.04885314  0.0167242  -0.18943234
 -0.67849123  0.11016618 -0.00997829  0.5603104  -0.04228746  0.42689967
  0.12026604 -0.11293129]
layer 1 Activation
tanh
layer 2 Dense
20 40
[-1.6221545  -0.19855307  0.4213147  -1.0934479   0.8497388  -0.6930449
 -0.9323439   0.6067213  -1.7103254   1.8219955  -1.8795776  -0.8771069
 -1.4863945  -1.9064215   1.3230394  -0.50971144 -1.8311111   0.02262771
 -0.62609076  1.6050285   0.18335676  1.388368    0.84045553  0.61407137
 -0.31765598  0.16640343 -0.15580454 -1.1558703   1.696464    0.3191377
  1.6215633   1.7632476  -1.7977357   1.1241652   1.1878343   0.70293427
  0.22882603 -1.8311377   0.49685484  1.0933851 ]
[-0.74713385 -0.12758723 -0.9032879  -1.1557292   0.5227053   0.3002015
 -1.9389373   0.38609082 -0.11755285  1.720984    0.15980223  0.6491686
 -1.7287382   0.13516957  0.5118976  -0.60531545 -1.531936   -0.3196723
 -1.4685304  -0.54970545  0.00370859  0.01590608  0.5609592  -0.26454192
 -0.3717957   1.654692   -0.6747567  -0.40602845  0.18241209 -0.8354173
  0.16011102  0.565642   -0.50990045 -0.01960825  1.0813041   0.01746029
 -1.0638572  -0.3173344  -0.48437425 -0.12244016]
[ 0.6263575   0.652944    1.3857728  -0.31155545  0.73885584 -0.90378016
  1.6343285  -1.3386521   0.35198855  1.0499158  -0.23787913  0.40508837
  0.6119403   0.43077272  0.03571646  0.21235488  0.9405548  -0.5102033
 -0.53876585 -0.5272176   0.7945424   0.3004177  -1.230442    0.7515707
  0.6117059  -0.39576888  0.90633273 -0.09756358 -0.9292207  -0.68111163
 -0.24730968 -0.07685322  1.03231     0.19307102  1.1474532  -0.22054966
  0.5824079   0.6018331   0.02845445  0.18871324]
[-0.44764003  0.65304065  1.8280177   0.09149137  1.0198426  -0.7853926
  1.2680391  -1.6722733  -1.3588877  -0.1611301  -0.22615358 -1.4518235
  0.26011008  0.17818978  0.3939648   0.19796026  1.5296558   0.06423799
  0.8361204  -0.07076725 -1.6597767   0.20526053 -1.2113838  -0.96461093
  0.7074734  -1.4915059  -0.6492763  -1.3343148   0.12258022  1.1204311
 -0.5566125  -0.29879308  0.50448394  0.1414774  -1.2869213  -0.39089063
  0.6946978  -0.03296814  0.5744092  -0.1557679 ]
[-0.8168629   0.43838555  1.5115635   0.11523783 -0.20175923 -0.14755647
 -1.3615365   0.4400135  -0.57449913  1.6861346   0.5592567   0.80966395
 -0.4020323   0.12673114  1.5807614  -0.80205625 -0.49122784  0.93915886
 -1.260131    0.6123637   0.5777818   1.0303338  -1.8364921  -1.7317239
  0.00985585  0.9878693   0.03905305 -1.833948   -0.73791784  1.0485615
 -0.03399146 -0.1884552  -0.9716518   0.08987083 -0.58809763  0.2994103
 -0.33679295  0.31879926 -0.21960083  0.86128074]
[ 1.3047528  -0.03349854  0.46465218 -0.8815206   0.31397393 -0.73142487
  1.4018059   0.35024232  0.09115391  0.43924075  0.01613607  0.5681092
  0.9977257   0.20289262 -1.1161201   0.2731086   1.0891235  -0.50626534
  0.63467586 -0.27479112  0.34909153 -1.349594    0.39687043  1.6658841
  0.00627078 -0.45982146 -0.9243942   1.1381663  -0.65244615 -0.7205123
 -0.020714   -0.93642324  0.6978533   0.3644124  -0.47957954 -1.0750425
 -0.28485456  0.41494405 -0.59780777 -0.9438617 ]
[ 1.5598714  -0.07540619 -0.51185083  1.1646198  -0.8587466   1.443134
 -0.2535913   0.1627819  -0.6025495  -1.7129825   0.12791161  0.11348386
  1.1882392   0.08004137 -1.1611377   1.2454813   0.8683819   0.6014534
  0.50203866 -1.2913309  -0.68275064 -0.8537382   0.8880998  -0.6342407
 -0.7077506   0.39621222 -0.8891791   0.73418504 -0.83272874  0.8670071
  0.50656337 -0.5413367   1.1141665  -0.03288426 -0.3671912   0.2783229
  0.05086197  0.6064793  -0.7605092  -0.4383745 ]
[ 0.241449    0.9932208   0.3837557   0.32937762  0.47566348 -0.50356036
  0.47774416  0.02243309  0.84679246  0.2657758   0.08814684  2.7189462
  0.06366752 -0.68036205 -1.4223472   1.3804965   1.1000105  -2.7230265
 -1.1729615  -2.4248097  -0.05293651  0.1864214  -1.0464076   0.23589745
  1.2788115  -0.5356335  -1.4359751   2.4602296   0.26567316 -0.8981302
  0.32402122  0.72598165 -0.35998622  1.2964792   1.1267217  -0.23672955
 -1.5661962  -0.76812655  1.4183599  -0.27897152]
[-0.6085114   0.52487254  1.0213343  -1.0845243   1.5973203  -1.0730871
  0.2572638  -0.6323959  -1.5494015  -0.4665912   0.62889236  1.1263722
  0.49802038 -0.5232879  -1.5876391   0.19697656 -0.38703206 -0.2131956
 -2.307984    1.5831778   1.5372392   1.3863062  -0.22886123  1.3238754
 -0.41685927  0.45510304 -0.5148682   0.01787504  0.33755043  0.13617633
 -0.20331262 -0.08309875 -0.8337024   0.12310537 -1.1435175  -0.76316464
 -2.1222079  -0.06962697  1.1917496   1.3041961 ]
[ 0.4451281   1.1958368  -0.7897008   0.69458914 -2.1765678   0.46129426
  1.1165483  -0.8577685   1.0778147   0.3195621   1.0088726   0.29084185
  0.7665524  -0.03649521 -0.9996816   1.5551993   0.35208395 -0.78001004
  1.6096473   0.2573102  -2.2751603  -0.48370683 -1.1993502  -1.7168434
  1.6693991  -0.87140095  0.00737901  0.40400904 -0.19996041 -0.4285668
  0.4431095  -0.03483617  0.70442754  0.68946815  0.25277746  0.727165
  1.16185    -0.13584593 -1.5046428  -0.04110023]
[-0.28755063  1.1199708   0.11138014 -0.85502774  0.8430385  -0.72034585
  0.86764395 -1.411994    1.0886062   0.3128076   0.3088327  -0.66005296
 -0.7488955  -0.397174    0.22128834 -0.37838635  0.47876236  1.417685
  0.0505135   0.5003614  -0.36883584  0.4227083  -1.6199306  -0.8733617
  1.7589068  -1.1233246   1.076479    0.1803673   0.33564022  0.692103
 -0.2691214   0.5364969  -0.12323039  1.1523274  -0.1539784  -1.4984884
  1.3950049   0.04997218  0.36011976  0.2220364 ]
[ 0.22734527 -0.31698695  0.5781674  -0.81001645  0.37195578  1.60038
 -0.3971984  -0.46892956 -0.1306547   0.7400346  -0.87890995  0.10655955
  0.22359248 -0.05146272 -0.01789618 -1.1977042  -1.0275851   0.62486416
  0.54088396  0.2837986   0.23743278 -1.0625811   1.0404985   1.2455485
  0.64648306  0.08947086 -0.09960997 -0.84628683 -0.60673755 -1.2964927
 -0.53919744  0.36907208  0.3020064   1.1098973   0.08996461 -1.5698966
  0.33274013  0.45345202  0.72828436 -1.2707496 ]
[ 0.23414156 -0.08352294  0.20238902 -1.6711509   1.151461   -0.52862537
  0.57038194  0.25736803 -0.532329    0.16889314 -0.33204514  1.0327106
  0.13917193 -0.37684432 -0.5113457   0.75587523  0.5280047  -0.16241604
 -1.40915    -0.81192744 -0.8832567  -0.0666531   0.30643436  0.83360463
 -0.05493741  0.20852153 -0.61715174 -0.08959329  0.31556764 -0.506311
  0.75806856 -0.9346749   0.40353498 -0.8634629   0.15369625  0.22800933
 -0.17669629 -0.09637439  0.8357356   0.54608196]
[ 0.26015592  0.9232252   0.53031677  0.10239168  1.4893101  -0.5192237
  0.02945602 -2.1986482   0.5315117  -0.66430134 -0.959534   -0.11296523
  0.24980347 -0.32796842  0.18328272 -0.93286246 -0.719473    2.3049686
 -1.1593784  -0.2350775  -0.89144325  0.8697594  -1.0704871  -0.39697674
  1.6347526  -0.2732335   1.307994    0.3037206  -0.01759919  0.17216578
  0.04621637 -0.17348225 -0.78146195  0.69855136 -1.3546227  -0.7416412
  1.1326054   0.3432935   1.7468516   0.32727042]
[-0.8606583  -1.8715827  -0.07385206  2.230379   -0.17685306 -0.27759206
 -1.0868311   0.9831746  -0.042632    0.7112252   0.09368342 -0.09749818
 -0.5414562   0.41756937  1.4535882   2.2413433   0.10674264 -0.68988377
 -1.2571999  -0.3406426   0.5097341  -0.23527871 -0.32021838  0.30931193
 -1.9749234   2.6308496  -2.4143322  -1.1152087   0.39878747 -1.1161941
 -2.5837624   0.22106823  0.03228385 -1.0097365   1.0098475  -0.2877825
 -1.9373615   0.93853205 -1.0307238   0.5876886 ]
[ 1.3333609   1.5603998  -0.47163472  0.6754567  -1.4492099   0.25561953
 -0.69891566 -1.2826056   0.78243726 -0.05750009  0.5783715  -1.7390262
 -0.05942707  0.02303777 -0.4682164  -0.8275623  -0.12504686  0.5273923
  1.0523517  -1.4928313  -1.2279313   0.22085421  1.1952242  -0.5928007
  1.102697   -0.8478022  -0.4364811  -2.0226042   0.0262034   0.9162545
 -0.4538158  -0.3547306   0.638252    1.0235757  -0.65942407  0.18096289
  0.32085237  0.24135979  0.5084476   0.5375635 ]
[ 0.2065351  -0.47166708 -0.07352102  1.1425474  -1.2135701   0.2843763
  1.3978878   0.6764366  -1.0706806   1.150146   -0.0981787  -0.16974267
 -0.7258203  -0.0803734   0.02002418  0.07217551  1.8897836  -1.3447171
  0.3175377  -0.89164823 -0.19267738 -1.017225    1.1553643   1.3377787
 -0.8829648   0.41640702 -1.2333944  -0.44328117  0.33672333  0.11428514
 -0.43577728  0.01469939 -0.418249   -0.44356108  0.73909664  0.3987975
 -0.9032088  -0.24364749  0.09912576 -0.591063  ]
[ 0.849198   -0.6411482  -0.06609935  0.43791768 -0.6741285   0.69853085
 -0.3344049   0.00638425  0.3912508  -0.46450835 -0.13922894  0.3352991
  0.4398309   0.7556059  -0.07539956 -0.5502291  -0.638436    0.16550253
  0.86426437  0.42184865  0.68483186 -1.9004897  -0.0771043  -0.14306715
  0.006275    0.6882208  -0.31337363 -0.36106446 -1.0121855  -0.08315802
 -0.7903016  -0.2934154   0.9081376   0.9424744   0.5165158  -0.10404819
 -0.6936546   1.1744912  -0.34879044 -0.33805487]
[ 0.4725075   0.12174035 -0.49655855 -0.4664985  -1.6276125   0.05736839
 -0.0216537   0.12345437  1.2309703   1.3890712   2.1844692  -1.182169
 -0.17843886  0.10334849 -0.76974183 -1.8930606   0.5497232   0.50203484
  1.6647171  -1.8562382   1.1532822  -1.4826099   0.33648384  0.29809803
 -0.6212938  -0.05010244 -1.0845398  -1.5297657  -0.12226217  1.2889003
 -0.5011963  -0.8273593   0.62077355  0.4843501  -0.04373962 -0.16330343
  0.40442806 -0.19884172 -0.9961784  -0.4263426 ]
[-0.8774739  -2.630844   -0.36708245  1.7419869  -0.9600243   0.27227446
 -0.9486654   2.6088078  -0.56628346 -0.623011   -2.1241035  -1.8205985
  0.02998181 -0.18881242  0.40621188 -1.098925   -0.15308261 -0.86334646
 -0.13995379  0.5651353   1.398139   -0.09750917  2.5485873   1.744807
 -2.9496071   2.0956967  -0.78538305 -0.57545996  0.5315248   0.8013908
  0.1826995   0.58027864 -0.7637666  -1.0898403   1.047333    0.7428421
 -1.2470646   0.1313308   0.5689641   1.051195  ]
[ 1.9987891  -0.36102146 -0.57207066  1.459074   -0.8025575   1.3273271
  0.87466323 -0.34338504  1.449882   -1.3196473   1.1156247   0.39875975
  1.6606085   2.2174733  -1.2679101   0.8471471   1.313485   -0.09585129
  0.7403828  -1.2131145  -1.140587   -1.9130508  -0.3113427  -0.17401414
  0.05739832  0.1661681  -0.21219134  1.3864992  -2.0079734  -0.6705834
 -2.0360832  -1.5469348   1.8537195  -0.9715954  -1.0364546  -0.41722497
  0.12192424  2.1959984  -0.610254   -1.1175693 ]
layer 3 Activation
tanh
layer 4 Dense
40 20
[-0.57634467  0.5099863   0.91975594 -0.9712135   0.34598395  1.0940998
 -1.8570766  -1.2114527  -0.20587756  0.07457934 -0.359475   -0.8893954
  0.98420316 -0.26457727  0.6265561   1.2441176  -1.0657828  -1.1182939
  0.93308055 -0.46555308]
[ 5.27810276e-01  1.59642935e+00 -2.64419079e-01 -2.64765233e-01
  1.41744107e-01 -1.10824272e-01 -2.34981924e-01  1.61325440e-01
  9.15161371e-01  1.98681220e-01  4.57683235e-01  1.91724271e-01
 -7.56685138e-02 -1.03724524e-04  4.63667810e-01  9.34048116e-01
 -2.21660897e-01 -2.07070157e-01  4.74293321e-01 -7.53402531e-01]
[ 0.439537   -0.582417   -0.07396396  0.2247222  -0.06718535 -0.44730365
 -0.49749175  0.01391817 -0.3937537   0.659894    0.17595573  0.18118273
 -0.33253688  0.16076207 -0.2442823  -0.00449717  0.0367412   0.0292061
  0.1090604   0.18237643]
[-0.88330513 -0.33912092  0.8019668  -0.33578408 -0.2579565   0.64170945
 -0.29864994 -0.23258133 -0.08289414 -0.41842735 -1.3406504  -1.1743243
  1.2419839   1.5803132   1.1831979  -0.3951454  -0.5693772  -0.0214713
  1.0301269  -0.3857073 ]
[ 1.1496168  -0.26909804  0.16950613  1.3570294  -0.67929137 -1.2192117
  2.0202682   1.2746496   0.43683428 -0.63312423  1.0759408   0.24206416
 -1.1496671  -1.6135502  -1.2508203  -0.14747985  0.5088803   0.6696175
 -1.1652509  -0.8196729 ]
[ 0.03346255 -0.12084089  0.70223933  0.04973388 -0.7084869   0.05819819
 -0.26074684 -0.05135874  0.5798744   0.94694185 -0.55252767 -0.7781128
  0.32336137  1.180015    0.07751786  0.14629188 -0.06095373 -0.26979083
  0.26749963  0.4997446 ]
[-0.20771302 -0.12638953  0.5690808  -0.81932795  0.81807506  1.1962694
 -0.697298   -0.7427957   0.00817132  0.20863333  1.0536001   0.5749746
  1.2928311   0.2089163   1.3134179  -0.08437182  0.04796704 -0.8397173
  1.1464393  -0.04842889]
[-0.64648414 -1.2978219  -0.08078867  0.5752165  -0.27015844 -0.347004
  0.3097738   0.27527535 -1.0153785   0.05975948 -0.43545213  0.02759126
 -0.38660276  0.09636727 -0.12338891 -1.2408051  -0.48535964 -1.0303015
 -0.3282247   1.4760635 ]
[-0.13039882  0.5363815   0.38599014 -1.1435817  -0.1862663   0.880832
 -1.1179663  -0.66483104  0.09927072 -0.35920715  0.05305039 -0.78769684
  0.6703064  -0.28847936  0.9044801   0.44361192 -0.5165755   0.06158119
  0.968792   -0.9407017 ]
[-0.11437769 -0.07007122 -0.9517233   0.91333777 -0.5905045  -0.8536903
  0.7902318   0.56275505 -0.10447477 -0.27993032 -0.21170528  0.57642394
 -1.2852962  -0.03196491 -0.43968904 -0.0422924   1.0002685   0.8279893
 -1.3661777   0.45242083]
[-0.36940417 -0.2589001   0.3046542  -1.0908607   0.6179991   1.0638977
 -0.7322206  -1.7801198  -0.08215939  0.20552893  0.04939739 -0.46603197
  0.9545707   0.28421423  0.3180014   0.7136836  -0.85751    -1.5351906
  1.082081   -0.29474336]
[ 0.6673942   0.49801922  0.46669832 -0.04447827 -0.88814396 -1.0213214
  0.59043103 -0.55230016  1.3296833   0.32099995  0.7114044   0.17623758
 -0.7335605  -0.11963498 -0.5168682   0.53794116 -0.3464292  -0.6674958
 -0.25639704 -1.1818974 ]
[ 0.14411704 -0.1544503   1.2617794  -0.37564096 -0.15185654  1.037361
 -0.25755984  0.07907835  0.16064575  0.3084176  -0.31387055 -0.6880676
  0.67245203  0.3456915   0.4456843   0.07213964 -1.030033   -1.2239398
  0.8568775  -0.8057812 ]
[-0.33789    -0.4729277   1.2306006  -0.4480863   0.40495712  0.6518855
 -0.8914457  -0.1277434   0.30903795  0.5603522  -0.9341847  -1.5675192
  0.08764616  0.6677368   1.4878658  -0.5091448  -1.0399369  -0.8106638
  0.19010355 -0.5181749 ]
[-0.14560467 -0.4830214  -0.05731081  0.5510583  -0.37491727 -0.7850491
  0.48819125  0.1690901   0.07320491  0.81398326  0.26339355  0.42126024
 -0.60727483  1.0218472  -0.38102585 -0.36486644  0.36429754  0.39299378
 -0.01775531 -0.08248517]
[-0.19524796  0.42341763 -0.66257626 -0.86994946  0.09483846  1.0788223
 -0.6425385  -0.08619373  0.26647276 -0.65257424 -0.1735184   0.58264995
  1.0056429  -0.3378754   1.02875     0.3316894   0.18293674  0.6395313
  0.93979424 -0.24465165]
[-0.7096327   0.43678603  0.5291053  -1.3482852   1.0041441   1.4230108
 -1.7245893  -1.304987   -0.05185419 -0.6030896  -0.6544769   0.37875345
  1.2005877  -0.3430973   1.1018641  -0.09371788  0.2992178  -0.80570996
  1.0578     -0.25869128]
[ 0.48145652 -0.9579112   0.45139483  0.2229156  -0.3251179  -0.18018165
  0.68097615  0.89600515  1.1505184   1.0460039   0.06800217  0.06704085
 -0.40110904  0.34852734 -0.14246698  0.37692794  0.26303765 -0.23463339
  0.04878237 -0.98813516]
[-0.8970481  -0.1613801  -0.07945038 -1.4009671   1.5031852   0.90323466
 -1.3458749  -0.904069   -0.34203726  1.4562299  -0.49564663 -0.67601204
  1.4357247   0.6529187   1.1422986   0.01017777 -0.68486524 -0.32715142
  1.7995992   0.36955458]
[ 0.75320506  0.23424402 -0.33825225  1.5040277  -0.11018498 -1.2094567
  1.6678748   0.47838548  1.0027947   1.2136407   0.8749352   0.41114002
 -1.220823   -0.6330374  -1.1020781  -0.16130956  0.2754002  -0.03959423
 -1.3419712  -0.83230436]
[ 0.39218745 -0.47362453 -0.12976824  1.285511   -0.4864893  -1.3756696
  0.9088114   0.7441547   0.24371603 -0.7336843  -0.29212812  0.24982172
 -0.589232   -0.10389243 -0.34359422 -0.04677683 -0.16503729 -0.14117919
 -1.4322512  -0.48387167]
[ 0.07570107  0.22767685 -0.5679813   0.94976467 -0.5152831  -0.5823289
  0.91184276  0.33157036  0.6275809  -0.42450684  0.62043816  0.7643142
 -1.2141452  -0.8888863  -0.89546883  0.46401888  0.09770923  1.0141106
 -1.0976369  -0.33100975]
[-0.5917268  -0.8447184  -0.5843047  -0.90278274  0.05240085  0.71837425
 -1.022403    0.18632387 -0.7913757  -0.1450751  -0.50198287  0.63838917
  0.42944354 -0.8937822   0.711562   -1.0676125  -0.76600224 -0.4009145
  1.1997678   1.0083712 ]
[-0.8447411  -0.17278846 -0.36746022 -0.43398505 -0.22052032 -0.07401446
 -0.25603917  0.23161651 -1.0450495  -0.3949138  -0.10643929 -0.48542014
  0.14789408 -0.56160206  0.58558184 -0.75916004  0.08249311 -0.3734564
  0.5345311   0.8104183 ]
[ 1.0291317   1.2863295  -0.12177713 -1.1523854   0.8396713   0.27853414
 -0.8427609  -0.27925253  1.9457073   0.05086806  0.4082851   0.24818285
  0.5414927  -0.36331227  0.50020844  1.7206073   0.4348381   0.5834242
  0.44164094 -1.0383273 ]
[ 0.1003269  -1.1860094  -0.43259063  0.70176274 -0.7983203  -0.9993563
  1.2436934   0.6815887  -1.2576721   0.33308813 -1.2126971  -0.28705698
 -0.84309447  0.40217665 -0.5951863  -1.2352538  -0.05862988 -0.16244937
 -0.64650255  0.91517854]
[ 0.734411   -0.05861093  0.23213276  0.2896973   0.27965274 -0.64980185
  0.44991943  0.20473386  0.41753647  0.49233544  0.62928426 -0.07389949
 -0.5514811  -0.21545155 -0.4823612   0.8283315  -0.1323504   0.03417546
 -1.0491109  -1.5168767 ]
[-0.21516477  0.13594821 -0.03933249 -1.2986562   0.5909931   0.19963285
 -0.904545   -1.4793164  -0.20019074 -0.6389265   0.22129229 -0.02580946
  0.91482913 -0.9542825   0.79622924 -0.12470413 -0.5673413   0.33317533
  1.3185046  -0.09792393]
[ 0.25316447  0.44432223 -1.3700169   1.2400117  -0.41530797 -1.2420971
  0.97350675  0.25309104 -0.0658492  -0.20393543  0.84132576  1.2306316
 -0.58572596 -0.37973353 -0.5233244   0.26876104  1.3825538   1.1137332
 -1.040252    0.98992115]
[-0.11867154 -0.1687875  -0.4195372   0.06083207  0.4515483   0.01145261
 -0.65712804 -0.9814202  -0.13999347 -0.19439736  0.17838186 -0.02545531
  0.42686132  0.502824   -0.10767949  0.16662599 -0.08749186  0.18375301
 -0.22653373 -0.40169892]
[ 0.496844    0.7579939  -0.41497618  1.453709   -0.2158598  -1.7325612
  1.0250884   0.6064348   0.08257813 -0.7715255   0.99156344  1.1128553
 -1.5971324  -1.2390659  -0.9251837   0.6132808   0.8994991   1.086248
 -1.9806045  -0.50764585]
[ 0.08842549 -0.58302397 -0.7536665   0.32072857 -0.19750632 -0.47369447
  0.07122383  0.7431799  -0.16799966 -0.39354503  0.4155444   0.11621079
 -0.05680717  0.16912194  0.09470065  0.3761329   0.56438375  1.6521279
 -0.32743472  0.32409194]
[-0.56526875  0.5800741   0.584038   -0.7779873  -0.05878069  0.9489569
 -0.7686662  -0.83407474 -0.37242293  0.12528881 -0.31342623 -0.6959514
  0.6013597   0.2881676   0.81843954  0.9427642  -0.81471694 -1.8396114
  0.41237074 -0.35493827]
[ 0.18683606 -0.33344805 -0.30059782 -0.46983108 -0.5420399  -0.34848368
 -0.30919534  0.7082812   0.09743943  0.21030346  0.14543307 -0.03359211
 -0.6617289  -0.50406     0.11512237  0.13699785  0.28851187  0.23041932
  0.12901834 -0.54651767]
[ 1.0025989e-03 -8.7090993e-01 -3.1085813e-01  8.4841445e-02
 -1.3097869e+00  1.9365318e-02 -4.6581092e-01  2.1009594e-01
 -8.1720895e-01  3.4231383e-01 -2.8438771e-01 -1.1020815e-01
 -3.0187315e-01 -3.3391771e-01 -1.9087572e-01 -6.8963873e-01
  4.3793179e-02  1.0473641e+00  1.7387851e-01  8.9873320e-01]
[-0.1628006   0.12205849 -0.04440716 -0.04755916  0.3202798  -0.27972755
 -0.15621856  0.24415252 -0.11246137  0.09201528 -0.25853768 -0.01863372
 -0.3958179  -0.06384767 -0.19916968  0.13333395  0.10744413  0.09116722
 -0.22528404  0.5764542 ]
[ 0.08720029  0.26216465 -0.13712299 -0.85277224  1.0166565   0.59937495
 -0.66093117 -0.6438193   0.001561   -0.25802615  0.93681616 -0.61030763
  0.8977633  -0.18179865  0.45798582  0.83924     0.23004901  0.15955126
  0.9468646   0.24163136]
[-0.5266692  -0.62110424  0.73851687 -1.3085588   0.07383855  0.8437302
 -0.4141471  -0.7431744  -0.25334948  0.45270547 -0.8820857  -1.159765
  0.8309549   0.37233946  1.1628361  -0.36253867 -0.9868129  -0.7998222
  0.9422624  -0.10111921]
[ 0.6359491   0.04033065 -0.5203091   0.5099447   0.10164229 -0.47528103
 -0.00822585  0.6945409  -0.21804795 -0.63022196  1.022358    0.48743352
 -0.3108514  -0.0512451  -0.51671827 -0.0435598  -0.17209707  0.30897123
 -0.5016633  -0.05585056]
[-0.28159845  0.33065832 -1.0603346   0.38491023 -0.13842584 -0.78133935
 -0.14500281  0.0056211  -0.48909113 -0.48226687  0.03835166  0.38350496
 -0.34912023 -0.60117704  0.03753573 -0.00647051  0.36847228  0.5719547
 -0.37882057 -0.26309952]
[-0.36148903  0.09912037  1.1303     -1.6979799   0.70708925  1.0592973
 -1.1021916  -0.945172    0.13586763 -0.12985697 -0.692024   -0.87700516
  1.6066946   0.24084646  0.4013421  -0.5261284  -1.4861572  -1.3562225
  0.9528503  -0.38562456]
layer 5 Activation
tanh
layer 6 Dense
20 1
[0.18279582]
[-0.11352372]
[0.9033174]
[0.89396393]
[-0.07012905]
[-0.8663581]
[0.64132196]
[0.3387386]
[0.19385831]
[0.06278006]
[-0.12051667]
[-0.6317169]
[-1.2019261]
[0.01460727]
[-0.5454046]
[-0.22004391]
[-0.7491396]
[-1.2415459]
[-0.7585212]
[-0.13366157]
[1.7059501]
