layers 7
layer 0 Dense
20 20
[-0.2835024   0.05861971  0.01427591 -0.37460965 -0.1865632  -0.2535382
  0.1257015   0.16015553  0.41171178 -0.3192529  -0.04288503  0.00828876
 -0.13348436  0.16678527  0.36104318 -0.20062338  0.16622016  0.1610827
 -0.23580422 -0.32156006]
[-0.10325704  0.09370624  0.01856194  0.23005672  0.21162166 -0.19125785
 -0.11347466  0.14345488  0.11225151 -0.27062437 -0.7424729  -0.07045261
 -0.09328222  0.16716772 -0.44858846 -0.0887706   0.18198872  0.21168457
 -0.41710395 -0.41265297]
[ 0.09741931 -0.06963208 -0.29088894 -0.22935581  0.24973139 -0.0719898
 -0.24957843  0.14545873  0.15239416 -0.26367244 -0.23145664  0.16389331
  0.33308712  0.16074456 -0.14327158  0.14926364  0.00626236 -0.1459606
 -0.5372039  -0.06421795]
[ 0.23493694  0.09001187 -0.15001068 -0.12438194  0.16190338  0.39403978
  0.4996425   0.40843213  0.12953135  0.29954877  0.10756788  0.42304435
  0.07693749  0.25358096  0.38121805 -0.15036404  0.4547224  -0.12173682
 -0.1488258  -0.12271232]
[ 0.34841365  0.06584526 -0.14023581  0.09808857  0.30647516  0.2919163
  0.1204138   0.2066265   0.03825669  0.27344692  0.02795345 -0.31592488
  0.21877657 -0.05788479  0.36694282  0.27169475 -0.18303956 -0.01559402
 -0.13515091  0.21034954]
[ 0.4439829  -0.29327258  0.01471481  0.13032871 -0.00273826 -0.2648134
 -0.18583253  0.14306276 -0.34938037 -0.20834336  0.4546505   0.2729107
  0.23876376 -0.50822103  0.4156387   0.25401422 -0.21070148  0.26811785
  0.5951111   0.12692696]
[ 0.28451708 -0.40545294  0.14669998  0.4840862  -0.336206    0.10556813
  0.03851318  0.23421787 -0.03195987  0.30172777  0.30183488  0.3853965
 -0.14465073  0.06038117 -0.1178873   0.2013368  -0.50016254  0.24115309
  0.01354467  0.13818045]
[-0.0803057  -0.12737107 -0.45466077  0.46656638 -0.15241082 -0.16234124
 -0.6479347  -0.07429879  0.31327134 -0.10661772 -0.1711056  -0.23210216
 -0.16261375 -0.1375743  -0.19475263 -0.14213412 -0.25081503 -0.01163429
  0.3569183   0.39765477]
[ 0.05979502 -0.2211782   0.35606977  0.24715908  0.15083362  0.22068872
  0.34924638  0.41846213 -0.39320093  0.02639683 -0.39566714 -0.12884206
  0.5356884   0.4456363  -0.10821899  0.11447313 -0.20467016  0.281334
 -0.01588049 -0.17994735]
[ 0.33125815  0.15094896  0.27746436 -0.2816278  -0.16822493  0.08580194
  0.03402172 -0.0205529  -0.28433368 -0.04555289 -0.06271184 -0.35997257
  0.15483373 -0.13406463 -0.2718697   0.01876434 -0.28437483 -0.18268739
  0.14358754  0.21255839]
[ 0.2204497   0.27520373  0.13556148 -0.31929243 -0.5856008   0.26869723
 -0.20547077  0.39078835 -0.3989731  -0.20787965  0.33658475  0.4349026
  0.39602655 -0.10024577  0.01445192 -0.18916024  0.21214537 -0.09937362
 -0.07058105 -0.12949643]
[-0.16772968 -0.8261166  -0.15926258 -0.23191838  0.43633568  0.680533
  0.48048744  1.1029487  -0.17813222  0.34252438 -0.49921745  0.09424103
  0.86103445  0.4174771   0.83928645  0.3573874   0.5281733  -0.14760077
 -0.9290781  -0.7534159 ]
[ 0.0181702   0.5849754  -0.34039766  0.33637798  0.28135523 -0.30370155
 -0.07882393 -0.36275944  0.32212585 -0.20626482  0.6231354   0.1831535
 -0.49982816  0.15851109 -0.16194849 -0.5233675   0.26980442  0.22423004
  0.3536173  -0.21431181]
[ 0.27947628  0.12664115  0.3336207  -0.01751497  0.21309684  0.14822513
 -0.09880295  0.2671018  -0.17934911 -0.14075568 -0.12837578 -0.27086654
 -0.04441164  0.14199239  0.2120866   0.23275802  0.14256926 -0.05941655
 -0.08415791  0.4621249 ]
[ 0.19821048 -0.04136052  0.15276174 -0.17513171  0.20010187 -0.0373095
  0.02613202  0.4130866  -0.18483059 -0.07230917  0.3199676  -0.24066226
 -0.04314147 -0.20509775 -0.02394601  0.603351    0.16813566 -0.02260123
  0.16739413 -0.12106244]
[-0.00499267  0.21380948  0.10507552 -0.15512294 -0.31716183 -0.43832844
 -0.23065032  0.06802587  0.60860795 -0.32474756  0.37366387 -0.03310085
  0.2625566  -0.20803663  0.2694617  -0.13797334  0.15847465  0.06266526
  0.5527123   0.3575105 ]
[-0.23768012  0.10860477  0.20701955  0.00370798  0.22656871  0.05798832
 -0.2010194  -0.23853387  0.3073885   0.17626394 -0.02777649  0.31642035
 -0.02912302 -0.22185862  0.0141549  -0.3476045   0.05744149 -0.3849944
  0.03438557  0.193185  ]
[-0.26211852 -0.21410255  0.10768221  0.1482925  -0.03446136 -0.161376
  0.17066433  0.14370124  0.06060249 -0.34436774 -0.04072508  0.23213118
 -0.07272835  0.27903602  0.01497262 -0.11578912 -0.2072307   0.10625847
 -0.09580357 -0.33220035]
[-0.08567148  0.2592088  -0.3605465  -0.06975584  0.153814    0.3338619
  0.00693209  0.24164936  0.12953359  0.1263869   0.03452131 -0.09684459
  0.11382184  0.17248937  0.26260853  0.0062987   0.1450948   0.01916157
 -0.17466755 -0.23542437]
[ 0.32936752  0.30285907 -0.36718693  0.55119467  0.14754972  0.03177042
 -0.32335865 -0.5469519   0.698325    0.27251485 -0.2381204  -0.11749993
 -0.04403029 -0.2174068  -0.6214121  -0.5704582  -0.27644217 -0.01980416
  0.569181    0.3675416 ]
[-0.06349307 -0.04846516  0.07073419 -0.0723727   0.02333787  0.09660798
  0.15915129  0.14912769 -0.03417672 -0.00610203 -0.11301089  0.03473811
  0.078175    0.05086546  0.06017046  0.16144396  0.03739208  0.08562236
  0.01219759  0.01728269]
layer 1 Activation
tanh
layer 2 Dense
20 40
[-0.14567496  0.02652907  0.16514358 -0.03318209  0.08595308 -0.16064642
  0.0089524  -0.07713686  0.08795597 -0.0197508   0.24639283  0.19412413
  0.01950735  0.036774    0.03544389 -0.17246746  0.2130427  -0.18591285
 -0.27289873 -0.00597091  0.3104347  -0.137428    0.20752746 -0.01572854
  0.09738214  0.04457351  0.09408487  0.11600082 -0.18652095  0.08454577
 -0.01112458 -0.24762088 -0.18580762 -0.0501299  -0.00036628  0.24042135
 -0.2571764   0.10911821  0.09075972  0.27039656]
[ 0.07026131 -0.03015045  0.17186372  0.22156769 -0.09777878  0.18086298
  0.08784278  0.25580126  0.1351128  -0.03907992 -0.21564601  0.04963842
  0.16403724 -0.0176137  -0.12091886 -0.10596824 -0.20156065 -0.21231747
 -0.2172236  -0.18571481 -0.17179212  0.00443903  0.2255436   0.20389941
  0.15664905  0.14125882 -0.29265693  0.11622289  0.30846566 -0.16274713
 -0.19382952 -0.1833713  -0.09931184  0.22069675 -0.16265123  0.27308524
  0.02859009 -0.20134199 -0.22661619 -0.21411064]
[-0.13474187  0.03617745 -0.20438607  0.41471595  0.21032874 -0.20269564
  0.15050118 -0.12839592 -0.04909436  0.11853332 -0.17398222  0.31668457
 -0.155951    0.21934944  0.07990634  0.20333715 -0.12473601 -0.09426437
 -0.17094807  0.01294423  0.143349    0.33525676 -0.19811161  0.08182773
 -0.23851743 -0.12974559  0.16629769  0.05452003 -0.32954365  0.01642579
  0.2550585   0.1161036  -0.10356472 -0.15245911 -0.32672688 -0.04923068
 -0.1932717  -0.10263991  0.05681157 -0.16154705]
[-9.1025241e-02 -2.1746004e-01  4.8192281e-02  3.4862336e-02
  2.2405916e-01 -3.1011382e-01 -2.8167266e-01  2.7765608e-01
  2.6383427e-01 -1.4075293e-01  5.5986546e-02 -3.4743530e-01
  1.0197803e-01  2.4224867e-01 -1.4535491e-01 -2.5395560e-01
  2.1044791e-01  2.9302931e-01 -8.4078476e-02 -2.1650633e-01
 -7.8375712e-02  5.1671271e-03 -3.2755932e-01 -8.6849816e-02
  4.4804621e-01 -2.5267759e-01  1.1798202e-01  1.6964681e-01
 -2.8857878e-01  3.8081473e-01  1.6531947e-01 -3.4828866e-03
  3.2298836e-01  5.0381031e-02 -2.6285210e-01  9.4208986e-02
  1.9790503e-01 -1.8947220e-01  2.2243528e-02 -8.2431361e-05]
[ 0.04920807 -0.04417044  0.1790175  -0.2674014   0.17288055  0.1282334
  0.26652825 -0.25416833 -0.16448075  0.0914271  -0.03561359  0.19755746
  0.1482034  -0.19977626 -0.02963461  0.24421695 -0.28648588  0.16510825
  0.14672047 -0.17383642  0.00683571 -0.12580594 -0.04630211  0.07036879
 -0.0785301  -0.13029759 -0.12773499 -0.09276399 -0.02887966 -0.13900037
  0.04761037  0.2782633   0.1293225   0.1612887   0.10158756 -0.07711689
 -0.2629288  -0.11287486 -0.14906979 -0.2646966 ]
[ 0.03364863  0.31035224 -0.06702278 -0.15662573 -0.16034752  0.28034967
  0.02412508 -0.2944134   0.13123211 -0.07719094  0.25585845  0.2595063
  0.18122146 -0.15120037  0.08507185 -0.32060608  0.12651043 -0.14165464
  0.27626592 -0.1446615   0.16480248  0.03998585 -0.01950437  0.01182654
  0.14754707  0.12878586 -0.0060839   0.13206708 -0.18741636 -0.16313185
 -0.21435195 -0.10682157 -0.14972869 -0.05116355  0.16349043 -0.28511858
  0.1656059  -0.18575488 -0.03115443  0.03563165]
[-0.3357026   0.21998072 -0.03605256  0.22437853  0.04638399  0.05294318
  0.23021871 -0.20417981  0.15839757 -0.06522242 -0.07552946  0.18019557
 -0.0120882  -0.27325755 -0.12220113 -0.16842392  0.17680453  0.2919159
  0.11082953  0.03755756 -0.19912796 -0.2068198   0.24487169  0.13778979
 -0.14309677  0.37047142 -0.03213072  0.06052132 -0.27650556 -0.19132538
 -0.10033814 -0.14379987 -0.19410606 -0.09238685  0.15438908  0.22552787
 -0.16980703 -0.28571072 -0.09381029 -0.25856817]
[-0.23378079  0.05481469 -0.68103874 -0.17063324 -0.18785873 -0.3181191
  0.6206818  -0.39643177  0.33958906  0.27592906  0.2963069   0.5008719
  0.27708873 -0.23174298  0.20565587 -0.319128    0.33789626  0.15272662
  0.13867445  0.26419994 -0.10124628  0.09128455  0.01387593 -0.05608885
 -0.17078197  0.47636878  0.3380645   0.04728784 -0.0117315   0.181909
 -0.07385589 -0.30232254  0.03303966 -0.385451   -0.1845087   0.1220486
 -0.33205777 -0.23139016 -0.09174916 -0.26914927]
[ 1.51515961e-01 -1.16497977e-05  1.37838021e-01 -7.83390105e-02
  1.42285928e-01 -9.23772715e-03 -2.79716671e-01  1.29119400e-03
 -1.46829829e-01 -2.93790251e-01 -2.82208651e-01 -3.42445411e-02
 -3.67117435e-01  2.11064145e-01 -6.33513257e-02 -6.81028366e-02
 -1.68905273e-01 -1.86274767e-01  1.84612989e-01  1.29362196e-01
 -2.58514732e-01  1.46169126e-01  2.36518413e-01  1.26736701e-01
 -1.01704076e-01 -6.35081008e-02  1.66290715e-01  2.92936713e-01
  1.78633556e-01  2.55740672e-01  3.86497490e-02  1.96463153e-01
 -1.61619335e-01  8.24041888e-02  3.83501738e-01  3.70865196e-01
  2.39695862e-01  1.44789442e-02  1.79077253e-01  4.25763205e-02]
[-0.15471426 -0.09637541  0.29975578 -0.12179801  0.21857423  0.04122401
  0.00401137 -0.24144758 -0.00501945  0.04777071  0.04418645 -0.07818727
 -0.12498068 -0.06467592  0.20452505  0.13652113  0.12210649  0.17328171
 -0.21609521 -0.04434667  0.07376866 -0.0626519  -0.01892252  0.04129753
  0.1215996  -0.2647183  -0.1122742  -0.15450549 -0.10074035 -0.03697722
  0.00463092  0.04752405 -0.12069315  0.10854433  0.00867691  0.10468329
 -0.03322622 -0.02624463  0.18231003 -0.22968991]
[-0.2515334   0.19858605 -0.01877646 -0.02624209 -0.03495727  0.22676107
  0.01516408  0.1476083   0.02133493 -0.3115274  -0.18762961  0.0763922
 -0.08801571 -0.20812105 -0.29255712  0.26877025  0.13856319 -0.11475541
 -0.05601851 -0.23624286  0.29646453 -0.1291113  -0.19046777  0.00337656
 -0.2289822  -0.03578597  0.07901667  0.17549056 -0.16840884 -0.14203751
 -0.13147992 -0.28659445  0.11409736  0.15875809 -0.05100983 -0.06922884
  0.0723324  -0.11920597  0.2990146   0.27458173]
[ 1.6972597e-01 -7.8402751e-05  2.4060287e-01 -1.2426783e-01
 -5.2333664e-02  1.6784631e-01  1.6844729e-01  1.8523905e-01
 -8.8681966e-02  1.0228198e-01 -3.4881510e-02  1.7612910e-01
  5.2692350e-02 -1.3805653e-01 -2.7461261e-02 -8.1928529e-02
  9.0823501e-02  2.8708234e-01 -1.5863825e-01 -9.4328657e-02
 -2.8477987e-02  2.2249052e-01 -2.4291953e-01 -2.2037187e-01
 -1.9558449e-01 -9.7539313e-02  2.6603946e-01 -1.8023989e-01
  9.9763490e-02 -9.7370043e-02  1.6697423e-01 -2.2282512e-01
  7.6575913e-02 -1.6090919e-01 -1.5460537e-01  2.0955992e-01
  2.8563935e-01 -2.0319922e-01 -2.0202088e-01  1.7793083e-01]
[-0.23363933 -0.01219453  0.16087851 -0.06923391 -0.23950803 -0.0947729
  0.12146994 -0.21374142  0.04340931  0.11066683  0.01663185  0.24119629
  0.03614342  0.23205087  0.09601934 -0.44600287  0.18132241 -0.17619789
  0.18866372 -0.1449319  -0.23011003 -0.27399123 -0.10382006  0.10944933
 -0.06894474 -0.19480734  0.0058891   0.3340192   0.10241914 -0.13291554
 -0.09851068  0.04411534  0.3137722  -0.09802725 -0.4587836  -0.3496243
  0.12819332 -0.07784279 -0.14631991 -0.06111793]
[-0.29961723  0.0030387   0.20153116 -0.00446364  0.08080387  0.10447282
 -0.02192269  0.16443714 -0.24042247  0.12204911  0.17227446  0.2866938
  0.09359301 -0.08329495 -0.2398829  -0.29328778  0.24520768  0.29210255
  0.15411615 -0.17092386 -0.01305852 -0.1239687   0.0214352   0.15325561
  0.09827584  0.19523756 -0.03784584  0.19847007 -0.07800972  0.16025053
  0.08141688 -0.15129629  0.30790532  0.04290328  0.12250336  0.07922716
 -0.1786874   0.30396226  0.06486411  0.07462598]
[-0.34515035  0.32043198 -0.24402806 -0.03533383 -0.08575182  0.12342674
  0.28164914 -0.02014569 -0.09846264  0.17432274  0.2057863  -0.0537445
  0.10556423  0.1506023   0.07536635 -0.1810678   0.3392188  -0.1178093
  0.35204515  0.16811031  0.272308   -0.19304556  0.10452562  0.08500409
 -0.41783705  0.09019104 -0.03119552 -0.2173213   0.15068932 -0.25083145
 -0.19128096  0.12646638 -0.02556496 -0.18007235  0.3073029  -0.12556502
  0.22803871 -0.32268435  0.12669024  0.25644103]
[-0.1690441   0.15553302 -0.00587296  0.1196596  -0.2302113  -0.14336152
  0.25896728 -0.3505129   0.19089204 -0.00513498  0.2277914   0.36136684
 -0.10156765 -0.09431455  0.05159001 -0.05267725 -0.12413801 -0.17093448
  0.14327554 -0.15351747 -0.23062618 -0.01567153 -0.15313926  0.15555705
 -0.20931432  0.23844354  0.02026207  0.08784959  0.09774484 -0.21626608
 -0.05530813 -0.16247705  0.17224158  0.22882052 -0.24820085  0.0675836
  0.04938689 -0.09544695  0.03556135 -0.01193633]
[ 0.168989   -0.06318347 -0.41162452 -0.11883543 -0.04084954 -0.24517924
  0.21237879 -0.00888973 -0.17130832  0.14178967  0.1374276   0.22787958
  0.21166718  0.22192243  0.02296354  0.1588867  -0.20900282 -0.24379374
 -0.13021085 -0.06258765 -0.21809864  0.08907972 -0.19730584 -0.14494513
 -0.23452212  0.21808018  0.431924   -0.30965996 -0.18544005 -0.20553923
  0.17855857 -0.10097557  0.0071066  -0.09004384  0.22558598  0.3251677
 -0.2567254   0.00156797 -0.02152558 -0.22120935]
[-0.16833718 -0.21897031 -0.1584953  -0.10025864 -0.0681463  -0.15458374
 -0.0480899   0.27036825  0.16011104  0.00590415  0.06671707 -0.00289472
 -0.24745105  0.23637618 -0.02814485 -0.04679177  0.07255396 -0.10824547
 -0.20775472  0.14088516 -0.00865349 -0.04263401 -0.01693829  0.01905266
 -0.02775964 -0.22236396  0.2668462  -0.20750426  0.04328978 -0.02624626
  0.07320875 -0.13306151 -0.20613223 -0.16653766 -0.07123049 -0.22358704
 -0.18718621 -0.03281086  0.22016609 -0.06431889]
[ 2.4479119e-01  6.4811155e-02  4.1040820e-01 -1.5332226e-01
  2.6673698e-01  2.9158226e-01 -4.9968186e-01  2.9288545e-01
  7.8410164e-02 -9.3802856e-03 -2.1014862e-01 -2.3101269e-01
  2.1016270e-01 -3.3960316e-02  2.2071671e-01  3.1004134e-01
 -2.7144453e-01 -3.3746415e-01 -3.2303361e-03 -2.4110584e-02
 -4.9893919e-02  1.1168227e-01 -2.9557160e-01  1.6276038e-01
  1.8845820e-01 -2.8583463e-02  4.4592287e-02 -1.0534762e-01
 -9.2076734e-02 -5.2635856e-03 -5.4667522e-03  1.3882188e-01
 -2.1677633e-01 -2.5219882e-01  4.6737969e-02 -3.9436780e-02
  3.3073965e-04  6.8078011e-02 -2.5706974e-01 -1.4380300e-01]
[-0.09199185 -0.21198067  0.35853064  0.1329898   0.03641048  0.10461766
 -0.33892357 -0.06748787  0.20785463 -0.14315712 -0.3277718  -0.33353993
 -0.25271457  0.26563767 -0.20785703 -0.2584084   0.1030794  -0.3369948
 -0.30282444  0.16018295 -0.19627978  0.00820361 -0.03806961 -0.04683351
  0.20317079 -0.02008377 -0.03192019 -0.1575309   0.06536154  0.27559388
  0.02636271 -0.04065903 -0.13148291  0.1150425   0.25495175 -0.05213252
 -0.08330761  0.08738915  0.12736917  0.07919575]
[-0.10394072 -0.01931101 -0.1395794  -0.01282785 -0.00846773 -0.03196448
  0.20470396 -0.04518387 -0.03728068  0.05253436 -0.04227097  0.04777969
  0.03105157 -0.07362328 -0.02784036  0.01956017  0.09699208 -0.00028742
  0.06394366  0.09044892 -0.01437271  0.07995935  0.04683828 -0.0353344
 -0.2307881   0.16731119  0.22970621 -0.13942757  0.05922175 -0.13974999
  0.00120193 -0.1787629   0.00542106 -0.00293606  0.05108063 -0.00320706
 -0.00763204 -0.05756804  0.01010419 -0.00998246]
layer 3 Activation
tanh
layer 4 Dense
40 20
[-0.12137771 -0.203683   -0.27215487 -0.21320179  0.02509855 -0.20225008
 -0.07359746  0.07449148  0.08393206  0.06943498 -0.1255845   0.24728875
 -0.34625104  0.31593803 -0.04064786 -0.2700514   0.2500574   0.17417736
  0.02168708  0.2239365 ]
[-0.16643699 -0.05327302 -0.03735157 -0.26085988  0.02260867  0.08583306
  0.18650787  0.30005822 -0.10667099  0.12728591  0.04502245  0.18310744
 -0.21835989  0.13054894 -0.24865869  0.30201834  0.0205019  -0.05790119
 -0.12284001  0.02878512]
[-0.19668901 -0.06873513  0.18332405  0.31919077 -0.01601751 -0.14211349
  0.15372908 -0.19472028  0.36587682  0.16210552 -0.15288278  0.02653078
 -0.10000214  0.23565455  0.26730537 -0.24914587 -0.08372902  0.24620353
  0.01539328  0.06628317]
[-0.16085131 -0.20398012 -0.19485435  0.12626652 -0.10207067 -0.17885433
 -0.01301535 -0.20321023 -0.06600963  0.07931049  0.25447854 -0.03719229
 -0.25104156 -0.24673718 -0.159533   -0.1366135   0.13694218  0.24733719
  0.03547867 -0.10878173]
[ 0.01644912 -0.15300372 -0.13990304  0.08924049 -0.14382216 -0.1747563
  0.12912789  0.1294846   0.34543836  0.02587476  0.15327974 -0.27035445
 -0.14251561  0.04799752  0.11778551  0.27447587  0.07994619  0.0746647
  0.2466462   0.23066428]
[-0.02699818 -0.26780024  0.18972963  0.2513724   0.22570881 -0.21141641
 -0.10888121 -0.4174832  -0.25756937 -0.0274004  -0.02502704 -0.02055254
  0.27652666 -0.24178503 -0.04695172 -0.21441667 -0.2122565   0.02665976
  0.03617899 -0.09437706]
[ 0.19822355 -0.13946365 -0.26094818  0.06713379 -0.04525345  0.22327676
  0.19660144 -0.22409289 -0.07538506 -0.16106988  0.326063   -0.1638489
 -0.08275569 -0.32458457  0.24440315 -0.10464716  0.00877034 -0.33711725
 -0.26844737  0.15288527]
[-0.11508973 -0.23624894  0.01323098  0.2987343   0.26710984 -0.06387953
  0.3025626   0.08365389 -0.25646415 -0.19477883  0.22350326 -0.1684276
 -0.07699199  0.16272996 -0.08000136 -0.2987949   0.1433156   0.2019424
  0.30438882  0.29149753]
[-0.25369287 -0.2379449  -0.17289075  0.0503693  -0.05339124  0.09624998
  0.0299606   0.13042575 -0.13515978  0.19178788 -0.05908779  0.3312417
 -0.18512881 -0.28259686 -0.04198775  0.0466393  -0.0970031   0.25306624
  0.30130067  0.28214198]
[ 0.15118827 -0.11304232 -0.13174668 -0.04069041 -0.01763331  0.16432515
 -0.31255493  0.30516347 -0.33576587 -0.16533764  0.05755739  0.21590883
  0.08825998  0.04112999 -0.00607164  0.10901521  0.26335457  0.10300492
 -0.18241291  0.15477023]
[ 0.21804711 -0.20290759  0.04744018 -0.00441921 -0.17972898  0.05729345
 -0.00932405 -0.1555593  -0.25024927  0.15172563 -0.18530692 -0.26449752
 -0.20294715 -0.30692655  0.00421518 -0.01334844  0.04997863  0.08763766
  0.10653678 -0.08586716]
[-0.2583247  -0.14024548 -0.06619702 -0.10820939  0.28808287  0.20075291
 -0.03359331 -0.050642   -0.07114335 -0.11968628  0.33251557 -0.15412594
 -0.27213207 -0.27453378  0.11466821 -0.00248618 -0.14464588  0.06854983
 -0.04296991  0.2982532 ]
[-0.04813035 -0.18286353  0.13668613 -0.12005756  0.00704209 -0.06366815
 -0.22009519 -0.02258665 -0.16690488  0.05967374  0.02640055 -0.11426223
 -0.0164766   0.04218252 -0.21306844  0.29009348 -0.16874355 -0.07930746
 -0.24581227 -0.24701984]
[-0.08889824  0.37220454  0.16489235  0.2577648   0.20802818  0.05018676
 -0.12408987  0.1832176   0.2566365  -0.15250564  0.02077145  0.1124783
  0.08635466 -0.09279297  0.27613088 -0.0842452  -0.18219501  0.25483298
  0.2353023  -0.02031389]
[-0.27977222 -0.21162795  0.19919834  0.01327486 -0.13700294  0.2397508
 -0.08969118  0.24669921  0.258506    0.14897287  0.03393953 -0.09053454
  0.07162372  0.15873797  0.18603866 -0.05212238 -0.13483651  0.09635029
  0.16947575  0.19906723]
[-8.0077112e-02 -2.2214985e-01  3.3935359e-01 -8.5375458e-02
  1.8706140e-01 -1.7477366e-01  7.2287046e-05 -2.6918954e-01
  1.1632236e-01 -7.6175146e-02 -2.3549190e-01 -1.5137225e-01
  1.4048524e-01 -2.3081668e-02  2.8982332e-01 -1.6721769e-01
  1.0528066e-01 -3.5951495e-01 -1.1676730e-01  1.0936762e-01]
[-0.33071098  0.0325648   0.23405524 -0.28217807  0.04565624  0.05648362
 -0.13723987 -0.09584239  0.11663228  0.06811859  0.19616407  0.16773635
 -0.04355073 -0.13437809  0.2046226  -0.01293413 -0.25260967 -0.22584935
 -0.32386667  0.02534855]
[-0.20314524 -0.28364152  0.10421574  0.30642593 -0.14550602 -0.15666069
  0.2835585  -0.12300612 -0.34925067 -0.29413584 -0.2402857  -0.08821698
 -0.13448608 -0.23454827 -0.14698748  0.14766313 -0.04300553  0.03213028
 -0.23744695 -0.06517388]
[ 0.25520384  0.08584629  0.17151637  0.04693726 -0.26956972 -0.27942196
 -0.09872914 -0.03651018  0.25324234  0.27343455 -0.10867764 -0.08380502
  0.03878774 -0.23103341  0.004773    0.320579   -0.00746346 -0.21334374
  0.04589472  0.1540802 ]
[-0.10984315 -0.2471248   0.22506905  0.10072681 -0.1457991   0.23006308
 -0.06340061 -0.3475682  -0.36825266  0.04264716 -0.01760134  0.28265598
 -0.21274945  0.04453781 -0.14675319 -0.19959635  0.15336995 -0.22431248
 -0.13739982  0.06474319]
[ 0.02692564  0.1346781   0.00590527 -0.24976043  0.16768146 -0.17132269
 -0.12596731  0.15762983  0.00477113 -0.3037538  -0.05505896 -0.16638006
 -0.26312077 -0.16321237  0.16844098 -0.11385115 -0.21943028  0.00292855
 -0.04128432 -0.014323  ]
[ 0.1783453   0.31199157 -0.05330289  0.00632786  0.15401684 -0.1926442
  0.18073493 -0.02614955  0.02971662  0.28575042  0.18982954 -0.03749571
  0.05292044 -0.01047391  0.01937507  0.03806008 -0.17217374 -0.07555953
 -0.21010885 -0.10044595]
[-0.15887554  0.08189236 -0.14899464 -0.18236761 -0.08703624 -0.11329123
 -0.07540909  0.11815324 -0.05191967  0.05794369  0.08477109  0.23059633
 -0.17638378  0.22254543  0.01384394  0.01543596 -0.09977251 -0.22419733
 -0.32895052 -0.11144708]
[ 0.12136962  0.21601202 -0.10751213 -0.07036326 -0.01459808 -0.12838553
  0.08229586 -0.14530973  0.18758814 -0.09364451 -0.07172264  0.3419337
 -0.26963064 -0.23138504  0.14720362 -0.12379874  0.02741107 -0.09650731
  0.05583003 -0.2379635 ]
[-0.19088258 -0.05542765  0.07505438 -0.31655562  0.10509653  0.03523868
  0.19180894 -0.00679761  0.34677556  0.19505288 -0.13811444  0.12867953
 -0.03832305  0.11480688 -0.1341263  -0.1783877  -0.09016698  0.3276629
  0.2940191   0.19642168]
[-0.17985637  0.15722317  0.14858955  0.01555136 -0.18572158  0.13056864
  0.15962932  0.03440725 -0.18130034 -0.07589816  0.19825107  0.01073021
  0.16899598 -0.04012876  0.22351004  0.15450723 -0.2561397  -0.33957607
 -0.22660795  0.24162579]
[-0.2129129   0.23146935 -0.10830367  0.06616032  0.08757479  0.17234762
  0.01320541  0.10102727 -0.29314807  0.26335704 -0.05632008  0.01298236
 -0.10881981  0.11834346 -0.37829834 -0.03721416 -0.1052555  -0.26824832
 -0.16490819 -0.2360249 ]
[ 0.1069795   0.14991139  0.11153308 -0.28321603  0.08674672 -0.18173313
 -0.19995005  0.23589134  0.11857054  0.19225058 -0.16587336 -0.06278497
 -0.02143876 -0.17774001  0.15252447  0.32323506  0.18946552  0.21985444
  0.32093567 -0.01965212]
[-0.07366943  0.27782166 -0.2080562   0.07777357  0.02759735 -0.063825
 -0.16988778 -0.17768797  0.05330003  0.05281293  0.22058089  0.13761736
  0.24146408 -0.10499063  0.36976576  0.23256826  0.17659654 -0.12956092
 -0.0668631   0.1148194 ]
[ 0.08517398  0.20573553 -0.12021479 -0.05136064  0.1415845  -0.15303159
  0.27730757 -0.02322756  0.08125781 -0.0780441  -0.27331057 -0.14896642
  0.08049542  0.17999643  0.17859775  0.02275299  0.211293    0.18293531
  0.16227008  0.24609686]
[ 0.23625188  0.13635014  0.0556713  -0.01821168 -0.03526495 -0.03413466
  0.03810408 -0.15454403  0.3453492   0.23920445 -0.14965504  0.25930396
  0.16337967 -0.03082177 -0.0957483  -0.21277054 -0.22423053 -0.12308814
  0.18862642 -0.08995018]
[-0.09855604  0.04154536 -0.26952335 -0.05372554 -0.27875024 -0.23729363
  0.02255942  0.09840059  0.34806255 -0.3068136  -0.2516698  -0.18350987
 -0.16389133  0.29128164  0.00821695  0.14819089  0.16928016  0.04239954
  0.16419607 -0.2153348 ]
[-0.15485805 -0.12903036 -0.00061608  0.1573774  -0.26052374  0.2630979
 -0.10695078 -0.15773265 -0.1972874  -0.05660373 -0.2946304  -0.09516966
 -0.23934105  0.03486213  0.2871542  -0.01151058 -0.11873309  0.10197042
  0.34006232  0.23552954]
[-0.31236002 -0.1977101   0.20389237  0.03425354  0.12991154 -0.24246095
 -0.09709071 -0.24164088 -0.018309    0.25273582 -0.34083146  0.2343266
 -0.26001018  0.0543693  -0.17087023  0.0049858  -0.14615865  0.06957263
 -0.1791116   0.10206077]
[-0.10251274 -0.08075612  0.25929534 -0.07264964  0.14521073  0.23332566
  0.18779452  0.18243499  0.03727972  0.20625359  0.26323193  0.11411802
 -0.3186375  -0.14944923  0.2009232  -0.1497729   0.06426776 -0.24559417
  0.18661071  0.2569346 ]
[ 0.05364532 -0.07097819 -0.22403623  0.00459611  0.25049934 -0.11377208
 -0.1203459   0.17239046 -0.18537259 -0.13619283  0.36614615  0.09780741
  0.08800889  0.12761755  0.11935171 -0.00769213  0.01828128 -0.12119446
 -0.02620895 -0.12881187]
[ 0.09256925 -0.07146138 -0.0102522   0.02465102 -0.06479195  0.1510268
  0.14454603  0.10377742 -0.32247916  0.26006237 -0.23318946  0.25891942
 -0.12147329  0.22631438  0.30251417 -0.0551609  -0.05931744  0.01528489
  0.04512168 -0.07983222]
[-0.12842919 -0.20338583 -0.1545749  -0.2754582   0.24410713 -0.04471802
  0.15122968 -0.19607246  0.09314821 -0.27059516 -0.33262792  0.03030335
  0.1412448  -0.18350428 -0.08713158 -0.13391228 -0.04618467 -0.17541176
  0.17559204 -0.00700805]
[-0.06013305 -0.05296649 -0.15986222  0.04978133 -0.22339892 -0.15819031
  0.21890765  0.3033258  -0.3553761   0.05178829 -0.12773308  0.3887552
  0.12449171 -0.09437643  0.03529308 -0.27233216  0.02897559  0.08174269
 -0.02386044 -0.24102895]
[-0.033578   -0.22603026  0.2333226   0.25105545 -0.23020014 -0.2260255
 -0.1389283  -0.06906117 -0.19988428 -0.15873839  0.08156963  0.28845412
  0.14437804 -0.16477664 -0.10982775  0.24179341  0.20222828  0.16477615
  0.09526321  0.10821494]
[-0.00456381 -0.03666965  0.00836158  0.00404988  0.00477791  0.00744209
 -0.01289845  0.00336421 -0.05616085  0.02560746  0.09608804  0.00536734
 -0.01846851 -0.01563557 -0.10808452 -0.01407343 -0.0202236  -0.08948565
 -0.0398969   0.02460502]
layer 5 Activation
tanh
layer 6 Dense
20 1
[-0.00365652]
[-0.02460782]
[0.01401075]
[0.03606595]
[0.10161267]
[-0.17254147]
[-0.00031729]
[0.0096904]
[-0.09993237]
[0.01208907]
[0.28646937]
[0.02060099]
[-0.0217731]
[0.1400683]
[-0.00374777]
[-0.0416865]
[-0.01999244]
[-0.3012921]
[0.3184207]
[-0.00821166]
[-0.00138986]
