layers 7
layer 0 Dense
20 20
[ 0.37389353 -0.23273169 -0.10851303 -0.40383306 -0.27311158  0.08900828
 -0.05160717  0.27513823  0.44117135 -0.04778791  0.22338395 -0.0725269
 -0.3284168   0.19597223  0.2560626   0.04154835 -0.0677833  -0.09597905
 -0.55174196 -0.21407807]
[ 0.069689    0.463935    0.70491904  0.31177655 -0.30022708 -0.03921761
  0.2503476  -0.25005642  0.7503596  -0.34079078 -0.08915195  0.47178468
 -0.04639128 -0.24904214  0.40344584 -0.24532078 -0.30439132  0.0554861
 -0.28102937  0.43300235]
[-0.14577149  0.19598448  0.67536616 -0.3422998   0.18059175  0.33354202
 -0.13087046  0.14232509  0.5761039  -0.41909114 -0.3365584   0.1744814
 -0.42215422 -0.2767829   0.22178403 -0.35058388 -0.27545816  0.328196
 -0.10616489  0.67893577]
[-0.16230986  0.4208055  -0.19102383 -0.36314878 -0.28693393 -0.16815826
 -0.1282481  -0.4634325   0.07403163  0.20453429  0.18353428  0.33127192
 -0.06872709  0.15878332  0.11477967  0.34940037 -0.03707673 -0.05031203
 -0.19127011 -0.02718533]
[-0.27202642  0.379825   -0.47082058 -0.3138024  -0.33941838 -0.59746236
 -0.3089315   0.12082146 -0.18541789  0.497879   -0.14456026  0.28916478
  0.579776    0.06854406  0.3338783  -0.47056723 -0.01002042 -0.07578918
 -0.06502908 -0.110812  ]
[-2.01593325e-01 -6.12471178e-02 -3.99113238e-01 -1.51816279e-01
  3.54352653e-01  4.60387021e-01  1.13150544e-01  2.61697799e-01
 -5.80259740e-01 -2.83830285e-01  3.78473699e-02 -7.86200389e-02
 -4.36641365e-01 -2.19904110e-01 -2.19977304e-01  3.25635105e-04
 -3.21143627e-01 -2.53350049e-01  3.74660850e-01 -7.18901632e-03]
[-0.16771497  0.10353018  0.011406    0.08465692  0.04462776  0.54021424
 -0.36863363 -0.30188796 -0.24744387 -0.07686998 -0.19150278 -0.29155737
 -0.3417699  -0.23280473  0.10145568 -0.1412421   0.18855286  0.13947286
  0.31031922 -0.01471026]
[ 0.35042942 -0.7400035  -0.42492136 -0.34635255 -0.30347607  0.13753416
 -0.24999717  0.44113237 -0.10494024  0.20095018  0.15653288 -0.53409004
 -0.11912937 -0.38789114 -0.26866016  0.3176177   0.4114303   0.107934
  0.4077169   0.18893442]
[ 0.07400732 -0.36982232 -0.10971811 -0.4090513  -0.23526156 -0.45811695
  0.2795135   0.17237343 -0.42684746 -0.13721424  0.64974993 -0.39527187
  0.02094042 -0.22630537 -0.13881966 -0.15132825 -0.34432566  0.22120968
 -0.11337548 -0.28744128]
[-0.11420885 -0.28072473 -0.12925509 -0.25569206  0.24036269  0.28960705
 -0.06529976 -0.04907537  0.13276887 -0.11115824 -0.05310136  0.25902623
 -0.17547348  0.1295917  -0.19452691  0.14608774 -0.0072435   0.1839414
 -0.31122163  0.4143984 ]
[-0.08135372  0.27897108  0.18631656  0.5034666  -0.187385   -0.3482869
  0.38473025  0.4358222  -0.04391146 -0.34195152 -0.47502258  0.40358895
  0.50731736 -0.06019042 -0.3354075   0.00747526  0.46758115  0.2796886
  0.43787014 -0.40471333]
[ 0.40360135 -0.06157483  0.00069693  0.29067189 -0.04707896 -0.24969734
 -0.08941515  0.55220175 -0.3717926  -0.256803   -0.15841942 -0.25672778
 -0.16132851  0.06528919  0.06581138 -0.20972504 -0.05608426  0.41863504
 -0.05376714  0.02756546]
[ 0.189145    0.30070266  0.2547328   0.29727554 -0.3926326   0.08394884
 -0.02952324 -0.35086033  0.3236994   0.30928972 -0.03697889  0.23710531
  0.09131113  0.07919989  0.15107955 -0.36085892 -0.17947993 -0.5555606
  0.01317254 -0.24873863]
[ 0.26198745 -0.00361461  0.20891619 -0.21795924 -0.21205726 -0.08422493
 -0.01482751 -0.1321456   0.1681363  -0.12589976  0.1660525   0.4530045
 -0.09799995 -0.18970917  0.08770782  0.00255567 -0.31716228  0.01007998
 -0.12276037 -0.04197506]
[-0.17394814  0.18339664  0.37664282  0.18460223  0.17209138  0.09961449
 -0.2632933   0.14803582  0.28672254 -0.27554205  0.0218431  -0.22679646
 -0.13765684 -0.07668176 -0.13693751 -0.19666727 -0.39032203 -0.13717635
 -0.32701796  0.5106952 ]
[-0.3253045   0.4836434   0.33999485 -0.35335594  0.32061598  0.38079455
 -0.22690032 -0.9633444   0.5916446  -0.19369252 -0.21795322  0.31721526
 -0.03505394 -0.00121598  0.7177071   0.0530785  -0.07222832 -0.7680629
 -0.03747125 -0.28814805]
[ 0.48121232 -0.2824127   0.10837629 -0.33759204 -0.2973275  -0.6983346
 -0.6091305   0.25381458  0.25126052  0.13343154  0.28026837  0.20160042
 -0.24087496 -0.3209671   0.3883996  -0.23012835 -0.17438701  0.47119692
 -0.46826395 -0.27011463]
[-0.20349725 -0.14559197 -0.20708856  0.11181843  0.21434318  0.21700436
  0.4005873   0.20126608  0.32219458  0.20682402 -0.4533178   0.3700843
  0.22854593  0.19211546 -0.15384507  0.34552866  0.02309871  0.09660571
  0.05321364 -0.01883709]
[ 0.08478273  0.23099029  0.26798433 -0.40352663  0.02826436  0.20053895
  0.2751782  -0.0671226   0.25037378 -0.19329922 -0.01385241  0.09589691
  0.0229083  -0.06134647 -0.03827079  0.00092151 -0.09994843 -0.14867416
 -0.18671845  0.27928457]
[ 0.13606924 -0.15744019  0.4069486   0.00978589  0.00549226 -0.38399795
 -0.16063163 -0.01269113 -0.56793714 -0.15567626  0.6392675  -0.3102861
 -0.39966667 -0.23508193 -0.4163083   0.40433216 -0.23468556  0.5154166
 -0.38163146  0.36701566]
[ 0.09380104  0.27084818  0.15002395 -0.00283948  0.01913616  0.17648102
  0.28102663 -0.25630412  0.33452055  0.00776479 -0.25600356  0.14335051
 -0.15701595  0.24977846  0.10105451  0.03297219 -0.04587742  0.08094744
 -0.10042716  0.10889866]
layer 1 Activation
tanh
layer 2 Dense
20 40
[ 0.00715244  0.29675078  0.23062441  0.16457085  0.11708172  0.15510695
 -0.05880384  0.0058116  -0.11629505  0.4560713   0.13674456  0.01931716
  0.08806691 -0.10726392  0.04089817 -0.10119132  0.07651025 -0.04851384
  0.14241792  0.02626518  0.16181725 -0.18792985  0.10787974  0.03391745
 -0.28857535  0.07078622  0.10292096 -0.07453315  0.06181284 -0.3752572
 -0.11788053  0.23141389  0.02513175 -0.20579325 -0.05596473 -0.24025951
  0.02172906  0.07757375 -0.00524151  0.00413925]
[-0.05047976 -0.24461724 -0.51343066  0.4523822  -0.0550886   0.38436514
 -0.211687   -0.458736    0.088397   -0.23657608  0.13264924 -0.4764851
  0.18267657  0.13581254 -0.3207088  -0.5700565   0.3317538   0.13683142
  0.04734195  0.1254495  -0.5507037   0.03193061 -0.48281968  0.07462974
 -0.4179056   0.3397085   0.13430828  0.10496908  0.35948458 -0.13318193
  0.13325597 -0.0827827   0.24124582  0.18819377  0.09268323 -0.2544836
  0.4165174   0.05715647  0.28385097  0.23364615]
[ 0.16831183 -0.3588946  -0.10732802 -0.06689232  0.15334776 -0.13377991
 -0.20759545 -0.1436619  -0.15095547 -0.16017891  0.09968383  0.03272803
 -0.11797085 -0.01041649 -0.04346494 -0.02718217 -0.14809549 -0.18864502
 -0.18665397  0.05715556 -0.20228602 -0.28548482 -0.2937886  -0.2437617
 -0.10127833  0.03146907 -0.02372817  0.04775309 -0.05171152  0.22094817
 -0.10329595 -0.16060826  0.11832437 -0.26187253 -0.03143693 -0.1538697
 -0.01991279 -0.04782339  0.06621516 -0.21449527]
[ 0.1512249   0.11044599  0.03948302  0.28614274 -0.03805546 -0.35967118
 -0.08908721  0.11533668 -0.1669323  -0.06432445  0.09557248  0.36273056
 -0.05592021 -0.0718372   0.14227562 -0.01617456  0.21277802 -0.22736822
 -0.09614041  0.04319349 -0.04130958 -0.2501838   0.00947303 -0.03426405
  0.06653506  0.29282755 -0.10753611 -0.15651003  0.21249963 -0.05134242
  0.06396843  0.09827209  0.08571886  0.42751244 -0.03328766  0.31512848
  0.18844676 -0.01730369 -0.15991503  0.27483246]
[-3.2556063e-04  1.8214190e-01  8.7888725e-02 -1.0369069e-01
  1.9600813e-01 -2.9003865e-01 -1.7746538e-01 -1.0047414e-01
  5.3085152e-02 -2.3180144e-01 -5.7916727e-02  6.8751208e-02
 -1.6024103e-02  3.8643676e-01  7.3815957e-02 -9.8561868e-02
 -2.7396992e-01  2.0880993e-02  5.2498542e-02  6.2291887e-02
  1.3196569e-02  2.4751356e-01 -2.9792437e-01 -6.5838285e-02
  2.3237009e-01 -2.1696180e-01  2.5473574e-02 -1.3589439e-01
  9.5502496e-02  1.0076990e-01 -4.9100228e-02  1.7423549e-01
 -2.0920214e-01  2.4601096e-02 -5.6658890e-02  1.3844353e-01
  1.7905764e-01 -1.6915648e-01  1.1365659e-01 -1.3713290e-01]
[ 1.50110081e-01  2.96400452e-04  7.74556473e-02 -1.10501245e-01
  4.16028798e-01  2.31774926e-01  9.91944075e-02  1.81630775e-02
  9.61129460e-03 -6.74467087e-02 -1.32823184e-01 -1.61954358e-01
 -3.84080023e-01  1.87082022e-01 -1.92570359e-01 -6.83264062e-02
  5.05183525e-02  4.50489335e-02  1.07078843e-01  1.29361734e-01
  1.13231368e-01  1.58832967e-01 -2.66896456e-01  2.64086425e-01
 -8.91648158e-02  3.01750507e-02  2.43419013e-03 -2.54810840e-01
 -1.52521640e-01 -5.84613904e-02 -1.04615845e-01 -1.59905151e-01
  2.36424692e-02  2.22208425e-01  2.55800307e-01 -3.51121575e-02
 -1.85883567e-02  2.55452245e-02  2.87545949e-01 -3.40262726e-02]
[ 0.01740965 -0.02130152 -0.41822985  0.16068159  0.00356868 -0.12485165
 -0.04114302  0.12857564 -0.00713867 -0.11502208 -0.40329725 -0.3054317
  0.06021702  0.01889155 -0.18670624  0.04244613  0.24260269 -0.02570813
  0.04475674 -0.31917626  0.00663201  0.02176327  0.08902193 -0.02055413
  0.20100813 -0.14569657 -0.12295169  0.03269143 -0.02399122 -0.14721812
  0.13452052  0.29059523  0.31245887  0.2945532  -0.16482425  0.33739462
  0.16486171  0.369008   -0.18825926 -0.08818799]
[-0.20353219  0.13715214  0.05994853 -0.0124822   0.12697978 -0.2635079
  0.30291027  0.4493766  -0.08799237  0.01152575  0.36687335  0.14465669
  0.07512732 -0.45397672  0.06832535  0.20524234 -0.26236507  0.02545026
  0.3567674   0.19088636  0.17171519 -0.23861055  0.29526016  0.20682016
  0.18811724 -0.04237331 -0.09941216 -0.25126228 -0.21531293 -0.23734844
  0.03102475  0.11204769  0.11824567  0.0308354  -0.29592365  0.22976553
 -0.05375252  0.03615597  0.12471631 -0.00480047]
[-2.04368860e-01  5.19806109e-02 -1.14028342e-01  1.83561549e-01
  1.56761318e-01 -1.87121972e-01  5.43319061e-02  1.06031485e-01
  1.75654992e-01 -1.27675846e-01 -1.45339593e-01 -1.36061102e-01
 -6.32597655e-02  3.76733303e-01 -2.63542742e-01 -2.47156382e-01
  3.01948667e-01 -2.17445925e-01 -5.52248657e-02  4.18213792e-02
  6.90947995e-02 -2.32378840e-01 -2.29795009e-01  8.87016952e-02
 -4.15915161e-01 -2.09291667e-01 -7.50747919e-02  2.11523682e-01
  3.09354097e-01 -2.61800945e-01 -2.83046424e-01 -8.35693702e-02
 -1.52121365e-01 -2.08774656e-02  1.02634490e-01 -3.51352811e-01
 -6.92806114e-03  2.38357693e-01 -1.80742092e-04  6.95824996e-02]
[ 0.33712938 -0.07677053 -0.1498018   0.06284515 -0.357054   -0.00814962
 -0.25352848 -0.00922409 -0.06114729 -0.02991911  0.39483824  0.30550227
  0.01011868  0.10745778  0.02602894  0.00778661  0.134303    0.04836341
  0.14543635  0.11325534 -0.13849328  0.02330294  0.24172072 -0.18493152
 -0.21899632  0.05574743  0.23631816 -0.03368722 -0.10419937  0.23457439
  0.18430625 -0.02109194  0.00153371 -0.16219962 -0.216482   -0.26709703
 -0.1944664   0.01850825  0.2472465  -0.1236642 ]
[-0.01675246  0.15119442  0.0929819   0.29986084  0.16256803  0.19715935
  0.11145389  0.15030172  0.02461593 -0.1644407   0.30458158 -0.2703176
  0.15000571 -0.1919551  -0.12367072  0.14235824  0.2529972  -0.29726586
 -0.20727651  0.1693291  -0.11555222 -0.19928928  0.32232386 -0.13165008
 -0.22299775  0.00596842  0.34548536 -0.13085276 -0.08797538  0.18546653
  0.18398015  0.0343333  -0.07974868 -0.37067142 -0.13099378 -0.3124437
 -0.31330287 -0.1415496   0.04163958 -0.14473304]
[ 0.19511148  0.12411405 -0.4194893   0.06824069 -0.09115212  0.2892866
 -0.3011086  -0.40495878 -0.08828385  0.04486229 -0.02445502 -0.20313533
  0.02811509  0.3138435   0.19906954 -0.27598593 -0.10896281  0.09891318
  0.14726795 -0.21748184 -0.22957541 -0.02399777 -0.2931901   0.26832548
 -0.2887791   0.2841108  -0.20110996  0.20263292  0.15543577 -0.0254985
 -0.26969317 -0.0279171   0.2470898   0.29227895  0.32100272 -0.34742472
 -0.07605527 -0.06947611 -0.10578213 -0.08320031]
[-0.27331105  0.01691348 -0.073729   -0.19425571  0.15406045 -0.11511864
 -0.08773431  0.08335593  0.29659653  0.03964502  0.329451    0.13550355
  0.09714252  0.2413692   0.15465544  0.02229112  0.19079757 -0.11616363
  0.29913118 -0.10922446  0.1341775  -0.39858502 -0.01214869 -0.20405169
 -0.01164002  0.16496202  0.04383141  0.10608584 -0.19210033 -0.3036552
  0.357738    0.2033477  -0.08007618  0.6982042   0.04078675 -0.13689062
 -0.1894771   0.01284098  0.00826854  0.28639662]
[-0.2231415  -0.17622581  0.03578014  0.43093738  0.16691291 -0.09690581
  0.06033143 -0.3501622   0.25983274 -0.25227237 -0.23752609 -0.00371065
  0.05123919  0.272049   -0.01604429  0.00168277  0.16981271 -0.15815684
 -0.33228505  0.13671175 -0.1254839   0.33496535 -0.31586394  0.14448048
  0.04096333  0.04162366 -0.09838932 -0.02151177  0.02196655  0.24301563
 -0.25800148 -0.00372725 -0.00620713  0.01484292  0.2575473   0.25361443
  0.3699515  -0.09905582  0.30503103  0.01452656]
[ 0.23941827 -0.20808694 -0.11782097  0.16909619 -0.277282    0.02066755
 -0.06722642 -0.27025345  0.02389022 -0.08351365 -0.0909463   0.10962936
  0.13890344 -0.26059204  0.13270359  0.02921124  0.23811635 -0.19799323
 -0.31542513 -0.02408526 -0.12465768 -0.09026834 -0.16172278  0.13572013
 -0.12350674 -0.05906412  0.05729607  0.6060382   0.27208984  0.40397742
 -0.04583409 -0.04275867  0.00368899 -0.14954904  0.28159988 -0.47203666
 -0.24971917 -0.02637949 -0.292619    0.1350385 ]
[ 6.9586627e-02  6.3045837e-02  9.2565373e-02  1.3578852e-01
  1.4652659e-01 -9.2988014e-02 -1.8688975e-01 -1.4721079e-01
  2.9523256e-01 -4.2179883e-01 -2.2219296e-01  1.0470689e-01
  1.3689639e-01 -3.1303629e-02 -1.7440258e-01  6.6135884e-03
 -6.5619305e-02 -1.9649330e-01 -4.1198108e-02 -1.6492213e-01
 -5.4909278e-02  2.4552302e-01 -2.2614622e-01 -1.5074833e-01
  1.0456288e-01  1.9569480e-01  2.5341597e-01  1.5178284e-01
 -1.0015081e-01 -1.2046718e-01  2.8516888e-04 -3.0048427e-01
  1.6109212e-01 -6.2112432e-02  2.4109720e-01  3.9055622e-01
  1.9554076e-01  1.5074815e-01  1.9780372e-01  2.3445109e-01]
[-0.05957501  0.41140556 -0.12486349 -0.32634464  0.04252872 -0.0320281
 -0.3492376   0.01025521 -0.07267979  0.1758761   0.12746064  0.1079346
 -0.2231935   0.32996458 -0.00437531  0.1205788  -0.10387618  0.25438982
  0.42863822 -0.13126804  0.10546564  0.0832088   0.0837755   0.06074167
 -0.03101957  0.19051096  0.08241327 -0.18302248 -0.39389023  0.14705381
  0.07179505 -0.14284897  0.2785797   0.43444377 -0.11908601  0.01757535
 -0.3143641   0.01811661 -0.00177285  0.14041035]
[-0.34601593 -0.013767    0.18581721  0.24819554 -0.04346781 -0.0382064
  0.07841907 -0.09006394  0.26165804 -0.10938808 -0.00959599  0.07518825
 -0.01686846 -0.24662937  0.19278039  0.17673989 -0.11488871 -0.10549857
  0.22486657 -0.07826686 -0.25789973 -0.03202777 -0.0143625   0.14712727
 -0.06459241  0.28016692 -0.09008373 -0.08688919  0.16591975 -0.3782712
 -0.07958828 -0.01921695 -0.09854852  0.03000585  0.15689738 -0.02064616
 -0.11883781  0.10738162 -0.15288539  0.18686754]
[-0.2575202  -0.09397601 -0.23665518 -0.24815926  0.26421046 -0.10549426
 -0.24076563  0.15695946 -0.13331959 -0.10341293  0.3091194   0.39924106
  0.16526586  0.29934508 -0.21191037  0.16179836 -0.20342672  0.24585968
  0.48692948 -0.00151739 -0.02636803 -0.12149164 -0.01881406 -0.15504567
  0.43812126  0.06664503  0.08368779 -0.22789548 -0.01817618 -0.3887163
 -0.03204855 -0.20470841 -0.10388692  0.52643335  0.05002776  0.5133217
 -0.35541353  0.192281    0.06478919  0.00936863]
[-0.23061469 -0.2975353   0.20262581 -0.05120426  0.16492303  0.11167085
  0.10662165  0.3450064   0.14146717  0.00825063  0.11692946  0.45955566
 -0.19284841  0.12232061 -0.16951682 -0.16829641  0.00112407 -0.27002597
  0.06313431 -0.08961052  0.01949386  0.14622597 -0.06345968 -0.14690523
 -0.13131204 -0.16739124  0.03194064  0.18655302  0.14052841 -0.02603465
  0.25607562  0.00722373  0.24131414 -0.3350684  -0.15948816  0.01220801
 -0.15064086 -0.07479739  0.22235999  0.11883347]
[-0.05343039 -0.10750123 -0.0052434   0.1548187  -0.03096861  0.05921762
 -0.01729545 -0.2265771   0.04716554 -0.25019005 -0.089243   -0.01558918
 -0.00264668  0.0181805   0.0201601  -0.12972555  0.02219     0.02964257
 -0.2276986  -0.01424469 -0.12802581  0.34322155 -0.12130715  0.00996228
  0.04962505 -0.00767154  0.02518748  0.22914773  0.2050235   0.11008489
 -0.18485487  0.06507245  0.01128662 -0.07959257 -0.03905513  0.02443473
  0.19488144  0.03693123 -0.03950837 -0.06555054]
layer 3 Activation
tanh
layer 4 Dense
40 20
[-0.2384331  -0.13394089  0.1279612  -0.25485867 -0.24004486  0.25497618
 -0.00034455 -0.21096843  0.23795806 -0.24003606  0.08068751 -0.0188803
  0.02189192  0.24569282 -0.34095916  0.04482762  0.29456097  0.03776757
 -0.04143352  0.23807046]
[-0.03725867 -0.27655208 -0.21073237 -0.05993237  0.19764327  0.19807789
  0.02859081 -0.1952718   0.01054682  0.16186883  0.40285945 -0.35380244
  0.02001552 -0.32172003  0.20642053 -0.17326713  0.19630349 -0.18465863
 -0.06785426 -0.33897743]
[-0.1615499   0.2453615  -0.24683698  0.2157359  -0.07838753  0.06608786
  0.13937336 -0.29421037  0.21818121 -0.02150687  0.04287718  0.19123958
  0.01115199 -0.16217184 -0.26399824  0.08410881  0.22800414  0.23230602
 -0.09429157  0.0874323 ]
[ 0.19274178 -0.04304963  0.09944901  0.19729942 -0.22544101 -0.16841656
  0.21348819  0.20138988 -0.03981595 -0.06612936 -0.06014419  0.00063124
 -0.24404469  0.06900205  0.08149024 -0.11511905 -0.21351929 -0.18387434
  0.16025141  0.5962974 ]
[ 0.13798083 -0.18755177 -0.20852117 -0.24389116  0.48455608 -0.05750293
  0.22203971 -0.0916119  -0.17018062  0.29644176  0.12818126  0.23402773
 -0.10520607 -0.05799605  0.20658618 -0.0172384   0.00239226 -0.24588606
 -0.2683235   0.13449903]
[-0.08234639 -0.19526437  0.11407568 -0.06575973  0.00546992 -0.05119046
  0.278123   -0.0887841   0.07918832 -0.14165112  0.05263639 -0.17797463
 -0.11486356 -0.05666004 -0.04137981 -0.03596588  0.07987653  0.16868818
  0.25966334 -0.00277126]
[-0.09936317 -0.14123614 -0.26334837 -0.0473107  -0.46627733 -0.20672691
  0.08184959 -0.00542788 -0.15899675 -0.04651371  0.08578161  0.06565908
 -0.30842236 -0.06606176  0.15502557 -0.15068434  0.17165656  0.00604575
 -0.2962807  -0.06270128]
[ 0.04130224  0.1680563  -0.27299207  0.21618065  0.11468155  0.13504505
 -0.4027946  -0.17842487 -0.4144059   0.27256787 -0.04198856 -0.0453601
  0.15450631  0.14391279 -0.19248979  0.13941695  0.2499349  -0.06011753
  0.04507913 -0.36403975]
[-0.01690256  0.15634431  0.25566775  0.18036439 -0.21733938  0.03674652
  0.5260676  -0.15839301 -0.0776649  -0.13427761  0.02708169 -0.04133474
 -0.03442323 -0.00397563 -0.02719706  0.07093938 -0.15435635  0.1052452
 -0.17283945 -0.2118474 ]
[-0.2730141   0.26251206  0.11688289  0.19356139 -0.18492076  0.07431102
 -0.25771043 -0.27335584  0.07939725  0.28964826 -0.1121041  -0.14455758
 -0.13666694  0.0109461   0.12309022  0.31040317 -0.11874182 -0.3025305
  0.17917892 -0.37640932]
[ 0.35477358  0.08769403 -0.31223696  0.0440973   0.44550756 -0.09014277
 -0.10991972  0.06878804  0.13707139  0.09526662  0.06692612 -0.12759528
  0.08750349 -0.00289685  0.11593664 -0.20607743  0.18916613  0.03691
  0.25558522 -0.14331628]
[-0.11307621 -0.10332886 -0.23874061 -0.16155867 -0.14083818 -0.17744961
 -0.334907   -0.00116785 -0.31541783 -0.15367877 -0.02541429  0.16368349
  0.29876032  0.08317067 -0.3297185  -0.03877104  0.27963358  0.23137735
 -0.2772027   0.39922708]
[ 0.01876094 -0.22989948 -0.02763762  0.01177496 -0.13947004  0.28460425
 -0.14845054 -0.0118409   0.149796   -0.18848671  0.13773063  0.01636057
 -0.18455306 -0.17519006  0.10496609 -0.15081438  0.10488892 -0.11625192
  0.15342075  0.1321739 ]
[ 0.1457221   0.06121144  0.28275955 -0.26435915  0.35738    -0.10084284
 -0.00813328  0.16104709 -0.08910619  0.2515607   0.12329591  0.16798957
  0.1226417  -0.07438304 -0.17536724 -0.23243466 -0.33307618  0.07696348
  0.01655949  0.26138315]
[ 0.09719425 -0.16966394 -0.14976542  0.03731088 -0.18698929 -0.08352231
 -0.17215595 -0.04887806  0.1787466  -0.17977695 -0.29077095 -0.10630198
  0.23441643 -0.15141022 -0.2383658  -0.16802411  0.05666951  0.2618709
  0.1678125   0.05778034]
[ 0.09629364 -0.05502714 -0.04900418 -0.01709101  0.03866998  0.07725408
 -0.42092162 -0.28638345 -0.20219211  0.14471972 -0.15591322  0.02117743
  0.19297984  0.07176422  0.14811565 -0.00710812  0.03731524  0.07693319
  0.10907767 -0.22534886]
[-0.16036183 -0.2048802   0.24912333  0.26226822 -0.23855789  0.08199993
  0.34408793 -0.04835533 -0.03225524  0.1780992   0.01939739 -0.12290046
 -0.29563963 -0.10424706 -0.16271675  0.04004005 -0.22141556 -0.3308317
  0.20614482 -0.01838456]
[-0.05548261 -0.1334501  -0.20601086 -0.09545415  0.09328409  0.07479729
 -0.19662008  0.17139809  0.08941408  0.19798802  0.11166488 -0.10111801
  0.21927705 -0.10119804  0.13232893 -0.14335935  0.25964272  0.28509164
  0.13067071 -0.32815668]
[-0.07705054 -0.00514766 -0.03506768  0.27248392  0.36924854  0.24048913
 -0.48395836 -0.07683899 -0.2928695   0.23720402  0.07541452 -0.27308223
  0.5551495   0.1934647  -0.25689     0.19950022  0.15886961  0.14621666
 -0.2161126  -0.3728088 ]
[ 0.02588999 -0.03552763 -0.1507704  -0.1922699  -0.3543156  -0.15785107
 -0.03737834 -0.07836639  0.00171402 -0.21776249 -0.01114874  0.04434789
 -0.12644416 -0.1761393  -0.05548715 -0.08174457 -0.23045853 -0.2522316
  0.37002277 -0.3969703 ]
[ 0.03562197 -0.02304023 -0.19648543  0.08085182  0.20688087  0.11095127
 -0.2714909  -0.04476349  0.04554221  0.21598504  0.10517718 -0.11740926
  0.10232317 -0.11158904 -0.25862348 -0.02497355  0.21148683 -0.14086568
 -0.01155466 -0.34842032]
[ 0.40343085  0.1368498   0.06701663 -0.28418267 -0.15702204 -0.02041078
  0.22474943  0.23229195  0.14745834 -0.02962398  0.23183353  0.2982082
 -0.04030799 -0.32706913  0.391578    0.05327095 -0.23446031 -0.0043178
  0.00385832 -0.03315523]
[-0.04574418 -0.05534411 -0.20134807 -0.17746079 -0.270905    0.20091715
 -0.35373464 -0.36450136 -0.11252371 -0.16953261 -0.3354336  -0.23572157
  0.32783237 -0.13037834 -0.01140694 -0.28906873  0.19624871 -0.08057424
 -0.084481   -0.24848932]
[-0.18967788 -0.01418769  0.11030313  0.00336374 -0.41864887  0.06667598
  0.2764954   0.0475457   0.23080741  0.224438   -0.21311268 -0.15669352
  0.00331898 -0.00658577  0.03904175  0.36569676  0.08494401  0.07917861
 -0.37158364  0.1354045 ]
[-0.27767244  0.18311124 -0.06376571  0.18323381  0.26803344 -0.1188231
 -0.43499038 -0.25806025  0.03563008 -0.04292856  0.0615415   0.1324008
 -0.02090747 -0.2541629   0.34292638  0.1662307   0.26464075  0.11106436
  0.23417729  0.18601887]
[ 0.24255332  0.07356987  0.07814972  0.2878015   0.23781767 -0.23626083
 -0.31300867  0.28939706 -0.21521565 -0.17895752 -0.00454731 -0.30257827
  0.1657593   0.3937618   0.38745466 -0.06556077  0.12348943  0.22536832
 -0.03426441  0.12236188]
[-0.00952876  0.01871076  0.03573135  0.13832815  0.01571765  0.01382633
  0.13341537  0.09918156  0.1012615   0.29186904  0.00397709  0.0938454
 -0.27928004  0.20053606 -0.0241924  -0.1105018  -0.04138884  0.09150553
 -0.05400926 -0.35851645]
[ 0.15193084  0.16133967 -0.00877616 -0.13635282 -0.07726786  0.11593743
  0.22692987  0.30382276  0.20233093 -0.31123757 -0.18339401 -0.13237494
 -0.24930328  0.21830595 -0.07506422 -0.07942289  0.18075065 -0.03496538
 -0.00055133  0.06339993]
[ 0.2508945   0.19214322  0.10228872 -0.13434988 -0.24966526  0.01913825
  0.3112204   0.2394121   0.04259787 -0.27602908  0.22895043  0.10711186
 -0.40069613  0.05055644 -0.15536608  0.06027469 -0.16766666 -0.00901024
 -0.15702909  0.27660045]
[ 0.19370775 -0.12248835 -0.00993604 -0.30131796 -0.31063405  0.08556464
  0.17709634  0.07059711 -0.00144344 -0.3614442  -0.0850056   0.12968975
 -0.10573468 -0.09525244 -0.0862668   0.15033072 -0.18345916  0.16312654
  0.24519947  0.01024212]
[-0.18575786  0.07062147 -0.288531   -0.18490729  0.07186675 -0.04078209
 -0.32534674  0.240431    0.248258    0.2346683   0.14838502  0.00739345
  0.48804957  0.2884776   0.09549083  0.02810919  0.14914972  0.09505244
  0.03749165 -0.14855964]
[ 0.22721225 -0.23695882 -0.05496598  0.00280167 -0.42921036  0.1440603
  0.16515686  0.22709952  0.17149039 -0.09939504  0.10504287  0.1506752
  0.18596928 -0.1971902   0.06736604 -0.09022008 -0.00536779  0.0844299
  0.00457973  0.30182886]
[ 0.35426208 -0.04449362  0.24504295  0.20002748  0.40107173  0.27580965
 -0.10142355  0.10919844 -0.08456074 -0.10791706  0.1096089  -0.09717757
 -0.07337435  0.02844316 -0.12610136  0.01620421 -0.23008068  0.04749195
  0.20141551  0.0171002 ]
[-0.08045565 -0.30902374  0.24117906 -0.09854066  0.13147026  0.04542248
 -0.34538484  0.15487428 -0.17210375  0.05726369 -0.04719312 -0.3710423
  0.13761656  0.19924645  0.16164689  0.05629221  0.23424974  0.22993875
  0.02484952  0.44721207]
[ 0.013122    0.20292513  0.10858178  0.05592526 -0.03160843 -0.06442028
  0.2624121   0.05824488 -0.02424699  0.09532156 -0.22135931 -0.19967532
 -0.1368111   0.03631798 -0.15143928 -0.1594381  -0.23053212 -0.12494089
  0.23014124 -0.04381923]
[-0.22438395 -0.09692114 -0.17109981 -0.24424458  0.40873656 -0.05615522
  0.13281119 -0.20054445 -0.08274211  0.05095571  0.31967905  0.30008584
 -0.10048478 -0.05595677  0.26511016  0.10929334  0.11142084  0.31891733
 -0.05260106 -0.28101614]
[ 0.09276546 -0.04810016  0.27025726 -0.23785505 -0.07478603 -0.06128009
 -0.07696442  0.19382963  0.02621773 -0.10712363 -0.14876516  0.2955933
 -0.32818034 -0.15861374 -0.0991106  -0.37529984 -0.23722546  0.26235187
 -0.08391636  0.08085635]
[-0.21124747 -0.09991428 -0.03806565  0.2765564   0.01294952  0.15290868
 -0.0102091   0.09122656  0.00400476  0.05986144  0.07129885 -0.21907966
 -0.1349872  -0.26498497  0.21029954 -0.16933024  0.1436364   0.17153366
  0.02816498  0.11661408]
[ 0.15610303  0.03707777  0.20725738  0.03361863  0.13454525  0.07505644
  0.18565457  0.03903658 -0.13431242  0.11241674  0.04366009  0.1660611
 -0.03968203  0.17294762 -0.2834735   0.21414508 -0.13217725  0.2765397
  0.22705534  0.10065652]
[-0.03056852 -0.02860651  0.10342878 -0.15320317  0.11154678  0.12795025
 -0.10837436  0.03025226  0.04001702 -0.01298867 -0.20051351  0.1624082
 -0.03017973  0.15558392  0.19602089  0.1250392  -0.16009678  0.259399
 -0.05635542  0.05709945]
[ 0.03312714 -0.02029105  0.02724873  0.04942451 -0.07824808  0.07200776
  0.14939307  0.0068042   0.07408936 -0.14330146 -0.05886328  0.11822638
 -0.12260806 -0.02367915  0.06256109 -0.01254271 -0.03518836  0.05091902
  0.01237602  0.05432379]
layer 5 Activation
tanh
layer 6 Dense
20 1
[0.01437236]
[-0.00628474]
[-0.08515476]
[0.08738522]
[-0.01677084]
[0.01503077]
[-0.08949973]
[-0.10524146]
[0.00681402]
[-0.06501181]
[-0.00879811]
[0.05786311]
[0.03663233]
[-0.00654336]
[0.02415309]
[0.00058342]
[-0.0428969]
[0.03106377]
[-0.01706732]
[0.01141646]
[0.19365488]
