layers 7
layer 0 Dense
20 20
[-0.1665789  -0.3624594   0.2446629   0.09318143 -0.05770853 -0.21964225
 -0.04250569 -0.14553241  0.00543872 -0.04839671  0.09662299  0.16747859
 -0.18111609  0.29602513  0.07804707 -0.09463412  0.16168861 -0.04665253
  0.02043603 -0.20622984]
[ 0.11603286 -0.14609827  0.51719093  0.32280836  0.29659802 -0.42071092
  0.35917044 -0.16240416 -0.54636717 -0.21362549 -0.18112238 -0.08292451
 -0.30365708  0.14192188 -0.11962077 -0.5429608   0.11350538 -0.22804214
  0.04204363  0.37346014]
[ 0.37942272 -0.0689953  -0.05811065  0.27904618 -0.16758458 -0.46562806
 -0.06241598 -0.18072587 -0.23001675 -0.19302768  0.17024563 -0.18086982
 -0.45786548 -0.24766932 -0.06070697 -0.14264391  0.37742335  0.28985795
  0.6464513   0.57491463]
[ 0.1577183   0.2835239   0.01220828 -0.18107137  0.11057313  0.1348524
  0.12203433  0.02002224  0.10850312  0.21479312  0.08699066 -0.27839413
 -0.1290331   0.06718033 -0.0506457  -0.10543556 -0.099565    0.05318197
 -0.04380514  0.24459457]
[-0.2778106  -0.04932506  0.33709776 -0.41056755  0.17189005  0.02493907
  0.30479366 -0.14829396 -0.01777506  0.10785289 -0.23863298 -0.07315858
 -0.15283917  0.15769438 -0.07829367 -0.18549152 -0.06662971  0.42483678
  0.21607926 -0.27491567]
[-0.04989737  0.00981647 -0.22166568 -0.6537322  -0.106042    0.37753788
  0.24757606  0.30938044  0.18628377  0.36409888 -0.00818627  0.2831312
  0.2698525  -0.25058624  0.19808841 -0.06882464 -0.24943095  0.0429198
 -0.5972932  -0.3240976 ]
[ 0.01768778  0.19304489  0.11928321 -0.5541525  -0.22594836 -0.12943405
 -0.18661866  0.09278029  0.05375532  0.60706604  0.51043075  0.38762292
  0.0200682  -0.40754047  0.38287008  0.44000173 -0.6292254   0.00965694
 -0.05629041 -0.3500211 ]
[-0.1216375  -0.27971423 -0.266722   -0.3488616   0.3009315   0.21545076
 -0.3398343   0.1829836  -0.1551283   0.04523476  0.2467681  -0.05681631
 -0.17924395 -0.19558892  0.32798785 -0.26793054  0.10437296 -0.1325981
 -0.1248327  -0.00324658]
[ 0.26933825 -0.02823112  0.31996584 -0.29082674 -0.05081887 -0.15669665
 -0.21521206 -0.0282218   0.01255551  0.3944208  -0.39087245 -0.3300026
  0.28601038 -0.3397395   0.0309655   0.20723505 -0.15575549  0.0142709
 -0.07389717  0.127081  ]
[-0.17970964  0.36895695 -0.27370688  0.31593266 -0.303876    0.3742554
  0.06654617  0.07837011 -0.19162391 -0.1372232  -0.05335477  0.2275921
 -0.08938716 -0.08231752 -0.21938273 -0.18240328  0.44907436 -0.02597062
 -0.19874895  0.28469253]
[ 0.28159043  0.10423169  0.09567513 -0.1583712  -0.0688627   0.36416742
 -0.03254224  0.40288046  0.34956077  0.06443101 -0.11628865  0.27767316
 -0.11549512  0.16153681 -0.1768853  -0.12171575 -0.12995255 -0.03084369
  0.19557647 -0.09152591]
[-0.23928392 -0.26886034 -0.07571428  0.02319019 -0.06994534  0.08745113
 -0.3215603   0.0461591  -0.29948625  0.07337216 -0.03748965  0.21015756
  0.21067636 -0.01135251 -0.15237552  0.01326397  0.08750407 -0.38549504
  0.24582139 -0.04063995]
[-0.42350078 -0.07865609  0.34269056 -0.42810103  0.03477584 -0.14565416
  0.23318766  0.12880304  0.00981304 -0.23126726 -0.06888574 -0.10850728
 -0.2878377  -0.00796151 -0.32340926  0.09342258 -0.04969308  0.03466
  0.02179055  0.1663019 ]
[-0.03826481  0.00485552 -0.06881521  0.23807877  0.11781288 -0.04726628
  0.05619662 -0.24641709  0.2116377   0.21315236 -0.03933204  0.13964
 -0.37718076  0.11800221 -0.06555969 -0.25930694  0.01979202 -0.08863968
 -0.12032124 -0.00470381]
[ 0.29158604 -0.16608563 -0.07883016  0.38746634 -0.07168379  0.1547746
 -0.2805817  -0.0437754   0.04517731  0.4098953   0.00470406 -0.04960391
  0.34408683  0.05358335 -0.06967825 -0.07557841  0.06725315 -0.13922912
  0.26483086  0.40907055]
[-0.39332348 -0.20339526 -0.09118624 -0.0395579  -0.09093748  0.1568024
 -0.07755107 -0.1166231   0.19383503 -0.14625037 -0.43633288  0.13172731
  0.49757493  0.4003855  -0.19155772 -0.20270397  0.33708265  0.13175046
  0.5082535  -0.35945907]
[ 0.4034159   0.4619362  -0.04196873  0.32889813  0.22706102  0.17612348
  0.21464036 -0.00642583 -0.21554695  0.15992239  0.06167256 -0.3576024
  0.13215417  0.19847438  0.32660326  0.06896354 -0.3045047  -0.28324702
  0.379021    0.24191564]
[ 0.28510988  0.08433609 -0.17602612 -0.00513533  0.01993602  0.09180476
  0.04122422 -0.22597972 -0.0316203  -0.13063277 -0.19110174  0.44174477
 -0.32856533 -0.04702596 -0.10097485 -0.22054218  0.04092998 -0.08740012
  0.15027417 -0.38933462]
[ 0.32617617  0.06448761  0.29613808 -0.38360983 -0.10631633  0.28795215
 -0.10664479  0.24122012  0.06327766 -0.08298242  0.24472465  0.39641392
  0.17981148 -0.02029047 -0.20835824 -0.19215019  0.12420873 -0.0937788
 -0.04657052  0.03219917]
[ 0.234487    0.4305237  -0.08509976 -0.03351622 -0.18815643  0.02863996
  0.02518031 -0.16070314 -0.06076732 -0.17823556  0.10858029 -0.1825631
  0.16197982 -0.25653204 -0.30178666  0.23408212  0.09154496  0.05087326
 -0.02760931  0.03784372]
[-0.05737004 -0.03927192 -0.11295398  0.05329968 -0.02808204 -0.05963466
 -0.01492583 -0.05578543  0.17287713 -0.0596983  -0.03946089  0.05575204
  0.05541662 -0.00479801 -0.05256654 -0.05388006  0.05853077 -0.14520796
 -0.04644061 -0.06113517]
layer 1 Activation
tanh
layer 2 Dense
20 40
[-0.20993899 -0.02627648  0.1306486  -0.05263666  0.15780574 -0.31703994
  0.1964962  -0.13760997  0.20504738  0.08976458  0.23726365 -0.11096153
  0.00303957 -0.05640775  0.05558676 -0.06701867 -0.06769162  0.08513863
  0.17706704 -0.20828088  0.06458879 -0.1829086   0.18978006  0.01551279
  0.05834978  0.00841049 -0.20820874 -0.12331329 -0.15092818  0.22588904
 -0.19649515  0.01920933  0.22836868  0.04504493 -0.13901992 -0.03951236
 -0.0500337   0.0549652  -0.0120039  -0.16115479]
[ 0.05198734  0.04806876 -0.02229743  0.24951395 -0.00937132 -0.00497951
 -0.10268895  0.1889321   0.08161006  0.04518851 -0.260814   -0.0734271
 -0.02270045  0.05676069  0.02469772  0.08052037  0.15627547 -0.08016911
  0.11449779 -0.02259386 -0.09236068  0.1032348  -0.15874515 -0.21482319
  0.06163367  0.03130606 -0.08760153 -0.08281238 -0.09220795  0.2160253
  0.07240012  0.13613011 -0.0624245   0.10271235 -0.06744397  0.20825383
  0.19143948 -0.14264102 -0.13738436  0.10067743]
[ 0.19094503  0.26566583  0.10973565  0.19865    -0.10922477  0.04690289
 -0.08510585  0.23836644 -0.08262435 -0.08829796 -0.21548519 -0.08011603
 -0.2514021  -0.11951795 -0.1174025  -0.078897    0.13726144 -0.22750673
  0.21729591 -0.0093124  -0.07141666  0.19584936 -0.00223619 -0.18051037
  0.36993474  0.28933293  0.11575074 -0.08432215  0.21298756  0.17547281
 -0.13317181 -0.07823507  0.19970897  0.2663566   0.18222833 -0.17579232
 -0.05663363 -0.00518633 -0.16453987  0.13524371]
[ 0.10171742  0.15047713  0.00062253 -0.14619842 -0.08793124 -0.16014078
  0.12771426  0.06117801 -0.11892214  0.05493321 -0.18279171 -0.03930827
 -0.02427195  0.00235991 -0.1856793  -0.13742042 -0.08670681 -0.03174833
  0.03749067 -0.04403029  0.20819643  0.22243094  0.04498083 -0.03959429
  0.16579866 -0.07300414  0.04368425 -0.21087311  0.14235637 -0.11798579
  0.15852624  0.16891405  0.13221434  0.01325813 -0.03182704 -0.11334967
  0.19354929  0.17651165  0.23921193  0.05566111]
[ 0.03948643 -0.19794706 -0.10205954  0.18483351  0.05360623 -0.04608572
 -0.31356928  0.01379395 -0.00488457 -0.06115415 -0.13922867  0.07033996
  0.04033215 -0.11960942 -0.15237461  0.11262738  0.3183186   0.03796914
  0.03792882 -0.03611931  0.01155861  0.00063531  0.04427861 -0.0510913
  0.18008685 -0.01339806  0.11460397  0.21658368  0.07935993 -0.01786366
  0.23644076  0.13771705 -0.05301854 -0.00295468  0.1891013   0.04250067
  0.16200651 -0.11634646 -0.18242928 -0.11902932]
[ 0.04103342  0.11046011 -0.13826221  0.17395021 -0.02514455 -0.12647268
 -0.08250359  0.13230817 -0.16712871  0.0082457   0.07326429 -0.152214
 -0.03441957 -0.0060078  -0.1529175   0.20771736  0.21566124  0.27161252
 -0.05373397  0.21335284 -0.16550694  0.03081657  0.08853066  0.16975446
  0.1572435  -0.09546754  0.12266552 -0.280816   -0.07611834 -0.20826557
  0.19860731  0.10709684  0.18404737  0.17267141 -0.2814959  -0.06205945
 -0.0960774  -0.13187183 -0.01976858 -0.24813448]
[ 4.19720300e-02 -1.11151114e-01  1.97815090e-01 -1.18170224e-01
 -1.95972249e-01 -2.39562839e-01  4.23440449e-02 -1.72601506e-01
 -3.33473384e-02  1.12342551e-01  2.91898429e-01  4.80656549e-02
  1.13300823e-01  1.83206722e-01 -2.92827368e-01  2.03451775e-02
 -2.22267061e-01  4.84381890e-05 -4.83229794e-02 -1.92395464e-01
  2.02395156e-01 -2.00606436e-01  1.28418617e-02 -1.52542338e-01
 -4.96824570e-02 -7.29984865e-02  5.07960543e-02  2.72703618e-01
  1.64347708e-01  4.66893986e-02  1.70000400e-02 -1.63024560e-01
 -1.46618262e-01 -1.63399518e-01  2.37052068e-01 -5.72055168e-02
 -5.40285967e-02  1.57087028e-01  1.17554486e-01  8.27647187e-03]
[-2.2735835e-04 -6.8396859e-02  2.6530668e-01 -7.5961739e-02
 -1.0180429e-01  2.7777804e-02  3.0595804e-02 -8.4146835e-02
  1.1512014e-01 -1.7018907e-01  1.3048551e-02  4.9158171e-02
  1.8819645e-01 -2.3558874e-01  9.1104761e-02  7.3907614e-02
  6.9296233e-02 -1.7227383e-01 -9.7462542e-02 -1.9854991e-01
 -1.5391162e-01 -5.5804010e-02 -3.9282325e-03 -2.2693975e-02
 -2.2655743e-01 -1.2556866e-01 -4.5382965e-02 -2.5441173e-01
  2.2449006e-01 -3.6813308e-02  1.5506513e-01 -3.1869456e-02
  1.0537625e-01 -6.3933253e-02  1.2609167e-01 -7.9554990e-02
  1.3279948e-01 -2.0243633e-01 -1.8338162e-02 -1.5314956e-02]
[ 0.2180031   0.07847141  0.10349661  0.1339964   0.00608671 -0.1374135
  0.14588675 -0.27500612  0.07006377  0.06450491  0.3216462  -0.01176987
  0.04012746  0.11820168 -0.0273253   0.16857786 -0.12025571 -0.05126335
 -0.14301644  0.21950413 -0.04038649 -0.03448804 -0.01085802  0.11993445
  0.13198426  0.13979985 -0.00922066 -0.02254513  0.1112424   0.30249435
  0.00397066  0.0914296   0.07541572 -0.07265531 -0.16595246 -0.17185971
  0.12388374  0.17660736 -0.23412041  0.18960805]
[-0.06877889 -0.20730701  0.25967526  0.02062966 -0.11231209  0.05115519
  0.0011545   0.02286713 -0.03272838 -0.13792394  0.02389292  0.06049618
  0.00880514 -0.06626901 -0.15650238  0.23484847  0.24262984 -0.13805807
  0.19914877 -0.10794584 -0.12872311 -0.08027793  0.19558448 -0.16198072
  0.11801565 -0.08882122 -0.04053085 -0.03064614  0.07566651  0.03585073
 -0.19393241 -0.00409855 -0.03838142  0.09903425 -0.16975415  0.16659658
 -0.13594182 -0.11981976 -0.14888817 -0.0357316 ]
[ 0.04843856 -0.03630781  0.05664794  0.20246904 -0.0936952   0.17281443
  0.19471802 -0.20297705 -0.14733733 -0.1639953  -0.17401204  0.0292761
 -0.02226517  0.09918015  0.02899393  0.12838903  0.01012378  0.03339318
 -0.14317214 -0.04706775 -0.06501123 -0.03632513 -0.310106   -0.17501518
 -0.0442351  -0.06470516 -0.07751583 -0.1503336  -0.00553895 -0.1287299
 -0.0343203  -0.30894074  0.00932023 -0.06871696  0.01316563 -0.09663578
  0.25013417 -0.09584569  0.14302203  0.01870479]
[-0.15527365  0.00308155 -0.16453864 -0.01080618  0.14727664 -0.1637478
 -0.12309067 -0.18793002 -0.08459973 -0.07412404 -0.11545253 -0.10076211
 -0.20044056  0.17988062 -0.24587384  0.03877093  0.03122446  0.03122856
 -0.05188146 -0.08672938 -0.15047109  0.06184679  0.00913688  0.05648857
  0.10420211  0.06806023  0.06150442 -0.04301409 -0.01421005  0.2597156
  0.0740748  -0.04338022 -0.15891418  0.10895287  0.12890963  0.08708358
 -0.04885172 -0.07356628 -0.06197124 -0.02215232]
[-0.1441403  -0.11949668 -0.18150973  0.18556538  0.0939343  -0.14925516
  0.20680042 -0.06630473  0.16847998  0.05506786  0.04911818 -0.20149058
  0.17164327 -0.11615245  0.17186238 -0.0047508   0.21693449  0.11188149
  0.10497643 -0.22564611 -0.2954578  -0.2203014   0.06594878 -0.0069338
 -0.23963594 -0.09872698 -0.0463114   0.07091156  0.25957292  0.21989474
 -0.07098519 -0.01282511  0.12258387  0.03028508 -0.22977655  0.15038644
 -0.04738573 -0.2257238   0.1647075  -0.07198016]
[-0.00548663  0.0147685  -0.25927043  0.1161257  -0.09465688 -0.00915256
  0.23599276  0.13813591  0.06409895  0.12374606 -0.18887971 -0.01297623
  0.21118833  0.1962234   0.06090714 -0.3131868  -0.13086616  0.18796998
  0.00408511 -0.10264563 -0.26079577 -0.11144751  0.00101968  0.04641748
 -0.10651328  0.15845881  0.09262291 -0.21091989 -0.23986167  0.03398531
  0.20950964 -0.14628053 -0.02040757  0.3808821  -0.19458352 -0.02307194
  0.27477327 -0.09650746  0.1979474   0.03158935]
[-0.11434256 -0.0918791   0.03807208  0.03892014 -0.02641641 -0.03467719
  0.10824294 -0.10055828  0.06796297 -0.19060913  0.06969346  0.14467433
 -0.09612059 -0.02271491  0.02072893  0.16674547  0.22695868  0.09422982
 -0.13693886  0.12133931 -0.0878545   0.07859088 -0.25602543 -0.14536704
 -0.11207707  0.2278986  -0.04674603  0.02888155 -0.07828695 -0.00446482
 -0.00477082 -0.15294555  0.22141704  0.21223629  0.10683301 -0.07796668
  0.18391685 -0.24449666  0.04266984  0.09271942]
[ 0.15313862  0.15653189  0.16664281  0.13479711 -0.21653399 -0.137458
  0.21384785 -0.21611702 -0.20099854 -0.00567481  0.21841297 -0.2596115
  0.06191709 -0.10652103  0.08819025 -0.09339976 -0.05253354 -0.04979173
  0.31245166  0.04447991 -0.06720111  0.10439882 -0.02254846  0.04396852
 -0.18754375  0.14965075 -0.29048347 -0.16521756  0.0166568   0.21203429
 -0.02902504  0.0878628   0.16320065  0.08264027  0.00598047  0.10893123
 -0.1562624  -0.2569329   0.09969962  0.15654849]
[ 0.0862249  -0.15092778 -0.09120698 -0.00032764  0.03999608 -0.16307051
 -0.04672681 -0.11609524  0.02924957  0.24038805 -0.13049854  0.10181559
  0.02429803  0.00368661 -0.06522024 -0.01535013  0.00405765  0.01656723
  0.2543287  -0.11564725 -0.06965709 -0.00321993  0.01031553  0.13591029
  0.21549839  0.2056045  -0.12249574  0.11946929 -0.22720683  0.2860989
  0.1225675   0.22245573 -0.10030562  0.1403486   0.01224643  0.04858645
  0.04862047 -0.24281272 -0.03103708 -0.19744246]
[ 0.04443249 -0.1788312  -0.15999594  0.22450584  0.24203607  0.11283144
  0.19977447 -0.27134314 -0.11441683  0.09115957  0.10973742  0.24046707
  0.2501085   0.136274    0.18513854  0.16276518 -0.01362906 -0.08370644
  0.11330565  0.18019514  0.14136553 -0.05014821 -0.0475454  -0.2763986
 -0.06879249 -0.14459693 -0.17368245  0.12924017 -0.22460346 -0.12956119
 -0.0999911   0.29530975 -0.04304161 -0.2645735   0.01358199  0.1668972
  0.16738132  0.03018847  0.07443584 -0.22758853]
[-0.08517837 -0.05661192 -0.05853096  0.07272434  0.09766598 -0.06894206
  0.20703349  0.08810898  0.00042524 -0.08815856 -0.10179422 -0.00361312
 -0.10831466 -0.10027687  0.02661728  0.08015894  0.0696479   0.11547486
 -0.19638094  0.07831535 -0.18681099  0.05450641 -0.09534827  0.09728167
 -0.08866372 -0.12684679 -0.00100139  0.23837616 -0.09002442 -0.15604614
  0.04599419 -0.23832074 -0.26708373  0.31486169 -0.00947519 -0.04769912
 -0.01127185 -0.11556349 -0.07628068 -0.05594453]
[-0.03852801 -0.30535334  0.08653525 -0.09909159  0.31794512 -0.16934174
  0.1131892  -0.07994608  0.18691194  0.04034498  0.05795902 -0.09384121
 -0.10956682  0.18382834  0.13924415  0.1449234   0.06187227  0.02937328
 -0.20445575  0.14898859 -0.19907795  0.19231881 -0.13900276 -0.15805285
 -0.19037421  0.10181836  0.23190472  0.1784673  -0.20432618  0.10115898
  0.13327219  0.01648987  0.04268894 -0.04897091 -0.00503873  0.09103391
 -0.06510924  0.14679766 -0.19913203  0.16922617]
[-0.01630318  0.06471761 -0.03655498 -0.01088727  0.0106153  -0.05911858
 -0.03476653 -0.02146826  0.02397823  0.06999313  0.00668935 -0.00339266
 -0.07341728  0.10446882 -0.02679309 -0.0587932  -0.10177313 -0.04328814
  0.00735768 -0.02729553 -0.03261162 -0.0216965   0.0701639  -0.03706748
  0.06677638 -0.0329626   0.09668684 -0.02981582 -0.01522638  0.00587962
  0.0015362  -0.03618767 -0.03166275 -0.00705704  0.02776883  0.00845869
  0.00524461  0.02383094  0.06809506  0.03503163]
layer 3 Activation
tanh
layer 4 Dense
40 20
[ 0.05385835 -0.1878058  -0.22967255 -0.0672497   0.103994    0.09827473
 -0.0984709   0.05963428  0.07868963 -0.17509009  0.20838112 -0.08518999
 -0.16891035  0.15385751  0.06815708 -0.0623547  -0.02250773 -0.07835004
 -0.263972    0.104936  ]
[ 0.20309852 -0.0706167  -0.06464143 -0.18941389 -0.11025017  0.2505319
 -0.12319835  0.19742264  0.03695997  0.02743033  0.00729724 -0.0349791
 -0.03651421  0.06199221  0.09099815  0.01987844  0.2030214  -0.20176579
 -0.03316123  0.05543417]
[-0.32252535 -0.1814112   0.1275918  -0.05880577 -0.12947953 -0.13955714
  0.13982746 -0.04540516 -0.10823049  0.14227326  0.0020519   0.00918717
  0.26254308  0.19111238 -0.04754906  0.15934418 -0.1466606  -0.2447982
 -0.12481413  0.11412863]
[ 0.19152    -0.21015699 -0.17871603  0.06947556  0.0716493  -0.09164063
  0.03855444  0.12928021 -0.11046573 -0.09774473 -0.20842864 -0.16098024
  0.12599164 -0.34510392  0.15366936  0.07591634  0.14082675  0.17798029
  0.07021566 -0.11580215]
[ 0.09508567  0.05700447  0.08800676 -0.0863391  -0.26529947 -0.05301632
 -0.16997151 -0.05834315 -0.09558284 -0.17051443  0.27443525 -0.02748555
  0.1824324   0.08507906  0.20218304 -0.14370346  0.02347534  0.03654455
 -0.03146769  0.07814058]
[ 0.03679017  0.1951699   0.14433935  0.0289411  -0.26484054  0.07372497
  0.02158422  0.12447567 -0.09147226  0.18682475  0.00430462  0.07028572
 -0.17202125 -0.04362671  0.00648613 -0.14790569  0.11897574  0.05506987
  0.15508606  0.1118509 ]
[ 0.10226303  0.15996872 -0.05860958 -0.14508757 -0.2720631   0.1529177
  0.05909535  0.22604522  0.05713001  0.02670343 -0.00771333 -0.06444898
  0.15113854 -0.1452987   0.00080502 -0.12396064  0.03069912 -0.02895999
 -0.01797356  0.09492055]
[-0.08409676 -0.25103003 -0.16774158  0.06100708 -0.14747632 -0.08509973
  0.15596764 -0.21963567  0.10813916  0.12724085 -0.15808073 -0.13257919
  0.07509029 -0.15603484  0.2005519  -0.02166752  0.11902194  0.02371334
  0.2569383   0.18389055]
[-0.01831295 -0.05754886 -0.0680832   0.10358893  0.21595903 -0.05264146
 -0.00896245 -0.22519429 -0.16720425  0.15531194 -0.21079114 -0.02601145
  0.16348782 -0.20247026 -0.1162197  -0.27214634 -0.04370857 -0.06933904
 -0.01011911  0.2009274 ]
[-0.02356619 -0.22953354  0.12345558 -0.05836359  0.14410761 -0.13592213
 -0.1362602  -0.06480991 -0.24667744 -0.13331705  0.20046291 -0.0633336
  0.10724014  0.18691874 -0.03695145  0.07455165  0.20290071 -0.1398619
 -0.01614268  0.08541451]
[ 0.08164494  0.04578131 -0.29995862  0.03738721  0.21373315 -0.13796282
 -0.14070135  0.10661274  0.09173182  0.00175768  0.20893455 -0.05574878
 -0.28133544 -0.20354222  0.20582743  0.14832325  0.11924484  0.11470786
  0.17746477  0.01825617]
[ 0.30631387  0.12907344  0.03807777 -0.01941564  0.11797151  0.32592317
 -0.23255734 -0.06452253  0.00497653  0.10362031  0.14508061 -0.27979442
 -0.17021316  0.11918586 -0.13939817  0.00618407  0.2046956  -0.08867566
 -0.14276187 -0.2099691 ]
[ 0.15015304  0.13850762  0.11085901 -0.07259304 -0.19205698  0.03810206
 -0.08592293 -0.07857293 -0.224548   -0.07035991  0.26043195 -0.16459998
  0.03288214  0.2445974   0.12790763 -0.15061349  0.03474773  0.012442
 -0.12090748  0.0547943 ]
[ 0.06394008 -0.21025987  0.01131568 -0.03736056  0.2825786  -0.04549524
  0.04800387 -0.01377157 -0.02165458  0.32140318 -0.24778013  0.217166
 -0.01177577  0.14322238 -0.28626287 -0.16130282  0.25083092 -0.15787582
 -0.02004918  0.1629408 ]
[ 0.1525376  -0.14035551  0.05267607 -0.01916805  0.27232638 -0.17356114
  0.1470122   0.16856538  0.11620901 -0.01709049  0.11485881  0.1749178
 -0.10961546  0.17924984  0.26558688 -0.09733024  0.09130064 -0.19039698
 -0.00962138 -0.29553074]
[ 0.16211638  0.11891921 -0.0967228  -0.00175601 -0.11412188  0.0717041
  0.26048148  0.08578849  0.09821311  0.14114872 -0.01708318 -0.14129539
  0.00526638  0.13823229 -0.01129689 -0.01581446 -0.09934466 -0.22255935
  0.15754136  0.21508494]
[ 0.07498377 -0.04627728 -0.03314088  0.2298235  -0.12745756  0.10091785
 -0.0881746   0.01204651 -0.00238467  0.08905744  0.12948295 -0.06102422
 -0.22487637  0.20452859  0.21714404 -0.13838212  0.1972732   0.0349599
  0.08348124 -0.22898512]
[ 0.19024295  0.2478586  -0.0186043  -0.07232038 -0.13155115 -0.0199771
  0.23688477 -0.2154473  -0.13835838  0.14184602 -0.05779486  0.09262679
 -0.18161468  0.04956662  0.12466907  0.09352019  0.15562771 -0.00888059
  0.2861468   0.124626  ]
[-0.08915713  0.01299458  0.1596843   0.13160259  0.18451872  0.0375036
  0.1903728  -0.14715815  0.09138243 -0.23580721  0.11321315 -0.09060454
 -0.28177166  0.2638701  -0.18569358  0.10841808  0.01072777  0.08520475
 -0.2724489   0.09488498]
[ 0.17901634  0.02077881  0.07792298 -0.00417833  0.03849467 -0.19414681
 -0.16605987  0.229999    0.0240508   0.01077978 -0.1896424   0.07678764
 -0.05467786  0.06544223  0.19079794  0.05365647 -0.01729858  0.0968748
  0.01535807 -0.08730491]
[ 0.29534873 -0.0826646  -0.00186913 -0.03859347 -0.13247536  0.04096137
  0.12720849  0.21416865 -0.01845565  0.13822463 -0.23165059  0.1864301
 -0.10240597  0.0887719   0.22829124  0.14717866  0.08107814  0.08677606
 -0.08225504 -0.2731836 ]
[ 0.01959105  0.11056878 -0.08931789  0.05734342  0.06427384  0.0086777
  0.01588211  0.14586633  0.06848612 -0.25424114  0.1973384   0.00894887
  0.02190529 -0.02367128 -0.07581289  0.28695488  0.1640272  -0.09116883
 -0.06819374  0.2544404 ]
[-0.07358357  0.17858863  0.0270919   0.23233868  0.18714578 -0.21901411
 -0.04569352  0.2699391  -0.16734314 -0.01850386 -0.16223821  0.24736466
 -0.11542507 -0.16619012 -0.05694016  0.05130646  0.02271664  0.17845689
  0.12745453 -0.09774332]
[-0.26467276 -0.2286903  -0.14227249  0.09099156  0.03080243 -0.00197884
  0.20683703  0.03149352  0.13122031 -0.21188365 -0.04579125 -0.21058692
 -0.15063962 -0.07541648 -0.15383354  0.15641429  0.04766343 -0.15935199
  0.16850254 -0.1728681 ]
[-0.12115033  0.15276279 -0.18897268 -0.23178653  0.2121135  -0.00788004
 -0.1825882  -0.07304602  0.18678197 -0.11905983  0.04840122  0.18998338
 -0.1663097   0.18115158 -0.14149632  0.07885429 -0.06260381  0.11579125
 -0.03903529 -0.24260542]
[-6.47873944e-03  1.03586026e-01  2.09949139e-04  1.49171539e-02
 -1.76158585e-02 -6.79446608e-02  1.66666240e-01  1.00878328e-02
 -5.13331518e-02 -1.08254932e-01 -7.87155479e-02  1.39735863e-01
  1.66589126e-01 -1.63369164e-01  1.26351982e-01  5.20293899e-02
 -2.28254899e-01  2.20316887e-01  1.28122285e-01 -1.38590768e-01]
[ 0.11139923  0.06604432  0.17132065  0.14868262  0.11587729 -0.20442475
 -0.0069609  -0.01562741  0.11011145 -0.13097487  0.26293376 -0.03236362
 -0.02705698  0.12456559 -0.13512896  0.21959946 -0.19459693  0.03393621
 -0.05701269 -0.21054657]
[-0.06508484 -0.0903566  -0.11154027 -0.04864168 -0.13576208 -0.15068805
 -0.09448709  0.28616798 -0.04865688 -0.2240682   0.00815571  0.07335438
  0.045158    0.07237609  0.12096028 -0.1022227  -0.12188767  0.04194623
  0.05724598 -0.03956084]
[ 0.1899041   0.20432855  0.18702303 -0.18323466 -0.18138288 -0.03816109
  0.03120277 -0.17426503 -0.16231616 -0.12376835 -0.29026166 -0.18984722
 -0.11932018  0.20322135 -0.07241113 -0.10825013  0.2964797  -0.10956421
  0.07340331 -0.04965683]
[ 0.20441501  0.12221742 -0.17299053  0.16777836 -0.2749972   0.07313426
  0.13908586  0.04195891  0.15018268  0.09035555 -0.04564994 -0.01661576
 -0.09706666  0.04250218  0.0300191   0.25033164 -0.10919542  0.10183372
  0.18455717 -0.16366614]
[ 0.23657788 -0.03623582 -0.19746397 -0.12277373  0.03830111 -0.06561974
 -0.26972574  0.01262267  0.1695628  -0.0357295  -0.02917363 -0.10294835
  0.25693676 -0.03296203  0.20964089  0.0320992   0.11147898  0.15528677
 -0.21455003 -0.20657815]
[ 0.28344896  0.13375238  0.00328021 -0.14905079 -0.03137793  0.01440633
 -0.10426372 -0.33022317 -0.17820819  0.02248897  0.12967418 -0.24323818
 -0.01788653 -0.17607775  0.03211026 -0.13900018  0.14986502  0.04297293
  0.22959729  0.2657115 ]
[-0.23959005  0.06419735 -0.13480319 -0.01010812  0.25236723 -0.01648636
  0.2709511  -0.0235473  -0.06509564  0.10536015  0.13739413  0.17281638
  0.04830721 -0.184192   -0.19927742  0.14364488 -0.01713532 -0.2823894
  0.2627641  -0.05505851]
[ 0.16869628  0.15245914  0.09171846 -0.08004658  0.12746471  0.30627552
 -0.12257463  0.25123826  0.08345904  0.24434872  0.08667061  0.11910575
 -0.03343513  0.2362043  -0.25295898 -0.11984718 -0.16015282 -0.28654602
  0.05384189 -0.21153626]
[ 0.14720693 -0.14933506 -0.19901438 -0.28282127  0.06114922  0.08833548
  0.19721937 -0.18138666  0.00475793 -0.04350913  0.11839214  0.11283705
  0.16141099 -0.24095209  0.264267    0.11497312 -0.03154838  0.17704551
  0.15923235  0.12336975]
[-0.04648984 -0.11347821 -0.06401077 -0.2271022  -0.03583273  0.30314076
 -0.06171151  0.01722807  0.13757358  0.28931475 -0.38584107  0.13348901
 -0.1729296  -0.06291499  0.00979671  0.00443807 -0.1546802  -0.15403828
  0.14747486 -0.1320707 ]
[-0.07146432  0.12086024  0.16421361 -0.1438581  -0.01975129 -0.17318627
  0.00768064  0.19287507 -0.13389406 -0.09914871  0.11149252  0.20760044
  0.13392392  0.11172023 -0.2019332  -0.1423307  -0.03890095  0.06117184
  0.0911953   0.18869613]
[-0.20077682  0.00913528 -0.3168028   0.07951772 -0.14318515  0.1363463
  0.23740597 -0.11946253  0.20614551  0.08958895  0.18799849  0.27649984
 -0.06745313 -0.08432049 -0.20180757  0.01266392 -0.01597389  0.14549519
 -0.06402317 -0.11523244]
[-0.02126465 -0.23810624  0.01660326  0.10101995  0.088811    0.0096159
  0.11958349  0.06904495 -0.02746895 -0.12926245 -0.0176049  -0.17148955
 -0.20773621 -0.14777413 -0.04799401  0.06224408  0.16739242  0.05867904
  0.05463284  0.10481239]
[ 0.25764194  0.02219048 -0.0283286  -0.01005753  0.12273434 -0.00355962
 -0.18667509 -0.09039439 -0.04475164  0.07514212  0.10325641 -0.08612059
 -0.09536531  0.07510336 -0.15290634 -0.16112149 -0.01474405 -0.13734487
  0.16045862 -0.13050099]
[-5.96729992e-03 -1.01393205e-04  1.69292428e-02 -7.22352136e-03
  2.05565002e-02  8.87763277e-02 -1.24900844e-02  1.87442545e-02
  5.61108291e-02  5.16730919e-03  5.50842211e-02  1.33316601e-02
 -1.42530389e-02  1.19050238e-02 -1.24129083e-03  2.79547712e-05
 -2.84154657e-02  2.20153660e-01  1.17187157e-01  3.86424661e-02]
layer 5 Activation
tanh
layer 6 Dense
20 1
[0.00120063]
[-0.00854925]
[0.00161613]
[0.01103448]
[0.01197901]
[-0.00260859]
[0.00480427]
[0.01256368]
[-0.00043944]
[0.01906253]
[-0.01083722]
[-0.02591961]
[0.00299052]
[0.0077616]
[0.04621425]
[-0.00105157]
[-0.01397626]
[-0.00483714]
[-0.00482901]
[-0.01928972]
[0.01192149]
