layers 7
layer 0 Dense
20 20
[ 0.05430377  0.52169204 -0.18472645  0.48561165  0.01062279  0.35753754
 -0.17694525 -0.36210227  0.19466926  0.19339974  0.18811712  0.09920012
 -0.67309856  0.37143102 -0.65444565  0.2886708   0.81659603  0.29889318
  0.44318312  0.07848745]
[-0.12486882  0.22079521 -0.26679075  0.39750922  0.4080009  -0.12191039
  0.22523302  0.22611384  0.165951    0.07637182  0.66674125  0.38501903
  0.10177348 -0.0349777  -0.9397602   0.07762454  0.28264782  0.05390481
  0.49724892  0.12634909]
[ 8.05655569e-02  1.02618337e-01 -3.03358078e-01 -2.85714686e-01
 -1.32093483e-05 -6.82450116e-01  1.10145800e-01  3.81353259e-01
  4.23713595e-01  4.03327912e-01  6.38608336e-01 -2.35044323e-02
 -4.25921053e-01  3.59083898e-02 -4.70266193e-01  5.55227280e-01
  8.96891356e-02 -1.14307575e-01  5.40543079e-01  6.96712434e-02]
[-0.16457704  0.3010196  -0.20474803 -0.03289669  0.53743744 -0.18599248
  0.34632143 -0.2152367   0.39320064 -0.3584852   0.03920857 -0.20881632
 -0.01899329  0.66030973 -0.11137294  0.5450654   0.5972818   0.28529024
  0.13828534  0.09944752]
[-0.20660485  0.0708385   0.7790659  -0.41854236 -0.62537575 -0.02756523
  0.56657726 -0.33721185  0.31555885 -0.154779   -0.29325703 -0.3343982
 -0.14893052 -0.03497876 -0.17874932 -0.13925521  0.13910164  0.322867
 -0.69664866 -0.0504439 ]
[ 0.44958043 -0.6052447   0.08483608 -0.21614562 -0.41228226  0.9298843
 -0.33840907 -0.0139283   0.41969603  0.13981463 -0.4267039  -0.32972175
  0.3930473  -0.01676202  0.27024937 -0.3134595  -0.312548    0.08308779
 -0.4553861   0.57424283]
[ 0.3558072  -0.27539304  0.32979837 -0.15227136 -0.2962196   0.53139776
 -0.50738716  0.1958398  -0.06981262 -0.03465246 -0.21484841 -0.12388942
  0.1834875  -0.32222483  0.5619682  -0.46749765  0.32303217 -0.03735685
 -0.609952    0.5342956 ]
[ 0.22109374  0.07146025 -0.3313601  -0.21089987 -0.2805416  -0.1454904
 -0.0225035  -0.05278766 -0.6254411  -0.21656193 -0.4257529   0.1210553
  0.4859624   0.08288117  0.01706481  0.25554478 -0.35788912 -0.01437597
  0.36880153 -0.2921601 ]
[-0.4759586   0.23844586  0.49893868  0.00722309 -0.20878278  0.16215694
  0.6572282  -0.31259948 -0.11271994  0.10289408 -0.7290129   0.084338
  0.49162474 -0.74022746  0.4427508  -0.14602998 -0.28732654 -0.1150221
  0.28333437 -0.56700516]
[ 0.148918    0.62073797  0.50010335 -0.53554696  0.1405023  -0.17568862
  0.56658477 -0.4262702   0.27737406  0.6205404  -0.26664254 -0.8834415
  0.6162151  -0.39675328  0.5726754   0.51753086 -0.36618188 -0.7665597
  0.15426251 -0.85679126]
[ 0.07869822  0.35094145  0.10009173  0.14225951 -0.36664188  0.19431423
  0.13434026  0.04111281 -0.15818791  0.02199846 -0.24965894 -0.28087524
  0.50463873  0.23176281  0.05835547 -0.42686084  0.25887907 -0.18739991
 -0.10138393 -0.2762184 ]
[ 0.41685712 -0.41482443  0.5836      0.26107487  0.34422898  0.24572742
 -0.53920406  0.878472   -1.2008971  -0.23557849  0.573638    1.4587196
  0.7329055  -0.67872244  0.94256204 -0.32554352 -0.85466605  0.33047977
  0.54407525  0.08200259]
[ 0.16573198 -0.47731    -0.02986307  0.03753133 -0.5145134   0.1876051
  0.04672838 -0.2971778  -0.36844125  0.04766898 -0.6771381   0.02405497
 -0.54578394 -0.35316825  0.2664502  -0.25947702 -0.23307422  0.06121856
 -0.30465528  0.1633427 ]
[-0.5113926  -0.14233348  0.34733346 -0.33593404  0.45275408 -0.48883253
  0.09949608  0.06352808  0.06813861  0.30606738  0.23802954 -0.3008557
 -0.3828138  -0.5145989   0.40122092  0.09009439  0.08293571 -0.28819135
 -0.03340951 -0.6239979 ]
[ 0.21603803 -0.04287526 -0.46866867 -0.06404793  0.5797194   0.308971
 -0.25891533  0.88014954 -0.100214   -0.5677112   0.04572752  0.24909388
 -0.34067768  0.11621575  0.16090809 -0.33362296 -0.50172716  0.32041988
  0.42172658  0.5518329 ]
[ 0.11497466  0.0120996   0.5352467   0.46863306 -0.13996187  0.14859353
 -0.49209046 -0.48057505 -0.85217804 -0.23793851 -0.5754021   1.0632629
  0.18052879 -0.36041716  0.29953745 -0.8085065  -0.39447308 -0.38531286
 -1.2764419  -0.12855661]
[ 0.03548477  0.580185    0.6222299  -0.26992613  0.11130537 -0.43393975
  0.11685605 -0.12669247  0.6881486  -0.03681006  0.98109573 -0.24614277
 -0.34013644  0.7369752  -0.25633234 -0.05779785  0.8834983  -0.20849551
 -0.04565412 -0.08061697]
[ 0.37874466 -0.08777538 -1.5174099   0.88815826 -0.44606972  1.0769665
 -1.9462742   1.3819063   0.07745308 -1.3402319   0.18055682  1.4273443
 -0.54687685  0.5623405  -0.93049717 -0.10423905 -0.29760244  1.3627697
 -0.9958938   1.8310809 ]
[-0.16635786 -0.08446342  0.8946124   0.23733975 -0.2168405  -1.0326551
  0.54713684 -0.65821135 -0.25207138  0.48020703 -0.37645218  0.36244264
 -0.24001954 -0.6705001  -1.1031065   0.883451    0.06954511 -0.4925748
 -0.7703815  -0.4285589 ]
[-0.49050942  0.25303274 -1.0614775  -0.0148805   0.5136419  -0.7949307
  0.43307438  0.03751945  0.53216517 -0.18241304  0.63554585 -0.8722287
 -0.2706608   1.0400454  -1.0309497   1.105897    0.8454434  -0.00885346
  0.97009385  0.32860583]
[ 0.05774051  0.09814654 -0.19772628  0.13546346  0.14656745  0.22171307
 -0.08683503  0.16880159  0.15434006 -0.12353837  0.13598911  0.04498863
 -0.03239372  0.13809097 -0.12161009  0.28956532  0.17170803 -0.02832364
  0.20430149  0.10284026]
layer 1 Activation
tanh
layer 2 Dense
20 40
[-0.1838531  -0.18552798 -0.14743109 -0.05273883 -0.257468   -0.06954096
 -0.05303483  0.5908448   0.19483931  0.33049726  0.28511828  0.1530807
 -0.25465405  0.15618485  0.44902465  0.28447706  0.16172077 -0.21096234
  0.20331107  0.3077084  -0.43204755  0.07835395  0.00255728  0.2968152
 -0.10047551 -0.39362302 -0.16238411 -0.00060064 -0.3312375   0.2234065
 -0.2609553  -0.06081788  0.13730702  0.1355986  -0.05769379 -0.21296379
  0.30010134  0.2602832   0.08567678 -0.20983772]
[-0.0658366  -0.04434149 -0.07848118 -0.18962412 -0.16123317  0.0567012
  0.1941367   0.60317814  0.00442226 -0.17520864 -0.4267839   0.44276845
  0.08640438 -0.18147375  0.07175259  0.124816   -0.16208825 -0.12840407
 -0.31537858 -0.3529768   0.04368404 -0.06873784 -0.31322026 -0.16552602
 -0.27731657 -0.00590792  0.13291273  0.21670133 -0.05444016 -0.32498017
 -0.12573777 -0.00326637 -0.12933756 -0.07473112 -0.09959069  0.06629308
  0.20859276 -0.02690046  0.03300598 -0.11073301]
[-0.19127864  0.33798787  0.07474126  0.5048668  -0.08686608 -0.4573881
 -0.10462104 -0.23447612 -0.33545473 -0.1646273  -0.17141125 -0.11126429
 -0.13452648  0.23232861 -0.7897801  -0.6517708  -0.01197429  0.8681843
 -0.8022429   0.3261977  -0.66825557  0.36575258  0.4018342  -0.7139309
  0.09909827  0.44040477  0.10076743 -0.19924958 -0.29657182  0.38563752
  0.64695376  0.03180519  0.19301723 -0.10843384  0.03139151 -0.46140248
  0.06845964 -0.34839845 -0.6032528   0.33720693]
[-0.15374556  0.12283638  0.09828095 -0.20593852  0.18191165  0.3100727
 -0.2732675   0.420092    0.23979363 -0.15264684  0.21879825 -0.09119654
 -0.211231    0.18386813  0.23095858  0.16079848 -0.3490301  -0.35393956
  0.32739237  0.10394405 -0.32616276  0.07779755 -0.2618101   0.10017375
  0.6161907   0.24382137  0.14536385 -0.02286378  0.32972297  0.45034403
 -0.34262338  0.08739279  0.00988895  0.37020248  0.20329507 -0.27608573
 -0.47518343 -0.07466546 -0.19738789 -0.12689906]
[-0.0632225   0.05723319 -0.07662862 -0.24785256  0.27377766  0.21704243
  0.22596677  0.11855382 -0.14110485  0.08321307  0.17518371  0.19109412
  0.23704281 -0.2187185   0.41924724 -0.1781173  -0.02498657  0.10013361
 -0.05619027 -0.18715896  0.19992597  0.19123596 -0.11834618 -0.12860715
  0.09464213 -0.5306466   0.11869644  0.18972708 -0.15746169 -0.50880224
 -0.05449775 -0.23914868  0.02911683 -0.4401415  -0.21479188  0.2570679
  0.4669784  -0.04237535  0.28094938  0.2908952 ]
[ 0.07157169 -0.05736494  0.02077845  0.21532442  0.27997398  0.20589542
  0.20978248 -0.22229911  0.06792299  0.30568674 -0.16964462 -0.04893705
 -0.03874573  0.0053056   0.0810509   0.13277654  0.1561865  -0.4523252
  0.13312215  0.39662334 -0.34399042  0.0978931   0.194321    0.19846267
 -0.2603313  -0.38090268 -0.12916832 -0.08103254  0.1621005   0.26530808
 -0.22873405 -0.02980259 -0.36186382  0.16400334 -0.16184598  0.3513105
 -0.04395867 -0.12211981  0.20161052  0.10095827]
[-0.20333087  0.36129168  0.09627539 -0.22426362 -0.3876401  -0.06389791
  0.12991633  0.3535675  -0.22497123 -0.33092642 -0.18543671  0.35510403
 -0.10132541  0.1161467  -0.6010236  -0.55716425 -0.00109259  0.561563
 -0.80631834  0.24610841  0.27460065  0.25909084  0.22511105 -0.5668976
 -0.36078346  0.20188087 -0.12722915 -0.06959204 -0.4267756  -0.32887003
  0.22637971 -0.07065697  0.26226324  0.29797247  0.05009728 -0.46505076
  0.06763913 -0.1447991  -0.480539    0.3793304 ]
[-0.1668908  -0.32015315 -0.21055962  0.23991597 -0.21263169  0.20645557
 -0.24388015 -0.44547176 -0.14154305 -0.299365    0.05475163 -0.24116701
  0.11624753 -0.04438373  0.46315426  0.82309943 -0.08501253 -0.28267866
  0.38014296 -0.02941689 -0.08913285 -0.1560551  -0.40721634  0.47736526
 -0.75274575 -0.4662098  -0.269104   -0.28936675  0.30117813  0.01642893
 -0.2842435   0.10705177 -0.5434156   0.12613001  0.24856001  0.06788132
 -0.16049935  0.04115749  0.51141447 -0.00590074]
[-0.337383   -0.41707355 -0.22406316 -0.5248137  -0.36881992 -0.22853155
 -0.46240753  0.7890783  -0.0456763  -0.30707586 -0.36683846  0.34420815
  0.15074024 -0.3361617   0.20290272 -0.24225326 -0.07113527 -0.03772436
 -0.45424768 -0.14216267 -0.0505497  -0.50789726  0.14592837 -0.1615469
  0.12941207 -0.03143752 -0.07974607  0.00479219 -0.02015588 -0.48242533
 -0.21539295  0.03005731  0.09204149 -0.72107714 -0.43236727  0.24258819
  0.03549708  0.12010475  0.29980412  0.1501066 ]
[-0.15993291  0.50368536 -0.11967959  0.17028217 -0.24601448  0.01528068
  0.16560167  0.3862574  -0.16407637  0.08537792  0.2133107   0.17287949
 -0.02345988  0.09185927 -0.2992924  -0.16741028  0.15998235 -0.14872189
 -0.29665393  0.19804057  0.4418352  -0.12520832  0.07096547 -0.22774939
  0.01256401  0.5421954   0.27369326  0.08760032 -0.43017256 -0.1717802
  0.23037711 -0.12677889  0.2195612   0.15890247 -0.06593376 -0.35944456
  0.0269622  -0.02419373 -0.04423828  0.31120157]
[-0.20071128 -0.27963302 -0.20427881 -0.23816098 -0.42918575 -0.01209664
 -0.38317385  0.41256493 -0.06336978 -0.03297808 -0.44709182  0.4716062
  0.17132294 -0.14456296  0.14120173  0.34200972 -0.35784045  0.03101894
  0.34532768 -0.15481585  0.24533504  0.00879077 -0.34430027  0.21970294
  0.03721065 -0.36489925  0.09361444  0.15218702 -0.06277297 -0.01079722
 -0.15566923 -0.18868914 -0.35494715 -0.6485806  -0.3524261  -0.04853933
 -0.08520085  0.2943754  -0.02478211 -0.2030724 ]
[-0.00993472  0.05231354  0.26044518  0.59775496  0.10727192  0.50511825
  0.11885304 -0.4154549  -0.12938292  0.39012557  0.18478522 -0.2731945
 -0.05571291  0.2759558   0.49507225  0.53905016  0.3971381  -0.3078045
  0.28608412 -0.33252537 -0.8226794   0.09894771 -0.22634043  0.2856525
  0.29745716 -0.31673697 -0.22844934 -0.65435994  0.797881    0.24624777
  0.10801555 -0.01416626 -0.21222225  0.18603459  0.65717185  0.36025307
 -0.35146457  0.02490691  0.65721095 -0.09132711]
[ 1.04696713e-01  4.47162777e-01  1.17556527e-01  3.26405853e-01
 -1.17750056e-02 -3.52228165e-01  6.95242137e-02  1.78828478e-01
 -4.68540527e-02 -1.40712142e-01  5.37278414e-01 -1.15619324e-01
  1.67347714e-01 -2.06117883e-01 -7.22861513e-02 -2.35742584e-01
  2.59562612e-01  1.89360201e-01 -2.80680865e-01 -1.55060649e-01
 -1.80151537e-01  8.65795687e-02  4.20245975e-02  1.60626799e-01
 -5.73480129e-01 -5.18486261e-01  1.33867189e-01 -4.47785336e-04
 -5.16313314e-01  6.20197468e-02  5.94674468e-01  8.52369592e-02
  1.88280508e-01  5.38251996e-01  2.34148189e-01  1.24454305e-01
 -1.08949743e-01 -2.05843598e-02 -4.20693196e-02  2.76266664e-01]
[-0.05798255 -0.25339168 -0.19091903 -0.6006418  -0.506689    0.2254801
 -0.12805286  0.44254276 -0.12234738 -0.16470568 -0.20010924  0.08204374
  0.18235345 -0.3413183   0.14625925  0.48513392 -0.031964   -0.4265139
  0.6001283  -0.23580615  0.0503338  -0.22433549 -0.16739921  0.01677283
  0.0838056  -0.6486299  -0.3681147  -0.32277852  0.32614568 -0.3770011
 -0.45365182 -0.11312167 -0.22829168 -0.60878164 -0.3125425   0.39097062
 -0.12564412  0.08405259  0.0859872  -0.09540968]
[-0.14598846  0.6512698   0.33797365  0.43077722  0.11485127  0.36721477
  0.01376637 -0.59346503  0.06155929  0.23671524  0.70135266 -0.44246566
 -0.18621056  0.44687384 -0.38976    -0.12288771  0.14402778  0.4326261
 -0.15045893  0.01421454 -0.07941084  0.23036805  0.03473887 -0.17903295
 -0.1283556  -0.7684175   0.16673763 -0.1325383  -0.06578991  0.30598405
  0.5341639   0.204516    0.26042634  0.369734    0.30148122 -0.23182847
 -0.2940559   0.07129132  0.16484071  0.13161999]
[ 0.02204168 -0.16543515 -0.05773124 -0.27824628 -0.4598381   0.14399809
  0.08635245  0.40637785  0.02429784  0.17910992 -0.22900887  0.5112811
  0.01295645 -0.14850229 -0.05608022 -0.29183096 -0.27252105  0.06147417
 -0.18626246 -0.20181595  0.41082507 -0.06370746  0.08738319  0.02402888
  0.123144    0.5519392  -0.05740166  0.09255407 -0.4020507  -0.63144386
 -0.4736812  -0.19223168 -0.34843555 -0.27999222  0.06264324 -0.14851691
  0.6237383   0.23664989  0.22962537 -0.22411974]
[ 0.17429098 -0.42225802  0.08181088 -0.4937158   0.08822481 -0.2584527
  0.13210624  0.29847854  0.09013421 -0.33170405 -1.0605645   0.08948465
  0.07335717 -0.29119343 -0.07587039 -0.23151235 -0.44859132  0.04180079
  0.3363751  -0.08488864  0.10679972 -0.04240841  0.37061352  0.38190374
  0.29085347  0.06495833 -0.15943891 -0.31806615  0.00559617 -0.65646523
 -0.5221818  -0.08724356 -0.298987   -0.19793119 -0.2008348  -0.12077662
  0.28981054  0.16734874 -0.4622688  -0.11098696]
[ 0.05105179 -0.39494962  0.2609274  -0.14005892 -0.31447092  0.06299234
 -0.06532024 -0.07175092  0.052773    0.28654435 -0.39466366  0.0648132
 -0.20318142  0.22660612  0.08673068  0.17970736  0.18438137 -0.11062388
  0.3289514   0.199101   -0.04081723  0.28421423 -0.05581809 -0.02849678
 -0.16495487  0.00327216 -0.1591076  -0.1957929  -0.02586817  0.43036592
  0.06428492 -0.08183264  0.0305419  -0.00800507  0.10170862  0.19828403
 -0.30323973 -0.05818928  0.21606515 -0.03864025]
[-4.4444585e-03 -4.2822796e-01  1.1652279e-01 -2.7462259e-01
  1.5461918e-02 -1.6731796e-01 -8.6896643e-02  5.5409640e-02
  1.3166012e-01  7.0516937e-03 -7.1525609e-01  3.0900639e-01
  2.6211685e-01  3.5017092e-02  1.9441718e-01  1.4964470e-01
 -5.1442958e-02 -4.0735540e-01 -7.6942116e-02  3.3815181e-01
  5.6908488e-01 -7.7132450e-04  1.5567875e-02  6.5602310e-02
 -8.3824909e-01  3.6139965e-01  9.3314320e-02  2.2027869e-02
 -5.4068234e-02 -3.9678985e-01 -2.4325106e-02  3.6318425e-02
 -8.3157860e-02 -2.7251181e-01  3.9217791e-01 -3.2846283e-02
  5.2622092e-01 -1.3888210e-02 -5.7568975e-02  1.2558097e-01]
[-0.12368777 -0.40833753 -0.1690917  -0.1527654   0.06813048  0.5049777
  0.09963031  0.14497904  0.23305692  0.22304447  0.15646806 -0.463898
 -0.04565302 -0.1515562   0.18915878  0.07802726 -0.20549451 -0.44372252
  0.02221292 -0.20232232 -0.32026675 -0.1211546  -0.17946328  0.36930797
 -0.10770819 -0.35731974 -0.14989525  0.22315738  0.643097    0.1781112
 -0.2962522   0.0226235  -0.3941495  -0.54249275 -0.09044019  0.04943629
 -0.529634    0.10604239  0.2475375  -0.23185478]
[-0.05746533 -0.15837286 -0.15082647 -0.30388945 -0.28862134  0.0282685
 -0.02483755  0.47600836  0.13612431  0.03572373 -0.00711322  0.10594966
  0.05628702 -0.1381646   0.19330041 -0.02893163 -0.00339384 -0.15919168
 -0.03252853 -0.07072506  0.18178156 -0.13987318  0.02742384 -0.02171933
  0.34818155  0.08274348 -0.07659193  0.22218531  0.1139393  -0.290424
 -0.22093683 -0.08758894  0.02076881 -0.5371992  -0.40895966  0.05131611
  0.16261265  0.09306508  0.17436214 -0.06548151]
layer 3 Activation
tanh
layer 4 Dense
40 20
[ 0.04981115 -0.13993308 -0.13013059 -0.0723738  -0.16010408 -0.06466246
  0.10722678  0.19896603 -0.04637644 -0.2412333  -0.03036643 -0.05266036
  0.00327938 -0.00373898  0.23200129  0.24720341 -0.05212512  0.314728
 -0.1168502  -0.10211794]
[-1.4896773e-01 -2.2083100e-02 -2.6666367e-01 -3.0354705e-01
 -4.6605621e-02  2.2300869e-01  7.3602341e-02  2.4984281e-01
 -2.9196793e-01  3.3827215e-02  4.6846853e-04 -2.8091654e-01
 -3.1213248e-01 -1.4811806e-01 -3.2034092e-02  2.4668045e-01
  6.0314932e-03 -4.8411962e-01 -2.9066876e-01  3.8340113e-01]
[ 0.11190777 -0.13472113 -0.16943021  0.05199538 -0.02827223  0.02299547
 -0.1801044  -0.10611644 -0.24883005 -0.09014618 -0.24917223 -0.05528329
  0.18594813  0.06027676  0.08102074  0.3739931   0.03551344 -0.16798174
 -0.05866991  0.17004678]
[ 0.14250581 -0.53098804  0.04007076 -0.3768304  -0.04694127 -0.27230808
  0.20963037 -0.09595603 -0.10684828  0.11231658  0.28135872  0.03007635
 -0.5293587   0.327567    0.1387282   0.06419211 -0.3819207  -0.04090509
 -0.09054587  0.67301667]
[ 0.04715239 -0.2959997  -0.19159876  0.27082747 -0.17949346  0.24296658
 -0.1020852  -0.13474052  0.077492   -0.15459143  0.03088412 -0.02409913
 -0.17937839  0.18879691  0.02569578  0.25603014 -0.17175701 -0.03129004
 -0.13248847  0.09804902]
[ 0.15156597 -0.0545712  -0.02242476  0.44009942  0.18998837 -0.41936412
 -0.21506727 -0.3637586   0.02190543  0.05162923  0.08993579  0.09973321
 -0.0674599   0.19251397 -0.14672479  0.04478367 -0.10884546 -0.01915659
  0.34132165 -0.02694634]
[ 0.16717671 -0.1686432  -0.16742721  0.17414573  0.20411608 -0.07796154
  0.35846603 -0.20450728 -0.01740546  0.11242465 -0.02911964 -0.18819532
  0.01474126 -0.1785466   0.07423025  0.19116692  0.0443402  -0.18032601
 -0.02393762 -0.09988936]
[ 1.23060115e-01  4.94879574e-01 -1.25496730e-01  2.46666893e-01
  8.75191297e-03 -2.67834306e-01  1.60074651e-01 -1.25957534e-01
 -1.26327872e-01  6.24780469e-02  4.34721559e-02  1.57182038e-01
 -1.52483257e-02  1.69295236e-01 -2.41867658e-02 -3.18397552e-01
  1.21885568e-01 -3.77165212e-04  8.99881532e-04 -3.71931225e-01]
[ 0.28666648  0.2256211  -0.11374582  0.18532398 -0.2480631   0.03757897
 -0.1667172  -0.06380431 -0.3587445  -0.15965933  0.17163531 -0.0047247
 -0.04070695  0.39305842 -0.04524265  0.22038709  0.02416606  0.28054655
 -0.04432489 -0.08177628]
[ 0.05155415 -0.1664868  -0.25552097  0.09044938 -0.35642835  0.03002102
 -0.16582169 -0.05867805 -0.28383622  0.04163752  0.11613017  0.14638089
 -0.20334578  0.17398742 -0.29371223  0.14139271  0.18051316 -0.12895721
 -0.12706012 -0.23471631]
[-0.14220697 -0.18069014  0.25039116 -0.19122817 -0.033976   -0.0947583
  0.21666105  0.1593994   0.14539498 -0.11243685 -0.07957645 -0.1781362
 -0.5982572  -0.19818914 -0.38234013  0.16115122  0.0385715  -0.01627414
  0.25567916 -0.08045112]
[-1.1130200e-01  2.2973552e-01  2.2176735e-02 -6.1748937e-02
  1.1294924e-01  3.1954101e-01 -4.1424405e-02 -7.6692864e-02
  1.5934932e-01 -9.3840010e-02  1.1791859e-01 -2.5138488e-01
 -2.4526313e-02  8.5105821e-02  1.3770692e-01  9.7305402e-02
  1.9416516e-01  6.7948597e-05  2.0280425e-01 -2.8872627e-01]
[-0.13837601 -0.00259949 -0.08723305 -0.20515588 -0.02344591  0.12470088
  0.45284128  0.06113706  0.13720731 -0.11332478  0.13494956  0.04310947
  0.20254624 -0.1169061  -0.09507708 -0.24453543  0.0765923  -0.07965489
 -0.15598364 -0.11217566]
[-0.249758   -0.32881698 -0.08615588  0.00733674 -0.15902404 -0.25294566
 -0.40445587 -0.20561254 -0.2002046   0.16424787  0.05947977  0.16015303
 -0.17241096 -0.1580428   0.21503316  0.28783128 -0.35488737 -0.07005826
  0.23313153  0.2962518 ]
[ 0.5492497   0.02134679 -0.2163813   0.57978237  0.01544907 -0.11244591
  0.21279092  0.07104748 -0.24369958 -0.06387896  0.04088991  0.2117173
 -0.2515148  -0.03150519 -0.3885968  -0.06720413  0.03190129 -0.12677617
 -0.20687492 -0.20439275]
[ 0.40937945 -0.14386508  0.28456968  0.3160269  -0.38271144 -0.30113542
  0.21969175 -0.08172312  0.31570002  0.1559526  -0.29409933  0.28283486
  0.04202324  0.31396857 -0.14899226 -0.0142486   0.12539276 -0.02765767
  0.16462615  0.21403347]
[ 0.04528861 -0.26951447  0.05867457 -0.06168593 -0.20638666  0.02209767
  0.09326148 -0.03702274 -0.14359929  0.11870981 -0.07416075 -0.00919835
  0.03859962 -0.32823065 -0.2526485   0.02244476 -0.08946642 -0.25641477
 -0.06166046 -0.03663445]
[-0.60416555 -0.07541201  0.22801955 -0.53578514  0.07860823  0.16288479
  0.19024877 -0.06809416  0.04389913 -0.01838781 -0.24376175 -0.3080277
  0.1828499  -0.23066053  0.33156875 -0.00101095 -0.05534881 -0.2689963
 -0.09360361  0.2334611 ]
[ 0.22699516 -0.34517142  0.06570318  0.32365456 -0.36795497 -0.2753286
  0.0091713   0.06234369  0.09694786 -0.15992716  0.1822233   0.24476138
  0.06525276  0.19895566  0.09910437  0.01870169 -0.03654933  0.08390335
  0.252267    0.00993545]
[-0.17526124  0.14780706  0.30608317  0.21236067 -0.18401481  0.20711204
 -0.16479468  0.07195011 -0.39825788 -0.06588475 -0.04478838 -0.04056263
  0.02365457 -0.02630347  0.27061373  0.30240846 -0.13981321  0.14377375
 -0.02102342  0.24028988]
[-0.3084125  -0.10638514  0.0701132   0.08432044  0.14322874  0.35275596
 -0.11146494  0.09938836  0.37210894  0.0650682   0.15617633 -0.03260216
  0.26116782 -0.255746    0.09563845 -0.03971359 -0.19321817  0.07602227
  0.23821396 -0.45783916]
[ 0.10635982 -0.11766266 -0.12156157 -0.04840015  0.63075846 -0.17647924
  0.20547429  0.06674649 -0.10867665 -0.00887392 -0.14094485 -0.08645446
  0.10865945  0.24665327  0.15291514  0.11963737  0.09159582 -0.06475338
 -0.06013907  0.14190742]
[-0.48155317 -0.13124704 -0.04549589 -0.2951819   0.31923681  0.14922856
  0.05107209  0.26483318 -0.2946973   0.14703752 -0.00070235 -0.13295943
 -0.05935977 -0.21733347  0.5338365   0.14215818  0.03217036 -0.0883674
  0.14731558  0.1247013 ]
[ 0.19958831 -0.15154162  0.3030074   0.23460397 -0.06259676 -0.3353335
  0.06724944  0.18065867 -0.2019632  -0.07553905 -0.13423184  0.17366703
 -0.05604204  0.14671855  0.01935997 -0.25797746 -0.34843326 -0.00328759
  0.05787296 -0.05889488]
[ 0.2651455   0.04576927  0.14652951 -0.3669101  -0.0635969  -0.04021318
 -0.01287655  0.02114618 -0.13441242 -0.24595378 -0.03336872 -0.28744563
 -0.25702918  0.33121625 -0.45925742 -0.16792911 -0.10759543  0.0158926
  0.03242458 -0.19582851]
[ 0.188835    0.03879675 -0.25311083 -0.24410461  0.33516386  0.20750569
 -0.20092063  0.06511136 -0.10087855 -0.091391    0.11182912  0.256017
  0.1593318  -0.1525729   0.48781818 -0.14517537  0.2300979  -0.06925577
  0.10656501 -0.46894422]
[-0.20991614 -0.09823875 -0.02702804  0.0415567   0.17097023  0.19535956
  0.10644664  0.07902133  0.16694453 -0.12298419 -0.24981065 -0.15789579
 -0.20089743 -0.06845685  0.09469663 -0.08499391 -0.19843768 -0.05378326
  0.08276673  0.04420331]
[-0.11219355  0.16435507  0.12853678  0.0806556   0.17580599 -0.13393863
  0.28105503 -0.01703107  0.04059275 -0.07976069  0.13284002 -0.05390956
 -0.23860662  0.14179161  0.11193959 -0.20646445 -0.11899172 -0.11033494
  0.13461176 -0.18353567]
[ 0.32216015 -0.09878363  0.1448354   0.49329823 -0.19780295 -0.40877154
 -0.32537308  0.14947855 -0.07057793  0.05312812 -0.03766652  0.5147015
  0.23276232  0.31312537 -0.12373141  0.19261475 -0.13838841  0.43130872
 -0.08090313  0.2333174 ]
[-0.09272575 -0.04625801  0.2016062  -0.23111269  0.27208146 -0.12564872
 -0.23826776  0.01145396 -0.05412365 -0.02652353  0.04891986  0.31911078
 -0.15616474  0.17993428 -0.11708803  0.2890059   0.01597712  0.12573674
 -0.07308235  0.3479005 ]
[-0.17432564  0.17610633  0.11489937 -0.2708698   0.19818173 -0.0538095
  0.46857506 -0.33462638  0.04386593 -0.06874708  0.26943043 -0.34810063
  0.01905386 -0.13117878  0.13535547  0.02332363 -0.3066041  -0.3573683
 -0.17159589  0.34725627]
[-0.08157066 -0.03594244 -0.02549768 -0.1722919  -0.02169608 -0.01757547
 -0.09163734 -0.02109622 -0.05376491  0.10007051 -0.09238237  0.05580963
 -0.0600822   0.1177454   0.13835216  0.06184294 -0.11358975 -0.02825231
  0.18061247  0.00335667]
[-0.44815478  0.07269593 -0.16019158  0.06590343  0.12863582 -0.06185495
  0.08532312  0.09065266 -0.11367026 -0.14169158  0.2155783  -0.30845731
 -0.180436   -0.30385232  0.29266495 -0.19640434  0.03238282 -0.40188098
  0.0697021   0.07297405]
[ 0.02127259 -0.1536864   0.21011215 -0.12179663 -0.01535607  0.28122696
 -0.22438835  0.18912219  0.16592184  0.17442264 -0.08942249  0.3506853
 -0.4765887  -0.4557549   0.20100705  0.20935918 -0.2417282   0.20456654
  0.11256882  0.49805987]
[ 0.05522224 -0.14663108 -0.03481404 -0.06163806 -0.08997837  0.00251237
 -0.3408727  -0.05770372  0.0496408  -0.17296912  0.05680889  0.2712483
 -0.1822142  -0.06635696  0.00344395  0.3082328  -0.00730175  0.1847709
 -0.19249189  0.24941395]
[ 0.5101288   0.08413601 -0.16937838  0.28953654 -0.01842126 -0.34717983
  0.34951535 -0.1052206   0.14027403  0.18125698 -0.06918925  0.10607953
  0.13202709  0.24104945 -0.18648192  0.28178674 -0.10912216  0.22243208
 -0.00893596 -0.15471473]
[-0.18960959 -0.2726246   0.14537188 -0.01757738  0.21960108 -0.07228023
 -0.08327188 -0.0558424  -0.15540555 -0.09938232 -0.12217288 -0.20879245
  0.13767609 -0.22658609  0.16300672 -0.25028116  0.09495058 -0.12985204
 -0.04425006 -0.31550866]
[ 0.21480909  0.08288784 -0.14787753  0.30359402 -0.08235264 -0.24448037
 -0.12731081  0.22286254  0.12610203  0.12743752  0.10034589  0.00113513
 -0.12336102 -0.14155567 -0.18789497 -0.21169162 -0.10674834  0.14561056
 -0.15746774 -0.14143433]
[ 0.28198585 -0.4405881  -0.16538095  0.16703677  0.10316985 -0.1235166
  0.07200854  0.13809913  0.31666407  0.08689631 -0.1305568   0.26086977
 -0.2012843   0.1889972  -0.4039433   0.0609949  -0.05609982  0.04784181
 -0.12309843 -0.26213697]
[-0.05654745  0.1569118   0.12449934  0.00770309  0.22090545  0.2647811
  0.50365674  0.02450062  0.29412892 -0.0511854  -0.09171747 -0.14774123
 -0.00125878  0.09877277 -0.04133854  0.22064109  0.01878085 -0.48939404
  0.2667116   0.2381687 ]
[-2.5854513e-02  2.6312313e-04  4.4639479e-02 -4.3249603e-02
  1.2724161e-01 -1.1995600e-01  5.7606030e-02  1.3077356e-02
 -5.2871857e-02  6.4642876e-02  6.8098404e-02 -2.2875048e-01
  1.0773667e-01  1.3200757e-01 -1.8488933e-01 -3.1055722e-02
  7.1336381e-02 -4.8115846e-02  9.2533819e-02 -3.3633822e-01]
layer 5 Activation
tanh
layer 6 Dense
20 1
[0.00368465]
[-0.08292647]
[0.00106347]
[-0.05818998]
[-0.00480198]
[-0.05988786]
[0.00582059]
[-0.01207186]
[-0.04592184]
[0.02454992]
[-0.02215035]
[-0.0929601]
[-0.06985484]
[0.01532897]
[-0.06566866]
[0.01154231]
[-0.00081]
[-0.00011113]
[0.00191406]
[0.11856946]
[0.20034793]
