layers 7
layer 0 Dense
20 20
[ 0.07465526 -1.5366099  -0.87845826  0.45363343  0.21004067  1.3278811
 -0.35843402 -0.0642153  -0.04955564 -0.19327512  0.06419901 -1.0398139
  0.8774232  -0.45907232 -0.19466484  0.7888091  -0.696861    0.7268402
 -1.3974493   0.25447544]
[ 0.63166696 -0.10906021 -0.6637269   0.10695664  0.72582227  0.02753935
 -0.99613595 -0.2770639   0.46812832  0.4776782  -1.081724   -0.52963334
  1.1583511  -0.7505618  -0.42795557  0.3591944   1.3856467  -0.68797493
 -1.6463755  -0.86371195]
[ 0.5373072  -0.19544473 -1.2368637  -0.24792671  1.1098249  -0.15129206
 -0.6365885   0.4571794   0.7183831   0.29760525 -1.2546442  -0.23576379
  1.2470657  -0.65541005 -0.14473422  0.6922121   1.0284718  -0.7142194
 -2.04619    -0.9588848 ]
[-0.01391663 -0.87746984 -0.4495724   0.4081948   0.5959776   0.95048225
 -0.5465452  -0.1534145   0.57687736  0.35586953 -0.07135524 -2.017729
  0.748366   -0.74631923 -0.8565467   0.22424912  0.39427748  0.5218915
 -0.56558406  0.00252049]
[-0.27989846  0.84016067 -0.74244    -0.19844548 -1.3438336  -0.20110664
 -0.7697618  -2.7738352  -0.78562087 -1.0605307   0.2993104  -0.09495172
 -2.5772505   0.28079554  1.3501073   1.4445173  -1.3481344  -0.40623587
  1.2762415   0.29087967]
[-0.5932455  -0.85713106  1.4429327   0.54186565 -0.4918086   0.68207085
  1.2227727  -0.43678924  0.15750146  0.2094159   0.20876005  0.05906961
 -1.0329787   0.6664235   0.91788024 -0.31356436 -0.35189226  0.04735157
  2.0282104   0.7550946 ]
[-0.7020027  -1.1500804   1.2188562   0.1152961  -0.08672263  0.47670236
  1.1905996   0.26646498 -0.52516735  0.33890665  0.45988888 -0.65727687
 -0.8603864   0.49976772  0.8747565  -0.46975094 -0.58635783  0.35607234
  1.9278699   0.99584746]
[ 0.07779133  0.34995154  0.5003683   0.19308977 -0.13623007 -0.12448766
  0.52794963  1.2618712  -0.08206708 -0.21676138  0.5686968   1.0846832
  0.8721737   0.48131105 -0.5690536  -0.49326634 -0.64858985  0.13339585
 -0.05602762 -0.2703599 ]
[-2.0643158  -1.198825   -0.5970142  -0.9757048  -0.656509   -1.4422233
  0.04476522  0.15839757 -0.49448556 -0.15879758  0.8917954   0.23823498
 -0.48858234  1.7161303   0.7347606   0.9764877  -1.0161927   2.7473767
 -1.5903358   1.0694679 ]
[-1.4636608  -0.49934354  0.48469958 -1.2195184   0.8299975  -0.9950635
  1.150949   -1.0456752   0.7241791   0.08948204  1.6004146  -0.12192798
  1.4103581   0.03549446  0.26909456 -0.03949858 -0.5408088  -1.2820654
 -0.34804165  1.7152138 ]
[-0.111967    0.90503293 -0.87909985 -0.3577462  -0.6627349   0.984648
  0.01580765 -1.4087133  -1.1683161  -1.0828867   0.87118137  0.263142
 -0.27074414  1.2557858   2.7763124   1.6050161   1.3343295  -0.14451721
 -0.00741558 -0.2917928 ]
[-2.014546   -0.6778662   1.1109087   1.2505666   1.0025167  -0.7316597
 -0.291588   -0.49964526  0.81207114  0.65743923  0.40289176  0.40593156
 -0.67547643  1.4872969  -0.12034267  0.52717423 -2.6438487   4.171666
  0.6898566  -0.04050771]
[-0.19340394  1.011984   -0.91840094 -0.39290315 -0.29601368  2.0765042
  1.4457952  -0.10316495 -0.9972467  -2.051023    0.16631794  0.569907
 -0.6498522   1.3682423  -0.28104892  0.09591092  1.537109   -0.15580194
 -0.89484143 -0.3778839 ]
[-0.38868046 -2.7465596   0.5108383  -1.2555577   0.12400696 -0.10269241
 -2.1525438   0.8785343  -0.11989921  0.5577097   0.20225905 -0.37212104
 -1.3943195  -0.41340625  0.16405775  0.7346377   0.66280824  1.9100654
  1.7680949   0.3516788 ]
[-0.25427815 -1.1737647  -0.7805513   0.54623973 -1.3252764   0.13982853
  1.104616    0.9305316  -0.7688075  -1.421561   -0.8729035   0.49895373
  2.0418663  -0.65004385 -1.2937455   0.2269638   0.1617487   1.2965539
  0.20349738 -0.78030705]
[ 1.4719931  -0.03711278  1.0075358   2.2886508   0.01086324  3.4482071
  1.4142652  -0.25744715 -0.0664004  -0.6089327  -1.0123445   0.16682035
 -0.8490947   1.1505467  -1.830192   -1.9930847   0.31668487 -1.1270843
 -0.46932504 -0.47217864]
[ 0.9796035   0.713753   -1.5680197   2.8227096  -0.8851372   0.29112658
 -3.203973   -2.7101066   0.38005486 -0.61028665  0.591164    0.7866048
 -1.3735152  -2.8842442   0.2629613   0.00650991 -2.870771    0.09469444
  1.2387507   1.0480809 ]
[ 5.6903634   3.2081127  -1.4234823   4.4610415  -0.92604905  1.9007894
  0.8436722   0.9311424  -1.666095   -1.3567908  -5.2280235   0.9975632
 -0.17505701 -0.8378088   0.30182403 -0.4506975  -1.0867554   0.17605445
 -3.2374053  -5.0215526 ]
[-0.03089683 -0.48620996  3.8773873   0.06706928  6.4872856  -3.0704339
 -1.9140697   1.2689186   5.0312123   5.002496    1.2052984  -0.379449
 -2.748637   -0.32321385 -2.8494241  -3.6032417  -3.7870862  -1.4646573
  0.32812986  1.0650759 ]
[ 0.41226998 -0.9852958  -1.9260962  -1.5949686  -1.0833699   0.88954663
 -0.8683201   2.1672666  -0.28915724 -0.24465454  0.48556915  0.5150349
  2.8472574  -1.2354972   0.28590727  0.55386496  0.2694169  -0.5154398
 -2.8301415   0.9905474 ]
[ 0.35449502 -0.6370926   0.12711088 -0.1514091   0.6945803  -0.12596582
 -0.016725    0.13923     0.57653236  0.70622814 -0.4419033  -1.2365254
  0.14628248 -0.7158867  -0.07107862  0.02702622  0.6679972  -0.39400873
  0.05392102 -0.14267673]
layer 1 Activation
tanh
layer 2 Dense
20 40
[ 0.33633065  0.38219637 -2.1168811   1.8713219   0.9664746  -1.397618
  0.5311291   1.9584095   1.1287996  -1.2795527  -0.8305794   2.334028
  0.7789342   0.03600442  1.3170766   0.11473241 -2.5221813   0.11042079
 -1.0099729  -0.49691287  1.823724    1.6156113  -0.05883038 -1.4362724
 -1.2223692  -0.27998674  1.0714234  -0.01521475  0.45534754  0.0826306
 -0.48369002 -0.69848883  1.6790825   0.19444843  0.23694888  0.02359645
  0.27213246  0.590912    0.428461   -1.2021143 ]
[-0.00187442 -1.4587936  -0.21539563 -0.5013927  -0.05509275 -1.1764396
 -0.9822458   0.4054578  -0.78223884 -1.1454878  -1.4079509   0.3397117
 -1.0913649   0.99598163  1.4646224   0.09237083 -0.86285853 -0.30790135
 -0.33222985  0.37504408  1.3495324   0.43830207 -0.17414014 -1.1534957
 -1.0769794   0.20307231  0.47582152 -0.19057019 -0.6102549   0.07755762
 -0.33519754  1.1886003  -1.330386    0.84731853  0.09384142 -1.3086747
  0.66332304  1.1063735   1.0583006  -0.26182866]
[-0.06158685  0.6225021   1.2775141   0.27728537 -0.63311845  1.4223928
  1.4354922   0.55205035 -1.1401347   0.6736615   0.14610998 -0.15514755
  1.1501662   0.36260507 -0.17645416 -0.68083787 -0.40342748 -0.30537677
  0.15826115 -2.0849903  -0.47771686 -0.4469291   0.6704296   0.76433897
 -0.15170056  0.12892646  0.5342698   0.76156986 -0.6402198   0.1688921
  0.45403633  0.7048952   1.1662109   0.9571069  -1.703249    1.1492016
 -0.27181762 -0.9221217  -0.22290613  0.12879874]
[ 1.0347568  -1.4902778  -2.150441    0.76496184  0.39955658  1.2162517
  0.23846485  0.5587865   0.10388019  0.6157852  -0.00634929  1.4327755
 -0.6457055   1.6707811   0.18808402  0.61144567 -0.8132188   0.42565665
 -0.8424302   1.113193   -0.2166012  -1.078915    1.2102687  -0.55919516
  0.23203322  0.50989515 -0.05813879 -0.22323233  1.3935105   0.6996221
 -0.5790676   0.2746845  -1.6705829   0.5348979   0.7705141  -0.01267141
 -0.5965789   1.6478426  -0.25899053  0.8870376 ]
[ 0.12926051  1.3927151   0.70476955  0.5165376   0.8157109  -0.42021236
  2.5388598   0.13358237 -0.36760882  2.2542858  -0.36618876  0.15590547
  1.9227165   1.7969812   0.6121525  -0.93886817  0.93639624  0.5240929
 -1.8720672  -0.71435744 -2.3285477  -1.9363539   1.3686342  -0.7988224
  1.2781842   0.4427266  -1.0748389  -0.4367628   0.11378315  1.6885443
 -0.09520883 -0.0267578   2.5560987   0.8572883  -2.739492    1.6328096
 -0.1273682   0.6735878   0.35995737  1.2884595 ]
[ 1.5373798e-01  4.2109954e-01  5.5018547e-05 -5.0377841e-03
  4.9972314e-01  4.4190097e-01 -9.2469913e-01  1.2849385e+00
  1.6003599e+00 -1.4936109e+00  1.3059058e+00  1.1933874e-03
 -7.7592039e-01 -8.6731064e-01  4.4923040e-01 -7.9613382e-01
 -6.2396795e-01  4.4443406e-02  2.4416151e+00  1.0961803e+00
  2.0122862e+00  2.4403265e+00 -1.2830645e+00  1.7587849e-01
 -1.3105829e+00 -1.2740190e+00  3.2606331e-01 -5.7779920e-01
  7.8184056e-01  3.1021601e-01 -6.9684118e-01 -8.5241210e-01
 -1.4158235e-01  1.2878323e+00  4.0453736e-02 -1.0945928e+00
 -3.4942329e-01  6.2991977e-01 -3.4909409e-02 -1.2598513e+00]
[-0.1180751   0.48873356 -1.4945362  -0.6531213   0.48748362  1.5230287
 -0.10090405  0.41158468 -0.09542766  0.17222485 -1.1784744   0.13971987
 -0.9004826   0.6140309   1.7231972   2.8813004  -0.01215128 -0.02976107
  0.7763693   1.5440377   0.93575084  0.65174484  1.537898    0.6634094
  0.6871864   0.6318915  -1.1283038  -1.3158364   0.6552662  -0.08646318
 -0.31896842  1.5729878  -1.5078764   0.3036599   2.3623707  -0.54965967
  0.30154642  0.14684334  1.1462748   1.0482134 ]
[-0.8755764  -0.1948216   0.4474571   0.21311522 -2.7929142  -0.7047614
  0.2555914   1.1790266  -0.8138294   0.51021606  1.9601096   1.0217456
  0.3962296  -0.86763847  0.7850691  -0.4020765  -1.0226638  -0.88547605
  1.3851541   0.35197088 -0.00826451  0.21788809 -0.23649062 -1.2781249
  1.3160316  -0.8776475   1.1587087   1.370551   -1.3131952  -0.79791087
 -0.36173293  0.08459899  0.40265706 -0.31913736 -0.24204984  0.5797252
  0.90250385 -1.0156171   0.5801896   1.7440453 ]
[ 0.585694    0.6239718  -0.23859161  1.1252955   0.23711267  0.09279916
  2.0009375   0.4083863  -1.6604922   2.1271431   0.04994521 -0.264136
  1.4977033   0.7938963  -1.3993441  -1.0345035  -0.07640354  0.10454272
  0.07266594 -1.7722396  -1.9027877  -1.8119258   0.6096461  -0.50226325
  0.9912322   0.459537   -0.15526514 -0.6796864  -0.03734954  0.2601177
  1.4614041   0.29397503  0.43148667  0.47152078 -1.6469666   0.8050543
 -0.33384854 -0.08226959  0.06451463  0.8567439 ]
[ 0.24497664  2.1190622   0.09927346  0.6652687  -0.9502524  -0.3710743
  1.012211    0.04808506 -1.3725805   1.5618613  -0.5200417  -0.22012849
  1.9461249   0.9199385   0.29296625 -0.20970711  0.53772527 -0.29755285
  0.22268163 -1.967577   -1.856698   -1.4932704   0.39856538 -1.126576
 -0.0767507   0.44088835  0.10636692 -0.47117436 -0.03468264  0.13118379
  1.3965018  -0.0756027   1.6410975   0.52632976 -0.99788934  1.2265683
 -0.07344477  0.1488875  -0.27357382  0.4543325 ]
[ 0.03443894  0.5940816   2.3056865  -2.7154922   0.14301898  0.41219026
 -0.6700979  -1.6807241   0.38586345  1.1130321   1.7893939  -1.2520772
 -0.13605314 -1.5909187  -0.49953303  0.7084975   2.228343   -0.18771578
  0.37699196 -0.28007674 -0.83690804 -0.94049037 -0.97610897  1.3697306
 -0.09405763 -1.1235405   1.2383989  -0.87142533 -0.9490529   0.36015415
  1.1981927  -0.0115208  -0.5852693  -2.27752     0.15493219 -1.1394802
 -2.277352   -0.7852241  -0.25749186 -0.1994428 ]
[-1.3198136  -1.7742641   0.36991358 -0.72262007 -0.2939492   1.1855876
 -1.1739169   0.07436503 -0.00572289 -0.23814878 -1.9452503  -0.45919836
 -0.65349233 -0.02945151 -0.17228779  0.5756036  -0.17977224 -1.3104042
 -1.4357911   0.3860586   0.08686937  0.7434718   1.1112618  -1.394098
  0.6021465  -1.9496254   0.9073737  -2.1006122  -1.4223096  -1.7088321
 -0.8573348   0.4957567  -0.04352184 -0.4629455   0.36737853 -1.353665
 -0.5297249   2.0439436   0.5398138   0.38058496]
[-0.49588037  1.0322073  -0.8463424  -0.82476115  1.5298194  -0.2866416
 -0.11369713  0.63509786 -0.06609304 -0.9651126   0.8583951   2.642647
  0.35836944 -0.96646446  0.9702085   0.41028008 -2.0844924  -0.11567501
  0.5713833  -0.48156285  1.2823375   1.6274565  -1.4484471   0.67664194
 -1.1618806  -0.7197081   0.33796293  0.32684484  0.53114134 -1.4854175
  0.62880623 -1.2772282   0.6891855  -1.079272   -0.32976112 -0.32585478
  0.8581792  -0.7784145   1.1131396  -0.39662614]
[-0.5965934  -1.1574621   1.1261178  -1.0768672  -0.16736107  0.8042821
 -0.37579522  0.83713984  0.9821146   0.48224372  0.03803684 -0.02012041
 -0.95859414  0.33715504 -0.22078222  0.43308708  0.329399   -0.2102905
  0.02318572  0.7252784  -0.29697627  0.5152691   1.8981925   0.30662286
  1.2852889   0.13455276 -1.3424498  -0.44711316 -1.2028278   0.65009856
 -0.605699    1.6816485  -0.28103447  0.96655345 -1.277572   -0.21176013
  0.21047375  1.6265111   1.7455295   0.98178554]
[ 0.18699083 -1.3822745  -0.9416358  -1.2237028   1.489094   -1.7126975
 -1.1959586  -1.2119341   1.5485988  -1.0396032   0.41316527 -0.3589912
 -1.4117956  -1.0473087  -0.14740114  0.22690846  1.2191713   0.0101966
  0.9041223   0.872876    0.73307186  1.3858683   0.34242794 -0.6171835
 -0.8510692  -0.10060321  0.35235453 -0.8966103   0.29047817 -0.9567321
  0.63379556  0.4638945  -1.5928262   0.0320979   0.70893764 -1.6776263
  0.04596352  2.2783833  -0.56242037 -1.6022351 ]
[ 0.60555065 -0.47313294 -0.55033386 -0.63894075  0.09266184 -0.670016
  0.20056307 -0.21318176  0.07098834 -0.81451553  0.7286784  -0.46453556
  0.09309287 -1.6920074   0.90337473  0.2861147   0.25412816  0.08018591
 -0.12962627 -0.10742909  1.4427148   0.50266135 -0.9635666   1.1868265
 -1.6495554  -0.35876378  0.40693054  0.5225519   0.09493987 -0.5046479
  0.28870586 -0.4960455  -1.2747945   0.20902817  0.97777563 -0.46392527
  0.02640397 -0.34582165  0.5971064  -0.9805062 ]
[ 8.1334138e-01 -4.4326848e-01 -2.5337821e-01  3.7186900e-01
 -2.7669232e+00 -1.8616322e-01 -2.0480470e-01  4.2664477e-01
  7.6219600e-01  4.5203024e-01 -1.2279889e-03 -5.9159839e-01
 -1.5782899e+00 -1.0923463e+00  4.1581661e-01  1.6701314e+00
 -1.7938375e-02  2.9511541e-01  1.4852282e+00  7.8550887e-01
  1.6514130e-01  3.4352431e-01  2.5366271e-01  6.9156015e-01
  1.1270081e+00  6.1533403e-01 -9.7377561e-02 -1.7857447e-01
  1.3370246e+00 -7.2757047e-01  2.9746547e-01  3.0110207e+00
 -2.5174326e-01 -8.2401365e-01  1.7729282e+00 -4.8592608e-02
  1.7067240e+00 -2.0954759e-01  5.0696403e-01  5.0280619e-01]
[-5.6922346e-01 -1.5198019e+00 -9.4248295e-01  3.2767415e-01
 -1.1680495e+00  1.2292682e+00  2.9198489e-01  6.9166136e-01
 -2.2980416e-01  1.0711592e+00 -5.5350107e-01  1.5548422e+00
 -4.4373363e-01 -6.5672594e-01 -6.1858326e-01  1.3911626e+00
 -2.7667111e-01  1.2980262e-04 -1.6508136e+00  2.7839637e-01
 -4.8116603e-01 -1.8419224e-01  4.7316498e-01 -4.3451354e-02
  1.2944747e+00 -2.8125679e-02 -7.4862856e-01 -9.1200364e-01
 -4.0540537e-01 -4.1953245e-01 -6.1744142e-01 -7.1720231e-01
 -1.0266517e+00  5.2664804e-01  1.1744148e+00 -7.5881034e-02
  2.6731572e-01  9.9353701e-01 -1.0406748e+00  1.9600430e+00]
[ 0.25359252 -0.8369686   0.60620034 -0.15449388  1.7934319  -0.8028322
  0.7978946  -1.6807702  -0.9573047   1.5167816  -1.1395235  -1.8746486
 -0.37278804  0.839305   -0.01375198  2.7408848   2.2356558   0.15493226
 -1.2581004   0.02323555 -0.47085965 -0.6978208   0.6867313   1.2905333
 -0.04009061 -0.693906   -1.8830571   1.8678894   0.8344515   0.3395039
 -1.1934154   0.74922734  0.16986504 -1.1047734   0.59877306  0.8868072
 -0.65169215  0.49407732 -0.38242775 -1.0323404 ]
[ 0.3460041   0.15013783  1.7417815  -1.7036916   0.9195481   1.0796306
 -0.2667129  -1.8717176  -1.397275    0.9097004  -0.17139144 -1.2282196
  0.4141575  -0.24239638 -1.1600574  -0.09815466  2.0568645   0.05565239
 -0.09086996 -0.5935046  -0.6513016  -0.72171897 -0.48725852  0.39702153
  0.9033309  -0.6666492  -0.13276608 -0.00573883 -0.14170268  0.18954328
  0.816241   -0.65366906 -0.11856242 -0.9227077  -0.2696194  -0.11306039
 -1.5742681  -1.1731477   0.36696416 -0.03623547]
[ 1.856475    1.675063   -0.38106406  0.59402823  1.426353   -1.9692732
  0.84487027 -0.13948703  0.16916226 -0.34455884  2.3572798   0.95871186
  0.6268955  -0.8655188   0.43691364 -1.0224427  -0.8705047   2.817727
  2.4678504  -0.64910144  0.23281986 -0.01450079 -2.5710328   0.66491127
 -1.483451    2.1656766   0.04787469  1.7647141   2.3201728   1.5651313
  1.3896993  -1.2766049   0.35372058  0.70863575 -0.2018922   0.9271636
  0.88076925 -1.6062888  -0.89912224 -1.2676651 ]
layer 3 Activation
tanh
layer 4 Dense
40 20
[-0.39925343 -0.25599065  0.58200294  0.41300577 -0.28291044  0.20832986
 -0.47993279 -0.40830514 -0.01616533 -0.43341142 -0.6465044  -0.332743
  0.36651382  1.0540998   0.7906683  -0.86040574  0.54626215 -0.2806264
  0.58101404 -0.15015297]
[ 0.28028527 -0.73701453  1.8142643   0.1773447  -1.4332893  -0.5281007
  0.64755034 -0.202432    1.8645544   0.2508729  -0.60535216 -0.7794002
  1.3530601  -1.0853497  -1.0431492   1.1997194   1.6151602  -1.4573809
  1.0397098   0.39702436]
[ 0.03032985  0.0140587   0.6650633  -0.13572778 -0.6550421  -2.0656335
  1.9005245   0.9442873   0.94296944  2.270969   -0.3797493  -1.2045213
  0.45543298 -0.30071983 -1.6898327   0.06392654  1.0895369  -1.1451576
  1.0409327   1.6428556 ]
[-0.07454002  0.71642184 -0.5562706  -1.9802654   0.4101126   0.6249805
  0.04140577 -0.65645444 -0.3921988  -1.0498009   0.12974137  0.33708102
  0.21942143 -0.31207016  0.15821774  1.1264963  -0.62853175  0.8700337
  0.8473474  -0.54134303]
[ 0.0585337   0.3281178   1.4372871   0.6412564  -1.479726   -0.23577704
  0.02033888 -0.06062748  2.170323   -0.2013107  -1.378215    0.14769009
  0.08050758  0.6553171   0.1939252  -0.5589498   1.5789126  -1.8809844
  1.6134915   0.12351936]
[ 0.40899852 -0.71894103 -0.562708    0.46460503  0.5245792   0.6017561
 -0.80202466 -0.64170396 -1.1643841  -0.2803594   1.2609116   0.44163883
 -0.50157255 -0.56036526 -0.18271695  0.20766841 -0.9288785   0.66736186
 -0.8758608   0.26432648]
[-0.350666    0.44471133 -0.3064522  -1.5571055  -0.24104623  0.6674791
 -0.42581186 -0.9886472  -0.56626475 -0.35013556  0.1591904  -1.2281743
  0.98000246 -1.0778836  -0.7959631   0.8259854   0.2048461   0.22873272
 -0.22229499 -0.41119844]
[ 0.1344869  -0.39598396  0.33328983 -0.3011261  -0.10308551  1.2567366
 -0.44133553  0.26541692 -0.34971014 -1.1162915   0.18326215 -0.54439354
 -0.5161349  -0.7436777   0.3154124   0.6490139   0.23524794  0.05413473
  0.23569895 -1.3928678 ]
[-0.0756804  -0.2137393  -0.45065364  0.02754028 -0.32863382 -0.11554334
 -0.4660415  -0.73193365  0.12589288  0.2891156   0.59391546  0.5757749
 -0.75520235 -0.06664087 -0.07183649  0.5042987   0.1213109   0.39420244
  0.07427765  1.0996258 ]
[ 0.1810723   1.7330248  -0.98043317 -0.87231815  1.1971017  -0.17530145
  1.4182129  -0.5922856  -0.28029403  1.2243311   1.3546898  -0.9322021
  0.44973072 -0.08810382 -0.03132971  0.2478254  -1.0522126   0.9221444
 -0.51666325 -0.01706247]
[ 0.06759041  0.47503123  1.3875082  -0.64718956 -0.6736353  -1.0383949
  0.5727466  -0.8608516   1.1894367   0.75091267 -1.4704576  -0.9214496
  0.05154725 -0.75242126  0.10429231  0.0297946   1.5266834  -1.3590438
  0.9718978   0.2213728 ]
[-0.10258588 -0.01120001  0.8273869  -0.30043846 -1.2180367   1.8710309
  0.01711463  0.75172496  1.5231217  -1.6855967  -0.6536006  -1.0555878
  0.41310894  0.4137858  -0.89471066 -0.49255687  1.0125971  -0.7971231
  1.1316499  -2.375569  ]
[ 0.62098855  0.78853995  0.9953289  -0.69285285 -0.9583529   0.09366795
  0.2426721  -1.3534698   0.9553337  -0.40662584  0.04906111 -1.1507933
  1.1718558  -1.6827499  -1.1991304   1.8384995   0.4054738  -0.24401557
  0.38510916 -0.18434568]
[ 0.46965602  0.08193815 -0.7165942  -0.1980052   0.84223187  0.748832
 -0.21169078  0.02817896 -0.991336   -0.28868052  0.6547436   0.29342282
 -0.50571054  0.18531024  0.46053994 -0.60815746 -0.70607     0.5889222
 -0.750367   -0.5650518 ]
[-0.10539199 -0.5386742  -0.12979777 -0.36996347 -0.23503244 -0.1413387
 -0.24114543  0.19318925  0.61873037 -0.2752078   0.1107833  -0.35093042
  0.19931342 -1.286844    0.02585289 -0.00554685 -0.20888838 -0.17655477
  1.0782431  -0.9415505 ]
[ 0.17958637 -0.08616688 -0.5879055   0.12730743  0.8919463   0.10369071
 -0.18618217  0.5414559  -1.2422447   0.66132164  1.6644391   0.6394234
 -0.44740105  0.08156091  0.22888772 -0.3731741  -1.2174455   1.4910194
 -1.3285656   0.60316765]
[ 0.2592994   1.8092346  -1.937105   -0.0810462   1.5809599  -2.6365452
 -0.7326816  -1.3861811  -1.3183253   3.0926204   0.2590949   1.4641769
 -0.65542907  0.68487364  1.2762517   0.07905385 -1.9657121   1.6066984
 -1.5857855   2.584809  ]
[ 0.10941529 -0.2324255   1.8375169  -0.18708436 -1.7201811   0.42407224
 -0.49127412 -0.31306362  1.760017   -0.37789452 -1.8895689   0.38886532
  0.9899061   0.5607495   0.23398271  0.65610594  2.0587487  -1.5165081
  1.4624945   0.10938786]
[-0.08294401 -1.3456471   1.7156134   1.1275676  -1.5927253  -0.36541778
 -0.7863195   0.57478917  1.8896405  -0.3981162  -1.6883308   0.03564005
 -0.35107365  0.30400914  0.17055272 -0.26742348  1.7673519  -1.434436
  1.6680075  -0.21492226]
[-0.20300663 -0.59653884 -0.01261543  0.8206053   0.32714945 -0.18676881
 -0.2526934   0.06317173  0.04223769  0.55988973  0.5226167   0.6407456
 -0.5026012   1.3608724   0.39981598 -0.8751469  -0.6984333   0.01243625
 -0.41942817 -0.1325699 ]
[ 0.11897928 -1.9742153   0.26241496  0.26937798 -0.3018494  -0.22525865
 -2.0791752   0.4706999   0.2307027  -0.33459035 -0.642621    0.7555683
 -0.8261339   0.63724697  0.33342206 -0.59716946  0.5096854  -0.38225263
  0.16379976  0.44791654]
[ 0.05344388 -2.1160731   0.7514453   0.68140006 -1.4324428   0.03963981
 -1.8900034   0.8396579   0.39741686 -1.0808512  -0.8079278   0.4691654
 -0.46307155  0.6475221   0.10322993 -0.7594541   1.1350844  -1.1783419
  0.57166624 -0.07395831]
[ 0.549789   -0.02067913 -1.353406   -0.1853009   1.3397422   0.6725622
 -0.21099254 -0.28456128 -0.9722198  -0.34647158  1.8325648   0.74806076
 -0.39606914  0.53798205  0.73676085  0.4355828  -1.103241    0.5803311
 -0.8886271  -0.15059353]
[ 0.7504125  -0.2051746   0.18514909  0.09350312  0.05383049 -0.3662421
 -0.8549755   0.14430484 -0.3090289   1.1032413   0.26526296  1.3643641
 -1.2364618   0.85627615  1.1499989  -0.08365759 -0.02514698  0.17407668
 -0.02126589  1.4960544 ]
[-0.1942313   0.7078246  -0.8113068  -0.26469553  0.67839515 -0.5431291
  0.66636574 -0.07068932 -0.5084522   0.10686862  0.79997504 -0.09326139
 -0.8401362   0.1103073  -0.86081135  0.90324533 -0.4920076   0.54917735
 -0.881874    0.3084173 ]
[-0.5799566  -0.46607774  0.06689771 -0.02632789 -0.5599999   0.34468922
 -0.05486569 -1.0572203   0.08799109 -0.02488116 -0.7312245  -0.6692655
 -0.19704211  0.0706605  -0.70960146 -0.0897774   0.20461062 -0.58860433
  0.42898196 -0.51290435]
[-0.75109357  0.02671508 -0.01666912  0.16538039  0.09432435  0.6619904
 -0.31568816  0.6485366  -1.3130273   0.03827754  0.20576678  0.18731543
  0.4819591  -0.08000351  0.9475262  -0.05931422 -0.2229877   0.6572774
 -0.86851645 -0.3445109 ]
[ 0.19857942  0.24049358  0.280394   -1.3903399  -0.35498464  0.3630748
 -0.25649256  0.19139984  0.20623857  0.01184207 -0.29767397 -0.09904088
  1.6414331  -0.76543945 -0.34013835  1.3009654   0.23766583 -0.37871158
  0.6848822   0.95539474]
[-0.4311903   0.15533568  1.6061559  -0.09576414 -1.7449299   0.5776916
 -0.540004   -0.591779    1.4532082  -0.13905747 -1.4908583   0.2957681
  0.65632516  0.439747    0.3412123   0.50580066  1.5543694  -1.3958342
  1.1354843  -0.01776582]
[ 1.137349   -0.20741667  0.47626537 -0.5383479  -0.1868615   0.4563847
 -0.33953196 -0.28088087  0.02473162  0.35449246 -0.29426062 -0.31578314
 -0.5663176  -0.7871828  -0.8235552   1.0374502   0.6151509  -0.20244032
  0.28499582  0.1369367 ]
[-0.50841707 -0.19893973  0.099752    1.1042383  -0.07396762  0.08620436
 -0.41977292  0.19773969 -0.04120277 -0.28559896 -1.137446    0.6292129
  1.151808    0.30273223  0.5346619  -0.44356793  0.28679937  0.01081064
 -0.194983   -0.41635293]
[ 0.59073687 -0.32875592 -0.64515394 -0.1843739   1.1648985   0.83581287
 -0.38978347 -0.03214177 -1.095594   -0.31275716  1.0479673   0.11044718
 -0.37343204  0.41183358  0.10092074  0.8270643  -0.54303056  1.2415869
 -0.4653821  -0.0328448 ]
[-0.5195289   1.2588936   0.7709335  -1.1986822  -1.0965537  -0.5579757
  1.020467   -2.5054607   1.3995914  -0.561112   -0.6137175  -1.6335634
  1.0445158  -1.1549394  -2.118999    1.6841161   0.60058075 -0.8823213
  0.82971156  0.9669064 ]
[ 1.1891462  -0.46031025  0.11497338 -0.683418    0.33790824  0.09297471
 -0.8659353  -0.3753265  -0.68727833 -0.39218745  0.48909885  0.5114329
 -0.6911659   0.32469234  0.4081626  -0.05211771  0.09016819  0.3935159
 -0.94009507  0.1407611 ]
[ 0.2750021  -1.3155807  -1.2388287   0.06531188  1.1651762   0.6294612
 -1.4980814   0.7889544  -1.2973456   1.0702745   1.6446271   1.4557416
 -0.6964756   0.9156817   0.7634342  -0.2727694  -0.9614397   1.0908765
 -1.2583505  -0.04673203]
[-0.34298393  0.3220715   0.11171243 -1.4565473  -0.00699609  0.7290194
  0.10356044 -0.27746576 -0.33962786  0.27665186 -0.2140239  -1.4773113
  1.0763383  -1.4919584  -0.8572209   0.9378322   0.07228836  0.13426328
 -0.18045798 -0.337735  ]
[ 0.2443236  -0.58148724 -0.04281269 -0.52013224 -0.12253141  1.0034206
  0.01855922 -0.30895305 -0.0022462  -0.7219398   0.35111612 -0.36880356
  0.58980936  0.34821683 -0.43571553  0.5938318  -0.25366724  0.09692424
 -0.34782824 -0.23690589]
[-0.0638281  -0.24688746 -0.66514176  1.0914023   1.5890046   0.49226126
 -0.43799496  0.5459599  -1.169706   -0.4479791   1.3166381   0.64014524
 -1.6982299  -0.03707169  0.9384041  -0.8632223  -1.3784512   1.1297113
 -1.9649748   0.4834622 ]
[ 0.05546218  0.03171853 -0.4669197  -0.6590997   0.22471385 -0.16768822
 -0.00908243  0.09112994 -0.0944466  -0.08424535 -0.42656004 -0.58662415
 -0.6061124  -0.17794622 -0.6174657   0.09518322  0.00651671 -0.12285627
  0.55569667 -0.01357577]
[-0.12090965 -0.16129994 -1.2684414  -0.9117467   1.6389083   0.46435487
 -0.7633782  -0.9186733  -1.1163778  -0.2183707   0.39623785  0.00398634
  0.19485058 -1.0167269   0.11270123  0.5270786  -1.1400436   1.0307974
 -0.7813497  -0.79859465]
[-0.2671309  -0.04319493  2.367153   -0.28591537 -2.143117    0.44839856
 -0.47175726 -0.30990347  1.866977   -0.30877054 -1.5392445   0.3780957
  0.7482112   0.45252678  0.03723736  0.3197642   2.0024931  -1.883896
  1.178594    0.04430388]
layer 5 Activation
tanh
layer 6 Dense
20 1
[0.11266357]
[0.268254]
[-0.940725]
[-0.08276893]
[0.5005577]
[0.30378702]
[-0.2799377]
[-0.24190108]
[-0.522803]
[0.18936162]
[0.5728864]
[0.10664949]
[0.00488609]
[0.08223235]
[0.1635232]
[0.06731745]
[-0.65878737]
[0.8073254]
[-0.32241443]
[0.12463196]
[4.3528695]
