layers 7
layer 0 Dense
20 20
[-0.24315582  0.23508146  0.16719608 -0.2076726   0.12163527  0.01900134
 -0.18189962  0.02946635  0.28789392 -0.10886672 -0.17406502 -0.19855335
 -0.01546562 -0.23100576  0.03211141  0.10525921  0.05157958  0.1150931
  0.02145592  0.20060106]
[ 0.06019299  0.2514183   0.34963804  0.5610885  -0.08149895 -0.169629
 -0.18090622 -0.19484901  0.47636002 -0.40421036  0.87810516 -0.28760484
  0.16930754 -0.02706787 -0.49751762  0.32067606  0.07827784  0.21918768
 -0.37374255 -0.6366509 ]
[-0.03373196 -0.07546068 -0.10350098  0.1642359  -0.0295904   0.34161544
 -0.3822066  -0.22446895  0.2915649   0.06291632  0.65216255 -0.03994979
  0.4773489  -0.5247652  -0.02196874 -0.3176722  -0.16600963  0.10505682
 -0.20371237 -0.68664366]
[ 0.03719966  0.3126587  -0.2268843   0.16928396 -0.03887865  0.12255451
  0.03534251 -0.13774638 -0.30929843 -0.01594255  0.28046206  0.1448774
  0.07395191  0.20530096 -0.09369328 -0.0263126   0.2276319  -0.00070488
  0.15904944 -0.13392086]
[-0.13979372  0.5630939   0.1227266  -0.16410454  0.16075659  0.16281879
  0.06377023 -0.1255891   0.1664882  -0.2999219   0.45563132  0.24163912
  0.19472584 -0.1162938   0.208532   -0.13599557  0.31671456 -0.04168591
  0.11587272  0.28963646]
[ 0.2014679   0.2702362  -0.27002177 -0.00114141 -0.47872815 -0.4303165
  0.2168576   0.05489431 -0.1915376   0.4482779  -0.59590554  0.3552182
 -0.06153911  0.33580106  0.25289667  0.03366979  0.3407649  -0.5648602
 -0.00905885  0.46957013]
[-0.04513548  0.1719337  -0.3140268  -0.44718137 -0.2109564  -0.23509353
  0.39038032 -0.33404252 -0.50934756  0.0179773  -0.24802302 -0.40710467
 -0.42651072  0.07422828  0.16308922 -0.3465775  -0.3102318  -0.28380418
  0.00474384  0.2617489 ]
[ 0.1345746  -0.00424902 -0.07858347 -0.444086    0.10862126  0.27355978
 -0.06078795  0.15006092 -0.06489944 -0.24981579  0.04113381 -0.05418744
  0.21080802  0.29851592  0.02966089  0.19265068 -0.12726308 -0.0666064
 -0.25751224 -0.25395295]
[-0.09913141  0.35865822 -0.2018031   0.52946013 -0.3130425   0.34667993
 -0.3125952  -0.46095148  0.14318025  0.05850934  0.4860051  -0.5135046
 -0.13000423  0.07846535 -0.18457648 -0.20902486  0.18496361  0.3620677
  0.30418354 -0.08454844]
[ 0.02870877 -0.32389838 -0.28722927 -0.09870096  0.2844701   0.17611773
  0.05756098 -0.07902922 -0.285508   -0.13562052  0.23420607  0.01756754
  0.26393297 -0.11916342  0.30706367  0.17644282 -0.12443855 -0.15383235
  0.25662675 -0.03732412]
[ 0.45212984 -0.1756072  -0.19190302 -0.19101532 -0.21555725  0.03657004
  0.12556754 -0.26993537  0.09964555 -0.07560723  0.19127515 -0.3003292
 -0.2454068  -0.20668572 -0.2910447   0.22878143  0.07431206 -0.20120238
  0.27060038 -0.2558807 ]
[-0.46991345  0.40334007 -0.08780427  0.8598887  -0.05334462  0.3674454
  0.09787431 -0.92597127 -0.34398922  0.44725594  0.7681443  -0.23255359
  0.46515483  0.33420408  0.41760343 -0.20476523  0.5466573   0.6144266
  0.79233426  0.08843893]
[ 0.332057   -0.49490443 -0.2622102  -0.39269203  0.2842326   0.15782568
  0.06250822  0.47444558 -0.37284625  0.24944282 -0.40759495  0.5557695
  0.00456729  0.12284504  0.1203707  -0.05546625 -0.0107569  -0.31369781
 -0.3369806   0.11307015]
[ 0.02867126 -0.09560992 -0.07112285 -0.03758297  0.45059368  0.13942017
  0.11481274  0.00891537 -0.07783868  0.18127838  0.26911798 -0.03284602
  0.11782009  0.2516706   0.23979577  0.11217636 -0.07967812  0.03179866
  0.22597721 -0.01169018]
[-0.11585285 -0.09453611  0.10537558 -0.03327638 -0.367042   -0.08818147
  0.46927908  0.08381274 -0.20951249  0.30396488  0.4521631   0.5154216
  0.2468628   0.0454227  -0.0203239  -0.36648837 -0.05146858  0.38114277
  0.10565305 -0.02099932]
[ 0.1814667   0.17132291 -0.22561629 -0.18863437 -0.14121315  0.10576809
  0.13479292 -0.20989741  0.28816313 -0.16937663 -0.43524653  0.04167717
 -0.07599769  0.03592462  0.21939433 -0.05154261 -0.2992851   0.06291259
 -0.3637618   0.25525522]
[-0.38760734  0.09245046  0.23013955 -0.4559427  -0.09190671 -0.14813422
  0.34775317  0.15062699 -0.17137624 -0.02533938 -0.45464167  0.1561057
 -0.14479195 -0.19962221 -0.07379678  0.3108301   0.19651821  0.13367128
  0.14779757  0.05616446]
[ 0.09326008 -0.29040983 -0.00317658  0.17226796  0.33495665 -0.16332296
 -0.08953147 -0.4084743   0.29804498 -0.1876913   0.23110642 -0.2915351
 -0.07244695 -0.14361975  0.17250168  0.2597816  -0.3257667  -0.14807057
 -0.11110751 -0.09610713]
[ 0.27171853  0.02941909  0.16316971  0.8830208  -0.0783295  -0.37342766
  0.2148303   0.05254832 -0.06579334  0.02710655 -0.25108054 -0.48591536
 -0.27216586 -0.35386857 -0.00250133 -0.1960843  -0.03093671 -0.01915241
  0.11399595 -0.07134205]
[-0.15552297 -0.2952171  -0.18252707 -0.7180004   0.1790822  -0.4989624
  0.11272542  0.4084308  -0.39128897 -0.20760396 -0.58906317 -0.3546668
 -0.25883102  0.36517173 -0.23994039  0.87594646 -0.35769883  0.08596328
 -0.09489977 -0.34247738]
[ 0.08764778  0.03949336  0.18336752  0.06532769  0.05737295  0.04624623
  0.0111567  -0.18007132  0.13268459  0.09928941 -0.01222577 -0.1508501
  0.07419975 -0.0342958   0.19756854 -0.11007204  0.01083767  0.00717654
  0.0006736  -0.0582496 ]
layer 1 Activation
tanh
layer 2 Dense
20 40
[-0.15058722 -0.11004835  0.17465138  0.1960866   0.08581432  0.21324264
 -0.1698415   0.14948954 -0.27096137  0.01956282 -0.28120714  0.05191697
 -0.10197481 -0.00770591 -0.3243968   0.13827768 -0.16346039  0.27160203
  0.18069409  0.00436555 -0.02723144  0.15262303 -0.0795894  -0.2486826
 -0.11445317  0.01625728  0.09169325 -0.19334735  0.15635547 -0.02045645
  0.09026317  0.0757244  -0.22089423 -0.0751848   0.15429516 -0.16388404
 -0.26098472  0.3655252   0.0641726  -0.01399505]
[-0.24668717 -0.01671121 -0.05476661  0.1285465  -0.08907263 -0.06974345
 -0.16031346  0.11582825  0.08351366  0.04887479  0.3172219  -0.23267844
 -0.0817339  -0.2222035  -0.14729497  0.03020832  0.06687533  0.13109574
  0.06427604  0.23440903 -0.12471098 -0.03740274  0.10251445 -0.33228424
  0.09735789 -0.05970595 -0.26176673 -0.05038055  0.02699069 -0.19297521
  0.1613557  -0.0729406   0.22862941 -0.1195801  -0.12878224 -0.03237582
  0.06862716  0.18643768 -0.07305853  0.2447383 ]
[ 0.2296257   0.21840094  0.21200928  0.18484308  0.20816414 -0.11323924
  0.1263793   0.22811401 -0.14988053 -0.15547185  0.2705679   0.04281506
  0.19091159 -0.04625724 -0.17312822  0.24313986  0.09522631 -0.00975192
  0.04421837  0.07748029  0.1181349   0.03178528 -0.1528381  -0.14078338
 -0.02720636 -0.04279099 -0.07028746  0.1230581   0.03518295  0.02926647
  0.22532383  0.0069123   0.11908036 -0.2239802   0.05301239 -0.04817742
 -0.03092629 -0.22589716  0.03218346 -0.01145584]
[-0.00292576  0.22495022  0.03080113 -0.2618876  -0.04890454 -0.23751828
  0.20789425 -0.04261143 -0.18742992  0.01820197  0.1473424  -0.2112395
 -0.2818216   0.13848534  0.08608511  0.13122118 -0.3639459  -0.09426384
 -0.06122378  0.18053532  0.32078415 -0.02248288  0.04832248 -0.18480249
 -0.1481034   0.08327209 -0.35031417 -0.02321245 -0.08769093 -0.20321104
  0.00570416  0.05115404  0.1217398   0.03316847  0.13550974  0.21533863
  0.03736194  0.11818685 -0.5065051   0.31968677]
[ 0.19069925  0.16728035  0.0727275  -0.17270412  0.05308126  0.30348238
  0.06943896  0.20855245 -0.18987623 -0.01559722 -0.15601556 -0.21525776
  0.01833705 -0.03109553  0.14771453  0.14837624 -0.05921283 -0.11342383
  0.24089444 -0.3367387  -0.02854343 -0.11357758  0.15900128  0.06735403
 -0.03577848  0.01282663  0.02358726  0.1373203  -0.20458938  0.06148519
  0.13588168  0.00296369  0.13908984 -0.05428005 -0.01023016 -0.02464521
  0.02082449 -0.01169442  0.01172222 -0.09207031]
[-0.13715515 -0.03646503 -0.21209285 -0.05931525  0.11452191 -0.03462048
 -0.25177324  0.02460831  0.2233557   0.2424999  -0.13514076  0.01457089
 -0.12407024 -0.05922543 -0.15207437 -0.06850133 -0.2204542  -0.1314458
 -0.08207854  0.02915443  0.17542627  0.14898442 -0.16398452  0.03550947
  0.30373907 -0.13080287 -0.08862614 -0.16757011 -0.18201214  0.11675777
  0.11015604  0.12754767 -0.12352613 -0.10451927  0.0827432   0.28846896
  0.1922942  -0.06035902 -0.32217264  0.0323701 ]
[-0.21375932  0.21848698 -0.2267831  -0.13446078  0.16770232  0.13641116
 -0.05277503 -0.06830662  0.05789557 -0.06255029  0.04510062 -0.14799006
 -0.04266675 -0.16224253 -0.0207937   0.04984458  0.19378619 -0.03916872
 -0.2500615   0.1135104  -0.0590279   0.26870152 -0.0868381  -0.05289286
 -0.1144226  -0.13615274 -0.02518881  0.09427219  0.02124964  0.10030907
  0.00695289 -0.04487399  0.23731938  0.24835432 -0.00810791  0.06039366
 -0.18821706  0.19351822  0.0837064  -0.03453597]
[-0.16389164 -0.17253506  0.11989815 -0.23442365 -0.08413427  0.2769809
  0.09784011  0.17610483  0.2144624   0.00242213 -0.00887975 -0.07670648
 -0.28932947 -0.4089169  -0.41056573  0.01860632  0.24882966  0.21667458
  0.23267306 -0.03294533 -0.14806381 -0.04018606  0.03812656  0.25708896
 -0.22197053 -0.25356686  0.3762588   0.07496471  0.05682471  0.33032095
 -0.10917189  0.03731326 -0.32506856  0.14099406  0.03031868  0.09212575
 -0.08996941  0.03491532  0.31286654  0.03151937]
[ 0.0558448   0.21826877 -0.27287257  0.1334361  -0.12567881 -0.01540612
 -0.1129261   0.21008362 -0.18271048 -0.25254217 -0.15151143  0.11381726
 -0.08375482  0.37268957 -0.06824316  0.18357119  0.06964322  0.14450519
  0.12045898 -0.20180131  0.29454905 -0.02008053  0.02541686 -0.28856006
  0.2010231   0.26690456  0.00878635 -0.11044207 -0.1843101  -0.11080143
 -0.11993289  0.10761958 -0.13869676  0.1653243   0.13709927  0.14134869
 -0.11518265 -0.04045804 -0.01108401 -0.15860614]
[-0.10204203 -0.0234231  -0.10468969 -0.12489859 -0.0149755  -0.07042469
  0.17669618  0.11709908 -0.42003158 -0.14246333 -0.05836894  0.17628148
 -0.09196156 -0.26101106  0.11305463 -0.1625898   0.14639594  0.13615587
  0.14907551  0.107336    0.11371396 -0.07300615 -0.05926556  0.11001074
  0.14781046 -0.06643304 -0.03975618 -0.14681724  0.2193106   0.1378005
  0.06763244 -0.08348881  0.10810947  0.06380005  0.01739856  0.20085773
 -0.018133   -0.05913154 -0.25753352 -0.0176421 ]
[ 0.3832747  -0.04689528 -0.14065777  0.00189101  0.07115048 -0.03024814
  0.17086934  0.10295982 -0.14471258  0.11859153  0.3451063  -0.24569458
 -0.05084331  0.04163533  0.2137115  -0.04802455 -0.32808197 -0.23595294
 -0.22678567  0.03875793 -0.41180372 -0.08559901  0.11075509  0.12286385
  0.03956895 -0.17435423  0.13877288  0.1559606   0.00077026 -0.31198642
 -0.35674363 -0.05823923  0.44891647  0.09840582 -0.04172078  0.19436482
 -0.12094232 -0.02755866 -0.35527012  0.1775921 ]
[ 0.1697818   0.04039176  0.02608937  0.11726957  0.09162863  0.0019335
  0.29268503  0.19028924 -0.07485272 -0.00815906 -0.20485601 -0.03725447
  0.04301241 -0.16435269 -0.18117271 -0.11320951  0.13430358  0.21349274
  0.1544478  -0.21423094 -0.05081645 -0.02612786 -0.07992458  0.3485149
 -0.16932414 -0.23452619  0.42581287 -0.22785307  0.0553413   0.19883409
 -0.05074042 -0.091216   -0.115927    0.08962377 -0.0633248  -0.01596303
  0.25805363 -0.06398111 -0.14314383 -0.25257134]
[-0.22966884 -0.13025291 -0.01373871 -0.13707006 -0.21132892  0.1323685
  0.23046905 -0.02285227 -0.15254626 -0.07541094  0.29130167  0.2599706
 -0.01314347  0.0374293   0.06734121  0.18062584 -0.05296163  0.09957553
 -0.03838872 -0.05732728  0.10979779 -0.1400618  -0.17523623  0.43469325
  0.15217523 -0.33663025 -0.11928817 -0.27163804  0.24367604 -0.1883969
  0.06597551  0.2275211   0.2095696  -0.0715193   0.07278465  0.03237334
  0.07607119 -0.04810531  0.16659088  0.12946413]
[-0.06926019  0.08423217  0.18543716 -0.00212861  0.06612685  0.35499072
 -0.07780255  0.01630301 -0.21601477 -0.13258888  0.15782462 -0.19659568
 -0.25804302 -0.2816433  -0.26248437  0.04811072 -0.09495439  0.35094503
 -0.03824239  0.11593596  0.12600826  0.08510213  0.08318243 -0.13435674
 -0.10080166 -0.29330555 -0.2500505   0.06778038  0.17614469  0.24336585
  0.19287494 -0.0591763   0.31214085 -0.2261042   0.03695402  0.04186774
 -0.07986309 -0.09458816  0.07582253 -0.00802543]
[-0.14944483  0.2816637  -0.1287988  -0.18359914  0.1721183  -0.18746258
 -0.18276161  0.08407634 -0.16003107 -0.30160263 -0.03101853 -0.08072478
  0.04831425 -0.00639143 -0.24681929 -0.22362398 -0.19183184  0.13987108
 -0.20318837  0.10222935 -0.05113407 -0.01067616 -0.14720923  0.27895534
  0.2094482  -0.01090694 -0.02258917 -0.16496521 -0.0333176   0.02619529
 -0.12078989  0.21929382 -0.08687709 -0.09352481  0.03201069  0.13086033
  0.03169264 -0.16941565  0.09083385 -0.13096985]
[-0.12973724  0.09300588 -0.07417125 -0.1686462  -0.01023842  0.13317105
 -0.08085623  0.02083816  0.21884687 -0.03298877 -0.02713412 -0.02483449
 -0.08563787  0.14291053  0.01483002  0.18720803  0.04749611  0.13172196
  0.10896259  0.13399225  0.05630594 -0.34523135 -0.12963931 -0.27492076
  0.08197321  0.13079026 -0.1304913   0.13756724 -0.19720046 -0.10386898
  0.14426278 -0.05578241 -0.49563548  0.00873731  0.2324866  -0.2712496
  0.1096012  -0.13454162  0.33136392 -0.1615706 ]
[-0.24730176  0.14138967  0.10354264  0.2144046   0.2691108  -0.0571938
 -0.0005092  -0.06971724 -0.12214769 -0.2861235  -0.04919599 -0.21652026
 -0.12848799  0.07128167  0.1363931   0.07550994 -0.20139979 -0.04817512
 -0.09209254  0.13239285  0.05853453 -0.19592409  0.1457274  -0.07050759
 -0.26421222  0.12329283 -0.2482665   0.21364425 -0.04435902  0.05751776
 -0.2889223  -0.1350376   0.02125269  0.08801916 -0.09482625 -0.15808174
  0.04121995  0.06623337 -0.19240268  0.08842677]
[-0.03878363  0.01670418 -0.18940794 -0.2569151  -0.0402394  -0.12007645
  0.1873716   0.00418568  0.00647734  0.09350544  0.00795487 -0.1279868
  0.10474726  0.02145467  0.24760675  0.24479659 -0.08238503 -0.12270132
 -0.2567193   0.06451312 -0.07081479  0.16638397 -0.18149614  0.02629555
  0.27107757 -0.03405808  0.09360705 -0.15582633  0.1910866   0.10128478
 -0.15670615  0.08023567  0.22598031  0.18373974  0.28623065  0.03481038
 -0.28883862 -0.18065166  0.14262486  0.23866352]
[ 0.22104678  0.28948513 -0.19474451 -0.20057425 -0.35594457  0.18431525
 -0.22367597 -0.09108984  0.16299106 -0.18364777 -0.00883052 -0.27268755
 -0.2068503   0.0764597   0.19364543 -0.24055636 -0.3278426   0.17738757
  0.21616259 -0.12934624  0.0493395   0.18929031 -0.16325948  0.07049745
  0.10317753  0.15500231 -0.21364331 -0.25228167  0.21676797 -0.22635864
 -0.05581382  0.04385638 -0.00234138 -0.06953065 -0.03644043  0.02432629
 -0.22586074  0.03455439 -0.24811524  0.16710411]
[ 0.17571409 -0.01388652  0.09198199 -0.17640075  0.15095593 -0.07482643
  0.25221303  0.08444874 -0.0737358  -0.01092471  0.12047882  0.3359168
  0.15161991 -0.1446012   0.1914037   0.20175098 -0.07197779  0.26264122
 -0.14775853  0.08986574  0.25226808  0.02492476 -0.20329632 -0.05526581
 -0.15241249 -0.11984778  0.12707779  0.15361373  0.3310461  -0.1588888
  0.08081924  0.2362376   0.1608652   0.01252415  0.06885005 -0.0106878
 -0.24728514 -0.09560359 -0.08017937 -0.23546633]
[-0.06478044 -0.05236646  0.06604247 -0.1126129  -0.03532431 -0.01341518
 -0.02437628 -0.04567545 -0.00149003  0.1137822   0.08353203 -0.12047753
 -0.09991582  0.25448895  0.09803043 -0.0216502  -0.17499624 -0.06717797
 -0.12162394  0.11658061 -0.12820303 -0.11282271 -0.05290119 -0.1311028
  0.04280603  0.06859802 -0.08205335  0.08134505  0.05639786 -0.06418663
  0.07026977  0.0546618   0.05239167 -0.00146821 -0.05736439  0.03138812
 -0.10248058 -0.13572814 -0.11566121 -0.02189332]
layer 3 Activation
tanh
layer 4 Dense
40 20
[ 0.05942877 -0.00477227 -0.12354207 -0.17285644 -0.1107661  -0.2667813
 -0.10286008  0.29565084  0.14316323  0.1064387   0.12732892 -0.35641795
 -0.09714243 -0.00777374 -0.18619981 -0.06575584  0.11154271  0.12019058
 -0.05086083 -0.30069813]
[-0.08277321  0.03252131 -0.18494247  0.0882928  -0.10236158  0.06805211
 -0.1006696   0.06576148 -0.08009961 -0.2836425  -0.05835554 -0.10334071
 -0.16269417 -0.13775948 -0.03786702 -0.06267346  0.35402647 -0.19822876
  0.19261311  0.30139017]
[ 0.26100114  0.03911042 -0.04001017  0.21879634  0.31518167 -0.00195606
  0.14873224 -0.07292328  0.04303057 -0.23683463 -0.16877744  0.11889091
  0.03569572 -0.18271784 -0.06582057 -0.00336615  0.26234224 -0.06967736
  0.05967788 -0.00263697]
[-0.00685176  0.06857441  0.06661992 -0.27958128 -0.05692048  0.05505658
  0.09899914 -0.03829669  0.12221294  0.08593853  0.20253599  0.2284332
 -0.11650064  0.06066671  0.02591045 -0.09491394  0.28683645  0.18380752
  0.18786867 -0.11501747]
[ 0.15181743  0.22268414  0.06264651 -0.16230562  0.319769    0.12171715
  0.2979254   0.0875961  -0.19638397  0.15146972  0.07098836 -0.19769952
  0.05679504 -0.25001293  0.14688607 -0.14292336 -0.097521   -0.08520293
 -0.09552348  0.10352139]
[ 0.06545249 -0.067781    0.0558173  -0.10825879 -0.12179742 -0.14653769
 -0.08679107  0.01970819  0.23266771  0.08343907 -0.03196539  0.24804056
 -0.00325497  0.18456905 -0.07599818 -0.29100463 -0.17732266  0.00287011
  0.07988049  0.2917124 ]
[-0.14392698  0.02218736 -0.39333338  0.20138693 -0.25456387 -0.01652407
  0.1762127  -0.2055448  -0.26107347  0.09610987  0.14642256  0.1266156
  0.2180424   0.15283117  0.07457461 -0.07285    -0.16756065 -0.15734735
 -0.21546893 -0.05515306]
[-0.06435951 -0.09987587 -0.14864351  0.13670674 -0.14486314  0.02884571
  0.14831838 -0.08129215  0.22228976  0.10510363  0.04787422 -0.23506638
 -0.27127934 -0.16167778  0.18850271 -0.00923102  0.04277285  0.21071395
 -0.09475454  0.16112562]
[-0.05761351  0.14848094  0.21063134 -0.06327092  0.02717135 -0.01214001
 -0.00625063 -0.25281882  0.08375079 -0.22326156  0.08300373  0.28208107
  0.17029554 -0.06377771 -0.09804294 -0.04916785  0.04985191 -0.20406194
 -0.30396703 -0.01076936]
[ 0.38152596  0.14619252  0.16432191 -0.05865072 -0.05022532 -0.02856015
  0.16940528  0.01256451  0.23448056  0.05590157  0.15178913  0.07822158
 -0.02247362 -0.0536119   0.13588633  0.18135694 -0.04564508  0.15347095
  0.03326229 -0.023731  ]
[ 0.08563503 -0.09339226 -0.24945767  0.1012347   0.14512525 -0.11103034
 -0.2626254   0.06825813  0.19269085 -0.24744727 -0.16341102  0.15248393
  0.2552667  -0.10481051 -0.0710376   0.10499753 -0.16177945 -0.283075
 -0.20641325 -0.293405  ]
[-0.03118654 -0.01959542 -0.05159335  0.11288317  0.18102078  0.01816346
  0.32807538 -0.02453614  0.02511372  0.26177034 -0.06191783  0.08678226
  0.2134029  -0.16587527 -0.10333349 -0.15150551  0.19113076 -0.04298202
  0.1843683   0.2053233 ]
[-0.04403736  0.13419423  0.0258901  -0.20516625  0.16656047  0.11061446
  0.02845478 -0.13002619 -0.0367488  -0.17270957  0.08411531  0.20249909
  0.1925007  -0.16584183 -0.20120803 -0.14529248  0.25685012  0.08508907
  0.0493191   0.26115897]
[ 0.28414983  0.05359859 -0.04017432 -0.1260243  -0.10471995  0.07258373
  0.24765089  0.13845617  0.22633453 -0.12367713  0.27405128  0.28974637
  0.02621087  0.08320855 -0.09158047  0.32871833 -0.01640072 -0.05284557
 -0.26482922 -0.02466824]
[-0.2691027  -0.00533349  0.14753605 -0.00626895 -0.1418986   0.06791909
 -0.26950207  0.14568518  0.09122051 -0.15334721  0.2646169  -0.20576133
  0.03636247 -0.13799225 -0.0852391   0.31443322 -0.0339707   0.06538492
  0.27178252  0.18471242]
[-0.11059647  0.08908603  0.03855632 -0.23577634 -0.04189809  0.0557585
 -0.09013965 -0.0438729   0.2709632  -0.12689818 -0.17030239 -0.02217905
  0.05904175 -0.21130273 -0.11395087  0.09813479  0.07949065 -0.05917788
 -0.22415921  0.00468209]
[ 0.00039548  0.18797275 -0.19893157 -0.16889852  0.13667844  0.10612175
 -0.02585644  0.0697846   0.14481999 -0.26768398 -0.03906286 -0.00343303
  0.0826877   0.03508903  0.21992694 -0.32497138 -0.02530359 -0.05490265
 -0.18674421  0.17270699]
[-0.04283524  0.12055024  0.05342703 -0.11656778  0.1091416   0.01433927
  0.2846222   0.1655884   0.05354283  0.21786207 -0.0305255   0.05716296
  0.08612131  0.00043535 -0.06162101  0.00672687 -0.13318169 -0.12572142
  0.04979669 -0.01842756]
[-0.11047057 -0.06965473  0.12543179 -0.04246942 -0.21927129 -0.03186245
 -0.13621138  0.15552227 -0.22838761 -0.20104255 -0.4620563  -0.02710228
  0.25934595 -0.2364097  -0.05333656 -0.23242484  0.1893605   0.1274854
 -0.24512693 -0.31100693]
[-0.01974617 -0.08390921 -0.12440905  0.15087949  0.02820267  0.15241376
 -0.24558426  0.13755302  0.23763838 -0.27413833  0.01800106  0.2211283
  0.13481179 -0.06921551  0.330496    0.25651556 -0.14463128  0.04590956
 -0.14642152 -0.16634285]
[-0.20429073 -0.11173207  0.24628432 -0.21842809 -0.2445969   0.14116742
 -0.22517993 -0.161076   -0.07674687  0.16219524 -0.08012308  0.22661905
  0.20074755 -0.09494355  0.06393737 -0.15371022  0.11403782  0.08389354
 -0.06254204  0.17061862]
[-0.3215923   0.19922152 -0.2373938  -0.15728588 -0.08625972 -0.11941084
 -0.2106519  -0.0283023   0.20228279  0.07735144  0.03146559 -0.03468311
 -0.07678391 -0.11750278  0.01819083 -0.15814206 -0.01003263  0.20099036
 -0.11857713 -0.17440382]
[-0.10969677  0.0553931  -0.20062439  0.22951141  0.12925784  0.23793194
  0.16885625 -0.07670417  0.23377515  0.04247802 -0.01511164  0.27489734
  0.0186223   0.20281121  0.03335876  0.20260376  0.2715702  -0.31466016
  0.05082381  0.13267967]
[-0.00635017 -0.07463079 -0.08494567  0.20598179  0.02766543  0.01687424
  0.1075479  -0.16361302 -0.27473444  0.001175    0.12990846  0.20236853
 -0.03626664 -0.29969448 -0.17406432 -0.2875571  -0.00987179 -0.12883013
  0.09169108 -0.20808974]
[-0.33325037  0.02027818 -0.17867239  0.25026178 -0.02748462  0.03131456
 -0.21729402  0.1969643   0.05393299 -0.00947913  0.07192616  0.11533707
 -0.15822707 -0.0050578   0.01391245  0.12939134 -0.05740809  0.00905815
 -0.11306779 -0.14484754]
[-0.01078036 -0.3207943   0.20052756 -0.26695064  0.05984847  0.24272309
  0.17409997  0.02323957  0.06789593 -0.08774299 -0.20392643  0.13301975
  0.04610499 -0.16638738 -0.02238231  0.24906875  0.20745784 -0.20397036
 -0.27441192 -0.25338888]
[ 0.15621348 -0.02342301 -0.11794855  0.29851687 -0.04752628  0.31929174
  0.22300439  0.07024855  0.03601925  0.24557959 -0.05508611  0.1584978
 -0.031297    0.27985868 -0.20225945 -0.13269211 -0.22083664  0.242411
 -0.16916102  0.19978227]
[ 0.17005384 -0.08394607  0.00868    -0.02234155 -0.20799883  0.25947645
 -0.07105696 -0.16392638  0.07318776 -0.21782798 -0.29474044  0.12802923
 -0.05118225  0.07810865 -0.30047914  0.09021775  0.01875413  0.16552995
 -0.01900957  0.03564781]
[ 0.22805886 -0.0905351  -0.00184899  0.25581005 -0.13921854  0.04660913
  0.03232481  0.12101701  0.16646805  0.06904593 -0.06325376  0.11011382
 -0.1482236  -0.23479337 -0.19317284 -0.03118286 -0.09807581  0.15812626
  0.21352156  0.14963639]
[-0.2846294  -0.32768896  0.02422458  0.10779543  0.02399915  0.09145223
 -0.10828587  0.07835984  0.29394686 -0.17901629 -0.37121883  0.02192633
  0.21165507 -0.05532961  0.0033237  -0.35030633  0.07787719 -0.22814764
  0.07007533 -0.14017604]
[ 0.04367395  0.23067258  0.09174185 -0.09157631  0.15338257 -0.21253778
  0.09761183  0.00459447  0.03343445 -0.1589465  -0.30333805 -0.2825925
 -0.22277941 -0.12432381  0.04715851  0.06603011  0.159288   -0.05859894
 -0.31463224 -0.07539593]
[-0.02127307  0.16749783 -0.01135781  0.27434644  0.2187983  -0.15691938
 -0.05633606 -0.1918216  -0.08145163  0.01977828  0.25602555 -0.01648756
  0.00437555 -0.00543955  0.19532841 -0.03883251  0.10166053  0.1856921
  0.06153246 -0.02633885]
[-0.35478377  0.1424646  -0.23075998  0.32588884 -0.0187677   0.1795647
 -0.19412853 -0.0748326  -0.18904172  0.14499514 -0.05445897 -0.10771298
  0.10043713  0.01266528  0.01364384  0.16525097 -0.35843524  0.11697112
 -0.16772585 -0.16636337]
[ 0.06575418  0.03989643 -0.10137423 -0.05087308  0.00551386 -0.00088293
 -0.05187073  0.33051297  0.37969935 -0.16006619  0.21622926 -0.08906353
 -0.10657889  0.07625182  0.07639391  0.0587225   0.1696418  -0.03893783
  0.17357597  0.09296911]
[-0.15896253  0.05028123  0.03473741 -0.13717937 -0.0366049   0.0113885
 -0.12802249 -0.1441224   0.14167164 -0.00998225 -0.11365128  0.0529453
 -0.01311314  0.03922039 -0.06470446 -0.04035981  0.18245405 -0.21026894
  0.05517236 -0.18522331]
[-0.14175385  0.02595342 -0.17616816  0.04528778  0.17669192 -0.11236341
  0.00758047 -0.11313839 -0.05406764  0.23278317  0.17699462  0.12785247
  0.05770008  0.16838002 -0.04143157  0.04176719 -0.18441415 -0.23046437
 -0.27271748  0.25069275]
[ 0.0331486  -0.02242892  0.17754209 -0.09334232 -0.01810499 -0.18235315
 -0.21545379 -0.05078974  0.36547807  0.19417375  0.1478955  -0.16762596
 -0.06937352 -0.14263865 -0.10849362 -0.12724292 -0.06125163  0.3113185
 -0.10683184  0.00155281]
[ 0.00988814 -0.17404774  0.1871639  -0.2881957  -0.14198856  0.18627153
  0.16208489 -0.24204256 -0.02749322  0.20798643 -0.11004747 -0.29637843
  0.1700964  -0.20838338 -0.01044025 -0.11220446  0.20859498 -0.17759344
  0.19686896 -0.04769896]
[ 0.17501786  0.05332407  0.252817   -0.15235023 -0.06782262 -0.19850932
  0.04201665  0.006039   -0.04800627 -0.23356353  0.06838596 -0.16128552
 -0.2315209   0.1272289   0.17737994 -0.3540767   0.07917973  0.03762483
 -0.01713352 -0.22057514]
[-0.320212   -0.09194326 -0.24117526  0.12329394  0.02883783  0.00998178
 -0.10916136  0.05123229 -0.20365712  0.19255204  0.0539479   0.17845407
 -0.04420335  0.264052   -0.20827591  0.17518155  0.15954939  0.29940152
  0.10734666  0.09098417]
[-0.01339789  0.03301395  0.10379928  0.1098842   0.00651044 -0.06231801
  0.01939554 -0.00969951  0.03234676 -0.09248304 -0.02997443 -0.06110241
  0.03701433  0.07017896 -0.03832896  0.11138083 -0.12196366  0.01900311
  0.04794597  0.02460241]
layer 5 Activation
tanh
layer 6 Dense
20 1
[-0.03232669]
[0.01745441]
[0.06810425]
[0.0167991]
[0.01699032]
[-0.00937598]
[0.06707312]
[-0.0146908]
[0.05216969]
[-0.05781982]
[-0.01259192]
[-0.01706661]
[-0.00222596]
[0.01812713]
[0.00397365]
[-0.13820796]
[-0.04813314]
[0.01166441]
[0.00160154]
[0.05410173]
[0.12351473]
