layers 7
layer 0 Dense
20 20
[-0.05534763  0.30187708  0.40312898 -0.13648629  0.44067767  0.26694733
  0.3081649  -0.10884713  0.21210355  0.08882878  0.33529112 -0.2935301
  0.23538965 -0.19151671  0.20009781  0.08729317  0.16951397  0.3103651
 -0.08637936  0.1308415 ]
[ 0.14382815 -0.12568612  0.18446694 -0.21909525 -0.10760318 -0.19840267
  0.1992242  -0.41676652  0.12973997  0.24225324 -0.2360367  -0.02137155
  0.10027755  0.2212687  -0.47837737 -0.17759588  0.4251539   0.37707606
 -0.40910342  0.4753859 ]
[-0.4787974  -0.38658968  0.01684321  0.19252521 -0.2919957   0.41214824
 -0.20494063  0.23125929 -0.16847524  0.14716321  0.2789076  -0.28424475
  0.19682926 -0.28851452  0.1577155  -0.06583572  0.06002739  0.31014144
 -0.30052394  0.06285201]
[ 0.13314179 -0.21419734  0.11262065 -0.4486661   0.07011959  0.02314544
  0.26090002  0.01259428 -0.25168413 -0.10616026  0.39611214  0.06738049
  0.01590289  0.37269843 -0.31827217 -0.12413653 -0.24251081  0.00291045
 -0.1352919  -0.07784874]
[-0.25465438 -0.13869621 -0.37778908 -0.007333    0.05826588 -0.12166433
  0.05821987 -0.17983626 -0.15168442 -0.0064513   0.41265312  0.05439373
  0.3983026  -0.3839787   0.01332397 -0.05211472  0.3880155   0.33396852
 -0.04169277 -0.01038249]
[-0.09481622  0.25281006 -0.22270364 -0.21026336  0.15444821  0.14669192
  0.23784326 -0.19483872  0.14563505 -0.05734945  0.16837564  0.24931519
 -0.04758104 -0.22410153 -0.08656266 -0.44174758  0.20752504  0.04251863
 -0.01286887 -0.36153245]
[ 0.34756085  0.38016     0.10566442 -0.28020373  0.3866853  -0.19429383
 -0.12589602  0.40417114  0.17916708 -0.39665878  0.08323072  0.38061795
 -0.05563666 -0.20761766  0.10034358 -0.32622355 -0.32467335 -0.27985346
  0.4821669  -0.23787946]
[ 0.38503608 -0.26725024  0.15015964  0.17765777  0.00739484  0.29049006
 -0.24973595  0.1640689  -0.1846888   0.31321874  0.22042975 -0.31371412
 -0.33057678  0.35729292  0.04739237 -0.41377297 -0.43333554  0.05794569
  0.2526754   0.41437683]
[ 0.17189936  0.1469233  -0.26392713  0.50420594  0.18815981 -0.19235033
 -0.09233357  0.14527051  0.29019874 -0.09131816  0.30643559 -0.30617696
 -0.28350398  0.39896873 -0.05552192  0.02182577 -0.22418648  0.29131365
  0.21009104 -0.01093844]
[ 0.27916315 -0.58564484 -0.19943494  0.4887095   0.07903962 -0.05545677
 -0.35675213 -0.02581244 -0.07564449 -0.85098654 -0.09610824  0.1944854
 -0.32473922  0.26629013 -0.30254522 -0.14735542 -0.2041334   0.23412812
 -0.22176424 -0.12073539]
[ 0.06016563 -0.42643875 -0.6918771  -0.17756626 -0.3407298  -0.21000451
  0.1012215  -0.27932942  0.03702993  0.11352905  0.18733826  0.20893462
  0.03042947  0.19206926 -0.08186972  0.1053981   0.14333075  0.19801684
  0.05615443 -0.0574681 ]
[ 0.19999671 -0.18053542  0.3648006  -0.12707663 -0.30451494  0.06835233
 -0.56876624  0.0656735  -0.02024412 -0.28971505 -0.1046346   0.30558115
  0.0772149   0.24760559 -0.45039058 -0.13860211  0.329816    0.46335018
 -0.2737418  -0.5897642 ]
[-0.03285581 -0.11890283 -0.17496364  0.39436796 -0.10900471  0.1232297
  0.5164053   0.16725452 -0.138036    0.24700344  0.0661684   0.13299789
  0.18339618  0.17107427 -0.29541185 -0.12874721  0.2331863   0.09952385
  0.08820213 -0.3616889 ]
[-0.48255906  0.69856775 -0.01960754 -0.7317358   0.5650207  -0.18977095
  0.54176176 -0.38314366 -0.14747886  0.57784694  0.24899247 -0.40065047
 -0.25395492 -0.04168714 -0.18450469  0.4342092   0.13595895 -0.3233201
  0.30394143 -0.07775217]
[-0.18576978  0.28775313  0.22788785  0.6676805   0.624668   -0.528214
  0.17795388  0.20922256 -0.2657738  -0.32015282  0.13513693 -0.60837257
 -0.30023172 -0.3834767   0.38273823  0.40845355  0.08019681 -0.03157395
 -0.12190498 -0.11803781]
[ 0.12539381  0.05717389 -0.346297   -0.07963931  0.55875045  0.1694585
  0.10901368  0.31657395 -0.14514169  0.2009346  -0.38390833 -0.13705076
  0.2581089   0.15028207 -0.41888234 -0.28018114  0.42362535 -0.09993596
  0.39244938  0.3642862 ]
[-0.0950253  -0.47052646  0.51886606 -0.3420134   0.18508556  0.39794442
 -0.17558354 -0.4654302   0.01694693 -0.34903932 -0.2804787   0.34834012
 -0.06143086 -0.09310694  0.312394   -0.12949246  0.14767821  0.22208914
  0.21866974  0.05733116]
[ 0.23204952  0.22227298  0.2860663  -0.13586457  0.23696736 -0.14716114
 -0.40822998  0.050226    0.02634365 -0.253661    0.2676483   0.29031518
  0.35776398 -0.3990031  -0.31854838  0.19839549  0.2769558  -0.08634279
 -0.38345858  0.13184246]
[-0.41535714  0.30270222  0.07458228  0.21242988 -0.25951552 -0.25542665
 -0.06101239 -0.16027269 -0.06311794  0.03955363 -0.01070425 -0.18679723
 -0.06352778 -0.21360068 -0.17296347 -0.1645286   0.20680745  0.17273226
  0.0115155  -0.13449863]
[-0.04060737  0.28610402  0.3481354  -0.01858923 -0.24743909 -0.10259932
  0.18344648  0.01238209 -0.10967904 -0.2084837  -0.20369278  0.16954362
  0.32475257  0.16438392 -0.2508424   0.1276479   0.21036124 -0.19235991
 -0.428413   -0.24266545]
[-0.01275738  0.05726012  0.12215948 -0.04042324  0.08840832  0.00492571
 -0.09501073  0.05783649 -0.08516178 -0.05906396  0.03496362 -0.05655961
  0.03891439  0.00159908 -0.06142404  0.03738406  0.04862341  0.05091937
  0.04299108  0.00099375]
layer 1 Activation
tanh
layer 2 Dense
20 40
[-0.01057365  0.17794304 -0.28051454 -0.31870788  0.28873292 -0.11590003
 -0.01977284 -0.20873225  0.134988   -0.429242    0.3028164   0.21628699
 -0.0680152   0.18570694 -0.12755334 -0.1846104   0.021004    0.21100152
  0.28919724  0.17577165 -0.16232122  0.07654629 -0.28415066 -0.17602019
 -0.05396604  0.1017148   0.05230972 -0.21701032 -0.27943736  0.38051575
  0.2098066   0.25648814 -0.16831248 -0.03901616 -0.196518   -0.07380828
 -0.04955664 -0.369196   -0.26368245 -0.04445634]
[-0.25815222 -0.29570323  0.05973892  0.41239142  0.1274354  -0.13547164
 -0.24771833 -0.2312586  -0.09053537  0.32786167  0.25658873  0.06005599
 -0.47402477 -0.20683631 -0.11883517 -0.1245458  -0.03002618  0.10463938
 -0.15207753 -0.50505656  0.19992036 -0.2553787   0.24015225  0.2078812
  0.02640449  0.49738753 -0.41468585 -0.23403123 -0.02616009 -0.20940332
 -0.20189548 -0.21247236  0.39112785 -0.5089369  -0.07811413  0.22765751
 -0.22838137  0.4699355   0.13107514  0.10879931]
[-0.16489069  0.0743193  -0.23031917  0.1179757  -0.08208997  0.03648056
 -0.45550916 -0.11399432 -0.06241503 -0.05022093 -0.10258447 -0.2578352
  0.02228745 -0.2617266   0.07986169  0.25472426 -0.22055812 -0.17224608
  0.15944242  0.15215679  0.25447935  0.25646943  0.15267405 -0.16579117
  0.0982212   0.07303445 -0.18377557  0.06223545 -0.26074612 -0.02755738
  0.1752264  -0.14492701  0.23296568 -0.41823125  0.34454513 -0.06572904
  0.23784904 -0.18239221 -0.01951509  0.10043638]
[ 0.16893773  0.15434824  0.07589914 -0.14245132  0.24360284 -0.3289212
  0.30512625 -0.52769077 -0.3206586  -0.18702348  0.21594504  0.20107429
 -0.24291262 -0.0982205  -0.29529124  0.09270252 -0.26182124 -0.3082668
 -0.0691309  -0.32620838 -0.03205292  0.14209248  0.06200805 -0.13130686
  0.24936199 -0.0733031   0.3228113  -0.11048005 -0.3224211   0.10303578
  0.06004033 -0.27395767 -0.2386436   0.22684732 -0.3095078   0.30859098
 -0.06395543  0.01702225 -0.16103819 -0.00992865]
[ 0.01420166 -0.62340754 -0.11684272  0.23964255  0.04348558  0.0444182
 -0.10217528  0.19741686 -0.13846366  0.3841746   0.11504157  0.13090721
  0.13667336  0.01716401  0.21411361 -0.31362724 -0.00264043  0.28359982
 -0.44444907 -0.3935295   0.23385465 -0.14484902 -0.10819276 -0.13514234
  0.22102319 -0.29164216  0.16701399 -0.12809923 -0.06655764 -0.25584587
 -0.06732836  0.04768599  0.1051782   0.18259394 -0.03307489  0.06502793
 -0.26374656  0.29846495  0.06016669 -0.01022999]
[-0.19957832  0.2388628   0.19353528  0.07601058 -0.1785313   0.12007596
  0.2209851   0.4419739   0.04353758 -0.16801915  0.03480548  0.07858177
 -0.05050625  0.13529256 -0.00251601  0.10945911  0.01169765  0.14903113
  0.11514372  0.05960128  0.08879521  0.04827471  0.31227413  0.35075685
  0.09882755 -0.02332748 -0.08812471  0.14400122  0.00654975  0.3168944
  0.12609407 -0.03423898 -0.19413072  0.33868918  0.2937363  -0.09897061
 -0.2709929  -0.22974594 -0.05519957  0.25693116]
[ 0.10117645 -0.32730022  0.09562389  0.24477883  0.05566743 -0.22655915
  0.00163239 -0.12028864 -0.26322496  0.06108931  0.0880641  -0.21506675
 -0.17952536 -0.12352366  0.1262812   0.19655837 -0.12536214  0.18908899
 -0.31320375  0.09368524 -0.23310885  0.04108435  0.0945394   0.28439105
  0.03084881 -0.15484229  0.30479145 -0.23922957  0.05960339 -0.10409775
 -0.09674635 -0.04050896 -0.08165894 -0.11642797  0.25540152 -0.34893337
 -0.15146497  0.07447167 -0.03079942  0.18230234]
[-0.21428806 -0.23779412 -0.29882953 -0.06357312  0.33202899 -0.16666761
  0.28109607 -0.35816377  0.105673   -0.10436156 -0.12815782  0.15753435
 -0.07520962 -0.16799006 -0.18686351 -0.01389845 -0.26318544 -0.25990322
 -0.16790262  0.01562635 -0.02925071 -0.17095438 -0.2571285   0.32679266
  0.00670633  0.18694486  0.17949781  0.0669327   0.24133343  0.0886109
 -0.23404795 -0.1272898   0.33446288 -0.25958285 -0.06505393  0.12660003
  0.17427202 -0.06596973 -0.27398664  0.07146928]
[ 0.21090582  0.11028368 -0.10756794 -0.17400897 -0.03752199  0.08710967
 -0.06167401 -0.0276455  -0.13802812  0.00880325 -0.16339003 -0.01376385
 -0.22497381  0.14861292  0.17140783 -0.04389304  0.2037514   0.22342767
  0.23666719 -0.16251153 -0.21656154 -0.23008266  0.23386987  0.1588389
  0.03253791 -0.04241725  0.29216564  0.24491253 -0.25000364  0.05100651
 -0.05308014 -0.234586   -0.05442619 -0.03538912 -0.24045524 -0.12455294
 -0.08800765  0.04624941 -0.12363715  0.18036073]
[-0.2525979  -0.14825086  0.24039763 -0.3219838  -0.07947645  0.02502668
 -0.0079862  -0.34217614 -0.26929376  0.17272379  0.19937298 -0.16916281
 -0.3489476  -0.04648476 -0.39430746 -0.26102212  0.13064115 -0.11299972
 -0.09725713  0.05187616  0.16560905  0.00308338 -0.16232298 -0.12202455
 -0.14796506  0.31558347  0.05582503 -0.17085466 -0.22390872 -0.08552472
  0.24150184 -0.43462205 -0.0393766  -0.1808697   0.27358982 -0.33648965
  0.15267624  0.23036918 -0.19932893 -0.03050797]
[ 0.09818751 -0.01341593 -0.13102508  0.1053492  -0.10928345  0.28506166
 -0.03777415 -0.23972417 -0.25751847 -0.38803843 -0.18045066  0.16165389
  0.25568888 -0.23326296 -0.2245689   0.01538234  0.08439843  0.28068554
 -0.2940065  -0.33632857  0.2043374   0.20967835  0.22656836  0.40897986
  0.29822156 -0.03597916 -0.17199428 -0.07496711 -0.18705449 -0.22096407
  0.01401652 -0.33038187  0.00384108  0.1236473  -0.2958167  -0.02122726
  0.06191956  0.13782656 -0.1798461  -0.04894721]
[ 0.20771617  0.5308385   0.16578467  0.20432094  0.25753543  0.07966148
 -0.03405462  0.18791224  0.20668323 -0.20528163  0.29321706  0.10287841
 -0.11521777  0.02819365  0.19766693  0.3555634  -0.19543025  0.3227402
  0.03989099 -0.1380927  -0.25119692  0.26523063 -0.2887546  -0.3149034
  0.03023157 -0.13057221 -0.07609887  0.22856961 -0.2649151   0.39061564
 -0.09752317 -0.18267857  0.14924158  0.21652673  0.05453719  0.00876153
 -0.08630735  0.21519811 -0.21448381  0.13801058]
[-3.35907429e-01  3.22782576e-01  1.17375024e-01  4.37655561e-02
 -1.75683036e-01 -1.50499135e-01 -1.74696483e-02  2.00919494e-01
 -2.11169198e-02 -2.24182069e-01 -2.47255743e-01  1.03341095e-01
  1.83552012e-01  5.49531132e-02  1.12591200e-01 -2.91240751e-04
 -1.43550262e-01  3.43575180e-01  9.87683237e-02 -3.64658564e-01
 -1.86603308e-01  1.27016038e-01  5.84973767e-02  4.66122895e-01
 -2.70447999e-01  1.73544452e-01  2.57432163e-01 -5.34098111e-02
  2.47445896e-01 -2.92214695e-02  1.41494289e-01 -6.53318018e-02
 -8.10277686e-02  1.99806854e-01 -4.12779637e-02 -3.17942053e-01
 -3.26461554e-01  1.35312244e-01  4.75338623e-02 -2.75416374e-01]
[ 0.35208842 -0.15781957 -0.00055514 -0.10457881  0.36076224 -0.5356262
  0.13991167 -0.23091306  0.11481591 -0.00379148  0.33567256 -0.31821418
 -0.09196781 -0.04113104  0.00504969  0.08240558 -0.19406289  0.053587
  0.14987043  0.40222725 -0.2745607  -0.12599526  0.09798763  0.20432182
 -0.15947446  0.1574236  -0.16452035 -0.47744682  0.09853901  0.1541165
 -0.1449174  -0.12884738 -0.53516984  0.01785782 -0.15498187 -0.11420729
  0.05520879  0.04872297 -0.25978702  0.01708658]
[ 0.23935717 -0.2438602  -0.01787769  0.16687249  0.19725025  0.01625315
  0.15880994  0.17994423  0.00858758  0.2220822  -0.21746844  0.31504175
  0.42049876 -0.26875454 -0.28588203 -0.1990632   0.11407294 -0.08253224
  0.03734895 -0.0227946  -0.10805286 -0.05214202  0.05664336  0.04942889
  0.25619498 -0.07441861 -0.3025591  -0.3826268  -0.04355734  0.00448471
  0.18458371 -0.11412948  0.22065043 -0.13223809  0.17686762 -0.14517188
  0.19617252  0.00802798  0.3134876  -0.05074709]
[ 0.02149101 -0.18058337  0.33257058  0.16548575 -0.22339667 -0.1345558
  0.1315826  -0.21757711 -0.23560055  0.18219876  0.1087453   0.07833765
 -0.14936598 -0.17587651 -0.29312417  0.28569445 -0.04886847 -0.07258627
 -0.19621183 -0.34010616  0.31728476 -0.02619857  0.08152696 -0.07137076
 -0.26294038 -0.08514323 -0.06788514 -0.44597307 -0.04559001 -0.19181007
  0.01715173  0.19432698  0.1309391   0.11670607 -0.00451526 -0.23061568
  0.09247749 -0.04387203 -0.00484872  0.1916902 ]
[ 0.09846579  0.28635418 -0.19099414 -0.08074462 -0.28470862  0.35198402
  0.00364627  0.22713806 -0.33791465 -0.18001965  0.17042764 -0.0599192
  0.06532586  0.19519123 -0.0012313  -0.02429786 -0.33457705  0.35082272
  0.2686907   0.12554505  0.06457864 -0.02922806 -0.34737864  0.22989653
 -0.15710883 -0.27090192 -0.24158964  0.14226198  0.12633671 -0.26267892
 -0.20896162 -0.36399916  0.05297949  0.07512384  0.27276674 -0.2667737
 -0.22493352  0.03817655 -0.05249881 -0.1978033 ]
[-0.06919143  0.09221509 -0.20934303 -0.25766447  0.04802758 -0.03501247
  0.1403352   0.18991722 -0.09336414 -0.3574484  -0.04213072  0.3726347
 -0.13740307  0.28034815  0.15122154 -0.24843419 -0.24373801 -0.22041768
  0.03891864  0.15255122  0.1040897  -0.12180023  0.31069732  0.08505119
  0.20539407 -0.08549541 -0.25620526 -0.01224466 -0.07803761 -0.00644576
  0.04917228  0.35006216  0.15926792 -0.16064548 -0.19688265  0.00186464
 -0.28875387 -0.29545197 -0.09367586  0.13668782]
[-0.19588749 -0.292302    0.20342782  0.11722843  0.11510389  0.03571588
  0.1034802  -0.06785905 -0.12336013  0.22500952 -0.07856169  0.09952369
 -0.034596   -0.06634141  0.28129888  0.27081704  0.12619407  0.21390627
 -0.01403273  0.34365195 -0.25396043 -0.16771473 -0.09771748  0.14327289
  0.22348753 -0.04992295  0.03635337 -0.11284815  0.07729923 -0.01800208
 -0.21821949 -0.11620592  0.21756203  0.1212799  -0.02570329  0.26961893
 -0.15118718 -0.11537574 -0.30261353 -0.19761287]
[ 0.09218672  0.14746264  0.09577173  0.18305503  0.21971793 -0.20403504
 -0.05246871 -0.24262191  0.22514811 -0.15947595 -0.11912325 -0.03238077
  0.04257034  0.02305983 -0.23442876  0.3092615   0.05024402  0.26670724
 -0.05269799 -0.04816808 -0.05019974  0.18567844  0.20772393  0.2474904
  0.24742886 -0.20783514  0.24574795 -0.08822352 -0.2585093  -0.14353526
 -0.1172843   0.13673171  0.31369373 -0.23198369  0.08671662 -0.37591657
 -0.1347749  -0.16634662  0.03866069  0.02015519]
[-0.07310096 -0.01640122  0.01046866  0.05678027  0.00225264  0.03401537
  0.05967509  0.07567764 -0.01236364  0.16341795  0.01209162 -0.01590557
 -0.14708023 -0.04882009 -0.00340058 -0.02932386  0.01756522 -0.02991901
 -0.01694206 -0.012501    0.0232717   0.01806975  0.00023926 -0.01320902
 -0.01707126 -0.10855153  0.01556719  0.05265182  0.04402496  0.03005029
 -0.04730164  0.0487572   0.12286887 -0.0635024   0.00118523  0.02990415
 -0.04021963  0.0166732   0.03342105 -0.01100372]
layer 3 Activation
tanh
layer 4 Dense
40 20
[-0.07322287 -0.06666218  0.00744614 -0.08842341 -0.14131622  0.2987289
  0.3059248  -0.2336695   0.1886416   0.14877906  0.24188846 -0.19279608
 -0.05357216 -0.25656843 -0.05588891 -0.12586133  0.3877916   0.02375943
 -0.13675763  0.11675353]
[-0.24447156 -0.30751464 -0.12683512  0.24493271 -0.1169932   0.14837088
  0.20893933  0.02987228 -0.20805016  0.3116813  -0.28445515  0.3437949
  0.19256501 -0.01872864  0.30427757  0.35041046  0.24208865 -0.29907116
 -0.3299394   0.07147278]
[-0.23231389 -0.22293709  0.1206989   0.14276358 -0.14609617  0.18408492
  0.14180581  0.12108131 -0.1372299   0.00049674 -0.09900309 -0.25578108
 -0.15093575  0.18196449  0.34757483  0.11682229  0.03190157  0.27936813
  0.2378549   0.24201134]
[ 0.27743345 -0.2958478  -0.12453753  0.32886127  0.0889192  -0.18292166
 -0.16620608  0.13162498  0.10119293 -0.1397805  -0.08181967 -0.1432799
  0.09897815  0.06800652  0.12517954 -0.20760527  0.07460461 -0.13393554
  0.07280922  0.38445058]
[ 0.36441475  0.01810486  0.16784145  0.2082278  -0.17378402  0.00704761
  0.21090856  0.07954928 -0.04439316 -0.20322442  0.12128769 -0.2039192
 -0.09883413 -0.04321843  0.13466614  0.08748469  0.12633242 -0.13210627
  0.11268625 -0.27913266]
[-0.1075239   0.20341244  0.19034685  0.26331845 -0.18341161 -0.14413284
 -0.10875298  0.08812677 -0.27266264  0.29177773 -0.06857494 -0.06743145
  0.12585959  0.1179425  -0.00599892 -0.29571047 -0.29792377  0.24500978
  0.08177367  0.27954146]
[ 1.2534218e-01  1.4371899e-01  3.6405377e-02 -2.2487330e-01
  1.8665324e-04 -3.3432260e-01  1.5261242e-01 -9.5640337e-03
 -2.7881283e-02  5.6009024e-02  2.2963829e-01  1.8886600e-02
  4.7079664e-02 -2.8419277e-01  1.8409272e-01  1.6800709e-01
 -2.5354201e-01  1.4120129e-01  1.1532536e-01 -1.4767243e-01]
[-0.283742    0.23587362 -0.13145676 -0.03988508  0.1416363  -0.21555267
 -0.34234756  0.24566495  0.21428475 -0.24584383 -0.28272808  0.04263105
  0.0478068   0.02895697  0.3762929  -0.12381969  0.3233223  -0.25254273
 -0.25594038  0.28988582]
[ 0.13126725 -0.19176647  0.1928699   0.03838479  0.04607892  0.36083427
 -0.12545002  0.2458946  -0.11941784  0.07833733 -0.12404388 -0.03209852
 -0.11232919  0.16214322  0.11972477  0.12686312  0.01033581 -0.1808578
 -0.05072319 -0.31973207]
[ 0.23535787 -0.00324958  0.10051624  0.00713264 -0.09809832 -0.03770379
 -0.12287255  0.05743149 -0.06568008 -0.00044736 -0.18454073 -0.3031363
 -0.20465352  0.2675589   0.032814   -0.28783897 -0.16200915  0.29742432
  0.36800432  0.3742691 ]
[-0.01050491 -0.19148439 -0.0158594   0.14708443 -0.20917144 -0.09968742
 -0.02254417  0.32500988  0.19224358 -0.14672372 -0.08445937 -0.0079949
  0.02012568 -0.14366618 -0.06619076  0.29519516  0.38146734  0.0960578
  0.04879966 -0.29757354]
[-0.26549417  0.23904376  0.26127514  0.33297133 -0.1597496  -0.20779815
  0.23344105 -0.12650743  0.28275967  0.24122341  0.23332222  0.2975592
  0.1452503  -0.10361007 -0.2513531  -0.12412705 -0.15229063  0.11919121
  0.15083115 -0.15212584]
[-0.13384461 -0.26895863  0.21068396  0.2492772  -0.10255351  0.17325807
  0.17738156 -0.18381852 -0.03135037  0.24480715  0.39448252 -0.08204285
  0.25508076 -0.22602448 -0.05661484 -0.2023472   0.04966041  0.2779174
 -0.1628632   0.125039  ]
[-0.18491106  0.25876978 -0.04292879 -0.24843775  0.1304381  -0.06872344
  0.11297929  0.17959979 -0.10483525 -0.19862787  0.07065     0.20114598
  0.13648005 -0.25000197  0.20790069  0.28823498  0.15383269  0.20707725
 -0.23694126 -0.05574454]
[-0.02355137 -0.08821309 -0.14259663 -0.25911418 -0.20171525 -0.1909451
  0.22779478 -0.02645591  0.2619138  -0.11434735 -0.3019083  -0.0862627
  0.32247376 -0.04600452  0.2525319  -0.29582316  0.20316464 -0.25787628
  0.22917189  0.37401608]
[ 0.10042122 -0.22091322  0.10333601  0.17501363 -0.02608985  0.25628915
 -0.08309716 -0.34306452  0.16422416 -0.05593818  0.11021824  0.06300839
  0.02700374  0.18555215  0.2884232   0.23777604  0.2998754  -0.00121746
 -0.06740439  0.04061508]
[ 0.29713744 -0.12595332  0.03650816 -0.0199985   0.17536607  0.07556058
 -0.042449   -0.19329    -0.16460294 -0.10782479 -0.15584384 -0.27588543
 -0.18240595  0.32099682  0.20963033  0.08445929 -0.10344583 -0.15537062
  0.20346034 -0.14602122]
[-0.1392689  -0.04692363 -0.23754396  0.31552398 -0.14631002 -0.3030317
 -0.0412222   0.02843289  0.12373919 -0.13412976  0.2552964   0.22696832
  0.11171421  0.12031154  0.38595167  0.1880078  -0.03049231  0.06660172
 -0.24135478  0.36126608]
[-0.02959643 -0.00484588 -0.19561242  0.16960286 -0.24839248 -0.19705652
  0.23483197  0.02881615 -0.11413404  0.20976047 -0.1938474   0.12976941
  0.3412377   0.13833961 -0.07937136  0.10889248  0.2953137  -0.21534662
 -0.32671857  0.18266112]
[-0.24934024 -0.14740247 -0.1417589  -0.4673709   0.14265719  0.2308664
  0.16580385  0.21786626  0.1124776   0.28320786 -0.0461233  -0.33656633
  0.11327524  0.28400016  0.19016078  0.09066767  0.37804806  0.01308399
  0.23947722 -0.22476603]
[ 0.31695598  0.08356789  0.01385057  0.15528516 -0.16716567 -0.19052134
 -0.18652864 -0.06140495 -0.26753044 -0.274766    0.14852127 -0.16342257
 -0.1353432  -0.09033626 -0.27558059 -0.31772205 -0.08226337  0.22743851
  0.16954948 -0.09336716]
[ 0.05965007  0.157529   -0.17315102  0.36913845  0.01890282 -0.15325266
  0.08317078  0.22929765  0.20245616  0.03423321 -0.06636099  0.05931354
  0.11084211 -0.12245332  0.2474016   0.04093354  0.26645842  0.0946992
 -0.11336476  0.20153518]
[-0.00297467  0.08714462  0.27883217 -0.06149233 -0.16257294  0.09563324
  0.10693422 -0.24873331 -0.26085165  0.13890603 -0.2663353  -0.20297733
  0.25750044 -0.13705224 -0.05670079  0.10857213  0.30138022 -0.32576433
  0.02997693  0.23847027]
[-0.08756225 -0.05879982 -0.20504464 -0.00693719 -0.03257434 -0.33261073
 -0.21274638 -0.12213303 -0.27588934 -0.26650298  0.16272594  0.26418784
 -0.09570429 -0.07623606  0.02637471  0.27807894 -0.1728739  -0.21983959
  0.17654671  0.3643025 ]
[-0.02688952  0.08278765  0.16322541 -0.28433043  0.2117879  -0.19711168
  0.07159366  0.2722155  -0.22264256 -0.07160082  0.30273572  0.26526955
 -0.14488442 -0.28621793  0.08063263 -0.17159843 -0.21366997  0.3014717
  0.19412631  0.10651558]
[ 0.22936702  0.19670174  0.18683921 -0.08763469 -0.053576   -0.04149298
 -0.27595842 -0.10329765 -0.29789966  0.22537884 -0.16340747  0.30206123
 -0.23500499 -0.18608162 -0.2574525   0.34567723  0.15486977 -0.2535281
  0.07979005 -0.29571474]
[-6.4130560e-02  1.1430934e-01 -5.4822695e-02  1.2893662e-01
  5.4185875e-02  2.3317490e-02  2.1396384e-01 -3.3385124e-02
  2.3805894e-01 -2.5393605e-01 -1.2417358e-02  1.5625246e-01
 -2.3696706e-01 -1.2616448e-01 -2.4537923e-04 -2.7431217e-01
  5.4997895e-02 -7.9441592e-02 -1.4028129e-01  1.8991780e-01]
[-0.06656236 -0.19710964 -0.23609398  0.07733225  0.14073405  0.22858779
  0.10506506  0.00685429 -0.32496378  0.2852762  -0.3963537   0.13143423
  0.33636653 -0.15894924  0.13073257 -0.11057759  0.04209919  0.01122279
 -0.06083376  0.04140491]
[ 0.1187548   0.23450348 -0.3212692  -0.04800146 -0.11504583 -0.23240873
 -0.20354472 -0.12692504  0.08869889 -0.1824593  -0.28657153 -0.19501936
 -0.23848125  0.07518564  0.36948332 -0.26194212 -0.2548613  -0.10693543
 -0.1676986   0.14412104]
[-0.03889013 -0.28426662 -0.2199493   0.12981755 -0.1105259   0.08576841
  0.2516348  -0.07415741 -0.226811   -0.02404061  0.03230705 -0.02218163
  0.32335827 -0.17902577  0.1870192   0.1001481   0.323644   -0.32810292
  0.263524   -0.00186851]
[-0.04411845 -0.26323676 -0.18825164  0.13391379  0.16965306  0.0861338
  0.04878504  0.22906204 -0.24881718 -0.19559136  0.2624951   0.15132584
  0.0332654  -0.19599468 -0.13619614  0.09777287  0.35630208  0.14198253
 -0.12903741  0.09101862]
[ 0.10553184 -0.17052595  0.07487096  0.04359181  0.12654857 -0.230978
 -0.01157416 -0.1508708  -0.12097133  0.0956477  -0.06064572 -0.2876086
  0.34040937 -0.11431655  0.31251895 -0.15399697 -0.00221257 -0.08019336
 -0.26484945 -0.07464517]
[ 0.11084527  0.01716366  0.07247975  0.2798355  -0.20704913  0.32490915
 -0.23237173  0.09512711  0.02642639  0.29153445 -0.16585846  0.0741033
 -0.04205554 -0.071228    0.0837684  -0.02769114 -0.34075326  0.1069987
  0.1034004   0.05398702]
[-0.37974986  0.15158162  0.17788243 -0.10081812 -0.32208258 -0.08268055
  0.287299   -0.04063224  0.27874407 -0.06787256  0.22657396  0.05761321
 -0.07549218  0.23264353  0.16287114  0.1366932   0.10531107  0.01035746
 -0.06141473 -0.12378624]
[ 0.01012934 -0.11952313 -0.10565439  0.00366266 -0.20048185  0.00484953
 -0.36321807 -0.2525799  -0.07068475  0.15713371 -0.09803321 -0.04125853
 -0.2557886   0.17577146  0.1611514  -0.20725514 -0.09310551 -0.19129287
 -0.19602098 -0.01914836]
[ 0.04804961 -0.30955645 -0.14068696 -0.37279025 -0.26756373  0.129607
  0.2714085  -0.2527259   0.13179222  0.22413515 -0.21903847 -0.04477606
  0.08958516  0.0325714  -0.30087063 -0.14723861  0.16226183  0.02708814
  0.08077596  0.14660242]
[ 0.29519907  0.11642931 -0.18450417  0.1916097  -0.31365472  0.06342755
  0.10795984 -0.02466581 -0.09937838 -0.37183005  0.12326637  0.13786921
  0.2057896   0.08288445 -0.2584101   0.10344324  0.17080998  0.17822278
 -0.23927268 -0.15765764]
[ 0.20512709  0.0191166  -0.06638881 -0.19394755  0.03772347 -0.12068906
 -0.19376563 -0.3243372  -0.08227731 -0.18068632 -0.08596475 -0.13464817
 -0.34388778  0.24573265  0.13313796  0.18875076 -0.41213048 -0.01934516
 -0.21607018 -0.09369589]
[-0.10843197 -0.15205973  0.24031228  0.02586827 -0.05512037  0.1119426
 -0.28051856  0.26294684  0.16511825  0.131985   -0.09200337 -0.31463122
  0.06122411 -0.10721982  0.09380704 -0.16448002  0.03725737  0.04754715
  0.21680556  0.33430803]
[ 0.1230134   0.02743301  0.29845348 -0.07628287 -0.10158148  0.16399454
  0.04207613  0.04770908 -0.04187608  0.09134296  0.0135371  -0.30631962
 -0.162992    0.11094611  0.02903813 -0.23961715  0.15888873 -0.24199109
 -0.13483942  0.15028429]
[ 0.00486194 -0.02115691  0.03287089  0.02489172  0.00438776 -0.02547645
 -0.015081    0.00710318  0.01650297 -0.02656193 -0.04745241 -0.06211692
 -0.00638665 -0.00205734  0.00779376 -0.02598631 -0.01018334  0.01071828
 -0.01161104  0.01941939]
layer 5 Activation
tanh
layer 6 Dense
20 1
[0.17476638]
[0.07905888]
[-0.01603003]
[-0.18328625]
[-0.0014449]
[0.12799926]
[-0.3237871]
[0.00170967]
[-0.04004141]
[0.11695644]
[0.34523848]
[0.20803714]
[0.24128933]
[0.26650137]
[0.18953243]
[-0.27970642]
[0.14384636]
[-0.07960474]
[0.0127506]
[0.05378164]
[-0.02397268]
