layers 7
layer 0 Dense
20 20
[ 0.32337263 -0.33283612  0.1949779   0.12215345 -0.29517218 -0.344327
 -0.37962523  0.2987584   0.06990846 -0.3115226  -0.15362588 -0.02187606
  0.14706625 -0.05408361  0.10302567  0.4155949  -0.20025297  0.41534337
 -0.23892902  0.03291062]
[ 0.29867804 -0.10563245  0.07985862  0.38982213 -0.14741455 -0.06516646
  0.26082984  0.20129362 -0.00048081 -0.3112565   0.16037211  0.30052698
  0.34094086  0.05282059  0.12286133 -0.2215233  -0.03074856 -0.25996685
 -0.42330873 -0.07407239]
[-0.23762658 -0.38165     0.4583144   0.13961622  0.20663182  0.29660484
  0.15260145 -0.12132637 -0.27787703  0.19849476 -0.13852176  0.06508014
  0.16422954  0.22909203 -0.34962687 -0.2808549  -0.33695146 -0.07760577
  0.04718357  0.12484568]
[-0.11350043  0.06277116  0.07516903  0.39893913 -0.02582972 -0.16206834
 -0.14508758 -0.38303745 -0.38965684 -0.27952126 -0.45426846  0.29835856
  0.00110308 -0.05691488 -0.1417808   0.3338661   0.17357865 -0.0239577
 -0.01124538 -0.5035942 ]
[ 0.11445399 -0.02468073 -0.25623342 -0.44949746 -0.14564613  0.10157972
  0.04436066  0.02863003 -0.1123623  -0.28020677 -0.0859216  -0.00376517
 -0.09818795 -0.12834696  0.414691   -0.17667364 -0.00504923  0.1871389
 -0.1788196  -0.18056862]
[-0.00156767 -0.2829702  -0.04425469 -0.24531087 -0.02935751  0.17073783
  0.26512244  0.20388854 -0.08012332  0.11174688 -0.5012523   0.31631768
  0.03561492 -0.22268717 -0.2668957  -0.2660202   0.28378335  0.17507029
  0.05599875  0.17995772]
[-0.02703216 -0.04003421  0.39018437  0.11458696 -0.2691934   0.10336158
  0.231591   -0.00834737 -0.27308333  0.23937671  0.177787   -0.3871603
  0.30633524  0.1273454   0.2839118   0.19253796  0.04172134  0.21125035
 -0.4090082   0.15479162]
[-0.34069157 -0.08467821 -0.10761955 -0.076575   -0.21610558  0.1981094
 -0.18158019  0.05046884 -0.28701028  0.15642075  0.33144537 -0.10702684
  0.22933538  0.35240287  0.17863074 -0.26226887  0.02326376 -0.10829397
  0.35263485  0.4690822 ]
[ 0.14425886  0.20534499  0.05028815 -0.21119629 -0.02997279  0.0041006
  0.1670129   0.14245115 -0.4057042   0.36132145  0.29629806  0.6330064
  0.10460275  0.4528682  -0.48117357 -0.11806867  0.3116457   0.02808504
 -0.10912735  0.09054174]
[ 0.7018267  -0.5763217  -0.5763757  -0.5894258   0.3761486   0.14066541
 -0.61817026 -0.03195352  0.5015446   0.06526878  0.21429527 -0.38085058
  0.48348328  0.45922866  0.01809442 -0.33069432 -0.23321223 -0.63137925
  0.18448175 -0.03063929]
[-0.04438774  0.29012135 -0.29593393  0.25216872  0.36581653 -0.14622267
 -0.38803166 -0.7197833   0.17027965  0.31545126 -0.05864411  0.5094976
 -0.32202443  0.7208963  -0.72987664 -0.1408735   0.93816483  0.04614732
 -0.17175633  0.0384529 ]
[ 0.18804163 -0.13610323 -0.1530517  -1.5266693   0.12498307 -0.51167166
  0.44346687 -0.83061635 -1.0970725   0.07124046  0.603862   -0.15307769
  0.12882082  0.6116953  -0.24909288 -1.194109   -0.753972    0.02491934
 -0.7113312  -0.13359067]
[-0.02171805  0.0878897  -0.02308954  0.05911154 -0.03889168  0.5330654
 -0.56866723 -0.35525975  0.17578177 -0.3495604   0.73988986 -0.4146649
 -0.09439678 -0.24461678  0.09904702 -0.25651628  0.18178281  0.44283286
  0.66207993  0.73011965]
[-0.19159828 -0.13222045 -0.23233452 -0.19109133 -0.18951286 -0.26565245
 -0.12763149 -0.02511572  0.25743845  0.11206345  0.7044086   0.17796189
 -0.04794824 -0.07838469 -0.17930748 -0.2954569   0.01479066  0.3239072
  0.19018981 -0.28266668]
[-0.12660354  0.19244835 -0.22564824  0.0912616  -0.12454607 -0.3875586
 -0.24840139  0.18856372  0.09929174 -0.23003906  0.40103582  0.36379254
  0.07305199  0.1411198   0.11347292 -0.02599311 -0.5133101  -0.22616476
 -0.09802986  0.46645775]
[-0.00512848 -0.057882   -0.2975551  -0.40208042  0.29251015  0.10728974
  0.17779145  0.28905413 -0.7089473   0.35005918 -0.3141422   0.4421011
 -0.07721736  0.10375649  0.15106332 -0.818432    0.41141668 -0.13391286
 -0.08786668  0.23163195]
[-0.06025682 -0.04934774  0.19411238 -0.09398408 -0.07105676 -0.14408262
  0.21185718  0.53884774 -0.2086772   0.58329     0.24955456  0.18197231
  0.38601765  0.27480605 -0.09361209  0.06521289  0.10963858 -0.60400623
 -0.4340602  -0.6419574 ]
[-0.8533557   1.1775944   1.5631329   0.44566637  0.03856076  0.04970506
  0.3558767  -0.12302929 -0.00539852  0.22219375 -0.9110928   0.01482998
 -0.20627165 -0.16311063  0.16559574  0.5693332  -0.39196897  0.67796904
 -0.36598426  0.18323968]
[ 0.13440046 -0.35704386  0.0017629  -0.17782933 -0.99474293 -0.08153404
  0.08871173  0.6455123  -0.27378827 -0.671964   -0.78193146 -1.0743946
 -0.06799774 -1.1770216   0.6376019   0.3943248  -0.6274686  -0.38213232
 -0.06496261 -0.47590023]
[-0.70901436 -0.61741     0.74707514  1.8160012  -0.37192646  0.13563251
 -1.0390773   0.5828454   1.028944    0.26157987  0.2123589   0.22818847
  0.51229846  0.17119882  0.27352798  0.8763973   0.39028186 -0.3334532
  0.8786251   0.42774516]
[ 0.17571153 -0.08875542  0.13307437 -0.0199935   0.00429691 -0.07693479
 -0.15354149 -0.06241306 -0.05113605  0.02231699 -0.176401   -0.11480495
  0.01368009 -0.06443308 -0.08507548  0.01653224 -0.12516233  0.0512124
 -0.07556092 -0.11143672]
layer 1 Activation
tanh
layer 2 Dense
20 40
[-0.02587803 -0.3921338   0.12012468  0.48807204 -0.12982601  0.07101712
 -0.1658374  -0.28509235  0.25348544 -0.17922302 -0.05240011 -0.7018265
 -0.28946677 -0.2356437   0.14121649 -0.08706764 -0.21199635  0.43753377
  0.29203    -0.02439104  0.00552634 -0.12576649 -0.07045893  0.08781838
 -0.05458467  0.2907411  -0.34388077  0.21722035 -0.3246312   0.42121577
  0.61272186  0.4531604   0.10505334 -0.45268342  0.11325799 -0.16227905
  0.06867585 -0.1825569   0.28253293 -0.15814045]
[ 0.17900848  0.52137554 -0.3789755  -0.38907617 -0.08413699  0.06391169
 -0.5289805  -0.08266702 -0.3378432   0.09333156  0.25081837  0.08222973
  0.3598032   0.05876919 -0.3556277   0.15473987  0.23198557 -0.1715476
 -0.17836809  0.332696    0.11984695  0.26494327 -0.5837206   0.07111372
 -0.18887304  0.30509958 -0.15109563 -0.35138255 -0.20750847 -0.60033095
 -0.84418106  0.56002986  0.549827    0.05760914 -0.05583046 -0.13700207
  0.0171363  -0.26723886 -0.26442435 -0.13977179]
[ 0.22278173  0.53891945 -0.24941479 -0.43484834  0.00485568  0.31136385
 -0.47606787 -0.35287496  0.17788133  0.19680251  0.12734155  0.28466237
  0.33678156 -0.027448   -0.0732943   0.02800058  0.09936796 -0.00697706
 -0.09971516  0.13922277  0.15333998  0.32978457 -0.02670359 -0.29464793
  0.3483798   0.0078677   0.38617602 -0.25441304 -0.11902011 -0.25763974
 -0.38589606 -0.39437693 -0.43048972  0.22972788 -0.60918224  0.01068576
 -0.30934548  0.22374944 -0.19030173  0.2881819 ]
[-0.47269756  0.2163862  -0.3829223   0.02905358  0.28050983 -0.00404742
 -0.21225931 -0.3087299  -0.0074419   0.18174425  0.22833999  0.6255443
 -0.13164733 -0.267651    0.10410719 -0.06312877  0.0990118  -0.10110114
  0.23711279 -0.2014792  -0.13852325 -0.17466585 -0.6403064  -0.25105733
 -0.11546781 -0.75150186  0.12416868  0.09584892  0.13402589  0.16926466
 -0.09804241  0.14373188 -0.85712236 -0.05091032 -0.4421136   0.08390192
  0.2234052   0.11545734  0.26522234 -0.16023695]
[ 0.24334672  0.47195277  0.2652432  -0.23003823  0.03441688 -0.2964085
 -0.19176202  0.31230113  0.12901728  0.20228949 -0.25090116 -0.39171293
  0.07666142 -0.25880274 -0.13353343  0.28917098 -0.07817767 -0.1976765
 -0.17092147 -0.14825216  0.2074862   0.17637885 -0.11781044 -0.14545791
 -0.10585913 -0.12617716 -0.27285555  0.28047442  0.22630423 -0.05096441
  0.0634298   0.29551238 -0.02707336 -0.50604916  0.10259789  0.24506448
  0.29539022 -0.3277134   0.34355825 -0.22536063]
[-0.40629372  0.14962775 -0.14030804 -0.17647323  0.14744148 -0.04499831
  0.03672788  0.20917849 -0.28856525  0.19929345 -0.1387933   0.31811178
 -0.12224453  0.18240434  0.43675005  0.00429801 -0.40735203 -0.19125368
  0.1699524   0.09518462  0.11182678  0.25501978  0.01251939  0.42931312
  0.0305723  -0.3554185  -0.20688958 -0.14257942 -0.23331624  0.46520856
  0.2204483  -0.01022679 -0.11022142  0.02031189 -0.01692632 -0.11224547
  0.09999156 -0.3431714  -0.27182665 -0.13565011]
[ 0.12031253 -0.46903855 -0.18521462 -0.31984997  0.3962036   0.3353176
 -0.38757277 -0.0698421  -0.29007882  0.22412449  0.28078234 -0.1037527
  0.03202125  0.23090392 -0.30642343 -0.11614542 -0.1458854  -0.11958617
 -0.3361841   0.13852209  0.13943219  0.05915724  0.11659694 -0.1769153
  0.29183897  0.4293833   0.02591561 -0.27197826  0.19635172 -0.3248169
  0.20442286  0.04061181  0.7241197   0.26526394  0.06875136  0.01756005
 -0.16627027  0.16528292 -0.08511552 -0.23667563]
[-0.3177992   0.40507898 -0.11477119 -0.06518639 -0.00932893 -0.11950267
 -0.39283487 -0.1477058   0.24368964  0.2947365   0.5437395   0.30967933
  0.06204003 -0.00681414  0.36375663 -0.2634232  -0.19410749  0.12456002
  0.13789853  0.25217915 -0.31580162 -0.21155196  0.0821869  -0.1899459
  0.11774314  0.630865    0.38494435 -0.3724193   0.10004044  0.45666537
 -0.2748976  -0.05983828  0.0247589   0.29237795 -0.13058881 -0.00063165
 -0.3638273   0.15091544  0.22269227  0.01594255]
[-0.3464243   0.5609961   0.04288878 -0.22409254 -0.2643695  -0.5174661
  0.20563072 -0.20250154  0.12093658 -0.24902862  0.03118915  0.16706108
 -0.08199674  0.34932607  0.36918053  0.33343527  0.42064813 -0.14046708
  0.72195023 -0.15723233 -0.35226092  0.2036721  -0.10682086  0.23011829
 -0.49634123  0.01094847  0.18722548  0.37606826  0.00645695 -0.01857082
 -0.38747564 -0.2468237  -0.66138446  0.17954867 -0.3946808  -0.12975551
 -0.14958094 -0.15820588  0.6448561   0.34825286]
[ 0.3153452   0.078238    0.23421283 -0.0081743  -0.03628256 -0.46463442
  0.03881837 -0.18811288 -0.1634345  -0.0298172   0.1065255  -0.06210272
 -0.09940052 -0.10658149 -0.22957163 -0.04612221 -0.16338001 -0.20508033
  0.10203943  0.26033816  0.1392436  -0.30702913  0.27190527 -0.2133473
 -0.23957247  0.1775432  -0.13142174  0.01044819  0.09057643  0.41088104
 -0.43678558  0.2088038   0.43542275  0.38441053 -0.05230412  0.21534345
  0.23066422 -0.12573807  0.27369842  0.0132074 ]
[ 0.02263073 -0.11922184 -0.09596244  0.41905048  0.25609374  0.02470067
 -0.2386575   0.45528826  0.22608672  0.07112169 -0.47320822  0.3599943
 -0.04508618  0.40089318  0.22223525  0.24224041 -0.12682119 -0.59543747
  0.523571    0.02177874 -0.13625884 -0.04984952 -0.2541088  -0.05013853
 -0.08973301 -0.43420726 -0.4753921   0.3860313   0.04334529  0.32415935
  0.12099975  0.52311194 -0.19139025 -0.3472358   0.53154546  0.15956646
 -0.291707   -0.36085746  0.49542895 -0.2781517 ]
[ 0.40089187  0.11657801  0.00373239 -0.39967868 -0.01111068 -0.3739211
 -0.06925935 -0.17509617 -0.03414757 -0.23603925  0.10475227 -0.03387308
 -0.1250135  -0.25644663 -0.33148703  0.19456278  0.17327517  0.26452297
  0.10031127 -0.04838967  0.25964537  0.21019776 -0.46103206 -0.4070846
  0.05866694 -0.00667725 -0.33199078 -0.04687501  0.3632581  -0.132663
 -0.2656383   0.00994827 -0.44319734  0.15439208 -0.28895822 -0.09646195
  0.28675562 -0.27408028  0.27886042 -0.23127906]
[ 0.11942875  0.03519296  0.2651856  -0.03577473 -0.21665539 -0.31772766
  0.09661536 -0.16941513  0.04626897  0.11735381  0.00992623 -0.02881624
  0.13598704  0.1346018  -0.13342255  0.22564687  0.17639302 -0.37111357
 -0.00497716 -0.15135565 -0.22736551 -0.18920773  0.29285628  0.31950068
 -0.1975114  -0.07676496  0.12960692 -0.33185068 -0.20282768  0.33645806
 -0.13557176 -0.2211964  -0.1789944  -0.01091278 -0.28269565  0.04300273
 -0.14898087 -0.19164802 -0.05448095 -0.09067538]
[ 0.40606752  0.06984283  0.18954523 -0.07967567 -0.3668455  -0.50646156
  0.34601763  0.11949486  0.42783013 -0.08998475 -0.16051038 -0.23161651
 -0.20805492  0.26935327 -0.2167519   0.44447264  0.17243707 -0.12143334
  0.23932917  0.09839935  0.3944096   0.15543321 -0.13544168  0.01558675
 -0.20399126 -0.27644095  0.22017498  0.36250436  0.26937637 -0.093781
  0.04998362 -0.0244019  -0.41671503 -0.20928864 -0.0819708  -0.14255834
 -0.11661662 -0.34358427  0.6138492  -0.12059441]
[-0.25913635 -0.15072742 -0.00387616 -0.41343075  0.22415434  0.06523239
 -0.23098002 -0.2904468   0.07393347  0.01170766 -0.2586339  -0.09374344
  0.44982597 -0.17996316  0.58812827 -0.14559895 -0.02870737 -0.3675841
 -0.5145057  -0.34545857 -0.32376856  0.225842    0.11006185  0.01495654
  0.3012069  -0.03864478 -0.05120102 -0.07886726 -0.13412541 -0.06719577
 -0.2844731  -0.14960767  0.42032066  0.3367229   0.02523131 -0.17313576
 -0.1300176   0.19039221 -0.2078478   0.20358892]
[-0.34237555  0.47116137  0.14855269 -0.43561307  0.24042894  0.31199995
 -0.38693038 -0.08023655  0.23673566  0.29596278 -0.0388526   0.12596436
 -0.13446945 -0.11372852  0.12788413 -0.21352567  0.10066579  0.18289344
 -0.32516798 -0.08697999 -0.0771893  -0.23548569 -0.0720892   0.2516682
  0.20635204 -0.12302262  0.4441569   0.2605483  -0.03640716 -0.25423244
 -0.3267133  -0.16350624 -0.23115143 -0.01268061 -0.3834683   0.07841704
  0.07263038 -0.02740387  0.02967747 -0.10288563]
[ 0.5798504  -0.3329493   0.3906449   0.18105005  0.00396662 -0.28792948
  0.6972013   0.12223338 -0.3908597  -0.18541794 -0.07067887  0.42276874
  0.3657757   0.00968444 -0.34675887  0.18226846 -0.06901139  0.5564804
  0.19452694 -0.05345992  0.3300873   0.02063059 -0.6185131  -0.24854189
  0.21128611 -0.16191576  0.09269676  0.50135905  0.3681283   0.3127233
 -0.39790744  0.1774612  -0.40973672 -0.07700359 -0.07370408 -0.14302401
  0.18553853 -0.49571466  0.23467423 -0.36299697]
[-0.13520889  0.1518584  -0.25711817 -0.2237029   0.02495524  0.21005549
  0.39135396  0.08522879 -0.44583237  0.35202622  0.14764011  0.6033128
  0.5177555   0.01246923  0.17836961  0.13972063 -0.317023   -0.05949947
 -0.31554583  0.19680475  0.09110716  0.06979078 -0.44430897  0.0552678
  0.24802367 -0.10062728 -0.26292333 -0.22740625  0.06267947 -0.6536267
 -0.02287219  0.29421493  0.21028686  0.05523796 -0.23433417 -0.03774199
 -0.19095415 -0.32311255 -0.11046933 -0.45275524]
[-0.43502703 -0.6329165   0.31415138  0.5770721   0.14915639  0.00226053
  0.04733375 -0.07262497 -0.31993186 -0.4325688   0.31142825  0.3481458
 -0.02614832  0.29191977  0.21689406 -0.07550395 -0.21748906 -0.3202842
  0.27309826  0.17605199 -0.11573488  0.21196198  0.03631476  0.13148007
  0.07834094 -0.29186398 -0.10238534  0.01841798  0.0599547   0.34151432
  0.42311397 -0.03942912 -0.5137168   0.38967058  0.3015392  -0.2698359
 -0.42989898 -0.07809144  0.36818373  0.08749527]
[-0.26019794  0.2456343   0.34576187 -0.46980286 -0.14612216  0.07329189
 -0.42526293  0.31725535  0.12665664  0.01972926 -0.3037389   0.02603291
 -0.3959682   0.13490528  0.1352462   0.20360395  0.03782086 -0.29828632
  0.12511413  0.21579795  0.00443594  0.19219369  0.4314674   0.3094793
 -0.35968348 -0.5585757  -0.17066482 -0.39111972  0.3172101   0.04128231
 -0.4593798   0.52317685  0.07850111 -0.21341948 -0.2771092   0.04858825
 -0.0757616  -0.2579328  -0.13342406 -0.26095414]
[-0.09574395 -0.10741937 -0.00041976  0.05414853  0.03553119  0.13294654
  0.08288811 -0.15568991  0.00965425 -0.02451565  0.04735558  0.03080669
 -0.05024017 -0.09653791 -0.00549233 -0.0776737   0.25541016  0.13634327
 -0.00338025 -0.03412944 -0.02990833 -0.01246647 -0.14180031 -0.08172948
  0.08768315 -0.07232448  0.01428756  0.29640833 -0.04442732 -0.19849187
  0.25101432 -0.09904491 -0.26015985 -0.1863535  -0.15680182 -0.02561485
  0.26233348  0.20638277  0.04401121  0.02266801]
layer 3 Activation
tanh
layer 4 Dense
40 20
[ 0.39456934 -0.24881543 -0.09491833  0.10441239  0.03536818  0.02909605
 -0.4145751   0.2136406   0.15721041 -0.24707966 -0.30628854 -0.31475136
  0.46862155  0.21875586  0.29211816  0.36408982  0.14073901 -0.40635705
 -0.29547343 -0.26033965]
[-0.15567286 -0.0687329  -0.12155709  0.19208853 -0.23496416  0.04310516
 -0.3376933  -0.389967    0.01608496 -0.24235776  0.04352497  0.05132407
  0.04533176  0.13660917 -0.13134994 -0.18243201 -0.39255735  0.07279847
  0.12631848  0.4053065 ]
[ 0.01882106  0.0519207  -0.27162233 -0.19599093 -0.20305927 -0.3735467
 -0.05067275  0.14742307 -0.10698818  0.01519203 -0.19083114  0.2495023
  0.15075575 -0.07587061  0.12943222  0.23423369  0.36310643  0.21429886
 -0.37516674  0.01462691]
[ 0.21522292 -0.16640782 -0.21449497  0.20501626 -0.02710303 -0.19456686
  0.3573206   0.27008384 -0.23392856 -0.12271836  0.26315206  0.573138
  0.10735639 -0.12870389  0.44667768  0.12416743  0.51201427 -0.12801746
 -0.13336019 -0.43763182]
[ 0.21538898  0.02457714 -0.08993739  0.21138905 -0.06028564  0.362219
  0.28065133 -0.09316768  0.15422599  0.27335256  0.01806156  0.05118121
 -0.26000917 -0.03278334 -0.08794104 -0.19055083 -0.11368416 -0.10885624
  0.05552388 -0.34149548]
[-0.10151169 -0.21867815 -0.00110341 -0.08133952  0.34079313 -0.03560473
  0.19168088  0.1288671   0.1730784   0.15685686  0.38738155  0.01823406
  0.15586331 -0.40554443  0.12824257 -0.1169185  -0.2498909   0.33071452
  0.51854455 -0.2289092 ]
[-0.16458794  0.0637033  -0.20182596 -0.0203323  -0.00863069 -0.23374666
 -0.2147682   0.4622132  -0.06732793 -0.11548163 -0.03449024  0.32801902
  0.11746911 -0.10826027  0.3223327  -0.11206452  0.25244462 -0.1381755
 -0.34674352 -0.37720758]
[ 0.0060951  -0.3118794   0.11769411  0.14092708 -0.0202804   0.00730495
 -0.11757667  0.43987373 -0.14346503 -0.23085539 -0.19393276  0.24349609
 -0.2178434   0.22425008  0.04105594  0.33481202 -0.0204936  -0.14157557
 -0.11731296  0.23887017]
[-0.30709144  0.17381392  0.14228994  0.24697414 -0.27562094 -0.3850875
  0.3141235  -0.35914117 -0.21669686 -0.18715848  0.39101797  0.4331028
  0.18756291  0.10075583  0.09825602  0.2347996   0.09119923  0.26795852
 -0.18720831  0.05619566]
[-0.14354742 -0.2663887   0.08452135 -0.12655729 -0.07262418  0.19077198
 -0.086242    0.16253588 -0.14552441 -0.16944925  0.3424647  -0.42740738
 -0.00420961 -0.14613196 -0.4191474   0.09834684 -0.4476041   0.04436477
  0.4379021   0.14105712]
[ 0.0011047  -0.06781475 -0.02291158  0.1822324  -0.01491033 -0.15349397
 -0.02366565 -0.09833109  0.12617767  0.38139546  0.17373365  0.01451938
  0.12852563  0.17806482 -0.21013777 -0.22698995 -0.10431029  0.02291536
  0.21025729 -0.29027864]
[ 0.03373624  0.02269418 -0.081875    0.15682296 -0.3237835  -0.04471993
  0.02164309  0.12449309  0.1206114  -0.10972486  0.1567399  -0.12694985
 -0.37917632 -0.04792088 -0.3363369  -0.36253887 -0.42537928  0.06299074
  0.18277551 -0.4967556 ]
[ 0.04659497  0.19492404  0.21895978 -0.08327986 -0.0242491  -0.08909672
 -0.18151115  0.2486845   0.02182642  0.24029234 -0.10165679 -0.39054197
  0.01614743 -0.10990249 -0.03781502 -0.07346891 -0.09710097  0.1955832
  0.29505932 -0.15246229]
[ 0.22411235  0.06154044  0.09608555 -0.10267633  0.04939186 -0.12074807
 -0.13114156  0.11774143  0.02843162  0.2867942   0.05120186  0.06343973
 -0.29241824 -0.01411309  0.2633895   0.4012942   0.46422407 -0.18158154
 -0.29696375  0.27634528]
[-0.38774672 -0.21259871  0.00584545  0.24005601 -0.330755    0.17900005
  0.33572274 -0.13201085 -0.08047702 -0.32150355  0.15337713  0.22888717
 -0.3105712  -0.4382412  -0.2936746  -0.0849479   0.08364211 -0.06796882
  0.4055564  -0.10520203]
[-0.38036984 -0.28352442 -0.18694232  0.10550652 -0.09622061 -0.3650974
 -0.07010824  0.00617757  0.22219561  0.08733273 -0.22872081 -0.17167954
 -0.23204426 -0.04367332 -0.07038763  0.28347754  0.00239811  0.21158381
 -0.42666575  0.20613047]
[-0.19718838 -0.1429583   0.1347526  -0.1993027  -0.04484462 -0.21873951
 -0.08236539 -0.5275948   0.15441051 -0.09748986 -0.128058    0.15981673
  0.20342872 -0.12697858  0.21642657 -0.17923497 -0.20957     0.07069612
 -0.04222088 -0.08522939]
[ 0.22849707  0.1445031  -0.1036415   0.02545173 -0.04397317 -0.22652523
  0.03760963 -0.02494298  0.12569375  0.0175395  -0.11837208 -0.00044291
  0.30807257  0.10573243  0.05993093 -0.18347158 -0.03683281 -0.23016672
 -0.0553024  -0.04127209]
[ 0.18802017  0.09721158 -0.38680267 -0.08397704 -0.34603614 -0.28136423
  0.02653407  0.00518588 -0.12028316 -0.01783505 -0.10775857  0.36883038
 -0.40014532  0.20460685 -0.15225782 -0.16256183  0.45672035 -0.3195293
 -0.51115614  0.22571652]
[ 0.06981961  0.14619984  0.1353379  -0.1714136   0.19018869  0.04017282
 -0.19231395 -0.17211363 -0.00134842  0.18966967 -0.22907288 -0.11830916
 -0.13775611  0.28616363 -0.31284532  0.07395857 -0.1409522   0.10918008
 -0.23370217 -0.11089533]
[ 0.12831888 -0.08116762 -0.2217505   0.3119691   0.19553383 -0.03817737
 -0.17481628  0.2757076   0.17729284 -0.32742256 -0.42185718 -0.06567797
  0.2731067   0.03843196  0.0748759   0.344313   -0.13383089 -0.0519651
  0.18869863 -0.25263882]
[ 0.00575812  0.02325884 -0.29718024  0.07676697 -0.02790363 -0.04344658
 -0.29817775 -0.16159955  0.22327805 -0.07943027 -0.02384706 -0.38153625
 -0.1261358   0.406481   -0.03181008 -0.097205   -0.36431253  0.07693287
 -0.11561844  0.29126745]
[-0.24038273 -0.08006676  0.14710975  0.2215338   0.2773362   0.08520225
  0.17462768 -0.27652994 -0.24437563  0.36551002 -0.03676448 -0.03615655
  0.10386486 -0.23221248 -0.23402138  0.15545584  0.26727778  0.25008124
  0.01025882  0.29323164]
[-0.2856094   0.03493255 -0.02031882 -0.07694831  0.13643554  0.32066312
  0.08606404  0.10707078 -0.18584439 -0.09670433  0.31219366  0.1318734
 -0.29654515 -0.13072117 -0.29060468 -0.04400185  0.12629579 -0.10725672
 -0.23618902  0.35465786]
[ 0.02031327 -0.09503615  0.25734892 -0.09281997 -0.14239462  0.25393492
 -0.01131046  0.31937274 -0.06592084 -0.06137941  0.04961082  0.05319715
  0.03887578 -0.21681279  0.11550288 -0.19992577 -0.12143073  0.15150286
  0.38552606 -0.4274968 ]
[ 0.03166038 -0.2908196   0.43296063 -0.10951965  0.32585388  0.21612312
 -0.19726835  0.1604397  -0.2958271   0.3541645   0.12768671 -0.03399662
  0.3342017   0.23080644  0.18185855  0.31901142  0.00623652  0.04960352
  0.32092425  0.0311255 ]
[-0.48175162 -0.16803296  0.07808653 -0.06126826 -0.12722073  0.09158296
 -0.04573344 -0.36572465 -0.12884203  0.34130427  0.1710837   0.11697552
  0.25292444 -0.3461091  -0.01373513 -0.40365326  0.0204605   0.17099953
  0.2124966  -0.20902032]
[-0.31705484  0.08386207  0.33450386  0.00492066  0.11332241 -0.52818173
  0.20854256 -0.11546797  0.28728542 -0.24168713  0.31638828  0.73963296
  0.2230045   0.35454932  0.39655387  0.1107619   0.35835752 -0.10027199
 -0.58625257 -0.28296575]
[-6.8248481e-02 -2.2393813e-02  2.4400926e-01  2.5048515e-01
 -2.4820396e-01  8.9220479e-02 -1.3892043e-01 -4.6128005e-02
  2.5901523e-01  2.9616304e-02 -4.2070216e-01  1.2198914e-01
 -2.2490568e-01  1.0454195e-01  3.7752006e-02 -3.5542405e-05
 -6.5051518e-02 -6.1166696e-02  4.0250108e-02 -6.0049269e-02]
[ 0.27125892  0.00955225  0.1632495   0.04456914 -0.3420892   0.31460533
 -0.01372498  0.1944701  -0.3207184   0.39279473  0.03627612 -0.23838405
 -0.20735842  0.13190883  0.12651205  0.25101992  0.18562567  0.02195163
 -0.44052476 -0.00270298]
[ 0.22794385  0.395808    0.27875024 -0.09118988  0.33470815 -0.4192245
  0.24830057  0.13659067 -0.20744056 -0.28714317 -0.09646476  0.38880897
  0.07496861 -0.09914923  0.0690151  -0.00673932 -0.24262816  0.16873448
 -0.1554736  -0.47740403]
[ 0.25913087 -0.5123257   0.10113265 -0.2486797   0.12678918 -0.36489084
 -0.15977624  0.15321296  0.18071726  0.08551928 -0.4790238  -0.2734598
 -0.27323008  0.36449686 -0.01218739  0.3699721  -0.2147242   0.23418285
 -0.45658624  0.14394009]
[ 0.02696512 -0.24390694  0.19470355  0.1569705   0.2611643   0.4303671
 -0.46244052 -0.10661972 -0.42050415 -0.02530379 -0.43288526 -0.6046491
 -0.17913084  0.4258405  -0.14025709  0.45921257  0.2561345  -0.29212996
 -0.25040117  0.02429754]
[ 0.11346494  0.11437345  0.16933535 -0.03693658 -0.05821322 -0.14432514
 -0.39526328  0.14462171 -0.20837443  0.46988878  0.21672483 -0.08413199
 -0.05017223 -0.2438642  -0.21834114 -0.42888668  0.19411322  0.10332914
  0.02697749  0.0062315 ]
[ 0.31981927 -0.38545266 -0.29323262 -0.06805582 -0.11229162  0.01944655
 -0.09999684  0.558744   -0.22812288 -0.31940627  0.01964589 -0.05705009
 -0.38360623  0.16854319  0.3144518   0.34992868  0.4635138  -0.09965333
 -0.41156265 -0.33769035]
[ 0.1452382  -0.26923507 -0.09787751  0.05399739 -0.04020634 -0.13366841
 -0.00859036 -0.24943389 -0.0250077  -0.14570962 -0.02113187 -0.21134059
 -0.05832733  0.12855564  0.08365954  0.10156859 -0.12453605 -0.21261057
  0.25100517  0.06330498]
[-0.23585132 -0.11977205 -0.10169118  0.15750924  0.21216615 -0.01399057
 -0.08316878 -0.06242864  0.23272434 -0.41445065  0.21770559 -0.01062148
  0.24943158  0.03635801 -0.06634119  0.01172697 -0.06393413 -0.25533992
 -0.20029123 -0.07809228]
[-0.1137891  -0.13088323 -0.12509842  0.01102206  0.28141576  0.08874252
  0.29578105 -0.10695764 -0.03218274  0.22725002  0.18390316  0.1400022
  0.14543122  0.17288099 -0.09249604 -0.1628215   0.18405321  0.11364508
 -0.07485687 -0.30721334]
[-0.06156968  0.18656841  0.28079337 -0.08254515 -0.44017097 -0.31368375
 -0.00715795 -0.46868533  0.03756122 -0.3402075  -0.07951222  0.43017474
 -0.30065218  0.1300773   0.09696063 -0.21398553 -0.014698   -0.2893262
 -0.46041775  0.10827538]
[-0.1678317  -0.06451289 -0.20184623  0.16236049  0.00193253 -0.19780044
  0.16228509 -0.05246574 -0.214022    0.2467671   0.11946591 -0.04382597
  0.29782435 -0.1244029  -0.33910212 -0.12700114  0.1455609   0.10681982
  0.27249494  0.2903371 ]
[-0.03546708 -0.1694327   0.02099342  0.01855759 -0.02122173 -0.06169665
  0.10687985 -0.07498406  0.14125831 -0.11934369  0.11286099  0.07749458
  0.11935908 -0.1306031   0.02300664 -0.03877974 -0.16753174  0.06787247
  0.088906   -0.14812507]
layer 5 Activation
tanh
layer 6 Dense
20 1
[0.09649374]
[0.00527678]
[-0.00015652]
[-0.00051728]
[0.20212457]
[-0.10227384]
[0.24492306]
[0.10657641]
[0.2675857]
[-0.21122637]
[0.07369482]
[0.09675311]
[-0.31063154]
[-0.03687215]
[0.00687888]
[-0.20407458]
[-0.11899042]
[0.0560976]
[0.11102922]
[0.20696706]
[0.01451317]
