layers 7
layer 0 Dense
20 20
[-0.01584123  0.11910386  0.4189641   0.1073402  -0.04002604  0.08129185
 -0.14464194  0.37825587  0.0109053   0.27523378  0.1171969  -0.0309327
 -0.29693532 -0.5630138  -0.0804609  -0.02806716  0.14954498  0.01152288
  0.13042021 -0.4487808 ]
[ 0.19437264  0.3615495  -0.40594283  0.25776434  0.8514493   0.15178585
  0.67183274 -0.05194556 -0.15983498  0.4213369   1.1778358   0.08786003
  0.13253984  0.33316326  0.47878632  0.32978788  0.06810996 -0.07436429
 -0.02880771 -0.29488254]
[ 0.4993824   0.46168673 -0.3243082   0.3348068   0.727516    0.22365414
  0.7036262  -0.3462703  -0.17605211  0.15125634  0.7689132   0.4672907
  0.30902988  0.707898    0.12255862  0.61452043 -0.22738856 -0.10147217
 -0.07533851  0.09402185]
[-0.15560363 -0.54272324  0.44842893  0.29778355 -0.24855033 -0.12650064
 -0.02589913 -0.08463872 -0.17076002 -0.07466965 -0.06039702 -0.34494412
 -0.20847389 -0.52573854 -0.07922056  0.38140672 -0.39820972  0.19111314
  0.15214746 -0.27094236]
[ 0.4575025  -0.05493128 -0.13867462 -0.11325185 -0.11727308  0.3021
  0.5740295   0.214943    0.03779123 -0.29279688  0.2857602   0.00957376
  0.2192493   0.28236923 -0.02232098 -0.1653896   0.36323565 -0.01541047
  0.29956743  0.44350582]
[-0.22930722 -0.7172138   0.3948572   0.26929128 -0.66807735  0.3875212
 -0.32876933  0.20107603  0.20388395 -0.10985071 -0.9963108  -0.07877319
 -0.2440868  -0.6630682  -0.6031924   0.06163813 -0.3864951   0.5291736
  0.30877152  0.32756016]
[-0.77268827 -0.8783114   0.09317311  0.3337802  -0.7122254   0.08847126
 -0.40054584  0.55649424  0.50036126 -0.32116294 -1.0473492  -0.15074429
 -0.63455546 -0.74290466 -0.4317557  -0.3841923   0.19819225  0.34608334
  0.50890064  0.4227108 ]
[ 0.11797303  0.17477229 -0.09365866 -0.06604877  0.25799912  0.06062113
 -0.04925527 -0.25748807 -0.25899106 -0.08546546  0.2128316  -0.30604085
 -0.58400434  0.20452373 -0.04100505 -0.26320988  0.33675796 -0.39472914
 -0.3242094   0.34147105]
[ 6.1944830e-01  3.1583646e-01  1.7367703e-01 -2.4292094e-01
  4.0716067e-04 -3.9719379e-01  1.1927641e-01  6.9239861e-01
 -4.4786751e-01  8.0632105e-02  6.1754191e-01 -1.4838928e-01
  8.2679510e-01 -4.1935483e-01 -2.8743908e-01  6.5738969e-02
 -2.4343425e-01  3.6794150e-01 -7.3783863e-01  2.4404602e-01]
[-0.07091223  0.792433   -1.1897517   0.37519878 -0.7374986   0.02631885
 -0.90314    -0.90259784  0.27717957  0.07054699 -0.9738296   0.3225901
 -0.03424699  0.05265462  0.050791    0.5771037  -0.62794983 -0.4389898
  1.0660651   0.29683664]
[-0.9779513   0.38175988  0.08238839  0.48763335  1.005764    0.08106851
 -0.26550633  0.9036702   0.74256223 -0.28048497  0.46196857  0.88386625
  0.19773681  0.212328    1.2326312   0.71822274 -1.0375342  -0.35934535
 -1.027899    1.1498913 ]
[-0.14255202 -0.8477821   0.59376657 -0.71114826 -0.32934675 -0.59900945
 -2.8163474   0.5350706   0.56700754  0.2313215  -0.90604407  0.36260986
 -0.6875964   0.6547773   1.4779148  -0.7940879   0.39684027 -0.817128
  0.8600947  -0.6712823 ]
[-0.19731481  0.15455486  0.16462404  0.24683148  0.15198824  0.30747005
 -0.2113288   0.01696687 -0.14436077  0.3868563  -0.8646451   0.0845572
 -0.4825839  -0.09538012  0.08183573  0.35003027 -0.6381317  -0.10257388
  0.5758886  -0.67436445]
[ 0.38472214 -0.46094465  0.5733819   0.15109095 -0.3079715  -0.29432467
  0.0366336   0.21138558 -0.10932567 -0.35043466  0.58606005 -0.37658158
 -0.03365577 -0.42814046 -0.22266625  0.07107534 -0.25987405  0.47197393
 -0.38223538 -0.2501913 ]
[ 0.24011828 -0.34094453 -0.01143949 -0.25934187 -1.1203154   0.26734358
  0.15429603 -0.1555959   0.17433937 -0.1035306   0.18568036 -1.2733656
  0.15653369  0.24776487 -0.6143048   0.21740498  0.4933626   0.41009063
  0.5543549  -0.2600266 ]
[-0.34371787  1.0344568  -1.5242903  -0.13487516  0.47442     0.32067832
  0.17322367 -1.3191508  -0.37830415 -0.30408585  0.31293094 -0.32075217
  1.667711   -0.4459652  -0.4829372   0.78161335 -0.545615    0.01801486
 -1.1121792   0.89851695]
[-0.20588513 -0.83911705 -0.31967306 -0.08434632 -0.2171855  -0.1033733
  0.9200194  -0.10108934 -0.31695932  0.08118268 -0.49599966 -0.49643013
 -0.7215161   0.17823008 -0.08456261 -0.56939137  0.16385174 -0.09944765
 -0.41735697 -0.34207323]
[ 0.04690675 -0.32503992  0.5488917  -0.75175166  0.54905975 -0.05437045
  0.39820254  0.47339272 -0.34318957 -0.32226682  0.02732053 -0.8329512
 -0.16875933  0.8344854  -0.25199622 -0.6137399   1.1083637   0.1226082
 -0.7322475  -0.07589877]
[ 0.31100377 -0.46285012 -0.11478876 -0.28798175  0.1890832  -0.3600607
  0.08855085 -0.27107236 -0.4665976   0.01506373 -0.31522968 -0.03606914
  0.45157173 -1.0100425  -0.62552094 -0.6935513   0.7421642   0.24778627
 -0.22777016 -0.5411849 ]
[ 0.24449712  0.3437747   0.04628078  0.17596234 -0.66011345 -0.23800825
  0.41750005 -0.43042088  0.19726315  0.58711797  0.2000622  -0.4568504
 -0.07004236 -0.25028837 -1.1914307   0.1375883  -0.5274839   0.05149142
 -1.0394711   0.08526836]
[-0.3149288  -0.09442739  0.18965986  0.302215    0.10162503 -0.05544317
  0.03447247  0.13382031  0.15048717 -0.01614142  0.02843906  0.03907704
  0.04902647 -0.19944532 -0.05534886  0.10438209 -0.13743664  0.17882782
 -0.01497602 -0.18233125]
layer 1 Activation
tanh
layer 2 Dense
20 40
[ 0.1541672   0.05758216  0.17679165  0.09554525 -0.5881097   0.04217556
 -0.43537638 -0.17096078  0.04208923  0.26330662 -0.32231286  0.31308225
  0.2965543   0.21502319  0.09663764 -0.20394132  0.12751903 -0.5389743
 -0.21114545  0.12213781 -0.29370347 -0.40452787  0.0841138   0.28618252
  0.3758143  -0.16077498  0.3321437   0.46856722  0.03302726  0.01998269
 -0.00150019 -0.10140763 -0.03933466 -0.2582516   0.13532314 -0.11366553
  0.07501393  0.02732139  0.44965494 -0.12149885]
[ 0.25777432  0.34451914 -0.04455058  0.44796884  0.15360719  0.37256655
  0.10446773 -0.00473338  0.00979848 -0.5074212   0.3307458   0.07628236
  0.38499102  0.40468934  0.37419075  0.30465135  0.01601763  0.25438118
 -0.18640548  0.41795284  0.33265784 -0.19953185 -0.25139645  0.15138057
 -0.17063312  0.49923444  0.26597032 -0.39910823  0.39733762 -0.21568996
 -0.1198953  -0.12705518 -0.03441714 -0.13067195  0.10101138  0.03908707
 -0.4590079  -0.07697159 -0.25471902 -0.25679493]
[ 0.28097954 -0.08224311 -1.1849109  -0.5297031  -0.00213558 -0.03425243
  0.47768474  0.14662571  0.34073487 -0.16381516 -0.25407445 -0.00523385
  0.14714581 -0.40769768 -0.2210248  -0.2689615  -0.08692757 -0.46228072
  0.25751933 -0.5282263  -0.33431172 -0.15022942 -0.16181464 -0.20333114
 -0.07038087 -0.8563262   0.35471117  0.79002887 -0.44553733  0.76821256
  0.04315632  0.11419471  0.82340074 -0.11878642 -0.320253   -0.21164891
  0.61980075  0.19074935  0.38238856  0.08463304]
[-0.09302501  0.17349637 -0.3837407   0.22628005  0.25866488  0.02497568
  0.28741252 -0.09089429  0.3418812  -0.49596724 -0.00476801 -0.22900751
 -0.24715991 -0.18293549 -0.01072243  0.18879989 -0.11981396  0.49236184
 -0.24432677  0.41619968  0.05917533 -0.00078314  0.05114047  0.14359811
 -0.15486956 -0.33949628 -0.34041816 -0.21582742 -0.13608447  0.18297692
 -0.13500993  0.19534884 -0.01574754  0.0486858  -0.01060457  0.0219922
 -0.01401274  0.01911794 -0.28377572 -0.17900288]
[ 0.07024817  0.12840508 -1.0265695  -0.11632933 -0.0109974  -0.17325829
  0.20564666  0.69794863 -0.3570675   0.50543827  0.14696233 -0.3260416
 -0.38398266 -0.10458918 -0.14145078  0.37545455 -0.08980995  0.32488826
  0.275409   -0.62768424 -0.00513739  0.14299095  0.10643668 -0.48175392
 -0.50960475  0.10330956  0.00821907  0.24947876  0.05407862  0.18951368
  0.06571077 -0.15501061  0.10465246  0.09294271  0.02852679 -0.12020922
 -0.20346005 -0.27247673 -0.17863339  0.19121638]
[-0.2072373  -0.10221323 -0.1123071  -0.09042584  0.01730825 -0.12810029
  0.15517707 -0.10601925 -0.13921927  0.08253519 -0.24089655  0.327067
  0.18186788 -0.01294184 -0.20119917  0.14636886  0.1630787   0.23230417
 -0.06654149  0.02872538 -0.22349527 -0.12207853  0.0035803   0.06077078
 -0.01495423 -0.17846172 -0.28105438  0.02889105 -0.33965224  0.11608313
  0.19035107 -0.02791153 -0.22715317 -0.13692446  0.03820604 -0.10859941
  0.20157789 -0.14733425  0.11579942 -0.10561685]
[-0.5134819  -0.29268092  0.0973642   0.00738275  0.2573072  -0.13289925
  0.0539658  -0.04986018  0.2681401   0.59014213 -0.16619669  0.10210263
 -0.0635524   0.02921146 -0.43342784 -0.29212388  0.1484234   0.42459106
  0.3465963  -0.21354125 -0.32781756 -0.36932248  0.61463463  0.41640925
 -0.77639824  0.09825398  0.02638766 -0.11654528 -0.35960826  0.11530704
  0.15297112  0.27643684 -0.08161494 -0.02536536  0.7024745  -0.0264284
  0.23061019  0.136591    0.20068625  0.18591407]
[-0.11735621  0.15017661 -0.81507593  0.19100825 -0.30429274  0.06671914
  0.67067146  0.32656536 -0.05315372 -0.22824252 -0.07843395  0.10563929
 -0.02565234 -0.33629897  0.02720582 -0.18976673  0.16076288 -0.5490175
 -0.10753933 -0.27500826 -0.03903978 -0.08374643  0.10907359  0.05775606
 -0.32811236  0.07271597 -0.22053781  0.3600046   0.42516276  0.3597823
 -0.19004965  0.03774472  0.64481765 -0.17440473  0.24199566  0.30687907
 -0.01414014  0.27206385  0.19389863  0.05972707]
[-0.19688283 -0.2564115   0.32687405 -0.15025176  0.35081634 -0.17692754
  0.3002695   0.06974322 -0.13772337 -0.2808138   0.1551843   0.18475108
  0.03357341 -0.24548668  0.03393503 -0.02603064  0.07987159  0.10969213
 -0.04694397 -0.11877041  0.08153296 -0.00509282  0.09076858 -0.07719819
 -0.21602231  0.4068006  -0.23131584 -0.14114495  0.03675977 -0.07407935
  0.01159951 -0.07750444  0.03854448 -0.0678337  -0.02116722 -0.19329406
  0.11245113 -0.2012257  -0.10144878  0.05021574]
[ 0.38273582  0.16775808  0.05840391  0.2125737   0.15623827  0.17713451
 -0.10133115 -0.25047445 -0.07237057 -0.23538432  0.04743633 -0.00461668
  0.0722313  -0.22284047  0.29694873  0.00255763 -0.00096774  0.24777964
 -0.09416573  0.28865957 -0.0565582   0.26882845  0.06185772  0.01353045
  0.14073531 -0.01059252  0.1845214  -0.2291208   0.06678519 -0.1636825
 -0.10710375 -0.1592809  -0.07311998  0.28182918  0.13020451  0.56228703
 -0.09869503  0.09924235  0.09032883 -0.27430707]
[-0.04566979 -0.33686462 -0.40187025 -0.19551577  0.31775376 -0.17863207
 -0.16324575 -0.11612557  0.05541477 -0.06742959  0.15921403  0.11960606
  0.05054141 -0.02823331 -0.4341963  -0.5977919  -0.25212535  0.2867661
  0.01662764 -0.15846124 -0.42777142  0.3537619   0.18868157 -0.02279738
 -0.7464324  -0.0698133   0.30539554  0.18251857  0.47001803  0.20849489
  0.12238292 -0.04651216  0.5479482  -0.47785014  0.42578453  0.10100247
 -0.0238697   0.0427893   0.7301079   0.31725755]
[-0.00110405  0.10697399  0.31009614 -0.00647993  0.36879233  0.01907108
 -0.13370267 -0.07730979  0.05293336 -0.20232894  0.2473295  -0.2724148
 -0.15323025 -0.16942756 -0.01965445  0.5671774  -0.03737095 -0.36569166
  0.14016974 -0.17556667  0.1373501  -0.2472424  -0.25709572 -0.17022328
 -0.10104147  0.473911   -0.45901522 -0.42848936  0.16115588 -0.57835656
  0.10597821 -0.19874287  0.19121793  0.0337641  -0.23342372 -0.09229462
  0.02564709 -0.22227693 -0.7110529   0.22361355]
[-0.2148684   0.26728615  0.24264106  0.24845949 -0.05028215  0.29802477
 -0.3470477   0.18487428 -0.10581609  0.581771    0.12332077 -0.00212019
  0.23316137  0.39372763 -0.16932163 -0.28951034 -0.10673001  0.25782084
 -0.16643642  0.15592523 -0.10878712 -0.01420826  0.3089193  -0.04297273
  0.02259036 -0.11134512 -0.05868012  0.2359205   0.45906907  0.07049351
  0.00136978 -0.02960975 -0.07450624  0.11795396  0.01701477 -0.32489398
  0.02153877  0.09797855  0.14973912  0.28901464]
[ 0.36742237  0.27460617 -0.17195648 -0.02451354  0.1495475  -0.0409383
  0.16975786 -0.22523527  0.22916026 -0.42663217  0.11649829  0.2379545
 -0.39065504 -0.11029042  0.26494133  0.11080784 -0.38562408 -0.38537303
 -0.02549568 -0.16703974  0.11212543  0.21209279 -0.49039268 -0.49923053
  0.00764114  0.49109432 -0.24414285 -0.19928181 -0.27037588 -0.361096
 -0.22802626  0.05014847 -0.40171504  0.07828175 -0.26036847  0.49030313
  0.13410318 -0.37082264 -0.03486927 -0.30874863]
[ 0.49284887  0.73214364 -0.59321165  0.00777573 -0.18902497 -0.1262528
  0.81897867 -0.02463033  0.01750696 -0.8186737   0.11547194 -0.26761177
 -0.4322135  -0.3118271   0.3668983   0.6888327  -0.1598747  -0.7322619
  0.1959858  -0.4996444   0.6500762   0.67643595 -0.16810583 -0.5698336
  0.00088894  0.1708578  -0.7315336   0.41037518 -0.00594095 -0.01825515
  0.12575799 -0.06189995  0.22174925  0.49949014 -0.15438446  0.10667796
  0.38294315 -0.22877221 -0.57661617 -0.30143526]
[ 0.41557667 -0.12507237 -0.31717524 -0.13689075  0.30505386  0.1812047
  0.16983311 -0.362338   -0.18059611 -1.2360691   0.07220981  0.3090399
 -0.13545422 -0.1678787   0.22060975  0.09659114  0.02121135  0.65853846
  0.12340331  0.4213242   0.54095894  0.25336507  0.13888657  0.12479003
 -0.02082294  0.2241199  -0.32950744 -0.58949304  0.03289859  0.01554428
  0.08656062  0.07009656 -0.08684959 -0.13136873 -0.30402303  0.23994325
 -0.6099895  -0.2535395  -0.26532984 -0.28607827]
[-0.3370667  -0.37873045  0.9431479  -0.38605726 -0.6221732   0.20069897
 -0.6076128   0.05437807  0.26914823  0.8679196   0.10871529 -0.1687821
  0.18490149  0.30685893  0.07752042 -0.20729136  0.03940483 -0.5503187
 -0.1670287   0.00162821 -0.1861458  -0.07955477 -0.04037937 -0.2351218
  0.6538704   0.26453394  0.05623449  0.344582   -0.17334136 -0.0158611
  0.13563435  0.20947713 -0.25537893 -0.2377067   0.17700288  0.06364702
  0.4828851  -0.35176554  0.02061842  0.28392804]
[-0.0074426  -0.18963164 -0.06860898 -0.02361221 -0.2541574   0.14229643
 -0.16570532  0.16553336 -0.22526886 -0.0964657   0.16292857  0.03673715
 -0.072671    0.32651892 -0.12611145 -0.0518323  -0.04598832  0.10375757
 -0.2101786  -0.01400776 -0.31272656 -0.42630556  0.11220731  0.34254205
 -0.02021017 -0.39290667  0.37216255  0.35023373 -0.02652403  0.34547687
  0.07025461 -0.11864308  0.13285136 -0.2855066   0.25312796 -0.2042381
  0.31922814  0.1993568   0.2653145   0.19728552]
[ 0.23995008 -0.06210394  0.40642416  0.00170515 -0.24858001 -0.15735157
  0.36896148 -0.04322419  0.21223827 -0.30959702 -0.41105333  0.30016553
  0.05033476  0.03833483  0.16993389  0.46318975 -0.12374279 -0.51097745
 -0.5169155   0.14192541 -0.0878678  -0.04609625 -0.10298887  0.34333733
  0.8466121   0.03468507 -0.7123658   0.3040148  -0.58151174  0.27818888
  0.02847086  0.04725734 -0.504435    0.14485753 -0.15318698 -0.13383326
  0.3798735   0.30100843 -0.3281711   0.00541231]
[ 0.23952894  0.3664677  -0.00150199  0.33350047  0.64205205  0.25512326
  0.57752115 -0.02126399 -0.13585612  0.27073961  0.14174254  0.24023047
  0.01538931 -0.13174479  0.17246568 -0.3402055   0.11841729 -0.04583948
  0.17447771  0.5032001   0.22131442 -0.06334005  0.14018823 -0.06976676
 -0.7638679   0.67717683  0.04894889 -0.28244987  0.37688348 -0.5287899
 -0.00499428 -0.24626812 -0.01673977  0.3363241   0.3068888  -0.29824123
 -0.19535722 -0.49955228 -0.04858353 -0.04977472]
[ 0.04986076  0.02215612  0.01405196 -0.17987637  0.09187876  0.01992949
  0.00299945  0.0069029  -0.17900167 -0.27768493 -0.07569854 -0.16025996
  0.14104989  0.19032338 -0.25823405 -0.25545475  0.16948442  0.36870512
 -0.042485    0.16720173 -0.16674565 -0.336971    0.18612756  0.06176309
 -0.11877633 -0.4014319  -0.00179527 -0.03859607  0.2887621   0.04750589
  0.29211003  0.06563417  0.23013349 -0.2588667   0.2074858  -0.20438676
 -0.12851293  0.03419982  0.02847492  0.1576275 ]
layer 3 Activation
tanh
layer 4 Dense
40 20
[ 0.04195834 -0.1529483  -0.13300048  0.31464383  0.12654942  0.01289778
 -0.04252742  0.14553776  0.13112625  0.22420979 -0.02159273  0.08993923
 -0.2981856  -0.1425278   0.12863058  0.03999842  0.29000056  0.1213083
 -0.28005433  0.13907383]
[ 3.3506063e-01  6.3102923e-02 -1.5247019e-01 -1.0016171e-02
 -2.8543007e-02 -1.5940988e-01 -2.1109107e-01  1.5593702e-01
  3.6162424e-01  1.8630113e-01 -3.4659676e-04 -1.9549760e-01
 -1.7020245e-01 -2.3846582e-01  3.1620356e-01  7.3064886e-02
  1.6526310e-01  1.3116583e-01  1.9686945e-01  2.0237379e-02]
[ 0.367751    0.00855793 -0.38459936  0.09012987  0.22975385  0.0755933
 -0.01718001  0.4655722  -0.63064545  0.2430059  -0.27534944 -0.34383607
  0.1977278  -0.24571384  0.5701841   0.08900726 -0.5474788   0.16446742
  0.16019271 -0.0510441 ]
[-0.03264076 -0.07155952 -0.1132856   0.00074442  0.05205801 -0.1729553
 -0.02741094  0.10013518  0.1362801   0.08959845 -0.2022426  -0.00212039
 -0.12336016 -0.2654142  -0.12983848  0.04221867 -0.03210503 -0.09068879
  0.1641812   0.30191714]
[-0.11123483 -0.37206405 -0.5571355   0.10872445 -0.01974955 -0.02672798
  0.06562064  0.2342776   0.06043761  0.03794618 -0.39126202 -0.2907661
  0.20519935  0.03037698  0.0400735  -0.34469268  0.1274271   0.12549472
 -0.30483162 -0.11904307]
[-0.18842101 -0.11345933  0.27364564 -0.20829225  0.00745835  0.01697153
 -0.13128372 -0.02638298 -0.07073815  0.23981538  0.08929899  0.19627477
 -0.0684422  -0.15327206  0.11165276  0.01732319 -0.13390839 -0.19410421
  0.08183564  0.25844696]
[ 0.2607899   0.2236218  -0.33079082  0.22789538  0.17658094 -0.01991354
  0.01530485 -0.03014366  0.575692   -0.12171166  0.09555729 -0.09436831
 -0.38684642 -0.15191434 -0.23452693 -0.18965058  0.22695087  0.26988757
  0.07410236 -0.00222439]
[ 0.04572286  0.02203433  0.13404849  0.09471358 -0.21625781 -0.0266351
 -0.32324994 -0.14056186 -0.00162671 -0.23877983  0.19120306 -0.16859765
  0.01421335 -0.19206971  0.02253641 -0.0616718  -0.06159538  0.1650556
  0.07594975  0.05645842]
[-0.09612228  0.12398297 -0.0928711  -0.19099477 -0.06922535 -0.12428103
  0.13476822  0.14803328  0.09300305 -0.01164525 -0.11369057  0.01751365
  0.03385874  0.01372496 -0.19122364  0.09840269  0.17641775  0.06129962
  0.09430418  0.10991807]
[ 0.05416209 -0.0073714   0.37606055 -0.23007573  0.01518578  0.17377134
 -0.00727293 -0.5171112  -0.07205964 -0.298403    0.15361957  0.10800192
  0.52280897  0.2039678  -0.6507744   0.11343146 -0.2705731  -0.38338694
 -0.15482108 -0.11232251]
[ 0.16620132  0.16032618 -0.26698145  0.00183291  0.15886357  0.14897361
 -0.02658703  0.05423515  0.24838206 -0.06875683 -0.16301957 -0.1965888
  0.15318862  0.12199521  0.4170285  -0.12370794  0.01365007 -0.12207907
 -0.07609899  0.09803006]
[-0.39557365  0.23916382  0.15471035  0.21145707 -0.04702359  0.182099
  0.20230648  0.23640616 -0.23011547  0.13164873 -0.12053491  0.119489
 -0.14368822  0.20688851 -0.32034653 -0.19888581 -0.13569331 -0.22080863
  0.1432877   0.10644266]
[-0.00848649 -0.03161975  0.17444602 -0.08308142 -0.28659478  0.02456221
 -0.04032262 -0.05226793 -0.14451133  0.12920628 -0.05700825  0.0835012
  0.02735355 -0.07672483 -0.31933433  0.13347958 -0.00569489 -0.27556103
 -0.1495939   0.18699141]
[-0.169912   -0.11939371  0.44216704 -0.04876022 -0.11788825 -0.11993374
 -0.12343177 -0.33480668 -0.52659297  0.03751982 -0.10183872  0.01389724
 -0.18267694  0.09025607 -0.21086575 -0.16274123 -0.4830373  -0.16203457
 -0.04593872  0.02757639]
[ 0.08311915  0.10104549  0.4928559   0.41845083 -0.00354248 -0.11884499
 -0.33082536  0.19261599  0.25037882  0.25912705 -0.0896383   0.25313896
 -0.23357369 -0.10287266  0.26312488 -0.23517047 -0.07851466  0.29659358
 -0.11848104  0.24817409]
[ 0.29944322  0.13859215  0.51418495  0.28647077  0.2647092  -0.07160892
 -0.08380318  0.15849993  0.2647743   0.01073765  0.18252617  0.2665339
 -0.22604398 -0.04359292  0.19392648 -0.13219282 -0.20196101  0.0926661
  0.2871789  -0.0578547 ]
[-0.1347678  -0.06190387  0.24348703 -0.00606215  0.06796435 -0.07448916
 -0.23317537  0.04030365  0.01612704 -0.16255425  0.00626509  0.05503986
 -0.03067784 -0.01045165 -0.03844795  0.08159769 -0.08083367  0.16493523
 -0.09345835 -0.03662667]
[-0.31712598 -0.5116124  -0.53265023  0.42202464 -0.07002515  0.3120796
  0.02091687  0.30301118 -0.45192105  0.23419884 -0.19631417 -0.35087886
  0.4776091   0.23123425  0.1977242  -0.06858135 -0.4030464   0.12252013
 -0.4341807  -0.06151352]
[ 0.3630075  -0.04918724 -0.48138723  0.13056818  0.16615358 -0.0954531
 -0.17778979  0.09070454  0.0311738  -0.2510694   0.25335717 -0.10755599
  0.17864384 -0.01560659  0.25312862  0.3032867   0.22998656  0.03677357
  0.02507945 -0.2573975 ]
[-0.18994847 -0.2108971  -0.00923144  0.06056312  0.2116318  -0.00715139
  0.10218022  0.03930883  0.00498221  0.31934935 -0.35228705  0.26464042
 -0.18453087  0.17203122 -0.11298691 -0.00631235 -0.09663317 -0.0994077
 -0.11129516  0.15367927]
[ 0.1867982  -0.0542401  -0.13745363  0.11425944 -0.18061581  0.16790818
 -0.24140441  0.2536272   0.398282    0.25650188  0.01541807  0.12921046
 -0.23058422 -0.11136118  0.12883869 -0.21776661 -0.14827548  0.23100081
  0.11570771 -0.234781  ]
[ 0.32590786  0.05682368 -0.35430047  0.00047192 -0.22833507  0.07202271
  0.21144432 -0.04333256  0.17542182  0.41547012  0.02575399 -0.0640305
 -0.10666039  0.24738549  0.29753378 -0.03416249  0.25418624  0.278505
  0.021411   -0.05641552]
[-0.11866452 -0.23951778 -0.04001308  0.09248623  0.10772712 -0.08307493
 -0.07424486 -0.1457005   0.00804093 -0.3184078  -0.07761469 -0.20108782
  0.28846383  0.24250914 -0.31313202  0.05874495  0.11732434 -0.18388928
  0.04738775 -0.115891  ]
[-0.3901246  -0.20915575  0.19026768 -0.07873008 -0.16382776 -0.09275601
  0.11898971 -0.09885392  0.01881931 -0.07363173 -0.29478082  0.18090422
  0.07888567  0.21227504 -0.09891209  0.10080948 -0.23788878 -0.22471209
 -0.08233769 -0.03829962]
[ 0.04947966  0.25336233  0.6009151  -0.24133682  0.28818592  0.02450943
  0.37690356 -0.23110849 -0.03467284  0.07144555  0.05367581  0.8196227
 -0.6790947   0.05194077 -0.5348831   0.07090791 -0.18132438 -0.39171806
  0.55552334 -0.08004042]
[ 0.29189286  0.24718378 -0.6718414   0.37381142 -0.0375806  -0.16477449
 -0.07031286  0.44494745 -0.21107538 -0.07340112  0.03217639 -0.20564774
 -0.25057676  0.1616139   0.11637626 -0.2674712  -0.5993521   0.11628566
 -0.01148885  0.07300891]
[-0.16190507 -0.17594168 -0.04580353  0.0837009  -0.14991462  0.30567202
 -0.01216913 -0.0581934  -0.539352   -0.11169837  0.21518543 -0.1422408
  0.5957656  -0.20014921  0.00299056  0.11354714 -0.23474656 -0.05157418
 -0.15589614  0.27456596]
[-0.40593952  0.2140522   0.26824853 -0.25127324  0.12610002  0.0760017
 -0.07683325 -0.20522393 -0.0490145   0.17399861  0.24551958 -0.07566807
  0.02908785  0.09869093 -0.28604254  0.06849691  0.38164195 -0.40324315
  0.01685222  0.2257581 ]
[ 0.03345987 -0.13800275 -0.46029156 -0.04075332  0.02422205 -0.08950138
 -0.27815458 -0.19291925  0.01724136  0.6939499   0.2496118  -0.12321382
 -0.15194927 -0.0829941   0.07393581  0.05426039  0.00195941 -0.02155185
 -0.11330523  0.2630332 ]
[-0.39470762 -0.10350866  0.14181952 -0.0050041   0.15768339  0.12011988
  0.09483293 -0.17219809  0.04839134  0.02159433  0.3589618  -0.02863325
  0.18376683 -0.15997611 -0.08532025 -0.04344267  0.24881822 -0.00047792
  0.04800532 -0.10149001]
[ 0.09670734 -0.21121657  0.45910916 -0.25132737  0.08370931 -0.05103223
  0.03739437 -0.20971966 -0.20766217 -0.4250988   0.12026925  0.0721344
  0.09588419  0.03448744 -0.08612892  0.13016734  0.06996819 -0.04677808
  0.08619611 -0.01517121]
[-0.17855829 -0.01540072  0.09758396  0.396599    0.16891724 -0.0840847
 -0.1983501   0.019589   -0.10925929 -0.2671542  -0.06276155 -0.00693631
  0.05953982 -0.08387525 -0.06556398  0.01487661  0.06559648 -0.08737043
  0.13664266 -0.11137373]
[ 0.20841788 -0.155052    0.02836434 -0.28548434  0.01353754 -0.09678411
 -0.16753048 -0.28517872  0.16599551 -0.37161365  0.26924092 -0.25095558
 -0.0155366   0.15195632 -0.19775651  0.16109033  0.31234527 -0.25823495
 -0.30286306  0.17178775]
[ 0.12347167  0.19970772 -0.09275193  0.20082453  0.11194783  0.14555067
  0.10697019  0.25134593  0.30788007 -0.17947587 -0.30661055  0.01778271
 -0.09809518  0.21474157  0.2818018  -0.03126591 -0.11038896  0.23591948
 -0.05285208 -0.04277964]
[ 0.2984411   0.11543717 -0.3996615  -0.21937892  0.09317309 -0.07436059
  0.1413938  -0.16546725 -0.18531527 -0.16921493  0.15230045 -0.23643367
  0.17746507  0.12779158 -0.13438676  0.19063464 -0.28504628 -0.09482291
 -0.06224017  0.02084452]
[-2.1552405e-04  1.8915217e-01 -4.3894327e-01  5.1821119e-01
 -7.1626090e-02  6.7649536e-02  7.4899301e-02  1.3722043e-01
  7.3906742e-02  3.0709717e-01 -8.3689667e-02 -1.7551915e-01
 -1.0920022e-01 -1.7465919e-01 -3.1870034e-02  3.9726079e-02
 -1.5857287e-02 -3.4519710e-02  1.9881541e-01  4.1868445e-02]
[-0.39766496  0.3580517   0.06553011 -0.34453592  0.03747448  0.01745143
  0.27122545 -0.36874828 -0.11000783 -0.42618567  0.01493678  0.13451974
  0.18422422 -0.06793009  0.01171092  0.00406219  0.06439596 -0.2600367
  0.13435104  0.07111773]
[-2.77123511e-01 -1.23830214e-01  2.71302432e-01 -3.40275437e-01
 -5.13139181e-02 -4.33955900e-03 -1.14743121e-01 -3.64958286e-01
  2.37510097e-03  3.15252021e-02 -2.87273020e-01  2.36487657e-01
  2.85049647e-01  3.88641213e-03 -4.75312024e-01  1.23428166e-01
  7.74212405e-02 -5.08131832e-02 -2.80711247e-04  6.53416440e-02]
[-0.06319567 -0.16653922 -0.23025309 -0.18980835  0.194607   -0.19639984
  0.08352721 -0.29335538 -0.095135    0.04156883  0.07556032 -0.02702733
  0.34308544 -0.09236658  0.19923565  0.1097477   0.25648358 -0.08152436
 -0.28477564  0.15894125]
[ 0.28247958  0.20885028 -0.02323069 -0.3728295   0.06598513  0.15254568
  0.02674419 -0.24434291 -0.32816005 -0.15011545  0.09932379 -0.0863703
  0.17965642  0.1471418  -0.04021205  0.22362356 -0.10633754 -0.04069377
 -0.02326796  0.08012919]
[ 0.01755509 -0.22072782  0.06673334 -0.13154902 -0.05347184  0.00836855
  0.11782698 -0.18166357 -0.01015182  0.14359666 -0.01366419 -0.0388792
 -0.19502574 -0.02840176 -0.07015938 -0.06467368  0.05800456  0.00250453
 -0.15996328  0.1503577 ]
layer 5 Activation
tanh
layer 6 Dense
20 1
[-0.01394619]
[0.0617574]
[0.01064422]
[0.00555019]
[0.01030514]
[0.01440154]
[0.00636547]
[-0.09888882]
[0.05193737]
[-0.00014851]
[-0.01110565]
[0.02341678]
[-0.11185182]
[0.00645964]
[-0.03534525]
[-0.01142975]
[0.06391904]
[-0.03017966]
[0.01573408]
[-0.01887901]
[0.00241599]
