layers 7
layer 0 Dense
24 20
[-1.7316029   0.5051332  -0.25287223  1.9020869  -0.43259013  1.0513337
  1.4248677   0.51199895 -0.30508164 -0.4991682   1.8952405  -1.1782176
  1.1583992  -0.98175716 -1.2247127  -1.450866    1.1452457   1.0207809
 -1.0654169   0.3392343 ]
[-0.21738791  0.21624805 -0.39276445  0.38226455  0.5206465   0.5977155
  0.4852042   0.24776119  0.25125927 -0.24853478  0.5961236  -0.04453935
  0.29445782 -0.04552135 -0.18150558 -0.8695233   0.47782782  0.22743396
 -0.05029736  0.02807215]
[-0.6132253   0.36242747 -0.3851027   0.44466305  0.0994201   0.34684542
  0.4569032   0.20965447  0.5254463   0.11837764  0.6249596  -0.19594975
  0.8430281   0.06355586 -0.4140495  -0.7836854   0.6321977   0.4114211
 -0.35658184 -0.4790855 ]
[-0.8438094   0.24146229 -0.7545217   1.3640788  -0.35135695  0.92532253
  1.1277835   0.521289    0.21048404 -0.4412993   1.280304   -0.8693527
  1.1929722  -0.12633093 -0.74009913 -0.8963675   1.0164826   0.9623128
 -0.66843486  0.28106698]
[-1.1585748  -0.8917281  -0.04924973  1.1945801  -1.0026301   0.44787306
  0.11833464  0.9624777  -1.1814659  -1.0072107   1.2165645  -1.2393117
  0.5743284  -0.64337736 -0.9892894  -0.13858387 -0.01266432  0.43936795
  0.03180324  0.8859977 ]
[-0.40590942 -0.2785378   0.18200833  0.63726157  0.4536828   0.00325368
  0.8582763  -0.10564546  0.13655205  0.04959511  0.83891684  0.08984277
  0.2502936   0.07052428  0.46762893 -0.33361247 -0.08388489  0.45112112
 -0.42506236 -0.7391654 ]
[-0.10612981 -0.76009715 -0.15421271  0.44361183  0.27602276  0.43723255
  0.76433283  0.17477693  0.32920387 -0.15070267  0.2305457  -0.18970464
  0.48793033  0.24621171 -0.04831438 -0.41657567 -0.17853774  0.19190624
  0.08628352 -0.3805102 ]
[ 1.435839    0.6175544   0.58050823 -1.8823739   0.46324182 -1.2108964
 -1.0289277  -1.1881726   0.06926185  1.0605359  -1.6490568   0.7669616
 -1.3155602   0.88490844  1.2426257   1.0261859  -0.8347905  -1.2950137
  0.8810692  -0.59156024]
[-0.706837    0.1624504   0.09595042  0.87574756 -0.49938864 -0.27041134
  0.1720651   1.0901792  -0.4077941  -0.80779254  0.3183704  -0.8998799
 -0.04089726 -0.43947518 -0.5813613   0.11589444 -0.13159043  0.07189055
 -0.16751383  0.7025603 ]
[ 0.00353997  1.7619064   0.25170168 -0.08535983 -0.40854228  0.16251741
 -0.24740574 -0.5046051   0.26749575 -0.3484355   0.18638128  1.5398325
  0.06372511 -0.20239255 -0.5280693   0.7634039   0.16767028  0.32328966
  0.2826574   0.26635656]
[-0.62662405 -1.1390749   0.16892177  0.8601278  -0.4132338   0.23961587
 -0.5354364   0.28101462 -0.6055564  -0.15246063  0.67084736 -1.0832174
  0.26356432 -0.46222383 -0.9374592  -0.31822    -0.18062176  0.37935272
  0.05743628  0.7590737 ]
[ 1.6936423   1.6582186   0.50647753 -2.494268    0.41453233 -0.44839886
 -0.3892417  -0.64907664  0.31657737  0.91090536 -2.1412902   0.24431796
 -0.85861427  0.94582003  1.2161435   0.8482922  -0.2775932  -1.0257764
  1.3466343  -0.16006511]
[-0.40269533  0.6133763  -0.0250465   0.2751115  -0.31553775  0.08816803
 -0.34573978  0.6754371  -0.6669953  -0.42775178  0.41088733 -0.5478277
  0.03020944 -0.20678368 -0.23938496  0.13247946 -0.45847026 -0.19613546
  0.20380877  0.24218503]
[ 0.62528515  0.5954586  -0.03308554 -0.3952472   0.2712684  -0.04001025
  0.3317736  -0.623711    0.5717976   0.54312664 -0.30671796  0.02250137
  0.03622647  0.5945594   0.4533338  -0.34449962  0.28883675  0.26012498
  0.13464469 -0.4425645 ]
[-0.18242945  3.4431438   0.04537444  0.56722486 -0.35001728  0.52903765
  1.5480835   3.9696229   0.19195603 -5.263574    0.48940164  6.501281
 -1.6610012   0.23993452 -0.40003034  1.3000944   0.83165425  0.25998536
 -0.09315331 -0.23874728]
[ 2.0422027   4.609701    0.13952976 -2.6577585   0.6501241  -0.9333102
 -1.2133797  -1.8514922   0.9473349   1.5277604  -2.3586025   0.8788768
 -0.9018848   0.7522267   1.6473876  -0.17174633  0.28374887 -1.007913
  0.7373793  -0.6761328 ]
[ 0.43855712  0.72858894  0.1281911  -0.38994658  0.35716006 -0.33057204
 -1.1975958  -0.6095417  -0.52034765  0.10863675 -0.31267172 -0.58868635
 -0.46213502  0.17148581  0.03558607  0.96094626 -0.5483137  -0.6426112
  0.05181963  0.06813868]
[-0.27519643 -1.0975121  -0.04777337  0.5536647  -0.9786758   0.08876663
 -0.0960234   0.44040808 -0.48115158 -0.10125955  0.6130939  -0.38691676
 -0.01548098 -0.39493194 -1.0061758  -0.12972012 -0.1855054   0.42945048
  0.12125958  0.7604249 ]
[ 0.7467072   0.22415023  0.16853872 -0.62877274  0.69295347 -0.4070493
  0.3212347  -1.1494317   0.78208953  1.2448487  -0.70810205  0.57025045
  0.2233213   0.65864307  0.74058753 -0.37940484  0.18452027 -0.10698295
  0.30823907 -0.9128742 ]
[ 1.0072134   3.1266963   0.6180421  -1.6681299   0.17237222 -0.5682833
 -1.5901415  -1.6646087   0.45606938  1.7488236  -1.4855666   0.06810099
 -0.24537769  0.3837207   0.87538177  1.0744035  -0.9331669  -0.46283728
  1.2505796  -0.18750927]
[-0.23545426 -0.10380433  0.4396971   0.09505682 -0.52758354 -0.1917447
 -0.41420963  0.45824808 -0.5160701  -0.7613382   0.46833232 -0.02132889
 -0.38328552  0.13409328 -0.12122393  0.83283126 -0.30478758 -0.39815775
  0.3292186   0.0650223 ]
[-0.5581324  -1.5813923   0.39038092  0.6734164  -0.65919995 -0.03177274
 -0.28164184  0.37333453 -0.60139084  0.20260221  0.8353029  -1.087523
  0.07240308 -0.24219352 -0.5703739   0.20501518 -0.45563704  0.46784803
  0.23246428  0.6471    ]
[-0.67223835 -1.013054    0.08754137  1.0092413  -0.4776707   0.08836641
 -0.1307614   0.5196285  -1.0174738  -0.62988234  0.88822144 -1.4259648
  0.27945822 -0.4235899  -0.74993145 -0.37989962  0.17757249  0.3606809
  0.06043617  0.5661824 ]
[ 0.06448499  0.39930737  0.16276541  0.31027463 -0.09919246 -0.06284925
 -0.17504315  0.61279184 -0.60147244 -0.2157809  -0.18055174  0.02520389
 -0.5381058  -0.15714282 -0.05773991  0.48952663 -0.2915358  -0.36655247
  0.52043617  0.3889612 ]
[-0.39839274 -0.26834148 -0.3622221   0.53147405 -0.00132514  0.5596707
  0.9316141   0.16642602  0.19686349 -0.18771818  0.59068316 -0.24344102
  0.5860764  -0.20126562 -0.19360594 -0.9341963   0.7075459   0.6923961
 -0.40343156  0.13717572]
layer 1 Activation
tanh
layer 2 Dense
20 40
[ 0.9539303  -0.5673177  -0.08483648 -0.5383429  -0.28532615 -0.10165126
 -0.5990259   0.5138315  -0.14362724  0.9912011  -0.00736517  0.42645344
  1.0975461  -0.02972243 -0.8741584   1.0174346  -1.5948783   0.60568905
 -0.5266054  -1.0620493   1.1230673   0.97239697 -0.02218548  0.40251708
  0.9019049  -0.44256654  0.07452572 -0.8969523  -0.5633731  -0.15592557
 -1.1640977   0.5338995  -0.04343984  0.56521726  0.07202387  0.07161986
 -0.8179266   1.0244015  -0.7040734  -0.17681807]
[ 0.4656242  -0.03806587  0.038652   -0.06726872 -0.4750828  -0.6956748
 -0.3317799   0.3634941  -0.76133966  0.45284185 -0.40288797  0.17662086
  0.66941965 -0.09762651 -0.7442266  -0.38595176 -0.49910766  0.5386616
  0.17104316 -0.53374416  1.1092532   0.8197491   0.51929706 -0.02682246
  0.32548684 -0.88423693 -0.38015437 -1.020112   -0.8683968  -0.33563063
 -1.3031201  -0.07190926  1.0913944   0.26975882 -0.51556486  0.33506694
 -0.5218201   0.6356363  -0.35325888 -0.2942042 ]
[ 0.56520075 -0.48258945 -0.50957924 -1.6447734   0.03835451  1.3976784
 -0.43511328  0.9852803  -0.219462    0.63863796 -0.49063367  0.33105418
  0.6318654  -0.24400435  0.14207475  0.10139794 -0.95019335  1.0473808
 -0.8582376  -0.35634357  0.30136713 -0.36488894  0.15611121  0.19343819
 -0.22860615  0.3025075   0.8285168  -0.01358068  0.5118739  -0.3993958
  0.4219109   0.15536557 -0.15819012  0.17616594  0.59513766 -0.38094798
 -0.5786358   0.9915283  -0.34508353  1.3333606 ]
[-0.96147054 -0.01421952  0.443304    0.8706536  -0.22395091 -0.46778852
  0.69028944 -0.90920466  1.6630102  -1.0397273   2.7052383  -0.3966615
 -0.7166782   1.1070579   1.8747967  -1.2560458   0.47301787 -0.723699
  1.0771435   0.6327227  -0.8858499  -1.506163   -0.2874303  -0.3239296
 -1.7425354  -1.0306988  -0.56202304  1.6799608   0.10564023  0.39046422
  1.4091992  -0.5991096   0.84296656 -1.644644    0.31655273 -0.0368911
 -0.5652168  -1.1263562   0.84397143 -0.404124  ]
[ 0.3371728  -1.1485984  -0.8471782   0.37790918  0.85941905  0.20214747
  0.03591063 -0.06815225  0.39426714  0.11881473 -0.01181371  0.63888913
  0.3049138  -0.00476437  0.26459476 -0.02763059 -0.3281688  -0.16878636
 -0.0569505  -0.84728074  0.17295499 -0.3772196   0.65662265 -1.2239456
  0.02145165 -0.09608477  0.09017771  0.20180286 -0.35101423  0.25512934
  0.02407419  0.6583934   0.32235935  0.12128069 -1.4224324  -0.93984365
 -0.47835803  0.10077449  0.45898783  0.05338009]
[-0.7932078   1.3604537   1.040775   -0.45523062 -0.5329545  -0.29845032
 -0.10600425 -0.29803294 -0.01665293 -0.42883566  0.29380906 -0.7356619
 -0.29626137  0.05924392  0.12418795 -0.0061255   0.30600452  0.04053134
  0.30586955  1.3178093   0.1138304  -0.0554943  -1.6407338   0.6936751
 -0.412427   -0.08417628  0.00609526  0.09917629  0.23332389 -0.37231693
 -0.04892271 -1.8791809  -0.48459408 -0.24645264  1.0416414   1.9786991
  0.5085193  -0.49539307 -0.03730673 -0.47004262]
[ 0.03781948  0.30002832  0.7726129   0.55817866 -0.8242279  -0.30655864
  0.28886223 -0.16624783  0.5674881   0.28747213  0.6066506  -0.50086933
  0.6369145   0.6811119   0.74081206 -0.02730975  0.04727796 -0.15676154
  1.0579796  -0.00718448  0.89698803  0.2954791  -0.8174553   0.34878632
 -0.50545067 -1.0676653  -0.38069838  0.24982852 -0.6602217   1.5024838
 -0.32983512 -1.3072273   0.5961569  -0.6622862   0.12531829  1.4258016
 -0.89831716  0.03122177  0.03012367 -0.73974764]
[-0.5270285  -0.33369732  0.2749237   0.08034507 -0.1813374   0.6068591
  0.33604017  0.16165331  0.33475116 -0.42591736  0.27044466  0.03760986
 -0.09890399  0.32668778  0.73422027 -1.3304358   0.3020996  -0.43422815
  0.40138915 -0.17337753 -1.0849445  -1.4458903   0.584343    0.09686203
 -0.55399233 -0.36739194  0.8724929   0.5428844  -0.94553     0.45247033
  1.2299222  -0.35623664  0.5248375  -0.45391646 -0.09700247 -0.10105433
 -0.61531407 -1.109404    0.61466914  0.5898068 ]
[-0.25716686  0.02566506 -0.37713647 -0.74479866  0.19512802  0.4052464
  1.1527599  -0.70942396 -0.30397448  0.17596838  0.10302467 -0.13217531
  0.20569158  0.48080334  1.0200273  -0.89597327 -0.21273638 -0.5633446
  0.32075393 -0.00391931 -0.5500772  -0.4284308   0.16971387 -0.97700065
 -0.9724178  -0.01415493 -1.3047673   0.47609073 -0.3861641  -0.02948607
  0.31856507 -0.03488299  0.3964916   0.18357712 -1.0065734   0.01939801
  0.4508711  -0.542267    0.5386784  -0.17614453]
[ 0.8086813   0.18706802  0.1892971  -0.7664265  -0.8820008  -0.8207728
 -0.60850185 -1.1372992  -1.2604791   0.5993615  -1.23822     0.2369745
  1.0685945  -1.0603895  -1.2613795   0.56854737 -0.99602026 -0.24918646
 -0.25871482 -0.6981779   0.8854499   1.2227241  -0.36407688  0.02798394
  1.4521675  -0.71919185 -0.6554489  -1.2693869   0.8567753  -1.1810048
 -1.8416436   0.1351585  -0.07229678  0.8258862  -0.03530636 -0.2192299
  0.05530613  1.0080255  -0.918605    0.2705271 ]
[-1.4678049   0.21049227  0.49295846  0.61892265  0.60291445 -0.5301112
  0.49841774 -1.3602978   1.609302   -1.6359855   1.7251247  -0.8030346
 -0.54962     1.3158209   1.9224554  -0.6991504   1.9989351  -0.34672847
  0.5068749   1.565877   -1.3871129  -1.7179409  -0.32890755 -0.2531819
 -1.713747   -0.27063063 -0.4898527   2.045006    0.54091936  0.08992943
  1.1358055  -1.1344799   0.1947696  -2.3439534   0.51713425  0.7562798
  0.10496965 -1.6821998   0.79371935 -0.7206313 ]
[ 2.1107274e-01  2.8210628e-01  4.4726375e-01  5.7778913e-01
 -9.5790368e-01 -1.9059044e-01 -7.4580246e-01  1.2763869e+00
 -1.5166439e+00  5.1366854e-01 -1.8232876e+00 -2.0906761e-01
  9.3493658e-01 -1.3099139e+00 -1.6262554e+00 -4.6256432e-01
 -1.3299819e+00  4.5541255e-03  8.3359264e-02 -5.1807261e-01
  6.6542780e-01  1.2985716e+00  8.2404041e-01  2.0689611e-01
  1.8069812e+00 -1.7376684e-01 -2.1669039e-01 -1.5187827e+00
 -1.3507848e+00  6.8829703e-01 -2.0196033e+00 -1.5983111e-01
 -1.3943521e-03  1.4268556e+00 -4.9827385e-01  5.1561236e-01
 -1.6533120e-01  8.6076134e-01 -1.3488294e+00  4.0035197e-01]
[-0.04236769  1.006767    1.2306117  -0.22496757 -0.89771014  0.22874463
  0.03530281 -0.1216089   0.3185751  -0.16253509  0.20611268 -0.8189605
 -0.02056202  0.04508299  0.510462   -0.02037213 -0.6220152   0.48249388
  0.8502874   0.16560464  0.68378973 -0.79656327 -1.1443921   0.633144
 -0.6116423  -0.22680539  0.18534325  0.46110004  0.561162    0.13857207
  0.20020573 -1.1847236  -0.443653   -0.46895823  1.0387076   1.323628
 -0.9609989  -0.00612417 -0.08826514  0.36253664]
[-4.1161290e-01 -1.3903284e-01  2.2302176e-01  6.9025505e-01
 -2.5103667e-01 -2.3507738e-01 -6.9945955e-01  4.1451654e-01
  1.9865682e-02 -3.8925400e-01  1.3575731e-01  1.6540875e-01
  1.3590508e-02 -2.6578122e-01  4.2838167e-02  7.4212885e-01
 -2.5766835e-01 -3.6655268e-01 -1.4955728e-01 -6.9782782e-01
  9.5337088e-04 -2.8415033e-01  1.8532956e-01 -1.8863434e-01
 -1.2039713e-01  5.4645378e-02  2.4957206e-02  4.9998480e-01
 -5.6809187e-01  7.3887318e-01 -3.9162290e-01  6.4861345e-01
  3.1487665e-01  8.7046660e-02 -2.4720553e-01  9.6996970e-02
 -6.8698770e-01  4.9390781e-01 -1.0033909e+00 -9.3410915e-01]
[ 0.23103775 -1.1211824  -1.0030162   0.04009576  0.06289552  0.05600553
 -0.64015806 -0.3119982  -0.14890273  0.3182487  -0.05818591  0.5245301
  0.19688345  0.08140651 -0.10562591  0.40841344 -0.25167075 -0.2995632
 -0.53964525 -1.3184974   0.6640693   0.29025397  0.27646858 -0.6273441
  0.04234144  0.1117924  -0.20488194 -0.05080973 -0.51613283  0.09788311
 -0.87476164  0.85992163  0.60054773 -0.49617565 -0.55352944 -0.83615315
 -0.95439655  0.5643229  -0.35608917 -0.47874236]
[-0.3081797   0.2670132   0.30056223 -0.16707073  0.19258258 -0.4597303
 -0.38713825  1.0934609  -0.1935059   0.14619946 -0.12525633  0.174156
 -0.40190217 -0.51759577 -0.6105731   0.9175044   0.4050674   0.768424
 -0.43765995  0.353135    0.6088579   0.7970994   0.9049668   0.10202099
  0.35317606  0.25446025  0.0956292  -0.20303911 -0.13017419 -0.7386546
 -0.17141177  0.91017395 -0.07551639  0.61416996 -0.15966369  0.14548393
  0.08112371  0.7639733  -0.32517186 -0.32470077]
[-0.43961322  0.56231546  0.27421662  0.07679494  0.20677072 -0.9013395
  1.3091469  -0.01077134  0.4365291  -0.44567806  0.41704893 -0.27239534
  0.04075357 -0.3056867   0.04002052 -0.7471774  -0.21879242 -0.54181874
  0.36742243  0.06519712 -0.29219395 -0.14828607 -0.6134957  -0.42572287
 -0.05213711 -1.097638   -1.094396    0.10978578 -0.30467013  0.02424926
 -0.19239168 -0.46393842 -0.3276388   0.3865006  -0.68358165  0.45475087
  0.1508789  -0.4058783   1.351255   -0.5338456 ]
[ 7.83002257e-01  5.24275124e-01  1.20887136e+00  5.63205004e-01
 -9.41426218e-01 -3.31169963e-01  1.73661130e-04 -5.32415807e-01
  6.40894532e-01  1.81543574e-01  3.77653569e-01 -5.93863130e-01
  2.31695503e-01  5.53939939e-01  4.76447970e-01 -2.43740842e-01
 -2.37123832e-01 -3.43460679e-01  8.79707515e-01 -1.46224186e-01
  2.74837792e-01 -3.09403464e-02 -1.18078232e+00  7.99027383e-01
 -4.98146325e-01 -5.55974126e-01  3.15327376e-01  5.93270600e-01
 -6.20578751e-02  9.89301920e-01  2.81346321e-01 -1.60228455e+00
  4.11859989e-01 -2.77699709e-01  9.67787325e-01  1.25396371e+00
 -2.54026145e-01 -2.42574453e-01  2.41947979e-01  1.22561855e-02]
[ 0.5898449  -0.843898   -0.6253942  -0.87091666  0.5332236   0.8973127
 -0.8475321   0.6441891  -0.5023954   0.48590082  0.00999667  0.93576777
  0.38517672  0.17909281 -0.18026893  0.42889035 -0.50266236  1.1470348
 -1.0997915  -0.76516855 -0.06538616 -0.04716893  0.44674727  0.286926
  0.01142599  0.37028018  0.9446475  -0.27144748  0.2948109  -0.24427843
 -0.20702407  0.39312574 -0.16473122  0.08312912  0.30885133 -0.9174537
 -0.1997942   0.67150754 -0.74435794  1.2643627 ]
[-0.08227077  0.82318884  1.01541    -0.6416838  -0.7760405  -0.717971
 -0.4204083   0.5527895  -0.01892317 -0.4457955  -0.28817478 -0.67414933
 -0.68269575 -0.35322586  0.01129305  0.25884593  0.01982728  0.06738506
  0.13099734  1.2070363  -0.52414006  0.03928417 -0.7091499   1.3031791
 -0.12813847  0.01567519 -0.43824893 -0.25008297  0.6083266  -0.08304242
 -0.29578444 -0.47516894 -0.9114612   0.16565934  1.6961371   0.6506141
  0.7376773  -0.16352248 -0.5544171  -0.07042198]
[-0.5993698   0.6921147   0.85174716  0.7096329  -0.66062623 -0.9511767
  1.1444887  -0.27518347 -0.03810918 -0.4611431  -0.28687453 -0.7842911
 -0.2822799  -0.2787872  -0.15369982 -0.59291536  0.00678983 -0.9301651
  0.8497176   0.6603196  -0.20334375 -0.16962768 -0.24132012  0.12311403
 -0.07419159 -0.59178025 -0.8970431   0.13652118 -0.5634508   0.46822935
 -0.10464439 -0.5865334  -0.04268568  0.20218372 -0.21646886  0.640899
  0.0749291  -0.7409206   0.61344016 -1.1105777 ]
layer 3 Activation
tanh
layer 4 Dense
40 20
[-3.4806557e-04 -3.9374641e-01 -4.2858195e-01 -1.1958947e+00
  8.0467087e-01 -3.7315160e-01 -4.6007130e-01 -5.5405325e-01
  5.0471653e-03 -8.0076337e-02 -1.0911033e+00 -3.3720061e-02
 -4.9516946e-01  1.4806275e-01  2.5694066e-01 -5.0379950e-01
  1.2203119e+00 -4.0633452e-01  8.0067199e-01 -6.5198891e-02]
[-0.31897476  1.0343611   1.6861935  -0.00381351  0.23018286  0.87658584
  0.03785054  0.7764589   0.5645072  -0.32778528 -0.25663942  0.15056437
  1.6137227  -0.21301128 -0.6577122  -0.3477611  -0.3623479  -0.47858784
  0.6055727   0.6342811 ]
[-0.57350135  1.1438686   1.0378315   0.13783208  0.28406462  0.7576098
  0.07214789  0.17943487  0.7668628   0.25019878 -0.44643703  0.0878945
  1.4970492  -0.2686525  -0.79248357 -0.05952712 -0.23227756 -0.46111035
  0.09628893  1.0198847 ]
[ 0.17714086  0.40651843  0.74407774 -0.10426258 -0.31250796  0.48633966
  0.02976003 -0.07952111 -1.8052181  -1.1979628   0.17159069 -0.2713046
  0.48073965  1.3254526  -0.55539536  0.29811648 -0.4206156   0.7939258
 -0.8344989   0.3786333 ]
[ 0.04222517 -0.46752292 -0.982568   -0.31638056 -0.68540317  0.33035514
  0.46231905  0.4561316   0.20508389  0.37331697  0.1493096   0.20333867
 -0.60332566 -0.08431345  0.60077184  0.41147634  0.10777529  0.47121412
  0.5574359  -0.8267495 ]
[ 0.0326102  -0.7757584  -0.6655445  -0.43305796  0.44479403 -1.3173515
 -0.42572477 -1.4304221   1.6141319   1.259026   -0.05443629 -0.5617986
 -1.5616028  -0.88212395  0.40097657  0.8323776   0.23678803 -1.3710814
 -0.28895944 -0.75079936]
[ 0.46683198  0.7817643  -0.09322835  0.1928141  -0.91702485 -0.45749483
 -0.83377755 -0.17402692 -0.87162554 -0.67287296  0.37329644  0.20789716
 -0.00829208  0.6424298   0.09187938 -1.7659609  -0.4618367   1.4613906
 -0.3726517   0.16236675]
[-0.5277351  -0.7439228   0.59193885 -0.9362946   0.22976317  0.37333652
  0.05376275  0.05866282 -0.14980568 -0.5936892  -0.64726055  0.44713718
 -0.97165054 -0.21971707  1.0959808   0.11074788  0.02935605 -0.7514365
  0.7147299   0.01940805]
[ 1.3759019   0.6909835  -0.14926757  1.0915146  -1.25477    -0.48550302
 -1.9456296  -0.10341534 -0.5931002   0.2538733   0.78867793 -1.1366445
  0.24168487  0.17326283  0.10564496 -0.36489928 -0.9427503   0.39623725
 -0.91909087 -0.1913814 ]
[ 2.0008533e-01  7.7602686e-05  8.2788885e-02 -1.0500278e+00
  1.3411036e+00 -3.2667196e-01  5.7896137e-01 -3.2445651e-01
 -5.8071606e-02 -6.6749938e-02 -1.3757350e+00 -1.0531431e-01
 -3.2584351e-01  1.6631366e-01  1.8040757e-01  1.5037364e-01
  1.4091859e+00  4.6139234e-01  5.0291324e-01  6.7135119e-03]
[ 2.4328613   0.8816727  -0.11017037  0.5723668  -1.0531567  -0.05910915
 -1.4331267  -0.06568734 -0.95072645  0.91940266  0.6342645  -1.2136635
  0.29138148  0.17945017 -0.6385958   0.52274495 -1.0574635  -0.05625382
 -2.067393    0.2729497 ]
[ 0.05033699 -0.77078223 -0.90590316 -0.10424053 -0.26543036 -0.71958965
  0.01540249 -0.20945574 -0.5217247  -0.13326634  0.22215371  0.3326189
 -1.0599756   0.2765754   0.56464005  0.38347593  0.46180773  0.45932078
 -0.00547744 -1.0454562 ]
[-2.44321674e-02  2.73331553e-01  2.36953214e-01 -9.78797615e-01
  9.36744690e-01 -2.01976657e-01  9.39197466e-02 -2.16086090e-01
 -1.22457534e-01 -2.14192495e-01 -9.44371343e-01 -3.99400294e-01
  9.16876190e-04  5.72387338e-01  3.27119321e-01 -5.56849204e-02
  1.24436629e+00  4.90654498e-01  1.08454025e+00  3.32837015e-01]
[ 0.24210389 -0.39155164  0.09636151  1.263229   -0.38956344 -0.17971149
 -1.2890222   0.17136917  0.31345132 -0.6710781   1.1833737  -0.787888
  0.24483103  0.6949879   0.01523242 -0.3783277  -0.46079034  0.19707362
 -0.9369621  -0.25891495]
[ 2.2849185   0.6102408   0.0138213   1.381688   -2.8226168  -1.216765
 -1.4841067  -0.4798485  -0.43697226 -0.26746756  1.0443524  -1.8014109
 -0.11752712  0.52572995 -0.18134442 -1.3673754  -0.93250567  0.8776622
 -1.232164   -0.12562591]
[-0.00445378  0.11677228 -0.4184901   0.5988633   0.2592942  -0.3604254
  0.29839477  0.12657346  0.77557784  1.3020166  -0.18281116  0.34490138
  0.11912178 -0.57157177 -0.2787323   0.11095722  0.10439374  0.4113153
  0.59905344 -0.16786765]
[-0.24070437 -0.07953232 -0.34680447  0.30976    -1.3358693   0.10665234
 -0.20918405  0.19056845 -0.27655032 -0.21339676  0.9314124  -0.65416425
  0.01509612 -0.17557558 -0.02393134  1.9810548  -0.6031561  -0.05570847
 -0.49282894 -0.28056887]
[-0.08845399  0.14022836 -0.20244311 -0.42806497  0.9430994  -0.5044364
 -1.0433147  -0.69889915  1.822375    1.3294584  -0.66900057  0.08947442
 -1.063165   -0.9689515   0.31208682  1.7859548   0.6266004  -1.4325163
  0.11379148 -0.1379372 ]
[ 0.05303675  1.6682179   0.19544198  0.13042083 -0.01050593  0.5912614
  0.04556419  0.7924049   0.33898127  0.4924609  -0.08554904  0.03058612
  0.8469352  -0.38064918 -0.894599    0.05890518 -0.02230884 -0.68212175
  0.15799366  1.2116402 ]
[-0.34115788  0.66296625  0.7087641   0.33386692 -0.51462936  0.87029403
  0.38373896  0.48277268  0.9695192   0.46379906 -0.05369001  0.18321294
  0.5628822  -0.550908   -0.3192363   0.11654953 -0.2655191  -0.8267249
  0.02715614  0.7683429 ]
[-0.11325708  0.56867564 -0.0135559  -0.78730214  0.9179662   0.08863554
 -0.14782876 -0.23260164  0.21996403  0.00959129 -0.8871458   0.05802402
  0.18868764 -0.21961427 -0.11182102  1.3729305   0.82230043 -0.24952167
  0.6518963   0.07073288]
[-1.1817136e+00 -5.3078479e-01  3.8924596e-01 -6.0993731e-01
  1.9144310e+00  1.3469590e+00  1.6120906e+00  3.2565010e-01
  8.4924623e-02  9.6996742e-01 -9.5336181e-01  1.5737877e+00
  5.1639322e-04 -9.9956125e-01  6.3538790e-02  1.0994145e+00
  1.2902529e+00 -2.1803764e-01  9.2200464e-01 -1.2981559e-01]
[ 0.43278015 -0.86246145  0.27159548 -0.21455555  0.59718156 -0.35173535
 -0.02845932 -0.2527605  -0.72527516 -0.3580468  -0.23152734  0.1901408
 -1.198258    0.12654822  0.8524106  -0.00429762  0.49010655  0.5130322
 -0.06205266 -0.3142281 ]
[-0.8325248  -0.07072196  0.51507837  0.08166896 -0.22064644 -0.11593811
 -0.0507232  -0.82560945  0.72582483  0.07841102  0.20885119  0.09968039
  0.09189054 -0.11778466 -0.6532081   0.3892015  -0.59783894 -0.8448614
 -0.05446109  0.50652343]
[-1.1312796   0.25208354  0.20541705 -0.40379572  1.0348397   0.49762926
  1.4459642   0.31196564  0.13652544  0.18686485 -1.119535    0.92440546
 -0.37937692 -0.18707821 -0.47032866  0.8659422   1.4442784   0.12627876
  1.5311936   0.18542984]
[ 0.14949836 -0.5804969  -1.0240906   0.32434317  0.45356214 -0.8726336
  0.44368744 -0.40795952  0.9588458   0.99582887  0.20432559 -0.03782678
 -0.89899313 -1.2257972   0.46108088  0.82940495 -0.33974153 -1.1103487
 -0.38533893 -0.6625549 ]
[ 0.45548534 -0.89564896 -0.86880755 -0.1188966   0.43445924 -1.518595
 -0.7272945  -1.5098188   1.305939    1.1993178  -0.1964098  -0.3128919
 -1.1790956  -1.0488098   0.5922733   1.1778343   0.0652696  -1.5261587
 -0.41242087 -0.68824786]
[ 1.1181419   0.42760256 -0.4112571   1.52653    -1.4720646  -1.0711612
 -1.4534227  -0.15984207  0.04892095 -0.06277397  1.0563612  -1.6317984
 -0.17701839  0.5418581  -0.5908036  -0.336247   -1.2344645   0.5191857
 -0.68872535  0.30144483]
[-0.2450029   0.22220582 -0.01387641  0.58724135  0.19482572  0.27098358
  0.00868733 -0.08424773  1.2602558   1.1199335  -0.04418128  0.35441768
 -0.0330249  -0.6297402  -0.39487627  0.8463603  -0.03691315 -0.60966057
  0.27470264  0.13055183]
[ 0.06822442  0.2334763   0.54291856 -0.01334964 -0.21525188  0.76106745
 -0.00199806  0.5723472  -1.4351782  -1.578754    0.274022   -0.07605633
  0.33545092  1.0934243  -0.5307871  -0.23226133 -0.4266616   0.12685025
 -0.7270769   1.1295087 ]
[ 2.088742    0.672645   -0.9460463  -0.01176864 -1.0337332  -0.36534914
 -0.78906643 -0.18681107 -0.6205621   0.544578    0.48876974 -1.0946432
  0.03721046 -0.5720336   1.1927987  -0.10523525 -0.7531954  -0.48456368
 -0.77431977 -0.53919935]
[ 0.47446686 -1.4685385  -0.6975507  -0.1535892   0.21019168 -0.9988102
 -0.10457241 -0.20000781 -0.74589634 -0.09301622 -0.3647792  -0.01494052
 -0.65996355  0.03007214  1.1256188  -0.32620516  0.26544517  0.47366238
 -0.2558334  -1.1686418 ]
[ 0.23383483 -0.07629108 -0.14383565 -0.59900874  0.22767285  0.0083723
  0.2771376  -0.59928364 -1.1584786  -0.7012003  -0.46218574 -0.25521266
 -0.05404164  0.7274714   0.10453694 -0.4848366  -0.03772868  0.4584642
  0.03252717 -0.12012181]
[-0.40862006 -0.39371404  0.04914325 -1.3708915   0.819213   -0.3101831
  1.0237862  -0.16370502  0.45949003 -0.406483   -1.0108575   1.1897658
 -0.11923831 -0.15356208  0.46465454 -0.01020514  0.8963139  -0.11964855
  1.3667704   0.17278834]
[-0.5271826   0.29318127  0.15707791  0.61238605 -0.16038512 -0.06707328
 -0.18673706 -0.6615343   0.6836709   0.11143147  0.24577361  0.16607489
 -0.16652966 -0.43170023 -0.4697302   0.4818805  -1.1562585  -1.0181407
 -0.3712889   0.7084696 ]
[-0.79095846  1.1407658   0.41219574 -0.12480402 -0.3750846   0.43717995
  0.18021803  0.391528    0.15446867 -0.42328826  0.08091439 -0.19716953
  1.1382673  -0.00870267 -1.013827   -0.31025696 -0.25131488 -0.7052454
  0.16940528  0.84172493]
[-0.01499334 -1.1582284  -0.32057214 -0.357444    0.06073961  0.21220902
  2.076646    0.43603784 -0.30486432 -0.76321167 -0.0437173   0.26814312
 -0.7786148  -0.09053008  1.1289328  -0.8594964  -0.35538772  0.80051905
  0.02848491 -0.55056244]
[-0.7404881   0.06862921  0.2821119  -0.5139135   1.255864    0.43403006
 -0.00659209  0.06893235  0.10441273  0.7816454  -1.138861    0.66531444
 -0.04070473 -0.5224302   0.50652564  0.36851943  0.89270455 -1.029654
  0.7641361  -0.07463707]
[ 0.98555154  0.1777199   0.09162346  0.12087234 -0.9012475  -0.34409335
 -1.2044587  -0.19805686 -0.59349334 -0.42613578  0.64598185  0.14088789
  0.51657504  0.60665685  1.305671   -1.3523378  -0.2044103   1.7574203
 -1.2813375  -0.07952399]
[-0.09386342 -0.56226784 -0.72381693 -0.25027367  0.7282482  -1.8587765
 -0.7021491  -1.8283716   1.6587447   0.6625301  -0.54619926 -0.4586015
 -1.3590891  -0.81872624  0.15852655  1.5141119   0.21084163 -1.9013397
  0.02323789 -0.2713272 ]
[-0.5163005   0.373831    0.46367103  0.2876422  -0.3226412   1.0454314
  0.36760756  0.89477134 -1.6273074  -0.9050978   0.2200774   0.52521455
  0.42473665  0.5822957  -0.34504756 -1.0388575  -0.5797643   1.2462076
  0.01424544  0.49378034]
layer 5 Activation
tanh
layer 6 Dense
20 1
[-14.883978]
[8.642851]
[8.809645]
[-14.276459]
[14.610249]
[9.168644]
[14.2302475]
[9.158912]
[-8.678379]
[-8.800022]
[-14.274567]
[14.83555]
[8.747798]
[8.830815]
[-8.631155]
[-8.769245]
[14.272141]
[8.778662]
[14.330694]
[8.614859]
[10.078592]
