layers 7
layer 0 Dense
20 20
[ 0.06988785  0.05322703 -0.08280377 -1.4226786   0.58782196  0.15553528
 -0.03842231  1.1983318   1.3597257   1.0889753  -0.21263316 -0.41230622
  0.8788066   0.4202755   0.38284096 -0.00582327 -0.47755828  0.8075767
 -0.65620625  0.1211752 ]
[ 1.0336030e+00 -2.2762203e-01  9.5016319e-01  1.6587980e+00
 -9.1490602e-01  2.1311529e+00 -2.1315062e-01 -1.1350399e+00
 -1.2550026e-02  1.5014156e+00  1.5095001e+00  8.6348772e-01
  9.2766654e-01  9.7350299e-01 -4.4428107e-01 -9.3642360e-04
  6.6081089e-01  2.1284413e+00  7.1497285e-01 -2.2277892e+00]
[ 1.3587444  -0.45339784  0.51187146  1.5894809  -0.81112343  2.3129065
 -0.3427783  -1.157592    0.18724173  1.1435899   1.766451    0.94797224
  1.2546986   1.5602169  -0.34284702  0.08964488  0.70483816  2.010571
  0.53402483 -2.6426625 ]
[ 0.26595667  0.4805141   0.1129748  -0.548719    0.47702405  0.4693382
  0.05352173  1.1307994   0.8546503   1.3837968  -0.02538428 -0.4490478
  0.61052835  0.49882677 -0.24477376  0.3159195  -1.2248411   0.5549131
 -0.52421993 -0.2551009 ]
[-0.5003485   1.4920486  -0.30683178 -0.56102675 -0.5946101  -1.6105723
 -2.2726383  -0.13256365  2.0794816   0.31254363 -0.67239887  0.3049081
 -1.2709625   1.1687378   0.362672   -0.35421437  0.4146151  -0.8358324
 -1.7402866  -0.8358017 ]
[-0.43272275  0.500175   -0.7359322  -1.1584402   0.87325126 -2.0554883
 -0.19238575  2.3350139  -0.9578386  -1.0680319  -1.6765635  -0.79806244
 -1.4460361  -1.4840144   0.6916401   0.7097494  -0.57792187 -1.3047816
 -0.43874335  3.0810022 ]
[-0.36590686  0.51771224 -0.8782068  -1.1092451   0.9800468  -2.2174418
  0.06614625  2.3765059  -0.67851245 -0.7665175  -1.4961485  -0.42102697
 -1.1791639  -1.3774977   0.6563319   0.99508095 -0.4516342  -1.6856052
 -0.92162496  3.0723553 ]
[-1.4033817  -1.7077786   0.41895574 -0.23374674 -0.36304122 -1.1242783
  1.9804621  -1.0392791  -1.2286695  -1.7301639   1.7442931  -0.01596167
 -1.1268916  -1.3318545   1.2126471  -0.86233467  1.4020832  -0.7911887
  1.678306    0.25799102]
[-2.2067268   1.1425502   0.56911623 -2.616645    0.969966   -1.8893656
 -1.4247997  -0.8008305   1.2301666   0.6587801  -1.5464679   0.04779447
 -0.45560142  1.0340024   1.5959129   0.08324315  1.1438756   0.5971532
 -0.5640911  -0.6152073 ]
[ 1.0982054  -0.01541846 -1.4223998  -0.30018058 -1.618417   -0.00901018
 -0.25773478  0.7685085  -1.3184252  -0.3738753  -0.8853341  -0.9746175
  1.2657748  -0.05327151 -1.3228829  -1.7404677  -0.25082093 -0.23630318
  0.94669276  0.5440064 ]
[ 1.480668   -0.55275875  0.98548067 -0.7540361   0.3143387   0.41442886
 -0.9665822   0.26536053 -1.9951385  -1.291016   -0.4925573  -0.7719084
 -1.0180756  -0.5916151  -0.99588203  0.3782522  -0.14641264 -1.1781882
 -5.0165954   1.5966171 ]
[-1.7821736   2.6582148   0.9629167  -1.0944269   3.5545757   0.67715
 -1.8947295  -2.578449    2.5349336   0.9600869  -3.9071808   1.5824783
  0.29603112  0.7904974   1.8803045   2.9304395   0.530931    2.0105767
 -1.6316566  -2.4457512 ]
[ 0.21063325 -1.53551     0.81808203 -0.41901356  0.16044298 -1.8736705
  0.31795308  1.3836008   2.7928934  -1.4927025   1.5456836   0.8753394
 -0.75604874  0.24560535  1.2613999  -2.4771845   0.7154137  -2.3948371
 -0.15307467  0.9804034 ]
[-1.5238615   0.33930466  4.086916    0.48075366  0.91100687  1.5937592
 -0.9356673   0.50654787  1.0591449  -0.97560054  1.5224307  -0.26440597
 -0.22720215 -0.32765883  0.26397952 -0.31153136 -0.04851674  0.54507077
  0.00807098 -0.87385845]
[ 0.30401072 -0.44265348 -0.97848755  1.9391061   1.9260641  -0.6399953
 -0.5635719  -0.20103866 -0.22276781  1.1288605  -0.14888911 -0.6466388
  0.8996683  -2.1878636  -0.602073   -1.751606   -0.24899733  2.156752
  2.6268778   0.47125348]
[ 2.6815066e-01 -2.0058656e+00  8.2140428e-01  6.1723334e-01
  2.4704368e+00  2.1068186e-01  1.2797893e+00  1.2579007e+00
  1.7543867e+00 -1.9412661e+00  1.7926053e+00  9.9651408e-01
 -1.1643551e-03 -6.0530943e-01  1.3369389e+00 -1.9305216e+00
  4.8592478e-02 -7.1283782e-01  3.5017470e-01  1.8072160e+00]
[-0.83520997  0.3920003   0.17374289 -2.585294   -1.3674589  -0.9324789
  0.42295247  0.6763801   2.3359349   1.7699579   0.9124754  -1.1596938
 -0.705639    2.230031    0.09309415  0.24547027  0.69912237  0.89295655
 -2.0149076  -0.07860361]
[ 0.40872118 -0.2631419  -1.7994263  -0.82784677  0.57946914 -2.8711402
  2.3994796  -0.6772333  -0.03821172  0.54012847 -0.9399564   2.113704
  0.22227445 -0.21397325  1.7148786   1.1632913  -0.02417531 -1.1615067
 -1.0691667   0.6033267 ]
[-1.9250971   1.2755721  -0.6684939  -1.5447458  -2.6502287   0.34896198
  0.7554078  -0.7190799   1.0159235   0.14410189  0.6338071   2.7257297
  0.19778675  3.4699461   1.8661479   2.1119196  -0.24646334 -0.9554288
  0.8683033  -3.9126277 ]
[-0.8467804  -1.7886615   0.7507287  -3.190282   -2.4814498  -0.4340175
  3.2410681   0.35476285 -0.8372426   1.4171187   1.4079577  -4.8104997
 -0.08856937 -0.03640194  0.3178491   0.30230364  0.16900739  0.71843314
  1.1330398  -0.1239279 ]
[ 0.9628392   0.49251702 -0.0919471   0.8084359   0.07163253  1.4587193
 -0.21948774  0.90692204 -0.0978193   0.760088   -0.70625854 -0.01780769
  1.497984    0.15494478 -0.8786529   0.5250601  -1.2440435   0.8050414
 -0.0575837  -0.1317975 ]
layer 1 Activation
tanh
layer 2 Dense
20 40
[ 0.04847337 -0.12313096 -0.6596132  -0.6076499   0.45780662  1.3286877
 -0.568999   -0.97127366  1.2049396   0.64590675  0.46401042  0.04859778
 -0.06587417 -0.6860819  -0.4162101  -0.62728125  0.49048585  1.1064337
 -0.42714447 -2.100883    0.23568814  0.949268   -0.12566416 -0.74411327
 -0.20348127  1.0084839   0.32632807 -0.23684345  0.20811817 -0.18107109
 -0.0600143  -1.0681148  -0.5577275   0.7957158  -0.31858665  0.29494852
  0.43004787  0.83654875 -1.3454434  -0.08446272]
[-0.6119854  -0.43182865  0.8482733   2.6929374  -0.92720544  0.6876867
  0.17647155  0.8954901  -0.03528424 -0.34167695  0.11145101 -0.52772236
 -0.47812825  1.4299257   0.3173191   0.43561208  0.2866039   0.21495506
 -0.12565093 -0.11579099 -0.46574193 -1.0957687   0.04395341 -0.01689607
  0.807209    0.46918508 -0.56219774  0.32096583  0.42643458 -0.51651263
 -2.0263355   0.8871941   0.03033832  0.7064695   0.67006147  0.7572877
 -0.68697536  0.16762975  1.4450502   0.5869818 ]
[ 1.3066572  -0.06299683 -0.29971483  1.2441952   0.7973118   0.37066263
  1.1613814  -0.35193163 -1.4958067   0.65909004  0.6962483   1.1849564
  0.57887614  0.02000864  0.4337678   0.4357719  -1.6584797  -0.80820847
  1.5195009   0.835381    0.5704621   0.6004331   0.24206078  0.57448024
  0.85773253  1.8961083  -0.64525336 -1.5259823  -0.43646234  1.0503459
 -0.68449706  1.5289515   2.4566941   0.61330265  0.22078016 -0.05969019
  1.2691181  -0.50541615 -0.05271284  1.8100325 ]
[-0.8341195  -0.27711323  0.57442373 -0.65819067 -0.01167664  0.05994257
 -1.1166109  -1.0825912  -0.63986206 -0.66809976 -0.73562616 -1.3368589
 -0.44198743 -0.7399709  -2.058577   -0.1214653   0.92910326  0.9128793
 -1.2250102  -1.1139563  -1.3564833   0.4693439   0.00813736 -1.174093
 -0.55437213  0.70322806  0.86376214  0.7774507  -0.18249731 -0.66659987
  2.0522068  -0.7003329  -2.2720811   0.3558363  -0.78599685  0.4392948
 -1.1874793   0.20471615 -0.65898484 -1.0905622 ]
[-0.95178825  0.18932201 -0.13294294  0.42639056 -1.0987608   1.1436746
 -0.6715096   0.0911986  -0.2517658   0.56921196 -1.8844432  -0.5792098
  0.0608827  -0.38379082 -0.07541575  0.29300836  0.71928054  1.1024063
 -1.1952913  -1.5316445  -0.8021914   1.9716351   0.3494266  -1.7869815
 -1.4645666   0.38420781 -0.23070215  1.1472825   0.23730592 -0.48495921
  2.0597494   0.3014911  -0.53611624  1.9142889  -1.6149766   1.2012161
  0.79335314  1.1625254   0.04350593  1.5710088 ]
[-1.8149992  -0.8168133   1.4515523  -0.9889662  -0.7076589  -0.24651065
 -1.5920937  -0.10851084 -0.47342387 -2.0280442  -1.5374993  -1.8050022
 -0.5072412  -1.1705643   0.9670239   0.27103373  2.0452604   2.3022668
 -1.9741266   0.2907477  -1.3742921  -1.0053979  -0.517014   -1.7558652
 -2.1271937  -0.0787766  -0.18924463  1.7722363   1.7984569  -2.1488645
  0.22877556 -0.5980923  -2.5461802   0.9576237  -2.4032252   1.6191938
 -0.8430804   1.210809    0.9504948   0.01420797]
[ 1.1536791   0.4398538  -0.8884837  -1.2691033   0.3294767   0.82900035
  0.5878113  -0.58723265 -0.9230666  -0.317459   -0.03229992  1.2867852
  0.28473938 -1.0840836  -0.41124657 -0.77170336 -0.7046219  -0.88955134
  0.90550643  1.8170067   2.0770776   0.9279835   0.45053923  1.7103475
 -0.47787172  0.39317867 -0.0722792  -0.751043    0.18609202  1.4150356
 -0.56377095 -0.27494076  1.084944   -1.8887671  -0.46821427 -0.44369376
  2.2747123  -0.47790894 -0.87736785  0.50837094]
[-0.80834776 -0.47867584 -0.0497903   0.33890706 -0.5976429  -0.03842492
 -1.3228801   0.2533639  -0.37275273 -0.55381674 -0.6059999  -1.1008518
 -1.2618802  -0.8732334   0.589231   -0.4815114   0.51725864  0.7206174
 -0.60859513 -0.24172975  0.16940966 -1.0713509  -1.0524234  -0.13227104
 -1.1971868   0.31493247 -1.4042974   0.7639553   0.94635624 -0.8197345
 -0.49160045 -1.1678603  -0.2557533   0.3296336  -0.48220745  0.75940603
  0.72609496  0.50139594  0.30046168 -0.55032206]
[-1.3770214  -0.4926427   1.1693689   0.87917256 -1.6135296   0.48200998
 -1.5339698   1.876794    1.399434   -2.06884    -1.8230608  -1.5138191
 -0.8053504   0.39900765  1.9963813  -0.8299743   0.66486543  2.233317
 -1.6930255   0.08528446 -1.0061659  -1.1136768  -1.1980759  -1.7078071
 -0.41381702 -1.4899687  -0.06074969  0.98294556  0.32472035 -1.4289675
 -0.1766596   0.03679281 -2.2278008   2.5189772  -0.66584194  0.63775903
  0.43830657  1.0354841   2.1402614   0.0915822 ]
[-1.273376   -0.5670489   0.32520387 -0.43239456 -1.3470546  -0.10785116
 -0.7525925   0.7868281   1.1155869  -1.0352918  -1.5852987  -1.426223
 -1.1334625   1.1036594  -0.08695978  0.9326088   1.2686621   0.48928028
 -1.5493937  -0.16731958 -0.33933517 -0.31648546 -1.3778423   0.0028264
 -1.8069733  -1.5628229   0.00356297  1.9981706   0.7580752  -1.2903256
 -0.35603008 -0.9681643  -0.31296355  0.9838438  -0.7596475   0.58910394
 -0.40157592  0.00912078  0.8693125   0.34028193]
[-0.07521067 -0.19747354 -0.8938896  -0.49550775  0.5370354  -0.5861927
  0.16915037 -0.967071   -1.2208521   2.0153775   0.85144717  1.0284518
 -0.24759683 -1.333177   -1.5135735  -0.0216708  -0.6711151  -0.9662036
  0.6938274   1.3496504   1.823836    0.61601126 -0.03866751  0.34510097
 -0.64502496  0.9198446   0.9888517  -0.73072463 -0.34984717  1.2122543
 -0.05972289 -0.4399994   0.19104835 -1.2515906  -0.32337385 -0.9193266
  0.7884995  -1.2541633  -1.7507391   0.69135475]
[-0.8906272   0.11639468  2.0102563   0.16932982 -0.44178835 -0.32524058
 -0.6400987   1.1671698   0.7860877  -1.5840769  -1.308711   -1.3517923
 -0.24122338 -0.94414395  0.3204397   0.30377552  1.4555593   0.71868813
 -1.4165672  -0.14454156  2.0265605  -1.8099326   0.253801   -0.68592757
 -0.9876379   0.32103553  0.7863271   1.2283486  -0.09044342 -1.4125533
  0.14203227 -0.3332937  -1.7337152  -0.34950712 -0.9383106   0.6261837
  0.15607655  0.7133963   1.0983613   1.1941638 ]
[-0.39309958 -1.0807793   0.9795158  -0.299454   -0.59727263  1.394229
 -0.26466873  0.08371639  0.36269757 -0.15675023 -0.22465786 -0.368087
 -0.99254036  0.90315235  0.23193808  0.4467013  -0.02073215  0.68521285
 -0.2278647  -0.7421331  -0.3205104   0.0374665  -1.4239265  -0.56103474
 -0.8334822   0.6001646  -0.19328329  0.2331089   0.6958121  -0.61963445
 -0.4841515  -1.5300455  -0.34822556  0.447746   -0.7792524   1.079059
  0.15832247  0.08856349  1.0829418  -1.0541221 ]
[ 0.15099928 -0.45747447  1.0369694   1.1653976  -0.49447864  0.44817752
 -0.7673091   2.6898024   1.8886197  -1.3448269   1.0620205  -0.34333733
  0.03828266 -0.5288811   1.5288662   0.35579494 -0.5425282   0.46023557
  0.18220332  1.349319   -1.0353276  -1.940967    0.02029399  1.0302
  0.6275163   0.2026432  -0.3362059   0.4798407   0.43423274  0.26872468
 -1.8627568   0.17314552 -0.01232141 -0.1406591   0.79608864  0.21191676
  2.2050056   1.0335634   1.8277551  -0.43107125]
[ 0.958744    0.37497094 -0.23771931  0.64537024  0.01657096 -0.01768511
  0.5540919   0.13839869  0.13597195  0.3294794  -0.2829779   0.8418542
  0.9932566   0.10936052 -0.20538007  0.98643136 -1.4965931  -0.22082932
  0.24514239  1.0494816   1.3797998   0.93211734 -0.01027887  0.5705441
  0.66123784 -0.37656134  0.9869111  -0.5279866   0.45227438  0.47610772
 -0.19296798 -0.14062019  1.1233716   0.08439936  0.4289325  -0.6622659
  0.808098   -0.98748595 -0.0354172   1.535253  ]
[-0.23341833  0.1074638   1.6903329  -0.03271173  0.9461624  -1.6371123
 -0.5736256   0.3967248  -0.93207717 -1.7700433  -1.0932616  -0.84586674
 -0.31884256 -0.8213777   1.9156774   1.952266    0.6226964   1.0107368
 -0.7223992   0.8097378  -0.925318   -1.4399883   0.19754362  0.7696391
 -0.23933339  1.6043648  -0.10518805  0.6578754  -0.01248612 -0.41801566
 -0.48682156  0.12435958 -0.50086534 -0.46523777 -1.8934916   0.3944626
 -0.35108438  0.55299264  0.8359906   1.2487085 ]
[ 1.1200066   1.4144783  -1.097834    0.141499    1.2724736  -0.83072275
  1.1226382  -0.09930184 -0.60146266  0.6786038   0.7783817   1.1956685
  1.0329832  -0.52359194 -0.46838638  0.768838   -0.97237206 -1.468684
  1.0809749   0.89518404  0.3917348   0.5829126   1.3856349   0.81030923
  1.2308648   0.09885386  1.1643152  -1.1041548  -1.498464    1.0661188
  0.36210224  1.2103016   0.8287455  -0.8998589   0.5796413  -1.2370261
 -0.35610917 -1.0429573  -0.52603567  0.6607753 ]
[-0.5329508  -0.04557757  0.05925919 -1.838112   -0.15967412 -1.3427026
 -0.53109264  0.19034505 -1.1545311  -1.2716305  -0.6735794  -0.7692112
  0.06291091 -1.0500199  -0.48480818  0.5879269   0.8499536   0.6427229
 -0.84560335  0.20852976 -1.7977122  -0.73528296 -0.16797554 -0.9032943
 -1.9196264   0.17877209  0.06012304  0.72953385  0.21721096 -1.271587
 -0.2728094  -0.36706823 -0.5776205   1.3980834  -0.5551473   0.20614955
 -0.7855378  -0.8417684   0.44815502  1.3449454 ]
[ 1.6684462   0.39566848 -0.2150748  -0.75935423  0.13009608  0.4146477
  1.0877863  -0.39299485  0.03268929  0.19788408  1.7199999   1.4416596
  0.04968851  1.7128563  -2.927541    0.21434392 -1.5484201  -1.8205554
  2.2179172   1.4163601   0.51111037  1.3428893   0.56588525  2.1189263
  0.5628516  -0.25078428  0.0562623  -1.5527508  -0.53777385  1.7537526
 -1.4271427  -0.82719684  1.0360203  -1.7271613   1.0798165  -0.79723483
 -0.1597556  -2.288075   -0.6335646  -0.2572531 ]
[ 8.0223733e-01 -4.6860866e-02 -1.6649970e+00  7.2438926e-02
  4.4816032e-01  5.7231730e-01  5.4981571e-01 -6.0993826e-01
 -2.8370612e-04  9.5059794e-01  7.5532937e-01  6.4505465e-02
 -6.4893872e-01  1.1527886e+00 -1.1673241e+00 -2.5754380e+00
 -7.6351935e-01 -5.2841336e-01 -2.2756260e-02 -2.1302197e+00
 -2.6662701e-01  9.7752488e-01 -2.1361767e-01 -4.7843736e-01
  5.9705924e-02  9.3419582e-01 -9.9515116e-01 -6.4368534e-01
  7.8214869e-02  3.3213446e-01  1.3032790e+00 -1.6498759e-02
  3.5211378e-01 -3.2051778e-01  6.7852646e-02 -5.2201897e-01
 -5.8087248e-01 -4.7754335e-01 -1.3465930e+00 -1.1087694e-01]
[-1.348004   -1.2987915   0.98050845 -0.20507972 -1.2979487   0.7933233
 -1.2299955  -0.01379908  0.25665832 -0.28015232 -1.110366   -1.3151023
 -1.8781798   0.49476442  0.49890164 -0.9697447   1.1309835   1.6496937
 -1.4001294  -0.86169094 -0.73589504 -0.4255074  -1.6672231  -0.9727163
 -1.610286   -0.05787525 -0.9853706   1.0078375   1.653308   -1.4171742
 -0.4074451  -1.2729312  -1.1256645   0.9302244  -1.2164572   1.6325811
  0.06657735  0.87349635  0.23797463 -0.61108726]
layer 3 Activation
tanh
layer 4 Dense
40 20
[ 1.8056582  -1.4061129  -0.9952656   0.2151876   0.52136433  0.22495708
 -0.7791824   1.4648613   0.4615155   0.2110619   0.8367802  -1.4129958
 -1.4712346  -1.3670295  -0.44588876  0.4174457  -0.33420327 -0.83951
 -0.44752964  0.55578876]
[ 0.6194361  -0.45248842  0.18126188 -0.14891991  0.801205   -0.697118
 -0.21870083 -0.00243666  0.5359596   0.10025138 -0.36545393  0.04668693
 -0.41572908 -0.64092076 -0.40383482  0.36598644 -0.43521893 -0.43685573
  0.40368888  0.54853886]
[ 0.49536476  0.27122533  0.9773047  -0.20312202  0.07375757  0.13377209
 -0.09030036 -0.12537947 -0.35349342 -0.3973507  -0.8245658   0.5045055
  0.5091727  -0.08224709  0.98535097 -0.97245723 -0.10144516  0.33767375
  1.38048    -0.05449585]
[-0.18550158  0.17143351 -0.28182343 -0.34148186  0.34275    -0.33052695
 -0.2638857   0.03760982 -0.12346418  0.74835896 -0.72083884  0.1383387
  0.6582208   0.03495534 -0.12241363 -0.45827848 -0.53327554 -0.34577233
  0.7491688   0.0184253 ]
[ 0.7774283  -0.03623361  0.120953    0.51470137  1.0121197  -0.43080124
 -0.24258128  0.722627    0.22753794  0.47222096  0.58688414 -0.39084592
  0.29032972  0.12086834 -0.06029784 -0.162923    0.05324095 -0.5645445
  0.3893371   0.19766393]
[-0.37022516 -0.03954165  0.43408707  0.6087436  -0.0396743  -0.02266128
 -0.21884063 -1.0102589   0.03161806  0.24763659  0.7703912  -0.05361764
  0.20873858  0.02494169  1.0150273   0.12551066 -0.31817815  0.2459073
  0.1947443  -0.3381807 ]
[ 0.64871716  0.00164846 -0.9552147   0.964972    0.49935007 -0.7407697
 -0.16428137  1.082218   -0.48787478  0.33347133  0.83330417 -0.3123414
 -0.8473507  -0.47769147 -0.4363857   1.4910281  -0.23861307 -0.9298308
 -0.95650905  0.2583664 ]
[-0.39134666  0.85141295  1.1817946  -0.79399127  0.16994017 -0.3155008
  0.28308243 -0.34002686  0.3601248  -0.23849075 -0.53004843  0.5892859
  0.04498862  0.08401743  0.25717273 -0.21578579 -0.02375557  0.09658954
  0.7900958  -0.30007702]
[-0.4443736   0.30179253  0.03859337 -0.7975505   0.01297723  0.0306612
  0.50700295 -0.19739726 -0.1288634  -0.61867994 -0.7878301   0.31502998
  0.1291069   0.15852351  0.73619825  0.00281569 -0.12088876  0.14424181
 -0.12302213 -0.1792197 ]
[ 0.26993287 -1.5655317  -0.716392    0.7526266  -0.6945462   0.5519161
 -1.490305    0.49821538  0.8080621   0.47900307  1.3736397  -0.65621114
 -2.0685136  -1.1149452  -0.700487    1.0240735   0.32976046 -1.1398003
 -1.1865875   1.443075  ]
[ 1.0009882  -0.79257655 -1.3348815   1.7530365  -0.11426187  0.13772263
 -1.2220438   0.49345025  1.334182    1.3119487   1.4471991  -1.4120452
 -0.8892471  -1.3277879  -0.04179622  1.2900158  -0.3001127  -1.6014391
 -0.6939096   0.6090163 ]
[ 0.9663766  -0.5795083  -0.41215828  1.4098988   0.07510994 -0.31289423
 -0.41935003  0.27538994  1.4030704   1.6827147   1.2186875  -1.6067116
 -0.6643033  -0.5457071  -0.2102829   0.04928158  0.23935129 -0.86882573
 -1.495024    0.08380909]
[ 0.43914625 -0.45484143 -0.40691286  0.6104533   1.2982624  -1.0775709
 -0.5312207   1.2648275   0.286955    0.10496333  0.08561744 -0.8274002
 -0.33769277 -0.4780396   0.03019875 -0.05936352 -0.40883476 -0.5603585
  0.3348435   0.5456359 ]
[-0.80111873  0.39052284 -0.07445171  0.31175488 -0.490572   -0.02489549
  0.4136445   0.55067706 -0.08049622  0.04180746  0.03101468  0.7314078
 -0.02006206  0.5267535   0.27958277  0.42353123 -1.0673999   0.42720613
 -0.7187313  -0.0801285 ]
[-0.8336      0.9395535   1.0715516  -1.5557292   0.5122374  -0.59476906
  1.1789914   0.13359135 -1.0561067  -1.8166109  -1.6808442   1.5267903
  0.62904745  1.3658516   0.0905297  -1.0440978  -0.5975906   1.0591325
  1.5672814  -0.88161045]
[-2.0525326e-01  3.2539546e-01  2.7249658e-01  4.0279433e-02
  1.3268144e+00 -6.5178573e-01 -1.5181256e-03  6.1275977e-01
 -1.9194618e-02 -1.7527407e-01 -1.4163230e-01 -2.6286405e-01
  2.0018625e-01 -2.7355778e-01  1.7982360e+00 -1.1291766e+00
 -4.8370087e-01  9.8448813e-02  7.0305067e-01 -3.2361415e-01]
[-0.7539935   0.5316      0.32246873 -1.0476379   0.24870701  0.20276338
  0.5904501   0.00421759 -0.9535832  -1.0440657  -1.2884192   0.21458185
  0.09745041  0.83266205  0.0147135  -0.8215755   0.26093     0.42378005
  1.5218763  -0.6367632 ]
[-1.2356974   0.6108918   1.500762   -0.5140445  -0.3867963   0.81203836
  1.7333212  -0.3919046  -0.4963298  -1.475932   -0.68840396  0.49873137
  1.0979904   0.5509361   0.22532505 -0.5205202  -0.41313934  1.2331599
  0.54042035 -1.2687042 ]
[ 0.6286428  -2.1167445  -1.8008001   1.5710816  -0.04211774 -0.41521564
 -1.3310573   1.1513333   2.1950655   2.5036304   1.5080657  -2.1675544
 -1.6084243  -1.9115709  -0.21096316  1.2263159  -0.09539786 -1.9176219
 -0.71129996  1.1258799 ]
[ 1.2534844  -0.6692418  -0.8458166   2.047029    0.33365658 -0.03612516
 -0.89711446  0.5773384   1.212933    0.83896637  1.2490048  -0.8602884
 -1.5941002  -1.7116373  -1.164598    1.8017455   0.1399845  -1.3492969
 -1.2801964   1.3635536 ]
[ 1.1851147  -0.42495653 -0.9857308   1.2409167   0.17757022  0.48883146
 -1.1554272   0.80281645  0.7870071   0.8656324   0.7241359  -0.81090254
  0.3455652  -0.75790346 -0.32166886  1.4171492   0.68161607 -1.0471282
 -0.57880974  1.0624304 ]
[ 0.7569718  -0.3065076  -0.91750777  1.0281523  -0.4130521   0.7082133
 -0.77960616 -0.28383428  0.618833    0.7061222   1.7369095  -1.0713023
 -0.6947412  -0.52445436 -0.05603187  0.6687155   0.05699669 -1.0269727
 -1.6211028   0.833205  ]
[ 0.17465279 -0.13836145 -0.1013866  -0.00979793  1.4166434  -0.6891858
 -0.09143902  0.2796885   0.42855626  0.4036739   0.15898702 -0.5922045
 -0.3045127  -0.73089355 -0.04944386 -0.27640814 -0.51611716 -0.48136225
  0.4031053   0.543411  ]
[ 1.1907356  -1.2672939  -2.0400188   0.48823857 -0.26136202  0.19085278
 -1.4163545   0.22352132  0.5637012   2.3476355   0.3109507  -0.2579822
 -1.0054364   0.31826505 -0.69346404  2.0424447   0.01677045 -1.069139
 -1.2565678   1.7560259 ]
[ 0.5145977  -1.6044968  -1.7776303   1.0936496  -0.31455103 -0.02212049
 -1.8310957   0.7046177   1.038831    1.1420426   1.3334248  -0.54318434
 -1.5938232  -1.5628068  -0.7341417   1.095417    0.3367963  -1.1460645
 -0.6275034   1.976303  ]
[ 0.805387   -0.65418196  0.29069716 -0.16837808  1.3149097  -0.66432196
 -0.08428888  0.1186524   0.63008595  0.6724418  -0.09373249 -0.71417975
  0.31852797 -1.159521    0.82902473 -0.58111674 -0.29342636 -0.00808205
  0.6599772   0.45168918]
[ 0.31244224 -0.0135194  -0.00111316  0.48154357  0.41190264 -0.6043432
 -0.2738916   0.7387921   0.06232591  0.67694545 -0.07956873 -0.5030596
 -0.07258145 -0.4906444   0.10029446  0.28432024 -0.04288826 -0.01087311
  0.07854059  0.04103139]
[-0.8513584   1.5701066   1.1543955  -0.5868223  -0.767548    0.484346
  0.6057326  -1.7377324  -1.8250164  -0.52345306 -0.878424    1.733956
  0.9364379   0.6277513   0.5069611  -0.81397945  0.14137487 -0.49674517
  1.2758105  -0.63107485]
[-0.80682534  0.33647433  0.03014769 -0.04653211 -1.5432528   1.3198233
  0.3485376  -0.8155574  -0.90831614 -0.24179444 -0.1929899   0.82968384
  0.6426802   0.68619543 -0.11352263 -0.27981272 -0.19762293  0.27843037
 -0.31903255 -0.5822742 ]
[ 1.6714681  -1.6132203  -1.3118981   0.77465355 -0.32386282 -0.34879997
 -0.36318496  1.7518567   1.9919713   1.0241066   0.2834018  -2.0101383
 -0.8172357  -1.9804809  -0.38134244  0.58620954  0.1963303  -0.46693453
 -0.5339517   1.1543925 ]
[-0.2354615   0.53237337  0.39870438 -0.8031215   1.2180631  -0.53962624
  0.9696598   0.5246229  -0.8599766  -1.1991502  -0.7853218   0.7183859
  0.06864263  0.5548523   1.1963861  -1.4535036  -0.56153995  0.7441835
  1.5245149  -0.32928666]
[ 1.2456412  -0.31075957 -0.78893894  1.377849    0.780726   -0.30587146
 -0.7819637   0.75302523  0.6827808   0.9115681   0.37754288 -0.7630313
  0.29077476 -0.5831161  -1.4530171   0.75370824  0.10073738 -0.11220503
 -0.39024216  0.6713657 ]
[ 2.050729   -1.664999   -2.060668    1.8339225   0.20002031  0.50977665
 -1.8357937   0.5607674   1.7306767   1.9843117   1.9616283  -1.043509
 -2.261931   -0.5558953  -1.1616597   1.0711617   0.6181425  -1.9988593
 -2.035928    1.4338558 ]
[-0.8158148   1.5919602   0.8748245   0.15102148 -0.51700187  0.33531472
  0.5607101   0.10668156 -0.9533102  -1.4903511  -0.48893014  0.6323474
  0.8880385   0.96996534  1.0311422  -0.6983297  -0.20721145  1.3669052
  0.44450584 -1.7777061 ]
[ 0.0254558  -0.42321497  0.00364772  0.77428764  0.25581288 -0.3928806
 -0.44339973  0.87224746  0.96534395 -0.04284127  0.5380424  -0.614806
 -0.70218474 -0.6835863  -1.5162123   0.41933668  0.31034943 -0.42429715
 -0.47210917  0.22412309]
[-0.57121986 -0.02557863  0.3465322   0.19080496 -0.8183863   0.89738286
  0.4646852  -0.5000478  -0.76926774 -0.6499961  -0.2338277   0.1458066
  0.15986809  0.2418559  -0.08306766 -0.60818297  0.17651056  0.45036063
 -0.2903743  -0.6182726 ]
[-0.3366974  -0.87731856 -0.33849284  0.15237553  0.09447296  0.09291232
  0.52522254 -1.0461785   0.6337482   0.05441806  0.91179377 -0.34728217
 -0.8072686  -0.8036035  -1.0366113   0.47330895  0.5864365   0.27289835
 -0.47692934  0.11840785]
[-1.027461    0.37207183 -0.7668787  -1.5991917  -0.01620445 -0.22844751
  0.22894104 -0.19425412 -0.2825919  -0.6142782  -1.0482925   0.68468004
  0.3357877   0.6740526  -0.08957883 -1.5194796  -0.00764961  0.44950163
  0.7529826  -0.7652993 ]
[-8.8968426e-01  6.1501187e-01  1.2866634e+00 -9.7508270e-01
  1.0363487e+00 -5.5939591e-01  1.7596135e+00 -2.5295865e-04
 -1.0148379e+00 -1.1886834e+00 -1.4972693e+00  9.2585886e-01
  9.2800224e-01  1.2982792e+00 -1.1489979e-01 -1.6817422e+00
 -4.0989995e-01  1.8694327e+00  6.7737198e-01 -1.2499447e+00]
[ 0.18727276  0.33473444 -0.08668483  1.0671908   0.47073123  0.09449342
 -0.6996632   0.24050428  0.02114804  1.1324239   1.1008948  -0.34602103
  0.56476694 -0.83080816 -0.07258031  0.16453099 -0.7226398  -0.72030616
 -0.28725705  0.8725956 ]
[-0.5191388   0.42183495  0.42735687 -0.47306323 -1.2432542   1.1200668
  0.44063795 -0.9292323  -0.43963563 -0.30248463 -0.3064228   0.9026539
  0.8682281   0.5963742  -0.05887198 -0.22145793 -0.0109185   0.36257932
 -0.14027527 -0.52046156]
layer 5 Activation
tanh
layer 6 Dense
20 1
[0.47219917]
[-0.47951105]
[-0.5856586]
[0.6331229]
[-2.6548243]
[2.7737565]
[-0.56892526]
[-0.07160938]
[0.6459083]
[0.7829015]
[0.5404296]
[-0.38730216]
[-0.8823019]
[-0.32814255]
[-0.7133377]
[0.45031735]
[0.10793927]
[-0.51424986]
[-0.4133784]
[0.5716193]
[3.569684]
