layers 7
layer 0 Dense
20 20
[ 0.09274928  0.07853866  0.14976199 -0.07298562  0.13763255 -0.07912055
  0.36691925 -0.1012868  -0.19054787  0.07434073  0.23056543  0.44596907
 -0.34397748 -0.08541948  0.29256243  0.22777785  0.08552595  0.07315987
  0.04061295  0.30212373]
[ 0.19278543 -0.08742552 -0.23054168 -0.10849223  0.17858891 -0.18913029
 -0.19433446  0.3775756  -0.06919261  0.17203999  0.13847937  0.16690007
 -0.00442357 -0.17683214 -0.28982666 -0.02705023  0.29315865 -0.1261856
 -0.08215494  0.20745678]
[-0.11928637 -0.0907053  -0.04309401  0.22664322 -0.02319174 -0.15045045
 -0.14578202  0.18546394 -0.2288557   0.10333412  0.36176115  0.29208037
  0.0996603   0.3334329  -0.13728763  0.22098857  0.09830398  0.15392473
  0.21570179  0.19585381]
[-0.23533405 -0.20946628 -0.2968596  -0.29714966 -0.08753384  0.24644174
  0.23366912  0.27736968 -0.17393345  0.16234608 -0.19130771 -0.12324452
 -0.24581477  0.0503589   0.34612206  0.40457043  0.28459865  0.25740018
  0.07032096 -0.34025642]
[ 0.00610965  0.4206955  -0.51975316 -0.21751879  0.08985939  0.3518786
  0.31629735  0.1531225  -0.3730805   0.39392307 -0.10958197  0.19620518
  0.04605684  0.433622    0.35545483  0.25032854  0.01186786 -0.02171105
  0.02434471 -0.23256442]
[-0.0373391   0.26817054 -0.26184493 -0.08820014 -0.22487918  0.01999625
  0.42840698  0.34369454  0.28333798  0.30791384 -0.29131716  0.38351062
 -0.30802444  0.23977765  0.17827454 -0.28010455 -0.10048203  0.24133533
 -0.14575547  0.20703162]
[ 0.16709289  0.12042192  0.20034629  0.20686819 -0.02092804  0.14259838
  0.19453213  0.1165314   0.2052103   0.3675052   0.03377706 -0.15793408
  0.02456316 -0.080996    0.30431104  0.22022724 -0.11085818 -0.38657027
 -0.1183501   0.12697823]
[ 0.22683868 -0.26399064  0.21605317 -0.12938443  0.14473154  0.09791553
 -0.29260594  0.15235601 -0.3003372  -0.04615156  0.24316287 -0.01006528
  0.15277244 -0.05766324  0.07405975  0.27436456 -0.2412441   0.11428314
 -0.1097059  -0.23571299]
[-0.18764529  0.40155444 -0.4389948  -0.36206543  0.16984342 -0.01207405
 -0.36438438 -0.19324817  0.05841117 -0.03422575 -0.0845484  -0.5060363
 -0.23014145  0.33330718 -0.3310498  -0.26097998 -0.3072901   0.08144945
  0.38562903 -0.16942199]
[-0.4030208  -0.28526074 -0.30569032 -0.55000937  0.22069433 -0.16312249
 -0.4015917  -0.51417357  0.05151915  0.21664849 -0.48684353 -0.43351567
 -0.20974375  0.5284502  -0.12528898 -0.28095293 -0.43882996  0.34365568
 -0.06755791  0.40427214]
[ 0.44507357  0.26140174 -0.18823738  0.00863263  0.44429937  0.6849156
 -0.04448337 -0.04691251  0.5724642  -0.18865478  0.6901916  -0.38235372
 -0.3634675  -0.06113724 -0.2055331  -0.08636524  0.32036334  0.67113394
  0.57700974  0.828246  ]
[-0.37128285 -0.4493234   0.03409049  0.20624156  0.16544859 -0.12982994
 -0.54083836 -0.14270146 -0.10453669 -0.2232387  -0.053171   -0.21306902
  0.7242402  -0.02886846  0.21116248 -0.14156172 -0.12063441  0.04477721
  0.37664482 -0.04943106]
[-0.15756483  0.26281604  0.17473133 -0.0907722   0.2825224   0.28697255
  0.09619457 -0.08434241 -0.29136127 -0.15185864  0.01128391 -0.02516698
  0.05360242 -0.12843864 -0.47924867  0.1245638  -0.23688222 -0.03420394
 -0.13464825 -0.21434212]
[ 0.02939878  0.540125   -0.19289544  0.28420103  0.1550038   0.18240964
  0.10138015  0.51050985  0.12607318  0.11233574  0.2640827   0.15777239
 -0.23915201 -0.8322014   0.40280554  0.12117383  0.09135839 -0.19970113
  0.67872715 -0.38433912]
[-0.7584472  -0.2755397   0.14165469  0.65186965 -0.69154847 -0.25796202
  0.4395792  -0.6263099  -0.70167357 -0.21527901 -0.40988988  0.7735621
 -0.08365154  0.30893484  0.27654755  0.23867312  0.01619534 -0.05897036
 -0.3193178  -0.25315705]
[ 0.15646423 -0.01917463 -0.15296844  0.48635858 -0.34020433  0.08380692
  0.456006   -0.18424071 -0.14278239 -0.04768932  0.624651   -0.06447191
  0.16212054  0.3960057   0.03136525 -0.53602004 -0.22970344 -0.34116372
  0.36212003 -0.04963489]
[-0.36648622 -0.08790586  0.0159071   0.3010592  -0.12483295  0.36244935
  0.45817158  0.04053386  0.4291675  -0.46058455 -0.06780858 -0.12725358
  0.52016044  0.22497846  0.3855764  -0.3158039   0.02122671  0.17185886
 -0.36211503  0.3341009 ]
[ 0.2103831   0.04732744  0.15726222 -0.05315282 -0.21263741 -0.21752968
 -0.32128364  0.22854295 -0.13060077  0.23397861 -0.23674875  0.17551033
 -0.20746139 -0.32363966  0.17215207  0.11855393 -0.11670224  0.38435182
 -0.30109385  0.32722116]
[ 0.18576051 -0.15211779 -0.08002803 -0.12196857 -0.14932881 -0.07325427
 -0.02482742 -0.03822329 -0.01658809 -0.02247356 -0.24664684  0.0231244
  0.45852378  0.44889706  0.06436013  0.26583248  0.5337187   0.06015154
  0.20927219 -0.0183056 ]
[ 0.04790849  0.12463939  0.13346016  0.17972194  0.10046777  0.05529869
 -0.5034333   0.1547863  -0.26598215  0.04503693 -0.55486476 -0.24907394
 -0.28380412  0.2468051  -0.24259451  0.10443232  0.24059382  0.18044414
  0.41509762  0.04170028]
[ 0.02540473 -0.09946758  0.05669393 -0.01571283 -0.03311503  0.02082577
  0.0998242   0.09685445  0.04060056  0.02415528 -0.05858141  0.02421211
 -0.00381888 -0.0572554   0.03841143  0.03297925  0.03993361 -0.00283803
 -0.09074701  0.0417225 ]
layer 1 Activation
tanh
layer 2 Dense
20 40
[ 0.05774605  0.3558139   0.01409212  0.28289685  0.10638582 -0.28197008
 -0.41490307  0.09736905 -0.12167378 -0.17278978  0.19854105 -0.43022668
  0.15100193 -0.17162296  0.32294366 -0.43416467 -0.14837232  0.14195618
  0.25270995 -0.18561532 -0.10000262  0.14751253 -0.20501347 -0.00468003
  0.14460763 -0.06081016  0.13216342 -0.2397697   0.15848263 -0.17812705
  0.20862737 -0.15749343 -0.13899969  0.34415397 -0.1664168  -0.3725905
  0.12831566  0.06998703 -0.10088868 -0.10849489]
[ 0.28478837  0.2702059  -0.4676833   0.19585565 -0.04027647 -0.13606976
 -0.44400692  0.34428698  0.20239249  0.21062    -0.10619202 -0.22385211
  0.03914112  0.19735973  0.1538111  -0.07505765 -0.00761161  0.02927333
 -0.04091267  0.24665023  0.2240849  -0.19663124 -0.32632044  0.04594276
  0.21891691 -0.19399375  0.26951376 -0.21667588  0.01106589 -0.3024372
  0.36751366 -0.17400524 -0.15507042  0.07568265  0.00229337 -0.12662596
 -0.21034583 -0.2655013  -0.0091866   0.03312641]
[ 0.23893046  0.03069612 -0.22808729 -0.0074201  -0.41873345  0.20678918
 -0.03412553 -0.05235325  0.23892419 -0.00782237 -0.12034874  0.02127383
  0.05497176  0.01815508 -0.00054954 -0.07631674 -0.15635219  0.14625978
  0.2289636   0.03266881  0.11743225  0.04044104 -0.15982336  0.14552149
  0.0042861  -0.24413365 -0.10236548  0.1798014  -0.10596424 -0.04519248
 -0.1603893  -0.18067606 -0.12588865 -0.27793285  0.06351716  0.1669801
  0.07333185 -0.34299964 -0.36992872  0.0923563 ]
[ 0.09736338  0.47694728 -0.11428041  0.23457485 -0.08490644  0.19027206
  0.10082347 -0.29765722 -0.11856387  0.29846668 -0.36216983  0.22284387
  0.33059227  0.20914842 -0.10399222  0.2353873  -0.19897354 -0.20264532
  0.24639167  0.30173448 -0.01854068  0.22225825  0.146814   -0.30942294
  0.28052163  0.12333946  0.00796949 -0.052834   -0.02798286 -0.2435497
 -0.09780557 -0.10762982 -0.09451939 -0.24012733 -0.00413789  0.18816973
  0.14376542 -0.23578449 -0.22182547  0.28740484]
[ 0.0952511   0.05794282  0.21283361  0.25850564  0.3086134  -0.13876557
 -0.01551994  0.26102757 -0.2984795  -0.46988526 -0.2627857  -0.17398955
  0.08362564  0.32981446  0.26679674 -0.18345949  0.06404874  0.23202659
  0.21117373  0.15350077  0.09948746 -0.07627144 -0.4112107  -0.17416634
 -0.04102726  0.04029285  0.02055501  0.2365073   0.14315422 -0.02201158
  0.01933708 -0.06216908  0.17911385  0.09540671 -0.01210051  0.07633088
 -0.17144008  0.05066573 -0.17274034 -0.3227103 ]
[-0.01236757  0.41775733 -0.34419394  0.04860881  0.00635856 -0.09934272
 -0.58265483  0.16933432 -0.37073424  0.03342924 -0.32120743 -0.18065771
  0.04808563 -0.1058417   0.12903555 -0.1836139   0.04542617  0.12755471
  0.27482417  0.34490192  0.24563643 -0.26810306 -0.1168537   0.06329383
 -0.05537707 -0.02806286 -0.05046282 -0.15667576  0.3495905  -0.06057263
  0.1962665  -0.06145977 -0.33553177  0.4520358  -0.11281136  0.04616137
  0.02735907  0.35720348  0.2623422  -0.08968344]
[ 0.0238093   0.41264755 -0.13066638  0.18683465 -0.19921815 -0.16057487
  0.40556425 -0.25987256 -0.5232195  -0.26448494 -0.3035299   0.35458916
  0.5089214  -0.09209622 -0.12390427  0.11805546 -0.03798221  0.12180328
 -0.41732508  0.11389824  0.15346476 -0.31678724  0.40476272  0.12908523
 -0.19651751  0.10067259 -0.23584884  0.0174681  -0.15543416  0.03340271
 -0.02631415 -0.0070454  -0.16147934 -0.46986642  0.02057836 -0.07116405
  0.08253404  0.15346612  0.49155805 -0.02471551]
[ 0.13361764  0.34018594 -0.32834494  0.16612437 -0.06352226  0.19964142
 -0.07523712  0.05691381 -0.18379767  0.40026394  0.05998772 -0.1714034
  0.25100794 -0.09047827  0.2030835  -0.05519494 -0.4018666  -0.08948717
 -0.09242184 -0.4534203  -0.10567465 -0.01342189 -0.39273518  0.09840464
  0.03608115 -0.01754536  0.2727818   0.13113017  0.2168534   0.01042221
  0.15247203  0.0164392   0.26970825 -0.15070951 -0.03262572  0.09053864
 -0.15900837  0.00474119 -0.03577359  0.2222621 ]
[ 0.22649163 -0.4024286  -0.12310946 -0.3323351   0.2869219   0.00547316
 -0.21313593 -0.16747245  0.01665833 -0.31115165 -0.31250697 -0.24869321
 -0.26839122  0.04944393  0.04242395  0.06724178  0.1573046   0.25164914
  0.21658845 -0.33535337 -0.4364955  -0.19465548  0.00284584  0.43763196
  0.21326746  0.06308803  0.17592362 -0.1430347   0.18757747 -0.3622654
  0.04935528 -0.06483883 -0.13593368 -0.04205635  0.05927744 -0.43319923
  0.06376791  0.47721928  0.2318656  -0.07558442]
[ 0.23089445 -0.06899018  0.09590154 -0.10052059  0.02118021  0.16164342
  0.2334839  -0.2622861  -0.09266134  0.26913208  0.25013205  0.10430268
 -0.25532144 -0.07553476  0.26700777 -0.19795859  0.14492321  0.08432747
 -0.27076283  0.30777478  0.17441735 -0.24779937 -0.11292955 -0.05005488
 -0.10787603  0.33159846  0.1717022  -0.05063574  0.11028387  0.29744557
  0.02498319  0.23597127  0.05794606  0.21205242 -0.2162678   0.00732734
  0.24937384  0.13118829  0.2887961   0.3205762 ]
[ 0.07769161  0.30470467  0.13270919 -0.2380178   0.26051292  0.08113582
 -0.19909695 -0.13306768 -0.04753675  0.10091911 -0.3676429   0.0074185
 -0.15778522  0.03400442  0.26561892 -0.30949032 -0.08084045 -0.14620875
  0.1464517   0.23739605 -0.3397756   0.0299603  -0.2623513   0.04087652
 -0.11732924  0.15833656  0.33327076 -0.02113722  0.13216431 -0.40701023
  0.03375772  0.07231177 -0.12282342 -0.18280607  0.11759362 -0.26327795
  0.03338492  0.32474232  0.24470149 -0.0418664 ]
[-0.27555755  0.676906   -0.27055064  0.42261958  0.01986502  0.06185623
  0.17853083 -0.07343914 -0.01186889  0.3985997  -0.02909985  0.12906894
 -0.12125895 -0.27124214 -0.28491095  0.16905889  0.0232583   0.06772825
  0.07500863  0.23734453 -0.19611949  0.12985766  0.20059115 -0.23132136
  0.11699539  0.04080306 -0.17915803  0.23941629  0.01275277  0.17815652
  0.1439906  -0.19721459 -0.02167472 -0.03209103  0.30855525  0.36794704
  0.06687758 -0.24132095 -0.08046852 -0.04015636]
[ 0.24638087  0.28185123  0.21904488 -0.05567525 -0.05808862  0.24617673
 -0.14018258 -0.2182325   0.10187507  0.3793366  -0.2835261   0.39131832
  0.03301901 -0.09038747 -0.0318865   0.28833553  0.19867706 -0.0585682
  0.0130693  -0.30239198 -0.28286937 -0.08309543 -0.12598377 -0.2351634
 -0.07256386 -0.13511312  0.04763376  0.25296557 -0.21831787  0.15695354
 -0.11484554  0.25892588 -0.05517885 -0.13069245  0.11700107  0.03293844
  0.02926653 -0.11139906  0.19839555  0.19219533]
[ 0.26506332 -0.3749024   0.4333911  -0.12343358 -0.32131442  0.01350602
 -0.15004894  0.22336788  0.2716793  -0.29523805 -0.0514864  -0.34773257
 -0.01840048 -0.1565829   0.13302812  0.3031837   0.10461541 -0.26346803
  0.44693992 -0.08481509  0.23041643  0.13124855 -0.08850472 -0.05598375
 -0.33570242  0.1559636  -0.13534848 -0.35508853 -0.47659796  0.55278045
  0.04526606  0.1662457  -0.08090208  0.37831756  0.23741859  0.18107902
  0.2335879   0.10375188 -0.3625747  -0.29846793]
[ 0.26425776  0.40915075  0.12083051  0.40407535 -0.05775939  0.1908804
  0.11912274 -0.10071673 -0.10249133  0.22243929 -0.12289981 -0.19822165
  0.13544169  0.00287746 -0.00446321  0.23650974 -0.25853547  0.1515051
  0.18727894  0.20199648 -0.11568666  0.19046734  0.07030838 -0.36698696
  0.03407166  0.11475406  0.00992025  0.24694978 -0.00700878  0.04698811
 -0.40873516 -0.0377133  -0.02952998 -0.30858472 -0.28218368  0.24066702
 -0.01393034  0.24657473  0.03927922  0.15467547]
[-0.08821557  0.5225491  -0.03981847  0.33797702 -0.08756415 -0.27382147
  0.27061626 -0.05335717 -0.27689052 -0.10574061  0.32674032 -0.17284441
  0.25432673  0.14519553 -0.1259568   0.23806572 -0.40069953 -0.01351285
 -0.30062938  0.02381127  0.35298106  0.07367119 -0.2967314  -0.29366624
 -0.10209905 -0.07026576  0.27306595 -0.21500649 -0.04543958 -0.09966424
 -0.04614967  0.05610105 -0.2260324  -0.05838     0.2443112   0.51019377
  0.0530503   0.21463442 -0.11987629  0.37324682]
[-0.13578781  0.10359927  0.02457149 -0.1597869   0.02145212  0.17203557
  0.00991278 -0.14270726 -0.32978985 -0.04803323  0.30514413  0.17503141
  0.21196829 -0.07828782 -0.06609891 -0.22296162 -0.28962708 -0.2070643
 -0.11409683  0.1065478  -0.13800646  0.00428754  0.06072468 -0.34806463
 -0.05426723 -0.0540832   0.25671762 -0.12254748  0.26113823 -0.16496137
  0.19601704 -0.3500251  -0.2860227  -0.39375427  0.08688749  0.24389416
 -0.04321627  0.21564612  0.09365748 -0.16719277]
[ 0.20463723 -0.5375449   0.18690236  0.064765   -0.25303105  0.00334564
 -0.203109    0.14950669 -0.19622897 -0.28810534  0.19200718 -0.410706
 -0.21597771  0.35151923 -0.25073275 -0.13246751 -0.1865091   0.3231222
  0.25812656 -0.39749175 -0.06822968 -0.27625316  0.06538101  0.28921792
 -0.20368402  0.1142652  -0.20533963 -0.31654158 -0.17425172 -0.01796326
 -0.03757832 -0.23712486  0.017912    0.38354328 -0.16253024 -0.54917353
  0.05476508  0.11659279 -0.18761626  0.0784601 ]
[ 0.03066746 -0.13673687 -0.26078522  0.15451495  0.00512721  0.11297118
  0.03726351  0.12983723 -0.40564838  0.0936094  -0.37009138 -0.10484164
 -0.07509572  0.22976027 -0.11380336 -0.15815867 -0.09948625  0.25412375
 -0.1988381   0.1764342  -0.27380228 -0.01468165 -0.14338948 -0.09665214
 -0.14431755  0.0280033   0.30509272  0.19597824  0.2848807  -0.36672473
  0.3206006  -0.10869646  0.06199053  0.10903705 -0.14118822 -0.05370239
 -0.07844711 -0.12401549 -0.22209609  0.00573184]
[ 0.14442909 -0.23348755  0.19065817 -0.28711343  0.17728902 -0.36741444
 -0.21814626  0.17050645  0.20388609 -0.3665048   0.1733397  -0.01397598
 -0.60509455  0.10377043 -0.20827934  0.09706444  0.34058198  0.01358825
  0.218919   -0.431975   -0.26045206 -0.25797525 -0.34671125  0.27054188
  0.08057365 -0.02005138  0.04520892  0.10488369  0.2492298   0.04368235
 -0.05749406  0.18281873  0.35461816  0.06929041  0.2652735  -0.01982975
 -0.2538057   0.3696213   0.08544204 -0.23908454]
[ 0.00235741  0.057443    0.01987017 -0.05981138  0.11008088 -0.02857257
  0.28383088 -0.06756191 -0.190435   -0.0024496   0.02576445  0.08142363
  0.05649137  0.03710305 -0.01013021  0.07246631  0.02852026  0.01302865
 -0.12368201  0.10216606 -0.04097264 -0.04625662  0.03946217  0.04380667
  0.0309357   0.06443685 -0.02265426  0.03327108  0.03475461 -0.05992635
 -0.12385767 -0.04021162 -0.09508479 -0.22464602 -0.02962968 -0.02083546
  0.02021919  0.06126251  0.11826459  0.06922977]
layer 3 Activation
tanh
layer 4 Dense
40 20
[ 0.09171426  0.18279177 -0.08776065  0.00778166 -0.10546715  0.00646548
  0.08074459  0.12838936 -0.27600557 -0.16991109  0.21908239 -0.13764098
 -0.23899218 -0.11587568 -0.16957428 -0.43124342 -0.31225115 -0.03002936
  0.011442    0.3265323 ]
[-0.36664823 -0.18589331 -0.10825823 -0.13643743 -0.13353182  0.34027645
  0.261094    0.20939186  0.02548237  0.30563912  0.23762159 -0.07574113
 -0.14284712  0.01160942  0.35341337  0.05603668 -0.34330556 -0.24794017
  0.07771015 -0.1509914 ]
[ 0.21933867 -0.26163074 -0.2793829  -0.17658953  0.24083659 -0.34481537
 -0.09261853  0.18773763  0.07568613  0.05915144  0.33387682  0.23846236
 -0.07083292 -0.11439797 -0.46864966  0.11625133  0.05998337  0.13393243
 -0.23072582  0.01006098]
[-0.24787281  0.09377965  0.27353948  0.14363565 -0.0499954  -0.04688745
  0.05079431  0.19313298 -0.00095877 -0.24032998  0.18748654 -0.15076146
 -0.3177151   0.29917735  0.17895852 -0.17416658 -0.05220397  0.13760757
 -0.22499567  0.01052157]
[ 0.07613391  0.01744624 -0.23333785 -0.24185412 -0.14200905  0.16287391
 -0.15905423  0.01227106 -0.31020606  0.1313602   0.22378367 -0.28497726
  0.24505222 -0.27201265  0.13502026  0.01394658  0.2327598   0.09172382
 -0.25607133  0.01283461]
[-0.1421332   0.12851757 -0.07070492  0.19229873  0.09471169  0.28553706
  0.02735958 -0.31251112  0.3413942  -0.02744556 -0.34668824  0.20794638
  0.11652783 -0.02041507 -0.01562835 -0.18406147 -0.18966685 -0.3149571
 -0.21827191 -0.10650257]
[ 0.28142902  0.12798314  0.15489015 -0.2550706  -0.20261015 -0.33542585
  0.30693042 -0.32238376  0.09933409  0.02725244 -0.15016624 -0.11634202
  0.03930021  0.10803011 -0.17820314 -0.17536467  0.4129599  -0.37198892
  0.05661987 -0.15117165]
[-0.02037668 -0.01275189 -0.1401583   0.08275395  0.23142602  0.34029594
 -0.18860613 -0.10781411 -0.19758558 -0.17210054  0.2563348   0.11838043
 -0.12476705 -0.11273921  0.02206737 -0.06369877 -0.00309147  0.29484332
  0.12657902 -0.02564868]
[-0.21643168  0.07440603  0.191779   -0.39595872  0.30768034 -0.2168977
  0.149773   -0.23763894  0.20742016 -0.24935766  0.2509329  -0.36295557
 -0.3853461   0.12304604 -0.04877797 -0.16888236 -0.33154383  0.32957327
 -0.15193929  0.26504034]
[-3.09357464e-01  1.35745600e-01  2.08298057e-01 -2.81540036e-01
 -1.15601525e-01 -4.23340537e-02 -1.15575023e-01 -1.66265890e-01
  7.09536076e-02  1.66904435e-01 -1.38347507e-01  1.16231903e-01
 -2.80052304e-01  2.34580725e-01  1.33718103e-01 -2.51685947e-01
 -2.82098502e-01  1.45555707e-04 -1.31947786e-01  1.97759960e-02]
[ 0.12021308  0.11089553  0.2775409  -0.30997068  0.3176526   0.01429884
  0.36043    -0.3053377  -0.04992143  0.15694351 -0.13538928 -0.0356259
  0.08502866  0.05154182 -0.24914578 -0.16377896  0.12504421  0.05285171
  0.03870288 -0.10330877]
[ 0.12969208 -0.05954028  0.07744259 -0.3874742   0.16699287 -0.15617712
  0.11246165 -0.47626418  0.08870409 -0.05880369 -0.16575322  0.11415128
 -0.03005516  0.13823572  0.3495592   0.05122986  0.15060312 -0.17045645
 -0.00945457 -0.2982747 ]
[-0.3160199  -0.0020537   0.06546956  0.23204243  0.06915921  0.32972857
  0.12825802 -0.18542385 -0.20022424  0.32917848  0.24534267 -0.08815074
  0.12060395 -0.00256863  0.23925157  0.10876474 -0.21011905 -0.18728137
 -0.13287403 -0.2804786 ]
[ 0.03488418  0.09872616 -0.04718552 -0.04771952 -0.21753359  0.07339067
 -0.11404283  0.1746639   0.14660469 -0.2944835   0.02678568  0.09529361
  0.3574612  -0.0515507   0.03722397 -0.16936196  0.10077743  0.2316518
 -0.15701577 -0.12755077]
[-0.1454054  -0.1058178   0.20685938 -0.20117128 -0.01252679 -0.13992234
  0.20688054  0.24479246 -0.26567778  0.09472585  0.18961392 -0.05266264
  0.16022976 -0.01867416  0.14424129  0.1330273  -0.08497309 -0.17881607
 -0.2740933   0.3084493 ]
[ 0.34049287  0.24141721  0.24253085 -0.1528908   0.23125075 -0.2586567
  0.18019804  0.16678803 -0.06685916 -0.17644688  0.2037239   0.23004998
 -0.17455296  0.21336204 -0.10681953 -0.16009401  0.08861581 -0.33432043
 -0.04232409 -0.29320452]
[-0.05604918  0.21949773 -0.17441022 -0.36120957  0.16548912 -0.08029939
 -0.29640916  0.04875011  0.00550373 -0.2543688   0.00574014 -0.22932737
  0.0107167  -0.18853144 -0.33697075 -0.2198495  -0.01772344  0.09526106
  0.02933163 -0.21533717]
[ 0.14449702  0.32077464 -0.11750311  0.11537199 -0.17947282 -0.04860032
  0.1792196   0.28280073  0.03688808 -0.20567831 -0.25054023 -0.04977142
  0.01662739  0.19071972 -0.12892526 -0.14874683  0.09925095 -0.24387304
  0.1530954   0.14334717]
[ 0.03556566 -0.12223604 -0.11857765  0.2639171   0.18543243  0.13131972
 -0.13903905  0.1885285  -0.03034534 -0.22970632 -0.05713154 -0.10591234
 -0.04350679 -0.13231318 -0.28460702  0.23887745 -0.30524635 -0.06353724
 -0.23392615  0.27324596]
[-0.2497693  -0.02874304  0.18775913  0.2778502   0.16540486  0.24916647
 -0.30822036  0.04921699 -0.10266867 -0.16030078 -0.31188488 -0.26486298
  0.23463278 -0.29624048  0.2099914  -0.02117349  0.3328489  -0.36753428
 -0.00587663 -0.3876663 ]
[-0.17532754  0.28878704  0.28122395  0.29632935  0.18211983  0.02173053
  0.18508857  0.10939814  0.1659825  -0.0101007   0.32815617 -0.28592804
 -0.00879886  0.21306765 -0.16913481  0.31147885  0.10953358 -0.05057286
 -0.1062573  -0.03185522]
[-0.16747399  0.07632065 -0.14698078 -0.24996851  0.253801    0.17227276
  0.22199966 -0.37979674  0.374799    0.2810676   0.35005164  0.26729873
  0.00407785 -0.14125994  0.28283727 -0.18513727  0.04145456 -0.07312492
 -0.3542641   0.21173151]
[ 0.01036298  0.11735477 -0.2252069  -0.05392789  0.22975217 -0.1734036
  0.2690248  -0.18548244 -0.11054309  0.03413062  0.04650623 -0.1936659
  0.23571047 -0.12626636  0.28704613 -0.05333824 -0.0018238  -0.3086112
 -0.03769159 -0.3102055 ]
[ 0.16455343  0.0458766   0.21251741 -0.12855817 -0.1304837  -0.03604488
 -0.02169122 -0.13833298 -0.3365152  -0.36331838  0.1738636   0.2654531
  0.1375718  -0.08078557 -0.05346376  0.04844606  0.0927882   0.27732217
 -0.00726954 -0.0095696 ]
[ 0.12501936 -0.19555065 -0.07643447 -0.4335064  -0.11244977  0.30660343
 -0.03975027  0.06839506  0.5315923  -0.30189908  0.01277666 -0.10051948
 -0.02090993  0.16988087  0.13905656  0.17152654 -0.09539504 -0.16920504
 -0.07070854  0.27280506]
[ 0.10766808  0.28018016  0.25600588  0.23058493 -0.2299548   0.05376527
 -0.33842403  0.10718686  0.05194629  0.23302576  0.31898946 -0.17028427
 -0.04992822  0.04691317  0.05145469  0.04324569  0.34583494  0.1936836
 -0.27763796 -0.31224397]
[-0.07960126  0.09372471  0.24776374  0.17515211 -0.19644049  0.2551166
 -0.28555858  0.2308866   0.05665467  0.23489292  0.05125682  0.1027853
  0.09896675  0.09137487  0.20126319 -0.03849384  0.21810804  0.0633408
 -0.19294062 -0.05634759]
[-0.3340487  -0.2733089   0.18701945 -0.33047482  0.00146735 -0.24081227
 -0.19830225 -0.14915897  0.31348243 -0.1038712   0.00772372  0.20672117
  0.18502484  0.11792885  0.23147003 -0.31269044 -0.11672369 -0.02891968
 -0.10793321 -0.23540601]
[-0.04682601 -0.13815612  0.02629129  0.08201393 -0.19391257  0.20623225
  0.173442    0.22973    -0.23261113  0.09493613 -0.19879441  0.13589855
  0.13031091 -0.20516253  0.12886247  0.23839413  0.08031665 -0.15842597
 -0.1522211   0.17759565]
[ 0.1382033  -0.24526307  0.06039097 -0.00976259  0.21087064 -0.10820986
  0.12235797  0.00169535  0.22672191  0.27678093  0.21641937  0.19883282
  0.03410484 -0.14576669  0.09980182 -0.14133611 -0.2583083   0.28127298
 -0.01844814 -0.20056547]
[-0.33681256 -0.18725055  0.01884875 -0.00546162  0.10177697 -0.06660372
 -0.3160414   0.22883214 -0.43575174  0.25426534  0.06864226  0.17733598
  0.26734924 -0.31980667  0.31529826  0.30263963 -0.22995459  0.09624292
  0.17839369  0.20661767]
[ 0.09551348 -0.02308327 -0.06347588 -0.04837391  0.20001672 -0.05798448
 -0.17289035 -0.21480912 -0.25880605 -0.11060312 -0.22949353 -0.2875487
 -0.28631485 -0.03233413 -0.23018204 -0.08579449  0.01163056 -0.21101703
 -0.12453101  0.15685375]
[ 0.00179752  0.22696243 -0.33580992  0.07782007  0.00648027 -0.18432635
  0.13996585  0.00112787 -0.01826597  0.05290163  0.35242894 -0.33242327
 -0.11081943  0.01569774 -0.32298538  0.1804497  -0.08188692  0.2412706
  0.14770307  0.1086722 ]
[-0.09271991 -0.24762529 -0.05881399  0.0741128   0.33296403  0.18911663
 -0.13409217 -0.05886079 -0.22949289  0.08000802  0.30995044  0.2688647
 -0.11313415 -0.1467288   0.06367958 -0.2838014  -0.15662466  0.1573815
 -0.20701988  0.3877466 ]
[-0.09425402 -0.2845789   0.00187897 -0.12637846  0.0144329   0.06263993
 -0.09183449 -0.01434862 -0.08794178 -0.18215775  0.09636232 -0.16517611
 -0.23092118  0.09165554  0.03394177 -0.14651707 -0.05157934  0.33827224
 -0.08343495 -0.09920964]
[ 0.11098363  0.22844237  0.2991403   0.21501142  0.04806326  0.05428273
  0.24705048 -0.23544116  0.23366223 -0.15328462 -0.08122327 -0.1513976
  0.00988278  0.20100948  0.08813994 -0.05258569  0.02643685 -0.141704
  0.02025565 -0.2546139 ]
[-0.1489856  -0.29982296  0.09402376 -0.29505    -0.20416924 -0.11252978
  0.25399268 -0.10530181 -0.06037253  0.06670237  0.31570256  0.3118933
  0.1748011  -0.17766719 -0.2077767   0.01812063  0.06310353  0.17235778
 -0.00117058 -0.30366912]
[ 0.10335673 -0.26231867  0.13978082  0.24799094 -0.16137724 -0.13592629
 -0.2109574  -0.0613679  -0.37021995  0.03816413 -0.10341766 -0.08845879
 -0.18064615  0.0084264   0.2165809   0.00865532 -0.04427028 -0.22815035
 -0.21411651 -0.00204049]
[ 0.31991497 -0.23055717  0.11129376  0.12126519 -0.3374887   0.11739764
 -0.233359    0.10551082  0.08770414  0.34957987 -0.26586032 -0.17756987
  0.29329598 -0.07901937  0.2820783  -0.01739844  0.17813356 -0.13267092
 -0.3323175  -0.08597826]
[-0.20709567  0.11572038 -0.25288597 -0.23925886 -0.18899281  0.09514744
  0.29551652 -0.08278478  0.1766638   0.15210333  0.2516409   0.0142217
 -0.2970822   0.12071873 -0.20237735 -0.27565658  0.01390561 -0.24142185
  0.15590054 -0.08260891]
[ 0.0616033   0.01841674 -0.02289077  0.06037794 -0.0984769  -0.0644919
 -0.04293971 -0.09328302 -0.03451674  0.03560146  0.00505228  0.06498519
  0.00973091 -0.03646954  0.04628931  0.0577778   0.12474237 -0.07493295
 -0.00937097 -0.05813074]
layer 5 Activation
tanh
layer 6 Dense
20 1
[0.23641898]
[-0.00489947]
[-0.08346135]
[0.02752001]
[-0.3298009]
[-0.19408724]
[-0.16031171]
[-0.10610516]
[0.02877524]
[-0.06148309]
[0.0139857]
[0.00610257]
[-0.147844]
[-0.14907463]
[0.13081606]
[-0.00690498]
[-0.2809509]
[-0.18955319]
[-0.00055375]
[-0.22664426]
[-0.00383512]
