layers 7
layer 0 Dense
20 20
[ 0.0533363  -0.47220367  0.0037499   0.16517438  0.07135225  0.46467274
 -0.07545264 -0.23949656  0.02305233 -0.12447164  0.33841056 -0.00808803
  0.11576515 -0.34611914  0.29420462  0.43405005  0.403782   -0.26407793
 -0.2238897  -0.6366438 ]
[ 0.3284242  -0.3452549  -0.05891756  0.0731347   0.05871165  0.12609957
  0.3519527  -0.36428607 -0.10886021 -0.21739148  0.47449607 -0.04828621
 -0.25642693  0.12526906  0.3368907   0.00431274  0.3005183  -0.20246613
  0.05543555  0.06270006]
[ 0.5693505  -0.28290492  0.07028732 -0.1489636  -0.36773595  0.2592089
  0.54567146 -0.4575514  -0.1465806  -0.24035113  0.8611167  -0.19767652
  0.19201186  0.22752008  0.2576314  -0.02438125  0.34823963  0.31022412
 -0.05579693 -0.24542324]
[ 0.1146373  -0.03776755  0.3394266   0.23036893  0.3718327   0.3309233
 -0.11781581 -0.33291385  0.30729857 -0.32198805  0.07871928  0.48661414
 -0.24230398 -0.24474266  0.07292734  0.1513831  -0.07242126  0.17760819
  0.20707975 -0.24043185]
[-0.3068219   0.34344828 -0.4913046  -0.29289827  0.5502      0.1615323
  0.00081335 -0.0025079   0.03315923 -0.09769242 -0.55960536 -0.17274481
  0.20717713  0.13288987  0.1887932  -0.17813532 -0.19401354  0.01822475
 -0.23193282 -0.13952644]
[ 0.0315735   0.02081169 -0.35767347 -0.583884    0.56381756 -0.07487105
 -0.4472109   0.35662195 -0.14499845  0.29554597 -0.66596645  0.4784545
  0.1683091  -0.6199779  -0.5860443  -0.17784965  0.17209567  0.06313026
  0.08498949  0.18279015]
[-0.59849757  0.31162897 -0.04315948 -0.09455392  0.37197763 -0.19714066
 -0.0752934   0.24778728  0.19510117  0.24800888 -0.66911185  0.6505852
  0.6412427  -0.46007457 -0.35841417  0.2047893  -0.3717238  -0.4696949
  0.4203839   0.0081608 ]
[ 0.07334008  0.14689715 -0.30916682 -0.0507499   0.1917936   0.16499735
  0.01086473 -0.06515503  0.19013894  0.01187628  0.0599603  -0.09163866
 -0.06002687  0.23050793  0.27595145  0.21566631 -0.21658576 -0.24244487
  0.25799617  0.5149182 ]
[-0.21700327  0.56506693 -0.10168329  0.43779406 -0.4460179  -0.41878977
  0.19710994  0.5247915   0.21178757  0.02843988 -0.00905034  0.3760121
 -0.11424948 -0.37114787 -0.38290876 -0.4963834  -0.37069246  0.08387735
  0.26290518  0.55147326]
[ 0.07192273 -0.07517648 -0.16241665  0.15262876 -0.13737826  0.05356443
  0.20628728 -0.2993295   0.343876   -0.04542765 -0.42935914  0.48559263
  0.10853236  0.02773046 -0.40827036 -0.7139459  -0.43681738 -0.15318051
  0.25671747  0.09319535]
[ 0.06857131  0.10185413  0.14565012  0.3893381   0.08322434 -0.2835815
 -0.35966352 -0.10424622 -0.07265028  0.04230824 -0.13603461  0.02597754
  0.30351463 -0.21363248 -0.3332262  -0.03412753 -0.09288494  0.03431624
  0.2537568  -0.00434171]
[-0.14398342  0.8432419  -0.14872332 -0.7617086  -0.06218906 -0.21266037
 -0.88437265  0.80320686 -0.00990762  0.4861596   0.02942143  0.21100868
  0.36082914  0.18565027  0.13752554 -0.12420558 -0.40296146 -0.13464797
  0.15694772  0.25024974]
[-0.22685817  0.24687588  0.04523619 -0.25527802  0.12064263 -0.03612727
  0.07633907  0.2772506   0.11513443  0.3731617  -0.30784905 -0.49333352
  0.00161254  0.30886486  0.26587293 -0.2316902  -0.19358535  0.6415966
 -0.43213657  0.01012895]
[ 0.16762292  0.15155908 -0.01812849  0.17684458  0.1675262  -0.13035053
 -0.10487125  0.16404687  0.35346898 -0.08050937 -0.02448302 -0.44228294
 -0.24923524  0.30959952  0.67155665 -0.47707117 -0.37105754 -0.6437129
  0.2327527  -0.02881365]
[ 0.35376847  0.25487033 -0.12126173  0.41682848  0.050798   -0.28380665
 -0.4455961   0.09197859 -0.06534441  0.32068714  0.36714613 -0.22876808
  0.1985436   0.7444962   0.19894369  0.229433    0.394281   -0.14167936
 -0.05633223  0.00958229]
[-0.23823723  0.37292883  0.1976341  -0.36593542 -0.21088171  0.16149345
 -0.3580756   0.56188196  0.2932862   0.36241728 -0.8148868  -0.08605613
  0.2541209  -0.10077966  0.32496673 -0.14303479  0.4616869   0.3832538
  0.04009313  0.23888795]
[-0.20205899 -0.6626093   0.41469473  0.32436273 -0.09881264  0.33976117
 -0.23583724 -0.631561   -0.35730755 -0.24185832  0.2851705   0.37140357
  0.08365097 -0.03318889 -0.01777823  0.387144   -0.07857436 -0.34545204
  0.02521459 -0.3065771 ]
[-0.59653085 -0.09716491  0.65399957 -0.32899505  0.3689015  -0.08087622
  0.01376183  0.9622907  -0.32012033  0.33228853  0.33461663 -0.10251018
  0.44712883 -0.6228554   0.1086403   1.2967477   0.66744     0.42029527
 -0.22321592  0.20920224]
[-0.34754768  0.37080264  0.24256092 -1.1734043   0.09472417 -0.21208704
  0.873786   -0.3152808  -0.18628237 -0.97966534 -0.54075444  0.21477018
  0.29214907 -0.7616563   0.91012466 -0.04719465  0.15180422  0.00592626
 -0.06095727 -0.02596547]
[-0.06263358 -0.376179    0.5166403   0.99917454 -0.15622541 -0.3816064
  0.60411316 -0.4620338  -0.33500147 -0.8254014   0.8952853  -0.48175183
 -0.32131827 -0.42507732  0.4157628   0.576262    0.03120583 -0.02764305
 -0.11795705 -0.7350524 ]
[ 0.00610428 -0.18488316  0.05498217 -0.02705198 -0.01512167  0.14450802
  0.01608117  0.05709206  0.00431018 -0.1257515   0.12167537  0.08708284
  0.0508883  -0.13389984  0.03888728  0.05755335  0.01616127 -0.12475804
 -0.00181803 -0.2462295 ]
layer 1 Activation
tanh
layer 2 Dense
20 40
[ 0.10643198 -0.08005732 -0.06579628  0.14896457 -0.07349937  0.24182895
 -0.2802714   0.13039207 -0.01351451  0.41140133 -0.17485936 -0.2543398
 -0.04439585  0.3585144  -0.29137853 -0.22130103  0.23852476 -0.23510996
  0.06672745 -0.07188805  0.04372298 -0.13086464  0.31794176  0.15511155
 -0.14841896  0.42787996  0.02377881  0.17991693 -0.21583197 -0.31819955
 -0.00535083 -0.23307689  0.04365129  0.10229841  0.14451167 -0.03295135
  0.05473141 -0.15458302  0.09456413 -0.24703495]
[ 0.21986856  0.49156895 -0.02234051 -0.20711075 -0.11163297  0.01251636
 -0.12288667  0.13446671 -0.23508221  0.09205446  0.12530127  0.04557501
 -0.02167617 -0.07044668 -0.06687737  0.22360073  0.15634614  0.0419908
  0.20720407  0.08663215 -0.12009513  0.00602118  0.44237643 -0.23714289
  0.10956262 -0.16157793  0.16748199 -0.5058703   0.10527784 -0.22507659
 -0.00838971 -0.07783858 -0.14181744 -0.21996582  0.0825628   0.28556654
  0.31708226  0.17316398  0.06797117  0.22202334]
[-0.24261798 -0.01903193  0.15161967  0.39088592  0.10912278 -0.03033068
  0.20751403  0.13476609  0.01244161 -0.23851015  0.1331421  -0.05764259
 -0.2883682   0.29983148  0.03523897 -0.21102518 -0.127257    0.03793955
  0.18143284  0.12707789  0.03831026 -0.29227474  0.06284981 -0.00830516
  0.2132072  -0.16556533  0.3326969   0.47324398  0.38093552  0.35109758
  0.22979343  0.0136099   0.14693871  0.18759722 -0.2246905  -0.2140701
 -0.10009036 -0.3305901   0.17419685 -0.05945893]
[-0.04862459 -0.5441213   0.00468599 -0.1653254   0.4922878   0.56153435
  0.3611657   0.38231373 -0.08822154  0.19734396  0.28992912  0.34631616
 -0.21321659 -0.3379863  -0.41827127  0.20191066 -0.02027347 -0.270077
  0.04313691 -0.11464993  0.08351599  0.44325432  0.15545833  0.00240796
  0.17347462  0.27775726 -0.22355431  0.8405804  -0.41399822  0.35462618
  0.15182585  0.02846158  0.31174093  0.13731618 -0.02278051 -0.6033741
 -0.12629187  0.15733585  0.1457084  -0.26507726]
[-0.10575189  0.11096509 -0.19871123  0.12386651  0.28070095  0.0546665
  0.06251175  0.1279123   0.06536798 -0.05324196  0.20899172  0.12248476
 -0.03532602  0.01110569 -0.30501562 -0.1708375   0.06164346  0.11707714
  0.03920948 -0.20737739  0.19830598 -0.16600859  0.07731366 -0.07104678
  0.20551267  0.04631989  0.00808217 -0.06055644  0.21832685  0.22980344
 -0.20297559 -0.13331333  0.36008105  0.05594999 -0.16439077 -0.00531039
  0.3207552   0.08176041 -0.04619205  0.24785364]
[ 0.13582315 -0.06062012  0.03642121  0.07105229  0.17869882  0.10219098
 -0.26880106  0.1685284  -0.00549948 -0.104188    0.30962473  0.0347771
 -0.38819623  0.04778153 -0.32705042  0.37025082  0.21216366  0.03327733
 -0.16569477 -0.05656223 -0.09955862  0.04742995  0.32874182 -0.23107405
  0.12075709 -0.05329218  0.09326199  0.1553288   0.20155226  0.44060445
  0.00088581  0.19008648 -0.06654396  0.40869114 -0.03774967 -0.3097642
 -0.36322412  0.03613725 -0.19485238 -0.03104088]
[-0.28643194 -0.22774431  0.16175039  0.18293397  0.1314258   0.3787528
  0.21100022  0.01057126 -0.12925208 -0.38686424  0.09222572 -0.04193396
 -0.19174175  0.01005563 -0.24169143  0.0132545   0.11798341  0.0843242
  0.3342839   0.22455907  0.05472397  0.3916005   0.14451088  0.17393656
  0.30183804  0.16331542 -0.23031063  0.00555763 -0.21240418 -0.11637256
 -0.12509082  0.14398251  0.22815539 -0.2104896  -0.22579834  0.10210241
  0.2795307   0.31600982  0.11474779 -0.39664865]
[-0.2733262   0.08576979 -0.08480011 -0.03337391  0.0042764  -0.589638
  0.07550191 -0.41595978 -0.15278438  0.33129138  0.07908845 -0.07403878
 -0.0443749   0.37725478  0.27160192  0.18033539 -0.12880635 -0.07294209
  0.13689753  0.4194598  -0.16387169 -0.4016436   0.14463961 -0.29837757
  0.01707518 -0.2784798   0.48369455 -0.04139812  0.28524458 -0.4231708
 -0.4086935  -0.44522578  0.01318354 -0.10696977  0.03383948  0.34840053
  0.11185681  0.04614618 -0.23856726 -0.07500953]
[ 0.06146247  0.3406795   0.2694535   0.09333505  0.03961993 -0.10758471
 -0.31604597  0.11018057  0.21711996 -0.04017103 -0.18514016  0.1860493
  0.15523666 -0.25255832  0.1406358   0.2666241   0.05838907 -0.08554061
  0.18794338 -0.17926738  0.14943853  0.08562661 -0.13753809  0.0964741
 -0.16561285 -0.15747033  0.04585821 -0.19284497 -0.43305576 -0.17667416
 -0.14404355  0.32854536  0.24250522  0.48454902  0.26465923  0.05889345
 -0.24140078  0.23448083  0.28347763 -0.09048212]
[ 0.1421572   0.11490414 -0.36806166 -0.3191089  -0.08568008 -0.38936818
 -0.23122716 -0.23598251  0.04257802  0.43341747 -0.15934837 -0.20254219
 -0.14326635  0.34187433  0.20941696 -0.10236983 -0.32770306 -0.17427331
  0.17781043  0.31172132  0.12360074 -0.29843476  0.28983092  0.17312127
  0.06333379  0.07460911  0.1397768   0.23049963  0.46732262 -0.06533551
 -0.49979872 -0.2939714  -0.14856766 -0.21054366  0.34057108  0.00403054
 -0.01256805  0.29921135 -0.2346495  -0.08570869]
[ 0.30071914 -0.11920052  0.23520248  0.14433315  0.12876865  0.14973901
  0.42844662 -0.17507553 -0.38068232 -0.2091982   0.05614602  0.1819
  0.02193397  0.13817757 -0.13607709  0.18293269  0.1241661   0.04369541
 -0.23119183 -0.30005383  0.04153402 -0.21780042 -0.07053313  0.01637
  0.01013585  0.10081673  0.09875374  0.80716145 -0.29589182 -0.04553386
 -0.15079461 -0.13538526  0.06156404 -0.10358873 -0.30090582 -0.35996723
 -0.04133461 -0.25617054  0.12329058  0.17171016]
[ 0.07823343  0.05982221  0.18734513 -0.15808743  0.14522502  0.3416326
 -0.19205105  0.10068969  0.18306457  0.2012439   0.2154764   0.1564496
 -0.16425534 -0.10164577 -0.20802319 -0.03315589  0.20024757  0.1265877
  0.06246491 -0.32081157  0.12172753 -0.1770912  -0.00255899 -0.08376038
 -0.1735901   0.0264079  -0.3214876   0.08859558  0.11354137  0.40125483
  0.23867022  0.13706967 -0.01091832  0.32027736  0.11139281 -0.28508943
 -0.2937194  -0.10017319  0.07925046 -0.07802386]
[-0.02538101  0.2635992   0.0390915  -0.23752733  0.14605284  0.250822
  0.03920129  0.02128375  0.13175099 -0.23282233  0.02219585 -0.17601778
 -0.03094529  0.13763419 -0.15803087 -0.06575744 -0.1978957   0.03461084
  0.12528196 -0.06555506  0.21256644 -0.09893042  0.18359338 -0.07270678
 -0.15150014 -0.23175885  0.04671811  0.10672873  0.3553643   0.16134495
  0.09595267 -0.12120099  0.28960392 -0.01759396  0.10192568  0.20890437
 -0.12140983 -0.12057823  0.0710071   0.11701418]
[-0.2184364  -0.05022509 -0.335579   -0.26497698 -0.10033228 -0.02710403
 -0.26424634  0.15940078  0.28686446  0.49245244  0.12171319 -0.14987226
 -0.22877884  0.25283086 -0.01147119  0.17847255 -0.12762274 -0.29351726
  0.47415718  0.35710108 -0.17323954  0.2725135  -0.06985234  0.1211644
  0.23054077  0.05009444  0.34672296 -0.02880483 -0.14902976 -0.48318613
 -0.08714421 -0.31749383  0.05149662 -0.02835112  0.03509219  0.49783337
 -0.03995181  0.31064576  0.01767153 -0.39001134]
[-0.06957699  0.32246682  0.28420457  0.08801839 -0.01766654  0.18177824
  0.09115284  0.08821972 -0.04036009 -0.37936768 -0.09275799 -0.06900295
 -0.15326834  0.16080862 -0.047762   -0.21569902  0.02180252  0.28444606
 -0.07382725 -0.1979493  -0.10325554  0.14016245 -0.24791007 -0.38087714
 -0.21140851 -0.01248895 -0.30229005 -0.05576918  0.15083566 -0.57335037
  0.30112943  0.63804656  0.1096198   0.1031731  -0.06713291  0.11071456
 -0.23368272 -0.3483698  -0.17010708  0.35771558]
[-1.26076549e-01  2.83974484e-02 -1.00935161e-01  2.55083442e-01
 -7.70562291e-02 -4.34653759e-02  3.55678231e-01  3.07109684e-01
 -2.46687770e-01 -2.54360467e-01 -1.78146794e-01  1.62773147e-01
  1.04602166e-01  2.56115735e-01  5.98689476e-05  4.89341617e-02
  1.15323938e-01 -1.92716777e-01  2.05166355e-01 -3.86420846e-01
  1.56485111e-01  5.12504466e-02  1.30597785e-01  1.15542635e-01
  1.32047936e-01 -1.95835233e-01 -2.44435042e-01  7.00693011e-01
  1.26513109e-01 -4.57147583e-02  2.55306661e-01 -6.05464587e-03
 -1.24079041e-01  1.04957275e-01 -2.80005664e-01 -1.42944202e-01
  7.14827515e-03  2.05578819e-01  3.21552157e-01 -2.21072495e-01]
[ 0.05527829 -0.04988812  0.28528893  0.16395709  0.1409206  -0.1462883
  0.439762    0.23497103 -0.08178892 -0.03060888  0.26526502  0.2116088
 -0.21345252  0.08434702  0.17863677  0.24415931 -0.0173741   0.02145302
 -0.03207997  0.03345968 -0.0484158  -0.4357169   0.21719871  0.14945658
  0.13648447  0.10518793  0.03054684  0.15182987  0.256191   -0.06775949
 -0.15574671  0.02780472 -0.09470857  0.43627307 -0.10247556 -0.30738294
 -0.0622155   0.18778542 -0.09766138  0.05707005]
[ 0.06573881 -0.1961905  -0.1569633  -0.2788584  -0.07066438 -0.16926569
  0.09856194 -0.12644646 -0.11879854 -0.03691832  0.02306133 -0.18470965
 -0.24738276 -0.1870952   0.1425077   0.1524769  -0.25478488 -0.05455678
 -0.16715498  0.104977   -0.11788501 -0.15932402  0.16302547 -0.27928898
 -0.10563306 -0.22624554  0.10280205  0.22440772  0.14457706  0.16857484
 -0.07737418  0.11482625 -0.23655955  0.31422743 -0.09813557  0.16175508
 -0.19860452 -0.0681389   0.17488655  0.02360376]
[-0.11125239 -0.10663944  0.00623021  0.14597878 -0.1477849   0.20498763
 -0.23134518  0.05675909  0.0287992  -0.04593464 -0.07060827 -0.13234124
 -0.04389419 -0.25257382  0.16869666  0.05045107  0.01992453  0.03152892
  0.22303265  0.18625303 -0.08313874 -0.05726415 -0.10051311  0.20525788
  0.07074111  0.14653137 -0.25169757 -0.13320476 -0.18975608  0.47530493
 -0.1624026  -0.11736339  0.1207445   0.0070519   0.24839677  0.09489106
  0.18224417 -0.29616693 -0.28790542  0.18994755]
[ 0.11951079  0.35240865 -0.2175626   0.09993657 -0.3241792  -0.32547048
 -0.27317306 -0.14713751 -0.28135133 -0.2909896  -0.16088676 -0.49334276
 -0.12853812  0.2635088  -0.08516815 -0.15965846 -0.42412332  0.01486758
 -0.03894835  0.3104842  -0.12524737 -0.22038509  0.10473739 -0.33303964
  0.11883362  0.12326717  0.29926133 -0.5889033   0.27380493 -0.3080665
 -0.08798298 -0.5678676  -0.19494113 -0.8361053  -0.16237137  0.60303444
  0.5297443  -0.09370393 -0.40110493  0.19211547]
[-0.00641852 -0.06565243  0.09920871 -0.08397602  0.04158712  0.22905889
  0.06811343  0.05175016  0.01176821  0.01194037  0.10528746  0.08765537
  0.04844651  0.08922473 -0.08679079  0.1416132   0.07282046  0.02734773
  0.01448453 -0.08459161  0.14960621 -0.03583933  0.0531865   0.03163028
 -0.07205407  0.07443763 -0.21015283  0.4351567  -0.30223194  0.19160031
  0.05142944  0.22008604  0.11365662  0.4446082   0.00671173 -0.5458573
 -0.26943588  0.01161666  0.1387536  -0.01814908]
layer 3 Activation
tanh
layer 4 Dense
40 20
[-0.15630046 -0.45266634 -0.21948166 -0.16712198 -0.02834881  0.0503384
  0.03906062 -0.1124132   0.24034189  0.06641901 -0.21334456  0.1966141
 -0.00616327  0.21527378 -0.06036067  0.15015139 -0.06589824 -0.05960658
 -0.05088433  0.15182601]
[ 0.27324808 -0.04973724  0.07072484  0.04734614 -0.24041727 -0.04297247
  0.05622142 -0.11621193 -0.2902502  -0.22047266 -0.01249018 -0.1987127
  0.2765036  -0.11023546  0.15778545 -0.20864771  0.01502344 -0.15839215
 -0.25168586 -0.02209389]
[-0.3178705   0.10270065  0.00550049  0.22309451 -0.29799876 -0.46087116
 -0.12426561  0.28394333 -0.1497326  -0.07234018  0.1118961   0.15884893
  0.35190493  0.2266744  -0.25278196  0.26640615  0.2221375  -0.0543109
 -0.14138734 -0.21032572]
[-0.06897138  0.29466835  0.04823285 -0.13889371  0.03689883 -0.21572378
 -0.12380037 -0.14765406  0.02627887 -0.18708983  0.26563758  0.28911617
  0.07624695 -0.16427863 -0.04965213 -0.22749077  0.21344721 -0.16275735
  0.38319826 -0.22626665]
[ 0.00622152  0.1713213   0.19786204  0.01723724  0.3097392   0.02286877
 -0.0831432  -0.23561326  0.1224016   0.03998353 -0.19814737 -0.11833367
 -0.14877605 -0.16139065 -0.1113335   0.15378721  0.04567836  0.17337002
  0.14359295  0.14596847]
[-0.32742256 -0.1890678   0.35995543 -0.14630337  0.1072341  -0.29425517
  0.11325376 -0.10015676  0.22394024  0.41315183 -0.31134665  0.10527315
  0.15127206  0.36913887 -0.11438464  0.19767739  0.09707556  0.28095564
 -0.01437741 -0.38986793]
[ 0.14223734  0.18299197 -0.21248358 -0.24267556  0.25706384  0.04002103
  0.24886522  0.2121556   0.00417825 -0.15185203  0.393935   -0.21433736
  0.11338997 -0.01930383  0.15826397  0.43623805  0.28077194  0.21338515
  0.30487016 -0.36781576]
[ 0.16039991  0.05992415 -0.20094205  0.0590614   0.13123639 -0.28360564
 -0.00149258 -0.12789838  0.14957064 -0.00157942 -0.02617423  0.03374656
  0.16678232  0.01017943  0.16133554  0.12513271 -0.04520877 -0.01249795
 -0.20788378 -0.16478337]
[-0.02001657 -0.00733387 -0.15361059 -0.34406117  0.04910375 -0.3386947
  0.07225638 -0.07400012  0.06794091 -0.12974614 -0.08481164 -0.17865872
 -0.06845086 -0.03699453 -0.21124943  0.02673616 -0.24556579  0.15454882
  0.2747473   0.23243362]
[ 0.3098386  -0.19798656  0.1424264   0.14838679 -0.11772542 -0.2755424
 -0.07705075  0.07375581  0.02149789  0.10361761 -0.07995147  0.12704746
  0.04462783  0.20545253 -0.02720111 -0.28433037 -0.45693743 -0.17186621
 -0.11159492 -0.10601313]
[ 0.1171858   0.04486759 -0.12104432  0.10643973  0.07229456  0.00963387
  0.08820615 -0.06204901 -0.28666407 -0.02770376 -0.21119645  0.141727
 -0.33303902 -0.1233229  -0.15951917  0.2291343  -0.11587903 -0.02962349
 -0.13067265  0.07013807]
[-0.28820884 -0.01951197  0.24010421  0.17880943  0.42679948 -0.25748542
 -0.05678955  0.137175   -0.24435928 -0.03593661 -0.18751995 -0.14694975
 -0.06220138 -0.09618181 -0.32716054  0.1475701  -0.24958621 -0.11527289
 -0.03249188 -0.06000045]
[ 0.09048811  0.17264001 -0.03774134 -0.09875459 -0.14075199 -0.24640127
  0.0203058  -0.29343387  0.10182996  0.16843589  0.1744343  -0.06438395
  0.08596357  0.01306983  0.21020557  0.19340613 -0.02147521 -0.08750559
 -0.20127138  0.0510263 ]
[ 0.41429076 -0.05653085  0.11249205 -0.05424354 -0.06283208  0.222231
 -0.13642406  0.05587617 -0.03640491  0.06606264  0.30093467  0.10340904
  0.19206181  0.03086011 -0.33694494  0.01533164 -0.1721471   0.04796641
  0.1092952  -0.12558028]
[ 0.22299916  0.14855991  0.17928234  0.05856751  0.03512291 -0.24312109
 -0.1811416   0.04958535 -0.1292926   0.14392206  0.20319216  0.16985108
  0.23175536 -0.0091616  -0.19957556 -0.1137668   0.04780345 -0.22060628
  0.2649317   0.08545192]
[-0.11760286 -0.4036891   0.01709265 -0.03922174  0.00521209  0.06036129
 -0.21945821 -0.03017275 -0.0466802   0.19515936 -0.03540653 -0.05452753
 -0.21988602  0.17599384 -0.16449265  0.20147987 -0.3302319  -0.03453572
 -0.24169226  0.10348731]
[-0.34072012  0.30880848 -0.04459013 -0.08370781  0.12821329 -0.23917732
 -0.20018542 -0.3101341   0.14419694  0.13868299 -0.34117877 -0.21918008
 -0.03228818  0.20566124  0.14769644  0.1350933  -0.271331   -0.11559858
  0.02660404  0.03027079]
[-0.08121053  0.15636487  0.00683296  0.15955365  0.04000285 -0.11606696
 -0.13240623  0.04487059  0.17633736 -0.40854117 -0.15456437 -0.18757445
 -0.09739847  0.17287953  0.03734896  0.04374012  0.38187817  0.07198088
 -0.16937795  0.07936583]
[-0.0582561  -0.22081316 -0.11201579 -0.07638343 -0.10917775  0.10242086
  0.07711037  0.04101502 -0.03211217 -0.02379232 -0.00588395  0.07661873
  0.26885936 -0.08004779  0.09726468 -0.08151819 -0.31333834 -0.257398
  0.08550925 -0.11092022]
[ 0.20142461 -0.15428282 -0.04456079 -0.03341265 -0.1335582   0.32534698
  0.0775869   0.09680624  0.21305546  0.2577683  -0.16888697  0.18219584
  0.40636605  0.12130339  0.24124311 -0.03095839 -0.01044803 -0.09397557
  0.00499251  0.22442318]
[-0.1294517  -0.00676246 -0.28901115 -0.16289955 -0.2206743   0.05610421
 -0.00445613  0.16299896  0.01528999 -0.04828926 -0.02420179 -0.15080597
 -0.10702719 -0.12483736 -0.1190444   0.16421826 -0.20503923 -0.0692576
  0.02249873 -0.14514282]
[-0.02821699 -0.22191904 -0.05589391  0.18475781  0.36036742  0.32951102
  0.12452801 -0.09098135 -0.1823066   0.21216665  0.1517123   0.2974561
 -0.30993226  0.11896352  0.4272661   0.18844375 -0.09306677  0.05294028
  0.06165519  0.07127399]
[ 0.21085063 -0.13051777 -0.06209353  0.11232992  0.01382113  0.13394299
 -0.04542334  0.17698479 -0.17607272 -0.05562425  0.02015217 -0.13758866
 -0.13806878  0.159297   -0.12586935  0.1778614   0.05571816 -0.12987374
 -0.3658187   0.11328576]
[ 0.1148195  -0.12100051 -0.17121853  0.22501202  0.22325768  0.20104632
  0.14806147  0.07474745 -0.0778249   0.41130596 -0.28782213  0.1419639
 -0.14939655 -0.21757466 -0.24241954  0.08011931  0.03685062  0.12575677
  0.05512705 -0.09737936]
[ 0.09377159  0.08613313 -0.01078834 -0.03875195  0.18967798  0.09085874
 -0.10047241  0.265045   -0.03842126  0.01884454  0.28607473  0.13785051
 -0.04328666  0.06203637 -0.04190853 -0.20983173  0.13589258 -0.15945159
  0.25551498  0.01145658]
[ 0.00839607 -0.11320131  0.11767165  0.0515167  -0.03245667  0.00628116
 -0.16400103  0.09637115 -0.18398488  0.40307334 -0.14474624 -0.28990963
 -0.02797702 -0.21293908  0.02502305 -0.11707032  0.22334298 -0.09073965
  0.14557159 -0.2457938 ]
[ 0.05759412 -0.00770057  0.01270673 -0.02514526  0.18192774  0.40084702
  0.06310564 -0.04639886 -0.16109614 -0.16806714  0.22115338 -0.03542423
  0.24249995 -0.04670166 -0.1252732  -0.27724436 -0.07431041 -0.04099039
  0.25228608  0.2097716 ]
[ 0.04236843 -0.07862076 -0.10510712  0.22221456  0.24800405  0.25688976
 -0.09675398 -0.07465745  0.00903417  0.05612057  0.30218622  0.22119944
  0.10847747  0.02381082 -0.39757624  0.13491818 -0.13176104  0.31133407
 -0.00721805 -0.18794851]
[ 0.23075919 -0.26404884  0.1705425   0.01826326 -0.04494419 -0.1380772
  0.00472506 -0.17269488  0.07092679 -0.28649655  0.17794798  0.12258587
 -0.00792323  0.15785062 -0.19486903 -0.32533473 -0.01949605 -0.08469613
 -0.11627672  0.0723137 ]
[ 0.19088028  0.15863533  0.03540977  0.15809922  0.21639132  0.19071196
 -0.01588807 -0.04707684 -0.22964144 -0.26591963 -0.27475646  0.05890524
  0.20774876  0.0337001   0.0344171   0.31985435 -0.21809568  0.17506362
  0.2885646  -0.2858229 ]
[-0.25273874  0.05631905 -0.1302326   0.24109153  0.04365993 -0.3885051
  0.1141778   0.1235381  -0.07876915 -0.2894675   0.20880711  0.0798473
 -0.24071705  0.05133878  0.2543465   0.32474676  0.47217032 -0.06075935
 -0.07037198 -0.08167518]
[-0.32827884  0.34229854 -0.02573641  0.18581459 -0.11756621 -0.37551948
  0.00922171  0.02703763 -0.21547152 -0.38498008 -0.3270124   0.04596104
  0.22373693  0.24036686 -0.04124364  0.28116962  0.0654467   0.17135541
  0.2854183  -0.04161396]
[-0.24576616 -0.02303021  0.11229169 -0.01409384  0.02261249  0.00620323
  0.10788901 -0.07054432 -0.09689189  0.38710013 -0.1989733   0.12259643
  0.09411097  0.03394616  0.10362391  0.1865824  -0.12756976  0.17544204
  0.1697531   0.15981503]
[-0.11596192  0.24883692  0.04962561 -0.23631969 -0.05783865 -0.20315166
  0.09814649  0.07147876  0.2173329  -0.2615757  -0.40547508  0.17345145
  0.06014685 -0.2134302  -0.4232281   0.30931285  0.13888234  0.31512284
 -0.00540069 -0.29218334]
[ 0.21470892 -0.08622169 -0.20736846 -0.02416433 -0.12510084 -0.24430566
  0.01180396  0.00422203 -0.04156516  0.45087126 -0.14046149  0.23208944
 -0.13589902 -0.11873406 -0.22655064 -0.18923564 -0.3511863   0.2704876
  0.04177422  0.0573298 ]
[-0.24393594 -0.19069788 -0.17892052  0.06076664 -0.01352943 -0.1241938
 -0.13893615  0.17534332 -0.11132271  0.0573312   0.07397997 -0.02208552
 -0.2552004   0.04751511  0.3926963  -0.29098785  0.3387905   0.02986641
 -0.2796074   0.28156897]
[-0.04335478  0.10583755  0.16552827  0.10012958 -0.25719228  0.31565717
 -0.15859888 -0.03123572  0.1622302   0.2299522   0.37548575 -0.23998
  0.05428866 -0.02652017  0.4049141  -0.03788057 -0.11717587  0.13456583
 -0.03679067  0.24105783]
[ 0.2762209  -0.18469468  0.03807047  0.10807344 -0.11308096  0.29278886
  0.09657922 -0.15096384  0.16363339 -0.14016229 -0.09149541 -0.20541556
  0.2313313   0.0640384   0.07018711  0.11598092 -0.38484925  0.06866334
  0.0473954  -0.05571618]
[-0.27780333  0.09168179 -0.03915088 -0.070499   -0.05755085 -0.07513347
 -0.14994437 -0.08943493  0.07267824  0.25731128  0.21728009 -0.25835073
 -0.14900623 -0.06001888 -0.09359837  0.24153186 -0.10687595  0.07004454
 -0.2772435   0.05465282]
[-0.12213773  0.3204069  -0.15599464  0.02571142  0.00061497 -0.31309965
 -0.01300466 -0.0555956   0.11947217 -0.36814165  0.12372536  0.23985034
 -0.3061435  -0.01208259  0.03741094  0.01971771  0.07759553 -0.02774341
 -0.06782453  0.24948908]
[ 0.05189234  0.21972483 -0.01162134  0.00036076 -0.00023186 -0.07579288
 -0.04460499 -0.00153416 -0.02565985  0.00191455 -0.11852866 -0.03986484
  0.00530678  0.02491158 -0.10806546  0.13428165 -0.09114654  0.1366429
  0.08104679 -0.07036068]
layer 5 Activation
tanh
layer 6 Dense
20 1
[0.07278494]
[-0.00059367]
[-0.00563168]
[-0.00499485]
[-0.10606731]
[-0.09721421]
[-0.00275029]
[-0.00507134]
[-0.02027793]
[-0.04882917]
[-0.06900421]
[-0.01332021]
[0.01244135]
[0.00778681]
[-0.12390445]
[-0.12774809]
[-0.0416073]
[-0.01906434]
[-0.01122817]
[0.13122173]
[0.09113467]
