layers 7
layer 0 Dense
20 20
[-0.4748062  -0.45066822 -0.08363055  0.16269155  0.02466353  0.19280647
  0.11192369 -0.44194165 -0.04452275 -0.19107018 -0.21823226 -0.22111303
  0.33992553 -0.5004424   0.18247975 -0.02614802 -0.26536363  0.13332519
  0.217161    0.12024016]
[-0.11214499 -0.01662432  0.09310978  0.34523278 -0.04287883 -0.24158193
  0.14303707 -0.35684595  0.12370978  0.37394217 -0.04685353 -0.439916
  0.40498734  0.11586401 -0.6145015  -0.38437605 -0.40557513 -0.01117834
  0.3553906   0.32305947]
[-0.06990554 -0.5963115   0.45612916  0.4803683  -0.11852293  0.33927143
  0.02615868 -0.08798608 -0.16220702  0.05744693 -0.45480105 -0.7074478
  0.42457935  0.15978175 -0.06782699 -0.3724749  -0.03845153 -0.01976196
  0.30574337  0.44368798]
[ 0.0993802  -0.32936376  0.24174024 -0.14248939  0.00533129  0.05108896
  0.08209374 -0.5680589   0.32588843 -0.14893857  0.10577103  0.05198841
  0.41363266 -0.5765272  -0.3587323  -0.06885908 -0.6365009  -0.45268017
 -0.12049216 -0.33492738]
[ 0.5246818   0.34239992  0.3802599  -0.16357626  0.16903993 -0.20112792
  0.25002298 -0.14094938 -0.05498828  0.20311071  0.2519633  -0.2676556
 -0.1436664   0.22936657 -0.2583215   0.02284031  0.27857664  0.10674413
  0.2485713   0.03765655]
[ 0.674431    0.48195434 -0.33374712 -0.71890855  0.00875977  0.3411051
 -0.16293775  0.30277336 -0.16252117 -0.6552016   0.51489604  0.5289041
 -0.44165003 -0.33613843  0.17820673  0.51305777 -0.3447818  -0.39317247
  0.00820718 -0.24368311]
[ 0.47318918  0.54363924 -0.30927128 -0.51372975 -0.00525238 -0.03109635
 -0.55249625  0.4242957   0.10276204 -0.0968549   0.42087975  0.5428074
 -0.31732142 -0.30263007  0.13137887  0.7466656  -0.30615592 -0.33535984
 -0.28156942 -0.3943701 ]
[-0.1005735   0.05633442 -0.19262928  0.35141286  0.33823827 -0.14921796
 -0.12482641  0.01954618  0.21255158 -0.09340579  0.05804241  0.1072433
 -0.25680378  0.41628328 -0.1123684  -0.22279175 -0.2270017  -0.06079451
 -0.179504    0.03659973]
[ 2.5810751e-01  3.2021365e-01  2.2866915e-01 -2.9851675e-02
 -2.6246551e-01  5.0307058e-02 -3.2220110e-01  7.3852032e-01
 -1.5718049e-01  1.7988841e-01  5.2520704e-01 -1.8271056e-01
 -3.3899475e-02  2.8946677e-01  2.8200892e-01  2.0441340e-01
  6.0305518e-01 -3.3068258e-01 -6.9353141e-02 -3.5896589e-04]
[ 0.47296184 -0.25841054  0.0729075   0.59890544 -0.08794594  0.40379602
  0.45450458 -0.0286743  -0.52910686  0.13870235 -0.35700402  0.06415793
  0.38635844  0.23963857  0.04263783 -0.29319313  0.38020456  0.6063958
 -0.16461845  0.17989868]
[-0.16738836  0.4070749   0.55644906  0.02107454 -0.06968646 -0.1922162
  0.36221534  0.00192452 -0.059724   -0.22286667  0.07702039 -0.49410746
  0.39734915 -0.08749974 -0.07574672 -0.06835338  0.02543659  0.3130058
 -0.11766841 -0.26166603]
[-0.16398667  0.20348568 -0.0534118  -0.05291877 -0.31781    -0.26952317
 -0.6421205   0.6539362   0.00600108 -0.18367371  0.676837    0.77498364
 -0.5223822   0.8822783   0.03736807 -0.6875497   0.73549044  0.31660146
  0.12126886  0.07164937]
[ 0.63120353  0.4257558  -0.35112718  0.05025039 -0.27007997 -0.06823387
  0.07985092  0.2847537   0.05427507 -0.34076712  0.04881645 -0.2622094
 -0.30934405  0.03723726  0.6237599   0.1253555   0.07406873 -0.19228801
 -0.2724866  -0.6422328 ]
[-0.31720862 -0.17417899 -0.02426247  0.4773879   0.21439551  0.1257584
  0.257805   -0.10958251 -0.28164697  0.5358909  -0.02741156  0.26249573
 -0.05978208  0.12082001  0.03092292 -0.01047258  0.43100473  0.44483218
 -0.00924753  0.7243843 ]
[-0.42194182  0.44471344  0.1501225   0.23347588  0.00180748 -0.39417318
 -0.07411601 -0.3895402  -0.19734254 -0.11891027  0.3268326  -0.14330181
 -0.3267522  -0.00748947  0.21950205 -0.4230925  -0.37395895 -0.16827153
  0.06242432 -0.05978177]
[ 0.43730846  0.6991641   0.6313265  -0.9080552  -0.37367922 -0.6370362
 -0.63972694  0.49090096  0.158187   -0.72378606  0.35999706  0.30983385
 -0.6968815   0.3685627   0.674792   -0.03431417  0.09277631 -0.34226894
  0.10083483  0.00526171]
[-0.7711738  -0.34264094  0.42960033 -0.41364595 -0.0266689   0.25558424
  0.1134759  -0.6799285   0.03029992  0.2293539  -0.62872815  0.08544382
  0.734467   -0.21753903 -0.6298546   0.02713761 -0.47570068  0.20724387
  0.4159      0.24383748]
[-0.6413185   0.30626053  0.3618582  -1.0510927  -0.8738782  -0.30787647
 -0.63844216  0.06339477  0.87165034 -0.4631443   0.83999294 -0.4226123
 -0.12120621  0.18707407 -0.11902204  0.9864243  -1.3765426  -1.0886508
  0.12043543 -0.5412024 ]
[ 0.01748609 -1.2224307  -0.49810207 -0.5036308   0.06359524 -0.04574839
 -0.30946282 -0.17907983 -0.2903427   0.21915872  0.05174163  1.5902193
 -0.1689254   0.06503849 -0.01637587  0.8716658  -0.13283439  0.595468
 -0.02918457 -0.36945808]
[ 0.24630763 -1.2016692  -0.75687224  0.8355295  -0.08604571 -0.0670374
  0.37858137 -0.3729645   0.09627607  0.60871875 -0.15221852 -1.2179402
  0.29892123 -0.11889186 -0.33686632  0.9346238  -0.6442682   0.11405046
  0.17098835  0.27320156]
[-0.18742569 -0.05649019 -0.02468929  0.0904115   0.08631749  0.1821129
 -0.05381412 -0.17400628  0.02889327 -0.02954557 -0.12435744 -0.01970647
 -0.01909118 -0.14167777 -0.07588467 -0.08298603 -0.18124731 -0.14342357
  0.0069618   0.07259903]
layer 1 Activation
tanh
layer 2 Dense
20 40
[ 0.06600564 -0.00796234  0.28745732  0.08991487 -0.25499496 -0.05820445
  0.03815364 -0.48381704 -0.00366185 -0.4321253  -0.10554481 -0.11298304
 -0.07308546  0.107523   -0.14238252  0.16440208 -0.09115986  0.24184857
 -0.07192056 -0.32399324  0.22252826 -0.24255443  0.15100798  0.0160233
  0.15670545  0.39829668  0.5509354  -0.2272294  -0.0574889  -0.31557935
 -0.05575261  0.17755534 -0.37135836 -0.05254962  0.2807821   0.29122052
 -0.33731148 -0.05547971  0.3572373   0.19292155]
[-0.35922053  0.3032255   0.40909475 -0.01819575 -0.1581153  -0.48459345
  0.00449315 -0.29475495 -0.0705369  -0.25292176  0.03440059  0.19556229
  0.3105605  -0.08643204 -0.14066358  0.37861794 -0.22602883  0.36290053
 -0.02933805  0.19309136 -0.26041108 -0.5762512   0.02272883  0.14280778
 -0.48517424  0.05087753  0.21479607 -0.03958511 -0.13128969  0.43142056
 -0.09084706 -0.15884204 -0.2452347   0.217725   -0.29123747  0.0047334
 -0.4470076   0.1542105   0.3372427   0.01816145]
[ 0.02926139 -0.12389415  0.054502   -0.12531857 -0.0721574  -0.0486059
 -0.2914336   0.01767944  0.10574301 -0.07838865 -0.14831129 -0.02118216
  0.09861983 -0.19053392 -0.15438044  0.15855101  0.25947234 -0.17289911
 -0.06980497  0.16578348 -0.14176181  0.14516923  0.17192428 -0.34853125
 -0.47320977  0.01452031  0.11035186  0.21006942  0.12150095 -0.08504578
 -0.18718925  0.13752125 -0.01957463 -0.14422125 -0.14609209 -0.13919085
  0.011837   -0.07623457  0.00804473 -0.03409249]
[-0.04630399 -0.17637962 -0.3394894   0.15036151  0.25697622  0.617645
 -0.03133738  0.3592993  -0.14949457 -0.01432636 -0.3475128  -0.05260794
 -0.22645698  0.14294548  0.08663093  0.09942732 -0.08341452 -0.45503336
 -0.29403117 -0.40046462  0.4285343   0.23327987  0.12984586  0.3080824
 -0.14299446  0.29198784  0.17578736 -0.37305745 -0.12191664  0.29737306
  0.03982398 -0.08464863 -0.3698015  -0.13632415  0.1111715   0.22328745
  0.06846153 -0.1227126  -0.40167606 -0.07760604]
[ 0.09494873 -0.04739951 -0.11449397  0.14457488 -0.28548253 -0.02505766
  0.3517468   0.005616    0.14242324 -0.24406248  0.11984409 -0.03838565
 -0.1262307  -0.15031345  0.18805955 -0.161039   -0.00691921  0.15866104
 -0.13031913 -0.26812088  0.27904046 -0.03863429 -0.26909062  0.25658262
 -0.03192857 -0.0699436   0.10702329 -0.22001734  0.16197616 -0.22289376
  0.02648702  0.17268185  0.05813275  0.10222514 -0.08693882 -0.05691409
 -0.13539566  0.10383362 -0.01026211 -0.12644789]
[ 0.03895108 -0.29232755  0.06748125  0.20282786  0.15439303 -0.03534599
 -0.03990763  0.09706435  0.06913111 -0.01976565 -0.12946852 -0.10533428
 -0.01535835 -0.37808895  0.24968301  0.00563938 -0.07666167 -0.18567494
 -0.19154146  0.0136014  -0.12665184 -0.05852163 -0.18907386  0.02890387
  0.17438501  0.1693252  -0.05849329  0.5487864   0.3577227  -0.18001226
 -0.08309029  0.0131218  -0.12351926 -0.02289204  0.4059798   0.0231718
 -0.04408981  0.01974122 -0.1049373   0.05534717]
[ 0.21951416  0.20985225 -0.00174557 -0.01365406  0.13341275  0.0659382
 -0.37942642  0.12810135  0.04897797 -0.18361093  0.008806   -0.24440289
 -0.27242398 -0.03194075  0.37832186  0.28052846  0.30419642 -0.16017784
  0.1368173  -0.13528909  0.37212017  0.27433547 -0.31363365  0.05514454
 -0.21269566  0.06740633  0.19292839 -0.10475562 -0.10361439 -0.1216208
 -0.09923252  0.12797949 -0.39295512  0.13003102  0.15878066  0.19086379
 -0.22500953 -0.23347585 -0.14280015  0.1159068 ]
[ 3.9287742e-02 -5.9092619e-02  5.3861654e-01  1.1371782e-01
 -1.0900163e-01 -8.3758093e-02  2.0499063e-01 -2.6650336e-01
  3.8854542e-01 -5.0039595e-01  7.7462599e-02  1.5094768e-02
  1.3788347e-01  3.8447538e-01 -5.2446729e-01 -1.0946336e-01
 -4.5267954e-01  5.1892245e-01  2.1934336e-01  1.9492786e-01
 -1.3060398e-01 -4.3294343e-01  1.9089916e-01  7.3586144e-02
 -5.3750500e-02 -1.6897888e-01  2.5511119e-01  6.4693011e-02
  1.7393406e-01  1.1511269e-01 -1.0405304e-01 -3.8455974e-04
 -2.2818796e-01  1.0010938e-01 -3.1462130e-01  1.1353225e-01
 -2.1564899e-01  2.2256806e-01  5.2682781e-01 -2.6629880e-02]
[-0.20653747  0.05009397 -0.06355985  0.13101241  0.27793518 -0.18042924
 -0.1939564  -0.0216384  -0.00222371 -0.03962914 -0.2279684   0.02878041
  0.20074922  0.09132432 -0.07082594 -0.07112061 -0.05282178 -0.1648974
  0.1642702   0.12667234 -0.18438818 -0.07714546 -0.05873084 -0.19808109
  0.14750946 -0.13543113  0.07828952  0.21171549 -0.22901924  0.06904337
 -0.10402544  0.05623952  0.0043923   0.00718948 -0.38129228 -0.01443418
  0.12953617  0.02144796 -0.10594763 -0.20715213]
[-0.2670263   0.20664608 -0.20812659 -0.10645726 -0.18012196  0.2612042
  0.25956696 -0.09042055  0.07486142 -0.24679185  0.07122167 -0.0502702
 -0.10970218 -0.25336552 -0.04123052  0.17630523 -0.5074523  -0.02071129
 -0.37333167 -0.05621593  0.12443673  0.08343917  0.0452344   0.27342537
  0.14643656  0.04071122 -0.01660051 -0.09661641 -0.3118604   0.1550881
 -0.23869729  0.39726114 -0.1288199  -0.01966454  0.28426304 -0.19930643
 -0.112647    0.28126395  0.08554495  0.02290966]
[-0.22705789  0.02075075  0.17991695 -0.05213973 -0.08849949  0.03959872
  0.02523297 -0.18333301 -0.22007608  0.25244182 -0.04274324  0.33386606
  0.3814945   0.30012938 -0.05631228  0.20048209 -0.12470821  0.10319355
 -0.02132669  0.40888402 -0.27609223 -0.3270947   0.2944825  -0.10242825
 -0.23819554 -0.11913633 -0.03852553  0.41730317  0.15228301  0.08550841
  0.11812186 -0.19377309 -0.12100874 -0.26198557 -0.07560942 -0.20549183
 -0.08052303 -0.1636266   0.11655113 -0.03478826]
[-0.08038747  0.20792565  0.5555793  -0.03435937 -0.41300896 -0.59641457
 -0.14047007 -0.1093237   0.01730296 -0.02122575 -0.09026376  0.22935808
  0.40789405 -0.51937217 -0.58916634  0.2825908   0.08824192  0.41820082
  0.2698462   0.4815539  -0.1754825  -0.4858278   0.01427263 -0.21428552
 -0.04799015 -0.009893    0.28732657  0.03023854 -0.09364549  0.11456279
 -0.03258267  0.2653944  -0.27012798 -0.09459524 -0.20704721 -0.47948733
 -0.33605087  0.25142986  0.32942197 -0.12562613]
[ 0.09285171  0.3083036  -0.3659666   0.28201094 -0.11166467  0.02568655
  0.09194651  0.3595091   0.02259397 -0.13494658 -0.38148516  0.07267578
 -0.1490951   0.08529565  0.3447008  -0.24151498  0.08890963 -0.23162006
 -0.17193961 -0.18239275 -0.28556883  0.22065441 -0.26861218  0.2846849
 -0.2714406  -0.18276562 -0.11695065  0.08151943 -0.13445212 -0.1352505
 -0.1309223  -0.2759078  -0.02298554  0.07099859 -0.02560129  0.16238053
  0.04010963 -0.27553794 -0.24098311 -0.09111757]
[ 0.0320809   0.15582539  0.22329335 -0.27963507 -0.27485806 -0.26835534
 -0.0501641  -0.01049203  0.21672752 -0.24351394  0.06862334 -0.1430297
  0.07764919  0.3527149  -0.0070342   0.23737352 -0.43400568 -0.02086827
 -0.18164577  0.25845733  0.153207   -0.40019467  0.27269623  0.06112826
 -0.13230987 -0.08816215  0.25352222 -0.42143285  0.11661232  0.20937432
  0.2722471  -0.0090772  -0.20324768  0.19342661 -0.2244647  -0.19198166
 -0.31292507  0.50397855  0.38176322  0.07758603]
[ 0.09899002 -0.0063772   0.05099878 -0.17924166  0.0749514   0.1722056
  0.15650412  0.13253625  0.38630292  0.05145961  0.0304564  -0.19493376
 -0.09891904  0.02752264 -0.00647555  0.10255383  0.10020885  0.1675995
  0.21504964 -0.06586386 -0.16180873 -0.26415458  0.01582897  0.14994594
 -0.23689833 -0.05465025 -0.28667146  0.1861662   0.37821433 -0.21430735
 -0.23886566 -0.1859748   0.0204146   0.07679466  0.0131709   0.11223873
  0.18554346 -0.02616858  0.14090595  0.20014995]
[ 0.0387752   0.1425311  -0.2078552   0.09289955  0.31126592 -0.09519968
 -0.01918799  0.14824796  0.07208005 -0.05723782 -0.18772075 -0.17300653
  0.11389286  0.11154569  0.41153648  0.12199502 -0.04707584 -0.15730233
 -0.08817876 -0.19634545  0.2372942   0.3665424   0.3455355   0.08101916
  0.4364137   0.08188763 -0.00710566 -0.07880694  0.21916494  0.23592955
  0.10801238 -0.49617586 -0.00918876  0.17528273 -0.28932682  0.06639396
  0.01035724 -0.06380947 -0.3634976   0.09707419]
[ 0.5130367  -0.15430996  0.28014088 -0.3276576  -0.45953602  0.3602023
  0.47203064  0.308889    0.23262838 -0.7384186   0.09529259 -0.3727971
 -0.20357533 -0.20904301 -0.4173938   0.09816772 -0.10325826  0.03828277
 -0.27237016 -0.32410347  0.37287524 -0.44849294 -0.12851076  0.05084248
 -0.5293184   0.5615394   0.46596715 -0.44569424  0.21300553 -0.46701548
  0.03046525  0.22480954 -0.68392336  0.18204717  0.06623462 -0.15386444
 -0.6362712   0.5590298   0.10774297  0.400644  ]
[-0.23246242 -0.21725383  0.19220944 -0.06066025  0.01464523  0.31095958
  0.2489913   0.09646926  0.03770052 -0.3173281   0.1754027  -0.10858178
 -0.28364256 -0.29581156  0.14212927  0.11035013  0.01652386 -0.08600833
 -0.01383281 -0.36270294  0.44292834  0.01647276  0.21583652  0.02888936
 -0.06695341  0.39574036  0.314252   -0.29556662 -0.05907007 -0.31732038
  0.18586197 -0.0879196  -0.31289124 -0.1633325   0.21435146 -0.03126859
  0.04789038 -0.04839007 -0.11726886  0.05259116]
[-0.04920191 -0.20513089 -0.14482524  0.03640233 -0.1622715   0.10660268
  0.01923851 -0.16813013 -0.00782104 -0.12431043  0.11427905  0.08763701
  0.28738707  0.01246012 -0.02426224 -0.25017655 -0.17303139 -0.20485505
  0.31273443  0.2573094   0.17822914  0.3668009  -0.21368198  0.04958903
 -0.26420945 -0.14590698  0.06753169 -0.06707437 -0.0883368  -0.03115086
 -0.09419206  0.22528663  0.10489694  0.04236578 -0.18522441  0.08272213
 -0.11725956  0.05058148 -0.09323923 -0.3398656 ]
[-0.08016258 -0.03665825 -0.22884245 -0.04403608 -0.21767329  0.3603034
  0.07430807  0.06077026  0.14441726 -0.37590995 -0.41027293 -0.11386611
 -0.01005867  0.06507539 -0.23241627 -0.08313178 -0.06525064 -0.40883195
 -0.25036693 -0.24959755 -0.04768799  0.24380568  0.10816772  0.2411436
 -0.00335973  0.05771359 -0.02487892  0.03337458  0.06860565 -0.22902493
 -0.20072469 -0.01507827 -0.19984286 -0.08603507  0.14406416  0.1129255
 -0.44291762 -0.03115948  0.18167204 -0.0060174 ]
[ 0.16440281  0.02696331 -0.17942305  0.1895972   0.10256036  0.13408
 -0.22664739  0.20680448 -0.12912346  0.20070882 -0.17016412 -0.01625699
 -0.1038807  -0.13871296  0.2460457  -0.12440906  0.416717   -0.26344967
 -0.00934043 -0.06776663 -0.10306843  0.15371534 -0.20309205  0.0492544
  0.02340114 -0.00375622 -0.16568807  0.13803838  0.12909816 -0.13476141
 -0.082159   -0.06567428  0.15023103 -0.04411573  0.04604941  0.14488398
  0.35732993 -0.28286654 -0.10695706  0.18045048]
layer 3 Activation
tanh
layer 4 Dense
40 20
[-0.0561719   0.26486498  0.01280934 -0.04240508 -0.20302278 -0.10209331
 -0.07319837 -0.14523861 -0.18501127 -0.00641399 -0.19902958  0.03939548
 -0.02817901 -0.12918563  0.03543221  0.07081319 -0.18104847 -0.11256022
  0.14467564 -0.22438465]
[-0.08181093  0.05466313  0.12240896  0.015343    0.03654662  0.1001337
 -0.10033591 -0.03589728  0.01938819  0.23650873 -0.17462932 -0.22224091
  0.25231013 -0.10581085  0.03512687 -0.0216812  -0.00605779 -0.03419486
  0.04002033 -0.13520233]
[-0.35577804 -0.05218709  0.08615897 -0.1364273   0.3096607   0.21086456
  0.1014597   0.21687128 -0.07986586 -0.08468344 -0.19450414  0.26848444
  0.18413937 -0.2191738   0.20127988  0.15120158 -0.34002456  0.01380824
  0.1895189  -0.23874938]
[ 0.04404595  0.04401796 -0.17769882 -0.17958762 -0.09192818 -0.01871919
 -0.15973248 -0.28253424  0.09086172  0.08776131  0.05607273  0.01443324
  0.00795243 -0.00891219 -0.15591687 -0.04784283 -0.15614179 -0.18330584
  0.22935839  0.20202173]
[-0.24105674  0.2990741   0.00238183 -0.04884973 -0.1469374   0.1485711
 -0.40024003 -0.01363135  0.14195631  0.24269056  0.2511185   0.16811994
 -0.1011636   0.2615822   0.02601025  0.14465097  0.10417494 -0.16690554
 -0.19308288  0.2210537 ]
[ 0.1708975   0.02493031  0.11089189  0.303162   -0.09085386 -0.19078083
 -0.09380058 -0.04530578  0.17783527 -0.39254066  0.00852756  0.01735256
 -0.31539303 -0.31936842  0.09597741 -0.18276656  0.1783631   0.09389482
 -0.22663185 -0.1839237 ]
[ 0.09443405  0.02144343  0.20285377  0.02357747  0.05924958 -0.10797901
 -0.01892305  0.02781185 -0.18577516  0.04129967 -0.09078494  0.11588494
 -0.27554357 -0.21931076 -0.19544725  0.05302378 -0.08589344 -0.22408836
 -0.37705493  0.21737292]
[-0.05679789  0.23276818  0.21601743  0.14457399 -0.17486541  0.04493779
  0.13628551  0.1581904   0.04416979 -0.06178186  0.20053011  0.1097751
 -0.23753649 -0.07783945  0.09479259 -0.1525624  -0.04391377 -0.07633748
 -0.03659569  0.05694434]
[ 0.05076928 -0.31018272  0.09956215  0.14607456  0.2275791  -0.274308
 -0.12391817 -0.1934338  -0.04804262  0.10762288  0.03944339  0.29612428
 -0.36764646 -0.19016878 -0.08289372 -0.14627847 -0.3869473  -0.03501834
 -0.11972439  0.16979015]
[-0.02383758 -0.21855105  0.02786692 -0.29400694 -0.32514918  0.3043154
 -0.15537745 -0.08122662 -0.01335323  0.2072175   0.07422942 -0.1247016
  0.2424253   0.2267293  -0.24891676 -0.07038131  0.18887767 -0.25465307
  0.18295398 -0.13506885]
[-0.17212321 -0.01824763  0.1416573  -0.17552546  0.13623129 -0.19371974
  0.06538182  0.0036174   0.00903792  0.22999349  0.06933795 -0.09734972
 -0.1977496   0.25307873 -0.15884127 -0.11713794 -0.2556813  -0.00508129
  0.1168925  -0.03745558]
[ 0.15737653  0.19782643  0.13601036 -0.09756207  0.06433716  0.2015363
 -0.10684494  0.06851406 -0.1599685   0.00936924  0.04441186  0.00298386
  0.02904795  0.11788607  0.07291836  0.05317311  0.2494884  -0.1694256
 -0.06944204 -0.1450622 ]
[ 0.02129314 -0.20266342  0.09257384 -0.30296615  0.16818383  0.15163743
 -0.12525249 -0.07391082 -0.02090722  0.18856369  0.20351203 -0.13747963
 -0.10389194  0.00069476 -0.13756476 -0.28388354  0.18919954  0.2067897
  0.25225255  0.02484159]
[ 0.05822201  0.12949128 -0.2565014   0.12401566  0.1273165  -0.13835038
 -0.45026106 -0.01327283 -0.18248262  0.32051897 -0.16460083 -0.23112118
  0.00302984  0.15787134 -0.07398013  0.16050406 -0.06512845 -0.20732711
 -0.31206807 -0.05462817]
[-0.03205462  0.11206404 -0.16810025 -0.12616526 -0.00874557 -0.21621986
 -0.07095409  0.07024105  0.31380865  0.09861054  0.08870213 -0.15503053
  0.2504886   0.35170007  0.06081225  0.04395603  0.00503149  0.14424613
 -0.15783857  0.14391914]
[ 0.0948994  -0.12741368  0.09838681 -0.11162086  0.26623663 -0.25875342
 -0.09791537 -0.02078611  0.04764109 -0.1309299  -0.01528056 -0.22451873
 -0.02108833 -0.36146647  0.09126408  0.10094462 -0.09293152  0.02994619
  0.37779155  0.2621414 ]
[ 0.10262415 -0.00371602 -0.14093807  0.13664725 -0.35675657  0.4066807
  0.07091837 -0.11651275  0.24131088 -0.2765049   0.08288476  0.0061203
 -0.00311542  0.07242988  0.03555137 -0.06009756 -0.26128674  0.06202844
  0.14461215  0.25588757]
[ 0.25131086  0.04798078 -0.0801537  -0.0173333   0.17711076  0.10597754
 -0.17179957  0.00670642 -0.2998288   0.18234713  0.15567404  0.0894734
 -0.15653156 -0.00770777  0.22402902 -0.16358984 -0.26609856  0.22510846
  0.0986637  -0.1400446 ]
[ 0.03878523 -0.05783912 -0.20074852 -0.20118502  0.14445332  0.3134478
 -0.3000532  -0.07082373 -0.16474183 -0.11944598  0.1086709  -0.29650044
 -0.09412255  0.2892832  -0.12791774  0.15552674 -0.03542541  0.19267035
  0.03593704 -0.00414362]
[ 0.21278308 -0.13634114  0.2228002  -0.27443665  0.12317459  0.3000524
  0.07755513 -0.06999681 -0.2591016   0.04313041 -0.19082674  0.06323494
  0.0433089   0.29599404  0.21423718 -0.24535468  0.16322574  0.12878655
  0.4193712   0.12373701]
[ 0.09722124  0.03906502 -0.24126096  0.46940666  0.08577491 -0.01745263
  0.38665074 -0.0097329   0.34706053  0.17458999  0.01742648 -0.25005332
 -0.16082606 -0.16823654  0.03723258 -0.05519709  0.04332522  0.18028001
 -0.03013287  0.15328716]
[-2.0790173e-01  3.8634278e-04  1.4993043e-01 -8.0111809e-02
 -4.7533590e-01 -1.6428240e-01  2.5954539e-02 -8.0210127e-02
  4.2518780e-01  1.9034275e-01 -2.9373795e-01  4.3779101e-02
  3.5829982e-01  3.4100753e-01  1.8764302e-01  8.0136262e-02
  4.2397112e-01  1.2733573e-01 -1.8647587e-01  4.4779146e-01]
[-0.18880501 -0.2497574  -0.11956556  0.08330079  0.20605914 -0.23418356
 -0.17793292  0.0752974  -0.16730534  0.22967465  0.10162991  0.00380923
 -0.09089062  0.03268882 -0.24295585 -0.14182529 -0.02536813 -0.00771556
 -0.19046582  0.09358713]
[-0.04070856 -0.23328124 -0.15849175  0.24157818 -0.12470736 -0.30904645
  0.05184027  0.19713508  0.06218852 -0.08457097  0.10545364  0.1310908
 -0.3612468  -0.28197142  0.14497305 -0.12193316  0.2068885   0.02779756
  0.18117636 -0.16795832]
[-0.10800452 -0.28612107  0.16224332  0.2740164  -0.4488463  -0.18287894
 -0.23164906 -0.06665321  0.22000816  0.3152854   0.01374968  0.03508909
 -0.04789827  0.34021845  0.21185575  0.1903358  -0.19535393 -0.21005996
 -0.14914362 -0.20120512]
[ 0.17083421  0.09611268 -0.12439124  0.41725165 -0.06822392 -0.16129428
  0.31320873 -0.17186     0.13630204  0.06478953  0.06585387 -0.11069027
  0.02691276 -0.1711476  -0.1311005   0.14040053 -0.35445946  0.14192905
 -0.24917714 -0.10204557]
[-0.02032449  0.02316464 -0.1764255   0.21903536  0.12232799 -0.14936619
  0.01981384  0.22182749 -0.17944057  0.0246643  -0.07899605 -0.06297927
 -0.11532876 -0.3464844  -0.12032634 -0.05878451 -0.05486104  0.03275964
 -0.20580435  0.13896562]
[ 0.01119981 -0.13386999 -0.23371413 -0.1303616  -0.07143687  0.2122893
 -0.25901392 -0.02525708  0.06594162 -0.17782098 -0.10671159  0.03135758
  0.1295616   0.22636247 -0.1467963  -0.12520346 -0.08712169 -0.19219889
  0.21941365 -0.00211806]
[ 0.23227243 -0.29014575  0.23784159  0.0259252  -0.0588245   0.05954886
 -0.1632061  -0.17035523 -0.11079505 -0.19143881  0.04951626  0.02936419
 -0.08080036  0.01016591 -0.20934299  0.05484194  0.13158408 -0.04206073
 -0.27907875 -0.1977635 ]
[ 0.18042156 -0.25250232  0.06575272  0.21595797  0.19228598  0.11109298
 -0.18754052  0.03810803 -0.08925202  0.32246658 -0.22014314  0.20443143
  0.00329916  0.00102805  0.20670852 -0.13713455  0.26700848 -0.1218328
 -0.21778691 -0.15973072]
[-0.03831703  0.207597   -0.22433135  0.07343732  0.18434519 -0.03469899
  0.16393916 -0.29708874  0.05825021  0.08584502 -0.03576837  0.376599
  0.05351878  0.24268869  0.15063292  0.1123524   0.1679301   0.13461643
 -0.33991858  0.05377128]
[ 0.16657637  0.0530658   0.17364195  0.19521815  0.18493764  0.0992332
  0.2077771   0.15345922 -0.12303522  0.17375539  0.17588292  0.05357052
 -0.07846059 -0.11206297 -0.03363917  0.11223079 -0.0531719  -0.2754014
  0.06043221  0.21897261]
[-0.2125224  -0.03844116 -0.25640804 -0.22423716 -0.23377243  0.05514335
  0.06478047  0.12010926 -0.21627694 -0.1515242   0.22779772  0.16783376
 -0.09923629  0.4387154   0.06054095  0.14763366  0.09705725  0.21643935
  0.35755765 -0.13540684]
[-0.15734603 -0.12759934  0.04375669  0.15895568  0.10458238 -0.09168728
 -0.14129525  0.1391266  -0.06747551  0.00634278  0.12532555 -0.11982643
  0.10681237  0.05395007 -0.0876782  -0.08450326 -0.06120279  0.0150971
  0.06260246 -0.00815547]
[ 0.16710904  0.11213769  0.05762981  0.04284151 -0.12836142  0.03180305
  0.17940283  0.0380308   0.19908153 -0.07313073 -0.22152443  0.05955214
  0.22664171  0.24420711 -0.2084348  -0.09676369 -0.24992153  0.25191867
  0.21437734  0.14808874]
[-0.06068158  0.16961706  0.11138006 -0.1589975   0.00699926 -0.04898546
 -0.26570132  0.16545267  0.3310357  -0.35009262  0.06339035  0.04747564
  0.01540483  0.16318245  0.08222713 -0.09409057 -0.07741877  0.10209386
  0.10893404  0.14552292]
[ 0.00045391  0.11122444 -0.049591    0.04262228 -0.31400996  0.27203402
 -0.24705087 -0.17120774 -0.09314726  0.1900361  -0.3120008   0.21579723
 -0.06753248  0.22752237 -0.0598493   0.1435904  -0.05430422  0.09342256
 -0.16365954 -0.15165785]
[ 0.19208495 -0.2509609   0.09208462 -0.18775345  0.2823443  -0.36905682
  0.33720958  0.08885138 -0.21001191  0.21672083  0.27800956  0.09491383
 -0.2882319  -0.16144459  0.18087229  0.05569604  0.13550162  0.11524608
 -0.11136441  0.06840777]
[-0.28648764  0.0052952  -0.14153567 -0.27152762  0.3407711  -0.19509226
  0.2904629   0.17478134 -0.11337881 -0.22146925  0.07892134  0.30686072
 -0.08191024 -0.34468776 -0.31320682  0.33966812 -0.06278453 -0.19493343
 -0.06865989  0.03618546]
[ 0.11264796 -0.267365    0.02006335 -0.0497309   0.03504655 -0.05262083
  0.0328494  -0.36466792  0.22531019  0.0330532  -0.13189976 -0.07709445
  0.06721379  0.12934166  0.15695879  0.09125757 -0.20001471 -0.14727971
 -0.08628367 -0.18589024]
[ 0.04909357 -0.02398531  0.06082922 -0.07818677 -0.1453246   0.15573932
  0.0373944   0.1830835   0.02584485 -0.09103972 -0.00159409  0.00876445
  0.04153584 -0.07241163 -0.02202712 -0.02400788 -0.09832031 -0.06092156
  0.04124251 -0.04524501]
layer 5 Activation
tanh
layer 6 Dense
20 1
[0.00381873]
[-0.01788666]
[0.01017281]
[-0.04695298]
[0.18056753]
[0.15873663]
[0.08628668]
[-0.00742083]
[-0.07399942]
[-0.08089475]
[-0.00411027]
[0.01102081]
[-0.00470658]
[-0.07450283]
[-0.03096453]
[0.00252001]
[-0.06239252]
[-0.00260325]
[0.00134286]
[-0.03778707]
[0.19298689]
