layers 7
layer 0 Dense
20 20
[-0.25193986  0.4012578  -0.45174065  0.03448211 -0.67607933 -0.4567273
 -0.49223113 -0.23964942 -0.6633363  -0.38154662 -0.404383   -0.08219936
  0.14478266 -0.24198712 -0.21208782  0.09240997  0.15651765 -0.51361287
 -0.48391348  0.08308088]
[ 6.8260849e-01  5.7902682e-01 -3.6590266e-01  1.1239300e+00
  6.5989673e-01  6.4517564e-01  1.0347840e+00  7.0031965e-01
  7.8033429e-01  4.4376063e-01 -2.1628022e-01 -2.1166427e-01
  7.2980392e-01 -7.7368820e-01 -3.7013912e-01 -9.5837690e-02
  1.0053808e-01  2.8768370e-01 -5.0816417e-04 -2.6258314e-02]
[ 0.2373716   0.7972488  -0.47059196  0.52264714  0.02939543  0.4176693
  0.50301784  0.48652202  0.8721309   0.30490172 -0.83957607 -0.19370106
  0.9303407  -1.0398169  -0.0408004  -0.4162887   0.42969477  0.28885496
  0.37246752  0.1692047 ]
[ 0.24912556 -0.12669869 -0.5482664   0.08477875 -0.36876526  0.0993368
 -0.30302417  0.13920522 -0.389095    0.42329863 -0.643846    0.6677619
  0.1209893  -0.7789961  -0.08424824  0.02697837  0.16986138 -0.63615805
 -0.04254866 -0.0910962 ]
[ 1.1537272  -1.0218661   0.52795607 -0.26261568 -1.1544851  -0.1195927
 -0.12817013  0.2983063  -0.4966174  -0.03683574 -0.35909277  0.60429007
 -0.7173388   0.08863072  0.7017038   0.3169585   0.10761223 -1.8226256
 -0.34119898 -0.18452153]
[-0.36655116 -0.6813018   0.9076078  -0.91428727  0.12844253 -0.537567
 -0.9953601  -0.4548104  -0.26329157 -0.12326469  0.6128283   0.05847857
 -0.82515955  0.77996397  0.39445043  0.2920736  -0.32298315 -0.27113545
 -0.47557408 -0.21811378]
[-0.7416464  -0.8253788   0.326721   -0.58702517  0.10497962 -0.417943
 -0.3858588  -1.0389211  -0.22339262 -0.14810517  0.50829774 -0.46206322
 -0.73631215  0.85567933  0.13790257 -0.2171859   0.04845538  0.04601232
 -0.078354   -0.23103888]
[-0.42915788  0.03761298 -0.05378318 -0.23235312  0.08316246  0.67976326
 -0.20811318  0.37954605  1.1670517  -1.1170294   0.54310966 -1.1225523
  0.04176977  0.97142243  0.14095429  0.57131565  0.17219178  1.4007055
 -0.34914497 -0.09404599]
[ 0.7100678  -0.09456818 -0.49358603  0.17824967 -1.7154813   0.9203005
 -0.46997264 -1.6155857  -0.8063852  -2.7156665  -0.02095574 -0.5315621
 -1.1017514   0.06720839 -0.25360107  0.07563642  0.18115345 -0.80834705
  0.32454848 -0.8981086 ]
[-0.09216563 -0.9977353  -0.6986201  -1.019547    1.5962063  -1.1812949
  0.00902345  0.19963112 -1.7052567  -0.46518672 -0.4208925  -0.99382025
 -0.8714022   0.96318936  2.5227692  -0.04949811 -1.2522901   0.4507475
 -0.96732986  0.97564507]
[-0.8950217   0.68755865 -1.3705997  -1.1910038   0.82700926  0.6667516
  1.8078493   0.30806303  0.27742425  0.34748042  1.3281085  -0.23369719
 -0.40906155  0.92122275  1.1972932  -2.1095061   0.2728266   0.2319003
 -0.62290865 -2.1680288 ]
[-1.2087463   1.1315833   1.1238091   2.1150596  -1.6353953  -0.47893158
 -0.47317237 -3.173906    0.0604211  -2.6121955  -0.5437972  -0.38062274
  0.2174233  -0.73146    -1.3162737  -0.11873826 -0.10381941  1.0824528
  0.47545704 -0.37988815]
[ 0.94604176 -1.0847536  -0.51922584 -0.782183   -0.55086106  0.5978503
  0.92606026 -0.20723154 -0.12093476  0.0430905  -1.0882978   0.34919533
  0.18217808 -0.4441565   0.8262921   0.66890943  0.7063154  -1.3955369
  0.15492274  0.4694889 ]
[ 1.3010775   1.5136241   0.02607095  1.25662     0.2438365   1.1270247
 -0.61819315 -0.30584532 -0.42920566  0.68442667  0.46042272  0.42225173
  1.8026276   0.6255612  -0.9225324  -0.3237077   2.2158067   0.0485424
  1.5372638  -0.6620588 ]
[ 1.4401915  -0.41717392  2.054047    0.20017637 -0.4718704  -0.8135566
 -1.5642728  -0.2845791  -0.28270936 -0.7362252  -0.14637983  0.4877711
  1.4729925  -0.8636671  -0.7680211   1.4100671  -1.464115    0.9024905
  1.6189454   0.13254434]
[-0.3110029  -1.0212313  -0.73070544 -1.2702149   1.5096363   0.215489
  1.1735499   1.2626272   0.87591815  0.9611892  -2.3889067   0.68668073
  0.28601965 -1.5511482   0.2645905  -0.36792266 -0.46457142 -2.4060206
 -0.03337895  0.11011269]
[ 0.36607677 -0.39834705  1.2832348   0.60889304 -0.5892896  -1.7100726
 -1.1429404   0.10922213  0.17656241  0.5076073   1.4801644   0.3148021
 -0.6877005   0.8782416  -0.06523167  0.30528742  0.23681906 -0.9601072
 -2.076394   -1.4327207 ]
[-0.820444   -0.48089623 -0.07633215  0.31326964 -1.2647954   0.32406902
  0.517542   -0.43379888  1.479391   -0.55246544 -0.1765384  -0.03509929
 -0.6498551  -1.3145916  -0.62565476 -0.09298065 -0.5090217  -0.46892816
 -0.36738268 -0.23420453]
[-0.45363405  0.07322711 -0.39872667  0.7274784   0.08569723  0.15040652
 -0.272527   -0.51520145  0.14021984  0.63950574 -0.92354333  0.24356012
 -0.86289996 -0.06605019 -0.6957216   0.27517253  0.84438205 -0.3669311
 -0.31207693  0.83907306]
[ 0.07183442  0.7563908  -0.3199039   0.11012144 -0.19288515  0.9698951
 -0.40312198  0.01689542  0.24269503 -0.13381265  0.7505433  -1.041334
 -0.5080573   0.65686     0.17885984  0.94921225 -0.4047533   0.5781276
 -0.5227419  -0.28105164]
[-1.2032697e-01  1.8144433e-01 -4.6863389e-01  2.9102683e-01
  3.6109701e-01 -1.4616854e-01  3.3623673e-02  6.0620089e-04
 -4.3688133e-01  6.8858528e-01 -3.8951188e-01  3.7912598e-01
  3.9944333e-01 -6.8259096e-01 -2.9519504e-01 -4.5894721e-01
 -1.2827337e-01 -1.4900210e-02  3.9191353e-01  3.5250953e-01]
layer 1 Activation
tanh
layer 2 Dense
20 40
[ 0.6534082  -0.05688142  0.67840886 -0.8140934  -0.8993116  -0.1740633
  0.43452808 -0.11083465 -0.99257606  0.14995238  0.16791432  0.18664272
 -0.59111243 -0.11430371  0.33419046  0.7597186  -0.40643722  0.3038563
 -0.219001    0.04434026  0.10365552  0.1969117   0.4327911  -0.08038737
  0.10649086 -0.02077757  0.38481358  0.02728378 -0.5834435  -0.53465766
  0.5727366  -0.91068137 -0.33617106  0.4857849   0.00734034  0.40403116
  0.0835252  -0.5742608   0.3964966  -0.45467675]
[-0.94607574  1.0369337  -0.19835828  0.33234128 -0.03121765 -0.4469777
  0.25111458  0.34041384  0.06231438  0.4115473   0.09091731 -0.6504354
 -0.27709666  0.40989512 -0.15336007  0.25227752 -0.43301636 -0.8056821
 -0.16342056  0.30993432  0.1752283   0.26594085  0.7844968   0.65370005
 -0.3096195  -0.3089832   0.73018515  0.01556169 -1.1253755   0.8693716
  0.00317136  0.56387264 -0.47767723  0.21197109 -0.85989064  0.2127135
  0.4344264  -0.01513735 -0.65074956  0.0075806 ]
[ 0.31452876  0.11908709  0.38489413 -1.6785886   0.6607856   0.45084035
 -0.0832098  -0.47386098 -1.4338465   0.04190152  0.4352178  -0.2853885
  0.38480905 -0.3281462   0.7856098   0.4782361  -1.2389076   0.42421028
 -0.6267617  -0.5422788  -0.20651983 -0.43137503  0.31505734  0.05963174
  0.30170146 -0.0388982  -0.34581006 -0.19329342 -0.7124082  -0.10378437
  0.72516924 -0.8462266   0.9641027   0.46117318  0.11746641 -0.46950564
 -0.08653449  0.02318532 -0.16660191  0.5209342 ]
[ 2.9231086e-02  8.4140998e-01  5.7018661e-01  1.4561142e-01
  7.6500374e-01 -1.1513609e+00 -2.7398866e-01 -3.2529704e-02
  6.0426158e-01 -3.5704049e-01  9.4937903e-01 -5.3578204e-01
 -2.0003691e-03 -6.7723945e-02 -7.1130633e-01  7.7920055e-01
 -8.0906826e-01  6.0482584e-02  8.6854053e-01 -2.4113984e-01
  1.5055265e-01  2.1723211e+00  6.9053763e-01 -4.2449594e-01
 -8.5702963e-02  7.6630495e-02 -8.3249867e-01 -2.3120484e-01
 -7.6120055e-01  9.6409714e-01  2.6398805e-01 -1.0769740e-01
 -3.4037733e-01 -4.8086050e-01 -2.6824200e-01 -1.7076708e+00
  8.0171011e-02 -3.5071072e-01  7.1020216e-01  6.0865986e-01]
[-0.39521423 -0.778699   -0.43090358  0.38539374 -0.17927924  0.23068288
 -0.6942038  -0.39869052 -0.85925996  0.16749509 -0.7152814  -0.60709983
 -0.8776078  -0.18974914 -0.24973452 -1.2879713   0.7356235   0.87594724
 -0.40685523  0.2562088  -0.26434875 -0.1911927   0.7065433   1.1882068
 -0.19940966 -0.2675612   0.32156014  0.24871689  0.779635    0.11548167
  0.33766428 -0.6043083  -0.21671017  0.41078377 -0.30680394  1.407475
  0.23833632  0.18563145 -0.24521099 -0.9104965 ]
[-0.7014429   0.51656663  0.38554505  0.38259125  0.23780984  0.17819844
  0.3269392   0.352918    1.1006186  -0.27915686  0.6570888   0.23293446
  0.34187272 -0.25370786  0.35962167  0.07736041 -1.0781512   0.94578296
  0.3664767  -0.61859804  0.7655905   0.8315436  -0.38483414  0.19596529
  0.21785079  0.26050436 -0.8100382  -0.30132207 -0.49646348  0.07009085
  0.540922    0.5980009  -0.45242393  0.12410226 -0.6491359  -0.32314113
 -0.7190853  -0.48696327  0.45414618 -0.4703405 ]
[-0.2832282  -0.02393375 -0.38682455  1.3642168   0.30882567  0.6119713
  0.48220167  0.12401544  1.3582886   0.29075137 -0.26755545  0.30271342
  0.7107682  -0.31752598 -0.35906452 -1.0417624  -0.42523214  0.68434733
 -0.6506246  -0.19612831  0.22194232 -0.77044946 -0.805243    0.89952046
  0.6073868   0.22868364  0.43268177  0.823004    1.2484772  -0.30037472
 -0.90577507  0.94357556  0.04926987 -0.4088959  -0.14572166 -0.06419314
 -0.02211905  0.36914426 -0.72465134 -0.8550026 ]
[-0.12699787  0.32191715  0.25375292  0.33739117 -0.0660762   1.410059
  0.250411   -0.37005743  0.3311779  -0.04596709 -0.62017435 -0.06509447
  0.31610093 -0.07983922  0.58356136 -0.81973064 -0.36717302  1.0463281
 -0.95413065  0.14857481 -0.174292   -0.4716623  -0.17961602 -0.17074527
  0.01565019  0.193397   -0.10535882 -0.2088521   0.36175922  0.07857766
  0.2731166  -0.02386242  0.23222497  0.4426967   0.89412564  0.42503715
  0.2012469   0.44769144 -0.06459121 -0.7175085 ]
[ 0.8260133   0.67232454 -0.70117396 -0.40273845  0.12737878 -0.08187649
 -0.62041116 -0.19985317  0.10612323  0.22151117  0.35509118 -0.5278229
  1.7269841  -0.27749026 -0.12184788 -0.12066787 -0.8641729   0.40355182
 -0.4396755  -0.3034263  -0.967985   -0.20545307 -1.2376044   0.8074638
  0.4924752   0.80191576  0.66335493  0.17490585  0.08430567  0.32568046
  0.39646766 -0.4190883  -0.23274797 -0.83765626  0.37438574 -0.50478846
  0.39846525  0.06452633 -0.9442216  -1.1635939 ]
[ 0.12114938  0.94268435  0.5686918   0.49567613  0.47342893 -0.21573491
  0.20299274 -0.4274674   0.71545136 -0.43838984 -0.05799322  0.4777597
 -0.43602192  0.5779898  -0.28186664 -1.2487738  -0.5904429   0.06059908
 -0.6456071   0.0752167  -0.49930844 -0.01844929  0.7489731   1.5972326
  0.029467    0.70071757 -0.55501753  0.00514556  0.20826654  1.5586038
 -0.41357365 -0.4800277  -0.7341263  -0.26811463  0.7316313   0.2104178
  0.47098976  1.2465762  -1.1053282  -0.51929057]
[ 0.54977506  0.439918    0.14672609  0.3874521   1.0019637  -0.21436833
 -0.1077332  -0.05510216  0.4582402  -0.17163393  0.52493155  0.09157079
  0.25299084 -0.0374828   1.3263451  -0.54032737 -0.52866036  0.31249648
 -0.09984875 -0.3678275  -0.0368464   0.18660113  0.3458461   0.22536163
  0.2904711  -0.10940547 -0.20995343 -0.1010531   0.4432208  -0.1475937
 -0.15300392  0.11763071 -0.20516355 -0.598345   -0.33828375  0.00818261
  0.15751751 -0.36891547  0.20192374 -1.2170423 ]
[-0.09764636  0.12034031  0.20551871 -0.21426561  0.6135079  -0.5958337
  0.8607354  -0.08715314 -0.21721517 -0.09257898  0.51565146  0.19450907
 -0.08616806  0.6616652   0.44872248  0.31700554 -0.18700972 -1.0262392
 -0.46578783  1.067854   -0.01478345 -0.32740995  0.36505708 -0.32191136
 -0.95232123 -0.5933526  -0.3429622  -0.5680901   0.00287442  0.4270458
 -0.89704233 -0.74697906 -0.4999806  -0.5070065   0.696783   -0.34043512
 -0.0539311   0.69944376  0.5568526   0.4470944 ]
[ 0.54403764  0.6091167   0.05474027 -1.381903   -0.51053053  0.4262834
  0.12977532  0.22055899 -0.55886835 -0.12515962  0.64244604 -0.75485814
 -0.41849902  0.34888262  0.8658219   0.7744226  -1.4766567   0.54867995
 -1.754847    0.27801943  0.38619316  0.35017705  0.7604376   0.77901816
  0.09496     0.05119091 -0.05054101  0.304005   -0.5792197   0.5692257
  0.9657735  -0.88527703 -0.49099937 -0.93649393 -0.14389299 -0.21651423
 -0.15288687  0.6248978  -0.01710649 -0.42164904]
[ 1.7541232   0.30332226 -0.29555237 -0.17192559 -0.11882861  0.14445253
 -1.0044717  -0.07947834  0.27650976 -0.3138216   0.31190303  0.4086441
  0.55138457 -0.5925144   0.4209379  -0.461542    0.09719219 -0.2508982
 -0.5872135  -0.63900834 -0.7994578  -0.7725839  -0.0569843   0.70511955
  0.40812057  0.75688255  0.02434324  0.00607702  0.39141297  0.25276488
 -0.25821418  0.3002752  -0.18699466 -0.73654556 -0.47671968  1.061257
  0.32950914 -1.1920578  -0.80309945 -0.5529591 ]
[ 0.06982093 -0.53395253 -0.30039197  0.18102327 -0.96984905  1.1860477
  0.4482873   0.10659686 -0.5797514   0.07991974 -0.90620685  0.40144342
 -0.45520538  0.5184353   0.30326855 -0.6287566   0.82403433 -0.7918776
 -0.11164529  0.2353302  -0.05988983 -1.813268   -0.01636729  0.5539761
 -0.09808637  0.3194156   0.3459595   0.6478411   1.3786949  -0.8904308
 -0.4543931   0.4556821  -0.21049275 -0.3796612   0.22562496  2.1116993
  0.055313    0.15138185 -0.43333587 -0.6973993 ]
[ 0.00626971  0.6049887   0.82728565 -1.3131299  -0.6885081   0.65185946
  0.25781333 -0.6045367   0.42003533  0.07816762  0.37915528  0.16024916
  0.30851248 -0.45540383  0.0931297   1.1817559  -0.5419649   0.49968708
  0.43345925 -0.34955445  0.48257568  0.6033658  -0.6304479  -0.45309037
  0.7248653   1.4166633  -0.42095357 -0.5955664  -1.0695451  -0.8516259
  0.78934616  0.22194833 -0.11716957  0.4407548   0.08290299 -0.40252852
  0.29986605  0.57909137  0.42361745  0.30969495]
[ 0.26001066  0.8918175  -0.093393    0.40634304  0.9535614  -0.45782664
 -1.1873273   0.02336176  0.13118659 -0.08231604  1.1502875   0.8473833
  0.07421733 -0.1796002   0.60866743 -0.8366823  -0.7731739   0.51142126
 -0.6740748   0.04460156  0.1841283   1.11821     0.74183     0.07782073
  0.13683426  0.26902235 -0.4179028  -0.7240105  -1.0336423   1.7037921
  0.06687811  0.01341467 -1.1277453  -0.60942245  0.19979061 -0.06111593
  0.28812793  0.01290888 -0.67126834 -0.26643085]
[ 0.83679664 -0.699738   -0.08712316 -0.3474691  -0.6770463  -0.07682409
 -0.02754626  0.0782474  -0.1681909  -0.19782439  0.20738892 -1.9753777
  0.3288777  -0.21586609  0.07131996  0.5205245  -0.76285493 -0.3051694
 -0.4172182  -0.10010664 -0.83138067  0.19538136 -0.01118744  1.1080096
  0.46919718  0.25081795 -0.13940111 -0.47247    -0.15219799 -0.83053046
  0.5806968   0.36124873  0.4202373   0.522874   -1.1050627  -0.5850072
  0.2101369  -0.39896652  0.29370806 -0.7518791 ]
[-0.5256867  -0.37572852  0.35142925 -0.34281775  0.31850043 -0.465979
 -0.02518453  0.21304971 -0.39752424  0.02457591  0.24993864 -0.01629359
 -0.7900884  -0.32982197  0.13987854 -0.57429177  0.48553517  0.94346255
 -0.36973962 -0.28006706  0.4416238   0.8085294   0.6718917  -0.18302555
  0.1586661  -0.61141384 -0.18091285 -0.43979123 -1.5733173   1.6754465
  0.49305317 -0.08918317 -0.02554652  0.09468894 -0.37749997 -0.83877003
  0.0547847  -0.5786831   0.02545002  0.47969323]
[-0.09287294 -0.7265437  -0.03299678 -0.5744189  -1.233292    0.50852406
 -1.184818    0.0352705  -1.2590939   0.51131314 -0.11954218 -0.56198883
 -0.2882074  -0.44478747 -0.8416691  -0.34421304  1.1546414   1.420476
  1.0236713  -0.373559   -0.0294424   0.58151335 -0.08031039 -1.0328925
 -0.26394734 -0.5107509   0.84499764  0.06918263 -0.8424199  -0.23311433
  1.4018718  -0.4997155   1.1033065   0.35439312 -0.36667     0.11224485
 -0.31528148 -0.13823518  0.35763624  1.1302342 ]
[-0.36476684 -0.11893824  0.01058253  0.14574353  0.10211116 -0.25073767
  1.2030106  -0.03714788 -0.4572959  -0.29408488  0.22537185  0.41204718
 -0.8565773   1.6169462  -0.19981667 -0.19986711  0.37364262 -1.1642791
 -0.23052904  1.3116772   0.2634576   0.01273216  0.61087847 -0.07419488
 -1.1607128  -0.9526476  -0.05282517 -0.44129738 -0.02619871  0.63532454
 -0.6360706  -0.3168166  -0.17908363 -0.39885917  0.40262413 -0.12348573
  0.02036965  1.643053   -0.08321135  0.5197328 ]
layer 3 Activation
tanh
layer 4 Dense
40 20
[-0.37377277  0.254241    0.48960215  0.01901161 -0.17103347 -0.38573334
 -0.21411858  0.5633241   0.32021976  0.40947616  0.13843517 -0.41091514
 -0.304811    0.02940792 -0.29196113 -0.4608104   0.3407262   0.19060855
  0.6557202   0.01219904]
[-0.3308279  -0.48203844 -0.20099448 -0.14724289  0.19850545 -0.47070816
  0.27278838 -0.0339481   0.90660113  0.10962194  0.72900605 -0.00320791
  0.38929215  0.11677708  0.04160983 -0.22152463 -0.3414634   0.45022345
 -0.11929203 -0.22329599]
[ 0.25155324  0.3137217   0.5506486  -0.05107091  0.3975568  -0.76186377
  0.21514101 -0.20076573  0.37707558 -0.09433003 -0.01214613  0.05181629
  0.35353395  0.0384118  -0.26283944 -0.21149243 -0.40629518 -0.05733829
 -0.19692908 -0.12510245]
[ 3.5507441e-01 -7.1168011e-01  5.8723289e-01 -1.0827645e+00
 -1.2852787e-04 -4.1166270e-01 -1.8601589e-01  6.6125548e-01
 -3.2064158e-01 -6.6471887e-01 -6.5199494e-02 -5.4307994e-03
 -6.5267068e-01 -4.7006300e-01  1.0632385e+00 -3.2907036e-01
 -1.3232869e-01 -6.1145794e-01 -7.3391062e-01 -2.5492229e-02]
[-0.5307154   0.10239076  0.8383075  -0.5150705   0.37215292 -0.5676784
  0.44132677  0.03596316  0.7591661  -0.11338085  0.66150814  0.10964249
 -0.06919807 -0.00931019 -0.1015742  -0.7473603  -0.70138264  0.72829664
 -0.2805527  -0.32489195]
[ 0.02285122  0.14826562 -1.068842    0.30085656 -0.300326    0.8019445
 -0.5602604   0.1309153  -0.8210683   0.1354322  -0.46205747 -0.23680282
 -0.5880452   0.02409784  0.4043117   0.08925516  0.14371173 -0.323982
 -0.12606733  0.71604216]
[-0.19111443 -0.20050795 -0.3197454  -0.5374329  -0.12753701  0.32200983
  0.4212947  -0.38661337  0.3190449  -0.43041533  0.0498035   0.6250441
  0.29579818 -0.35256836  0.43864003  0.542029   -0.46829188  0.12359086
 -0.5558252   0.18796188]
[-0.19232781 -0.02285765 -0.06249287  0.12391731  0.1914105   0.19674848
  0.3606737  -0.13902786 -0.04165471  0.0280423   0.36788738  0.03141298
 -0.02395862 -0.44199356 -0.06759752  0.187241    0.06279336  0.11535104
  0.08683658 -0.00924275]
[-0.3383978  -0.8430686  -0.83015615 -0.39547282 -0.68016726  0.29132718
  0.3491269  -0.9095853  -0.2830539  -0.07096065 -0.17578872 -0.35207102
  0.82288826 -0.09653588  0.5498113  -0.44642332 -0.5651121   0.03382245
 -0.12849826  0.10490876]
[ 0.08177621 -0.09777307  0.01899066 -0.07916927  0.1219286   0.21036519
 -0.284558   -0.04469415 -0.23719941 -0.04455052 -0.22973068  0.11221853
  0.0146727   0.0071241  -0.08804239 -0.19822825  0.05346713  0.01959329
  0.04298924 -0.28832343]
[-0.47497448 -0.22917953  0.8902182   0.10122258  0.17074578 -0.9913885
  0.7163198  -0.6229169   0.8669161  -0.07590512  0.71673906 -0.23473826
  0.43384936  0.19283259 -0.08025272 -0.03323872 -0.1601692   0.10184494
  0.4685174  -0.605598  ]
[-0.4010654  -0.7032671  -1.0915811   0.4824774  -1.1002719   0.41547927
 -0.03581109 -0.33230063 -0.26794562 -0.5913666  -0.13741195 -0.05845954
  0.44822133 -0.59856117  0.21584098  0.1970996  -0.9779058   0.48091605
 -0.43204084  0.6357642 ]
[-0.42183307  0.15706678  0.7839564  -0.5013479   0.10270211  0.25505692
 -0.01842607  0.21155259  0.10865191  0.66809213  0.37571788 -0.44060704
 -0.28055862  0.37513846  0.25754222 -0.7493211   0.10193941  0.00944248
  0.95406234  0.13183574]
[-0.4047243   0.24630176  0.23517522 -0.02781549  0.05727709 -0.00114878
 -0.06905537  0.44489488  0.42281988 -0.66434103  0.09300526  0.6489511
 -0.3436957  -0.0553617   0.5749213   0.3389053   0.16358387  0.54810715
 -0.60486126 -0.30294153]
[-4.1394052e-01  5.8953604e-04  8.0550802e-01 -1.4387567e-01
  2.3581748e-01 -7.9943821e-02 -2.1139258e-01  2.8410921e-01
  4.2730030e-01  3.8636273e-01  5.5067164e-01 -2.2129671e-01
  2.2770435e-01  4.0392283e-01 -1.9678915e-01  3.4252977e-01
 -3.0397511e-01  8.4284765e-01  4.5709935e-01 -1.5865764e-01]
[-0.15491553 -0.2412613  -0.02669789  1.0415264   0.7543094  -0.4420142
  0.04297709 -0.99173295  0.29350534  0.86361235 -0.14921696  0.14396673
  0.49374774  0.40994292 -0.7817044   0.34952527  0.33669835  0.9646283
  1.1857822  -0.4029177 ]
[ 0.28812042  0.53520525 -0.17945175  0.29038233 -0.47802052  0.31872725
 -0.18967624  0.3303816  -0.9061115  -0.76679116 -0.9057904   0.11184188
 -0.3838898   0.06107565  0.54546034 -0.4935894   0.7132288  -0.32980856
 -0.85327256  0.6611465 ]
[ 0.652996   -0.28464496 -0.38536686  0.9004924  -0.0187949   0.37849608
  0.13383491 -0.5001606   0.11556935  0.34814563 -0.14013366 -0.3805334
  0.64987004 -0.1500339  -0.55579257 -0.11117385 -0.12734625 -0.44151142
  0.5547595  -0.05525552]
[ 0.620097    0.5889416  -0.03670505  0.03339183 -0.7344277   0.12982452
  0.1938597   0.00773635 -0.12036244 -0.47315833 -0.3718388  -0.47168103
  0.16838405  0.05357319 -0.5113579  -0.64800286  0.07239415 -0.18626164
 -0.2870932   0.00507303]
[-0.2623325   0.6533571   0.558952   -0.34577528  0.04143544  0.16810362
  0.18266724 -0.07480809  0.24354807 -0.6151042   0.41562045  0.6096482
 -0.37339136  0.22646563  0.50747144  0.59462655  0.36337712  0.36793792
 -0.5318419  -0.05272557]
[ 0.23073334 -0.19095606 -0.02817927  0.27007437  0.28718525 -0.67177427
  0.12338755 -0.25497887  0.12536702 -0.27862543  0.0090392   0.06906772
  0.05669219 -0.12674744  0.1910852   0.36833325 -0.12054923  0.47572067
  0.07809195 -0.22584201]
[-0.05945921  0.46784997  0.60516024  0.04402943  0.55448216 -0.6944283
  0.59413666 -0.719316    0.09941877 -0.84924036  0.26889515 -0.12521175
  0.3063825   0.41220513 -0.14043538 -0.49431774  0.07966008  0.30757535
 -0.68843067 -0.43887115]
[ 0.03457833 -0.16653207  0.10623901  0.3935177   0.38171193 -0.13039193
  0.15635309  0.19308348  0.1818564  -0.42557374  0.14064087  0.14879385
  0.47023386 -0.03452022  0.25043386  0.3887767   0.15656213  0.2981215
 -0.4152948  -0.21154566]
[-0.3956158  -0.7053654  -0.21521132 -0.29371023  0.03194631 -0.06438038
 -0.2762937  -0.28358838  0.14901404  0.6309039   0.56274617 -0.1281923
  0.08136901  0.00364378 -0.02315495  0.41064158 -0.31590965 -0.40998447
  0.57817227  0.1574945 ]
[ 0.27401334 -0.16347234 -0.271104    0.5668409   0.27257577 -0.34818852
 -0.01249996  0.2666519   0.09619931  0.37530765  0.02420713 -0.5058425
  0.3655229   0.3728784  -0.67119336 -0.251734   -0.21671861 -0.67364156
  0.47961742 -0.02840955]
[-0.07980285 -0.47257227 -0.24355607 -0.17338112  0.17760117 -0.12919122
 -0.11199192  0.46362355  0.11836319  0.7995924  -0.08239416 -0.7658528
  0.44107208  0.26035437 -0.17204703 -0.44380057 -0.35398638 -0.2934488
  0.31762075  0.12411303]
[-0.06902903 -0.3041487  -0.22888756 -0.08738505 -0.06648246  0.7502087
 -0.54574883 -0.05764119 -0.17148365 -0.4447417  -0.70615524  0.35463065
 -0.1350213  -0.17356753  0.02828719 -0.17941472  0.4756773  -0.49886617
  0.09642962  0.2099371 ]
[ 0.17677154 -0.33274427 -0.08881649 -0.41804528 -0.32250673  0.46438217
 -0.21505015 -0.04672661 -0.17188263 -0.3551899  -0.0764697  -0.02956411
 -0.4979056  -0.35289797  0.20372517 -0.14679804  0.02306448 -0.11329738
  0.01610232  0.25644204]
[ 5.0112361e-01 -2.6639216e-02 -3.6506787e-01 -8.4334725e-01
 -1.1079036e+00  7.6413125e-01 -8.3167234e-04  9.0294290e-01
 -4.6269149e-01  3.7720117e-01 -2.1319866e-01  2.9112691e-01
 -6.9565380e-01 -5.0731283e-01  5.8631903e-01  3.5033810e-01
 -3.5457301e-01  7.3988982e-02  9.1263556e-01  6.0120046e-01]
[-0.5874498  -0.45120695  0.6917346  -0.05511193 -0.39255646 -0.25366467
  0.30839705 -0.5165202   0.8882693  -0.8599906   0.52801144 -0.22346069
  0.7308581   0.12510754  0.27204347 -0.69538933 -0.5836995   0.51034796
 -1.4112034  -0.06090198]
[ 0.47834072  0.07663243 -0.39299947  0.86258876 -0.03143899  0.15755877
  0.3682874  -0.73256767 -0.27956223  0.13214253 -0.24179561 -0.50461614
  0.58198506  0.44838625 -0.98105896  0.12194518 -0.4759671  -0.18370472
 -0.03488959  0.16419865]
[ 2.13097587e-01 -5.17066240e-01 -1.23238933e+00 -1.04977675e-02
 -6.66302919e-01  6.77849829e-01 -9.85320508e-02 -1.54889002e-01
 -3.30417246e-01  1.47909254e-01 -3.29111218e-01 -4.14710134e-01
 -1.61498189e-02  4.52477019e-03 -3.06380957e-01  3.82053614e-01
 -2.62381762e-01 -1.40216306e-01  4.00198041e-05  2.43746534e-01]
[ 0.78298265  0.76080745 -0.38391268  0.63617     0.0194713   0.35396126
  0.13727723  0.0180017  -0.6885969   0.19267789 -0.5139197   0.09164933
 -0.08615065  0.17510234 -0.22833273 -0.15721078  0.4813308   0.21585059
 -0.14970794  0.40739614]
[ 0.41410905  0.4989724   0.11009192  0.37539634  0.18885256 -0.03969626
 -0.27249336 -0.02366852 -0.18364528  0.05756301 -0.33317637 -0.00242889
  0.32017538  0.41220316 -0.5391883  -0.14974874 -0.02285018 -0.30487004
 -0.06978936 -0.2281692 ]
[-0.27690077 -0.04805724  0.10390496 -0.45780647  0.22551318 -0.40983436
 -0.01158997  0.41788787 -0.22611499  0.20462602 -0.05509306  0.24496335
 -0.27422503 -0.02070466  0.56103796 -0.61371994  0.4549525   0.2971305
 -0.66103226  0.11641688]
[ 0.03990306  0.5856674  -1.2188294  -0.5743586  -0.7230117   0.7732883
 -0.56847674  0.7024741  -0.36610818 -0.39698663 -0.61203355 -0.1823022
 -0.69813055 -0.2616989   0.63934565  0.2293583   0.43605655 -0.12754728
 -0.35127175  0.7030916 ]
[ 0.08823216 -0.06973721 -0.09374826  0.06881596 -0.08580777 -0.14678098
 -0.24993479  0.0638835   0.2477517  -0.00197584  0.48318225  0.14686792
  0.3968779  -0.2157606   0.4034904   0.10935502  0.1275244  -0.29951864
 -0.09589903 -0.01468999]
[-0.26899529  0.15544769 -0.04211526 -0.50848836  0.09536888  0.06462286
  0.20393659  0.5050759   0.21002965 -0.48692802 -0.07141058  0.8736794
 -0.26965302 -0.18752615  0.604745    0.26963982  0.34867844  0.26069707
 -0.681393   -0.14525816]
[ 0.68462855  0.17542166  0.54885656  0.56279445  0.47783974 -0.71879065
  0.07766531 -0.37182412  0.11370832  0.18153387 -0.05774026  0.07848065
 -0.2089603   0.28091875  0.00406411  0.09619612 -0.32576257  0.5800732
  0.15022208 -0.5880293 ]
[ 0.51063913  0.29548147  0.06417292  0.47116372 -0.33894658  0.04113586
  0.4349816  -0.4339697  -0.24866961 -0.6553069  -0.18424252  0.21615715
 -0.11016973  0.17687707 -0.1284005  -0.25832322  0.12396897 -0.21178566
 -0.8083504   0.20571892]
[-0.34331158  0.25815448  0.04927907 -0.23043951  0.08881222 -0.06119973
  0.14186625  0.02678708  0.18984668 -0.71967286  0.29024917  0.5583121
 -0.14004458  0.03652421  0.3103298   0.38597617  0.22877419  0.27778155
 -0.8605153   0.00518266]
layer 5 Activation
tanh
layer 6 Dense
20 1
[-0.13372707]
[0.12316386]
[0.02955004]
[-0.06416756]
[0.07842309]
[-0.05735855]
[-0.01082147]
[0.09156577]
[0.03506363]
[0.27923164]
[0.02630403]
[0.45209065]
[-0.0670327]
[0.03014436]
[0.05279702]
[-0.08176912]
[0.1330957]
[0.05384318]
[0.53584725]
[-0.01633876]
[0.27937394]
