layers 7
layer 0 Dense
20 20
[ 0.29679093  0.61083895 -0.04978704  0.18311118 -0.08359978  1.3884732
  0.05673786 -0.7785754   0.05854012 -0.01017943 -0.42932764 -0.24114533
 -0.2077533   0.14590651 -0.18598364  0.37308753 -0.5313674  -0.27091268
  0.02827424 -0.1798642 ]
[-0.54074156  0.20681581  0.03720829 -0.19714904  0.34879774  0.0225827
 -0.34557036 -0.6539946  -0.1738037  -0.4897805  -0.15008943 -0.26968813
 -0.2821116   0.47007293 -0.16442297 -0.27224785 -0.05881875 -0.10394093
  0.58165455  0.3731935 ]
[-0.7059401   0.2423941  -0.17406067 -0.30053997  0.18515754  0.7196845
 -0.03350742 -0.6186879  -0.21505357 -0.11313963 -0.51360124 -0.15042423
 -0.3301704   0.32890326 -0.09223989 -0.1727196   0.26663783 -0.28761908
  0.44693518  0.35451192]
[-0.3207644  -0.19891307  0.09529057 -0.08321665 -0.13269375  0.80407125
 -0.05451342 -0.7563295   0.0505953  -0.07110889 -0.4613854  -0.68788606
 -0.44979146  0.25382963  0.18076578  0.06395986 -0.42623344 -0.28028345
  0.06981894  0.24950887]
[ 0.49427775  0.41510856  0.24135955  0.07022487 -0.38392368  0.68102825
 -0.14740546 -0.44609916 -0.48354837 -0.03489977 -0.2723505   0.29341638
 -0.04171443  0.26681468 -0.47808245  0.33428565  0.03337492  0.08390056
 -0.49472052 -0.04298956]
[ 0.28689134  0.13773303 -0.14791772  0.1811551  -0.5939572  -0.32858354
  0.14012735 -0.30055377  0.48413202  0.40838268  0.5084948   0.43417314
  0.29828355  0.11943045  0.2388154   0.20413138 -0.30779067 -0.1624942
 -0.60636586 -0.6021046 ]
[ 0.6393848   0.3678363  -0.1287034   0.07119945 -0.7158759   0.27523482
  0.02339434  0.07785095  0.3261764   0.27093482  0.63088626  0.20367013
  0.04124036 -0.35884985  0.17854437  0.37191707  0.0923278  -0.36619553
 -0.606344   -0.01946132]
[ 0.20623207  0.05665383 -0.46728355  0.8257589  -0.27007622 -0.5492356
  0.07053397  0.7174136   0.05160028 -0.22828716  0.03790812  0.712521
  0.92195547 -0.2947319   0.33452404 -0.6385916   0.34926942 -0.35170057
 -0.04189242  0.34952632]
[ 0.15866642  0.06069661  0.82586485  0.05814977  0.01624558  0.5053331
  0.34862188 -0.13719612 -0.31946886  0.31030038 -0.01849301  0.5548147
 -0.33680215 -0.4698169   0.05968019  0.11902631 -0.18670733 -0.44736588
 -0.55251247 -0.39774355]
[ 0.8658397   0.5961154   0.3221985   0.35895488 -0.46066827 -0.26899725
  0.98289156  0.01141788 -1.0014563   0.45813984  0.978461    0.15626658
  0.03580169 -0.27746224 -0.74150896 -0.81458783 -0.20985402 -0.31739146
 -1.7104726  -0.4112496 ]
[-0.57800627  1.2468045   0.2372513   0.3558774   0.6903551   0.27109596
  0.87269235 -0.40793934  0.09709554  0.57442653  1.3011211  -0.01898889
  0.11302602  0.56783754 -0.49238735 -0.4451081  -0.15733387  0.55081445
 -0.22860046  1.1326095 ]
[-0.0310044  -0.4372916   0.33253026  0.567554   -0.81710696 -0.59220415
  0.16656014  0.65918404  0.21202411  1.6160156  -0.5975847   0.16562712
  0.27204233 -1.2473758   0.5398399  -0.7438477   0.31877127 -0.32982695
 -1.0300863  -0.29692435]
[-0.36325404  0.20623808  0.11726858 -0.59873337  0.04103463  0.4553004
  0.11198737 -0.19630763  0.32253173 -0.25715828 -0.41293094  0.12145713
  0.32815522  0.09911201 -0.41837874  0.4855589  -0.5786884   0.37482935
 -0.72682005 -0.02532057]
[-1.4878147  -0.65818274 -0.09088417 -0.45512494  0.6735714   0.13140966
 -1.2754917   0.22586165  0.06837666 -0.47302863  0.08980633  0.10380929
 -0.08254349  1.1596286   0.24452175  1.0183735  -0.28882     1.0213603
  0.8287808  -0.7463659 ]
[ 0.9425109  -1.862053   -0.09918363 -0.1371442  -0.4527835   0.573301
 -0.04717442 -0.07250477 -0.94157815 -0.02099701 -0.3311765  -0.18368068
  0.17710945  0.01461095  0.57657766  0.04027436 -0.75335455 -0.36629444
 -0.22670352 -1.6500298 ]
[-0.0084701   0.11844635  0.2318145  -0.4071892  -0.6901998   0.5892842
 -0.0503928  -0.36447844  0.10601096  0.07593594  0.27973056  0.30940518
  0.7346624   0.3792009   0.07991696  0.7497939  -0.8126463  -0.5521366
  0.31660885  0.6999137 ]
[ 0.07630156  0.54090804 -1.7251256   1.6589942  -1.3951248   1.5042611
  0.06530471  0.261327   -0.19413942 -0.46615043  0.3563789   0.45145586
  0.5826106   0.45214725  0.7719052   0.44174168  0.39685425  0.10184893
 -0.13593325  0.65748316]
[ 0.6190506   0.10649395  0.34027416 -0.56182617 -0.21377294 -0.16306283
  0.01098949 -0.28746018  1.1766661  -0.4796909  -0.51951575  0.26674312
  0.1321165  -0.24947354  0.24144666  0.21452475  0.37200785  0.04074791
  0.34052932  0.6276945 ]
[-0.00316573  0.47518697  0.25761914  0.57076335 -0.40655592 -0.49695268
 -0.4400472   0.31707424  0.23505968 -0.17653106 -0.75076723 -0.15388513
 -0.15514007 -0.34544596  0.5494813   0.07784209 -0.19343853  0.21006283
 -0.41027096  0.2072004 ]
[ 0.33140662 -0.01559658 -0.01802937  0.9463128   0.30265963  0.01192986
 -0.6067521   0.15007894 -0.29647064 -0.5408081  -0.00617307  0.37106398
  0.22966762  0.15819241  0.4631764  -0.12243798  0.45387417 -0.3435876
 -0.57167345 -0.1820982 ]
[-0.07504816 -0.02819194  0.16551638 -0.32656574  0.18432587  0.3130162
 -0.07226944 -0.31052905  0.12680475  0.14480676 -0.09845489 -0.39880538
 -0.3339566   0.05912817 -0.11011572  0.08136701 -0.07436724 -0.12613039
  0.3731732  -0.0048203 ]
layer 1 Activation
tanh
layer 2 Dense
20 40
[ 0.21689391 -0.39801365  0.19088256 -0.06225197  0.38696387  0.64100355
 -0.5161356  -0.5292571  -0.07118701 -0.576543   -0.17000681  0.05053454
 -0.5901387   0.91304016 -0.1544606  -0.12023784  0.08987445 -0.04068189
  0.02775619 -0.803401   -0.281529    0.11403641 -0.49955553  0.10739754
 -0.04240507  0.17462099  0.64156055 -0.21165289  0.07427818  0.5987823
 -0.10125443 -0.02345436  0.37935627 -0.68226624 -0.47772443  0.3332473
 -0.11200365 -0.08007085  0.05482943 -0.15962613]
[-5.0974232e-01 -7.2488958e-01 -5.4637229e-01 -6.5620348e-04
 -2.0213845e-01  3.0744141e-01  6.1638212e-01  5.3447336e-01
 -6.5424014e-05  4.6697304e-01  3.6239800e-01 -4.2089197e-01
 -2.9022369e-01 -9.2939758e-01  4.3612260e-01 -1.3483615e-01
 -6.0310882e-01 -8.3456188e-03  2.4588080e-01  3.5090905e-01
 -2.4249148e-01  4.5881170e-01  1.2859808e-01  3.4523413e-02
 -2.1445525e-01 -3.6964938e-02 -8.9453036e-01  9.5704354e-02
 -8.4152602e-02 -4.2965865e-01  1.6347389e-01 -2.5390548e-01
  1.7230108e-01  1.9804536e-01  8.3561760e-01  7.4163401e-01
 -2.6981288e-03  7.5692797e-01  1.5109263e-01 -5.2880753e-02]
[-6.81064963e-01 -2.14390844e-01 -1.40095055e-02 -3.53378415e-01
 -3.08857352e-01  8.30797851e-01 -7.20771909e-01  5.09429991e-01
 -1.40705466e-01  4.37842876e-01  1.22737505e-01 -6.02502763e-01
 -1.74647495e-02 -5.04674911e-02 -3.43572766e-01  2.94035766e-02
  3.13263923e-01 -1.33363917e-01 -8.24709237e-02 -1.53669462e-01
  1.02823004e-01 -2.66310453e-01 -4.24735218e-01 -4.96209174e-01
  1.21923827e-01  6.79830536e-02  5.35735190e-01 -7.98268735e-01
  9.96858180e-02 -3.69473666e-01  4.29705754e-02 -6.87309980e-01
 -5.44246972e-01 -3.15869868e-01 -3.51044953e-01  1.46335140e-01
 -1.12336121e-01  4.51093167e-01 -1.78045511e-01 -5.97539358e-04]
[ 0.35698503 -0.10060388 -0.54178536  0.09163786  0.266684    0.4228873
  0.44383225 -0.0858038   0.28346694 -0.43396777 -0.4172042   0.30505604
 -0.06414359 -0.44593367  0.15394443  0.11197298 -0.6199801  -0.03308574
 -0.05390542  0.9724551  -0.393201    0.40598643  0.08020789 -0.373605
 -0.36520267 -0.12584539 -0.45279682  0.49915054 -0.571988    0.21591045
  0.6549565  -0.3194379  -0.00211588  0.30589458  0.27130336  0.3575453
  0.2520871  -0.01742317  0.07183196 -0.44536725]
[ 0.16248436  0.4737104   0.50873464 -0.63747025  0.09076594 -0.4112411
 -0.10427841 -0.03113575  0.17542277  0.0091135  -0.39121506 -0.10440458
  0.0745341   0.00850768 -0.17923331 -0.09456699  0.23522273  0.06012038
 -0.11022185 -0.3747268   0.24192937 -0.1524149  -0.10389946 -0.52532834
  0.28635293  0.37235808  0.02305557  0.13969243  0.39394912  0.02957781
 -0.37157053 -0.7193566  -0.3585515   0.03051031  0.3681655  -0.37393332
 -0.0292224   0.6554422   0.03993466 -0.14978512]
[-2.2231009e-02  4.3542379e-01  1.4709401e+00 -3.9246097e-01
 -1.1608384e-03 -3.8928902e-01  4.3917438e-01 -8.1275493e-01
  1.6440214e-01 -7.2798938e-02 -3.5425013e-01 -2.7125993e-01
 -7.8893471e-01  3.0427352e-01  3.1671444e-01  1.9859067e-01
 -3.4645209e-01 -1.7209969e-01  2.2165041e-01 -6.9361383e-01
  3.4213558e-01 -9.0260434e-01 -8.0714029e-01  3.6132795e-01
  7.4006647e-01  4.6516356e-01  4.9530968e-01 -8.5484095e-02
  5.6920475e-01  1.0238196e+00 -8.8015258e-01 -2.2572376e-01
  4.0726301e-01 -4.6232268e-01  3.4164628e-01 -4.5421872e-01
  4.1352263e-01  4.1912511e-02 -7.8728065e-02  2.7463141e-01]
[ 0.04572502 -0.69065666 -0.17718142 -0.3815155   0.16109788  0.98293185
 -0.37866244  0.21964176 -0.00117625  0.01708514 -0.12313848  0.31981513
 -0.9459068  -0.33769542 -0.3894995   0.0974698  -0.01595064  0.2671357
  0.13589561  0.29434684  0.10212027 -0.18188624  0.0331815  -0.5570102
  0.06893283 -0.14309326 -0.5092549  -0.2273484  -0.3558384   0.093865
  0.22132936 -0.1617838  -0.28951806 -0.5388828  -0.4009492   0.3043181
  0.33081254  0.18128958  0.13877848 -0.23995161]
[-0.14255854  0.37299156 -0.41734773  0.4418553   0.4527364   0.0483426
  0.00143346 -0.32912982  0.36320272  0.06353892 -0.1505603   0.0955651
  0.5013383   0.41220403 -0.26818    -0.04119066  0.21225819 -0.20320387
  0.16972125  0.5608181   0.19230132  0.13310575  0.24680744  0.04733783
 -0.264959   -0.02562965 -0.12856334  0.24646124 -0.4017411   0.0249147
  0.6349789   0.339508   -0.1926207   0.13000286 -0.17389761 -0.33611208
  0.00612112 -0.33857688  0.3682284  -0.0895359 ]
[ 0.29907855 -0.42160365 -0.38630676  0.04991986  0.26306853 -0.29708216
 -0.10349658  0.47833776 -0.1212237  -0.17849416  0.1410394  -0.1494481
  0.02860284 -0.27373242 -0.12635037  0.11400086  0.08260217 -0.1823824
  0.09785127 -0.5643951  -0.09220494 -0.20603517 -0.22235416  0.12058671
  0.12794203 -0.21151994  0.93752736 -0.11403958  0.245561   -0.34432524
 -0.20775235  0.27257815  0.27392367 -0.26696733  0.43713105 -0.32616344
  0.12285     0.59409815 -0.20262083  0.34239522]
[ 0.1510764  -0.44089139  0.24234755  0.23247115 -0.052153    0.50874984
 -0.35315746  0.5864808   0.27746978  0.43070838 -0.10349731 -0.46024826
 -0.57206994 -0.17469135 -0.20186833 -0.10412011  0.3595914   0.04681069
  0.13264997  0.4302529   0.06358534  0.04450077 -0.1096514  -0.19256599
  0.06368858  0.04745128 -0.7157578  -0.23373687  0.19977842  0.0099084
 -0.00406818 -0.49380618  0.01137161 -0.12518074 -0.8119607  -0.24903606
 -0.09020495  0.20479414  0.03543132 -0.13490035]
[ 0.32528526  0.43800348  0.5701843  -0.32014936 -0.11558672  0.12295867
  0.0091084  -0.11614175  0.13873415 -0.10366705 -0.6389732   0.03234434
 -0.72786367 -0.3747377  -0.18465614  0.26457036  0.3460425   0.2492022
 -0.09071608  0.21444952 -0.01118219  0.08254606 -0.32145467 -0.7255146
  0.14534792 -0.0524476  -0.8049174   0.19863245  0.22047928  0.61799055
 -0.03931441 -0.33312926 -0.13733336  0.19437714  0.24655259 -0.27854213
  0.15866013  0.47166982 -0.20334819 -0.00819282]
[ 0.5573112   0.1899158  -0.4503792  -0.01718818  0.65519184  0.16933441
 -0.02319925  0.21375407  0.48874745 -0.61258894 -0.7320539   0.0415203
 -0.35047835  0.44343197 -0.1823149  -0.16135891 -0.07326666  0.35286033
 -0.09630124  0.6282765  -0.23927717  0.75411874  0.3111494   0.05009332
 -0.67386967 -0.66997236 -0.01059185  0.3056291  -0.65849084 -0.31027922
  0.7287632   0.4309327   0.14936727 -0.12349285  0.08028086  0.28731602
 -0.07770121  0.46687365  0.7124152  -0.00598495]
[ 0.5169039   0.34825814 -0.551849   -0.02732042  0.46440053 -0.02989257
  0.17854814 -0.24497771  0.5480676  -0.46256956 -0.4783164   0.37253895
 -0.30324906 -0.0614169  -0.06682051 -0.02050183 -0.15579726 -0.06944241
 -0.06909072  0.26479545 -0.36705056  0.24642608  0.56033003 -0.2995566
 -0.5325865  -0.59544873 -0.06232027  0.39716506 -0.4993089   0.05610484
  0.6735412   0.4625208   0.07706286  0.24858938  0.22556323  0.1651109
 -0.05866338  0.07379317  0.61735594  0.10407853]
[ 0.21205921  0.5226649   0.2554813  -0.2618145   0.19978964 -0.6697551
  0.38775042 -0.25003868 -0.17815334 -0.08856159  0.03010655 -0.03160928
 -0.10732487 -0.6907294   0.27791765 -0.26925367  0.1699876  -0.15734126
  0.12352876 -0.01218361  0.04201126 -0.04839845  0.49177715 -0.12797377
  0.01415498 -0.17461747 -0.4176684   0.23933612 -0.13929558  0.24791218
 -0.33553854 -0.27150905 -0.17750707  0.57583606  0.21153043 -0.6258808
 -0.3681201   0.01180205  0.02849284  0.2971029 ]
[ 0.42633414  0.25919828  0.0797969   0.00154949 -0.00276438 -0.425089
  0.25635546 -0.20948483  0.25225794  0.03111934 -0.564956    0.2866466
  0.8717805   0.63519317  0.06421464  0.14782196 -0.00562999  0.26458555
  0.06816924 -0.1655023  -0.08170785  0.28844306 -0.06485026 -0.12200735
 -0.05658655 -0.09546078  0.7278549   0.21256666 -0.22070675 -0.1425461
  0.14957078  0.47309953  0.20927338  0.15489992  0.07247094  0.6504987
 -0.14417256 -0.28998536  0.03912928 -0.08020255]
[ 0.13543037  0.359548    0.06270601  0.57395357 -0.13148282 -0.31901526
  0.37682182 -0.20713928 -0.12672916  0.21228132  0.06171891 -0.4177667
  0.23850887 -0.5727173   0.58094805 -0.21900035 -0.52699995 -0.20092534
 -0.27747464 -0.11173999  0.02078845 -0.14704248 -0.16073924  0.6883915
  0.27718562 -0.00226668  0.22161818 -0.36822674  0.10613971  0.12625957
  0.253907    0.29059225  0.20572819  0.1044101   0.3365731  -0.16974571
 -0.51017106 -0.0040849  -0.0536087   0.08167254]
[ 0.20332679 -0.40089944 -0.37785754  0.22695488  0.11332829  0.11461473
 -0.36402702  0.07436677  0.46651444 -0.48293203 -0.32928473  0.3851986
 -0.19762851  0.32046813 -0.28079665  0.06797709  0.17221907  0.01655274
  0.18384756 -0.1922398  -0.00280572  0.24319579  0.3561142  -0.20008762
 -0.3085624  -0.03689144 -0.05885372 -0.13215251  0.05882508 -0.15652058
 -0.12212276 -0.39452982  0.41394326 -0.16318257  0.49333152 -0.30208972
 -0.0538655   0.15080942  0.0879638   0.03423219]
[-0.32031813  0.11462577 -0.2633943  -0.26904082  0.0043641  -0.33155787
 -0.40304664  0.13013574 -0.4438307   0.04928282  0.40445045 -0.1297155
 -0.34896776 -0.29503965  0.26786405 -0.11091133  0.2576322  -0.33057165
 -0.00208004 -0.15814698  0.5640898   0.0329394   0.3297032   0.5219951
 -0.18216884  0.16943718  0.04984266 -0.22899319 -0.10401408 -0.2556177
  0.19246611 -0.33234838  0.04900911  0.51902497  0.65591574 -0.93345463
  0.04407668  0.38364393 -0.05156827  0.1787685 ]
[ 0.5389387   0.18329717  0.16178897  0.6731208  -0.00973527 -0.73748016
 -0.26819423 -0.03214306  0.17027327 -0.32653788 -0.5472218   0.17056811
 -0.16049838 -0.03804398  0.03262874 -0.36695328  0.01776854 -0.08684871
  0.01387419 -0.33236057  0.3227606  -0.50513536 -0.16080563 -0.59355944
  0.5218329   0.2800881   0.28834805  0.43726686  0.02330137 -0.27110744
 -0.3745117   0.3671248   0.3252279   0.27930483  0.41407368 -0.7169017
 -0.02329808 -0.20533213  0.11120974 -0.2617771 ]
[ 0.6389796  -0.6675405   0.03972529  0.09577674  0.18970364 -0.16190937
 -0.27479947  0.39809704  0.24680823 -0.67914844 -0.17959489  0.21173576
 -0.49373716 -0.7326849  -0.29115787  0.2534881   0.0475413  -0.18549867
  0.23799822 -0.53624177  0.15447472  0.12176301 -0.3050619  -0.5254733
  0.2915747   0.12763286  0.44269305  0.01732936  0.12460583 -0.26835164
  0.06339532  0.5200453   0.80899787 -0.6706246   0.6940031  -0.19251227
  0.17196682  0.43958965 -0.07819147  0.04812885]
[-3.45618516e-01 -1.87993914e-01  4.55742687e-01 -1.37296215e-01
 -4.62761939e-01 -8.06030035e-02 -3.25945504e-02  4.66686673e-02
 -3.38900983e-01  4.47688669e-01  4.90443528e-01 -3.49920422e-01
  9.43637863e-02 -1.45786911e-01  2.07616352e-02 -6.81543276e-02
  1.24193296e-01 -1.29890189e-01  5.06409118e-03 -3.80079716e-01
  1.43284544e-01 -5.61829507e-01 -2.68455863e-01  7.97826424e-02
  3.92300367e-01  5.15183628e-01 -2.13359576e-02 -2.23947003e-01
  3.03807884e-01  1.75934676e-02 -6.50716841e-01 -4.47512001e-01
 -5.55781238e-02 -1.76945818e-04  2.45494880e-02 -9.44910422e-02
  7.79448003e-02 -1.64876476e-01 -4.87876415e-01  1.78340629e-01]
layer 3 Activation
tanh
layer 4 Dense
40 20
[-0.0368955   0.25007045  0.08200425 -0.05891098 -0.22492236 -0.24731997
  0.01054087  0.42596725  0.40496606  0.37697092  0.16108802 -0.24057753
  0.34485564 -0.01258749  0.69235116 -0.1587095  -0.3875097  -0.10421499
  0.2783049   0.52747995]
[ 0.30014437  0.42737517  0.8114988  -0.14208582 -0.15121065 -0.215542
 -0.76298726  0.03024046 -0.17204638 -0.29959634  0.1404133   0.06353134
 -0.1316913   0.31265566 -0.7282567   0.01047164  0.14030762 -0.20170666
  0.2644981  -0.02767893]
[-0.35556734 -0.25570998  0.11035188 -0.19917738  0.12298208  1.2380036
 -0.53211933 -0.24476506 -0.11850422 -0.6257204   0.2883346   0.4177914
 -0.14507712 -0.71555597 -0.3623299  -0.04531116  0.9590872   0.21331424
 -0.13133983 -0.20182306]
[ 0.07345574  0.47802785  0.40792477 -0.15315661  0.12610763 -0.16285382
  0.3968673   0.1465887  -0.1352568   0.29490462 -0.23122504 -0.3074689
  0.14500861  0.03104323  0.1839099   0.05871176  0.23484677  0.102988
 -0.3288413   0.10152504]
[ 0.35701442  0.01058991  0.22662081  0.32911155 -0.28379187 -0.36071444
  0.07876382  0.32314128 -0.20268133  0.25111735  0.02475235 -0.25277215
  0.31871426  0.06680874  0.46386233  0.40482187 -0.19859463 -0.23260856
 -0.23198903  0.449993  ]
[ 0.14260253 -0.48493427 -0.32272753  0.07460831  0.36630094 -0.62174433
  0.19356391 -0.1820001  -0.26632762  0.2948827   0.03374797 -0.18655539
 -0.14705156 -0.47879708 -0.6129048   0.34101796 -0.6183132  -0.02393658
  0.12774432 -0.16778736]
[-0.2427267   0.24170728  0.2597126  -0.11091734  0.21989998 -0.16763535
  0.13853325 -0.35052294 -0.07756824  0.12184618 -0.0083052   0.53283846
 -0.05785511  0.43323445 -0.37435055 -0.14739193 -0.29255766 -0.23744346
 -0.1120367   0.21927564]
[-0.3976648   0.30686536 -0.24672538  0.03874697  0.43642256 -0.23591581
  0.26116002  0.08387063 -0.10932015  0.05848566 -0.46762633  0.09758818
 -0.09847968  0.21700272 -0.02185407 -0.12593915 -0.12097124  0.04901569
  0.088272   -0.20699364]
[ 0.17066163 -0.34561995 -0.08324375  0.36505476 -0.3949713  -0.35268706
  0.13326456  0.33837977 -0.02624724  0.2556996  -0.04590735 -0.12386858
  0.3066399   0.076585    0.26510832  0.35127807 -0.19601342  0.02350166
  0.37315002  0.5912701 ]
[ 0.12198353  0.33110973  0.14608751 -0.47840822  0.46426994  0.20124996
 -0.2854811   0.0146326   0.18003333  0.02279655  0.24839817  0.49495783
 -0.36989525  0.17454077 -0.59257483 -0.13974817  0.42972776 -0.02192142
  0.12608236 -0.37585747]
[-0.27549148 -0.14379393  0.08192067 -0.5372456   0.42451337  0.40043116
  0.24784428 -0.2814638  -0.1854033  -0.18877856 -0.08453944  0.3781535
 -0.12975729 -0.18033877  0.1506057  -0.23029162  0.19497597 -0.18776987
  0.18661934 -0.2969834 ]
[ 0.34935132 -0.12474135  0.15712097  0.17321876 -0.31864795 -0.08587404
 -0.03158312  0.06816747 -0.21777298  0.1947346  -0.19568574 -0.33191866
  0.20433994  0.15453416  0.26396817  0.21551763 -0.06998105 -0.14140595
  0.1812021   0.16495316]
[-0.08198199  0.50426966  0.4659127   0.11161275  0.559314   -0.3252543
  0.36233082 -0.16535135  0.09014352  0.54592586  0.09550495  0.11447923
  0.02040971  0.32053837 -0.39581305 -0.0096649  -0.37854263 -0.16012742
  0.20244205 -0.38723537]
[ 0.16745713 -0.60928667  0.74495834 -0.12671408 -0.03047206  0.14298257
 -0.32635695  0.47450125  0.07253802 -0.3790987   0.03865579 -0.725833
 -0.21666744 -0.5954325   0.09737532  0.07056449  0.18189526 -0.23811947
  0.42906094 -0.04049762]
[-0.33610058  0.14476413 -0.00389725  0.05460534  0.05979861 -0.08001976
  0.23463564 -0.06110448  0.3004031   0.16007584  0.2514352  -0.02783267
 -0.29904875  0.00192598 -0.20586716 -0.0976455   0.04115842 -0.167705
 -0.10605884  0.18968008]
[ 0.27206764 -0.5542885  -0.08654856  0.223042   -0.08499832  0.13205194
  0.12681787  0.21662873 -0.04031403  0.08397795 -0.4260657  -0.08073773
  0.00753272 -0.00107245  0.00654219  0.10445563 -0.03671183 -0.10865914
 -0.3006577  -0.0599036 ]
[-0.0650003  -0.24751602  0.1411714   0.11500019  0.00343021  0.27894223
 -0.17055224  0.2917181  -0.06043302 -0.04977543  0.19763488  0.08619049
 -0.04851545 -0.02547518  0.12386429  0.20069717  0.16246381  0.03379051
 -0.03326564 -0.25383872]
[ 0.16145511 -0.24365816 -0.30165064  0.02615517 -0.13053171  0.08539531
 -0.15634567 -0.04525671  0.15519579  0.04544916  0.24957334 -0.03769855
 -0.03530071  0.15578112 -0.13075674 -0.05637063 -0.29430953 -0.03742825
  0.42405906 -0.02055304]
[-0.23440623 -0.19968894 -0.05954034 -0.07879967  0.04870247  0.19161552
  0.08673435  0.18873318 -0.13122909  0.00814064 -0.41791204 -0.16715255
  0.04430351 -0.11127646  0.11749818  0.00986374 -0.09703305  0.24183355
 -0.13083164 -0.04428483]
[ 0.3763844   0.21678029 -0.20733978  0.20624085 -0.28418612 -0.7085882
  0.057563    0.41195592 -0.09449838  0.6617658  -0.30699474 -0.33907685
  0.20984435  0.38175413  0.00396647  0.00600671 -0.6483599   0.05865014
 -0.18154785 -0.24015835]
[-0.4121071   0.19386548  0.2605852   0.10836947 -0.07564578  0.1742442
 -0.26438674 -0.2678972   0.26607162 -0.03526884  0.4674842   0.15148741
 -0.08381023 -0.2535322   0.0599931  -0.3101149   0.3565191   0.14821182
 -0.22220667 -0.26347494]
[ 0.0210959  -0.14732435  0.04824408  0.40659055 -0.00973273 -0.34563217
  0.32167825  0.01037532 -0.04540514  0.5463528  -0.5332306  -0.03916434
  0.23637564  0.12008029  0.1978605   0.0946606  -0.35409418 -0.17552954
 -0.06459638  0.40003037]
[ 0.04430084  0.23180285  0.11526401 -0.22056474  0.19246471 -0.29475287
  0.26775056 -0.14666331  0.03157862  0.59598905 -0.37110934  0.0259098
  0.25335604  0.32512757 -0.06507097  0.13002865 -0.5580322  -0.17774947
  0.34757888 -0.2876542 ]
[-0.2552801   0.5042779   0.3362139  -0.42687693  0.57472575 -0.05138873
  0.27162117 -0.28205973  0.14352046 -0.11890783 -0.29156077 -0.25051394
  0.01574051 -0.1456948  -0.30307284 -0.07413384 -0.21455415 -0.25354207
  0.13655455 -0.33228162]
[-0.34577173 -0.3810828  -0.00944197 -0.19982283 -0.08897522  0.65672296
  0.0076475  -0.12274328 -0.03182023 -0.55866665  0.3463936   0.17104307
  0.06971817 -0.2200882  -0.27208656 -0.35157445  0.5108384  -0.34504357
 -0.00929123 -0.35788593]
[-0.58568466 -0.03953805  0.20008627 -0.55898654  0.23529266  0.25985923
 -0.24335136 -0.38427675 -0.19881932 -0.31693423  0.28558728  0.32655382
 -0.34106988  0.12182103 -0.24587348 -0.48152053  0.30643046  0.11909446
 -0.02139918 -0.16188411]
[ 0.05153197 -0.06688073  0.27236766  0.07631149 -0.20221156  0.6656986
  0.0656359   0.27912754  0.22337283 -0.5210972   0.42724645 -0.4160846
 -0.16985697 -0.7336647   0.6603432   0.16637029  0.32358852 -0.05579732
  0.29437822 -0.0503369 ]
[ 0.1645708   0.15546228  0.1862844   0.29207224 -0.18388489  0.05024511
 -0.0010645   0.28650972 -0.25657275  0.00700201  0.01040121 -0.09961585
 -0.06144695  0.46826604  0.04177719  0.26316643 -0.16492058  0.05743877
  0.15829751  0.5738172 ]
[-0.36484146 -0.24629843 -0.22033298 -0.10368373  0.02224897  0.2364456
 -0.0070279   0.00497898 -0.15901273 -0.38080633  0.21634337  0.4762321
 -0.44623017 -0.3840375  -0.19594872 -0.14504018  0.31580752  0.00645642
 -0.325572   -0.21393092]
[ 0.4055663   0.15940674 -0.15204464  0.13767602 -0.3406175   0.6141982
 -0.37085053  0.46327564  0.06708913 -0.32113212 -0.05020298 -0.0709203
  0.21599604 -0.08445699 -0.14240532  0.19512604  0.39144933  0.05378819
 -0.12553518  0.31704044]
[ 0.34346968 -0.08116721  0.01173462  0.4704906  -0.29609904 -0.5921897
  0.38646466  0.34671733 -0.02434071  0.27179933 -0.3685597  -0.4645004
  0.19346991  0.03839149  0.18548447  0.32716852 -0.4348374  -0.08866918
  0.27805042  0.32972425]
[ 0.22576407  0.51670307  0.1455049   0.3491488   0.2597248   0.2144666
  0.6819452   0.19863105 -0.06002189 -0.11927084  0.01492733 -0.6744829
  0.26933476  0.08865125  0.5318075  -0.04808627 -0.17934552 -0.2848029
 -0.09385803  0.14604786]
[-0.02385777 -0.2435206  -0.06608111 -0.2061348  -0.1591113   0.19523892
  0.26141647 -0.02546142 -0.1842765  -0.14924288 -0.03933579 -0.20770247
  0.14183198 -0.20832123  0.39208922  0.14194505  0.08514028  0.08793765
 -0.20011912  0.35469717]
[-0.11420697  0.6261945   0.27231318 -0.28483412 -0.18137518 -0.18402344
  0.0689285  -0.08489709  0.06829469  0.5512374  -0.21509004  0.22072278
 -0.2519923   0.8606893  -0.33139417 -0.21147858 -0.3417903   0.3776418
  0.09803476  0.09109993]
[-0.3030712  -0.5251921   0.69050044  0.10025845  0.07368884  0.34853965
 -0.04109122  0.20496818 -0.01582505 -0.13559504 -0.144169   -0.02120215
  0.30585715 -0.3351661  -0.29236874  0.20734356  0.08721127  0.04100548
 -0.11333389  0.28762046]
[ 0.2000224  -0.22581396 -0.18825097 -0.05452705  0.47136727 -0.440061
  0.29448557 -0.1160723  -0.03540027  0.4397875  -0.32129714 -0.01788345
  0.28038976  0.33819017 -0.64931417  0.10232119 -0.51190615  0.01407046
 -0.30731732  0.29823554]
[ 0.02995641 -0.37176034 -0.40957427  0.12478354 -0.08440563  0.20372134
 -0.0759734   0.29029533  0.03428775  0.10496503 -0.14542852 -0.2035523
  0.10205584 -0.04842783 -0.01906323  0.12843391 -0.01678831  0.3204993
 -0.16838019  0.11749447]
[ 0.26777756 -0.37424073  0.5711454   0.42828846  0.15584014  0.2532666
 -0.40320316  0.02277199 -0.27426025 -0.18698616 -0.00529821  0.11791177
  0.3760254  -0.5403006   0.02968432  0.19446911 -0.07903778 -0.23330723
  0.46553928  0.3807094 ]
[ 0.43242568 -0.20511928  0.13240024  0.39129367 -0.305956   -0.51973283
  0.13472553  0.18321387  0.19023259  0.21120957 -0.18936378 -0.46197125
  0.5033127   0.4156219   0.3481712   0.41794375 -0.17838727  0.19061173
 -0.02330281  0.07952548]
[ 0.02219208  0.1517877   0.18296969  0.0283228   0.16852391  0.06858554
  0.09082858  0.28410915  0.04416982  0.03308513 -0.0847985  -0.0545333
 -0.13605127 -0.41492546  0.12534809 -0.18503615  0.06064815 -0.15073566
 -0.20695452 -0.2783817 ]
[-0.1426869   0.02285109 -0.0205414  -0.25394523  0.20478277  0.22393554
 -0.04306399 -0.1715436  -0.01976604 -0.19268714  0.15650474  0.34488496
 -0.312539   -0.07477552 -0.22195452 -0.18310289  0.23122908  0.05871927
 -0.06080402 -0.2088565 ]
layer 5 Activation
tanh
layer 6 Dense
20 1
[-0.5538016]
[0.15407154]
[-0.15204039]
[-0.36302835]
[-0.41555786]
[-0.4189174]
[0.18725099]
[0.29863244]
[0.02205261]
[0.2544825]
[-0.05126562]
[0.39054745]
[-0.47896105]
[0.24344851]
[0.36693347]
[-0.3784202]
[-0.50256]
[0.04713093]
[-0.02068875]
[-0.3199154]
[0.13159846]
