layers 7
layer 0 Dense
20 20
[-0.23628783  0.08667639  0.1807757   0.07394589 -0.01741612  0.03421311
  0.0858926  -0.57684165  0.13965414  0.08912739 -0.1899135  -0.4115967
 -0.18225218  0.3458628   0.30331784 -0.2451655   0.22650531  0.1821576
  0.1425701   0.34565583]
[-0.32304323 -0.28580797  0.27847016  0.07479349  0.3679027  -0.37546518
 -0.36038905  0.21446764  0.20669532  0.09612918  0.13490248 -0.37409562
 -0.25347883 -0.31595427 -0.3692536  -0.33179274 -0.26103216 -0.07700741
 -0.09646815 -0.18537697]
[-0.28071702 -0.24964519 -0.00462645 -0.27981764  0.34123176  0.24067795
  0.3488859  -0.05613804  0.36514193  0.1633023   0.24624681 -0.19612442
 -0.2710287  -0.26288706 -0.28618294  0.30663347 -0.37641194  0.11672258
  0.17811513 -0.2928333 ]
[-0.10649019  0.01185073 -0.02931674 -0.00345135 -0.28788918 -0.18348491
 -0.16269694 -0.6126865  -0.27154315 -0.02959593  0.21482024 -0.21102287
  0.05862132  0.4063819   0.48414662  0.06182993 -0.2690546  -0.0008416
  0.2383008   0.39032355]
[ 0.52832943 -0.47733638  0.12303517  0.03324199  0.32941088  0.09118281
 -0.21981525 -0.29114044  0.43254212  0.64356935 -0.21490544  0.22131582
  0.15473858  0.35688347  0.6365      0.01627728  0.1560495  -0.05406786
  0.5013945   0.12884937]
[ 0.0378235   0.00887379 -0.36559772  0.07378736 -0.38251436  0.01996058
  0.27321422  0.25593567 -0.34784988  0.0374451   0.31298327 -0.01927376
  0.17810464 -0.10831693  0.35564154  0.24784595 -0.12708089  0.01074764
 -0.13627693  0.23775154]
[-0.30866855 -0.2378882   0.36645305  0.1815545   0.12649202  0.38519716
 -0.36080515  0.270662    0.2008881   0.06714466  0.14815062 -0.27074015
 -0.01425505  0.00542298  0.2484119  -0.24222352  0.3733679   0.3517931
  0.26057333  0.33733338]
[ 0.21119691  0.3884418  -0.15202576  0.37545875  0.10349407  0.2966402
  0.1594293   0.6623517  -0.11287268 -0.02434507  0.25444314  0.5388083
  0.2857683  -0.15220489 -1.0125933   0.42784348  0.3894938  -0.02937083
 -1.0467507  -0.44061753]
[ 0.97460145 -0.23225549  0.24515437  0.16936821 -0.10279041 -0.5298383
 -0.05531036 -0.4585128  -0.14104076  0.6581341  -0.1347904   0.25317717
 -0.00343405 -0.4117127   0.1481825   0.37368688  0.46283656 -0.8978406
 -0.09365663 -0.61347073]
[-0.72352934 -0.9796222  -0.36221933 -0.22331586 -0.02100687 -0.54002076
 -0.85634804 -0.17407726 -0.5230115   0.53827155 -1.0067605   0.02373114
 -0.00763811  0.14945978 -0.34040108  0.6914164  -1.0768154   0.5975518
 -0.25965312  0.66107625]
[ 0.43509346  0.33215725 -0.6296519   1.0840966   0.28470176 -0.29693204
 -0.42115343  0.3845649   0.04092485 -0.8608807  -0.32050633  0.42515084
 -0.8192187   0.48815244  0.6830002   1.0980325  -0.6744194   0.33884305
  0.4424624  -1.125901  ]
[-0.17541344  0.29806492  0.09355619  0.4176257   0.05532341 -0.0339946
  0.7059855  -0.10859238 -0.38719082 -0.32305077  0.37780672 -0.0740276
  0.14862643  0.8067485   0.01336469  0.37396607 -0.6841564   0.05815389
 -1.3252385  -0.19921383]
[-0.09642053 -0.00468834  0.7001274  -0.14798945  0.06119506  0.36300844
 -0.42568827  0.13386136  0.32661277  0.10528482  0.13413438  0.05720634
  0.03999456 -0.5784798   0.15746772 -0.2955616   0.0425624   0.5536766
 -0.26783645 -0.45528385]
[ 0.37123048  0.1664194  -0.68622786 -0.16116141 -0.10333226 -0.4710214
 -0.38007355 -0.13380277 -0.17863092 -0.14930564  0.6079776   0.39889172
 -0.01510091  0.01900113  0.15181342 -0.41608143  0.85640705  0.5294486
 -0.04420173 -0.54108787]
[-0.5039357   0.03826381  0.36967412  0.12729566  0.26362085 -0.34107313
 -0.60915476  0.34988663  0.00715374  0.5652679  -0.33047768  0.05444289
 -0.61958313  0.20943873  0.1892865  -0.92060685  0.31028828  0.00909918
  0.18445615  0.94513524]
[ 0.13400815 -0.63055396 -0.49604952 -0.12353761  0.46593463  0.5585589
 -1.260092    1.0606987   0.06127444 -0.8983612   0.91908455  0.72171164
  0.5292275   0.02585477 -0.22243823 -0.75136197 -0.13136792 -0.02031023
  1.3260152   0.08027847]
[-0.1575576  -0.19160326  0.10696318 -0.03079667 -0.00660679 -0.03220301
 -0.23664317  0.05375643  0.76844877 -0.15766661 -0.46502092 -0.29193252
  0.54977703  0.9963825   0.1766328   0.20015903  0.23831801  0.01577499
  0.4851141   0.19004653]
[ 1.0928524   1.9195706   1.1821882   0.0759756   1.0000958   0.9555741
  1.2115296   0.11040209  1.3739347  -0.72253287 -0.12338569 -1.3415225
 -0.6553271  -0.70713943  0.32017383 -0.19291562 -0.11692891 -1.511961
  0.13613345 -0.43643022]
[ 0.20894885 -0.6835351   0.68007606 -1.3603511  -1.5540259   0.8389737
  1.6105673  -0.38755143 -0.57328445  0.33225256  0.5833652   0.2571846
  1.5798743  -0.44899857 -0.8086638   0.12420524  0.5682844  -0.28023928
 -0.063456    1.534522  ]
[-0.03659893  1.4097095   0.94598264  0.2740781  -1.0099012  -0.8223159
  1.1225016  -0.85818493  0.50008225  0.59233785 -0.851185   -0.13750091
 -0.58103025 -0.5977982  -0.72820824  0.3522398   0.63301617  0.00637265
 -1.1708372  -0.05128319]
[-0.10688424  0.02357876 -0.06870928 -0.01827104 -0.03024719 -0.01507957
 -0.01242397 -0.22331266 -0.03960247 -0.08329979 -0.02776076 -0.24673991
 -0.10730674  0.0557068   0.2590112  -0.18185094 -0.06216536  0.00907309
  0.32974955  0.06906253]
layer 1 Activation
tanh
layer 2 Dense
20 40
[ 0.19255465 -0.1636227  -0.25004435 -0.09493785  0.10501372 -0.3375957
 -0.09496649  0.24675135 -0.05539649  0.4174941   0.19890644  0.12089091
  0.4449734  -0.4152924   0.32045677  0.10875847  0.40616816  0.3302212
 -0.25859818 -0.58240336  0.4747945  -0.05552735 -0.22740455 -0.63143307
  0.14306806 -0.62729436  0.08122117 -0.52805126 -0.44004342  0.0373605
  0.5556125  -0.08977243  0.26246417 -0.5783552  -0.16290496 -0.3150921
  0.12884276  0.504827   -0.01550199 -0.25499162]
[ 0.7490955  -0.48217     1.0901942  -0.50043863 -1.2241199  -0.49547437
 -0.18727505 -0.3450638   0.6275027  -0.7345863   0.02501769  0.21141127
 -0.39483336  0.60905206  1.0354999  -0.05071618 -0.1955934  -0.2780237
  0.30469736  0.14276336  0.06131073 -0.21915478 -0.22194512 -0.29587957
 -0.18529223  0.34892717 -0.15060793  0.37898085 -0.17499083 -0.17334613
  0.7222553   0.09096698 -0.6067058  -0.31360045  1.0185745   1.4392345
  0.3514848   0.37055087 -0.01929937  0.34168446]
[ 0.30939454 -0.28765577 -0.3182535  -0.05714053 -0.9314126  -0.0095789
  0.209804   -0.399277    0.16882724  0.4905983   0.17075087 -0.1423454
  0.06557081 -0.0858537   0.67102385  0.21745951 -0.41398114 -0.4308521
  0.01912103  0.0117317   0.26400977 -0.79308116 -0.04720211 -0.60651153
  0.06422973  0.23348844  0.30707374  0.6915761  -0.21765319 -0.09797549
  0.06354258  0.12188619  0.21911964  0.6200258  -0.22611186  0.10927314
 -0.12841606  0.6093096   0.87948346 -0.33169588]
[-0.14847131  0.07778327  0.47163785 -0.4587715   0.14535272 -0.6302257
 -0.24807337  0.04242386  0.77680063 -0.81088245  0.03318214  1.112546
  0.40678546  0.00362833 -0.11517788 -0.4056351   0.07739337  0.52920794
 -0.06515293 -0.2338662   0.05569509 -0.01079013 -0.7069789   0.04399203
  0.00583019 -0.01038233  0.16835263 -0.02694042  0.09226634  0.10543835
  0.9099582   0.06956651 -0.17617649  0.08241552  0.07893104  0.24462023
  0.4341132  -0.3405517   0.29087245  0.08510812]
[ 0.17688686  0.2965531   0.34695718  0.46315172 -0.3765239  -0.54625577
  0.33173102  0.60547346 -0.1841672  -0.72480094 -0.3487114   0.28618214
 -0.01349697  0.5015662   0.3867214   0.6770102  -0.30659008  0.84329885
 -0.4746643   0.23319137  0.32487997  0.7941458  -0.8609377   0.3501112
  0.0261817  -0.2693029   0.17866519  0.9011679   0.27054465  0.9859971
 -0.31081322 -0.05153311 -0.35647783 -0.5370202   0.460557    1.0032939
 -0.04374459  0.5279236   0.45944688  0.30177754]
[-0.06216414 -0.4323159   0.4210273  -0.09770065 -1.0505391   0.05832935
  0.47700077  0.8970369  -0.59002584  0.04962126 -0.5354861  -0.7094726
 -0.21656851  0.04695744 -0.04581614  0.47785148 -0.12337083 -0.32660237
  0.35032395 -0.48910218 -0.10066777 -0.40256718  0.6371858  -0.71799386
 -0.2711337  -1.0707794   0.29264084  0.32515994 -0.7266506  -0.70276374
 -0.5437092  -0.23515344  0.07468753 -0.13289638 -0.16749115  1.0192066
 -0.08021215  0.8811519   0.31717056  0.17345646]
[ 0.45426235 -0.43739802  0.47253433 -0.7634047  -0.4242341   1.0667422
 -0.38804507 -0.92791057  0.06823899  0.606962    0.6058138  -0.3031646
  0.13629653 -0.3740788   0.35417297 -0.01985768  0.21758509 -1.2605635
  0.5323036  -0.06696795 -0.46790484 -0.8385747   0.8013749  -0.42479777
 -0.43033138  0.853182   -0.3838757  -0.5911489  -0.6275528  -1.2882982
  0.94194925 -0.44106525  0.62213916 -0.3370774  -0.26606733  0.46300715
  0.05258435  0.5123514   0.07298487  0.16960385]
[-0.7135331   0.17998642  0.25929284  0.14459664 -0.01086394 -0.98994416
 -0.2457157   1.5395224  -0.06772977 -0.76683205 -0.7363706   0.32974836
 -0.07562898  0.6536163   0.08728641  0.28827763  0.06314883  0.6691587
 -0.2355854   0.01651091 -0.3781206   0.22120799 -0.57755196 -0.02121311
  0.10412522 -0.82349294  0.702651    1.0134937   0.13244219  0.6097672
 -0.18095765 -0.03755899 -0.22201334 -0.86872894  0.6548788   0.601896
  0.0540073  -0.3166304   0.20381293  0.54642266]
[-0.2787589   0.16069254 -0.07087413 -0.45870143 -0.38070908 -0.16501684
  0.12896638  0.03223821 -0.25287318  0.7153339  -0.26217327  0.46839866
  0.17644697 -0.21537937  0.3425139   0.40350613 -0.07888015  0.59671706
 -0.02033096  0.00101627  0.14973862  0.2933964  -0.34201545 -0.598723
  0.31603345 -0.19514766  0.702727    0.10438434 -0.43784535 -0.31531972
 -0.27844462 -0.1726306   0.396634   -0.3226049  -0.41146424  0.21136354
  0.22811373  0.41619647  0.03520314 -0.11563459]
[ 0.09925243  0.1366734  -0.8669871   0.19125739  0.34333983  0.74775594
  0.3699335  -0.3598202  -0.3074635   0.4374366  -0.01102329  0.07210457
  0.38788718  0.1262151  -0.33254415 -0.40620133  0.17318843  0.3169539
 -0.29188854  0.16455314  0.12514834 -0.41452226 -0.14457239 -0.5394649
  0.23659876  0.33882225  0.16670722  0.14374812 -0.40562147  0.46250147
 -0.2120842   0.6223715  -0.09923632  0.7290496  -0.39962026 -0.6152382
 -0.27101305  0.00773889  0.00720867 -0.1117444 ]
[ 3.8925499e-01 -4.3227628e-01  3.1313786e-01  4.7625831e-01
 -1.8289194e-01 -3.1303963e-01 -2.0952733e-01  1.3942397e-01
  2.5617210e-02 -5.7607740e-01  2.0034042e-01 -2.6648298e-01
 -3.1903818e-01  7.9053566e-02  6.7309587e-04 -2.2000101e-01
 -2.7838752e-01 -4.8924932e-01  5.3193516e-01  1.6360287e-01
  6.2948704e-01 -4.3124336e-01  6.0573354e-02 -2.1232326e-01
 -2.1971208e-01 -5.1576132e-01 -2.9278454e-01 -5.1589686e-01
 -6.0012311e-01 -4.8818672e-01 -9.5671058e-02 -5.1248050e-01
  2.6343656e-01 -7.3914516e-01 -1.3122852e-01 -1.8276593e-01
  5.2885997e-01  9.6413456e-02 -7.9596239e-01  1.9112593e-01]
[ 0.04105237  0.0891666  -0.31381276 -0.67457306  0.21104822  0.30627295
  0.50079745  0.44810355  0.74821514  0.25162867  0.15311459  0.53118795
 -0.12897508 -0.6559901   0.05969553 -0.5383666  -0.29327163 -0.35024163
  0.01551645 -0.63619     0.36948162 -0.14661384 -0.22353101  0.05669398
 -0.17307243 -0.6146095   0.39839247 -0.37884134 -0.39051458 -0.03842046
  0.50450695 -0.10891534  0.37816852 -0.22714241  0.05606061 -0.5780496
  0.05178771 -0.29012188  0.16466749  0.11638177]
[-1.0142016   0.03519153 -0.07422382  0.00172153 -0.23991472  1.1190757
  0.3890738   0.7815321  -0.02280126  1.4035643  -0.09817555 -0.5071955
 -0.06721066 -0.09787475 -0.45429814  0.17369334 -0.10446107 -0.07088552
  0.22764303 -0.4672811   0.12504566  0.02065028  0.9841882  -0.16398713
 -0.3490204  -0.23849525  0.12387576 -0.00893241 -0.6466693  -0.48051807
 -1.1394202  -0.48498553  0.44808495 -0.21050519 -1.367742   -0.86231846
  0.4648598   0.49590155 -0.5720363  -0.08770473]
[-0.7656937   0.4608877  -0.10115166 -0.11222324  0.823263    0.13066071
 -0.20842882 -1.1431128  -0.08671947 -0.11710925 -0.31323445 -0.26349682
  0.24968675  0.17715093 -0.49230775  0.3602258   0.647547    0.36814457
 -0.6774347   0.4022229  -0.24529827  0.4498524  -0.81583655  0.55937207
 -0.26158586 -0.06165914 -0.24962525  0.40763766 -0.00755536  0.7850823
 -0.40250215 -0.33480218 -0.4580402  -0.49230528 -0.9812977  -0.3113116
  0.20317605  0.5300515   0.2353571  -0.19162601]
[ 0.10089534 -0.5542901   0.34690714  0.59844816  0.13476983 -0.23319902
  0.08788613 -0.47282544 -0.52305037 -0.5718322   0.1480262  -0.5232214
  0.15897411  0.18111736 -0.24525407  0.44231004 -0.6393419   0.09366772
  0.06417215  0.27890748  0.6764966   0.18953492 -0.17009394  0.4682406
 -0.18745914  0.234659   -0.53273255  0.21372515 -0.06763535 -0.1392142
 -0.7985027  -0.41972825 -0.1702989  -0.18134473  0.39490247  0.89756256
  0.05500678 -0.11929236  0.0397056  -0.41685027]
[-0.17181337 -0.02402631 -0.02154911 -0.20779547  0.09800617 -0.33632746
  0.3064831  -0.09598729  0.02533768  0.21254915 -0.14088811  0.30650982
  0.41796553 -0.20578143  0.24472389 -0.22024165  0.39942074  0.29894564
 -1.0423902  -0.3467104  -0.15070222  0.3850765  -0.77271175  0.2814471
 -0.1367064   0.15657839  0.02290499 -0.57143235  0.43654242  0.7037179
  0.4503888   0.41043562 -0.3782601   0.35448134  0.61617273 -0.22320431
 -0.29646757  0.04952585 -0.00662817 -0.11730245]
[ 4.87867326e-01 -2.55102485e-01 -3.59929651e-01 -5.76865077e-01
 -4.42347586e-01 -4.05578017e-01  4.09543402e-02 -4.24745865e-02
 -2.49559149e-01  4.27395016e-01 -1.06504224e-01 -1.43639401e-01
 -1.76718284e-04 -8.57639611e-02  1.44696981e-01 -4.91105355e-02
 -5.72990905e-03 -1.90521315e-01 -7.38829523e-02 -1.60070062e-02
  3.23464334e-01 -7.54812956e-01 -2.64837384e-01 -1.92780972e-01
 -1.28859624e-01 -2.19437823e-01  2.33458355e-03 -4.87470329e-01
 -5.72329402e-01 -3.05071086e-01  4.75696117e-01 -5.32574765e-02
  3.40390116e-01  1.22252293e-01 -4.01934758e-02 -3.87673676e-01
 -3.88286352e-01  6.94621265e-01  1.87073573e-01  3.46712291e-01]
[-0.00300833 -0.77801037  0.3900766  -0.5305512   1.106904    0.41636777
  0.10305738 -0.05030189  0.90641737  0.46066844  0.39160243  0.7205806
 -0.09368948  0.22950009 -0.315206   -1.1491492   0.4142792   0.54166853
 -0.43929335  0.27596897 -0.49154982  0.47678807 -0.26011705  0.84497386
 -0.38404983 -0.21697651 -0.37845916 -0.50072515 -0.07581132 -0.18254694
 -0.08329643  0.2187959  -0.3403894   0.08887164  0.17909017  0.04669722
  0.2111872  -0.91588956 -0.79756355  0.19907168]
[-0.36504066 -0.03493406  0.07344787  0.6725715  -0.11901783 -0.47632477
  0.23623955 -0.52186364 -0.5853935  -0.19674467  0.4063597  -0.36225024
  0.54790115 -0.55869275 -0.28344446  0.66049606 -0.12669107  0.33264264
 -0.42236263  0.23704527  0.8092774   0.45745212 -0.13505667  0.3234078
  0.534367    0.34303436 -0.08584855  0.14349428  0.3538565   0.29834276
 -1.5431039  -0.20235111  0.27185094 -0.00780285 -0.09789604  0.26214322
 -0.0434213   0.682567   -0.14299375 -0.7701731 ]
[ 0.02429886 -0.2083831  -0.09583397  0.4168598   0.63425905  0.5767949
  0.05405165 -0.19544029 -0.05184034 -0.063721   -0.09456602 -0.66379446
 -0.36443934  0.21597688 -0.16635016  0.05301293  0.02489417 -0.11193918
  0.21860261  0.46546113 -0.08743417  0.41370863  0.69458926  0.4518431
 -0.21060751  0.20851216 -0.5890838   0.49870175  0.24578477 -0.14557846
 -0.27167732 -0.04227783 -0.1441735   0.19312313  0.04403266  0.05281159
  0.08472968 -0.05994378 -0.21671057 -0.49965113]
[ 0.16398062 -0.14689943 -0.05487992  0.75084674  0.33740744 -0.3644911
 -0.15587242 -0.73092735 -0.510205   -0.3674302   0.31491882 -0.58927196
  0.11352972 -0.11051343  0.05700352  0.28422558 -0.02191961 -0.3168134
  0.16363929  0.64068216  0.21508409  0.10048544  0.20236363  0.19978103
  0.11238591  0.5949036  -0.66731286 -0.2750132   0.18932252 -0.11498789
 -0.28681076 -0.22041503 -0.0173874   0.02807562  0.18456058  0.21841425
  0.17930397 -0.13846569 -0.59519196 -0.4963153 ]
layer 3 Activation
tanh
layer 4 Dense
40 20
[ 0.17220557  0.39710853 -0.17942925 -0.15018609  0.53535587 -0.10813975
  0.12543406 -0.0690494   0.10919897  0.06106691  0.05356579 -0.19517235
 -0.5188437  -0.09063811  0.19642207  0.21466497  0.24679862  0.33233362
  0.16044217 -0.2887551 ]
[-0.82425654  0.40749004 -0.01768111 -0.17470357 -0.02508821  0.51054794
 -0.2635679  -0.51635855 -0.2081183  -0.7307524  -0.736841   -0.36002812
  0.08031792  0.54359233 -0.19056012 -0.08571087  0.03437334 -0.00089569
  0.18970592  0.16276038]
[ 1.01862     0.5223157  -0.23020639  0.14389199  0.11192599  0.1614959
 -0.16826788  1.0161022   0.00826237  0.6986877   0.35703766 -0.04695591
 -0.50504416 -0.43380144 -0.11138106  0.3443298   0.17069967 -0.03464964
  0.36471948  0.07194855]
[ 0.18883571  0.56009173 -0.38976762 -0.01445807 -0.17686196 -0.1974273
 -0.16995789 -0.27257836 -0.14541212  0.09510189  0.0311657  -0.15860444
  0.0913717  -0.12728332  0.06930418 -0.40309346 -0.39375126  0.27851737
  0.49736217  0.05567037]
[ 0.15242346 -0.00632589  0.21480632  0.06406584 -0.6908559  -0.3328809
 -0.21717252 -0.41669497 -0.4923072   0.0880658   0.01839243  0.37862298
 -0.10742053 -0.14781508 -0.15081027  0.46828672  0.30323315  0.16620378
  0.30785045  0.29566762]
[-0.17358434 -0.10604025 -0.41137192 -0.21780126 -0.601963   -0.06123023
  0.3665504   0.08511364  0.44630682  0.72623926  0.6694462   0.01593673
 -0.04918114  0.32354513 -1.591227    0.37010717  0.2342954  -0.27843907
 -0.8129981   0.16446161]
[-0.16752398  0.01890784  0.06020322  0.03955391 -0.30460143 -0.34838462
 -0.01962142 -0.4556231  -0.09603375 -0.03497294  0.2667058   0.29052702
  0.17451262  0.29390937 -0.36339912 -0.07227784  0.22391973  0.00162937
  0.07155297 -0.13866541]
[-0.46834728  0.17213817  0.26043534 -0.25124273  0.09054946 -0.25408846
 -0.20813109 -0.1455108  -0.02547665  0.11219686  0.15994032 -0.07173643
 -0.4934681   0.07587459 -0.10094104  1.2235914   1.232865   -0.40156823
  0.06391703  0.11003771]
[-8.8823894e-03 -4.6383265e-01 -6.1678365e-02  1.8929282e-01
  4.1032770e-01  8.0381699e-02  2.1685933e-01  3.7817946e-01
 -1.6789742e-01  8.2386605e-02  5.1686307e-05  1.5084708e-01
  1.9388045e-01  5.0236613e-02  1.3132872e-01  2.0172067e-01
  2.8818437e-01  5.2639651e-01  3.0335426e-01  1.3632381e-02]
[-0.4316196  -1.1894041  -0.7024378   0.4631177  -0.11011807 -0.39909878
  0.08445119 -0.5576159   0.71915406 -0.08029799  0.6801062  -0.2308906
  0.8100304  -0.23252752 -1.162017   -0.12700158 -0.6518319  -0.5204086
 -0.6280714   0.14826609]
[ 0.30460685 -0.516332   -0.12202166 -0.04451681 -0.43054095 -0.49941996
 -0.02104296  0.72148806  0.15324445  0.8128295   0.6057456  -0.23569283
 -0.4087696  -0.32924116 -0.33898038 -0.08356292 -0.25181872 -0.00908084
 -0.4216189  -0.08388595]
[-0.24934918 -0.7628781  -0.6787211   0.23587643 -0.15925221 -0.32710764
  0.28316733  0.40850627  0.04552849 -0.40436083 -0.27421415 -0.2864388
  0.479929    0.02323988 -0.18874264 -0.05468332 -0.04434483  0.37077674
  0.08062013 -0.5995216 ]
[-0.05246357 -0.19744144 -0.2632385   0.20032342 -0.35034415 -0.06997404
 -0.3204593   0.62895936 -0.08123302  0.25236374  0.16099612  0.04432176
  0.31492767 -0.07176997  0.41302827 -0.14088108 -0.33643794 -0.39161852
 -0.4131539   0.0524019 ]
[ 0.34101972  0.3231463   0.06043711  0.08635911  0.28907585  0.37811258
 -0.37080324 -0.15027136 -0.30193987 -0.11790098 -0.2414368   0.30209428
 -0.09101703  0.03485082  0.5387161   0.01772785  0.48411733  0.2676265
  0.42362875 -0.08683851]
[ 0.38389486  0.35197604  0.5236842  -0.00643984  0.02101064 -0.30889872
 -0.15948124  0.81971943  0.08686918 -0.25209764  0.07265203 -0.9125872
 -0.24991094  0.15242825  0.10874596 -0.30638558  0.08160885  0.16426282
  0.19331421 -0.19133537]
[ 0.26354524  0.8632788   0.32026872 -0.23700751  0.11465438 -0.06730197
  0.14584917 -0.25914836  0.31214115  0.52345014 -0.491531   -0.3847129
 -0.24619281 -0.3077011   0.13326252 -0.03376673 -0.11829951 -0.31529588
 -0.17473362 -0.5218475 ]
[-0.5964088  -0.650421   -0.24391358  0.08539161 -0.1327356   0.3792499
 -0.37903935  0.47322333 -0.16772528  0.13644366 -0.47856194 -0.2500027
  0.30442482  0.07074118  0.08227094 -0.12661591  0.15735744 -0.58772427
 -0.17212132  0.4036477 ]
[ 0.01842388  0.22729462 -0.14156547  0.3730092  -0.22599979 -0.10222342
 -0.40761063 -0.4465784  -0.5488527  -0.47939426 -0.5386098  -0.03650324
  0.0836937  -0.08895845 -0.3850098  -0.03072032 -0.06826035 -0.33253348
  0.1132981   0.14252263]
[ 0.06943805  0.5997634   0.4382135  -0.30242568  0.29827604 -0.314285
  0.5204357  -0.15093124  0.04604717  0.60859406  0.39194158 -0.06215058
 -0.34924567 -0.03835444 -0.8126655   0.3014595   0.06258564  0.8100346
 -0.0256423   0.22977044]
[ 0.01061277 -0.10232203  0.05709579  0.12458742 -0.5751495   0.29786602
  0.05675146 -0.12737465 -0.18857454 -0.43225354 -0.9057585   0.20187059
 -0.02907337 -0.829282    0.99067223 -0.23931752 -0.10665046  0.44665805
  0.03781857 -0.08794512]
[ 2.2996360e-01  2.9656532e-01 -3.3019087e-01  9.5684350e-02
  1.9903827e-01 -5.1388973e-01  3.1370431e-01  7.9722071e-01
  4.2905045e-01  2.8981012e-01  4.6629253e-01 -5.1648998e-01
 -2.5199348e-01 -1.5908654e-01  8.7907270e-02 -9.3026154e-02
 -5.1341832e-01 -2.6295665e-01 -9.0336286e-02 -3.4050030e-05]
[ 0.02494575  0.03981535 -0.64007324  0.41333717 -0.19180262  0.02227456
 -0.219771    0.2881324  -0.23304845 -0.35170597 -0.2633696  -0.2257639
 -0.13606447 -0.11929323 -0.13256678  0.08186445 -0.22560452 -0.34024566
  0.3037093  -0.20641789]
[ 0.2423162   0.7649513   0.6218248  -0.87451583 -0.44430533 -0.39642248
 -0.17853746  0.6567971   0.3140254   1.5505804   0.46945977  0.5859797
 -0.6178837   0.10326972 -0.47453484  1.0200202   0.8484187   0.02346704
 -0.13103482  0.91449827]
[-0.01897183 -0.04645159  0.41394776  0.47244075 -0.8658548   0.37693915
 -0.7062691   0.11699075 -0.44890776  0.06209061  0.12770778  0.38487047
  0.27071124  0.10898582  0.31104922  0.45082158  0.45921108 -0.07419486
 -0.12863442  0.6763153 ]
[-0.15174177 -0.00438424  0.03843894  0.08159371 -0.54661024  0.2169339
 -0.24762328  0.19983041 -0.13570942 -0.3321187  -1.2298281   0.04981381
  0.12414921 -0.1379226   0.40762407  0.03678209 -0.39452875  0.40220258
  0.3336134  -0.08267127]
[ 0.09257437  0.07004595 -0.23872688  0.12218808 -0.2078384   0.41911754
  0.25498393  0.46594822  0.35056728  0.15360276 -0.01551982  0.5970356
  0.09379132 -0.80506134  0.05599688 -0.46105397 -1.04197     0.50425494
  0.00771484 -0.2549211 ]
[ 0.19406739  0.13107076  0.22404204  0.00732762  0.15196995 -0.27991796
 -0.02022125 -0.13983205 -0.21559104 -0.08069392  0.01119736 -0.27808395
  0.09639707  0.49307016 -0.18261188  0.19891287  0.67670375  0.06414366
 -0.16483423 -0.36153486]
[ 0.19706057  0.7598154   0.49878907 -0.2592323   0.07104148 -0.03775676
 -0.05235353 -0.74078023 -0.07746992  0.13239643 -0.4935321   0.39080092
 -0.03902264  0.2809284  -0.02175455  0.42429417  0.1620149   0.4626606
  0.44426644  0.00153645]
[ 0.25748774  0.11239979 -0.08787459  0.63529354 -0.48512024  0.82132035
 -0.36935169  0.18783753  0.17889583 -0.4845526  -0.550295    0.27291042
 -0.24964754 -0.21404113  0.6808669   0.11860947 -0.11889493  0.27133426
 -0.22575895  0.23164804]
[-0.26062912  0.06380302  0.20642653  0.26825717 -0.53618747  0.2732027
 -0.44749448 -0.6441546  -0.5857658  -1.2283508  -1.5263792  -0.03782612
  0.51257014 -0.07502641  0.48802552 -0.2639427   0.04132555  0.32146648
 -0.17338587 -0.4122931 ]
[ 0.3147508   0.2784449   0.11069145 -0.60480344 -0.4286043   0.37840116
  0.3962182   0.7034679  -0.47410113  0.1504519   0.06639256  0.21371412
 -0.25585616  0.09771948  0.20206852  0.400043    0.24504036  0.33304378
  0.67186624 -0.24471204]
[-0.49995142 -0.06697827 -0.25393707  0.1365963  -0.459914    0.31316695
 -0.36528048 -0.14483258 -0.08558205 -0.05538857 -0.7544745  -0.11962554
  0.00853156  0.06464344 -0.38010374  0.25385284  0.05446925  0.06229275
  0.4615085  -0.00505017]
[-0.3247652   0.27442127 -0.21953346 -0.15126276  0.10823748 -0.3303042
  0.59927416  0.52049494  0.23549919  0.60820776  0.7042427  -0.14541627
 -0.09350426  0.2958183   0.16181551  0.07396    -0.36378786 -0.37251586
 -0.5048613   0.0545208 ]
[-0.56919825 -1.0153551  -0.02179856  0.441678   -0.45222604  0.03074028
 -0.3626277  -0.27116513 -0.08425924 -0.12181743 -0.04452286  0.4144782
  0.3972868   0.12244392 -0.72663945 -0.14927822 -0.00258363  0.4484761
 -0.11770146  0.28445584]
[ 0.7999561   0.58954626  0.53159857  0.42901614  0.35245588  0.09095769
 -0.25664935  0.9612669  -0.43344676  0.09460918  0.15374431  0.24112181
 -0.6463718   0.05772428  1.0163355   0.06403248  0.26348275  0.55270326
  0.3568952  -0.0311653 ]
[ 0.85294074  0.9671185   0.6227484   0.08412243 -0.2852048  -0.14149658
 -0.47953326  0.4143821  -0.2522012  -0.0497231   0.06716931  0.15410092
 -0.09759218 -0.07947268  0.6639401   0.6843375   0.6453277   0.12906913
  0.59707946 -0.32532993]
[ 0.35208625 -0.44737127 -0.06280821 -0.31608763  0.29188353 -0.09934155
  0.05673832  0.23174413 -0.16394864 -0.1295889   0.14071482 -0.51968503
 -0.0958149  -0.27585405 -0.19174083 -0.01435872 -0.15808532 -0.32617941
  0.5104022   0.09885535]
[ 0.09755544  0.09032658  0.14141639  0.06154501  0.4202227  -0.18873912
 -0.00190308 -0.43639424  0.46087125  0.08658293 -0.41048494 -0.08083116
  0.16980542 -0.01748654 -0.6112492  -0.843926   -0.24683255 -0.13613997
 -0.71352667 -0.43398982]
[-0.13079311 -0.15560074  0.43182397  0.11447378  0.36236656 -0.23102717
  0.37851676  0.07867418  0.34096292  0.06064052 -0.42253044 -0.3293963
  0.2835134  -0.00416776  0.19425343 -0.05124151  0.0636851   0.33272222
 -0.31271628 -0.20281081]
[-0.3298834  -0.26947263  0.11881538  0.14622763  0.23135163  0.41786498
  0.35120192  0.3385231   0.06247858 -0.6004788  -0.38629162 -0.19973934
  0.07865834  0.19023484 -0.18489677  0.07725587  0.35608158  0.2298272
  0.05710117 -0.24675119]
[ 0.12498054  0.38390148 -0.09995549 -0.21642585 -0.16142456  0.08466964
 -0.04052863 -0.11555222 -0.36651602  0.29938757  0.01495383  0.16430698
 -0.11644207 -0.15307297  0.10333437 -0.24170873 -0.15100598  0.06077396
  0.28316483  0.10780996]
layer 5 Activation
tanh
layer 6 Dense
20 1
[0.03155005]
[0.13707556]
[0.25717846]
[-0.23257235]
[-0.15283477]
[-0.02924488]
[-0.18783835]
[-0.00755118]
[-0.26628017]
[0.20183305]
[-0.05116922]
[0.11699729]
[-0.2674892]
[-0.22048473]
[0.07132169]
[0.5920118]
[0.68961936]
[-0.21165635]
[0.15301654]
[0.3999346]
[0.4023407]
