layers 7
layer 0 Dense
20 20
[-0.76442206  0.48715907 -0.59683686 -0.6870414  -1.2962823  -0.2574693
  1.9324282   1.0343345   0.3520573   1.7823604   0.28154105 -0.4420395
 -1.1531239   0.11268796  0.17808765 -0.6259771   0.29684162 -0.07026464
 -0.84395474  0.23401725]
[-0.19995184  0.40091667  0.00577696 -0.42825064 -0.668771    0.5658516
  0.40250513  0.23644437  0.6104603  -0.4069433  -0.06825069  0.11327875
 -0.36633602  0.79950464 -0.30564582  0.46205923  0.02273996 -0.5840537
 -0.8121573  -0.6719768 ]
[-0.63031024  0.25683182 -0.63460195 -0.42800128 -0.27469903  0.3492242
 -0.1986205   0.5983634   0.13820702 -0.2823239   0.25507405  0.07434029
 -0.13657269  0.2464169  -0.8027977   0.3542253   0.02650531 -0.9621051
 -0.24960834 -0.61730784]
[-0.8023119   0.26013073 -0.17128952 -0.6125397  -1.207599    0.35901594
  0.9539136   0.9595237   0.47483128  0.6128525  -0.01115273 -0.41059348
 -0.67510396  0.48710978 -0.6804541  -0.03394911  0.29851487 -0.62585944
 -0.56785846  0.01767776]
[ 0.45050472  1.9786066  -1.4893223  -0.16166589  1.2891825  -0.355592
  0.61493134 -1.3630761   0.15825185  1.0669267   0.4272861   0.7096405
  0.13221382  0.7818851   0.8259172   0.45363784 -0.15070157 -0.69381243
  0.36741966 -0.18473753]
[-0.23285301  0.43688038 -0.29264247 -0.21189809 -0.46256903  0.5549498
 -0.1320177   0.23344465 -0.13683742 -0.48414436  0.17768443  0.04569336
 -0.3110313   0.81836736 -0.33899197  0.46984816  0.15928137 -0.42784855
 -0.6184623  -0.63051164]
[-0.7597566   0.19314721  0.01433373 -0.48123538 -0.29686785  0.5921839
 -0.19537911  0.38250342  0.24749339 -0.05099701  0.45575222  0.50649667
 -0.20297475  0.31191587 -0.8236345  -0.07712788 -0.3505081  -0.68457824
 -0.5663947  -0.4303558 ]
[ 1.0724313  -1.6300616   1.1199772   0.31504792  0.6042563  -0.9116493
 -0.65371335 -0.15038732 -0.9866626   0.17681429 -0.8661655  -0.6509721
  0.15392755 -1.1540483   0.76528823 -0.25969386  0.24610692  1.33923
  1.1062775   0.55893964]
[ 1.2341385  -1.6198382   0.4088489  -0.4363621  -0.18538426 -0.5372681
 -0.02643821 -0.46785322 -1.0363109   0.9696899  -1.3164343   0.55108577
  0.95738953 -0.06565204  0.79189485 -1.1030129   1.4252355   0.9858236
  0.3576119   0.9552905 ]
[ 1.2553787  -0.5066298  -1.354945   -0.4862005  -0.2819574   0.84518677
 -0.49545956 -0.6795145  -0.99682903  0.59525955 -0.7072328  -0.90423733
  0.5527727   0.5046483   0.5071314  -0.37006983 -1.0621936  -0.534411
 -0.7882951  -0.7300788 ]
[-0.02987335  0.18958434  0.40704334 -0.18234007  0.6970677  -0.09011883
 -1.7423381  -0.61039484  1.59283    -1.3596001  -0.25119016 -1.745528
 -0.47790712  1.537249    1.302544    0.38446245  1.5460422  -0.85429704
 -0.24400184  1.6034343 ]
[ 0.5779798  -2.2719758   0.37396765  1.1075766  -1.3582172  -1.3286347
  0.23160493 -0.15384173 -1.1544372   0.36639526 -2.0382175   2.4572926
  1.2947365   0.33264998  0.3429733  -4.5903244   0.0519906   1.1219039
  2.187457    3.709395  ]
[-0.5747639   1.7299986  -1.3862195  -2.2120593   0.16048978  1.4591911
  1.4057934  -1.288521    1.6886412  -0.16860734 -0.37984574 -0.36716923
 -1.9008452  -1.8394539  -1.0093132   1.0169142   1.3249177   1.1477971
 -0.9319993  -0.7390605 ]
[ 1.0692683   2.4378703   0.13214743  2.250952   -1.2210844  -0.54697263
  2.4086862  -1.1360995   1.1475308   2.1997535  -0.48747987  0.17938125
 -0.00290701  1.175184   -1.9078875  -0.40660766 -0.20148157  1.0593758
  0.39750296  2.125362  ]
[-0.55411315 -0.55008876  0.6945968  -0.5071973   1.4653325   1.851854
 -0.35369092 -0.27604344 -2.2140167   0.72783476  1.7882435   1.8858123
 -0.2146812   0.23394373 -1.0406369   0.6931785   0.7376106   2.0423388
  1.0573989  -0.98560995]
[ 0.00947533  0.5576454  -2.365015   -3.3379703   0.34824193  0.6612188
  2.249491    0.7837174   2.2156003  -0.9285903  -0.79214084 -0.11284704
 -4.600536   -0.4481361  -1.7470595   0.81145525  0.9717736  -0.4837232
  0.394299    0.49259904]
[-2.0957834e-01  2.1784730e+00  6.8487622e-02  1.7784362e+00
  3.9174193e-01 -2.5895667e+00  2.3588865e+00 -1.3294408e-01
 -8.6828548e-01  4.5471973e+00  3.8150458e+00  2.7842047e-03
  5.1292694e-01  1.4385314e+00  3.1048956e+00  6.4530503e-04
 -1.9656959e+00  1.4300585e-01  9.6774536e-01  6.0816151e-01]
[-1.3396267  -0.23720016  0.91516817 -0.49024817  0.95740867 -0.68065375
 -0.81742215  0.94127655  0.414413   -1.7331498   1.0042111   0.7367908
 -0.06636942 -0.57415634  0.16037922  0.9672608   1.3445005  -0.5527585
  0.48061064 -0.30254164]
[-0.01483512  0.06125185 -0.3101612   0.3588149  -1.3849492  -1.370038
  0.85926026  0.41360372  0.05267683  0.73538005 -0.6010686  -0.3340392
  0.86669844 -1.8689828  -0.4179671  -0.45717853 -2.560798   -0.4524157
 -0.5038464  -0.7244727 ]
[-0.14372478  0.5895624   1.4553272  -0.24764411 -0.92631924 -0.10708549
  0.26556945  1.9847618  -0.8791486   2.6701515   1.0477016  -5.2402315
  0.9341208  -2.065427    0.67390454  1.0931681   0.49587288  1.4172932
 -2.435479   -1.5597222 ]
[-0.75821066  0.34070483 -0.29863426 -0.16879377 -0.65675867  0.5670353
  0.27209115  0.5816079   0.3404204  -0.43215778  0.2242308   0.23107503
 -0.24559805  0.624049   -0.66388696  0.17398615 -0.15656741 -0.84561384
 -0.6907069  -0.49026203]
layer 1 Activation
tanh
layer 2 Dense
20 40
[ 0.37038043  1.5867081  -0.275005   -0.5678991  -0.6029584   0.19179167
 -0.31668505 -0.45265588  0.16740103 -0.01773207  0.4111999   1.6109858
  0.4690221  -0.79595554  0.93661994 -0.60113645  0.9903836   1.3809255
  0.08473644 -0.09111903 -0.7822702   0.90177107  0.29796767  0.9954597
 -0.5093972  -0.8387619   0.20137635  0.26701275 -1.211769    0.5159774
 -0.92557687 -0.23160045 -0.02258889 -0.5662332  -0.16163574 -1.0545853
  0.9245815  -0.25047565 -0.3957006  -1.2587372 ]
[ 0.82164985 -0.46140835 -1.4753025  -2.154103   -0.77546597 -1.868851
  2.8925543   1.3022588   0.6295683   2.2921915   0.89509624  0.53018934
  1.8781486  -0.9613259  -0.16638307 -0.4617253   1.0946122   0.9624021
 -0.6367159   0.25762588 -0.4614336   0.49010992  0.63558304 -0.4601065
  0.22644863 -1.8456535  -0.21328574  2.682359    2.0670798   1.5346391
  0.5947604   0.08743725  1.7276397   1.4586587  -0.725091    1.2587731
 -1.9040707  -1.5475721   0.57328725  0.2581323 ]
[-0.6993674   0.41663188  1.3925068   0.6613196   0.3714076   1.3087255
 -1.0382156  -0.72063947  1.436189    1.6899874  -1.5821364  -0.385908
 -1.1093311   0.24645306  1.360944   -0.7015721   0.0093436   0.2623639
  0.32006818 -1.1398244  -0.49507993  0.35075855 -1.1813618  -0.0524321
 -0.6047555   2.0082984  -0.82787323 -1.291853   -0.40339124  0.8699659
  0.43484688 -0.8779285   0.6997256  -0.1300546  -1.2334679  -0.40280145
 -1.5640979   2.004897    0.6774428  -0.41872525]
[-2.3513353  -1.1264013  -0.26913077 -2.3795772  -1.9863458   0.41193584
  0.6634925  -1.1034595   0.5768949   1.234322    0.61122006  1.127507
 -0.390502   -0.12835427 -0.6379715   0.8163359  -1.1176052   0.17326535
 -1.0613449   0.36749014 -0.42945808  0.8540966  -0.44900525 -0.9561158
  0.05917386 -0.96861637 -0.79406184  0.4448777   0.9395167   0.50572723
 -1.456456    0.50348914 -1.6593292   1.5793656  -1.3334416  -0.38791528
 -0.10329878 -1.078294   -1.1032077   0.18347739]
[ 0.5355844  -0.03421306  1.7954241   1.1776628   0.24007004 -0.2636094
  0.1643443  -0.48042876  0.7017659   0.0188358  -1.451019    0.26073766
  0.6191566   0.34677696  0.81613123  1.3647512  -0.6212912   0.4140959
  0.59135896  0.39893967 -0.8873431   0.01999215 -0.10963536 -1.0908103
 -0.7708759   1.3520371   0.38816258 -0.8979227  -0.9888916   2.1454346
 -0.5368088   0.3820888  -0.82658947 -0.11918236 -0.49452    -0.5537037
  0.19572397 -0.14225277  1.373354   -0.65890396]
[-0.9027044   0.10524365 -0.9930609   0.22347023  0.52349615 -0.86303794
  0.6859334   1.48164     1.2914363  -0.39671853  0.7708959  -1.0525749
  0.40612167 -1.1677791  -0.9563799  -1.0437192   0.44765016  0.15485701
  0.20068607 -0.06203783  1.4421419  -1.1738193   1.3589958   0.06862161
  1.2962389  -0.28481823 -1.0149198  -0.4651424   0.48582432  1.3312672
 -0.43368763  0.3029323   0.41943955 -1.2826998   1.1234629  -1.1044443
 -0.10916294 -0.9626709  -0.5095606   0.02066113]
[ 0.9683369   0.41999286 -0.29891706 -1.1652753  -0.17050089 -0.89307666
 -0.22880456  0.96393627  0.28762177  0.73541886  1.343008    0.52988166
  0.3695295  -1.3217491  -0.5815133  -1.2786556   1.5267756  -0.08624221
 -3.301288    2.2377808   1.4085133  -0.11907852  1.4253341   1.4760132
  0.6116099  -0.47571978 -1.0685625   1.5249833   1.8691355  -0.06609142
 -0.07323714 -0.37175336  2.3572845   0.99058807  2.197536    1.2394505
 -1.2656777   0.9403014  -0.36827588  0.1394965 ]
[-1.2923267  -0.56758064  0.0244755  -0.05673204 -0.4656124   0.18156688
 -1.1163094   0.4197406   0.50182027  1.0196362  -0.16212311 -1.0081745
 -1.4521655   0.44278833 -1.1619897  -1.1208096  -0.37991762 -0.10656841
 -0.13438395  0.51695985  1.4222842  -0.16598874 -0.66789275 -0.52607733
  1.5210866   0.18215887  0.69436044 -0.2868774   0.15830775  0.41476107
  0.8370419  -0.21608311 -0.09973307  0.37775338  1.1767966   1.5372932
  0.03720291  2.0764282  -0.21162009  0.312004  ]
[-0.5072463  -0.0609495  -0.43582466 -0.13754544 -0.24681441 -0.92613405
  0.01765171  0.6725286  -1.3484964  -0.22049691 -1.1711513  -0.0457946
 -0.1409527  -1.3190936  -0.27809513  0.76032025  0.5225428   0.40516612
 -0.40044808  0.8457738   0.28025416  0.67988306  1.630138   -0.18540046
  0.46679494  0.7257167  -0.6022369   0.59787524  1.4085673   0.478898
  0.45217392  0.42058218  0.6043515   1.3253522   0.11503971  2.0086434
 -1.1479189  -0.50256693 -0.21300042 -0.3610254 ]
[ 1.3901604  -1.9583234  -1.2763166  -1.5299969  -1.8036002   0.9688808
  0.23045115 -1.3587035   0.04857736  1.4161791   0.54855174  0.8949693
 -0.44718343 -1.5997561   0.39138216 -2.0358136   1.5835289  -0.6787338
  0.20173313 -0.11692296 -0.58579105 -1.0106604  -1.5306972   0.5404208
  0.0838159   0.70258945 -0.8963093   2.0517077   2.2725601  -0.74094504
  0.7884256  -1.7348021   0.31732014  0.30007574 -1.7737757  -1.4986377
  0.07863183  0.39668024  0.8516293   0.26500228]
[ 1.039066    0.30563295  1.3410221  -0.07172526  1.5096395  -1.1995564
  0.9790299  -0.72090465 -0.8431375   1.807229   -1.5520154  -0.38896686
 -1.5831345   1.0877137  -0.558896   -0.17054647 -0.77367646 -0.66081524
 -1.2278874   0.5518172   0.29478323  0.2903868  -1.314781    0.14556836
  1.3840256   1.1403829  -2.5309289  -0.82825905  1.1502678  -0.13369259
  1.9485123  -0.65334857  1.1530914   0.9619467  -1.1232598  -0.10174266
 -2.2803264   0.13975652  2.0290627   0.90026015]
[ 1.1632571  -0.07396946  0.86740726 -1.5595018   1.0349318   0.59764624
 -1.2832059  -0.2673931   0.55949473 -1.2098042  -0.58505267  0.3887842
 -0.7411472  -0.3988568  -1.5784054   0.61296535 -1.2516063   0.05124006
 -1.9227113  -0.39935473  1.4573087  -0.23476803  1.8473707   0.04624458
  1.1191571   0.18197109 -2.0871592   0.06409495  0.2687029  -0.15328266
 -2.7957535  -0.439225    0.6262372   0.25526893  0.32007396 -0.05638354
  0.395941   -1.682152    2.2385404   0.38510305]
[-0.40474442  0.1617524   0.01944344  1.1190783  -2.3076007  -0.04879154
  0.73677045 -0.3021074  -0.1765821  -0.958475   -0.9630653   1.673205
  0.43096787  1.171531    0.37979984 -0.8736569  -0.8945298   0.19210678
 -0.35702312  0.5097398  -0.12994933 -0.31362456 -1.3138624   0.32335797
  0.14090607 -0.31245047  0.24271241  0.3172252  -0.812049    0.4096273
 -1.0059879  -0.2666555  -0.59238595  0.7704995  -0.40780333 -0.4422369
 -0.00473645  0.81257313 -0.5407936  -0.02669334]
[ 1.5963248  -1.6141514   0.46272284 -0.3975087   0.20505232 -0.0607299
  0.36333525  0.49477947 -0.88606226  0.7854718  -0.61319476 -1.7205578
 -0.38531566  0.88407207  0.11767204  0.57810986 -0.7892418  -1.0966489
  0.8540533   0.39828014 -0.05837285 -0.27521145  1.0619736   1.9659016
 -0.07122771  1.1689416  -0.47709578  1.1779034  -1.7061847   0.06316463
  0.28114855  1.056185   -0.9033365  -1.3201907  -0.08345905 -0.5855596
  0.85687065  0.14468928 -0.6036287   1.066899  ]
[ 2.7858779e+00 -5.0222639e-02 -3.7934223e-01  9.7603452e-01
 -6.3455060e-02  1.4997350e+00 -3.5161960e-01  2.4495631e-01
 -1.3322049e-01  1.4368042e+00  3.4985688e-01  1.7432412e+00
 -6.5732419e-01  1.6105040e+00  1.5073050e+00 -4.9900272e-01
  8.3466351e-01  2.6315373e-01  1.0160669e+00 -1.4198848e+00
 -4.4741493e-01  5.5375893e-02 -4.0814331e-01 -2.8054395e-01
 -7.7018273e-01  3.2916209e-01  8.6627072e-01 -3.3459248e-04
 -8.8189906e-01  6.2156665e-01  6.6468105e-02  2.0929875e+00
  1.1510352e+00 -5.5909628e-01 -1.0795029e+00  1.9916256e-01
  9.9703950e-01 -3.5452458e-01 -7.8758007e-01 -8.5782725e-03]
[-0.47961387  0.77260715  1.5904124   0.48337713  0.4451848   0.15145126
  0.47103494 -0.3244558   0.5732072   1.0138206  -0.4187752  -0.369982
  0.1492493   0.27559575  0.98178834  0.8994069   0.48289463  0.6357339
  0.6300255  -0.21997732 -1.4213629   0.8134963   0.14309064 -0.79361093
 -0.90311867  0.8264948   0.3792253   0.13701238 -0.1780958   0.5419247
  0.3711051   1.070078    0.7148171  -0.59029347  0.79867446  0.3941869
 -0.5661144  -0.4934008   1.709691   -0.45538372]
[ 0.10531407 -0.09095862 -1.5469112  -0.00300686  1.568614   -0.55047107
 -1.3476162   0.5972669   1.0424427  -0.29840603 -0.5180739  -0.8906982
  0.23369206 -0.37546334 -1.3762414  -1.4303714  -0.04733022  0.01517772
 -0.1822911  -0.93946064 -0.09186506  0.9555153   0.8551355   0.37495726
  0.35545024  2.072991    0.39009053 -0.35908112 -1.4868107   0.82019395
 -0.4150505  -0.5829048  -0.6729515   0.6673658   1.1275997   0.8331336
  0.6676264   0.30891484  2.6592698  -0.2503755 ]
[ 0.58174264  1.6710284   1.270058    0.91665727 -0.818334    0.44237807
 -1.0820184   0.02408021  1.5769384   0.2520286  -0.21575396  0.07787349
  0.4849981  -2.1070285   1.8087223  -0.8881456  -0.703495    0.8071309
 -0.11168971 -0.23941606 -0.6094901  -0.27773598 -0.68562967  0.5244476
 -1.0132116  -0.04755391  0.32089227  0.0471503  -0.0714416  -0.78128606
 -0.77172846 -2.883335    1.3828756   0.25960162  0.16980398 -0.45233944
  0.7361635   0.87613016  1.0823638  -0.9399805 ]
[-0.17463386  0.44407153  0.47594845  0.0086417   0.21325754  1.1511202
  0.05380467 -1.4486905   0.4572237   1.4642191  -0.04489839  0.7109203
 -1.2410444  -0.5050446   0.6841915  -0.25754395 -1.5298904   0.7832866
 -0.36566165 -1.9345495   0.2503825   1.2859222  -0.09312291  0.28223827
 -0.6140599   0.73251176 -0.31971678  0.24955589 -0.39341632  0.14969467
 -1.2983853  -1.071934   -0.7380175   1.5299759  -1.0490619  -0.3257834
  2.0750115   0.6474013  -0.00214403 -0.48797783]
[-1.1448348  -0.15873733  0.600009   -0.5648433  -1.1385055   1.4201866
 -1.8977399  -0.751946   -0.41111037 -0.21969059 -1.1758986  -0.38837016
 -1.0083368  -1.3983148  -0.3136468  -0.9822297  -0.14027472  0.01918617
 -1.59656     0.08057442  1.0966052   0.5078768   0.432587   -1.0529836
  1.4174987   1.4333011  -0.92563266  0.5159531   0.94466245  0.5639966
  0.00850304 -0.5935848  -0.810708    1.4416629  -0.5431482  -0.15123859
  1.0229741  -0.407334    0.6121457   0.27426717]
[ 0.607449   -2.1777484  -1.2743789  -1.230248    1.1999735  -1.2762845
  1.7734541   1.5928789  -0.06458503 -0.4713964   0.87408906 -0.3560206
 -0.14541844  0.33437395 -1.5445025   0.55906266  0.04610417 -1.872254
 -1.0055138   1.3970244   1.5842067  -1.9461191   1.2570015   0.01632701
  2.0066888  -0.7871362  -1.3752052   0.2455806   0.16979308 -0.389926
  0.60874206  1.7779589   0.20084636  0.1961787   1.145792    0.6173437
 -1.6932263   0.01801203 -0.11929607  1.9352431 ]
layer 3 Activation
tanh
layer 4 Dense
40 20
[ 0.7321375  -0.39733633 -0.45428023 -0.41159552 -0.49385682 -0.03105197
  0.45942065  0.04918568  0.23985     0.5810376   0.70004994  1.225188
 -0.47506678  0.42634037 -1.7305719  -0.36483768  0.08580118  1.573237
  0.6171495   0.63333327]
[ 0.17656673  0.0457532  -1.1915379   0.17374763  0.5474694  -0.15113148
 -0.05738345  0.39971048 -0.24729216 -0.8689613  -0.6776119   0.19212756
  0.49985906 -0.45927757  0.5684209   0.5744199  -1.3913213  -1.555457
 -0.6592878  -1.0305842 ]
[-0.26934195  0.23862432 -0.07283172  0.06695984 -0.01459725  1.246292
  0.9045439   1.1132065  -1.0816033   0.51261616  1.154834   -1.0109377
  1.0699089  -1.3911444   0.91901535 -0.7508295  -1.056037   -1.0799786
  1.0534064  -0.16268475]
[-0.10207774  0.3452383   0.32909364  0.00881195  0.16659461  0.11426418
 -0.45365515  1.0030885  -0.9104984  -0.19062258  0.31407672 -0.00881707
  1.2452538  -0.59868664  0.18611777  0.32432425 -0.36985725 -0.9615948
  0.48032522  0.2606405 ]
[ 1.1073457  -0.44425943  0.5683404  -0.72091454 -0.7060701  -0.2504375
  0.19435288  0.45493972 -0.21084656 -0.20164295  0.8105524   1.0533869
 -1.1962485   1.4884197  -0.74827206  0.78987676  0.34797508  1.028428
  0.40307233  1.0121881 ]
[-0.07716886  0.06865831 -1.2742918   0.9265316   0.41643062 -0.22790538
  0.14939149 -1.001639    0.459829   -0.01214099 -0.23863272 -0.32904035
  0.29362425 -0.3318043   0.7939966  -0.6156964  -0.74273    -0.03472424
 -0.99650675 -0.75946456]
[ 1.2076212   0.22410215  0.09056521 -1.4924488  -0.9546615  -1.1109134
  0.23652452  0.03849771  0.76248753  0.3558838  -0.81925386  1.5655491
 -1.0336952   1.004934   -1.1147789  -0.24201712 -0.19983588  0.4577554
 -0.47779548  0.45172596]
[-0.2415889   0.9052504   0.69948155 -0.35227486 -0.99112153  0.2689859
 -0.02193325 -0.24073195 -0.5655102   0.10621198 -0.36370698  0.24831592
 -0.44995818  0.53632295 -0.4460855   0.44956177  0.36151654  0.7060876
 -0.11382183  1.2605098 ]
[ 0.8055327   0.0576771  -0.25013176 -0.22360899 -0.4936639  -0.45698357
 -0.25445408 -0.09533197  0.612912   -0.26622674  0.05835626  0.51265776
 -0.38109654  0.46332088 -0.5096855   0.31707618 -0.2532719  -0.25412738
  0.19497932  0.5112488 ]
[-1.0164416   1.1621097  -0.6290395   1.7135463   0.57194424 -0.4180863
  0.82026726  0.39257556 -0.29460293  0.23571208 -0.34141213 -1.6990551
  0.98266417 -1.0348536   1.4821502  -1.1764473   0.57000506  0.06088341
 -0.19875368 -0.04744594]
[ 0.25931966 -0.38093394  0.31763217 -0.22788294  0.0979889  -0.03845062
 -1.0892236  -0.41824943  0.4462016  -0.09818492 -0.18311296 -0.02345754
 -0.964395    0.6506519  -0.8451693   1.2114978   0.19055846 -0.24068514
 -0.52328783  0.10611144]
[ 0.8704911   0.02791205  0.2197292  -0.63108337  1.0814793  -0.7525319
 -0.27970487  0.00767452  0.6112634  -0.48313624  0.32558316  0.7729753
 -0.37002516  0.09310694 -0.33111447  0.5150406  -0.6804187   0.11659334
  0.21419138  0.07667616]
[ 0.74219286 -1.0751958   0.5528702  -0.01843723 -0.489589   -0.05940977
  0.25640544 -0.96490055  0.88976556  0.22606565  0.05940421  0.5414542
  1.562285   -1.8011812   0.984091   -0.43272188  0.24836256 -0.5158348
 -0.5206857   0.19455624]
[-0.4719703   0.4501943  -0.122858    0.33339643  0.45341435  0.506537
  0.71634054 -0.173426    0.17305385  0.24043457  0.33912688 -0.26571965
  0.95746225 -0.6716088   1.3133994  -1.091715   -0.06871116 -1.4992038
 -0.06980915  0.38310954]
[-0.16204654 -0.20571992 -0.47088146  1.2707664   0.8960202   0.689647
 -0.26935056  0.19559994 -0.2885495  -0.24288042  0.19791499 -1.0177481
  0.7236016  -0.59801793  1.1652989  -0.10025735 -0.58365357 -0.8088542
 -0.45867595 -0.801514  ]
[ 0.55802834 -0.8649292   0.47055405 -0.02741651 -0.60178804 -0.55577976
  0.18359394  0.13767484 -0.04150023  0.3056358  -0.41264707  0.11477008
 -0.06740785 -1.0008811   0.7065687  -0.32803828  0.2323864   0.8774849
  0.04186894 -0.07802373]
[-0.7495752   0.47651228  0.1093069   0.5224061   0.54898566 -0.5795916
  0.2512255  -0.813515    0.84156936 -0.6771475  -1.1150135  -0.94134986
 -0.01316533 -0.05461325 -0.22870219 -0.08016287 -0.4005864  -0.22930597
 -0.9581762   0.15120994]
[-0.28820086 -0.6677166  -0.96271116  0.4091608   0.22521615 -0.7315906
  0.51745874  0.66769236  0.6430906  -1.1381948   0.23443179 -0.6868603
  0.43934816 -0.8351173   0.32451943 -0.08429583 -1.1686196  -0.3011731
  0.7047632  -1.2200925 ]
[-0.43033463  0.77547985  0.04841965  0.93339753  0.45646095  1.2328047
  1.4714576   1.380242   -0.76331466 -0.9759886   1.3290796  -0.26657367
  1.4634049  -0.94074595  0.8418774  -1.3896362  -0.54898286 -1.254634
  1.5602918  -0.1690031 ]
[ 0.03324839  0.4672966   0.64914966 -1.0116923   0.37311605 -0.17024148
 -0.11723647  0.23896846 -0.631969    0.3975304  -0.13727732  0.71280813
  0.05881859 -0.19207461 -0.82530797 -0.04256602  1.0738572  -0.07001432
  0.5262075   0.7111309 ]
[ 0.47552595 -0.44283575 -0.05937697 -1.3560704   0.01032919 -0.9395695
 -0.80739725 -0.79818845  0.6074351   0.9708712  -1.1463531   1.61104
 -0.03122436  0.94316024 -1.3489164   0.83640677  0.9020001   0.8510652
  0.14231995 -0.02919321]
[-0.6202312  -0.42484704 -0.6420855   0.09846091  1.136578    0.12386853
  0.6519368  -0.32643962  0.04148374 -0.6419734   0.1679823   0.09104573
  0.5301601  -0.43470594  0.81826913 -0.7010901  -0.37189928 -0.34345928
  0.4503248  -1.4066731 ]
[ 1.2732649  -0.68305117  0.74396646 -1.4572531  -0.1225507  -0.52894545
  0.00706895  0.15793929  0.26565138 -0.19052975  0.8842917   1.0865041
 -1.1658627   1.1448132  -1.632998    0.73087114  0.5659588   0.47607064
  0.06761195  0.7516525 ]
[-0.672263   -0.12902842  0.2642764  -0.05413833  0.51091707  1.3397238
 -0.2439772  -0.25586385 -0.14712863  0.3976648   1.1242894   0.21115983
  0.3816924  -0.22279023 -0.12230126  0.2636793   0.55224895 -0.6057697
 -0.20007639  0.19180058]
[ 0.8837835  -0.3347318   0.5430164  -0.6666173  -0.26912585 -0.37588444
 -0.41202813  0.57199824  0.18679309  0.71507484  0.03816313  1.5521897
 -1.8111038   1.6367778  -1.4149925   0.7599643   0.49860084  1.5239832
  0.28099266  0.9651092 ]
[-0.16252905  0.08237156  0.48920894  1.3822184   0.37489164  0.66481876
  1.6962734   0.35558647 -0.36696982 -0.21011592  0.6203319  -0.9559463
  0.8465662  -0.87168694  0.72235227 -1.9540491   0.04607882 -0.59608716
 -0.12646636  0.130861  ]
[-0.08446735 -0.4684372  -0.28736418 -0.99715024  1.1030542  -0.23815554
  0.3361576   1.1111495  -0.3387307  -1.0829586   0.09597808  0.5027995
  0.587733   -0.18898112 -0.58882165 -0.09850257 -0.8153465  -0.39034232
  1.3244389  -0.50978374]
[-0.1658618   0.1620646   0.49631086  1.247638    0.26524913 -0.5031671
  0.05441496 -0.8676756   0.734326    0.21780843 -0.4169851  -1.0311487
  0.9035785  -0.58446157  1.1915193  -0.2061691   0.42091307 -0.2537576
 -0.8242579   0.02704919]
[ 0.91559756 -1.1995004  -0.07905797  0.09800497 -1.0487112  -1.1486267
 -0.4971241  -1.3538499   0.5244862   0.46502265 -1.4551245  -0.1390167
  0.885449   -0.52617943  0.3733226   0.7115804  -0.21542418 -1.7544966
 -1.3145475   0.47044352]
[-0.27145022  0.2437757  -0.810635    0.00992777  0.3194172  -0.47850183
  1.2173784  -0.60931736  0.36481714 -0.5779554  -1.2642117   0.2212912
 -0.24544339  0.06132331  0.37460843 -1.3818591  -0.49174932  0.08788736
 -0.67099106 -0.04706442]
[-0.11185344  0.28353313  0.5570058  -0.64821374  0.5876648  -0.2838037
  0.6404488  -0.25760302  1.0672283   0.6810735  -0.57965416  0.9827972
  0.86394763 -1.1033609  -0.15765616 -0.82047796  1.7458034  -1.126154
 -0.88857293  0.09364231]
[-1.0606441   0.19586022  0.1933825   0.22476506  1.1233894   0.5854437
  0.5392897   0.6752775  -0.8950813   0.09224652  0.7622461  -0.16175689
 -1.1500002   1.3425902  -1.105057   -0.5946083   0.05844153  1.0635712
  0.8632273   0.31724116]
[ 0.19542451 -0.64998186  0.4163468  -0.8016092  -0.6028943  -1.1597439
 -0.14437525 -0.6118926   1.0719134  -0.34037718 -1.3817277   0.76129746
 -0.9747049   1.0875703  -0.60910666  0.18321046  0.4186433   0.9414782
 -0.9996573   0.40086544]
[ 0.23384327 -1.0043802   0.8169448  -0.74795765  0.1667498  -0.6834357
 -0.249063   -0.6621019   0.2315866  -0.65450305 -0.67736334  0.9770227
 -0.46325976  0.31394884  0.1106664   0.3168412   0.24821174  0.92755264
 -0.05642707  0.26438972]
[ 0.660605    0.33318868  1.1250856  -0.7640975   0.38803133 -0.39514804
 -0.26955935  0.10934824  0.63625926  0.09115218  0.3780259   0.6060281
 -1.5104202   1.2389448  -1.3073457   1.0705492   1.2424384   1.6936324
  0.68948513 -0.55577326]
[ 0.30737755 -0.26085845  0.17098334 -0.5631094  -0.04961549 -0.04926907
 -0.28275955  0.19376329  0.05536499 -0.10585017 -0.28268725  0.6638551
 -1.5405929   1.4188924  -0.8865073   0.2548066   0.4055621   0.00400172
  0.3342691   0.22912109]
[-1.2109818   0.86087656 -1.2689884   0.07565462  1.2989438   1.3829335
 -0.41365033  0.7566036   0.68693167 -0.11233886  0.927269   -0.48390043
 -0.7949363   0.5356848   0.06128743  0.7237219  -1.3408825   0.8347799
 -0.23087206 -0.6293667 ]
[ 0.05152475  0.5537326  -0.22895768 -1.3952658   0.1722018   0.5484156
 -0.16446087 -0.4030111   1.1259208   0.38655928  0.85222733  1.8358983
  0.1963484   0.13586877 -1.2283196   0.1653401   0.53800297 -0.15759365
  0.12328105  0.5429494 ]
[ 1.1306367  -0.37259114 -0.77593744 -0.8993065  -0.71061194 -0.18900248
  1.4227103  -0.22023036  0.93320763 -0.33255956 -0.19204774  1.0032619
 -0.51899177  0.6784398  -1.1752189  -1.1659895  -0.88425016  1.1202223
  0.37953115 -0.6425116 ]
[ 0.7869405   0.3689027   0.8904415  -0.51949954 -0.79411703  0.404554
 -0.62402856 -0.6248562   0.0701903   1.3827766  -0.32362145  0.4187932
 -0.52298903  1.0897723  -0.7760039  -0.6436832   1.4101992   0.8721246
  0.0291245   1.3497959 ]
[ 0.5142122   0.433697    0.8902413  -0.40271664 -0.57042235  0.43127435
 -0.46125063 -0.6092639  -0.19384757  0.8398634  -0.2020506   0.41952744
 -0.6160264   0.9849595  -0.48621786 -0.42232937  1.3049026   0.76365584
 -0.04645621  0.9767823 ]
layer 5 Activation
tanh
layer 6 Dense
20 1
[-0.5388846]
[0.12108683]
[1.3780557]
[1.2193646]
[-0.5117864]
[0.3040207]
[-0.46428734]
[-0.16751574]
[-0.17161544]
[1.5724962]
[-0.26560283]
[-1.3876423]
[1.1289785]
[-1.4303862]
[1.0274993]
[-0.44818532]
[1.3346621]
[-1.501383]
[-0.11368442]
[1.503899]
[1.8663471]
