layers 7
layer 0 Dense
20 20
[ -0.48150030318807685 -0.34838323260038456 0.2118582246317886 -0.1305989217262357 -0.24655925409895071 0.5480657557945667 -0.2518538257138835 -0.24503702013168957 0.08254419147139141 0.23888993024886826 0.4065027122544051 0.7003328804101037 0.9927475137819392 0.24737752916735245 -0.12998598059330338 -0.5253932706397693 -0.2901550479050099 0.025362940928940533 0.12402682503992807 -0.3250353840012025 ]
[ -0.05445304825535225 -0.2439761441607397 0.030622998885225197 0.11698071736398305 0.3596306275401413 0.3065550244374941 -0.13008739628441188 0.221491044272558 0.37174606599540405 0.14140991440458098 0.18689923136743442 0.1630046323536555 -0.11753840432147108 -0.17262345197352336 -0.016850958975193335 0.1987726203153672 0.26739443046904426 0.12031112914831789 0.20693568559755518 0.31984586165993334 ]
[ -0.17080232024295858 -0.1480084308221367 0.018191136357301275 0.0895479929523154 -0.24343598846521472 0.2739339701051901 0.38268949616763465 0.35779288155047656 -0.2785047230196504 0.2728520960705616 0.31480375375438313 -0.06524004687087784 0.3297134968071431 0.24676573900834955 0.05366712260274513 0.3214544576413423 -0.07069879279404839 0.19868134633560805 0.28678233444554263 0.03429493443453697 ]
[ -0.576158326692754 -0.3300154870709451 -0.06581495342271584 -0.3364934455145643 -0.23480183150702494 -0.0011591990432216837 0.34016146085765886 -0.21380580342824046 0.38503457399990026 0.26636163980782684 0.303571377823717 0.38569874958923545 0.7069369516412984 -0.31883855404180345 0.1170202605395697 -0.04744720990662422 0.013483006576797966 0.3559692339151581 -0.29417411890663714 -0.6794160525112681 ]
[ -0.2379877342221032 0.2431086889066056 -0.6255825911814284 -0.27664601453633725 0.28525292056872864 -0.15470547010176727 -0.2924988368912508 0.5285567870229895 0.5500031988060385 -0.26464716842931957 -0.2855334183118934 -0.23442080883253857 -0.2720648956520735 -0.3376802465848708 0.19747068339935459 -0.5842902348646609 -0.22960543751365656 0.15974866432129137 0.28255828757160906 -0.16004337459380738 ]
[ 0.28727810677423804 0.32090960586461215 0.04562976703964789 -0.0372519832744608 0.013861569156096392 -0.3844937447273017 -0.12544995340443468 0.3134936418836004 0.015476010358985466 0.21474678216218937 -0.35367775337699964 -0.09875025544856811 -0.337316630246379 0.10208150261855321 0.14982199401593452 -0.3592719694017715 0.27927547955288085 0.30295074938383 -0.05965180800277993 -0.12988114631261766 ]
[ 0.046492600851458836 0.1890242134965371 -0.37983456793053527 0.14407525375977356 0.26395180634519533 -0.18786750112710657 0.07348040990298485 -0.2531365877494026 0.3612986889387637 0.050142833313297164 0.14024631114352443 0.3370905721464678 0.3711813052869578 -0.2205472490257247 0.17759069693770527 0.22872449498117417 -0.05487962775442549 -0.1326740390164702 -0.31197994040516513 0.023706221894194187 ]
[ -0.06216383899460093 -0.18803145428375623 0.23101789398139816 0.06852491490766639 -0.13198675470028406 0.033962606252189255 -0.01448968099962663 0.22130922927985494 0.2933688168563364 -0.18376759118703195 0.2765854934757481 -0.2984768263572344 -0.3445720346942174 -0.11716735169261319 -0.08109997033454397 -0.05704186702007303 0.2457718782333793 0.24413718794707653 -0.04763101505142452 0.27527665207336466 ]
[ 0.38175032448605184 -0.05852023579914397 -0.16249921824412292 -0.7037425673195978 0.07357123714932129 0.15313801210947012 -0.5521281570945096 0.4566062222352381 -0.10583121244831224 -0.9664317262884288 -0.2823874695513676 -0.27136929030311085 0.08765611714939717 0.19093258331772636 0.34399344465038373 -0.7979685121489336 0.017988694778217657 -0.5808198978406649 1.3021533882897758 0.06158050343731557 ]
[ -1.0380669454949236 -0.23509909225514217 0.37721809955390023 -0.932938780421103 1.2826194079666238 0.7861778583626436 -0.8263187071019413 -0.46268926357128204 0.7874555889844925 0.4357590980553381 0.6358554503476718 1.290660296420319 -0.40470130129947013 -0.78815735820154 0.05120604405277042 0.43407987494618827 -0.2719243368966811 1.0828559603620131 -0.6118757931378681 -0.2897791532816263 ]
[ -0.5975862687774463 -0.9732321025291415 -1.0167565523382431 -0.19034238431797434 0.22933854787663818 1.1782201565093422 0.1408719276180426 -0.5676815915496093 -0.4472478613950723 -0.08116179862247214 0.05123508055536029 -0.41463991450659443 -0.08195493474583251 -0.2644306813592729 -1.0960292859327294 0.7615630092956904 -0.9368649556118495 -0.28499179356221 0.4206159188116559 0.39470669933523084 ]
[ 0.3490762222678378 -1.5618115814478482 0.6215816787883043 0.3730885407410521 -1.2756309957121617 -0.6620475076964226 -1.165995771164918 0.9923668846866701 -0.03501324864761134 -0.5491558013040327 -0.5987976724894377 0.7169833799753992 -1.2535180798407897 -0.727814602006018 -0.7364735509113631 0.9481388912679363 0.5956766687752068 0.8005280346683671 -0.16927100004446632 0.9169337979482949 ]
[ -0.5616684711626604 0.9941242802881164 -0.42415303996172066 -0.06131207498789404 -0.10228923527313873 0.9038337058185405 0.3554442941812122 0.2667038121611528 0.6425330070556828 0.03177238871106904 -0.24530869036703729 0.31594477935659737 0.6992890994833005 -0.08800661918237011 0.0975110174516977 -0.4191239620376513 -0.03822799419683716 -0.2615781555637206 0.28257104471941225 -0.5225745106181556 ]
[ 0.2345979826000507 0.0997808644949071 -0.33624995949040226 0.047798546972656564 -0.609213053761447 -0.14888009702366992 0.13473406004374672 0.15300146302301523 -0.39800163170412345 -0.0329835457291573 0.34359709649089704 -0.2664742236730945 -0.08454964316446469 0.2762376144558244 -0.49981693956086654 0.03876952831386625 0.591147163475245 -0.4332206822579545 -0.26532911549745924 -0.1364968419120437 ]
[ 0.1442216802850503 0.3008702231748448 0.6036062123828576 -0.4283895572598699 -0.06573368756312117 -0.40814710504666746 0.47887764957789813 -0.13193475244030736 0.06777420251440698 0.2711758104981471 -0.33231412553372114 -0.13839032382554847 -0.28378574838610193 0.1326728955884902 0.6343115104691747 -0.09367701418505596 0.1416970297707488 0.4481970933663958 0.2642732437103685 0.03638814169480542 ]
[ -0.09009397577033472 0.5748581557409712 0.14724599075753594 1.117738319370235 0.8041574250681783 0.8892452455913693 0.09950996970746431 0.9770644370120046 -0.7883934863360633 -0.9302656071955286 -1.26393876485184 -0.06186641108736373 1.0315860010938884 -1.1552960480625711 -0.31756819898296434 -0.38161830493370985 -0.018378870391217696 -0.40556981953185534 0.5116515135100839 0.767734281833731 ]
[ -0.4542271914034532 -0.03585376819025868 -0.2714801029434168 -0.23468036669454617 -0.10915345311856954 0.1261137261731961 -0.4044354630581815 0.32096106005669195 0.34880962656595804 -0.007979064317698533 -0.5530943932887594 0.9157994178339084 -0.2573678724702948 -0.6898707340610191 -0.18132824732153638 -0.5645687988222299 -0.5302046918421517 0.21365218745494022 0.32327214250961545 0.10177398758959853 ]
[ 0.41182174956307255 -0.31811177886701186 -0.08321360637773068 0.6150634601026086 -0.823019486544825 -0.6066513014655206 1.1777286938030869 0.4461779840241502 -0.4105886281847011 -0.658914296565359 -0.828373320618917 -1.1363946935420959 0.6408799220904098 0.21526386004176937 0.19051599996168472 -0.5528737385125599 -0.8698295029156493 -0.3763496068536392 0.640867416737539 0.34130232450493836 ]
[ 0.543251248227481 0.14582150705017105 0.4506615211296013 0.8233047414117615 0.10526179798882171 -0.9546163436062464 0.18193958603419066 0.19703578369173216 -0.11855762626946592 0.39315007627672116 0.322940434295488 0.6576509839949818 -0.34409546140961933 0.43592335432408996 1.304069589075149 -0.6021714679245738 0.935125983803824 0.46569830003757184 -0.4714559411635215 -0.5781410019653189 ]
[ -0.12383410983538153 -0.05294160669369319 -0.6641688775521141 -0.8293814241833039 0.3384254638988968 0.31989945649588697 0.4790748819985728 -0.7993553535652433 0.1909984499205118 0.3856555516771215 1.2999707512448733 -0.33844605951903245 0.26351111094081253 0.6265156430292375 0.6079697915051572 -0.2184579377019007 -0.6542116919172142 -0.06522172061871857 -0.10634295625672636 -0.09406944601846488 ]
[ -0.11352682465619406 -0.2517165479019018 0.30665021524627756 0.15829554327062825 -0.08919395376212891 0.07351480629849333 0.3876985728757662 -0.26562713310677977 -0.13284034555060006 0.4549990825247421 0.16512360611503787 0.05956018540145587 0.25769332100772324 0.09295728454060513 -0.07771309643518401 0.19295878537625902 0.16900438489232003 0.1128772981507766 -0.3470833258795556 -0.2461090855752087 ]
layer 1 Activation
tanh
layer 2 Dense
20 40
[ -0.24367059829686613 0.3107788010747622 -0.12269411495937824 -0.21487330170487878 0.5399634855901538 0.5471721999007659 0.0015777944922426641 0.18627241015842383 -0.27826025942290106 -0.35073540275013804 -0.4046336407923584 0.273750673587587 0.3805150987413866 -0.29705044961708993 -0.07909007808325412 -0.3142708734355633 -0.22207648997973312 0.021103000446665875 -0.19981920449139556 -0.002113809335155127 -0.4068520658204686 -0.2717111956170579 0.6941741164976561 -0.44923184063566746 0.338481889279973 0.1721408373940674 -0.045204204747337905 0.2928325885795777 -0.4216640935426491 0.21006443095209917 -0.06085508805944135 -0.11778480741076919 -0.4829690922997306 -0.18966304795571734 0.170390932984833 -0.5951338641137359 -0.043538347000157886 -0.4093725040076429 0.10086845308330046 0.04745496291564763 ]
[ -0.22399850684275327 -0.2406290518921955 0.37338498171333184 -0.12723347399229795 0.3007450121495213 -0.14603124929734046 0.1649903615336415 -0.7942182482510634 0.570422970027654 -0.2384537985105791 0.42023293654115795 0.32354022081741146 -0.023622343484386365 0.04035640923434741 -0.5334237981434992 -0.07757378575409168 0.5635665158976084 0.08340652883783475 -0.10019651576241939 1.1194850983499927 0.28759667355053176 -0.051440791271919695 0.46072661065945764 0.36552587684351984 0.4750381610388662 -0.04117282403675183 -0.15609653650440664 -0.3162124592060826 -0.16547085068544543 -0.271302699805984 0.31223823349695246 -0.16387128589751696 0.5767377497537262 -0.057448366255759976 0.8483844997779575 -0.5845476586415926 -0.009368630126135154 0.42108263929763107 -0.41440278146714243 0.010719097188335837 ]
[ -0.4173207332073748 0.6062355605761894 -0.09600852227121792 0.1323085714019196 -0.4735268451695024 0.685500013556503 -0.4848360887018166 -0.011027647762596196 0.28016197610725774 0.37236718913837713 -0.17396198983929997 -0.14215231724818642 0.06040523069218998 -0.50435279642544 -0.5654574926972329 0.7525182280427507 -0.1034378057712019 0.04943118875436495 0.18446585955071848 -0.2760221196512606 0.14148501909696176 -0.09797940123277084 -0.5287196158800322 -0.33797989040922627 0.7603417834523122 0.3496161903553283 0.07383080037941192 0.038756971509474596 0.24415908466750705 0.10063440108381369 -0.05724600140691071 0.09470945313560722 -0.22639107458665442 0.17114661459216474 0.8295262399090152 -0.18591389609337097 -0.26729968775740687 -0.15743741476049564 -0.7217067151526492 0.621996777190752 ]
[ -0.08244792923033448 0.2383178930033005 0.16885899724872488 0.06505789907022215 -0.1400458011650265 0.03569667622222161 -0.124732083415461 1.1405610964985378 -0.05235791731360249 -0.168097447486833 -0.49498814761631943 0.18460753576365588 -0.19553747920528444 -0.24163082674501685 -0.22123393543983239 0.05271196092440958 -0.5655683554608283 -0.008773134384336445 -0.06582273062701298 0.2420758872153454 -0.6329513598784196 -0.015715171648764507 0.15904762023679367 -0.7281866928069769 0.25711020083879244 0.22834857038809403 0.37316780021463924 0.052148832084039726 0.2945758821138741 -0.016677494510390106 -0.021939030114138516 -1.0499886973129902 0.06925529947861342 -0.05990678768068108 -0.5315929287647261 -0.544230984070085 -0.4521219415210497 0.0804351549228873 -0.3333111148670332 -0.6950958613906102 ]
[ 0.3575654442174415 0.16519152630015993 -0.12242026037930959 -0.2976047172227808 -0.0362641867925289 -0.5204218128983784 1.0567757436957217 0.12157457694415144 -0.24455054945933424 0.19920429377168772 0.3574200350322387 -0.24265556736146382 -0.5963059053108511 0.39537532288771626 -0.5410419955423492 0.08132121582973298 0.5461782046983068 0.191415138474383 -0.11854449768992574 -0.37623757527106055 0.40163847633414856 -0.535878735021384 -0.2730224511985108 0.3590631247809667 0.026786953336541148 -0.3541459864390845 -0.27191033406467496 0.577447080228893 -0.7025960553754733 0.0746481081763356 -0.5910064691935603 0.681307513897639 0.29868723221957083 0.3151905888517064 0.662672172119987 0.06533798200856719 0.7138900034482959 0.5601059533133111 0.13233945766204366 0.7139359136228471 ]
[ 0.6541150764738126 -0.243255778825726 -0.3426167851787218 -0.4048851579531574 0.0009167584040248049 -1.1847333273336245 1.0063854391138989 -0.6220073683221803 0.24113381613117033 -0.08982070679006447 0.6498966687865407 -0.6459598149892493 -0.2808616549488724 1.0120354300629602 0.5948063774330608 -0.23432509842974586 0.2011843927659996 0.29248131588775567 -0.1251800451622956 -0.6132538892090287 0.2566439110103641 0.3833345682730155 -0.5442912140886633 1.0592144356531283 -0.8657314213961061 -0.4698332811135313 -0.4553643733440674 0.08890854081887628 0.14289768439454734 0.15664307535982516 -0.46315212465326366 0.08703324382139793 -0.29876583001614465 -0.25947243317635305 0.16024018661422054 0.3042968222613616 0.0446715344660903 0.5408461634399947 0.20104535986543645 -0.0804336749342154 ]
[ -0.1645420995952457 -0.10130186853986041 -0.04470804322121061 0.19511761437350425 0.35949461189079057 -0.4730184599358771 0.3063696210587945 -0.03531063641010697 0.3159816380569058 -0.01503093869805375 -0.031902411609517865 0.11543538857806143 -0.3119386134282341 0.023416278769197177 -0.34882112984117286 -0.31432699097460454 0.3354428778383479 -0.26897631510280784 -0.09237797461282676 0.21110804982826725 0.2804050725431647 -0.351162504488818 0.28005241571198675 0.3026539687316694 -0.3800182542653575 0.1874199211862111 0.17546208481427958 -0.39442850792863865 -0.29213961435260793 -0.12503852824596176 -0.011371111824615593 0.24193124647027103 -0.1915758484775031 -0.14356276994760803 -0.010134046998603374 -0.24961814837194354 0.03076939094537689 0.3552153723624802 0.04661241098821407 0.3731278594630134 ]
[ -0.2741688532067238 0.18528925332022825 -0.45693442331293493 -0.03712611180039505 0.7192587156207381 0.32941894853401166 -0.3918731758114791 -0.08772391633873466 -0.38625260026861546 -0.6568032678369056 0.1263807178190725 0.5499331175805808 0.3454233051559312 -0.28093362744060385 -0.2950894276786451 -0.24308995418322632 -0.12160755313062799 0.7051675652497278 -0.1260085370712832 -0.292699080606242 -0.619575023112713 0.4629754423945297 -0.17978869829761668 -0.33079363531648126 0.014210588659966286 -0.3060216366786703 0.19324465654623105 0.04634069703955596 -0.33821399978588085 -0.013894026815531998 -0.015882201025321112 -0.8988890300234387 -0.5260298351064457 0.21602084311965664 0.27825239745392844 -0.1401345805517714 -0.9360292250532689 0.3885098292971179 -0.5570493405023184 -0.2079047770822248 ]
[ -0.061001976331504185 -0.218308159530617 -0.01992735114642803 0.1640929797868969 -0.17134291603712073 0.05517366754546388 -0.10263749886909528 -0.5198079043108179 -0.3188120488903281 -0.1593948772238682 0.15201563757031464 -0.16272841523719803 0.14126317967215826 0.3948221723439972 -0.34244498004671836 0.5098964739593724 0.13435604879313295 0.21384712816048185 0.09339334718146604 -0.16781992375509716 0.3830080002082987 0.25389860648744694 -0.5346975186704146 -0.030799261651150493 -0.09116672478706493 -0.05456079593539497 -0.322696738920126 0.3193998220909233 -0.23106031830486923 0.35409038308990204 0.08415941087332736 -0.07168942264076743 -0.029878515103982102 0.03171363257382865 0.5184600375449706 0.494319694828637 -0.41890277637229784 -0.06322707822147568 -0.5890599031968264 0.5987310245401833 ]
[ -0.28710162314720733 0.3496228305339321 0.5616872509244298 0.07527241604426449 -0.1791774338891792 0.014779743149027939 0.15496013971725 -0.29397881849286056 0.2804571126653528 0.270666690951781 0.25520820134674116 -0.5015172110616355 -0.07805174851237107 -0.10143593753044773 0.269062725671 0.28784552545026865 -0.007912986086297136 -0.5767710272121781 0.1450425894892364 0.21287181933327434 0.7822099400597241 -0.10259076732669627 0.10321016220866536 0.2800699667817693 -0.3575042660101287 0.20492856491447445 0.06565848715474644 0.04648074793047766 0.35031854332133905 0.12693842787504345 0.32746141065318446 -0.07298845066204303 -0.1857352496585424 -0.10193510034185672 0.2425748736479741 -0.11132058587203944 -0.06573551353045301 -0.005618435639582429 -0.12269519632847696 -0.18245297279497852 ]
[ 0.14222569074216854 -0.3810773220388719 0.16761508163402908 -0.10889483238741429 -0.262897469490787 0.6803133563909913 0.3231614562741232 -0.377398830770818 0.4543258218060392 -0.0964565155184176 0.4800859073076504 -0.37306781913865644 -0.35800939383586433 0.21713892382921504 0.6321989851274724 -0.060069089194683886 0.22545364781330846 -0.30101672825861875 -0.07434141408619736 0.7682748444864259 0.8780628987324611 -0.5998360432704353 0.3921026103027859 -0.0058739248202462 -0.15855226626873153 0.42465011670461095 -0.03543033368647891 0.06664526903418783 0.7559634109046178 0.04121037525142665 0.23593660295142613 0.34765341623976387 0.2028385935762509 0.1389735931527788 -0.05292070287531486 0.11498394300330284 0.6436098595407396 0.619756493420645 0.5267435574315834 0.6091334806178818 ]
[ -0.3080164408404454 0.46820115924635625 0.49466426854258355 0.015176281318120464 -0.9559385158566721 0.04307530037566589 -0.36160213181045564 -0.11549858497441964 0.5331254657673066 0.7953155196807811 0.19118279891574225 -0.5647138336645502 -0.1909659798287179 -0.059588344241886436 0.4375618279148172 0.8071519152555428 0.21733059830938598 -0.2281787501957043 -0.24146055740314942 -0.1985228275680986 0.21946474637536637 -0.02941150957707394 -1.0912905193629625 0.013187237374578616 0.7181717321599115 0.24741720098961514 -0.44689775115171876 0.10386037085567346 -0.25597962601398905 0.060924833965826826 -0.24110461528160151 0.019934543568316063 0.47017872953925466 -0.31475616495773107 -0.1653375011670408 0.6083234977476779 -0.8248630840188321 0.2700101172089878 -0.5100896273170027 0.13065195267758137 ]
[ 0.21621078875452057 -0.42910614793590623 -0.3907619849730247 -0.2786724849775905 0.09460764669152526 0.2027759564074682 0.6561615157706118 -0.2621594431208853 0.07044541109242539 0.12656890935668202 0.430718752753747 -0.019423689437970952 -0.5130611018601566 0.5768724741930055 -0.8759141772448257 -0.06137969843201516 -0.32279530041227117 -0.02340786896207211 -0.012704017057366363 0.9775424194822999 -0.2589368002675908 0.1039837585431418 0.6268618401297109 0.25096032342568164 -0.5661877453674304 -0.10553457612407217 0.29583960128117065 -0.1674805735698708 -0.31122343422496673 -0.3837469353720608 -0.22138702054186962 -0.7577551852684674 -0.5214947058346611 0.1835177110109294 0.19405922092081734 -0.44411615472439003 -0.48756336266428235 0.8802696749946458 0.42313308565758667 -0.36133048282086433 ]
[ -0.11847017189331739 -0.17865028827928708 0.15896521576601727 -0.01277624242771473 0.5058150857372347 -0.03770355111595001 -0.1690869442648147 0.11915459120035252 -0.6711473176368907 -0.1001478373657165 -0.1801484148348475 -0.288347983558555 0.0004326511599249194 -0.260789173513911 0.026665327880129177 -0.5227216251699407 -0.30094720768040584 -0.007530026592948705 0.030092671493894198 0.38459022135981696 0.6002429947005347 -0.3701128316539887 0.529636868830708 -0.24249596158956516 -0.5768994253103779 0.2175603878496193 0.017836196712732635 -0.09932716749668886 0.11196097672267968 0.19370112420097316 -0.08550918910953217 -0.08471119217318954 -0.3151303946793416 0.10225767985013733 0.02599304091352629 -0.368216903253472 0.5370157125630836 0.315825447503739 0.3363509145619238 0.6214211362505097 ]
[ -0.1758447327709373 -0.10815331983978416 -0.07230935269288598 -0.14092848103857375 -0.021781695014463743 0.3617031620598141 -0.22273462583814868 -0.1165094359394179 0.07278460727907185 -0.07512740913985502 -0.2073388577911863 0.06508373823436672 -0.377733857754842 -0.024895387870156965 -1.201315930011028 0.20390846181096203 0.03512328204200316 0.3134688721524276 -0.19538254221828694 0.8105019171348503 0.687734098119742 -0.46236792611394756 0.3560336280414135 0.02549603765792164 0.2725912139137965 -0.5259760683041673 -0.09046656684028694 -0.27531699181928854 -0.4066761004187751 -0.06719155680585871 -0.1077566733175861 0.4291746690894761 0.3484973012376357 -0.17661687758713818 1.0677180034946274 -0.4701475771680641 -0.288517044488433 0.7541294863166101 -0.14283245257500277 0.8803766299267309 ]
[ -0.2977265240100707 0.261841115571797 0.40242889088999234 0.000644603875645036 -0.24781483995021358 -0.06836569046382107 0.6217999609700925 0.4087305186779711 0.23477627880492097 0.6325833353194279 0.07676205176810044 -0.5977110069836841 -0.05331642556685334 0.35372777235464886 1.0064344513940575 0.3593038077972001 0.0230187120959754 -0.7357235863342232 -0.061936188394117374 -1.0537752507277551 -0.377549542524632 -0.017512089370387954 -0.418927850132264 0.26887951617771677 -0.13056447257383236 0.3224505212796769 0.038167051120072404 0.1505949037324627 0.3141454049029194 -0.07462325156543284 -0.20279558187649444 0.0289551522741768 -0.003449333120730056 -0.08772650788825274 -1.0792268164200711 0.2314006956915209 0.606404304248535 -0.345800226250111 -0.26649336922049693 -0.4891984233209351 ]
[ -0.6563766983900445 0.34498800263374635 -0.24843288745966377 -0.47864665315141824 0.17277978948710015 0.8661553529024807 -0.4515001391433199 -0.13571831633178014 0.5287487602554951 -0.313745662912928 0.26722116510898364 -0.038231799374165834 -0.010458685899104992 -0.06593531748476228 0.006186349680077779 0.09824357877173737 -0.6547222858931946 0.39209921269636566 0.223407768056327 0.3370304332867119 -0.18773045191869847 0.20146228902114918 -0.0399802930450754 -0.47700757813741074 0.4637056312994848 0.019809838227660106 0.005897301537258887 0.3988842119163583 -0.24083950502548754 -0.20982945938385275 -0.1764805180486911 -0.678850318789256 0.10664227619992152 0.15065317050372298 0.5464736510732727 -0.3895661372044403 -0.3155448892983807 0.48248330292274255 -0.655977007400812 0.5469359478058717 ]
[ -0.32583510798930193 0.5939882109919763 0.12413925981503349 -0.16671607711023484 -0.483772508490782 0.48277966905980124 -0.21591796049436357 0.1385943158557314 0.07813776956269705 0.15591486256559084 -0.11904025695879353 -0.2366930979411498 -0.2156289398017574 0.10596418649050583 -0.12069621671003267 0.7955799139263567 0.36951917098983306 -0.2932055500143128 -0.06785876005447863 -0.5480296278183926 -0.08539388644999515 0.13908960087693786 -0.7143001900080458 0.1695009173066966 0.5049979373498454 -0.3284395770773182 -0.3392801317415892 0.275019922638409 0.3357407128316011 -0.2111087076901785 0.3496100264491303 0.40460849680478617 0.15586538761160051 -0.2518499898290517 0.2260078662322758 0.532218823602925 -0.10747535377357337 -0.3427795449355905 -0.5303501714751805 0.33595838483190676 ]
[ 0.4427632609487802 -0.3148192470373799 -0.9566775012658006 -0.1452973538784969 0.9706318383156314 -0.5338369197658716 -0.45308449851833554 -0.0680216862316145 -0.43480819639352813 -0.9607389848399435 0.05546922868073156 0.7206977967934941 0.332127140720044 -0.17300708514372343 -0.7731395445520062 -0.7626159823163802 0.030339162501215697 0.8615849409468638 -0.22530310001901152 0.2430222724271324 -0.5950190331841787 0.1983562931325153 0.14055280793691002 -0.21799196529767526 -0.15358494622324034 -0.0594949458531585 0.0892439166637718 -0.25911263811624446 -0.19479428272996077 0.01022885552727506 -0.1723127685985992 0.28275204934880643 -0.1620814325250462 -0.4019047815634492 0.19959801415434092 -0.10427152561891985 0.11556066211750662 -0.35697333161297456 0.2956088926291065 -0.15418115446193956 ]
[ 0.001454900686143583 -0.3218381653432764 -0.17024756446055908 0.1683739419220092 0.20988538836987175 -0.261277570555286 0.3730878670694258 0.3121412746422478 -0.20445895937189648 -0.3690286102593248 -0.0060537373389810065 -0.04151367655973301 -0.15110682672917894 -0.11723544470712044 -0.009384454403473139 -0.01829692680567606 -0.14463668668254204 0.42595492818129155 0.08191026071031803 -0.4231356878546575 -0.48156018680089213 -0.22917890419717366 0.14340228477530156 -0.11919077737832105 -0.0004217255722569241 -0.07084440252240702 0.03994091515167525 0.43004203601811924 0.23441264226132394 -0.13103615117043338 -0.28577448396825905 0.28319421940425443 0.2007269242135482 0.38355016001146136 -0.23886754280001937 -0.2240796788035659 0.09066362812200376 -0.8211116608865934 -0.08039382046055588 -0.1430085734626457 ]
[ 0.04468819839993891 0.07596283571897454 0.32000863936780144 -0.37637065283331966 -0.19965269993274612 -0.01749152602805771 0.046642846114459895 -0.45243088573722456 0.2794617500161143 0.23487597567215485 0.1647756470131967 -0.3230796492742208 -0.17571661682341033 0.019064674137609438 0.11016681749333965 -0.056875269366677646 0.12370228346281295 -0.3842385717734327 0.04537798007856361 0.11889000534971043 0.35108376299168714 -0.17416624661465072 0.00659613491057507 0.17291250027559935 -0.1387126977196761 0.344081217524228 -0.16198766607129472 -0.2862595178331933 0.09668616142550955 0.3309114467906635 0.5148522716027101 0.40040356300008306 0.0144942900163702 0.049901297437560485 -0.029838149770410858 0.05781576048305721 0.029384747443880154 0.4931501626315011 0.11271734636496493 0.03819223767408691 ]
layer 3 Activation
tanh
layer 4 Dense
40 20
[ -0.1116059939130599 -0.06177850470965575 -0.5411613776137265 -0.14095997670501054 -0.13857368954369031 0.29794666813801063 0.547518562673972 0.3974839683090419 0.18236098475536255 -0.15164992938685 0.03583679000026377 0.03956724019178017 -0.056857453418089704 -0.3303182784519013 0.08666287636017103 -0.05111858679088018 0.3148990136937809 0.356270456410143 -0.045756833623693635 0.2831429961112852 ]
[ -0.4029116960896372 -0.01794433597231067 0.3928626529016501 -0.16753850279424604 0.2661126374975947 0.27218890075832647 -0.2946768363508877 0.07871863513603929 -0.13807173486156685 -0.1824581043691848 -0.0836840852063228 -0.21806750017198637 -0.13425390570477075 0.06107070128021487 0.058655506794960954 0.37816755240143524 -0.2323934206296179 0.0444521054548836 0.3718739101957941 -0.19911856636289404 ]
[ 0.6201951597373887 0.15107505373932736 -0.11188427592558774 0.1330781915312636 -0.24835376192974562 0.362110327595172 0.12091428368804051 -0.24568151909795305 -0.44825152606432045 -0.2222146467328224 0.05616735101271306 0.22288935935833487 -0.8211445962424379 0.38574718538960645 0.1970210950277554 -0.00813636625475356 0.17341398509463093 -0.10866323980999283 -0.05620769782070224 -0.07988936572849388 ]
[ 0.5680839505510521 0.05795210886651827 0.010528202826726006 -0.23372670125695139 0.21618310518823539 -0.004948813349358794 0.0688708112733632 0.22268012188968095 0.1732138351065692 0.1505966779964142 -0.17615734593806517 -0.1803252990190609 -0.23948743105970632 -0.03560564113955908 0.008170162234732452 -0.12763490430391633 -0.2715186991843251 0.07332077129200167 -0.19924385474729503 0.14543898813259665 ]
[ 0.22321601344621964 -0.11369248011189732 0.16150269991752197 0.06523479859393594 -0.1609236279908211 -0.5655903100343581 0.259404035280143 0.15535623991008565 0.21439538886561194 -0.07442852601564959 -0.0711257526289135 0.1851596794987282 -0.1238191402612463 0.2676408872078115 -0.2969853136349271 -0.15469683197288814 -0.09099300001605999 -0.3563790402187082 -0.051479321924283006 0.1721582400529399 ]
[ -0.09135781758662004 -0.005159115274721734 -0.15118830646341566 -0.13431522292747855 0.4206072361719407 -0.12139147836674594 -0.2145029829360688 -0.7291448757471424 0.04004078651352375 0.4270111663823076 -0.017142058299777788 -0.13765994358995565 -0.5414020998336146 0.5768265359410534 -0.10170428661417588 0.27870289196023146 -0.6146890289273376 -0.3803076297317857 0.14047282494210225 -0.5984204379191395 ]
[ -0.46882517510706717 -0.20181625097562308 -0.12636790694400843 0.33484468755592994 -0.1259353701821928 0.6164611042821142 0.2012614889644822 0.344651420951392 -0.16554737762697203 -0.26963626502719734 -0.18646586942909055 -0.19663291596219906 0.21390370097275535 -0.3382644671777799 -0.03832878023756068 -0.2162000767801856 -0.0771444375952123 -0.23318709341996796 0.015911556692851703 0.029672527759072576 ]
[ 0.5090555004569227 -0.31533294473212786 0.01784711640663314 0.14498646404760632 0.4762431705747736 -0.30322350394265063 0.08597543832866252 0.2375800761741955 0.11779017389819807 0.05117336710495612 -0.5230443218129882 0.1341073004691293 -0.009448873280805986 0.3280003152508627 -0.03124981039565575 0.2684378288173954 -0.4020307773104789 -0.25894142161697026 -0.0732089460195522 0.2427692309599086 ]
[ -0.3768024243998817 0.07465934480277109 0.09998870959575847 0.4352795582821412 -0.10293448839425086 0.2699659935274104 -0.008645594164290294 -0.1832912279290138 -0.41061081838361996 0.22355636298273734 0.19388806913466852 0.10358795989464424 -0.12750834134597044 -0.33669515705543324 0.3036985669211332 0.36729469348385796 -0.2072111888023153 0.0808158044757129 0.08428326304532399 -0.26149684045243476 ]
[ 0.22016731353141322 0.2520589321902702 0.17148102071465582 0.3914539329590267 -0.06629550034634962 0.40127843559981713 -0.17041630464485785 -0.31196198310338946 -0.4412712785879969 -0.48252862108506145 0.12338244261132812 -0.2886113457441056 -0.40636936836934473 0.01233100735266892 0.24419583702354528 0.3293578892923223 0.16669787822931864 0.06906258420529773 0.01745388332459222 0.17225380903846033 ]
[ -0.050941662879519435 0.13763452758608646 0.2173762878934509 0.07232226443621717 -0.3731198100752171 0.2906770344250763 0.4531619244400685 0.08510359848727855 0.04876196616273681 -0.19104998678097115 -0.05930676364428402 -0.028370711341140956 0.33550677107410976 -0.2605293912251533 0.30045105126711447 -0.545795823709793 -0.22677291373390465 0.06923710202843206 0.2542387247329944 -0.09683230152312398 ]
[ 0.048089019086461425 -0.10399940597676413 0.07606105665446178 -0.5133062400786661 0.06223051281949313 -0.35427095333499187 -0.02444425233161438 -0.07947088651465917 0.535009186361222 0.4399923268109591 -0.023235100964213766 0.2572569731909588 0.09733993336517607 0.15941816476230233 -0.039382313705443206 -0.13525598620940396 0.02196081616530128 -0.12574911433002398 -0.0971712044768247 -0.26310115564559394 ]
[ 0.21923451317214263 0.2120306848659801 -0.22037629647465873 -0.44591827530012657 -0.050613871871175116 -0.15897861111191597 0.02040905684624079 -0.12200884865127026 0.30059237616166257 0.24239931112303711 -0.27541570990545927 -0.28880516327493283 0.16692871957147115 -0.09211028013771995 -0.21726910481178385 -0.24963635051704455 -0.19217884325066983 0.1410509985476154 -0.24396452381199518 -0.056801579702088385 ]
[ -0.30041240512741946 -0.14987555594542976 -0.0995426387539687 -0.07561564253255096 -0.15789808665349353 0.21244496102096014 0.30746820486212073 -0.013137287873888027 -0.15069960567903923 -0.21968785809247982 0.04047415857748552 -0.11455333915581575 0.322680510319098 -0.07404930606008218 0.12382929644465628 -0.020047784868924407 0.058003990180867625 0.28421485501682364 -0.05948829529078238 0.2498919086096241 ]
[ 0.06850564599040557 -0.06637595672820788 -0.5614019860225453 0.6030121641425146 0.429998715617725 0.043422575663870595 0.4680370732568444 0.4621268452985696 -0.23867246048756904 -0.3715964295536052 -0.20223160616840036 -0.22148651122478843 -0.3280424616368759 -0.24179015444589044 -0.28104334691336263 0.1953163318721019 -0.28792504540764846 0.4376292227798359 -0.058436442227575526 0.5378423767153095 ]
[ 0.12661759831766448 -0.40199756241589396 0.35656483422962254 0.4209088088890399 0.4410527639797931 0.10336806063295312 -0.5325642076756832 -0.12341609092307665 -0.16254575659962817 -0.0628339006729504 -0.20422474549609534 -0.2387297101397628 -0.06890063982652582 -0.006799435924352398 0.47842425088252694 0.20283621076115443 -0.24860350686266983 0.41155719331941454 0.24374538691476122 0.1423176903721197 ]
[ -0.4379557075536858 0.0012862897222323776 0.27586621347495577 -0.06614990327079498 -0.1938214302760404 0.2559809575439005 0.07773429418987181 0.3211729301004876 -0.28752624881334243 -0.04637781715186447 -0.21992243044232815 -0.3843571900463641 0.20515036202646286 -0.07323074882009735 -0.23705956281459928 -0.4209643159008972 0.5096107716325918 0.5490174204788588 0.11356807991690723 -0.0714595913203845 ]
[ -0.6123009145754729 -0.5061747077781583 0.219239086754437 -0.6576434193309273 0.13436797499920028 -0.29778315236850056 0.3852744801671108 0.10387325225356227 0.34864699433336405 0.2762496911077062 0.2550335227141353 0.3350689278393134 0.6473164045705819 -0.19307523154695852 -0.1376644401988517 -0.12489322792316146 0.05555274181143736 -0.2888495846659688 -0.26187256395126984 -0.3300886269881985 ]
[ 0.11187116998105319 0.053018436342835464 0.033176673968297744 0.2570180637566524 -0.11552298481741263 0.0592210211487899 0.0297695827095155 0.02930734168147358 -0.055155795349235065 -0.05796827850588145 -0.28081782461231014 -0.05285819138475317 -0.2895393655357163 0.05886265450295038 0.10662886907546242 0.14575303582591614 0.0030201433467418786 -0.07347809055807972 -0.2323468693140592 -0.15738840108677352 ]
[ 0.39782397938297037 0.437579131373618 0.3302865021767326 -0.09289869540709954 -0.21705290477718614 0.346695410975816 0.28446379286828183 -0.5267462398489611 -0.13139657655809658 0.056355065840539974 0.39446783168470784 0.5129138054444555 -0.40781986711642293 0.2478212245810922 -0.07625982425528285 -0.4919468279136455 -0.040922220395442126 -0.3017520919553057 0.01025471053681164 -0.5607161507936481 ]
[ -0.029972850967176383 0.5721541157573955 0.37744107875414845 0.2507683032769269 -0.06563715381238969 0.43621485654393816 -0.0967694011815796 0.05495182965074855 -0.7419048929384718 -0.348672288329567 0.08944369829328458 0.2363140855044306 -0.5100388853939792 -0.13199692044163386 0.31533950387575155 -0.11768639917786149 -0.09489605270492238 -0.19593445951784738 0.05059732586999074 -0.48333171940457276 ]
[ 0.26493217964153276 -0.023093698475947028 -0.0763285765756446 -0.14817158648688136 0.27923643343426546 -0.2845970919385219 -0.0625169458544222 -0.3945636509580397 0.2332887192549216 0.556936173026956 0.17381917297689764 0.12146298346331515 0.18542920859276937 -0.06543782708020811 0.22788362037321927 0.24438717611071964 -0.019353253213501082 0.21984409814825603 -0.062394630203506524 0.277902679728976 ]
[ 0.2547209198084364 0.2666403857107632 -0.18057136475507402 -0.03935892288214183 -0.4219525513655267 0.12403640090123537 0.1463285532225462 -0.06120463808531419 0.22299725381105795 -0.151215135986923 0.11515426645679351 0.10420666753289008 -0.2921279007967549 0.6374598037331941 -0.42788279885017066 -0.14655972579847537 -0.27685617751051 -0.4335697225150667 0.2419946474374409 -0.10654929275319798 ]
[ -0.039527099421775735 -0.07546679364965647 0.10000328907127667 0.26771863544185 -0.43312720807514454 0.21698657369607993 -0.010215390731993696 0.31604405354498283 -0.18760770693551443 -0.25571947203752043 0.12505837926385463 -0.23086304263038895 -0.34604741778978165 -0.3015801124797324 -0.03180530302312492 -0.1185671495705756 0.12914020920306282 0.4668754864812361 0.10624356123403446 0.12717621032628876 ]
[ -0.16377792105274525 -0.38335543362383506 0.40252746175409115 -0.0182864210227553 0.10361439099350948 -0.2817715309951032 -0.5031268608254367 -0.5423657434547963 -0.17900250102605933 0.2161240475213186 0.19631767730119049 -0.4047109428722642 -0.09356112084775277 0.17155207104273082 -0.2509096528809905 0.5497476574591177 -0.07147838623904933 -0.1248457121519171 -0.029366047882819508 -0.3185721523525377 ]
[ -0.16625889590219128 0.29041585085858346 -0.11628531417416989 0.6037942579297794 0.27691076061005576 -0.14197151925429188 0.009277732935642933 -0.0762778681828592 -0.19850726680092742 -0.19078895864520573 -0.08590069868323356 0.3350516119709707 -0.4432734062500121 0.06417828213875724 0.11330870554986688 0.1488118986739507 -0.26788631652436456 -0.12583596004064115 0.04567287123891039 -0.215986408549418 ]
[ 0.4878745433605134 0.00213909190875147 0.04262245078297232 -0.09475691952662446 0.11553671222902914 -0.09366436952199098 0.15718437448748104 0.062288165910311034 0.2872820251886608 0.0751086917770033 -0.1213675681629292 0.2406943653670867 -0.08923030443420378 0.11540235899109892 0.06090031257325987 0.07903935033251201 -0.3762148430595635 -0.14928456392113468 -0.03506276335802176 -0.14038878141236008 ]
[ -0.40637357994753154 -0.37755159911575037 -0.26721814540626754 -0.16226283564648109 0.24900268759393662 0.14927506073813843 0.3658647469093195 -0.1649891632211981 -0.38469348374149775 0.23323788229100995 0.013825671940740443 -0.033740022541615566 0.49734780364009445 0.04770902339263583 -0.09722591350791393 0.3428052952357215 -0.11701025286902962 -0.1553060899543753 0.317961294756014 0.054543405939431064 ]
[ 0.3426875732885143 0.14582295039073426 -0.21153265273445385 0.41678242221567674 -0.07993218624329328 -0.24836470119779314 -0.09168653690096745 -0.05680178102164321 -0.12389808599582085 -0.39264844883519606 0.12383087867605863 0.09425051791991139 -0.3759571819699424 -0.15920779415111394 0.26810515768221804 0.11078890796232573 -0.4052535453151832 0.2649408349934316 -0.3567464473579684 0.019665172868531203 ]
[ 0.22282764319102746 0.2716899262337521 -0.046040897619585845 0.032723327215143566 0.08057030045556485 0.013968535217617869 0.24920625263044727 0.13911746382940895 -0.18249335607945874 -0.07467008648232255 -0.2732177879891292 -0.16920249882311147 -0.119269411558565 -0.06757455134083229 -0.068872237038597 -0.12430929897461913 0.10340955016492451 0.13682173609535303 -0.01374500126676595 0.15373080709008557 ]
[ 0.0841155515951451 0.22865160320473363 -0.06234655751878227 -0.04050776114849372 0.11844721107073407 0.001590539940841068 -0.09261248665309475 -0.3281961977324261 0.13784383797763064 0.20803034400719495 -0.025409218349765002 0.27641602982715896 -0.24651307105456566 -0.019307182936572586 0.20972883276917131 -0.04625267274617182 0.1316846327306886 0.07825498087207979 -0.19488591270925704 -0.027382185305632092 ]
[ -0.6138212178176697 0.48615742864827044 0.4120697575168737 0.26137507825046813 -0.4584828733416559 0.5023048232573224 -0.09958153688136116 0.3026585323899823 -0.08299100196276181 -0.03021232251550414 -0.13675528457526478 -0.4084703887328633 -0.2045331738115307 -0.17666229014907125 -0.10709496542132721 -0.23378559474904992 0.5024289242332017 0.06361708450504337 0.21392688519765726 0.12618236647171915 ]
[ 0.18411307931878218 0.0004427638090791341 -0.09321330783864297 -0.39940942891679465 -0.12834092650106269 0.25405983712162306 -0.1625133429892793 0.19319625955547834 -0.29608552070958793 0.41232532087709417 -0.021155708272732603 -0.15147935301469662 -0.021178930279276403 0.018847065496462728 -0.20954612386552043 0.026134091555214015 0.18220621757414343 -0.10906475911511325 0.32367638934965715 -0.07245830544922083 ]
[ 0.44523012259293443 -0.1526658579760472 -0.10139624173325008 -0.14076439526643506 0.10689137705894322 0.04581812299987802 0.06187594669919125 0.13856377737999614 0.14099491141340995 -0.08976155038624918 0.14137589692568542 -0.028660218905775196 -0.17304284958775817 0.14648058184499715 0.06056842505359402 0.08264536046539143 0.007273473368207398 -0.051005031998717885 0.06993005622602694 -0.2724021848236546 ]
[ -0.4926411939413354 -0.005729584675130062 0.5567377305458113 -0.4490812365814339 -0.49250617535869334 0.3408054190237649 -0.7279433158162207 0.08432237101175814 -0.28394367962008277 0.45499423992447796 0.12118673835407186 0.10591927279988547 0.2664335445238401 -0.39587696914350773 -0.11856501550496064 -0.3827076305677782 -0.07633563478854363 -0.3207908475364392 0.26143084841568665 -0.3226710079997802 ]
[ -0.15346509513599632 -0.000581640222528891 -0.5409280285578744 0.1026230715374097 0.36699834352125055 -0.2454644904211556 -0.1593835252505217 0.24702573646265924 -0.6174831682980311 0.1441610438998759 0.07361753478213415 -0.4569283619394723 -0.2406044862381469 -0.3706630843852513 0.47291832598808375 0.4466866072640478 0.1991441381837834 0.6634148541825376 0.16918541958182615 0.5405553590340092 ]
[ -0.1544991789037485 0.2585262559589171 0.08866641977910646 0.10411042381220036 -0.6492569881685386 0.3731808557422371 0.5831047533886495 0.41572125014183237 0.03014351633366815 -0.238776859437714 -0.14479467274070013 0.28357043847483027 -0.1824715056305101 0.02426585806607641 0.1499431436379291 -0.3616066751889455 -0.20666985260470858 -0.18859356544249442 -0.20338452096938936 -0.4737236313114584 ]
[ -0.5843908280348655 0.12264515240462576 0.4047473527708391 -0.07174653190807939 -0.6825946253686915 0.49472515780073095 0.2409190366701805 -0.2724391536495931 -0.09557214657907348 -0.6744431407962564 0.1037148402352538 0.423635306549075 0.36014505825975135 -0.37599981883442307 0.4068552144270789 -0.5318494764301716 -0.20251545349945313 -0.13420060862586494 0.0792294691306467 -0.3309216059063134 ]
[ 0.5011324742539423 0.5652715774797021 -0.494115546868825 0.12615074735283857 -0.29727489908263516 0.15289711478004536 0.5218320507669584 -0.11526544987584181 -0.08971174424439296 -0.11321235061252485 -0.03637617608162971 0.2648647431680095 0.11764183356652563 -0.24020817219125817 -0.1264299306835418 -0.14579399310248345 0.3880282043636915 -0.3013383400788803 0.06566739899666782 -0.2218714179665763 ]
[ -0.2215636564935289 0.4123224829373967 0.4873325274598479 -0.2878358920352556 -0.5467533912555096 0.677884420773274 -0.5530949670201634 0.025110592460909208 -0.2919918106553719 -0.08354080438366258 0.008776352508119116 -0.26056203108375114 -0.06925863859526783 -0.21110443244301058 -0.4375812680995502 -0.6434199454908994 0.2247714153143727 -0.34882174103055924 0.2828549442374237 -0.3447624558615468 ]
[ -0.09503356964188475 0.5253936181176935 -0.07618206987884127 0.08323333732645802 0.23171037496029667 0.059053581994324686 -0.1954731514855019 -0.07092245933258493 -0.07833480977542692 -0.19979408010462665 -0.22526468498168173 0.043652603568526925 -0.08487732815383366 -0.08441808563887628 0.07145985207703925 0.5852611700380753 0.1215961873798689 0.03421730372905275 0.07343927331082564 -0.0007871242769715548 ]
layer 5 Activation
tanh
layer 6 Dense
20 1
[ 0.09829139476406117 ]
[ -0.354381510667668 ]
[ -0.3860093088932144 ]
[ 0.21194604211673215 ]
[ -0.04812456268695743 ]
[ -0.4589262220327499 ]
[ -0.3337832186618955 ]
[ -0.1581060992416455 ]
[ -0.37851367531307095 ]
[ 0.3584029240813892 ]
[ -0.007874708880429244 ]
[ -0.25322691265249464 ]
[ -0.17754591638784503 ]
[ 0.4241241321710898 ]
[ 0.2601076789522246 ]
[ -0.17018944518491907 ]
[ -0.1673450007366615 ]
[ 0.27949754443318114 ]
[ 0.004948367284677765 ]
[ 0.24601775010958662 ]
[ 0.10955855270972199 ]
