layers 7
layer 0 Dense
20 20
[ 0.04722357  0.09919219  0.25102556 -0.2867568   0.09674986 -0.14443226
 -0.27159446 -0.3031835   0.24167094  0.15912876 -0.13773207 -0.22711925
  0.07555575  0.08961439 -0.25016686 -0.20898387  0.48754683 -0.08176374
  0.03341221  0.52660435]
[ 0.0403929   0.20950611 -0.36184436  0.0036869  -0.03339238  0.31344435
  0.19152607  0.03954008 -0.22312929  0.28251135 -0.33362707 -0.1311633
 -0.27854005  0.40065444 -0.4090627   0.12962052 -0.30618724 -0.06929824
 -0.1688824   0.08342265]
[ 0.1428015  -0.30810913 -0.35042116 -0.13606197  0.23151605 -0.22647497
  0.3355948  -0.1776534   0.0687627  -0.33926705 -0.03418642  0.17249721
 -0.2784603   0.11512791  0.3195492   0.10319224  0.3162543  -0.20195442
 -0.35617948  0.10074531]
[ 0.00882172 -0.05444063  0.16934595  0.01211557  0.02877367  0.4233919
 -0.39547345 -0.12694398 -0.05571008 -0.1076477  -0.26000598 -0.38641337
 -0.391388    0.32820964 -0.06070439  0.32393286  0.49779898 -0.12162632
 -0.4911261  -0.09452668]
[ 0.12130548 -0.00524459  0.18842489  0.43343562  0.01477863 -0.15553066
 -0.41219264 -0.0703213   0.32618117 -0.28827816  0.21613704 -0.18835562
  0.05973206 -0.25230268 -0.09258436 -0.3806127  -0.16643713  0.37563378
 -0.16287749 -0.34604135]
[ 0.2842199  -0.23104702 -0.17542252 -0.00056847  0.32597688 -0.30632117
 -0.00497772  0.2984526  -0.181955   -0.10028862 -0.3239996  -0.1485011
 -0.22735843  0.2444732  -0.0630399  -0.31595346 -0.17810649 -0.1865483
  0.30687916 -0.0113143 ]
[ 0.08342377 -0.08889354 -0.15044908  0.08777305 -0.01900966  0.2204918
  0.06529054  0.35524097 -0.17900379  0.31048587  0.25042647  0.08558524
  0.29963124 -0.00809823  0.28223133  0.08479138  0.01487391  0.25140435
  0.09474026  0.1748291 ]
[ 0.3551112   0.22797614  0.07158301 -0.17074098  0.15869811 -0.32978076
  0.05336292  0.02474156  0.13625272  0.12018829 -0.10950302 -0.35096273
  0.37473282  0.0213401   0.28343117  0.2475106  -0.31829986 -0.33027795
  0.22945051 -0.36062315]
[-0.14807889  0.22592211  0.2133128  -0.39369008 -0.46787053  0.23782651
 -0.2546598  -0.32496276  0.36098573  0.1821521  -0.36579028 -0.03766877
 -0.608729    0.17400084 -0.32938537 -0.09655478  0.32573256  0.9961361
 -0.53551435 -0.71151465]
[-0.50311524  0.35558036  0.57919776  0.5873751  -0.11486789 -0.24242224
  0.0725085   0.48775652 -0.21005385  0.09969102  0.55851585  0.1117743
  0.30951303  0.00797     0.11355036  0.16969067  0.58072746  0.5102035
 -0.5733453   0.49016026]
[-0.33896008  0.40770784 -0.0113219   0.2821621   0.4599099   0.572996
 -0.1594805  -0.73074687 -1.1639355   0.5445216  -0.00967224 -0.29299882
  0.35345283  0.75649256 -0.0602954  -0.35649925  0.16720429 -0.31953993
 -0.37186375  0.2958341 ]
[ 0.88153857 -0.44598508 -0.32378614  0.28159317 -0.18694133 -0.87465274
  0.8312561  -1.2666086  -0.5649615  -0.77201104  0.68410695 -0.7487775
  0.39928105 -0.98101455  0.22181161  1.174177    1.6831266  -0.10315325
  0.49363503 -0.78332126]
[-0.0235286  -0.08439678 -0.09512264  0.2709911   0.3851288   0.18397926
  0.08900577  0.5102786   0.04959126 -0.01758709 -0.44676125 -0.11095982
 -0.0539191  -0.03449229 -0.27070838 -0.14457785 -0.36237183  0.2427729
 -0.24713245  0.1830877 ]
[ 0.35172752 -0.40025157 -0.19622314  0.17069408 -0.11469042  0.3013661
 -0.22009599 -0.05605493  0.07874136 -0.23819195 -0.34559444  0.24693654
 -0.25429952  0.21266994  0.51786673 -0.22383592 -0.322133   -0.01793326
 -0.07381314  0.11466866]
[-0.20062153 -0.22656986 -0.18038552 -0.12602966 -0.40833217  0.11307301
  0.34597543  0.41079447  0.2685266  -0.32243583  0.11785409  0.24143386
 -0.07644723  0.11294402  0.11713787 -0.19730662  0.10314031 -0.18663086
 -0.17926422  0.06357237]
[ 0.18301982 -0.28454986 -0.12242791  0.11383604 -0.17960213 -0.27525938
  0.23930763  0.3971327  -0.10550079 -0.12467732 -0.09977722 -0.09904635
  0.772618   -0.271753    0.26237425  0.02370627 -0.11142562 -0.53395945
  0.2042224  -0.02748385]
[ 0.22894666  0.03346319 -0.33835033  0.32821319 -0.27020165 -0.05979848
 -0.09798307 -0.22075477 -0.2298349  -0.37349007  0.31139418 -0.07828789
 -0.06209178  0.24669553  0.41716698  0.24864599  0.10665336 -0.05504441
 -0.0254908   0.0898501 ]
[ 0.1729948  -0.3633535  -0.24922842 -0.4760826  -0.05375607  0.15734416
 -0.42768985 -0.1704368   0.28302884 -0.23995447 -0.16811638 -0.4643335
 -0.34579936  0.17295742 -0.56045586  0.11721263 -0.2986336  -0.35929987
  0.15618178  0.3664136 ]
[ 0.08754867 -0.2817128  -0.22794151  0.05745824 -0.5327478   0.04254653
 -0.20568274  0.52465165  0.60888135 -0.03456264  0.5200431  -0.35522723
  0.01960346 -0.13540767  0.0062246   0.19075558 -0.26036647  0.25958726
  0.28544423 -0.3642579 ]
[-0.61466146  0.07676493 -0.00577382 -0.7469233  -0.34286872  0.4256709
 -0.44036517  0.29413244  0.6318973   0.14568953 -0.03397689  0.39483997
 -0.54278517  0.26575577 -0.58415526 -0.14310114  0.2791231   0.38885006
 -0.15845758 -0.05712885]
[ 0.04616751  0.0083328  -0.00789228  0.09958144  0.00408091  0.04585444
 -0.05251131  0.03315397  0.04764114 -0.05053221 -0.04250159 -0.01949178
 -0.04361409  0.10713915 -0.14010257  0.00917525  0.02701254 -0.02074773
  0.01139212  0.1745027 ]
layer 1 Activation
tanh
layer 2 Dense
20 40
[-0.05222494  0.29499504  0.17419833 -0.18313444 -0.26947093  0.28773952
  0.15904605 -0.2678769   0.1646836   0.05464396 -0.12071743  0.04749957
 -0.05473927  0.5440988   0.06301464  0.03943842  0.3227054   0.13550475
 -0.1531923  -0.13234708  0.48825467 -0.2020223  -0.21309151 -0.00944744
  0.1627537  -0.27193838 -0.4060286  -0.52286464  0.0559365   0.36147344
 -0.16000764 -0.00526839 -0.34366325 -0.3532369  -0.31408343 -0.17174263
  0.38888288 -0.14385642  0.24693353 -0.51693237]
[ 0.2946281  -0.8434534   0.14493832  0.28603202  0.38585633 -0.03206595
 -0.21768999 -0.28669652 -0.16328916  0.25701946  0.17993645 -0.13737799
  0.09538464 -0.04221401  0.2059469   0.00480643 -0.443247   -0.27001056
 -0.55679667 -0.37479073 -0.04388689  0.0472725   0.20275998  0.3226025
  0.08768546  0.40742356  0.33614376  0.26886553  0.20766033 -0.5500338
  0.16045962  0.00999627 -0.01817174 -0.04784787 -0.0104241  -0.09371036
 -0.1663927   0.37807944 -0.21177779  0.42987677]
[ 0.20117968 -0.3942988  -0.03514165  0.22575437  0.09392294  0.13497029
 -0.04017287 -0.42916125 -0.2763835  -0.01242653 -0.03813443 -0.24525656
 -0.2429992  -0.45516235 -0.2471552   0.07030835 -0.42446828 -0.18504368
  0.18613416  0.26193336 -0.16009372 -0.15329054 -0.27218407  0.35169423
  0.28051785 -0.04249753  0.11706795 -0.13550003  0.3476559  -0.4446689
  0.3305185  -0.16175246  0.24621895  0.13567427  0.25137419 -0.3582059
  0.06881231 -0.21398133 -0.16400394  0.24260099]
[-0.0229909   0.19618917 -0.04047111 -0.4102033  -0.28163642  0.10789014
  0.33747768 -0.35337687 -0.26795894 -0.05774772 -0.00362543 -0.1824881
  0.05992317 -0.10273656 -0.03095909 -0.03942237  0.14709862 -0.19129324
  0.18573594 -0.09553795  0.1330241   0.12565637 -0.21000849  0.21069048
 -0.09644389 -0.10215142  0.1652234   0.0244856  -0.08733205  0.11744206
 -0.01023353 -0.32958335  0.44911098 -0.41063282  0.28228194 -0.21569224
 -0.3825205   0.1832845  -0.11961465 -0.2854859 ]
[-0.04728024 -0.51408607  0.07965171 -0.08959655  0.22911245 -0.05789375
  0.12992474 -0.12045901  0.00180686  0.43304098 -0.16087694 -0.14437552
  0.10335222 -0.08457653 -0.02710042 -0.06874686  0.21601151 -0.01341251
 -0.2889756  -0.13482317 -0.30544093  0.19505596  0.33233386 -0.12119722
  0.02793524  0.05469005  0.01485956  0.30597487 -0.00875027  0.27791992
  0.1087957  -0.16240181 -0.01714654 -0.26078305  0.4067302   0.17687708
 -0.06560875  0.2844321   0.18136647  0.32687297]
[-0.19504358 -0.281227    0.36820823 -0.0143335  -0.25139675 -0.6060805
 -0.22864878  0.42300996  0.16026665  0.16473752  0.1864854  -0.12657425
  0.28958017 -0.07862824  0.05460839 -0.05462577  0.01588429 -0.57771766
  0.02546029  0.6581976  -0.14397721  0.41512498  0.3494081  -0.22861326
  0.14087236 -0.023672    0.20001823  0.57567275 -0.0187263   0.47785708
 -0.15257858  0.35851222  0.01553615  0.29314712  0.10493555  0.26913133
  0.33768928  0.19462317 -0.44779164  0.39365798]
[-2.7361596e-01  2.9757550e-02 -1.3861869e-01 -3.4575978e-01
  3.5799962e-01  2.6958993e-01  3.0114168e-01 -2.2020446e-01
 -3.1245685e-01 -4.0181297e-01 -6.2342304e-01  6.4856592e-03
  1.0763402e-01 -3.6181670e-02 -1.7440324e-01  1.5728922e-01
 -2.3054797e-04  9.1047674e-02 -9.1534488e-02 -4.5795593e-01
  2.9113191e-01  6.2587999e-02 -1.0438616e-01  1.8471083e-01
 -6.0871638e-02 -2.6591605e-01 -3.8016480e-01 -9.3946047e-02
 -3.0930528e-01 -1.8281497e-01 -2.2781985e-01 -5.0102711e-01
 -7.0929043e-02  1.6711991e-01  1.6639709e-02 -2.0264669e-01
 -5.3079295e-01 -1.5356517e-01  5.5336636e-02  4.9180266e-01]
[-0.08790017 -0.17465878 -0.08817298  0.06235714 -0.18895182 -0.43366992
 -0.00709574 -0.0514286   0.02524265 -0.23750435  0.3387874  -0.35507768
  0.22304183 -0.07373758  0.02038872 -0.13413481 -0.5733793   0.19667342
 -0.46557134  0.452746   -0.2137947  -0.19984663  0.12864599  0.3018971
 -0.18171504 -0.23629376  0.4790613   0.09659308  0.31420982 -0.9247662
  0.3133282   0.7560666  -0.1331139   0.57294    -0.2776404   0.25382188
 -0.08914158  0.13195693  0.19204566  0.24147296]
[ 0.3962323  -0.07188883  0.1640302   0.13419253 -0.06402671 -0.5231808
  0.23938388  0.42811182  0.170307    0.21397191 -0.06516978  0.30686995
 -0.19565211 -0.27453646  0.00846049 -0.06327229 -0.26861668  0.21752028
  0.07748379  0.3097991   0.22112215  0.0374571   0.06752438  0.39151713
 -0.06037384  0.3857208  -0.1464446  -0.09471522 -0.06339543 -0.4151606
 -0.10944247  0.8647007  -0.35693014  0.08122197 -0.6062962   0.03659523
  0.10947357 -0.2642017   0.07598399 -0.02670066]
[ 0.19509304 -0.49687862 -0.06592209  0.05190577  0.2135665   0.13749193
  0.14776078 -0.08443014  0.17166652  0.47696963 -0.1872561  -0.106933
 -0.03169747 -0.06708266  0.26529235  0.00129285 -0.01336783 -0.01937555
  0.04909267 -0.20941456 -0.13789576 -0.37485194 -0.03374295 -0.17175362
  0.26451206  0.01916993  0.37579522  0.24757402  0.01835253  0.1706495
  0.1598156  -0.3816771  -0.15406725  0.3307248   0.49379325 -0.15002574
  0.25575796  0.21346545 -0.2819155   0.47946298]
[ 0.1602197  -0.16214757  0.16623114  0.18570246 -0.0799802   0.04142918
  0.26346213 -0.28808385 -0.31300533 -0.37680346  0.10896955  0.4316975
  0.3406556   0.29313278 -0.30067712 -0.04099149 -0.3013699  -0.07929241
 -0.13431011  0.18634354 -0.15207759  0.22334738 -0.23970991 -0.01359486
  0.14443286 -0.19137289 -0.25226295 -0.21850538  0.13678588  0.00518651
 -0.2981792   0.0690574   0.49766102  0.26203063  0.26762912  0.18741733
 -0.36811125 -0.2624275   0.27285996  0.11136088]
[ 0.1272063  -0.02786885  0.00994916 -0.4019141   0.1423157   0.13837883
 -0.1741042  -0.10697623  0.05757405 -0.11879466  0.22175938  0.2561006
 -0.07287399  0.05164345  0.10606353 -0.08283702 -0.03923059  0.17223568
  0.30044714 -0.14556874  0.29550585  0.24195911  0.1640634   0.09888348
  0.08420364 -0.06085401  0.18376942 -0.0146876   0.07401961 -0.26321724
  0.27726004  0.23553573  0.2480047   0.14637928 -0.09971604  0.0548895
  0.26987723  0.20597076  0.08008169  0.3097521 ]
[ 0.15034607 -0.2868732   0.06606346 -0.17186335 -0.25364918  0.13130954
 -0.35268503 -0.54383165  0.10223095  0.33796716 -0.24097711  0.09987655
 -0.13140298 -0.20320387  0.11327028 -0.1509623  -0.25027904 -0.23634063
 -0.5806397  -0.5550673  -0.3267746  -0.05932746  0.17823882 -0.02599767
  0.2435152  -0.6922515  -0.3081599   0.03116394 -0.02597293 -0.5045047
 -0.12032751 -0.4988391   0.18034655 -0.28874183  0.41966575 -0.19328414
 -0.35259926  0.0867772   0.14735286  0.356979  ]
[-0.00433203 -0.34939048  0.12621523 -0.01646174  0.1132701  -0.09971269
 -0.11885548  0.16705401  0.42482814  0.15234146  0.29971492 -0.15700276
  0.0525475  -0.45763615 -0.15051673  0.1332574  -0.07101582 -0.3602327
  0.1467724   0.2852415  -0.23060429 -0.03223381 -0.12179697  0.02146533
  0.2535683   0.14450236  0.07394011  0.29639298 -0.01947781  0.06384257
 -0.22558205 -0.30345795  0.0191498   0.32915956  0.31714284 -0.12352051
  0.29668817  0.3104533  -0.00449099 -0.16030408]
[-0.10495423 -0.01576937 -0.15199116 -0.15388846 -0.07154766 -0.22552717
 -0.1999676  -0.25020087 -0.00242992 -0.29158717  0.01407581  0.12629643
 -0.14241771  0.25249073 -0.22446924  0.22237942 -0.04527709 -0.13066156
 -0.33856374 -0.17008038  0.20374098 -0.45131046 -0.21823105  0.05043245
  0.03888555 -0.38821962 -0.2306944  -0.33817047  0.06998646 -0.33794117
 -0.09830613  0.14688742  0.12262268 -0.13029821 -0.00188935 -0.21724483
 -0.13636741  0.03659005 -0.2038777   0.05140557]
[ 0.3545465   0.31708336  0.08976132  0.12977797 -0.1028806   0.57635325
 -0.31021082 -0.01282039 -0.43503118 -0.30059832 -0.21998636  0.0947108
 -0.00496663 -0.01651191  0.09848178 -0.22984654 -0.1448141  -0.01004178
 -0.022691   -0.26027244  0.17581283 -0.21069387 -0.06990293 -0.0049549
 -0.20021893 -0.22455464 -0.3339723  -0.492856   -0.24645407  0.09823274
 -0.28611556  0.00787585 -0.02406145 -0.26194882 -0.1116005   0.24722815
 -0.3714782  -0.3329852   0.4582334  -0.08946843]
[-0.271365    0.22025244 -0.05759716 -0.0373583  -0.20763141  0.521522
 -0.03819174 -0.42139208 -0.35153422 -0.05834648  0.28453246  0.19719411
  0.12396169  0.05724956 -0.03982698 -0.02291772  0.25840345 -0.3628765
  0.5010529   0.00439743  0.16338283  0.18382244 -0.11719542  0.14232658
  0.0689677   0.46918687  0.07862616  0.01937726  0.12715685 -0.19627419
  0.14304608 -0.05035716  0.350123    0.07929346  0.6385536   0.03209878
 -0.6085024  -0.26859653  0.06927055 -0.27973804]
[ 0.04770083  0.10460901 -0.27041608  0.47699022  0.10935521  0.28695777
 -0.16761884 -0.11995905  0.19408356 -0.10444661  0.16647394  0.23720428
  0.21096823 -0.01038784 -0.01822026 -0.09831674 -0.24293128  0.70575315
 -0.38714445  0.0208566   0.07350445  0.03267561 -0.17628387  0.6699489
  0.22623184  0.1722862  -0.08268547  0.27795708  0.6032684  -0.7377152
  0.23280556  0.35296398 -0.42907733 -0.23052745 -0.5750065   0.19857436
 -0.03512738  0.2506412  -0.03584413 -0.34961486]
[ 0.16975577 -0.10308749  0.00628443 -0.08421183  0.26993597 -0.126962
  0.2732656  -0.12461672  0.30414984  0.26948988  0.21012492  0.01864306
 -0.23873028  0.353476   -0.2891265   0.13348603  0.09823745 -0.29606867
 -0.19822906 -0.27394325  0.19289346  0.25526318 -0.2721505  -0.14681195
  0.00483241 -0.2353057  -0.390052   -0.40478426 -0.22455281  0.41710508
 -0.12090246 -0.12598498 -0.28379574 -0.12828451  0.10623684 -0.16117688
  0.2582477  -0.23539068 -0.32160094  0.45841005]
[-0.3475222   0.00758831  0.2675593  -0.4209241  -0.16328467 -0.20321429
  0.19704595 -0.09469298  0.28144667  0.17423445  0.088971    0.11792715
 -0.03310882 -0.26222005 -0.19518599 -0.20862253 -0.32908657 -0.26682118
  0.04242557  0.10230771  0.26269263  0.06449299  0.24799573 -0.189146
 -0.30911523  0.03852796  0.1351255   0.19628572  0.07546586 -0.08038235
  0.15681475 -0.07265977  0.45900616  0.4453981   0.49716684 -0.35706308
 -0.11678858 -0.14169274 -0.1338801   0.4115392 ]
[ 0.03273955  0.1509308   0.00855889  0.08501177  0.04915876 -0.18550242
 -0.04124175  0.08796687 -0.11703112 -0.03270992  0.25495285  0.03399106
  0.08576789 -0.1443102   0.00666915 -0.03135895 -0.03323825 -0.1157685
  0.24964142  0.5013663  -0.07022102  0.04145467  0.13906823  0.04334168
  0.03377367  0.22185682  0.24742912  0.22690879  0.13893971 -0.09113774
  0.32767078  0.16744982 -0.12793325  0.19544451  0.14088182  0.02807617
 -0.00979835  0.02053943 -0.05363151 -0.05314369]
layer 3 Activation
tanh
layer 4 Dense
40 20
[ 0.03553238 -0.14170305  0.13949561  0.21215558  0.33760232 -0.10282116
 -0.2631091  -0.10611814 -0.1594761   0.2633957  -0.21562734 -0.09824246
 -0.00927538 -0.24207732  0.18416671 -0.18373781  0.04508913  0.2572005
  0.05242632 -0.06736521]
[ 0.23517828  0.24151541  0.15880983  0.10265644 -0.15809406 -0.27763623
 -0.27986917 -0.3492201   0.16586746 -0.07743073  0.10726023 -0.18953864
 -0.04175279 -0.357095    0.09146742  0.3158335   0.00251278 -0.3432027
 -0.13627261  0.19852631]
[ 0.05875718  0.18887812 -0.12070129 -0.18712759 -0.13398315  0.1187159
  0.5064648  -0.09982788 -0.19882704  0.18450293  0.24267107 -0.25634712
  0.25128362  0.00882603 -0.44221205  0.29805493  0.10644749  0.2760757
 -0.12387847 -0.03397515]
[-0.19137686 -0.23759851  0.23767039 -0.06422744  0.24965811  0.2391293
  0.21102418  0.32903317  0.00993551 -0.21834143 -0.24194126  0.08660761
 -0.02723489  0.04771447  0.33455804 -0.24068502  0.25782338 -0.28662977
  0.02590121 -0.4010214 ]
[-0.05378262 -0.0035154   0.14788257 -0.04370573  0.2681216   0.26032478
 -0.1756845   0.45393196 -0.1488116  -0.00828731  0.19609828  0.10360576
  0.04938377 -0.00132052 -0.1299825  -0.33139122 -0.20422716 -0.04214644
 -0.02659306 -0.15379758]
[ 0.17002879 -0.10779104 -0.07569347 -0.19831191 -0.16711149 -0.23392354
  0.3542255  -0.23725165 -0.16638775 -0.37026572  0.1551002   0.4075984
  0.10023364  0.48886612 -0.27862433 -0.27218574 -0.35271412  0.01438379
  0.06018033 -0.2909544 ]
[ 2.5752980e-01  1.1624430e-01  2.2584328e-01  4.3632086e-02
  7.8107804e-02  8.2899347e-02  1.2505893e-01 -1.0765502e-01
  7.7173635e-02  1.5301278e-01 -1.0648286e-02 -5.1334295e-03
  2.3787920e-01  8.6576700e-02  4.4787070e-05 -9.9382155e-02
  1.2780626e-01  1.8902348e-01 -2.9596061e-01  7.0490815e-02]
[-0.03724667  0.40630162  0.17171635 -0.01275531  0.08179843  0.31024414
 -0.33384416  0.134743   -0.16923952  0.3517987   0.23557179 -0.2236205
  0.19123164 -0.40182576  0.0083385  -0.01672463  0.31792596 -0.3453541
 -0.06168181  0.1695173 ]
[-0.2239057   0.09476405 -0.16642366  0.22785902  0.17094499  0.33806527
 -0.3366307   0.28535604 -0.28495643  0.2458853   0.20535812 -0.15094319
  0.03658338 -0.44962814  0.00075554  0.19380668 -0.26406705 -0.10348831
 -0.33209962  0.17041181]
[-0.07432119 -0.21866761  0.10796163  0.08830042  0.20296618 -0.11689372
  0.26922876  0.37141946 -0.37162724  0.22231358 -0.01514889 -0.2534954
  0.03427677 -0.04888406 -0.3560606   0.24965729 -0.21175759  0.16815613
  0.15508509 -0.07450405]
[ 0.13919973  0.24519901  0.18435985  0.02092662  0.02788086 -0.0976885
  0.23362489 -0.32796744 -0.26462656  0.18707587  0.2976093   0.1758323
  0.19267714 -0.1737536  -0.17955616 -0.19588734  0.41519696 -0.07757118
  0.05686997  0.13618708]
[ 0.22377226  0.10823447 -0.17283534 -0.27861494 -0.0628049  -0.12611869
  0.0295838  -0.05058384  0.00564819 -0.12056638 -0.00233441  0.27212986
  0.08105037  0.22812587  0.16135938 -0.24175584  0.24136865 -0.3914823
 -0.24673726 -0.02762323]
[-0.03974956  0.1231197  -0.15346868  0.00212653  0.03276903 -0.2395927
  0.22091666  0.22454983  0.21903643  0.08145697 -0.05186069  0.01392609
  0.15921792  0.43455106 -0.23088211 -0.17338248  0.3034158   0.19424619
  0.23427658 -0.1306801 ]
[ 0.23110013 -0.16369398  0.15355904  0.23086017 -0.32924625  0.28739485
  0.063893    0.20139776 -0.03248721  0.2248081  -0.2961686   0.33155808
  0.20688276 -0.11140431 -0.15306002  0.04680312  0.12104542 -0.20623869
 -0.27201003  0.08649706]
[-0.11796621 -0.04017248  0.24629763 -0.02542678 -0.007472   -0.01889152
  0.23714216  0.21218385 -0.01116864  0.29816806 -0.1423006  -0.0756825
  0.07319901  0.2970949   0.16374774  0.03232252 -0.07877572 -0.0292569
 -0.19135909 -0.12362532]
[ 0.07839835  0.10383927 -0.19370857 -0.04759172 -0.0950221   0.0416307
  0.05412873  0.29709876 -0.03128735  0.07780001 -0.15533671  0.06186858
 -0.10197887 -0.07638916  0.06506318 -0.16775444 -0.07729302 -0.0029454
  0.01270723  0.09005336]
[ 0.17415383  0.31851834 -0.08019544  0.20580326 -0.22519045  0.30685633
  0.24216636 -0.02661895 -0.15595207  0.26981187  0.26290035 -0.08889499
 -0.19478391  0.2610746  -0.38349178  0.18876825 -0.2054952   0.29923978
  0.18143289  0.31607184]
[ 0.05772764 -0.14147624 -0.21397614 -0.03131923  0.38988656  0.29273105
 -0.11731201  0.09836242  0.2166149   0.30551577  0.03045521  0.29510662
 -0.06679443 -0.33710384  0.2928052  -0.33171508 -0.08292411 -0.49598756
 -0.27484158 -0.05199312]
[-0.0348702   0.18547203 -0.13073872  0.23550324 -0.3152642  -0.251728
  0.35330057  0.2884604   0.23958433 -0.14778753 -0.03361046  0.10234466
 -0.31931692 -0.13607818 -0.32500488  0.32880273  0.35451904  0.1288297
  0.05951521 -0.06685502]
[ 0.01705536  0.1331996   0.02781619  0.3342297   0.21373864 -0.05225052
  0.02353    -0.10082964  0.3492278   0.34457064  0.40507478 -0.13423118
 -0.06938326 -0.13655236 -0.13727346  0.0216476   0.5623307   0.13210827
  0.20867817  0.25581226]
[ 0.29099137  0.28896847  0.19662103 -0.18373027  0.11303792 -0.02187565
 -0.19024698  0.06555871  0.00085045  0.2434683   0.28896284  0.10746784
  0.29019856 -0.22062208  0.10863686  0.02735765 -0.14098714 -0.27747542
 -0.11398456 -0.33554977]
[-0.16595091 -0.02268214  0.01780045  0.17745754  0.02008035  0.0346294
 -0.12062391  0.04234224 -0.12101579 -0.15876515  0.20754044  0.11713561
  0.11075323 -0.05075965 -0.22228414  0.19639349  0.15555456  0.02944904
 -0.29116538  0.01301378]
[-0.18588994 -0.08477602  0.19963104  0.12309226  0.27172983 -0.34692058
 -0.12053405 -0.09381395 -0.23334199  0.22445384  0.10786603 -0.32337293
 -0.20783105 -0.3064349  -0.10872597  0.19966309  0.21627092 -0.1603899
  0.09505942  0.26970398]
[ 0.29445967 -0.07271467  0.12912816  0.20010257  0.39456853  0.08354527
  0.03894727 -0.2770696  -0.30112195 -0.07879542  0.30807513  0.3532999
  0.13849565  0.24584989  0.31288368 -0.18064414  0.10293857 -0.360039
  0.3522229  -0.28423196]
[ 0.13815118 -0.21512148  0.21452901 -0.01514992  0.23114094  0.16595043
  0.38890296  0.26999035 -0.29808843  0.00530778  0.21761419  0.19089873
 -0.30102244  0.34467313 -0.14226027 -0.04114826 -0.18679105  0.09144574
  0.16431446 -0.14890961]
[-0.2512994   0.33122945 -0.22578618  0.09296308  0.05218032  0.15159045
  0.29042795  0.27395242  0.3010928  -0.1672961   0.36011893 -0.13386552
  0.17618832  0.0085529   0.16953123 -0.10895307  0.19696769  0.02166578
  0.09177501 -0.21958768]
[-0.35293415 -0.20544589  0.2289812   0.15101884  0.42077282 -0.04877238
  0.36781302 -0.30441546  0.07111195 -0.12591936  0.24458663  0.08440706
  0.20244753 -0.0252386   0.165543   -0.03592376  0.5169654   0.21219304
  0.46392077 -0.20799877]
[-0.36604518 -0.15196592 -0.15119761  0.03777757  0.11248599 -0.23735757
  0.2965789   0.03872055 -0.21742022  0.12152246  0.3991463   0.10626196
 -0.12317181  0.20976792 -0.35000214  0.19186503  0.41938186  0.20390494
 -0.02217239  0.25204378]
[-0.14197743 -0.13512121 -0.06567605 -0.04571333  0.3197408   0.15212664
  0.19809891  0.01276676 -0.12373525 -0.24271086 -0.05452088  0.4036989
  0.20468585  0.30089125 -0.01770238 -0.23549859  0.31973532  0.00641351
  0.4069078   0.05183598]
[-0.19542266  0.38515976  0.28987262 -0.19531587 -0.38325974 -0.14459892
  0.4934402   0.23881723 -0.11334886  0.11033531 -0.17474647 -0.177441
  0.11683336  0.13768597 -0.40282363  0.3811616  -0.18110523  0.15983818
 -0.37491506 -0.17112882]
[-0.25688735 -0.05011291 -0.02045353 -0.01919004  0.30750197 -0.22475162
 -0.00907085 -0.0604869  -0.00544552 -0.07004219  0.1262048   0.00488123
 -0.22470608 -0.00716331  0.17008387  0.19509041  0.16224772 -0.29836944
  0.20677389  0.16949452]
[ 0.33318084  0.3647063   0.09305517  0.33598143  0.31125784 -0.08690295
 -0.34373114 -0.12134135  0.15134133  0.29166386  0.29693943 -0.00128384
 -0.21839666 -0.47121626  0.423294   -0.16632727  0.3814408  -0.38150835
  0.2760962  -0.1699678 ]
[-0.08735369 -0.1861936   0.15164106  0.06407173 -0.00600061 -0.22578858
  0.33571547  0.02582575  0.09796461 -0.2536046   0.09575938  0.0336029
 -0.2049927  -0.0014197  -0.12571841 -0.03297253 -0.22332528  0.31134015
  0.10603493  0.3116022 ]
[-0.34415823 -0.27432534  0.12675704 -0.1445933   0.14272375 -0.15098906
 -0.36420384  0.02381089 -0.13704364 -0.1558426   0.08785885 -0.2854508
  0.04646701 -0.33570877  0.34880233  0.11995025  0.34892198 -0.14485264
  0.0463798  -0.23719427]
[-0.38814086  0.04939105 -0.15202184 -0.13167867 -0.351027   -0.3265738
  0.05294827  0.10725338 -0.28651303 -0.36458197 -0.24884863  0.19868167
  0.01069068  0.28525776 -0.22429633  0.20585969  0.11249434  0.41407225
  0.10993535  0.19703409]
[ 0.27230793  0.03875044 -0.0697208   0.29023373  0.11088871  0.13960531
 -0.14059462  0.07984462  0.01615811  0.00103605 -0.05957563 -0.06164825
 -0.27874383 -0.11265782  0.14425822  0.00347127  0.28398517  0.07979865
 -0.1669792  -0.17966269]
[-0.18113737  0.12614447 -0.30135968  0.2929783   0.27588236  0.3444797
 -0.15480796  0.3080386  -0.23974335  0.47839487 -0.1350749  -0.15125898
 -0.15568976 -0.29942548 -0.20381944  0.38382062  0.03372841 -0.21434289
 -0.3759019  -0.30741665]
[-0.16225843 -0.10860485  0.02391424 -0.45929626  0.35085922  0.1645617
  0.01906019  0.23715502 -0.24261986  0.3218159   0.26677564 -0.14595093
  0.12458093 -0.0038212  -0.26134878 -0.07594068 -0.04559778  0.1690487
  0.07832216  0.2217283 ]
[ 0.30021074  0.02114035 -0.12739393  0.09391211 -0.23492764  0.19342953
 -0.2365586  -0.38777182  0.09681211 -0.25449288 -0.09164969  0.29996964
 -0.21101128  0.0979236   0.37853467 -0.16310452 -0.09370121 -0.11988385
 -0.08368801  0.24315457]
[-0.00318509 -0.16075411 -0.25122756 -0.18538162  0.43220463 -0.0930068
 -0.37338996  0.1242866  -0.23875372  0.20882039 -0.09841408 -0.18010558
  0.00595517 -0.02356497  0.05806885 -0.44404727 -0.2176814   0.15002707
  0.17989421 -0.02967956]
[-5.15512899e-02  1.47549892e-02  5.42562781e-03  9.12278518e-02
 -3.51082049e-02  4.39131819e-03  7.17947707e-02 -3.88082489e-02
 -9.90566611e-03 -6.67282492e-02  9.75755453e-02 -8.47131014e-03
 -2.70377509e-02  1.17395539e-04 -3.62232737e-02  3.74199264e-02
  3.26661557e-01  5.65129630e-02  1.00552723e-01  1.05448775e-02]
layer 5 Activation
tanh
layer 6 Dense
20 1
[0.26975116]
[0.3603539]
[0.00013655]
[0.00078003]
[0.20995685]
[-0.17207298]
[0.10075581]
[-0.09469751]
[0.19413225]
[-0.22792621]
[-0.14185765]
[0.3197207]
[0.01795115]
[0.1583083]
[-0.1554677]
[0.3380641]
[-0.27850306]
[0.20261723]
[-0.26042646]
[0.13481681]
[0.05472913]
