layers 7
layer 0 Dense
20 20
[-0.39247006  0.31850925  0.33091477  0.07024831  0.32248324 -0.24724358
 -0.09618399 -0.0022956  -0.13007636  0.19315003  0.410389    0.39673907
  0.13806851  0.26307112 -0.00146825 -0.25959042 -0.48373622  0.3750856
  0.30401006  0.06356832]
[ 0.30630174  0.17183442 -0.05704901  0.22931443  0.16603105  0.25096747
  0.10985441  0.00581548  0.46281514  0.07701743  0.26347843  0.06479904
 -0.41968048  0.00954142 -0.08340742  0.2902021   0.01649029 -0.03220063
  0.35080573  0.4844565 ]
[ 0.36356416  0.14796457 -0.00855869  0.45233873  0.146058   -0.2701358
  0.39551875 -0.50305957  0.3724668   0.3682093  -0.23382516  0.01726523
  0.04580881  0.11631003 -0.1267031  -0.15157692  0.08420572 -0.02504495
  0.16682108  0.28702176]
[ 0.26972908 -0.20640507  0.21125394  0.3501081   0.210596   -0.2228115
  0.08333036 -0.3897749   0.21209951 -0.17956373 -0.15378372  0.08968806
  0.23124848  0.23843913  0.06850733  0.09045386 -0.21095352 -0.03620992
 -0.26694638  0.25939947]
[ 0.40447596 -0.31394297 -0.4286815  -0.25016513  0.00882039  0.17560853
  0.07709803 -0.18847823 -0.0357378  -0.29252425 -0.02178137  0.18914297
 -0.04493589  0.06795621  0.10815026 -0.07868138  0.05652862 -0.20380653
 -0.3299676   0.13690057]
[ 0.02624615 -0.3563033   0.06238715 -0.3300927  -0.36431864 -0.12297472
  0.2045924   0.18382125 -0.30090684 -0.4097889  -0.33431956 -0.35144958
  0.40970302 -0.26513112 -0.19458951 -0.18191442  0.44582132  0.264034
  0.17981339 -0.6179796 ]
[-0.3281276   0.18201652 -0.35551167 -0.17082576 -0.3229583  -0.29577073
 -0.49276006  0.3610698  -0.04941704  0.27401748  0.36849093 -0.51664674
  0.0224468  -0.39807132  0.48890686 -0.17628449 -0.20157473 -0.18969992
 -0.5304588  -0.06217615]
[-0.2487424  -0.17198607  0.47464946  0.02945144  0.2850859   0.09493978
  0.05847283  0.1618322  -0.40829554 -0.3239411   0.17520422 -0.2587573
  0.34183183 -0.2817337   0.18340228  0.0845231   0.02493461  0.2618187
 -0.2459868   0.00342542]
[-0.32330284  0.20912355 -0.32004708  0.0177185  -0.33975288  0.02532074
  0.23321736  0.21192048 -0.06533457 -0.1688088  -0.21430156  0.42862222
  0.27942812 -0.02423513  0.06370117  0.34143394  0.11038817  0.14132838
 -0.27799678 -0.46987227]
[ 0.30989438 -0.02310833 -0.4011905  -0.11163165  0.30522695  0.02972782
  0.19410217  0.13009925  0.02233464 -0.30775112  0.23858476 -0.23788823
  0.27881837 -0.24423811  0.3286396   0.39397144  0.08016171 -0.14958344
  0.4452834  -0.4772107 ]
[ 0.10338622 -0.0145853  -0.1355714  -0.18977937  0.04315436 -0.06317532
 -0.20322114 -0.16263291  0.09791466 -0.03111154  0.26055056  0.08276448
  0.18124269 -0.143696   -0.41165605  0.31268808 -0.29309243 -0.09546205
 -0.26350746 -0.06767807]
[-0.4466818  -0.25333455 -0.2174083  -0.21039686 -0.09958907  0.5616031
 -0.11999162  0.02869934  0.10441741 -0.03793316 -0.09084062 -0.3171407
 -0.19675541  0.0897539   0.18383832 -0.3889253   0.34439164 -0.20670061
 -0.52420276 -0.4313171 ]
[ 0.37203187 -0.11345267 -0.0011911   0.3382454  -0.11285136 -0.3162347
  0.44333073  0.07806298 -0.40250966  0.37284318 -0.4725523  -0.317016
 -0.01750622 -0.37906587 -0.06948567  0.26017916 -0.19784728 -0.453883
 -0.1183513   0.04824601]
[ 0.00525887  0.10294717 -0.1206934  -0.10011123  0.5503759   0.32013673
  0.14834964  0.34667367 -0.15256198 -0.09572031  0.25605577 -0.30269498
  0.2826084   0.15919626  0.10339778  0.28007504  0.10129618  0.3084978
  0.1227954  -0.33347282]
[ 0.12883273 -0.25891003  0.12299474  0.207356    0.20176272  0.00997627
 -0.33715943 -0.20252341 -0.038369    0.38183528  0.28642264 -0.30972725
  0.09541545  0.00251396 -0.400507    0.31532696 -0.01825813  0.31204635
 -0.4638188  -0.06980959]
[-0.12292073  0.27888286 -0.4643306  -0.2436348  -0.36917606  0.06258524
 -0.17881139  0.06060043 -0.2515235  -0.3914703  -0.10335366 -0.19424225
 -0.29802722 -0.4094274   0.32788333 -0.5369027  -0.21125177 -0.06680953
 -0.22759826  0.02438912]
[-0.15642548  0.38464305  0.10961183  0.11556781 -0.01849178  0.26108077
 -0.555229    0.1975996   0.60147464  0.37729615  0.3609832  -0.35588208
  0.17608057  0.4960299   0.05006035 -0.1448974  -0.2275591   0.41866443
  0.4897206   0.01425028]
[-0.002281   -0.35629895  0.6546843   0.50076437 -0.27987573  0.15799798
  0.33212805 -0.36088797 -0.03097906  0.86971444  0.2487962   0.5485327
 -0.46551922 -0.03714635  0.12287993 -0.6084479  -0.4760903  -0.22985642
 -0.35098478  0.7164663 ]
[-0.34718853  0.66173166  0.4805369   0.28454626 -0.690249    0.35037407
 -0.03043239  0.5591054   0.17762563 -0.00834452 -0.5289219   0.6053263
 -0.03844795 -0.14278063 -0.12912714 -0.34992194 -0.09847934 -0.29376218
  0.27900118 -0.12693828]
[ 0.10755321 -0.01187575  0.8215236  -0.04721818  0.69009656 -0.0260081
 -0.23815484 -0.315361    0.5599925   0.30168965  0.4126158   0.45870546
 -0.01349128  0.1938498  -0.01903062  0.66813254 -0.14282198  0.04157617
  0.45983216  0.38503167]
[-0.01638176 -0.05054316  0.05578162  0.02551767  0.11002006  0.04573471
 -0.05437819 -0.03967524  0.09276526 -0.01587048  0.13689934 -0.02939558
 -0.01526889 -0.02581143 -0.04013748  0.04084146 -0.13665876 -0.01862347
 -0.03914142  0.0916051 ]
layer 1 Activation
tanh
layer 2 Dense
20 40
[ 0.22201933  0.1409156  -0.11436577 -0.11910634 -0.1099828   0.4167491
 -0.10688235 -0.0448837  -0.14550458  0.09614505 -0.12585458  0.17787488
  0.2642569  -0.16177453 -0.2313234   0.4106646   0.14371218  0.34150982
  0.15919247  0.07815365 -0.12854183  0.01136415 -0.16362227 -0.14878288
  0.02310052  0.17523761  0.26919448 -0.18144356 -0.09585739  0.07289786
  0.10251483  0.20064999 -0.253915   -0.11123613 -0.29438263 -0.18761933
  0.28761208 -0.2734817   0.02208835 -0.09110675]
[-0.41022956 -0.04901471  0.22789757 -0.30669108  0.01702413  0.16320933
  0.06226339 -0.19417085 -0.1696994  -0.22394425  0.26700476  0.15023196
 -0.18999228  0.17155303 -0.11887589  0.09398263  0.3034264  -0.13850722
  0.02817416 -0.25536016  0.01048031  0.08259294  0.37814212  0.09590612
 -0.3548862   0.17261381  0.18836902 -0.24466671  0.09810476 -0.05883332
 -0.02300275  0.18398617 -0.09491859 -0.3314991   0.10145669  0.06509366
  0.17470442  0.07930705 -0.2898295   0.0297593 ]
[-0.20080711  0.18765046  0.11125053  0.23712397  0.13583846 -0.26903477
  0.37318715 -0.18687767  0.17271256  0.25348493 -0.02188446 -0.12193185
 -0.16194378 -0.34200934  0.05357127  0.05577259 -0.06543098  0.02270551
 -0.0624816  -0.04443867  0.00992633 -0.33957717  0.19939165  0.38715252
 -0.25056785  0.15017192 -0.05530463 -0.05674855  0.35779053 -0.2640126
  0.07861862 -0.27245566 -0.07560174 -0.17181548 -0.03445249 -0.19361596
  0.1480161  -0.0024971   0.41878152 -0.10180449]
[-0.1605297  -0.14807527  0.02405546 -0.04893247  0.13458754 -0.14807786
  0.26243243 -0.16968238  0.14526364  0.29279545  0.25466472 -0.32782438
 -0.08087414  0.03232439 -0.16128777  0.08022636 -0.25493705 -0.01741385
 -0.33839422 -0.20418581 -0.527314   -0.29536805  0.12607074  0.25314224
 -0.0664713   0.27373552 -0.02765355  0.36263946  0.11003469  0.1784926
 -0.26119444 -0.24621019  0.08631968 -0.03651846  0.18773402  0.07341599
  0.09941367  0.19252463  0.28495002 -0.2961299 ]
[ 0.13829663 -0.0612097  -0.02440979  0.29122677  0.11600158  0.11349614
  0.1828913   0.33588326  0.09113377 -0.32234854 -0.13969064 -0.34380695
  0.22289972 -0.27404118 -0.11973955  0.2555325  -0.1687574   0.2589251
 -0.04559682  0.3180996   0.24525802 -0.03016917  0.05249643 -0.10833827
  0.02916391 -0.02633489  0.04393005 -0.17979552 -0.04824534 -0.11686225
  0.12429342  0.00895434 -0.36103678  0.33072546  0.03390811 -0.22526139
 -0.12929253 -0.11381941  0.02308415  0.31018955]
[ 0.06879852 -0.20012762  0.15951112 -0.21147299  0.17480619  0.08383972
 -0.21357448  0.01683727  0.13967957 -0.08809055 -0.08405394  0.00552443
 -0.04916797  0.12672244  0.22331968 -0.06807635  0.20287593  0.00300195
 -0.01319919 -0.02599777 -0.11384965 -0.05715796 -0.06412046  0.15595363
 -0.26098633 -0.02263206 -0.20673388  0.13826455  0.05032158 -0.17498127
  0.01924915  0.21190555  0.10159981 -0.08855808  0.2431441   0.20852067
 -0.08369663  0.26587054  0.00982984 -0.18577297]
[-9.7353309e-02 -4.3439928e-01 -2.5913873e-01  4.7531724e-02
  3.2976714e-01 -4.9792066e-02 -1.7616145e-01  2.8495390e-03
  2.4793518e-01  2.2115305e-01  6.6536896e-02  4.6240053e-01
  2.4392428e-01  2.4476255e-01 -2.7545395e-01 -1.4077540e-01
 -4.3788052e-04 -2.4124478e-01 -1.3447094e-01 -5.1339250e-02
 -2.0067902e-01 -2.6933333e-01 -2.8085348e-01  2.1331950e-01
 -2.3591038e-02 -1.0958904e-01 -4.5755830e-02 -3.2543418e-01
  2.8796971e-02  2.5899452e-01 -2.8114000e-01  1.3625574e-01
 -1.8661752e-01  2.1488276e-01 -1.9838277e-01  3.2573807e-01
 -2.5068847e-02 -3.2746509e-01 -3.1817678e-01 -1.5393025e-01]
[-0.2139651   0.07588496 -0.07002813  0.03854505  0.23597738 -0.15230317
 -0.16274747 -0.276942    0.24317746 -0.2711359   0.04351277 -0.23526512
 -0.1361847   0.05186303 -0.20659846 -0.08950783  0.19675744  0.1672355
  0.10897598 -0.18983892  0.36114323  0.00243534  0.20059367  0.22749162
 -0.28074032  0.24950442  0.0853845  -0.16266766 -0.19060986 -0.06928525
  0.04361025  0.11475096  0.12341294  0.23659208  0.3142611  -0.24793299
  0.14302626 -0.3351395  -0.16013056  0.23751438]
[-0.20033596  0.31854454  0.03252491 -0.0237941   0.24379349 -0.04150776
  0.29783982 -0.04619011  0.35544756  0.14232416  0.348319   -0.44871053
  0.3010565  -0.01813123  0.24499185 -0.17920253 -0.31862104 -0.03825797
 -0.28452945  0.12443734  0.19952463  0.01248619  0.31427938  0.02327041
  0.10581151  0.06329776 -0.21980107  0.32676426  0.29584223  0.04758008
 -0.14946957  0.15537113  0.02238296 -0.44800523 -0.04791883 -0.30233902
  0.17274211  0.25690314  0.3238006   0.24095674]
[-0.16645876 -0.21950738 -0.01067281  0.14131281  0.342964    0.39509648
  0.25505063  0.3081255   0.06561383  0.2765875  -0.2487715  -0.18718785
  0.11181765 -0.05338675  0.2170877  -0.14696787  0.20361014 -0.11567579
 -0.38839883 -0.13459975  0.01807801 -0.05754012  0.01862966  0.10689957
  0.25818998  0.01305701  0.2219847  -0.17948788 -0.24978615  0.24948665
  0.00302887 -0.0462557   0.17654122 -0.24073212 -0.33348474  0.18012196
  0.2975018  -0.08435035 -0.12872241  0.03616078]
[-0.13081314  0.2549382  -0.2051091  -0.30783015 -0.3806212  -0.07638448
  0.11107093  0.00793586 -0.10043192  0.16734527 -0.2969071  -0.01441553
  0.1403668  -0.1696429  -0.05822226  0.1297282  -0.2052719  -0.06501873
 -0.11818521  0.4704841  -0.14364748  0.20848669  0.20901978 -0.36728537
  0.24625292  0.03067306  0.1353531   0.06041403 -0.08383805 -0.3463614
  0.06296226 -0.17480399 -0.15998338  0.0370805   0.07863075 -0.1587462
  0.03749872  0.1995528   0.15742557  0.25643688]
[-0.0659387   0.21138108 -0.04123007 -0.15136078  0.14734025  0.12544453
  0.36142218  0.02104171  0.17752269 -0.17309129  0.08297539 -0.04917838
  0.03099059  0.08799569 -0.26056063  0.04165193  0.27279502 -0.2994283
 -0.27736205 -0.18567652 -0.2285548   0.1445801  -0.02435956  0.16739534
 -0.3085374  -0.22232217  0.04706104 -0.19604324  0.3800281   0.24910735
  0.02434493 -0.02214722  0.21132451 -0.09026098 -0.14992298  0.05427743
 -0.18205711  0.14500655 -0.11118717 -0.09249779]
[ 0.21864273 -0.16748974  0.01508164 -0.24247292 -0.07129256  0.04552756
 -0.29445875  0.23289564  0.08679033  0.2283878   0.00827414 -0.23113231
 -0.0358726  -0.41871652 -0.09942108  0.13957644  0.26602232  0.00511298
  0.08141843 -0.18208864  0.20018417  0.1265402  -0.02538664 -0.30590996
 -0.01157829 -0.18380253 -0.18022239 -0.04887647  0.11430489  0.10930088
  0.18097645 -0.02288834 -0.1961889  -0.09048755  0.14929977 -0.24712068
 -0.02271385  0.09848731  0.09149653  0.25083712]
[ 0.01612789  0.18362512 -0.03141741  0.31108403 -0.3002028   0.12232087
  0.20582755 -0.1931328   0.26890215  0.13667266 -0.22881469  0.22249512
  0.33828408  0.01316851  0.11306767  0.02570383 -0.32708654  0.22317618
  0.12408372  0.05401836 -0.13876466 -0.15335782 -0.00830536  0.24563426
  0.21166933  0.29952124 -0.1861176   0.32267252  0.01126345  0.14515291
 -0.15233317  0.1798662  -0.2713616  -0.12978968  0.07800572  0.03305677
 -0.17054035  0.05790436  0.154917    0.14521272]
[-0.03613018  0.2305491   0.01843601 -0.2189696   0.22840242 -0.11935664
 -0.2107437   0.03529663 -0.18034174 -0.23557375 -0.27650118 -0.10172388
  0.28037736  0.04898457 -0.17330737 -0.27409193 -0.16851613 -0.06329653
 -0.06491592  0.22047642  0.37875593 -0.12761295  0.09503537 -0.03139778
 -0.06594227  0.01157577 -0.18815696  0.10917948  0.19083434  0.02958865
  0.17182039 -0.02596193  0.29299054 -0.08938631 -0.13789769  0.29296255
  0.18146224  0.22210808 -0.07938661 -0.13671945]
[ 0.20033015  0.39071074  0.01660958 -0.04120809  0.32664478 -0.00900234
  0.16534567  0.32219645 -0.21354066 -0.35027105 -0.3851809   0.16989073
 -0.0997036  -0.37299237  0.2672814   0.20593263  0.2581609   0.18488361
 -0.24278013  0.33740065  0.0760742   0.23363918 -0.05473626 -0.43516406
  0.12261805 -0.05515502  0.02072937 -0.5656856   0.18926139 -0.27965373
 -0.24285409  0.19109832 -0.15328309  0.32730228  0.33257934 -0.18280767
  0.14912745  0.1766638   0.22716948  0.35964474]
[-0.07875973 -0.03465468  0.13516119 -0.14850481 -0.02965253 -0.00843744
 -0.35399455  0.16095397  0.09088761 -0.01150147 -0.3070409   0.2955328
  0.2762986  -0.07075536 -0.31851667 -0.1771722   0.14359775  0.16507761
  0.2475915  -0.01763462  0.06950503  0.06362035  0.2330148  -0.0933157
 -0.3044707  -0.12736003 -0.19838141 -0.05447738  0.09574339  0.29996565
  0.10147744 -0.08545812  0.20358938  0.07779211 -0.04527238  0.10312726
  0.10683048  0.34168965 -0.14404947  0.27440885]
[ 0.01866925  0.12491665  0.05947128 -0.08812118  0.08837333  0.0416166
 -0.02967575 -0.14518052 -0.22774833  0.05103342 -0.27422914 -0.32118142
  0.11109094 -0.10323913  0.2269694   0.25262186 -0.26411656  0.17446743
  0.00614902 -0.2124273  -0.18591543 -0.01952708 -0.00627251 -0.23883605
  0.22891508 -0.08965227 -0.09677815 -0.00314492  0.01541883 -0.2089299
  0.04146027 -0.26317573 -0.1614584  -0.01413816  0.18927082 -0.27201796
  0.05838565  0.02556803 -0.02662799  0.19752571]
[-0.48528454 -0.13749367 -0.01150612  0.08969248  0.5364192   0.33352676
  0.33492407 -0.08215179  0.09060168 -0.16309763 -0.19803537 -0.15938276
  0.3798203  -0.19215524  0.0895827  -0.21207012 -0.16519976  0.04430357
  0.08313978  0.19862507  0.53669614  0.43930233  0.1347259  -0.13359469
 -0.17293914 -0.18709238 -0.02125188 -0.21352623 -0.1618899  -0.35462046
  0.08012157  0.375772   -0.38730016 -0.28131783  0.18237816 -0.04404558
 -0.11060784  0.00446571 -0.12376361  0.02097875]
[-0.27393487 -0.28410777  0.04339198  0.3161551   0.15242954 -0.01295918
  0.57237744 -0.00558286 -0.11521062  0.11387693  0.28613797 -0.21021721
  0.2800741  -0.17059228  0.05183952 -0.21927908  0.09208408 -0.18847595
 -0.32959706  0.17193222 -0.40378174 -0.35138997 -0.00344202  0.33446544
  0.00408385 -0.06646574  0.00695509  0.30189905  0.20530647  0.01322365
  0.15803373 -0.02302243 -0.2650071   0.12465465 -0.1925924  -0.25984293
 -0.21794528  0.07834159  0.33608562 -0.0972456 ]
[-0.07004558 -0.06808303  0.16581595  0.07262734  0.01427937  0.0147847
  0.0043413   0.04095168  0.01482167  0.02275217 -0.10827024 -0.0832993
  0.11522128  0.00815471 -0.00364204  0.05646013 -0.09978778  0.08268429
 -0.06897507 -0.08778272 -0.03596316  0.01033804  0.06982081  0.04547917
  0.01594252  0.02563446  0.13553482  0.05530782  0.14020802 -0.08912271
  0.01671656  0.01834735 -0.00259524 -0.16080552 -0.09632567 -0.09063555
 -0.01974945  0.19839472  0.03833796  0.01568091]
layer 3 Activation
tanh
layer 4 Dense
40 20
[ 0.27191314 -0.23230751 -0.06361073 -0.20971619  0.15991242  0.14409098
 -0.29211688 -0.09109151 -0.13775098 -0.29515687 -0.09479328 -0.04619182
 -0.29051685 -0.00855082  0.11531018 -0.1883557   0.02418384 -0.03283411
  0.32342985 -0.1223747 ]
[-0.1310521  -0.2519299   0.20022798 -0.26373774  0.08854908  0.08459923
  0.05340479 -0.21698016  0.23741095  0.05119124  0.20056657  0.11560832
 -0.06371297  0.14131181  0.33965173 -0.09161785 -0.22527981  0.3024764
  0.11872895  0.09522504]
[-0.15385756 -0.3458305  -0.03809331  0.13464428 -0.01708837  0.01584543
  0.2115019  -0.06516426  0.26805654 -0.0355832  -0.05204473 -0.02652323
  0.30575836  0.1245516  -0.01127667  0.07408946  0.00864843  0.01687071
 -0.35607535  0.14036614]
[-0.3990174  -0.13513401 -0.06525246  0.06583238  0.09098162 -0.25360903
  0.33236533 -0.04921301  0.04528387 -0.06122111 -0.2528962   0.03087643
 -0.17359905 -0.23503716 -0.18269305  0.02904787  0.3051899  -0.1722433
 -0.1292451   0.10962992]
[ 0.12471807 -0.11815654 -0.00998686 -0.18418291  0.30112478  0.4206231
  0.19934802 -0.06721    -0.20847309  0.27748084  0.25268963  0.20052503
  0.01727896 -0.00462177 -0.16186899 -0.15865627 -0.07732385 -0.25033996
 -0.09897994 -0.03926863]
[-0.18318799  0.08713165  0.11631171 -0.00054085  0.19184597 -0.03627865
  0.1484954   0.27147368 -0.01840824  0.1620589  -0.12013236  0.18897155
  0.0083276   0.17176987 -0.25261858  0.2099053  -0.09910712 -0.12178732
 -0.205179    0.03284818]
[-0.07356962  0.31271157 -0.17647062  0.17822674  0.13920505 -0.13197196
  0.34590626  0.13236514  0.00449372 -0.27798548 -0.27379656 -0.1303628
  0.27100122  0.29316783  0.05334658 -0.331353   -0.09565092  0.05494754
 -0.05132737 -0.11241174]
[ 0.1905584  -0.12604651  0.08783593 -0.17145604 -0.13594079 -0.3404001
  0.00618197  0.15750873  0.16614689 -0.02902381  0.07607505  0.08716627
  0.14950265  0.17690173  0.11440293 -0.17423388 -0.12881541 -0.15777133
  0.24846235  0.03460514]
[-0.15312222  0.19543175 -0.06248946  0.21020906 -0.11189463  0.09859313
  0.05773042 -0.21543862  0.12527591 -0.21086647  0.13928816 -0.09385958
 -0.22244075 -0.18833885  0.23568888  0.18582217  0.2693628  -0.02958969
  0.03920976  0.04658738]
[-0.2122822   0.10366388 -0.02887574  0.0750694   0.06853432 -0.5478401
 -0.00960211 -0.0015398   0.11591946 -0.25567517 -0.18175094 -0.3024927
  0.06112032  0.18499298  0.14567016 -0.17960511 -0.04458825  0.20608693
 -0.31937066 -0.01926058]
[-0.24350928 -0.03999535  0.06993961  0.27568722  0.24557434  0.03874373
 -0.06694787  0.21826954  0.11898574  0.19632638 -0.06681419  0.14223792
  0.07356004  0.1810323  -0.00675938  0.2958173   0.05181724  0.3862333
 -0.17724527  0.25983196]
[-0.05249568 -0.02256054 -0.09590803 -0.0531178  -0.2977692   0.02311546
 -0.08219753  0.23631413 -0.08253475 -0.32892647 -0.19976325  0.10748784
  0.28622657 -0.00246379  0.09795259  0.06999793 -0.03161316  0.02406769
  0.06838197 -0.04879025]
[-0.18894581 -0.15250649 -0.08068476 -0.10750941  0.1989773  -0.31391224
  0.2563495  -0.0751613   0.10096801 -0.26794085 -0.13100542 -0.22539692
 -0.14387532  0.28023455 -0.2586852   0.15996076  0.01887655 -0.1905897
 -0.23987871  0.04416016]
[ 0.25670716  0.16081351  0.11580274 -0.25838637 -0.04633987 -0.06904295
 -0.03429214 -0.01311188 -0.11590382 -0.29791176 -0.25608286 -0.07172616
 -0.12849322  0.20821041  0.1199235   0.2333518   0.1679504   0.374413
 -0.32014018  0.0538797 ]
[ 0.02159797  0.06360525  0.13673441 -0.01916888  0.17580539  0.15841562
  0.1552291   0.164371   -0.00791053  0.0485476   0.07883801 -0.160628
  0.14279969 -0.30076092  0.04781944 -0.10484108  0.11853071 -0.08263308
 -0.05485095  0.07073227]
[-0.16629393 -0.17984578 -0.06867876 -0.07381766 -0.3164891  -0.20070429
  0.06248071  0.00330618 -0.04445101  0.27552152  0.09259013 -0.06270938
 -0.16609259 -0.0840209  -0.2786548  -0.12066759 -0.02607527 -0.05989255
  0.35417104 -0.00616364]
[-0.02137364  0.278236   -0.12254687 -0.06372783  0.27851626  0.36459008
 -0.31089002  0.08495471  0.04589099  0.06285672 -0.08223209 -0.25775722
  0.24852763 -0.0497335   0.12593092 -0.22362314 -0.19940104  0.24310857
  0.19060187  0.24253659]
[-0.19666314 -0.08809322  0.16374554 -0.4312601   0.26444933 -0.23323567
  0.04981133  0.24527895 -0.13269909 -0.17014614  0.10687964 -0.02685831
  0.19107653  0.10172471  0.04406496  0.2474734  -0.03938638 -0.31043452
  0.1110112  -0.02260364]
[-0.1371777  -0.2990459   0.24830487 -0.48254412 -0.34361076  0.2990477
 -0.14598906  0.2069161   0.18206124  0.16321921  0.271628   -0.22129756
  0.06233406  0.00501321 -0.32228115  0.10418142  0.19965011 -0.09103867
 -0.16249235  0.1022184 ]
[ 0.13753037 -0.30179828  0.08485962 -0.205017    0.29983655 -0.20151606
  0.04777745  0.28735533 -0.06437101  0.2523851  -0.01527883  0.41611224
 -0.03179162  0.11542381  0.10628241 -0.28417158  0.13492136  0.19321021
  0.07448169 -0.14971808]
[ 0.23415518 -0.12287275  0.23377281  0.14111893 -0.30049148  0.26446477
  0.22012912  0.06957404  0.03518569  0.31409222  0.24013501 -0.07476669
  0.02045082  0.03656292  0.12567236  0.25822172 -0.07011936 -0.15359849
  0.03740209 -0.02743129]
[-0.22969213 -0.18602683 -0.13512811 -0.14504296 -0.3068609   0.06271141
  0.22221662  0.21914676 -0.08253362 -0.1883053  -0.06791069 -0.20924377
  0.23570782  0.21586409  0.37850785  0.309347   -0.26838407  0.21181813
  0.17748834  0.10215145]
[ 0.07772475 -0.19056994 -0.05889517 -0.04722889  0.2862008   0.27170226
  0.23482451 -0.29069573 -0.23740189  0.04428924  0.29514363  0.29272345
 -0.05034126 -0.16145794  0.24969195  0.15971798  0.18404439 -0.01059002
 -0.2705184   0.19596882]
[ 0.18163235 -0.07425837  0.10881449  0.39293987  0.10940614 -0.30978453
 -0.06604453  0.00488312 -0.08999834  0.16282001  0.27851552 -0.03370604
  0.09563916 -0.15455025 -0.20306022  0.03558232  0.27166718 -0.24531758
 -0.16068715 -0.10381818]
[-0.07820489 -0.18776488 -0.06912858 -0.3000692   0.0649315  -0.21307857
 -0.05490706 -0.2509549   0.15274858  0.17720242 -0.22280514 -0.03804934
  0.1656688  -0.23017262 -0.11694266 -0.10813688  0.12622201  0.11023103
  0.16068876  0.08988404]
[ 0.09955571  0.05527521 -0.06881676  0.03802332 -0.0093169  -0.00558158
  0.07389554 -0.37493673  0.21462324 -0.04533935  0.08796626 -0.21230058
  0.38602832  0.17634021 -0.08829875 -0.12195432 -0.00590747 -0.0293314
 -0.322278   -0.1313856 ]
[-0.11664159 -0.23446842 -0.16013423  0.1069678  -0.2970151   0.14482398
  0.20586345 -0.1329245   0.04886567 -0.12483435 -0.29551387 -0.10451923
  0.0837733   0.09001333  0.04231541 -0.21655388  0.06358844  0.04272
  0.0948791   0.19896652]
[ 0.27729315  0.02055912  0.03940382 -0.08365991  0.03644006 -0.25337565
 -0.09970491 -0.39320818 -0.26386124 -0.28074583 -0.13046223  0.24000645
  0.3620159  -0.15993084 -0.36106142  0.18289028 -0.21226306  0.16940048
 -0.34718028  0.20467961]
[ 0.0881041   0.04113216 -0.11136314  0.3356668  -0.22428544  0.0935958
  0.08767156 -0.14556995  0.04963373  0.17192155  0.06620273  0.00458136
 -0.03894878 -0.04503518  0.27359933 -0.22004043  0.02424838  0.30088836
  0.03004346 -0.01703005]
[-0.23955601 -0.07573739 -0.13818398 -0.29234463  0.04472627  0.18503897
 -0.08806766 -0.26366585 -0.26119715 -0.26249343 -0.2496784  -0.08892971
  0.15672117  0.08708898 -0.02616032  0.05406805 -0.17209552  0.06424872
 -0.04756591 -0.05624576]
[-0.02938692 -0.15523021 -0.15463525  0.05664426 -0.03329678  0.14909767
 -0.09095082 -0.09020182  0.2063789   0.08461611  0.06398523  0.14639384
  0.20142494  0.16952114 -0.06269898 -0.04465345 -0.04404147 -0.10930566
  0.13809074 -0.21235417]
[-0.2888228   0.22081563  0.18804713 -0.07361659 -0.3355161   0.31443444
  0.2159399   0.33483058 -0.07147621 -0.18266544 -0.12970474  0.03252046
  0.28864396  0.00319997  0.35049754  0.22090921 -0.15361497  0.23869391
 -0.22659937 -0.1321333 ]
[-0.07236034 -0.19631183 -0.04217714 -0.06520686  0.28189975 -0.00971587
 -0.19415028 -0.14602101  0.03841535 -0.23206404 -0.20686947  0.2140065
  0.20219047 -0.11599002  0.14696005  0.10856327  0.05496642  0.17705193
 -0.35906643 -0.13896342]
[ 0.20309816  0.30129486  0.44585982 -0.17452146  0.13086969  0.2576427
 -0.25676262 -0.08177074 -0.22237074 -0.28220114 -0.00919142  0.15459295
  0.06854942 -0.20185746  0.20896465 -0.19081299 -0.08894898 -0.3235634
  0.21913673  0.15535633]
[ 0.039051    0.18607691 -0.12686634  0.18932267 -0.1601621   0.05689686
 -0.10470139  0.1571611   0.08844385  0.24828154  0.33393294 -0.10038864
  0.13791539  0.17475614  0.10237463  0.12372592 -0.2396983  -0.26176977
 -0.01939689 -0.1082895 ]
[ 0.2637158   0.19362883 -0.03897476 -0.10126152  0.01340455  0.07335779
 -0.38836965 -0.12468113  0.32321686 -0.09511648  0.13016203 -0.01460515
  0.14198247 -0.29752627 -0.17671505 -0.18300429 -0.15998814 -0.14059305
 -0.04266414  0.0399663 ]
[ 0.23980704 -0.23751171 -0.30698046 -0.10902068  0.3538354   0.41203344
 -0.0179389   0.20397672  0.10426229  0.02595556 -0.12722903 -0.22909395
  0.00558707 -0.24704862 -0.05199184  0.05981651  0.24830146 -0.15665996
  0.3584416   0.06351262]
[ 0.29900753 -0.17038746  0.1281583  -0.1847801   0.07753646 -0.00537498
  0.19714078 -0.08673301 -0.05535896 -0.14053977 -0.01258482 -0.21839423
  0.22323056  0.02467787  0.2736534  -0.18729529  0.1043      0.23683342
 -0.3410427   0.01127925]
[-0.22112681 -0.10179067  0.47670016  0.28101534 -0.09003145 -0.1904049
  0.2087569  -0.13254395 -0.14673518  0.20184472  0.11077604  0.08884318
  0.00251608  0.19333711 -0.04140803 -0.33245143  0.09899386 -0.19947489
 -0.2925803   0.0496183 ]
[-0.25558656  0.229092    0.2880343  -0.17960455 -0.24481809 -0.00035102
  0.16655323 -0.25964874 -0.08360045  0.01611912  0.2271607   0.27206573
 -0.29942635  0.16517271  0.2513572   0.03538008 -0.20467776 -0.22955321
  0.26254594  0.07862739]
[ 0.03702226 -0.00304278 -0.09133086 -0.02956319 -0.03208133 -0.07650854
  0.06658968 -0.02769627  0.0121148  -0.09096441  0.00301258  0.00366951
 -0.02902793  0.02946284 -0.09779132  0.03854564  0.01928192  0.06598703
 -0.03498609 -0.03479741]
layer 5 Activation
tanh
layer 6 Dense
20 1
[-0.00581309]
[-0.02630356]
[0.00637304]
[-0.16144931]
[-0.08486693]
[-0.11458416]
[-0.2796919]
[-0.12018928]
[-0.00163695]
[0.21573184]
[-0.30140448]
[-0.01108639]
[0.02370593]
[-0.01157585]
[0.15642542]
[0.17391439]
[0.07476519]
[-0.10491712]
[-0.14276728]
[0.00327652]
[0.01354189]
