layers 7
layer 0 Dense
20 20
[-0.49530104  0.1708286  -0.6665663  -0.42985085  0.28563976 -0.26094925
 -1.0511999   0.26275945  0.3194017   0.33478603  0.46627635 -0.2201462
  0.20600426  0.04945356 -0.81097716 -0.08206682 -0.3131537   0.20425592
 -1.1329615   0.5050892 ]
[-0.2533257   0.24030954  0.35278472 -0.56175524  0.361126   -0.4100965
 -0.13667263 -0.1056252   0.14012711  0.41028595  0.41360763  0.01051372
 -0.25631252  0.35155195 -0.4733178   0.83162796 -0.20887753 -0.5432732
 -0.20890072  0.13081548]
[-0.45973107 -0.35510147 -0.04913655 -0.33773574  0.8292503  -0.22962211
 -0.0579864  -0.6220017   0.2459707   0.2919762   0.40700895  0.4151432
 -0.5219786   0.20688966 -0.93970513  0.95370567 -0.05088273 -0.42754814
 -0.47129083 -0.11145487]
[-0.00160076 -0.4191372  -0.28906503 -0.4782214   0.4733141  -0.30804008
 -1.4799793   0.0026407   0.16623828  0.48836708  0.4675338  -0.13745973
  0.11710536 -0.447385   -0.9071263  -0.10413001  0.1745423   0.59600943
 -0.26205602  0.171099  ]
[-0.12520003  0.14903477 -0.6168767  -0.6204779   0.42404124 -0.09668716
  0.32241222  0.3262583   0.05294272 -0.17646173 -0.2872372  -0.36685866
  0.27877966  0.05187454 -0.1983548   0.07681147 -0.27863768  0.55230945
 -0.2035003   0.36097655]
[ 0.69250566  0.23664677  0.22296527  0.77453905 -0.8700101   0.500416
 -0.7591658   0.14000915  0.39891395 -0.19600037 -0.39600363  0.24931
  0.4914944  -0.8378608  -0.03305332 -0.59122956  0.23846288  0.292168
  0.24840173 -0.33658573]
[ 0.26521307 -0.04935582 -0.24943608  0.5939059  -0.59110063  0.56105775
 -0.8997247   0.2824693   0.1581364   0.18542044 -0.5200733  -0.21509972
  1.0381984  -0.46379203  0.2559522  -0.9605775   0.32965326  0.48975542
 -0.20134144 -0.39564756]
[ 0.48308623 -0.03134526  0.10399368  0.8919912  -0.24826922  0.18727824
  0.15133037  0.19578752 -0.18087949 -0.84581363 -0.16433942 -0.17084832
 -0.742697   -0.17624393  0.75155956 -0.4141085  -0.17316154 -1.0681883
  0.36211255 -0.66109806]
[ 0.44810382  1.0814655   0.12545629  0.2593475  -0.63540256  0.14177203
  0.39550257  0.26210353 -0.16154318 -0.9064029  -1.1030997   0.41277674
 -0.83058804 -0.52747977  0.668643   -0.4557219   1.0150492  -0.90258
 -0.02854127  0.42659196]
[-0.581465    0.0871655  -0.7670187   0.09475932  0.6530156   0.3060304
  0.439237   -0.41965196 -0.05736115  0.26271617 -0.35917288 -0.1846773
 -0.5260303   0.5490008   0.3635111  -0.19447948  0.16869146 -0.3140083
  0.25904295  0.07381642]
[-0.19068784  0.31342793 -0.07545289  0.6215041   0.12308276  0.2765521
  0.15458427  0.57780564  0.38538122  0.48744306  0.3811719   0.06358258
  0.0740504   0.6010969  -0.4950413   0.8295672   0.41259322 -0.09730422
 -0.38112426  0.17251004]
[ 0.39551863 -0.50991553 -0.7227241  -1.2583127   0.2783513   0.03681893
 -1.9831376   0.4237039   0.08169883  0.31188536  0.37405634  0.3450972
  0.12842514 -0.17140186 -0.31420296  0.39479542 -0.56719035  0.65398157
 -1.3957638  -0.55916286]
[ 0.00920431 -0.64642197  0.12787694 -0.17109911  0.61536705 -0.08169237
  0.38580313  0.06863172 -0.00278284  0.32629526  0.34151337  0.16247594
  0.17800711  0.43406105 -0.35892537 -0.52838045 -0.389637    0.5083665
  0.09838146 -0.09313866]
[ 0.0921087   0.34086752  0.91168576 -0.04873313 -1.1765709  -0.57758594
 -0.7069825  -0.4658964  -0.7945562   0.18284385  0.299348    1.0603824
 -0.03174113 -0.63414913  0.07923305  0.8451311  -1.0086317  -0.38455346
 -0.7326746  -0.37816316]
[ 1.0863062   0.33515194  0.48274845  0.6306341   0.13793975 -0.856937
  0.37172738 -0.855893    1.219144   -0.69525665 -0.7262299   0.10913152
  0.02247572  0.34608373  0.32526153 -1.2548865  -1.2208837  -0.01372257
  0.5056637   0.5123129 ]
[-2.14036     0.5867554   2.5632896   1.5366789   0.52737224 -0.9500949
  1.8582954  -1.6758547  -0.7806432   0.38965198 -1.3335109  -0.07886786
 -1.0069574   1.7495383   1.364251   -0.59162194  0.5715492  -1.7553849
  0.6957226   0.17815056]
[-0.2701174  -0.4886357  -0.7960558  -0.5704547   0.85047525 -0.06726008
 -0.33130312 -0.20254482  0.18772683  0.83179766  0.6333839  -0.47758633
  0.41114902 -0.03592247 -0.18208674 -0.00161589 -0.7716449   0.57876825
  0.03178898  0.23670289]
[ 7.52405584e-01  2.23214641e-01 -2.36947611e-02 -1.81936651e-01
  2.31007859e-01 -2.54618973e-01 -4.84722733e-01  3.81423235e-01
  1.00628459e+00 -1.42451245e-02  3.08124244e-01 -5.48063338e-01
  9.33354378e-01  2.96558559e-01 -1.05384278e+00 -5.48039496e-01
  1.13350165e+00  2.32781284e-04  1.52987331e-01  3.36598963e-01]
[-0.5061698  -0.3974846  -0.16600348 -1.8758389   0.06222812  0.27588394
 -0.16632025 -0.2014098  -1.8879731  -0.35439017 -0.7679549  -0.6877893
  0.03777109 -0.78437835  1.0367033   1.1526629   1.6020035  -0.12269285
  0.5951587   0.17025812]
[ 0.9244368   0.6306298  -0.28201923  1.3109218  -0.38271654  0.0261595
  0.76490986  1.4949906   0.35442102 -1.0825648  -0.9333494  -0.43731433
 -0.54405105 -0.7170537   0.6104927  -0.20954835  0.60153115 -1.0884646
  0.25551578  0.14640076]
[-0.04535778 -0.05417208 -0.02351316 -0.15499713 -0.00284815 -0.30020693
 -0.29975644 -0.1991446   0.16091911  0.16222093  0.22519681  0.01139253
  0.31263193  0.08204806 -0.34883335  0.12706472 -0.02133748  0.21144067
 -0.00277394  0.14734133]
layer 1 Activation
tanh
layer 2 Dense
20 40
[ 2.66945064e-01  4.28871870e-01  2.49328271e-01 -1.59670115e-02
  3.77765857e-04 -2.32433692e-01  3.23735997e-02 -2.80545682e-01
 -1.82789594e-01 -5.25925875e-01 -3.11093569e-01 -2.71694083e-02
  1.66290537e-01 -6.09342419e-02  1.79400906e-01  2.23531455e-01
  5.78770489e-02 -5.24354912e-02  2.72948712e-01  6.12385631e-01
 -2.49699712e-01  5.13019383e-01  7.20568076e-02  1.02553308e-01
  3.05987626e-01 -9.43467319e-02 -1.67951230e-02  1.09031126e-01
 -2.84538209e-01 -5.62272407e-02  1.73064530e-01 -6.63189292e-01
  2.79675752e-01 -2.56944597e-01  9.99528646e-01 -2.85767198e-01
  1.30962148e-01  5.31431548e-02  4.46691066e-01 -4.72147129e-02]
[-0.25660223  0.9684261   0.4291489   0.02528943  0.09718805 -0.02395841
 -0.19349687  0.13280632 -0.09693767 -0.00742662  0.3291863   0.1613988
  0.40457705 -0.18519545  0.13810039 -0.32876217  0.99979126 -0.1577274
  0.07653888  0.6554653  -0.10480914  0.18553227 -0.15482977 -0.41029704
  0.21238925 -0.6256991   0.25760478 -0.28002706 -0.3346429  -0.03685538
 -0.06891475 -0.4790541   0.02958393  0.00662431  0.795547    0.28102568
  0.16519399  0.27613318 -0.21958646  0.18181711]
[ 0.00716727 -0.5665296  -0.11228776 -0.17774257  0.62628096  0.37246415
  0.48898706  0.09783488  0.15079154 -0.90783757 -0.3294752  -0.24666427
  0.5989011   0.09512207 -0.25400344 -0.21312095 -0.23195356  0.11399966
 -0.13550472  0.558225    0.06901825 -0.61319244 -0.668471   -0.21279442
 -0.08793955  0.5471306  -0.349444   -0.43606573 -0.8337985   0.22870168
 -0.20157284 -0.41025078  0.18899353 -0.13798824  0.73051506  0.07921906
  0.53527266 -0.2768155   0.02396675 -0.5825079 ]
[-1.25955090e-01 -8.79245698e-02  4.09164540e-02  5.63708723e-01
  4.50866133e-01 -6.89215865e-03 -2.21024305e-01 -4.38472807e-01
 -2.38552347e-01  5.21625459e-01  4.19126004e-01 -1.54066980e-01
  2.79815793e-01 -4.03699845e-01 -6.41519427e-01  1.38958946e-01
  4.34248656e-01  6.29812554e-02 -9.88211095e-01  5.96148610e-01
  6.48809433e-01  1.11721230e+00  1.22672148e-01 -5.42902504e-04
  2.84763183e-02 -1.08664475e-01  5.38793206e-01 -3.92457813e-01
 -9.08111691e-01  4.35179055e-01 -1.41458273e+00 -5.96920669e-01
  3.81269574e-01  2.10551128e-01  1.67983904e-01  6.09216452e-01
  6.00053847e-01 -5.64882040e-01 -6.90142035e-01  1.23339891e-01]
[ 0.13819052  0.12065749 -0.41673905 -0.5208915   0.03327211  0.09388625
 -0.01283157  0.59537697  0.06632255  0.7303938   0.24929772  0.12450591
 -0.6483605   0.016874    0.19266324  0.21487768  0.19375841  0.48858738
  0.331494   -0.7547295   0.30407244  0.6017982   0.2984842  -0.05781898
  0.35956138 -0.5119234  -0.01922138 -0.06759649  0.3587709  -0.15252973
  0.04540832  0.66718835  0.1670841  -0.02559584 -1.0928293  -0.26818353
  0.08777857 -0.09373694 -0.16620548  0.16083372]
[ 0.00331117  0.11659676 -0.21819617  0.105746   -0.06977215  0.05584292
 -0.10436741 -0.37145597 -0.09669879  0.15208721  0.01006651 -0.29643428
 -0.06428152 -0.06473624 -0.09591968  0.18143252 -0.6145599  -0.22015637
 -0.2859551  -0.09877424  0.2225341  -0.28542253  0.19296493  0.05475969
 -0.38106403  0.12035697 -0.09555803  0.06317195 -0.09464267  0.04348547
  0.2617116   0.35959578 -0.08684323  0.12198145  0.04430072  0.47752392
 -0.11984905  0.24799304 -0.06795218  0.39562467]
[-0.7219807  -0.170488   -0.43470702  0.55733335  0.7610841   0.54934555
  0.22673225  0.01463107 -0.20253664  0.07101328  0.29711348 -0.25561464
 -0.8720326  -0.8400335  -1.0514562  -0.2525229  -0.00758883  0.6369908
 -1.1874743   0.7983057   0.3406227   0.3614789  -0.00943848 -0.4575426
 -0.22900234  0.25141525 -0.12245805 -0.52190375  0.29415667  0.14634956
 -0.8477871   0.13995168 -0.07343758 -0.32362244  0.42468777  0.30185565
  0.98362446 -1.3133255  -1.1750005   0.06137424]
[-9.03385997e-01  7.27663457e-01 -3.73581946e-01 -2.62408853e-01
 -6.28119484e-02 -8.67987871e-01 -3.74333173e-01 -3.21007162e-01
 -3.57769996e-01 -2.49234755e-02 -5.13855019e-04  1.04751766e-01
 -9.83624086e-02 -8.34044889e-02  7.01614395e-02 -6.58823848e-02
 -2.48477235e-01 -1.44536540e-01 -2.01102957e-01 -9.97242257e-02
  4.79558617e-01 -2.00908974e-01  2.54887164e-01  9.48784873e-02
  2.62070298e-01 -1.61804214e-01  3.44474256e-01 -3.51438791e-01
 -3.78330827e-01 -4.44708355e-02 -4.79625583e-01  6.93747848e-02
  3.72364491e-01 -4.05094802e-01  3.95275086e-01 -1.87117577e-01
 -7.16681108e-02  5.83438203e-03 -3.22939634e-01  4.26196635e-01]
[-0.28864223  0.88628256  0.20130645 -0.18291378 -0.211862   -0.11575803
 -0.43973258  0.20456806  0.39299095  0.16971686  0.16559856  0.30577505
  0.20463884  0.42057997  0.00403423 -0.27823022  0.07454156 -0.44608375
 -0.02293508  0.3326932   0.07746246  1.303955    0.29473978 -0.2019598
  0.15076366 -0.06762677  0.2626803   0.27351487 -0.37558603 -0.13855086
 -0.3276514  -0.69824255 -0.03288854 -0.13404182  0.2240143  -0.18230236
 -0.10636035  0.08362785 -0.05905257  0.29385749]
[ 0.58121336  0.2984642  -0.889139   -0.4699815  -0.20171598  0.22836654
 -0.13682616  0.35585508  0.47811988  0.39917076  0.12586093  0.24351308
 -0.04927953 -0.0302198   0.29730904 -0.16579634  0.44641197  0.23723154
 -0.11517626 -0.71541524  0.25405136 -0.7408241   0.21337959  0.5839934
  0.07539417 -0.13082415  0.19869776  0.3637673  -0.13594837  0.419565
 -0.4580487   0.29826018 -0.08412573  0.62315613 -1.0845844  -0.19748612
 -0.35534298  0.24747138  0.22451751  0.02227974]
[ 1.2326511e-01  7.6201767e-02 -1.0463876e+00 -9.4376868e-01
 -6.4579570e-01  1.0223697e-02 -2.9847233e-03  9.8981604e-02
  6.9627994e-01  2.7765628e-02 -4.0757981e-01  3.6751634e-01
  2.1425177e-01  7.5928771e-01  3.6969477e-01 -4.1983396e-01
  2.6077190e-01 -1.4051050e-04  5.0283432e-01 -7.3068023e-01
 -2.1224970e-01  8.7795749e-02  6.2517740e-02  7.8700900e-01
  2.6419422e-01 -3.2332420e-01 -1.7572452e-01  5.0489843e-01
 -1.5917212e+00 -2.4537650e-01  2.1213953e-01  6.5829232e-03
  3.0702600e-01  5.5139196e-01 -6.2482542e-01 -6.9397008e-01
 -3.9413819e-01  8.5047567e-01  5.0772959e-01 -9.9394970e-02]
[ 0.2905789   0.35507098  0.08571132  0.36158884 -0.32315588  0.48900706
 -0.1186238   0.2171303  -0.3471326   0.10838021  0.05717273 -0.32943347
  0.59654135 -0.33880478  0.06204367 -0.26724508  0.6071226  -0.37825575
 -0.25301704  0.45302084 -0.47487673 -0.3132441  -0.046792    0.14402309
 -0.16042699  0.33213428  0.27757555  0.27942196 -0.31362072  0.4660241
 -0.03227857 -0.5884856  -0.02545621 -0.23298442  0.22605914  0.33836582
 -0.06228583 -0.11776064  0.34340286  0.1604859 ]
[ 0.62606525 -0.4764524  -0.2890553  -0.16657017 -0.15078333 -0.03228547
  0.2666605  -0.10672446  0.5023751  -0.12923037 -0.23211877  0.07963806
  0.2901474   0.03326686 -0.16190127 -0.01180204 -0.575129    0.23153457
 -0.17315689  0.05009403 -0.18071745 -0.13978815  0.4111261   0.37955913
  0.0031897  -0.08795247 -0.5433083   0.4648776  -1.005404   -0.59709245
 -0.12241523 -0.06436177  0.30189922  0.31628034 -0.1423602   0.21049754
 -0.0659024  -0.10467137  0.44139394 -0.17196228]
[ 0.27489853 -0.15034902 -0.40666664  0.11095232  0.18591495  0.00509752
  0.18460524  0.07710876  0.01922321  0.13913295  0.01385277  0.00232538
  0.05801831  0.00393085 -0.11752842 -0.1259818  -0.07218949 -0.16896756
 -0.20877059 -0.19543006  0.32858112  0.4652166   0.25252756  0.26765123
  0.07912364 -0.24060775  0.34305996  0.07135718 -0.18196805  0.55452615
 -0.20545007  0.1810291  -0.15227267  0.15322402 -0.50314736  0.48814747
 -0.01518812 -0.24720155 -0.15379438 -0.02534306]
[-0.23568206 -0.19954294  0.8269701   0.4842453   1.043177   -0.08226047
 -0.13422912 -0.31962356 -0.5139201  -0.8270688   0.3844446  -0.5844838
 -0.2963795  -0.8634217  -1.1804343  -0.4454996  -0.29207245 -0.04706418
 -0.63371825  0.09682897  0.19143532 -0.38991794 -1.0284998  -0.43008932
 -0.4298568   1.1112102  -0.06866209 -0.8274093   1.3220737  -0.04748856
 -0.317164   -0.12048121 -0.29158205 -0.9056477   0.6138825   0.7519877
  0.6158137  -0.82790923 -0.5880005   0.04541035]
[ 0.01789685  0.2236542  -0.3304515   0.2695719  -0.30481452 -0.49689093
  0.27230254 -0.3630826   0.20775324 -0.17557962  0.72475773 -0.15238538
  0.22184427  0.46109003  0.36830693  0.13229844  0.33317158 -0.09546731
 -0.09270786 -0.4136422   0.0783885  -1.0749251  -0.3117673   0.46088657
 -0.23369841  0.28704587 -0.00109405  0.4580462  -0.670073   -0.10809929
 -0.37990987  0.2749917  -0.34183416  0.27937967 -0.32712469 -0.09012302
 -0.15164463  0.07135902  0.00845642 -0.27012813]
[ 0.3445304   0.2050252  -0.26597774  0.3941834  -0.20761326 -0.5887262
 -0.15970773 -0.01808798 -0.03999843  0.4756353   0.44169384 -0.47788933
 -0.2578926  -0.11695976 -0.19421603 -0.20493142 -1.1026064  -0.07221692
 -0.34941524  0.34286827  0.14922611 -0.8373264   0.1744454  -0.80712575
 -0.37203145  0.27611282  0.0735471   0.05361964  0.43854883  0.06144417
 -0.8217901   0.1195069  -0.40572655 -0.25991374  0.9169795   0.42740932
  0.16636734 -0.09593771 -0.49029204  0.01889885]
[ 0.53768855 -0.6662178  -0.07539038 -1.3474885  -1.5379931  -0.26100823
  0.22725128  0.3307287   0.42657122  0.8741372  -0.39314806  0.62912613
 -0.44316533  0.71953374  1.533154    0.297574   -0.49700516  0.19884807
  1.510221   -0.4588311  -0.5622282   0.29729673  0.72380716  0.5607229
  0.45672822 -1.4004188  -0.5419362   0.5805476  -0.8121682  -0.29053038
  1.4576482   0.88602316  0.08651152  0.89609563 -1.5257218  -0.9780724
 -0.34556812  1.016347    0.9339756  -0.19165453]
[-1.7445908e-01  2.1934283e-01  1.7780429e-01  6.8504535e-02
 -1.3962510e-01  9.6237533e-02  1.8211836e-01 -6.1447918e-01
  2.1453995e-01 -1.5721761e-02  1.1541279e-01 -2.1408501e-01
  1.3853110e-01  3.5071454e-04 -9.3773976e-02 -8.4381066e-02
 -8.7472773e-01  2.1846842e-02 -2.1104033e-03 -3.5625342e-01
 -1.9150572e-02  8.1924868e-01 -5.9178638e-01 -3.9351836e-01
 -1.0263573e-01  4.2794299e-01  5.6435261e-02 -1.3541930e-02
 -3.0546409e-01 -2.2774479e-01 -1.4703596e-01  3.1423518e-01
  1.2735223e-02 -3.6746681e-02  6.6996455e-02  4.3942651e-01
  5.3391401e-02 -4.1816238e-02  2.4936091e-02 -3.0109492e-01]
[ 0.15101527 -0.12462556  0.27418503  0.05150326  0.35287368  0.14480375
  0.37296867  0.24952081  0.04763206  0.5352784  -0.04877202  0.10944586
 -0.12122289  0.02509679  0.18123636  0.06707136 -0.17453799 -0.35082373
  0.056258    0.2917838   0.07012407  0.18283409  0.36476943  0.28823033
 -0.04784162  0.00312119 -0.15241267  0.08469474  0.2232683  -0.3218937
 -0.08814596  0.05814556 -0.02695507  0.30397114 -0.0130803   0.51719916
 -0.05693774 -0.32601535  0.2375917  -0.07721384]
[ 0.50717276  0.1184949  -0.10206816 -0.46523744 -0.45689607  0.02400733
  0.19878854  0.17998339  0.21592595  0.19050796 -0.12444703  0.06897681
  0.25493652  0.2949324   0.35270646  0.02724399  0.21343806 -0.05818719
  0.32417792 -0.18616755  0.09569047 -0.42582172  0.02171218  0.14927736
  0.05139812 -0.13137314  0.08809528  0.2617903  -0.02940813 -0.01671776
  0.18100981 -0.2546341   0.15119764  0.3640372  -0.18565375 -0.3492905
 -0.20641136  0.45675674  0.1654477  -0.22671679]
layer 3 Activation
tanh
layer 4 Dense
40 20
[-0.17728256  0.02889118  0.43620273  0.5019682   0.29989657  0.18027613
  0.7794856  -0.20539324  0.12196491 -0.04781169  0.17929508  0.391773
 -0.01827109 -0.00130037 -0.14028592 -0.09241961  0.18159015  0.09162336
 -0.1227642  -0.02641823]
[-0.1682918   0.37970614 -1.0163593  -0.03346569  0.08994938  0.30291688
 -0.3050662  -0.18420634  0.09026434 -0.24551952  0.02288512  0.20155135
 -0.13132368  0.17923518  0.20355366  0.03672365 -0.0710283  -0.02889911
  0.07200109  0.18582271]
[ 0.18206933 -0.23525356  0.31602436 -0.06572511 -0.05086143  0.08807354
  0.3115423  -0.5298302  -0.20983787  0.19125856 -0.41510615  0.27158606
  0.14442328  0.04665351 -0.3189943  -0.09239374  0.05523993 -0.08287068
 -0.49495146  0.28006124]
[-0.03174619 -0.01403726 -0.3159043  -0.24608591 -0.20915972 -0.07241434
 -0.14767641  0.6174074  -0.1783688   0.53858703 -0.03356711  0.13619702
  0.21617348  0.1502675  -0.35205486  0.90309155 -0.12476778  0.04952304
 -0.30314282  0.15521914]
[ 0.15364155  0.24054268  0.2590699  -0.45855635  0.05864177 -0.14545693
 -0.10602638  0.23490685 -0.64775944  0.19531041 -0.37697175  0.3982518
  0.24843039 -0.10722009 -0.21083358  0.3607946  -0.15999818 -0.5814191
 -0.26932713  0.36051244]
[ 0.10853254 -0.4624683   0.7166313  -0.2900146  -0.499292   -0.12009374
  0.06271193 -0.0229568  -0.3463791   0.20524035  0.18748374  0.10386942
  0.24184422  0.01672568 -0.18721315  0.16599514 -0.09674034 -0.0348149
  0.20599955  0.04043642]
[ 0.07173112 -0.36406854  0.9957773   0.00540309  0.21825631 -0.23301955
  0.01776008 -0.22808205 -0.21132807 -0.03197229  0.10505079 -0.03137479
 -0.19851573  0.0546005  -0.22531329 -0.05984532  0.07574532 -0.00733985
 -0.2891716   0.04166953]
[ 0.02988962 -0.00949556  0.5808066   0.09836835  0.21194656  0.06353883
  0.22580037 -0.20818017  0.0534398  -0.14260635 -0.00888202 -0.12526114
  0.15810141 -0.05205998  0.2419072  -0.26577348 -0.04168532  0.11222535
  0.49167266 -0.2832642 ]
[-0.13022417 -0.09456784  0.3025632   0.0007433   0.01331414 -0.07726824
 -0.04735614 -0.3213564   0.1819486  -0.08647951  0.1475931   0.15099758
 -0.2570142  -0.45368323 -0.06986425 -0.36019376  0.14042926  0.15218608
 -0.07089296 -0.07756615]
[ 0.12917992 -0.3651367  -0.04514568 -0.05971876  0.14051887  0.28422064
 -0.05458027  0.03972762  0.5081094  -0.0380199   0.08310051  0.14485808
 -0.02023653 -0.1202156   0.0766282   0.035042   -0.07985291  0.47683123
  0.42965713 -0.15389809]
[ 0.08253588  0.06923899 -0.6197895  -0.32608384 -0.20246437  0.1955955
 -0.21060796  0.19198275  0.20110458  0.14039871  0.14996503  0.28512082
 -0.17004322  0.15611409 -0.40097338  0.2346319   0.16172113  0.00886447
 -0.06439507 -0.01209119]
[ 0.22176155 -0.19675122  0.02989822  0.478162   -0.03296187 -0.05251176
 -0.25801823 -0.21371327  0.06842727 -0.58723444 -0.18560599 -0.4483365
  0.20494756 -0.18585308  0.5893503  -0.29340532  0.2911456   0.14416999
  0.5017249  -0.45552847]
[ 0.05423292  0.37896356  0.48162347  0.1838537   0.11670572  0.01578217
  0.46290034 -0.24341288  0.3570685   0.29862624 -0.18080162  0.01294105
  0.22250903 -0.16803062  0.21826473 -0.24696647  0.1595454  -0.25340346
 -0.32035658 -0.02958855]
[ 0.17892498  0.10899517 -0.12876685  0.44240305  0.31279626  0.23401716
 -0.30733982 -0.63571113  0.3685224  -0.18778123  0.30787966  0.06269445
  0.17178075 -0.5569928   0.21581446 -0.7837728   0.53860873  0.08199145
  0.11039    -0.19273882]
[-0.07986427 -0.10467338 -0.12056959  0.15260956  0.02505278  0.34098214
 -0.08733188 -0.51216215  0.5865201  -0.45597693  0.17849612 -0.11254922
 -0.21008582 -0.31685576  0.618369   -0.58266574  0.14333963  0.36666754
 -0.07930974 -0.43847588]
[ 0.2783051  -0.19654514  0.2527991  -0.00987236 -0.25416264  0.11185963
  0.29308295  0.00724116  0.1934206  -0.12203223 -0.11650722 -0.0265355
  0.10812611 -0.00747506 -0.32157457 -0.23354684  0.12617595  0.4943441
  0.31995916 -0.06954616]
[ 0.1532789  -0.11012825 -1.0555357   0.07155265  0.06050655  0.01455698
  0.14314231  0.5510339  -0.03673591 -0.04815191  0.37556013  0.0563067
  0.2801492   0.05081483  0.7024893  -0.05236209  0.13407554 -0.03453976
  0.473234    0.1292813 ]
[ 0.13966675 -0.46749178  0.12478107 -0.1589729  -0.38155103  0.15826583
  0.00561363  0.35265362 -0.07939108 -0.22919378  0.0601193   0.06416471
  0.24342915  0.31877193 -0.3177432  -0.01003968 -0.15446296 -0.07874187
  0.1581856  -0.18059385]
[-0.23580255 -0.20907925  0.07495414  0.5763311  -0.04161502  0.22658117
 -0.14746554 -0.52031666  0.48933548 -0.40089235 -0.27246997 -0.47344437
 -0.09076575 -0.22266625  0.0847919  -0.73731595  0.32284123  0.43664694
  0.0726314  -0.48844272]
[-0.05522349  0.2710491  -0.48516786 -0.28227848 -0.39253572 -0.31504762
  0.75644517  0.169596    0.03011535  0.15007192 -0.2565601  -0.07468917
  0.11290905 -0.07286437  0.03561443  0.13306874 -0.02067957 -0.28979975
  0.12763804  0.2994024 ]
[-0.00682853  0.31954187 -0.7073484  -0.07471903  0.42182508 -0.10032579
 -0.24995577  0.5558837  -0.23255703 -0.15307032  0.43996763  0.51084703
 -0.02239717  0.14632405  0.0138172  -0.0891616   0.06572573  0.07018317
  0.09886898 -0.06377579]
[-0.22720537 -0.87227595  0.633468   -0.16980186 -0.36928666 -0.03832311
 -0.24510778 -0.528893    0.03341291 -0.03846209  0.73542637  0.08004533
  0.0203476   0.19588791 -0.24452877  0.0015298  -0.3203058  -0.26591358
 -0.14986871  0.01357718]
[ 0.00823841 -0.16950232  0.00779345  0.14139375  0.01494844 -0.16390422
 -0.57646275  0.12417734  0.41956747 -0.34301722 -0.10425869  0.07008512
 -0.17721109 -0.23467892 -0.04215894  0.09682282  0.16514802  0.71002966
  0.7032599   0.02611461]
[ 0.04227335  0.2851695   0.02553634  0.26310363  0.14726757 -0.08089928
 -0.44043955  0.08378205  0.0537901  -0.31071874  0.26020527  0.12591441
 -0.11752591 -0.23673777  0.14651848 -0.11748351  0.29873675  0.4132371
  0.2517043   0.00607634]
[-0.09586734 -0.02828003 -0.14852294  0.20642348 -0.0732777  -0.10028851
 -0.06519336 -0.13602814 -0.03091462 -0.42614412 -0.13524276 -0.48938426
  0.15284629 -0.2310666   0.23106694 -0.25268772  0.2276679   0.21774276
  0.394168   -0.38689804]
[-0.1447293   0.2804955   0.08452161 -0.00681096  0.2308526  -0.04882621
  0.19777529  0.06340595 -0.15498707  0.47419202  0.09743887  0.40184417
 -0.15185192  0.12835607 -0.06737759  0.3067903  -0.00116662 -0.28320283
 -0.5555702   0.42997497]
[-0.11703011  0.26155245 -1.1537603   0.07700326  0.17027535  0.12550074
 -0.25360504  0.00424057  0.1558921  -0.1561579  -0.08987775  0.4613505
 -0.00334409  0.00352381  0.3226614   0.11689688  0.22044268 -0.40985873
 -0.29191178 -0.21492557]
[ 6.61516637e-02  1.88987151e-01  5.29015362e-02  2.20438093e-01
  1.60482213e-01 -1.30504102e-01  2.40051374e-01  6.64929859e-03
  4.86883789e-01  2.42336810e-01  4.82108057e-01  1.09526212e-04
 -2.70577669e-01 -2.81845272e-01  1.24693349e-01 -1.28222957e-01
  1.04139615e-02  4.07559246e-01  2.33197153e-01 -2.98879772e-01]
[ 0.13275024  0.4507137  -1.1785966  -0.2294424   0.1290872  -0.32604975
  0.01872664  0.3648911  -0.37914953  0.04044186 -0.6934661   0.03709339
  0.19929965  0.38619775 -0.07132816  0.35560286  0.17105986  0.47053394
  0.34593865  0.15739742]
[ 0.0721894  -0.19031939 -0.55802035 -0.36258185  0.01608855  0.14597324
 -0.4462913   0.30973405  0.17549463 -0.03555249  0.18829498  0.5778789
 -0.28738776  0.10919441  0.05530784  0.18206087 -0.2817532  -0.3203351
 -0.25937426  0.10475729]
[-0.2671809  -0.5296842   0.7511676   0.5678796   0.16537428 -0.18141697
  0.3251762  -0.63691914  0.35481972 -0.35855523 -0.13511601 -0.31043524
  0.05504489 -0.15394242  0.44695517 -0.377669    0.5210406   0.02421679
 -0.16739209 -0.0092257 ]
[ 0.15869117 -0.53775954  0.16191107 -0.15337381  0.06677778  0.14968796
 -1.3212768  -0.14901088 -0.04613058 -0.29080194  0.13900164  0.3215906
  0.07870944 -0.22321232 -0.2545453   0.09683285 -0.15648253  0.31458822
  0.26530832 -0.12658925]
[-0.15939605  0.09640455  0.09657369  0.14391671 -0.44371367 -0.09305736
  0.54022217 -0.03418979 -0.13463554 -0.39209878  0.02644335 -0.4988196
  0.13597102 -0.0808002   0.27284497 -0.06630859 -0.01610041 -0.02915525
  0.03130021 -0.27864507]
[-0.0854734  -0.23392104 -0.20505868 -0.09115246 -0.02298605 -0.11225145
 -0.16312124 -0.10534173  0.38837075 -0.30148068  0.5611035   0.14996682
 -0.12896946 -0.16375749  0.19573459  0.07423398  0.4079992   0.30610934
  0.38231513 -0.12130689]
[-0.03356609  0.7840448  -0.9286347   0.02482188  0.06180836  0.07285759
  0.7618122   0.7972803  -0.39572182  0.47719172 -0.76603746 -0.3509589
 -0.0431073   0.56398135 -0.32226378 -0.06971743 -0.45248905 -0.28374007
  0.11765731  0.4533744 ]
[-0.09660236 -0.06444554  0.30699027 -0.13889188 -0.23318626 -0.16541387
  0.28461245  0.22202116 -0.14105375  0.20469573 -0.00510624  0.27255115
 -0.01275295  0.0481207  -0.32823628  0.55018675  0.05161582 -0.35587183
 -0.39440545  0.21001558]
[ 0.03605437 -0.1392622   0.1734456  -0.28600252 -0.07195035 -0.40789372
  0.6044747   0.6313023  -0.5455998   0.2538151  -0.29291373 -0.15937486
 -0.2928259   0.10480798 -0.4901834   0.04616152 -0.65513384 -0.24336211
  0.0128289   0.32734308]
[ 0.10076895  0.11151003 -0.16915584  0.90792596  0.15852462  0.09096643
  0.11448827 -0.43064034  0.46046317 -0.15489222  0.01261892  0.0765098
  0.14496803 -0.161819    0.6078047  -0.5335902   0.5105877   0.16167724
  0.14820132 -0.15719368]
[ 4.7139457e-04 -2.1812168e-01  8.3175373e-01  6.1252946e-01
 -3.0034706e-02  5.0342780e-01  3.3364663e-01 -9.2567706e-01
  3.1995985e-01 -1.7072739e-02  2.4851082e-01  2.8197713e-02
  2.7400214e-02 -1.7372312e-01 -4.6482123e-02 -2.3907763e-01
 -1.7068017e-02  2.7677739e-01 -2.2803888e-01 -2.4296075e-02]
[-0.0729175   0.29519242 -0.28544906 -0.3180205   0.10087462  0.04101638
 -0.35783818  0.25675485  0.19637004 -0.11837032 -0.10287885  0.75395304
 -0.10521253 -0.10116902  0.2454466  -0.00785852 -0.192597   -0.2190449
  0.12517908 -0.1679897 ]
[ 0.12305231  0.15749007  0.12101121  0.00302313  0.12103945 -0.0722196
  0.3697291  -0.21498665 -0.03680255 -0.1761052   0.07065393  0.05087298
  0.06730235  0.01118579 -0.04929405 -0.1811732   0.18122843  0.12029218
  0.36580643 -0.13196005]
layer 5 Activation
tanh
layer 6 Dense
20 1
[0.01238319]
[0.18382053]
[-0.06087048]
[-0.1538361]
[0.00415855]
[-0.04066099]
[0.01428672]
[0.19612998]
[-0.16662353]
[-0.14236404]
[-0.26424503]
[0.069283]
[0.00123266]
[0.00048221]
[0.02608714]
[-0.08220777]
[-0.01869191]
[-0.0431269]
[0.07814185]
[-0.04387725]
[0.74696106]
