layers 7
layer 0 Dense
20 20
[ 0.1280915  -0.07507088  0.00874174 -0.1350195  -0.07411955  0.28211442
  0.18526082  0.10626485  0.14986303  0.10347459  0.34500316 -0.19993687
 -0.24978933  0.33681056 -0.21589527 -0.02185043 -0.0676294   0.30876562
 -0.36714685  0.29613614]
[-0.44167504  0.27986965  0.00548327 -0.20867664 -0.06140159 -0.18812759
  0.06215756  0.18743196  0.2644087  -0.21279988  0.18229942 -0.34616208
  0.28665173 -0.14296976 -0.26727217  0.40790617  0.11116429 -0.10974655
  0.6794601  -0.4464444 ]
[-0.37303954 -0.22156364 -0.04676944 -0.11126326  0.25655782  0.12593357
 -0.42143872  0.34535453  0.44551128  0.3346305   0.36019453  0.20205446
 -0.02135617  0.34296322  0.16293682  0.02195415 -0.42443106  0.10761811
  0.6630409  -0.15692955]
[-0.3511458  -0.22122143 -0.02661783  0.1933597   0.26366228  0.0662206
 -0.19689485  0.28557906  0.12816553 -0.20656148  0.16444288  0.20664383
 -0.21058881  0.24611104 -0.01034897  0.25125453 -0.18394719  0.00912632
 -0.2061337  -0.10115837]
[-0.3986334   0.2381034  -0.08173195 -0.14539537  0.02743483  0.08168544
  0.0275968   0.21726003  0.35583192  0.3302257   0.13469371 -0.16222195
  0.18719484  0.18691619 -0.09190636 -0.326427   -0.12931356 -0.06547176
  0.1223819  -0.2788542 ]
[-0.06040647 -0.38734815  0.07883808  0.4906592   0.02316838  0.08079052
 -0.22027417 -0.21596786 -0.30261648  0.416852   -0.04488765 -0.0588537
 -0.29385722  0.10516188 -0.14615586  0.14481443 -0.13433056 -0.18719003
 -0.5263079   0.44112027]
[ 0.29211372 -0.3785386   0.04567298  0.11753938 -0.3930024   0.22752766
  0.04861864  0.05658973 -0.03571354  0.3705621  -0.33047533  0.04560977
  0.11353148 -0.4447341   0.2936373  -0.2639844  -0.33041644 -0.28609982
 -0.4174045   0.4243168 ]
[ 0.10191993 -0.26557344  0.01965833  0.10662575  0.00054851  0.0217563
 -0.13697483 -0.21713175 -0.41625175  0.27643996 -0.2876064  -0.152548
  0.16263744 -0.39088744 -0.28889394 -0.32959443  0.00557076 -0.3309542
  0.25481504  0.03951064]
[-0.30436823 -0.07849439  0.2712677   0.14983338  0.10995269  0.1117243
  0.07457292  0.18936178 -0.17186111  0.01441898 -0.13600582 -0.0948911
  0.28814322  0.21905158  0.2773754   0.22768684 -0.33085203 -0.17648964
 -0.02154771  0.16010888]
[ 0.4474204  -0.11378244  0.07976881  0.37002614  0.03592947  0.5181983
 -0.21037456 -0.01235254  0.23354426  0.5252879   0.12563257 -0.15152314
 -0.29989606 -0.02474231 -0.6029213  -0.07665758 -0.33278546  0.37756473
  0.30028722  0.49475637]
[-0.05473318 -0.01046299  0.21210837 -0.17282587 -0.02528978  0.19689457
 -0.12613331 -0.5150759  -0.3263854   0.4582422  -0.10024165 -0.1319401
  0.4884603  -0.14520895 -0.10458504 -0.42612785  0.28492102  0.3877098
  0.05952061  0.29759675]
[-0.16566958  0.7629451  -0.19253974 -0.3456326  -0.5932856   0.24245387
  0.32265234 -0.16037035  0.28090334 -0.05524775  0.3360062   0.31226298
  0.35487774  0.15072632  0.05847273 -0.06358705 -0.19635834  0.23045564
  0.54763    -0.38129997]
[ 3.2455704e-01 -4.6260610e-01  2.8149819e-01  1.8144260e-01
  2.5142431e-01  5.0413933e-02  3.6822662e-01 -2.2317640e-01
  5.2557003e-01 -1.5416938e-01  2.4797694e-01  2.8280193e-01
 -1.5285364e-01 -6.3825345e-01 -2.0436678e-02 -4.1879585e-01
  5.2800125e-01 -1.0220939e-04 -3.6443931e-01  7.0867902e-01]
[-0.3486245  -0.11021935 -0.1730264   0.2111289  -0.0606712  -0.13161875
 -0.08342178  0.2201076   0.11044413  0.03882487  0.3317924   0.13729346
  0.09864107  0.3436069   0.16367161 -0.43725768  0.09552116  0.14977452
 -0.2073823   0.34427562]
[ 0.04650424 -0.08719792  0.01638105 -0.1798695   0.00114645  0.1120241
 -0.01091863 -0.36214238 -0.4487972  -0.02603628  0.30784827 -0.5535281
 -0.01788539 -0.07718861  0.5802418   0.28403     0.07453984  0.20929992
  0.16599384 -0.19392496]
[-0.39564112  0.34583563 -0.18309471  0.14249939 -0.672544    0.30373955
 -0.45847374 -0.05821857 -0.41327912  0.2628497  -0.43370643 -0.4797088
  0.60882694  0.31827486  0.01764258  0.0937193  -0.0843392  -0.13625416
  0.41737244 -0.6117448 ]
[-0.19590946 -0.02965511 -0.38711876  0.1248954  -0.08575504  0.12952416
  0.2060207  -0.31553984 -0.4684887  -0.14598115 -0.38851416  0.14990364
 -0.01929209  0.22530074 -0.05785934 -0.04734687 -0.19817977  0.13348052
  0.35263544 -0.45957643]
[-0.78350395 -0.08730926 -0.22574082 -0.2761895  -0.20299056  0.2097616
  0.25049126 -0.28263754  0.21042532 -0.5650807   0.3624239   0.42882943
  0.66328996 -0.01015204  0.6738586  -0.1873662  -0.13989882 -1.1450343
 -0.49390522 -0.06297477]
[-0.01053806 -0.28752702 -0.4503563  -0.28734094  0.32781464  0.44953254
 -0.49278352  0.17114963  0.07746977 -0.8739384   0.23305054  0.6120829
 -0.6580519  -0.272513    0.06883276  0.16251974 -1.2130098   0.41440815
 -0.10491735 -0.3861747 ]
[-0.07321387 -0.6185568   0.25905445  0.36112398  0.2908651  -0.7283497
 -0.45255956  0.05237996 -0.6587203   0.01912121 -0.0828639  -0.42746004
 -0.25775564 -0.5034266  -0.37672797  0.24605604 -0.0702145  -0.32823852
 -0.19193868  0.11734679]
[ 0.02005763 -0.06305215  0.00610315  0.02333623  0.04574279  0.12489528
  0.06738833 -0.00181319  0.06321899 -0.03523201 -0.0161221  -0.14574274
  0.04885298  0.03703991 -0.07862091  0.03200728 -0.15527347  0.16051692
  0.05930777  0.05758076]
layer 1 Activation
tanh
layer 2 Dense
20 40
[-0.11241737  0.13525304  0.1297093  -0.12122032  0.1832238   0.15037625
 -0.10284901  0.1490732  -0.02737594 -0.09850805 -0.2981053  -0.15146664
 -0.02240035 -0.32628304  0.42986262 -0.11410052  0.1890206  -0.05504203
 -0.01658397  0.0493001  -0.22285067  0.08613119  0.18701115  0.02862835
  0.22414888 -0.18834083  0.11457501  0.21755701  0.2235373  -0.1367718
  0.2246377   0.12050679  0.29346657 -0.05994036  0.24056691 -0.06084125
 -0.24444088  0.14837873  0.15338628  0.23226894]
[ 0.03788339  0.30085585  0.28274843  0.00282094  0.23489705 -0.02424334
  0.06422617  0.07042795  0.02778143 -0.1474814   0.25052944 -0.15104802
  0.2743739   0.2292938  -0.1377303  -0.04433552 -0.01801352  0.31359088
  0.05737338  0.2290105   0.16890316 -0.09144682  0.23785143  0.3187036
 -0.11961415 -0.02087195  0.11723871  0.05200497 -0.10468546 -0.11623564
 -0.17352992 -0.22607948 -0.26455453  0.11998866  0.02881141  0.29108858
 -0.3104848  -0.07742672 -0.3080519  -0.02633442]
[-0.28689346 -0.28212038  0.07686464  0.38588998  0.39678025 -0.00417768
  0.2216617  -0.18952087 -0.29033735  0.2581728  -0.22726819 -0.35345757
  0.31500667 -0.20204426 -0.00359038 -0.0081184   0.08112237 -0.10327879
 -0.13108088  0.08573034  0.06800437  0.21331054  0.20247161 -0.03008639
  0.04362757 -0.0827843  -0.08105891 -0.071962   -0.01087819 -0.27966693
 -0.01668677 -0.14426613  0.25687566  0.002621   -0.05862512  0.06717505
  0.18600401  0.16268142 -0.11082003  0.18507646]
[-0.09006993  0.23448895  0.14629194  0.1877596  -0.04041703  0.26693028
  0.00064524 -0.02701584  0.2144009  -0.17464289 -0.241622   -0.11690297
 -0.2007484  -0.0031136   0.42855832 -0.03119901  0.0472817  -0.08675873
 -0.28126973 -0.26387683  0.19994561 -0.13562447  0.0591696  -0.16097178
  0.03897353  0.04387346  0.229187   -0.25042373 -0.38070887  0.01353255
  0.28863114 -0.15016864 -0.08838473  0.12822133  0.14759399 -0.01944252
  0.14162047  0.3009084   0.02260154  0.21857496]
[-0.09967656  0.31401268 -0.03122686 -0.3116777  -0.28262344  0.2010619
  0.11414757 -0.17579292  0.22587019  0.10732602 -0.22292502 -0.02148077
  0.0103455   0.1473001   0.24515799  0.35981    -0.13761541 -0.22959517
  0.08427916  0.2661288  -0.09568873  0.17615013 -0.2700105  -0.1334545
  0.17434287 -0.12177776  0.09279253 -0.07326531 -0.05173757  0.12710917
  0.23324959  0.09393337  0.2595594  -0.10333897 -0.13672744  0.1953784
 -0.0360152  -0.14738412  0.27051553  0.18792161]
[-0.14504787 -0.0265353   0.08096419  0.09999917 -0.11165627 -0.30400237
 -0.02673075  0.23418213  0.15251796  0.17035203  0.22207247  0.00465832
  0.21117558 -0.01273648 -0.0568397   0.05939421 -0.2042792   0.1371991
 -0.17909712 -0.03505636 -0.13793135 -0.15742221  0.25608373  0.1377176
 -0.17457432  0.21222067  0.32612604  0.193098    0.27371478 -0.2282627
  0.0044056  -0.34050104  0.10985179  0.05716636 -0.08064187 -0.29178664
  0.2107504  -0.01050799  0.13635647  0.01513881]
[ 0.17197886 -0.10242801 -0.1312627   0.04047612 -0.19809406  0.05763106
 -0.14761475  0.02281355  0.07073355 -0.22937682  0.24050495 -0.11944387
 -0.14069842 -0.10235554 -0.25561938 -0.2736564  -0.2213963   0.16836844
 -0.1909599  -0.10078412  0.12249383 -0.0984395  -0.06186347  0.2799045
 -0.24339007 -0.04884394 -0.2479142  -0.30142903  0.05254489 -0.30445927
 -0.23453051  0.06027212  0.24530081 -0.03119108 -0.02597593 -0.03264982
  0.14045568 -0.14258605 -0.21009296  0.09951356]
[-0.04327182 -0.03565947 -0.04820899 -0.14433622 -0.21203129 -0.14778292
  0.00754401  0.11020236 -0.02469352 -0.11049564 -0.09639416 -0.03668671
 -0.23647088  0.10674614 -0.3475191   0.202687   -0.21116492 -0.0657905
  0.29993924 -0.24934955 -0.06688535 -0.00634179 -0.12920439 -0.29509768
  0.03038964  0.07192161  0.22944532 -0.06299869  0.22398323 -0.09414318
  0.15645972 -0.25058937 -0.15020141  0.13930057 -0.02920236 -0.06691353
  0.04452767 -0.21643181  0.20267022 -0.25504676]
[ 0.18579572  0.04474945 -0.16639759  0.38933232 -0.28254527  0.24843784
  0.19782092 -0.01032607  0.25266302 -0.23324248  0.0285703   0.06331857
 -0.01400079 -0.13953054 -0.55872047  0.3802336   0.04035541  0.03355763
  0.33536762  0.22398326  0.19806243 -0.16572313 -0.1623757  -0.30749735
 -0.18988545  0.23346454  0.00569922  0.16617936 -0.05355243  0.13811493
 -0.3392269  -0.20104875  0.20475356  0.10035554  0.13052045  0.09294373
 -0.19192477 -0.14360663 -0.08918448 -0.16177225]
[ 0.12596875  0.25249937  0.02075456  0.16696331  0.3806454   0.09739687
  0.14392537 -0.07143361 -0.14904007 -0.18660487 -0.01305488  0.2088189
 -0.02402895  0.05400789 -0.11182568  0.37188748  0.05503916  0.22390673
 -0.4798956  -0.01340716  0.05308079  0.02878327 -0.08206663  0.22521372
  0.25718474 -0.01742828  0.16160539 -0.25912705  0.14698131  0.05045641
  0.12027347 -0.1629146   0.19854303  0.11596192  0.08490268  0.22374713
  0.09764669  0.36884913 -0.22626163  0.29804307]
[ 0.21164824 -0.15837279  0.27129215 -0.00967334  0.26292777 -0.04330086
 -0.09087593 -0.16027267  0.27568272  0.09561609  0.15080802  0.1854943
  0.05195774 -0.06448469 -0.07957516 -0.07101206  0.13110074  0.13978739
 -0.07360248 -0.2585644   0.16487464 -0.03511887  0.02839079  0.06225423
  0.2240665   0.20575143  0.20400807  0.13893278 -0.18535036  0.27402022
 -0.27852592 -0.2359319  -0.25641894  0.1141114   0.16612643  0.2168732
  0.068262   -0.02013797  0.18290807 -0.20026515]
[-0.2845858  -0.24747786 -0.16248378  0.23736931 -0.22951794 -0.15079217
 -0.06407724 -0.21852127 -0.19834496 -0.06164208  0.01308666 -0.27428237
  0.00088793 -0.03911158 -0.2105197   0.14101455  0.19135635  0.35561264
  0.16851474  0.03545465 -0.198385   -0.10072309 -0.0354881   0.06549284
 -0.15055193 -0.07972534 -0.11827606 -0.03160911  0.22195777 -0.06979616
 -0.33806336 -0.27766493 -0.02398213  0.08755661  0.26666906 -0.21381271
  0.22503264 -0.21097286 -0.0008148   0.23923203]
[-0.13134758 -0.2622898   0.07079545 -0.32339558 -0.2229594   0.12354346
  0.16939451 -0.17825416 -0.225748    0.10030629 -0.07830143 -0.135498
 -0.14708859  0.161658    0.1785479  -0.02288856  0.02542235 -0.23337512
 -0.34095407  0.28631604 -0.03978153 -0.1486755   0.04397206  0.0143883
 -0.3458869   0.04440102  0.17539662 -0.34535766  0.20616283  0.262912
  0.09913847 -0.07753605 -0.1381543   0.07387416  0.06733005 -0.19666356
 -0.30022138 -0.28327468 -0.2657137  -0.32206374]
[-0.31026495 -0.2706146  -0.29851562 -0.26978025 -0.14117765 -0.10975996
 -0.10690422  0.3325164  -0.19200176  0.04580192  0.11030187  0.08596711
  0.4453877  -0.14405476 -0.03691788 -0.06761278 -0.2883529   0.07783988
 -0.0697647   0.23182186 -0.07347719 -0.1366395   0.14046371  0.08140317
 -0.17392577  0.0556278   0.25303158  0.104086    0.321524   -0.15349858
 -0.19733365 -0.1513291  -0.38645276  0.33228827  0.38768584 -0.25330028
 -0.19635238  0.2718985  -0.33539748  0.30227923]
[-0.1862732  -0.29739004  0.07841492  0.12984835  0.03445296 -0.23027772
  0.19714308  0.20648448  0.13142344  0.18513034 -0.11358367  0.26221266
 -0.12685317  0.09685299 -0.07527588 -0.38253608  0.30253747 -0.3185371
  0.19688317 -0.04639152  0.19350247 -0.20250688 -0.1303309   0.2759526
 -0.07729773 -0.09833813 -0.3204907  -0.2626603   0.04446558  0.18030748
 -0.06889909 -0.15597087  0.20399818 -0.26593322  0.10586582  0.11163276
 -0.11182621 -0.15684116 -0.15352772 -0.0442227 ]
[-0.04014717 -0.30930817 -0.17358871 -0.45101464  0.2136319   0.04355607
  0.24480699 -0.30725405  0.33039582 -0.14691     0.14374608 -0.04207944
 -0.02643581  0.12637624  0.16086906  0.22713289 -0.00914573 -0.04228977
  0.11856745 -0.17451131  0.11365316 -0.0760987  -0.07429109 -0.40531197
  0.13437405  0.2757943  -0.13379572 -0.04691882 -0.00182897  0.08803634
 -0.14136674 -0.09726536 -0.25401446 -0.11187525 -0.05053745 -0.25376928
 -0.18780328 -0.18837744 -0.22395357 -0.04420931]
[ 0.14974262  0.12404033  0.07518347  0.07783856  0.10486042 -0.0031614
 -0.10910697 -0.10950579 -0.13751398  0.2991815  -0.1283597  -0.11698359
 -0.4557445  -0.04434678 -0.2779647  -0.22127222 -0.15257101 -0.14322908
 -0.18528193 -0.10397692 -0.16455327  0.15904206  0.02598644  0.26708004
 -0.14222641  0.17632434 -0.07561829 -0.29611868 -0.00558038  0.1385479
 -0.32622093  0.40614164  0.29199547 -0.2586614  -0.20243336  0.18182299
 -0.39713657 -0.13247284  0.3276688   0.12920897]
[-0.04238435  0.36578056 -0.28607732  0.16735779 -0.00190331  0.01266823
 -0.00802519 -0.19183455  0.21933451 -0.09433382 -0.17568412 -0.11906195
  0.24820128 -0.2669019   0.1275233   0.1631959   0.31962028  0.22490917
  0.15809393 -0.03206432 -0.27193722  0.09643203  0.03568469  0.01883717
 -0.19105157  0.22822496 -0.09188105  0.15927717  0.06962617 -0.13196982
  0.32740468  0.06513038  0.11183883  0.29679918 -0.10674608  0.05584979
 -0.337085   -0.09918205 -0.07549945  0.00593094]
[-0.04939037 -0.20341523  0.10273819 -0.22211932  0.21041138  0.05060326
 -0.05728373  0.07376345  0.09857688  0.265696   -0.10302629  0.11338324
 -0.01961589 -0.14671446  0.22792448  0.1972075  -0.01389916  0.07480632
  0.10530841  0.16371095  0.01649287 -0.33395287  0.1659922   0.24744795
 -0.15688114  0.16504534  0.15150632 -0.2086436   0.35641867  0.2507045
  0.29256257 -0.01247741 -0.26728922  0.07327379  0.01839644 -0.11735048
  0.15235941  0.2784737   0.24630593 -0.1366036 ]
[ 0.01289982 -0.09395269 -0.20383433  0.439315    0.07244962 -0.127071
  0.23049809 -0.14379312  0.16286413  0.15064843  0.14232956 -0.20702933
 -0.2543693  -0.18222629 -0.27444863  0.25424072 -0.03132407  0.15487678
 -0.21302767  0.03284841 -0.1989712  -0.14710088  0.45263824 -0.05194142
  0.26003736  0.21888599  0.39091632  0.02989079  0.02733914 -0.0859776
  0.13297033  0.12920809  0.47213805 -0.00895985 -0.0242567   0.12578632
 -0.04593808 -0.26824844  0.10801604 -0.11165284]
[-0.04515611 -0.01561787  0.0051675   0.03396157 -0.03273871 -0.00788504
  0.02247893  0.03681607  0.01681687  0.00839819  0.02088977 -0.039869
  0.06862708  0.03275371 -0.1130591   0.10511891 -0.09592187 -0.02613997
  0.04385074 -0.04278019  0.04510704  0.0212697   0.13132018 -0.10350988
 -0.00462811  0.04219289 -0.03662996  0.04149145 -0.02681103 -0.03103186
 -0.03414991 -0.06546035  0.03033062  0.00774173  0.1776302  -0.00926228
  0.00161099 -0.08540272  0.00550172 -0.03016898]
layer 3 Activation
tanh
layer 4 Dense
40 20
[-0.06769233 -0.25371364  0.2822328   0.32346818 -0.06383599  0.12838283
 -0.06814414 -0.15950274 -0.23437275  0.01027984 -0.1281801  -0.27655432
  0.14819087 -0.16277657 -0.28646532  0.23212233  0.09032314 -0.12064781
 -0.09867325  0.0390457 ]
[-0.05781504 -0.2672587  -0.08247399 -0.2759851   0.05797927 -0.34867817
  0.2819177   0.15220334 -0.25946626 -0.25193635  0.07553093 -0.02002771
 -0.29915664  0.3150997  -0.32134706 -0.014051    0.09065687 -0.13502155
  0.03762239 -0.04686905]
[ 0.25881773  0.06270004  0.06817011  0.00355428 -0.37147513 -0.01141261
  0.09983836  0.10749497 -0.25977272  0.17778035  0.23489065  0.27201623
 -0.20341566 -0.02843386  0.05214325 -0.18832079 -0.34704614  0.13458899
 -0.07193043 -0.13436347]
[-0.3417634  -0.09402736 -0.31264472  0.14563166  0.08816475  0.35230127
  0.30795473  0.0418705  -0.11084778  0.28884062  0.19443333 -0.07945584
  0.00878989  0.04825635 -0.09095547  0.05288734  0.1808871  -0.29166335
 -0.00046025 -0.13932547]
[-0.1515818  -0.08516016  0.3248883   0.09466563 -0.03502156 -0.2159758
  0.23440272 -0.01596267  0.29282817 -0.32664844 -0.21666874  0.25952178
  0.22151195 -0.23663166  0.00341814  0.24994895  0.15430006  0.29318747
  0.08563031 -0.20816898]
[-0.22743717 -0.18049125  0.08561805  0.14228037  0.1518348   0.03371161
  0.04167546 -0.24429178 -0.13586304 -0.24506748  0.02056017  0.00723341
 -0.15709186 -0.08940358 -0.05061159  0.11549269 -0.0119944   0.07414683
  0.20370927  0.18331264]
[ 0.08349928  0.07246782 -0.05825011  0.14661369  0.04862914  0.13403133
 -0.11309758 -0.21970688  0.18984313  0.05556869 -0.16983685  0.02281066
 -0.13524373  0.07844335  0.30715367  0.07349987 -0.09735432 -0.25584027
  0.20970553 -0.16351292]
[-0.08544108  0.05493678 -0.05311686 -0.29052585  0.42272383 -0.00959879
 -0.34145463  0.10747712  0.02066153  0.07874341 -0.25753477  0.3972918
  0.32430008 -0.16486555 -0.10089969 -0.11214507 -0.21231811  0.01153168
  0.04966639 -0.0452192 ]
[ 0.3989856  -0.04744783  0.20628943  0.47356066 -0.34091234  0.16653457
 -0.02984849 -0.04389087  0.13407303 -0.07558607 -0.30172226 -0.08633696
 -0.34032828 -0.06541073 -0.37521088 -0.22823471  0.09979533 -0.00868961
  0.01401765 -0.16599861]
[-0.33392423  0.05436454  0.2480497   0.2117572  -0.19294809  0.16905707
 -0.05515061 -0.29746974  0.14257772 -0.22578898 -0.12136462  0.20060077
 -0.09508993  0.37820175 -0.16715594 -0.02336495 -0.09478536 -0.3806299
  0.0634317   0.22547598]
[-0.10569905 -0.05785753 -0.00184634  0.25269228 -0.16907616  0.37372527
 -0.25212786  0.23750417  0.29344207 -0.17207034 -0.2667704   0.16189985
  0.06157133  0.05658862 -0.30924925  0.11332779  0.27653515  0.14961657
 -0.16652834 -0.13055073]
[-0.07274846  0.14938773  0.16110206 -0.13247792  0.20448697 -0.21991067
  0.09784912 -0.46287143 -0.06401318  0.00770778  0.0803133   0.1026983
  0.09733955 -0.1608786  -0.0683715  -0.08055229 -0.16574065 -0.27841848
 -0.0583449   0.10627522]
[-0.08963707  0.27242872  0.04119442  0.03466696  0.05688156 -0.24337898
  0.03882314 -0.01062532  0.30846712 -0.17013526 -0.30476484  0.1906913
 -0.09175203 -0.08089584 -0.42004347 -0.09607379  0.10623517  0.06698365
  0.03807763 -0.14816506]
[-0.0831103  -0.08056886 -0.09310027 -0.3676495  -0.18352656  0.13317518
 -0.13074988 -0.26985005  0.14731145 -0.17698675  0.25173724  0.1859944
  0.08190675 -0.1207592   0.09784979 -0.16768989 -0.06653427  0.17789045
 -0.21457328  0.17584223]
[ 0.31972787 -0.09279802  0.2861264   0.06171064  0.09850246 -0.22012202
 -0.02294077  0.01750517 -0.0710701   0.04681275  0.2716534  -0.20902792
  0.2141084  -0.19953278 -0.3516803   0.15091935  0.06503683  0.00304178
 -0.1561942   0.24342585]
[ 0.15844145  0.09110752 -0.20220037 -0.20507194 -0.13422431 -0.01501028
 -0.04181475 -0.12196617  0.2649456   0.01109215  0.24346158  0.04388885
  0.16913025 -0.16433959  0.16561265  0.10389196  0.16819105 -0.25573274
  0.09521741 -0.3349329 ]
[-0.16722758  0.40387982  0.07336266  0.08587145  0.14544858 -0.15395145
 -0.01769709  0.29114366 -0.23316865  0.13821854 -0.2072496  -0.24313894
 -0.24201421  0.21570896  0.04406483 -0.0658889  -0.1104532   0.01578177
  0.17896475  0.14873509]
[-0.31382766 -0.11537856 -0.21034464 -0.24600564  0.36027667  0.10033042
 -0.24870522 -0.21430977  0.15990672 -0.06579663  0.17985497 -0.05166952
 -0.16426729  0.10668916  0.1895082   0.04411686 -0.08008534  0.22908014
  0.09284345 -0.14722002]
[ 0.2556913  -0.2137113  -0.16848709  0.31221017 -0.16670741 -0.06042237
 -0.0999863  -0.07555038 -0.21894003  0.07124642  0.2610422   0.14228207
  0.02276158  0.04352854 -0.20001046 -0.22053555 -0.1541693  -0.04657689
 -0.2468147  -0.23769416]
[-0.18722536 -0.21624099 -0.07524583 -0.30318427  0.09121396  0.07362755
  0.21921785  0.07569412 -0.19062465  0.02634565  0.01437352 -0.24899831
  0.30856168  0.15525398  0.01514994  0.23414415 -0.23333949  0.0005361
  0.2736719   0.219091  ]
[ 0.34715217 -0.02213874  0.23836742  0.12243932  0.14971533 -0.025178
 -0.17096597 -0.22637388  0.19094016 -0.43030363 -0.14647496  0.13652354
  0.28516987 -0.00720849  0.21888286 -0.0739215  -0.2612741  -0.28391224
 -0.2929753  -0.13050655]
[-0.07318886  0.07258761 -0.0137175   0.08589517  0.09790614 -0.13604026
  0.1051489  -0.19920626 -0.06607764  0.15129231  0.0463196  -0.23390679
  0.3063064   0.23171091  0.20700648 -0.05195426  0.08299361  0.12282947
  0.09185427  0.07735371]
[-0.14039722 -0.07764491  0.07929294  0.29152    -0.06335443  0.13785581
 -0.08969694  0.10307112  0.17817222  0.17826864  0.10019478 -0.28492957
  0.03201191  0.17452092 -0.14494094  0.10731906  0.21001267 -0.10838217
 -0.26756796 -0.06984355]
[-0.03639358  0.10320064  0.20889676 -0.2523913  -0.48145175 -0.14564835
  0.07465991  0.12110986 -0.01090862  0.27728027 -0.20447819  0.1534488
 -0.35206473 -0.09918258  0.1081861   0.33767864 -0.19386534 -0.1561002
 -0.09654289  0.10030723]
[-0.29104885  0.07712808 -0.04171071  0.01846243 -0.18768601 -0.22456293
 -0.19540884 -0.58988875  0.08414652 -0.11077076 -0.17388374  0.25374857
 -0.23039919 -0.3271844   0.25719535 -0.31069618  0.27511114  0.07155965
 -0.06103368 -0.16716123]
[-0.26167288 -0.06253615  0.00293784  0.1890325  -0.16512313 -0.2078255
  0.1306962  -0.04892646  0.31722498  0.11951459 -0.06054004 -0.03490639
 -0.14658687  0.28394356  0.2317305  -0.15486698 -0.24374093  0.2718821
  0.02714961 -0.3851503 ]
[-0.04514173  0.22721753  0.03300104  0.0971052  -0.15156078 -0.02244478
  0.17349178  0.12204477  0.31945914  0.14402923 -0.16543025  0.11201941
  0.14465535 -0.33213723  0.03178847  0.17206824  0.298985    0.02528115
  0.2278758  -0.16477232]
[ 0.17113501 -0.01724343 -0.09048228  0.07797628 -0.26772985  0.07846848
 -0.22828662 -0.0762613   0.17652386 -0.27722505 -0.06416319  0.22501828
  0.12467831 -0.06985437 -0.2858555  -0.26986927  0.29165348 -0.19109356
  0.15568326 -0.1679573 ]
[ 0.42863008 -0.12721394  0.07749969 -0.2361747  -0.2124787  -0.06064965
  0.01945856  0.56822413  0.18245108 -0.06113704  0.24755532  0.09898428
 -0.15796061  0.06127122  0.00937586  0.09060415 -0.3405017   0.00859843
 -0.03312892 -0.22427323]
[ 0.21288949 -0.04640137 -0.06020089 -0.22151014 -0.20505832  0.12418362
 -0.09056504  0.25863224 -0.21686462 -0.22961491 -0.37201494 -0.21850504
 -0.1071889   0.06938588 -0.0995951  -0.0204072   0.07348036  0.0551808
 -0.11876047  0.17118433]
[-0.04846651 -0.13195176 -0.15765257 -0.25016648 -0.04331355 -0.24902378
 -0.22550654 -0.17203057  0.17391752 -0.1427796   0.13496697  0.11060067
  0.00815377  0.18171088 -0.21691243  0.0625945   0.28508294  0.03835555
  0.26205203  0.12364499]
[-0.2801134   0.08360846  0.1857681   0.25215694  0.19836718 -0.19051754
 -0.23596074 -0.253898   -0.3761363   0.10313473 -0.22867616  0.08887284
 -0.19077267 -0.06105486 -0.05482638  0.33123302  0.07525323  0.07190954
  0.194379    0.16192257]
[-0.38406423 -0.23242745  0.15642875  0.12808983 -0.00126428  0.24715297
 -0.13001725  0.02774857 -0.33882508 -0.07769842  0.34115043  0.15505968
  0.12657985  0.23159368 -0.25227013  0.17524126  0.20291735  0.18233198
 -0.08101034 -0.12644866]
[-0.0705859   0.16563803 -0.04594078  0.19760855 -0.14541107 -0.05391954
 -0.0584498   0.15860322  0.25973266  0.10824055  0.03046127  0.14496629
  0.12961464 -0.28487912 -0.1841556   0.21612997  0.04025212 -0.02243419
  0.08353442 -0.3155171 ]
[-0.17316118 -0.18560964 -0.2763853   0.31907648 -0.16741356 -0.06386534
 -0.21604176 -0.06778523 -0.0501284  -0.01262973 -0.2998495  -0.3047324
 -0.15568577  0.0912438   0.03963692 -0.26789966 -0.08628223  0.17286965
  0.0136482  -0.162896  ]
[-0.18024667  0.07342574 -0.1553592  -0.07215021 -0.397959    0.18702596
 -0.21109901 -0.04166462 -0.20344815  0.12169561  0.17100222 -0.11463957
  0.00699834 -0.26064909  0.11400564 -0.03196214 -0.17676282  0.1687762
  0.2656009  -0.12225433]
[-0.0693387   0.10725281  0.18554582 -0.33380708 -0.2874166  -0.09792069
 -0.04649787 -0.0618379   0.27963638 -0.10844374 -0.08414617 -0.22271775
 -0.20442718 -0.10767226 -0.27588654 -0.28491944  0.21810454  0.13098706
 -0.10769159 -0.24554734]
[ 0.14947197  0.17705326  0.2658631  -0.31899387  0.05847176 -0.0689173
 -0.33416378 -0.14947037  0.0806876   0.0184453  -0.24621631 -0.03501572
  0.17963931 -0.04931905 -0.2792109   0.31172365  0.22555266 -0.17284764
 -0.4395922   0.11658032]
[ 0.04144222 -0.17137244 -0.14232181  0.20441255 -0.15553899 -0.08145873
 -0.07543486  0.04882212 -0.20827153 -0.10682407  0.28854105  0.17401144
  0.19825482  0.30641297  0.304849   -0.00583142  0.18159804  0.10952709
 -0.096854    0.10825057]
[-0.22102623  0.03857947  0.0038674   0.16864358 -0.05115527  0.08337349
 -0.21433358  0.01187816 -0.07098438 -0.14365993  0.2599975   0.2632563
  0.189076   -0.01634717 -0.07786831  0.19982794  0.05270703 -0.31635514
  0.22674933 -0.05148226]
[-0.03034583  0.05595486 -0.03648809  0.03894124  0.08070596  0.02413867
 -0.00252001 -0.05159956  0.03480759 -0.03654853 -0.02005418 -0.01788749
  0.03498296 -0.02740792  0.0191188  -0.07631896  0.03565723 -0.01445064
 -0.09669276 -0.0689579 ]
layer 5 Activation
tanh
layer 6 Dense
20 1
[-0.05100019]
[0.00867622]
[0.2305066]
[-0.10844917]
[0.00498914]
[0.10636497]
[0.00426097]
[0.01566381]
[-0.19795471]
[0.01750598]
[0.02109974]
[-0.0191522]
[0.00395975]
[0.0071994]
[0.04837277]
[-0.20556279]
[0.13949938]
[-0.0009026]
[0.01481874]
[-0.26476002]
[0.00383884]
