layers 7
layer 0 Dense
24 20
[ 1.4611969  -1.189892   -0.8348703   1.0274239  -1.8146192  -1.2372082
  1.0314165  -0.6374037  -0.58936685  1.5765435  -0.41414815 -0.93311
 -0.663154   -0.63644207 -1.161662    0.6547506   0.8026526   0.61158717
 -0.02895849  1.281254  ]
[ 0.37428322 -0.76211905 -0.60538024  0.48972237 -0.93472546 -0.7510422
  0.8263417  -0.8620434  -0.1609583   0.70644367 -0.95330733 -0.6650009
 -0.26510215 -0.3790829  -0.61811996  0.855989    0.83978724  0.6093551
 -0.46761984  0.56294507]
[ 0.349128   -0.38057825 -0.60153127  0.46783784 -0.569626   -0.5156718
  0.47686344 -0.48445323 -0.34400165  0.6322434  -0.5464975  -0.44694108
 -0.14380136 -0.57872534  0.05808632  0.43406892  1.0587425   0.70127714
 -0.26005805  0.17030828]
[ 1.1957932e+00 -4.7883168e-01 -6.6080296e-01  6.2932312e-01
 -1.4605291e+00 -8.9993387e-01  6.7145377e-01 -8.4993565e-01
  6.7500706e-04  9.1024458e-01 -8.2160419e-01 -4.7920248e-01
 -3.2576826e-01 -1.0402844e+00 -3.9533421e-01  4.1539758e-01
  6.3198459e-01  1.0266837e+00 -3.6403665e-01  5.7880056e-01]
[ 0.6420068  -0.26430956 -0.0551996   0.34580955 -0.7571387  -0.52459073
 -0.03899616  0.61603266  0.4068204   0.5789478   0.36812174 -0.45718327
  0.13002338 -0.24096094 -0.6727576  -0.67078096  0.42430085 -0.1827119
  0.88413256 -0.16211517]
[ 0.05148128 -0.59236753 -0.585484    0.5618244  -0.56195986 -0.46077606
  0.364375   -0.20012651 -0.1476467   0.5902841  -0.16972524 -0.41680756
  0.11226378 -0.48181796 -0.5078916   0.13614647  0.21903637  0.36821243
 -0.56439894  0.6361621 ]
[-0.06486323 -0.2726828  -0.2325085   0.27751586 -0.30216086 -0.48276424
  0.29608527 -0.5917384  -0.3388301   0.6060187  -0.5168984  -0.21752468
 -0.2290012  -0.55988085 -0.39863974 -0.00800699  0.30653933  0.37137806
 -0.46249497  0.24138334]
[-1.4903282   1.0006689   0.77627957 -0.8351      2.0589395   1.056494
 -0.8251069   0.66001743 -0.16531758 -1.4163976   0.93940634  1.2201118
  0.67563564  1.0481507   1.0545138  -0.6861702  -1.0175925  -1.195427
  0.2982681  -0.82550037]
[ 0.29956758  0.5724164   0.4892211   0.4300585  -0.33905008 -0.2505159
 -0.7831438   0.54263985  0.5856997   0.29706243  0.06901523 -0.2324069
  0.16800722  0.10910209 -0.5267481  -0.47112012  0.22907928 -0.5068756
  0.7159456  -0.27420714]
[-0.7797664  -0.19329816 -0.3242467   0.32159173 -0.57193285  1.5084428
  0.11290411  1.2689184  -0.2774979   0.47821715  0.13050054 -1.6687906
  2.4301722  -1.0344952   1.22047     0.1489913   1.8818475   0.45069528
  0.5088724  -0.04518323]
[ 0.6357803   0.02197182  0.16328001 -0.03212829 -0.41382688 -0.48915848
 -0.2501414   0.7929042   0.02793242 -0.00511622  0.02418359  0.25010476
 -0.65333116  0.08463977 -0.30347797 -0.16144848 -0.21739717 -0.27945027
  0.4703377  -0.3376427 ]
[-0.9098517   0.10434283  0.30502835 -0.11337508  1.5773791   1.4387232
 -0.4925392  -0.31234658 -0.10984916 -0.8872956  -0.09152534  0.08912693
  0.9486437   0.2505734   0.59045607 -0.02251034 -0.2497869  -0.34074426
 -1.1733958  -0.7968212 ]
[ 0.15010005  0.6064299   0.32114267  0.02803184 -0.2277062   0.32207546
 -0.24022703  0.74347913  0.7999133  -0.1533772   0.503926    0.42924187
 -0.26311946 -0.35784036 -0.26915675 -0.5429254  -0.88975716 -0.08810412
  1.0231142  -0.5876098 ]
[ 0.09751251 -0.2542383  -0.5478261  -0.53599334 -0.03314782 -0.13881052
  0.6584108  -0.6022655  -0.61501646 -0.28728083 -0.09694476 -0.05686102
 -0.4328337   0.1248882  -0.436608    0.5887484  -0.41467565  0.57721394
 -0.9341608   0.17703241]
[-2.8547697  -0.3833685  -0.29220694  3.1065292  -0.62672484  4.04905
  0.54546803  0.2572283   0.29720727 -0.6157157  -0.37029254 -3.2022321
 -1.3691664  -0.97755915 -3.0614603   0.21124086  2.4855978   0.19300483
 -0.3157066   0.17183436]
[-1.817275    0.86997736  1.1797686  -1.6702505   2.7771063   0.7567364
 -0.9933544  -0.33842805  0.08679736 -2.060355    0.21014737  1.469024
  1.466392    1.1867427   1.8308034  -0.26031715 -2.9319186  -0.7386135
 -1.0186874  -0.7324176 ]
[ 0.11930858  0.73750645  0.835735   -0.27544764  0.6357595   0.19892386
 -0.54724     0.10632129  0.4959578  -0.21620347  0.7649738   0.09474193
  1.2150654   0.05501722  0.44657868 -0.7636947  -0.5774144  -0.6284847
  0.694876   -0.82315165]
[-0.01579176  0.14209878  0.19237056  0.49016324 -0.3936633   0.0544937
 -0.09729722  0.302464    0.84857893 -0.43457186  0.37669754 -0.41574448
 -0.5249036   0.02662971 -0.55536836 -0.35363844 -0.30606243 -0.2597233
  0.9639081  -0.24237466]
[-0.0524279  -0.24734092 -0.27345872 -0.32892013  0.57537234 -0.06420129
 -0.05520914 -1.3471268  -0.5922976  -0.31033745 -0.14442779  0.49501395
  0.43389016  0.09172658  0.47799614  0.49908227 -0.48181292  0.22419345
 -0.6184941   0.21583493]
[-1.0786889   0.05694581 -0.09201816 -0.43407252  0.87922215  1.3431728
 -0.12175403  0.03879377 -0.5412115  -0.22227584 -0.17041638  0.31317446
  1.857355    0.05593809  1.1856033   0.11881554 -0.16279803 -0.43228295
 -0.57984835 -0.5037401 ]
[-0.22723852  0.31518495  0.24022672  0.02160751 -0.10139911 -0.00647638
 -0.5349263   0.7821014   0.7788193  -0.42152908  0.17126608  0.19884746
 -0.17024213  0.14155458  0.11424343 -0.50329626  0.04873251 -0.13253823
  0.6330742  -0.26236135]
[ 0.31583685 -0.13413373 -0.37330055  0.88266575 -1.0514878  -1.1468141
  0.19139123  0.12122592 -0.11218716  0.50290024 -0.32771915 -0.24500534
  0.22293103  0.19675668  0.18410459 -0.03387707  0.56712     0.04553595
  0.11401778 -0.07237753]
[ 1.4746034   0.20017934  0.22759356  0.1919876  -0.30176395 -0.42043287
 -0.4447331   0.6452112   0.20635933  0.63818616  0.5139059   0.73001254
 -0.7339219  -0.0511465   0.3713562  -0.38070226 -0.7941291  -0.4360204
  0.66716063 -0.49916226]
[ 0.0291019   0.85568357  0.76148117 -0.2823313   0.40684366  0.16334738
 -0.654811    0.40667     0.73353297  0.04205771  0.12269091 -0.05358835
  0.0317521   0.21666148  0.15027827 -0.5218717  -0.15910645 -0.4772788
  0.47497806 -0.6673189 ]
[ 0.54371357 -0.7516607  -0.62219375  0.4439172  -0.8439397  -0.53878075
  0.6376354  -0.48926523 -0.32223386  0.575668   -0.55664724 -0.5072628
 -0.45459002 -0.42283955 -0.45028654  0.6491767   0.7003237   0.6037489
 -0.4497882   0.8110474 ]
layer 1 Activation
tanh
layer 2 Dense
20 40
[ 0.41548097  0.67795146 -0.5382716   0.39445966 -0.37748197 -0.30598435
 -0.29128334 -0.12579343  0.32141843  0.39043066 -0.23783894 -0.41385147
  0.36131096 -0.5486264   0.84132445  0.19510926 -0.33968437 -0.61062086
  0.23329307  0.40778568  0.06432461  0.0195326  -0.47366178  0.3372688
 -0.33482546  0.41545218 -0.44298118 -0.26555908 -0.35888445 -0.11311854
 -0.8134594   0.1231992  -0.14301448 -0.14879528 -0.24795918  0.34219706
  0.1758168  -0.49253717 -0.42483476  0.5305635 ]
[-0.5418064  -0.68802017  0.6794672   0.15407534  0.19173059  0.23296139
  0.4557123   0.35373312 -0.3233155   0.06259882 -0.01554699 -0.36131236
 -0.70726687  0.57455856 -0.8583349   1.0216556   0.33555648  0.41585562
  0.72509885 -0.5889828  -0.5104807  -0.16353512  0.49023145 -0.5971567
  0.3868859   0.1671192   0.5993461   0.33080208 -0.2792815   0.4902466
  0.69069016  0.53865886 -0.4002202   0.2129718   0.52697915  0.46782035
 -0.3221135   0.28629622 -0.3467981  -0.61026335]
[-0.42392182 -0.4694205   0.46804443  0.27852297  0.14783466  0.5463642
  0.44063917  0.5757931  -0.74500144 -0.21598822 -0.3852316   0.05766653
 -0.5163652   0.59153223 -0.59127676  0.3288223   0.5067166   0.49793375
  0.5677499  -0.5231517  -0.42716858 -0.21425231  0.49461463 -0.57031083
  0.3568599  -0.10254885  0.8593955   0.8127576   0.4222141   0.4562529
  0.5353466   0.70574385 -0.25202283 -0.07216391  0.51651275  0.16193709
 -0.10084128  0.6213978  -0.46840993 -0.31517237]
[ 0.04918213  0.17633574 -0.07277117  0.634316   -0.24083656  0.48095983
 -0.13849628 -0.4732415  -0.19398245  0.35616687 -0.14813763 -0.24602412
 -0.04125657 -0.06957881  0.28023183 -0.05578982  0.07521226  0.00641138
  0.42503753 -0.22949594 -0.14013092  0.12484971 -0.1029424   0.06953794
  0.21575081  0.40430638  0.08844773  0.34899527 -0.18029378  0.4533518
 -0.03378491  0.46313173 -0.00360315 -0.2879929  -0.02871203  0.48232245
 -0.04354775  0.23233159 -0.5359935  -0.2680473 ]
[-1.871342   -2.5760942   2.5613885  -0.10883165 -0.5943151   1.5631133
  1.8823086   1.7308995  -1.6824332   0.19275884 -0.8878888   0.29985148
 -2.6658554   1.7167583  -2.8250089   0.6103633   1.7273992   2.1762435
  0.4028771  -2.1410325  -1.3239796  -1.309397    2.7200956  -1.917632
  1.9212219   0.013792    2.0913258   1.7099658  -0.44981912  2.0484402
  2.079136    1.4166726  -1.7037832  -0.40532523  2.2956877   0.7286894
 -0.8733435   1.8161721   0.26608422 -1.967161  ]
[-0.53043467 -0.37363037  0.3657078  -0.6686988  -0.03524189  0.06118368
  0.5370977   0.66769236 -0.46563414 -0.21058117  0.27518737 -0.02643114
 -0.25103584  0.3547913  -0.7056798  -0.08932556  0.50475895  0.5924858
 -0.26962495 -0.44612384 -0.41404024  0.15596256  0.5777022  -0.5138556
  0.05829978 -0.1626552   0.71601427  0.21349268 -0.3303323   0.69687355
  0.47288635 -0.2131898  -0.5151781  -0.23666346  0.43870014 -0.5569693
  0.33898103  1.1405125   0.5336331  -0.34308043]
[ 0.15689881  0.5819184  -0.70258826 -0.07214589 -0.05124471 -0.4722106
 -0.53718317 -0.44452587  0.42695448  0.34767798  0.28009272 -0.7313135
  0.7936176  -0.6503752   0.58447015 -0.57159084 -0.761023   -0.41182277
 -0.2982095   0.41531342  0.40176576  0.7551069  -0.51991916  0.5053168
 -0.623124   -0.00670504 -0.7256081  -0.46361703  0.30673912 -0.63755083
 -0.85192275 -0.40091893  0.3849192   0.04130816 -0.7560722  -0.26361957
  0.44878107 -0.2972378   0.14447883  0.32155606]
[-0.5012809  -0.65737456  0.6046385   0.14571254  0.62923145  0.4404065
  0.6700003   1.1376415  -0.68300825  0.39497164 -0.18896163 -0.45011926
 -0.2891088   0.4941487  -0.6848505   0.40100294  0.33747393  0.38076374
  0.49808568 -0.6228169  -0.5794071  -0.47279906  0.7607662  -0.36034626
  0.3268249  -0.02989001  0.72711086  0.3579369  -0.5865293   0.54299414
  0.11545223  0.43200922 -0.5253062  -0.3296076   0.55471915 -0.17764072
 -0.17816012  0.68202615 -0.45394224 -0.4470346 ]
[-0.22107543 -0.10437186  0.2722313  -0.03231239 -0.3798428   0.5499997
  0.26709273  0.28158692 -0.3546757  -0.22058742  0.27886313  0.00621243
 -0.61109453  0.52942204 -0.4617765   0.987367    0.51612914  0.69812363
  0.57235456  0.05932748 -0.33050507  0.16114974  0.3307855   0.3148486
  0.20178325 -0.53463537  0.2847974   0.41221312 -0.36958972  0.6494702
  0.45197138  0.6674472  -0.3857704  -0.3684967   0.18676208  0.12393826
 -0.56629187  0.05199536 -0.2371263  -0.4377635 ]
[ 0.39808738  0.29653025 -0.47479227  0.44251364  0.08683391 -0.01353532
 -0.16972968 -0.36756578  0.4459047   0.56993586  0.03775923 -0.15181863
  0.17884879 -0.5147546   0.3990117  -0.09506618 -0.26611266 -0.49210948
  0.14562428  0.65222925  0.17759499  0.47006574 -0.28602412 -0.20522179
 -0.5284415   0.6494281  -0.37213895 -0.14668873 -0.28262755 -0.3565163
 -0.40968457 -0.05131637  0.54021287 -0.01861907 -0.2514457   0.36425623
  0.57469153 -0.40385345 -0.55686086  0.53383553]
[-0.25140804 -0.3227321   0.37797368  0.1934686  -0.18189536  0.9497873
 -0.01008072  0.5066788  -0.2554205   0.01047659 -0.599998   -0.6432353
 -0.6996894   0.5295771  -0.25399315  1.1699418   0.38621247  0.27697194
  0.827177   -0.43506777 -0.14028735 -0.20254439  0.41011417 -0.4394654
  0.6789086  -0.32126057  0.59051573  0.3783592  -0.40936548  0.12432484
  0.45351902  0.6182717  -0.73170704  0.14471589  0.4848555   0.20031124
 -0.9109198   0.17064632 -0.07591011 -0.32516798]
[-0.48640466 -0.9244506   0.7756451   0.09537105 -0.67279017  0.19396111
  0.5322288   1.0087603  -0.7218791   0.27358323 -0.49744874  0.2799596
 -1.0234597   0.8555521  -1.072924   -0.08973113  0.55829257  0.976394
  0.09831133 -0.96796024 -0.80608    -0.9689049   0.995928   -0.32433626
  0.50676024  0.60730714  0.9654707   0.64200956  0.27924922  0.7613172
  0.75954914  0.39448613 -0.5270094  -0.6237204   0.9753195   0.45862174
 -0.22924599  0.13997431 -0.21092696 -0.67067707]
[-0.1020536  -0.34255213  0.3814044  -0.50571775  0.20236179  0.08961514
  0.4852074   0.5848151  -0.27583614  0.02208375 -0.03761514  0.31105965
 -0.35894954 -0.19368988 -0.27947783 -0.23733267  0.03492808  0.22398561
 -0.5328929  -0.24139196 -0.21191332 -0.28830948  0.18944164 -0.44805497
  0.1630089  -0.10294947  0.22049364  0.12164336 -0.02777038  0.27104333
  0.28683403  0.09638672  0.02230283  0.23021019  0.48092267 -0.26665136
  0.11935656  0.66015756  0.6381893  -0.50412834]
[ 0.4872092   0.16849594 -0.38620797 -0.44112843  0.4026009   0.03447883
 -0.40355402 -0.21750477  0.06202709 -0.4944759   0.61037326  0.6228912
  0.28830615 -0.31023276  0.21267623  0.1531858  -0.07142655 -0.09402698
 -0.00925694  0.56689084  0.21898347  0.08823162 -0.28909427  0.4818917
 -0.41611737 -0.7300185  -0.16632229 -0.6117599   0.10086333 -0.24124727
 -0.08854579 -0.5368422   0.15363124  0.47888565 -0.20291011 -0.71030164
 -0.03064591 -0.30284718  0.4313676   0.39983875]
[-0.1504255  -0.322715   -0.00825673 -0.68566686  0.12165106 -0.07271624
  0.1886984   0.11792121 -0.27431595 -0.3341272   0.06319629  0.7593419
 -0.26853225  0.20863518 -0.3387053  -0.10793556  0.17600428 -0.11206052
 -0.2736839   0.00603528  0.11841691 -0.13351206  0.26288366 -0.22541857
  0.05058194 -0.6162685   0.22283909  0.22794071 -0.02042671  0.17046587
  0.05277862  0.09930086  0.07934307  0.24837644  0.09230699 -0.40515438
  0.05359644  0.39851448  0.35933548  0.0715113 ]
[ 0.48515338  0.668422   -0.587304   -0.16405754  0.4147286  -0.5137237
 -0.19879729 -0.53187793  0.3232828   0.32193664  0.24198337  0.41148248
  0.5562057  -0.3588015   0.53437835 -1.0064223  -0.41499013 -0.6196659
 -0.7868915   0.5361333   0.47238526  0.29343012 -0.48368755  0.38581085
 -0.40653196  0.4079398  -0.18562038 -0.27010223  0.413576   -0.51193315
 -0.5803618  -0.751907    0.50737315 -0.00817837 -0.6447992  -0.01318017
  0.7239225  -0.2310601  -0.09658083  0.5463388 ]
[ 0.44352207  0.50603527 -0.68370104 -0.22177097  0.6971625  -0.81351495
 -0.19509302 -0.57132906  0.7891806   0.03266151  0.6879257  -0.5513868
  0.7312113  -0.4508125   0.8810696  -0.03502902 -0.7570892  -0.65267503
  0.00846026  0.6382235   0.29548487  0.82397443 -0.74598134  0.17115872
 -0.45613658 -0.47008973 -0.6323068  -0.5497557  -0.22284804 -0.7646717
 -0.6946625  -0.5634508   0.63124317  0.5913389  -0.9142435  -0.18472986
  0.7099744   0.2429928   0.17259903  0.5549385 ]
[ 0.54313874  0.8079226  -0.5567239  -0.184652    0.12561865 -0.6992913
 -0.54242766 -0.6847076   0.5591586   0.01990103  0.0803141   0.0911731
  0.46478015 -0.7437652   0.88092077 -1.0471076  -0.7064882  -0.6601692
 -0.84784293  0.81980586  0.6115104   0.69436246 -0.626218    0.47767407
 -0.5727881   0.39244595 -0.6049505  -0.6965523   0.22635545 -0.54842484
 -0.9247751  -0.8091277   0.7565589  -0.44978705 -0.6648003  -0.10607621
  0.8532877  -0.62857014  0.29797474  0.722197  ]
[-0.17269722 -0.43621102  0.44078857  0.26510182  0.33247426  0.35335463
  0.5531449   0.59586054 -0.5085465   0.34130082  0.05387564  0.01963635
 -0.3161852   0.5315322  -0.47825155  0.21282418  0.4352811   0.61626095
  0.48221457 -0.43717837 -0.93713254 -0.5957379   0.4938196  -0.3345228
  0.49879292  0.43213576  0.45219496  0.47899058 -0.22610824  0.44809443
  0.3932598   0.40766373 -0.2409253  -0.5777243   0.66329944 -0.1821073
 -0.14112966  0.44082597 -0.3178795  -0.5688802 ]
[ 0.73292845  0.7530668  -0.36663932  0.4087447   0.02885297 -0.26670113
 -0.43533912 -0.71552664  0.8650115   0.21345381  0.0073907   0.19022387
  0.5667008  -0.65727574  0.5425572  -0.6422525  -0.6951577  -0.74675536
 -0.66966665  0.60669625  0.7341427   0.7457574  -0.648795    0.51610494
 -0.36216018  0.01598386 -0.42078352 -0.4128944  -0.0907404  -0.23585787
 -0.69925165 -0.69629186  0.5657036  -0.11103024 -0.7171007   0.01832514
  0.66770595 -0.23712426  0.31311497  0.350766  ]
[ 0.23653218  0.23726618 -0.30664763 -0.21858042  0.25347453 -0.38998505
 -0.27788773 -0.43192223  0.50584626  0.05135283  0.25895151  0.22039993
  0.32523447 -0.27571192  0.40047577 -0.83323324 -0.26890966 -0.32908383
 -0.6573619   0.36261302  0.21654132  0.2902805  -0.3857341   0.2222265
 -0.42719123  0.01237878 -0.32134795 -0.28654858  0.19017574 -0.24901357
 -0.24487568 -0.4780248   0.39781108  0.24467896 -0.14779691 -0.39431795
  0.3266057  -0.3351723   0.4218456   0.52621263]
layer 3 Activation
tanh
layer 4 Dense
40 20
[ 0.04526385 -0.3186161   0.12976132 -0.08319376  0.18688066 -0.22451502
 -0.22325523 -0.5540372  -0.06070254  0.14103144  0.08558544  0.30921766
 -0.03298077 -0.6449657  -0.08657536  0.12188951 -0.28375506  0.17256023
 -0.00940837  0.0767078 ]
[-0.6712137  -0.47866637 -1.0395262   0.69060993 -0.9664449  -0.30610746
  0.92572725 -0.5285203   0.7544565   0.7009087   0.67636204  0.21442027
  0.8337526  -0.14098376 -0.75630957 -0.6132017   0.65159065 -0.50783044
 -0.84758407 -0.6175974 ]
[ 0.8503991   1.0298547   0.8028383  -0.89539176  0.9111929   1.0507528
 -1.1443857   0.5007665  -1.4694873  -0.992727   -0.7890999  -1.119708
 -1.2401732   0.25139418  0.83018947  1.0824612  -1.1681417   1.1111687
  0.99853534  1.0765684 ]
[-0.4120526  -0.6336921  -0.6487608   0.43882322 -0.5027419  -0.02211978
  0.44254765 -1.0659375   0.08314283  0.20050097  0.6856283   0.18635122
  0.29537186 -1.2102385  -0.22988077 -0.05732092  0.35242903 -0.36409456
 -0.5189095  -0.1961698 ]
[ 0.38116944 -0.01222673  0.26313958 -0.29134062  0.19716059 -0.01826362
 -0.32179797  0.48459822 -0.26083893 -0.16938943  0.02556948 -0.22128123
 -0.48751718  0.3622761   0.06912033  0.05811429 -0.11844439 -0.1537234
  0.3645364   0.1463932 ]
[ 0.8641826   0.07376566  0.52528983 -1.0777439   0.7643805   0.77086866
 -0.5201804   0.5508524  -0.6145259  -0.67773217 -0.26476505 -0.82465523
 -0.72990394  0.30586988  0.47070804  0.60821843 -0.40375236  0.86489654
  0.3736818   0.8221238 ]
[-0.2159819  -0.191461   -0.21248062  0.16538951  0.18023412 -0.23965436
  0.19478098  0.1261846   0.0010581  -0.16812384  0.03171796  0.16695319
 -0.06228644  0.2778634  -0.02993856 -0.11470962 -0.03381757  0.07114366
 -0.05884151 -0.315354  ]
[ 0.9904206   1.5595433   0.93178475 -0.7864829   1.1635728   0.5507821
 -0.76455134  0.2521361  -0.68626237 -1.0241325  -0.77556735 -1.0822326
 -1.0877918   0.45476466  0.93240625  0.82235    -0.756099    0.78385544
  0.7260271   0.7912571 ]
[-0.08530538 -0.16481861 -0.1425137   0.00100639 -0.22657223 -0.31813738
 -0.21697061 -0.43678868 -0.3596497  -0.24528629 -0.15293048  0.14992821
  0.11311271 -0.6861767  -0.24977623  0.3217252   0.0088509   0.0692799
 -0.01362183  0.2520325 ]
[-0.1556139  -0.20782581 -0.2518407   0.14982904 -0.00413198 -0.21848229
  0.17395093 -1.1829581   0.8709762   0.06559777  0.01422916  0.39805242
  0.21807224 -1.0899214  -0.31163156  0.01628612 -0.21742618 -0.21437834
 -0.4969713   0.04613097]
[ 0.0390792   0.3217502   0.23579243 -0.13310903  0.23316906  0.40519783
 -0.3344689   0.27879393 -0.1769552  -0.68679816 -0.19772482 -0.17454404
 -0.30110517  0.20733055  0.32842246  0.45192406 -0.28175595  0.07311638
 -0.16318697  0.40585262]
[ 0.22080961 -0.19458804  0.42774633 -0.41285825  0.4208199   0.03645884
 -0.15026739  0.7447307  -0.29154494 -0.34227693 -0.20398845 -0.40231526
 -0.68712485  0.640941    0.2647131   0.20477389 -0.72176045  0.60497326
  0.45796537  0.15086186]
[-0.92961717 -0.67173946 -0.78488183  1.0195389  -0.82194775 -0.9230495
  0.77616084 -0.3160139   1.1273128   0.87811375  1.0435162   0.8711267
  0.8596249  -0.21955745 -0.86186683 -1.2169573   0.79796594 -0.8674203
 -1.1025164  -0.7888071 ]
[ 0.68164945  0.8899147   0.52021486 -0.57262915  0.5400398   0.72044873
 -0.52979827  0.32749477 -0.5129271  -0.5819441  -0.6794816  -0.89141536
 -0.49675813  0.19420479  0.7013484   0.6243041  -0.7948066   0.7222665
  0.32829517  0.57682496]
[-1.0801789  -1.3757287  -1.116614    0.8865288  -1.0812597  -1.3897827
  1.1551464  -0.3045558   1.1594192   0.9875449   1.3340404   1.2212796
  1.2851906  -0.21051602 -1.1194451  -0.81617194  1.3361025  -1.3425695
 -1.2008978  -1.1231146 ]
[ 0.49517453  0.5426884   0.01388781 -0.2916442   0.21581607  0.4493861
 -0.42830142  0.7846913   0.36698437 -0.48075023 -0.6035245  -0.871837
 -0.4821388   0.9395656   0.3825883   0.62682027 -0.3248094   0.27004322
  0.35621282  0.18450186]
[ 0.03841838  0.01506767  0.01853082  0.01226811  0.08246955  0.23420443
 -0.03303947  0.23689272 -0.35405254 -0.15338302 -0.39595008 -0.0642136
 -0.12807482  0.27364427  0.05527968 -0.0397985  -0.02400748  0.25770035
  0.07348738  0.11819015]
[ 0.6355153   0.48364314  0.9704436  -0.6064596   0.42780852  0.58902967
 -0.32784805  0.3473748  -0.189021   -0.3314938  -0.56226194 -0.56828326
 -0.30642483  0.44307485  0.3951092   0.6266414  -0.4470564   0.46917754
  0.2215357   0.5487049 ]
[ 0.32082134  0.5506614   0.33933875 -0.51173466  0.30099648  0.4699915
 -0.6055081   0.8590226  -0.3883536  -0.4667943  -0.5314281  -0.5777463
 -0.0390354   0.6968234   0.29597798  0.60042846 -0.47684363  0.19932526
  0.01724914  0.46308103]
[-0.9200484  -0.8819216  -0.7687169   0.9888014  -0.8355556  -0.98006374
  1.0158223  -0.69432324  0.9866123   1.2969191   0.9620331   0.9679931
  0.9871422  -0.3378226  -0.7829833  -0.9082814   0.9872085  -0.9893931
 -0.5613356  -0.9945186 ]
[-0.77480537 -0.72226435 -0.3569453   0.5479135  -0.8648237  -0.2526554
  0.28163743 -0.888815    0.63692355  0.7259018   0.48861483  0.47551546
  0.7035462  -0.86208224 -0.2959052  -0.3222926   0.6103122  -0.16643734
 -0.2647783  -0.37704003]
[ 0.05685205 -0.21473254  0.07734837  0.03343679 -0.09986859 -0.5141539
 -0.08723912  0.04512762  0.5929922   0.20051341  0.33172846  0.10983948
  0.38904315 -0.07035347  0.02390314  0.1238235   0.32865733 -0.6815004
 -0.2799472   0.14319448]
[ 1.4069197   0.7808138   1.1771269  -1.0642577   1.1644572   0.9033804
 -1.1659741   0.45970994 -1.350365   -1.0911993  -0.9026811  -0.6880373
 -1.1518478   0.24745528  1.1872193   1.0157378  -0.99163204  1.0607066
  0.8438961   1.1535242 ]
[-0.07890114 -0.06334339  0.28689355 -0.20013288 -0.22071412 -0.03575805
 -0.15841025 -0.3211492   0.13160513 -0.27615473 -0.12118175  0.09863891
  0.12730147 -0.52268505  0.3173049   0.2335463  -0.11491751 -0.2101013
 -0.06128536  0.00666815]
[ 0.26629514  0.3484082   0.23972724 -0.26487398  0.47309667  0.50492084
 -0.14172095  0.2751251   0.3591903   0.21407315 -0.12099069 -0.10519921
 -0.19939184  0.34602827  0.1523634  -0.40187165  0.01545677  0.26241463
  0.13665058  0.09495527]
[-0.24800682 -0.5545914  -0.3221525   0.45405146 -0.10748239 -0.5060048
  0.3599095  -1.2412106  -0.3387793   0.09558985  0.18945526  0.7332645
  0.08458272 -1.1770527  -0.23223455 -0.66634023  0.15293029 -0.46131724
 -0.40890148 -0.3853486 ]
[ 0.9002542   0.76058483  0.7852202  -0.87474394  1.0620966   1.1735945
 -0.6804781   0.4352195  -1.0180043  -0.8949894  -0.6315752  -0.9692056
 -0.6885716   0.15675023  1.1859092   0.8133162  -0.7532467   1.1069394
  0.9131503   0.72706956]
[ 0.20641722 -0.06086202  0.41919252 -0.316561   -0.09923344 -0.2526573
 -0.23415467  0.5927654  -0.5972008   0.06357586 -0.00587913 -0.21901585
 -0.09494472  0.2899845  -0.0962431   0.08025791  0.40185353  0.32398558
  0.30367672  0.23903246]
[ 0.05910272  0.17261158  0.36269903  0.00634394  0.26193386  0.05852826
 -0.04534789  0.5786066  -0.79678404  0.0683757  -0.35441267  0.0524283
 -0.06073264  0.16623423  0.17531236 -0.31191394 -0.25411528 -0.00153292
  0.01715675  0.06816011]
[ 0.15739454  0.41867366  0.16808306 -0.34437862  0.38188544  0.10687529
 -0.334376    0.20757037 -0.15799715 -0.00316206 -0.01148043 -0.24403355
  0.04625848 -0.00721866  0.47001627  0.44166347 -0.3369771   0.14078327
  0.0754384   0.05905651]
[ 0.39036846  0.47692186  0.6638503  -0.42921883  0.3209087   0.4975499
 -0.67263585  0.43393368 -0.671236   -0.45354256 -0.6318445  -0.5802858
 -0.33894864  0.04196477  0.60164577  0.596917   -0.02387358  0.5669557
  0.731586    0.3984326 ]
[ 0.6321131   0.6599614   0.31558925 -0.43789548  0.26397908  0.36874616
 -0.65280473  0.8790726  -0.323073   -0.30750415 -0.38585737 -0.628187
 -0.57214993  0.81525296  0.506049    0.34332377 -0.24688384  0.29358333
  0.49210382  0.57029796]
[-0.58627206 -0.84511346 -0.9062752   0.8953243  -0.63038516 -0.8182212
  0.42120528 -0.26935482  0.71254176  0.8889202   0.78810805  0.4493597
  0.349169   -0.2338866  -0.77234125 -0.9969369   0.6889884  -0.96514875
 -0.5874184  -0.98577344]
[ 0.2252305   0.07465819  0.4613667  -0.09476691  0.21564597  0.40496466
 -0.24090716  0.61951506  0.01320117  0.03820742 -0.14280422 -0.33865008
 -0.02628789  0.52676207  0.1885787   0.35133308  0.00326094  0.2858426
  0.42267567  0.42271173]
[ 0.6752415   0.9636536   0.69253844 -0.7853897   0.939276    0.66222167
 -0.9062385   0.3070335  -1.2053756  -1.0308201  -0.9544011  -0.8149957
 -0.7787702  -0.02960307  0.89736915  1.0952526  -0.9165112   0.8243172
  1.0806499   0.88757896]
[-0.5092918  -0.4017555  -0.33362284  0.31092387 -0.41911387 -0.27340278
  0.24285848 -0.4055014   0.02909369  0.4833782   0.5791466   0.07487999
  0.58214337 -0.57184684 -0.34479862 -0.15825237  0.5891208  -0.383721
 -0.32663083 -0.16986382]
[-0.1845653  -0.82339966 -0.03892583  0.33585382 -0.32848057 -0.52725244
  0.37084463 -0.12377624 -0.2167981   0.26549527  0.42297658  0.9364769
  0.27110615 -0.1165692  -0.31664458 -0.4769661   0.37711978 -0.15296912
 -0.30492482 -0.35452765]
[ 0.24472077  0.14362568  0.1182878   0.06520391  0.00230831 -0.04914431
 -0.20787069  0.20351738 -0.00247612 -0.2227467  -0.07321191 -0.02373241
 -0.10464581  0.13567923  0.27485952 -0.12699363  0.00373261 -0.03323923
  0.10236866  0.11674152]
[ 0.2901005   0.04711402  0.36433208 -0.3993919   0.26847875 -0.08960797
 -0.5304214   0.55957067  0.07568136 -0.4842872   0.00903583  0.03520504
 -0.20881778  0.40032434  0.21834762  0.49221918 -0.4419667   0.03307999
  0.17966652  0.18984252]
[-0.4834491  -0.52371323 -0.23989189  0.52009624 -0.3341478  -0.7880264
  0.37107882 -0.45746103 -0.37855846  0.26527756  0.01761503  0.03878844
  0.17729357 -0.6749866  -0.3246434  -0.12703452  0.00447501 -0.03240101
 -0.12154155 -0.15512587]
[-0.44179446 -0.22120704 -0.22036609  0.34999147 -0.3508511  -0.30899745
  0.21801797 -0.39978147  0.5784148   0.36935663 -0.0348606   0.2833407
  0.38717622 -0.5336466  -0.09407266 -0.16821314  0.28833604 -0.46031323
 -0.07547092 -0.21992932]
layer 5 Activation
tanh
layer 6 Dense
20 1
[1.8156255]
[1.769061]
[1.7613043]
[-1.7160443]
[1.8629745]
[1.8271917]
[-1.8061575]
[-10.475993]
[-1.8071667]
[-1.7783316]
[-1.8449417]
[-1.7677714]
[-1.8282601]
[-10.66168]
[1.8393499]
[1.7448057]
[-1.8333678]
[1.7784793]
[1.9115069]
[1.8129265]
[11.3632555]
