layers 7
layer 0 Dense
20 20
[-0.0432602  -0.01799657  0.16560845 -0.22819088 -0.19692299 -0.5581425
 -0.5001996  -0.27907172 -0.34160182 -0.1420228  -0.17196217  0.08065718
  0.2924284   0.36169887  0.24555832  0.48958063  0.01028302 -0.11766521
 -0.7666318   0.15037072]
[-0.31407797 -0.54373723 -0.3318269   0.29556367  0.9068068  -0.34074453
 -0.83591604  0.76533335 -0.76824176  0.7327526   0.2069522   0.00800588
  0.3245338  -0.34674436 -0.30731273  1.409256   -0.5625454   0.65081125
 -0.8197757   0.1823181 ]
[-0.20003764  0.06025039 -0.42117658  0.6670949   1.2078006  -0.14720394
 -0.7805826   0.15705994 -0.35391897  0.39981562  0.35216275 -0.04903195
  0.17513604 -0.22878823 -0.13569199  1.4864352   0.14774878  0.66614306
 -0.6568529   0.09710852]
[-0.00358683 -0.20705387  0.5685451  -0.1713818  -0.3681771  -0.49953237
 -0.7478762  -0.5013644  -0.3396456  -0.21339172 -0.26091307  0.0290172
  0.5117727   0.27191842 -0.12073343  0.729469    0.00136632  0.04944602
 -0.7855915   0.3442909 ]
[ 0.83133906  0.14359955  0.06460272 -0.24283862  0.47547117 -0.0581506
 -0.07951992 -0.4050973   0.09520496 -0.26627815 -0.15015188  1.0202807
 -0.07392807 -0.27379435  0.01167811  0.01249093  0.48560745  0.32990378
 -0.08291376 -0.40109894]
[ 0.02872803 -0.1067114   0.41223752 -0.31734923 -0.84669524  0.5784682
  0.5569904  -0.6204089   0.8458888  -0.8169885  -0.07644351 -0.04650658
 -0.4534449   0.40366286  0.22496158 -0.5754567   0.03645172  0.06227051
  0.49003616 -0.21975072]
[ 0.399317    0.4827986  -0.0630291  -0.8056214  -0.89839256  0.41420954
  0.9543375  -0.69148886  0.26910114 -0.8555238  -0.36052257 -0.06246803
  0.08908305  0.16927265  0.42009023 -0.550501    0.21952371 -0.32556474
  0.7547863  -0.5706272 ]
[-0.67610157 -0.2939705  -0.525836    0.31421238  0.1746782   0.52398926
  0.65155566  0.12856632  0.4710312   0.01040023  0.65529406 -0.4205339
 -0.16004387 -0.17048211  0.5916839  -0.6270078  -0.44932047 -0.7280737
 -0.26618248  0.16614312]
[ 0.05322986  0.12684591 -0.27957904 -0.8246622  -0.8480349   0.23625953
  0.55773985 -0.06986874  0.09099935 -0.00685732  0.19522065  0.37163526
 -0.534103   -0.03802297 -0.68454057 -0.8911107   0.99316776 -0.25093862
 -0.47195092 -0.9353625 ]
[ 0.9144241   0.7230827  -0.15309575  0.46632862  0.4445595   0.09856586
 -0.09634949  0.54169816  0.19735537 -0.9208511  -0.4897902  -0.26171428
  0.01143885  0.7018844  -1.095694   -0.2065169  -0.3262182   0.20248856
 -0.47295997  0.4253484 ]
[-0.19005434 -0.76222515 -0.40387788  0.31669852 -0.1137915  -0.16256157
 -0.8143441  -0.5702736   0.1975767   0.02104281 -0.159084    0.31267294
 -0.05102064  0.17735167  0.15883367 -0.42304114 -0.06544893  0.0763907
 -0.2605663  -0.11588662]
[-0.51084584 -0.42670587  1.4378787  -0.7869899   1.7939314  -0.5274255
 -0.4266214   1.3455018   0.9241366  -0.0300729   0.8056193  -0.135202
  0.77028394  1.022655    0.5097594   0.6750704  -0.968084   -0.13131787
  0.43794665  0.54295236]
[ 0.73133254  0.13045405  0.34932923 -0.16844471  0.5545701  -0.50209355
 -0.07616869  0.07176875  0.13528699  0.49466375 -0.26512423 -0.2739944
  0.65764165 -0.04804477  0.3118288  -0.3573574   0.1406739  -0.03363587
 -0.4796886   0.3825035 ]
[ 0.4200309   0.74455756 -0.12441225  1.1895092  -1.4678739  -0.11558867
 -0.14101756 -0.92022043 -0.89927346  1.3426707   1.5476117  -0.5736201
  0.5392679  -0.07424452  0.21224113  0.19312426 -0.1495215  -0.4621916
 -0.4019562   0.16326174]
[ 0.7995485   1.1433219  -0.7777639  -0.8937999  -0.11480954 -0.07426537
 -0.33703858  0.87084293 -1.0293581  -0.27995712 -0.5155028  -0.823116
  0.8925126  -1.2499472  -1.0778236   0.11590546  0.89501125 -0.39835125
  0.06898591  0.29831916]
[ 0.18867373  0.37838152 -0.4959079   0.04787731 -1.6087843   0.95958066
  0.860314   -1.5149456  -1.1692885  -1.448754   -1.0891224  -2.0949767
 -1.0087342  -0.8420239  -0.37792113 -0.48270762  0.6528049   0.16441171
 -1.7768941  -0.04470475]
[ 0.50974387 -0.00221168  0.10552246  0.20301843  0.12572631 -0.01118223
  0.2985056  -0.03681882 -0.06048548  0.2001954  -0.24420737  1.0151088
 -0.6051372   0.44830748  0.1595715  -0.41178507  0.33582073  0.35245377
  0.44003215 -0.4818766 ]
[-0.9760602  -0.9028841  -0.2015843  -1.5949033   0.37631288 -0.15369983
 -0.00554213  0.57363635 -0.03493088 -0.67654747 -0.8846216  -0.11582922
 -0.3101332  -0.28953633  0.7220028   0.4314958   0.723958   -0.0261554
  0.8417312  -1.309704  ]
[-0.4671807   0.32965386  0.6396199   0.44517425 -0.04430586  0.08305665
  1.2775817  -0.49412242  0.6955313  -0.20283677  0.34001303 -0.2719513
 -0.31601924  0.3073239   0.17735979  0.36790374 -0.98006886 -0.03401808
  0.15109375  0.57149965]
[-0.93527716  0.1535646  -0.5524971   0.12934221  0.43180427 -0.01435907
 -0.2814188   0.95664674  0.39164338  0.08040163  0.8132265   0.38723725
  1.081773    0.63984674  0.6070215  -0.2633482  -0.41386187 -1.1604776
  0.01743808  0.20183823]
[-0.01800522  0.00580732  0.5467685  -0.18590775 -0.01246288 -0.29289362
 -0.49575657 -0.16583899 -0.03468341 -0.03182883 -0.26429883 -0.01318363
  0.19481975 -0.1765067  -0.37926528  1.0259359  -0.14635757  0.18846738
 -0.15278907  0.26132885]
layer 1 Activation
tanh
layer 2 Dense
20 40
[-0.28272992 -0.30023438 -0.08621211  0.07430275 -0.10274807  0.21292491
  0.11353941 -0.20238148 -0.67279035 -0.22331247  0.59831744  0.19366908
  0.2812762   0.26701358 -0.5527612  -0.23247981  0.4759598  -0.40511808
 -0.06738544 -0.0255787  -0.5840216   0.09059264 -0.32031506  0.32641923
  0.15432005  0.15774186  0.05985653  0.72542566 -0.3519177  -0.09045026
 -0.28505456 -0.12200595 -0.6304385   0.3355924   0.6553006   0.6143228
 -0.07556248  0.5527986   0.05807476  0.3972815 ]
[-0.04149257 -0.06660485  0.13834567 -0.47687432  0.09470276  0.37919167
 -0.6988364   0.01522084 -0.13178486 -0.46419403 -0.12573633 -0.02697477
 -0.22339879  0.05884356 -0.3370802   0.02029229  0.48012257 -0.11149985
  0.15297553  0.25796264 -0.22472708  0.18610135 -0.0044638   0.2504482
  0.6701953  -0.03275821 -0.23683734  0.00379732  0.15476343 -0.35323972
  0.3568677  -0.09679399 -0.2516833  -0.06135469  0.44104     0.29172316
 -0.30219144  0.11318951 -0.23445232  0.20854028]
[ 0.44895765 -0.33393875 -0.33482042  0.4958211  -0.14797175  0.16819394
 -0.14181323 -0.48152196 -0.54246664  0.3732526   0.41521522  0.18053417
  0.4445026  -0.46108472  0.77519584 -0.46266466  0.10464333 -0.25256276
 -0.1159519  -0.12485871  0.12842557  0.31252468 -0.3031655  -0.46847117
  0.01250597 -0.6475494  -0.36792436  0.45802492 -0.36068293  0.36011556
  0.04436539 -0.8724088   0.01153972  0.53798145  0.23714164 -0.20332451
  0.54032075  0.31020406  0.21903403 -0.47976556]
[ 0.34069103 -0.5389456  -0.16237725  0.2951107   0.25802654 -0.31928903
 -0.43605027 -0.24413684  0.03408604  0.5861038  -0.48454842 -0.35928187
 -0.46894532 -0.47702283  0.3200384   0.10853503  0.10552802  0.61870706
 -0.03790174 -0.07730779 -0.09352156  0.29137057  0.07197998 -0.18476057
 -0.25416744  0.14904867  0.12343404  0.150596    0.16881438  0.2883006
  0.5947298   0.8080521   0.6534427  -0.11770946 -0.02065193  0.4311476
  0.07984094 -0.55676365  0.1863495  -0.05376668]
[ 0.6733146  -0.2971576  -0.24968053  0.04243434  0.27834547  0.07441775
 -0.20299092  0.37332982  0.93240714 -0.02811795 -0.09703519 -0.27661285
  0.18611267 -0.16493891  0.45715636 -0.03679445 -0.15662526 -0.04372277
  0.4585121  -0.31524915  0.41456977 -0.51994306  0.21961236 -0.32384476
 -0.27723786  0.00889958  0.02351252 -0.12785658 -0.07254692  0.45895314
 -0.03822508 -0.35320842  1.1950742  -0.29949576  0.5093525   0.29038262
  0.11892045  0.66896826  0.78759843 -0.7495692 ]
[-0.17751333  0.10677601  0.49818102  0.4321794   0.23415257  0.01732967
 -0.5113128   0.55217683  0.62955076  0.06084413 -0.24970382 -0.16152981
 -0.34342274  0.12494326  0.28520617  0.47728702  0.55637354  0.2901647
 -0.21075876 -0.02809828  0.36945078  0.2574209   0.31724164 -0.22016829
 -0.31627026  0.00580301  0.48804182 -0.4147771   0.690098   -0.12988184
  0.0115188   0.26842925 -0.01627059 -0.56603366 -0.52850664 -0.20408884
  0.40494415 -0.02369959  0.47823328  0.01803552]
[-0.46480265 -0.09792514  0.8676858  -0.1043079   0.4476236   0.07183971
 -0.2835583   0.464       0.09457105 -0.12246977 -0.22706123 -0.24086872
 -0.7325073   0.15216874 -0.07534965  0.30506578  0.17512877 -0.01338055
 -0.5234152   0.16456583  0.16213815 -0.34067497  0.4072897  -0.02548611
  0.03054932  0.42050493  0.290336   -0.4865775   0.79425824 -0.1532179
  0.57425565  0.46725717 -0.00095434 -0.5452842  -0.44803274 -0.8107791
 -0.19578311 -0.11076459  0.3013137   0.38307738]
[ 0.79773563  0.40589756 -0.35732606  0.21554145  0.31343177  0.00311336
 -0.2513343   0.00203348  0.41971067 -0.10953798  0.3387189   0.27277622
  0.10972776  0.34385097  0.43520907 -0.318043    0.16921838 -0.0969461
  0.6814791  -0.16222897  0.12520543 -0.20443015  0.4673696  -0.10991126
  0.581946    0.19659032  0.08647777 -0.33354533 -0.20170403 -0.00446243
 -0.10855217 -0.32312447  0.5831249   0.23013338  0.0913097   0.3509002
  0.01140085  0.5396147   0.6514586  -0.36586857]
[ 0.07004361 -0.34421444  0.23654416  0.04803737  0.3247776   0.12569848
 -0.3546149   0.15520588  0.22228199  0.5448647  -0.33605704 -0.10926768
  0.00219428 -0.22155686  0.5285777  -0.06222685  0.26656666  0.417189
 -0.25469565 -0.50180835 -0.25533813 -0.15816413 -0.11474166 -0.15680179
  0.07650876  0.1939123  -0.05974556 -0.07113428 -0.1888926   0.24596158
  0.53129387 -0.21902622  0.14491485 -0.06468388  0.09579986  0.1215837
  0.17133266  0.33180362  0.4091553  -0.45608336]
[ 0.26132438 -0.6032479  -0.38085547  0.4940838   0.37795085  0.01146269
 -0.45569274 -0.26488304  0.1239083   0.3622815   0.38157588 -0.26942444
  0.8426709   0.3261713   0.36496207 -0.11748021  0.23557608 -0.40227693
  0.73278576 -0.32926044 -0.22389202  0.29040956 -0.3515285  -0.3250688
  0.39850923 -0.15683156  0.17875482  0.40255904 -0.2316902   0.44138494
 -0.30528468 -0.6919168  -0.2623127  -0.06859119 -0.04564615  0.18810207
  0.04620948  0.7141969  -0.27916703 -0.58884704]
[ 0.3787984  -0.97028226 -0.16272105  0.22293891  0.07390137  0.26736602
  0.09733956  0.3206759  -0.10719406 -0.09542353  0.3240847   0.01117596
  0.38038343 -0.32527095  0.57735336 -0.02693271  0.09805977  0.27545792
  0.30675077  0.20243895  0.22291936  0.24887067 -0.07942405 -0.44744462
  0.17480984 -0.10732181  0.46566367 -0.01458906 -0.0660795   0.22560646
  0.09208508  0.10880572 -0.12538512  0.0398519  -0.03768929 -0.15864085
  0.23161292 -0.13849747 -0.38361657 -0.21720615]
[ 0.59609133 -0.05358782 -0.48343384 -0.05231839  0.12722091 -0.1329068
  0.3164946   0.11288539  0.07889496  0.37073994  0.1176856   0.36189416
 -0.06919044 -0.5661713   0.55397457 -0.55005366 -0.4000308   0.14716004
 -0.06617041 -0.39305922 -0.2523748  -0.12949073 -0.41856328 -0.12716666
 -0.0045396   0.07592383 -0.37670982  0.38926247 -0.59229     0.4389485
  0.24394435 -0.03579476 -0.01071484  0.42129895  0.83530307  0.57089984
  0.31259024  0.3822681   0.2369761  -0.6967223 ]
[ 0.43534246 -0.29385257 -0.5598127  -0.12910073 -0.00400119  0.19812569
  0.03917222 -0.21387564  0.01930067  0.03582922  0.20905016  0.07295891
  0.41663107 -0.24987505  0.05974934 -0.06779584 -0.23667957  0.18068156
  0.5972329   0.16377011 -0.23505986 -0.1047933  -0.54841465 -0.35280424
  0.5639298  -0.04255432 -0.32714382 -0.15801644 -0.40753236  0.35717157
 -0.13796733 -0.3615784  -0.298919    0.31270534  0.26945847  0.66037506
  0.15575878  0.6529424  -0.23117957 -0.03652161]
[ 0.22829223  0.19373551  0.31834522  0.22186926 -0.31302232 -0.05579599
  0.13724563 -0.31505173 -0.23673204 -0.18474196 -0.3901543   0.06763091
  0.12825479 -0.05854674  0.72183937  0.02103815 -0.07793136  0.08116915
 -0.04531411 -0.8815273   0.34503525 -0.1262873  -0.32037458 -0.39289722
 -0.16020456 -0.24421656 -0.13066642  0.15028861 -0.21312712  0.1575646
  0.6773985  -0.24135764 -0.7526583   0.3224441   0.24602196  0.29599524
  0.27170855 -0.72714347  0.60456556 -0.777598  ]
[ 0.09930678 -0.24288478  0.14003906  0.09425379  0.03300812  0.19086893
  0.27623934  0.29395708  0.38524917  0.06013843 -0.50733536 -0.37281242
 -0.28874716 -0.07584853  0.36315474  0.22333616 -0.48820475  0.67586267
 -0.5439344  -0.24254484  0.7686644  -0.54757494  0.48385945 -0.14965437
 -0.40723127  0.29548547  0.43538997 -0.23933172  0.5014385   0.4905944
  0.22977504 -0.22003287  0.41939712 -0.5009426  -0.17113744 -0.23183502
 -0.03113656 -0.5790035   0.1551131  -0.54569536]
[ 0.6698916   0.3227081  -0.7393302   0.05057331 -0.36712325  0.03813317
  0.461764   -0.9339185  -0.7172963   0.24442858  0.36834544  0.7758422
  0.36185768 -0.02382263  0.53368896 -0.7370033  -0.2569774  -0.5324839
  0.38748062 -0.00999825 -0.56151664  0.3288704  -1.1115674  -0.26295945
 -0.4235607  -0.52035964 -1.0542495   0.9182222  -1.3929151   0.5620284
 -0.17579076 -0.9379486  -1.090113    1.0994422   0.82156956  1.3768154
 -0.02617004  0.6393098   0.25118303 -0.8361741 ]
[-0.4700675   0.09987319  0.06537626 -0.28620103  0.16414557  0.13810588
  0.14340854  0.04690117  0.09614576 -0.47914317  0.5200769  -0.21478128
  0.19046862  0.20152618 -0.84759706  0.31356665  0.28680918 -0.37876865
  0.19196291  0.6705143  -0.29049972 -0.34555802  0.4667639   0.56183225
  0.13327551 -0.43380144 -0.12904489 -0.66856813  0.44424704  0.01172922
 -0.945901   -0.5228665   0.01140604 -0.1804934  -0.16344392 -0.54722124
 -0.36701563  0.29968137 -0.5307748   0.75902164]
[-0.22327071  0.31924736 -0.2530906   0.03114475 -0.44337487 -0.5294959
  0.601982   -0.60850066 -0.40840402  0.11501845 -0.15374306  0.4519483
  0.1875136   0.14984879 -0.23995914  0.06805663 -0.10733762 -0.4561054
 -0.09443375  0.1601793  -0.14138202 -0.28047544 -0.7404656   0.09547864
 -0.72079664 -0.08875812 -0.39066193  0.05508717 -0.1836878  -0.03574285
  0.06835236 -0.24922608 -0.06550342  0.25776607  0.47628954 -0.0102179
 -0.01435822 -0.18262683 -0.04943509  0.4535144 ]
[ 0.4007238  -0.16126075  0.02919912  0.17599331  0.1374505  -0.2612954
 -0.43006152  0.17933708  0.26031652  0.106521    0.14507377  0.25139806
  0.10580701 -0.15292601  0.6997101  -0.20293331  0.18039535 -0.19822443
  0.10395666 -0.20380545 -0.4888449   0.07328738 -0.2780225  -0.44519052
  0.1453992  -0.09552754 -0.03532992  0.49075064 -0.27151862  0.16628918
 -0.10450877 -0.24996822  0.02996082  0.1834822   0.21899696 -0.29208773
  0.12651095  0.7500585  -0.07649188 -0.39624804]
[ 0.32437202  0.10418071 -0.35994118  0.07473393 -0.32217     0.42394647
 -0.08604475  0.0532332   0.01043295  0.4386956  -0.07179032 -0.0390003
 -0.23738468 -0.12953845  0.20517536 -0.16373995  0.3487718   0.07902831
  0.293561   -0.13781437  0.16741502 -0.23463948 -0.4499579  -0.05105691
 -0.19192033  0.2974028  -0.28792974  0.18761885 -0.3827367   0.20169616
  0.24940565  0.15370652 -0.1571456   0.39751652  0.68711436  0.25132555
 -0.19704713 -0.00235857  0.3914166  -0.22316937]
[-0.19292967  0.26577035 -0.22478226 -0.06087841 -0.52951694 -0.21918893
  0.49827594 -0.4370925  -0.60807776 -0.02196125  0.03230174  0.32410255
  0.06958383 -0.08600575 -0.09343372 -0.17876726 -0.3114647  -0.08592561
 -0.0374976   0.22847603 -0.30427086  0.03380125 -0.49207175  0.16863589
 -0.07032257 -0.22267406 -0.47339916  0.40099442 -0.47836673  0.06179222
 -0.07755879 -0.31395513 -0.4504001   0.4755782   0.3167111   0.26384756
 -0.02931671  0.00502555 -0.10584034  0.15523212]
layer 3 Activation
tanh
layer 4 Dense
40 20
[-0.16649623 -0.026237    0.32732183 -0.06716682 -0.00754917  0.05895429
  0.37214553  0.00444332  0.12502703  0.1084206   0.14260508 -0.13672772
 -0.15181877  0.33574256 -0.02218879  0.24708715 -0.358608   -0.09253449
  0.26140797 -0.22290987]
[ 0.07194564  0.10894282 -0.49750742 -0.38816395 -0.496368    0.19462469
 -0.3805721   0.26141426  0.2272122  -0.09798569  0.06358055  0.01516564
  0.19210576 -0.15277891 -0.42311603  0.18422717  0.81866664  0.09154169
  0.016205    0.00811808]
[ 6.4953262e-01 -3.5384735e-01 -1.6645893e-02  8.5265636e-02
  1.9192861e-01 -7.8741476e-02 -6.3695633e-01 -1.2215126e-04
  5.5721575e-01 -6.4816892e-01  3.0238837e-01 -7.6004215e-02
  1.7970902e-01 -1.4523414e-01  5.5419464e-02  1.4473732e-02
  3.0241048e-01 -1.5121004e-01 -4.2889366e-01  3.6578891e-01]
[ 0.11651595  0.25428218  0.76879585 -0.09907859  0.43270463  0.0478078
  0.58324796 -0.3132224   0.38654524 -0.04538827 -0.45435202  0.27978042
  0.21446933  0.03736648 -0.26817092  0.18269761 -0.10279723  0.04306656
 -0.10862943 -0.34192157]
[ 0.3277574  -0.14540227  0.44319567 -0.13045748  0.34005123 -0.22582175
  0.49484104  0.06313869  0.02647761 -0.0169345  -0.5037836   0.00212976
  0.04409073  0.4044724   0.57875663  0.16618039 -0.5953118  -0.07689331
  0.0389313   0.17755358]
[ 0.19804843 -0.11964754 -0.37465316  0.18442896  0.21618898 -0.12430607
 -0.2798743  -0.14640464  0.09387845 -0.03620721 -0.08998894 -0.34270382
 -0.09264208  0.29883194  0.17875913 -0.14555909 -0.3252429   0.22996402
  0.17560308 -0.00471176]
[ 0.01330214 -0.00667905  0.02533717  0.15134023 -0.33606142 -0.27991146
 -0.2541268   0.21663529  0.01217674  0.32143706  0.16218476  0.22153406
 -0.18246984 -0.21552055 -0.2568937   0.15582305  0.3771489  -0.18424244
 -0.13320634 -0.09184201]
[ 0.06370211 -0.30093056  0.22861673  0.19261332  0.18518877 -0.30643722
 -0.13984634 -0.30786607  0.1787234  -0.22767434 -0.13880764 -0.3314856
 -0.26823384  0.5515741   0.43985844 -0.12380528 -0.09146888 -0.19157882
 -0.41509566  0.34209675]
[ 6.0740149e-01 -2.7107424e-01 -4.6802619e-03 -3.1195223e-02
  7.6262266e-03 -6.2951982e-01  1.3024561e-01 -9.7972408e-02
 -1.5054598e-01 -6.8998627e-02  3.3194316e-04 -3.2005754e-01
 -3.5595033e-01  6.1416173e-01 -6.8105631e-02  2.1044081e-01
 -1.7016244e-01 -4.2541975e-01 -7.3627040e-02  5.3143322e-01]
[-0.14217187  0.15913138  0.29248628 -0.29581752  0.07734251  0.21413663
  0.1816552   0.11594523  0.07269314 -0.05445329 -0.00282167  0.21461833
  0.0207942   0.20815407 -0.2837574  -0.00876313  0.27671254 -0.07156504
  0.3309406  -0.01501138]
[ 0.07199191  0.04590534 -0.845289    0.10023971 -0.08823417  0.07341851
 -0.00567255  0.3129403  -0.3329044   0.14640595 -0.0267761  -0.06303086
 -0.21295427 -0.13220517  0.12816408  0.2623019  -0.61521286  0.48217833
  0.02358623 -0.09690457]
[-0.13445693  0.02585369 -0.34059834 -0.05250353 -0.3971231   0.25376725
  0.23872624  0.2691136  -0.09509736  0.25074488  0.18150339  0.4668537
 -0.06305584 -0.5304155  -0.18924615  0.19711521 -0.1367468   0.17108274
  0.11588373 -0.22252661]
[-0.28943932 -0.01061631 -0.15226313  0.28913027  0.18817866  0.14902325
  0.5660004   0.00653499 -0.28139877  0.21875644 -0.08302206 -0.14887461
 -0.20227173  0.05925264  0.24915333  0.03989798 -0.39782038  0.36550814
  0.11408407 -0.18982483]
[-0.03511011 -0.1695658  -0.13100944 -0.04725399  0.11341229  0.09820901
 -0.46072572 -0.1741746   0.06315395  0.0588368  -0.1278475   0.28210995
 -0.0757461  -0.22401606  0.14074077  0.3987286  -0.02838646  0.34946114
 -0.20058995  0.1008513 ]
[-0.4044796   0.07669035  0.34916204 -0.38145325  0.70211136 -0.01053883
  0.93220574  0.44778717  0.47458506  0.28690752 -0.35975823 -0.06481205
 -0.22786191  0.17806655 -0.1672317  -0.41553864  0.19360046 -0.05291557
  0.32334557 -0.24942556]
[ 0.00693908 -0.24420266  0.20561847  0.03827928 -0.25314945 -0.49460545
 -0.2513807  -0.24026339 -0.0408697  -0.19313401  0.18420756 -0.2916128
  0.19507144  0.0212234  -0.4064757   0.04703909  0.19362628 -0.30236608
 -0.28877905  0.5763999 ]
[ 0.11994087 -0.25588632 -0.29562885  0.12663637  0.074536   -0.12766285
 -0.03067694  0.16171928 -0.2364413  -0.32077187  0.1028355  -0.10990644
  0.337938   -0.01361792  0.37385306  0.20695843 -0.5401581   0.13722822
  0.07164699 -0.10237896]
[ 0.392348    0.10879002  0.6642471  -0.24759822  0.22941503 -0.28813908
  0.22620144 -0.16041593  0.36484143  0.1838271  -0.05477506 -0.12192798
  0.1545973   0.26524356  0.09197491  0.1347509   0.24062788 -0.4229203
 -0.11496474 -0.03528433]
[-0.5452523   0.12932591 -0.46541524  0.42567125  0.16972908  0.5047172
  0.10142225  0.3027379  -0.6472429   0.4188923  -0.25298667 -0.13425742
 -0.5586494  -0.11910287  0.4694088   0.18219712 -0.74614286  0.37103596
  0.1755961  -0.49286512]
[ 0.1359291   0.13636295 -0.4747853   0.4613892  -0.44310212 -0.45376042
 -0.61433023 -0.15897691 -0.4593686  -0.04313514  0.19835587 -0.46579853
  0.19455774  0.03874703  0.09465864  0.39105085  0.1661801   0.22163574
  0.10647596  0.2828802 ]
[ 0.40956524 -0.1588109   0.5596819   0.14464884  0.34572726 -0.07066364
  0.05218823 -0.14999531  0.27491945 -0.11701042  0.1785578  -0.11488891
 -0.20529708  0.42843506  0.05157293 -0.34741703 -0.3448531   0.03572171
 -0.22227784  0.07861294]
[-0.11092172 -0.11399629 -0.7750869   0.04578287  0.03049517  0.24744365
  0.42135262  0.09720663 -0.00909562  0.05023402 -0.12501702  0.15597783
  0.27558985 -0.06918437 -0.37795463 -0.07286105  0.38356006  0.08390549
  0.10253172  0.07999765]
[ 0.288023   -0.40587488  0.26484948  0.18902364  0.09060039 -0.4402451
 -0.4020687   0.03052177 -0.1893163  -0.3082183   0.24816981  0.03755971
 -0.0873588   0.49080414  0.17457128 -0.11575049 -0.3388706  -0.04356248
 -0.42187062  0.3545649 ]
[ 0.03960043 -0.09532385 -0.30829397  0.34103903 -0.296864   -0.25960246
 -0.70480317  0.11964975 -0.30024964 -0.09927159  0.02564232  0.07519796
 -0.07760627 -0.07376297  0.09544054  0.28918943  0.0166488  -0.09848476
  0.24909355  0.24644813]
[ 0.24989167 -0.04725508 -0.2970476   0.02739369  0.10111342 -0.20804916
  0.44297057  0.12401399 -0.23844852 -0.0327784  -0.10221098 -0.5680758
 -0.09619843  0.02540597  0.7207919   0.25658798 -0.71295726  0.22673729
  0.20178907 -0.24095161]
[-0.12114334  0.13205656  0.36806205 -0.10332128  0.0557633  -0.4622973
 -0.17878576  0.02426492  0.2732661  -0.12895638 -0.20025522 -0.11143097
  0.24555247  0.26526138  0.01554222  0.16474469  0.13551188 -0.4356061
 -0.06509687  0.4321787 ]
[ 0.4516454  -0.26933047 -0.02821469 -0.21410827 -0.17366415 -0.3104923
 -0.22805682 -0.44752052  0.10346235 -0.4582221  -0.07662773 -0.22005445
  0.02460589  0.6480337  -0.02335052  0.01723029  0.3927659  -0.38846242
  0.04341886  0.47272277]
[-0.21899146  0.36651546 -0.47377017 -0.17236106 -0.00931845  0.5940221
  0.27468678  0.16334291  0.10161503  0.17805333  0.02458805  0.29029018
  0.16603826 -0.25026396 -0.3290919  -0.03627464  0.1766544  -0.16158493
  0.18639962 -0.3358577 ]
[ 0.9740456  -0.62729234  0.07538118 -0.23101567 -0.11835893 -0.22946998
 -0.29258138 -0.9399164   0.4330494  -0.8909162   0.18256502  0.06735262
  0.26059204  0.37197104  0.23207709  0.16296758 -0.10526802  0.03624181
 -0.2493988   0.8079469 ]
[ 0.09770387 -0.01035385  0.5989841   0.21433029  0.45877165  0.00666532
  0.36620358  0.19142507 -0.10720977  0.2837913   0.01424797 -0.3720344
 -0.00535391 -0.04665018  0.04168806 -0.21252935 -0.35610068 -0.12956397
  0.06854015 -0.26211882]
[ 0.01451079  0.1378104   0.33442256 -0.35740018  0.16982663  0.1426116
 -0.20971283 -0.34540558  0.22157754 -0.3435926   0.11906431  0.1836775
  0.24355714  0.21738282 -0.34133208 -0.16250394  0.72040474  0.02243518
  0.39577952  0.11426386]
[ 0.12572107 -0.21160516 -0.06983495 -0.05611583 -0.42219114 -0.2653575
 -0.31900728  0.0038051   0.65089196 -0.26846775  0.35397923 -0.32138348
  0.43345186  0.59722215 -0.19354548 -0.1539068   0.7505708  -0.18935397
 -0.59228134  0.3405071 ]
[ 0.12433285 -0.13619974  0.5381785  -0.14053963  0.02628649 -0.39812222
  0.15144277 -0.36143273 -0.26829973 -0.40493083 -0.06037216 -0.39782557
 -0.22765882  0.56159264  0.4879354  -0.14763066  0.13374108 -0.36187533
  0.08531444  0.21899553]
[-0.2467787   0.13540244 -0.17632644  0.02007668  0.2111004   0.505685
  0.09005035  0.34126815 -0.17828284  0.5099045  -0.17287436  0.23754792
 -0.0630224  -0.47855812  0.01725528  0.05617379  0.11630832  0.395797
  0.20698158 -0.6600812 ]
[-0.4890587   0.21599136  0.21550085  0.09550424  0.2507013   0.50191766
  0.01113452  0.04271377  0.21158338  0.17521374  0.00542355  0.11609264
 -0.23726511 -0.5204288   0.40137893  0.01250329 -0.34442326  0.21465085
  0.52827156 -0.17902757]
[-0.16088356  0.10532397  0.12323169  0.18337378  0.09075613  0.6701712
  0.20852566  0.37109977  0.02736521  0.28382227 -0.33626878  0.0711969
 -0.30881312 -0.14535542  0.02371515 -0.08513173 -0.09942789 -0.02716337
  0.53794307 -0.19994377]
[ 0.10205223  0.11721087  0.2520886  -0.30087513 -0.05310223  0.20824634
  0.41016957 -0.0752578   0.17548059  0.10807394 -0.00054438 -0.10026289
  0.06689193  0.2250559  -0.16160835 -0.31117448 -0.146834    0.01994873
  0.09594052 -0.18604653]
[-0.54447556  0.58288985 -0.21354294  0.23395309 -0.2521523   0.12549795
 -0.17320403  0.4373371  -0.33022633  0.39628074  0.11540597 -0.46500343
 -0.03148447 -0.05751612  0.70767504  0.3472493  -0.8124318   0.0847653
 -0.00534777 -0.3091624 ]
[ 0.19764602 -0.21371503  0.38696834 -0.091653    0.6107072   0.28073293
  0.0540009  -0.17751183  0.5084024   0.04620438 -0.18628076  0.07655653
 -0.07142366  0.10278311  0.1409893  -0.33769828  0.09141102  0.17523198
  0.12792562 -0.2740584 ]
[-0.07820892 -0.31804076 -0.8176532   0.43215117 -0.5155048   0.13811731
 -0.76978654 -0.14900781 -0.33719558 -0.2554893   0.51883185 -0.24878576
  0.60382813 -0.33495623  0.34329447 -0.04924097 -0.25946587  0.15193835
 -0.43196186  0.28542525]
[-0.16036567  0.10590418 -0.33299923 -0.11967492 -0.38299057 -0.03577518
 -0.42584243  0.0905426   0.04346397  0.08953925  0.18763791  0.03447374
  0.10001081 -0.25970718 -0.3206299  -0.07493602  0.50688905  0.09870708
  0.09831499  0.05578091]
layer 5 Activation
tanh
layer 6 Dense
20 1
[0.06239305]
[-0.04341825]
[-0.02941261]
[0.01840573]
[-0.02665455]
[-0.11104609]
[-0.05218823]
[-0.12902379]
[-0.01133234]
[-0.13714272]
[0.02495609]
[-0.00318841]
[0.09420447]
[-0.17486909]
[-0.09932864]
[0.00274203]
[0.06621101]
[0.03742811]
[-0.03582424]
[0.1415348]
[0.47878152]
