layers 7
layer 0 Dense
24 20
[ 1.1913784   1.0752256   0.5796643   0.40572903 -0.9761979   0.85755384
 -0.71983445  0.87875706 -0.6687448  -0.66727245  0.03281169 -1.3310549
  1.8489133   1.3723245   0.5307747   0.99145865 -0.6578102  -0.8377492
  0.4597329  -1.1916693 ]
[ 0.48630616  0.48592275  0.12968321  0.70396864 -0.23159091  0.95197177
 -0.7008309  -0.4328003   0.68269473 -0.787187   -0.04868129 -0.7268555
  0.5123588   1.0175984   0.7702186  -0.47144043 -0.49234834 -0.441284
 -0.26137406 -0.16932811]
[-0.02259222  0.5217566  -0.30316368  0.40860593 -0.7039419   0.40553516
 -0.45224684 -0.06422149  0.12404137 -1.0550239   0.09941218 -0.4192826
  1.0249274   0.5378669   0.27724233 -0.03918072 -1.0326587  -0.30560377
  0.22450435 -0.7577492 ]
[ 0.6462904   0.66976917  0.3773245   0.02546082 -0.9121358   0.67981756
 -0.7605728   0.45659882 -0.98290384 -0.13068753  0.6431957  -1.3530658
  1.4814533   0.9148854   0.08847652  1.0019168  -0.8907947  -0.85122424
  0.54201853 -1.2763134 ]
[-0.19543518 -0.32261145  0.548045   -0.4847247  -0.55994886 -0.18886283
  0.14482419 -0.559384    0.3552161  -0.00747367 -0.2560982  -0.7522047
  0.8949866   0.569962   -0.04394842 -0.07156079  0.15860087 -0.7161196
  0.22564857 -0.82193834]
[-0.3483804  -0.22366235  0.13772802 -0.06446575 -0.51714313 -0.34295362
  0.63522726  0.4001841  -0.5071316   0.40590557  0.49654314 -0.35252067
  0.36340797  0.0842443  -0.36675888  0.19241232  0.3391303  -0.35132334
  0.3422139  -0.27484784]
[-0.11549976  0.21315564  0.41640317  0.41749316  0.08323427  0.03381557
  0.28268245  0.8503057  -0.74576217  0.21164398  0.6675256  -0.40524954
  0.52546275  0.2734229  -0.41533712  0.3946432   0.09157594 -0.30864108
  0.7332723   0.11562644]
[-1.05169    -0.75377285 -1.0792352   0.02443635  0.9433161  -1.0390925
  0.80610204 -1.0868955   0.98495996  0.11923379 -0.98041415  1.1916794
 -1.9491543  -1.3266882  -0.6785344  -0.77801913  0.99722767  1.1879146
 -1.3242179   1.0091056 ]
[-0.27281687 -0.76826334  0.52105594 -0.41191274  0.05846508 -0.31235072
  0.1287753  -0.72169846 -0.1950961   0.3191789   0.03455767  0.09075959
  0.00922854  0.40676394 -0.22995572 -0.24583304  0.02712421  0.02704783
  0.26253507 -0.34156698]
[-0.5823724   0.09147438  0.9483654  -0.16253106  0.2583717  -0.2906531
  0.31499022 -0.36558244  0.24392448  0.42935553  0.04715997  0.2625832
 -0.41049156 -0.7873484  -0.0385652  -0.3159647   0.11648948  1.7103273
  0.53894377  0.28805345]
[-7.1727909e-02 -4.2992142e-01 -6.7175090e-01 -7.6981550e-01
 -2.4843568e-01 -4.3261436e-01  2.1628346e-01 -1.2601367e-01
  9.8509274e-02 -2.0496705e-01 -8.5479438e-01  1.6418834e-04
  2.0625141e-01  2.9030770e-01  1.6891016e-01 -2.4709305e-01
  1.3787977e-01 -3.5478705e-01 -7.8140062e-01 -8.7951398e-01]
[-0.712429    0.1549897  -0.41941357  0.41838828  0.05495493 -0.5490918
 -0.54158884 -0.4106612  -0.31409454  0.05157435  0.4200595   1.920382
 -2.2081933  -0.65236604  0.5458486  -0.34593686  0.90008533  0.9066713
 -0.6763328   1.021308  ]
[-0.7179678  -0.40928164 -0.51612157 -0.9894665   0.24142925 -0.06911161
  0.19819775 -0.67322105  0.73203254  0.3965645  -1.1482906   0.03869354
  0.23219344 -0.22709481  0.12693097 -0.43812013  0.1741641   0.19776866
 -0.51466525 -0.24788335]
[ 0.35062566  0.5782367  -0.86981875  0.57974577  0.10541395  0.32613674
 -0.11212558  0.34693593  0.17560089 -0.06480754  0.42020208 -0.16047317
 -0.21440269  0.04416218  0.23656876  0.5720963  -0.46520016 -0.4474444
 -0.6727186   0.06104101]
[-0.19585598 -0.47915623  4.53604    -0.16318855 -0.27309594  0.5675327
  0.1450996   0.07075626 -1.0272586   0.725121    0.05832258 -0.55723447
  0.6979407  -3.5206609  -0.6357029   0.35747936 -0.37383038  1.0737722
  4.417328    2.7181149 ]
[-0.2728297   1.7150155  -2.1875145   0.47787577  1.5509453  -0.13297325
 -0.63004327  0.11919276  0.5565138  -0.8335814  -0.96099263  1.7757685
 -2.190493   -1.9639038  -0.02742205 -0.37564054  0.50407517  0.77352065
 -2.0684328   1.3111733 ]
[-0.31380817 -0.6696358  -0.18206789 -0.18753208  0.5705174  -0.6470582
  0.5498729  -0.68422586  1.4253349   0.17067449 -1.4746996   0.33073232
 -0.59943306  0.03108963  0.6399766  -0.6335318   0.83701915  0.06441259
 -0.6580514  -0.13388616]
[-0.36331165 -0.08442976  0.0818039  -0.24145249 -0.1344149  -0.00183974
  0.41437295 -0.2992323   0.1950703   0.14278862 -0.25273463  0.08871285
  0.2372111  -0.17745993 -0.1948523  -0.30721396  0.03428482  0.14729474
 -0.26217407  0.30857316]
[ 0.03336133  0.40925357 -0.9996217   0.9295459   0.14143075 -0.14782378
 -0.46515658  0.7104461   0.46291417 -0.5734307  -0.5124825   0.1382077
 -0.45446894  0.04664039  0.0156      0.47163174 -0.36909068  0.04088544
 -0.2991216   0.6109765 ]
[-1.1287847  -1.040515   -1.5085016   0.5675372   1.3814452  -0.57287294
  1.2160888  -0.5521822   1.9831178  -0.23772782 -2.2351286   1.3964655
 -1.7754838  -0.99500024  0.20882627 -0.37405473  0.60503525  0.7792074
 -1.8009399  -0.18298015]
[-0.34164503 -0.2399654  -0.07031456 -0.65386826  0.06541655 -0.5663205
  0.5669981  -0.32094657  0.35253003  0.38472658 -0.99438816  0.2206117
  0.20750406 -0.24622674  0.18512638 -0.5331927   0.1795892  -0.06422056
 -0.51829773  0.01536465]
[-0.11656014 -0.5905446   0.4967432  -0.7857606   0.2051526  -0.44059375
  0.03363352 -0.25475383 -0.631323    0.5218768   0.45165703 -0.14491528
  0.29936895  1.4152945   0.39331496 -0.3654274   0.21794757 -0.14452556
  0.26016253  0.28284416]
[-0.22826158 -0.27673677  1.4077896  -0.45704648 -0.5868998  -0.49139893
  0.57797813 -0.01834647 -1.4918287   0.01435392  1.65618    -0.47794566
  0.50530124  1.255112   -0.08325394 -0.11096995  0.07491065 -0.2908357
  0.8363552  -0.08289804]
[-0.9637351  -1.0573866   0.13818589 -0.35816357  0.35207167 -0.38058907
  0.9128688  -0.4301629  -0.13263382  0.33236447 -0.3077717   0.46182075
 -0.39978212 -0.05877423 -0.15400586 -0.34470102  0.61195666  0.14100905
 -0.05397421  0.16577862]
[ 0.7812877   0.80293304  0.3852735   0.43685222 -0.51890725  0.55152166
 -0.8141505   0.7001273  -0.8309176  -0.18418774  0.9024311  -0.6919683
  0.79425204  0.56136566  0.16758765  0.6341943  -0.62542325 -0.42522994
  0.59460425 -0.511987  ]
layer 1 Activation
tanh
layer 2 Dense
20 40
[ 0.67175454 -0.73007023  0.76630443  1.1406846   0.5033572   0.45037767
  0.07172336  0.5631048  -0.7502528  -0.10585219  0.17924134 -0.29739574
 -0.26044822 -0.7006165  -0.73317236  1.0791303  -0.48645443 -0.88150126
 -0.8195832  -0.41201785  0.47808862  0.4785322   0.59714514 -0.18999979
  0.2413304  -0.63546145  0.2151285   0.35286132 -1.308987   -0.75777346
  0.95268536 -0.03275558  0.4653015   0.20704563  0.46176696 -0.3925623
  0.00774592  0.12832594 -0.17896244 -0.85420924]
[-0.01852488 -0.20977044  0.29968888 -0.31266072  0.7855478  -0.05576854
  0.2503269  -0.3422721  -0.160257   -0.20203543  0.81220305 -0.28193286
 -0.40700644 -0.04953722 -0.02872542  0.74455124 -0.24023393  0.00527776
  0.0498527  -0.76776636 -0.29948154  0.7580037  -0.63449544 -0.06446944
  0.31324247 -0.38329288  0.75594294 -0.2576045  -0.65134853  0.07503207
 -0.02796151  0.2977866   0.79586375 -0.44032875  0.26158378  0.6237508
 -0.412917   -0.0999671  -1.0676591   0.19354227]
[-4.4287533e-01  4.6341605e-02 -7.6525122e-01  1.8766912e-02
  4.8746724e-02  5.0219432e-03  6.2512773e-01 -2.4363156e-01
  1.0945591e-01  1.2780851e+00  1.2171892e+00 -5.2282017e-01
 -7.7440417e-01  2.1014242e-01  3.2119099e-02  2.8341243e+00
 -1.0867132e+00 -9.2985874e-01 -1.8597244e-03  3.2265648e-02
 -1.0946643e+00 -2.6638802e-02 -3.0355883e-01  1.0573316e+00
 -1.1746734e+00 -2.6581126e-01  8.0389720e-01  3.8980028e-01
 -2.4851379e+00  1.6968167e-01  3.1601489e-01 -1.7134485e+00
  8.5908359e-01  1.5116587e+00  2.5178632e-01  2.8316641e-01
 -1.1736097e+00 -4.8273355e-01 -2.4291697e+00 -2.3194270e-02]
[-0.00844835 -0.6456725  -0.17370644  0.82964385  0.60072684  0.41044757
  0.63851416  0.50310487 -0.24678701 -0.11620268  0.4013018   0.20392875
 -0.24585898 -0.45506018 -0.4100221   0.6144277  -0.44274357 -0.64445364
 -0.36687076  0.00776255 -0.4783206   0.23530412 -0.29440543 -0.18528798
 -0.04674505 -0.39627826  0.347701    0.7287971  -0.6002508  -0.3670601
  0.24011025 -0.42110822  0.22854848  0.04489601  0.12923901  0.4674493
 -0.14443415  0.1929802  -0.4781372   0.0829753 ]
[-0.01031443 -0.18562244 -0.36558685 -0.25975466  0.02443692  0.30493012
  0.36358124 -0.1407278   0.37280703  0.05745222  0.17514229 -0.3172923
 -0.77794296  0.0450369  -0.15514244 -0.33858246 -0.5864629   0.16226864
 -0.14875177 -0.34301564 -0.19946787  0.4630402  -0.46057597  0.02597199
 -0.07063209 -0.4787087   0.1232305   0.09654373  0.13747787 -0.0605691
  0.17931987  0.6027008   0.04528674  0.3058056   0.20408972 -0.178714
 -0.03797009 -0.31399995 -0.09023102  0.00916923]
[ 0.5927643  -0.6041386   0.9647816   0.574029    0.7180208   0.4136296
  0.15616661  1.0797678  -0.65739673 -0.4179457  -0.09900679 -0.1658928
 -0.19381078 -0.8639258  -0.5175102   1.077829    0.1747369  -0.9442046
 -0.35212344 -0.550144   -0.40833244 -0.18691258 -0.00211726 -0.13900994
  0.25947952 -0.18058906  0.25198978 -0.04730956 -1.0990866  -0.6725373
  0.14198165  0.09272105  0.4862647  -0.04837586  0.05493822  0.01727064
 -0.13007659  0.64953035 -0.41070312 -0.2932987 ]
[-0.18227075  0.67011297  0.13039297 -0.6061177  -0.34786123 -0.43885788
 -0.19387381 -0.35292125  0.7541789   0.05858816 -0.57783407  0.66809666
  0.54641265  0.56922024  0.4790349  -0.8431684   0.41571888  0.69879586
  0.6378203   0.22132204  0.42272356 -0.47974983 -0.67064226 -0.24461268
 -0.25194493  0.33645412 -0.4153693  -0.53923154  0.77739704  0.3186281
 -0.25757477  0.07959292 -0.48474383 -0.224931   -0.373716    0.17559764
  0.12852566 -0.22242083  0.9356042   0.48099434]
[-0.07184304 -0.70289993  0.28645432  0.3111999   0.711913    0.60019857
  0.13071649 -0.1014467  -0.65566313 -0.12997368  0.7114642  -0.70844054
 -0.4067332  -0.06671318 -0.5663239   0.8463283  -0.24984713 -0.45268464
 -0.58629054 -0.26311043 -0.48546696  0.7612014   0.73838794  0.05006231
  0.23827207 -0.6282288   0.197427    0.5881345  -0.5048336  -0.16927645
  1.015155   -0.33117113  0.18410037  0.1910673   0.5259114  -0.42755705
 -0.12726647  0.7215786  -0.7321768  -0.8723897 ]
[ 0.2719966   0.00457659 -0.07474754 -0.28464085  0.48669225 -0.17492226
  0.6917572  -0.29668084  1.6334804   0.30652374 -0.25324887 -0.86642677
 -0.64893377 -0.28901118  0.22209546 -0.62694764 -0.6778055   0.5894671
  0.02101238 -0.7345603  -0.62137777  0.77654433 -0.452848    0.20839983
 -0.52235293 -0.12324499 -0.4490354  -0.39462033  0.6973374   0.00908621
  0.48059398  0.7183351  -0.2572432   0.5488329   0.30299228 -0.52847517
  0.2083312   0.08605067  0.84500635 -0.12216251]
[-0.27953073  0.774257   -0.21202996 -0.8512372  -0.24115302 -0.6494347
 -0.28002134 -0.61461824  0.86931235 -0.01627565 -0.46107912  0.7176707
  0.32907322  0.29543957  0.6138833  -0.68726295  0.36977625  0.81740785
  0.68604547 -0.57451737 -0.01325734 -0.62006897 -0.84769905 -0.2638438
  0.10085685  0.36226633 -0.15597606 -0.4062296   0.4822308   0.38614663
 -0.63968366  0.27447617 -0.07456145  0.12953667 -0.46410826  0.7240247
  0.22287177 -0.21225499  0.17432545  0.8279789 ]
[ 0.30186015 -0.3050247   0.7437039   0.5157789  -0.06000272  0.1239229
 -0.40039653  0.4992012  -0.27388656 -0.59840226  0.5457334   0.15065196
  0.93011975 -0.3615441  -0.41283986  1.4205303   0.5023869  -1.066014
 -0.5029868   0.05027345  0.5262608  -0.5960211   0.24031794 -0.75509036
  0.3358096   0.02455116  0.9751733  -0.19128293 -1.2205926  -0.6139186
 -0.3494428  -0.25699565  0.6011374  -0.6812969  -0.5780067   0.26853272
  0.00492826  0.33183706 -0.9060134   0.15389378]
[-0.01263234 -0.05280973 -0.17688672 -0.36097667 -0.95796627  0.12750278
 -0.21057516 -0.03675634  0.3605191   0.03018347 -1.3725998   0.5107139
  0.4038057   0.03075362  0.25746706 -0.9796508   0.04318319  0.5504241
  0.27414277  0.94751275 -0.23958783 -0.52107114 -0.17458466 -0.22321616
 -0.03583266  0.17471913 -1.0016536   0.21616215  0.6708529   0.19304898
 -0.61937207  1.6071986  -1.367417   -0.2685437  -0.21947496 -0.29631874
  0.5438627  -0.11857226  0.9487693   0.17592092]
[ 0.03192052 -0.5409245   0.09335519  0.52456385  0.8810723   0.72210795
  1.4610873   0.5651568  -0.20776562  2.8196247   1.1908859  -0.52052
 -1.6449777  -0.7325211  -0.08771811  0.26315698 -2.575508   -0.8794026
 -0.3306486  -0.6368674  -3.2658443   1.3895578   0.05742871  2.754183
 -2.3867037   0.06606168  0.43330374  1.431309   -0.37648073 -0.42946938
  1.2279415  -2.0707312   0.07504783  2.7476683   0.3797795  -1.0589418
 -1.3390043   0.46012464 -1.282492   -1.3060694 ]
[ 0.05265609 -0.44660097  0.6828683   0.23392013  0.59721226  0.37662938
  0.92447096 -0.09491965  0.86875165  0.6382356   0.7700814  -0.56491476
 -0.651139   -0.22862199 -0.03003317  0.01396113 -1.2442366   0.29091853
 -0.5960863   0.15792575 -0.948049    0.9815398  -0.10314756  0.2112929
 -0.46652842 -0.07444594  1.3015578  -0.41615492 -0.5086185  -0.08687656
  0.5559054  -0.26515904  0.62777865  1.2772448   0.30955702 -0.49149448
 -1.2844514   0.14399017 -0.91108847 -0.34659573]
[ 0.47484267 -0.40332296  0.3641577   0.47434345  0.30617192  0.5632644
 -0.07246579  0.25887245 -0.71326786 -0.1725688  -0.08185171 -0.34407112
 -0.23957682 -0.16408812 -0.80452585  1.0978286  -0.08499545 -0.5867123
 -1.0436522  -0.44996518  0.18194307 -0.07606561  0.7830325   0.06112519
  0.3267376  -0.4500791   0.5333739   0.31577668 -0.67552674 -0.42893305
  0.8676099  -0.6192268   0.30047193  0.05692901  0.2861179  -0.6987617
  0.29381797  0.4681562  -0.16767685 -0.5378458 ]
[ 0.37037987 -0.3474624   0.14072098 -0.23937798  0.27995154  0.5166162
  0.28444508  0.41443852 -0.3537758  -0.31746522  0.14439262 -0.5855137
 -0.25354293 -0.48105666 -0.597625    0.7443481  -0.28637397 -0.7263213
 -0.25438666 -0.78484255 -0.13878578  0.21153627  0.21676025  0.00872523
  0.25742882 -0.59070307  0.5264743   0.22742744 -0.25417542 -0.48712218
  0.504561   -0.04134393  0.17636803 -0.16644704  0.5728839   0.00841187
 -0.14314012  0.63297635 -0.8552269  -0.7522818 ]
[-0.2436287   0.20883362 -0.24823774 -0.05775962 -0.9756192  -0.32304394
 -0.14155234 -0.77510226  0.3614093   0.1665721   0.11824042  1.230103
  0.52954346  0.6545772   0.64586776 -0.86627156  0.47853616  0.6936241
  0.5417582   0.9458347   0.02434912 -0.4849912  -0.42202184  0.12043896
 -0.00651041  0.48897803 -0.4990261  -0.4937767   0.40319824  0.6353206
 -0.66919345 -0.07379747 -0.19263497  0.07556672 -0.23423605 -0.01940585
 -0.1236799  -0.7198121   0.8304767   0.4695914 ]
[ 0.20967323  0.32355154 -0.6747434  -0.03239452 -0.37139982 -0.18795301
 -0.5107539  -0.32139054  0.13863699 -0.26449597 -0.75223684  0.06042807
  0.41721922  0.24280223  0.32873297 -0.05322906  0.60619104  0.04944973
  0.13003436 -0.2528124   0.2871489  -1.1049554  -0.11279285 -0.19429201
  0.04272175 -0.11483982 -0.6402072   0.12836452  0.6108808   0.15662514
  0.36754024  0.27706367 -0.8469973  -0.31814402 -0.06195738 -0.03831457
  0.22487813 -0.29659876  0.57411754 -0.05020138]
[-0.45121562 -0.16350181 -0.77463853  0.07155435  0.4381394  -0.19544654
  0.31884387 -0.2890092   0.22422768  1.2081457   0.63407516  0.0218965
 -0.6492612  -0.09214312  0.222356    1.1436514  -0.81411254 -0.5505261
 -0.12682357 -0.15832488 -0.34933636  0.15351158 -0.31273565  0.9941462
 -0.9728003  -0.07789108  0.36796254  0.26686043 -0.87552184  0.02040824
 -0.04309795 -1.0473691   0.57686305  1.0143021  -0.26748532  0.34921765
 -0.9344069  -0.90258753 -1.1803349   0.08884964]
[ 0.08231072 -0.03910138  0.03136623  0.08018268 -0.13334307  0.22597188
 -0.5174928   0.26147917 -0.7673853  -1.469019   -0.27351817  0.07157172
  0.5150071  -0.22285773 -0.07189842  0.28255832  0.80771774 -0.7886107
 -0.3338029   0.06421076  0.9161727  -1.0920897  -0.1620518  -1.3490369
  1.3023535  -0.05696801  0.21370065 -0.34983227  0.04337581 -0.24587291
 -0.34879753  0.5932536   0.01187397 -1.4822315  -0.52516294  0.44464824
  1.0900056   0.02972304  0.3766824   0.50968266]
[ 0.44534743 -0.39816326  0.7809249   0.6982956   0.64495903  0.3825736
  0.16069858  0.8527056  -0.51065195 -0.2929409   0.13416834 -0.27303848
 -0.02567077 -0.619596   -0.41819704  0.94169146  0.11714515 -0.8330179
 -0.5050114  -0.4796077  -0.19915068 -0.07224414  0.14708127 -0.18153568
  0.3544478  -0.28622043  0.05087348  0.14179131 -0.86409974 -0.6662492
  0.10848641 -0.16202822  0.39561248 -0.39670822  0.1283109  -0.2196218
  0.09544452  0.52960163 -0.14634846 -0.13886426]
layer 3 Activation
tanh
layer 4 Dense
40 20
[ 0.39313808 -0.08550076  0.3229939  -0.2786677  -0.20967166  0.6388214
  0.94589806 -0.6716447  -0.46959218 -0.53631866  0.30717808  0.3364625
  0.6896529   0.32686198  0.52745926  0.37834316 -0.5310446   0.40938288
 -0.648421   -0.43066853]
[-0.3708088  -0.19642523 -0.98947245  0.12815666  0.46449944 -0.46814898
 -0.6680948   0.4945822   0.31390834  0.5247373  -0.69541407 -0.08246454
 -0.9365268  -0.527329   -0.358983    0.10019399  0.33646724 -0.32157847
  0.81211525  0.21832058]
[ 0.24042271 -0.6468667  -0.36407572  0.2794928  -0.05739007  0.21802716
  0.23244761 -0.12554918  0.5261246  -0.41598687  0.23372814  0.845098
  0.24777003  0.6910798   0.17523895 -0.04702894 -0.70890415  0.33094504
  0.02085644  0.07743264]
[ 0.37595394 -0.11436635  1.2789671   0.15862787 -0.46289533  0.59673434
  0.53063333 -0.4850939  -0.5567941  -0.68952405  0.765276   -0.11761551
  0.8908294   0.90190804  0.5916941  -0.05576174 -0.46780637  0.2624884
 -0.7561249   0.06750021]
[-0.00140256  0.42814836  0.7491816  -0.31969237  0.24987055  0.08435488
  0.1553825  -0.04357936 -0.9132527  -0.06348228 -0.1961762  -0.9938237
 -0.3709834   0.65665185 -0.01234527 -0.13308471 -0.14924867  0.03535859
 -0.40238637 -0.25190693]
[ 0.18719573  0.5372829   0.38638553 -0.3285293  -0.10526895  0.3189491
  0.6266287  -0.12588736 -0.6083548  -0.3198933   0.31368336 -0.08398994
  0.7570478   0.84526926  0.07565779 -0.09982961 -0.7673215   0.47528073
 -0.3611127  -0.2154933 ]
[-0.54885     0.9193124   0.2605505   0.4229696  -0.5185935  -0.06726196
 -0.09412531 -0.34865978 -0.36089873 -0.48128492  0.29518494 -0.60760754
  0.44977668  0.29227245 -0.19784464 -0.370286    0.02296213 -0.35819077
  0.24571899 -0.11539131]
[ 0.6021297  -0.19590929  0.1288555  -0.51719236 -0.23918964  0.50972193
  0.6226324  -0.76468474 -0.44675952 -0.23478097 -0.12195501  0.36442727
  0.33324176  0.8823081   0.6058397   0.10559525 -0.2824672   0.26605472
 -0.8097247  -0.6426489 ]
[ 0.07930855  0.08166577 -0.16669497 -0.40223604 -0.25921476 -0.17593892
 -0.1442936  -0.2323977  -0.02568601  0.12964842 -0.3442101  -0.1243862
 -0.4820481  -0.6489935   0.0948379   0.20757778  0.3190877  -0.07777619
 -0.09625813 -0.03038984]
[-0.12665977  0.04512753  0.49208155  0.868602   -0.03020136 -0.10559221
 -0.05218635  0.03087826 -0.42794204  0.17314856 -0.4210809  -0.7521103
 -0.04870208  0.08613034  0.01155735 -0.84387434 -0.02511455  0.44480467
 -0.19643092  0.20066483]
[ 0.13426791 -0.18285538 -0.05529889  1.7161144  -0.11896099 -0.5784659
  0.15381424 -0.03186113  0.06230699 -0.04221068 -0.34598112 -0.14240314
  0.12385689  0.96135426 -0.22147074 -0.24198683  0.34400254 -0.7768982
  0.3589241   0.3838623 ]
[-0.11556695 -1.1144849   0.09314466  0.69881606  0.59090114 -0.7038333
  0.2695772   0.12354108  0.25442883  0.04482079  0.09207021  0.5735526
  0.38915846 -0.33508527 -0.34059724  0.0537919   0.26540345 -1.1632826
  0.3477719   0.46155223]
[-0.28807074 -0.87169504 -0.08251648 -0.22684062  0.10625336 -0.6576535
  0.32660675 -0.22592874  1.3184401   0.04113381  0.16977753  1.9109393
  0.18740657  0.5857256   0.03410242  0.9491459  -0.08486617  0.09282951
  0.04308572  0.34675977]
[-0.42864627  0.0427486  -0.32757324  0.27409023  0.3411409  -0.3112061
 -0.72374994  0.663979    0.31675404  0.18571942 -0.15612344 -0.17551915
 -0.68600464 -0.8544394  -0.6448871  -0.1066202   0.38932043 -0.24814105
  0.89891523  0.5074407 ]
[-0.17407541 -0.02773949 -0.1071542   0.2259636   0.3592039  -0.73652256
 -1.0869721   0.49719018  0.5883246   0.33863613 -0.04947928 -0.06180074
 -0.94047225 -0.9534186  -0.54856855 -0.14679095  0.69612247 -0.27010232
  0.7495045   0.5937638 ]
[ 0.31221697 -0.39424875  0.23687413  0.9939773  -0.3882105   0.33252054
  0.5653873  -0.24128613 -0.66498125 -0.4016735   0.14880945 -0.27378955
  0.3548861   1.423225    0.31713593  0.23699522 -0.365427    0.63806313
 -0.19453143 -0.1834102 ]
[-0.9730146  -0.5896353  -0.4640534  -0.6973603   0.4338573  -0.6796371
  0.3797663  -0.18862881  1.4330404   0.42532298 -0.33786115  1.2882645
 -0.03055606  0.31811196  0.10157522  1.4956403   0.00594525 -0.50186753
 -0.02997476  0.417811  ]
[ 0.53257024 -0.3134654  -0.54791504 -0.5705377   0.08707743  0.05375672
  0.11310643  0.39930457  0.36824623 -0.2618111   0.3733041  -0.10173716
 -0.38942173 -0.95540076 -0.27267182  0.15252888  0.4899306   0.04332485
  0.18588276  0.18481198]
[-0.5470735  -0.18394183 -0.93177116  0.12392052  0.47902408 -0.7504654
 -0.8965791   0.55320716  0.42565578  0.5388488  -0.32533166  0.09240917
 -0.6187112  -0.78473455 -0.2404251  -0.08668307  0.34261185 -0.23112883
  0.64504397  0.19210128]
[-0.06001355 -0.7107571  -0.64023525  0.4265819   0.07740686 -0.13780417
  0.4404399  -0.01048318  0.94923633 -0.12940179  0.01305139  0.716634
  0.02149718 -0.39518976  0.00995505 -0.03570841  0.2752548   0.12181026
 -0.08969855  0.22924069]
[ 0.32282844 -0.47071975 -0.5870278  -0.42710426 -0.07410629 -0.28683275
  0.24663873  0.3443563   1.011235   -0.3707103  -0.05814355  0.87185323
  0.05670292 -0.07793873 -0.20069934  0.9243987   0.20858169 -0.27026552
  0.5147026   0.26171544]
[ 0.3995252   0.4748377   0.09872922  0.16645645 -0.17211293 -0.07456452
 -1.0308553   0.21169582 -0.75085336 -0.04559595 -0.11951683 -0.48160562
 -0.25768653 -0.31826782 -0.18366629 -0.6823838   0.3053142   0.1568286
 -0.1205805  -0.30487254]
[-0.11625807  0.407582    0.23739883 -0.36588064 -0.21698672 -0.11288416
  0.02105318 -0.02980388  0.050484   -0.13764319  0.20939729 -0.46349877
  0.4163182   0.2635499   0.15055126 -0.03158903 -0.8940294   0.12194686
 -0.0642279  -0.14445324]
[-0.30720562  0.5795533   0.55279434  0.6702246   0.09976235  0.05651038
 -0.23683235  0.02198002 -0.63147736  0.45077312  0.14768396 -0.77461785
 -0.3670921   0.03126881  0.08085533 -1.1059182   0.563203    0.19888659
  0.03899965  0.09915856]
[ 0.29888088 -0.41348734 -0.22645184 -0.44245875  0.06672008 -0.3290776
  0.1259796   0.18677509  0.00239117  0.09411858  0.03296148  0.28403234
 -0.27287108  0.05401508 -0.2733316   0.47288004  0.09912748 -0.53458256
  0.09035727 -0.12786889]
[-0.25859484 -0.88917845 -0.06164368  0.62533873  0.32420355 -0.7648856
 -0.9021508   0.52903986  0.4124891   0.4604412  -0.38770822  0.42703164
 -0.3799624  -0.44345576 -0.4242741   0.132359    0.35731602 -0.18712641
  0.2528864   0.43687782]
[ 0.6072692   0.03152296  0.00465316  0.44726363 -0.07595887 -0.5172931
 -0.04226762  0.05856298  0.03166972 -0.18210967 -0.34343854  0.09738655
 -0.17815836  0.7118077  -0.64444953  0.14027488 -0.3625807  -0.59267336
  0.5495206   0.11453855]
[ 0.25732788  0.81593657  0.9899677  -0.31988096 -0.10520984  0.9357226
  0.28561634 -0.05796463 -0.5386848  -0.3030412   1.3032877  -0.29866126
  0.9849179   0.18384047  0.04875302 -0.53084606 -0.33576128  0.52062744
 -0.83819324 -0.54277146]
[-0.22280677  0.95281583  0.12850036 -0.88336575  0.14103107  0.43634972
 -0.36883417  0.03754511  0.06910767  0.08129978 -0.30000213  0.01300756
 -0.52919084 -1.2835419   0.03967354  0.07058377  0.4747523  -0.3020867
 -0.1993058  -0.101651  ]
[-0.49452797  0.22350684 -0.32244453  0.07076713  0.35859334 -0.6437953
 -0.765504    0.7397905   0.47315446  0.54314107  0.293146   -0.21229352
 -0.4247767  -0.7943301  -0.6998567  -0.10125488  0.25556484 -0.5223425
  0.67243546  0.4870759 ]
[ 0.55058545  0.6707593   0.9356281  -0.28354436 -0.44592103  0.64819217
 -0.07097774  0.20247822 -0.5583323  -0.309741    1.094241   -0.6184807
  0.42613372 -0.02108784  0.2666761  -0.75188744 -0.53380597  0.28607
 -0.35509217 -0.6691827 ]
[-0.14731568 -0.11246757 -0.66818684 -1.9273514  -0.07745273  0.20975925
 -0.04949152  0.21848142  0.13316794  0.11748622 -0.1813653   0.29088986
 -0.3461483  -1.6769775  -0.34260172 -0.17063479  0.6148467   0.09431415
  0.28385195 -0.03328938]
[ 0.03274199 -0.82703304 -0.04708838  0.7280126   0.41603914 -0.7475509
 -0.15259567  0.06685273  0.18014191  0.00457328 -0.8949153   0.43059197
 -0.2534893  -0.02831922  0.05089287 -0.09234021  0.403558   -0.41677433
  0.2931331   0.49545953]
[ 0.07853634  0.5521109   0.93243676  1.044677   -0.40921918  0.26114422
 -0.9207258   0.13271008 -0.58902365 -0.10505867  1.050692   -0.81590307
  0.40392265  0.2197198  -0.31548154 -1.4281915  -0.13955364  0.17254217
  0.24524303  0.12340537]
[-0.24368642  1.4608551  -0.08043165 -0.47256532 -0.2030454   0.39834192
 -0.3798309   0.04229715  0.05786708  0.3573708   0.36655208 -0.3782111
 -0.17236078  0.24438955  0.00969338 -0.6071289   0.21588068 -0.4221882
 -0.034367   -0.22253881]
[-0.8279401  -0.8792395  -0.6994337   0.338408    0.7238972  -0.7221944
 -0.49244395  0.06319475  0.10314228  0.11559827 -1.100287    0.34924427
 -0.00996571  0.0731649  -0.35041168  0.39524385  0.31488207 -0.47754306
  0.31874982  0.31913507]
[-0.10737487 -0.5083555  -0.00648209 -0.67844737 -0.22715963  0.2407786
  0.3111712  -0.12828662  0.13578807 -0.18716481 -0.09678313  0.19788365
 -0.09627603 -0.33580917  0.06880032  0.41136193 -0.04211955  0.39123678
 -0.5512006  -0.24460256]
[ 0.19602308 -0.07963736  0.05403399 -0.3782887  -0.23456378  0.53587914
  0.86600137 -0.36823797 -0.0903933  -0.43835187  0.07595793  0.02579224
  0.46923983  0.5946687   0.3809032   0.1228765  -0.641044    0.5450867
 -0.8243647  -0.3118314 ]
[ 0.72755253 -0.2157975   0.36354026 -1.9162977  -0.4749215   0.46521702
  0.42399824 -0.07160358 -0.31530613 -0.44342682  0.11532103  0.00401568
  0.00594432 -1.2610165   0.04722496  0.8603137  -0.6545284   0.19966912
 -0.40797433  0.03051273]
[-0.8114892  -0.9431393  -0.29806685  0.48167145  0.54795873 -0.8135893
 -0.42633036 -0.09216427  0.1362992   0.35125893 -1.1761947   0.42828277
  0.05465959 -0.31298506 -0.11292998  0.592807    0.22512592 -0.59476686
  0.5695229   0.76297045]
[ 0.28145924 -0.09998629  0.21401033 -0.21998706  0.04190825  0.46402052
  0.7953343  -0.35956535 -0.23988263 -0.35950544 -0.03584332  0.01356294
  0.4424318   0.4330751   0.23059645  0.32993975 -0.37184656  0.24384542
 -0.55939806 -0.32135448]
layer 5 Activation
tanh
layer 6 Dense
20 1
[0.27862328]
[0.30518574]
[0.03861866]
[-0.8145542]
[-0.34916446]
[0.46832106]
[0.33682066]
[-0.64665693]
[1.8144028]
[-0.3603179]
[0.32846332]
[1.8872823]
[0.39638385]
[0.5870216]
[0.29008463]
[2.2541466]
[-0.33092225]
[0.4859122]
[-0.7015371]
[-0.34545276]
[0.5165431]
