layers 7
layer 0 Dense
20 20
[ 0.0728267   0.17731084  0.10526433 -0.27246323 -0.01217914  0.18100746
 -0.15145507  0.02738719 -0.23756737  0.04093302 -0.3105285   0.08957279
  0.2825602   0.1993352  -0.15402913  0.10314684 -0.31925893 -0.10048433
 -0.25142595  0.02439994]
[-0.48248634  0.45333618 -0.52935725 -0.31308594 -0.28041926  0.14565434
 -0.20209101 -0.3290723  -0.02920486 -0.20454021  0.1070253   0.23239782
  0.07009891 -0.1626224  -0.40374956 -0.6113524  -0.02186269 -0.09701731
  0.38616675  0.0281723 ]
[-0.10630066  0.26856655 -0.3375651   0.11837494  0.13126935  0.1348479
 -0.2850225  -0.2553472   0.24005485  0.36289984  0.30698803 -0.10664972
  0.22043745 -0.41912597 -0.29966673 -0.01274595 -0.61029285 -0.54800165
  0.00088271  0.02662724]
[-0.00137698  0.6874492   0.11756712 -0.2704322  -0.26088145  0.1725578
  0.20969522  0.29443297 -0.56622326 -0.27436373 -0.04781545  0.2015545
 -0.23382208 -0.06590247  0.17671463 -0.19140153  0.12448498  0.13195622
 -0.38485566  0.05050437]
[ 0.39571768 -0.2023136  -0.00617183 -0.04762786 -0.01241745 -0.06761281
 -0.199519   -0.18914108 -0.48154423 -0.04701559  0.16074751 -0.29160774
  0.31865433 -0.2320561  -0.20870471 -0.03510404 -0.16648065  0.1616152
 -0.26080212 -0.00548575]
[-1.10401705e-01 -6.59937441e-01  7.48688206e-02 -1.44317921e-04
  3.27703446e-01  1.21560827e-01  3.20565142e-02  1.81591455e-02
  5.26781827e-02  1.38503850e-01 -5.05425572e-01  6.92173466e-02
  4.03991044e-01 -8.96853432e-02  3.11807424e-01  2.45985314e-01
  1.41355470e-02  2.23157272e-01 -2.38429338e-01  1.77040100e-01]
[ 0.19645287 -0.69959533  0.11693852  0.2176585   0.37417784  0.364149
 -0.11948913 -0.12559454  0.16865334  0.02183605 -0.10858252 -0.24676391
  0.0503855   0.35145402  0.10364391  0.05582166  0.23596805  0.3770678
 -0.17927052 -0.09069224]
[-0.5597174  -0.83393383  0.3539172   0.04768037 -0.00169635  0.11534796
  0.43688694  0.30784473  0.19342598  0.26296458 -0.26523137 -0.05719408
 -0.21046777  0.3069958   0.12973432  0.22396316  0.24506478  0.1273379
 -0.135825   -0.16646414]
[-0.5203404   0.04903698 -0.32117555  0.09951707  0.5664705   0.23354013
 -0.30122223  0.04617866 -0.23981318  0.0309369   0.26607    -0.09421145
  0.25034028  0.41344976  0.43993464  0.233291    0.3316974   0.00397169
 -0.50401694  0.14157642]
[ 0.6826957   0.25646707  0.10949702 -0.09555276  0.9998021   0.77307993
  0.52439475  0.08103091 -0.0613535  -0.1098815   0.9055239   0.23360594
 -0.01873852  0.76716524  0.09436995  0.5437093   0.30755025  0.19820127
  0.55290174 -0.33667582]
[ 0.81436056  0.5198081  -1.2449172  -0.6430331  -0.01625996  0.06630384
 -0.02331696 -0.02711529 -0.37011454  0.45968145 -0.13997586  0.07012477
 -0.50260675 -0.20273733 -0.05264203 -0.40421525  0.40578648 -0.6156763
  0.7029663   0.4090741 ]
[-0.14641723 -0.76870537  0.3008913   0.42930788  0.7881806   0.14758532
 -0.24596342  0.43403846 -0.06770293  0.48191828 -0.7531173   0.18268311
  0.02220158  0.05450333  0.45022395  0.48798615 -0.44009292  0.11119467
 -0.45185956  0.45521763]
[-0.46492326  0.35988206 -0.04869875 -0.4822882   0.04010089  0.3770922
 -0.27877825  0.03042399 -0.22063804 -0.0395962   0.5537333   0.16349255
 -0.17006095 -0.22514606  0.1806274  -0.4566083  -0.3224731  -0.32443383
  0.01139179 -0.03489424]
[-0.75941974  0.13879794  0.0688204   0.66798216 -0.62460124 -0.43269113
 -0.6931718   0.8278432   0.25979766  0.62404764 -0.50669545 -0.63510615
 -0.08300067 -1.6960201  -0.7318065  -0.37947172  0.05327165 -0.41523185
 -0.10311751  0.04572432]
[-0.95886123  0.5979894   0.56913644  0.9137643  -0.32570112  0.25909021
 -0.39893988  0.3254903  -0.00504007  0.16575347 -0.1420833  -0.59566164
  0.5435967   0.7193943  -0.79938537  0.74177724  0.21515737  1.2127562
 -0.5935094   0.28585905]
[ 0.03474141 -0.6701329  -0.15968277 -0.13715824 -0.02633191  0.37183097
  0.07693196  0.36178404 -0.08968922 -0.5838652   0.9252609   0.63485044
  0.47540963  0.23061517  0.2600432  -0.4280429  -0.19498147 -0.9392791
  0.35568932 -0.08560185]
[ 0.8313309  -0.09046936  0.3845967   0.29665178  0.12807488 -0.07149243
 -0.1877889   0.53427637  0.22840953 -0.33426672 -0.09805945  0.05307196
  0.15335117 -0.09235733 -0.48413765  0.34056148  0.18612976  0.27678326
  0.28222063  0.49654633]
[ 0.2539748  -0.01274783  0.26656365 -0.00677682 -0.30709344 -0.20806836
 -0.4266291  -0.10485634 -0.30401695  0.19762366  0.17940997  0.3887216
 -0.5005912   0.52462316 -0.2432394   0.16690813  0.05092163 -0.02631917
 -0.61653954  0.39608723]
[-0.28359294 -0.9247571   0.50108355  0.26576588 -0.15267396 -0.03372352
 -0.25231686 -0.03715559  0.2366857   0.28672406 -0.05487981 -0.00635975
 -0.6961483   0.096249   -0.06508572 -0.4516536   0.10460882 -0.14572912
 -0.11312351  0.33398765]
[-0.3567754  -0.12882996 -0.28949782  0.4609126   0.02519914 -0.10722369
  0.24306513  0.36022612 -0.17880994  0.0680263   0.13883646  0.1515839
 -0.38555527 -0.219805    0.16935085 -0.1947103  -0.10955185  0.04914818
  0.32027715 -0.17923975]
[ 0.04263024  0.34627414 -0.13172899  0.04292316 -0.10100315 -0.15294294
 -0.13071226 -0.12705551 -0.13581009  0.03051305 -0.08156412  0.05318433
  0.03963123  0.0605231   0.05651511 -0.02867405 -0.05614739 -0.05680392
 -0.06751947  0.07526598]
layer 1 Activation
tanh
layer 2 Dense
20 40
[ 0.21473622  0.36537912 -0.14272875 -0.11161281 -0.04424695  0.05973462
  0.01414038  0.13315399  0.01509947  0.2501087   0.57479143  0.29421723
 -0.13364005  0.27806747 -0.07265716 -0.38505837 -0.41318047 -0.04425436
 -0.29795134  0.16964117 -0.510122    0.248883    0.5121482   0.14497936
 -0.1812173   0.260154    0.33389488 -0.02215981  0.7759688  -0.07271106
 -0.20793706 -0.10400566 -0.4439196   0.620062   -0.15423319 -0.08096513
 -0.01000492 -0.4522032   0.03753084  0.2089092 ]
[-0.42284846 -0.3523957  -0.4399041  -0.36436325  0.2594324  -0.14983879
  0.05536673 -0.23616013  0.1883954  -0.27126214  0.28840652 -0.08810376
  0.13449375 -0.43491375  0.2019072   0.38674077  0.25278753  0.01011011
 -0.00085124 -0.1209823   0.4119928   0.0957683   0.1486082  -0.0956058
  0.32946938 -0.08366896 -0.4171444   0.24899457 -0.546017    0.40561056
 -0.25432777 -0.2397952  -0.2193591  -0.5094294   0.00141274  0.24635544
  0.05910577  0.5040275  -0.02727622 -0.0544643 ]
[-0.08452182 -0.3661121   0.51735026  0.27773315  0.23066394  0.25320116
 -0.08147939 -0.33512744 -0.05240386 -0.4062169   0.115665    0.5347708
  0.4029545  -0.04390281  0.3990518  -0.06655367  0.25625923  0.02662664
 -0.02181865  0.32142746 -0.14834033 -0.06196492 -0.1945773   0.6403232
  0.35584193 -0.3394617  -0.17498533 -0.10325947 -0.3909452  -0.0020966
 -0.09812679  0.7083792  -0.20825058 -0.01320096 -0.06306644 -0.11521581
  0.28352118 -0.05397798  0.12822406 -0.35386506]
[-0.19460873 -0.18816292  0.15403897  0.22311288 -0.18646051  0.17620584
  0.15089506 -0.6015546   0.01575185  0.03763032  0.09997135 -0.11158714
  0.27364087 -0.10500491  0.1804522  -0.38426018 -0.10797308  0.12866329
  0.14210308  0.08201072  0.09232361 -0.11002266  0.32718602  0.4581522
  0.3739451   0.01863632  0.04879547  0.3813665  -0.29367     0.14217979
 -0.33036378  0.50219136  0.35655165 -0.32377037 -0.34836146 -0.38881323
 -0.03817864 -0.19006427  0.37927714 -0.3025782 ]
[ 0.32393953  0.1848057   0.04919397  0.24729578 -0.27903384 -0.00673214
  0.04290933 -0.0258146  -0.15707903 -0.18783452  0.73534626  0.28185138
 -0.3181633   0.47708103  0.3140983   0.53655237  0.28303808  0.10804355
 -0.20525184 -0.03043051  0.24558394  0.07952923 -0.58924425  0.23821142
 -0.32368332  0.30341706 -0.05317969 -0.7231698   0.70985633 -0.29600948
 -0.35686812 -0.31199893  0.24103412  0.04651846 -0.23841366  0.19475263
  0.11596721 -0.07408338 -0.23326723  0.04806052]
[ 0.1228017  -0.3276054  -0.00509953 -0.1920413  -0.21806346 -0.25465113
  0.18285786 -0.38440347 -0.19806051 -0.14003018  0.49568707  0.00342035
  0.0641114  -0.06800658  0.02058912  0.38107523  0.30937696 -0.1442927
 -0.40849406  0.34195566 -0.12554073 -0.00257296  0.01027328  0.16487576
 -0.14242451 -0.12741426 -0.02303075 -0.31882417  0.38226604  0.05786933
  0.31010646 -0.37031907 -0.4144692   0.28273523  0.06912181 -0.05452528
  0.09374111 -0.14274433  0.13910489 -0.1367045 ]
[ 0.18544318 -0.17107859 -0.05092239  0.17996821 -0.28358346 -0.0924404
  0.20448153  0.17583866 -0.16385743  0.21741045  0.5620862   0.04616255
  0.02060019 -0.1536859  -0.1651621  -0.24251798  0.06135628  0.13328837
 -0.43704084 -0.06813589 -0.02716996  0.36857733 -0.3807757   0.35398462
 -0.45814213 -0.02213494 -0.27477738 -0.12008148  0.67112696  0.17147613
  0.11356051 -0.20843944 -0.09296096  0.33844793 -0.1315554  -0.22132057
 -0.26297584  0.15025516  0.15442927 -0.13792318]
[ 0.0067163  -0.5472022  -0.01104709 -0.27859315  0.20388776  0.20896621
  0.07462219 -0.15132469 -0.2554373  -0.02887294 -0.04921848 -0.13560829
  0.14716285 -0.14874774  0.13870448 -0.09573422 -0.02269069  0.05113928
 -0.3917129   0.3158208   0.21178883  0.03442602 -0.03318248 -0.2830207
 -0.2169744  -0.05637547 -0.12262056  0.06245773  0.22300625 -0.06648362
  0.1240704   0.1617764   0.05780335  0.14579047 -0.1542484  -0.15508524
  0.10211922  0.0459937   0.28998393 -0.24747121]
[-1.9748293e-02  1.0296167e-01  5.0797129e-01  3.1081042e-01
 -1.6269286e-01  2.5059867e-01 -8.1257574e-02 -3.6983675e-01
  1.6383643e-01  2.2401667e-01  2.0718271e-01  8.1833728e-02
  2.6885077e-01  3.2691172e-01  2.9295778e-02 -7.1975052e-02
  1.5198667e-01 -1.2592669e-01 -4.9857859e-02  1.7738496e-01
 -2.1824564e-01  1.2463359e-01 -2.1385358e-01  3.7624726e-01
  1.5463418e-01  8.1589274e-02 -1.4203465e-01  1.6910289e-01
 -2.2754255e-01 -2.0300247e-01  1.3418717e-04  4.8236364e-01
  1.2399514e-01 -3.1487057e-01  2.5444701e-01 -1.4685719e-01
  1.4980629e-01  3.0988434e-01  6.1135735e-02 -3.2429621e-02]
[-0.07023156  0.2128063   0.11438213 -0.09299921 -0.17624159 -0.07006486
  0.16918491  0.22215472 -0.11474635 -0.14891522 -0.02338841 -0.17626826
 -0.33390287 -0.20226976 -0.15812975 -0.11563832  0.20275198 -0.10251513
  0.32701293  0.22016467 -0.26224458  0.16028178  0.10047764 -0.04252401
  0.01796759  0.19080055 -0.28640616 -0.27730352 -0.09906631  0.26522952
  0.14193551 -0.14536947  0.7346797  -0.2877014  -0.0377074   0.182277
 -0.07682483 -0.23870549  0.23977186 -0.0166804 ]
[ 0.07096012  0.2152225  -0.00122133  0.03816231 -0.07286099  0.050486
  0.20465967  0.36270514 -0.01929636 -0.00304578  0.4377966   0.26986486
 -0.21821733  0.03784305 -0.09493406  0.14369701  0.05488548 -0.14601327
 -0.05081314 -0.11736509  0.36253572  0.35123244 -0.22237746  0.07930106
  0.2612124  -0.04878489  0.08425152 -0.47635928  0.10232551 -0.01451516
 -0.13080397 -0.32915515  0.05750456 -0.24581325  0.20546475 -0.3103475
  0.08599972  0.24047358 -0.48079407  0.20223278]
[ 0.27204046  0.4787191   0.06702642  0.2043325  -0.01877071  0.13310419
 -0.00158216  0.33639625  0.07051755  0.25322023 -0.21443887  0.19281247
 -0.0023965   0.00072701 -0.06826537  0.2541035  -0.0932369  -0.1345528
  0.23030993  0.19918789  0.02512886  0.3073628  -0.42661995  0.04833169
  0.17937271  0.17443916  0.2539567   0.06869908  0.02510108 -0.06376314
 -0.08782808 -0.27482378 -0.09591839  0.39885175 -0.01448549  0.17835677
 -0.11062281 -0.2176774  -0.16996153  0.02655078]
[ 0.3334911  -0.27525938  0.1728067   0.22369681  0.36934656 -0.07654009
 -0.10872982 -0.21702571  0.11490064 -0.18899763  0.0317481   0.37361047
 -0.41598085 -0.00249736 -0.00783603 -0.19314644  0.17976569 -0.06698124
 -0.2603792  -0.00079109 -0.04192637 -0.09495538  0.15533654 -0.15792428
  0.03839311 -0.14410807 -0.17869756  0.01867206 -0.12337797  0.06888212
  0.22297715 -0.00135611  0.06376438 -0.07294969  0.00420171 -0.31253096
 -0.05571103  0.50053936 -0.1189655   0.11894818]
[-0.08994282 -0.22214657  0.00231845 -0.3304656   0.34604806  0.29492882
  0.06194565  0.0893614   0.09658979 -0.35097155  0.46998164  0.01165324
 -0.30842972  0.12933052  0.09581117  0.42041895 -0.03204677  0.26910934
 -0.2825737  -0.20516583  0.02143618  0.61219764 -0.46410775  0.41187486
  0.19896637 -0.7541949   0.11609424 -0.4490674  -0.38301742  0.37924278
 -0.3955151  -0.32528505  0.28729457  0.24612767 -0.26360574  0.06477012
 -0.22494306  0.9837894  -0.5238425   0.19554904]
[ 0.13680224  0.35258195 -0.11347065  0.22427091 -0.00942518 -0.08143025
 -0.08013488  0.04916439 -0.00056203 -0.08536424  0.29642934 -0.24062164
  0.26235896  0.28066286 -0.14290898  0.32939065 -0.03666851 -0.15235676
  0.01233564 -0.0229156   0.2110539   0.18928927 -0.31932187  0.29513913
 -0.22668223  0.04446197  0.26197496 -0.19212875  0.0400538  -0.07040292
  0.17476697  0.0653491   0.16622944  0.15954758  0.10312439 -0.28767788
 -0.24468024 -0.18765336 -0.16694404  0.2940028 ]
[ 0.33640373  0.08499994 -0.09702167  0.04782495  0.0195867   0.04104014
 -0.19855161 -0.42764914 -0.15994774 -0.5088694  -0.3956359   0.03159581
 -0.37232247  0.05675725  0.2671848  -0.20699789  0.26035732 -0.01987442
 -0.38590592  0.2899523  -0.27670047 -0.0753728  -0.18501455  0.2639517
 -0.10610178 -0.02672826  0.1361011  -0.4488523  -0.27712    -0.00359013
 -0.2936143  -0.23327479  0.05693743  0.00130766 -0.09908453 -0.06471936
 -0.02768079  0.61886245 -0.1071861  -0.2476766 ]
[ 0.07408323 -0.14159995 -0.20533402  0.02396146 -0.0283339   0.09032285
 -0.19318078 -0.12228448 -0.0166263  -0.02012386 -0.31879926  0.05184798
 -0.08603041 -0.23390804  0.04535448 -0.09365211 -0.13624412 -0.05870103
 -0.09328327 -0.32298893 -0.35350984  0.31315503 -0.3340597  -0.03815882
  0.20942576 -0.06546991 -0.02670409 -0.5472277   0.37419224 -0.39259428
 -0.12200882  0.02753768  0.5548974  -0.03193064 -0.07825798 -0.02674691
  0.3937519  -0.0241284  -0.05688738  0.00296414]
[-0.2606645  -0.19404803  0.19494234  0.16748708 -0.04619651 -0.10888629
 -0.18834543 -0.41389492  0.04094552 -0.36535493 -0.01063811  0.20879409
  0.03565492  0.1548227   0.03607491 -0.20966604  0.31546035  0.14560118
 -0.27229056  0.07065001  0.01966626 -0.4281697   0.038814    0.23264939
  0.34595007 -0.02492999 -0.3454665   0.07094282 -0.06530546  0.22088228
 -0.18154122 -0.09380698  0.10908741  0.1655911  -0.0448285   0.12016588
 -0.03970418  0.49473697  0.23895597  0.08927359]
[ 0.16277888 -0.02946961  0.16962737  0.44619218  0.19287576  0.18723206
  0.03432676 -0.21110223  0.28280276  0.27501184 -0.1873687  -0.44283837
 -0.13432617 -0.02216837 -0.02829255  0.2305737   0.12855297 -0.06673224
 -0.2600082   0.17923065 -0.3706605   0.10646204 -0.22123955 -0.16910003
 -0.2337022   0.16946198  0.06091209 -0.33245096  0.88744754  0.21241495
  0.2755246  -0.52522403  0.1550857   0.07865562  0.00254705  0.00698251
  0.09401867 -0.36377403  0.12040468  0.06517192]
[-0.5365067   0.10978156 -0.32411158 -0.33350283  0.01208689 -0.08151522
  0.14945267  0.05131965 -0.07211461 -0.01302273 -0.06464453  0.33476114
  0.21068786  0.15525533  0.03468687 -0.2837372   0.00709    -0.09771924
  0.5583281   0.03002577  0.22118703  0.12393109  0.01818111 -0.38990504
 -0.01448707  0.0170845  -0.13571054 -0.03849777 -0.3183557   0.08904967
  0.22204992  0.13596441  0.24400489  0.22968635  0.16303737 -0.24601151
  0.07629129  0.36603236 -0.1277766  -0.21719667]
[-1.6937727e-02  2.4703437e-01 -3.5534441e-02 -1.9619854e-01
  4.4824325e-02 -2.6522055e-01  2.6065899e-02 -1.5404632e-02
  1.2087891e-01  1.6908157e-01 -1.9120646e-01 -6.7825556e-02
  1.1981075e-01 -4.3806478e-02 -1.0378148e-01 -4.5607891e-03
 -2.0979598e-01  2.1427182e-02  2.6280478e-02 -5.1099781e-02
  4.8277155e-02 -2.7792731e-01  2.1196853e-01  3.6250019e-01
  9.5455676e-02 -2.3870727e-02  1.0791722e-02  2.0703438e-01
 -2.9153494e-02  1.4603896e-01 -4.6292716e-04  8.0853492e-02
 -8.4112209e-01  8.5593343e-02  1.9698976e-01  9.4019026e-02
 -2.7427900e-01 -6.1656991e-03 -1.6930267e-01  5.9448667e-02]
layer 3 Activation
tanh
layer 4 Dense
40 20
[ 0.22666585  0.21698421 -0.0127077  -0.02942123 -0.33148426  0.01206967
 -0.01429238 -0.15963976 -0.08976167 -0.14910096 -0.10702069  0.20753726
 -0.09345181  0.09391506 -0.00321049 -0.10091053  0.05150456 -0.01973112
  0.11745308 -0.10298021]
[-0.23255849  0.02768814  0.15076374 -0.126147   -0.16381474 -0.08319086
  0.11388163  0.0943661   0.10119932 -0.32005093  0.00543595  0.36282638
 -0.10615338 -0.06576563  0.08810474  0.20717172 -0.02981766  0.03314831
 -0.04572701 -0.20953998]
[ 0.16484034  0.10021783 -0.39815867 -0.09242667 -0.02576451 -0.53137416
 -0.25810894 -0.12387801  0.03952916  0.17121325 -0.09508152 -0.16564745
 -0.14082718 -0.04501774 -0.21000601  0.13480994 -0.24665189  0.19309369
 -0.15208566  0.02819715]
[ 0.4321586  -0.11793418 -0.2979405  -0.17737508 -0.20630331 -0.17546144
  0.10785934 -0.17758079 -0.05114361  0.15242796  0.17308982 -0.0562903
  0.239951   -0.23585086  0.16660929  0.19334243  0.10777425 -0.14452708
  0.07931248 -0.22916864]
[-0.05595564  0.18312517 -0.04077673  0.14751433  0.5143042   0.29335064
 -0.01020108 -0.18736477  0.19439912  0.16609637 -0.3127103  -0.17847224
 -0.02424443 -0.10799987 -0.2964569  -0.06236663 -0.11243095  0.2469074
 -0.10973429 -0.21677294]
[ 0.01897586 -0.02678646 -0.09319522  0.02797248  0.22294618 -0.28438285
  0.05289356  0.2620166  -0.21271163 -0.00186619 -0.21530312 -0.26917243
  0.14359479  0.13536748 -0.12526926 -0.08441868 -0.0227051   0.09418854
  0.23877855 -0.20306827]
[-0.04688258 -0.12889256  0.03412199 -0.26777998 -0.12959032 -0.03765978
  0.11453627 -0.02012113 -0.0327676  -0.2308599  -0.07380079 -0.0739565
  0.05822541  0.06317779 -0.15986013  0.05005228 -0.18355419 -0.06191224
  0.21629971  0.05548883]
[-0.11294994 -0.02583601  0.27206388  0.07800307 -0.29193312  0.01394795
  0.34376866 -0.03722539 -0.18003654 -0.26676342 -0.27727336  0.26190698
 -0.0546812   0.2379954  -0.15413727 -0.0078278  -0.1803401  -0.26773617
  0.42013288 -0.02228312]
[-0.1386175  -0.07840771 -0.00453156  0.256593    0.0527788   0.13660453
  0.14803454  0.0974635   0.13194121  0.19275843  0.00509757  0.1434744
  0.1095838  -0.22360747 -0.16334563 -0.21015832 -0.03463646  0.02753934
  0.01636699  0.16892497]
[ 0.25144747 -0.20926663 -0.16789031 -0.20220307  0.0776833  -0.02991045
  0.2782366   0.10311335  0.13806109 -0.08954594 -0.01341909  0.2827366
 -0.00285756  0.09887145 -0.00655307  0.02761206 -0.05724131 -0.28086355
  0.39482835  0.1345574 ]
[ 0.13495792 -0.23907477 -0.18459652  0.05117279 -0.6022985  -0.4161996
  0.29861626 -0.12667248  0.03804028 -0.2899384   0.17160259  0.00844445
  0.06357042 -0.02980048  0.0557224  -0.00889857 -0.06462165  0.0259742
 -0.34885615 -0.15219948]
[-0.07754571  0.13478886  0.03948481  0.17004025  0.00401868 -0.22605361
 -0.16391331  0.20261966  0.182294    0.04109089  0.2782692  -0.12148098
 -0.18261136  0.17711826  0.16789265 -0.00266949 -0.22305375  0.26928836
 -0.17821729  0.19056848]
[-0.18107788  0.2182811  -0.13894461  0.12499274 -0.01730025 -0.2696146
 -0.03058481 -0.34349388  0.18149506  0.35935563  0.49080166  0.22331342
 -0.05811484  0.22368066 -0.09243058  0.18896903 -0.06453358 -0.0125401
  0.15613294  0.06520481]
[-0.12945072  0.41868725  0.00680643  0.24235553 -0.2715967  -0.44931972
  0.07714044 -0.05065609 -0.11658625 -0.01598824  0.12548442  0.20916402
  0.16909291 -0.29124275 -0.1341274  -0.16191374  0.32153237  0.12984316
 -0.1662914  -0.17904367]
[ 0.13335809 -0.04092484 -0.09836742 -0.26451325  0.0081801   0.06437441
 -0.12278126  0.16476727 -0.01184154  0.47424668 -0.00939972 -0.01189363
  0.2621833  -0.13451175 -0.14081201 -0.03048171 -0.14012149  0.04370135
 -0.33900607 -0.16209905]
[-0.03168074 -0.00430918 -0.35604906 -0.17838526  0.03409914  0.30313444
  0.33754072 -0.06617958 -0.2523443  -0.1921974  -0.25001508  0.03593138
 -0.05342326  0.4275523  -0.26862615  0.28909725 -0.30980784 -0.14684834
  0.04977071 -0.074627  ]
[ 0.25514674  0.08730024 -0.37552926 -0.14299498  0.12508337  0.00079479
 -0.129916   -0.0766102  -0.29139608  0.20011637 -0.32470575 -0.36420867
 -0.09117415 -0.30862552 -0.15101762 -0.14888164  0.03910704 -0.01868366
 -0.2236669   0.17536685]
[-0.03277573 -0.04825943 -0.14772081  0.24136113  0.14478292  0.05440319
 -0.12133889 -0.13876338  0.06410477  0.37478375  0.04693649 -0.00795008
  0.044824    0.14486763  0.08287853 -0.0764205   0.11302189  0.21928485
 -0.02472956  0.05528703]
[-0.45976263 -0.097595    0.07452556 -0.21528618  0.14025664 -0.04269486
  0.38709468 -0.07906164  0.05392829  0.19856077 -0.45560074 -0.23582053
 -0.00380418  0.14401698  0.03295124 -0.12739849  0.20946911 -0.28228578
  0.19833079 -0.18824871]
[ 0.3136639   0.18989763 -0.06599046  0.20371743 -0.03127266 -0.04724399
 -0.06585076 -0.30383977 -0.06414244  0.24851735  0.25488815  0.07118233
 -0.17498632  0.02063857  0.27502912 -0.11620823  0.1834248   0.01998576
 -0.06568199  0.03544059]
[-0.44028395  0.14567919 -0.01122416  0.08855969 -0.05339923  0.05929656
 -0.11788692 -0.16554013 -0.03622594  0.27133465 -0.16111888 -0.18701336
 -0.06846127  0.19873714  0.18643896  0.21193081 -0.05034881 -0.27470544
 -0.3863008  -0.07993196]
[-0.34476522 -0.15419331  0.06571651  0.23862809 -0.21523209 -0.15959658
  0.15599695 -0.00773475 -0.16664463 -0.24906273 -0.35214883 -0.12972775
 -0.14937721  0.08733727  0.25662118 -0.08259224 -0.09593145  0.24466023
 -0.13050774  0.06835991]
[-1.48221403e-01 -1.00228116e-01  3.46586496e-01 -6.06637215e-03
  2.35619489e-04  9.08168033e-02 -6.76168576e-02 -1.77156046e-01
  1.50969595e-01 -4.54195812e-02  3.72927099e-01 -1.11106135e-01
  5.71408346e-02 -1.68152928e-01  2.92104870e-01  8.45107883e-02
 -5.44025078e-02  2.06332743e-01  2.43668735e-01  3.41337658e-02]
[-0.07845072  0.10672616 -0.4353222  -0.07535736 -0.04579484  0.07977796
 -0.04800022  0.27653822 -0.12153638  0.15431063  0.12826419  0.23263466
 -0.35332072 -0.40188783  0.03312925  0.11645195 -0.11624002  0.4942025
 -0.17177139  0.1450589 ]
[-0.26306337 -0.03081381 -0.26453373  0.25995472  0.15727504  0.02348974
 -0.15031655 -0.12901142  0.23901188  0.16744955 -0.18251932 -0.19595699
  0.15355486 -0.1620806  -0.20649034 -0.2949068   0.00181631  0.04629692
 -0.18176255  0.0647652 ]
[ 0.3437199   0.00349552  0.147427    0.14390229 -0.09024494 -0.10379458
  0.31898713  0.15598635  0.09440333 -0.21121205  0.30518258 -0.02423747
 -0.01070166  0.19714056 -0.10155986 -0.13239995 -0.09559437 -0.09123826
  0.14604838 -0.38731375]
[-0.25023824  0.17962195  0.25397766 -0.00238776 -0.1098427  -0.2438894
  0.00514761 -0.17152087 -0.01786601 -0.14265682  0.15102836  0.00149416
  0.18479538 -0.10668434  0.12620239  0.12229143 -0.00042183 -0.00047028
  0.18028817  0.1876833 ]
[-0.04701754 -0.18857461  0.261971   -0.02726281  0.14864197  0.2924977
 -0.16981487 -0.09327314  0.37503842  0.497327    0.2884518  -0.02869365
  0.01085519 -0.06817038  0.00272347 -0.11129989  0.19325562  0.23484583
 -0.04500397 -0.02394713]
[ 0.4022244   0.2848654   0.22776052 -0.01770734 -0.31191167 -0.14188087
  0.03414075  0.06831826 -0.18439135 -0.13327588  0.41006267  0.3184608
  0.07434943  0.2677041   0.05983496  0.2428894  -0.04985816  0.1927296
  0.38253334  0.20165166]
[-0.5138298  -0.16036613 -0.29358476  0.10563983  0.39926606  0.34239927
 -0.2533223   0.24038415  0.13179329  0.0770403   0.09066645 -0.08559972
 -0.18615672 -0.02929344 -0.00083422 -0.4164416  -0.03855338  0.3109898
  0.08017025  0.11387394]
[ 0.3034771   0.05661643  0.30356032  0.0741729  -0.01060672 -0.04736501
  0.24493276  0.02360214  0.18183413 -0.24227235  0.10787965  0.01994378
  0.24254692  0.22572194 -0.00185845  0.274685    0.08015359 -0.3682166
  0.0779293   0.20830803]
[-0.1617532  -0.20841828  0.2162556  -0.13977212  0.11646847 -0.4929107
 -0.20206383  0.25036293  0.3710344   0.39306042  0.08180024 -0.2995712
  0.1348955  -0.15713055  0.33464062  0.14667672  0.25975493 -0.13683978
 -0.22032109 -0.17384388]
[ 3.1892687e-01  3.5373031e-04 -1.8745209e-01  2.5599465e-01
  1.9005749e-01 -2.5635126e-01  6.3260317e-02 -1.6085555e-01
 -3.2203805e-01 -2.3279426e-01 -4.2372239e-01 -4.6329463e-01
 -1.3925464e-01  1.4095333e-01  1.5457858e-01  2.5582410e-02
  1.9726591e-01 -1.5811799e-01 -9.1767803e-02  2.7365193e-01]
[-0.056027   -0.0563524   0.39999852 -0.07824323 -0.08865816 -0.35421848
 -0.29898152 -0.1408425   0.2188304   0.24394992  0.05851792  0.22976084
  0.14434269 -0.15332483 -0.05058858 -0.23374775  0.33490768  0.52291065
  0.3936429   0.17849563]
[-0.330806   -0.09934969  0.04073461  0.17100355  0.06602971  0.02876727
  0.20737211 -0.13590316  0.25636816  0.03440815 -0.00406879  0.1901562
 -0.13491294  0.32853463  0.09591896  0.24156326  0.14485033 -0.09709302
  0.18179296  0.02762946]
[-0.1818913   0.01957884  0.26134974  0.11514493  0.14412518  0.2792615
  0.02730398  0.14610164 -0.05688073 -0.31129017 -0.07931226  0.20179844
  0.00863911  0.12334874 -0.00706035  0.080559   -0.15059067 -0.0211115
 -0.03308461  0.15062737]
[ 0.18765846  0.01731574 -0.08022504  0.02008991 -0.07958111 -0.06524176
  0.0462418  -0.02865246 -0.03177863 -0.03851089 -0.04822426 -0.24551369
 -0.01643553  0.0173866  -0.06862495  0.06406768  0.07312923 -0.20385075
  0.17297842  0.22889073]
[-0.36757135 -0.10965712 -0.5001744  -0.17712195  0.05239534  0.48269448
 -0.2518192  -0.00087126 -0.2552716  -0.06420757 -0.45221603 -0.27796292
  0.12685654 -0.27321565  0.0462245   0.1131154  -0.0909071   0.31108695
  0.06668445 -0.05797745]
[ 0.54945683 -0.13332134  0.04227482  0.03586313  0.13052945 -0.06385963
  0.10915471 -0.07332262  0.09058554  0.39033636  0.4646724   0.06063113
 -0.22928564 -0.0312209   0.0381255  -0.17463309 -0.0263749   0.05165527
 -0.19883926 -0.2454932 ]
[-0.17262049  0.08003134  0.11431532  0.07216822 -0.21093638  0.01402387
 -0.1032941  -0.10243877 -0.072076   -0.39582473  0.04977104  0.2936227
 -0.22943084 -0.11103984 -0.01004872 -0.02041443  0.18574525 -0.07276399
 -0.18284312 -0.1806968 ]
[-0.1736436   0.00313991  0.0451326  -0.02075639  0.08921683  0.14650962
 -0.07686225 -0.0391805   0.10364151  0.17558658  0.14100377  0.14804006
 -0.02189726 -0.06643213 -0.00361091 -0.02062937  0.05838444  0.08798167
  0.01189986  0.01019353]
layer 5 Activation
tanh
layer 6 Dense
20 1
[0.14716034]
[0.00236009]
[0.1863495]
[0.00584093]
[-0.00449116]
[-0.1572274]
[-0.19394056]
[-0.00113761]
[0.1477586]
[0.02507368]
[-0.08037428]
[0.09855644]
[0.00950927]
[-0.04650921]
[-0.00520518]
[-0.01655454]
[-0.00422432]
[0.120221]
[0.0888783]
[0.01573249]
[0.12153568]
