layers 7
layer 0 Dense
20 20
[-0.22996818 -0.06692216 -0.0344291   0.34188274 -0.05298166  0.04353505
  0.26534495 -0.28280765 -0.07347692 -0.03860836 -0.03735438 -0.07150383
  0.4073849   0.21473625  0.17483927  0.29904234 -0.0123115   0.02711629
 -0.01178029 -0.33239424]
[ 0.41678464 -0.14930087 -0.45861068 -0.44229674 -0.11662    -0.03487889
  0.2998047  -0.15498345  0.13598703  0.04631224 -0.5286901   0.21647786
 -0.15787284  0.02994338  0.06374983  0.13755035 -0.29657364 -0.11900029
 -0.08823158  0.38841918]
[ 0.19695379  0.0113342  -0.21025449 -0.31132397 -0.57515454 -0.5568591
  0.25841758 -0.03414189  0.19204175  0.6124418   0.13935663 -0.37516898
 -0.34421992 -0.38693047  0.69113827 -0.38354933  0.27132744 -0.18812811
 -0.52548003 -0.18562783]
[-0.07137161  0.21193667 -0.24913912 -0.1370868   0.1626296   0.22387953
  0.14594625 -0.19162065  0.0217675  -0.14920087  0.17460008  0.03759822
  0.46704736  0.16809964  0.11735803  0.09539498 -0.2068469   0.087121
 -0.18399817 -0.46702987]
[-0.00443551 -0.25858268 -0.3781551   0.14791358  0.43102485 -0.31701964
  0.02843504 -0.2586666  -0.3649895  -0.09579071 -0.22006392  0.33392176
  0.40779865  0.24908474  0.07637852 -0.3723036   0.30783316  0.00672022
  0.26359373 -0.06598394]
[ 0.0923084   0.17363836 -0.08846733  0.02024421  0.02005004  0.29820877
 -0.05837514  0.4472058  -0.3909426  -0.34044    -0.22835845  0.22778092
 -0.21093339  0.56842214 -0.64615554  0.25461558  0.05245524 -0.17285475
 -0.12599471  0.2489973 ]
[-0.3408921   0.17590846  0.11410554  0.4575394  -0.14224155  0.17441109
 -0.40431488  0.0036631  -0.36771256 -0.3817009  -0.06680141  0.44657376
  0.19039546  0.21329601 -0.41815424  0.20292744 -0.02001788  0.5248999
  0.16554594  0.02496675]
[-0.17064273  0.09477258  0.31218538 -0.0498817   0.33904117 -0.33503923
  0.3030254   0.15072854  0.39207628  0.22386631  0.0712503   0.08155128
 -0.00748159  0.14896996  0.2102309   0.26283747  0.17923489 -0.3705645
  0.01714231  0.21952683]
[-0.12285779  0.22299509 -0.34884378 -0.15120415 -0.45116293  0.5370787
  0.13555086 -0.06688882 -0.5504416   0.20071076 -0.27105045 -0.08502515
 -0.12723583 -0.22584733  0.14965366 -0.53087324  0.27437267  0.5017666
 -0.11738422 -0.6296551 ]
[-0.02774616  0.21167915  0.31831318  0.31415993 -0.14790201 -0.04381399
 -0.35637018 -0.02144977 -0.04678331 -0.4483412  -0.27687258 -0.06754458
 -0.24903338  0.3441076   0.10792651  0.25566152  0.02919373  0.1328245
 -0.35191187  0.1070244 ]
[-0.09623767 -0.07272619 -0.10285761 -0.16231471  0.588008   -0.13682842
  0.4492477  -0.00623582 -0.36446446 -0.0497793  -0.11683679 -0.3154729
 -0.14287014 -0.0474676   0.40151757  0.04593171  0.3814193   0.05527345
  0.14463063  0.07065628]
[-0.52283096  0.7749402  -0.427866    0.81582403 -1.0487784   0.61057305
 -0.23304588 -0.3905418  -0.59949154 -0.12491038  0.14267275 -0.36708096
  0.34223458 -0.3085112   0.6209176  -0.72926956 -0.36493576  0.17582192
 -0.1809744  -0.9091907 ]
[ 0.08114333 -0.30098253  0.05843128 -0.14889136  0.39472556 -0.35152933
 -0.43373773  0.36864737  0.20247474  0.0795688  -0.06043335 -0.21719481
 -0.05365757  0.16112743 -0.09065307  0.46264702  0.21625513  0.07080691
 -0.1756931   0.12238169]
[ 0.16978659  0.03561218  0.29905215  0.03815248  0.2381161  -0.0887775
 -0.18727122 -0.00304831  0.10408998  0.34891292  0.4297567  -0.02810409
  0.03715187 -0.26562008 -0.32173672  0.2792374   0.4393633   0.24305883
  0.4127427  -0.16537452]
[ 0.09395255  0.13376796  0.18293501 -0.05875934 -0.02847848  0.2997639
  0.40760288 -0.39683148  0.43480748 -0.34247237 -0.23318473 -0.09680314
  0.20996618 -0.06366777  0.30490997 -0.01973115 -0.20572953 -0.2905468
 -0.23778982  0.04468443]
[-0.04677678 -0.40754712  0.19357574 -0.36973986  0.21539842 -0.3646203
 -0.2657826   0.27298597  0.00874381 -0.07755458 -0.03137007  0.26213035
  0.41673467 -0.33270612  0.27146205  0.74060184  0.330218   -0.309958
  0.10555858  0.31050897]
[ 0.06107998  0.18218012  0.01712539 -0.05153079  0.37306407  0.14464113
  0.1967923  -0.01344551 -0.13427007 -0.1778793   0.4416693  -0.0113113
 -0.40373647  0.01660783  0.24387456 -0.05395961  0.05391373 -0.15764746
 -0.31503946  0.4011433 ]
[ 0.15933211  0.1802948   0.1215927   0.15951906  0.41413754 -0.02853978
  0.09428406 -0.2707258  -0.06089985  0.30261883 -0.27737513 -0.01196546
  0.18717003  0.11333829  0.668891    0.0574982  -0.1966472   0.39566082
  0.04444484  0.34072587]
[-0.13122392 -0.04020986  0.08236302 -0.17416935  0.12168176 -0.10482652
 -0.35937354 -0.19968498  0.1189548  -0.06007493  0.67204255  0.05626241
  0.24276824 -0.25517607  0.19622497  0.05221806 -0.02145057  0.00549691
  0.18209782 -0.04278408]
[ 0.13060513  0.10748858 -0.02948557 -0.24859445  0.12145102 -0.5369726
 -0.3467183   0.58372545  0.19958785  0.2869596   0.28730932  0.10777292
 -0.23736754  0.28575176 -0.42713603  0.17467602 -0.6434779  -0.2635139
  0.54368657  0.6535591 ]
[-0.10566062 -0.09731855 -0.24183781  0.11420809 -0.07437956  0.22400078
  0.05245791 -0.0144674  -0.08103189 -0.197274   -0.10331877 -0.06281872
  0.05495745 -0.05778754  0.05319045 -0.12561408  0.05923774  0.17925218
 -0.12618993 -0.00949855]
layer 1 Activation
tanh
layer 2 Dense
20 40
[-0.15783031 -0.19838804  0.06057516  0.25572655 -0.37446436 -0.24932714
 -0.03147558 -0.06771477  0.09638423  0.33620623 -0.04451361  0.09824526
  0.02632585 -0.2385723  -0.02991529  0.25062206 -0.27491683  0.14675383
 -0.01263663 -0.06376616 -0.19216931 -0.19036895 -0.05708573  0.03150278
 -0.09001629 -0.02441362 -0.10441002 -0.05778582  0.22232607 -0.1914924
 -0.03592524  0.23868392 -0.08634426 -0.14142299 -0.28699547 -0.31300652
  0.2190578  -0.16911227 -0.2345309  -0.11863057]
[ 0.18992524 -0.18595777 -0.16934147 -0.08314142  0.10420209 -0.03894938
  0.03550954 -0.03620317  0.2380904  -0.06000729  0.06592262  0.07430034
 -0.14387621 -0.1726678  -0.09320208 -0.02423005 -0.20088807  0.23855238
 -0.05722981  0.33997807  0.01450696  0.02256194  0.04858806 -0.05086497
  0.20961657  0.10165057 -0.2727554   0.06628554 -0.18535216 -0.2611633
  0.02023062 -0.169541   -0.18866222  0.214185    0.04739278 -0.03742927
  0.07898922  0.14913678 -0.04667862 -0.11568618]
[ 0.02404168 -0.09469845  0.45859843  0.09863424  0.20186907  0.05209848
 -0.23148826  0.09156133  0.13789506  0.04804938 -0.21502754 -0.14281847
 -0.02706512  0.1341936  -0.0475559  -0.39861324  0.19806208  0.23632547
 -0.22761352  0.10522765  0.21692787  0.11264281 -0.13768624  0.19448563
 -0.14052504 -0.14747778 -0.04298862 -0.23163046  0.05963127  0.06018575
 -0.07895912  0.31469423  0.05925617 -0.02753136  0.07663423  0.20469841
  0.1754244  -0.08345614 -0.30873996 -0.0463418 ]
[ 0.12071309  0.12671645  0.27679196 -0.10792013 -0.13409823  0.00787729
  0.24584782 -0.21579218 -0.1019261  -0.02935784  0.3189398   0.18645956
 -0.22343336 -0.03538884 -0.25529692  0.3330742  -0.01963555 -0.09627981
 -0.20695126 -0.11102258 -0.07902108 -0.14919826  0.28695515 -0.23243128
  0.15341136  0.13717672  0.30648488  0.35687077  0.19002423  0.05041892
 -0.049896   -0.11188345  0.22726357  0.28382775  0.19697885 -0.15210551
 -0.18100709  0.0353202   0.34057993 -0.06680696]
[ 7.7465244e-02 -7.3001817e-02 -2.0456199e-01 -2.3150955e-05
 -3.9246652e-01 -3.0445075e-01 -3.6882335e-01  2.8210625e-01
  1.6348858e-01  2.8519547e-01  8.5612148e-02  1.3123839e-01
  2.9271957e-01  1.7465320e-01  1.2558450e-01  1.3463648e-01
  4.5760106e-02  2.1883163e-01 -8.9666255e-02  2.5966355e-01
 -4.6547166e-01  3.9887744e-01 -1.8352403e-01  1.4967434e-01
  1.4372484e-01 -3.0466592e-01  2.0000137e-01  2.4800096e-01
 -5.4979999e-02  1.7666912e-02 -1.3117971e-01 -4.8494186e-02
 -1.8895620e-01 -1.3748479e-01 -1.6203369e-01 -1.5014569e-01
  3.1804425e-01 -1.4330426e-01  1.4305464e-02 -2.1400546e-01]
[-1.36084796e-04  1.33588552e-01 -1.13895826e-01  1.52836904e-01
  7.12246299e-02  2.62247890e-01  1.01473294e-01 -3.69681306e-02
  2.08648369e-01  2.50137746e-01  1.07155599e-01 -1.42901272e-01
 -9.25920978e-02  2.53071964e-01  5.02876401e-01  3.27478170e-01
 -8.99042264e-02 -1.80714145e-01  1.17238194e-01 -3.85885328e-01
  2.78245449e-01 -3.52377623e-01  2.29545206e-01 -1.93712145e-01
  2.19418094e-01  3.09794307e-01 -2.08640322e-01  1.40278831e-01
 -3.85464728e-01  3.14080250e-03 -1.48711815e-01  1.43637374e-01
  4.26628560e-01  2.43306030e-02 -2.34845459e-01 -5.54715246e-02
 -1.36639819e-01  3.42287272e-02  2.46551499e-01  2.64003843e-01]
[-0.13896391 -0.20520733 -0.16854082 -0.16441315 -0.06286908  0.10561554
 -0.00153684  0.18585184 -0.17142959 -0.2510213  -0.17478858 -0.13824715
  0.113694   -0.18044962  0.139582   -0.04285105  0.03244216 -0.33971393
  0.09675672 -0.35757113 -0.14855546 -0.20860831  0.21877305  0.24250613
  0.22442494  0.01456749  0.05947367  0.11345051  0.06462388  0.06314486
 -0.17232476 -0.21479501  0.30254528  0.13453577  0.01965114 -0.07654326
 -0.03846979  0.16567424  0.21737388  0.13888483]
[-0.25626406 -0.01645141  0.16387227  0.24467862  0.1102761   0.09857902
 -0.1972745  -0.09176289  0.17984203 -0.26971632  0.1383334  -0.07505085
 -0.01603801  0.01059748 -0.3740229  -0.23172924 -0.07975098 -0.06055567
  0.13257451  0.01150231  0.25593725  0.04818021 -0.05412112 -0.33413136
  0.06755231 -0.13136989  0.14764576 -0.17138436  0.21413575  0.33782825
 -0.382177   -0.16920644 -0.3065722   0.15674035 -0.12311102  0.18875656
  0.12672941 -0.04651926  0.17310095  0.13949789]
[-0.2884092  -0.115808   -0.03889117  0.12173856 -0.22510941 -0.17397681
 -0.27531207 -0.22526026  0.29734764 -0.13329493  0.19203633 -0.12583227
 -0.32214776  0.28087544 -0.0376371  -0.33215657  0.10133792  0.22763488
 -0.01602394 -0.14657445  0.09234185 -0.20513262  0.32176492  0.07330345
  0.17294526  0.12321322 -0.18969925  0.30859616  0.31431532  0.35969904
 -0.159064   -0.09534103  0.12545525  0.1372644  -0.1497995   0.28801948
  0.15000188  0.00079825 -0.1909306   0.1052008 ]
[-0.02595617  0.22160622  0.16217433 -0.25086832  0.15967274 -0.24452648
 -0.27710414 -0.2344255  -0.0585411   0.31726947  0.21892805  0.17233932
  0.2691876  -0.22022086 -0.21062754  0.13706554 -0.08789648  0.20275207
 -0.09495591 -0.15356192 -0.05528507  0.28904083 -0.18397029 -0.00521721
  0.02125137 -0.12353913 -0.10040661 -0.04691557  0.00381913  0.00766399
 -0.0068329  -0.12009109 -0.23909304  0.08803674 -0.00814     0.12658802
 -0.14123912  0.04477156  0.10968702  0.03086676]
[ 0.32291925 -0.08688741 -0.02017303 -0.17652404 -0.13760719 -0.19874896
 -0.23287159  0.22160347  0.03559622  0.4077458  -0.10043456  0.01130496
  0.24332003 -0.28120548  0.1363232  -0.16891122 -0.40374115 -0.08045024
 -0.30851337  0.09760303  0.1764416   0.28214502 -0.1275706   0.31301332
  0.12945662 -0.2628374  -0.22979595 -0.26748624 -0.02250631 -0.15259281
 -0.08177027 -0.20499831 -0.06105342 -0.04875003 -0.43468055 -0.18133003
  0.05287807  0.10412347  0.17284729 -0.16490993]
[-0.19109988 -0.03581639 -0.0653925   0.17011032 -0.03104753 -0.2892074
 -0.09391533 -0.23084532 -0.2389397  -0.11302052 -0.02986783  0.07353617
  0.04337025 -0.26665246  0.15036379 -0.06368853 -0.05942562  0.17810753
 -0.31179872  0.18649098 -0.27927968  0.19813557 -0.1680676  -0.06534654
  0.17466451 -0.05839175  0.03069536  0.09154392  0.25297186 -0.04251477
  0.10670543 -0.30524933 -0.22282793  0.22681974  0.21327527 -0.42410713
  0.07554832  0.00895063 -0.2596046   0.08897638]
[ 0.09866647 -0.04393258  0.18827508  0.16160373  0.06078851 -0.05144748
 -0.20078304 -0.04536298  0.10749202  0.3628383  -0.23751333 -0.24134704
 -0.22779599 -0.12617917 -0.20834376  0.47710255 -0.38495365 -0.05519754
 -0.34289733  0.3582987  -0.31078985  0.05740713 -0.2411447   0.2589415
  0.10657187  0.15930961 -0.16769756  0.00303533  0.10262905  0.01019839
  0.1258318  -0.22326401  0.17117214 -0.23977084 -0.19536646 -0.2578063
  0.11501194 -0.10916898  0.16141947  0.12270133]
[ 0.17604049 -0.02232441  0.09538137 -0.06959054 -0.10395028 -0.18432546
  0.2310692  -0.04009451 -0.06772896  0.14119504  0.07838765 -0.10480381
  0.31738448  0.07356152 -0.05757728 -0.17085874  0.14231956 -0.04042213
  0.1100314  -0.24484473  0.16682872 -0.03388797 -0.16711755 -0.0416678
 -0.1606805  -0.33225355  0.0027632   0.13973945  0.23762937 -0.06382154
  0.11997287  0.21471223  0.06367599  0.19985063  0.3439835   0.16609134
 -0.23235048 -0.24437673 -0.29234684 -0.19968449]
[-0.04824508 -0.06349628 -0.0587958   0.0143174   0.321745    0.29168898
  0.3719351  -0.12598869  0.18171425 -0.18135837  0.27875724 -0.13901511
 -0.18600361 -0.07521003  0.33640644 -0.04802903  0.11108661 -0.45384276
  0.03715454 -0.16965213 -0.04501717  0.13986887  0.42641088  0.11207017
 -0.04664005 -0.16815479 -0.06666648  0.01534733 -0.0955249   0.42950258
 -0.28011703 -0.21763085 -0.01088972  0.17495796  0.19319494  0.05033929
 -0.21627049  0.20620458 -0.04105232  0.01740718]
[ 0.3753129   0.2492211   0.16324408  0.3281444  -0.28988418  0.0423088
  0.11573811 -0.35521296 -0.23357357 -0.04584594  0.09191187  0.12323216
  0.3671004  -0.02363744 -0.22395813  0.11083715 -0.34670988  0.20176259
 -0.02467178  0.3736298   0.28027338  0.21459688 -0.2577568   0.24120617
 -0.26699162  0.15968014 -0.09005804 -0.11004356 -0.00381443 -0.10193001
  0.2219076   0.03312118 -0.5186677  -0.08617275  0.01119098  0.02076046
 -0.07110529 -0.22087763 -0.09398067 -0.37746903]
[-0.3083604  -0.0756202   0.16357693  0.04137127  0.06049886  0.07377025
  0.31241447  0.05665864  0.2827123  -0.03069223  0.01068075  0.01661346
 -0.00514941 -0.09795944  0.07918905 -0.01619096  0.12272514  0.27509066
 -0.3364458   0.1100134  -0.30224934 -0.01740081 -0.13642244  0.10749222
  0.22227481 -0.27527267 -0.3605222  -0.18306889 -0.20272945  0.03794018
 -0.0748141  -0.12146354 -0.3187321  -0.28096572 -0.379319   -0.02702388
 -0.17524968  0.0661109   0.1075036   0.01884273]
[-0.02614613  0.34238598 -0.18274312 -0.28693897 -0.05308308  0.00079251
  0.26304343  0.06173816  0.2379394   0.05626617  0.04958126 -0.31462362
  0.24966298 -0.2003541   0.02018304  0.45526764 -0.0523623  -0.22707628
 -0.04645564 -0.00382476 -0.31887478 -0.2649632   0.20875202 -0.22047156
 -0.11107358 -0.02915531 -0.06541973 -0.22555865 -0.0711809  -0.19961771
  0.10220665 -0.17403243  0.13500068  0.14730777 -0.03424516 -0.356888
  0.08307597  0.30400965  0.00172698 -0.12745965]
[-0.19228254 -0.05930955  0.11571179  0.18134044  0.20158266 -0.183859
 -0.12159968 -0.043492   -0.13811372  0.19782138 -0.08860724  0.01795467
  0.10064822  0.1522416   0.16508558 -0.1423996  -0.34488618 -0.09272746
 -0.30161336  0.08032861  0.06992814  0.26760247 -0.4895135   0.06432552
  0.20567405 -0.24922875  0.00843275  0.0337079  -0.21485882 -0.29896766
  0.05127544  0.0053327  -0.06851176 -0.16518909 -0.19861223  0.07625286
 -0.27948615  0.24229154 -0.2654591  -0.16684891]
[-0.37605894  0.15507397  0.1562078   0.0550704  -0.26134008 -0.1969479
 -0.16459131  0.07628702  0.11994854  0.10888112  0.01993981  0.13281967
  0.24193098  0.24812636  0.35099864 -0.43638986  0.325678    0.16222644
 -0.01490609 -0.24992107  0.03055585  0.33258444 -0.17507365 -0.19069718
  0.32839388 -0.32991827  0.20306945 -0.26173583  0.19289532  0.00110415
 -0.17640252 -0.02732801  0.17670934  0.08964537 -0.05970264  0.07345081
  0.36065367 -0.10170124 -0.15770969  0.12833439]
[ 1.29004568e-01  1.53209269e-02  1.38916850e-01  5.41225709e-02
  1.82718635e-02 -4.93836440e-02 -8.88186544e-02  2.04037642e-04
 -9.72399265e-02  1.57519072e-01  4.66975907e-04 -5.62108681e-03
  5.63070066e-02 -1.89224854e-01  3.80021818e-02  2.12232143e-01
 -4.75341268e-02  1.86431110e-01 -1.15166970e-01  1.38773531e-01
 -1.26715884e-01 -9.10331905e-02 -6.82553276e-03  9.06316563e-02
 -5.72666340e-02 -2.51561049e-02 -1.19313404e-01  7.27151707e-02
  4.42048628e-03 -1.56811148e-01  3.41408968e-01  1.96784139e-02
  7.77945220e-02  5.59658222e-02  2.56511904e-02 -3.64007115e-01
 -1.65827081e-01  8.97446349e-02 -1.31993517e-01 -5.74898086e-02]
layer 3 Activation
tanh
layer 4 Dense
40 20
[ 0.3262291   0.04850846 -0.08089588  0.10017086 -0.10037403  0.0088572
 -0.1311846  -0.12048987  0.06347405 -0.07383381  0.20740183  0.35323456
 -0.18538903  0.36462986 -0.03835947 -0.24825457 -0.22736011  0.04071161
  0.13639793  0.272848  ]
[ 0.12427028 -0.07905053 -0.00527785  0.14027381  0.15838793 -0.09960566
 -0.06389957  0.38839     0.33675662  0.02632273  0.12939222  0.4205912
  0.20489356  0.06517474 -0.32869413 -0.04526472  0.15145902 -0.28178355
 -0.04483418 -0.01115051]
[ 0.18385664  0.03892942 -0.09703393 -0.10053974  0.10737957  0.02476321
  0.05417777 -0.2667844  -0.2678026   0.23286667 -0.09185463  0.07951539
 -0.04389756 -0.27040437 -0.18002923 -0.17948292 -0.13644943  0.15149643
 -0.2826592   0.11545472]
[ 0.21550561 -0.27797773 -0.00758744  0.19774447 -0.24436565 -0.095887
  0.23387755  0.1257563   0.03830974  0.0922324  -0.02045303 -0.08541619
  0.06830643  0.25242174  0.0553668  -0.11284932 -0.3033797   0.1715764
 -0.4321716   0.07612673]
[-0.01775222  0.06525691  0.10580075 -0.26913643  0.22616015 -0.12156767
 -0.20036142 -0.13127075 -0.21136713  0.31956926 -0.00561776  0.15254204
 -0.12538601  0.01390063  0.27282593 -0.14194132 -0.24318522 -0.01299806
 -0.2042566   0.01550161]
[-0.06094398 -0.2416404   0.05094673  0.00300807  0.11701924  0.17598541
 -0.0297819  -0.23578966  0.1533852  -0.2080319  -0.10644353  0.22655183
 -0.26825255 -0.23024815 -0.05878016 -0.24226387 -0.11628423 -0.33298993
 -0.31380394  0.06194643]
[-0.11396243 -0.15834169  0.19291596  0.3804195  -0.20015803 -0.15648328
  0.22739215  0.0622315  -0.3544922  -0.16623965 -0.23917252 -0.0347463
 -0.27733463 -0.15353571  0.1321857  -0.24752946 -0.04555544 -0.15065752
 -0.16466676 -0.33653617]
[-0.1096844   0.0453421  -0.24541155 -0.04941681  0.07609722 -0.09295923
  0.2893154   0.06643265 -0.2403689  -0.2690785   0.15984485  0.08212885
  0.0839902  -0.2250444  -0.15160654 -0.08144144 -0.1463047   0.21987203
  0.02140756 -0.24425612]
[-0.1763921  -0.191533    0.0065553  -0.26656598 -0.24385893  0.02770921
  0.02744978 -0.22550243  0.14593188  0.17149517 -0.30912122  0.04623243
 -0.22849384 -0.20177424  0.04832758 -0.18147424 -0.06322892  0.3007518
  0.31951323 -0.14295216]
[-0.03816187  0.01093287 -0.12605383 -0.2649927   0.12807257  0.06069075
 -0.26002812 -0.2891367   0.28429335 -0.07427555  0.14954022  0.2555644
  0.32058096  0.24626027 -0.17045477  0.22231244 -0.10935889  0.14825997
 -0.13267477  0.24289949]
[-0.21689832 -0.01821027  0.17282005 -0.1208437   0.22804873 -0.18319303
 -0.02565448 -0.05481303  0.01152204 -0.08783213  0.2227953  -0.10787392
 -0.01110296  0.22650023  0.05787321 -0.07440425  0.03514079 -0.07319573
  0.22971474  0.09850272]
[-0.08984812  0.05426252  0.1039924  -0.10587202 -0.02311746  0.13469858
 -0.03010325  0.16704334 -0.39626995  0.02957649  0.12097426 -0.22495045
 -0.01326281 -0.00386489  0.1475366   0.24850671  0.33733383  0.41796452
 -0.11152072 -0.13541642]
[ 0.06856865 -0.07668007  0.16863777  0.23406404 -0.11472569  0.20975925
 -0.2898224  -0.18084261 -0.24924164 -0.01054049 -0.14115931  0.04532864
  0.0419127   0.1913708  -0.08012551  0.15040807  0.19658987  0.20506583
  0.20384192 -0.3398949 ]
[-0.03226056 -0.08764298 -0.21902278  0.18998638  0.07687931 -0.0544964
 -0.20456609 -0.2033826   0.04205156  0.16010459 -0.05631676 -0.35561335
  0.14304271 -0.15448304  0.5380935  -0.3016932   0.01093643  0.0279393
 -0.11939202 -0.20874111]
[-0.29599762  0.08716054 -0.03821695 -0.3363572  -0.04861045 -0.22003914
  0.02926083  0.06282348  0.00507831 -0.20256068  0.10908988 -0.08106443
  0.2622008   0.24438934 -0.15781395 -0.02247653 -0.07367442 -0.15474695
  0.2710475   0.15555105]
[-0.02529361 -0.2483715  -0.11192536  0.08738177 -0.02920663 -0.2943785
  0.21013339  0.13188216 -0.22985378  0.02901267  0.13732527  0.4102616
 -0.1223294   0.10436175  0.14051105  0.18022364 -0.14160277 -0.38758257
  0.15334933 -0.22562183]
[-0.20572828 -0.12580314 -0.01026665  0.24670807 -0.28164044  0.27465376
  0.34087744 -0.08629663  0.10665082 -0.20925646  0.24553932 -0.38446888
  0.06616242 -0.03200164 -0.07251772  0.15855122 -0.07154843 -0.31868014
 -0.07894794 -0.3123956 ]
[ 0.28215888 -0.01751116 -0.29189008  0.08312125 -0.12425312 -0.05557038
  0.15729877  0.29509202 -0.13936093  0.17388082  0.04114615  0.04726024
  0.11976341  0.15549743  0.02364748  0.01572937  0.10240644  0.35313606
 -0.26433527 -0.24337286]
[ 0.08968417  0.04551578  0.109528    0.2366109   0.14836265 -0.1905652
  0.273791   -0.25250113 -0.19643553 -0.17250982  0.00089736 -0.28836754
 -0.21804817  0.2081951  -0.10339646 -0.27414855  0.08999257  0.14852436
 -0.14062452  0.20280404]
[ 0.24249195  0.01223891  0.22428098  0.30701965 -0.07350338  0.1315554
 -0.08266978  0.26233283  0.00558945  0.02215079  0.08078749  0.3070412
  0.18075618  0.11266525  0.05648836  0.21551953 -0.26814687  0.23983638
 -0.28997436 -0.13286838]
[ 0.3343345   0.05479482 -0.13732323  0.08235956  0.29104704 -0.07350047
 -0.18472317  0.10952619 -0.07942939  0.3037129   0.31237867 -0.26145685
 -0.19062263 -0.3178883   0.48276985 -0.10612797 -0.00240171 -0.11147071
 -0.1702681   0.35108864]
[ 0.00283143 -0.01539236  0.08437639  0.23778762  0.10644955  0.2715294
 -0.29492477  0.11074515  0.18271518 -0.21431208  0.05862054 -0.06965587
  0.19441639 -0.23953483  0.22284995  0.23479088  0.30383614  0.37753782
 -0.06378558 -0.09307904]
[-0.26218632 -0.00266941 -0.00770784  0.02774956 -0.05065427 -0.14821924
 -0.10772809  0.1702658  -0.08332668 -0.21741088  0.2028028   0.02265653
  0.09574498  0.2161797  -0.13021454 -0.36174592  0.00704412 -0.3794123
 -0.25655562  0.20988359]
[ 0.33285117  0.08995526  0.04025806 -0.28239387 -0.19979386  0.1575845
 -0.04185122 -0.09230993 -0.16801016 -0.25496462 -0.05882963 -0.09051932
 -0.07275696  0.18318659 -0.01547218  0.07138068 -0.20961231 -0.07012161
  0.31033272  0.05398693]
[-0.383273   -0.02471878  0.05854786 -0.48313904 -0.10130975 -0.24134246
 -0.0287602  -0.05928445  0.05813871 -0.32302105  0.19986415 -0.18465188
  0.01057927 -0.21548973  0.29577345  0.3927194   0.11209162 -0.01344457
  0.23488747  0.03795995]
[ 0.29511282  0.00500005 -0.14356649 -0.08337748  0.1486617  -0.01414688
  0.15342802  0.01677292 -0.09989652  0.22131559  0.00715366  0.32135394
  0.09311626 -0.11794019 -0.0941552  -0.18137683 -0.2543553  -0.34111682
 -0.2612042   0.20481765]
[-0.04694058  0.03328969  0.11208344  0.2786669   0.03099633 -0.05823859
  0.09155712  0.2448319  -0.06936631 -0.2235204  -0.3315219  -0.13871503
 -0.1688878   0.08043302  0.22151221 -0.25728673  0.35812512  0.25417367
  0.06588529 -0.21695116]
[ 0.2346494   0.01443073 -0.00613115  0.2847998  -0.14670898  0.3032224
 -0.01648064 -0.0843488  -0.09776203 -0.21397635  0.00302751  0.01509356
 -0.19572037  0.11718192 -0.02796426 -0.2665805  -0.26938125 -0.30809048
 -0.17477208  0.18718523]
[-0.13671719 -0.04275255  0.5605977   0.20047578  0.02323774  0.1049204
  0.08875412 -0.00904407  0.11052325  0.40050104 -0.09792934 -0.40293193
  0.14351515  0.29518396 -0.20125335 -0.07259621  0.14612502  0.17580286
  0.1170885   0.2948391 ]
[-0.0471545   0.31791088 -0.28482988  0.0428634   0.07725969  0.18169041
 -0.25971922 -0.25333843 -0.03996693  0.15975541 -0.24141595 -0.17268267
  0.08178531  0.04775425  0.01234398 -0.20445773  0.25689653 -0.14139983
  0.34466228 -0.11715029]
[ 0.19814254 -0.15547079  0.22473809  0.07984028 -0.0411112   0.04901422
  0.07963773  0.12634516 -0.12950931  0.30309272  0.03196662  0.33105063
  0.12635481  0.10931199  0.07327285  0.05611046 -0.07886755 -0.36577025
 -0.07632037  0.06616943]
[ 0.22629037 -0.20998295  0.15135567  0.0599542   0.17863637  0.07584537
  0.21384875 -0.11154087  0.32459012  0.23103884  0.17337924 -0.10075189
  0.04675903 -0.04835358  0.02919429 -0.15240002 -0.20301484  0.06972912
 -0.2256796  -0.09375538]
[-0.3321517  -0.30265802  0.20575474 -0.32726526  0.06975521  0.26320848
  0.30708623  0.13572532 -0.12645419  0.02223874  0.21320099  0.20007806
  0.18630381  0.29160136 -0.07579605 -0.17661677  0.20388936 -0.4445049
  0.01403203  0.28943974]
[ 0.15909573 -0.18502471  0.04756238 -0.27254277  0.18486333 -0.0693627
  0.09386975  0.11651512  0.14696772 -0.08916841 -0.11423856  0.126662
 -0.00773723 -0.1638475   0.03824668 -0.12803781 -0.06214364 -0.00320036
 -0.14409313 -0.05720194]
[ 0.01950516 -0.0197057   0.18667592  0.2938416   0.12905821 -0.1283769
  0.25159836  0.2504057  -0.06062655 -0.05286933 -0.25081983  0.16004343
 -0.17093813  0.2902097  -0.1429248  -0.23958716  0.28833395  0.24000606
 -0.05483671  0.06264532]
[-0.0498153  -0.20156433  0.02284567 -0.17547241 -0.15210791  0.18862937
 -0.07653601 -0.07097397 -0.06765727  0.17891422  0.1187488  -0.19396253
 -0.28433546  0.02158117 -0.15550525  0.00370061  0.35681388  0.14751425
 -0.07971754  0.10175742]
[ 0.15445329 -0.02818336 -0.1628879  -0.20640133 -0.28576684 -0.15142833
 -0.0554956   0.30307406  0.21608324 -0.24689052  0.18173158 -0.25645807
 -0.03203704 -0.25009683 -0.11403069 -0.25784865  0.10344734 -0.00410979
 -0.01500695 -0.18857005]
[-0.29546887 -0.31058812  0.22293282  0.05300842  0.04795394  0.17128402
 -0.10153654  0.30585495  0.31757587 -0.17746338 -0.25279838  0.2811543
 -0.13986354 -0.06943032 -0.24395238  0.1638858  -0.3251485  -0.04125559
 -0.01921184  0.15383314]
[-0.0561633   0.01261527  0.09062349 -0.0846511   0.00550817  0.10597518
 -0.13067421 -0.16901776 -0.2895973  -0.19734293  0.2157898  -0.05885877
 -0.16971543  0.02593997  0.26109248  0.13605423 -0.08169384 -0.01522793
  0.18251276 -0.0949939 ]
[-0.14304468 -0.25218692 -0.09721575 -0.44696313 -0.10952841  0.26387993
  0.36871764  0.04744047  0.24793506 -0.16220674  0.1791492   0.05917845
  0.15715364 -0.1340496  -0.03126268  0.01086197  0.25804448 -0.42465445
 -0.25133088  0.04131823]
[ 0.13494235 -0.02300195 -0.01355517  0.12980579 -0.08264124 -0.00347275
 -0.08599543 -0.07994606 -0.10112706 -0.07278281 -0.04284428  0.07370585
  0.09211797 -0.05371724  0.05558848 -0.08673343 -0.01616517  0.04547886
  0.11690516  0.11579648]
layer 5 Activation
tanh
layer 6 Dense
20 1
[0.14626588]
[-0.13884065]
[-0.01949421]
[0.07700523]
[-0.04117023]
[0.01036841]
[-0.08466795]
[-0.01077461]
[-0.01864616]
[-0.11007894]
[-0.00562313]
[-0.13901457]
[0.15671612]
[-0.05901317]
[-0.00951986]
[-0.11938445]
[0.06676676]
[0.11991437]
[0.11643112]
[0.1367073]
[0.1116471]
