layers 7
layer 0 Dense
20 20
[ 0.13267878  0.19595194 -0.22353506 -0.16891138 -0.10546817  0.36149156
 -0.17234625 -0.4760177   0.00574466 -0.03594193 -0.04723358 -0.28047255
  0.024756    0.04820862  0.18272439  0.3108228   0.13923597  0.23024017
 -0.3296184   0.30105633]
[ 0.12309232 -0.22096482 -0.46119234  0.1918966  -0.18050516  0.4638766
 -0.01214816 -0.10645558  0.32281774  0.35917407  0.11821666 -0.2557629
  0.41203263 -0.2347823  -0.1410356   0.06511156  0.12944026  0.04510121
 -0.44464082 -0.01468007]
[ 0.2770767  -0.35952964 -0.14345416 -0.03495864 -0.02701803 -0.04672056
 -0.1478711  -0.02533259 -0.01739982  0.06656957 -0.1128444  -0.31388626
  0.33004573  0.04268065  0.29087308 -0.43447855  0.40171692  0.16534524
  0.14157125  0.28762358]
[-0.30906296 -0.04394675 -0.09345475 -0.18785337 -0.08682297 -0.01956562
 -0.16045213 -0.2916548   0.09794573 -0.2911056  -0.00052938 -0.08288336
 -0.14815353 -0.061358   -0.21256694 -0.25336856  0.15460248 -0.10751434
 -0.05042236  0.34500065]
[ 0.22259507 -0.24632743  0.07604203 -0.01772719 -0.10428855 -0.12270208
 -0.2259768   0.02796455  0.02004968  0.33724618 -0.27199215 -0.2692343
  0.2537529   0.23446158  0.22466926  0.01927287  0.05340068  0.29273462
 -0.19768159  0.14304118]
[-0.57984215 -0.07797004  0.5328545  -0.24763362  0.05792598 -0.3120407
  0.06411716  0.54184836 -0.11131848 -0.30784363  0.04401987  0.32255274
 -0.1243963   0.23828831  0.22607073  0.27144125 -0.04251391 -0.43457335
 -0.13152924 -0.1749987 ]
[ 0.03129577  0.3409092   0.20333038  0.22937952 -0.18853268 -0.29219934
 -0.22479913  0.21378502 -0.05359989 -0.20861775 -0.08105801 -0.10323102
 -0.39938664 -0.10261045 -0.3118999   0.27473718 -0.23127401 -0.14280882
  0.25579953  0.1143271 ]
[ 0.28692865 -0.29332477  0.1576229  -0.19044314  0.22144675 -0.45315367
  0.32771823 -0.15510961 -0.1676836  -0.42352247 -0.11690874 -0.05271308
 -0.2813449  -0.08133439  0.11643288  0.16154972  0.32816675 -0.18034375
  0.06492866  0.12197052]
[ 0.13073061  0.36226875  0.30249256  0.2762597  -0.3020099  -0.21669368
 -0.17306812  0.03423147  0.08624421 -0.00163695  0.28874493 -0.34753007
  0.07357107 -0.1659835   0.4827661   0.10765924  0.16343893  0.2232408
 -0.06025487  0.551011  ]
[ 0.03989768  0.2150319   0.27695438  0.4530522   0.00086398 -0.28634822
  0.16684939  0.05693129 -0.12171884  0.15918793 -0.24738097  0.07184044
 -0.51440275  0.14959864 -0.34657648  0.0304475  -0.15901075 -0.32900402
 -0.15362898  0.12077929]
[ 0.21876374 -0.22437069 -0.22477521  0.3790552   0.19708723 -0.01623695
 -0.16793258  0.18062228  0.00084854  0.12343542  0.11505502  0.00049797
 -0.27642334 -0.18266432  0.02337666 -0.17031068 -0.09927768 -0.0727822
  0.4918871   0.28540653]
[ 0.203318   -0.02851467  0.43227673  0.0166522  -0.28374302 -0.250893
  0.01799552  0.2524587  -0.2766796  -0.41830707 -0.32366028  0.11529543
 -0.4428533  -0.01294966 -0.22545888  0.04886222 -0.43185645  0.08600923
 -0.08106685  0.06789576]
[ 0.27046174 -0.01337572  0.1805928  -0.19549379 -0.43993104  0.6630765
  0.09148823 -0.13608381  0.07622664  0.18301459  0.3344559  -0.49614936
  0.49831235  0.14058687 -0.06905226 -0.29602462  0.28632283 -0.01190449
  0.02859075 -0.54008174]
[-0.19427575  0.12172178  0.08341994  0.11967345 -0.1882859  -0.3244267
  0.14810747  0.25484315 -0.24630985  0.21742663 -0.20776272 -0.12886448
  0.07105498  0.48728833 -0.19330768 -0.16956498  0.21146907  0.1516024
 -0.34558228 -0.23524947]
[ 0.62925416 -0.28517768 -0.22552973 -0.21804474 -0.00782808 -0.07673693
 -0.344919    0.39664322  0.09135967  0.15721089 -0.21463148 -0.34228697
  0.6863112   0.30810812 -0.359288    0.07772726  0.06478297  0.2653004
 -0.4314098  -0.43964538]
[-0.3026813  -0.49187687 -0.70469135  0.5037852  -0.36882648  1.3378383
 -0.03943399  0.04051464 -0.09650869  0.28239986  0.06112055 -0.66703045
  0.13448219 -0.59606636 -0.3108055  -0.23661473 -0.3678808   0.24468538
 -0.28459734 -0.51493037]
[-0.34019607 -0.3489741   0.31140372  0.08169536  0.41001004 -0.03975886
 -0.22169098  0.05810015  0.2610106  -0.29712167 -0.2294522  -0.32972994
  0.10573135  0.0217894  -0.38225704 -0.05796148 -0.2968287   0.3155312
 -0.29866317  0.5641107 ]
[ 0.1142149  -0.27398998 -0.41293153  0.23434861  0.15798126 -0.04250981
 -0.1962437  -0.06384746 -0.37877876 -0.11362871 -0.19610038 -0.3738229
 -0.23338467  0.26481095  0.34927723 -0.22594456 -0.0194978   0.1250407
 -0.19673796  0.26954904]
[-0.13346553  0.27762547 -0.33748856  0.14890744  0.10391089 -0.01529433
 -0.04263685 -0.3629812  -0.17319803 -0.02592577 -0.16145594 -0.29377916
  0.11710164 -0.02985057  0.3972948  -0.31759995 -0.28706384 -0.32815018
 -0.14088991  0.2843143 ]
[ 0.2041031   0.53226626  0.18035577 -0.26225677 -0.00573865 -0.3749748
 -0.09170919  0.2439386  -0.36966464 -0.20720169  0.07782557  0.12651335
 -0.13872229  0.20131205  0.21775143 -0.14678329  0.05154177  0.145039
 -0.05746873  0.40459168]
[ 0.07763278 -0.01413241  0.06515185 -0.00866027  0.06721681  0.0541404
  0.03546933 -0.01772292 -0.02738298  0.04206741  0.00915136 -0.09508231
  0.11593197  0.00103493  0.03993613  0.02896167 -0.04702127 -0.05274128
  0.04528112 -0.05583825]
layer 1 Activation
tanh
layer 2 Dense
20 40
[ 0.21483961  0.20819575 -0.09432557 -0.0478256   0.23913209 -0.03428589
  0.00350515 -0.2878955   0.10159367 -0.16454852  0.20306407  0.2008483
 -0.26640633 -0.13692823  0.03959406  0.25511384  0.18904145  0.07795889
  0.0406352  -0.12946011  0.09127996 -0.27699003 -0.10454173  0.14280932
 -0.15014619  0.12377723 -0.08630987 -0.06008958 -0.03738037  0.04694974
  0.06530254  0.0140448   0.29199523  0.18443802  0.23296897 -0.09649465
  0.1933514  -0.06251346 -0.0136554  -0.1493846 ]
[-0.20814294 -0.09778578 -0.14596696 -0.06147983 -0.20095652 -0.2703508
 -0.34109163  0.1438777  -0.03239812  0.01653298  0.29908714  0.33139497
  0.07718243 -0.1376716   0.2579297  -0.00664943 -0.3103003  -0.27668127
  0.06764525  0.20594943  0.14834146  0.15923017 -0.11518893  0.01690768
 -0.0965312  -0.2012934   0.144355   -0.04774901  0.10324691 -0.21742088
  0.00954351  0.04489948 -0.3002715   0.3476128   0.17127827  0.04102231
  0.25846016 -0.27741134  0.33962014 -0.19882025]
[-0.20870255 -0.09538234  0.14190938 -0.16856198 -0.10022232  0.17707583
  0.08732726  0.10997859  0.22778979  0.21230368  0.08785801  0.03851531
  0.0096643   0.10368972 -0.07642521 -0.271413   -0.03902201 -0.14788178
  0.15095015  0.17052071 -0.31621897  0.23569626  0.17540215  0.18810782
 -0.14179997  0.09186158 -0.11551892 -0.16246794 -0.05340904 -0.00738443
 -0.07281712  0.2197632  -0.23077488 -0.19894627 -0.06028796  0.28304064
 -0.03918919 -0.00869688  0.14256558  0.17469907]
[ 0.08373322 -0.14281051 -0.10342091 -0.26737618  0.12172773 -0.15311563
 -0.1804738   0.11319677  0.02556486 -0.14767139  0.13607419 -0.15624672
 -0.13575587 -0.16234861 -0.08820738  0.2092259  -0.13342072 -0.20325641
  0.2925657  -0.1020112  -0.18424946 -0.17172262 -0.01116622 -0.03135772
  0.07132556 -0.00459581  0.03947335 -0.27090672  0.16210319 -0.0874182
 -0.21525896  0.12620704 -0.1424838  -0.24036343 -0.32436097  0.18050899
  0.03114418 -0.265661   -0.13762936  0.13591227]
[-0.00734438 -0.20763111  0.09580991 -0.13683784  0.0359272   0.08144096
 -0.135951   -0.01639527 -0.37546802 -0.24508223  0.24377187  0.23415375
  0.07403    -0.16069849 -0.18674982 -0.14169852 -0.17191093 -0.0114961
  0.24381177 -0.20605052 -0.2677865  -0.21266979 -0.17633606  0.33188355
  0.192142   -0.18341431 -0.15900417 -0.06083445 -0.14539437  0.22591801
  0.18544567 -0.15240864  0.25803712 -0.12860335  0.18198854  0.24945877
 -0.30927348 -0.02573982  0.10127168 -0.30404937]
[ 0.6189273   0.33598378 -0.37507147 -0.1593698  -0.5029615   0.18075064
 -0.4121678  -0.2892912   0.23681056 -0.07055142 -0.30017814 -0.24784204
 -0.24233077  0.22730803 -0.1403291  -0.1626463   0.2669625  -0.2794393
 -0.21853815  0.42239276  0.566636   -0.22473815  0.2396514   0.36435854
  0.10191492 -0.0486277  -0.10016104  0.21455064 -0.05186815  0.15465207
 -0.08003464  0.35437474  0.23039311  0.41528273 -0.33272573 -0.41501912
 -0.12682682  0.0200513   0.01315544 -0.03706002]
[ 0.10807779  0.19635019 -0.05272341 -0.18048617 -0.00753654 -0.09115935
 -0.2624986  -0.19692497  0.19924451 -0.04067241 -0.27271935  0.11807962
  0.24038135 -0.05038814  0.18231    -0.03000532  0.01580956  0.31359375
 -0.01719305 -0.23423804 -0.03932218  0.23439905  0.11268664 -0.12207939
  0.09342455  0.11716104 -0.09413619 -0.12456311 -0.09310533  0.04905252
  0.19414805  0.07529577 -0.03456725  0.07320441 -0.09609301 -0.2011971
  0.18481141 -0.06810698  0.23676278  0.14065188]
[-0.38610125  0.20254546 -0.0985668   0.13530761 -0.05709732 -0.05088658
  0.03935501 -0.06981194  0.02994812  0.12498295  0.15537804  0.34050715
  0.12267029  0.02845375 -0.08873928  0.22302592 -0.15662372  0.03772086
 -0.18577912  0.13209489 -0.10212277 -0.13109873 -0.11684898  0.01532117
 -0.1623373  -0.22297576  0.33870175  0.0500677   0.37863356  0.09749264
  0.08786885  0.02966546  0.21999343  0.15581658 -0.21255174 -0.05530181
 -0.33842483  0.02225232 -0.13242142 -0.1409132 ]
[ 0.3185215  -0.16608499  0.18886344  0.09806005 -0.2831793  -0.20481744
 -0.33166686  0.29045585 -0.31484836  0.020255   -0.15091534 -0.12101527
 -0.12432326  0.01867199  0.10000515 -0.178196    0.32652512  0.08801658
  0.02751148  0.08940848 -0.10039564  0.05804061  0.20953272 -0.04489799
 -0.07303082  0.13934419  0.16349839 -0.19041872  0.34337926  0.14145757
 -0.2031505  -0.12218621  0.21237485 -0.13311015 -0.02071942  0.07543738
  0.04216759  0.2667916   0.318728    0.00369434]
[ 0.05658611  0.05652801 -0.09361134 -0.09826502  0.03842524  0.14810094
 -0.1233479  -0.00385753  0.13132133 -0.15333617  0.06500211  0.10516058
 -0.29782486 -0.01203339  0.03353645 -0.1596481   0.08307655 -0.10935831
  0.30542699 -0.07179323 -0.03738157 -0.11528587  0.10923783  0.26817676
 -0.1564369  -0.14371811 -0.21328175  0.26638886 -0.17393354 -0.16823532
  0.09633896  0.03021786  0.23013015  0.2089094   0.02515282 -0.027355
 -0.14800002 -0.15017895  0.31372747  0.2377327 ]
[ 0.21428634 -0.18030314  0.13763611  0.19404612 -0.3072068  -0.08276816
 -0.12505578  0.12146795 -0.08408026  0.28731266  0.16417445  0.09079706
  0.0453588  -0.10839871 -0.2712768   0.03323925  0.15653484 -0.15070875
  0.14519785 -0.11961207  0.08088529 -0.0488576  -0.05969714  0.06225023
 -0.07491113  0.05721114  0.2555462   0.1423941  -0.06981923 -0.03262644
  0.16417065 -0.01225669 -0.03516795 -0.2768067  -0.10727749 -0.15260464
  0.19118248 -0.11776969  0.20850703  0.17482048]
[ 0.24599256 -0.20118105  0.06955059  0.02898634  0.26948714  0.0161941
  0.04632334 -0.08891075  0.06616922  0.1625964   0.24108943 -0.04796991
  0.34600338 -0.3116149   0.28942463 -0.16591999 -0.29744437  0.0998478
  0.22844735  0.04601711 -0.17078525 -0.01227546 -0.12271649 -0.11991528
  0.2627678   0.19622585  0.19674432 -0.28276998  0.07772133 -0.1163504
  0.01487935 -0.24321754 -0.08535671 -0.10649333 -0.25689602 -0.13824819
 -0.08864403  0.28192294  0.03550332 -0.18936324]
[ 0.13367513 -0.22165321  0.16286181  0.29715344 -0.1412846   0.01181639
  0.09418961 -0.40098116  0.22903813  0.27489176 -0.11980374 -0.27794614
 -0.09754284 -0.01518528 -0.04888967  0.2952995   0.1907784  -0.2575397
 -0.25791106 -0.112222    0.02203343 -0.31081867  0.27392018  0.38612437
 -0.23179244 -0.0840803  -0.30844817  0.06840504  0.16788256 -0.20617974
  0.11275882  0.17401747 -0.04454325  0.21383564  0.02253435  0.11801311
  0.0310385   0.19234094 -0.16060671 -0.17690505]
[-0.21474478  0.21175592  0.14168577 -0.20633304 -0.14760998 -0.11445539
 -0.17846484  0.11680613  0.24623078  0.25621328  0.0886493  -0.22680181
 -0.32898745 -0.09549999  0.29066774  0.02895121 -0.03095096 -0.0051749
 -0.25408676 -0.16163358 -0.27136788 -0.05825213  0.15028778  0.35185358
 -0.16400346 -0.11025881 -0.30352482  0.08860775 -0.12764725 -0.07825815
 -0.13723046  0.32912698  0.18332788 -0.0877681   0.23063742  0.14447734
  0.17071414 -0.21880665 -0.16758814 -0.16256714]
[-3.8686123e-01  1.5935038e-01 -2.2161974e-02  3.0304208e-01
 -1.0868834e-01 -1.2313866e-01 -4.5747433e-02  2.3561029e-01
  3.1153503e-01 -2.5983337e-01 -2.4354386e-01  2.4755128e-02
 -7.3887426e-03 -2.2488669e-01 -1.6245671e-05 -2.3487894e-01
 -2.0818110e-01  5.2302405e-02  1.3615812e-01  2.3138419e-01
  1.8969466e-01  2.4775757e-01 -9.3775697e-02  2.0862766e-01
  3.3835745e-03  9.3240462e-02 -8.4931269e-02 -1.9901194e-01
 -1.9447108e-01  1.5016076e-01 -1.7789745e-01 -6.2023669e-02
 -7.2950669e-02 -2.2973111e-02 -1.5398815e-01  1.4536782e-01
 -4.0796433e-02 -8.8736624e-02 -2.1909614e-01  1.8988483e-01]
[-0.03754123  0.05768992 -0.08338702  0.21612605 -0.0564694   0.02901616
 -0.16535912  0.20159459 -0.04051225 -0.15943122  0.11290214 -0.0637389
 -0.18827519 -0.25208148 -0.22324856  0.13482514 -0.09407834  0.12099437
  0.10563484 -0.08744908 -0.162186   -0.00959434 -0.30691677  0.20248377
 -0.08820577  0.09101426  0.08098426  0.22551134 -0.09767705  0.02573152
 -0.18046832  0.01769209 -0.28273124 -0.0964485  -0.01275048 -0.16750327
 -0.17735916  0.07626481 -0.20073022  0.09621745]
[ 0.03238901  0.09513995  0.05733023 -0.1935536  -0.02742284 -0.30069697
  0.03438424  0.00873585 -0.05982855  0.1529502  -0.17365229 -0.23491052
 -0.29261863  0.04206463 -0.04578705  0.07827332  0.10873993 -0.06548351
  0.03052562 -0.11931695 -0.08342859 -0.14655255 -0.1735385   0.38462257
 -0.27585262 -0.17455992  0.1160479  -0.01753931 -0.19646883  0.01287036
 -0.04202513 -0.058669   -0.13271047  0.20866488  0.01579763 -0.24701864
 -0.13020988 -0.01600551 -0.01529402 -0.06042561]
[-0.03304377  0.11883341  0.1719352  -0.20193532  0.22107764 -0.21571164
  0.22916132 -0.26073354 -0.19869773 -0.09410375 -0.30738914  0.29215392
 -0.02637801 -0.17881206  0.1831129   0.08649143  0.09597954 -0.02727925
 -0.43041596  0.09008367  0.21107629  0.18339056 -0.03411285 -0.23362418
  0.13813466 -0.04039417 -0.24077898 -0.10994945 -0.03926978 -0.11833745
 -0.24644108 -0.21354787  0.11024652 -0.10281307 -0.20434217  0.12852682
 -0.05489985  0.18257698 -0.05009525 -0.12722968]
[ 0.17155342 -0.0188771   0.01436552  0.00488245 -0.11283357 -0.18225534
 -0.22801076 -0.16900204 -0.03476327  0.01056556  0.09741263 -0.3250026
 -0.0261545  -0.03370299  0.22979759  0.16082013 -0.09348924 -0.22298686
  0.05302499  0.02835898  0.36529386 -0.08788738 -0.04924268 -0.37847227
  0.18172662  0.07210505 -0.00383733 -0.23736869  0.04573182 -0.08544368
 -0.14343643  0.22005093 -0.01625335 -0.00119417  0.18546148  0.05364345
  0.12930031  0.11556742 -0.20421508  0.10647798]
[-0.31369647 -0.33145276  0.13867593  0.16615725  0.10832633  0.22525036
 -0.12152109 -0.0127439  -0.02536799  0.18863803  0.12447353 -0.04474713
  0.51787466 -0.10236966  0.3182783   0.2608054  -0.39434913  0.27348673
  0.15513887 -0.17263226 -0.3817393  -0.17807561 -0.219969   -0.3118928
  0.09332521 -0.09829438  0.12510113 -0.2098149  -0.11372586 -0.13927642
 -0.32475996 -0.30637196  0.08773228 -0.04835957 -0.09190314  0.46915784
  0.05460241  0.32711998  0.24222106  0.02967951]
[ 0.10003947  0.03408778 -0.00639137  0.02305207 -0.01276316  0.1277646
 -0.06132057  0.0719557   0.00231561 -0.01825405 -0.00478058  0.08348351
  0.02974718 -0.01716881 -0.02207587  0.00206026 -0.02828227  0.00102739
  0.03718301  0.01236108  0.00609381 -0.0137434   0.06569914 -0.06637029
  0.00221285 -0.0150685   0.0096772  -0.01946953  0.04360005  0.03381425
 -0.08325267  0.00720963 -0.03272013  0.0846114   0.03282189 -0.00335522
  0.02103673 -0.03341528  0.06946221 -0.00866169]
layer 3 Activation
tanh
layer 4 Dense
40 20
[ 0.15306364 -0.03746894 -0.43283844 -0.02286088 -0.08466249 -0.10388345
  0.2536041   0.06456663  0.06812972 -0.23135851 -0.07783481  0.1365565
 -0.20122819  0.08719059  0.09603196  0.10471053  0.12586015 -0.00361322
 -0.12818137  0.2471499 ]
[ 0.1787955   0.21748832 -0.0374486   0.01583386 -0.14393005  0.06760164
  0.3666695   0.17206526  0.01392474 -0.05630613  0.1546492  -0.11842428
  0.01140783 -0.17388546  0.06667136 -0.18359758  0.21962054  0.10569026
 -0.18611911 -0.25264415]
[-0.02723413  0.08019545  0.1547175   0.15507501 -0.079166    0.36099097
 -0.2559207  -0.08278006 -0.08380068  0.05145346 -0.14475611 -0.11737262
 -0.08877127  0.10508013 -0.25131297  0.25610584  0.15803678  0.30003065
 -0.11956229 -0.19888134]
[ 0.2922371   0.15409143  0.24389091  0.09123231  0.01638308 -0.18252751
  0.13931431  0.2955626  -0.07687476 -0.19806504  0.0429128  -0.21044868
  0.00133932  0.31792057  0.05071282 -0.00376928 -0.08671086  0.276827
  0.02017534 -0.03472476]
[-0.1340623  -0.08557948 -0.01405406 -0.03860689 -0.13071948  0.27099437
 -0.36919862 -0.17808042 -0.11656905 -0.30997834  0.12047508  0.07762029
 -0.1508695  -0.12090267  0.15244216 -0.25053093 -0.34798518 -0.01999565
  0.10375939 -0.3085253 ]
[ 0.19963013 -0.15530266 -0.19121666  0.21811981  0.05021288 -0.24754551
  0.0051955   0.0664544   0.3005301  -0.16620578 -0.23844166 -0.09797053
  0.14110321  0.10429827  0.02563683  0.06744459  0.21964468  0.20142086
  0.2933213  -0.04951403]
[-0.06885076 -0.08901665  0.33355355 -0.21175447  0.08747363  0.04494872
  0.02636969 -0.13843329 -0.00737853 -0.1848991   0.0500705  -0.05904011
 -0.05570709  0.02736104  0.07245199  0.05739367  0.06615438 -0.13391334
  0.0828705  -0.23029123]
[-0.10186959 -0.37245443 -0.25339487  0.26809382  0.08241204 -0.17944618
  0.24055713 -0.19561236 -0.0910584   0.16727029 -0.03467612  0.28194225
 -0.12063234 -0.1314873  -0.05865571 -0.28277186 -0.20865676  0.04445434
  0.3584145  -0.03098719]
[ 0.07478248  0.19007406  0.23977734  0.08254498 -0.3301458  -0.23564713
 -0.22517383 -0.19924971  0.0779973   0.02040134  0.14006267 -0.31689978
 -0.2292698  -0.19569062  0.09434513  0.21119556 -0.03306529 -0.2590665
  0.30672964  0.1558431 ]
[-0.21321696  0.09883304  0.00956694  0.09031224 -0.14575309  0.03685619
  0.18827    -0.11837047  0.3148512   0.02716562  0.13512592  0.05208088
  0.03571122 -0.14657497 -0.10608031  0.14433731 -0.2202686  -0.1827721
 -0.10585745  0.21289706]
[-0.03319452 -0.16687268  0.15988803  0.19722869  0.01865982  0.21163921
  0.19843     0.10451663 -0.18538481 -0.22652376  0.24944484  0.32366174
 -0.1043011   0.13789257 -0.16322902  0.01400814 -0.19904634 -0.1171046
 -0.04967784  0.16757664]
[-0.17490523 -0.14118773 -0.02783785  0.16550642  0.05269454  0.26761547
 -0.02577748  0.0598445  -0.2027091   0.06892679 -0.14126281 -0.03957114
  0.10553381  0.23131365  0.0630778  -0.11670878 -0.19648606  0.22724193
 -0.2280098  -0.25271934]
[-0.06089201 -0.33827534  0.03564726  0.35733467  0.22171263  0.09903771
 -0.2117751   0.21984178 -0.03078933 -0.14898284  0.15016037  0.09639557
  0.12979788 -0.00741826 -0.22142717  0.25128075 -0.3088667  -0.29086614
  0.25740165  0.12573865]
[-0.23685345  0.0544224   0.03387665  0.17851387 -0.17858976 -0.10957724
 -0.24308515 -0.15821621  0.1208929   0.16814512 -0.12068012 -0.2564524
 -0.35867703 -0.20289744  0.26180404 -0.01339745  0.06972105  0.0957287
  0.21417397  0.2288643 ]
[-0.07241906 -0.2735797   0.16637817  0.22987579  0.1588166   0.07853361
  0.16259329  0.16726421 -0.11902077 -0.34189892 -0.09389839 -0.04576596
 -0.20465803  0.07940947  0.20397303 -0.24868499 -0.00466462 -0.01105006
  0.19363062 -0.15900958]
[ 0.22976422  0.0606665   0.02330786 -0.16750376 -0.11026289 -0.12751004
 -0.07363181  0.11886085  0.14859381  0.07262788 -0.24751014  0.14297892
  0.09650048 -0.08611283  0.26090285 -0.2968083  -0.03453404  0.22948407
 -0.28405833  0.01978488]
[-0.23437582  0.21967925  0.14354058 -0.07902399 -0.33434364 -0.04702784
 -0.05741754  0.26296356  0.11383007  0.23562779  0.11834197 -0.23886944
 -0.12344546  0.19157015 -0.23895001 -0.26634154  0.07408196 -0.1262673
 -0.26497135 -0.2170173 ]
[ 0.32566452 -0.25174233  0.31330615 -0.05285225  0.13166031  0.05126401
 -0.09661819 -0.23652546  0.13295424 -0.26390228  0.23220326  0.09275184
  0.18921937 -0.02229388 -0.1120685  -0.08224246 -0.03946095  0.24528544
 -0.21538657 -0.17062184]
[ 0.30535346 -0.09309483  0.02409855  0.15073612 -0.05753224 -0.27755037
  0.08031204 -0.08486526 -0.30258343  0.2352242   0.2782397   0.28643417
  0.20461386 -0.03012221 -0.3148484  -0.14615898 -0.01469017  0.1752502
  0.3405455  -0.11005263]
[-0.19209103 -0.10540901 -0.19640279  0.2432435  -0.05897267 -0.23244335
 -0.08117695 -0.22403304 -0.03290245  0.1900835  -0.0397796  -0.04547304
 -0.2031842   0.06117479  0.08227797  0.2423899   0.06722769  0.13247508
 -0.05279706  0.22579637]
[-0.20991391  0.02990866 -0.38742986  0.16452812  0.24926685 -0.26191875
  0.00299973 -0.06700497 -0.32766688 -0.11302135  0.00108507 -0.19522993
  0.02204297  0.17885533 -0.2576218  -0.20174445  0.4006249  -0.06415156
 -0.06228212  0.18516046]
[-0.11428644  0.00411588  0.15685119  0.13204154  0.22174445  0.35668173
 -0.2665126  -0.13782686 -0.04164521 -0.10028058  0.2153343   0.06974098
 -0.2976296   0.17012766  0.16915995  0.0654581  -0.02682931  0.24217594
  0.26000327  0.16280116]
[ 0.18037945 -0.00330662 -0.17444001 -0.20082453 -0.06768543 -0.34462908
 -0.31824613  0.0724041  -0.09927234  0.23561198 -0.18768936 -0.11512873
  0.24231479  0.05345877  0.2643361   0.23246899 -0.04301095  0.32794175
 -0.04584555 -0.05292479]
[ 0.14385787  0.3585209   0.23774427 -0.18208727 -0.20968413 -0.29602575
 -0.06070228  0.20556547 -0.06975687  0.22435316  0.18139474 -0.18988675
  0.07667091 -0.16500577  0.21536656  0.16794448 -0.19860877 -0.20324177
 -0.12528524  0.24467468]
[-0.10845119 -0.01203966  0.04890922  0.19448195  0.19936031 -0.2363113
  0.29261395  0.1120271  -0.19279233  0.16732435  0.10175776 -0.00818554
 -0.16724826 -0.22103782 -0.19830622 -0.11546583 -0.07593413  0.07822872
  0.06907945  0.29415944]
[ 0.0313652   0.17479862  0.02364785 -0.06146248 -0.23935992 -0.27282453
  0.20956685 -0.07209588 -0.3086259  -0.1363261   0.1262924   0.15536611
 -0.04854057  0.34340167 -0.08977418 -0.07687883 -0.22726329  0.16472928
  0.0454787   0.04758362]
[-0.28135547 -0.32703236  0.03370277  0.0974928   0.14808092  0.12327959
  0.09888273 -0.09413632 -0.18450427 -0.25210068  0.37231988 -0.02431441
  0.07387708 -0.20967908 -0.12285152  0.2643913  -0.17717543  0.10179745
 -0.11339383 -0.1348844 ]
[-0.41761386  0.20549041 -0.2713183  -0.14485194 -0.05988891  0.1883665
 -0.27094838  0.01923724  0.33872896 -0.06370375  0.05721992 -0.24960539
  0.12539726  0.02639643 -0.20236108 -0.17067756 -0.01749577  0.01653629
 -0.12187459 -0.15466595]
[-0.18474244 -0.24415603 -0.10596836  0.12484035 -0.21576698 -0.00540673
  0.32649952  0.12119202  0.00070037  0.20624562  0.3076624   0.28112188
  0.16159476  0.03566084 -0.03018635 -0.17301403  0.12148943  0.19121647
 -0.03185704 -0.18353921]
[ 0.20622708  0.13062981  0.16386616 -0.25811014  0.0814275  -0.05891559
  0.01282775  0.21662076 -0.03559384  0.16327652  0.160266   -0.02591368
 -0.22588378 -0.02955282  0.14667475  0.02249346 -0.01392035  0.09548467
  0.2002222  -0.17615013]
[ 0.18671654  0.25796807 -0.07229058 -0.2698831  -0.06268793  0.07569329
  0.03332137  0.03900737 -0.14121711 -0.3378376  -0.1382452  -0.1592738
  0.06268406 -0.1061106   0.0920578  -0.24433737 -0.3950676   0.13699305
  0.12305444 -0.3189814 ]
[ 0.12463199  0.3438779  -0.29466975  0.02071729 -0.29373118 -0.17761728
  0.121858   -0.03709492 -0.27574262  0.18205501  0.05693353 -0.10977478
  0.03377524 -0.10750639  0.14581765  0.22344507  0.1520306  -0.07769682
  0.18615966 -0.06285005]
[ 0.2524215   0.22339281 -0.03262229 -0.30537763  0.17721091  0.10530807
 -0.18283737 -0.12705813  0.05542727 -0.11244036  0.15261123 -0.16660036
 -0.1363882   0.0262618  -0.18736479 -0.16397566 -0.06392724 -0.16736555
 -0.14614716 -0.14563566]
[-0.23864983  0.01486445 -0.27205378  0.2064472   0.18738517  0.01041729
  0.2881679   0.15742081  0.12879081  0.06868757  0.07350148 -0.08913074
 -0.04004003  0.08940808 -0.18155052  0.2796595  -0.09580669  0.0946654
  0.1221427   0.0675044 ]
[ 0.15471056 -0.00229477 -0.0041491   0.19690323  0.04399018 -0.05247373
 -0.21437964  0.21933377  0.14682819  0.40238413 -0.04119022  0.13085897
 -0.09267757 -0.09668773 -0.30537695 -0.2264777  -0.18883535  0.3473858
 -0.06760336 -0.21590272]
[ 0.29689693  0.00647955  0.30573744  0.00703552  0.11303977 -0.00463822
  0.0390325  -0.14110883  0.17025241 -0.05265258  0.06322867  0.11809635
 -0.13109837 -0.00764485 -0.2917428   0.04253676  0.08165673  0.01145292
  0.10044874  0.26171252]
[-0.06718092 -0.16450863  0.10349086  0.09570701  0.18512464 -0.35879558
  0.08724561 -0.11699945  0.13574767 -0.17092176  0.12160192 -0.1402684
  0.28032595 -0.1576554  -0.15606907 -0.21847634  0.15100594 -0.373239
  0.08232958  0.22767487]
[-0.2308017   0.11891729  0.07068666  0.22005868 -0.21911362  0.28574708
  0.01282147  0.17780174  0.13022277  0.3048116  -0.2907471   0.21411903
 -0.06378713 -0.32547823  0.030209   -0.10270701 -0.00401571  0.04471683
  0.32340991  0.08753911]
[-0.3458528  -0.3049847  -0.20720378  0.05751074 -0.13349336 -0.25341684
 -0.17829667  0.12404302  0.1503779   0.2868858  -0.05617275  0.21533191
 -0.23004021 -0.17630258  0.14457135 -0.22189143 -0.21023124  0.01637994
  0.33277887 -0.01114747]
[-0.11495141  0.17210947  0.10779338 -0.11809525  0.03111451 -0.11469633
  0.05052244  0.16975811 -0.35447896 -0.18146904  0.14322034  0.0883908
 -0.03567974  0.04272093 -0.13270716  0.17820211 -0.1507343  -0.13327132
 -0.09157285  0.22789004]
[-0.09792129 -0.05738905 -0.01154167  0.03783233  0.0558971  -0.02526136
 -0.02397831 -0.02283955  0.03619597  0.02181692 -0.0528549   0.02119605
  0.02999891 -0.07430445  0.02573199  0.01508927  0.00308494  0.01270868
 -0.02906217 -0.03327885]
layer 5 Activation
tanh
layer 6 Dense
20 1
[-0.11436196]
[0.3534645]
[0.19097817]
[0.3041824]
[0.16986099]
[-0.11133543]
[-0.02356092]
[-0.05434095]
[0.1565275]
[-0.01696525]
[-0.02690401]
[0.25249606]
[0.01208833]
[-0.01131891]
[0.05779752]
[0.00624898]
[-0.06143221]
[0.03920441]
[-0.0584229]
[-0.17209467]
[0.06384147]
