layers 7
layer 0 Dense
20 20
[ 0.03199969  0.14025767 -0.06580952 -0.003211    0.14421475  0.25037324
 -0.6655594  -0.09387799 -0.13944207  0.19854654  0.0272513  -0.3653558
  0.5664632  -0.17845652 -0.21194372  0.47673675  0.03299056  0.23362027
 -0.48674375 -0.24586351]
[-0.18168248 -0.32502484 -0.20932208 -0.16772662  0.23020136 -0.14686629
  0.23366672 -0.37388065 -0.2556368   0.21693212  0.01500925 -0.0510954
  0.05308798  0.03995615  0.2916146  -0.17869946 -0.21574269 -0.15492214
 -0.37717983  0.26363546]
[-0.01939508 -0.17006151  0.18526065 -0.06679294 -0.01200196 -0.07041126
  0.28047067 -0.17620584 -0.19714707 -0.10877326  0.24645764 -0.31460953
 -0.07302436  0.00777707 -0.03233883  0.3826067  -0.15646984 -0.1352191
 -0.1282331  -0.24713984]
[ 0.27148336 -0.10287523  0.12685983  0.03516299  0.2721895  -0.2439799
 -0.08189747  0.5520968  -0.37707973  0.26758572  0.08483351 -0.38171044
  0.60143316 -0.12288917 -0.12056118  0.5570722   0.15076782  0.3716471
 -0.04708012  0.16443758]
[ 0.04283941  0.76070267  0.08833293  0.22947744  0.29010448 -0.6835101
  0.3052239   0.6271271   0.00549625 -0.04777732  0.65891516 -0.18876164
  0.1729262   0.34364814  0.10477848  0.21354069  0.27918872  0.30787933
  0.2161997   0.12498461]
[ 0.16604078  0.3659523   0.17987919 -0.34478164 -0.37942034  0.31434566
 -0.22467919 -0.03717297 -0.04611009  0.0280796   0.23232108 -0.2252913
 -0.12656212 -0.32675195  0.13647527 -0.12751368  0.03640884  0.04609007
  0.24086303 -0.32713515]
[-0.14407064  0.04092386  0.07948709 -0.24577497 -0.29304862  0.28377807
  0.2929929   0.23080301 -0.17886947 -0.24945617  0.10869071  0.21731818
  0.17114556  0.15490943  0.09630898 -0.18180853  0.06536198  0.0574871
 -0.3306868  -0.01519772]
[ 0.0462679  -0.03171248  0.48328388  0.6074991  -0.02493012  0.31757405
  0.21038717 -0.75447327  0.1344644   0.07396091  0.05550721  0.6767895
 -0.5735136  -0.27610117  0.00894984 -0.6014576   0.2666832  -0.27151403
  0.00593292 -0.2810468 ]
[-0.38322598  0.8525608   0.5672094   0.7618504   0.12026726 -0.0379644
  0.3856397   0.48165643 -0.48399127  0.355071    0.51335037 -0.19598731
 -0.1302003   0.27235588  0.3394723   0.34469104 -0.10985447  0.61520714
  0.103983    0.44613233]
[ 0.74026644  0.06369066  0.14268984 -0.18474956 -0.0621752   0.2502211
 -0.509789    0.16939595  0.00908936 -0.32461235  0.33918437 -0.12054709
  0.45084047  0.05326186  0.22013648 -0.04611072  0.9527096   0.00982414
  0.8623039   0.03501659]
[-0.6306734  -0.39051414  0.35977718 -0.07176134 -0.24681614  0.3854586
  0.17664716  0.22308694 -0.26569664 -0.19589943 -0.09477574  0.30889356
 -0.20136254  1.1106656  -0.70880973 -0.33088508  0.46008068 -0.26063013
  0.20078851 -0.17787252]
[ 0.49922198  0.17675726  1.9023142  -0.1579345  -0.5936332   0.16492632
 -0.71462363 -0.2590857   1.16096    -0.5465953   0.5538027   1.0024604
 -0.43653554 -0.43872842  0.2374786  -0.6719873  -0.4701742   1.8703761
 -0.1103251   0.21208553]
[ 2.0286202e-01  3.2925728e-01 -2.3200227e-01  5.1652902e-01
 -7.2665684e-02  4.1310918e-01 -6.3071495e-01 -2.5924376e-01
  4.8561478e-01  1.7245550e-01  1.6312283e-01 -2.4695522e-01
  5.5020535e-04  1.7356575e-01  4.9099219e-01 -1.5208395e-01
  2.7541021e-01 -1.7436722e-01 -1.1146515e-01  5.1285583e-01]
[-0.39573     0.7775099   0.11815333 -0.5826906   0.06777286  0.43688324
 -0.6157727   0.16467342 -0.59623474 -0.66601884 -0.1058854   0.13657707
  0.03749437 -0.16028132 -0.8505364  -0.04462321  0.22149329 -0.07646617
 -0.38637534 -0.3764293 ]
[-0.7085852  -0.47233015 -0.09607187 -0.6752909   0.7795703  -0.31168136
 -0.05025855  0.26050746  0.3489827   0.18730728 -0.20051642  0.29944298
 -0.00187352  0.22874905 -0.4671309  -0.18955222  0.03491358 -0.20863493
 -0.4474312   0.09845507]
[-0.04005665 -0.02506136  0.06638291 -0.3510023  -0.8088423   0.6653151
 -1.4971497   0.5922104   0.5808735  -0.51021636 -0.6875518   0.773199
 -0.03585896 -0.04766027  0.06918457 -1.0523131  -0.29671094 -0.43220156
 -0.7557769   0.08757256]
[ 0.50457    -0.42239794 -0.16831669  0.07349508  0.06057871 -1.2141352
  0.7858265   0.9381306  -0.31488946  0.27717438 -0.3715888   0.38785428
 -0.16615543 -0.19170353 -0.18895191 -0.14104417 -0.4530815  -0.93515164
 -0.33069795 -0.13354549]
[-0.22318935 -0.38849333  0.21564665  1.2854869  -0.8192281  -0.44164422
  1.0736045  -0.6806123   0.41829452  1.0356128  -0.18038996  0.03748699
 -0.80893356  0.32576472  0.47495985 -0.08585387 -0.9216634  -0.03490782
 -0.20870444 -0.5956118 ]
[ 1.0291499   0.9983795  -0.62484896  0.65070003 -0.7359489   0.21024106
 -0.313877   -0.31862792 -0.5607142  -0.6610894   0.41656983  0.04517268
  1.0498562  -0.8654366   0.5549681  -0.18537767 -0.9980301  -0.09309965
 -0.03985731  0.6474962 ]
[-0.10203639  0.41139874 -0.0580157   0.2806003   0.7988708  -0.4038466
  0.6149234  -0.39668816 -0.9266901   0.7777374  -0.14427179 -0.7008244
  0.05618425  0.55406684 -0.1539722   0.8695157   0.4470594  -0.43591812
  0.46119857 -0.14732148]
[-0.0245418   0.01545555 -0.30014873 -0.23231563  0.07008509 -0.3102544
 -0.19180757  0.13614936 -0.11021861  0.13644737 -0.2441055  -0.47378653
  0.5723869  -0.18678524 -0.09378203  0.43925586  0.02706925  0.24032035
 -0.09887519  0.02721594]
layer 1 Activation
tanh
layer 2 Dense
20 40
[ 0.31943515  0.54451615  0.23233692  0.19780003 -0.5508941  -0.1518449
  0.4332797   0.23682652  0.7210077   1.0367532   0.09127361  1.1941106
  0.5010499   0.76767266 -0.05249367  0.33228615 -0.39085037 -0.8262226
 -0.60043067  1.2960602  -0.2761868  -0.8698483   0.52482855 -0.6268228
 -0.5357943  -0.3465147   0.10403497  0.50308675  0.32367873  1.0582256
  0.3241419   0.5095865  -0.5801151  -0.2006994   0.9570338  -0.08015382
  0.5040467   0.17515726 -1.29085    -0.13708176]
[ 0.24950063 -0.77576333 -0.24291578 -0.17034802  0.4087151  -0.5203795
 -0.31224623  0.2902077   0.0599698  -0.19011909 -0.00791178  0.02936258
  0.32469523  0.3676001   0.6137312  -0.01389087  0.5101095   0.08704152
 -0.3364023  -0.14343253 -0.20960726 -0.09489654  0.5039199  -0.05421308
 -0.55016947  0.43614894  0.05789067  0.07405866 -0.86434555 -0.10617571
  0.36585593 -0.03352857 -0.20268317 -0.12048813 -0.02121218  0.00229066
  0.01786073 -0.22214562  0.5251336  -0.34388146]
[-0.19339274  0.24860534  0.09560948 -0.02599401 -0.12606679  0.26894674
 -0.6648821   0.11411598 -0.7467179   0.01685784 -0.46756688 -0.19204639
 -0.35110494 -0.07375087  0.30348235  0.47005844  1.1156086  -0.01596463
 -0.20526741 -0.54277885  0.5167924   0.0438062  -0.2565386   0.04161659
  0.1371559  -0.01151719 -0.5817237   0.3808628   0.36933237 -0.03605015
 -0.45256713 -0.3302839   0.11077782 -0.14997245  0.08981051 -0.48673135
 -0.04706294 -0.04738041 -0.2001111   0.24427727]
[-0.30560878  0.23469079  0.02110708  0.8829086   0.03288165 -0.10904603
 -0.30798233 -0.06132274 -0.18317856  0.3104685   0.28254303 -0.33347774
  0.4660357  -0.25787714  0.22056703  0.1735939  -0.03914281 -0.424328
  0.24315064 -0.04663137 -0.27147147  0.5671814   0.6307209   0.5428309
 -0.5215611   0.0328748   0.2684816  -0.48729953 -0.01112743  0.12525709
 -0.4480467  -0.46188614  0.47695667  0.3047763   0.33726922 -0.05155826
 -0.6260866  -0.25585198 -0.47918946  0.39108178]
[-0.09732208 -0.3513928  -0.31630582  0.28351513 -0.14323993 -0.55539817
 -0.22904043  0.10339732  0.5467679  -0.09922063  0.62583613 -0.12644598
 -0.0639947   0.05616861 -0.70867455  0.0651294  -0.12763391  0.27340844
 -0.29542604 -0.4332866  -0.320126    0.41333574  0.5731117   0.40593335
  0.08550572  0.13089663  0.747018   -0.41970503 -0.5365452   0.28920817
  0.03687979  0.04374913  0.3053247   0.55729836  0.18924606 -0.8584192
 -0.08369512  0.0151615   0.20152669 -0.11778863]
[ 0.5060285  -0.02538965  0.10290885 -0.2016631  -0.2669813  -0.19438457
  0.10649757  0.24694592  0.0243449   0.06995945 -0.37413982  0.34402296
  0.28991884  0.27731782  0.28903118  0.05867026  0.3257053   0.4856303
 -0.28991294  0.47965437  0.26775986 -0.4721242  -0.02451664 -0.43387413
  0.05148926 -0.07215776 -0.38526714  0.28804764 -0.06873919 -0.02846819
  0.55634916  0.11250221  0.16708724 -0.13896109  0.15171854 -0.14116451
  0.28325048 -0.35949144  0.28508806 -0.3692137 ]
[-0.90436304  0.43805027 -0.15505305  0.2947728   0.51431125  0.03243943
 -0.89949155 -0.06124657  0.0095617   0.11235708  0.41128126 -0.39556834
 -0.37228784 -0.21675037  0.5831396  -0.13982859 -0.3767063  -0.9723786
  0.1543762  -0.1033115  -0.58037794  0.8873016   0.12325715  0.6470731
 -0.19377246 -0.3385338   0.48746392 -0.31494924  0.64834595  0.25699908
 -0.4987723  -0.05297635 -0.21351926  0.14650849  0.5322523   0.5391097
 -0.6810198   0.20088904  0.0709614   1.0549426 ]
[-0.27444434  0.06182829  0.24838291 -0.59900266 -0.3139763   0.55766463
  0.03561049  0.07502927 -0.3304324   0.08160225 -0.07075005  0.43687394
 -0.11655555 -0.02084021 -0.43608987 -0.19835207 -0.5459583   0.19629435
 -0.4053571   0.1113826   0.30801657 -0.46955174 -0.578086   -0.0909043
  0.53006923 -0.37345964 -0.17324604  0.46460894  0.7353003  -0.01308487
  0.15024665  0.3376416   0.04584023 -0.44491374 -0.24586955  0.10370997
  0.5312447   0.53579044  0.11441166  0.0050487 ]
[ 0.25482303  0.5314433   0.06774411  0.36212966 -0.09095575  0.15038744
  0.01276616  0.29744485 -0.73272914  0.02157116 -0.87870264  0.4398909
  0.67793614  0.19513883 -0.91902095 -0.08482394 -0.84380347 -0.15621592
  0.13332956  0.32444924  0.7081967  -0.48894578 -0.68152505 -0.6645896
  0.11766539 -0.1251923  -0.93158036 -0.2575931   0.09059665 -0.09274358
  0.5553897   0.10904026 -0.13339564 -0.45200837 -0.26478902 -0.3487318
  0.23002174 -0.33261928 -0.5305135  -0.52579874]
[-0.35901335  0.35379785 -0.1360119   0.10918318  0.2268673  -0.2771552
 -0.16399327 -0.10127054  0.518442    0.21691783  0.6792015  -0.49212733
 -0.34543902  0.1328054   0.14792112  0.18709524 -0.3811304   0.5255735
 -0.01196749  0.11227157 -0.5993383   0.45001793  0.20393121  0.7185431
 -0.10700513 -0.23257834  0.26908472 -0.4006962   0.15542823  0.17916472
 -0.47032183 -0.20910585  0.05798859 -0.22132874  0.17929155 -0.3692105
 -0.3077951  -0.27873173 -0.22961883  0.44079596]
[ 0.03417012 -0.48849487  0.13102375 -0.09899051 -0.01171687 -0.2035557
  0.25915867  0.19913822  0.2641873   0.05327187 -0.28389394  0.10664202
  0.4418849   0.10227712 -0.01924131  0.3171309  -0.18727544 -0.01390263
  0.05176603 -0.1935331   0.20764561  0.02330792  0.35064185 -0.27784735
 -0.47246027 -0.49864164 -0.25059426 -0.23279741 -0.71764606  0.15877897
 -0.00585202 -0.3688233   0.2028011  -0.20426811  0.25356463 -0.03516721
  0.46443135 -0.17388305 -0.08885736 -0.04457716]
[-1.88968509e-01  2.70467401e-01  4.31952626e-02  6.75863504e-01
 -2.82960743e-01  8.75964999e-01  1.15669565e-04  1.63269326e-01
 -1.68791085e-01 -2.88488716e-01 -6.59016728e-01  3.14309388e-01
  3.01832825e-01 -1.47253290e-01 -1.35265052e-01 -2.41956621e-01
 -5.30776322e-01 -8.42746496e-01  7.16366386e-03  1.81831598e-01
  7.66218662e-01 -2.53044397e-01 -2.55355716e-01  2.28262439e-01
 -1.98537577e-02  1.08153336e-02 -4.67316687e-01  1.54982070e-02
  5.43789029e-01  1.08553372e-01 -2.41507605e-01  1.88308194e-01
  2.60033339e-01 -9.27028537e-01  1.94794223e-01 -1.34908631e-01
 -5.57252407e-01 -3.71055608e-03 -2.87223130e-01  4.90901291e-01]
[ 0.50279415  0.29862493  0.02819816  0.50612825 -0.17916967 -0.07954349
  0.3965006  -0.26743418 -0.07665836  0.13907671 -0.07550982 -0.05840697
  0.2760453   0.2842802   0.16049841  0.16980605  0.18418777 -0.57771915
  0.06083066  0.6039206  -0.2212236  -0.3108112   0.5419914  -0.7604348
 -0.09865399  0.27844858  0.49311924 -0.10011401  0.02503129  0.34282154
  0.75543976 -0.22828391 -0.20379615  0.580944    0.08620392 -0.26358065
  0.67890394  0.14730133 -0.35298064 -0.7139062 ]
[-0.38534215  0.03528164  0.19529168  0.24113971  0.24476457 -0.11408638
 -0.63221824 -0.17210165 -0.48536763 -0.5699907  -0.03511887 -0.39574254
  0.00592974 -0.6279693   0.2782553  -0.06151206  0.3057073  -0.01844592
  0.9002701  -0.723533   -0.10191984  0.41756403 -0.30664346  0.08894797
 -0.01341634 -0.5774206   0.4230501  -0.8048606  -0.09846736 -0.5840307
 -0.956424   -0.2495636   0.79983646 -0.19264111  0.16716328 -0.80801564
 -0.4360346   0.18758687  0.5202486   0.6409919 ]
[-7.2898658e-04 -5.8156304e-02 -2.1092190e-01  8.1966108e-01
 -9.2813089e-02 -6.8255359e-01  4.7585353e-02  4.0040123e-01
 -1.6217981e-01  1.6822277e-01 -1.8396705e-01  2.1601701e-02
  6.3900954e-01  1.2275529e-01  4.5729190e-01  1.3916254e-01
 -6.1985110e-03 -5.4637021e-01  5.5000488e-02  3.3735970e-01
  4.4642556e-03  1.7505048e-01  6.8957913e-01  8.2014099e-02
 -6.0305530e-01 -3.2498438e-03 -2.4630146e-01 -3.7707332e-01
 -6.1301649e-02  1.0076542e+00 -5.8931410e-02 -2.5357082e-01
 -7.8045093e-03 -1.6635421e-01  2.9234946e-01  5.1191193e-01
 -6.3866496e-01 -1.2147170e-01 -7.3340273e-01 -1.7835374e-03]
[ 0.7344917  -0.15582362 -0.49493146 -0.29845086  0.2986592  -1.5717026
 -0.02122884 -0.44403276  0.07840583 -0.04248137  0.8991243  -0.63664764
 -0.46029997  0.5975819   0.28452325 -0.23809354  0.23848476  1.0659181
  0.57067895 -0.3803779  -2.2121108  -0.29183808  0.8070066   0.0871857
 -0.16764781 -0.24749193  1.7029997  -0.29980424 -0.7665638  -0.11134897
  0.63077897 -0.6059904   0.19099273  0.64121425  0.59528136  0.35471714
  0.58480024  0.81359756  0.67652833 -0.47696576]
[ 0.0321105  -0.09821546 -0.45977107 -0.02666708  0.2692698  -0.45691535
 -0.20162055  0.2824192  -0.10706676 -0.14139414  0.29760703 -0.8363116
 -0.24297978  0.22386299 -0.43186098 -0.23402713  0.88442546  0.24403284
  0.33220676 -0.2852943  -0.17730656  0.07400536  0.20529394  0.39727125
  0.27112636  0.11394176  0.13028535 -0.3083957  -0.14275563 -0.13011558
 -0.0257013   0.11841825 -0.22434121 -0.34938192 -0.11811174 -0.26836455
  0.03958434 -0.62111765  0.38034433 -0.10404895]
[ 0.94396913 -0.3250935  -0.50895107  0.1593865   0.5509036  -0.38042787
  0.5478638  -0.5515922  -0.29609764 -0.26031375  0.46255115  0.39967555
  0.29302517  0.6817578   0.533279   -0.04296148  0.06585648  0.4560784
  0.8554369  -0.2703819  -0.06729052 -1.2861916   0.18521498 -0.6912855
 -0.40814677  0.09997784  0.43342426 -0.9217447  -0.6123659  -0.08112027
  0.6690795  -0.71276677  0.31375724  0.20315638 -0.11013016  0.31121048
  0.05353732  0.14729176  0.83175874 -0.9677903 ]
[-0.10321786 -0.63649577  0.00372569 -0.6001691  -0.53888994 -0.01574537
 -0.40546873  0.511613    0.21520692  0.1042533  -0.32915708 -0.10774712
  0.2614127  -0.21448496  0.21683007 -0.30370414  0.34618264 -0.06262176
  0.293041    0.1271632  -0.54688907  0.15494883  0.10284679  0.33118114
 -0.2629559  -0.4205947   0.38272813  0.24686095 -0.2627432   0.10225297
 -0.25772673  0.12091256  0.04545333 -0.13732281  0.5062466  -0.31861752
  0.34464905 -0.13327731  0.6082215   0.26847056]
[ 1.0816611   0.01125268 -0.17451176  0.1532907  -0.15712586 -0.49165213
  0.20242295 -0.29146373 -0.07217855  0.19150774 -0.2794685   0.5711124
  0.30009004  0.1749138   0.08309522  0.33825922  0.05982133  0.00922994
 -0.5444796   0.31777805  0.15497237 -0.38063604  0.03710962 -0.4175496
 -0.4010319   0.03933448 -0.2279004   0.06693671 -0.27183923 -0.1627176
  0.60083044 -0.4757389  -0.15274586  0.45863873 -0.01901809 -0.31439137
  0.6998691  -0.29896012 -0.09345447 -0.95398045]
[ 0.4306891   0.12766214  0.1562166  -0.20660555  0.15259832 -0.24772266
  0.26227385 -0.41839257 -0.02506799 -0.08717908  0.22012107 -0.22112527
 -0.05886717  0.18347709  0.06388585 -0.309056   -0.19265907  0.42986926
  0.30474204 -0.01799604 -0.36346775 -0.4191667   0.10444412 -0.32549807
  0.14347939 -0.13119611  0.5380163  -0.21431735  0.03233204 -0.16713329
  0.3481571  -0.1692039   0.04142542  0.47114426  0.4365887   0.44145685
  0.51581293  0.68690306  0.10809982 -0.31952968]
layer 3 Activation
tanh
layer 4 Dense
40 20
[-0.2023334  -0.45813152 -0.26207134 -0.43464687 -0.7523714   0.14773947
  0.4817326   0.3197201   0.2956615   0.6276949   0.45847172 -0.10244855
  0.479436    0.56979996  0.15886465  0.08298943  0.00216176  0.6688947
 -0.36391747  0.34296125]
[ 0.07092297  0.40157342 -0.12838781  0.27969494  0.19741884  0.09777488
 -0.27675977 -0.02004172  0.7612123  -0.42806754  0.4629114  -0.14413671
 -0.4992905  -0.5344637   0.45942786 -0.01601644  0.03234387 -0.38049224
  0.2684189  -0.58252025]
[-6.2325064e-02  1.9057938e-01  3.1633303e-05  2.2578993e-01
  5.4435050e-01 -4.3056390e-01 -1.2753144e-01  9.3455657e-02
  8.6811340e-01  1.2059556e-01 -1.0887256e-01 -8.3685376e-02
 -5.4191194e-02 -5.7584167e-01  5.6523532e-02 -3.2348253e-02
 -2.9667872e-01 -3.3465174e-01  6.2914945e-02 -1.4171970e-01]
[-0.16220471 -0.43843642 -0.29724514  0.12198221  0.23757428 -0.52585566
  0.58527267  0.8032601   0.19719188  0.15011904  0.02633814  0.2703108
 -0.5029724   0.5233619   0.18409458 -0.60085624  0.40829837 -0.62968
  0.08158464  0.2597793 ]
[-0.27230132 -0.365039   -0.33700305 -0.19227852 -0.60648954  0.5740849
  0.25357893 -0.07729512 -0.34200785  0.3483156   0.24264844 -0.264581
 -0.24291654  0.04332468 -0.33753157  0.02368777  0.03739137 -0.19719397
 -0.10002716  0.15345427]
[ 0.61741203  0.30193928  0.7945015   0.50808597  0.62273073 -0.9300557
 -0.18815753 -0.25171039  0.97009087 -0.36441374 -0.2938542  -0.01190896
 -0.41690478 -1.0339565   0.96682227  0.11781114 -0.27261138 -0.1984934
 -0.18329245 -0.12481382]
[-0.5995947  -0.09257134  0.34846088 -0.5326768  -0.28026557  0.24751177
  0.31657746  0.24363774  0.2805431   0.09252559  0.17323208 -0.1587284
  0.10999014  0.49141926  0.1063511   0.03551725  0.04486548  0.01633526
  0.0087258   0.17443337]
[-0.1590834   0.03696964  0.48449594  0.29847267  0.22236082 -0.4605802
  0.31004053  0.3489378  -0.17580034 -0.7238913  -0.78247696 -0.30663335
 -0.2675126  -0.01563791 -0.40619832  0.00872279 -0.27270955 -0.13348779
  0.13747832  0.4390752 ]
[-0.26529893 -0.3256336   0.25073877 -0.03385624  0.04730795  0.0472995
  0.28725114  0.3317998  -0.33530617  0.32791954 -0.17701192  0.46032882
 -0.1257973   0.04955307  0.02424767 -0.14511877 -0.19970068  0.29316452
  0.08698507  0.15184905]
[-0.11705105  0.00713595 -0.17737947 -0.16877653 -0.38461596  0.24149431
  0.23196116  0.48275402 -0.09684701  0.0379975   0.4124719   0.61415786
  0.39384064  0.07263568  0.11948209  0.22625075 -0.35158524  0.25442305
  0.2541575  -0.3525107 ]
[-0.48686868 -0.39491367 -0.59762406 -0.3354233  -0.4420509   0.26399684
  0.16733727 -0.12371615 -0.48930547  0.13063973 -0.00841748  0.06307639
 -0.09376333  0.6238478  -0.67971    -0.00868676  0.26995584  0.29020813
  0.63733464  0.251313  ]
[-0.21741936 -0.20879506  0.48305342  0.20464145  0.03612278 -0.29263866
 -0.11465643  0.48851758  0.27570772 -0.33746544 -0.1520373   0.23635513
  0.17941377  0.03678109 -0.09481309  0.45595297  0.05551493 -0.1707658
 -0.43239003  0.75422424]
[-0.1958092  -0.10263498  0.22450186 -0.12378071 -0.177825    0.02924478
 -0.08023532  0.32767087  0.0051633  -0.22922021  0.00193795  0.6410737
 -0.06551304 -0.22175936  0.39308852  0.6495636  -0.30160815  0.00639265
 -0.54309356 -0.00499259]
[-0.21718411 -0.21393932  0.18683554 -0.64720434 -0.5259812   0.3384419
  0.2865903   0.14665055  0.50933856  0.2532935   0.4275078   0.7554616
  0.09192923  0.53219086 -0.34473073  0.24371737  0.17595361  0.32375896
  0.05737623  0.21326178]
[ 2.2097208e-01 -3.1330597e-01 -2.0202893e-01  3.6816162e-01
  6.8999920e-03 -4.9642738e-02  1.4021116e-02 -1.7903475e-04
 -1.4170137e-01  2.0025809e-01 -1.3758425e-01  9.5257737e-02
 -2.5438792e-01 -1.8952648e-01 -6.0967857e-01  4.8825532e-02
  1.0644798e-01  1.5484205e-01  6.2828399e-02  2.3359494e-01]
[ 0.22678052 -0.28337544 -0.05312688 -0.14761974  0.1402067  -0.7063467
  0.19852792  0.33132225 -0.27851424 -0.68078405 -0.7888972   0.38203463
  0.12248611  0.62301517  0.13733432  0.24212447 -0.23968013 -0.1140241
  0.1522433  -0.10014733]
[ 0.25459734 -0.15458092 -0.83401096 -0.04989064 -0.24540807  0.06518895
 -0.08133752  0.36514965 -0.18411653 -0.22923785 -0.04971901  0.2843496
 -0.05452397 -0.32086906 -0.18931352  0.10340508 -0.18713105  0.56694734
 -0.00385898  0.3018302 ]
[-0.29830337  0.41329515  0.09264851 -0.3838869  -0.49768075  0.8533881
 -0.37396178 -0.46878827 -0.01461303  0.3105334   0.08005612 -0.08251237
  0.31131437  0.03059149 -0.6120058   0.6185227  -0.4429961   0.7498423
  0.242999   -0.08011891]
[ 0.08321682 -0.33525857 -0.41865796 -0.06060329  0.12872587  0.41960678
  0.04803998 -0.28860277 -0.30004147  0.5558146   0.38254416 -0.5780804
 -0.40821806 -0.7101379  -0.77814364 -0.6298802   0.02765633  0.1321247
 -0.09424056  0.43719864]
[ 0.03753588  0.1910654  -0.03062107 -0.11408314 -0.32401454 -0.2902151
  0.01764594  0.5546908  -0.09351685 -0.42710927  0.16314952  0.6210418
 -0.15347004  0.46050793  0.75183     0.06040412 -0.74282736  0.460703
  0.0845388  -0.20461185]
[-0.30681974  0.9309353   0.75354606  0.2100637   0.09675483 -0.9099511
 -0.67616296 -0.684477    0.2725854  -1.418916   -0.52356696  0.06441139
 -0.2816768  -0.4732512   0.9767744  -0.3050329  -0.22525738 -0.5261694
  0.02216445 -0.61715347]
[ 0.13340703  0.5482598   0.3428775   0.28848878  0.7049958  -0.11571807
  0.09107541 -0.24942234 -0.5601283   0.00454611 -0.20924823  0.23258269
 -0.22023246  0.4642305   0.582987   -0.63260555  0.08573157 -0.6444763
  0.41496104 -0.31566134]
[-0.10359022 -0.21660924 -0.3521827  -0.35280484 -0.7782635   0.32075852
  0.1617721   0.20914271 -0.64305776  0.35941875  0.4094923   0.60013217
  0.07109208  0.7166287   0.24145122  0.32310787  0.15013215  0.5096691
  0.09127707  0.24721618]
[-0.11114496  0.3124959   0.39557797  0.44740796  0.3944343  -0.20826495
 -0.13630606 -0.1517028  -0.10852855 -0.35274032 -0.32860377  0.06131127
 -0.28095973 -0.20340005  0.36186045 -0.427703    0.16620114 -0.15320665
  0.42709583 -0.4871754 ]
[ 0.5043931   0.56551635  0.99301034 -0.04332455  0.48223847 -0.10997012
 -0.36311573 -0.58210504  0.11602842 -0.46330836  0.03221018 -0.7441011
 -0.09896029 -0.41066366 -0.6234491   0.13654815 -0.07108129 -0.09694596
  0.05727297  0.04551081]
[-0.20319399 -0.19294259 -0.22531925 -0.05645844 -0.14892425  0.13257538
  0.35382938 -0.08107083 -0.14023463 -0.2831608  -0.03013923 -0.09502324
 -0.25677618  0.7239752   0.95291644  0.22827455 -0.09699678  0.24573597
 -0.20670794 -0.05460922]
[ 0.15684438 -0.83655643 -0.581053    0.04017247  0.16613826  0.36049148
  0.45312428  0.3628552  -0.03070161  2.1162133   0.36727977 -0.3988061
  0.19433555 -0.17653267 -0.7986231   0.12415598  0.26809165  0.2985783
 -0.03068821  1.0739162 ]
[ 0.2817185   0.21761262  0.16032816 -0.25433248  0.30911273 -0.51449466
  0.01883473 -0.04759115  1.0515045  -0.24986622 -0.27670664  0.13682416
  0.02793798 -0.13633327  0.41709727  0.17126831  0.22743185  0.06891011
 -0.03984972 -0.39012522]
[ 0.3435808   0.54601234  0.4496824   0.2945811   0.46395636 -0.1736197
 -0.32451087 -0.18556438  0.8484621  -0.3597426  -0.13467439 -0.13319024
 -0.5649841  -0.8509528   0.6546051  -0.32114404  0.11202502 -0.7026426
  0.43692625 -0.5309345 ]
[-0.29372266 -0.01558044  0.4533018   0.06274974 -0.03453184 -0.24515098
 -0.26071715  0.38182548  0.03076346 -0.09028315  0.05428918  0.6984477
 -0.15944734 -0.38568345  0.50505817  0.22946304 -0.13249607  0.1590952
 -0.15890002 -0.03471628]
[-0.1840521  -0.43566555  0.17962046 -0.61399406 -0.5234691  -0.08028418
  0.37511092 -0.12037615  0.02203301  0.05765398  0.00223012  0.05491411
  0.53278756  0.5483012  -0.47554117  0.7438319  -0.23610741  0.835761
 -0.56105894  0.8749111 ]
[-0.14321114  0.18898113  0.7803219  -0.09487945  0.5397218  -0.69463587
  0.00798719  0.07696935  0.05390654 -0.05981243  0.18078074 -0.14397688
  0.03457234  0.19855453  0.6739992   0.09438021 -0.11826857  0.05622705
  0.19189927 -0.12181691]
[ 0.15635833  0.00729231 -0.7310204   0.33935988  0.291846   -0.1810398
 -0.06617163  0.13103472 -0.34445786  0.5160385  -0.3025414   0.24515834
 -0.40495807 -0.48638922 -0.69780403  0.01603119  0.02576062 -0.2235299
  0.20922026 -0.04798003]
[ 0.536982   -0.12918338 -0.2061521  -0.19161569 -0.0219835   0.15552688
 -0.08364159 -0.16248682 -0.0645549   0.5078423   0.43960342  0.3997216
  0.08653858  0.6409679   0.1812083   0.429894   -0.21816769 -0.26337257
 -0.48096552 -0.2461223 ]
[-0.05268739  0.10958019  0.21785681  0.3906962  -0.59430236 -0.879468
 -0.05203504  0.20789264  0.05488887  0.42936224  0.4988339   0.5494601
  0.3808761  -0.14884713 -0.5376226  -0.08119185 -0.2533561   0.09954312
 -0.09239366  0.01158075]
[-0.08899926  0.19904841  0.22180465 -0.38551196 -0.34741098 -0.0919589
 -0.44435087 -0.3684847   0.09729728  0.21301953  0.15797503 -0.35013857
  0.24716908 -0.19601238  0.5725116   0.10717837 -0.16674472 -0.16508947
 -0.12738949 -0.30781978]
[-0.3210107  -0.33590773  0.18904528 -0.14087075 -0.76945597  0.27241987
 -0.5394705  -0.356324   -0.10350061  0.45353478  0.48637497  0.10549726
  0.5157126   0.24908784 -0.34599343  0.44391215 -0.73629606  0.80381507
 -0.6200786   0.5201866 ]
[-0.16645043  0.10220654  0.19672932  0.06452495 -0.5342687   0.17510802
 -0.22463737 -0.07623121  0.5737315   0.9559509   0.33779734  0.06923643
  0.3498461  -0.03369604 -0.01900738  0.15652153  0.2793833  -0.09351412
 -0.26357576 -0.37408423]
[ 0.45686674 -0.2828395   0.05687851 -0.08590063 -0.10777222  0.04237822
  0.23322347 -0.28385386 -0.36319453 -0.05421745  0.06749015 -0.7530753
  0.1628174  -0.51822937 -1.0704623  -0.492135    0.75674343 -0.23887734
 -0.00510324  0.18696219]
[ 0.20748211  0.7604705   0.16875727  0.45502558  1.0709842  -0.37507012
 -0.70371765 -0.42364073  0.18283643 -0.6922749  -0.60927117 -0.06949598
 -0.38729554 -0.6163248   0.5545104  -0.4275499  -0.08190649 -0.52634424
  0.47623622 -0.58663845]
[-3.8352042e-01  2.8280640e-01 -9.5677681e-02 -3.0577499e-01
 -8.5049671e-01  4.4606736e-01 -3.7549061e-01 -4.0347722e-01
  3.8398860e-03  6.2486267e-01  5.4337424e-01  4.7185261e-02
  2.6031470e-01  6.4269990e-02 -9.2873938e-02  3.1622684e-01
 -2.4256596e-01  5.2978200e-01  2.3888273e-04 -2.4224247e-01]
layer 5 Activation
tanh
layer 6 Dense
20 1
[-0.16666494]
[1.230853]
[0.3860233]
[-0.5009083]
[-0.5741382]
[0.25732544]
[-0.9212851]
[-0.9508681]
[0.16487165]
[-1.0317646]
[0.6501341]
[0.66753757]
[0.88494533]
[0.4843094]
[0.48867166]
[0.78261405]
[-0.27870947]
[0.6116389]
[0.6607551]
[-1.2445416]
[0.90535384]
