layers 7
layer 0 Dense
20 20
[-0.31749648 -0.04291304  0.22008426  0.11283602 -0.2991343  -0.25432488
 -0.07111792 -0.16724032  0.21785481  0.27730042 -0.2402647   0.28085268
  0.31892458  0.06576224  0.35859862 -0.5542145   0.21151663  0.29642886
  0.09004253  0.13528988]
[ 0.3186401  -0.2628075  -0.07031626  0.2936222  -0.0668525  -0.32154864
  0.14353243  0.259045   -0.05385447 -0.44627303  0.0464883   0.13688241
  0.02094987 -0.1272333   0.15487196  0.33758125 -0.13225652  0.44840577
  0.007747    0.02473171]
[-0.11915816 -0.05239144  0.09781685 -0.18232675 -0.33159468 -0.26888537
  0.00774513  0.00591839 -0.3902029  -0.1770435  -0.27928585  0.5643744
  0.0804949   0.18577877  0.17141496 -0.0527918   0.25540516  0.07115003
  0.19244201  0.18128614]
[ 0.30900475  0.13174398  0.2053781   0.06971454  0.20738535  0.32404265
  0.31852996  0.12543212  0.12757649 -0.15929317  0.21730705  0.03486335
 -0.2919858   0.00804654  0.07841275 -0.40704417  0.00456893 -0.22387026
 -0.32358554  0.1904063 ]
[ 0.20745482 -0.07267103 -0.08588896  0.10550243 -0.11344809 -0.20225242
  0.07430866  0.26697475 -0.212195    0.15398271 -0.03800322 -0.05184214
  0.14807697 -0.12359977 -0.26507697  0.19313848 -0.22400023  0.19178227
  0.11824091 -0.18137039]
[-0.05338623 -0.01260612  0.3778064  -0.4446166   0.25431266  0.06771703
 -0.24503131 -0.36609498 -0.06735867 -0.10770631  0.3144851  -0.3809625
  0.20614971  0.31040245 -0.11481415 -0.34769028  0.06256375  0.07621625
 -0.18156487  0.40575597]
[-0.34721166  0.20924868  0.29736817  0.18127     0.07397114  0.2096209
  0.01097376 -0.4140519   0.02566346  0.3444346   0.34398514 -0.16424452
  0.2822662   0.24318187  0.3430156  -0.02805006  0.32146406 -0.1938752
 -0.09104113  0.24136397]
[ 2.1572003e-02  2.9522882e-05  6.2615797e-02  2.6647073e-01
 -8.3401501e-02  4.0256211e-01 -7.8383736e-02  3.5102490e-01
 -2.7996853e-01 -6.2824614e-02  1.3092163e-01 -9.4855037e-03
 -3.6009857e-01  4.7012761e-01  2.0794931e-01  6.6886425e-02
 -2.3646800e-01  3.6599129e-02 -1.8331394e-01  1.4851449e-01]
[-0.43182877 -0.0220814  -0.37245312 -0.17396776  0.1491551  -0.17999806
  0.18022066 -0.21671551  0.33548656 -0.22774757  0.18215592  0.08276935
  0.10532532 -0.07437658 -0.02929931 -0.06122972 -0.2619075  -0.01489223
  0.08718579 -0.05824571]
[-0.3529929  -0.13034315  0.17617638 -0.16965422 -0.20823696 -0.20990403
  0.2828572   0.12242079  0.3821658   0.23550747  0.22353345  0.17265223
  0.26535153 -0.17322244  0.29567084 -0.1625788   0.40037543 -0.04621075
 -0.13990954  0.23526439]
[ 0.21799731 -0.33028647  0.33003712 -0.01473677  0.14998607 -0.03449098
 -0.06312798  0.35200778 -0.03142503  0.17551689  0.3486915  -0.05454368
 -0.18551877 -0.2861482  -0.226266   -0.20690045  0.3491429   0.35023156
 -0.01492103 -0.21421236]
[-0.36202273 -0.24786004 -0.30808866 -0.2909671   0.18402602 -0.05827554
  0.18837096  0.08933947  0.03785285  0.00406873  0.28826833  0.4951336
  0.35836464 -0.3442262   0.48551056 -0.18704732  0.24493328 -0.02077897
  0.08173154  0.25266436]
[ 0.3852125   0.10936306  0.16260439 -0.13708222 -0.0392755   0.31773546
  0.25117534 -0.35594338  0.4046207   0.22264057 -0.09170821 -0.2875071
  0.02956919 -0.11711065 -0.16005622 -0.00487381  0.23963761  0.25935566
 -0.19226244  0.02510034]
[-0.17869854 -0.24347737  0.1516761  -0.02284198 -0.13216116 -0.22390088
 -0.05053472 -0.18925415 -0.12555094 -0.36286366  0.01650016  0.09225959
  0.11992852 -0.17699005 -0.04614014 -0.3684655  -0.07644644  0.12410813
  0.00059723 -0.2500863 ]
[-0.09610933  0.26096922 -0.33282498  0.15077014 -0.21671988 -0.38199237
  0.14100778  0.30187735 -0.39341035 -0.06377144 -0.44593504  0.3375921
 -0.36259365 -0.32215434  0.27095076 -0.08061484  0.24398597  0.1248673
 -0.09747601 -0.23330617]
[ 0.05551237 -0.21997403 -0.13290177 -0.10215861 -0.38442692 -0.20076925
  0.04944144  0.03856309  0.07047372 -0.08948984  0.24724273  0.08763319
 -0.24975784 -0.25159913 -0.14107111 -0.22139953  0.34660706 -0.05633979
 -0.02233583  0.16272005]
[ 0.26051128  0.01802167  0.03848872 -0.23183997  0.03031746  0.15094686
 -0.27502382  0.24762577 -0.28426147 -0.2907503   0.03793222  0.19219525
 -0.40587717 -0.04955686  0.1411771   0.01439094 -0.09864607 -0.24699806
 -0.03830819  0.15714355]
[ 0.1131535   0.17115657 -0.16090113 -0.43660152  0.2918659  -0.18489246
  0.10804825 -0.23268777 -0.2811298   0.28511193 -0.13599992  0.31437248
 -0.06910639  0.09407859  0.10160238 -0.21576795 -0.03483899  0.03032316
  0.10118596 -0.01781489]
[-0.1929205   0.41752234 -0.38415366  0.34578353  0.06695487 -0.23879243
 -0.0437636  -0.31993678 -0.10095859  0.01482249 -0.26342735  0.13069855
 -0.22033028  0.2573882  -0.20953849  0.23129216  0.17269297  0.12170692
  0.20557562  0.04970102]
[ 0.21026012 -0.14682198  0.17408316  0.22213304 -0.02065847  0.16398735
 -0.41983137 -0.23771776  0.41908142 -0.2464842   0.20158297 -0.3492877
 -0.03443592  0.37443024 -0.3785966   0.06229904 -0.07146078 -0.28885582
 -0.27758512  0.2433262 ]
[ 0.03548708 -0.00845773 -0.06702323 -0.00826506 -0.06160117 -0.04209153
  0.0432053   0.05026911 -0.04028278 -0.00805513  0.00746488 -0.00018951
  0.05973457 -0.04430151  0.07205254  0.02225611 -0.04175454  0.05680539
 -0.08016057  0.05716938]
layer 1 Activation
tanh
layer 2 Dense
20 40
[ 0.09818998  0.19062911 -0.188208    0.09222951  0.26858494 -0.19582021
  0.13900736 -0.2448416   0.27740997 -0.07789239 -0.25543714  0.1511994
 -0.19594398 -0.29806548 -0.2053979  -0.032526   -0.09716889 -0.10179471
  0.2776481  -0.15717651  0.24965948 -0.09373592  0.05226455 -0.1210454
  0.24506952 -0.17824143  0.01732422  0.2836997   0.1556876   0.22875516
 -0.04407656  0.2671491   0.00416389 -0.02001341 -0.20265196 -0.1820329
 -0.01296924 -0.0786824   0.25575283 -0.20555803]
[-0.03325482  0.02867728 -0.35393286  0.0941905   0.11234181 -0.02166193
  0.18861382  0.02122122  0.10160523  0.18975069  0.00969842 -0.16545379
 -0.38315204 -0.12624964 -0.00761821 -0.24112473 -0.16730195  0.14843923
 -0.11359245 -0.04635659 -0.36725312  0.16824065 -0.21031232  0.17033702
 -0.07603645  0.11506194  0.17133239  0.2655488  -0.03737815 -0.19627666
  0.30951536  0.2375415  -0.22800326 -0.07928447 -0.17680638  0.03797236
  0.00803058  0.10064559 -0.14249903 -0.04151298]
[-0.02481106  0.2356483   0.07946234  0.02364847  0.1664742   0.07495682
 -0.12528893 -0.1877529   0.10980064  0.07568642 -0.20718794  0.09106246
  0.1537102   0.20363152 -0.19443348  0.2608443  -0.06802356  0.3074328
 -0.14433041  0.04609878 -0.18438151 -0.03430249 -0.01363696  0.00907278
  0.25935715 -0.2239801   0.02976922  0.24599656 -0.12172719  0.24069366
 -0.1839334  -0.26121175 -0.31301746 -0.06890794  0.08349828  0.12856944
 -0.29400098 -0.26702905  0.15102878  0.12480705]
[-0.31439704 -0.24068435 -0.24629402 -0.11176036  0.10331611  0.00878065
  0.28260982  0.34528217 -0.10073057 -0.01980613 -0.13928074 -0.33242926
 -0.30313945  0.08891521  0.2336375  -0.1848109   0.12224352  0.0073786
 -0.02731479  0.03592889  0.10111964 -0.14261095 -0.2521421   0.08843289
  0.266107   -0.16035675 -0.10935916  0.27995875 -0.288767   -0.21409695
 -0.23634462  0.11883738 -0.05922496 -0.07117981  0.24577512  0.12297504
  0.06737263 -0.25729847 -0.13110858  0.01600928]
[-0.16050604  0.10326744  0.24378535 -0.14694439 -0.10611274  0.01967321
  0.0543038  -0.14809234 -0.22318389 -0.28348956 -0.27255207 -0.1027931
 -0.23580033  0.16207194  0.28641567  0.14568235  0.24953185  0.00518019
 -0.10081694 -0.16063626 -0.03390206 -0.16137438 -0.13643725 -0.03568931
  0.19500104 -0.16803929  0.22210264 -0.21692991  0.14274198 -0.21091771
  0.11552151 -0.00762785  0.15065695 -0.2727104   0.16733351 -0.12574308
  0.20278285 -0.04066705  0.13507996  0.00240205]
[ 0.10831341  0.01139109  0.16703682  0.24380109  0.06934559  0.17710237
 -0.1783255   0.16385002 -0.13265814  0.17646828 -0.09076685  0.23215912
  0.10153111  0.33670536  0.05472557  0.06868178 -0.28896788 -0.1892154
 -0.03947664  0.03810922  0.19348897  0.2949759   0.08663215  0.15266931
  0.19027776 -0.30744788 -0.2189036  -0.04900698 -0.10342727 -0.29976693
  0.20851107  0.05432544 -0.12274079 -0.0820467   0.15149331  0.16525486
 -0.20204265  0.21243533 -0.33520073 -0.24953534]
[ 0.11029691 -0.1786818  -0.33486128 -0.05815024 -0.32324523 -0.08460499
 -0.1144067  -0.4733657   0.00545877 -0.11614613  0.14655991 -0.07664935
  0.2590015  -0.0592777   0.17209035 -0.24869424  0.25857785  0.06720439
  0.03563644 -0.088007   -0.21192265  0.02871965 -0.17142177 -0.17576765
 -0.07228851  0.40666392 -0.07685191  0.01802863 -0.342612    0.18651006
  0.23545887 -0.210306   -0.16221018 -0.1409948  -0.10287858  0.1493053
  0.18376246  0.0774162   0.17604971 -0.09148999]
[ 0.05852614  0.01339543 -0.03054571  0.17564848  0.0742844  -0.1248643
  0.04013128  0.05839309  0.09648831  0.14261365  0.27184325 -0.21733655
  0.19823213 -0.15317596 -0.18374474  0.14681713 -0.07156055  0.13591528
  0.19839318 -0.04282734  0.07237922  0.27624005 -0.0982058   0.1851127
  0.18421093  0.12028155 -0.13110179  0.19871499  0.1905549  -0.25591847
  0.200814   -0.11734331 -0.23977806  0.09846887 -0.24813838  0.26042444
 -0.23574673  0.21310458  0.24097952  0.14273722]
[ 0.06344429  0.32794517  0.1271087  -0.10612874 -0.10018218  0.3194482
  0.18127012  0.17920841 -0.22189     0.01623289 -0.18004985  0.14555386
 -0.1295611  -0.2034478  -0.01510701 -0.11188348 -0.07220026  0.11418308
  0.23018852  0.2068913  -0.00240762  0.32170147  0.13030885 -0.10252672
 -0.20093852 -0.16198085 -0.18320498  0.18944919  0.07600373 -0.09599368
  0.08939181 -0.30240044 -0.33957216  0.13143839 -0.27044272 -0.18659502
 -0.0052738  -0.24982792 -0.1565458  -0.11585992]
[ 0.15937378 -0.0899658  -0.19067961  0.25894427 -0.10387054  0.2561366
 -0.01911837  0.00301173  0.24985833  0.03006206  0.0481634  -0.03017669
 -0.02723911 -0.05328638  0.02520619  0.18223119  0.2191405   0.04410503
 -0.05396356 -0.00236639  0.02460691 -0.00670333  0.35955587 -0.01278907
  0.20180807  0.26706192 -0.0569029  -0.06732617 -0.29421988  0.02839653
  0.02431319  0.04866738 -0.01788409  0.22442245  0.35227695 -0.20068035
 -0.17623526 -0.12682278 -0.23352966  0.26346084]
[ 0.27399185  0.29844558 -0.27030155 -0.12869167  0.07400034 -0.08647613
 -0.28957027  0.2629462  -0.14863703  0.2961389  -0.12251856 -0.10891056
 -0.22806488  0.24380419  0.14360796 -0.26914212  0.10481662  0.00123765
  0.0967855  -0.24153586 -0.23002778  0.35818586  0.00490965 -0.07331737
 -0.1901447  -0.33979228 -0.06114418  0.05411683 -0.07159802 -0.00441705
 -0.1846147   0.16670015 -0.28079125  0.3739276   0.00916488 -0.19584988
 -0.08171285  0.04374671 -0.09594236 -0.12764119]
[ 0.03604644 -0.13144578 -0.20758095  0.24246107 -0.23801467  0.02197082
  0.25615048 -0.1542564  -0.23897976 -0.3121518  -0.13290156 -0.08479304
  0.1818618   0.13620992 -0.04807428 -0.21968018  0.21372874 -0.03485887
  0.11720164 -0.01030431 -0.1888231  -0.27029273 -0.22695817 -0.01769789
 -0.2466013   0.24093714  0.18809684 -0.22236575 -0.29347938  0.30873102
 -0.15091796  0.33604097  0.21541277 -0.2437124  -0.3064695   0.18636446
  0.16957158 -0.08220853 -0.05977129  0.24297582]
[-0.00944019  0.0494854   0.41890866 -0.08821258 -0.2112728   0.28939778
  0.16611782 -0.22534825  0.00587987 -0.0774217   0.26814896  0.05115431
  0.3161308  -0.20572127  0.09081596 -0.16428447 -0.23708518 -0.28282693
 -0.00395018  0.15551302 -0.1792025   0.18407017 -0.21967559  0.24658972
 -0.16289644  0.05591049 -0.06624284 -0.0275037   0.17570598  0.24999423
 -0.29546452  0.2902102  -0.208685    0.15391712 -0.17695813  0.0946463
 -0.23210576 -0.06615505  0.01401429 -0.0064177 ]
[ 0.16145617 -0.16056862 -0.18646333  0.11612516  0.24741378  0.14766042
 -0.02091827  0.0035998  -0.00734672  0.00713438  0.09265663 -0.22845078
  0.04764087  0.10340777 -0.03203465  0.09784269 -0.20328721  0.21549217
 -0.24853763 -0.00223826 -0.15414703 -0.11534722  0.0451959   0.11283855
 -0.23835136 -0.304142   -0.02380774 -0.03954989  0.05344652 -0.06055866
 -0.17827874 -0.36531577 -0.28364152  0.30021834 -0.05509694  0.15576245
 -0.2385716   0.24809359 -0.26313683  0.1738128 ]
[-0.27068126  0.14578125  0.16452008 -0.07141368 -0.22096314  0.23687159
  0.26170418  0.02689929 -0.25858462  0.1957596  -0.18481387 -0.18281929
 -0.03115153 -0.14783433  0.2513819  -0.19074038  0.14084557 -0.24502029
  0.09994514  0.20042564 -0.28224856 -0.1815063  -0.19141887  0.04319868
  0.21221578  0.25500625  0.25657555  0.21367742  0.1113494  -0.04509425
 -0.09126096  0.11885021  0.22606581  0.07977225 -0.22710511 -0.2274563
  0.35724667 -0.06640249  0.18245763  0.28846177]
[ 0.30302885  0.02705532 -0.09578791  0.1226388   0.32512218 -0.2842011
 -0.08835105  0.2972222   0.15616384 -0.11434808 -0.25824505  0.30904666
 -0.27650237  0.07153033  0.00430588 -0.12821226  0.1202037   0.0339172
 -0.01388463  0.15058394  0.02368169 -0.12655759  0.03747066 -0.18971369
 -0.09629277 -0.08838517  0.21571654  0.16654179 -0.11758642 -0.11449894
 -0.27454895  0.01347767 -0.14923884 -0.15374318  0.04396188 -0.23353864
 -0.23166762 -0.04268836  0.04816919 -0.13415511]
[ 0.00350033  0.20813577 -0.3081768   0.17664863  0.20062278 -0.24506925
  0.17569563  0.17888522  0.25768158 -0.16069919 -0.21191989  0.00766954
  0.09491581  0.20034023  0.06801984  0.10698599  0.0864857   0.08393843
  0.26136547  0.29617518  0.2010094  -0.27199125  0.09329696  0.20249379
 -0.02364159 -0.07596879 -0.09147654 -0.2626486  -0.06625985  0.14892381
  0.0193558  -0.07959336 -0.11446432  0.08302771  0.17623718 -0.2551938
 -0.15241587  0.22121322 -0.13070299 -0.30747664]
[ 0.20465422 -0.154716   -0.11538961  0.35224319  0.03561622 -0.09506952
  0.22627223 -0.09937117 -0.08619136 -0.12131973 -0.12987965 -0.24195713
 -0.19907829 -0.26822102  0.15257786 -0.15770869  0.04850978  0.00371898
  0.07539067  0.07854141  0.23216306  0.05005354 -0.14202175  0.2564856
  0.32462227 -0.3756389  -0.13346168  0.18234341  0.155669    0.21342036
  0.19200565 -0.19087924 -0.23455404 -0.18129039  0.10349288 -0.25895151
 -0.03806266  0.14330618 -0.14282283  0.0120284 ]
[-0.19092081  0.18580508  0.07879521  0.15770806 -0.07679936 -0.12622698
 -0.11969823  0.08647428  0.22289534  0.28229195 -0.07701073  0.01238236
  0.17852475 -0.408198   -0.27065298 -0.08705544  0.26033765 -0.20237523
  0.17561387  0.31695032 -0.1990953  -0.27400532 -0.28508106  0.15652846
 -0.10217227 -0.05773865 -0.1837018  -0.19979125 -0.00094322 -0.21304366
  0.05589291  0.25240532 -0.15303797  0.15774366 -0.17203611  0.24912477
  0.29702482 -0.26848578  0.20928115  0.22874403]
[-0.03362983  0.01314971  0.03975007  0.01990847  0.14140122 -0.28117526
 -0.11464731  0.16415882  0.25368792 -0.09256495  0.24321142 -0.04894747
  0.25737384  0.29338276 -0.20181356 -0.2896674  -0.09639414  0.10867519
 -0.17840093  0.01634545 -0.07046464  0.10790803 -0.06040177 -0.24993868
 -0.30483097  0.19005337 -0.11768506 -0.10419609 -0.32709485 -0.17148979
  0.06657799 -0.32084006  0.03865611  0.0864528   0.08584087  0.15620372
  0.3101018  -0.23499383  0.24553038 -0.21360224]
[-0.01527986 -0.0179699  -0.05768125 -0.02402942 -0.04814186  0.00609053
 -0.01411401 -0.01793564  0.00475517 -0.02948459 -0.00975251 -0.00416682
 -0.00242271 -0.09307658 -0.00079497 -0.01651219  0.00756806 -0.00298388
  0.00601784  0.01592095  0.02885267  0.00127021 -0.02109503 -0.02146502
  0.01024137  0.12266086 -0.01722874  0.0118216  -0.01101959  0.00232435
  0.0494631   0.02458834 -0.00379489 -0.02779194 -0.05237268  0.03353845
 -0.00014105  0.02105008  0.00792194 -0.00231031]
layer 3 Activation
tanh
layer 4 Dense
40 20
[ 0.2401586   0.13197023  0.30711347 -0.30521753  0.04238562 -0.05228847
 -0.2518752  -0.17553455  0.2330686  -0.17451754  0.04910209  0.11824314
 -0.25734025 -0.03050876  0.1911114   0.1065682   0.16936734  0.29282486
 -0.26181203  0.22999974]
[-0.2147474   0.07465575 -0.26352015  0.05589548  0.23166534 -0.12264495
 -0.26116934 -0.28088614 -0.24151576 -0.1627112  -0.3467631  -0.04802138
 -0.05450661  0.06671195 -0.05020399  0.27514136 -0.16709495 -0.07996944
 -0.35848787 -0.01045429]
[-0.15069816 -0.02036604 -0.01854956  0.07932463 -0.23380609 -0.28425002
 -0.2721742  -0.10467312  0.1792538   0.12268282 -0.28626603 -0.10227432
  0.28968608 -0.30696726 -0.22042559 -0.0170208   0.09472312  0.24223702
  0.13610265  0.0186806 ]
[-0.01706057 -0.22748116 -0.01327194 -0.02427674 -0.21586378  0.04512275
  0.31736276  0.21036276  0.19553225 -0.15217856  0.0909121   0.03567019
 -0.17555813 -0.17420109  0.11663124  0.10097281 -0.29613587  0.31630018
 -0.20316944 -0.19177982]
[-0.02203003  0.01700359  0.24395095  0.04435976 -0.20366736 -0.07929067
 -0.0476807   0.23500898 -0.02505496 -0.03355866 -0.08904181 -0.23018488
 -0.14235447 -0.02305246 -0.26461777 -0.13796207  0.003531    0.329128
  0.01089384 -0.11927851]
[ 0.08419783 -0.22219796  0.1506289  -0.08007631  0.00359481  0.06500598
  0.03555449 -0.15586373 -0.11040067 -0.03697436  0.340486    0.08816796
  0.1669065  -0.14401147  0.12280404  0.2029328   0.21167836  0.16116527
  0.23293196 -0.24788325]
[-0.04556167  0.00343769 -0.16104607  0.16455373  0.10694473  0.01733079
  0.04732111 -0.07906915 -0.13047452  0.17974755 -0.19481008 -0.17136724
  0.23246428  0.01301903 -0.25373867 -0.26565883 -0.00838001 -0.22274032
  0.14393467  0.10550065]
[ 0.16433264  0.26522666  0.08427718 -0.16363692  0.33133927 -0.09189775
  0.06372777  0.36536118 -0.05450328  0.07688567  0.08208335 -0.31783158
  0.1404416  -0.09232686 -0.0322831  -0.26639208 -0.11514039 -0.28104874
  0.34759322  0.2953296 ]
[-0.0150198  -0.29460377 -0.16305359  0.18776673  0.27470177  0.04252464
  0.25624844  0.01175187  0.08435017 -0.04699965 -0.09579926  0.09904042
  0.1269116   0.22658263  0.00592232 -0.00242973  0.08408859 -0.2172261
 -0.01908216 -0.15898184]
[ 0.12208106 -0.28889412  0.16655155 -0.00914048 -0.24300458  0.27347896
 -0.16365354  0.17476062  0.08146302 -0.08555468 -0.17005669 -0.12908626
 -0.12714317 -0.14682078 -0.20703173 -0.14036138 -0.2965188  -0.18604603
  0.07799917 -0.14466509]
[ 0.07365403  0.13415517  0.1431124  -0.14403263  0.19720809  0.1728118
 -0.02043636  0.09978739  0.29776382 -0.01487755 -0.25445372  0.08749434
  0.28616178  0.19959669 -0.01523069 -0.28066397 -0.21008033 -0.08303285
  0.22255075  0.05627806]
[-0.07750104 -0.15552586 -0.20164558 -0.08949248 -0.02536577 -0.01946627
 -0.12238659  0.03345367  0.2366434   0.17046018  0.08749691  0.07773125
  0.01260911  0.23598088 -0.13142471  0.17211239 -0.0601329  -0.03944419
  0.07383608  0.16687512]
[-0.25620523  0.212594    0.15050521  0.11807851  0.08601176  0.12074567
 -0.09003898 -0.31072643  0.02659555  0.2684873   0.1121809  -0.17318866
  0.15485856 -0.1082868  -0.18481338  0.07202638 -0.08375808 -0.21031012
  0.05516196 -0.19061138]
[-0.01438176  0.01176589 -0.25885555  0.0282705   0.3261679  -0.30389285
 -0.08685397 -0.07239767 -0.32991412  0.10596752 -0.29159078 -0.099346
  0.31015962  0.11019439  0.06234855 -0.1623179   0.06417297  0.3012482
  0.12511535 -0.13979766]
[-0.32648042 -0.10892987 -0.19792107 -0.08570699  0.00222435 -0.28221986
 -0.19383529 -0.23258509  0.18408722 -0.10700243  0.13851357  0.34608635
 -0.06610837 -0.23167105  0.21729648  0.02427752  0.20733212  0.09774525
 -0.13383263  0.19711305]
[-0.10999782  0.05046576 -0.12790205 -0.09999495  0.10281033  0.30174217
 -0.08242406 -0.01078768 -0.04476469  0.10000098  0.1826696  -0.06128846
  0.24663273  0.26360542  0.24304833  0.17313704  0.2593876  -0.2336316
  0.02648439 -0.08897719]
[ 0.04894447  0.01702537 -0.1253003  -0.08721838  0.07589586 -0.1795861
  0.19197029 -0.08253886 -0.006269    0.14665827  0.00972067  0.14466748
 -0.11982142 -0.271543   -0.1069545  -0.19876675  0.26610425  0.24374865
  0.11180305 -0.04013272]
[-0.17519559  0.25426102 -0.1637801  -0.04677692 -0.11350309 -0.14879324
 -0.22247532 -0.15273574 -0.303762    0.10324475  0.24467954  0.00820084
 -0.03655582 -0.15561184  0.06011272  0.10522361 -0.06124143 -0.01605694
 -0.16516547  0.23664041]
[ 0.01815333 -0.1407655   0.24586621  0.16390465  0.05633894 -0.08704526
  0.09650207 -0.11909825  0.06115098  0.1546407   0.13247201  0.04903538
 -0.25921258  0.29617873  0.2746157   0.09131689 -0.23990871  0.07417107
  0.15528469 -0.04845088]
[ 0.21625891  0.18870758  0.16967438 -0.2630643   0.1194794  -0.12959722
  0.1148171  -0.11969417 -0.06462231 -0.13410355 -0.28833446  0.12503272
 -0.1110576  -0.01735677  0.2979945   0.1179106  -0.089127    0.19601558
  0.13022102 -0.00595473]
[-0.14998662  0.10820452  0.12908678 -0.21154489 -0.29464012  0.08067376
 -0.23395863  0.03806647  0.01059322  0.00869952 -0.10877275  0.1823053
 -0.0280818  -0.09530304  0.11426902 -0.22490187  0.2614673  -0.08281291
  0.00388853 -0.19797425]
[-0.23985232  0.19432373 -0.01516649  0.10822693  0.12228442  0.09421042
  0.01855273  0.06071588 -0.2940582  -0.23028779  0.1367255  -0.17884684
 -0.27657935  0.25234863 -0.12390265 -0.18339746 -0.3018154  -0.3092032
  0.11976883 -0.09761033]
[-0.15095165 -0.14709629 -0.08743535  0.05651634 -0.2567089   0.14850433
  0.10241289 -0.01574752 -0.02691618 -0.26323164  0.24003002  0.30376992
  0.19388041 -0.1993164  -0.21809033 -0.11975475 -0.05822938  0.08883052
 -0.17741768 -0.13993645]
[ 0.1722278  -0.07517593 -0.02324216 -0.12300494 -0.12768564  0.10036594
 -0.00584419  0.00588316  0.00300752 -0.08310127 -0.33398983 -0.12070811
  0.10692462  0.30264056 -0.07225056 -0.08650804  0.244346    0.06712534
 -0.37284377  0.00061235]
[-0.18986797  0.15202576  0.25689656 -0.17215876 -0.1772397  -0.21236996
 -0.13987963 -0.06818947  0.07243245 -0.02469037  0.20754816  0.05246178
 -0.3061937  -0.07336384 -0.28821808 -0.22127749  0.11824071 -0.31792316
  0.3058412   0.09864901]
[ 0.3317169  -0.11539208  0.05082554 -0.092808    0.01136496  0.07662597
  0.17966275 -0.13225482 -0.01509584  0.12071145  0.01623805 -0.23531759
 -0.02026032 -0.1862707  -0.17333284  0.27868786 -0.18459441  0.20137036
  0.08773358 -0.03146846]
[ 0.11330281 -0.15164517  0.24535953 -0.20035174  0.14386144 -0.11726785
 -0.27393293 -0.12297304  0.05434886 -0.21882185  0.11998408 -0.08657102
  0.16699119 -0.26634616  0.14715217  0.3232921  -0.12633514 -0.13122833
 -0.03095378  0.22123553]
[-0.08527873 -0.23169194 -0.14323634  0.2779116  -0.04206043 -0.22630692
 -0.10265582  0.20676062 -0.06012989  0.13640428 -0.20569302  0.09178514
 -0.16416438 -0.24671859 -0.02956355 -0.19360414  0.1934735  -0.03024008
 -0.2159874  -0.14577441]
[ 0.05078305  0.27210054  0.29939628  0.10487246  0.11526027  0.05931288
 -0.26205796  0.00470686  0.10394874 -0.23967505  0.12321114  0.09314242
  0.13748296 -0.14969496  0.28839037 -0.17869367 -0.24320318  0.00808631
 -0.27310553  0.26100746]
[-0.27392867  0.28550375  0.10737807 -0.19914141  0.31094867  0.20096758
 -0.12376311 -0.27691558 -0.14478448  0.30203396  0.05507974 -0.26898524
  0.18940145 -0.14591824 -0.12444016  0.10320861 -0.22837214 -0.12391372
  0.04758411 -0.00489502]
[ 0.25010285  0.09707076  0.20020086  0.08876325 -0.18477833 -0.08879938
  0.0437135   0.01659439 -0.06917457 -0.21292703  0.29911307  0.06872627
  0.24906889  0.2081016   0.28266385  0.15637979  0.11017119  0.06795202
 -0.17740797  0.1832509 ]
[-0.11619571 -0.33750013  0.18390672 -0.24413896  0.02526244 -0.06711458
 -0.09768744 -0.1736155   0.30412352  0.01942964  0.1719559   0.21197847
 -0.27417243 -0.23681544 -0.11489262 -0.23731622  0.30852222 -0.04471214
  0.11003219  0.31809807]
[-0.11417589  0.26983106  0.08200108 -0.15638705  0.10439803  0.10789276
 -0.27793518  0.10798895  0.10012144 -0.20266101  0.33706158  0.21771912
 -0.23979013 -0.05982891 -0.15846267  0.06350585  0.2685282  -0.26350486
  0.30183023 -0.02568426]
[ 0.27431783 -0.20196281 -0.17043081 -0.12218715 -0.09264132  0.0042582
 -0.27516282  0.20307095 -0.20422794 -0.13076708 -0.26852933 -0.23800638
  0.18353826 -0.01626791 -0.07268744  0.02474844 -0.15557939  0.01798963
 -0.05058175  0.04673439]
[-0.3191616   0.04253915 -0.18210162  0.12932171  0.12335728  0.26625553
 -0.06609057 -0.03181377 -0.25041676  0.0175059  -0.2599997  -0.1719938
  0.05726373  0.2182165  -0.03360981 -0.2664556  -0.08733737 -0.06318338
  0.21569814  0.20447974]
[-0.13187881  0.2562801  -0.05248878 -0.16925362 -0.26434407  0.01193292
  0.12428644 -0.04575206  0.010849    0.2137896   0.06700583  0.08908285
 -0.10036638  0.04019331 -0.2504673  -0.10435227 -0.04665354  0.09556147
  0.06060959 -0.328992  ]
[ 0.08416389  0.06687276 -0.16341946  0.02826193  0.02694323 -0.30783674
  0.00983145 -0.21818343 -0.14705989  0.16689031 -0.09240688 -0.00417507
  0.04455108  0.0422617  -0.19637097 -0.07434301  0.03913254  0.24168551
 -0.29464418  0.34731358]
[-0.2574677   0.05587287  0.07858731  0.25451234  0.03462345 -0.20992784
  0.1419073  -0.09529305  0.03727825 -0.1119611  -0.06244155 -0.3003519
 -0.03146662 -0.3044153  -0.05791719  0.25775996  0.23234935  0.15138282
 -0.1981025  -0.00919748]
[ 0.05696186  0.1118935   0.2562375  -0.10422604  0.07415041  0.21632922
 -0.20880249 -0.05009965  0.31112316 -0.07877962  0.05816067  0.16739896
  0.10179802 -0.104674   -0.01891054  0.10049299 -0.0316157  -0.20380323
 -0.04713969  0.30411607]
[ 0.31860086 -0.28805935  0.22884452  0.06801783 -0.18536918  0.01459905
  0.09830194 -0.0752289   0.13785478  0.2930195  -0.22107856 -0.15461965
  0.17764951 -0.03427145  0.03510958 -0.18816108 -0.16330664 -0.18476899
  0.07771771 -0.0842359 ]
[-0.01998735 -0.00798158  0.00460819 -0.00665733  0.00643548 -0.01158903
  0.01789994 -0.00514194 -0.01763086  0.01855559 -0.01392421  0.01844856
  0.02125459 -0.0128606  -0.01339079  0.01489396  0.01807095  0.05895429
 -0.04246008  0.02925053]
layer 5 Activation
tanh
layer 6 Dense
20 1
[-0.331972]
[-0.18012607]
[0.40638942]
[-0.02177149]
[0.03686459]
[-0.02279181]
[0.17674382]
[0.4123395]
[-0.44418994]
[0.17876087]
[-0.15893684]
[0.21778522]
[0.06737287]
[0.00744291]
[-0.12753445]
[0.28639188]
[0.13883072]
[0.01270309]
[9.5805735e-05]
[0.09097473]
[0.01875664]
