layers 7
layer 0 Dense
20 20
[ 0.2594604   0.05240132 -0.07311304 -0.33782318  0.18598135  0.1510196
 -0.2689003  -0.03153977 -0.08079135  0.02310733  0.15582958 -0.0512061
  0.06708801  0.0408771   0.0749562  -0.09002455 -0.19532396  0.28425747
 -0.23953062 -0.33415753]
[-0.08178499 -0.08746582 -0.14955708  0.15802622  0.1995932   0.13128944
  0.0535128  -0.3100015   0.07312806  0.02291755  0.15299036 -0.36568967
 -0.14996687 -0.11804255 -0.01894455 -0.19255249  0.34211805  0.17585103
 -0.18588373  0.40436032]
[-0.15397614  0.46687576  0.4072097   0.15718508 -0.12401404 -0.40572017
 -0.34453973  0.19031967  0.56357634 -0.00522827  0.31548315 -0.1576757
 -0.29836258 -0.58689225 -0.34681645 -0.4656959   0.4655992   0.3965108
  0.29602313 -0.19524685]
[ 0.07420037 -0.25779152 -0.35549396 -0.05351841 -0.19218455  0.2997782
  0.35867327 -0.1860168   0.40388408 -0.05617034 -0.15201545  0.12701334
 -0.20554815  0.03365846  0.17701851  0.27592868  0.01757807 -0.2635023
 -0.22044207  0.17581506]
[ 0.5047742  -0.16945055 -0.5413923  -0.3319311  -0.18871081 -0.01907963
  0.08335692  0.22574699  0.11331072 -0.18543585 -0.13092986 -0.22747342
  0.29689443 -0.24451427  0.2504699  -0.23137379  0.09054208  0.29071328
 -0.31049502 -0.01696662]
[-0.162288    0.02183274 -0.03083811 -0.10690309 -0.22764255  0.34024417
  0.37190297 -0.12072582 -0.19671161 -0.10575336 -0.0078523  -0.33286396
 -0.11193885  0.17340603  0.0125572   0.14141028 -0.33733624 -0.2496025
  0.288912    0.1270333 ]
[ 0.2522599  -0.22272545  0.03507297 -0.5263533  -0.02328621  0.16492815
  0.45533973 -0.19832675 -0.22753695  0.31146163 -0.30380106 -0.3188406
  0.35781848 -0.04397101  0.35275948  0.06396705  0.11730432  0.13142659
 -0.25833818  0.29604983]
[-0.00751707 -0.08208165  0.10313742 -0.36740172  0.37154427 -0.03119386
  0.19504705 -0.25298622  0.01570386  0.2242197  -0.23467566  0.30064666
  0.13873038 -0.01025521 -0.29061547  0.09546348 -0.00234015  0.0802203
 -0.14147334  0.3652032 ]
[-0.00718425 -0.27843082 -0.3693706  -0.61134285 -0.21271567  0.1429152
  0.16765685 -0.19940121  0.00315494  0.23902276 -0.110775   -0.39262846
  0.4317693  -0.17713434  0.34198016  0.07193117 -0.13966306 -0.50311464
 -0.54251856 -0.00978227]
[-0.1362162  -0.0482317   0.2357386   0.01325249  0.21290441  0.03809922
  0.20461781 -0.01008118  0.18259391  0.07004132  0.282112   -0.2096283
  0.161224   -0.14045145  0.21363871  0.2317232   0.07914978  0.13282847
 -0.15109959 -0.07858767]
[ 0.05996989 -0.20985684 -0.23679134 -0.35744423 -0.39919037 -0.24542043
  0.20375277 -0.3512156  -0.18632427  0.22017564  0.30259773 -0.17438373
  0.5055326  -0.19837435 -0.03798213  0.20611069 -0.07863007 -0.29850924
  0.14049155  0.04531723]
[ 0.05483713 -0.10610084  0.29950038  0.12371427 -0.08060769  0.39057738
 -0.10729054  0.01904331 -0.02741668 -0.417542   -0.05903118  0.11225103
  0.39679325 -0.38872796 -0.12866986 -0.28019238 -0.4316465  -0.3070845
 -0.01167348 -0.18573704]
[ 0.26245302  0.12956607 -0.0780459   0.3338017   0.17663707 -0.3594114
 -0.20577334  0.34814808 -0.17004192  0.13136972  0.4218948   0.39554015
  0.11694054  0.15689327  0.00753136 -0.16920444  0.20033744  0.05720007
 -0.25660834 -0.4129943 ]
[-0.01357202  0.14421465  0.27548677  0.21129788  0.53421116 -0.0794862
  0.10913829  0.39051726 -0.38795975  0.2537489   0.22035173  0.2853667
  0.1554228  -0.03127541  0.47923476  0.20635091  0.14614254 -0.15574367
 -0.14488557 -0.02677081]
[ 0.19812636 -0.21492909 -0.21299519 -0.21784772 -0.07468545 -0.28514948
 -0.01166087 -0.39988872  0.05811605  0.14650968 -0.02888423 -0.32776347
 -0.14396499 -0.13410091  0.19338202 -0.11661762 -0.07791923 -0.11134757
 -0.4068587   0.16016708]
[ 0.20899998 -0.14878258 -0.18786526  0.40336162  0.09076917 -0.07501116
 -0.17934078  0.3024653  -0.00980985  0.11171382  0.14111778  0.03914724
 -0.1949911  -0.00691105  0.21494117 -0.08875493 -0.22729416 -0.08937277
  0.28466812  0.0049873 ]
[-0.07641146  0.05920333  0.05522763  0.3513219  -0.3131378  -0.02816921
  0.3420546  -0.00821621 -0.10243487  0.27170178 -0.3519303  -0.34701616
 -0.47192213  0.11973709 -0.2310422   0.45984262  0.20137686 -0.05737116
 -0.27769938 -0.04048584]
[ 0.03412938  0.13063258 -0.10413013 -0.50886464 -0.04552958  0.33063334
 -0.09695811  0.12348861  0.33175904  0.10505471  0.0349868  -0.02506079
  0.11500958 -0.25808153  0.08434067  0.03994672 -0.43538004 -0.1396656
 -0.06404541 -0.30178663]
[-1.2946521e-01 -1.0227574e-01  3.1283897e-01 -1.1969113e-04
  1.2371102e-02  1.3542823e-01 -8.6096972e-02 -3.6487350e-01
  1.1562465e-01 -3.9570510e-02 -2.3533370e-01 -2.1229779e-02
 -1.6306479e-02 -1.6329779e-01  2.1372738e-01 -1.8886679e-01
 -2.0718344e-02 -1.8538524e-01  3.3524540e-01  5.5444706e-02]
[-0.00630049 -0.06480748  0.10358978 -0.19489776  0.12345959 -0.1942658
  0.38105786 -0.11646921  0.27743852 -0.24541995 -0.18711554 -0.15439114
 -0.06492426  0.06527703  0.381072    0.36893272  0.18023156 -0.01881763
  0.2968802   0.21262196]
[ 0.02546405  0.02858057  0.04724223  0.06892704 -0.04818683 -0.03907847
  0.03739209  0.01153607  0.1520428   0.0170349  -0.06927882 -0.16047867
  0.03000317 -0.01342165 -0.03392224  0.01073067  0.10914724  0.03844573
  0.05054928  0.04333403]
layer 1 Activation
tanh
layer 2 Dense
20 40
[ 0.2652175  -0.04505575 -0.11835986 -0.15551816 -0.0957076  -0.27645993
  0.16140603  0.1937584  -0.01520136  0.30304992 -0.09674403  0.05329967
 -0.20174335  0.06222879 -0.02921103  0.26245332  0.30066943 -0.08974533
 -0.17454396  0.26429644  0.1140238  -0.09511869 -0.06753448 -0.15643877
 -0.31284332 -0.05846512 -0.20270213  0.254869    0.2241858   0.09670981
 -0.19046387  0.02428078  0.00896734 -0.199003   -0.2697755  -0.16632143
  0.03562857 -0.25636035  0.18383251  0.10741553]
[-0.0869754   0.25076607  0.04550255 -0.07786772  0.0675073  -0.10855602
  0.10793953  0.2057157   0.13286257  0.09168552 -0.0007624  -0.08823743
  0.28653643  0.0092172  -0.27907562  0.29162943 -0.18875405  0.06406388
 -0.09891643  0.10026638 -0.21878575 -0.14209993 -0.09514339  0.24361995
  0.17397946 -0.17726664  0.15704042  0.08072034  0.02404893 -0.02011158
 -0.05082279 -0.05106758  0.13979755 -0.25440493  0.15140317 -0.18259612
  0.11140902 -0.09494173  0.33945805  0.0812189 ]
[-0.0916296   0.37388954 -0.13169749 -0.10478482  0.11189871  0.13915549
 -0.26346084  0.07699165  0.05541423  0.17869121 -0.16164336  0.07159404
  0.28793535 -0.42248696 -0.04749512  0.05357851 -0.1571246  -0.44482282
  0.23547459 -0.09904864  0.00279591 -0.00259557 -0.11568376  0.13498083
  0.0631825  -0.085075   -0.24207185 -0.40495902 -0.19851235  0.15698335
  0.16473398  0.22715928  0.00961519 -0.07495109  0.10739619 -0.11179516
 -0.2750452   0.15703604  0.08434359 -0.2306945 ]
[-0.11938171 -0.14903653  0.25258172 -0.09640834 -0.17345017  0.18137853
  0.33136308 -0.08299744  0.09667873 -0.22053649 -0.03338967 -0.17900924
  0.3161222  -0.29614913  0.2189092  -0.25874317 -0.04704082 -0.12026142
  0.18647468 -0.07149144 -0.09640472 -0.1293719   0.07630368 -0.27808952
  0.11634829 -0.07365181 -0.28650936 -0.34827313  0.13962886 -0.1292442
 -0.10662382 -0.14415531  0.05061382 -0.13057488  0.1986352   0.25529352
 -0.18719769  0.23294568  0.45480284  0.25808603]
[ 0.20583408  0.1034108   0.29177395 -0.12510422 -0.04566918  0.11613341
 -0.04476091 -0.02641125 -0.23762561  0.14530388 -0.1466371   0.19014981
 -0.11886436  0.14461827  0.22731335 -0.03255263 -0.10239956 -0.05371629
  0.19516578 -0.11951169  0.08916149  0.21295539 -0.2192729   0.04258631
  0.07096244  0.09726287 -0.01397873 -0.40289772 -0.19184318  0.08450066
  0.25606233  0.07727656 -0.12633158 -0.03453289 -0.08656175  0.35494837
  0.12398595 -0.25956097 -0.05656565 -0.02966438]
[-0.05738439 -0.08039102  0.34442937 -0.16080289  0.15811327  0.00559917
 -0.09938888 -0.00576598  0.1904401  -0.00251227  0.26520225 -0.05153569
  0.23971435  0.29186535  0.129784   -0.22641465 -0.1315074  -0.02568126
  0.00826939  0.14568962 -0.17802894  0.07946054 -0.30232972  0.07735278
 -0.23507935  0.12843351  0.22269532  0.2359233  -0.10400899  0.2560221
  0.16267377 -0.22551812 -0.04711173  0.27276546  0.08886425 -0.03713
  0.20369352 -0.30990392  0.0157674  -0.01204134]
[-0.25108448 -0.22261189 -0.03598585 -0.0461244   0.11440237  0.16318746
  0.13685809  0.23957877 -0.16031566 -0.21176963  0.0098821   0.15608892
 -0.12712185 -0.25116128  0.10248061 -0.23647828  0.21356387  0.1862378
 -0.1608686  -0.01702976  0.02858825 -0.09197564 -0.11820646  0.07971927
  0.13224822  0.20610692  0.22665715 -0.29334953 -0.20974652 -0.07686308
 -0.07380728 -0.24045882 -0.02208078  0.08819178  0.1650013   0.17876361
  0.19412102 -0.12524866 -0.1045647  -0.18586399]
[ 0.2206993  -0.21483895 -0.16029713 -0.01193131 -0.1118183  -0.2378029
  0.28052384 -0.08783773 -0.00191829  0.00098318 -0.08070937 -0.00039757
  0.29662728  0.01696935  0.08212817 -0.06793701  0.36427668  0.10935766
  0.0608284  -0.36061195 -0.26990336 -0.00091473  0.29456875 -0.12687172
 -0.17558041  0.28403232  0.28119367 -0.003491   -0.26402134  0.12531763
  0.04842521  0.17523897  0.06228518 -0.19613197  0.03632743  0.10402121
  0.02123858 -0.16136315 -0.02886786  0.05797931]
[ 0.00608489  0.11051666 -0.20290244  0.3249275   0.31728798  0.04586988
 -0.50231755 -0.21086626 -0.19993491 -0.11063285 -0.2687248   0.10861807
 -0.04436669  0.2029694  -0.20824322 -0.06074759  0.2621728   0.20141463
  0.00196814 -0.00399217 -0.0607674  -0.04482652  0.18390347  0.24529609
 -0.12397015  0.13659465  0.12590362 -0.03978848 -0.05089385 -0.02000803
 -0.28797174 -0.07782887  0.18876354 -0.23451552  0.02060287  0.29787412
 -0.23278756  0.07368455  0.03922375 -0.21270001]
[ 0.11363486  0.1188225   0.18477961 -0.10491623  0.08774029 -0.29259524
  0.21550423 -0.08269707 -0.23806219  0.13114822  0.10143092  0.12152071
  0.10046734  0.00418456  0.20630832 -0.2652706  -0.1036192  -0.02489312
  0.31322315  0.04656691 -0.07085226 -0.22189207 -0.21939678  0.1351207
 -0.03323652 -0.08816223 -0.15354544 -0.2480037  -0.23093201  0.14651924
 -0.06510246 -0.2562825  -0.11862013 -0.12268694 -0.09177424 -0.02137094
  0.12399872  0.14943334 -0.01674793  0.02754789]
[ 0.24195385  0.08249044  0.13827886  0.27208123 -0.06494576 -0.09060207
  0.1912068  -0.13657154 -0.04113416  0.07883417 -0.28050676  0.19135392
 -0.1540523  -0.05807249 -0.27610403 -0.06886987  0.09181092 -0.0388462
  0.14776951 -0.16187766 -0.06174494  0.15632284  0.1227307  -0.1665673
 -0.301992   -0.07952029 -0.2973636   0.01670621 -0.15071587 -0.11842178
  0.3248176   0.06392843 -0.05999746  0.13781546  0.3053446   0.09207024
  0.07187576 -0.17005152  0.26929563 -0.01155464]
[-0.15209462 -0.21366732 -0.2344406  -0.2155918   0.03437529  0.13238072
  0.18572302 -0.12812854  0.25326484 -0.19591175 -0.06625357  0.14856695
  0.187804    0.01432909 -0.00930475  0.10226707  0.04554581 -0.20418675
  0.04015821  0.13015804  0.00419484 -0.29338807 -0.10862734 -0.17273918
 -0.18830684 -0.08186521  0.05413655 -0.07026143 -0.26482424  0.05980139
 -0.11344974 -0.25489396  0.06517256  0.11354747  0.12018013 -0.07679363
  0.11476298  0.01900894  0.10715885 -0.08295355]
[-0.01133968 -0.1264511   0.26304153 -0.05482027 -0.15452163  0.07850865
  0.0263585  -0.24857649  0.04922871  0.00090087 -0.06422655 -0.20667648
 -0.04863935  0.4166776   0.12673165 -0.07656068  0.01391466 -0.19129571
 -0.0380487   0.10702906 -0.03920751 -0.11337399 -0.19753611 -0.03487892
  0.01235787  0.17953193 -0.2106793  -0.11352729 -0.23206936 -0.27038568
  0.23649381 -0.04340873 -0.19966643  0.13189618  0.2480471   0.03501362
 -0.22537042 -0.3169755   0.2998989  -0.2129126 ]
[ 0.22435316  0.09570005 -0.22459307 -0.08633266 -0.02165976  0.02318188
 -0.16501921 -0.18800212 -0.20296693  0.19868043 -0.18693091  0.29294974
  0.11985502 -0.01991914 -0.05702643 -0.0162661  -0.19533509 -0.12104787
 -0.11198298 -0.19840309 -0.02866708  0.03488721 -0.15016815 -0.31629735
  0.04930248  0.19123168  0.21603662 -0.2412267  -0.05970303 -0.10797516
  0.25447127  0.07137336  0.12505668  0.11587434  0.20317315  0.02970078
  0.18563347  0.11898822  0.08049176 -0.29931837]
[-0.2579293   0.26812735  0.12870623  0.18250717 -0.14704198 -0.10514481
  0.0218955   0.21836929 -0.13168184 -0.10911636  0.24505305 -0.15928687
 -0.19667867  0.11483433 -0.32026413 -0.31878656  0.14895947  0.12297688
 -0.3085141  -0.10575272  0.20056589  0.27044883  0.2222883  -0.02329301
  0.24061243  0.07436828  0.18849337 -0.40579548 -0.0543202  -0.31787255
 -0.04451752  0.10841534 -0.10218227  0.22739449  0.08877434  0.05620641
 -0.11895532 -0.02420212  0.0090491   0.09544215]
[-0.07722399  0.21316753 -0.14253041 -0.01527139 -0.19780375  0.3743896
 -0.30862823 -0.1778225  -0.04922231 -0.14975931 -0.19769259 -0.07269459
 -0.0697002  -0.07960988  0.19529636 -0.22695008 -0.20092729 -0.13644217
 -0.03427581 -0.03234705 -0.0197252   0.2477163  -0.15584248 -0.17731664
 -0.09788583  0.00883474 -0.09832583  0.04882506 -0.04089875  0.19744423
 -0.00790331  0.1159596   0.10337891 -0.12212046  0.07707804  0.26903352
  0.00812425  0.13982917 -0.05784704  0.13382606]
[-0.28567058 -0.17200373 -0.00726395  0.01928505 -0.21803376  0.03569742
  0.08407903  0.21989015 -0.08588326  0.1407908   0.15383692 -0.20864503
 -0.2987718   0.24354185  0.05277383 -0.02054728 -0.06048389  0.11137018
 -0.13704778 -0.21153268 -0.00122677 -0.16317478 -0.2958813   0.14287177
  0.20673814 -0.23281644  0.23775774 -0.23879133 -0.1174453   0.2776013
  0.31158534 -0.17308182  0.09409283 -0.12929195  0.1498718   0.25354844
  0.10862202 -0.29218248  0.19581442 -0.12881736]
[-0.210786    0.00664419 -0.07540705 -0.19591391 -0.00306614 -0.2150484
 -0.1365507  -0.19197692  0.02615522 -0.29617798  0.12716568  0.16967283
  0.27121025  0.01243797 -0.13662407 -0.0259659   0.061105   -0.16928753
 -0.0031449  -0.05955148 -0.07066847  0.15878451  0.28407955 -0.06968459
  0.21926366 -0.07704304  0.01489216  0.18444078  0.16698691  0.06323983
  0.30852616 -0.19591102  0.00295153  0.19885416  0.21598853 -0.07285743
 -0.06367221  0.02976409  0.03098013  0.24723461]
[-3.05454340e-02 -3.10544044e-01  1.79267988e-01 -1.06328574e-04
 -2.61684448e-01 -2.86598448e-02 -3.22902292e-01  1.57347545e-01
  2.82767087e-01  2.78312713e-01 -9.48349759e-02 -8.13079029e-02
  1.52108714e-01 -1.82139039e-01 -2.00586408e-01 -2.68766791e-01
  6.78261295e-02 -3.50142598e-01  1.08798984e-02 -1.55846223e-01
  2.88131773e-01  1.05337843e-01  2.26999283e-01 -3.05706680e-01
  3.07546884e-01 -1.31497994e-01 -5.08748852e-02  1.90303490e-01
 -2.26900145e-01 -4.47598957e-02  3.32953185e-01 -2.26014629e-01
 -2.72115558e-01 -2.27360696e-01 -1.08303145e-01  1.46566898e-01
 -6.07043989e-02  1.83027565e-01 -2.09252074e-01  1.77033901e-01]
[ 0.15502444  0.24455982  0.0834433   0.17946455  0.05670476  0.23808938
  0.06743355 -0.05292422  0.09744552 -0.22226298 -0.05355951  0.11120611
 -0.10881395 -0.18689342 -0.17132486  0.13773791  0.22522031 -0.03088499
 -0.23288396  0.32196522  0.1085766   0.10776732  0.02931014 -0.26808345
 -0.26128206 -0.14569953 -0.33151615 -0.15834941  0.2467935  -0.06937321
  0.17616342  0.12497277  0.2849689   0.31163508  0.05344998 -0.01064938
  0.23693192  0.08830915  0.14195779  0.00417883]
[ 0.00782868 -0.07021802 -0.00765701  0.02336959 -0.00805936 -0.00906152
 -0.08424652  0.01574033 -0.06614707  0.00428726 -0.0469522   0.00386596
 -0.01136206 -0.01709438  0.00124698  0.00184161  0.01867444 -0.0509172
 -0.00568985  0.03677065  0.03602134 -0.07173898  0.03180596  0.04842794
  0.04573099 -0.03640505  0.00630569 -0.01532094  0.00854016 -0.02783004
  0.02971754 -0.03749225 -0.08204654 -0.02888178 -0.06363195  0.03050636
 -0.00058685  0.00157141 -0.00617848 -0.04231673]
layer 3 Activation
tanh
layer 4 Dense
40 20
[ 0.06340258  0.1610817   0.11365838  0.15111274  0.25839564 -0.20892882
  0.09186649  0.20261623 -0.08771076 -0.24370909 -0.02545067 -0.01856774
  0.1498052  -0.11274405  0.18072328 -0.19760036 -0.118988    0.12858002
  0.07201801 -0.2314529 ]
[ 0.14584254 -0.21688439 -0.00386949  0.27381462  0.01444364 -0.13824013
 -0.11657822 -0.00181104 -0.00487509 -0.14834477 -0.1564644  -0.24649689
 -0.12475796  0.15356359 -0.25544018  0.11707327  0.17232862  0.03947345
 -0.11496036 -0.12065297]
[-0.16460633 -0.14365791 -0.23328894 -0.30742785  0.00399903 -0.24401562
  0.1319157   0.19708066 -0.26571846 -0.03648294  0.03996614 -0.09531
  0.17528024 -0.22850952 -0.0120465  -0.11235689 -0.1510362   0.0158021
  0.20534843  0.278791  ]
[ 0.30718362 -0.01370649  0.23064545 -0.23070392  0.14192373 -0.18249336
  0.13286582 -0.04706962 -0.04720975  0.20315124 -0.03461109 -0.23599029
  0.00210045 -0.09576474  0.24869187 -0.22025122  0.19910128 -0.20933224
 -0.0254086   0.08986191]
[-0.04908516  0.00293863 -0.33862486 -0.1578829  -0.00301202  0.08612486
  0.3207726  -0.18417427  0.16736384  0.0928104   0.08342142 -0.15111752
 -0.01854391 -0.344215    0.09233905 -0.26004398 -0.2565183  -0.30816954
 -0.20917626 -0.16220719]
[-0.29050112 -0.30321822  0.23131527 -0.02651302 -0.07565039  0.09908449
 -0.25040677 -0.11389264 -0.33020565  0.20624536 -0.25689566 -0.28076586
 -0.15258689 -0.24577573  0.08651002 -0.08876677  0.11445847 -0.29259184
  0.07188114  0.18614715]
[-0.0288329   0.27851295 -0.17419735 -0.27415153  0.19850612  0.09073985
 -0.26791322 -0.13964675 -0.01462449  0.23645872  0.04291243 -0.18619157
  0.12080425  0.2515194  -0.06847665  0.3251555  -0.2195408   0.2911834
 -0.13780546  0.09085525]
[-0.14236318  0.02949743 -0.25023282 -0.22146846 -0.00824913 -0.14018434
 -0.18984286 -0.00894269 -0.2640353  -0.15518701  0.18390378  0.00735724
 -0.06071211  0.24496324  0.0037245   0.1248703  -0.04502937  0.05625271
 -0.04956801  0.00932486]
[-0.2510383  -0.10057826  0.2645394   0.33619225  0.13882183  0.0035543
  0.25714564 -0.35751772  0.17840266  0.05778005 -0.17013124 -0.0193791
  0.1472479  -0.2008855  -0.25004995 -0.02834126  0.22173496 -0.23444362
  0.14303541  0.12667418]
[ 0.2558859  -0.23563974  0.34357628  0.2101152   0.01629461 -0.22289872
  0.21183093 -0.2754612  -0.11107021  0.19996767 -0.0177204   0.2947919
  0.16798985  0.08761463 -0.09894482 -0.0146979   0.13761014 -0.08608121
 -0.23745061 -0.06152444]
[ 0.12360533  0.08256917  0.290585    0.29207388 -0.26985666 -0.20211047
  0.10544016  0.30376455 -0.02235857  0.10522157 -0.00074158  0.12891628
 -0.10650519  0.24830458  0.01643281  0.28178054 -0.25944266 -0.21030584
 -0.09154041 -0.2495107 ]
[-0.17090966  0.3187128   0.2823476  -0.1085574   0.0094846   0.00798538
  0.18078037  0.06087244 -0.17751381 -0.33318532 -0.18943234  0.14918278
  0.2274395   0.05608075  0.02922009 -0.15647633  0.19757481  0.05528476
 -0.05253075 -0.07852647]
[-0.16226682  0.08373463 -0.11942911  0.35672873  0.16268161  0.17698179
  0.2671348  -0.17427458 -0.01312326  0.15292811 -0.12873834 -0.03103248
  0.1817667   0.18459764  0.17218287  0.17460193  0.18875155  0.24744752
 -0.15547484 -0.02999593]
[ 0.13921127  0.27672505  0.0901299   0.28780106 -0.08767377  0.2921889
 -0.04948993  0.14122552 -0.11467116  0.02561626  0.07930668 -0.21934022
  0.00506045 -0.27610886  0.18736473  0.27460265 -0.22485156 -0.13383932
 -0.12655193 -0.1856632 ]
[ 0.25848725 -0.09625582  0.17372702 -0.03158522 -0.0911238  -0.2982743
 -0.25839978 -0.19727738  0.05193244 -0.30246982 -0.01312587  0.16530475
 -0.21743567  0.09170153  0.11468665  0.29014644  0.05132449  0.01945538
 -0.06000816 -0.01883477]
[ 0.1576497  -0.35376212  0.12525137 -0.27686986  0.03208991  0.05029262
  0.18861097 -0.2025485  -0.19623214  0.11988131  0.32399476 -0.19175683
  0.05264175 -0.03948858 -0.10986052 -0.09012774 -0.15487488 -0.2088418
  0.08616414  0.19448482]
[ 0.16763975  0.12379669 -0.2540718   0.21770936  0.21065262 -0.20106283
 -0.00525683  0.28270268 -0.15198542 -0.0695006   0.07329558 -0.04185164
  0.23894957  0.1699499   0.02622359  0.34237814 -0.07728216 -0.15618706
 -0.02364958 -0.11462228]
[ 0.29792136 -0.17463955  0.18271261  0.04382762 -0.01190841 -0.03835418
  0.24067397  0.22034913  0.05143134  0.24914269 -0.18552624  0.16783023
  0.2648215   0.28286842  0.11053716 -0.02759884 -0.20252651  0.06296982
  0.17122953 -0.28043512]
[-0.09399516  0.04021184  0.12373049  0.08169662 -0.2602195  -0.0650315
  0.43592808 -0.05924529 -0.3449249   0.12380103  0.17102037  0.04326148
  0.21808676  0.07915507  0.01691747 -0.05476776 -0.03079657 -0.1280872
 -0.30964348  0.04512906]
[ 0.32102665 -0.20421101 -0.29265553  0.12154841 -0.13203192 -0.1590276
  0.20923977  0.11541541  0.06516501  0.01870514 -0.0629077   0.13407329
 -0.07185077 -0.17775875  0.18388274 -0.20953812 -0.07487472 -0.25610977
 -0.25331318 -0.24429378]
[-0.09464125  0.219273   -0.26316473  0.07836203  0.01003276  0.25725284
 -0.01218178 -0.11555754  0.13159543 -0.31581193  0.07727209  0.05824444
 -0.10067704  0.07894076 -0.10575885  0.00698068 -0.06871057  0.15834698
 -0.23067155 -0.20692728]
[-0.03697327  0.11764532  0.08455597 -0.17283523 -0.2331881  -0.25710556
  0.04712467  0.17201352 -0.13749155 -0.1120242  -0.02979508  0.09270866
 -0.15592092 -0.15289764 -0.22085376 -0.17401403 -0.1608748  -0.03288231
  0.23604785 -0.0919544 ]
[ 0.18668924  0.24964769  0.08465715  0.04192772 -0.00343681 -0.27840194
  0.10907674 -0.03500976 -0.20509723 -0.04689555 -0.27883115 -0.1552661
  0.00894109  0.11864704  0.02313036 -0.1008015   0.29436985 -0.19023901
 -0.15599813 -0.12322418]
[ 0.26644573 -0.22081468  0.00199941 -0.07204377  0.2739215  -0.08771569
  0.03783992 -0.07843034  0.0037116   0.27921334  0.09347508  0.22822678
 -0.02671696 -0.10040141  0.15625075 -0.25291502 -0.05813299 -0.29331392
  0.05889906 -0.18573047]
[-0.10427412  0.0578247   0.20664221  0.16891384  0.03862764 -0.03962736
 -0.03139891  0.02061522 -0.20294084 -0.2636928   0.13773641 -0.0778647
  0.24291417  0.22090778  0.16932942 -0.12101915  0.0833986   0.12423682
 -0.02355521 -0.01065576]
[ 0.2641672   0.17873631 -0.04992841 -0.06355284  0.09450109  0.19359331
 -0.03122778  0.2685994   0.10354576 -0.0957951   0.04408767  0.26448482
  0.03363559 -0.15157129  0.06810204  0.04765755 -0.05562288  0.13189743
  0.17004149  0.02734916]
[-0.22735856  0.1742372  -0.1592582   0.1116739  -0.02428716 -0.29648817
 -0.22752178  0.1405415  -0.20604914 -0.19540852  0.25219634 -0.16429722
  0.20747049  0.19544995 -0.03925426 -0.09192758 -0.25494814  0.26816544
 -0.05535125 -0.28542742]
[ 0.01891786  0.11389767  0.08042043  0.25102782 -0.13108602 -0.09667905
  0.06336985 -0.09749219 -0.30718243  0.17714742  0.08826955  0.08266311
  0.11365072 -0.3061318  -0.14176391 -0.23896898 -0.1196871  -0.07434655
  0.04029188 -0.31099153]
[ 0.23299064  0.25872305 -0.02723399 -0.18504971 -0.24532558 -0.12432656
  0.03043448 -0.10856166  0.11146597  0.15767336 -0.3020239   0.13748574
  0.03930554  0.2509499   0.16631079  0.12121242  0.18400635 -0.16920987
 -0.27227545 -0.15592082]
[-0.20330806  0.18699253 -0.17590813 -0.09839677  0.08646404 -0.2407174
  0.17098099 -0.13910198 -0.04863559  0.20943315 -0.31142423 -0.2742155
  0.20093809  0.23329404 -0.17879432  0.14617126  0.05869417 -0.22414865
 -0.01674266  0.03162683]
[ 0.04513547 -0.15412615 -0.3267631   0.19443674 -0.11797453  0.257763
  0.3440959  -0.140886    0.02149467 -0.22266775 -0.2062551   0.06715349
  0.14347304  0.15974966  0.27993572  0.04413939  0.2563719   0.01961036
  0.23036543  0.2080637 ]
[-0.0915475  -0.30922383  0.16587554  0.30866456 -0.33875275 -0.14188917
 -0.2468443   0.30846247  0.15107784  0.23034583 -0.13740769  0.24327034
 -0.12425973 -0.17735715  0.17000686  0.00120532 -0.2079932   0.1639843
  0.04344875  0.08059974]
[-0.20520836 -0.124893    0.12489002  0.24719694 -0.11198027 -0.23578608
  0.12201669  0.07557147  0.06313355  0.32047814 -0.10369613  0.01963101
 -0.09160737  0.05718933 -0.17597717  0.05396409 -0.00624406 -0.2398436
  0.11849088  0.08840662]
[ 0.23048782 -0.36634988  0.15676549 -0.10497589  0.27101326  0.01026627
  0.17104138  0.27473792 -0.16759308 -0.07687884 -0.12401073 -0.1159538
 -0.24006929 -0.0248432   0.2908839  -0.05396852 -0.09522352 -0.02869036
  0.10059749  0.04430477]
[ 0.14586437 -0.10006482  0.07580822  0.10658588  0.01472174 -0.09211066
  0.10736006 -0.30107605 -0.13084084 -0.00210838  0.28075743  0.22100581
  0.16959974  0.23334932  0.11226337  0.2988179   0.27027923 -0.30429935
  0.30683067 -0.01972748]
[-0.2636998  -0.03769726  0.08860976 -0.21152103  0.06902228  0.2847983
  0.1124826   0.15556979 -0.18418875 -0.2966731  -0.03893701  0.14411591
 -0.00399853  0.24635968  0.35337877  0.15948232  0.08032831 -0.14837833
  0.1297913   0.00849069]
[ 0.00765077  0.02278385  0.04677     0.3190373  -0.05085649 -0.23366772
 -0.11688706  0.02874338  0.16456203  0.04611127 -0.33089793  0.04193823
  0.2998548  -0.02707242  0.06920043  0.01436652  0.01486438  0.20297933
  0.16510418 -0.17898935]
[-0.386633    0.16103105  0.11909492  0.13618958  0.23317693 -0.03387138
  0.02134485  0.08491151  0.05903988  0.02315047  0.09346582  0.39132395
 -0.10052187  0.17898269  0.2520116  -0.2674044   0.11678626 -0.18268509
 -0.28135708 -0.09309801]
[-0.3013233  -0.00052682  0.18823612 -0.1951947   0.24905342  0.01960161
 -0.03638368 -0.11057331  0.11191795 -0.02125566 -0.15319438 -0.02478789
  0.01843391  0.21292932  0.05824642  0.3114457   0.03924952  0.1880508
 -0.10328258  0.31139877]
[ 0.19865216  0.08046962  0.23064424  0.16996111 -0.18060549  0.09177767
  0.20171577 -0.03157355  0.1453156   0.28638238 -0.08939096 -0.15881348
  0.0258519   0.15394995  0.11072624  0.3248004   0.30279538 -0.21784028
  0.22390573  0.22549425]
[-0.01342571  0.01185217 -0.01282379 -0.00103578  0.01879761  0.00729731
 -0.01677046 -0.01391542 -0.07922528 -0.00102685  0.01712017 -0.01407661
  0.00189529  0.01174051  0.0812097  -0.02364024 -0.00385509  0.00245156
  0.01558241 -0.01978144]
layer 5 Activation
tanh
layer 6 Dense
20 1
[-0.08766666]
[-0.02843042]
[0.01655529]
[-0.06079571]
[0.00651671]
[-0.03414075]
[0.10934237]
[0.03843917]
[0.03349712]
[0.08686548]
[-0.01513804]
[0.0018932]
[-0.0356041]
[-0.20449378]
[-0.00267613]
[0.1724327]
[0.19279626]
[0.14180213]
[0.02626325]
[-0.17644256]
[-0.0192961]
