layers 7
layer 0 Dense
20 20
[-0.08999038  0.00879046  0.15135567 -0.3723772   0.3202392  -0.1101345
  0.0479047   0.17284684  0.622597   -1.016582   -0.00168109  0.26468465
 -0.16365598  0.24834357  0.3615374  -0.41337135 -0.6405933   0.24926488
 -0.48710674  0.962788  ]
[-0.09915002  0.5386465  -0.4903541  -0.52632874  0.27463362  0.7077239
  0.40769827 -0.20151633  0.61136365  0.8870698   0.35294512  0.01978881
  0.3464367   0.0126777  -0.06289288  0.5643871  -0.51633596 -0.10184934
 -0.3813651  -0.32990873]
[-0.6297757   0.668698   -0.8442604  -0.44443265  0.44695887  0.52391183
  0.5578297  -0.25963363  0.54828507  0.7043776   0.37305468  0.3842361
  0.6167245  -0.06911422  0.4416742   0.00753883 -0.20512922  0.22024605
 -0.15895675 -0.05675223]
[-0.3733579   0.37290826 -0.32629195 -0.10620785 -0.36671093 -0.33381236
  0.29142413  0.06317906  0.2255251  -1.0391616  -0.03357283  0.2179426
 -0.26513028  0.13920934 -0.21140842  0.05912798  0.08391042  0.3161486
 -0.07310797  0.8709467 ]
[-0.2194912  -0.16706191 -0.32199705  0.39809018 -0.15591109 -0.4485346
  0.03386138  0.07176831  0.47155324 -0.06223113  0.14980504 -0.27968383
 -0.19200869  0.18126905  0.30628332 -0.07565134  0.12307264  0.45497218
 -0.6604839   0.2018182 ]
[ 0.22896509 -0.11671462  0.29467168  0.33286476 -0.96225375 -0.9261309
 -0.3885302   0.03651808 -0.58440775 -0.92186576  0.14083128 -0.46834415
 -0.54278916  0.58395886  0.18232806 -0.12697956  0.63750356  0.30869174
  0.25828853  0.84322304]
[ 0.30694658  0.0728493   0.31013945 -0.08776706 -0.8927203  -0.68722135
 -0.02213871  0.49311706 -0.5552296  -0.47226235 -0.27388084 -0.35660934
 -0.6082711   0.79954827 -0.05577452 -0.02900143  0.26362193 -0.23914891
  0.65641356  0.34996098]
[-0.05169338 -0.5035431   0.8619174  -0.0702719  -0.4086698   0.07495082
 -0.09913748 -0.09855885  0.08026803  0.6222205   0.44782686  0.0925037
 -0.30427206  0.19724846  0.00629415 -0.8883825   0.11365666 -0.51903206
  0.41576734 -0.73282605]
[ 1.0730119   0.29552972  0.5888036   0.9937823   0.41951808 -0.12335385
 -0.8098838   0.2862058  -0.270749    0.36286175 -0.32162032 -0.1695899
 -0.3426386  -0.8522661  -0.2697975  -0.2861329   0.5485262   0.49854502
 -0.44519106 -0.2186444 ]
[ 0.15254432 -0.36307558  0.5140166   0.1671803   0.25326103 -0.43461862
  0.11707629 -0.337226    0.8010961   0.04130043 -0.08740311 -0.46419138
 -0.15957652  0.07175321  0.6457049  -0.5936363   0.26208842 -0.23643516
 -0.36339265 -0.0658801 ]
[ 0.04394613  0.26888138  0.29803193  0.5362665  -0.01329717  0.22678293
  0.1406565   0.15879932  0.30733886  0.41660014  0.38380945  0.28397027
 -0.33357838  0.44872722 -0.23714858  1.614521    0.12725149  0.16670646
 -0.09469608 -0.2642457 ]
[-0.83011955  0.02183057 -0.19253671  0.17192389 -0.41881254  0.684579
  0.60304993 -0.50456935  0.06737657 -1.6622825   0.3890155  -0.3224415
  0.5089603   0.43218058  0.02311603  0.78091294 -0.14031638 -0.11775357
 -1.1697667   1.4580042 ]
[-0.5155226  -0.02480974 -0.01679226 -0.5298617  -0.08624467 -0.15872931
  0.12360086 -0.3055636   0.21205133  0.21079877  0.23036376 -0.44755393
  0.22417027 -0.01972118  0.3095426   0.01439733 -0.1972538   0.24159329
 -0.12289635 -0.14940818]
[ 0.73401755  0.17656387 -1.234075   -0.00688117 -0.5515659   0.42485806
 -0.12340476 -0.9854827  -1.5939707  -0.28270042  0.5503906  -0.04169635
 -0.62812966  0.6252533  -1.8351802   0.24392939  0.39738303 -0.3488954
  1.6004492   0.07400706]
[-1.0006176   0.86108994 -0.18237554 -0.86212003 -0.4107332   0.50679547
  0.1113776   0.8564483  -0.04504073  0.11142009 -0.3254507   0.6958427
 -0.29660356 -0.8712137  -0.3474174  -2.076323    0.32131648  0.02444501
  0.96226245  0.2322833 ]
[ 0.31831035  0.03021708  0.00407625 -0.17335258 -1.1651667   0.41992393
 -0.07260586 -0.5502308   0.4173665   1.4042543  -0.3101422  -0.729747
 -0.20073318  0.7337478   0.4649124  -2.8205836  -0.3610015   0.4504917
  0.33696648 -2.0557873 ]
[-0.98367834 -0.31375757 -0.4427954   0.12424068 -0.52747303  0.00287316
  0.804445   -0.24307509  0.8508574  -0.5920929  -0.0888789  -0.1488939
  0.11614439  0.38282737  0.47999424 -0.00970981 -0.7195021  -0.41261
 -0.21925315  0.19375943]
[-0.68134177  0.22142616  0.43902132  0.2829194   0.709734   -0.41674593
 -0.08753397  0.6320203   0.6454944  -0.7851773   0.25095338  0.50813663
  1.2934383  -0.24730866  0.89295304  0.640592   -0.35522974  0.27457088
 -0.15405454  0.44435275]
[ 1.3688682  -0.8430889  -0.58433306  0.84049386  0.5438919  -0.5307821
 -0.17756246 -1.9416218   0.5506996  -1.3485539   0.71935135 -0.6989611
  0.46571404  0.59194523  0.68198764 -0.34015426 -0.25176546 -0.03692564
 -0.2966437  -0.20554447]
[ 0.9735588  -0.28346416  1.1393979  -0.60202515  0.9920352   0.14787
 -0.2958649   1.7150221   0.09912524  0.9247971   0.3927826   0.5126505
 -0.12103044 -1.241514   -0.01884218 -0.6846365   0.30451903 -0.28900743
 -0.12650599 -0.06178465]
[ 0.07692999  0.1291844  -0.35712522 -0.04867436 -0.01153024 -0.03088576
  0.00517299 -0.00284409 -0.22854003 -0.29100546 -0.05132373 -0.04856237
  0.04762482  0.03566473 -0.09756634  0.33500567 -0.12594108  0.00897952
  0.11244853  0.40785623]
layer 1 Activation
tanh
layer 2 Dense
20 40
[-0.21658015  0.6157982   0.8222328   0.07407183  0.28745595 -0.01979979
  0.6480889  -0.12137504  0.21734528  0.1672625  -0.0028528   0.8232176
  0.65506816 -0.13186985  0.15411036 -0.62166315  0.40650186  1.3697618
 -0.37519395  0.3012375  -0.16228099 -0.4034923   0.33409628 -0.12544888
 -0.8809611   0.19947858 -0.5823878   0.464007    0.04561874  0.4335183
 -0.60673016  0.13621946  0.07254374 -0.15212506 -0.64077824  0.0458382
  0.22739518  0.22511742  0.43262047  0.17999053]
[-0.28201082 -0.37660146 -0.19766669  0.14591971 -0.22816128  0.05237287
  0.34753177 -0.21676789  0.09794509 -0.08892603  0.31977072  0.13536584
  0.2246093   0.08251991 -0.20016335 -0.23723766 -0.11941395  0.07048047
 -0.06641451 -0.01264758  0.0253929  -0.01110723 -0.3144867   0.16984367
 -0.19578852 -0.18064295 -0.22831394  0.20815854 -0.25338605  0.04359533
  0.29201147  0.680294    0.02388343  0.05784276  0.2383661  -0.06957558
  0.16383034 -0.39541826 -0.54233277 -0.15746634]
[ 0.27836022 -0.1872085   0.9783403   0.3887666  -0.26846156  0.12578903
 -0.35806286  0.40863907  0.560102   -0.6876399   0.11495429 -0.5171058
 -0.04092506  0.10825415 -0.02775995  0.45426306  0.3503208   0.4768316
  0.0760561  -0.5363926  -0.24063812 -0.0188201   0.32467812  0.04241212
 -0.39101455  0.13819723  0.3139665   0.02572543  0.3643879  -0.4378537
 -0.16960299  0.10601279 -0.06942412  0.40915832  0.13505802  0.08039314
 -0.3946073  -0.09636767 -0.02359672 -0.3311181 ]
[-0.09494945 -0.01358316  0.6429725  -0.32505777  0.4569316   0.0321529
 -0.31832978 -0.27982986 -0.3520935  -0.25076598 -0.2850774   0.81099796
 -0.11065686 -0.16355368 -0.07924841 -0.14450513  0.29198548  0.9078992
 -0.31389585  0.27885064  0.1470401   0.13099352  0.352259    0.28162384
 -0.22268564 -0.14257614  0.5234937   0.06171232 -0.20160803  0.08973713
 -0.5512418  -0.25895956  0.24321426  0.2554352  -0.09881582  0.39350984
  0.30040333  0.60148144 -0.22475338  0.8552201 ]
[-0.02022654  0.3976981   0.19443873  0.30794966  0.05987009 -0.48612007
 -0.37043726  0.25766116 -0.08375518  0.10263928  0.3704584   0.18083462
 -0.28197685 -0.27119136  0.27436268  0.07141796 -0.3452649   0.53969955
  0.38164672  0.03837957 -0.10424025 -0.19861479  0.25259826 -0.0314335
 -0.54456913 -0.08755094  0.5036991   0.02309224 -0.21476199  0.10780218
 -0.1034807  -0.2779777  -0.15743294 -0.06222643 -0.23484834 -0.298623
 -0.12493931 -0.2605724  -0.68677     0.29879323]
[-0.5886524  -0.4289961   0.17565729  0.38380954 -0.32234553  0.29684597
  0.14664829 -0.23324183  0.23528536  0.5839487   0.26497772  0.3181389
  0.22977452  0.03393726 -0.1890627  -0.18145737  0.21468644 -0.5395886
 -0.2686846   0.4192709  -0.4081489   0.23409201 -0.10485039  0.24854822
  0.39466432  0.0222633  -0.34816387  0.28781193  0.05367613 -0.15687941
 -0.24612233  0.12866586 -0.20558539 -0.50688255  0.0411929   0.39715958
  0.2681928  -0.12424699 -0.25646237 -0.07321505]
[-0.32294083 -0.26216888 -0.2322537  -0.12702747  0.11845765  0.1539881
 -0.31802583 -0.08443612  0.1292275  -0.2803529  -0.01729963  0.16626753
 -0.03704312 -0.05154014 -0.1797264   0.18499853  0.0042094  -0.75373083
  0.16311818  0.28905097 -0.29570368  0.3060331  -0.18721452  0.30198535
  0.2637445   0.06547006  0.02303286 -0.20643887  0.11019512 -0.23933993
 -0.16270265 -0.04563534  0.0525631  -0.12889495 -0.06732665  0.15515643
  0.32933557 -0.21141198  0.6481735   0.07553397]
[-0.11615103 -0.5446816  -0.10591562  0.48679882 -0.6669998   0.01030216
  0.0830232  -0.03750705  0.5407865  -0.50658494  0.28577134 -0.00929641
 -0.19598614 -0.14888383 -0.33639193  0.17126945  0.23314013  0.01031681
  0.2599109  -0.46743822 -0.47569686 -0.40194207 -0.50375134  0.29468945
 -0.2855515   0.5678983  -0.21673737 -0.09130263  0.17940526 -0.29805982
  0.04987251  0.6514477  -0.41550344  0.7670848   0.25815943 -0.11494233
  0.07804345 -0.08913359 -0.977706   -0.20127901]
[ 0.7762484   0.32423797 -0.25381517 -0.33766007 -0.26107746 -0.16962661
 -0.53869045  0.16181424 -0.07895609 -0.4587753  -0.63020074 -0.7832299
 -0.6429285  -0.05813666 -0.26442432  0.7104434  -0.40095055 -0.5815864
 -0.10914215 -0.27468073  0.2046626   0.02209728  0.30855122 -0.10263368
 -0.34442142  0.17899285  0.5494121  -0.38424042  0.06554728 -0.21728854
  0.22843795 -0.33795464  0.2575622   0.25555018 -0.09988724  0.18099347
 -0.01446511  0.4006536   0.36746773 -0.3272933 ]
[ 0.02457693 -0.12185779  1.2078754  -0.05348561 -0.5190424  -0.07042395
  0.30619773 -0.01973817  0.4552871  -0.42859852  0.0891799   0.41261795
  0.13606761 -0.23031853  0.23750497 -0.41667932  0.54536253  0.83725625
 -0.3924122  -0.22279641 -0.23838338 -0.67755383 -0.07836217 -0.0083411
  0.44995156  0.50868845 -0.51287776 -0.18637423  0.15068585 -0.46861225
 -0.8570325   0.66578674  0.27083218 -0.23953009  0.16642846 -0.21153612
 -0.42923102 -0.4520695   0.8414747  -0.10057466]
[-0.09226016 -0.09683567  0.1944784   0.14024098 -0.4218685   0.19274095
  0.20452619 -0.06432135 -0.04007478 -0.09533546  0.08820064  0.291107
  0.39840424 -0.01818101  0.13835394  0.05446814  0.00583965  0.0710566
  0.17456986  0.15020628  0.08408643  0.17197336 -0.21293694  0.23126093
 -0.21365155  0.23322482 -0.00865214 -0.00358044  0.23120318 -0.13574083
 -0.18626006 -0.02013747  0.2146649  -0.29079613 -0.13054942  0.1955973
 -0.14053401  0.3276255  -0.32766402  0.09267824]
[-0.23932539 -0.07666235  0.20971587  0.06155995 -0.24379227 -0.13873452
 -0.03716273  0.03870392  0.4248308   0.37777156  0.65740514 -0.20365009
  0.12796952 -0.12630655  0.07126657 -0.2823003   0.12982717 -0.35138118
  0.15944564  0.14199723 -0.2919852   0.30359474 -0.2936274   0.48460075
  0.04925741 -0.26651546 -0.21307392 -0.13910547  0.06937633 -0.0338774
  0.21611094  0.5679512   0.14023057 -0.10881362 -0.26185235  0.00753105
  0.04438696  0.05662253 -0.5921115   0.14493698]
[ 0.7759779   0.21161762 -0.46867743 -0.01710195 -0.33068988  0.06045511
 -0.38099527 -0.21865515  0.2439872   0.12608361 -0.2794604  -0.17861046
 -0.5103966   0.10246416  0.27160677 -0.03648176  0.21858416  0.10843541
  0.10449184  0.07044628 -0.00283082  0.1290027   0.08814721  0.10783239
 -0.39120096  0.44704485  0.5290562  -0.31766564 -0.12053955  0.642011
 -0.07580885 -0.2617954   0.23210005  0.1826129   0.1722933   0.00922238
 -0.52463293  0.117961   -0.12187316  0.3605573 ]
[ 0.31234628  0.49559203 -0.04852062 -0.49836582  0.4654733  -0.43091118
 -0.33102572 -0.40713882 -0.46107832  0.12776501 -0.3582447   0.12248541
  0.12890032  0.45579207 -0.8535435  -0.44340694 -0.20382333 -0.5520407
 -0.06480302  0.9598179  -0.13569415  0.56356585  0.19229719  0.39793646
  0.25434905 -0.15442544 -0.4611953   0.22374609 -0.1547284   0.34749717
  0.3936839  -0.3840481  -0.3083335  -0.9396492  -0.20665747  0.17717811
  0.00197191  0.36007893  0.71625334  0.19487344]
[ 0.46040303  0.31323108 -0.02406777 -0.2347616  -0.09889072 -0.11798222
 -0.8285161   0.12636992 -0.16709763 -0.81498575 -0.80938125 -0.8011525
 -0.68928707  0.08455585  0.30919755  0.3633707  -0.31611627 -0.11230395
 -0.20899235  0.2608189  -0.12179136  0.07888222  0.10363743 -0.31852266
 -0.11419569 -0.13102625  0.6356283  -0.3146578   0.07324419 -0.03728165
  0.27904385 -0.68770486  0.22880238  0.14524941 -0.08918195 -0.31636086
 -0.20598131  0.6199013   0.41888773 -0.22283216]
[-0.16650693  0.3093743  -0.73093563  0.0569775   0.38861865  0.3726157
 -0.10595684 -0.27840078 -0.37536567  0.19241971 -0.03087717 -0.12082004
 -0.30728412 -0.07892017 -0.44341668  0.15643908 -0.7279491   0.10231929
  0.28578657  0.30988586  0.11362572  0.07252387 -0.2911727   0.20711146
 -0.14677057 -0.33988133  0.45061952  0.08971075 -0.35020533  0.37890777
  0.40268177 -0.491551   -0.10261778  0.39641103 -0.19676568 -0.02894997
  0.44130275  0.45719776 -0.7290528   0.5218268 ]
[-0.1509604   0.07446858  0.09132345 -0.35019192  0.37861487  0.21341574
  0.0239172   0.10366675 -0.1444044   0.46971175  0.25193387 -0.04292989
 -0.24899505  0.13639653 -0.19572118  0.05645958 -0.02139238  0.43597725
  0.01709863  0.11452263  0.16930576  0.0555841   0.03125643 -0.2582042
  0.23792888  0.18606351 -0.10741906  0.34689513  0.08017065  0.1831915
  0.01662778  0.00232857  0.0353942   0.500985    0.27614334 -0.24186446
 -0.08908922 -0.49440235 -0.24832216  0.05026742]
[-0.13159187 -0.51476014  0.03701415  0.04084995  0.1079998   0.16525051
 -0.02516388 -0.03483564 -0.26127577 -0.3042766   0.17849037  0.23885988
 -0.06104109 -0.09107721  0.08599799 -0.15378587 -0.25778157  0.11391124
  0.2597063  -0.2728068   0.08130603 -0.07281419  0.19999588 -0.02535647
 -0.39789948  0.16958408 -0.13548261 -0.23735236 -0.05839922 -0.05749949
 -0.09985833  0.20919165 -0.34907207  0.16899407  0.1637284   0.23296916
  0.29198983  0.13232814 -0.08399766  0.2258481 ]
[-0.09350389 -0.09343479 -0.23961051  0.280033   -0.6473286  -0.01079185
  0.56051755  0.00120428  0.63013047  0.723281    0.25725     0.03818633
  0.57405    -0.13526    -0.273706   -0.06209802  0.09728365 -0.26489225
  0.27100164 -0.14026602 -0.02572731 -0.07162227 -0.10099363 -0.14738981
  0.0877732   0.23564139 -0.387981   -0.14928569 -0.01044047 -0.24960043
  0.23785032  0.3334329   0.02303554 -0.09702697 -0.07192233  0.07894469
 -0.13587995 -0.11748058  0.49059382 -0.34465465]
[-0.5055577  -0.1861336  -0.75564706  0.05337086  0.3026247  -0.16142273
  0.04444822 -0.09217639  0.15267324  0.22624816 -0.1163758   0.21593285
 -0.2773624  -0.36820608 -0.36165    -0.05069033 -0.29042557 -0.32441378
  0.05616371 -0.01319209 -0.22634402 -0.13534442 -0.3502605   0.32202137
 -0.36403722 -0.00495391 -0.09187716  0.19059393 -0.08393676  0.0578364
  0.41366678 -0.06842744 -0.24950296  0.5782227   0.16660473  0.25362208
  0.30557325 -0.33102423 -0.85537237  0.09594424]
[-0.37489447 -0.22959743 -0.49257317  0.01791367  0.15972999 -0.18967885
  0.24983856 -0.19996761  0.0132232   0.11419769  0.29320666  0.05895628
 -0.03746203 -0.08432532 -0.28124055 -0.17651826 -0.37467822  0.25286785
  0.04414077  0.23329037  0.10008547  0.22356306 -0.03977356  0.36404416
 -0.21237804 -0.38824153 -0.12658082  0.23144147 -0.22919096  0.22818285
  0.20349544  0.21234831 -0.19684625  0.12507372 -0.11374    -0.04563709
  0.30377412 -0.0763829  -0.154929    0.23683213]
layer 3 Activation
tanh
layer 4 Dense
40 20
[-0.34762225  0.3558913   0.18987855 -0.3185936  -0.01453201 -0.19435538
 -0.2572504  -0.06611647  0.00793409  0.11451913  0.15631257  0.13887908
 -0.02241172 -0.28418297  0.08141657  0.04122957  0.22713885 -0.19293259
  0.16206177 -0.2868753 ]
[-3.7512574e-01  5.6740515e-02 -1.4509566e-01  3.6497107e-01
 -1.7858807e-02 -4.0054876e-02 -1.0724755e-01  2.5113222e-01
  8.3666426e-01  1.0122466e-01 -3.1644183e-01  7.1029112e-02
 -4.8071687e-04 -6.8319231e-02  9.7381927e-02  4.5854890e-01
  1.0941913e-02 -4.6487153e-02 -2.2700900e-01  1.5228036e-02]
[ 0.25304195  0.9779873  -0.64398074 -0.4573002  -0.08169056 -0.26831633
 -0.88530535  0.21875061  0.30782852 -0.08645793 -0.04459913 -0.1353739
 -0.07564021 -0.06032546  0.47222167 -0.40833896  0.06308211  0.19804063
  0.15723087  0.56291914]
[ 0.25361666 -0.17636524 -0.01757293  0.29685    -0.15407546  0.27479172
 -0.00610238  0.09817129 -0.3957816  -0.07445724 -0.10708954 -0.09278733
 -0.08388962 -0.23664035 -0.23945668  0.11504011 -0.07019598  0.24404787
  0.17906776 -0.02733545]
[-0.0080118  -0.35266933 -0.03287762  0.21501672  0.22988963 -0.21123132
  0.39930174 -0.37658635  0.34103182 -0.08508406 -0.35364828  0.3265025
  0.18056533  0.38778445 -0.01769766 -0.09812259  0.25486866 -0.0628472
 -0.2257932  -0.21089676]
[ 0.142338   -0.30305043  0.03277608  0.00835901 -0.03878286  0.03603401
 -0.10668975 -0.36290213  0.50225544 -0.11395808  0.0457335   0.04572975
  0.0901189  -0.43677512  0.34575996  0.17576693  0.06009571  0.09125001
  0.00719674  0.28725365]
[ 0.19886652 -0.08949912 -0.14204434  0.64596254  0.1361985  -0.02057993
  0.04387238  0.37675348 -0.19360307  0.18107857 -0.19180632 -0.32338828
 -0.05632348  0.21154977 -0.2565156  -0.603863    0.03826478 -0.08537787
  0.24500142  0.12109958]
[-0.33397263 -0.08072484 -0.24966589 -0.08415554 -0.01334153  0.2138711
 -0.51689744  0.21339732 -0.34536582 -0.08742356 -0.4690021  -0.24333327
 -0.3032294  -0.08301226  0.04100234  0.32018602 -0.23539059  0.22828281
  0.11196452  0.04789295]
[ 1.2855817e-01 -7.7319972e-02 -3.0972731e-01 -6.2705696e-02
 -1.9863876e-02  5.0142896e-01 -5.3760945e-04  1.0224145e-01
 -1.4678240e-01 -5.9516564e-02  3.5258651e-01 -5.5494559e-01
 -1.5062359e-01 -2.6269367e-01 -2.5761969e-02 -1.9251019e-01
  1.5677790e-01  3.0901602e-01  3.6227316e-01 -2.1614311e-02]
[ 0.09656435 -0.2427883   0.03191478  0.5213949   0.2641515  -0.04049513
  0.03013363  0.44812128 -0.24709979 -0.00444903 -0.38462603 -0.04036501
 -0.00568064 -0.00816479 -0.29918236 -0.4517593   0.22368956  0.2793914
 -0.18890332 -0.30636954]
[ 2.8137824e-01 -1.2851170e-01  2.1881540e-01  2.8591022e-01
  8.2295887e-02  2.5441983e-01  2.7000442e-01 -1.4588937e-01
 -1.2993455e-01 -5.2815914e-02  2.0033610e-01 -1.4696583e-02
 -5.7367530e-02  5.5783082e-02 -5.6884203e-02 -7.1147588e-06
 -1.4352661e-01  9.3061768e-02  1.4642081e-01  1.3876362e-01]
[ 0.46631902  0.11993603 -0.02210004  0.37203467  0.30484343  0.23582383
  0.04470687 -0.00531603  0.29809397  0.2560232  -0.01422654  0.3956441
 -0.25323537 -0.15151332  0.37667143 -0.49219707 -0.23492889 -0.01438103
 -0.23320885  0.4340424 ]
[ 0.25020304  0.5657111   0.11723097  0.50134116  0.14523117  0.21227197
 -0.4058966   0.01318153 -0.08740624  0.01853418  0.00378743  0.1678002
 -0.02137478  0.11380306 -0.31380263 -0.5556803   0.07898676  0.17968044
  0.18415931  0.05233473]
[-0.24992917  0.01247901 -0.39093646  0.26895547  0.23890685 -0.16794139
 -0.47647873  0.43786287  0.2647864   0.08938739  0.18347986  0.14061724
 -0.21334462 -0.25442696  0.15538765 -0.0166417   0.19129962  0.10541497
 -0.09840102 -0.2625673 ]
[ 0.05569518  0.12053104  0.25824824 -0.09195794 -0.08734292  0.14494348
 -0.3812657   0.5342631  -0.06479916  0.2943197  -0.21148518  0.00184979
 -0.14267966  0.0861511  -0.1513744   0.08831494 -0.12744716 -0.19935833
  0.05523631  0.1858257 ]
[-0.4655714  -0.06532387  0.2419002  -0.44788983  0.03907726  0.2891628
 -0.08906447 -0.13802081  0.03107796 -0.07261225 -0.22116481 -0.17071706
  0.03582303 -0.31935507 -0.13975541  0.47650573 -0.14110656  0.20831569
  0.06435102  0.02728426]
[ 0.16795515  0.4465488  -0.25441116 -0.07324892  0.30301332  0.32661074
 -0.5119532   0.03524736 -0.18261185  0.28062108 -0.24345271  0.2692505
  0.15427774 -0.2916121  -0.06014901 -0.37390542  0.281129   -0.13600047
  0.26137283 -0.04303516]
[ 0.29835343  0.15492877  0.02157334  0.12200733 -0.02192941 -0.19378103
 -0.10989667  0.3201585   0.62804747 -0.05272284 -0.26243728 -0.03371874
  0.13387401  0.28633544  0.4619532  -0.33403513 -0.27594817  0.1825983
  0.13691518  0.60323936]
[-0.02144434  0.18467994  0.07624561  0.02043418  0.13206875  0.05618111
  0.47309217 -0.15795568 -0.25853056  0.04796666  0.2544263   0.07238162
  0.0218633  -0.05688564 -0.10996312 -0.00767082  0.11952817 -0.07394423
  0.2581175  -0.25567016]
[-0.02178284 -0.09022874 -0.27958784  0.21832134 -0.10646621 -0.13945793
  0.32277352 -0.3217523   0.6100188   0.07793862  0.22588205  0.21215878
 -0.16510683  0.39531443  0.01649982 -0.35173866 -0.07339008  0.2189897
 -0.24804825 -0.08021761]
[-0.00674526  0.02381321  0.3423793  -0.02211607 -0.00227416 -0.19419768
  0.16611001  0.0305421   0.29210895  0.19332218 -0.0843774   0.12682289
 -0.10827172  0.15761323 -0.03309718 -0.10681492  0.23500888 -0.19281936
 -0.09237363 -0.05453631]
[ 0.2825442  -0.3930943  -0.44020188 -0.3612531   0.01792535 -0.06837577
  0.2857836   0.05094812  0.17232709  0.24208064  0.40142986  0.3691884
  0.01520316  0.12238585 -0.16561443 -0.10199013 -0.08105157 -0.15388441
 -0.31682885 -0.17529908]
[-2.63630156e-03  9.32073817e-02 -2.84511805e-01 -3.05613607e-01
  1.65294688e-02 -3.44280243e-01 -3.11854899e-01  1.57960474e-01
  4.67376977e-01  1.80232018e-01  3.07526231e-01 -1.33630380e-01
  1.13544166e-01  2.05250636e-01 -1.19182743e-01 -4.94583091e-03
 -6.62781149e-02 -2.45332897e-01  7.61641422e-05  3.33842002e-02]
[ 0.36735082 -0.37736878  0.09503319  0.22161497 -0.19564165  0.152833
  0.21704584 -0.37706828 -0.31042188 -0.17460036  0.47259128  0.20469321
  0.14483434 -0.01249816  0.21440583 -0.35868004 -0.27592656 -0.35091338
 -0.01383524 -0.15292351]
[ 0.071242   -0.39510426  0.33540475  0.48146328 -0.24499397  0.49027726
  0.22037098  0.07197708  0.32401362  0.11994186 -0.22661813 -0.57343924
  0.06303604 -0.59037465 -0.35575578 -0.20406683 -0.03172364 -0.32402304
 -0.7109705  -0.45724344]
[-0.06156858  0.5014595   0.09357487  0.1295668   0.02302202  0.07180597
 -0.360344    0.16177547 -0.1529181   0.20823126  0.02177867  0.11454261
 -0.11455558 -0.45437068 -0.03910618 -0.05681001 -0.18363094  0.10968296
  0.12183502  0.06729218]
[-0.6021474  -0.20255557 -0.28558815 -0.5008152   0.22565821 -0.02385033
  0.14813831  0.00093052  0.35903335  0.06770647 -0.01698653 -0.26745635
  0.13114618 -0.50366193 -0.42976072  0.5482608   0.2073764  -0.1175964
 -0.5171365  -0.15243745]
[ 0.04720709 -0.09132937  0.30467543  0.03836163  0.07013649 -0.10588776
  0.51356494 -0.44356155  0.1899154  -0.15715115 -0.30019635  0.12673259
 -0.14594415  0.3726096   0.16290534 -0.37093997  0.03268327  0.04164129
  0.0975078  -0.22180225]
[-0.28686872  0.3967089  -0.3631664  -0.1123451   0.05916119  0.18994
 -0.23003453  0.29555362  0.00197082  0.13386847 -0.07230881 -0.28822705
  0.04630597 -0.05695392  0.3028423  -0.15072976  0.12795426 -0.12198327
  0.21229076  0.01187015]
[ 0.14561063 -0.43104967  0.4089404   0.1295243  -0.17361158 -0.24208431
  0.07306202  0.18403594  0.2718585   0.07498626 -0.20356     0.31069562
  0.28482625  0.3389035  -0.0302271  -0.11101886 -0.31272954  0.25188494
 -0.3754738  -0.27571422]
[ 0.24503064 -0.4131136   0.0139478  -0.04835017 -0.10060924 -0.10084555
  0.16931297 -0.20337927 -0.51695323  0.20931622 -0.183602   -0.04272521
  0.11523592 -0.04032221 -0.27312386  0.11409928 -0.05320237 -0.17108326
 -0.16609432 -0.34627002]
[ 0.4826542   0.19476247 -0.20670374  0.22987902  0.00225975 -0.01340153
 -0.28169125 -0.15970407 -0.717295   -0.30012697  0.26324973 -0.46951786
  0.19317116 -0.07691189  0.14492476 -0.429738    0.06925423  0.0247866
  0.47700486  0.28488964]
[ 0.07769413  0.4570424  -0.11562552 -0.07364091 -0.14942399  0.25815606
 -0.4286007   0.32805005  0.11435728  0.3647038  -0.051269    0.13016413
 -0.22124892 -0.07494967  0.10178564  0.1738301   0.2906365   0.05530453
 -0.3315418  -0.0342892 ]
[-0.2734819  -0.34933484  0.11434658 -0.3831729  -0.07369152 -0.01275645
  0.6933227  -0.02642871  0.04492872 -0.28390813 -0.3045398  -0.13987593
  0.1873179  -0.18321598 -0.0421598   0.16678685 -0.27069068 -0.29570287
  0.20090625  0.3638287 ]
[-1.7320460e-01  1.3556866e-01  1.3650265e-01 -1.2845913e-01
  2.0301096e-01 -1.0160639e-02  1.2892725e-01 -3.2650033e-01
 -3.5393658e-01 -3.9664584e-01 -6.6896848e-02  6.1609661e-03
  2.3853905e-01 -4.1266662e-01 -5.2715544e-02 -7.9889484e-03
  3.0280095e-01 -1.7846547e-01  1.2904010e-04  1.5536658e-01]
[ 0.08726984 -0.32892096 -0.3005723   0.04918054 -0.15354602  0.00395852
 -0.06898021 -0.20871273 -0.07762657 -0.02285218  0.47707736  0.5100057
 -0.22618152 -0.02756748  0.28794608  0.04565275 -0.00535678  0.19695385
 -0.03742423 -0.094047  ]
[-1.4765210e-01 -3.4392345e-01  2.5365949e-01 -2.3019832e-01
 -2.5919443e-01 -9.6333869e-02  6.4790583e-01 -2.3956476e-01
 -8.0437765e-02  1.6214834e-01 -5.7836585e-02  1.8899292e-01
 -3.9536186e-04  1.9253981e-01  2.2341679e-03 -3.2995299e-01
 -1.2665403e-01  4.0109947e-01 -1.0974828e-01  5.5818219e-02]
[ 2.5891256e-01 -3.4431997e-04  8.8150769e-02 -3.2557464e-01
 -3.3603492e-01 -4.1919723e-01 -1.1816186e-01 -3.1903523e-01
  5.7404584e-01  1.7822844e-01  3.0801576e-01  3.2360372e-01
  1.2526836e-01 -1.8311593e-01  3.4568626e-02  3.3731633e-01
 -2.3245785e-01 -3.5105720e-02 -9.8847799e-02  1.9966800e-02]
[-0.08160202  0.39049426 -0.2406057   0.08004495  0.385193   -0.4718667
 -0.94759786  0.37444425  0.0789287   0.16980399  0.25577047  0.46244046
 -0.34835547  0.60155785 -0.09162912 -0.37371072 -0.03709183 -0.14847021
 -0.32487008  0.2157161 ]
[ 0.29081172 -0.4838557   0.22441943  0.15056972 -0.34740412  0.10535005
  0.11911548 -0.25701517  0.5415743  -0.10685802  0.09473518  0.5961754
 -0.1562549  -0.10257369 -0.11342249  0.04551557  0.07156345 -0.3289467
 -0.24092643  0.13619763]
[ 0.17640877 -0.27114967  0.02709117 -0.16958547 -0.03660613 -0.23730175
  0.3771139  -0.1740487  -0.16278177 -0.12230926  0.097008    0.17390573
  0.07067402  0.310499   -0.01022523 -0.12787913 -0.02620907  0.05925194
  0.09947677  0.07364976]
layer 5 Activation
tanh
layer 6 Dense
20 1
[0.04228606]
[0.13016711]
[-0.00012667]
[-0.17496067]
[-0.01696147]
[-0.08148382]
[-0.27986708]
[0.03046807]
[-0.05304753]
[-0.04017755]
[-0.05650973]
[0.14434396]
[0.01851051]
[0.15453085]
[-0.00169313]
[-0.1137667]
[-0.04447969]
[0.02006264]
[0.25336176]
[0.11898179]
[0.42831054]
