layers 7
layer 0 Dense
20 20
[ 0.89445883  0.21324655 -0.6186042  -0.45831487 -0.14202291 -1.4699607
 -0.20642093  0.87294275 -1.111272   -1.2192068   0.24132392 -0.44791296
 -0.3432356   0.04625477  1.0841211  -0.24402602 -0.6275768   0.69789606
 -2.201051   -0.74626404]
[-0.47565377 -0.18259674 -0.01093193 -0.2989516   0.08523423  0.13603394
  0.67789626  0.4092204   0.02443912 -0.10957552 -0.09993213 -0.21115574
  0.08944211 -0.21211362  0.6714918  -0.5718857  -0.45247635  0.33843902
 -0.50849646 -0.19803517]
[-0.47555825 -0.4937822  -0.21060854  0.3329424  -0.3166791   0.36033547
  0.29704884  0.47446838 -0.0217141   0.5822843   0.15731852 -0.01856365
  0.16987285 -0.1650752   0.1431697  -0.11252542 -0.4116332   0.6159068
 -0.7115798  -0.5597731 ]
[ 0.48850518 -0.2686151  -0.23544547  0.08385283 -0.0463357  -0.8117459
  0.39926037  0.3822864  -0.64287496 -0.44702742 -0.23802578 -0.2559836
 -0.02015268  0.04005339  0.63887656 -0.5764024  -1.0109907   0.6380682
 -1.2080312  -0.80908895]
[ 0.5328873   1.244306    0.06348288 -0.8279418   1.123948   -1.4207866
 -0.09962452 -1.1089752  -0.01603256  1.183182   -0.8385664   1.3022436
 -0.72583234 -0.2676336  -0.42064023 -0.5790051   0.32328627  0.12293001
  0.96641594  0.04497387]
[-0.27384824 -0.5444382   0.04436254  0.02325883 -0.27739802  0.4241393
  0.06530882  0.45188788  0.14339708  0.5568633  -0.30950186 -0.3980633
  0.3529337   0.09801083  0.25848448 -0.30091622 -0.05120964  0.43434384
  0.04981739 -0.4525368 ]
[ 0.12996969 -0.11376034 -0.07113984 -0.18876843 -0.2719166   0.18097126
  0.06312341  0.4945674  -0.26548025 -0.000593   -0.325385   -0.29988375
  0.40902162 -0.33363843  0.36884698  0.06241091 -0.45044488  0.39750504
 -0.14393304 -0.07777132]
[-0.2903799   0.22963564  0.8818677   0.23130001 -0.48926347  0.3131515
 -1.2172439  -0.24288148  0.96685034 -1.2298012   0.8440796   0.04959294
  0.19455314  0.32536894 -0.493912    0.991384    1.58422    -0.8711477
  0.5686321   0.9221602 ]
[ 6.5601711e+00  3.9828482e-01 -9.3286741e-01  3.0860174e-01
 -7.5298899e-01 -1.8399038e+00  1.7119362e+00  1.0850111e+00
  2.4022458e+00 -7.2101097e+00  1.4634260e+00  4.0173557e-02
  1.6809038e+00  1.0454823e+00 -3.5336563e-01  1.4544240e-01
  5.6351274e-03  1.2496413e+00  2.5203609e+00  3.4090135e+00]
[ 0.7391833  -1.0342277   0.23151319  1.0449893   0.07723005  0.09268934
  0.03181699 -0.5308931   0.16009286 -0.797501    0.5705623  -0.14617686
  0.18621759 -0.36775893 -0.25491157  0.9683262  -0.18284756  0.831207
 -0.35958305 -2.5008867 ]
[ 0.051811   -0.4003593  -0.43142602 -0.351081   -0.2824981   0.24574552
 -0.02299058 -0.70292836  0.37980822  0.45161617  0.1530895  -0.2963462
 -0.2917619   0.59642076 -0.23010415  0.22865826 -0.33788273 -1.665729
 -0.8662802  -0.58268017]
[ 2.0899377  -0.5090245   0.4757951   0.6846893   1.099545    1.9707272
  0.2484586   0.9973856  -2.0993204  -3.0539474  -0.22099209 -1.3139929
 -1.8981929   0.4232214  -0.25518835 -0.54283625 -0.07416681  1.6934774
 -1.4269931  -0.46875185]
[-0.22021842  1.267606    0.691162   -0.9445767   1.3136642  -1.3668932
 -0.47628853 -1.3216385  -1.0837711   0.17683169  0.13497442  0.41264665
  0.5670082   0.23416126  0.32379797  0.21905728 -0.1420286  -0.62332934
  0.1400444  -0.19743739]
[-1.2971481   2.9064426  -0.48068893 -1.8666768   1.4305828  -1.5146114
  1.7646213  -0.0385131  -0.4747461   0.24450801 -1.8860902   1.5405387
  1.4487994   1.6761819   0.21757334 -1.4782202   0.73115677 -1.6422975
 -0.9006619   1.2983444 ]
[-0.18730623  1.4810421   1.0991343   0.9744778   0.29448068 -0.11610694
 -0.33609     0.97598845  0.04263689 -1.1406417   0.48132297  0.75312877
  0.94061583  1.4103541  -0.86350286  0.7781337   0.31718695  0.70672923
  0.9478529   0.10848483]
[-0.5356983   1.1235154  -0.42602322 -1.8523765   1.0188494  -0.16493931
  0.9004008  -0.5257828   0.15696901  0.6955396  -0.23570067 -0.9047224
  0.59726965 -0.8810579   1.562332   -0.2716131  -0.31467292 -1.7673489
 -1.8591307   1.3611698 ]
[ 1.5944003   1.2893392   0.68683964 -1.2364354   0.48758292 -1.1542959
 -0.6551609  -1.0535482  -0.9940029   1.2251697  -0.57496417  1.041351
 -1.7551128   0.3439252  -0.07542498 -0.06448824  0.25482148  0.11525244
 -0.2750189  -0.9167289 ]
[-0.33931848 -1.9102496   1.176132    1.3363757  -3.2787194   1.4110836
 -2.065523    1.6536433  -0.51407766  2.0670526   1.1913825  -1.9570489
 -2.185355   -0.31508526  0.63761264  0.946653    0.03527302  1.7540618
  0.9874971   3.7921824 ]
[ 0.32664952 -1.1127263  -1.8758363  -0.01287924  0.6339163  -0.8941466
  0.4127908  -0.5062976  -0.109625    0.5484577  -1.1644008  -0.32196808
 -0.4378156  -2.9708598   2.4144692  -1.0018084   0.26336658  2.286591
  1.3855913   0.9210129 ]
[-0.06869749  1.5571396   0.4666013   0.8868619  -3.994272   -3.1813445
 -2.1906242  -0.6274826   1.1296465  -2.0831065   3.3046196   0.83309853
  2.2494004   1.1526386  -1.111066    3.3924239   1.9259254  -1.9186556
  0.392816    0.4095261 ]
[-0.29243737 -0.5796223  -0.487155    0.08577485 -0.01456569  0.14666569
  0.41837427  0.72773594 -0.34071934  0.48074833 -0.16959941 -0.52886
  0.22295259 -0.13448253  0.5380348  -0.43725914 -0.73141354  0.3752206
 -0.6470422  -0.47169662]
layer 1 Activation
tanh
layer 2 Dense
20 40
[ 0.7080478  -0.03583584  0.08182496 -0.3273232   0.6520658   0.32602143
 -0.9749309  -0.65726477 -0.10457428  0.0457107   0.7569358   0.9220442
  0.5158151   0.26451796 -0.15578182 -0.9210438  -0.6647795   0.22122322
 -0.88085127  0.22547406  0.10627982  0.05721069 -0.10531173  0.11267136
  0.06159402 -0.5844189  -0.12853667  0.16931319  0.7011537   1.1790345
 -0.54586226 -1.0190837  -0.16007626  0.06978397 -0.74911445  0.0383123
  0.13953927  0.26005834  0.14357997  0.0123419 ]
[ 0.12937751 -0.7921705  -0.41526714  1.139432    1.1206987   0.42655674
 -1.2105745  -0.46586147  1.9457085   0.42170963  1.1360646  -1.9173872
 -1.6801466  -1.0575534  -0.65842533  0.6088654   0.7796541   0.27202624
  0.17866114  1.2282747  -1.3016042  -0.3769629   0.1907638  -0.20213762
 -0.3098509   0.76980597 -0.17110161 -0.4620338   0.37933055 -0.9173488
 -0.17292449 -0.89721715  0.17705977  0.76988566  0.44939035  0.03681917
  0.10186568  0.12403519 -0.34781677 -0.7639385 ]
[ 0.34305197 -0.27848423  0.22097372 -0.9488956  -0.21903609  0.06488331
 -0.02596651 -0.24167174  0.19868547  0.06136321  0.00823541 -0.4104838
 -0.16821447 -0.02247323 -0.6368917  -0.8236752   0.31524158 -0.6572011
 -0.22179738  0.03421263 -0.2606401  -0.17290395  0.2277966  -0.45049903
  0.3455095  -1.0515221   0.46188682 -0.715685   -0.8680845  -0.5278608
  0.83496624  0.03765225 -1.2336651  -0.05251409 -0.04844128 -0.23448336
 -0.59304076  1.4900359   1.0423456  -0.2374408 ]
[-0.10673504 -0.8249382   0.57191604 -0.22084765 -0.15558465  0.20486654
 -0.01742062  0.13913928 -0.3301477   0.24784552  0.55301577  0.37718585
  0.68924266  0.26794618  0.1697615  -0.54864734  0.32420668  0.01794314
 -0.84135664 -0.2744414   0.75054353  0.12251185 -0.78904426  0.5756333
  0.43018863 -0.51439226 -0.7270171  -0.4273285   0.43234354  0.46573398
 -0.2211075  -0.92574686  0.06997722 -0.6022145  -1.1353164   0.35267192
 -0.4548326  -1.0591033  -0.43809357 -0.04078882]
[-0.05504676  0.7443978  -0.44696063  0.3724053   0.70690054 -0.52941346
 -1.1882659   1.0960289   1.6872761  -0.0669233   0.68980134 -0.14968966
 -0.36237118  0.398061    0.1260005   1.5586097   0.20667663  0.89315486
  0.5284186   0.05892425 -1.0960512   0.10382973 -0.8136123   0.54329956
  0.47538072  1.4317138   0.90462255 -0.16200201 -0.35518986  0.5723
  0.78531384 -0.3925114  -2.163313    0.742282    0.44122887 -0.34548736
  0.3851222  -0.14052477  0.4691899   1.160006  ]
[-0.69475466  0.76859784 -1.5746348   0.16627488 -0.52422976  1.0328231
  0.84430283  0.9413876   0.53596854 -0.04482951 -1.0195578   1.0090866
  0.4358978   0.9363077   0.85777485 -0.2592348  -0.27424848 -0.23277386
 -0.33999506 -0.19004457  0.7253024  -0.2996114  -0.81468445  0.0022558
 -1.2350435   0.50175864  0.4394035   0.42757377 -1.273358   -0.2209165
  0.42748988  1.7716075  -0.1006915  -0.84542626  1.6920303  -0.50679797
  0.10739414 -0.75736123  0.72562826  0.48778838]
[-0.15975444  0.21318941 -0.6516946   0.92055726 -0.14097334 -0.20157601
 -0.48386264  0.24123645 -0.14330621 -0.23235354 -0.19309634 -0.11954122
  0.6929886  -0.5042561   0.39154553  0.8126364  -0.33438188  0.4345672
 -0.10323961  0.33087176  0.580156    0.06919347 -0.29690388  1.0593809
 -0.616726    0.7320635   0.24572106 -0.08761676  0.17248367 -0.17667975
 -0.08264526  0.2130183   0.6678737   0.06007511  1.156412   -0.284234
  1.371563   -0.778195   -0.25725746  0.1505116 ]
[ 0.06039455 -0.59232223 -1.059152    1.2945554   1.0028152   0.47733277
  0.03010476 -0.40943986  0.43875587 -0.32563597  0.31180292 -0.07678374
  0.32888076 -0.78032786  0.60253096  0.7880216   0.6523859   0.41962525
  0.69544387 -0.21135698  0.01621468  0.55677104 -0.04032086  0.44293198
 -1.2228938   0.29781887  0.53290385  0.29129475  0.32742763  0.3628875
 -1.134267   -0.55872166  0.31659612 -0.40973145  0.6538042   0.3773293
  1.0114186   0.2883484  -0.85738486  0.33564743]
[-0.6241445  -0.6026494   1.8644047   0.6389337  -0.50230527 -0.29410407
  0.77434194  0.33056095 -0.2564711   0.57303554 -0.804291    0.9701399
 -0.5856033  -0.08674375 -0.44545156  0.13105834 -1.1820458  -0.05950369
 -0.4449415  -0.07954769  1.4980905  -0.67605555 -0.7635052  -1.5998785
  1.2576774   0.39341497 -2.2751188  -1.323108    0.20052165 -0.11051451
  0.38099375  1.0335494   0.8893543  -0.0868958  -0.58257574 -0.28646734
 -0.18871772 -0.9480077   0.5169881  -1.0689884 ]
[ 2.2437737  -1.4151436  -0.00603946  0.2936541   1.8401964   2.292435
 -0.5330395  -2.3348134   0.5686597   0.22106412  0.83904964 -2.3319445
 -1.3232687  -0.24130768  0.2871575   1.3957956   1.5494621  -0.00555785
  0.88828355 -0.09279677  0.38513142  0.02607835 -2.391003   -0.58135515
 -0.49794364  1.1558135  -0.70486337  0.3916294   1.892999    1.9877936
  0.20995823 -1.2697635  -0.54257107 -0.3618525  -0.16206475  0.5821492
 -0.4425244   0.9702888  -1.1968683   0.17445792]
[-6.10552728e-01 -4.33398843e-01 -4.62538034e-01  4.02531803e-01
  1.97322294e-01  2.08518654e-01 -5.13765156e-01 -3.29044431e-01
  1.38754651e-01  6.17809547e-03  2.21276015e-01  8.75202000e-01
 -5.26542425e-01  8.22160542e-01  8.61288309e-01 -1.91679358e+00
  1.39103085e-01 -4.63406861e-01 -4.17882890e-01  5.64087629e-01
 -9.30510521e-01 -1.92472324e-01  6.21143758e-01 -3.81443828e-01
  1.11502096e-01 -9.99558508e-01 -8.45858753e-01 -9.33930397e-01
 -5.05452976e-04 -4.73353788e-02 -3.71023536e-01 -4.51017559e-01
  2.59997487e-01 -1.02373552e+00 -3.04390430e-01 -8.73423398e-01
  6.36228397e-02  4.99184579e-02  4.28144634e-01  9.67278108e-02]
[ 0.25085908 -0.5174182  -0.24389514  1.031109   -0.21723555 -0.7310508
 -0.15499736  0.87742835 -0.02869384 -0.4582895  -0.4222479  -0.53744286
 -0.47063416 -0.30878752  0.42202547  0.05446479  1.0955677  -0.86076486
  0.37610692 -0.04157154 -1.1677521   0.5854039  -0.36856624  0.32746592
  0.16059732 -0.15830284  0.6442033  -0.6954016   0.05045414 -0.39853615
 -1.1417005   0.9454109   0.43700296 -0.59442514  0.31848517  0.937833
 -0.30870268  0.6337744   0.0243684   0.24144419]
[-1.576912   -0.05687061  0.15558434  1.3645743  -0.42330354 -0.5572157
  1.011559    0.787791    1.5468763  -0.04421554  0.13313001 -0.02505922
 -1.0251116  -1.2992237  -2.0436156  -0.09347499  0.02158814  0.69976795
  0.5228449  -0.17658797 -2.7900383   0.01289062  0.6318775   0.964066
  1.6314508   0.4526949   0.36404225 -1.4233131   0.20944975 -1.0502788
 -1.7264012  -0.23362042  0.72599983  1.7997926  -0.01518383 -0.3501604
  0.62752664 -1.2108077   0.6443943   0.97223103]
[-0.339922   -0.42879587 -0.4516586   1.4602286   0.85812986  0.3565015
 -0.34906036 -0.6249806   1.3274138  -0.07344161 -0.14807796 -0.34397876
 -1.538378   -0.60837305  0.03769135 -0.20285481 -0.81975263 -0.37218496
 -0.61044025  2.399465   -1.7733959  -0.13575593  0.10130272  0.02981869
 -0.82513255 -0.5360858   0.07870633 -0.6729646  -1.0356609  -0.42541328
 -1.151399    0.6757485   0.6290073   1.1234424   0.5907251   0.76847047
 -0.21723232 -0.4305497   0.5920913  -0.13407502]
[ 0.8384414   0.95903134 -0.47914487 -0.5180538   0.7317637   0.17991553
 -0.44559819 -0.09566758 -0.3530839  -0.07529888  0.328567   -0.06240944
  0.37457114  0.08574592  1.1254141   0.88139415  1.689082    0.2950228
  1.7195786  -0.6449637  -0.15396462 -0.11392267  0.02777237  0.72362816
 -0.9458104   0.5294603   0.89919263  1.3675635   0.12391277  0.14488983
  0.738735   -0.25225756  0.15352826  0.06376433  0.16988094  0.7340399
  0.58319527  0.5555061  -0.89940846  0.15151519]
[-0.42741543 -0.33388376 -0.30849066  0.04819475  0.38729304  0.54069597
  0.18639259 -0.5584236   0.2215884   0.01149468  0.02355517  0.07432503
 -0.32720995  0.64706296  0.21899398 -0.7244965   0.6739237  -1.6113951
 -1.0926822   0.5216932  -0.4941502   0.09143411  0.5633145  -0.5019148
  0.5436998  -0.8196753  -0.48731166 -1.3325973  -0.5789903  -0.37851664
 -0.34219578  0.5730754  -0.4794346  -0.52887315 -0.4770249   0.05387618
 -0.50605077  0.4009512   0.26289997  0.06824943]
[ 0.1773227   0.18541943  0.38766786 -0.27611646  0.05637322 -0.38360965
 -0.00721047 -0.10825016 -0.11385836  1.0417407  -0.5437076  -0.4719415
  0.5355602  -0.20042737 -1.0248587  -0.15119028 -0.58543557 -1.0248667
 -0.4221944   0.29675046 -0.60799146 -0.7991456   0.34940645 -0.21097858
  0.11008298  0.6154386  -0.11828542 -0.6330164  -0.23781918 -0.7550286
  0.8095642   0.4918758   0.5702622   0.2484456   0.0748157  -0.51483846
 -0.660155   -0.13693148  0.8396629  -1.5677023 ]
[ 1.8514671  -1.498985   -0.17308533 -0.00408134  1.0257065   1.4855652
 -1.6638607  -1.5571632  -1.1990091  -0.52634156  1.3816429  -1.3663332
  0.6630533  -0.00537747  1.7041965   0.22783716  1.0935168   0.12451362
 -0.24198979 -0.16711693  0.09459186  0.3924325  -1.9597152  -0.46818367
 -0.23957662 -0.30963376 -0.4601471   0.3952693   1.5856274   1.4394593
 -0.24758886 -1.4354987  -0.6451684  -0.99293095 -0.65021515  0.20428014
 -0.03107846  0.30783495 -0.5812442   0.21561088]
[-0.97255856  0.25192854  0.22433384 -0.9270208  -1.1673722  -0.85867476
  1.2863313   1.366578    0.6778961   0.57387936 -1.6821436   1.1537734
  0.12325063 -0.32886076 -0.9511204  -1.2386154  -0.5204687  -0.6002955
  0.21409687 -0.27162832 -0.20491146 -0.81879795  0.8573651   0.20693576
  0.975728    0.23563449  0.4497564   0.04733646 -0.85470927 -1.4358909
  0.8908218   1.5452054   0.06509367 -0.5078017  -0.3409454  -1.0201873
 -0.96971023 -0.81154245  0.10893609 -0.69934034]
[ 0.57580143  0.62510234  0.22370332 -0.02283718 -0.91044116 -1.5762507
  1.7175611   1.0202975  -0.8637901   0.19502097 -1.5278856   0.34866983
  0.696696   -0.26552156  0.2581211  -0.51759124 -0.34049603 -1.2491874
  0.6059015  -1.5398859   0.52694505 -0.14163406  1.8239151  -0.80128473
 -0.3302064  -0.11338915  1.0780597   0.2513609  -1.1380014  -1.757807
  1.3562769   2.1366386   0.43854022  0.19168791  0.3825604  -0.8414321
 -0.4634695  -0.50145894 -0.6592833  -0.43429282]
[-0.10263328 -0.41766986 -1.0004499   0.5638279   1.2042671   0.20176369
 -0.51283365 -0.32862082 -0.20347816 -1.7862868   1.069331   -0.73651546
 -0.2696574  -0.48718512  1.2829896   0.5847358   0.64820826  1.0840665
  0.20172249 -0.24400523  0.05309515  1.7798387  -0.48928842  0.21962643
 -1.4209757   0.13007253  0.5746185  -0.49610308  1.246682    0.33546904
 -0.5683099  -1.1197671   0.34281322 -0.16220273  0.4325151   0.9243689
  1.4829019   0.29231873 -1.0360609   1.5075096 ]
layer 3 Activation
tanh
layer 4 Dense
40 20
[ 0.7004168   1.1970421   1.0006157   0.02002965  0.16421713 -0.09593783
 -0.6738347  -0.7021676   0.5990682  -0.62494874  0.86512613 -0.07102213
 -1.3990104  -0.12465327 -0.755548   -0.09513818  1.1317277   0.6678813
 -1.4372671   0.4648512 ]
[-1.2573074e+00 -2.4543130e-01  1.9617102e-01  2.9648292e-01
 -4.7401094e-01  5.5354607e-01  7.0081331e-02  5.5250204e-01
 -1.6755505e-01 -4.0503129e-01 -2.1584953e-01 -1.9772901e-01
  1.2506315e-01 -2.0594600e-01 -2.2192241e-01  5.6343741e-04
 -1.2112294e-02 -2.8590310e-01  1.3163677e+00  2.7804890e-01]
[ 0.87364477 -0.20921804 -0.2960878   1.081499    1.145787   -1.0068936
 -0.08520351  0.4258695   0.71098816  0.57831955  0.24899592  0.03537691
  0.05473889 -0.4581114   0.5940383  -0.44331235 -0.4446478   0.22709014
  0.1877322   0.45011574]
[-0.9631641  -0.00366762  0.4396344  -1.040027    0.2915301   0.4089388
  0.5559838   0.07453794 -0.7365353  -0.344831   -1.3805591  -0.16851093
  0.2944935   0.32151705  0.17332831  1.1469852   0.875999   -0.46857363
 -0.23909771 -0.44210005]
[-0.7230291   0.561254    1.4938747  -1.1485182  -1.514678    0.6362583
 -0.35114455 -0.85097975 -0.28836548 -0.27601945  0.5147668   0.30072576
 -0.3744059   0.63961357 -1.1463574  -0.22034697  1.5310389  -0.10057013
 -0.86242545 -0.28396577]
[-0.23364453  0.43013456  0.50586206 -0.39886957 -1.1611934   0.5863477
 -0.4144419  -0.4225278   0.06154327 -0.06093208 -0.41904497  0.13895631
 -0.2967531   0.37051493 -1.724001   -0.45332232  1.1041442  -0.3104642
 -0.73450774 -0.3671279 ]
[-0.38643193 -0.39329666 -0.96713096  0.8405961   1.3092772  -0.5116828
  0.7882493   1.045079   -0.5084588   0.3443398   0.38129303  0.63419896
  0.58884037 -0.50122446  0.26324305  0.39926988 -0.6574735   0.01064131
  1.9040924  -0.21687992]
[ 0.803167   -0.55615544 -0.5297939  -0.10915578  0.33038017 -0.50189066
  0.9723491   1.1733401   0.17002381  0.38357532  0.01531717 -0.51375985
  0.69713324 -0.17465018  1.9450375   0.75774336 -1.3004578  -0.07283933
  0.9865969   0.02241284]
[-0.80695945 -0.8551568  -0.3730644   0.6887584   0.11901122 -0.21712086
 -0.27819195 -0.7529583  -0.1602387   0.2790803  -0.33527267 -0.80572253
  0.12187561 -0.47966686 -1.1936147  -0.06243129  0.4012574  -0.2735061
 -0.20827135  0.09813398]
[ 0.2110729  -0.7836873  -1.4132367   0.8169315   0.3964605  -0.24830063
  0.25313282  0.49112108  0.4425084   0.7947378  -0.34636676 -0.8139185
 -0.04053986 -1.0739914   0.4867644  -0.27570662 -0.38509387 -0.32226646
  0.9482581   0.9590763 ]
[-0.65073735 -0.28580105  0.9094347  -0.33641836 -1.4732674   0.1009689
 -1.0986426  -1.060325    0.4111618   0.255642   -0.00878677 -0.05132819
 -0.25783512  0.7553243  -0.8927129  -0.10656659  0.6495446  -0.8644891
 -0.20952348  0.06353927]
[ 0.1850834   0.50826705 -0.01465203 -0.08787063  0.6711591  -0.4870544
  0.98785055  1.8051591  -0.19557008  0.4777738  -0.12082043  0.27537856
  0.25426102 -0.23509514  1.6753653   0.5709993  -1.1219971   0.50832367
  0.43213072 -0.3529658 ]
[ 0.4000323  -0.13159055 -0.36838213 -0.5532087  -0.09573597  0.22884278
  0.23974085  0.21690382  0.03981233 -0.3892661  -0.3536034   0.33543673
  0.03516857  0.00909869  1.1853746   0.02489142 -0.42166275  0.14286824
  0.30097014  0.41685736]
[ 0.18128113  0.02092349  0.18758428 -0.13858214 -0.14334264  0.6658951
 -0.3456524   0.26040593  0.4330871   0.1182334  -0.09531431  0.449448
  0.02456703  0.1893739  -0.28146115 -0.37457025  0.50542027  0.7238508
 -0.20117709 -0.00720512]
[-0.70564604  1.0349008   0.80973667 -0.19029978 -0.3740938  -0.05047935
 -1.0150546  -0.03613174  0.20472232 -0.37991077 -0.89748496  0.7312006
 -0.6005467   0.07442019 -0.23434873 -0.03155645  0.4594927   0.2116899
 -0.10744938 -0.22079092]
[-1.1545446   0.2970843   0.00292555 -0.89243937 -0.26890948  0.19124402
 -0.85053927 -1.1441627   0.09275045 -1.101575    0.63889825 -0.40280846
  0.21034245 -0.02975856 -0.09224656  0.60034025 -1.180913    0.24268788
 -0.10774053 -0.35934922]
[-0.06894611 -0.625332    0.02648742 -1.7804712  -0.2614284   0.2998943
 -0.30234927 -0.9278513   0.18708885 -0.5538122   0.6757176   0.35883126
 -0.12724215  0.72359043 -0.43574476  0.19735746 -0.18444009  0.20227556
  0.43366492 -0.10077855]
[-0.68807507 -0.3294066   1.0576285  -0.9612346  -1.10976     0.5729459
 -0.4101678  -0.48554382  0.09088612 -0.5024024   0.09063233  0.12446444
  0.08383647  0.5425609  -1.0454928   0.46552345 -0.4182017  -0.20806707
  0.41223365  0.04510336]
[-0.27995732  0.2664485   0.9063878  -0.5058234  -0.10007747  0.4956739
 -0.3076261  -0.16198885 -0.12612851  0.00629855  0.82792604 -1.0178275
 -0.08520472  0.27375126 -0.9953074   0.04014817  0.32621884 -0.31556743
  0.35164732  0.558221  ]
[-0.83099973 -0.13886346 -0.45414492  0.23265803  0.10442206  0.05983181
 -0.4915768  -0.8459595  -0.29538432 -0.18871962 -0.43182132 -0.34202257
 -0.32725534 -0.33959576 -0.3794474  -0.3313272  -0.2660686  -0.33187184
 -0.00882779  1.3285447 ]
[ 2.7737251e-01  8.0494082e-01  1.0874159e+00 -5.9803326e-02
 -5.7897371e-01  2.8386915e-01 -4.3780141e-02  4.7094421e-04
  8.2827836e-01 -8.3748259e-02  2.7956924e-01  9.4248265e-01
 -8.3954352e-01 -2.1647863e-01  3.4738499e-01 -2.9297426e-01
 -4.8474962e-01  1.3860865e+00  6.9889754e-02  3.0033393e-02]
[-0.24400894  0.61967087  1.6640105  -0.88499194 -0.15247057  0.41454074
 -0.14324793 -0.55504155 -0.09535635 -0.96396154  0.47682327  0.80230874
  0.01533451  0.975579   -0.4437514   0.14513938  0.47974014  0.1674567
 -0.74833184 -0.8744224 ]
[ 0.16138715 -0.67968327 -0.46526116  0.19172336  0.667294   -0.33333898
  0.48946467  1.6940174  -0.12037791  0.5712978   0.15797271  0.46824908
  0.90546095 -0.40171522  1.1002363   0.04109622 -0.6026609   0.01611837
  0.8368667   0.04470219]
[-0.3875788   0.01948744  1.1664988  -0.808271   -0.77708167  0.12174758
  0.01610816  0.05771751  0.11440829 -0.24198675  0.21024089 -0.16885778
  0.09419508 -0.12017109 -0.46508178  0.2193592   0.05471528 -0.14228679
 -0.2699016   0.08342179]
[ 0.3905545  -0.48293594 -1.8310598   0.47806394  1.4461517  -0.77166677
  0.1642728   0.18884517  0.04910776  0.7678471   0.12087678 -0.36182734
  0.49288687 -0.6067145   0.8789889   0.36316746 -0.8431264   0.09481569
 -0.08853788  0.70110327]
[-0.9382194  -0.11054297  0.15232745 -0.5014449  -0.5152566   0.06749991
  0.42230272  0.11406934 -0.15952864 -0.22232758  0.38373452  0.07177657
  0.4802253  -0.5884641   0.1171713   0.24387595 -0.5670053  -0.23919183
 -0.42161968  0.22595023]
[-0.5180688  -0.48780262 -0.0074504  -0.663367   -0.619284    0.39663005
  0.47048524 -0.33727828  0.27745473  0.05116472  0.04163827  0.2562366
 -0.20742784  0.48193097 -1.1365284   0.04221812  0.4642743  -0.05735057
  0.69635504  0.05391692]
[ 0.74764293  0.3677537  -0.01928448  0.9925395  -0.6803213   0.23990466
 -0.36242616 -0.0145538   0.13918994 -0.2399574   0.37754887  0.40002197
 -0.03462958  0.21276659 -0.39503357 -0.01251279  0.8278004   0.21160895
 -0.27565053  0.5602876 ]
[ 0.3421047   0.06707798  1.3194485  -1.0083017   0.02692093  0.0383548
 -0.5057489  -0.9641074   0.30126736 -0.4843083   0.74196035 -0.06488526
 -0.45306268  0.809658   -1.3399414   0.5521006   1.0086651  -0.17578654
 -0.99229944 -0.3885023 ]
[ 0.31852895  0.8699272   1.2231032  -0.36985025 -0.9074089   0.5724088
 -0.77118325 -1.8990343   0.6378765  -1.1675744  -0.30694053 -0.28040504
 -0.9492363   0.70403343 -1.0165659   0.01170116  1.1511021   0.5494193
 -0.42652994  0.05002124]
[-0.42755365  0.04042016  0.14961994  0.31807205 -0.9903989  -0.43108404
  0.14236502  0.26235095  0.580568    0.5384597   0.7761609   0.69556814
  0.10277    -0.5101907  -0.34558547 -0.17115009 -0.70562196  0.6788366
  0.39146107  0.10026021]
[ 0.9767063  -0.13737908 -1.2498555  -0.13053872  0.37014216  0.01145138
  1.4831898   1.6238209  -0.31321123  0.36419147 -0.16292801 -0.27835822
 -0.098995   -0.21511355  2.2611706   0.46038118 -0.86410975  0.87238896
 -0.12413982 -0.30790576]
[-0.9167852  -0.05747246  0.43857744  0.18216543  0.4258254  -0.5619886
  0.20134394 -0.09976742 -0.99053156 -0.71019953 -0.13252707 -0.06025113
  0.4710788   0.60703266  0.24525382  0.56650686 -0.6812349  -0.4914561
  0.85055226  0.00501581]
[ 0.00392596 -0.05564955 -0.95433843 -0.38230607  0.49470526  0.06583932
  0.10774347 -0.20931226  0.13111874  0.2691607   0.5916137  -0.40032282
  0.3609015  -0.62147415  0.6191763   0.15614097 -0.33029267 -0.1112094
 -0.60302556  0.22984281]
[-0.33460605  0.15644611  0.74910665 -0.38560095 -0.8083396   0.1186868
 -0.0498953   0.32158893  0.15473863 -0.37750348 -0.6577949  -0.41811225
 -0.36165038  0.1382561  -0.84383357  0.35985968  0.5222902  -0.3434018
  0.27513954  0.15292343]
[ 0.6793997   0.5570731   0.9824333  -1.2917451   0.05632629  0.19939569
 -0.45956987 -0.05931848 -0.17426154 -0.1188354   0.6090401   0.15369195
 -0.23046614  0.9651378   0.5661543  -0.12024412  0.84979266  0.4117918
 -1.3671032  -0.4184564 ]
[-0.9022091   0.71987045  0.915049   -1.2496948  -1.414756    0.6536911
  0.05128731 -0.03781307 -0.5744519  -0.22740373  0.0340877   0.23105842
 -0.21064688  0.24528114 -0.31274912  0.60396487 -0.24562456 -0.17913266
  0.12543458 -0.39839256]
[-0.05021246  0.5345702   0.28367054  0.8714467  -0.74775094  0.28190452
 -0.44156972 -0.09021659  0.2537695  -0.17041487  0.10914787  0.05957841
 -0.91353154  0.18679003 -0.11195255 -1.1303707   1.1309216  -0.29771268
 -0.01124127 -0.13821194]
[-0.2664121  -0.24409397 -1.4833634   0.8449433   0.7015447  -0.17900866
 -0.06068839 -0.18118338 -0.1515969   0.64323527 -0.7930906   0.0876013
  0.28067786 -0.284605    0.02364957  0.00466269  0.4366763  -0.5322525
  0.78825283  0.46891227]
[ 0.2186331   0.11312003  0.4909325  -1.1227213  -0.08877104  0.99587005
  0.10066132 -0.524621   -0.6351549  -0.25539565  0.28439063  0.12678657
 -0.0321621   0.965794   -0.77398586  0.30412343  0.37472403  0.313096
 -1.1490345  -0.26856676]
[ 0.07922837  0.58307356  1.132888   -0.95328873 -0.25466174  0.16809636
  0.11206024 -0.5252092  -0.48902532 -0.81772584  0.483566    0.59028625
  0.1602732   0.7675509  -0.57073647  0.00816376  0.31968006  0.18182136
 -0.8899857  -0.7232929 ]
layer 5 Activation
tanh
layer 6 Dense
20 1
[-0.01683785]
[0.08863005]
[0.3730635]
[-0.27554628]
[-0.16367939]
[0.19174382]
[0.18115741]
[1.217034]
[-0.17329235]
[-0.06343205]
[0.08333226]
[0.10021024]
[0.11721402]
[-0.00304895]
[0.6417313]
[0.073611]
[-0.20989174]
[0.13104008]
[0.1357587]
[-0.302826]
[0.84014136]
