layers 7
layer 0 Dense
20 20
[-0.19029453  0.2786021  -0.18476826  0.16371536  0.17705952 -0.23637372
 -0.2758247  -0.08316179  0.10802235  0.28641966 -0.37622395 -0.0426986
 -0.3196225   0.2302117   0.08233377 -0.14564891 -0.05064369 -0.09977701
 -0.23206973 -0.08276956]
[-0.05882163 -0.15259106  0.03287752  0.04461127  0.40761527 -0.65218467
 -0.5594525  -0.43088144  0.33077085  0.3600722  -0.07263938  0.46116328
  0.00839346  0.46713176  0.3241835  -0.13127609  0.193712   -0.13885267
 -0.02279161  0.18047509]
[ 0.32318965  0.10847318  0.04372286 -0.03755279 -0.11142505  0.04366419
 -0.50626385 -0.5172211   0.4135312  -0.07009985 -0.01270459  0.53907216
 -0.18587889  0.06549075  0.32991612  0.00308728 -0.20982638  0.2729437
  0.3917503   0.3531193 ]
[-0.2329861  -0.12253354 -0.14652094  0.29606006  0.15571208 -0.15721944
 -0.11004999  0.11313109  0.262222   -0.18608132 -0.26294106  0.16140257
  0.03220611 -0.368362   -0.07873707  0.07980671 -0.12610261 -0.20292704
 -0.04652659  0.13200174]
[-0.20746006  0.11163087  0.33033565  0.30055997  0.10152896 -0.07803217
  0.19905539 -0.17299087 -0.23369525  0.20810604 -0.07244614  0.01140006
  0.46182317 -0.18067357 -0.25921157  0.18180619 -0.25015715 -0.38707057
 -0.24971409  0.1581675 ]
[-0.31182295  0.56271833  0.45769045 -0.63783574  0.01892185  0.29364258
  0.5612672   0.00316791  0.05805707 -0.03990562  0.25984234 -0.4784998
  0.21258499 -0.06523003  0.3839543   0.16308317 -0.1572955   0.24745326
 -0.11843386 -0.26304108]
[ 0.27989736  0.42075473  0.36635506 -0.33528483 -0.30655167  0.5540724
  0.48191386  0.12282718 -0.5226012   0.00059541  0.26391172  0.16634116
 -0.00599452 -0.05008388  0.2913445  -0.30671573  0.04094131  0.2111513
 -0.05745055 -0.33346108]
[ 0.29772347  0.04452795 -0.2481465   0.2548369   0.16604647 -0.4884069
 -0.19540426 -0.16999881 -0.29149738  0.2769972   0.28873193  0.2678441
  0.25415504  0.30658302 -0.36305436 -0.18627456  0.15830629  0.33816588
  0.32170078  0.34749416]
[-0.31931573 -0.30763912 -0.60246503  0.74532735 -0.1794003  -0.13796152
  0.36405063 -0.43231153  0.530014    0.3683458  -0.07197077 -0.3755082
 -0.41414088  0.30934483  0.42451376 -0.2701066  -0.01329317 -0.26949224
 -0.02744063  0.05551324]
[-0.3021185   0.07202875 -0.66531     0.44813138 -0.15701908  0.06142084
 -0.2563732  -0.18772562 -0.00851817 -0.34974113  0.25317153 -0.20736802
  0.6641152  -0.05468489  0.20955881 -0.690794   -0.5706719  -0.49307576
  0.30463427 -0.5469438 ]
[-0.46011043 -0.72586364  0.33409494 -0.16666378 -0.56049216 -0.43577805
  0.16405803  0.29767326 -0.17828752 -0.00705245  0.67878413  0.5106798
 -0.08357587  0.46908534 -0.5393744   0.5519417   0.07992551 -0.09834695
 -0.45435354 -0.4531486 ]
[ 0.69252086  0.8762449   0.7080565  -0.39355662  0.07863116 -0.78553206
 -0.972788   -0.20323749 -0.7201521  -0.83035505  0.18781912  0.49422616
 -0.7294503   0.12035728 -0.07967118 -0.43408245  0.32513803  0.1509914
  0.08786117 -0.33594775]
[ 0.3777238   0.21213017  0.20714678 -0.17241009  0.302434    0.19908367
 -0.40133595  0.32430705  0.05307027 -0.5360438  -0.264029    0.08600169
  0.01628662  0.15768851  0.15647511  0.22274177  0.03551191  0.03812895
 -0.14360785 -0.17660983]
[-0.05854103 -0.43003735 -0.13302647  0.00613097  0.3161907   0.03005528
  0.03885901 -0.10489389 -0.26798674  0.43202862 -0.24800508  0.54859626
 -0.2559773  -0.16306825  0.31851357 -0.33414307  0.299473   -0.15744393
 -0.07478913  0.14150526]
[ 0.15013285  0.32323134  0.08602113 -0.32568327  0.57960904  0.36996615
 -0.4630292  -0.01746897  0.10805768 -0.02211672  0.12182571 -0.38625595
 -0.23496017 -0.08580828  0.12996472 -0.47623384 -0.4072467   0.47400576
  0.15862511  0.23776191]
[-0.24629006 -0.5621731  -0.69284     0.7608454  -0.07208125  0.42794058
  0.48893312 -0.27656463  0.37687457  0.19567248 -0.32865092  0.10841574
  0.35759217 -0.0215876  -0.33739352 -0.10889732  0.27349976  0.2574886
 -0.5484927  -0.11372696]
[-0.21814856  0.05467165  0.16177027  0.21850537 -0.12019996 -0.05601077
 -0.0113645   0.29973614 -0.16448656  0.05911274  0.3260043   0.14584246
 -0.06314579 -0.4653715  -0.30440032 -0.401072    0.14754324  0.08140046
 -0.382584   -0.3922185 ]
[-0.25843152 -0.23475349  0.12086553  0.535083    0.04400093 -0.05530547
  0.11686061 -0.20587586  0.00419151  0.5312449   0.36443096 -0.16171241
 -0.37293333 -0.56733745  0.28797314  0.27916396  0.5413601  -0.37351444
 -0.01341937  0.23038752]
[ 0.04555689  0.36213282  0.12075558 -0.27583662  0.10614506  0.27711388
 -0.47199526 -0.23915084 -0.28480208  0.06764377 -0.48169976 -0.50328964
 -0.33143863 -0.23440957  0.6629281   0.21535875  0.06647536  0.31027946
 -0.34484088  0.3042923 ]
[ 0.16381985 -0.49013382 -0.38029826  0.05117965  0.30568436  0.40109155
  0.1711159  -0.25083092 -0.0656315   0.18971725 -0.04266998 -0.3400553
 -0.04267826  0.41497678 -0.01725679 -0.08713883  0.15373407  0.53444976
 -0.16048457  0.11123648]
[ 0.01296862  0.16885854 -0.02870562  0.05697626 -0.04552431  0.08572897
  0.04680535 -0.07995562 -0.01991992  0.07604317  0.04746533 -0.19189635
  0.03460578 -0.09090927  0.12388778  0.09686949  0.12586592 -0.01906234
  0.03470418 -0.04906585]
layer 1 Activation
tanh
layer 2 Dense
20 40
[-0.24877143 -0.05486158 -0.16476263  0.01473006 -0.26134694 -0.15164675
 -0.1790061  -0.0084732  -0.06444719 -0.0760944   0.04969915  0.1937368
 -0.14912772 -0.10727124 -0.30481973  0.18816492  0.02738608  0.23524885
  0.10334376  0.2753436   0.2171327  -0.06741138 -0.30105394 -0.1402922
 -0.0778339   0.09611814 -0.27387768 -0.25006828  0.20784084 -0.00999075
  0.18450473 -0.29046583 -0.19502883  0.09394379 -0.04628812  0.05758112
 -0.20190309  0.03377704 -0.13328187  0.2907534 ]
[-0.29733497  0.04953446  0.07414859 -0.2957447   0.06171469 -0.13708995
  0.17814606 -0.38964134  0.11405742  0.0672329  -0.00236919  0.03390173
  0.21076255  0.14888038  0.05426918  0.29950815 -0.2020091   0.07816714
  0.14009814 -0.26790807 -0.25384194  0.48017627 -0.35960847  0.02832444
  0.39855278  0.21244486 -0.3288026  -0.39746678 -0.20866668 -0.3816266
 -0.17375277 -0.17524555 -0.34462488 -0.29834852 -0.0200673  -0.14157249
 -0.26267514  0.20129311 -0.20701858 -0.12787028]
[-0.28505272  0.36805788  0.3184865  -0.30505747 -0.3425249  -0.16700849
  0.0887339  -0.48072058  0.32830152  0.31608057  0.20017943  0.16090132
 -0.05377829  0.2864875   0.29743156 -0.11287522  0.07802647  0.19520852
  0.18345763  0.08808938 -0.07368773 -0.17477305 -0.2935923   0.260915
 -0.15458605  0.10174854 -0.2700918   0.5155366   0.00378217 -0.32657787
 -0.13348417 -0.34101474 -0.15928349 -0.14219803  0.16579035  0.17410102
 -0.16241615 -0.10995378 -0.01521911 -0.20644893]
[-0.04552525  0.02690077 -0.11999068  0.00190569 -0.09607807  0.26508015
 -0.19081737  0.36523765 -0.34162644 -0.1253239  -0.4226433  -0.12546864
  0.3428448  -0.16846253  0.0743582   0.0220335   0.09357258 -0.07375069
 -0.23887484 -0.06036902 -0.21491869 -0.14026093  0.31152612  0.19983678
  0.13909008 -0.34335965  0.35130337 -0.17795183  0.16221888 -0.0769297
 -0.25091556 -0.02461558 -0.30051473  0.13435608 -0.13794215 -0.02642609
 -0.01933774 -0.02058394 -0.06127046 -0.03271654]
[-0.10546706 -0.08996314 -0.0656134  -0.05423897  0.06278557  0.20375334
  0.02669095 -0.21357073 -0.29299465 -0.2615584   0.12086636  0.1041453
 -0.15760127 -0.1380238   0.29564202 -0.08995    -0.08682095  0.31474203
 -0.01735738  0.08521491 -0.20414641 -0.24408166 -0.22415489 -0.19907007
  0.08371545  0.32910806  0.04771231  0.09047551  0.02498316 -0.37444365
  0.13562131 -0.2779466   0.2343872  -0.20991445 -0.24230994  0.09370397
  0.12577498  0.13503352  0.15927283  0.19681115]
[ 0.33035013  0.18631911  0.22037585 -0.15817894 -0.04915415 -0.23126717
 -0.2657935  -0.10718837 -0.15531877 -0.2372427  -0.3816832   0.2867598
  0.08214235 -0.07879469  0.14058363 -0.2538223  -0.01712571  0.03306255
 -0.1364262   0.09497055  0.00136967  0.16811751  0.06840833  0.06555145
 -0.04356456 -0.02256428  0.03326945 -0.25301284  0.28175452  0.27706155
  0.30396837  0.36746505 -0.17834754  0.28486216  0.0689413  -0.43253192
  0.17184249 -0.06431968 -0.4455264  -0.13380717]
[-0.09746178 -0.13624722  0.30704337  0.140504    0.1929931  -0.20826304
 -0.15999873  0.2671848  -0.25735503  0.1654245  -0.14088269  0.15613954
 -0.1144546   0.00180456 -0.15018131  0.08433481 -0.01053182  0.04437317
 -0.28469115 -0.03248056 -0.07175381 -0.13076311  0.38877368 -0.2756713
 -0.11326059 -0.37692678  0.03600707 -0.27019948  0.05875119  0.38625294
  0.35408527  0.6667217  -0.18967511  0.2640051  -0.35904336 -0.3612743
  0.1637403  -0.33313364  0.28346905 -0.06516283]
[ 0.06677713 -0.08052056  0.13230924  0.03809092  0.2114503   0.32527784
 -0.11570437 -0.16230133  0.20227003 -0.04219269 -0.14636414  0.07860174
  0.0791055  -0.02857233  0.12427644 -0.25512326 -0.25544095  0.04040383
  0.02436477  0.06772776  0.0464335   0.26018345  0.11653056 -0.20448335
  0.02709175  0.04826031  0.06567565  0.1969713  -0.10698027 -0.15776977
 -0.03796775  0.17679273  0.2555406  -0.06309025 -0.12999372  0.02817945
 -0.10080266 -0.10413866  0.16333406 -0.19566853]
[ 0.26865032  0.16629562  0.03238821 -0.05502196  0.23369533  0.35610506
  0.23667929  0.44049776 -0.4445873   0.02926341 -0.11554722 -0.02383738
  0.19833535 -0.22083598  0.08467744 -0.1575909  -0.13808894  0.06336425
 -0.20581454 -0.4239562  -0.260662   -0.1345042  -0.19805992 -0.037121
 -0.18334238 -0.29546592  0.10417289 -0.01584873 -0.36926934 -0.06645542
 -0.12889363 -0.18007937  0.16845563 -0.20897037  0.23582993 -0.22473285
  0.19822788 -0.2562214  -0.30230322  0.13004887]
[ 0.09118519 -0.22478712  0.22709997  0.16578344 -0.25022468 -0.25381306
  0.134556    0.0756106  -0.11246938 -0.0245754  -0.04531945  0.00108589
 -0.19592488 -0.14098385  0.10903867  0.26813954 -0.26788792 -0.1881212
  0.22416785 -0.05559058 -0.16374655 -0.41658852  0.3872595  -0.21643227
 -0.79395205  0.27104872  0.18121353 -0.2969249  -0.01946328  0.09859978
 -0.25168508  0.3391817   0.33207437  0.28731796 -0.0097641  -0.22501712
  0.19251482 -0.10617875 -0.21957791  0.00750611]
[ 0.06675518 -0.05277918 -0.146075    0.06837963  0.41928747  0.000781
  0.29338166  0.01225565  0.2517079   0.04346882  0.2687074   0.19694333
  0.24034902  0.0420244   0.16420566 -0.36861342 -0.03953644 -0.2866331
 -0.2053086   0.10285527  0.27664712  0.24859054  0.17044783  0.1528063
  0.09914793 -0.10074934  0.06984235  0.00203558 -0.05537075  0.02815935
 -0.18305969  0.38175488  0.0440897  -0.08727381  0.06093822 -0.21823749
 -0.18300949 -0.20544563  0.2749589  -0.18658234]
[-0.19208546 -0.2580991   0.24817868  0.2292328   0.20125069  0.074885
  0.22140636 -0.15562263  0.32441178 -0.20145164  0.03163689 -0.04064228
  0.07102447 -0.16925433 -0.05092195  0.05091398  0.14711072  0.18198217
  0.30253404  0.12365639  0.05315839  0.06933308  0.1192403  -0.03739038
  0.03236801 -0.18052787  0.16613825  0.4782644   0.10629129 -0.27069342
 -0.01040937  0.22786011 -0.015424    0.12116868  0.06691802 -0.04149285
 -0.00756795 -0.37934017  0.43825242 -0.1602854 ]
[-0.06365198 -0.1638023  -0.07457822  0.13929626  0.37359625  0.00238593
 -0.3037017   0.3989939  -0.02499939  0.08445689  0.10908526  0.41863224
  0.31619602 -0.15712254 -0.05642684 -0.21428777 -0.00322868 -0.28523335
 -0.00475302 -0.08121349 -0.25685492  0.06076829  0.18026337 -0.11941154
 -0.23717833  0.06234896  0.28026354 -0.5896041  -0.09886758 -0.18201448
 -0.11064871  0.52849936  0.3339836  -0.13914318 -0.00383632 -0.373141
 -0.16572855  0.14576977  0.14975746 -0.01375724]
[ 0.4025361   0.20668493  0.39739197 -0.10418011  0.30730966  0.16039366
 -0.08474445  0.33057743 -0.28945434  0.3231603   0.11036126  0.19599932
 -0.14778416 -0.20259564 -0.07430149 -0.16793773 -0.31075203 -0.04356901
 -0.16422908 -0.05193622  0.02050858  0.05681233 -0.13550179  0.00810024
  0.11044648  0.20738512  0.21122056  0.15147938 -0.06053282 -0.17872317
  0.35334614 -0.09300301  0.10899483 -0.27844253 -0.08208168 -0.0249126
  0.18961078 -0.08114114  0.29774097  0.37103662]
[ 0.04337862 -0.0988673  -0.30134836 -0.13171306 -0.4052074   0.04576676
  0.11924724  0.06568903  0.20968613 -0.23479985  0.07077124 -0.21504469
  0.01798529  0.12394436 -0.3150752   0.19540042 -0.07400297 -0.00875826
 -0.2965408   0.21410581 -0.21903685 -0.10963727 -0.18432508 -0.09460209
  0.07149599  0.12953216 -0.07060387 -0.1280046   0.03647074 -0.10094175
  0.24692287 -0.33133212 -0.17596523 -0.16628586 -0.02741005 -0.2436527
  0.24296239 -0.25910375 -0.28485915 -0.2463183 ]
[-0.06058455  0.06195115  0.16134521 -0.05788374 -0.32698843 -0.34522328
 -0.00503852 -0.3075964  -0.09142008  0.03265601  0.04848648  0.34295517
 -0.18803823 -0.2950475   0.00653764 -0.06725752 -0.02598935 -0.14186
  0.2743055   0.5258808   0.17194808  0.05522143 -0.03786424 -0.3034817
 -0.0066626  -0.2735173   0.16832083  0.3104707   0.22118145 -0.07238802
  0.09856901  0.37264958 -0.00729751 -0.01670802 -0.16761895 -0.02333145
  0.06066358  0.1333026   0.17357455  0.13403565]
[-0.0156783   0.01908753 -0.0422943   0.19436161 -0.27196917 -0.18212757
 -0.11492842  0.0160539  -0.1804036  -0.17205489  0.00448429  0.07629637
 -0.09231456 -0.27551094  0.1999484  -0.19186641  0.03525826 -0.08128458
 -0.17739525  0.26216826  0.27759513 -0.21582878 -0.07796925 -0.11104328
 -0.08095451  0.1510862  -0.02804505  0.43158394  0.3566094  -0.09122387
  0.24818984  0.0744922  -0.15174624 -0.13406995  0.0919977   0.05090426
  0.2562093  -0.05670299  0.01533401 -0.20090131]
[ 0.2409994   0.34242174 -0.07895844 -0.07556996 -0.14876047 -0.18437329
  0.11633325  0.0143565   0.01892261 -0.25108793  0.05249821 -0.11211719
  0.06681173 -0.26941207  0.04602065  0.25040865 -0.10433033  0.26509187
  0.0632863  -0.03913782 -0.02319717 -0.25860795  0.02482953  0.22073713
  0.0129742  -0.00843669 -0.13283774 -0.18017732  0.2922126   0.11788987
  0.3646618  -0.03689787 -0.26332396 -0.03373592  0.2985516  -0.00104433
  0.12182612 -0.1986789  -0.15140894  0.04194177]
[-0.22437319 -0.02911988 -0.31864765  0.00457413 -0.01673054 -0.20725119
 -0.20962639 -0.31270865 -0.05709001 -0.045385    0.12947176 -0.15687202
  0.24794695  0.17113848  0.09772011  0.15116997  0.01867652 -0.15474235
 -0.15598841 -0.28963056 -0.06376453 -0.15550765 -0.08347652 -0.18675861
  0.16186784 -0.09715862  0.19900823  0.16439095  0.0915093   0.0962497
 -0.13138095 -0.09320097 -0.1742374   0.06053392 -0.14884654  0.1391298
  0.22177729  0.2325116  -0.0316057  -0.04150009]
[ 0.05563394 -0.23890269 -0.35908148  0.15490972 -0.47066447  0.05975692
 -0.16762112  0.0706688   0.2361947   0.1919252   0.12990639  0.22907296
 -0.32118732  0.08422808  0.29925483  0.02722898  0.25804386  0.20602213
 -0.26844564  0.13777664  0.00504943 -0.3008093   0.20860344 -0.1461659
 -0.5295617  -0.19826354  0.11002068 -0.06219556  0.22889237 -0.05418618
  0.03697879 -0.2709504  -0.3023204  -0.0859178  -0.41469517 -0.16527031
  0.27272964 -0.2834975  -0.24200746 -0.09449583]
[ 0.07026052 -0.10054794  0.03912846 -0.01123756 -0.12123159  0.06720777
 -0.01968711  0.13648772 -0.11762768  0.00403318 -0.06250025 -0.08524077
 -0.02467128 -0.0394845  -0.01074079  0.03360988  0.09243806 -0.04363151
 -0.06093189 -0.04156442 -0.05334567 -0.05206328 -0.0645996  -0.04302992
  0.10528409  0.01540887 -0.01146193  0.04400403 -0.03669427  0.03328346
 -0.16604277  0.0470049   0.03822471  0.07634463  0.04637057 -0.03333685
  0.02351909 -0.0286966  -0.06035683 -0.15257788]
layer 3 Activation
tanh
layer 4 Dense
40 20
[-0.22537053  0.15371865  0.42037997  0.12134911  0.30612108 -0.27753016
 -0.07892537  0.04414793  0.10002243  0.15970959 -0.14257202 -0.09988499
 -0.2547748  -0.09198253 -0.07491434  0.00262488  0.26478148 -0.33530608
 -0.16761911  0.22624867]
[-0.07567585  0.10103715  0.01233757  0.06835444  0.0310452  -0.24386327
 -0.12374102  0.09621056  0.09556888 -0.18008478  0.04933383  0.21060541
  0.10041843 -0.0212745  -0.00133446  0.40501148 -0.15907063  0.01229569
  0.19134597  0.1918337 ]
[ 0.12851179  0.09168573  0.02073432  0.05642237 -0.18339334  0.06370303
  0.04656168 -0.12525493  0.32588252 -0.04432556 -0.19959432 -0.15707797
  0.15156703 -0.13720872  0.13370156 -0.03340177  0.08940116  0.41702712
 -0.34846818 -0.02660027]
[-0.30035236 -0.04632112  0.21244524  0.21465454  0.18958066 -0.17679912
  0.07116077 -0.00375839  0.26828906 -0.08011989 -0.19329864 -0.08631527
  0.10644043 -0.12384953  0.11467586 -0.06425929  0.19157988  0.0294929
 -0.28847992 -0.26266736]
[ 0.00814057 -0.2774704  -0.10583858 -0.02530948  0.0726502  -0.20178166
  0.10215541  0.25177193 -0.22550079  0.23333375 -0.05362742  0.21299098
 -0.07065704  0.27778623 -0.04468301  0.05310113  0.2419385   0.00135174
 -0.17933597 -0.07626308]
[ 0.11156674 -0.16089806 -0.23046127  0.30891037  0.03384162  0.03691426
  0.16553922 -0.04685914 -0.03722743  0.08325829  0.1824759  -0.11805908
  0.07788065  0.07064719  0.32469872  0.09148118 -0.2042282   0.18194357
 -0.24059168  0.22185731]
[ 0.08345417 -0.06507589  0.03359791  0.05203114  0.14562066  0.15837352
 -0.07087699  0.28236192  0.2226615  -0.20158772 -0.12008298 -0.01458996
 -0.03085955 -0.2512431   0.26310408  0.31790304  0.03659481  0.22837587
  0.02896773 -0.22374871]
[-0.33043906  0.03860474  0.1321235  -0.09305777 -0.15765762 -0.07354341
  0.20198247 -0.20453979 -0.22358401  0.18225823 -0.20273726 -0.2683358
 -0.08141743  0.33817768 -0.01843729  0.23757474  0.08047223  0.02212953
 -0.09662122  0.02455528]
[ 0.3186587   0.00679882 -0.12298754 -0.06717134  0.13331297 -0.14774042
 -0.02052789 -0.22728682  0.316283    0.02059923  0.24364561  0.32491767
  0.2251893  -0.14936712  0.02087918  0.10494755  0.18045984 -0.07243124
  0.31434816 -0.05920256]
[ 0.09265543 -0.05381715 -0.13925001 -0.2612855   0.02080869  0.19860707
  0.06768945  0.0020905  -0.17742173  0.21244317 -0.30321497 -0.00908512
  0.14656587 -0.05308569 -0.25479218  0.12584463  0.28593442  0.02766618
  0.23921649 -0.01319719]
[ 0.18024029  0.02798478  0.19009525  0.09767558 -0.16436072  0.01457031
 -0.32049906  0.11198223  0.17283088  0.07244143 -0.22078812  0.312879
 -0.13848859 -0.1769344   0.12333778 -0.10666525 -0.16011359 -0.27419984
  0.14893061  0.01284327]
[-0.3762028   0.12840968 -0.14965174  0.17092296 -0.05468437  0.26359648
 -0.00327737 -0.12710871 -0.20595661 -0.28560206 -0.17102705  0.1503312
 -0.32689294  0.09913003 -0.15843914 -0.05633178 -0.15503882 -0.0836133
 -0.15322961  0.18275778]
[-0.20215587 -0.33330774  0.16997118  0.04138387  0.06959623 -0.07294455
  0.27696458  0.04134358 -0.12722826  0.25817207  0.00201782  0.01640671
 -0.02067778  0.38952017 -0.24549063  0.16662988  0.18799435 -0.16493629
  0.15514548  0.20029843]
[ 0.36490053 -0.04981001 -0.2403447  -0.1871754   0.1428763   0.01131954
  0.14438339 -0.0781754  -0.07223048  0.02796055  0.19355184  0.05639189
 -0.2627595   0.09202376  0.04446642 -0.15664323 -0.11681575  0.03209683
  0.2691567  -0.15919058]
[-0.22011594 -0.18964726 -0.16133058 -0.02001691  0.06121984  0.15230769
 -0.20154457 -0.07387953  0.05318883 -0.09209774  0.19486266  0.2757759
  0.17095825 -0.03957607 -0.18479793 -0.05134215 -0.02550002  0.00873689
 -0.365597   -0.1723191 ]
[ 0.2220901   0.30592299  0.20602721  0.07747461  0.18829876  0.24659505
 -0.05687967  0.03005373 -0.30363896 -0.16545318  0.18983316 -0.06693087
  0.17339242 -0.2178178   0.29648384  0.07968672  0.16526525 -0.28171486
  0.14438008 -0.1000967 ]
[ 0.18317981  0.02921817  0.26232213 -0.24254206 -0.01767059  0.20717116
 -0.06681421  0.05988666 -0.06191079  0.20365593 -0.03145713 -0.14683671
 -0.09418543 -0.09774468 -0.19011232 -0.01348084 -0.24252887  0.21221425
  0.00589511  0.07188252]
[ 0.07825983 -0.3944197   0.02221396 -0.10105701 -0.22449675  0.2297841
  0.21354535 -0.10476258 -0.24375232 -0.14135644  0.15012974  0.20908372
  0.1345621  -0.27369654  0.07446501  0.03493939  0.17997932  0.02881882
 -0.09304201  0.03661624]
[ 0.11885923  0.10640462  0.19765124 -0.25392494  0.02410838  0.10220754
 -0.16847211  0.2164608   0.33980304  0.26911807  0.15724945  0.2540367
 -0.16073231  0.19341934 -0.12455245 -0.06489699 -0.01362747  0.08052199
 -0.10339411 -0.00647756]
[-0.00724932  0.2763846  -0.2128515   0.01173932  0.00402368  0.35267824
 -0.23373263  0.1861295   0.3444257  -0.15017521 -0.13223113  0.14286695
 -0.045066   -0.16052404  0.05641397  0.23567009  0.25285894 -0.18108672
 -0.3095037   0.0216897 ]
[-0.11280782 -0.01056802 -0.07770937 -0.15245259  0.12847772 -0.04708114
 -0.14222375 -0.11385971  0.30405313  0.06414721 -0.30903408  0.2721469
 -0.08817291  0.05859198  0.13893016  0.00033652 -0.1498532  -0.00322924
 -0.16880536 -0.04197217]
[ 0.18099289 -0.011417    0.11882395 -0.13382693  0.2648843   0.02432878
 -0.01626866 -0.09166716 -0.11747263  0.39187044  0.20814064  0.18454248
  0.15056543  0.2534107  -0.32838383 -0.21845035 -0.10533839 -0.15814146
 -0.1465736  -0.06087118]
[-0.22307977  0.27556577  0.01340618 -0.00664104  0.43685699  0.0099661
  0.03645482  0.02308282 -0.15257628 -0.38334554 -0.45525512  0.16001904
  0.17868742  0.20425531 -0.09446739  0.12503581  0.17173506 -0.08435784
  0.05693173  0.00686075]
[ 0.23255444 -0.12696083 -0.3214877   0.05023102 -0.23317695 -0.17427279
  0.23823111 -0.15847418 -0.11155999  0.15239161 -0.14926521  0.2184677
 -0.15053906  0.15393138 -0.04965053 -0.01500315  0.14270087  0.19802316
  0.21357363  0.3501448 ]
[ 0.26147494 -0.20306757  0.07383484  0.09504209 -0.21689858  0.24446073
  0.20148897 -0.12536107  0.3005557   0.26676282  0.2532913  -0.12853117
  0.0615322   0.22902912  0.04214571  0.20068265 -0.01211465 -0.16774608
  0.43870565  0.05413331]
[ 0.26039916 -0.04598298  0.25128314 -0.20114547  0.13893169 -0.14493957
  0.2441052  -0.10116256 -0.07961603 -0.21877198  0.28938055  0.19128935
  0.03228944 -0.2358289   0.12707749 -0.12508443  0.23955697 -0.35943595
 -0.20531653 -0.03469094]
[-0.0466479   0.15216437 -0.09132389 -0.30355728 -0.10361061 -0.09724075
  0.10394029 -0.17172542  0.00931358 -0.04070425 -0.27295944 -0.0931551
 -0.0605443   0.15743534  0.20076546 -0.19656509 -0.13317867  0.12741925
  0.0833917  -0.21310058]
[ 0.03860883 -0.11068154 -0.20225155 -0.1189422  -0.10921697  0.40638933
  0.20391841 -0.20203432  0.20426777  0.09039405  0.02004114  0.03780196
 -0.16351445 -0.38957858 -0.21321382  0.00626814  0.11019687  0.06345305
 -0.25828403  0.03405553]
[ 5.71745262e-02  3.66496235e-01  4.26417477e-02 -2.25200891e-01
 -1.19253889e-01 -1.52796861e-02 -2.61049151e-01  1.63414776e-01
 -2.96585495e-06  4.67711966e-03 -1.76405668e-01  1.09349884e-01
  6.86100572e-02 -1.98030353e-01 -1.17267616e-01  1.71188027e-01
 -1.80955261e-01 -2.46114686e-01 -2.52570778e-01 -4.95849624e-02]
[ 0.03288819  0.373802    0.05288325  0.11177313 -0.00107377 -0.14192197
 -0.2453585  -0.2017576   0.1050525   0.06610738 -0.13193497  0.04630414
  0.02665482  0.20694281 -0.30403915 -0.11088642  0.21509215 -0.29552388
 -0.27850378 -0.11806947]
[-0.22796768  0.19960383 -0.18249604  0.17110096  0.12404852  0.21859501
 -0.30884233 -0.03150505 -0.12051781 -0.17665234  0.10450401  0.21780856
  0.01357103  0.10366599 -0.18796636 -0.02162389 -0.02218137 -0.07431701
  0.06534143 -0.08484671]
[-0.41083434  0.24723846  0.02375969 -0.07882772 -0.07978524 -0.2212144
 -0.27511194  0.05181149  0.07998713  0.02720142 -0.0958366  -0.09331706
  0.2665804   0.18698433  0.17374778 -0.15513182 -0.19700985 -0.17012554
 -0.16434751 -0.17864141]
[ 0.22059616  0.00297348 -0.10702573  0.25955814  0.15075985 -0.01086602
 -0.11802145 -0.08614831  0.22344922 -0.02160858 -0.17171295 -0.23851745
 -0.02360555  0.20956865 -0.02617638 -0.39707938 -0.08466222  0.21598482
  0.3046644   0.11846218]
[-0.01615277  0.17482151 -0.0964733  -0.2313432  -0.23302878 -0.0394671
 -0.18752895  0.15971854  0.1885468   0.15058185 -0.20008942 -0.03107155
 -0.21932527  0.06143429  0.03748613  0.31418356  0.01548427 -0.02741889
 -0.06168494 -0.03098257]
[ 0.2796897  -0.04801251  0.11593612 -0.04115118 -0.0388069   0.28621313
  0.17712764 -0.29413036  0.06174279  0.16578406 -0.05320607 -0.17481683
  0.11178143 -0.02638573  0.15015236 -0.02939594  0.10899536 -0.0841061
 -0.1346707   0.32168207]
[ 0.32297185 -0.2691881   0.1991774   0.03153195 -0.15330645  0.22497556
  0.13160501  0.12523982  0.2294814   0.18272199 -0.04401567  0.00889379
  0.00950132 -0.20975336  0.02526241  0.00342529  0.24116288 -0.2119595
  0.07630807 -0.346816  ]
[ 0.17380641  0.02467661 -0.09787095  0.06545787  0.20726861  0.34616545
 -0.09437653 -0.01113901 -0.24464893 -0.20698625  0.06970145 -0.22455165
 -0.03252016  0.08802011  0.16840999  0.00306539  0.2136629  -0.07048753
 -0.38841042 -0.11708316]
[-0.08036323  0.09412133 -0.16029502  0.1407743  -0.24495177 -0.3448956
  0.20307712  0.11559226 -0.32655928  0.17612132  0.32157144  0.13713984
  0.10161483  0.27537802  0.2265187  -0.04852089  0.07771399  0.06000239
 -0.00223885 -0.06192726]
[ 0.09358536 -0.17422462  0.2909393   0.22366086  0.08964755  0.15857813
 -0.13605139  0.04848621  0.38567612  0.05125638 -0.37731883  0.25578654
  0.02863717  0.11632427 -0.05489523 -0.09398124 -0.16039237  0.25335622
  0.09459986 -0.15650968]
[ 0.06509729  0.15778163 -0.15944539 -0.09549593 -0.27277485  0.06214866
 -0.1540502  -0.10643976 -0.21363123 -0.270739   -0.22473872  0.32497752
  0.33568218  0.07958186  0.1971185  -0.35081318 -0.20466284 -0.23322023
  0.02278547  0.00819852]
[ 0.08105896 -0.10439471  0.04122188  0.04719274  0.03169071  0.00631966
 -0.01095498  0.01885111  0.01839616  0.00960288  0.01923898 -0.10192858
  0.01021689 -0.00028428  0.0704024  -0.04511405 -0.00027551  0.03524653
 -0.03984895 -0.00121088]
layer 5 Activation
tanh
layer 6 Dense
20 1
[-0.0626392]
[0.13210148]
[0.00793068]
[-0.0152504]
[-0.00837263]
[0.05671865]
[0.198043]
[-0.00407669]
[0.14813104]
[0.19717239]
[0.1493771]
[0.18836692]
[0.01618379]
[-0.16497576]
[-0.00689796]
[-0.00856405]
[-0.00942891]
[0.07770496]
[0.06306805]
[-0.00343152]
[-0.00884065]
