layers 7
layer 0 Dense
20 20
[ 0.21618289 -0.29274946  0.34324     0.02062863 -0.23965342  0.18142614
 -0.07616208  0.16823277  0.03689253  0.33667445  0.03050415  0.1541316
 -0.02532351 -0.00405905 -0.05222049  0.2942748  -0.07554264 -0.3669734
  0.12215226  0.43894854]
[-0.27513656 -0.48383275  0.18874952  0.08671245 -0.20002224 -0.19664542
  0.26247537 -0.40304077 -0.39255548  0.48322716  0.20874293  0.65548927
 -0.40798745 -0.02267514 -0.1371933  -0.42606434 -0.11529041  0.01837876
  0.20672932  0.47192067]
[ 0.09191501 -0.39009446  0.16736832  0.39105007  0.24751818  0.19728325
  0.22728619 -0.22540656  0.05666472  0.53401715  0.29065534  0.44783095
 -0.31007397 -0.31425196 -0.13138145 -0.05321907  0.45010504 -0.31587327
  0.38363272 -0.150109  ]
[ 0.16998167  0.26122874  0.24041082  0.03596096  0.19808367  0.19387676
 -0.05680183 -0.4558047  -0.02016571 -0.04207325 -0.3839744  -0.16307506
 -0.01238187  0.06991904 -0.2572508   0.22720893  0.17401722  0.2531863
 -0.04714126 -0.3045991 ]
[ 0.08515122 -0.10655237 -0.06205963  0.2604546   0.24841283  0.3962162
 -0.0220827  -0.17503637  0.109823    0.2594998   0.10467894 -0.14874557
 -0.49507645 -0.11571165  0.2620703   0.22995466  0.2551511  -0.11073774
  0.19732201  0.35553256]
[ 0.40162373 -0.32553872  0.3341728  -0.21283858  0.11876449  0.14223878
 -0.17873599  0.15766403  0.13759378 -0.01704342 -0.33039552 -0.7151375
 -0.20105454  0.35846356  0.28473672  0.50648767  0.25125954 -0.34303066
 -0.3266786   0.00372626]
[-4.3248679e-03  2.3986813e-02 -2.0783970e-01 -1.7536096e-01
  1.8416138e-01 -8.9624517e-02  7.0418574e-02  3.0234811e-01
  4.9079046e-02 -4.3966833e-01  1.3273987e-01 -6.7253983e-01
  2.6689729e-01  4.9726453e-01 -3.1427398e-01  2.3683310e-01
 -1.9533487e-01  4.1218749e-01 -3.5822944e-04 -2.4494229e-01]
[ 0.25603786  0.3027356   0.2218717   0.24840644  0.06816402  0.19496518
  0.17767523 -0.01419193 -0.28825507 -0.2805261   0.12279657 -0.10661962
  0.22048903  0.2318084   0.13663651  0.0038542  -0.22709881  0.28304788
 -0.02893724 -0.2566545 ]
[ 0.14327356  0.23670207  0.13793392  0.15226638  0.2593097  -0.22514121
  0.21490616 -0.3918824  -0.11591682  0.4069284  -0.0414775   0.04709164
  0.22636764  0.18929023  0.14845124 -0.23867963 -0.33482626  0.1357737
  0.10723377 -0.13616918]
[ 0.61954653  0.2731416  -0.32448035  0.6403428   0.26656726  0.9524342
  0.59402955 -0.7261104   0.05590238  0.26974997 -0.09746332  0.6610121
  0.4638514  -0.40607703 -0.29915205 -0.14616215  0.09818234 -0.8661679
  0.07121778 -0.41453132]
[-0.29135242 -0.59183794  0.21147287  0.07187565 -0.47374907 -0.13122904
 -0.48390278  0.06495166 -0.7438608   0.43302578 -0.13009359  0.36463776
  0.1985131   0.21503729 -0.1445474   0.06734334 -0.67511326 -0.7932342
 -0.44677538 -0.12879023]
[-0.03504964 -0.25106937  0.16197751 -0.02553114  0.00085898  0.18224828
 -0.36290956  0.22256178  0.84908366 -0.14487198  0.59694093 -0.29192808
  0.01411187  0.5660479  -0.35616845  0.5618515   0.5107075   0.07386133
 -0.47440588  0.2222712 ]
[-0.3118036  -0.15628225  0.34885147  0.12832981  0.31868958 -0.11968736
  0.02251753 -0.21525796  0.40156218 -0.25730774  0.14745952 -0.17181063
  0.21086806 -0.02855522 -0.3110819  -0.02170835  0.3072313   0.19290593
 -0.41134927 -0.25440362]
[-0.33362278 -0.10599279 -0.27322838 -0.20173332 -0.2812599  -0.0955305
 -0.01345016  0.16328043 -0.0494994  -0.4297725  -0.08218286 -0.3919866
 -0.00898403  0.12385615  0.24118511 -0.3423653   0.12310854  0.08780012
  0.23691133 -0.16480334]
[-0.0318431   0.40333724 -0.34856853  0.17039657  0.13192077 -0.22438142
  0.22386745 -0.2511522   0.3623238  -0.50414044 -0.2868165   0.255969
  0.10730401  0.07627954 -0.26093036 -0.00961445  0.00731823  0.30426008
  0.03167267 -0.10916265]
[-0.02345937  0.40891647 -0.13039395  0.02577457  0.17194632 -0.13756679
  0.10631058  0.07172132 -0.38128445  0.12571847  0.06766517  0.6972902
 -0.18456884 -0.80119425  0.23671149 -0.12699988 -0.17672499 -0.28440717
  0.31550494 -0.05570451]
[ 0.08650718 -0.17041986  0.17069323 -0.32394293 -0.1696717  -0.11869865
 -0.27139288 -0.08116648 -0.36173606  0.2203349  -0.42774087  0.10119047
 -0.40265527  0.13578945 -0.3096456   0.5164261   0.0839697   0.18313834
  0.43414137 -0.3274809 ]
[ 0.29136455 -0.43198216  0.35991043 -0.3585148   0.22716281 -0.34894115
  0.43730155  0.02435018  0.22015372  0.24813752 -0.32022247 -0.30218765
  0.20624672 -0.03175217  0.29223573  0.07104796  0.10607412  0.17700697
 -0.31521118  0.26175857]
[ 0.3802953   0.30257767  0.05648211  0.40007338  0.14692818 -0.08268256
  0.38896236  0.14035438  0.29056516  0.41518387  0.07102052 -0.3594386
  0.21103226  0.16128665 -0.02126134 -0.02672477  0.28343624  0.09004267
  0.36294904 -0.14839812]
[ 0.2528652   0.51733387 -0.21159686 -0.34689352 -0.00929172  0.07919879
 -0.39295205  0.12323086 -0.1171647  -0.2530677  -0.02935976 -0.16375805
  0.41258487 -0.20277555 -0.15297857 -0.41084823 -0.12135316  0.11979505
  0.28623798 -0.25813758]
[ 0.00999971 -0.0914336   0.01773253 -0.0398359   0.0636422   0.002202
  0.10994782 -0.00918508  0.02322091  0.01371462 -0.02509233  0.15900657
 -0.0569398   0.05224134 -0.02506361 -0.1010955   0.04164985 -0.03023142
 -0.08421787  0.06359116]
layer 1 Activation
tanh
layer 2 Dense
20 40
[ 0.16926722  0.01196263 -0.11296992  0.0723303  -0.11539     0.2460834
  0.08749208 -0.19785146 -0.25860748  0.35563815  0.24927767  0.22156283
  0.02941843 -0.03250555 -0.03289416  0.10496942 -0.0610441   0.28579414
 -0.10311832 -0.04250791 -0.0952358   0.14441761 -0.08437251  0.23111975
 -0.12301149 -0.02621573 -0.06127122  0.0485064   0.2724098  -0.37799582
 -0.11017534  0.01484065 -0.11415726  0.22763425  0.09512343  0.00360168
  0.20357694 -0.36504593 -0.19064565  0.01906623]
[-0.0799175  -0.05317446 -0.17805603  0.23100434  0.20066926  0.01377605
  0.18029952  0.27602935  0.0973429  -0.03614061  0.21618465  0.3534306
 -0.02369095 -0.28912705 -0.11765016  0.35267928  0.12887532 -0.04549221
 -0.09564263  0.18832305 -0.29094616 -0.00282842 -0.19279714  0.11228773
 -0.23950386 -0.02202594  0.44501042 -0.13090618 -0.21265899 -0.20440678
 -0.15513043  0.03363599  0.20293781 -0.22380793  0.16020645  0.24184242
 -0.13028127 -0.42107588  0.2392667  -0.07508786]
[ 0.14669709  0.31643265  0.01644055 -0.25927383  0.06904621 -0.00961377
 -0.20474945  0.33946756 -0.08703124 -0.00577124 -0.25388885 -0.06820663
 -0.19835502 -0.2266239   0.20946531 -0.12639654  0.3173561   0.16763864
  0.01115088  0.09168521  0.03158379 -0.19622284  0.15986194 -0.01312254
  0.11107121 -0.10075399  0.08478682 -0.11050886 -0.00403921  0.06486144
 -0.06430854  0.20219095 -0.05065582 -0.25060645 -0.08490685 -0.25204346
 -0.2547168   0.29897577 -0.180713    0.2821683 ]
[-0.05595598  0.37128276  0.21571368 -0.30909175 -0.17840497  0.06968655
  0.41793525 -0.17984022  0.1255739   0.10246792  0.28742784 -0.08759662
  0.3839486   0.1502773  -0.28474817  0.16644768 -0.25438634  0.07736301
 -0.13279241 -0.38911244 -0.18017256  0.1905589   0.04433754  0.16350555
 -0.5482913   0.1217603   0.22163683  0.02893683 -0.04463575 -0.41999692
  0.26310357 -0.02531925  0.11201896 -0.32310265 -0.17587242 -0.00559953
 -0.13272157  0.05210671  0.17131388 -0.19967277]
[-0.20464572 -0.14936545  0.00861677 -0.0246516   0.1558972   0.10409347
  0.28756934 -0.30900383  0.39095604 -0.24967223  0.09501167  0.20478572
 -0.20513037 -0.03449714 -0.14533424  0.18551059 -0.00197891  0.09566856
  0.03368173 -0.4522254  -0.2686491   0.34925172  0.01513599  0.19112378
  0.07058005 -0.11437023  0.02549738  0.22391199 -0.04422989 -0.31557837
 -0.06357711 -0.29385656 -0.11948839  0.082186    0.01191386  0.13850833
  0.19299668 -0.00826783 -0.28608105 -0.2734204 ]
[ 0.24150704  0.12940584  0.2168551  -0.4300421  -0.04117063 -0.14708863
  0.24162619 -0.34849817 -0.31350133  0.20227578  0.3647132   0.11507546
  0.1274496   0.22819678 -0.03499773  0.18772131 -0.20662035  0.1040348
 -0.02268947 -0.12247522  0.33168247  0.44024637 -0.2880226  -0.27826586
 -0.37918025  0.09748284  0.42375457  0.16751567 -0.13360998 -0.36084408
 -0.05055708  0.26354405 -0.24720338  0.1715617  -0.1302341   0.22253105
  0.01294157  0.02317505 -0.41423318  0.32713526]
[ 0.07317033  0.11138085  0.0070641  -0.07846045  0.01969915  0.12748332
  0.194747    0.2699701   0.2858724  -0.2194087  -0.20518756  0.2851127
  0.03641168  0.20214748  0.16181065  0.27286807 -0.12594853 -0.02883429
  0.03629166 -0.2712468   0.14885947  0.00310971 -0.37850165  0.18703803
 -0.01006631  0.08748158  0.38043228 -0.24068107  0.20108122 -0.34107196
  0.19994816  0.08724824 -0.04812021 -0.30238017  0.09159869  0.1012264
 -0.02262301 -0.22154866 -0.0754581  -0.32319888]
[-0.15513462  0.08264579  0.13237122  0.48634318  0.2379725  -0.12084117
  0.04710148  0.08746599  0.03244585 -0.33971363 -0.23100789 -0.06201188
 -0.3709882   0.10435302  0.10532054  0.05057133 -0.2162785  -0.21407734
  0.2705094   0.3599128  -0.12502019 -0.4782846   0.03265793 -0.14880215
 -0.13871285 -0.0197194  -0.10507214  0.13957061  0.1328476   0.18139279
  0.02964924  0.11761738 -0.00735686 -0.04336422 -0.21476334  0.03421164
  0.09226275  0.31698802 -0.25078392  0.03700391]
[ 0.13662222 -0.3686028   0.06111199 -0.22836246  0.22664535  0.1537765
  0.07432403 -0.29606298 -0.05853049  0.08402375 -0.19217944 -0.108215
 -0.12950233  0.28346136 -0.18367822  0.29387128  0.16135514  0.2905491
  0.34017047 -0.24365006 -0.30991808  0.2294626  -0.29315126  0.02740612
 -0.04685163 -0.43575794 -0.43123916  0.01811202  0.4521326   0.4364708
  0.6429545   0.14615421  0.14107765 -0.07525154  0.34833497 -0.42438087
 -0.0125012  -0.14351986  0.09937872 -0.20506339]
[-0.12298422  0.01446018  0.2735381  -0.15119049  0.021659   -0.16150244
  0.05505624 -0.23524047  0.10743631 -0.09850805 -0.10906836  0.10494686
  0.1832027   0.07476991 -0.24636115  0.20517495  0.1093121  -0.289181
 -0.05138263  0.10682354  0.31750575 -0.16529548  0.05571043 -0.13393453
  0.30537748  0.21533205  0.26035753 -0.04496996 -0.25945285 -0.138577
 -0.15004157  0.22733058 -0.15818484  0.23739472 -0.154196    0.20425804
 -0.02846672 -0.09268942  0.33779594 -0.08106854]
[ 0.13167836  0.12285836  0.12774293 -0.35926688 -0.02361914  0.21355534
 -0.24023359 -0.16453718  0.10328355  0.09893686 -0.11979946 -0.2194519
  0.11523023 -0.08461259 -0.19147319 -0.27616906 -0.31803656 -0.05830197
  0.04142041 -0.21256822 -0.19085109  0.06767032 -0.22100395  0.2367858
 -0.27582148  0.08000726 -0.02243511 -0.02211976 -0.1374954   0.24664988
  0.21765293 -0.41014397  0.06058449 -0.19754359 -0.01748709 -0.36070764
 -0.04759156  0.3029638   0.07583986  0.03113463]
[ 0.29827783  0.23650554  0.05176421 -0.38702583  0.06961004 -0.1241792
  0.14499225 -0.04413623  0.19086578 -0.13690548 -0.00561475 -0.05192981
 -0.25226173 -0.25829083 -0.36399823 -0.18385437  0.07644651 -0.0285862
 -0.3606329  -0.09393061  0.23370637  0.33292356 -0.12302321 -0.0259671
 -0.18761173  0.19463547  0.1631597  -0.14835674 -0.06990581 -0.39361703
  0.01144539  0.36053082 -0.35120243  0.07544564 -0.21893038 -0.2392045
 -0.04349735  0.19760989  0.05042718  0.07791392]
[-0.15096983 -0.07121512  0.10825443 -0.20511487 -0.25205636 -0.08658447
  0.10272852  0.19931428 -0.25908616  0.21145837  0.00226787 -0.19148846
 -0.18730454  0.23854174 -0.2743869  -0.15127736 -0.30673394 -0.25049898
 -0.21893862 -0.10210492 -0.2813683   0.23424082  0.27801144 -0.10209329
  0.0094855   0.21095859  0.02669177  0.15718804 -0.31825006 -0.0331901
 -0.20983577 -0.13415357  0.11224955 -0.1474392   0.05292955 -0.30222178
  0.06675109 -0.19086027  0.14560261  0.07934993]
[-0.15384066 -0.27354044  0.00261338  0.12603176  0.07643812 -0.01409833
 -0.04255754 -0.15793088  0.15550132 -0.02502352 -0.16473156 -0.1614343
  0.12751748  0.32518733  0.25196373 -0.2102441  -0.21251915 -0.12415741
  0.30895245 -0.19053122 -0.28273895 -0.29271168  0.19166523 -0.01175451
 -0.31863505 -0.00245783  0.03298026  0.24881545  0.40072882  0.2763808
 -0.15013865  0.05982639  0.27607375  0.08939723  0.15873472 -0.23084246
  0.22574264  0.2873582  -0.02161366 -0.1330424 ]
[ 8.76611695e-02  1.87943757e-01  3.24189253e-02  7.68895596e-02
  2.76344597e-01 -2.79726893e-01 -2.99640775e-01 -1.58259049e-01
  1.56983390e-01 -3.86464177e-04 -1.44069880e-01  2.04179481e-01
  1.21956028e-01  2.60666847e-01  2.62101665e-02  4.66508344e-02
 -3.63176353e-02 -3.03740144e-01 -1.04315974e-01  6.36163503e-02
 -2.23587126e-01 -4.32143420e-01  2.00935572e-01 -1.47324586e-02
 -1.24558896e-01 -3.35468957e-03 -3.93440872e-01 -4.59393077e-02
 -1.03993118e-01 -2.30352432e-01  1.64273977e-01  1.96760803e-01
 -1.04602560e-01  1.90984905e-01  8.06540400e-02 -3.84767205e-01
  2.18011528e-01  5.61625371e-03 -1.84542075e-01 -3.28989863e-01]
[-0.25814474  0.22640407  0.04302029 -0.00416744  0.17709579  0.09197947
  0.2870626   0.08815535  0.32867146 -0.03160272  0.14817624  0.09657658
  0.00317368 -0.08738793  0.12762381 -0.22739087 -0.05576079 -0.05620019
  0.28901058 -0.3706472   0.29197663  0.09004869  0.13649347  0.08647199
 -0.22222395 -0.00208482 -0.0741004   0.2780929   0.21855246 -0.01123543
 -0.04876634 -0.02416541  0.25447783 -0.11492035  0.13256162  0.14441031
 -0.23226893  0.1165296   0.04580805  0.3188763 ]
[-0.09716011  0.04107092 -0.3132366  -0.04478877 -0.00417362  0.11126743
  0.20069443  0.03658173  0.05068602 -0.00614233  0.17593981  0.05712101
  0.01018859 -0.26130792 -0.14961797  0.22369148 -0.16980246  0.43777242
 -0.05231915 -0.42479083  0.06251821  0.03504485  0.19717792  0.1388286
 -0.21651673 -0.2746026   0.10320406  0.07996332  0.04991427  0.13703643
  0.5066833  -0.13992938 -0.00325675 -0.21122429 -0.02891964 -0.09638117
 -0.07070327 -0.10128038 -0.07386898  0.1793846 ]
[ 0.02438894  0.28286955 -0.10621695  0.44460943  0.23654085  0.14860708
  0.04036717 -0.08046882  0.47933882 -0.26125982 -0.00760873  0.42098635
 -0.04612763 -0.27633768  0.06968725  0.12586193  0.19509982  0.14864218
  0.29330316  0.13630797 -0.6606551  -0.1351751   0.19803506 -0.2329803
  0.20966922 -0.18540332 -0.24850799 -0.00253456  0.15603377  0.23590659
 -0.18118782 -0.31920913  0.02551484 -0.2190487  -0.30061173  0.22281344
  0.19218776 -0.39655706  0.01858561 -0.0577525 ]
[ 9.01363492e-02  2.79855132e-01  2.72008985e-01  1.38274953e-01
 -5.92396632e-02  1.35603309e-01 -8.34176969e-03 -1.31882187e-02
  2.30109215e-01 -4.92729712e-04 -1.17010243e-01  3.26755583e-01
  4.33199517e-02  2.47978196e-01  2.80152172e-01 -1.92089885e-01
 -1.78677142e-01 -1.38883665e-02 -3.31431478e-02 -2.88321406e-01
 -3.80090028e-01  2.90065497e-01  9.24861059e-02  1.21809505e-01
  6.98425546e-02  4.37557995e-02  2.02086251e-02 -3.05955112e-01
 -2.00628769e-04 -2.24769354e-01 -1.36739001e-01 -1.59627840e-01
 -5.34708910e-02  1.68790013e-01 -1.57247007e-01  2.48732924e-01
 -1.37182206e-01 -2.57177562e-01 -1.01686433e-01  1.21594556e-02]
[ 0.10121471 -0.094681   -0.25926974  0.2928385  -0.08298548  0.07867719
 -0.04406713  0.18820815  0.3620555   0.04093046  0.26633993  0.26027232
 -0.24030444 -0.01166369 -0.07192995  0.14554095 -0.01403495  0.18518886
 -0.15221502 -0.22402595 -0.2167137   0.11352997 -0.29548106  0.08033795
  0.18651626 -0.10702875  0.06982193 -0.2589764  -0.09037679  0.13816717
  0.13003686 -0.02765326  0.05801833 -0.02630411  0.01647667 -0.03395806
  0.13525948  0.03843199  0.30870152  0.12433895]
[ 0.06214093  0.00325355  0.02019333  0.0310301  -0.00551302  0.05016207
 -0.07233974  0.02348654 -0.04929041 -0.01117619  0.01280613  0.0113544
  0.01320428 -0.05511859  0.00757448  0.00511793 -0.02778023  0.00361366
 -0.03985396 -0.03927935  0.01913737  0.01425807  0.0020237   0.03209345
  0.12088332 -0.01745276 -0.11346845 -0.0171699  -0.04767717  0.03458185
 -0.07254592 -0.01075454 -0.02391367 -0.00361292  0.08391575  0.05340529
  0.03054771  0.08084266 -0.03326077  0.03860386]
layer 3 Activation
tanh
layer 4 Dense
40 20
[-0.09221063 -0.00567781 -0.10608304  0.18061432  0.13892776 -0.07680769
  0.06785423 -0.03043919 -0.15494122  0.13225655  0.01291202  0.285014
  0.03029858 -0.07253599 -0.21400356 -0.17166114 -0.21272284 -0.03564421
 -0.03688854  0.05264614]
[-0.02172573 -0.11967593  0.18296713  0.32538304 -0.0638046  -0.09953999
 -0.02365639  0.1411898   0.02143778  0.00276071 -0.09770888 -0.25091365
  0.13593917 -0.25180215 -0.19023417  0.20172818  0.05946273 -0.17120962
  0.24002098 -0.14980426]
[-0.04300839 -0.21446711  0.27682337  0.02479264  0.02448017 -0.31699997
  0.1578625  -0.01717914 -0.1609566   0.14202553 -0.19964042  0.2802047
 -0.2674449   0.11980882  0.03105663  0.11372799  0.05606614 -0.2619683
  0.03228623  0.11532031]
[-0.0767701   0.38264033 -0.10531516 -0.03804385 -0.13156223  0.1838034
  0.152838    0.35915813 -0.09654176  0.16048934  0.1885465  -0.04290633
 -0.21582502 -0.07079042  0.09817364  0.13609906  0.28872696  0.35774437
  0.41400486 -0.24240716]
[ 0.20186707  0.30908927  0.24686381 -0.27434775  0.06880744  0.13816486
  0.1724786  -0.15710175  0.04993975 -0.0059272  -0.06039358 -0.06708472
  0.30894762  0.00083511 -0.1532132  -0.387737    0.15671416  0.38911036
 -0.00822645  0.31759018]
[ 0.3546922  -0.19528487 -0.27010345  0.10947086 -0.17870776 -0.21493872
 -0.16181928 -0.0738683   0.26289952  0.33250454 -0.23059262 -0.17006902
 -0.1030581   0.16059206  0.24978979 -0.19981019 -0.2772975   0.00773504
 -0.01412549  0.11597897]
[ 0.20727664 -0.07726708  0.26597628 -0.11786124  0.05059765 -0.285859
 -0.24560262 -0.3079415  -0.02548474  0.02090299 -0.3092526  -0.17954716
 -0.20748942  0.00086525 -0.06911876 -0.25658557 -0.30403757 -0.05175939
 -0.3425504  -0.0548857 ]
[-0.1646515   0.23595642 -0.06573731 -0.24165358 -0.03155561  0.23316926
 -0.11584857  0.136726    0.30115655  0.11872618 -0.09697465  0.13430816
 -0.13106227 -0.24102437  0.02821669 -0.10334955  0.03280082  0.02515284
  0.2660908  -0.12492484]
[ 0.06856155  0.2832152   0.02592195 -0.1344138  -0.16287853  0.25033408
  0.02873228  0.27472892  0.2548986   0.03939404 -0.32876635  0.15924789
 -0.11426535 -0.19881466 -0.01751789 -0.15870064  0.1759028   0.3187327
 -0.30594474 -0.08362259]
[ 0.16221856 -0.44095746  0.1154053   0.2827302   0.07162781 -0.18026355
  0.13999861  0.20484474 -0.00839618 -0.06605316 -0.32336816 -0.17865643
  0.28441927  0.3211232   0.19116588  0.11990942 -0.09275439 -0.14430746
 -0.22733174 -0.0159171 ]
[ 0.10851972  0.26977926 -0.19720708  0.01535087 -0.21081984  0.03063683
  0.3720997  -0.01444233 -0.1752341   0.17211202 -0.20883001 -0.0613218
 -0.20944065 -0.15700935 -0.3243959   0.3434369  -0.38131624 -0.17024381
 -0.03896768  0.1640885 ]
[ 0.23509735  0.12916121  0.35601982 -0.16253108 -0.25388092  0.215531
 -0.22582766  0.25339392 -0.13465568  0.20121577 -0.18972273 -0.04271553
  0.10026204  0.17677599 -0.20063177 -0.14458829 -0.03594383 -0.40718016
 -0.23975772  0.25422445]
[-0.04289085 -0.1423848  -0.25195676  0.04981802  0.29877418 -0.12331983
  0.2260478   0.16000041 -0.00144709 -0.0008484  -0.24277218  0.01712036
 -0.10607432  0.04414314  0.111222   -0.17409028  0.08348921  0.17715615
 -0.21489923  0.1496776 ]
[-0.2606056   0.12895206  0.00619884  0.21632235 -0.07471068  0.08971183
 -0.14320473 -0.20235108  0.17479496 -0.03974534  0.10303122  0.11591188
 -0.2472894   0.34276882 -0.16804968 -0.31212762 -0.2103038  -0.17589842
 -0.11825875 -0.00480845]
[ 0.29681876 -0.03264658  0.03077471 -0.13567425 -0.17529845  0.32250032
  0.10705936 -0.06855798  0.1321609   0.25442964  0.2901002  -0.23461707
 -0.20798056 -0.02763132  0.06830265 -0.25086224 -0.02465078  0.29439875
  0.06721932  0.2468296 ]
[ 0.3218873   0.02645742  0.23993246 -0.24157165 -0.12212137 -0.3252552
  0.03529942 -0.11394743 -0.03384818  0.16445825 -0.1226879  -0.10776056
 -0.310721   -0.22682215  0.06177152  0.13747562  0.1814493  -0.34851542
  0.16922277 -0.1951198 ]
[ 0.16588093  0.07436275  0.22301771 -0.18058093 -0.08247678  0.01546917
  0.24096562  0.3441965   0.04821358 -0.24469405 -0.15653509 -0.14369403
  0.05778044 -0.39167503  0.21408743 -0.1553332  -0.23550996  0.04367697
  0.09399576 -0.06349   ]
[ 0.37855566  0.06032893  0.08961555  0.03188514  0.04330058 -0.34051356
 -0.05071385 -0.21569909  0.13878973 -0.23718978  0.20322844 -0.0768992
 -0.05936022 -0.512107    0.1861288   0.00133397 -0.19799848 -0.04432896
 -0.2604064   0.34388387]
[ 0.3224561  -0.09395573  0.31680468 -0.27768317 -0.22836833  0.13977793
  0.23161621  0.32059222  0.01704043 -0.06556049  0.2567191  -0.13665165
 -0.2950499   0.34142512 -0.10892735  0.24784334 -0.0782224   0.11844327
 -0.22372402 -0.10479379]
[ 0.12316474  0.05842105 -0.13845786  0.08483229  0.20459354  0.14787793
 -0.2306349   0.09604695 -0.14561625 -0.18008865  0.18250062 -0.02410335
  0.27052003  0.10556313 -0.139146   -0.26398584 -0.22558126  0.01014602
  0.34485796  0.22860233]
[-0.2141273  -0.12467453  0.02288658  0.05544654  0.08224788 -0.46216995
  0.21089914 -0.08895535  0.10659961 -0.10782111  0.05058437 -0.17191051
  0.13855976 -0.00499982 -0.05315259  0.3648282   0.21777189  0.31923205
 -0.39094877 -0.30541041]
[ 0.17362194 -0.2023019   0.17090863  0.04622399  0.11494978 -0.42070487
 -0.14310883 -0.20362657 -0.17860648 -0.3297818  -0.21865095  0.309063
 -0.04148989 -0.2944135   0.14303416  0.20776998 -0.28566483  0.01055877
  0.16776869 -0.01924695]
[-0.06003975 -0.274797    0.15410827  0.0147296   0.21148299 -0.10605165
 -0.13076858  0.33388582  0.0512446  -0.06947785  0.23792946  0.15455975
 -0.10671471  0.27295718 -0.19524139 -0.14939211 -0.05293531  0.32535547
 -0.05507951  0.1457462 ]
[ 0.01253895 -0.30747384  0.15411308 -0.20833923  0.15759723 -0.28618684
  0.1755652   0.0008679   0.06453829  0.13007355  0.08530071 -0.17572705
  0.20980892 -0.07358843 -0.20934562  0.02029802  0.24244638 -0.3857556
  0.02779299 -0.02565088]
[-0.09379397  0.3713532  -0.12752461 -0.03774973  0.2675145   0.06018095
 -0.29537684  0.35533044 -0.0444684  -0.01253188  0.05390918 -0.15054531
  0.00164088  0.07948817 -0.02576725  0.182636    0.346849    0.1609494
 -0.15041463  0.14464942]
[-0.37493405 -0.05997219 -0.07067115  0.08017522  0.07260273  0.14023001
  0.22843453  0.19826747 -0.14328085 -0.06593946 -0.22921102  0.22131513
  0.28570428  0.3057422   0.11302101  0.18306732 -0.25465912 -0.33820805
 -0.16556208 -0.17460044]
[-0.36440426 -0.08507474 -0.23407556  0.00396969  0.18393117 -0.16228335
  0.30302194  0.04186595 -0.20803507 -0.2214173  -0.23900703  0.18539052
 -0.32921562 -0.06283641 -0.02562218 -0.1152375  -0.13452184 -0.39517218
 -0.15706638 -0.28384945]
[ 0.05440559  0.07797751  0.08089256  0.14212565 -0.04198385 -0.01286232
 -0.22147432 -0.01429491  0.12093118  0.11679052  0.04307986  0.20533219
 -0.12011749  0.04678106  0.18785408  0.28950617 -0.08418202 -0.14114632
  0.15857488 -0.28133652]
[ 0.57721907 -0.03746014  0.33795175 -0.05240033  0.03194183  0.21868029
 -0.15695798 -0.25083417 -0.01508816 -0.267984    0.00091948  0.15348256
  0.22210856  0.11707809  0.27816615 -0.18834816  0.04458809  0.13098766
 -0.16189496 -0.27159566]
[ 0.21660985  0.03395303 -0.15328364  0.05346113 -0.03976023  0.4371527
  0.02401685  0.01069719  0.4336299   0.00548529  0.38942936  0.25845242
 -0.08595648 -0.1881729  -0.0175756   0.18789977 -0.19514288  0.55276626
  0.33785838 -0.11526833]
[ 0.35116524 -0.04973779  0.30574808 -0.16473383 -0.03931926 -0.13510182
  0.20763098 -0.09652729  0.03337652 -0.18661924 -0.04921778  0.03364041
  0.18340273 -0.148171   -0.08439796 -0.12335649 -0.2280661   0.25738156
 -0.18739621  0.17486972]
[-0.0275976   0.27994207  0.00376783  0.22381446 -0.03289768 -0.04562545
 -0.31679818 -0.12350243 -0.00210398  0.30803576 -0.05735956  0.28958142
  0.093848    0.09194823  0.22242907 -0.08750182  0.11110133 -0.39522263
 -0.20231447 -0.01111119]
[-0.03834261 -0.22429676  0.23107821 -0.08211681  0.26679966  0.01352848
 -0.06104851 -0.12518558  0.12911558 -0.06427167  0.20052621 -0.12045752
 -0.18272577 -0.02332623  0.32901576 -0.08217462 -0.2053103  -0.01617196
  0.16622989  0.17239046]
[-1.9286405e-02  1.2028556e-01 -2.5209069e-01 -2.8230941e-01
  3.8773105e-03  1.0771574e-01  8.9232951e-02 -5.4353796e-02
 -1.8017564e-04 -1.1233111e-01  1.3830239e-01 -2.5061208e-01
 -1.5536506e-01  1.8131836e-01  2.1627387e-01  2.6910004e-01
  1.7875965e-01 -2.0920257e-01  8.1588507e-02  2.3709616e-01]
[ 0.22558756 -0.04929475 -0.18195015  0.00359244  0.08293148 -0.13952549
 -0.23411448  0.04396613  0.28368276  0.12099127 -0.11198459 -0.04903656
 -0.20698793 -0.1528055  -0.27591953  0.06930386  0.09130257  0.18494773
  0.00812738  0.26072055]
[-0.00858867  0.26969075 -0.2584852   0.12606741  0.15561159  0.05667968
  0.07081402  0.06952693 -0.1617257  -0.03581496  0.0163943  -0.2561833
  0.12587497  0.23929451  0.10490862  0.23210862 -0.04887037 -0.02747715
  0.23453721  0.22419286]
[-0.11524459 -0.14779647  0.13651638  0.058142   -0.212165    0.16711637
  0.30280808 -0.00413235  0.2277636   0.06051309 -0.20973624 -0.22465666
  0.27002725 -0.10778616 -0.29752305 -0.06285026  0.15207428  0.09974207
  0.26250944  0.21625848]
[ 0.00717671  0.02913872  0.04241313  0.22751349  0.31342068  0.00222845
  0.22144063 -0.06464352  0.17527528  0.2896979   0.16640706  0.15379632
 -0.02808057  0.15529212  0.02644578 -0.16120523  0.22332974  0.00561119
 -0.2272759  -0.16366398]
[-0.2164202   0.181534   -0.00388327  0.05708536  0.01068838  0.2473969
  0.2278183  -0.10133672  0.02034876  0.2969699  -0.10177483 -0.14486119
  0.03601389 -0.10987806 -0.01510078 -0.27504942  0.15917678  0.15439197
 -0.34317648  0.20817505]
[ 0.40390822 -0.2581733   0.18487214  0.28626606 -0.21466674 -0.22146872
  0.07874296  0.11327846 -0.24122687  0.15985277  0.2757758  -0.13955525
 -0.10752775  0.12383846 -0.049077   -0.07611814 -0.11107174  0.05746866
  0.14407025  0.05615779]
[ 2.0557374e-02 -6.4765982e-02 -6.4239003e-02 -2.4376303e-02
  5.7752933e-03 -2.4557756e-02 -4.5038376e-02  6.3872769e-02
 -2.5340874e-02  4.9809631e-02  2.5604593e-02 -1.8025871e-02
  5.7170022e-02 -8.1650749e-02  4.3199889e-02  5.3067051e-05
  3.3809643e-02 -6.7510776e-02  1.2050293e-02  4.0744834e-02]
layer 5 Activation
tanh
layer 6 Dense
20 1
[0.146767]
[0.11305471]
[0.04202468]
[0.18005015]
[0.00807743]
[-0.30517882]
[0.10893939]
[-0.12042022]
[0.32793742]
[-0.08821837]
[0.31973803]
[0.01612237]
[-0.02135329]
[0.05586185]
[-0.00085247]
[0.04975477]
[-0.02185426]
[0.07232227]
[-0.21850716]
[-0.04050091]
[-0.05529736]
