layers 7
layer 0 Dense
20 20
[-0.33228573  0.2643318  -0.01032101 -0.32840183  0.37262434 -0.23727962
 -0.02267109  0.06277024 -0.25115806  0.2553343  -0.18288487 -0.01810163
  0.29130024 -0.27351892 -0.07862983 -0.32998747  0.05732441 -0.19880517
 -0.06955486  0.11077532]
[ 0.0074008   0.17321086  0.24072368 -0.38427806  0.64440686  0.36009383
 -0.2750125  -0.2588905  -0.7450484   0.40829378  0.18413773  0.49062502
 -0.2651755  -0.3065011  -0.11872292  0.04333595  0.13571468 -0.563475
  0.28287092 -0.2808981 ]
[ 0.2697549  -0.21446729 -0.06096815 -0.04097155  0.59080684  0.19110143
  0.11478722 -0.4745363  -0.40327373 -0.0669637   0.3307322   0.36475164
 -0.28689423  0.03663752 -0.31815204  0.07517656  0.04006534 -0.5132244
  0.3948427   0.0243875 ]
[-0.3830581  -0.1420058  -0.46861055  0.12046774  0.3114787  -0.08808789
 -0.03608002 -0.4938893   0.0615248   0.3963741   0.23268548  0.46168914
 -0.30680847 -0.11308483 -0.1934526   0.20064577  0.2884044  -0.17349918
 -0.12504622 -0.22114834]
[ 0.30217838  0.22333695  0.03213247  0.30528975  0.02534571  0.243759
 -0.00376845  0.13643692 -0.18133287  0.04749764  0.10079709  0.12382218
  0.0783788  -0.37418234 -0.02309373  0.13515171  0.4043959  -0.14171515
  0.13906114 -0.21091574]
[-0.43116173 -0.24055211 -0.35724464  0.27122778 -0.28613377 -0.11640241
 -0.2581818   0.29878864  0.47648457  0.11131006 -0.16587913  0.05265459
  0.29227996  0.51058245  0.17094617  0.4723286  -0.5321697   0.30946168
 -0.42431906  0.14276715]
[ 0.11598396 -0.39142877  0.37276325  0.5684212  -0.07545471 -0.72564507
 -0.13562742  0.10288122  0.69157445 -0.08896981  0.01244336 -0.16164288
  0.33252886  0.16921626 -0.30091926  0.51341397  0.00855581  0.32023442
 -0.02462252 -0.35373208]
[ 0.334729    0.7857261   0.42752734  0.07787454 -0.7155465  -0.45814145
 -0.0830718   0.65718466  0.23479159 -0.4938171  -0.18742605 -0.38339636
 -0.37903455 -0.06136532  0.0345283  -0.01406105 -0.38074768  0.26471356
 -0.47469103  0.6434476 ]
[ 0.10507578  0.87393236 -0.13648058 -0.32730654 -0.40999222  0.00249775
 -0.29484123  0.21209913  0.653946   -0.04478462 -0.4291966  -0.3858172
 -0.22948861  0.11222152  0.07093696 -0.20463943 -0.14735806  0.04205511
  0.21489167  0.3455597 ]
[-0.05685665  0.646976   -0.3535752   0.1357071  -0.4265665   0.35561287
 -0.56928754  0.04748572 -0.10055745  0.40591887  0.2658782  -0.10019155
  0.11825339 -0.22146674 -0.26544842 -0.03174815 -0.02276162 -0.64516234
  0.03048535  0.06071538]
[ 1.0366167  -0.6193471  -0.2797263   0.28613833 -0.53491116 -0.5154052
 -0.19885965 -0.20947382  0.27338192 -0.08783063  0.47653958 -0.00143213
 -0.24958512  0.32529202 -0.21217568  0.02871094  0.09087139  0.09845457
  0.06552614  0.33660048]
[-0.07671957 -0.22335434 -0.31585667 -0.1517502  -0.19933112  0.8919628
 -0.15971069  0.30286047  0.3051241   0.31176528  0.56271946  0.40423745
  0.07332768  0.01600742  0.0675087  -0.52313054 -0.3753194   0.14678158
  0.1668589  -0.24428713]
[ 0.15986975  0.35163373  0.00534214 -0.07012536  0.12396055  0.09176468
 -0.1800597  -0.13446756  0.2888977  -0.43062574  0.23976749  0.30803007
  0.12268095 -0.0323399  -0.0780532  -0.07151294 -0.3825878  -0.03657426
 -0.48083445  0.1264783 ]
[-0.02038274 -0.40251118  0.5741217   0.25701886  0.5615937   0.14489394
 -0.03976676  0.00165663 -0.03762759 -0.38134775  0.02633541  0.0399151
  0.21177518 -0.5200502  -0.29820222 -0.08512574  0.19969885 -0.21546364
 -0.02940533  0.09983658]
[ 0.8901373   0.46767363 -0.11794233 -0.26616046  0.8674018  -0.37852305
 -0.57979405 -0.2616534   0.2961674   0.40424308 -0.54100233 -0.12564112
 -0.2991959   0.07726355 -0.2972311  -0.4559222  -0.45394146 -0.13396075
 -0.8243788  -0.5350609 ]
[ 1.0160912  -0.6902955   0.01586977 -0.00525543  0.33506826  0.28340283
 -0.08879037 -0.25949785 -0.1743064   0.31477112  0.25371635  0.01319312
  0.1056921  -0.61787224  0.2945612   0.7459043  -0.39625317  0.7517262
  0.31760278 -0.18905604]
[ 0.2962211   0.03019386 -0.42006105 -0.23322895  0.65319186 -0.14777525
 -0.2804775  -0.02942912  0.28328913 -0.22632493 -0.09098497 -0.095117
 -0.27003554 -0.22516815 -0.01402691 -0.06169081 -0.03511333  0.29206914
  0.0471229  -0.17540629]
[-0.394542   -1.1666605   0.11889748 -0.15506744  0.04945654 -0.27507597
  0.39612392  0.11501981  1.0112454   0.1559014  -0.2174497  -0.20470658
 -0.49128634  0.10501847  0.14854132  0.7820924  -0.2548917   1.3210229
 -0.2892162   0.6243213 ]
[-1.6987424   0.043136   -0.22996423 -0.18223459  0.22904065  0.4880555
  0.00976065 -0.22097607  0.04618849  0.07783741 -0.01201794 -0.13902768
 -0.15320787 -0.25912425  0.27491957 -0.1457412   0.4261878   0.05468385
  0.5519038  -0.12598552]
[-0.4919702   0.9208265   0.42139578 -0.01169261 -0.46616822 -1.9976063
 -0.27011803  0.25252268  0.7226108  -0.2515788  -0.93923837 -0.18723968
 -0.32026848  0.6063683  -0.14862202 -0.7424077  -0.37666193 -0.66122174
 -0.03669124 -0.04227487]
[-0.07625258 -0.30605754 -0.09087805 -0.02011659  0.22667372  0.11142646
 -0.04013621 -0.21382755 -0.3617707   0.07802211  0.03510183  0.12529704
  0.05131818 -0.17263947 -0.08678389  0.03811131 -0.02093121 -0.18239368
  0.08229891 -0.21319798]
layer 1 Activation
tanh
layer 2 Dense
20 40
[ 0.10807708  0.2637953   0.00916744  0.13568771  0.18953238  0.17885031
  0.0280213  -0.16558486  0.19921666  0.41265783 -0.5144791  -0.0501311
 -0.10577711 -0.40249512 -0.20300104 -0.39108407 -0.26701748  0.22276652
  0.07162037 -0.2914239   0.3878009  -0.25001076 -0.29790694  0.22148792
 -0.12597238  0.16831493 -0.1904209   0.18454233  0.35618833  0.23721783
 -0.01976238  0.20820269  0.08323804 -0.20060344  0.03515469 -0.5146921
 -0.3703769  -0.29670405 -0.11246862  0.04339911]
[-0.4054234   0.20565389  0.08297748  0.00229568 -0.06108004 -0.5429799
 -0.05041131 -0.06380761 -0.41869307  0.28082865 -0.02721089 -0.08424494
 -0.44018567 -0.30450138 -0.00411592 -0.09679478  0.26369864  0.32769316
 -0.31275323  0.3625103  -0.34239468 -0.0577556   0.42282164 -0.06255944
 -0.40996048 -0.05349718  0.34717673  0.30009452 -0.6845615  -0.43901965
 -0.03362805  0.47870913  0.28693482 -0.03150763  0.6145923   0.13455363
 -0.15351641  0.09652677  0.10308007 -0.00529017]
[-0.34575805  0.02714678  0.07580763 -0.27376947 -0.08232585 -0.1699468
 -0.20099086  0.09242171 -0.50344396 -0.38021475  0.32433668 -0.00982519
 -0.10519491  0.17053868  0.05718049  0.11207026  0.15370408  0.0527608
  0.13882646  0.11212781 -0.3541491  -0.02649616  0.27004963 -0.04965732
 -0.13305305  0.10059704 -0.02683815  0.49088103 -0.18106274 -0.31924257
  0.09925842  0.08504383  0.03168659  0.41457948 -0.03516246 -0.3122607
  0.37141892  0.09076197  0.10462082  0.13804625]
[-0.00672265 -0.08455361  0.21391237 -0.05176758 -0.02191746 -0.23898491
  0.14880337  0.31254542  0.05799453 -0.0634298   0.00910621 -0.2138442
 -0.1877976  -0.03482087 -0.31864756 -0.22782947  0.1793313   0.26332295
 -0.21246898  0.1731493   0.03705967  0.11421312  0.33412588 -0.08470387
 -0.26268333 -0.05242715 -0.01839629 -0.05537169 -0.42932075  0.07320513
  0.03820481 -0.29893082 -0.12186018 -0.07494865 -0.00786001 -0.19185126
  0.20222613  0.1258378  -0.14182477 -0.01652917]
[ 4.60839629e-01  1.19745601e-02 -3.97509396e-01 -2.47198239e-01
  5.57437092e-02  2.92670220e-01  2.39259496e-01 -3.51316929e-01
  2.19224766e-01  5.29712319e-01 -3.32869917e-01 -2.22429529e-01
 -1.28681421e-01  2.88709719e-02  1.00825675e-01 -1.23379909e-01
 -6.87426254e-02 -2.03250915e-01  3.70397465e-03 -1.54551819e-01
  6.59350336e-01  3.13589901e-01  1.04378708e-01  4.27125365e-01
  2.27055773e-01  2.89928049e-01 -2.00364038e-01 -3.56893122e-01
  1.81138534e-02  3.71205688e-01  1.00558296e-01  2.90558746e-05
 -4.01691675e-01 -2.68901736e-01  7.29494616e-02  7.70989507e-02
 -3.00260603e-01  5.91593497e-02 -1.30024448e-01 -2.85274148e-01]
[ 0.16541281 -0.14298356 -0.5121022  -0.25573158 -0.36878908  0.26573062
  0.3345671  -0.33944908  0.3319216   0.5434754  -0.54912716  0.47781605
  0.3613464  -0.5905601  -0.19670595  0.02589222 -0.22947136 -0.0275203
 -0.1580665  -0.36523688  0.5124967   0.02470464 -0.2270143   0.49144474
 -0.11673854 -0.33867443 -0.10347001 -0.435619    0.38421836  0.5620651
  0.0743641  -0.02511402 -0.19318607 -0.28803477 -0.57063913  0.28126332
 -0.38288265 -0.07625961 -0.11453856  0.19558927]
[-0.03401883  0.04390616 -0.1687499  -0.25058532  0.07483499  0.14468463
 -0.14298828  0.09477825 -0.23797767 -0.0132672  -0.01844141 -0.14961043
  0.02396999  0.05735352  0.04166323 -0.06437811 -0.02729251 -0.01795664
  0.15408784  0.00369986  0.15519007 -0.11080348  0.12733334 -0.22106674
 -0.24183825 -0.21995792 -0.00456603  0.03524692 -0.20868355 -0.04561311
  0.1618691   0.32418823 -0.2011249   0.3346959   0.00504059  0.34158644
  0.39145902  0.16741286 -0.0348445   0.12778932]
[-0.27686185 -0.31740758  0.5063486   0.03249969  0.27173716 -0.0439224
  0.08912877 -0.05346641 -0.20928057 -0.01419282 -0.07780161 -0.2166489
  0.05419816  0.4766571   0.04891802 -0.08277056 -0.09640279 -0.0437737
  0.054032    0.1679958  -0.3170077   0.06517142  0.20180759 -0.08471049
 -0.3130709   0.20530914 -0.15507509  0.50358766  0.0575504  -0.25568208
  0.10979023  0.20526052  0.24272017  0.01076482  0.00935276 -0.24901968
  0.18657254 -0.21073183 -0.12148386  0.12823686]
[-0.39277777  0.10220978 -0.05411951  0.14812072  0.07805447 -0.23141433
 -0.10031764  0.2968271  -0.12962991 -0.20284785 -0.14210474 -0.0492297
  0.24711047  0.1040287   0.2389811  -0.06652166 -0.14465263  0.23382066
  0.32265112 -0.22570989 -0.19573273 -0.36570692 -0.10002709 -0.1936538
 -0.22493759 -0.3692004  -0.23195101 -0.04151905  0.5176763  -0.00170952
 -0.34771496  0.24324915  0.14450383 -0.0989515  -0.01388206 -0.02847993
  0.26406637  0.16063951 -0.0444403   0.2712967 ]
[ 0.22492416  0.19297294 -0.4788829  -0.08654848 -0.24598992  0.30557224
  0.13297871 -0.19742893  0.31439808  0.24536954 -0.20593897  0.27926135
  0.00678938 -0.27140656 -0.16746674 -0.07236282 -0.10205098  0.17064069
  0.21780391  0.04982894  0.35598788 -0.00490263  0.15370128  0.01971887
 -0.02073542  0.20348455  0.241898   -0.23068792 -0.0456312   0.0031157
  0.11682687 -0.18676214 -0.284249   -0.04757649 -0.3602921   0.2800818
 -0.2830396  -0.0293534   0.1626718  -0.08229598]
[-0.11732941  0.26762125  0.04105067  0.14107727 -0.0213719  -0.13995989
 -0.13184373  0.17625426  0.19433044  0.09963616 -0.10723177 -0.02595912
  0.13276203 -0.2288118  -0.121331   -0.13871099  0.00618244  0.02543039
  0.30351952 -0.2628261   0.02202014  0.2022721   0.08032293 -0.13477492
 -0.01092175  0.00134718 -0.15438926 -0.1957183   0.25425148  0.3602648
  0.08441069  0.11198112  0.17695566 -0.16691981 -0.2633403   0.15682675
 -0.14913598  0.05020531  0.25531596  0.23247708]
[ 0.03880629  0.27001315 -0.41075408  0.13711861 -0.35147303  0.00498611
  0.03657364  0.23689106 -0.07286353  0.14124058  0.01945279 -0.00266858
 -0.03314435 -0.24326797  0.11614014  0.16174532 -0.07063251  0.05330182
  0.13591725 -0.29489884  0.01288759  0.00922056  0.02591611  0.10273604
 -0.06503755  0.23593126  0.12448701 -0.26458997 -0.10872365  0.06697146
  0.23025672 -0.31402355 -0.09129404 -0.26795626 -0.2667509   0.04030231
 -0.16995162  0.02580425  0.0421273  -0.1619218 ]
[ 0.07823419  0.1596356  -0.20720989 -0.04828675  0.03969229 -0.2415088
 -0.12844679 -0.07111021 -0.1726968   0.1727468   0.03911908 -0.05352328
 -0.18810716 -0.5316244   0.09058044  0.26779813  0.01997225 -0.16500212
 -0.32576016 -0.25777635  0.02294374 -0.18650466 -0.06264675  0.09792913
  0.04061231 -0.05525791  0.38344136 -0.17641449 -0.10706139  0.4067344
  0.18825446 -0.2887404   0.15980314  0.15430532 -0.19990826  0.1114449
  0.14046142 -0.12610088 -0.01506621  0.00967005]
[-0.04535578 -0.08405551 -0.11211897 -0.09835037  0.1327844   0.00147783
 -0.07182733  0.16611025  0.05436011 -0.07639246  0.10119908  0.02699971
 -0.02113486  0.08158722  0.12810825 -0.15712488  0.30052048 -0.17066978
  0.1353454  -0.19732435 -0.04454346 -0.1716445  -0.07874797 -0.21991158
  0.3111551   0.01650593 -0.2937627   0.02039355  0.01388603 -0.05107727
  0.15948735 -0.13703375  0.11111613  0.11776815  0.20591177 -0.30548483
 -0.10891117 -0.207377    0.03147981 -0.19700624]
[ 0.03719695  0.10190281  0.25040597 -0.20938917  0.07733863 -0.09417021
  0.240941   -0.06828303  0.17404395 -0.03586321  0.13541037 -0.10934144
 -0.08284443  0.09397954 -0.2056531  -0.06279998  0.03645561  0.00618311
 -0.12307761 -0.00481976 -0.06592358 -0.16577171 -0.15247662  0.01090375
  0.05827999 -0.02834333 -0.23323932  0.02101241 -0.14810637  0.08281166
 -0.14170483  0.0406896   0.16114931  0.03515367  0.32082102  0.22802135
 -0.02321621  0.00325504  0.18283229  0.23402564]
[ 0.08510267  0.0541104  -0.06121285 -0.04080245 -0.11793871 -0.03282123
 -0.05594971  0.20661546 -0.16420875 -0.06326958  0.33175462  0.3872404
  0.09880853 -0.35700196 -0.10113374  0.4797213   0.08729654 -0.14164315
  0.01187149 -0.27766517  0.0089433   0.0419811  -0.04708188 -0.22242792
  0.17207278  0.01500968  0.25381446 -0.00175141  0.19783883  0.02562486
  0.21027908 -0.08730786  0.11624461  0.17945501 -0.28116235 -0.18765904
 -0.06672289  0.15137424  0.28264812 -0.12947312]
[ 0.0093899  -0.07089951 -0.15616077 -0.03924854  0.18294086  0.00360949
 -0.04757566  0.02215362  0.06004833  0.12142732 -0.17870843  0.01120588
 -0.03008161  0.41616377 -0.29332528  0.07453565  0.11705822  0.01678311
  0.10764197 -0.2253061  -0.06875257 -0.07242273 -0.13984737  0.10854856
 -0.01869942  0.13541335 -0.12640111 -0.04053637 -0.3620828  -0.09002408
  0.18428938  0.14876969 -0.17674771 -0.14141072  0.38249773  0.25444847
 -0.02477368 -0.11125385  0.06880011  0.2861085 ]
[-0.10364554  0.04816126 -0.06036219 -0.32640108  0.20173383  0.12428668
  0.14220281  0.12754612  0.23615642  0.16416027 -0.14944825  0.01618566
  0.03151822  0.22454265 -0.15209262 -0.03745325 -0.18462905  0.04151936
  0.08939806 -0.25149342 -0.10230218 -0.18417777 -0.28003615 -0.19483654
 -0.3452921  -0.33054915 -0.16962388  0.1163775   0.38251987 -0.04665028
 -0.24134202  0.00084505 -0.23529835  0.04403565 -0.15419468 -0.16151129
 -0.12000963  0.05766102 -0.00187784  0.19514215]
[ 0.0338086   0.10676996  0.12841548  0.15358044 -0.2316197  -0.05046208
  0.02324606  0.19069114  0.09094588 -0.16465007 -0.36669412  0.05829751
  0.31949356  0.16752256  0.03863252 -0.26184437 -0.31490028 -0.34988573
  0.04572718 -0.25424886  0.1734756  -0.04573846 -0.10717051  0.07084288
 -0.25819546 -0.31718883  0.23176058  0.18128558 -0.28804848  0.0380869
  0.01737621  0.04199055 -0.12793209  0.0392599  -0.11898567  0.08574404
 -0.12386979  0.14843573  0.2932854   0.3941384 ]
[ 0.23990265 -0.12330825 -0.06250598  0.16092247  0.08206511 -0.38241172
  0.14472002  0.38613775 -0.42223707  0.07425682 -0.05923036  0.08411632
  0.01420096  0.06278155  0.3329687  -0.0622481  -0.02930211 -0.3385119
  0.02773173  0.14692529 -0.1598606  -0.03614442  0.1345605   0.04995421
 -0.20903172 -0.12780692 -0.14945054  0.15938596  0.21828824  0.17832641
  0.06612158  0.219566    0.19363815  0.10154919  0.2580637  -0.05404254
  0.2610388  -0.14231864 -0.07772394  0.0152121 ]
[ 0.26168647  0.01161386 -0.18032762  0.07406177 -0.06178891 -0.01923284
 -0.08152448 -0.08255453  0.18479821  0.02719297 -0.02691707  0.04829904
  0.04467345  0.16474389 -0.06245835  0.08312913  0.04269385 -0.07297467
  0.00909151 -0.12601408  0.32693928  0.15386984  0.03790623  0.06779901
  0.27841917  0.12393477  0.07208579 -0.5634009   0.02075607  0.12035904
  0.07290627 -0.13591526 -0.06725209 -0.3037252  -0.02055505  0.20659377
 -0.12609476  0.02254137 -0.09033325 -0.03514722]
layer 3 Activation
tanh
layer 4 Dense
40 20
[-0.21867226  0.33922556 -0.17172249 -0.06367973 -0.31747943 -0.06023873
  0.14019848  0.17877455 -0.17433678  0.08975928  0.03862975 -0.10735384
 -0.16791049 -0.30298495 -0.42419353 -0.0201929  -0.3360889  -0.07072209
 -0.03084712  0.06992   ]
[-0.05751438  0.16416381 -0.15975513 -0.21644951 -0.15747963  0.12261388
 -0.10680544  0.07914468  0.09419074  0.28228506  0.19954336 -0.08373804
 -0.16132383 -0.16655497  0.05465035 -0.2793129   0.18482786  0.17371298
 -0.03873115 -0.00986947]
[-0.07674701  0.25092524 -0.005094    0.20651607  0.2373392   0.18396106
  0.03717387  0.16722898  0.20188293 -0.06294342  0.16673893  0.23289779
 -0.17349537  0.18326241 -0.10167553  0.19097374  0.18156648  0.18910477
 -0.02187644 -0.08498483]
[-0.140586   -0.32429615  0.31127125 -0.21513063 -0.24391182  0.04315623
 -0.13936406  0.13112915  0.15937516  0.33961436 -0.23583739  0.17850198
 -0.28710383 -0.14821094 -0.1381781  -0.22851141 -0.06865215 -0.09038128
  0.15222675  0.08845716]
[ 0.24771951 -0.20186488  0.31067446 -0.20822105 -0.20962164 -0.22479196
 -0.09800872  0.208341    0.30409595 -0.02666181 -0.19269462 -0.0419993
  0.11440308  0.00767807  0.04907217  0.03705234  0.2961964  -0.2464571
  0.03469643  0.16533872]
[-0.25397742 -0.20774315 -0.53529847 -0.10638449  0.12857799 -0.05700441
  0.2250214   0.315663    0.11978573  0.04013363 -0.24447836 -0.3457019
  0.26557544  0.02938914 -0.02355935  0.10247926 -0.23651616  0.06052338
 -0.2561585   0.27053022]
[ 0.14906058  0.10444634 -0.35755113 -0.37378433 -0.06913586 -0.16513918
 -0.37044537  0.24607618  0.07453838  0.29737264 -0.00433567  0.10500343
  0.01442685  0.01919979  0.25467753  0.13101366  0.02110589  0.33402246
 -0.12566106 -0.17348635]
[ 0.16596727 -0.0475519   0.15894529 -0.17262174 -0.3644886   0.24192151
 -0.10233907  0.27825952 -0.3308101   0.14050984  0.16451238  0.38496765
  0.17832053  0.04590742 -0.08225971  0.08964688 -0.26368427 -0.20285942
  0.25772214 -0.02062685]
[ 0.2391041  -0.07046314 -0.24674985 -0.01722041  0.09158193 -0.01970138
 -0.19398539 -0.09837233 -0.07242568  0.10926677  0.0391436  -0.3382506
  0.22403698 -0.21451467  0.00488964 -0.1852619  -0.2717144   0.21148716
  0.1902086   0.13787518]
[ 0.1230904  -0.21148293  0.2191549   0.26802608 -0.07612116 -0.28942928
 -0.13985717  0.08504379  0.12338205  0.05577656  0.28953522 -0.32001597
  0.16060457  0.06981956 -0.2840569  -0.25470573 -0.06873912  0.27162665
  0.14180468  0.11954398]
[-0.16247515 -0.2550558  -0.0047933  -0.05012072 -0.15933618  0.17438887
 -0.24396142 -0.11594518 -0.27870035 -0.16199128  0.1432966   0.06461903
 -0.24244922  0.2954592  -0.11908761 -0.1724076  -0.14239722 -0.05913078
  0.23936462  0.16426794]
[-0.22169347 -0.04405611 -0.24662814  0.28110707 -0.01190768  0.07331918
  0.16495155  0.35248652 -0.22432315  0.04817341  0.19577168 -0.28425387
  0.24134114  0.08513492  0.22342008 -0.21056056  0.13417509  0.24043916
  0.0973816  -0.07488584]
[ 0.05720786 -0.08812215 -0.18657903  0.16297598  0.22623041 -0.15928079
  0.05375014 -0.14518122 -0.3534689   0.25566474 -0.17657918 -0.08656904
  0.39427966 -0.30915043 -0.26348487  0.0344738   0.04562331  0.15173589
 -0.10006964  0.15680394]
[-0.1962634   0.11443453  0.07832     0.21075527  0.17702387  0.2950413
  0.25707173 -0.08470762 -0.22231044  0.15369006 -0.21860665  0.06214646
 -0.3117688  -0.14539734  0.13471012  0.17806384 -0.24529275 -0.10100998
  0.05078267 -0.22081715]
[ 0.06378229 -0.04417804  0.18735643  0.11816696  0.25521347  0.17544016
 -0.1340588  -0.03438333 -0.13913718 -0.16908114 -0.2278491  -0.17811947
  0.07622112  0.13066351  0.16402408  0.23764183  0.22608072 -0.07562818
  0.17301105  0.0959601 ]
[ 0.16137014  0.11318074 -0.17809348 -0.14251429 -0.11619043  0.2522654
 -0.1340848   0.34835038  0.02632139  0.17588884 -0.04763572 -0.14470342
 -0.05085893  0.06880934 -0.10788336 -0.03408936  0.02774423  0.09225786
  0.11744139  0.02457991]
[ 0.2230827  -0.07823826  0.26787615  0.01564022 -0.2780499  -0.0856512
  0.10113394  0.14680812 -0.04439429  0.04681214  0.14459704  0.12367521
 -0.16841605  0.02862259  0.10893786 -0.17763092 -0.00528636  0.03409246
 -0.07027799  0.0544913 ]
[-0.20009561 -0.3436872   0.10017353  0.10977583  0.02021763 -0.00403762
 -0.02044852  0.08785179  0.23695107 -0.00563726  0.2745498  -0.21772721
 -0.29814672  0.3090378  -0.06152429  0.11526373  0.08410952 -0.02270896
  0.0394378  -0.1497418 ]
[-0.15572384 -0.05979869 -0.23975427  0.01595713 -0.14164436  0.2629855
  0.23621708 -0.21144591 -0.3100333   0.16844352 -0.1361857  -0.0352212
  0.22219758 -0.32773873 -0.06542613  0.13322268  0.21021931 -0.28729135
 -0.13640274  0.20504008]
[-0.07299531 -0.00859618  0.43098116 -0.00639065  0.02345514  0.17205155
  0.04938685 -0.13604936  0.25260997  0.02867368  0.06671703  0.2329183
 -0.32541364 -0.00552839 -0.06980445 -0.2497555   0.4130277   0.19731896
  0.10412566  0.18216228]
[ 0.1348231  -0.1554032   0.08333161 -0.2234398  -0.19206645 -0.2989449
 -0.05787436  0.04997808  0.03586008  0.25747204  0.04503388  0.00278529
  0.01130964 -0.44230133 -0.09089381 -0.11128815 -0.4254625   0.31636098
 -0.06204973 -0.10101245]
[-0.2229432   0.00943849 -0.18835588 -0.0279009  -0.03046237  0.18498172
  0.18637632  0.17726563  0.0776975   0.13068247  0.03062    -0.21673948
 -0.2895503  -0.03048865  0.05925458 -0.06724088 -0.17350356 -0.18496378
  0.02570634  0.17973326]
[ 0.16481636  0.2649875   0.5132609   0.10184345  0.14233531  0.17116895
 -0.0613848  -0.05309677  0.28635868  0.04886519 -0.03661023  0.18272038
 -0.21279459 -0.01960052  0.17329864 -0.14527903  0.21717265  0.20650116
 -0.0849618   0.13695237]
[-0.11902894 -0.08184461  0.00751486 -0.0901431   0.33813837 -0.11582324
  0.00393934  0.03441794  0.13388586  0.43079102  0.2756626  -0.20973364
 -0.09522402 -0.2865988  -0.09187602 -0.00570963 -0.03711861  0.26166785
  0.27861077  0.23185708]
[-0.04037798 -0.04649539 -0.11459341  0.05160247 -0.08522218 -0.09615576
 -0.10957213  0.23229128 -0.23693512  0.23778535  0.2319743  -0.02739097
 -0.13224868 -0.2448478  -0.1265164  -0.19109769  0.02964433 -0.0018275
  0.0013602   0.09855976]
[-0.1014014  -0.1429867   0.3472903  -0.00114033 -0.22490016 -0.14491749
 -0.08152476  0.07671379 -0.02088009 -0.25678617 -0.02530929 -0.0093582
 -0.25660238 -0.14386019 -0.11684324 -0.05797118 -0.2307787  -0.03790787
 -0.06247118 -0.14027528]
[ 0.25260714 -0.03944123  0.01832118 -0.15989202  0.36968765 -0.14523749
  0.07832289  0.1796188  -0.18564335  0.09527014  0.0724732   0.34395212
 -0.29148024  0.10289329 -0.2157002  -0.44377196 -0.12369116  0.13835183
 -0.19232224  0.0439623 ]
[ 1.51745185e-01 -2.27924079e-01  1.69191826e-02 -9.21220332e-02
 -5.88178895e-02  4.68713455e-02  9.22377408e-02 -1.71533272e-01
  2.04686832e-04 -2.79399514e-01  6.22031540e-02  4.02916938e-01
  1.22610636e-01  3.13355982e-01 -1.15620114e-01  3.59202296e-01
  5.52145839e-02  2.12875217e-01 -2.03383844e-02 -2.99551189e-01]
[ 0.040326   -0.0154418   0.16012882 -0.18002988  0.07773998  0.06609678
 -0.15704247  0.08514713 -0.24585357  0.31211388 -0.02761742 -0.46959922
  0.42998883 -0.14401022 -0.02239013  0.14507692  0.11289433 -0.09234371
  0.18115164 -0.20815769]
[-0.0021416   0.00756776 -0.31914395 -0.04135046 -0.19669688 -0.11991002
  0.11966251  0.27744704  0.17018375  0.30612132  0.23610452  0.00577313
  0.32535973 -0.30964303 -0.16943452 -0.03274845 -0.21420984 -0.09985217
 -0.2776689   0.14579673]
[-0.17874491 -0.0506639   0.05514495  0.07867976 -0.25660208 -0.13075152
  0.00741391  0.22436954 -0.00145111  0.30645105 -0.00092714  0.21764879
  0.04013686 -0.17156169  0.07478599 -0.32564634  0.02064404 -0.0113241
 -0.19395939 -0.05340245]
[ 0.07340349  0.15861881 -0.00109677 -0.0752157  -0.0190957   0.01686617
 -0.11702447  0.07877413  0.28621486  0.11831402  0.04268338  0.01630502
  0.16212802  0.10392041 -0.2320016  -0.06405205  0.32028762  0.14429441
 -0.24970251 -0.19574681]
[-0.25046885 -0.12969063  0.40801895 -0.0845645   0.22962072 -0.11352133
  0.3046829  -0.08828724  0.2507667  -0.2932429  -0.18455201  0.28516352
 -0.18814075  0.22973697 -0.02543406 -0.28408262  0.19113135  0.11483101
 -0.13020585  0.18971914]
[-0.12155401 -0.03829069 -0.13769524 -0.08558968  0.06125782 -0.05939638
 -0.03273562  0.10465754 -0.08345883 -0.09838354 -0.04764154  0.3435594
 -0.07048158  0.19089943 -0.07414325  0.17571755 -0.15997635 -0.11010981
 -0.27759907 -0.14117163]
[-0.2574606  -0.24805638  0.19385552  0.05407912  0.07430518  0.0876823
 -0.07512354  0.07930514  0.05740681 -0.16499901 -0.28496546  0.3095724
 -0.2930293   0.2238034   0.23912004 -0.12186558 -0.19083081  0.05396229
 -0.0228455  -0.19220664]
[-0.03747531 -0.05086791 -0.11215756  0.3197864   0.16600585  0.01429998
 -0.23166214  0.16017267 -0.03901584  0.11294173 -0.23150103  0.01243845
 -0.21463421 -0.02262317  0.1625534  -0.16416906 -0.13084596 -0.29056692
  0.06915947 -0.0909958 ]
[ 0.2011496   0.26576126 -0.18646929 -0.25757346 -0.08124408  0.21998678
 -0.07541826 -0.17069417 -0.17952693 -0.01261765 -0.29031813  0.39983663
 -0.05745298  0.14555746 -0.17796174  0.2913837  -0.15109234  0.03400547
  0.02274867 -0.39480898]
[ 0.30757838  0.10083369 -0.24579534 -0.02644439  0.29446745 -0.06581316
  0.14035308 -0.13167056 -0.08206855 -0.08822488 -0.0800648  -0.0855214
  0.02030693  0.10535853 -0.21557741 -0.14302179 -0.09227718  0.13929427
 -0.03841212 -0.0458869 ]
[-0.13466032  0.10273165 -0.03322528 -0.08698767  0.35884026 -0.13199219
  0.30509904 -0.04289018 -0.03272016  0.4403346   0.13365161  0.10847142
  0.04510454  0.1054589  -0.08133063 -0.30549374  0.08047157 -0.07006437
  0.06984592  0.066237  ]
[-0.20515737 -0.09268495  0.12674004  0.10508732  0.04641416  0.14909653
  0.04157763  0.0371517  -0.0461076   0.13090593 -0.04110848  0.00053651
  0.386268    0.04404216  0.18489853  0.25479096  0.11946677  0.38583666
  0.1424254   0.20387149]
[ 0.06839378 -0.10159334 -0.0982907   0.08954522  0.01025928  0.05476075
  0.02693058  0.09475335 -0.08026374  0.0766504  -0.06675463 -0.03825317
 -0.10216253 -0.03893179 -0.08655223 -0.22494502  0.00758238 -0.07976094
 -0.06828676  0.01543222]
layer 5 Activation
tanh
layer 6 Dense
20 1
[0.01243465]
[-0.01382358]
[-0.02198083]
[0.03289857]
[-0.00179828]
[0.05976247]
[0.02450426]
[0.03906748]
[-0.09175365]
[-0.05444911]
[0.01941976]
[0.09879152]
[-0.1139463]
[0.12010228]
[-0.01949616]
[-0.11131317]
[0.09241758]
[-0.02881329]
[0.00553318]
[-0.03071704]
[0.22645378]
