layers 7
layer 0 Dense
20 20
[ 0.36741015 -0.00777048 -0.13802934 -0.25219056 -0.18444416 -0.11743603
 -0.05793483 -0.38231862  0.3347696  -0.16138214  0.4429577  -0.04680635
 -0.04930162  0.00098545  0.12579931  0.17406164 -0.05244949 -0.40853637
 -0.16984572 -0.29000807]
[-0.01671946 -0.03319296 -0.4409049  -0.47218326  0.19116506  0.11099444
  0.3032893  -0.2322836   0.2333055   0.1426665  -0.00641959  0.044088
 -0.16999216 -0.3937634   0.19622606 -0.02024127 -0.5913621  -0.00373176
  0.05193519  0.21449222]
[ 0.044228    0.07533593 -0.34802285 -0.2663265   0.5767865   0.109661
  0.07585768  0.30070063 -0.3326999   0.13801435  0.45632762 -0.18339118
 -0.7158953  -0.39135733  0.17600994 -0.21990389 -0.5736771  -0.03726302
 -0.20465864  0.5111159 ]
[ 0.34941563  0.6265958   0.18773681  0.32468376 -0.34171793  0.17974885
 -0.02448475 -0.26881754  0.02022292  0.1728679   0.02612579 -0.49183756
  0.15828635 -0.2313843   0.06454023  0.071174   -0.6097258   0.205538
 -0.20875402  0.30845773]
[-0.18572418 -0.28539407 -0.24490342  0.39527377  0.30977654 -0.16369079
  0.16661438 -0.11854567 -0.22449303  0.05042008  0.20399657  0.09295173
 -0.01703046 -0.25172144  0.21671775  0.14142151  0.28814197  0.25608194
 -0.01263936 -0.37044078]
[-0.01989243  0.15483543  0.46484384  0.28781483 -0.2427123  -0.31492183
 -0.14980222  0.34791094  0.24648038  0.12560607  0.08473258 -0.5344586
  0.45902437  0.11155407  0.5045589   0.6355521  -0.00430712  0.62689894
 -0.27161074 -0.3508196 ]
[-0.40355983 -0.18764462  0.19189997  0.44654912  0.05104546  0.0427698
 -0.30736825  0.2448364  -0.24992469  0.08426211 -0.3293233  -0.3095738
  0.21960679  0.22991782 -0.1102256   0.00737837  0.23690772  0.6171606
 -0.29210666 -0.33600813]
[-0.36297616 -0.16327298  0.43961132 -0.17666318 -0.19886681 -0.34258443
 -0.48826277  0.33691797 -0.34535575  0.22396506 -0.32605246 -0.26899403
  0.27048117  0.4370398   0.1910808  -0.15253004  0.3927005   0.21450001
 -0.2888213   0.33470213]
[-0.04285198  0.29333508  0.47428894 -0.37244293  0.39621204 -0.26763985
  0.32998985  0.12911208  0.43022183  0.15591776  0.13324331 -0.18065499
  0.32433835 -0.17883012 -0.3535319  -0.3265122  -0.48048025 -0.18066826
 -0.05904129  0.3314114 ]
[ 0.19149089  0.19128543 -0.02075323 -0.49519855 -0.13078631  0.23741941
 -0.40643257  0.08282016  0.28467792  0.03262787  0.2070677   0.05406668
 -0.14035621 -0.0606108  -0.08289711  0.1607949   0.55410796 -0.07922626
  0.04845383 -0.03548242]
[-0.43719512 -0.125567    0.11010306 -0.27802446 -0.42927557 -0.4058115
 -0.28331298  0.05926105  0.0721859   0.10496257 -0.58128595  0.17876066
 -0.21587087  0.3611106  -0.07158903 -0.5307928  -0.21465419  0.47632575
 -0.11900266 -0.16743907]
[ 0.74628896  0.7704411   0.10995635 -0.36822155  0.1321349  -0.30968854
  0.5117843  -0.12418125  1.0494593  -0.54005307  0.30921438 -0.4219286
  0.4004644  -0.57379484 -0.75127304  0.44612125 -0.56830597 -0.31730843
  0.03267378 -0.31862947]
[ 0.13317904  0.1774627  -0.26031363  0.22842123 -0.1680533   0.02229921
  0.2287898  -0.26780602  0.01274375  0.05383807 -0.15702094  0.25920612
  0.26347762  0.225867    0.42425862 -0.11817752 -0.20057541  0.21626805
  0.22390324  0.13502711]
[ 0.10994098 -0.13441636 -0.20765387  0.11961254  0.27079502  0.3308383
 -0.4499671   0.2565569  -0.17795976  0.05501508  0.14267063 -0.40423292
 -0.40106726 -0.10961156 -0.2835827   0.20690012  0.05801655  0.00707111
  0.26451856 -0.2784598 ]
[ 0.17292678  0.14768569 -0.19382681  0.26327783  0.09113812 -0.14060193
  0.11942928 -0.03229811 -0.38804623  0.05175141  0.2639916   0.00510175
 -0.32217017 -0.01687376 -0.25116152  0.01332226 -0.2006442   0.05250169
  0.23458423 -0.07375349]
[-0.36852562  0.37368962  0.31139356  0.17147148 -0.6039838  -0.04105786
  0.00121002 -0.5676771  -0.45492393  0.33658934 -0.15170467  0.12316105
 -0.0285768   0.20680025  0.4552378   0.17232035 -0.71290106  0.45244098
 -0.01446645  0.36677912]
[ 0.07082146  0.2254687   0.06088881 -0.13965243 -0.38085532  0.43414894
 -0.23045857  0.08375125  0.23789202 -0.19888179 -0.29221272 -0.23150143
  0.06323643 -0.09363025 -0.05090392  0.18480377 -0.16116987 -0.19271345
 -0.12093478  0.29431263]
[ 0.41368523  0.2510576   0.07184493 -0.26511434  0.27499092  0.33038962
  0.25255805 -0.03574117 -0.1976106  -0.10357451  0.13902631 -0.1543122
  0.23006366  0.28384858  0.12010725  0.14727218  0.29886255 -0.2882295
 -0.24596855  0.09144213]
[ 0.04524866 -0.5450821   0.19474968  0.462969   -0.03315025 -0.04669708
 -0.39446172  0.10295849 -0.05450575  0.5580904  -0.09839671  0.42657775
  0.43095464  0.14838889  0.33391702 -0.02942798  0.25927985 -0.6463911
 -0.13355769  0.02579216]
[-0.25935528 -0.5187486  -0.36528277 -0.5054303  -0.4140692   0.430265
 -0.3618619   0.3029059  -0.32596117  0.13233674 -0.32156527 -0.00268416
 -0.04209233 -0.20528208  0.3722341   0.05528712  0.6923538   0.31360716
 -0.07953256 -0.28420055]
[-0.03017166  0.10820978 -0.02477111  0.08038926  0.06675325 -0.110145
  0.07431541  0.05798097  0.03830507 -0.06908537  0.09709924 -0.05782896
  0.0619768  -0.07200572  0.00442092  0.0716576  -0.13326666 -0.02227034
  0.00720497 -0.00640984]
layer 1 Activation
tanh
layer 2 Dense
20 40
[-0.18593514 -0.19988894 -0.34096372 -0.08588182 -0.09529242 -0.03317512
 -0.1626171  -0.2668754  -0.4004926  -0.02890048  0.20170648 -0.07752592
  0.10061871  0.22749838 -0.02596208 -0.1713808   0.00712424 -0.10793616
  0.06634144  0.15006043 -0.07071859 -0.14423959 -0.03536341  0.2821141
  0.22335517  0.23223221  0.05546577  0.29378435  0.30256146 -0.31802925
  0.1225656   0.14574726  0.14825492 -0.3001499  -0.09007157 -0.03351658
 -0.06398604 -0.3213677   0.18117301 -0.17767842]
[ 0.03099286  0.12558863 -0.30735233 -0.17105508 -0.28063872  0.18100859
 -0.15842648  0.04862351 -0.3157628   0.07775544  0.04249883 -0.09397943
 -0.04672711 -0.08021262 -0.30473384 -0.06028302  0.30256623  0.2121853
 -0.27517954 -0.35463643 -0.06437521 -0.36639556  0.2323211   0.0200195
  0.23328187 -0.10956107 -0.16262233  0.41546756  0.10061623  0.18337287
 -0.26679137  0.11261034 -0.13580069 -0.11989478  0.04742312  0.07137275
  0.21191157 -0.38853174 -0.08470462  0.05411509]
[-0.08353596  0.02174278  0.24671827  0.2540189  -0.0542904  -0.31040573
  0.00637357  0.01870123 -0.38919434 -0.37535673 -0.27406976  0.01944667
 -0.26158303  0.18423946  0.08956655  0.235068    0.25394887 -0.1032327
  0.2721434  -0.25820982 -0.3222413   0.1197082  -0.14564562  0.03221919
  0.25583136 -0.34951398  0.35898414  0.29438746 -0.33111817  0.29596967
 -0.03403332  0.28428063  0.0721465  -0.138458   -0.07469767  0.01541137
  0.16631672 -0.07557341  0.17198928  0.22951853]
[-0.11116433 -0.24151531 -0.00325413  0.22456193 -0.25265837  0.23318674
 -0.17624971  0.01333794 -0.04267916 -0.10544863  0.01769503  0.1723744
  0.08719365  0.2948746  -0.2068434  -0.22191656  0.22338624 -0.15180472
  0.21103123  0.03726494  0.10434873 -0.08447696 -0.06433623 -0.11772415
 -0.34264466  0.05727854 -0.09492265 -0.3225189   0.33193168  0.14774017
  0.21746545 -0.01480925  0.17155437  0.28553453  0.38722938 -0.08270729
  0.10511237 -0.11144435  0.1594328  -0.07728773]
[ 0.20232719 -0.00412709  0.23408103  0.00093957 -0.13171619 -0.18118714
  0.2910448  -0.33483553 -0.24188028  0.19254313  0.01355685 -0.02665204
  0.16531532 -0.03957916 -0.34310335  0.08328982  0.2603526   0.1693714
 -0.06496938 -0.12609482 -0.09715887 -0.12337867 -0.33568802  0.00128427
  0.08365    -0.02620015 -0.2639612   0.24311914  0.04769907 -0.2484342
  0.08090922  0.02385185  0.14078337  0.23940709  0.1994268   0.13034913
  0.10676911  0.04509165  0.11196838 -0.05976523]
[ 0.14225759 -0.04709797  0.08059265 -0.20038523 -0.17382933 -0.22410998
 -0.12836076 -0.2009545   0.28740242 -0.24089308 -0.10827731  0.11586062
  0.03303621 -0.2503926  -0.14619115  0.02171497 -0.08437273 -0.23031202
 -0.09762193  0.2076097  -0.21260007  0.09898826  0.00587439  0.12861069
  0.01293985 -0.02303092 -0.15724958 -0.10894684  0.03990673  0.14244328
 -0.1536323  -0.16050771  0.20742197 -0.32132605  0.16374178  0.12044486
 -0.1533462   0.16324577 -0.07322507 -0.02086966]
[-0.01564727 -0.24901547 -0.28039294  0.18898669 -0.21815549 -0.08457775
 -0.28263345 -0.19690047 -0.4736149   0.2334732   0.11129425 -0.04644233
 -0.03963678 -0.18479304 -0.16052683 -0.22199006 -0.21233799 -0.13531052
 -0.1847586  -0.10251362  0.32874027 -0.3655677   0.21209368  0.2504575
 -0.06654957  0.16416828  0.09796343  0.3731733   0.32320914  0.27387294
  0.07614525 -0.18757431  0.13173719 -0.02497169  0.12795807 -0.30692083
  0.09351774 -0.30452013  0.07147354  0.12373949]
[ 0.15007892 -0.10931047 -0.11284686 -0.21248703 -0.10977878 -0.08256272
  0.19113106 -0.10427959  0.31556118  0.06700315  0.13161005  0.2502952
  0.04165031  0.26925084 -0.22467352 -0.25128996  0.10888858 -0.03052274
  0.18981446  0.28072324 -0.003908    0.39147264 -0.08694386  0.05621466
  0.35209337 -0.15828963  0.2058272  -0.0251569   0.02799089  0.04291869
 -0.02076761 -0.13810901 -0.22310424 -0.02423801  0.10746527 -0.188123
  0.286873    0.3024357  -0.06819681 -0.13785471]
[-0.2112331  -0.11754062  0.11296991  0.19055454 -0.02993548 -0.15376951
  0.0573249   0.15981053 -0.4274098   0.1517474   0.18192874 -0.03077852
  0.26224267 -0.09418356 -0.28909636 -0.1002672   0.00661491 -0.11094519
 -0.07583565 -0.28623205  0.18574256 -0.11317836  0.34116057 -0.00997138
 -0.22843398 -0.0492007  -0.08652262  0.3370587   0.21215226  0.16136268
  0.22829781 -0.03960194  0.25455207  0.33311525 -0.524508    0.18787839
  0.29214263  0.1270915  -0.09331306 -0.1456092 ]
[-0.28697625  0.17681888  0.18971106 -0.07434027 -0.1931652  -0.09340999
 -0.0271514   0.13280928 -0.29393274 -0.16683532 -0.20150065  0.14604056
 -0.24287812  0.07505181 -0.23960991  0.12242311 -0.08337869 -0.03901807
 -0.01472148  0.08534339  0.03445098 -0.00810639 -0.21264663 -0.21990243
  0.00725408 -0.3512131   0.14915422 -0.14598231 -0.0274563  -0.39331454
 -0.23147108 -0.08186296 -0.23701467 -0.01864482 -0.1386326  -0.07311808
 -0.03697608 -0.00844696  0.01333706  0.22164787]
[-0.00955946  0.1425532  -0.2207965   0.01279886 -0.23540701 -0.01886155
  0.12178529 -0.35534176 -0.13071841  0.10483167  0.10738524 -0.30677494
  0.17025194 -0.1991613  -0.20210563  0.23699604 -0.1863326  -0.2206319
  0.0897877  -0.07935698 -0.13385129  0.09779799  0.13786387  0.07503939
 -0.29410693  0.42710185  0.19381855 -0.06692417 -0.02850802 -0.12685485
  0.00289548  0.11924163 -0.11373609 -0.09604092 -0.2143046   0.01779571
 -0.3138188  -0.38655916 -0.18685974 -0.12847929]
[ 0.16147965  0.03936341  0.24825984 -0.18464343  0.05381583 -0.189434
 -0.05872884  0.0617011   0.06061168 -0.31683132 -0.2995885  -0.08771861
 -0.11445388 -0.21524513  0.26640552  0.23766182  0.08558906 -0.05704226
  0.2496106   0.34900635  0.07335415  0.24850033 -0.15387648 -0.22167473
 -0.02704654 -0.20371911 -0.1476644   0.03308903  0.167589   -0.02802822
 -0.2740522  -0.11846502  0.2679117   0.3273259   0.06584943 -0.25598118
  0.0408689  -0.08752852 -0.21891539  0.2095794 ]
[-0.08194174  0.05617595 -0.19534698 -0.23398456  0.27882013 -0.00713878
  0.17474271  0.13453832 -0.01983311  0.1784698   0.03279239  0.22061913
  0.2660456   0.27311334  0.00801548 -0.3041543  -0.29860023 -0.118067
  0.10343688 -0.07344359  0.0399626   0.27359685  0.03033969 -0.17845814
 -0.07703464  0.19671044  0.20302942  0.08177186 -0.3490673   0.11091033
 -0.13853149 -0.04552023 -0.032371   -0.20397149 -0.03395262  0.09570622
  0.28356808  0.12439567 -0.16814247  0.05645931]
[-0.05742733  0.20168233  0.07263746  0.18838412  0.21995766 -0.2522853
  0.24653977  0.38482517  0.571335    0.43735558  0.4444864   0.11272629
 -0.1226835  -0.1303535   0.32962713  0.14730616 -0.23729439  0.27867255
 -0.2583915  -0.02692164  0.09938315  0.156818   -0.32711232 -0.20447746
  0.34811202  0.07669231 -0.18446705 -0.30071792 -0.14001767  0.02680383
 -0.01804583 -0.02140807 -0.15177839  0.02119035  0.13997203 -0.10250132
  0.032204    0.23262341  0.1663017   0.18614839]
[ 0.18247372  0.11999225  0.03513442 -0.06731727  0.09747986 -0.16527855
 -0.15992668  0.42502943  0.03228952 -0.3967458  -0.2200446  -0.21557815
  0.10863969 -0.10719576  0.02416447  0.04996578  0.15811935 -0.1655659
  0.2822433   0.18392736 -0.00568824 -0.0034651   0.17776132  0.33252588
 -0.05674262 -0.11265358 -0.19277264 -0.09475519 -0.11879233  0.0330567
 -0.08194749 -0.07029023 -0.09342433 -0.2085373   0.05787045 -0.01416786
 -0.09677868 -0.24380253 -0.08659796 -0.12125282]
[-0.07446787  0.27412263 -0.02615421  0.16347368 -0.2710289   0.01595355
  0.04430335 -0.16455889 -0.17418297  0.14902811 -0.19316725 -0.3444326
 -0.2480035  -0.19636628 -0.31950864 -0.22597098  0.2365329  -0.1098498
 -0.17431714 -0.17402917 -0.09761912 -0.10521778  0.330447    0.27841306
 -0.12329301  0.39388776 -0.17176172 -0.19851744  0.2297354  -0.33036032
  0.11173042  0.23919483 -0.06567431 -0.30683628  0.11493763  0.07879426
  0.19391342 -0.29532394 -0.21967506 -0.2093153 ]
[-2.90571880e-02 -3.68846655e-01 -1.15968205e-01 -2.08660558e-01
  6.60160482e-02 -5.03862798e-02 -9.82097760e-02  1.09573960e-01
  1.82900801e-02 -5.12061656e-01  1.62520036e-02  1.72164291e-01
  4.61464785e-02 -2.10741982e-01  2.69352078e-01  6.20217957e-02
  2.92320222e-01 -1.70888156e-01 -2.32938230e-01 -2.38215812e-02
  2.35632539e-01  3.08012515e-01  3.25232558e-02 -9.71223637e-02
 -1.19410455e-04 -3.63217324e-01 -3.13689739e-01 -3.01415563e-01
  2.11154073e-01 -6.20302372e-02  5.00058472e-01  2.79192120e-01
 -7.44015798e-02 -7.76336566e-02  1.17124639e-01  2.22138375e-01
 -2.52338529e-01  2.78045714e-01  2.19953448e-01 -2.75683105e-01]
[ 0.1762479  -0.208918   -0.23619491  0.11616003  0.08032216  0.20629658
  0.03345866  0.23383988  0.5349374  -0.29576164  0.36973652 -0.11550619
 -0.12184552  0.15513165  0.3414363   0.05973391 -0.08766805 -0.3050212
  0.26413155  0.3517812  -0.33724296 -0.44831508  0.00360695  0.21667978
  0.37598982 -0.19363749 -0.30818966  0.16970955 -0.16673641 -0.03246745
  0.30275503 -0.20638886 -0.26920596  0.18780266 -0.03008342 -0.11786332
 -0.16791171 -0.01231238 -0.01454956  0.22382954]
[-0.33373284 -0.24809854  0.05897759  0.33065686 -0.15027769  0.03769967
  0.08020541 -0.04491282  0.319578   -0.29099283  0.22916059  0.11868048
  0.12145613  0.15914887 -0.08772623 -0.1532947   0.1049876   0.12329739
 -0.09095653 -0.17306744  0.3407722  -0.01959841 -0.26546586  0.15653576
 -0.37565777  0.0674962   0.08298796  0.06396436 -0.13944092  0.12515165
 -0.00960227  0.15491468  0.07534543 -0.13874273 -0.18814883  0.00131626
 -0.27975723  0.12904423 -0.06004123 -0.21200529]
[-0.08206536  0.12364898  0.03926407  0.25111535 -0.20003745  0.18459249
  0.04570027  0.2643677  -0.01888213 -0.07550992  0.00692972 -0.20056765
 -0.15861325 -0.07256465  0.21953951  0.2962627   0.30713496  0.2817166
  0.24620715  0.11631024 -0.25006214 -0.11104814 -0.04599525 -0.26986322
  0.09684438  0.22851588 -0.21642917 -0.20966004 -0.26089182  0.2731981
 -0.17020163 -0.24484962 -0.13463278  0.23043993 -0.3900588  -0.15356153
  0.12088424 -0.17907166  0.02075877  0.14836314]
[ 0.05643786  0.01298824 -0.02930542 -0.00568099 -0.07098514 -0.00240184
 -0.02841573  0.02444551 -0.02143024  0.11940483  0.00357251 -0.02983091
 -0.0015824   0.00957285 -0.17372209 -0.02067187  0.0057619  -0.01616189
  0.03877729  0.0033397   0.00697566 -0.04937355  0.00283064  0.07236678
 -0.08633266  0.05234229  0.00357743  0.05267798  0.00034815 -0.02711236
  0.02260928 -0.00585885 -0.00093242 -0.02128463  0.01157227  0.00082645
 -0.02363402  0.0048048  -0.08011698 -0.06260485]
layer 3 Activation
tanh
layer 4 Dense
40 20
[ 0.08720266 -0.09579952 -0.12797785 -0.1967035   0.02480666 -0.23199213
  0.21372725  0.18311118 -0.24281634  0.23229061  0.08080803 -0.246644
  0.17430286 -0.2636531   0.26629224  0.04792102  0.11980226  0.30307493
  0.15654863 -0.14691268]
[ 0.10722306 -0.21462171  0.26097676  0.1720666   0.24905246  0.04248242
  0.03573546 -0.03239048  0.13483071 -0.28376475 -0.05943733 -0.1201801
  0.18461384  0.07717775  0.2529042   0.20975259 -0.36705798 -0.26402208
 -0.09539273 -0.19807296]
[-0.22070302 -0.11417914  0.13527118 -0.04120269  0.4192145   0.08871531
  0.12450238 -0.01405868 -0.05264304 -0.07802352  0.13536327  0.04560399
 -0.12044348 -0.14937504 -0.31723067  0.1268673   0.0100774   0.28404737
 -0.09253892 -0.03032494]
[ 0.11000256  0.22496562 -0.08566009 -0.01190433  0.10910427 -0.27137923
 -0.14256752  0.04073063  0.04374759 -0.00980867  0.01998135 -0.11933044
 -0.13559043 -0.12428283  0.03537929 -0.13456227  0.01700277  0.01644205
  0.24372005  0.09230907]
[-0.20126134  0.04786839  0.17443772 -0.44893977  0.00167817  0.06825252
  0.10765322 -0.22774638 -0.25136757  0.17414469 -0.10829903  0.15078913
  0.02206183  0.20725137 -0.02450664 -0.16501196 -0.3772515   0.25914142
  0.12201402 -0.21380629]
[ 0.16960986 -0.1090043  -0.08248824  0.20682621 -0.07082796 -0.24883129
  0.23418246 -0.04215707 -0.00427887  0.00424883  0.25223422  0.08832537
 -0.04735073 -0.0177288   0.03614023  0.10317946  0.34204113 -0.24697864
 -0.12622015  0.12254271]
[ 0.03182092  0.19906129  0.36993766 -0.19706532  0.04089237  0.18719508
  0.0387429  -0.10442981 -0.2940342   0.18954968 -0.11486769 -0.34484535
  0.03865091  0.23100166 -0.21587744 -0.22601664  0.2945357   0.0189601
  0.11239336  0.01137556]
[ 0.22503313 -0.23074313 -0.26267236 -0.35996264 -0.20025082  0.01313621
  0.27511454 -0.24107     0.16665399  0.22826351 -0.00892219 -0.11158749
 -0.28771377 -0.14177804 -0.30423948  0.2812379  -0.3485124   0.34140784
  0.3109055   0.01818921]
[ 0.23639303 -0.08648781 -0.18154772  0.16628535  0.2661105  -0.25978932
  0.31306517  0.08802681 -0.03950565 -0.21239062  0.1310842   0.1295283
  0.14272428 -0.02975927  0.15888079  0.07539253 -0.06114157  0.29569298
  0.00681828 -0.27394205]
[-0.27266914 -0.14586808 -0.03918431 -0.10509609 -0.27801365 -0.18719755
 -0.26566672  0.04942738 -0.16812839 -0.16580361 -0.18085897 -0.07875591
 -0.01618742  0.17545292  0.30534753  0.17046909 -0.09896713 -0.02334491
  0.12263822 -0.2522121 ]
[-0.10507123 -0.11825467  0.24546736  0.27822182 -0.16218343 -0.1742161
  0.19681709 -0.21283701  0.0770447  -0.10603078 -0.17991027 -0.10142394
 -0.08473428  0.01683621  0.28510204 -0.0349318   0.11902419  0.07254212
  0.03852873 -0.12377071]
[ 0.01127855  0.14336886 -0.04559108 -0.25583932 -0.07812649 -0.17021531
  0.00206786 -0.05130821 -0.09942171 -0.23177253  0.02997757  0.07473535
  0.05873007 -0.13873309 -0.14377873  0.19305155 -0.28265643  0.28094745
  0.24055678  0.23666531]
[ 0.1840102   0.00553329  0.16393016  0.136806    0.13073151  0.13707319
 -0.13396773  0.13840057  0.24175249  0.0560156  -0.00474425 -0.16410777
  0.23795253  0.08373906 -0.06959822  0.26680958  0.09841273 -0.07528497
  0.23308665 -0.06021671]
[-0.09688471  0.00508756  0.11304455  0.06280187 -0.07939904  0.28686592
 -0.01520777  0.19820468  0.13547236 -0.19328521 -0.01892046 -0.09670674
  0.1813259   0.11792165  0.00201272  0.19600919  0.06052639  0.13349478
 -0.06268669 -0.17844033]
[-0.1408264  -0.27172026  0.36628067 -0.22724618  0.08074757 -0.12125997
  0.19628273 -0.25250396  0.2990633   0.00281255 -0.02211721 -0.19934657
  0.24479367  0.2704288   0.18472706  0.26638356 -0.2299883   0.2800829
 -0.23132545  0.04241595]
[ 0.17250891 -0.03798841 -0.0959429   0.00705302  0.01718381 -0.21376318
  0.18309553 -0.259856    0.15758908 -0.31106856  0.2243835   0.01596102
  0.03190218 -0.2949839   0.00753177  0.2028519   0.01895606  0.07365151
  0.33235428 -0.09689591]
[-0.13537987  0.0652251  -0.03785692 -0.14689268 -0.18801218 -0.23735934
  0.11378597 -0.27681383  0.10151388  0.1652792  -0.27761477 -0.13287604
 -0.06145408  0.21877015 -0.03563901  0.14871015  0.33669996 -0.11958604
 -0.11046877  0.10060859]
[ 0.13704547  0.03677396  0.02428702 -0.22949709 -0.13503766 -0.21609183
 -0.02621584 -0.05070849 -0.16398667 -0.00415528 -0.0979418  -0.10562798
 -0.04857662  0.04867327  0.11687786  0.17474766  0.20031032  0.04366837
 -0.20992315  0.1394725 ]
[ 0.00902685 -0.09440778 -0.07337953 -0.01821832  0.26952544  0.02538259
  0.00325617  0.04491669  0.03973038 -0.00066626  0.10510956 -0.06975766
 -0.23807438  0.00887083 -0.0327269  -0.29233083 -0.16286005  0.1102358
 -0.08373994 -0.19093853]
[ 0.15659738  0.03941101 -0.12642238  0.05465544  0.2848729  -0.04310727
  0.32405856  0.24861296 -0.24039574 -0.17208676 -0.35315105  0.09517319
 -0.05751283 -0.08300832  0.0197137  -0.04706622 -0.24760963  0.32047755
 -0.05537309  0.05390551]
[ 0.21729077 -0.19953445  0.11921555  0.01180336  0.21155995  0.1747481
 -0.25824594  0.15985045 -0.19971947 -0.14200096 -0.00713468  0.237591
  0.284155   -0.15826033 -0.35025388  0.06786429 -0.15478115  0.03844837
 -0.29926336 -0.2822289 ]
[-0.0542681   0.22663243 -0.22699857 -0.34548792 -0.22903702  0.20843536
 -0.05475798 -0.05610537 -0.22845717 -0.15328737  0.02689345  0.09233654
 -0.2721584  -0.071946   -0.36266732  0.10636945  0.17709546 -0.18371236
 -0.02880664 -0.27460864]
[ 0.2829533  -0.28616768  0.20315638  0.07061827  0.07389678  0.34610888
 -0.0692563   0.08458396  0.3222919   0.08330595  0.23331623  0.2167677
  0.26031035  0.04191044  0.34825787  0.01221671 -0.29033023 -0.23721035
 -0.29889143  0.12444174]
[-0.01419828  0.16871993  0.05841239  0.3066545  -0.06005764 -0.00571896
 -0.07808399  0.24830984  0.16750178  0.21955095 -0.2085173  -0.05066531
  0.17317839  0.04856416  0.3785397   0.03973356 -0.15152936 -0.3141319
  0.2785462   0.14230838]
[ 0.09171715  0.01367829 -0.200404   -0.28372383 -0.2689784  -0.03657668
  0.28027958 -0.27592677  0.20716016  0.18653783  0.06260368  0.09177038
  0.308567   -0.06565644  0.3395629   0.24015096 -0.00825224  0.21525101
 -0.11666314 -0.03301511]
[ 0.10539463 -0.08858385  0.12174989  0.319042   -0.2718598   0.16905545
 -0.22742903  0.28957236  0.22628003  0.15832712  0.28727213 -0.10029143
  0.11494619  0.03074637  0.2784885   0.20425409  0.12079278 -0.34381375
 -0.0605458   0.3847213 ]
[-0.07523222  0.07665225  0.12360852 -0.24129233  0.27603737 -0.0925152
 -0.2967359   0.04043274 -0.19486293  0.07581815  0.046716    0.01242271
  0.21817757  0.27012074  0.09208337  0.08103115  0.07069764 -0.21159956
 -0.09645654 -0.20129927]
[ 0.20075281  0.27146304 -0.36539575  0.01641447  0.24885137 -0.23875615
 -0.3157141  -0.1996536   0.17123322 -0.21369688  0.12763704 -0.09902692
 -0.3136079  -0.2377402   0.38559014  0.20690855 -0.25264135 -0.07672582
 -0.19275719 -0.00624248]
[-0.1913067  -0.05017624  0.10295032  0.24790229 -0.00145108  0.19827433
 -0.17291178  0.31509942  0.17052965 -0.06792808  0.17223029 -0.0169075
 -0.03001039  0.10797281 -0.22429006 -0.14026836  0.05678981 -0.07258732
  0.2401972   0.20501074]
[ 0.07888375  0.23704192 -0.04476949 -0.1347696  -0.09912398  0.04800741
  0.07997546 -0.14950268  0.13867365 -0.06239214 -0.04229881 -0.26679122
  0.27797073 -0.26380742  0.05042638  0.17130455  0.20910001  0.06910238
 -0.24725045  0.18426262]
[-0.28916198  0.2464763   0.11557055 -0.26097256 -0.08476517  0.04515564
 -0.02022007  0.20420846 -0.25562415  0.075132    0.28952014  0.2962951
  0.0468255  -0.20106041 -0.24434958  0.11669661  0.28526643  0.17650439
  0.31418028  0.15700218]
[ 0.21555404 -0.31190625  0.04367344 -0.13502873 -0.21805046  0.24978809
 -0.04960343  0.27691752 -0.1325601   0.21892312 -0.30826873 -0.04465147
 -0.03421381 -0.24190879  0.11662928  0.2838483   0.28077358  0.15352444
  0.06376382 -0.05822231]
[ 0.0587042  -0.2783713  -0.11849582 -0.06467514 -0.10800218  0.118267
 -0.15205802  0.18870936  0.17516775 -0.15171885  0.14129321  0.23195882
  0.17376278 -0.1557024  -0.08179996 -0.25851053  0.09117008  0.08824819
  0.2227105  -0.07925923]
[ 0.06417169 -0.23676483  0.10535209  0.01188996  0.02626847  0.19046278
 -0.26904485 -0.15781121 -0.06267212  0.18550865 -0.11024084  0.13349752
  0.22805901  0.01356363 -0.32138318 -0.15968849  0.1478322   0.1815903
 -0.2087687  -0.3103085 ]
[-0.04518275  0.2994218  -0.05279197  0.2958218  -0.26183462  0.07371491
  0.0749246   0.39503053 -0.26058987  0.12708169  0.15370458 -0.26416504
 -0.16493809  0.13204707 -0.14533801  0.12264095 -0.07870071  0.29234165
 -0.3050989   0.17208125]
[ 2.68455923e-01  1.83104113e-01 -2.84429848e-01 -1.37235492e-01
 -1.01418756e-01  2.51355141e-01  1.48726016e-01  4.70276326e-02
 -1.45121783e-01  1.99009687e-01  1.18592255e-01  1.08050205e-01
  9.41153318e-02 -1.50758758e-01  1.40638342e-02  4.53798622e-02
  1.36187747e-01 -1.56334660e-04  2.38454398e-02 -3.35390470e-03]
[ 0.17510217 -0.06647149 -0.04486666 -0.43283004 -0.23364705  0.2285712
 -0.21794559 -0.01740936 -0.19047299 -0.16480878 -0.05341568  0.10724979
 -0.22422713 -0.0336701   0.22465399 -0.04501041 -0.08955361  0.20198564
  0.19687761  0.02645552]
[ 0.21942192 -0.2443302  -0.08999526 -0.2501568   0.13342567 -0.31662977
  0.07163903  0.04517233 -0.20502007  0.0741149   0.29177773 -0.21949315
  0.25080875  0.04485811  0.01723699 -0.16090025 -0.08455329  0.24927166
 -0.27692816  0.07778297]
[ 0.17835282  0.10626013 -0.03950414 -0.21308032 -0.06614444 -0.09594394
  0.22524312 -0.16821502 -0.17103545  0.30659267 -0.01335695  0.02380663
  0.08813123 -0.20532791 -0.10986451 -0.17508171  0.1363137   0.260082
 -0.03229869 -0.24585304]
[-0.19797574 -0.02544139  0.00973936  0.06306285  0.17602035  0.06468094
  0.08577968 -0.12433802 -0.10259136  0.30728403  0.06536832  0.09836619
 -0.2768851   0.22114086  0.14408536 -0.05989965 -0.11345264  0.06030166
 -0.11725426 -0.23508564]
[-0.00869021 -0.02078399 -0.03681339 -0.00461321 -0.045438   -0.04164785
  0.03374102  0.08108263  0.08802177  0.02449965 -0.03582469  0.12231492
 -0.04155298 -0.02056276  0.00939871 -0.00860366 -0.0361138  -0.05310208
 -0.05455096 -0.03293315]
layer 5 Activation
tanh
layer 6 Dense
20 1
[-0.00403249]
[-0.03053295]
[-0.01269147]
[-0.1093692]
[-0.03911181]
[-0.08499239]
[0.30188495]
[0.2066149]
[0.09014988]
[-0.01520215]
[-0.00471647]
[0.02013179]
[-0.07177693]
[0.01922948]
[-0.15343858]
[0.00134585]
[-0.08707608]
[-0.2561893]
[-0.01636784]
[-0.04131088]
[0.05512354]
