layers 7
layer 0 Dense
20 20
[-0.27989838 -0.20334063 -0.13352984  0.0972672  -0.05443461  0.14255817
  0.35436714 -0.1498875  -0.37006253  0.03440442  0.3324636   0.119789
  0.17419603 -0.2727058  -0.13100262  0.21567632  0.30668473 -0.17217793
 -0.2610802  -0.03244707]
[-0.04777618 -0.22681819  0.00177418  0.18185702 -0.34102738  0.30020338
 -0.15112306 -0.13192706  0.29495332 -0.14639     0.2520175  -0.22545339
  0.39311448 -0.12623264 -0.26598305 -0.20008205 -0.13359639  0.15887617
  0.33486092 -0.24551754]
[ 0.28805283 -0.02859739  0.19768618  0.07143492  0.14203791  0.01140364
 -0.13749222  0.1289078  -0.08317176 -0.22098605  0.344907    0.03531142
  0.08611303  0.17994034 -0.27417773  0.18560916  0.275521   -0.02985844
 -0.3271197   0.22540791]
[-0.09621114 -0.27075073 -0.19650123  0.23067208  0.3924149  -0.12875623
 -0.2802122  -0.21447349 -0.37420017  0.34316158  0.00512024 -0.13987835
  0.45526722  0.31704062  0.09547543 -0.00172741  0.22393943 -0.45666087
 -0.09142637 -0.11582652]
[-0.3191307  -0.3511041   0.00538079 -0.20101611 -0.07999628  0.01437274
 -0.20413892  0.34520128  0.07800911  0.17790844 -0.08116779 -0.22015798
 -0.18461761 -0.26116872  0.26756176 -0.16710421 -0.03282858  0.24457735
  0.16743636 -0.02264488]
[ 0.24284944 -0.11371335  0.19802044 -0.2452165  -0.29978123 -0.03429745
 -0.0323692   0.11968556  0.23570761  0.1733871   0.3602328  -0.3298647
  0.3701199  -0.28923059 -0.23439619 -0.17362061 -0.34067968  0.1772546
 -0.1555534   0.28246462]
[ 0.0117596  -0.31568322  0.23620068  0.02465758 -0.2874962  -0.30646247
  0.3569208  -0.19776182 -0.05690092 -0.30508566  0.26698706  0.16338931
 -0.07517091 -0.05259542  0.32738894  0.09677443  0.2689272   0.27162176
 -0.33580816 -0.2496513 ]
[-0.11778878 -0.07559856  0.23838103 -0.29872683  0.08492776  0.3554661
  0.18889762 -0.25760102 -0.07978778  0.02457886 -0.17783038 -0.12042388
 -0.07050871  0.14011149 -0.3247692   0.11480607  0.2241745   0.3717959
 -0.27229255 -0.30088842]
[-0.01053192  0.36660096  0.26603195 -0.12444929  0.07677358 -0.21185629
  0.01097958  0.16345291 -0.11762319  0.17977239  0.32404122 -0.25678954
 -0.25571036  0.35675278  0.04911596  0.13652499  0.17157315 -0.10643024
 -0.28894556  0.1873286 ]
[ 0.39151496  0.02133481  0.06638157  0.30464736 -0.22316389  0.03042506
 -0.2595285  -0.32000142 -0.18122992 -0.26234087  0.09177819  0.02357673
 -0.37037688  0.473779    0.09722955  0.12433713  0.2450638   0.04820927
 -0.3259194   0.1497164 ]
[-0.0237439   0.05606202  0.26540163 -0.00599587 -0.18343365 -0.31057432
 -0.18821348 -0.10456722 -0.16607662  0.19741592  0.01649735  0.08334928
  0.11019825  0.11584009 -0.13488479  0.00045269  0.05016435  0.08278515
 -0.16008718 -0.26685768]
[ 0.20046295 -0.21188651  0.06672826 -0.00444309  0.14048655 -0.17649412
  0.34582525 -0.20014636 -0.30648154  0.3485334   0.26916367 -0.32373232
 -0.14632991 -0.04297255  0.0499417   0.16065338  0.17329758 -0.33331078
  0.22754066  0.09051497]
[ 0.26607293 -0.22007027  0.22063597  0.21060972 -0.28722987  0.34260955
  0.01835142  0.42913556 -0.15976034 -0.10087632  0.25000215  0.27093005
 -0.19020598 -0.04950857  0.07501575  0.19010799 -0.33877978 -0.17060624
  0.46189216 -0.09255628]
[ 0.2979744   0.30496442 -0.71227247 -0.37058184  0.3931305  -0.16540694
 -0.05489361  0.2642673  -0.18645541  0.2810915  -0.04384296  0.54837334
  0.19112599 -0.17657353 -0.06640498  0.3166208   0.19486621 -0.08677774
 -0.32418695 -0.14580457]
[-0.15164924  0.21778208 -0.06376309 -0.09735054  0.13980882  0.20109409
  0.12419998  0.07049025 -0.26105615 -0.07962159 -0.10817012 -0.00514599
  0.40490744 -0.23189539  0.06150541 -0.41430816 -0.18590647  0.1800957
 -0.49040917 -0.0505849 ]
[ 0.21024811 -0.0034667  -0.09651747 -0.71028644 -0.56043744 -0.18271159
 -0.58170056  0.09459247  0.36271217 -0.22162886  0.293729   -0.3232822
 -0.12945257 -0.13191958 -0.18989594 -0.5247009   0.32115412  0.6593518
  0.17349616 -0.04533204]
[ 0.29475525 -0.29661787  0.23080276 -0.11591588 -0.18547904  0.3405558
 -0.27005923  0.19551119  0.3423209   0.10676159  0.11326851  0.1960163
 -0.02508201 -0.16733061 -0.28004938  0.16230685  0.14622048  0.1721564
 -0.06354601  0.06446602]
[ 0.2035053   0.19730859  0.3068039  -0.16481155 -0.34992507 -0.29926646
  0.24182318 -0.20282051 -0.17921194 -0.07959943 -0.20487028 -0.0990487
 -0.15019779 -0.17633118  0.24059881 -0.33673686 -0.26461825  0.17224856
  0.0401675  -0.08309009]
[ 0.26731774 -0.14789434  0.19685729 -0.11998727 -0.04961176 -0.34672946
  0.06064118 -0.09885223 -0.10891983  0.12425499 -0.17305587 -0.14873092
 -0.44222435  0.07843741 -0.30824065  0.05229537  0.02202606 -0.08782879
 -0.26914057 -0.01191211]
[-0.34456393  0.37346756  0.24791771  0.21790448  0.2883981   0.01127009
  0.00235684 -0.07941466  0.17687975  0.514448    0.11139844  0.37466705
 -0.25751108 -0.0980214   0.12447786  0.09711336  0.01697643  0.38537574
 -0.14729005  0.00115089]
[-0.09548429 -0.05770582  0.08515029 -0.01572933  0.03445341 -0.03838186
  0.02222723  0.06145602 -0.05289692 -0.0007131   0.05199461 -0.04128202
  0.08004466 -0.05138323  0.04152745  0.05063915  0.03096304 -0.15393837
 -0.09647632  0.15280554]
layer 1 Activation
tanh
layer 2 Dense
20 40
[ 0.04077034  0.26131514  0.11095843 -0.08732256 -0.17569096 -0.00509866
 -0.02135428  0.04323665 -0.04688542  0.00502842  0.14920242 -0.00160731
 -0.12223809  0.0119686  -0.20490727  0.17749575  0.11490933  0.12311599
 -0.27546802 -0.10056898  0.2689632  -0.14234336  0.21017751  0.13701707
  0.01191536  0.04049703  0.32429647 -0.1609473   0.26169112  0.0816444
 -0.20839964  0.2020825  -0.01136495 -0.2501778   0.03713178 -0.119504
 -0.12675561  0.07356405 -0.2625285   0.07243281]
[ 0.30563092 -0.09687098 -0.15319514 -0.07942489  0.08634064  0.04117064
 -0.11545633  0.02658104 -0.32126254  0.19466537 -0.23258825 -0.2576868
  0.2778134   0.21973172 -0.13548727  0.29677093 -0.10771288 -0.22363889
 -0.08672215 -0.02508411  0.2698903   0.18396704 -0.08551888  0.17084613
  0.23268315 -0.04062536 -0.1700734   0.08192181 -0.24513505 -0.07881194
  0.17656511  0.15500201  0.14405964 -0.1606042   0.19281359 -0.10862699
 -0.13951387  0.20364349  0.04646596  0.05189713]
[ 0.12149823 -0.05742    -0.24380703  0.05138369  0.05474198  0.20336477
  0.17915481  0.27195096 -0.23202285  0.3215125  -0.33390802 -0.12337201
  0.12027814  0.17479764 -0.35653758  0.22275566  0.25015265  0.33425474
 -0.17521286 -0.30448028  0.35115734  0.3010617  -0.35010746  0.22477813
  0.02486697 -0.03586482 -0.22570975  0.07411475 -0.10908773  0.2568991
  0.07528648  0.12655568 -0.03054425 -0.19601926  0.27724785 -0.02287141
 -0.29596728 -0.15036348 -0.11892109 -0.11488274]
[-0.23252594 -0.17107159  0.12451479  0.26380083 -0.1961973   0.26956925
 -0.0095054  -0.04487071  0.41335732  0.27528897 -0.01963947  0.06052245
 -0.21558206 -0.00637011  0.17659192  0.24671844 -0.3162943  -0.05182515
 -0.071149   -0.01690302  0.0384271  -0.11431738 -0.27260527  0.03254626
  0.24928218  0.15100627 -0.29570612 -0.11902895 -0.16081782 -0.34185278
 -0.11055384 -0.18924122 -0.26470828  0.04624943  0.12303314  0.09707462
  0.18654227 -0.18799706  0.17602     0.00100063]
[ 0.1103827  -0.04491983  0.36388272  0.22385886 -0.13126314  0.10367712
 -0.08258142  0.37792423  0.12373251 -0.13448848  0.326514   -0.35202834
 -0.03385951  0.25782165  0.02310018 -0.04868861  0.1799847  -0.20623095
  0.02935971 -0.25962642 -0.1667351   0.23277944  0.16151102 -0.2614727
  0.12921457  0.0943567  -0.1824033   0.1207729  -0.2955002  -0.08650015
 -0.302115   -0.04814303 -0.09512283  0.01323444  0.07889449  0.20731041
  0.0665782  -0.19423898  0.0607285  -0.02498077]
[-0.16420771 -0.2937379  -0.08170139  0.06969402 -0.2645235  -0.23525365
 -0.08542257 -0.249385   -0.05388978 -0.173495    0.11830198  0.18702699
  0.0856858   0.10901824  0.15828522 -0.19850172  0.00963541 -0.17116202
 -0.24331667 -0.07825753  0.26647297  0.15155339 -0.02976757 -0.04691245
  0.15002249 -0.01654843 -0.27519235 -0.14600173 -0.19199187  0.00507919
  0.09865033 -0.21771333  0.19742914  0.05543046  0.22900161  0.04351356
  0.00048411  0.11006586  0.02935486 -0.16996759]
[ 0.02261168  0.07381643  0.28283128 -0.24135658 -0.13913666  0.0572245
 -0.37421483  0.14766973  0.01817662  0.10700329 -0.14493413 -0.28512594
  0.05478717  0.1755926  -0.01218249  0.10041906 -0.21008328 -0.21904996
 -0.0325764   0.13590269 -0.0624549   0.18220977 -0.309895    0.17503245
  0.00854422 -0.09412133 -0.26996425 -0.06436671 -0.3310917  -0.1386067
 -0.05617411  0.13469312 -0.09566017 -0.10423654  0.06634194 -0.19464691
 -0.16714741  0.05179672  0.09286524 -0.1445766 ]
[ 0.16846083  0.18534356  0.04448429 -0.18803214  0.09839575 -0.01514264
 -0.21483593  0.2539269  -0.22824125 -0.1264819   0.2027861  -0.04030521
  0.28941545  0.2388792  -0.03400252  0.07741753  0.04143528  0.03435218
  0.11783633  0.29933667  0.1557756   0.10895392  0.10254711 -0.11662598
  0.3124746  -0.11713117  0.2532506   0.14425571 -0.19391981  0.031532
 -0.14791146 -0.25841162  0.27721834  0.09356522 -0.03089041  0.16935289
  0.00736553 -0.11380022 -0.01079712  0.2686928 ]
[ 0.16530974  0.25595254 -0.307484    0.03611914  0.12290236  0.08530241
  0.00185739 -0.10320049  0.00130181  0.08509603  0.02863064 -0.20476365
 -0.00511237 -0.2238799  -0.41748375  0.17353638  0.33048645  0.00696587
  0.15691817 -0.07744005 -0.1813968   0.3331092   0.1334411  -0.2031188
 -0.01071823  0.32609126 -0.2511821  -0.04749092  0.21880744  0.18529315
 -0.2316464  -0.25261208 -0.041796   -0.3529037   0.18320775  0.23284899
 -0.00786894 -0.04600203  0.2179458   0.27631322]
[ 0.10111732 -0.29601246  0.22158897 -0.2398953  -0.05299969 -0.02427729
 -0.2880005  -0.17716067  0.03644605 -0.25855732  0.06933453 -0.03008801
  0.21641985 -0.23801866 -0.21619006 -0.2698922  -0.2618017  -0.10019279
  0.01983267  0.07311349 -0.0463311   0.19400227 -0.09954592 -0.22138026
  0.11707187  0.03990026  0.16056417  0.06310271 -0.12883969  0.21905583
 -0.0960542   0.13607164  0.12250157  0.01766627 -0.13960418  0.17973758
 -0.22731379 -0.05363297  0.00139647 -0.05244752]
[ 0.13650677  0.2461962   0.33081728 -0.10198649  0.11918546  0.3052749
  0.01645758  0.01084887  0.22471648 -0.23414832 -0.24288352 -0.2317352
 -0.09170502  0.11673554  0.24888216  0.03326377 -0.11670002 -0.01697866
  0.19565983  0.14604254  0.10736334 -0.04377898  0.11896798 -0.0588863
  0.02080003  0.29800242 -0.10852093  0.22160384 -0.0320109   0.11819046
  0.19998059 -0.09303489 -0.13500218 -0.27203453 -0.23505333 -0.07117591
 -0.08166389  0.14107189 -0.16354689 -0.16587584]
[-0.31224883 -0.1964957  -0.06188441  0.12320248 -0.04121958 -0.29942855
 -0.1428294   0.13443957  0.0728314   0.07192062  0.17802036 -0.3256189
  0.12880798  0.13048838  0.1565961  -0.33391297 -0.05236252 -0.09693862
 -0.33374017 -0.15485623  0.22842912 -0.18777154  0.20333704  0.12852009
  0.16495216  0.20926072  0.13238756 -0.23385206  0.05200633  0.08598782
 -0.1388756  -0.22064433  0.14780293  0.17320156  0.2548178   0.23374999
 -0.17917106  0.06551658  0.05977157  0.16573709]
[ 0.30609348 -0.2818841   0.34735325 -0.15241101 -0.39663926 -0.02496322
 -0.13490097 -0.23977317  0.2361918  -0.13333999  0.34109524 -0.23424907
  0.15456402 -0.18900932  0.37328544 -0.28711307 -0.00110601 -0.01397792
  0.26723808  0.12588984 -0.3374066  -0.00262255  0.3234597  -0.1654481
  0.15975454  0.02541903  0.06660163  0.0507479  -0.01083007  0.34309244
  0.03179157 -0.24915653 -0.3494831  -0.18819265 -0.31551403  0.03316747
 -0.09089625 -0.0526496   0.10098834 -0.2765926 ]
[ 0.18626471 -0.19263083 -0.02004232  0.08273295 -0.28348592 -0.1744016
 -0.03281038  0.10431808  0.1509362  -0.00202405  0.01755399  0.13004692
  0.26728746 -0.13234183 -0.10313892 -0.00965507 -0.04642415  0.19615029
  0.08856305  0.14188813 -0.29498684  0.1983743  -0.07108431  0.3073541
 -0.1315178   0.04106211  0.23085147 -0.12695584  0.29149395 -0.34927714
 -0.04258019  0.15257296  0.2909353   0.10557096 -0.17594665  0.08300272
  0.09498361  0.0654754  -0.05293629  0.27186385]
[ 0.11858825 -0.3924306   0.12043732  0.03662103 -0.27248093  0.2510784
 -0.06831261 -0.12972234  0.4652831   0.19814754  0.11559954  0.27888015
  0.11887158  0.3864277  -0.11810019 -0.06531167  0.04265868 -0.1763597
  0.11314426 -0.16113277 -0.27074853 -0.34487608 -0.02800959  0.215903
  0.2978527  -0.13751389 -0.28140125  0.36229914  0.1770206   0.35936603
 -0.05949238  0.08298196 -0.04393028  0.1188427  -0.19531725  0.02737951
 -0.00158683  0.05497539 -0.36414173  0.07312567]
[-0.15790915  0.12177511  0.34870067 -0.24927135  0.21158242 -0.06256656
 -0.3698626   0.29221418  0.05250014 -0.19320312  0.03009015 -0.5084006
  0.42482683  0.06492638 -0.09655193 -0.25400236  0.29472476  0.21308102
  0.03472891 -0.01836037 -0.0948863   0.02874695 -0.10127044 -0.02046915
 -0.10354491  0.32559595  0.26574755 -0.3158534  -0.35439387 -0.28201097
 -0.32118532 -0.17495087 -0.06725843  0.07586306 -0.2786505  -0.38324276
  0.08794089 -0.22541983  0.03604763  0.344303  ]
[ 0.04311427 -0.1314976  -0.13224174 -0.31339446  0.23829558 -0.01064208
 -0.18969974  0.13982688 -0.26809102 -0.00974975  0.09228966  0.06602974
 -0.1254078  -0.16448562  0.17814463 -0.24095497 -0.14726204 -0.23008168
  0.10588349  0.03821091 -0.03152877  0.0129084  -0.18756913 -0.1189352
 -0.07002658  0.19620639 -0.25820115  0.12711944 -0.07258052 -0.21545075
 -0.24861567  0.0905045  -0.11304726  0.1507509  -0.18170846  0.20452453
 -0.0766945   0.26353523  0.17908818 -0.4387797 ]
[ 0.2711783  -0.06130526 -0.35792404  0.14573483 -0.03032289  0.17362511
 -0.31191608 -0.2948858  -0.34229878 -0.00363636  0.17781167  0.22243536
 -0.28672123  0.17582351  0.01763132  0.06216117  0.12845516  0.1978875
 -0.11775745 -0.24852519  0.04293903  0.25469428 -0.0687773   0.00911306
 -0.26516032  0.02232097 -0.07084583 -0.27363455 -0.03827158  0.17054346
  0.16349074  0.10472665  0.25755656 -0.32115662 -0.03803137  0.02432513
  0.31302842  0.20751959 -0.00247236  0.01454669]
[-0.04538593  0.2856292   0.32072058  0.06203543  0.30708092  0.10586207
 -0.01131004  0.09445419  0.23721856 -0.03399439 -0.16515465 -0.04223058
  0.06826655 -0.16030271 -0.06886222 -0.1558765   0.25715607  0.24107656
  0.01724605 -0.04322595 -0.02114841 -0.05857105 -0.33448386 -0.05611081
 -0.09670887 -0.18341982  0.18293129 -0.26591665  0.33821088  0.14405829
  0.12261949 -0.24931711  0.17896265  0.08106142  0.37176776  0.15858419
 -0.01442226 -0.14633712  0.20105362 -0.08898046]
[-0.18227924  0.07335953  0.06995075  0.2727027  -0.3073879   0.16768546
  0.11241542 -0.2066356   0.08430897  0.12116321  0.14702499 -0.05357387
  0.02240217 -0.07637884  0.25720885  0.3462867  -0.08484327 -0.2023547
  0.02627306  0.0492497  -0.05412149  0.32976532 -0.25662273 -0.25326693
 -0.14826208 -0.2586552   0.09441989  0.2031756   0.01614916 -0.08176621
 -0.2082692  -0.22206433  0.13665488  0.09785203 -0.02378459  0.23627944
 -0.01828028 -0.15341362  0.1218159   0.21157509]
[ 0.01531426 -0.02299586  0.0566419  -0.03863684 -0.11411269 -0.03108312
  0.04218961 -0.05071797  0.21291852 -0.04615298  0.03990307  0.05103291
  0.00130742 -0.04516792  0.03881254 -0.0552689  -0.06440944 -0.04020696
  0.02454733  0.04417356 -0.06601869 -0.10447109 -0.03321686 -0.02354354
 -0.02470099 -0.08461005 -0.01415821  0.04818823 -0.01445641  0.00235676
  0.03406046 -0.03286689 -0.04399011  0.10467938 -0.06850239 -0.04479632
  0.01976072 -0.01978614 -0.08536176 -0.17720917]
layer 3 Activation
tanh
layer 4 Dense
40 20
[ 0.12586902 -0.2851893  -0.06656643  0.16904138 -0.02746511 -0.33202523
 -0.35932246  0.25477898  0.27292392  0.13730077 -0.25364834  0.20446047
 -0.2011653   0.01583455  0.07864886  0.28506488  0.00418364  0.19830436
  0.33300716 -0.04750429]
[ 0.13041131  0.3364691   0.2879388  -0.1463627   0.31318393 -0.2025669
  0.0607697  -0.21672346  0.17505394  0.18704796 -0.14525662  0.14520867
 -0.02317092 -0.07607181  0.09516694 -0.04529113 -0.02060588  0.12300237
  0.11553635 -0.02582713]
[-0.16185638  0.14261387  0.18778072 -0.01051816  0.13902663 -0.16507357
  0.1336356   0.17284888 -0.17420653  0.24116471 -0.01476955  0.0499946
  0.1649427   0.28325397  0.13485135  0.31911072 -0.2769551   0.24637555
  0.15741783 -0.15502411]
[-0.20460585  0.19366363  0.12335157  0.30183735 -0.21761304  0.10982841
  0.14399576 -0.05028247  0.24412756  0.25164902 -0.10668284 -0.03807549
  0.20252962  0.12061036 -0.1844392   0.0032223  -0.22199662 -0.10516893
 -0.00934604 -0.05123479]
[-0.25814366 -0.07324931 -0.17617604 -0.2503759   0.21339044 -0.05266878
 -0.07989688 -0.2596284   0.20907636 -0.25055578 -0.25496998  0.2821941
  0.03971815  0.20276754 -0.14234357  0.20664245  0.25418034  0.23276338
 -0.30413663  0.2917543 ]
[-0.10807656 -0.18082124 -0.0713652  -0.07634491  0.17116147  0.10204811
 -0.2545242  -0.11307309 -0.06199121  0.23389067  0.01495126 -0.22687657
  0.03181478  0.07581701 -0.25207874  0.14509623 -0.02034844 -0.07599621
  0.07006254  0.09434626]
[ 0.0408712   0.31335428  0.06221874 -0.09214962 -0.12700742  0.24122886
  0.1313129  -0.02437505  0.04511561  0.20893764  0.30175805  0.06167962
 -0.24563566 -0.09197325  0.18623784 -0.16918449 -0.02226118 -0.01250452
 -0.28832105 -0.07540458]
[-0.03267481 -0.23901567  0.07414339  0.23913153 -0.03007552  0.01154064
 -0.19980745  0.14444907  0.15015428 -0.34977984  0.17528906 -0.30521607
  0.05502672  0.20068541 -0.22621599 -0.1949802   0.23638433  0.13568228
  0.24945007  0.1522385 ]
[-0.02372935 -0.07354835 -0.17130688  0.19855902  0.06067584  0.22280727
 -0.13225909  0.27213588 -0.09493105  0.21377556 -0.03236438 -0.14522597
 -0.15683696  0.0154627   0.00696172  0.26642808 -0.05461019 -0.19307168
 -0.01422228  0.25719392]
[-0.10292517  0.20902772  0.25866547 -0.06517364 -0.06401767 -0.19137995
 -0.00757497 -0.17936523  0.2058935   0.18859091 -0.21410637 -0.17477864
  0.23956256  0.08774577 -0.28412166  0.21745306  0.04601018 -0.09017127
 -0.05490113 -0.05351383]
[-0.07035294  0.05819036  0.17427908  0.0772722  -0.16985773  0.27771142
  0.24613644 -0.18870828  0.06844592 -0.10989637  0.331716    0.13058993
  0.02757895  0.2659181   0.03481007 -0.0244102  -0.27681002  0.16340041
  0.02851155 -0.24942549]
[ 0.22363037 -0.26837748  0.25837037 -0.11977879  0.317383    0.32780448
  0.007787   -0.28078222 -0.19357856  0.13280226  0.06536937  0.2855885
 -0.14124751 -0.00782696  0.13147902  0.03017788 -0.20823136  0.00658096
 -0.2984011   0.12162203]
[-0.13937785  0.23369984 -0.2562557  -0.08156536 -0.18088914  0.23920469
 -0.00487497  0.2186615  -0.17567505 -0.19260484  0.22351423 -0.03981942
 -0.06004483  0.3193639  -0.16494837  0.16964214  0.24741663  0.10909256
 -0.11832619  0.24316753]
[-0.24040629 -0.06858461  0.15671583 -0.02341979 -0.15032905 -0.1638309
 -0.24923386  0.02618295 -0.2636526  -0.09916209 -0.22603391  0.23911531
 -0.32593802 -0.21128936 -0.3446916   0.30736816  0.02485958 -0.20608239
  0.19951008  0.04586281]
[-0.11894807 -0.00903902  0.05765694 -0.17304318  0.2814921   0.29592896
  0.29195264  0.11781775  0.26757163  0.15239808  0.19672386 -0.23442322
  0.09040629 -0.03177382 -0.01668424  0.19022758 -0.30641025 -0.02103298
 -0.15921126 -0.15177916]
[-0.05055551  0.18778923 -0.24017127 -0.14301561  0.09200819  0.0829731
 -0.29388782 -0.40045035  0.14643316 -0.30060872 -0.25686803 -0.03170935
 -0.02774612  0.1270144  -0.08621369 -0.16133633  0.24643885 -0.32996875
  0.01789126 -0.04189467]
[-2.82031804e-01  7.84579813e-02  2.05762148e-01 -3.09655607e-01
  1.84396461e-01 -2.59506434e-01 -1.06081545e-01 -2.86528111e-01
  1.58640236e-01 -2.92247564e-01 -2.58506924e-01  1.48547858e-01
 -1.86963588e-01  1.32135901e-04 -5.51302433e-02  1.92269340e-01
  1.41187966e-01 -7.50859827e-02  7.26277754e-02  2.05182061e-01]
[-0.17312594  0.23598188  0.2738323   0.19216454  0.39694434 -0.15942754
 -0.17555915 -0.23694263  0.15980582 -0.02416147  0.11697639 -0.14520934
 -0.36958367  0.07121502 -0.3096146  -0.367577    0.20228009 -0.24862225
  0.08045045  0.3504456 ]
[-0.00371968  0.2368959  -0.17189786 -0.10260952  0.09412137  0.24371918
 -0.249529   -0.03547456 -0.31983057  0.1751022   0.3183959  -0.22581068
  0.01382741  0.13446805 -0.14232805 -0.01287228  0.1284484   0.00686913
  0.19736084 -0.23730308]
[ 0.15499073  0.02078957  0.06101142  0.24265198  0.12137982  0.04938594
 -0.19979723  0.35030794  0.29677022  0.16350327  0.1141308  -0.04859046
  0.19558716 -0.20802037  0.27228487  0.06546587 -0.23237628  0.22909017
  0.02872341  0.05992841]
[-0.2192058  -0.23090445  0.27899903 -0.06488654  0.2988032  -0.263728
 -0.22916779 -0.16573997  0.34136406 -0.13035326 -0.04374954 -0.06997315
 -0.2717081   0.27260163 -0.07612353  0.05724286  0.11154305 -0.2136584
 -0.05588752 -0.16681121]
[-0.20936131 -0.09124587 -0.09676342 -0.02501394 -0.31754252  0.09350771
  0.04184407 -0.30814224  0.2716766  -0.12823166 -0.26705712  0.16271165
 -0.15422745 -0.09934936 -0.1681088   0.14682528  0.06943514 -0.03531634
  0.10903629  0.01816427]
[ 0.14531562  0.3052018   0.10657533 -0.06755782 -0.21008958  0.09715483
  0.18418454  0.15182054 -0.00139732 -0.0809984  -0.21812701 -0.02388612
 -0.18944037  0.13595356  0.15215485 -0.22610593 -0.00333018 -0.02210447
  0.29650378 -0.12227273]
[ 0.04587292 -0.13350952 -0.10424129 -0.05556022 -0.08456323  0.16735375
 -0.23789953 -0.29777357  0.15011428  0.0034827   0.12989539  0.05908047
 -0.1544645   0.01629796 -0.1882143  -0.01700799  0.06111816 -0.20777881
  0.05308028  0.10059081]
[-0.19841754  0.04672391  0.07408199 -0.10557525  0.02645008  0.20637938
 -0.15498848  0.17597184  0.24872588 -0.03437879 -0.03915251 -0.35746512
  0.3387173  -0.33809716  0.16574347  0.35561335 -0.06728982 -0.009661
 -0.12370121 -0.27371052]
[-0.2673091   0.01379579  0.23742048 -0.12199881 -0.0193396  -0.15304841
  0.09041599 -0.32889226  0.11889652 -0.26017007 -0.2194394   0.14177293
 -0.03560441 -0.16321492 -0.10484121  0.25519383  0.06724874  0.01965839
 -0.02867385  0.0274482 ]
[ 0.02035731 -0.1685679  -0.18218665 -0.28963587  0.31820455 -0.00971527
  0.013019    0.229156   -0.21094981 -0.11650527 -0.1947455   0.00997353
  0.09621652 -0.08538174  0.00622256 -0.23020093  0.13461024  0.13063815
  0.18894576  0.03709497]
[ 0.07495562 -0.2909555   0.23888159  0.18284427 -0.16557394  0.22148035
  0.00687415  0.09254236 -0.24054444  0.308181    0.22269043  0.30092978
 -0.16680597  0.13996664  0.08547068 -0.23109289  0.2298566  -0.07202128
  0.2382432  -0.14843327]
[-0.21640132 -0.05799196  0.10170028  0.07552966  0.34046143 -0.05850392
  0.0391159   0.02249533 -0.12464626  0.18729474 -0.15399787 -0.0205451
 -0.29174682  0.27458826  0.14837798 -0.2814812   0.19478631  0.19076869
 -0.22622482  0.1909169 ]
[-0.13498066  0.24246395 -0.06579578  0.31838387 -0.18064426  0.17462817
  0.07309391 -0.09492682 -0.08541632  0.22506028 -0.25060374  0.28216782
  0.14236765  0.02365608  0.1540293  -0.08112084 -0.23302318  0.00444995
 -0.1881875  -0.21428178]
[ 0.27901018  0.08293362 -0.12883517 -0.02523085 -0.12760124  0.13161261
  0.3489575   0.05501172  0.14630334 -0.24212418  0.13680533  0.14874928
  0.25440928  0.07654773 -0.23685844 -0.17086022 -0.11933492 -0.19589418
  0.1372718   0.22768751]
[-0.08148884  0.14567563 -0.07518942 -0.01840901 -0.02026875  0.06099395
  0.2195361  -0.2807377  -0.0571335  -0.18558192 -0.24322139  0.0483196
  0.15769956 -0.15501118  0.06287972 -0.01791994 -0.10347757 -0.05598182
 -0.03111317  0.2291793 ]
[-0.06937419  0.0775783  -0.2860336   0.16368727 -0.15382574 -0.07195491
  0.27452505 -0.06106336  0.13147134  0.01526287  0.24325883  0.2489477
 -0.1423374   0.05012339 -0.12482648 -0.34424013 -0.0942284  -0.04183293
  0.22284043  0.09290189]
[ 0.1612631  -0.23079385 -0.24578896  0.25861174 -0.27729475 -0.11101101
 -0.171545    0.20514226 -0.35898843  0.14932387  0.2256237  -0.14065832
  0.3571003   0.00314208 -0.01588611 -0.08833858 -0.04525253  0.15717511
 -0.31506747 -0.25394458]
[-0.12541015  0.06183046  0.1240655  -0.2702467  -0.04550549  0.00298998
 -0.11287992  0.04557616 -0.04403599 -0.2638539   0.08389491 -0.20218907
  0.14536501 -0.24651885 -0.34308186 -0.31829807  0.1046069  -0.18628058
 -0.25752616  0.27773064]
[-0.2848694  -0.09887499 -0.03793517 -0.04158697  0.15030926 -0.0372825
 -0.2330783  -0.19567132 -0.10533456  0.18652318 -0.04772354 -0.10365795
 -0.35562342  0.00915082 -0.3053989   0.1679608  -0.28525066 -0.13367827
  0.10908744 -0.05045649]
[ 0.1600255   0.2896488   0.22561705 -0.25240424 -0.28249165 -0.26277527
 -0.00186493 -0.08316863  0.13346605  0.28332946  0.05790232  0.2093879
  0.10258298 -0.17072946  0.3157055  -0.12229342  0.13431922 -0.0361057
 -0.16666383  0.09634703]
[ 0.13308035 -0.21287103  0.10102931  0.01581827 -0.15723404 -0.16379014
  0.1903785  -0.07987272  0.06877548 -0.2769622  -0.05790787  0.21914706
 -0.10715484  0.10884918 -0.02393785 -0.13949132 -0.19409084  0.09894884
 -0.19673447 -0.08975881]
[ 0.18575636  0.14797711 -0.2631898  -0.14176826 -0.28908566 -0.26470903
 -0.11669888 -0.26703784  0.04298258 -0.18804905 -0.09086372 -0.0650905
 -0.20859742 -0.37845996  0.23191091  0.03893716  0.09194069  0.2790472
  0.03374857 -0.00519449]
[-0.24161072  0.22055928 -0.1742038  -0.05464857 -0.18248454  0.22848827
  0.02618773 -0.21511392  0.23796925 -0.02695288  0.2842664  -0.20391709
 -0.01371673 -0.16258302 -0.202333   -0.09661189  0.13344456  0.09587006
  0.18523951 -0.01328147]
[ 0.00047963  0.01923662  0.01643366  0.02684394  0.02484517  0.04230312
 -0.00480582  0.03574086 -0.04749887  0.05550994  0.03949523  0.00235513
  0.04512676 -0.03119588  0.0175881   0.02542396 -0.03980458  0.02018211
 -0.0320802   0.00665003]
layer 5 Activation
tanh
layer 6 Dense
20 1
[0.38015008]
[0.0118518]
[-0.01016268]
[-0.23156035]
[0.16060403]
[0.22128217]
[0.04883704]
[0.1446911]
[0.27022958]
[0.25883442]
[-0.38330135]
[0.08132292]
[-0.13328722]
[0.01370666]
[-0.4017639]
[-0.38604257]
[-0.10759816]
[0.4221091]
[-0.02612365]
[-0.3948262]
[-0.00382128]
