layers 7
layer 0 Dense
20 20
[ 0.02328267 -0.40124446 -0.516054    0.12058622  0.38167438  0.11060244
 -0.23318338  0.26069245 -0.62358814 -0.13087231 -0.56696385  0.17151102
  0.03618531  0.15698205  0.04590067 -0.02840067  0.01009081  0.54827875
  0.01453959  0.01416986]
[-0.14143334 -0.07707751 -0.06088489  0.19394845 -0.2706529  -0.3571235
  0.3378173  -0.25269073  0.16012561  0.03880283  0.36158723  0.13577628
  0.26333356 -0.25357866  0.21521425  0.16167945 -0.35352033 -0.19598499
  0.241579    0.03894845]
[-0.27582628  0.18381763  0.29064965 -0.22948654 -0.00172758 -0.20522952
 -0.29356933 -0.35202038 -0.10801175  0.13067287 -0.17872588 -0.07730898
 -0.17672877  0.36103266  0.1814112  -0.38130608  0.3233391   0.3363279
  0.35966802 -0.21127209]
[-0.43850246 -0.43210247 -0.2385819  -0.3028471  -0.15665215  0.21879633
 -0.22531171  0.07133385  0.11979761  0.05854953 -0.41701403  0.09484796
 -0.23420106 -0.35105592  0.10850133  0.3611929  -0.16859752  0.4597282
 -0.19467436  0.13950023]
[-0.09586661 -0.2743847  -0.42027444  0.23949897  0.6294289  -0.16033387
 -0.32298124  0.52871627  0.15340218 -0.3447917  -0.39542618 -0.08724409
 -0.08216703 -0.01647268  0.18750092  0.22981973 -0.18706383 -0.31785944
 -0.40011814 -0.37106287]
[-0.06625405 -0.21352258  0.10225174  0.03774086 -0.15398675 -0.11867774
  0.3135832  -0.02170467  0.23240697 -0.38392335  0.374       0.04842633
  0.31220853 -0.2042184  -0.07610139  0.365555    0.31940895 -0.23089047
 -0.1016807  -0.3330492 ]
[-0.10736483 -0.1101144  -0.19527471  0.10942388 -0.14609148 -0.07306555
 -0.38357052 -0.22784105 -0.13156837 -0.3581563   0.09788612 -0.24910925
 -0.3435077   0.3642432  -0.15193488 -0.3494297   0.00700751  0.30772924
  0.35589027  0.17190772]
[ 0.39513323  0.05326162  0.76699644  0.14639778 -0.7753368   0.28628018
  0.26950485 -0.22202718  0.5027622   0.33880252  0.71889836 -0.21128088
 -0.25196755  0.28373328 -0.23988608 -0.37849274 -0.3772145   0.16623665
  0.01840755  0.13031647]
[ 0.04280316  0.5441763  -0.06904637 -0.03378605 -0.4081036   0.17013192
 -0.10075866  0.11308201  0.16142161 -0.38270435  0.34474155 -0.7241953
  0.3974094  -0.13850513  0.5965545  -0.7251367   0.24692358  0.16357687
 -0.70475054 -0.41881284]
[ 0.4618044  -0.45512217  0.7558842  -0.01060238  0.3021396   0.79755193
 -0.41988984  0.41894272 -0.44807908  0.2042991   0.10159672 -1.186077
  0.23218437  0.55718374  0.426639    0.4952807   1.2710726  -0.05945684
  0.22047873 -0.05795603]
[ 1.2855731  -0.362417    0.0783243  -0.26777828  0.17146064 -0.01974099
  0.09227245 -0.27446458  0.5188386  -0.42993626 -0.05573767 -0.5409097
 -1.4883513   0.47581348  0.7488736   0.30206233 -0.02890276 -0.08793785
  0.17443134  0.5339247 ]
[-0.54387814  0.1622432   0.06984375 -0.27912524  0.614626   -0.06430376
 -0.01213494 -0.43542174 -0.6037578   0.6094931   2.0216417   0.6239802
 -0.3405736   0.13481176  0.2509733  -0.19212697  0.2754599   0.9694478
  0.4553723   0.12363803]
[ 0.06409872  0.00871018  0.13660291  0.5141908  -0.52635175  0.12372761
  0.25101638  0.25996587 -0.10945136 -0.51725096 -0.02802381 -0.6435292
  0.3473027   0.09230792  0.30613577 -0.24903743 -0.15748513 -1.2536496
  0.12442274 -0.4714865 ]
[ 0.05383327 -0.3211407  -0.16610482 -0.09112263  0.17486662  0.632513
 -0.16361     0.32988486  0.11971235 -0.00211619  0.13245253  0.52115065
 -0.08547165  0.38750157  0.05902199 -0.20013796 -0.45112664 -0.01823236
 -0.32012978 -0.24311621]
[-0.82443225 -0.36423445  0.14025676  0.25860792  0.07023115 -0.05766469
 -0.26612797 -0.15353331  0.17238589 -0.3533636   0.02232534  0.35269728
  0.47459173  0.20567973  0.47453636  0.12336279  0.46320716  0.03489588
 -0.6496549   0.5310036 ]
[-0.18831345  0.03263571 -0.13312887  1.1429812   0.45975426 -0.4152729
 -0.2321449  -0.96914333  0.9751812   0.41784635 -1.5632049   0.5806636
 -0.45391634 -0.30561012 -0.6314776  -0.2249113   0.4870087   0.32647267
  0.6747217  -0.98481417]
[ 0.10728712  0.130575   -0.2950493  -0.28532052  1.2818241  -0.00665831
 -0.72961897 -0.28342003 -0.29826868  0.01743273  0.0773875   0.205696
 -0.43777364 -0.54473585 -0.6595869  -0.43616503 -0.20483196  0.78228575
  0.3642814   0.7163398 ]
[-0.6375131   1.2608621  -0.5851045   1.0827172  -0.39145917 -1.2943629
  1.2403269  -0.15278728 -0.63936573 -0.12280171  0.0583468   0.74816436
 -0.46458027 -0.9713999   0.07912308 -0.41025782 -0.8029295   0.09548069
  0.35703945  0.3142213 ]
[-0.23751394  0.96331006  0.13246377 -0.4467275  -0.31672806  0.26204228
  0.24784966  1.1384846  -0.18948133  0.590366   -0.34516492  0.9228059
  0.9752438  -0.8185963  -1.4825591  -0.8023049   0.08985113  0.938718
  0.6841793  -0.75120074]
[ 0.10095324  0.21071962  0.8012252  -0.5279978  -1.3993685   0.02838466
  0.31732094  0.6215122  -1.0356159  -0.4441458   1.4890758   0.01921845
  0.6645716   0.23989646  0.6806194   0.00661562 -0.16082846 -0.67231804
 -0.35995233  0.96618766]
[-0.10798312 -0.13499011 -0.22438869  0.00959505  0.08958041 -0.05395332
 -0.04456438  0.02076176 -0.13555996 -0.06703774 -0.3343334  -0.01223435
 -0.00860541  0.01963364  0.15472661  0.19049677  0.05632107  0.06291679
 -0.012973   -0.00629716]
layer 1 Activation
tanh
layer 2 Dense
20 40
[ 0.06180576 -0.12623699 -0.25337023  0.08538813  0.09759966  0.8989577
  0.82933307 -0.23962705  0.46297914  0.35568017 -0.15421303  0.77277166
  0.2855952  -0.0329801   0.23520896 -0.6281182  -0.1878255   0.3091661
  0.29899713 -0.18013994 -0.00202139 -0.11267355  0.27307817 -0.3232397
  0.17942612  0.5813199   0.19266614  0.25929448 -0.31566033 -0.10635701
 -0.5671591  -0.0485289   0.29919192 -0.1796293  -0.22049609  0.38731414
 -0.5010787   0.09033368  0.24784504 -0.43603796]
[ 0.0372326   0.3188233  -0.18827339  0.17125389  0.29494625  0.17550392
 -0.00761517 -0.3263475   0.00351058 -0.36478502  0.38174766  0.00783637
 -0.18996207  0.346018    0.53255004 -0.24772009 -0.16277379 -0.7390705
  0.21275765  0.00742621  0.05064733 -0.20235984  0.38999707  0.10422627
  0.36880568  0.03676189  0.5678597  -0.07643842 -0.08491705  0.5711256
  0.9928612   0.0775774   0.6872855  -0.4186991   0.16138795 -0.23147549
  0.563668   -0.20533554 -0.1839223  -0.28877124]
[ 0.49423674  0.07597096  0.4094508  -0.15268564 -0.5288933  -0.24322392
 -0.5761052   0.45598242  0.07298941  0.61534214 -0.6789729   0.00559325
  0.54754186 -0.04397231  0.00732983 -0.02924573 -0.35031146  0.45839173
 -0.70355284 -0.10125867  0.01419909 -0.8688497   0.23489654 -0.7150869
 -0.3636828  -0.2902732   0.30174813  0.1800988   0.5537086   0.4068421
  0.12836212 -0.08785598  0.04755391 -0.25717407  0.00152244  0.29862022
  0.36681396 -0.4572689   0.1065247   0.2072707 ]
[-0.10324685  0.5118559  -0.904165    0.14219163 -0.5897819   0.4778606
 -0.37405702  0.8335135  -0.7272249  -0.3647091   0.4721663  -1.013983
  0.52978027  0.2689736  -0.66829276 -0.04283969 -0.47454718  0.5985274
 -0.38955486  0.10388799  0.727579    0.15919308  0.42044437 -0.725127
 -0.1244849   0.3697549  -0.48375258  0.04165495  0.12266751 -0.19431779
  0.6105915  -0.32447684  0.00352111  0.9328468   0.18462287 -0.13863644
 -0.3925246  -0.27369815  0.48891312 -0.4686171 ]
[ 0.2195392  -0.16251062  0.39636135  0.77156067 -0.05792821  0.21968552
 -0.51557106  0.44484815  0.46656775  0.24838594 -0.18831441  0.03919715
  0.05559675  0.18265079  0.15871717  0.09024923 -0.63567793 -0.41566044
 -0.0544924  -0.35684958 -0.3411183   0.03485151  0.4464652   0.04963577
 -0.32062557  0.22355188 -0.45290077 -1.0106155   0.03147965 -0.18760882
  0.2967354   1.1542982   0.5248413   0.07887422  0.51327366 -1.0370827
  0.16507863 -0.10937018  0.21372539 -0.77567   ]
[-0.00384878  0.56928486  0.463688    0.31700084  0.28448838 -0.43408018
 -0.75324804 -0.37358773  0.75371486  0.3290531  -0.5842625   0.7770032
  0.228882   -0.5487245  -0.629443   -0.09793144  0.9502986   1.1220001
  0.13274908 -0.19728154 -0.44678974 -0.00682     0.5256839  -0.41107598
  0.33159187 -0.43915024  0.71606463  0.07286982  0.8852514  -0.46568432
 -1.2218996  -0.18457007  0.3432253  -0.15540841  0.47142202  0.7119603
  0.10478146 -0.39699623 -0.5426561  -0.06719335]
[ 0.01297572 -0.27916798 -1.1437575   0.17953566 -0.26529455  0.77150655
 -0.32501107 -0.22519623 -0.26911378 -0.34350473  0.21972509  0.3770392
  0.10361948  0.795431    0.23880365 -0.49832606 -0.41618466 -0.94207954
  0.17602621  0.02641166  1.157158    0.2696513  -0.20097113  0.3927591
  0.34713733  0.21143231  1.0197024  -0.2153461   0.32755685  0.21452868
  0.12410397 -0.9500305  -0.3107782   0.08739565 -0.02944041 -0.01872594
 -0.04256223 -0.53674895 -0.2523508   0.428652  ]
[-0.6734284   0.04930329 -0.06248482 -0.83162606 -0.27237192  0.05841449
 -0.588831   -0.7664314   0.59120184 -0.04847406 -0.4305716   1.2360985
  0.43569213  0.21557634  0.38268834 -0.9250819   0.7375146  -0.35867
 -0.1191044  -1.0345831  -0.11367424 -0.97796303 -0.06829276 -0.90052974
  0.38611692 -0.06763356 -0.15416843  0.45521876  0.8254293  -0.53258127
  0.5218537   0.8162202   0.63229954  0.692758   -0.18117255  0.67230624
  0.6325115   0.8438508  -0.80732065  0.9552658 ]
[-0.19501314 -0.6254666   0.6553637  -0.10687175 -0.68508905  0.08789348
  0.46488932  0.66931254  0.02195188  0.60060453 -0.7028906  -0.10106987
  0.69132453 -1.0825831  -0.706741   -0.53012323 -0.9002378   0.67590815
 -0.28276616 -0.13979049  0.74334985 -0.1652515   0.02232404  0.13672604
 -0.05380577 -0.72035915 -0.15161356 -0.32835734 -0.68981147  0.47720298
 -0.58293444  0.16928165 -0.49540782  0.56203836  0.73665357 -0.35648918
  0.07398537  0.42587522  0.42324385 -0.31048697]
[ 0.21699855 -0.18563406 -0.2343462   0.91808486 -0.22323565  0.01241475
 -0.9995911   0.11096952  0.6986805   0.22651744  0.14767808  0.32700995
  0.62502736 -0.03400037 -0.12818295 -0.41778892 -0.07001196  0.21635766
 -0.10333244  0.20470424 -0.16142073  0.72318506 -0.5039262  -0.01306168
 -1.1811442  -0.07434698  0.31007355 -0.43385634  0.20112588  0.84970653
 -1.5074      0.27494386  0.48838362 -0.6915615   0.40764204 -0.03130317
 -0.5429537  -0.44767973 -0.728095    0.3056919 ]
[ 0.21482974  0.17176536  0.05467604  0.17568561 -0.5709232  -0.4447275
 -0.05280112  0.3586478  -0.34755513  0.34804428  0.09865732 -0.26620764
  0.47640646  0.01768219 -0.24842489 -0.46902832  0.19480039 -0.2567804
 -0.3719905   0.218982   -0.38372692 -0.01057668  0.7666896   0.17484877
 -0.5135989  -0.14061305  1.2157834   0.14667143 -0.04631706  0.3180746
 -0.18929109 -0.13913397 -0.7208706  -0.15624677  0.57803726 -0.08519015
 -0.2610933  -0.61859226  0.46630198  0.59638286]
[-0.38001367 -0.43048158  0.32987812 -0.3147674  -0.26197472 -0.9128133
 -0.64669466  0.13928382  0.40144184  0.55467975 -0.04676393 -0.18967263
  0.42754483  0.68349373 -0.3165856   0.35719138  0.10367043  0.29564643
 -0.07147563  0.14785965 -0.5888444  -0.16917154 -0.37573487  0.5943887
  0.17916195  0.03244676  0.02199483 -0.06875381  0.00381631  0.66926396
  0.2426526   0.5706441   0.16988139  0.00998902  0.51079065 -0.43330604
  0.06894312  0.13597    -0.299672    0.17742206]
[-1.090574    0.8820149  -0.1678262  -0.87201273  0.1915398  -0.10288817
  0.018953    0.866314   -0.32360947 -0.34131646  0.03469259  0.03211112
  0.34781906 -0.41658053  0.15758671  0.37899634  0.18990915 -0.0246194
  0.44501862 -0.02774532  0.41653243 -0.2122093   0.08627282  0.42843378
  0.43800482 -0.37987962  0.4585392  -0.17823032  0.9793004   0.7348425
 -0.2752099  -0.01002212  0.87006855  0.14852199 -0.36870402  0.45632234
  0.31456944 -0.30039394 -0.9946641   0.45182857]
[ 0.5189209  -0.3216507   0.5261612   0.6469518  -0.37004682 -0.04743756
 -0.42404267  0.69026816  0.33821547  0.45593506 -0.9749758  -0.06992618
 -0.00772203 -0.27411276 -0.19167143  0.5652836   0.29818755  0.75350326
 -0.23616982 -1.1443504  -0.24481156 -0.5840894   0.86151147 -0.7069023
 -0.3181649  -0.4688356  -0.7134605   0.7671089   0.01125899  0.47017485
 -1.5860901  -0.03217705 -0.44188964  0.45305568 -0.4209189  -0.04875825
 -0.48193327 -0.31547394  1.196145   -0.8507442 ]
[ 0.44242546 -0.37757444 -0.13830005 -0.04951309  0.9501676   0.6265655
  0.66203284  0.39208704 -0.19667368 -0.26564065 -0.73862153 -0.308661
 -0.39478013  0.11349259 -0.00829338  0.5651613   0.2113982  -0.1095131
 -0.05221981 -0.21983007 -0.52714366 -0.27139518  0.05943807 -0.36512664
  0.06107077  0.42036843  0.28420988  1.0996866   0.01377999 -0.4785096
 -0.5372454  -0.9069531  -0.5877789  -0.44283405  0.06461947  0.4086059
 -0.862708   -0.4032093   0.41076377 -0.73880255]
[-0.14096484 -0.02542445  0.22256882  0.2856563   0.3253515  -0.04164584
 -0.15738128  0.00774328  0.03556294  0.5628329  -0.3536968  -0.24341793
 -0.23856401  0.38989615  0.33333305  0.5191637   0.33040887 -0.06506003
 -0.07448921  0.37594587 -0.3731922   0.02251581 -0.5183153  -0.25627622
 -0.40418366 -0.10776453 -0.24019964  0.12552567  0.5384977  -0.7681864
 -0.6005779  -0.39347437 -0.07701548  0.2618066   0.18397483 -0.27488184
 -0.38494527  0.4468521   0.16735698 -0.01963078]
[-0.5866482   0.45011705  0.3906412   0.71746224  0.02856066 -0.39733484
 -0.05667     1.0272615   0.9843146  -0.10061749 -0.6610707  -1.0457796
  0.8357932  -0.04756143 -0.00414607  0.45949128  0.5560092   0.7267872
 -0.25511083  0.5678772   0.20845799 -1.3907082   0.29870224 -0.6884876
 -0.00286873  0.01705481 -0.5705563  -0.8303245   1.0740256   0.1720714
 -0.63340175  0.63421375 -0.4139367   0.16574548 -0.50384396 -0.04627211
 -0.3841532  -0.35064542 -0.36713344  0.18083595]
[-0.3411363  -0.01009312 -0.13577667 -0.16187757  0.69499195 -0.35290772
 -0.10389148 -0.02827306 -0.00217935  0.11936338  0.35309675  0.5663013
 -1.1118035  -0.12013765  0.19527768  0.12535863  0.78541356 -0.15805273
  0.22255263 -0.00133673  0.09290881 -0.34363306 -0.12191547 -0.05029985
  0.42906824  0.4160663   0.00338918 -0.05559861  0.17540134 -0.12130737
 -0.1797958  -0.07820065  0.36593825 -0.3424802  -0.21423036 -0.00945514
  0.31839293 -0.06903015 -0.31762624  0.20585062]
[-0.01165449 -0.09406994 -0.02069791  0.2124059  -0.4692602   0.54341006
  0.24587642 -0.25515792  0.87295926  0.61460954 -0.59586585  0.4129141
  0.09086124  0.2243217  -0.2034899  -0.29277992  0.05492284 -0.21489002
 -0.41328156 -0.26517016  0.3024122  -0.01850902  0.31240314  0.29822478
  0.13321206  0.6596141  -0.4719765  -0.05857106  0.30660182 -0.0321422
  0.61220354  0.8536976  -0.16841748  0.6691623   0.03212922 -0.10209586
 -0.59211195 -0.2894951  -0.5716316   0.23209442]
[ 0.21088284 -0.22787921  0.375783   -0.46932235  0.32818478  0.12566565
  0.01815    -0.33341813 -0.4226918  -0.13737305 -0.05802062 -0.20824434
 -0.84565794  0.30635846 -0.63569075  0.17580956  0.30834776 -1.0122769
  0.21659933 -0.12338029 -0.780919   -0.15769736  0.6523376   0.04941546
  0.23148498  0.06866566  0.51067394  0.35245445  0.0932717  -0.03836904
  0.1942159  -0.7035582  -0.36855876  0.4501527   0.58571756 -0.13941589
 -0.2806477   0.08247855  0.6855602  -0.99896014]
[-0.43163106 -0.2692623   0.02006868 -0.8506972   0.3903665   0.11168338
 -0.27064314 -0.27584103  0.06119234 -0.1160942  -0.08515302  0.4178474
 -0.5414348   0.27733073 -0.14330721  0.34877038  0.05487761 -0.37451512
  0.28185976  0.115382   -0.15242362  0.3563237  -0.41724798 -0.00784727
  0.16740698 -0.00926224 -0.14248694  0.23713341  0.20897606 -0.5867523
 -0.11200286 -0.16518171 -0.2875198   0.16455099 -0.10643883  0.25416395
 -0.3470082   0.20112364 -0.5709887   0.24066688]
layer 3 Activation
tanh
layer 4 Dense
40 20
[-0.17661524 -0.12635672  0.4393493   0.14115308 -0.27269176  0.2043231
 -0.1034925  -0.4163162  -0.5039309   0.43399927 -0.3092199   0.5294283
 -0.4075819  -0.20212263 -0.16320537 -0.083804   -0.46025875 -0.29792982
 -0.09617236  0.5482759 ]
[-0.5744752  -0.08854578  0.08023427  0.2544707   0.01378388  0.24547878
  0.34483847  0.45394462 -0.4990863   0.19506866  0.43230706  0.13782147
  0.29800117  0.02424561  0.15221502 -0.49149734  0.65292835  0.18378325
 -0.13558888  0.44588226]
[-0.6830158   0.54736483 -0.13149156 -0.38188726  0.13407326 -0.3997446
 -0.0253165   0.824046    0.5485257   0.20994657 -0.0140914   0.24331984
 -0.37875944 -0.0435756  -0.30935255  0.14072792 -0.22849415  0.41059202
 -0.06473424  0.2953761 ]
[-0.25976008 -0.67804384  0.5399136   0.10765728 -0.31511992 -0.4436741
  0.20678566 -0.8326291  -0.05179937  0.29254773  0.46584076 -0.38230056
 -0.08540659  0.7687246  -0.16457164 -0.22366408  0.86381346 -0.7202383
 -0.7009568   0.6365299 ]
[-0.17857039  1.1222568   0.38121548  0.208524    0.18604143  0.08590423
  0.12075267 -0.28654417 -0.08843897  0.34455746  0.22554572 -0.16008173
  0.2903103  -0.46219382  0.20505835 -0.64148176  0.25753963  0.4391959
  0.90796345  0.81083816]
[ 0.3505271   0.3477575   0.23735212  0.45721763 -0.01354941 -0.0505956
  0.2403773  -0.04963998  0.29034314  0.4967961  -0.07611456 -0.02499124
  0.11596195 -0.19974288 -0.22817482 -0.2711167   0.2019685   0.01231205
  0.24978447  0.5067381 ]
[-0.11663648  0.6145415  -0.05985116 -0.38997716 -0.3075214  -0.08591614
 -0.18870956 -0.14295399 -0.33858132  0.19998713 -0.56756747 -0.10553323
  0.01971539 -0.23554403  0.3267761  -0.36222264 -0.2757475   0.6568639
 -0.16463031  0.22349921]
[ 0.4240856  -0.18052322 -0.32816622 -0.35637587 -0.26624888 -0.11325163
  0.08643912  0.3031247   0.12908743  0.60010237 -0.18256453  0.3683685
  0.14683585  0.2772849  -0.7064113  -0.49448094 -0.08282258 -0.00979527
 -0.3922562   0.02407696]
[-0.24002996  0.29688528  0.3192819  -0.38219714  0.33586597 -0.10041182
 -0.28873506 -0.69166845  0.60338235  0.03974529  0.05040016  0.43570262
  0.43754777  0.7817034  -0.37449571  0.30704108  0.7138739  -0.25712276
  0.23277305  0.1297419 ]
[ 0.15076761 -0.4902535   0.41836566 -0.6584455   0.32081226 -0.6069906
 -0.5762236   0.094895    0.38091478  0.40359342 -0.15445866  0.6147841
  0.03118996  0.21817161 -0.66033304 -0.34410387 -0.40577072 -0.10157739
 -0.8767533   0.25005725]
[ 0.1283594   0.44414157 -0.6767214  -0.02947343 -0.4209916  -0.24003445
  0.01501189 -0.0024963  -0.21144319 -0.31215918  0.15961549 -0.32373583
  0.15463893 -0.01587595  0.13169391  0.01991517 -0.5230001  -0.43636975
  0.73652893 -0.00830263]
[ 0.0364453   0.23458838 -0.09182068  0.07234695 -0.04859683 -0.21838467
 -0.15749918  0.10179278 -0.04574365  0.11692335  0.28449774  0.34627798
  0.40777707  0.15616816  0.20179866 -0.4660147   0.20322804 -0.25118926
  0.7635013   0.02375562]
[-0.08234465 -0.98560673  0.10363402 -0.10676073  0.3133159   0.2341603
 -0.21534395  0.3107027   0.5109963   0.1517604  -0.1761203   0.42006
 -0.17226702  0.4722735  -0.03834085  0.20037696 -0.25003907 -0.3903239
 -0.85632545 -0.3535121 ]
[ 0.7908475  -0.31523     0.06935241  0.42243764 -0.1062512  -0.22881186
  0.21914111 -0.19025427 -0.23905236 -0.3501062  -0.47364414 -0.31715518
 -0.6921851   0.08540651  0.3439929  -0.09415302 -0.03890907  0.159097
  0.36568472  0.3856153 ]
[-0.20140159 -0.07998471  0.4725919   0.06110775  0.05165346 -0.24811262
  0.42794886  0.00355283  0.2666802   0.07521376  0.77622586 -0.01131368
  0.5101409  -0.30805603 -0.0472497   0.31985703  0.35221705  0.77951586
  0.11554617  0.2463911 ]
[ 0.04363817 -0.23343147  0.53818506 -0.16614735  0.2909265   0.30677667
  0.39356008  0.11543868 -0.22155128 -0.01828779  0.10481884 -0.41230246
 -0.32197872  0.17689364 -0.17503268  0.00298526  0.10121695  0.00370624
  0.38268486  0.0328622 ]
[ 0.36207092  0.66852134  0.00290917 -0.12472438 -0.00813392 -0.06381864
  0.18088757  0.03673508  0.10457342  0.23926999  0.2509603   0.21133406
 -0.06700534 -0.18423529  0.03430066  0.0504043   0.25175232  0.12569138
  0.437644    0.6068647 ]
[ 0.36251727 -0.6227559   0.21759172 -0.4363077   0.16310577 -0.30032972
 -0.568663   -0.20021348  0.7073746   0.5338669   0.5234244   0.17806678
 -0.7499143  -0.39221045 -0.5418635   0.5731931  -0.00623026 -0.3472061
  0.22574191  0.42492747]
[-0.3234379   0.12807193 -0.11993676  0.34847006 -0.0010573  -0.06053135
 -0.134201    0.1527956  -0.3025066   0.13668635 -0.2977491  -0.0764685
  0.3953366   0.13242662  0.24658251 -0.5926347   0.01327278  0.1021783
  0.9051796   0.1722568 ]
[ 0.5730566  -0.272767    0.16856785  0.16323794 -0.17400357  0.6675583
  0.08797807 -0.07467787 -0.04356075 -0.09674864 -0.6068653  -0.04355932
 -0.08889575 -0.0142096   0.19012295 -0.38249686 -0.65999997  0.18342023
 -0.79961944  0.13256581]
[ 0.4844897   0.11014341 -0.53550035  0.24232754  0.15798807 -0.08279285
  0.26996848 -0.10674334 -0.12738177 -0.6788413   0.07802279 -0.19031586
  0.24536599  0.08632918  0.557966   -0.20802236  0.35094303  0.1365835
 -0.06975725 -0.40148848]
[ 0.3402983  -0.3197179   0.01653085  0.3438923  -0.11317961 -0.5816311
  0.5036127   0.04888775 -0.05354034  0.00637138 -0.3243426  -0.25255814
 -0.05807534  0.32827023  0.17732736 -0.44517958 -0.1298672   0.1470988
  0.23530337 -0.26569998]
[-0.53905404 -0.3017897  -0.20970841 -0.15483765 -0.05144103  0.0831778
 -0.47017375  0.6925544   0.01170334  0.16417086 -0.03697872  0.21397807
  0.33281586  0.37563977 -0.23023173  0.36319637  0.06446322  0.07235451
 -0.05870768  0.4383907 ]
[-0.1402139  -0.63254505 -0.79407156 -0.16786146  0.05608816  0.19383694
 -0.1528865  -0.08876161 -0.06718495 -0.14262626 -0.2102321  -0.21881035
  0.24803317  0.36821696 -0.2615421  -0.6845793   0.13067739  0.4567828
  0.22820644  0.15698272]
[ 0.18349183  0.8235702  -0.29788768 -0.14888385 -0.27619484 -0.14696865
 -0.3505516  -0.1497829   0.05526536  0.03397978  0.15018828  0.15877084
  0.50511104 -0.34749347 -0.3306542   0.1242462   0.37048054  0.24625011
  0.914792    0.03702348]
[ 0.21560697 -0.01652678  0.50665694  0.28645065 -0.13840176 -0.15215404
  0.49088734 -0.5526808  -0.14090367  0.18119396 -0.49366018 -0.39644155
 -0.01582662  0.49409124  0.14132269  0.10677206 -0.43574986 -0.1877057
 -0.46811035 -0.1745626 ]
[ 0.28867662  0.1486648  -0.72123265 -0.05753279  0.18244934  0.14203914
  0.21894804 -0.7365145  -0.14963429 -0.3071814  -0.14181562 -0.36098853
 -0.02958974  0.14925161 -0.24855474 -0.41536495 -0.5683743  -0.10418519
 -0.5913129  -0.75715375]
[-0.20352423  0.13803305 -0.0344301   0.07790893 -0.30930942  0.38970578
 -0.22414806 -0.16041332  0.60391104 -0.33365873 -0.41991228  0.00962492
 -0.80610543 -0.14100884 -0.03457054 -0.35684055 -0.21597737 -0.28348398
  0.74527436  0.03738856]
[ 0.03705397  0.9652145   0.74170417 -0.08076682  0.20993069  0.2070005
  0.17562789 -0.23943321  0.33752477 -0.03557416  0.03964363  0.26603395
  0.07794081  0.6655132  -0.16595806  0.741188   -0.03368412  0.47299156
  0.59648436  0.11179272]
[ 0.1608227  -1.1946836  -0.4826898  -0.09814865 -0.13976374 -0.12854907
  0.05699288 -0.1019167   0.11069062  0.10525757  0.25268734 -0.50996506
  0.5104439   0.08793991  0.54083496  0.45721015  0.5057085  -0.23582715
 -1.0694767   0.15230574]
[-0.37720004  0.05951544  0.23510852  0.30975235 -0.05172606 -0.61885065
 -0.16249095  0.06214407 -0.5502304  -0.65743315 -0.75923985 -0.39349183
  0.27475718  0.11546092  0.55023396 -0.42888397  0.0080246   0.0926972
 -0.41105857 -0.27397528]
[ 0.66521126 -0.223494    0.80419993  0.18712042  0.6304981  -0.4617559
 -0.26788592  0.5233039   0.03467717  0.03861693  0.9999244   0.64894086
  1.1185534  -0.01586434  0.2780318   0.8094221   1.1627262  -0.11311758
 -0.08478965  0.572303  ]
[-0.05451547  0.10941522 -0.20667478  0.40854686 -0.08180345 -0.49711627
 -0.12066708 -0.50827277 -0.11214712  0.17268664  0.21563464  0.26220918
  0.09429221 -0.6611493   0.57770455 -0.23205993  0.27314866  0.16688158
  0.02171558  0.37960353]
[-0.0394838   0.3118991  -0.29607815  0.09279238  0.10141514  0.29531512
 -0.09744832 -0.02038971  0.12721187  0.1276152   0.10796028 -0.11700037
 -0.16271956 -0.28830022 -0.12908046 -0.2021628  -0.5092187   0.30952933
  0.72909427  0.29016832]
[ 0.06447268  0.23234051 -0.23466903  0.05606737 -0.09904354 -0.05589395
 -0.2648296  -0.2588593  -0.00826101  0.2509385   0.06046173 -0.1730104
 -0.21431637  0.6920186   0.28160998  0.3241456   0.18399745 -0.11420879
 -0.6773406  -0.5177571 ]
[-0.07380966  0.41114077  0.0731312  -0.30684772  0.565915   -0.33266318
 -0.59388644 -0.5158711   0.35930693 -0.03467008  0.39024553 -0.24340329
  0.23680268  0.27973822 -0.00674231  0.79872113  0.343998   -0.12741713
 -0.00404308 -0.13914835]
[-0.16841511 -0.5253896  -0.31032938 -0.1878736   0.12195913 -0.49507934
 -0.29827604 -0.03477041 -0.48671278  0.16860111  0.67053175  0.4086687
  0.17761613 -0.6170718   0.49443173  0.44392982  1.0822722   0.05518312
  0.22210437  0.01140035]
[-0.38174206  0.3977086  -0.5435428  -0.08621291 -0.09833614 -0.06100261
 -0.13792355  0.6763837  -0.37971288 -0.5138106   0.05829683 -0.32186005
 -0.14016987 -0.5900346  -0.0190912  -0.75776345  0.03630135  0.7034594
  0.09565951 -0.04158033]
[-0.5078702  -0.23601517  0.08748313  0.5048039  -0.34686062  0.1145701
  0.0478015   0.10174648 -0.15478766  0.430867   -0.32279512  0.0192217
  0.31351513  0.16096373  0.29880068 -0.14361852  0.21335511 -0.22796747
 -0.03881007  0.5839657 ]
[ 0.48807228  0.23054482  0.08790831 -0.88611084  0.47535092 -0.03238967
  0.3030282  -0.63643754  0.5289051  -0.17723583 -0.6201046  -0.47844514
  0.03172954  0.12822078  0.07117239 -0.4809779   0.41810334  0.05173468
 -0.6519763  -0.25484243]
[ 0.10344765  0.39240283  0.22693633 -0.00397744  0.31523055  0.06355109
 -0.10136902 -0.01759356 -0.06258439 -0.16170612 -0.30356216 -0.20763038
 -0.05222803 -0.18407367 -0.0377874  -0.06175363 -0.39109176  0.14361505
  0.5117212  -0.19674931]
layer 5 Activation
tanh
layer 6 Dense
20 1
[0.11910886]
[-0.3077139]
[0.40614498]
[-0.63196254]
[0.5887368]
[-0.35759053]
[0.25367397]
[0.13518292]
[0.5107422]
[-0.6093926]
[-0.31798923]
[-0.67398083]
[-0.35644823]
[0.3593826]
[-0.6096262]
[-0.3175202]
[-0.25378764]
[0.4590696]
[-0.8109276]
[-0.35709372]
[0.3032021]
