layers 7
layer 0 Dense
24 20
[ 1.403185   -0.7992398   0.54659534  0.1260374  -0.2377944   0.29894376
 -1.7930099   0.88986987  0.96433467 -0.45505157  0.909974    0.55851877
 -0.58186156 -0.23547073  1.0693702  -0.76936686 -0.73257166  1.8432212
 -0.8190595  -1.0183204 ]
[ 0.36096188 -0.00625404  0.8745197   0.07910904 -0.04291688 -0.14381605
 -0.06942893  0.32388043  0.03364896 -0.26441285 -0.08164829  0.41272548
  0.15380459 -0.1991175   0.26909935 -0.43372408 -0.56747687  1.1943122
  0.01827841 -0.22474875]
[ 0.43934602 -0.15959565  0.6781227   0.20723607 -0.36389452 -0.12154358
 -0.61878127  0.16517535  0.4041211  -0.2394168   0.16134508  0.21787687
 -0.33562717 -0.3182057   0.48576745  0.13268194  0.0661137   0.774424
 -0.21719055  0.1113288 ]
[ 0.873897   -0.48681998  0.3975826   0.5642084  -0.22822116  0.4528134
 -0.91044176  0.5949964   0.82185036 -0.95873517  0.35581514  0.5815156
 -0.79508543  0.15935725  0.55780625 -0.39654663 -0.7311613   0.9527434
 -0.50214636 -0.48657867]
[ 0.77459466 -0.9642816  -0.08686987 -0.37990695  0.56730825 -0.11522453
 -1.1960856   0.86098456  0.9098995   0.32394865  1.1279858   0.34054917
 -0.2589079   0.7936695   0.61397535 -1.0073247   0.09452853  1.009407
  0.11233437 -0.6780765 ]
[ 0.10768981  0.18958654 -0.32663843  0.19540413 -0.4836099   0.21971793
  0.01720849 -0.06722711 -0.08209432 -0.84730774 -0.50501144 -0.31382295
  0.13578333 -0.05622304  0.34533116 -0.12784883 -0.41897103  0.05308717
  0.1497419   0.224103  ]
[ 0.06136048  0.13354412 -0.34725356  0.02896464 -0.80753815  0.07427157
 -0.41505793 -0.00503901  0.38097614 -0.62159514 -0.09993804 -0.3536364
  0.11814581 -0.5602705   0.12309375  0.12006147 -0.259352    0.13168675
 -0.09553618 -0.07727973]
[-1.1815348   0.77517027 -0.5523578  -0.6790883   0.33763075 -0.3431746
  1.6570077  -0.8406711  -1.144754    1.0809351  -0.9086392  -1.0788798
  1.0211581  -0.43973914 -1.3924885   0.6651036   0.65507823 -1.6066266
  0.5729451   0.7343642 ]
[ 0.51747835  0.09420635 -0.6427827  -0.21020678  0.1537453  -0.18118364
 -0.74038154  0.86840266  0.5313771   0.59830433  0.61576235  0.39310122
  0.13199371  0.54761153  0.35790566 -0.45281124  0.13222058  0.12626204
  0.36317134  0.12218549]
[ 1.4258841e+00  1.8089596e+00 -5.3456847e-02 -2.7647525e-01
 -8.2644731e-02 -1.2299941e-01  3.1205103e-01 -5.0144148e-01
 -8.8443351e-01  7.4945414e-01  4.2804093e+00 -1.8630561e+00
  2.7762571e-01  2.1129538e-01 -1.7246732e-01  4.9827975e-01
  4.5754811e-01 -6.7775458e-02 -1.3299779e-03  2.7613470e-01]
[-0.38247383 -1.0039066  -0.00703638 -0.2699518   0.5505329  -0.6690325
 -0.8097947  -0.24208447  0.35817158  0.2538187   0.02186966  0.9617891
  0.03976266  0.4505071   0.5939608  -0.69211525  0.8191986   0.52434534
  0.02626286 -0.31858525]
[-0.8633094   1.2986443  -0.29874885 -0.34645337 -0.30599722 -0.58557755
  2.0402107  -0.8325167  -1.302985    0.3228104  -0.53137136 -1.2359496
  0.7993703   0.05731458 -1.2041125   0.5542402   0.12945555 -1.7678715
  0.64782     1.0020984 ]
[ 0.24342065  0.02722279 -0.41586173 -0.36794695  0.0889619  -0.13634609
 -0.7167873   0.36344564  0.53377336  0.34586295  0.12651388  0.26303542
  0.16020705  0.21120489  0.44298536 -0.57960725  0.24801134 -0.18700054
  0.5164279   0.23201238]
[-0.94750994  0.06068248  0.36388677 -0.07364423  0.00818993  0.08543171
  0.5310759  -0.31415254 -0.08446994 -0.12323339 -0.8180768  -0.27022234
  0.36400148 -0.35614386  0.07071852  0.5596039  -0.46553504 -0.44977325
 -0.29851508  0.2914432 ]
[ 4.2598023   4.640621   -0.03766398 -0.17545165 -1.8672341   0.7374659
  0.88464075  4.958606    0.49038437 -0.21500404  1.3510628   1.849552
  0.26281902  0.07913841 -0.33525547  2.4078007  -1.0261115  -0.03708173
  0.09474313  0.54246205]
[-3.0235035   0.94203496 -0.31998065  0.2199448  -0.07524584 -0.21765009
  2.1731584  -1.7774861  -1.4277737   0.7389028  -1.8498733  -1.409119
  0.60019314 -0.29306018 -1.582049    1.2436739  -0.58551776 -1.5535783
  0.65927434  1.0685933 ]
[ 0.06258615  0.00449091 -0.50356084 -0.3950933   0.686816   -0.04724004
  0.29710108  0.13378975  0.12373932  0.46858096  0.55980295 -1.2762029
  0.09702614  0.38002095 -0.42398742 -0.46316627  0.2717118  -0.5913929
  0.70360297 -0.11315976]
[-0.05630672 -0.02182159 -0.00546417 -0.37319812 -0.24274394  0.08164042
 -0.35120812  0.472348    0.38412756  0.45799315 -0.55291545  1.3143835
  0.03570575  0.3949331   0.17141652 -0.314221   -0.05357066  0.500769
  0.11869042 -0.08492582]
[-0.3891961   0.5559162   0.14938374  0.05314714 -0.10405604  0.18757176
  0.47515753 -0.8151196  -0.56937647 -0.15412244 -0.17386016 -1.2118157
  0.53640753 -0.54456913 -0.18094279  0.5745082  -0.40878057 -0.77491534
  0.05852577  0.4175664 ]
[-0.7759695   0.65767217 -0.4244048  -0.5018201   1.0749769  -0.34820247
  1.1088685  -0.5874357  -1.0652103   0.81071144 -0.49181786 -2.4613662
  0.6814841   0.2510664  -0.7678005   0.60037225  0.9092409  -1.5120243
  0.7582439   0.79880965]
[ 0.68807584 -0.34090626 -0.3055595  -0.44417673  0.50429344 -0.25635424
 -0.31466383  0.20139712  0.44719735  0.78529316  0.40500045  0.00427071
  0.26434007  0.2729082  -0.04866681 -0.1624477   0.3479846  -0.05388346
  0.13950081  0.16219027]
[ 0.28939113 -0.38494885 -0.24869858 -0.5767525  -0.05785963  0.41136596
 -0.62631935  0.09269772  0.74442226 -0.01847592 -0.2917375   0.08028059
  0.15710008  0.34274572  0.5145536  -0.0701297   0.07807276  0.5285562
 -0.0142736  -0.12156004]
[ 0.45804986 -1.5519507   0.2808226  -0.18962345  0.50002205  0.09249918
 -1.1632051   0.49752942  0.8254969  -0.17284149  1.2065792   1.2596843
 -0.15152436  0.5160808   0.6535701  -0.5782162   0.27231097  0.7759235
 -0.01782084 -0.58332825]
[ 0.31788042 -0.18998277 -0.08411635 -0.03906574  0.25345388  0.05026682
  0.12476986  0.03274389 -0.04524145  0.56865627  0.28581914  0.14634693
  0.03736434  0.05605064 -0.06849495 -0.06970868  0.7995248   0.06438984
  0.54082376  0.13036187]
[ 0.10082766 -0.42010978  0.5141394   0.33593917 -0.3888324   0.21786067
 -0.47205043  0.06833798  0.31415987 -0.73137414 -0.08060598  0.4635296
 -0.25798953 -0.10834362  0.44566384 -0.12093898 -0.5182873   0.71848774
 -0.5008694  -0.3960302 ]
layer 1 Activation
tanh
layer 2 Dense
20 40
[ 0.6182719   1.1149755  -0.12141816 -0.30275926  0.40385935 -0.68140644
  0.34693035 -1.195718   -0.450487    0.63952327  1.0315084  -0.97419804
 -0.93711275 -0.5498745  -1.0517292  -0.9740401   1.191123    0.7780063
  0.13749261 -1.3055958   0.93681777 -1.0925447   0.1796897  -0.9868302
  0.5920718  -0.0228204  -0.6590371  -0.03970036  0.13351038  0.5226849
  0.8513509  -1.0488014  -0.6929081   0.4610278  -0.6779224  -1.182927
 -1.1171231   0.75983316  0.8181606  -1.6661364 ]
[-0.8453136  -0.17503391  1.6969299   1.2134316  -0.36139     0.6844654
  0.0276287   0.6831546   0.21548183 -0.5163882  -1.1937668   1.1952966
  0.829118    0.84009635  1.263159    0.9401668  -1.1352307  -0.37866646
  0.31432632  1.1605998  -0.8880992   0.9942415  -0.25176254  0.84817994
 -0.55985796 -0.1926913   1.1520671   0.07572814 -0.13391867 -0.07550249
 -0.8795845   0.4147899  -0.34105963 -1.6363548   0.7502217   0.26998377
  1.1019982  -0.8572323  -0.8335551  -0.41776475]
[ 0.14831038 -0.16851036 -0.24489985 -0.31592485  0.10811739  0.43676326
  0.6081177  -0.5828456   0.04220317  0.3579662   0.3379653  -0.27421677
 -0.21643573  0.38294223 -0.3905899  -0.09583759  0.19772418  0.04343877
 -0.27020583 -0.22041546  0.8840244  -0.3480796  -0.24965768 -0.4800348
  0.74562204  0.277203   -0.06751482 -0.42496896 -0.25478184  0.11671373
  0.65740323 -0.28352496 -0.22723673  0.32816213 -0.3867119  -0.06117287
 -0.11036153  0.17895605  0.5573938   0.00700203]
[ 0.31435716  0.63622576 -0.52050674  0.3332298   0.44979182  0.12895314
  0.82695913 -0.91551083 -0.07899632  0.08238113  0.20542306 -0.5147726
  0.13719048  0.2726297  -0.01673312 -0.10589576  0.17822666  0.3262141
 -0.8429801  -0.37343624  0.5948804  -0.21943237 -0.24099596 -0.9581027
  0.7927059   0.5866181  -0.15790983 -0.05734263 -0.40875018  0.7403505
  0.54452676  0.00775923 -1.2918164   0.6629928  -0.77771235  0.24019428
 -0.09910073  0.33385012  0.31506422 -0.2743362 ]
[-0.34688595 -0.402399   -0.34083888 -0.2966217  -0.04959883  0.40806216
  0.26281634 -0.8043019  -0.3331065   0.8083663  -0.20813571 -0.19867273
 -0.1349192   0.06984118  0.18952547  0.44594747 -0.11833408 -0.3377768
 -0.60596395  0.12542601  0.0664378  -0.2535397  -0.48620984 -0.06035072
  0.45978922  0.3833189  -0.10236651 -0.4675954  -0.24404274 -0.5744765
  0.59769356  0.23673853  0.44800568 -0.12261188 -0.35405782  0.15050563
 -0.03893236 -0.13980666 -0.07045329 -0.14140809]
[ 0.11337196  0.14879422 -0.13453284 -0.1349704   0.4722939   0.35774705
 -0.5338956   0.50808895  0.37221888 -0.49775785  0.5273357   0.19483379
 -0.47708252  0.09020539 -0.00769624  0.13311021  0.0581856   0.53844875
  0.09261179 -0.20254405 -0.6951379  -0.09841371  0.23610808  0.46166417
 -0.59911317 -0.25217578  0.14098074  0.49569905  0.37586197  0.522588
 -0.7598788  -0.24303138  0.23271982  0.12483611  0.73705554 -0.2483785
 -0.15839584  0.10633849  0.4236626  -0.15399413]
[-1.009506   -0.63607496  1.2438928   1.0579013  -0.6657609   1.0709467
 -0.10575186  1.200423    0.09689683 -0.9168549  -2.352658    1.1265048
  1.5352072   1.1714422   1.9039406   1.4690046  -1.7158273  -1.158881
  0.47475293  2.0039437  -1.2893325   1.4318453  -1.1358393   1.3747901
 -1.1079371  -0.15983574  1.1270454  -1.051625    1.0155852  -0.83271146
 -1.071454    0.7743336   0.40646574 -2.1200683   0.7611066   1.2738715
  1.7501488  -1.5013033  -0.9285789   0.6137642 ]
[ 0.51101714  1.445285    0.53641325 -0.76712656  0.37195992 -0.9534178
  0.61739683 -0.6886462  -0.55700785  0.3887166   1.075511   -0.4664488
 -0.96101    -0.08207161 -1.0500587  -0.61307186  0.74231243  0.5815009
 -0.18013893 -1.0555768   1.0384892  -0.7193186   0.47184992 -1.0275835
  0.34062174  0.30346823 -0.44847253  0.04716581 -0.5106737   0.02520747
  1.0549575  -0.7824296  -0.5124899   0.21627831 -0.65410304 -1.3235438
 -0.6954017   0.55265886  0.4641509  -1.5901428 ]
[ 2.9186171e-01  9.3931831e-02  2.6974544e-01 -7.3006743e-01
  3.7998444e-01  3.7042093e-02  5.0178051e-01 -4.0321994e-01
  2.3184275e-02  5.7061219e-01  8.3052433e-01 -2.8383413e-01
 -6.2723428e-01  1.3032985e-01 -3.8860804e-01 -4.1097394e-01
  1.0113458e-01  2.0428070e-04 -6.3289994e-01 -4.8094541e-01
  3.6655453e-01 -8.9997025e-03  1.8989748e-01 -5.0544637e-01
  9.9753493e-01  5.2479339e-01 -3.7368891e-01 -3.0282709e-01
 -4.6398643e-01 -6.2939775e-01  6.7038721e-01  2.3601337e-01
  3.2685623e-01  5.6923938e-01 -6.2607050e-01 -1.1816207e-01
 -1.8774353e-01  1.2882216e-01 -3.6749031e-02 -5.9035701e-01]
[-0.18049775 -0.22853677  0.79197806  0.31100762 -0.58898616  0.20787108
 -0.3350383  -0.13368842 -0.64047277 -0.43587902 -0.46938887  0.5820349
  0.18350086 -0.14915359  0.946191    0.2793866  -0.09060134 -0.3945325
  0.52144206  0.59113586 -0.48903975  0.08627316 -0.07008433  0.17758383
 -0.27531916 -0.14046009  0.02412482 -0.81168944  0.95573    -0.2250002
 -0.10365989  0.7162113   0.00776967 -0.28560674 -0.04839914  0.21868378
  0.38918012 -0.1474589   0.14844112  0.4658413 ]
[ 0.80860317  1.1806625  -0.438177   -0.00866198  0.21410683 -0.49687645
  0.1684401  -0.64223623 -0.05532855  0.3026825   0.9268763  -0.66932887
 -0.8076836  -0.6640165  -0.86438996 -0.9591203   0.9689611   0.6566539
 -0.00518358 -0.67179877  0.58875835 -0.83248514  0.3410945  -0.7570559
  0.6975993   0.16772395 -0.719165    0.10528662  0.409602    0.49551153
  0.40699416 -0.8178756  -0.37348926  0.48733497 -0.6380186  -0.61082166
 -0.4203552   0.7064339   0.51773447 -1.0783848 ]
[ 1.0844605   1.1418964  -0.965437   -1.5255765   0.839869   -0.9855019
  0.7627732  -0.8302881  -0.37643337  0.5298133   1.5762736  -0.8188248
 -1.299769   -0.807962   -1.0645016  -0.9504952   1.3372691   0.6586127
 -0.64646214 -1.2364558   0.9922728  -0.90905833  0.11473566 -1.3812639
  0.42308313  0.06096102 -1.2582936   0.17678075  0.01616929 -0.12858951
  0.8454161  -0.6407333   0.01377724  1.6490902  -1.1088482  -1.203541
 -1.3085525   1.1157433   0.9364423  -1.0313026 ]
[-0.03167838 -0.00267203 -0.12033854 -0.5299343  -0.06316668  0.21024765
 -0.8331547   0.6867283  -0.26373732 -0.5575231  -0.33379102  0.08686451
  0.00259421 -0.24631487  0.24982801 -0.3012773  -0.27385077 -0.21595708
  0.33930057  0.29284912 -0.39968354  0.24137665  0.45260495  0.09859887
 -0.72455335 -0.26119453 -0.4174866  -0.8044621   0.74651504 -0.22394529
 -0.648703    0.2679073   0.3189951  -0.3344663   0.2387164  -0.04013482
  0.26566038 -0.4139322  -0.13903894 -0.20108087]
[-0.1303629   0.35774523 -0.23316339 -0.2021742  -0.08588093  0.0793924
 -0.7324093   0.57452637 -0.0301001   0.18271704 -0.38240346 -0.12651022
 -0.1456211  -0.2050047   0.47621927 -0.18458353 -0.11157639 -0.12519696
  0.6582423   0.30251566 -0.3654559  -0.02839503 -0.12062356  0.36347255
 -0.38302135 -0.30328807 -0.15358506 -0.84025156  1.2391616  -0.11947912
 -0.49375466  0.04461303 -0.34105986 -0.34783205  0.5039889   0.15378591
 -0.17853707 -0.3745877  -0.07186624 -0.00974868]
[ 0.5688458  -0.03962539 -0.7639278  -0.06412699  0.954303    0.33305869
 -0.0159704  -0.1679253  -0.380621   -0.45956632  0.28210893 -0.60744226
  0.47370937 -1.0854516  -0.23892023 -0.7852567   0.53634965 -0.00524245
 -0.00646388 -0.26710954 -0.1887398  -0.31749624  0.45082211 -0.20021582
 -0.43841028  0.22252154 -0.539101    0.7440573   0.64198357  0.39179954
  0.35929477  0.19998515 -0.74976164  0.54286325  0.2773409  -0.20678587
  0.10651243  0.13709138  0.38111678  0.04691969]
[ 0.07410502  0.275089    0.27192143 -0.10331561  0.23643543  0.40052024
 -0.03091683  0.18923748  0.3811068  -0.5382227  -0.8994827  -0.17330794
 -0.2801485   0.13629898 -0.02083417  0.14009315  0.06790985 -0.0871741
  0.52540296 -0.38097358 -0.13753681  0.67280513 -0.65182525  0.2791338
 -0.05879225  0.01317275  0.26311883  0.1249017  -0.33164388  0.5005677
 -0.0081582  -0.4809024  -0.8206045  -0.63824314  0.08076947 -0.5789775
  0.379192    0.46176714  0.0709544  -0.52848154]
[-0.09673836 -0.575244    0.25938225  0.31927574 -0.74681175 -0.02630337
 -0.7359945   0.17816418 -0.3089015  -0.51495653  0.27668527  0.52311057
  0.688584    0.29399407  0.6127845  -0.3383969  -0.14269646 -0.1813374
 -0.00542189  0.31301764 -0.06041447  0.47712666 -0.01674724  0.40416306
  0.24594487 -0.28486237  0.0270451  -0.94964916  0.34080002 -0.6783732
 -0.36993384  0.22140932  0.39515606  0.39536032 -0.01768436  0.40281063
  0.4493935  -0.5502021  -0.54751986  0.6656596 ]
[ 0.6304167   0.61112934 -0.8689895  -0.59379107  0.39549124 -0.3888804
  0.6805939  -0.5999441   0.05178401  0.8426802   1.6616324  -0.96450406
 -1.0306196  -0.52475435 -0.9374107  -0.6934771   0.8927649   0.92206174
 -0.45931444 -1.0925186   0.9385265  -0.7879598   0.6836459  -0.80008286
  0.14853358  0.15691173 -0.6425518   0.19398992  0.07557605  0.9615811
  0.633702   -0.76613295 -1.5724736   0.70497453 -0.00919485 -0.70253515
 -0.4833183   1.2008684   0.9090335  -0.1525289 ]
[-0.07000827  0.6048046  -0.13112399 -0.34579283 -0.18274882 -0.21505041
 -0.6247498   0.24690533 -0.23238501 -0.6776563  -0.5041061   0.45242435
  0.02957935  0.14774628  0.75259835 -0.13383064  0.01880096 -0.46538067
  0.47684345  0.5825907  -0.5725412  -0.10159043  0.15018347  0.56231856
 -0.42850754  0.04464011 -0.10595732 -0.2757927   0.9264463  -0.0339983
 -0.4626811   0.231277    0.418351   -0.30644917  0.12892824  0.14338495
  0.18864179 -0.19145891  0.09422556  0.2637702 ]
[-0.11962713  0.06698132  0.4735412  -0.27852222 -0.00264613 -0.19059259
 -0.6355952   0.6688715  -0.114316   -0.6037407   0.01424739  0.07402653
  0.06039732 -0.04838942  0.12516697  0.01862498 -0.05525532  0.04166382
  0.07985469  0.00214729 -0.0891109   0.15004791  0.25519103  0.24692467
 -0.6281885  -0.10174283 -0.21947096  0.24772675 -0.06148078 -0.13800159
 -0.52575314  0.05490825  0.6850327  -0.2225903   0.07820885 -0.08140678
 -0.12102487 -0.08203644 -0.37008083  0.11937173]
[-0.11099835 -0.11316401 -0.10398242  0.32705933  0.03253233  0.39624766
  0.3889531  -0.42246827  0.27761984  0.5059858   0.10409857 -0.02471731
 -0.22728373  0.14075527 -0.2029132   0.23247138 -0.0223017  -0.10454796
 -0.23518904 -0.20760152  0.45948258  0.00795827 -0.41063032 -0.50230396
  0.5339063   0.10616747  0.2600332   0.05847938 -0.5397711  -0.16957383
  0.53311425 -0.00170206 -0.3237855   0.21155143 -0.14417607 -0.07436396
 -0.12641728  0.16811253  0.28251126 -0.11686242]
layer 3 Activation
tanh
layer 4 Dense
40 20
[ 0.2798506   0.16359062 -0.15212546 -0.32714424 -0.22357588 -0.47687966
  0.42943284 -0.3848436   0.14636378  0.7163988  -0.08391889  0.43042567
  0.61273897  0.03305597  1.2613657   0.42622593 -0.09156815 -0.00522269
  0.25318077 -0.21982408]
[ 0.25618577  0.28708136 -0.24410988  0.25352788 -0.686304   -0.38256085
  0.670017   -0.00216295  0.23297176  0.23767726 -0.20792608 -0.21175677
  0.15354408 -0.19542955  0.28807822  0.10384842 -0.4312306   0.38220704
  0.26125467  0.6128781 ]
[-0.802599   -0.7240523   0.44695923 -0.43702233 -0.07326742  0.5455242
 -0.9475402   0.3158163  -0.33408332 -0.6673088   0.3753869   0.52171415
 -0.68256044 -0.3040143  -0.76369375 -1.0097063   0.6346846  -0.36461055
 -0.10649937 -0.6723267 ]
[-0.9595965  -0.10435371  0.0552428  -0.23092194  0.07626589 -0.03038724
 -0.57117075  0.5559237  -0.26898703 -0.24397725 -0.00502168 -0.2056091
 -0.98906565  0.40103763 -0.38157436 -0.6756441   0.38893098  0.04633865
 -0.01496605 -0.28972998]
[ 0.11967479  0.4634675   0.51729023 -0.10202396 -0.05023422 -0.68689275
  0.29768488  0.20521887 -0.28194007 -0.29639974  0.04873906  0.34918296
  1.1645631   0.28335992  0.6281186   0.45795053 -0.11720447 -0.09542693
  0.02663831 -0.35924315]
[-0.38310784  0.2753087   0.30792072  0.53420216  0.19219182 -0.05684017
  0.23755568 -0.27227703  0.06999535 -0.00782298  0.09809327 -0.24781382
 -0.82115906 -0.28276765 -0.62328655 -0.07398704 -0.03876733 -0.06264557
 -0.08988824  0.13900584]
[ 0.17218152  0.05844762 -0.8700588   0.37712914 -0.6005218  -0.30958313
  0.11522004 -0.39138362  0.4253307   0.7384321  -0.44262227  0.08631295
  0.13990219 -0.04060016  0.85044444  0.23520038 -0.35941726  0.53031385
  0.31514153  0.31784007]
[-0.12716769 -0.26739013  0.9271953  -0.24636196  0.950962   -0.00107103
 -0.31250644  0.38280323 -0.58460104 -0.60614336  0.18723118  0.627583
  0.1163872   0.2556888  -0.67280287 -0.36765656  0.5156817  -0.68207407
 -0.5163093  -0.6297937 ]
[-0.10103228  0.25942114  0.36351267 -0.35535055  0.5452256  -0.1843125
  0.13202153 -0.03087652 -0.20587493 -0.2160734   0.06632257  0.2320723
  0.8930622   0.679011    0.52486396 -0.24818276 -0.02870561 -0.16727127
 -0.33481953 -0.3564468 ]
[ 2.0073293e-01  7.0271736e-01  4.2197388e-02  5.8143377e-01
 -1.7398265e-01 -2.3647803e-01  2.7113336e-01 -1.8607330e-01
  5.0807631e-01  4.5703644e-01 -1.3091478e-01 -7.7916533e-01
  1.2334015e-03 -7.6061845e-01  6.0230166e-01 -6.7635782e-02
 -2.1332605e-02  6.5269089e-01 -6.2733289e-04  2.1613409e-01]
[ 0.99080133  1.1516697  -0.7961452   0.75578874 -0.6265592  -0.57977635
  0.5955419  -0.54748666  0.30393267  0.51019067 -0.5863897  -1.0064435
 -0.11991694 -0.9127616   0.8551013   0.99729794 -0.67056715  0.4921999
  0.407887    0.8909798 ]
[-0.7465919  -0.664583    0.3406341  -0.7111197  -0.2114704   0.53780866
 -0.5810539   0.1655244   0.18822183  0.2331841   0.34998676  0.26805755
 -0.8579538   0.32179558 -0.907216   -0.6349913   0.60006535 -0.40078
  0.03724815 -0.3096419 ]
[-0.4942591  -0.8686924   0.49278092 -0.15690935  0.5501671   0.6661903
 -0.7026288   0.22296657 -0.16862792 -0.36769712  0.06911317 -0.21366082
 -0.22975032  0.45374268 -0.20313363 -0.57815284  0.05303023  0.22216158
 -0.25568187  0.40619096]
[-0.11729407  0.44189423  0.42442107 -0.24515928  0.04822258  0.0856704
 -0.05353089  0.03249211  0.16814567  0.18791921  0.37597182 -0.1608746
 -0.8296576  -0.08607998 -0.63506335 -0.44437528  0.06532641 -0.1339458
  0.21057144  0.29919648]
[-1.3850383  -1.99043    -0.00871841 -0.60891074  0.06118654  1.3513479
 -1.0690011   0.23459971 -0.01422335  0.12531345 -0.0200485   0.543762
 -0.14800042  0.3990504  -0.18072112 -1.0318986   0.8189366  -0.51912415
 -0.26147968 -0.6862123 ]
[-0.2792719  -0.37465292  1.1147686   0.20634508 -0.0518575   0.2723465
 -0.56708634  0.20088537 -0.29864478 -0.3899051   0.576134    0.3130448
 -0.3381432   0.10689532 -0.7522256  -0.18114303 -0.4141259  -0.06916013
 -0.43259272  0.41650888]
[ 0.66278243  0.96487015 -0.35200083  0.14942542 -0.28569925 -0.9633211
  0.48560485  0.029495    0.28434554  0.7230359  -0.32661787  0.3617751
  0.7218445   0.22495934  1.3696663   0.46191278 -0.5528255   0.6866587
  0.29694307 -0.44900408]
[-0.05931125 -0.48451114  0.59237313 -0.5580292  -0.0926706  -0.88567716
  0.42152664 -0.0299385  -0.30612075  0.07377378  0.02156343  0.11479789
  0.8384581  -0.36872724  1.0591669   0.4588593  -0.01587018  0.2861662
 -0.01572395 -0.02997394]
[-0.31384242  0.06380086 -0.5926658  -0.2603882   0.34642953  0.28190705
  0.06132631  0.14785057  0.00660593 -0.0099375   0.13940962  0.20397174
  0.22275722  0.65885377 -0.03268538 -0.14761369  0.5303829  -0.43658197
 -0.16148157 -0.58798957]
[-1.3860073  -1.2726256   0.5333473  -0.44433153  0.7544936   1.5105368
 -1.0420185   0.40785763 -0.23868525 -0.5868734   0.24846843  0.8722643
 -0.17185606  0.45087773 -0.84511817 -1.2761036   0.8836194  -0.6651533
 -0.17763442 -1.0553334 ]
[ 0.53698826  0.27486184 -1.1971817   0.78190345 -0.9288064  -0.7877687
  0.55432814 -0.4749496   0.46719712  0.26461643 -0.66032934 -0.68554187
 -0.45376524 -1.2088542   0.67331094 -0.02264211 -0.67997897  0.857466
  0.5477715   0.6860721 ]
[-0.7336662  -0.6373279  -0.2135481   0.45859805  0.66228986  1.0782725
 -0.71900195  0.64786273 -0.19772594 -0.61779547  0.29475713  0.17481594
 -0.762854   -0.01725983 -1.3593842  -0.89498633  0.58495736 -0.4982476
 -0.32509288 -0.0054294 ]
[-0.11810448 -0.4289264  -0.02988386 -0.1309398   0.42840344  0.09926803
  0.19126692  0.17105761 -0.01177401 -0.13872558  0.00118972  0.6427832
  0.52472496  0.25277045  0.42029354  0.22057459  0.11027723  0.12806386
  0.13323553 -0.24067408]
[-0.72138894 -0.69581187  0.7903114  -0.636338    1.0171988   0.9144266
 -0.68395644  0.38007715 -0.5749255  -0.78905237  0.56849355  0.74830794
 -0.53231275  0.55808437 -0.8379689  -0.47020486  0.63254946 -0.51533043
 -0.32971308 -0.6523514 ]
[ 0.10804097  0.42759073 -0.66362286  0.3152871   0.10124756  0.52241987
  0.23853128 -0.35425505  0.6299533   0.90749866 -0.23828733 -0.28579777
 -0.5592006  -0.25458512  0.41656664  0.34495628 -0.4461648   0.5945768
  0.3734189   0.5513029 ]
[ 0.08607462  0.9760294  -0.9874693   0.28147948 -0.15268126  0.26719582
  0.1034302  -0.02810657  0.1212369  -0.45056647  0.10346384 -0.5269824
 -0.10422929  0.44126743  0.33426228 -0.33079848 -0.47442266  0.3975383
  0.05289834  0.6485747 ]
[-0.4143335  -0.00266312 -0.15043323 -0.35413677  0.04902967  0.51942706
 -0.36496398  0.19065404 -0.07454917  0.07625254  0.5058258  -0.5504355
 -0.48811328  0.64569706 -0.6978977  -0.6831545   0.16859403  0.04665456
 -0.1291394   0.2924853 ]
[-0.10087833 -0.01881036  0.41182026 -0.6307321  -0.09027534 -0.9849245
 -0.2839868   0.10436475 -0.43125504 -0.25798196  0.268082    0.6954592
  0.55984753  0.31958884  0.3531253   0.3460568   0.22824644 -0.05834097
 -0.27052617 -0.673265  ]
[-0.27918303 -0.17248093 -0.03160696 -0.7376207   0.3517069   0.3650616
  0.04634149 -0.08088109 -0.20478523 -0.20978202  0.0909207   0.77906543
  0.9007173   0.5283895   0.1050579   0.2447522   0.18165366 -0.87661093
 -0.25881016 -0.20742604]
[-0.38401303  0.03439496  0.31857258 -0.65269095 -0.08638783 -0.58615535
 -0.00094011  0.35740387 -0.015541   -0.30304325  0.18748574  0.3460432
  0.19562507  0.59230924  0.1796009   0.325881    0.19204234 -0.17071486
 -0.202347   -0.39558464]
[ 0.686099    0.3352123  -0.40810627  0.3823775  -1.705095   -1.0417048
  0.35344926 -0.7258841   0.83786815  0.708453   -0.6450565  -1.0704753
  0.5743273  -1.3467715   1.0398897   0.5606793  -0.5973782   0.84982914
  0.63188106  0.6386343 ]
[-0.48710972 -0.4050932   0.23049586  0.24652553 -0.08649541  0.34984383
 -0.5794528   0.45458227  0.04475294 -0.4374733  -0.061217   -0.474176
 -0.8358486   0.19642028 -0.64755386 -0.33251905  0.20724519 -0.44618347
 -0.0656321   0.10815537]
[ 0.35936886 -0.75439405  1.1670997   0.33009017  0.10137068  0.35252753
 -0.2016437   0.09013947  0.00817432 -0.00529565  0.01487199  0.23931955
  0.25971547 -0.38799852  0.14630961 -0.27481788  0.20141207  0.01112853
 -0.09982771 -0.13316901]
[ 0.78779435  0.77433884 -0.8226796   0.5558453  -0.0285619  -0.6327432
  0.9460434  -0.3590943   0.31177884  0.7323961  -0.31400442 -0.62410814
  0.06977341  0.07909702  0.5753058   1.1351845  -0.35267866  0.56051123
  0.32361662  0.5789018 ]
[-0.29787     0.15841126  0.13866162 -0.81437516  0.59433097  0.07690305
 -0.39185005  0.6212519  -0.6203426  -1.1827674   0.49832973  0.52561945
  0.5298009   1.0752367  -0.5496197  -0.29830888  0.32277054 -0.8620212
 -0.4070246  -0.33998474]
[-0.79968625 -0.47753984  0.36140677 -0.1868455   0.4800965   0.6817959
 -0.9060953   0.15436758 -0.47462898 -0.31729975  0.10179582  0.30703562
 -0.21522649  0.05806083 -0.78448373 -0.5663176   0.3872651  -0.13509622
 -0.22723837 -0.33605644]
[-0.32494855 -0.05009755 -0.08783296 -0.19470128  0.4543462   1.0690013
 -0.48927072  0.43062758  0.01150347 -0.55861205  0.28658715  0.47990438
  0.20452577  0.503713   -0.5437707  -0.1531952  -0.11580546  0.1445449
 -0.12795961 -0.03635893]
[ 0.50121605  0.41468918 -0.03441944 -0.0224656  -0.22962365 -1.1619338
  0.48909017  0.26446047 -0.1127973   0.36609256  0.04972504 -0.10681521
  0.46100584 -0.00837621  0.753354    1.3019629  -0.13123561  0.28698772
 -0.16735588 -0.05437026]
[-0.05650929  0.23596618 -0.37688813 -0.17020516  0.2666848  -0.8979685
  0.28988442  0.08625931  0.0438291   0.1778623  -0.32058918 -0.03074596
  1.0384597  -0.09174412  0.805196    0.7607022  -0.2597064   0.17744479
  0.24876289  0.13518803]
[ 0.01219777 -0.11404424  0.18659884 -0.29599625  0.23749788 -0.06837843
 -0.72969323  0.48990065 -0.3257125  -0.13458827  0.20323451  0.58046067
 -0.275995    0.05519638 -0.47765115 -0.685099    0.299462   -0.5140615
 -0.19651662 -0.81833035]
[-0.46202824  0.30157554  0.11046215  0.19976103  0.07589386  0.09410237
 -0.41556108  0.23815553 -0.15961082 -0.07633198 -0.07174031 -0.0417817
 -0.4937582  -0.36547136 -0.2773069  -0.22986951  0.19969985  0.21510664
 -0.19002788 -0.14224261]
layer 5 Activation
tanh
layer 6 Dense
20 1
[-0.37586936]
[-0.5033225]
[0.13486446]
[-0.13605474]
[0.12419789]
[0.5536263]
[-0.58231485]
[0.06043126]
[-0.07957156]
[-0.04937708]
[0.05722954]
[0.21337873]
[-0.23145366]
[0.09516133]
[-0.15340112]
[-0.5301627]
[0.24133386]
[-0.26458848]
[-0.0834802]
[-0.23569223]
[4.7013693]
