layers 7
layer 0 Dense
20 20
[ 0.22748302 -0.2234004  -0.27730304 -0.38722104  0.33004528 -0.06377466
 -0.2510803   0.19021119 -0.43140933 -0.45633486 -0.05194018  0.39989224
 -0.16045962  0.00861387  0.2857996   0.06011562 -0.26859114  0.20326765
  0.08706628 -0.1695904 ]
[ 0.3321889  -0.6316344   0.516859   -0.37539154  0.35646367 -0.4915244
 -0.65230685 -0.46317565  0.12112779 -0.03774872 -0.23472151  0.11261091
 -0.49305874 -0.2909829  -0.3812403   0.0722239   0.13810696 -0.10026393
 -0.12747404 -0.4043372 ]
[ 0.6566568  -0.10397483  0.21055372 -0.19322777  0.390609    0.16249286
 -0.6433309  -0.5700258  -0.36831406  0.1685187  -0.06169381  0.2102664
  0.13428101  0.04430813 -0.4926882   0.32094255  0.43458116 -0.14335996
 -0.28035864  0.09308034]
[ 0.1650314   0.24524736  0.15968618 -0.46002266  0.06001353 -0.31093127
  0.42187     0.36357576  0.02967077  0.00316537  0.330284    0.0989486
 -0.02806611 -0.11055775  0.06650569  0.11164188  0.011616    0.22216262
  0.31541646  0.12419105]
[ 0.1713081   0.05307689  0.20767197  0.25040218  0.10008888  0.17996286
  0.40435112  0.19094875 -0.11569798  0.19196767 -0.20478097  0.02495529
 -0.25838044 -0.1771522   0.13185102  0.15968819 -0.1822533  -0.31840655
 -0.29706046 -0.32810435]
[-0.0978044   0.50132436 -0.60303426  0.13655986 -0.3286942  -0.17803662
  0.48844737  0.47359017  0.2500496   0.16789785  0.17779762 -0.10822836
 -0.17198494 -0.3968037   0.4447617  -0.58106154 -0.02253463  0.11312737
  0.28030905  0.41442862]
[ 0.0416973   0.34864703 -0.18021578  0.2998751  -0.6949315   0.17202166
  0.5583676   0.52819103  0.21371326 -0.24236505  0.24417217 -0.12451834
  0.1090707   0.0647288   0.3214738  -0.65199316 -0.39490673  0.12980817
  0.50378346 -0.10257015]
[ 0.03161262 -0.4142326   0.56282175  0.35917503  0.00885703  0.5121206
 -0.4592665  -0.35205007  0.1721627   0.26798522  0.10163841  0.00265277
  0.44944534  0.6386426  -0.02447167  0.08000695  0.20500728  0.32416108
 -0.26232803  0.16011994]
[-0.33983874  0.5913735   0.6684622   0.5179434  -0.26372972  0.16019529
 -0.5608435  -0.19644977 -0.14666551  0.07404625 -0.11856256 -0.3588654
  0.03822037 -0.04990868  0.24748245  0.25686625  0.12855053  0.12849462
  0.02484035 -0.09956575]
[-0.18276767  0.11046523 -0.14145942  0.11680132 -0.00820334  0.21067888
 -0.21348041  0.03892475 -0.10786071  0.06414439 -0.07622439  0.2655209
 -0.14078408 -0.05732753 -0.10956062 -0.23657972 -0.32555488  0.02553519
  0.10737572  0.20559423]
[ 0.1084282   0.07946839  0.78048396 -0.14914411  0.15706342  0.33004338
  0.29058522 -0.16569781 -0.22263625  0.17323224 -0.1232722   0.20615654
 -0.12889892  0.11561245 -0.11213753 -0.53249156 -0.16554463 -0.30213997
 -0.6342859  -0.16007958]
[-0.25209236 -0.01254516  0.20081957  0.23843977 -0.39268586  0.20052026
 -0.16576025 -0.12597568  0.24998422  0.479248   -0.24593806 -0.29416955
 -0.13128151  0.70222485  0.67445135 -0.5077599  -0.4174542   0.15581387
  0.12840427 -0.02528483]
[-0.00267301  0.31750187 -0.08933928 -0.0565221   0.38872555 -0.33670515
 -0.10694201 -0.08134519  0.26708457 -0.22356299 -0.38637993  0.5317108
  0.24395113 -0.30863675 -0.50256014 -0.1889053   0.4739163  -0.5264655
 -0.07369515 -0.16870734]
[-0.09099382  0.28706884 -0.06734867  0.1652226  -0.21351014 -0.2274035
 -0.1689093   0.17403434  0.21683477  0.1871731   0.16257168 -0.1106512
  0.07170718  0.10081136 -0.5165901   0.49393794  0.05886755 -0.7550789
 -0.22849485 -0.07065161]
[ 0.55643857 -0.18233207 -0.347985   -0.35554364  0.25498423 -0.29881722
  0.5180635   0.17110577 -0.44237787 -0.14885795  0.13049854 -0.43683058
 -0.16207571 -0.25881246  0.33868575  0.1594492   0.20929906  0.15359575
 -0.22485028 -0.29710126]
[ 0.09993112 -0.4731104  -0.8133878  -0.5743316   1.6173404  -0.9322793
 -0.05086767  0.27406505 -0.8046111  -1.4540849  -0.36244038  0.93312955
 -0.42202312 -0.9108401  -0.83950907 -0.13311927  0.17924854 -0.7532487
  0.5925538  -0.8598019 ]
[ 0.44466773 -0.26048946  0.41848752  0.19368453 -0.45341894 -0.44019186
  0.25590956  0.12610349  0.17300017  0.09413524  0.24246567 -0.15981154
 -0.22084126 -0.308249    0.632144    0.25730613  0.20832506  0.25982663
 -0.10606134  0.49406254]
[ 0.35290158 -0.06992596  0.32904387  0.23992878  0.49605227 -0.09398854
 -0.14152886  0.14883155  0.1382356  -0.01455645 -0.2902907   0.00380136
 -0.09696454 -0.2943126   0.26815826  0.3840062   0.35770795  0.30476335
 -0.06900766 -0.3919016 ]
[-0.32702452 -0.2635221  -0.53456074 -0.05209392 -0.22660536  0.33156347
 -0.11609902 -0.2765174   0.0927691   0.14897792  0.21197781  0.28383052
 -0.01008017  0.06164596  0.14700775  0.39722386 -0.5113374  -0.06473596
  0.6677777   0.42602643]
[-0.2825363   0.17397718  0.3127897   0.34888408 -0.58260965  0.19425091
  0.01901167 -0.03546904 -0.19680567  0.33232278  0.41118982 -0.4932447
  0.17795254  0.02994532 -0.09842757  0.21706077 -0.23607801  0.12310334
 -0.24452451 -0.03039137]
[ 0.18781419  0.01357239 -0.11818035 -0.13045701  0.19403766 -0.12402435
  0.0810627   0.04854457  0.00163    -0.11314843  0.03694326  0.10647728
 -0.07894187 -0.1435532  -0.12029325 -0.12882166  0.03107118 -0.01765457
  0.06444123 -0.08112856]
layer 1 Activation
tanh
layer 2 Dense
20 40
[ 0.10483263  0.16606851  0.16001305  0.19305977 -0.07762466 -0.17912595
 -0.01026709 -0.14222804 -0.20345584 -0.29246986 -0.15190454  0.35443193
  0.24992166  0.17072552  0.1888857   0.28404412  0.04686105  0.24479014
  0.09903897 -0.16519597  0.27827892  0.28387713  0.23359714 -0.39227468
  0.04203307  0.20589201 -0.0163198   0.09202155 -0.00127235 -0.05449921
  0.08965458 -0.04715653  0.24314179  0.20228603  0.08932258  0.04315848
  0.38478792 -0.0993901  -0.13975303 -0.20974098]
[ 0.01602129 -0.12637708  0.03245966  0.21564002 -0.07540176  0.09226259
 -0.14208846 -0.05480894 -0.01087096  0.03197696 -0.01367332 -0.26122266
 -0.05699308 -0.15362751  0.22343127 -0.3713076  -0.11999948  0.02545213
 -0.00736026 -0.10783348 -0.08080289  0.18516485  0.17256023  0.14593457
 -0.11986829 -0.26763344 -0.23451635  0.03253656 -0.17753565 -0.03195123
 -0.20855422  0.22634125 -0.09240207  0.23452586  0.22813451 -0.09727915
  0.09951501  0.1916559  -0.10501035  0.18632017]
[-0.27753687 -0.19230053 -0.04324738 -0.35837612  0.17824271  0.16278362
 -0.07776859  0.07586953  0.2442005   0.13349049  0.44966906  0.02917188
 -0.19112672 -0.08247456  0.12437954 -0.36270845  0.08834522 -0.02919044
 -0.23889168  0.1660742   0.1118777   0.2049054  -0.02887112 -0.4159039
  0.11476342  0.2553519  -0.32824314 -0.08621544 -0.23864052 -0.1476906
  0.12747547 -0.47487304 -0.22370963  0.2570748  -0.0956939  -0.24983841
 -0.39601898  0.25818706  0.2177134   0.26669824]
[ 0.11013258  0.11102985  0.07110827 -0.11918807 -0.11695505 -0.05126436
  0.21573478  0.27520224  0.26323026 -0.0831761   0.28218853  0.04302514
 -0.18024592 -0.14042687  0.19740404  0.11537407  0.6189263   0.15318675
 -0.18291909 -0.19456777 -0.2808772  -0.12395523 -0.28278175  0.2610606
  0.30372587 -0.17705642  0.30657223 -0.28131986  0.22721532 -0.3067114
  0.20186388 -0.36295015 -0.2579566   0.50192696  0.01765833  0.11115678
 -0.0145264   0.1920007   0.0339502   0.20116475]
[ 0.11202514 -0.24109952  0.15636024  0.48869824 -0.2826598  -0.1531198
  0.4319626  -0.31521198 -0.26431823 -0.24454817 -0.66865814 -0.48474917
 -0.4820267  -0.05750852  0.13404739  0.06346786 -0.17345585 -0.33696577
  0.4197056  -0.14661223  0.1338156   0.18556021  0.17611876 -0.17990397
 -0.65675235  0.05647738 -0.07349351  0.0415949  -0.02063317 -0.1629345
  0.46806628  0.44987687  0.24293065 -0.29888576  0.17987554 -0.23362906
  0.29834318  0.01238279  0.13888958 -0.13598013]
[-0.04943261 -0.04520922  0.05625182  0.07754868 -0.12873168 -0.1185417
  0.04375334 -0.23723629  0.4496444   0.34549984  0.2551478   0.21701227
  0.25648832 -0.08023044  0.2682239  -0.29621044  0.15655454 -0.23864548
  0.02978857  0.17931601  0.2753645  -0.009461    0.17417061  0.47189426
 -0.11367411 -0.19732615 -0.15084198 -0.17247036 -0.25615013 -0.18698032
 -0.3517367  -0.17198272 -0.350025    0.3536678   0.03868708 -0.2564202
 -0.13393602  0.16176248  0.13921256 -0.12962656]
[ 0.04895531 -0.3679628  -0.19224627  0.1691174   0.04500214 -0.16277976
 -0.06515253  0.15733638 -0.2711945   0.10927254 -0.06742654  0.17190374
  0.2418295  -0.28168768 -0.3085756   0.21013373 -0.6438582  -0.06222791
  0.08023398 -0.19456655  0.05374821  0.17187425  0.11579471 -0.34427887
  0.24834894  0.12272941 -0.00608832  0.03688478  0.18027075  0.00861949
  0.33073333 -0.14126332  0.05661606 -0.18429382  0.32882354  0.24248084
  0.13318911 -0.20147598  0.17807141 -0.16019882]
[ 0.3236122  -0.34493595 -0.06241161  0.03229555 -0.31653318 -0.10871021
  0.0827596   0.15628868 -0.10741441  0.14817424 -0.02793318 -0.05180804
  0.11846671 -0.11879145  0.06210114 -0.12326095 -0.1624333  -0.12093432
 -0.08746194 -0.00057336  0.24627031  0.03074359 -0.23351437 -0.36349964
  0.07760163  0.2224338  -0.18033144  0.3067282   0.2582551   0.13718757
 -0.03060631  0.23030916  0.14887717 -0.23196433  0.23140101 -0.18378069
  0.25056994 -0.1960299  -0.1894394  -0.12215097]
[ 0.02842016  0.10108376 -0.22989932 -0.25830108 -0.19416095  0.09891226
  0.0503122   0.06141759  0.24736814 -0.0746102   0.25067756  0.13391277
 -0.01631315  0.32943413  0.09575143  0.27073255 -0.09059422  0.17015775
  0.06014408  0.071766   -0.20329691  0.04077327 -0.00970516 -0.08388642
 -0.01198     0.09476618 -0.01004982 -0.06814879 -0.23264007 -0.09980991
  0.08191828  0.15017687 -0.00737017  0.20476055  0.14112484  0.00620974
 -0.08984996  0.25171518  0.10603257 -0.04674257]
[-0.05067106 -0.22171023 -0.2085719  -0.03889841  0.03904386  0.11369266
 -0.01087299 -0.21207832  0.23655996  0.12413517  0.3382419  -0.11189344
 -0.29451036  0.07228515 -0.11915017 -0.03806292  0.22454786  0.15322751
 -0.262424    0.0039944  -0.03576193  0.17783818  0.28464898  0.3245711
  0.45166934 -0.20911187 -0.09140281  0.10744773 -0.24638852 -0.3380398
  0.14382225 -0.09597716 -0.19330068  0.35972965 -0.2329409   0.16190101
  0.05810256  0.05992652 -0.06745292 -0.04172263]
[ 0.10347992 -0.07524065 -0.16680454 -0.14774665  0.20299396 -0.10784074
 -0.05869643  0.48833865 -0.04968735  0.10792066 -0.20280005  0.30583733
 -0.27645454 -0.28317404 -0.4106412  -0.20150524 -0.22487894  0.2631269
 -0.05306687 -0.2429579  -0.075523   -0.34332296  0.18873961 -0.18990181
 -0.01132578  0.23910105 -0.08409055  0.34828344 -0.04640038  0.06083003
 -0.10323595  0.1635655   0.02486659 -0.16704985  0.18598957 -0.21032909
 -0.03438764  0.20319037 -0.1553268  -0.18700713]
[-0.12414622 -0.43602544 -0.23643152  0.1270572  -0.01473247  0.04050418
 -0.16431966 -0.07807571  0.03906994  0.22626553 -0.33722684 -0.28025135
  0.22001502 -0.00743999  0.32855648 -0.24433799 -0.07771874  0.00818816
  0.20254114  0.28893724  0.20287666 -0.31147292 -0.11196385  0.2985491
 -0.26863906 -0.06916849 -0.21013238 -0.20886464  0.18132204 -0.2242738
  0.0973327   0.08942086 -0.21120562  0.12047046 -0.3038532  -0.08662804
  0.01014072 -0.23103316 -0.27158585  0.00100453]
[-1.56106591e-01  2.98314631e-01 -2.42091805e-01  9.66267735e-02
 -2.25309491e-01  3.75941038e-01 -1.91467971e-01 -4.37423512e-02
  3.32524657e-01  1.57742709e-01  1.14770241e-01 -1.07737986e-04
  1.79427356e-01  1.64997175e-01  1.20068841e-01  6.06923476e-02
  2.30175674e-01 -1.63024113e-01  2.27438807e-02 -6.49296399e-03
 -1.80323780e-01 -1.70585588e-02 -1.85652733e-01 -7.52452835e-02
 -1.09094016e-01 -1.84399307e-01  1.15908749e-01 -2.42261127e-01
  1.47469029e-01 -4.00567520e-03 -1.91993773e-01 -2.07001820e-01
 -7.61632994e-02  2.09942549e-01  1.52177294e-04 -1.76816389e-01
  3.18672135e-02 -2.07566589e-01 -7.90070929e-03 -8.62486213e-02]
[-0.12953907 -0.10794828 -0.02543757 -0.3300478  -0.21513559  0.19307368
  0.17159577  0.0961692   0.33958706  0.3837286   0.48229462 -0.0270085
 -0.01211421  0.11362509  0.09823961 -0.39822596 -0.12787996  0.21260585
 -0.12616432 -0.1573634   0.05698102 -0.0877407  -0.15030867  0.12178569
  0.20926814 -0.3044622  -0.21049118  0.05466277 -0.33348498 -0.24267587
 -0.25470382 -0.09368805 -0.17237376  0.10031965 -0.28723568  0.19306304
 -0.3948128   0.20246935  0.19690809  0.14691575]
[-0.09278585  0.25060743  0.12433368  0.17512593 -0.33765772  0.05471238
 -0.20175007  0.08535866  0.012651    0.20303942  0.18711501  0.45938858
  0.3012184   0.1301159  -0.13891509  0.24759655 -0.04589681  0.12638175
 -0.31949687 -0.10041552 -0.0004967  -0.10943539 -0.026104   -0.3526736
  0.2681472   0.30278057  0.12295499 -0.10387872 -0.15969184 -0.108004
 -0.11691883 -0.23261397  0.20046826  0.19892766 -0.11282952 -0.21203098
 -0.02848674 -0.1898265   0.15009165  0.19460833]
[ 0.30418923 -0.03493087 -0.23040044  0.24734929 -0.07573812 -0.23430553
  0.1416888  -0.11017489 -0.20230985 -0.24801888  0.2302677   0.24182177
 -0.24266486 -0.1188197  -0.1633897   0.2855149   0.09044828 -0.01504643
 -0.39396533 -0.14389269  0.09922349  0.1349788   0.2927721   0.0336117
  0.10674276  0.18576111  0.11884371  0.04661099  0.11941387 -0.17113933
  0.05893125 -0.24414186 -0.2014002  -0.14711326 -0.03069677  0.14761257
  0.31268054  0.04713323  0.09748586 -0.16231406]
[-0.04167141  0.01825764 -0.00190276  0.15950352 -0.11831845 -0.2335315
 -0.15239157  0.1472461   0.29745495  0.08707298 -0.09600811 -0.18175998
 -0.22075903 -0.16088699 -0.14881292  0.29169056  0.1370708  -0.31654888
  0.22353616  0.32100707  0.14381379 -0.1269198  -0.12446555 -0.05034011
  0.04034367 -0.09211711 -0.22200514 -0.04002538 -0.14673428  0.03331271
 -0.22032934 -0.0581581  -0.07939311  0.2892743  -0.1858339  -0.1621727
  0.00888309  0.04787412  0.10923053  0.11445831]
[-0.13641028 -0.05104204 -0.38737842  0.03377972  0.05022703  0.04814324
 -0.1395288   0.27275327 -0.07631882 -0.05728076  0.02366565  0.42064092
 -0.25083032  0.19425675  0.12165368 -0.01835954  0.05174791 -0.21469082
 -0.24803907  0.3095717  -0.31506264  0.22912839  0.22160041 -0.2664957
 -0.18525065 -0.19402632 -0.30395195 -0.00193723 -0.01090632 -0.03041741
  0.12654838 -0.11420294  0.06973728  0.01778861 -0.0666374   0.07612849
  0.18042116  0.21027441  0.04629442  0.07362678]
[ 0.1552952  -0.08154696 -0.12256958 -0.00690406  0.07187163  0.23338234
 -0.1128303   0.21222325  0.24878658  0.01233969 -0.27810535  0.02048308
 -0.08825719 -0.23125874 -0.0132832   0.01287626 -0.10518761 -0.10222005
  0.09692195 -0.03897187  0.16200902 -0.144916    0.17251009  0.21225923
 -0.03369142 -0.04602936 -0.17577259  0.1870936  -0.02234038 -0.18541531
 -0.26330608  0.42434657 -0.0938898   0.14592327 -0.06911128  0.1300832
  0.26948363 -0.21719633 -0.25342196 -0.0873989 ]
[-0.0674139  -0.18388641 -0.04686537 -0.3412311   0.18562934 -0.20426962
 -0.05735654  0.44119397  0.26485807  0.01753551 -0.01579027  0.3811518
  0.26691136 -0.30980223  0.05890587 -0.01310308 -0.16565797  0.33377182
  0.2643638  -0.17453739  0.05967816 -0.10686335 -0.05413411  0.5149785
  0.22267342  0.05164672  0.2115726  -0.02034395 -0.10771601 -0.07913966
 -0.31635365 -0.16761352 -0.00081927 -0.1581799  -0.16084252 -0.08536694
 -0.05490194  0.06381576 -0.2766131   0.00339866]
[ 0.02389126 -0.13652357 -0.01408559  0.04469209 -0.01340498 -0.0408371
 -0.02209342  0.01970852 -0.33298558 -0.03048096 -0.13242862 -0.08089783
  0.13559553 -0.05134053 -0.09779683 -0.02891869 -0.3020817  -0.00852896
  0.00560979 -0.01917537  0.07502175  0.01161127  0.054203    0.0214093
 -0.05054836  0.059358   -0.042123    0.21066648 -0.02505451 -0.02266178
  0.02470904  0.15090637  0.09767383 -0.2029776   0.12360406  0.04842868
 -0.0180675  -0.15761681 -0.04873808  0.03789768]
layer 3 Activation
tanh
layer 4 Dense
40 20
[ 0.12407131 -0.0139417  -0.03622439  0.31680194  0.11334333  0.0615613
 -0.12497997 -0.14404456  0.20594054 -0.06088124  0.03107239  0.22066806
 -0.22028996  0.23621066 -0.27474028 -0.13665543  0.21434575  0.18172014
 -0.08027095 -0.15672481]
[-0.26345935  0.4860414  -0.12078671 -0.1524725  -0.17849253  0.23316884
  0.28701448 -0.30780998  0.24158476  0.00824437 -0.03242526 -0.20226708
 -0.2801092  -0.05066575  0.21690999 -0.09843385 -0.21960756  0.13691682
 -0.02006762 -0.23318596]
[-0.07627064  0.25027028  0.17793348  0.0210918  -0.17578298  0.26278538
 -0.19931744  0.25696036 -0.00950539  0.08290119  0.28708708  0.03633202
 -0.02884182  0.15234764 -0.17534104 -0.07689919 -0.15196103  0.27302045
  0.17008024 -0.03642109]
[-0.3191487  -0.0741341   0.45238912  0.22048889 -0.194434    0.25802115
  0.04824546 -0.12066942  0.17878038  0.05599523  0.27671105  0.15532216
  0.16335909 -0.14851317 -0.22926597 -0.08771702 -0.01585659  0.0779618
 -0.0443912   0.4069673 ]
[ 0.12332892 -0.11085271 -0.07001937  0.12419006  0.14567748 -0.04189319
 -0.19456734  0.2124738  -0.10135762 -0.14350148  0.0648092   0.10845855
 -0.3960558   0.01386638  0.01473212 -0.13823354 -0.05327925  0.12953922
  0.07526217 -0.15946093]
[ 0.06924772 -0.02373129  0.03741912  0.15784483  0.2962557   0.06669553
 -0.1828895   0.13463518 -0.3164551  -0.12694766 -0.00443369 -0.00783344
  0.03686082 -0.21540557  0.27630937 -0.17753412  0.11337877 -0.23613384
  0.00184145  0.15140083]
[-0.23805325  0.12101031  0.14978726 -0.16448443 -0.25956386  0.02390832
 -0.1268409  -0.25876603  0.13753138  0.04843215  0.07882451 -0.38241926
 -0.21258475 -0.0413288   0.02864047 -0.15909716 -0.17070022 -0.24485938
  0.08034412  0.0937506 ]
[-0.08094318 -0.14311273 -0.00203458  0.13459451 -0.18044609  0.25104406
 -0.2382339  -0.00893771 -0.19155149  0.33019054  0.00816152  0.24107806
 -0.16027525  0.01182338  0.1826164   0.01499394  0.0826095   0.09063125
 -0.06414996 -0.35943174]
[ 0.11929844  0.25776476  0.24778709 -0.150979    0.00032283  0.07728671
 -0.18696278 -0.14154476 -0.18333852 -0.0553907   0.11367461 -0.22600539
 -0.1642857  -0.22598542  0.25287586 -0.08060502 -0.24659808 -0.24668996
  0.24087425 -0.22823656]
[ 0.32042134 -0.01054171 -0.28523037  0.1699459   0.2651136  -0.11015666
 -0.113479    0.28462836 -0.18179885  0.13746962  0.14517576 -0.3829004
 -0.05988536 -0.02598915  0.14358748 -0.1573274  -0.11826776 -0.14150509
  0.09883975  0.01696733]
[-0.03320935  0.28536025  0.12023258  0.19166467 -0.00598724  0.04554874
  0.12295224  0.2653668  -0.2482323  -0.2412892  -0.06113318 -0.3228745
 -0.09418415 -0.29096198  0.24216403  0.4947951  -0.20694251  0.20503551
  0.13176441 -0.2649844 ]
[-0.21605578 -0.03432371 -0.03092675 -0.18736178  0.03927105  0.11904987
  0.30696872 -0.07580754 -0.2930239  -0.20599708  0.0431954  -0.09552567
 -0.08164706 -0.27617308  0.3475483   0.1119514  -0.13934855 -0.05435118
 -0.15108325  0.2449348 ]
[ 0.19847874 -0.23037381 -0.10291341  0.01507797 -0.0535073  -0.2892475
 -0.23828103  0.3065025  -0.13247682  0.15442412 -0.11798219  0.13209116
 -0.0986605   0.02072856  0.04571878 -0.04989777 -0.13288872 -0.15733379
 -0.13253954  0.03080953]
[-0.1301778   0.26501468 -0.1784943  -0.22545244 -0.12379871  0.19855435
 -0.14942805 -0.15301481  0.01459253 -0.21863817  0.2107875  -0.00857906
  0.5153701  -0.2080748   0.10594174 -0.0839495  -0.09082653  0.15450975
  0.16991311  0.15200596]
[ 0.08139827  0.20300317  0.08923534 -0.15504465  0.01602215 -0.08872827
 -0.05567437 -0.01202708 -0.29599977 -0.29260415 -0.13541274 -0.2017458
  0.3921346  -0.02162189 -0.26218578 -0.07381177 -0.12430245 -0.05745976
  0.1702927   0.03368747]
[-0.19665062  0.30155683 -0.13999434  0.17011596 -0.00340142 -0.06866596
 -0.25812927  0.23186183  0.2740281   0.2813214   0.01239769 -0.09339535
  0.24283282 -0.26766753  0.30908564 -0.07359977  0.05257327 -0.24552563
 -0.11167024 -0.14130361]
[ 0.08480458  0.4742099   0.06749188 -0.20550445  0.01636258  0.06739461
  0.06383508 -0.3306641  -0.10712568  0.04395061 -0.04649414  0.13918394
 -0.05639922 -0.23815793 -0.19362544  0.31305075 -0.14394532 -0.18345012
  0.23366572  0.03883562]
[ 0.23363495 -0.22089891 -0.02398327  0.0014099   0.26047698  0.14634776
 -0.01604991  0.19759692 -0.14490402  0.02739337 -0.11716401 -0.33863187
  0.23132323 -0.19757283 -0.15249722  0.23756592 -0.2055355   0.17144038
  0.11877851 -0.45637494]
[-0.41974428  0.09675742  0.03642706 -0.1871007  -0.06111156 -0.04037997
  0.25766113  0.26346478 -0.09912394  0.20128043 -0.17839673 -0.01207483
  0.00117544 -0.28347903 -0.09279417 -0.29791307  0.13567549  0.05983639
  0.3208348  -0.18112198]
[-0.15567964  0.20618807  0.05574399  0.27270293 -0.00222714 -0.14464682
 -0.02503218 -0.27527475 -0.31615177  0.23748332  0.153348    0.20996974
  0.08608364  0.20903622 -0.13797495  0.23211434  0.24091469 -0.08583835
  0.05357745  0.20277138]
[-0.0807901  -0.05324549  0.02413997 -0.24471867 -0.2985533  -0.21910693
 -0.16657932  0.09535924 -0.01190877  0.19040677 -0.04449765 -0.08318496
  0.02892978  0.2701742   0.08631566 -0.03153682  0.3010136   0.16971357
  0.05632117  0.24587166]
[-0.04146221  0.18619776  0.10207605 -0.3291007  -0.36073396 -0.06335618
  0.19454384  0.37442264  0.00418309 -0.15162854  0.00356291 -0.11219749
  0.17027736  0.309731    0.2542522   0.14725754  0.23640996  0.00383357
 -0.02568002  0.24967358]
[ 0.21142666 -0.20050226 -0.11322828  0.22199629 -0.00991464  0.00500395
  0.10622936 -0.02979739  0.20642956  0.29565686  0.08560665 -0.11277764
  0.30493772  0.04865384  0.24677522 -0.13041395  0.06787718 -0.19002596
  0.02874609  0.09381383]
[ 0.14482714 -0.07709746 -0.13540567 -0.02048814  0.39592406 -0.31718513
 -0.18932632 -0.24600782 -0.28208432  0.29421708 -0.11430217 -0.01292783
 -0.13054843 -0.1987847   0.2177565  -0.30573726 -0.01429267 -0.35249826
  0.2729161  -0.3586976 ]
[-0.15727448  0.04848601  0.15661152 -0.08293475 -0.10171203  0.2975511
  0.30932078  0.22285283 -0.19984683  0.12019327 -0.19391763 -0.21758711
 -0.24893531 -0.30583432  0.24268153  0.36214745 -0.24386851 -0.0758525
  0.01594258 -0.2421341 ]
[ 0.08575043 -0.2143121  -0.08137256 -0.01598734  0.15900318  0.03851207
 -0.08169936 -0.24738868  0.08800846  0.29022843  0.01849749  0.13396001
 -0.08544401  0.03188897 -0.29086187  0.04843669 -0.06966553  0.1462543
  0.02344109  0.19962107]
[-0.08811557  0.15920764  0.0332797   0.35387328  0.24873021 -0.2220274
 -0.05414328 -0.28263137  0.2901928   0.1785621  -0.00453593 -0.21336892
 -0.09342322  0.14543714  0.13601878  0.14629866 -0.24971314  0.03177732
  0.01209649 -0.37213206]
[ 0.31116217 -0.37921748 -0.21922393 -0.10231009 -0.13327147 -0.07575623
 -0.00535887  0.20656145  0.06196122  0.16193141  0.16197233  0.09747083
 -0.20018765 -0.09693168  0.12027998 -0.21259646  0.14496991 -0.16930252
 -0.28431705  0.33402625]
[-0.18564732  0.14309289  0.00318054 -0.23999913 -0.0097464  -0.30284804
  0.06398887  0.00169985  0.21803114  0.16472834 -0.14825395  0.04256627
  0.01984352  0.1366818   0.02609704  0.06798146  0.08497465  0.32421902
 -0.36296675 -0.21727505]
[-0.23854892 -0.05048004  0.30872613 -0.18969938 -0.13397305  0.23293474
  0.08561356  0.15923944 -0.01645325  0.0176413  -0.07297297  0.20682774
 -0.13532883  0.07759573 -0.13063394 -0.17153163  0.00729813  0.30236635
  0.07639729 -0.05456207]
[-0.23331028  0.1948466   0.07017139  0.247599   -0.25400203 -0.08806712
 -0.21398197  0.16188839  0.09184026 -0.28060344  0.04899705 -0.04244584
  0.03550847  0.0524357  -0.23336028  0.3502741   0.20187736  0.3209701
 -0.21947096  0.36934778]
[ 0.11849148 -0.28599766  0.00054225 -0.15421134 -0.07225294 -0.15164798
  0.02555566  0.1500858   0.05649559 -0.0918985  -0.16093434 -0.29409748
  0.01516359 -0.06554859  0.171065   -0.5048092   0.3004156   0.18719086
  0.21111163  0.15673445]
[-1.5685889e-01 -3.8244241e-01 -2.1903071e-01  1.8618986e-01
 -1.9639057e-01  2.5335091e-01  2.0382512e-01  1.8057851e-01
  3.8391787e-01  2.7501721e-02 -1.2692639e-01 -9.4677471e-03
 -9.5153652e-02  1.9535963e-01 -2.2618759e-01 -3.2868764e-01
  2.8079393e-04  3.1605047e-01 -2.8858811e-02  2.9462621e-01]
[ 0.07616841  0.42622125 -0.16199832  0.27490413 -0.30328205  0.15231228
 -0.02841057  0.1081083  -0.06791561 -0.16012645  0.1084657   0.02009088
 -0.14072494 -0.11884159 -0.02434581  0.17223231 -0.2409879  -0.01356453
  0.1057874  -0.2024862 ]
[ 0.06814884 -0.0361244  -0.20596799  0.3696802  -0.05381206  0.2275522
 -0.02262518  0.21732213  0.35152835  0.20322958  0.01704997  0.01411117
  0.04990205  0.05944952 -0.03186027 -0.06987976 -0.17258537  0.01698415
  0.17114298  0.22061351]
[-0.25835073 -0.15300015  0.31574088 -0.15017757 -0.14662102  0.07882965
 -0.09628208  0.04054959 -0.01106059  0.25814605 -0.17219964 -0.28020832
 -0.10701084 -0.09623171  0.17293912 -0.12925741 -0.04679292 -0.07801921
 -0.17484246 -0.04358216]
[-0.17365691 -0.32773474 -0.16676833 -0.07368188 -0.31215358 -0.00396625
 -0.30738023 -0.23020734  0.38532376  0.05288145  0.24503365 -0.09476711
  0.12374004 -0.22777972 -0.22969572 -0.01755592 -0.03482851  0.31875116
 -0.34642658  0.02654294]
[-0.10064764  0.4230653  -0.17382333  0.15479973 -0.23902936  0.20310965
  0.19654283  0.12453483 -0.3031268   0.17007178 -0.03485179 -0.09217034
 -0.07829717 -0.12257611  0.13232036  0.29928434  0.02959509 -0.08681141
 -0.26053908 -0.20589852]
[-0.12414111  0.08454283 -0.12076053 -0.23728754 -0.31262743  0.32596427
 -0.16939642  0.03662052  0.06358064  0.06581364  0.2856988  -0.3726379
  0.25782937 -0.19305834 -0.05247169  0.05312277 -0.2699713  -0.26802328
  0.16548228  0.29877484]
[ 0.16601041 -0.0800411  -0.35918668  0.1806926  -0.0146993   0.00184993
  0.03071468 -0.268722    0.14795281 -0.02881381 -0.2253312  -0.17307058
 -0.1145559   0.05023956 -0.29166105  0.22312123 -0.14369982 -0.2011502
 -0.17794676 -0.01133616]
[ 0.05342842 -0.21583515 -0.00142415 -0.02812972  0.07963876  0.01537892
 -0.00947083  0.01240586 -0.04727681  0.00606601  0.02136955  0.14233838
  0.16005306  0.07947183  0.02123969 -0.03308588 -0.00475219  0.06510366
 -0.05065079  0.09000012]
layer 5 Activation
tanh
layer 6 Dense
20 1
[0.02055221]
[-0.2880271]
[-0.01382915]
[0.00551469]
[0.04383853]
[0.14680353]
[-0.00219341]
[-0.08904237]
[-0.16867436]
[-0.06256054]
[-0.00273529]
[-0.00802194]
[-0.00969283]
[0.12572971]
[0.08515008]
[0.15775053]
[-0.17015915]
[0.14248131]
[-0.07855795]
[0.10181768]
[0.02636635]
