layers 7
layer 0 Dense
20 20
[-0.01413491 -0.5532297   0.08781363  0.13744336 -0.29610437  0.36212924
  0.24961217  0.09477324  0.20983015  0.07888521 -0.13964477 -0.33311504
  0.19864005  0.39811945  0.3810567   0.3281252   0.00695411  0.3537402
  0.41455483  0.11494309]
[-0.22333468  0.4843604  -0.14522171 -0.12636407 -0.09557173  0.1747794
  0.14253393 -0.23100972 -0.00267701  0.38115606 -0.29333404 -0.06817275
  0.45883942  0.14048639  0.21724063 -0.0362654   0.10124965  0.32586506
  0.03028489 -0.31536752]
[-0.19531102 -0.2543447   0.18532664 -0.31591168 -0.02610441 -0.10088699
 -0.1762686  -0.18961458 -0.42321062 -0.27195814  0.13172749 -0.5754684
 -0.19338183 -0.03535117  0.2559759   0.26455128 -0.29336074 -0.01408016
  0.04589627  0.27186003]
[-0.09039024 -0.32340583  0.31270868 -0.29419783 -0.33579046  0.13590817
 -0.2912986   0.21222305 -0.33608973 -0.13118093 -0.24335541 -0.26465884
 -0.14425369 -0.09600803 -0.10008123  0.13663085  0.40288326  0.2738936
  0.20681392 -0.13384722]
[-0.28364944 -0.5662414   0.25254488 -0.06568628  0.17433015  0.02968695
 -0.00587035  0.10530648  0.15549453  0.23614202 -0.45140556  0.17959599
  0.13797069  0.08214332 -0.3164293  -0.2883664  -0.23445909 -0.16936088
 -0.04736611  0.06789654]
[-0.37950724  0.31717196  0.15100396  0.06098729  0.13506915  0.05806228
  0.06635187  0.07283413 -0.1964398  -0.36511064  0.07053188  0.09618273
 -0.23847313 -0.20610431  0.17881602 -0.09150638 -0.13884449 -0.00610233
  0.04462969  0.14618222]
[-0.3069497  -0.12365945  0.25207832 -0.30657214  0.08914131  0.03854406
  0.00274985  0.18694848 -0.04140588  0.12212785 -0.13849793 -0.14330393
 -0.06057003 -0.14709862 -0.30960226 -0.16694215  0.34382904  0.007505
 -0.25128257 -0.14601474]
[-0.005909    0.16267781 -0.12202909  0.21199925 -0.05624869 -0.26210195
 -0.00603312 -0.19417201  0.21082649 -0.27329686 -0.00455098  0.01788314
  0.05618942 -0.27557105  0.29881936  0.19375785  0.07622883  0.22951573
  0.21958116  0.4162433 ]
[ 0.4493292  -0.09176063  0.25788534 -0.09486634 -0.00848719  0.19814529
  0.08627125  0.2876435   0.09734634  0.18101995 -0.22758023  0.06389206
 -0.10751285 -0.22755454 -0.14081565 -0.40774208 -0.07704062  0.19522107
  0.07833278 -0.00428554]
[-0.1641085   0.34527272  0.5455231   0.08923967 -0.3133749  -0.11789671
  0.16533063  0.20091267  0.44697025  0.08038046 -0.01836896  0.3238209
  0.6002895   0.13612445 -0.09753819  0.40323082 -0.5975028   0.28893292
 -0.30411106 -0.31151724]
[-0.2166276   0.28683355  0.0034608  -0.03610956  0.24419144  0.04831206
  0.5358188  -0.28177032  0.4073362  -0.24914852  0.11969829  0.26071715
 -0.18496011  0.01379296 -0.4121379  -0.3574122  -0.221277    0.05485893
 -0.09225097  0.22808975]
[-0.11391766 -0.32892826  0.7905071  -0.15409696  0.50328594 -0.33361334
 -0.09233791  0.38236293 -0.09769907  0.13718116 -0.02766352  0.3849085
 -0.1595966  -0.60413796 -0.11204158 -0.13408442 -0.36011347 -0.39777198
  0.06574448 -0.3199278 ]
[ 0.01351698 -0.13137265 -0.13490775  0.03311262  0.452727   -0.36977926
 -0.09055308  0.02338742  0.2943562   0.05903655 -0.10005118  0.1138081
  0.04598323 -0.14016372 -0.32656622  0.11956764  0.09830858  0.16481231
 -0.3660377  -0.02987682]
[ 0.07741145 -0.09546955  0.05133001  0.01778564  0.2667362  -0.20432353
 -0.36929592 -0.32965088 -0.53533554 -0.34258357 -0.29988968  0.46923575
 -0.06479661  0.19430454 -0.23905368 -0.61451906 -0.2699895   0.00471455
 -0.3049213  -0.03584393]
[ 0.45456424  0.28319246  0.16577668  0.15022185 -0.22642046  0.3106613
 -0.10502515 -0.18494283  0.12154465 -0.09145536  0.01770143  0.08052036
 -0.24742411 -0.06617365 -0.2689704   0.5411979   0.05071339  0.32374138
  0.12525174  0.00402379]
[ 0.19262548 -0.3584043   0.1527903  -0.39664757 -0.10085766 -0.10419247
 -0.25372168 -0.06097235 -0.3752433   0.54290867  0.08751132 -0.39383286
 -0.17932828 -0.14706382 -0.16310978  0.0384033  -0.19219314 -0.02513429
 -0.19321418  0.21530186]
[-0.46422696 -0.5374639   0.3721133  -0.37558633 -0.60251933  0.38796973
  0.08484029  0.08852197 -0.680247    0.01982439 -0.28184244 -0.45314667
  0.06584406 -0.23712613  0.33171082 -0.2831783   0.26676467 -0.0533782
  0.2712153   0.26111576]
[ 0.18109815  0.45260727 -0.54066044 -0.04779762 -0.21076405  0.51406854
  0.25377423 -0.24000353  0.00340047  0.03115973  0.08229147 -0.47600245
 -0.787734   -0.15601845  0.2098344   0.3395136   0.6765986  -0.02151763
  0.6473219   0.4701651 ]
[-0.7046439  -0.6969756  -0.58329713 -0.11176859  0.00755325 -0.15165299
 -0.31237403  0.32789102  0.2971261  -0.02937154 -0.4380476   0.34521756
  0.18717875 -0.36697614  0.6589454  -0.4111597   0.01598875 -0.3211161
 -0.49824655 -1.0775661 ]
[ 0.41620696  0.06180369 -0.3386762   0.401068    0.07463454  0.57702583
 -0.13892448 -0.5287364  -0.26161763 -0.22081533  0.05075286  0.05425787
  0.20356342  0.74832374  0.4854235   0.3223234  -0.47062126  0.15970524
 -0.11643183  0.1250549 ]
[-8.10359865e-02  8.29289034e-02  1.43491162e-03  1.83514073e-01
  5.73124271e-05  3.43111809e-03 -5.93853369e-02 -9.83558595e-02
 -1.22141935e-01  2.15398818e-02 -2.32855175e-02 -1.27471983e-01
  4.91003133e-03  3.05043459e-02 -1.32654887e-02  4.62967046e-02
  6.44562840e-02  9.19125602e-03  5.00355437e-02 -5.31987026e-02]
layer 1 Activation
tanh
layer 2 Dense
20 40
[-0.19394927  0.04446348 -0.0155951  -0.07217456 -0.03703175  0.03620465
  0.2568358   0.20142713 -0.28083083 -0.111559   -0.4166295  -0.32968163
 -0.01418622  0.07020385 -0.09258304 -0.09668501 -0.03006632 -0.18119922
 -0.2731984   0.44211927  0.15060455  0.09862471  0.29892    -0.18408322
 -0.35391718  0.11476376 -0.07930819 -0.00248347 -0.09134945 -0.26024985
  0.01075015 -0.15568186 -0.06281126 -0.16050231  0.33265564 -0.12084658
  0.25375903  0.24065264  0.2086599   0.1434876 ]
[-0.31453824 -0.11723591 -0.04382576 -0.1145938   0.02573572  0.0953918
  0.04898263 -0.05638987 -0.01342432 -0.18585217 -0.21398777 -0.12808406
 -0.02854947  0.0869532   0.31041217 -0.21861324 -0.05031551  0.4457623
 -0.27393055  0.2585901   0.3504128   0.10130569  0.10355945 -0.27115715
  0.01660984 -0.31023824 -0.22119088  0.18962091 -0.10530069 -0.08875623
  0.08101501 -0.08311096  0.15614319  0.34949487  0.10192198 -0.15775752
  0.18278676 -0.01505033  0.31536153  0.1912983 ]
[-0.24546629 -0.14965844 -0.15381683  0.04445035  0.03829161 -0.35289696
  0.09061024  0.06289257  0.1903945   0.49799007 -0.15495674 -0.26853982
 -0.21295597 -0.31320682 -0.17572445 -0.3274759  -0.17697588  0.0980836
 -0.17886922  0.03993397 -0.03759264  0.1514304  -0.33433318 -0.07328512
 -0.07796713 -0.41930804 -0.19149242  0.0083628  -0.36157838 -0.01109126
  0.13563873  0.11154599  0.29156435 -0.38148817  0.05470628 -0.11287572
 -0.18017629 -0.06655848  0.33772165  0.12517026]
[-0.20886612 -0.16821884  0.20132037  0.09603517 -0.28648347  0.30382589
  0.04633222  0.27004987  0.04025315 -0.21235558 -0.23024903 -0.19284326
  0.19483878  0.3298463  -0.00033696 -0.29002696  0.12132375  0.01481526
 -0.24652836  0.01182866  0.07763325  0.14969598  0.22175331 -0.14527334
  0.159161    0.14143027  0.18928225 -0.13382135  0.09589374  0.03506293
 -0.02420948 -0.02979593  0.20155422  0.00810689 -0.07177334  0.29555959
  0.22734758 -0.01017355  0.1227313   0.07218519]
[-0.22590394  0.4071943   0.11847665 -0.07250071 -0.22890972  0.2555336
  0.14389852  0.43101326 -0.40843624  0.08831367 -0.10258577 -0.22545595
 -0.22671197  0.18649298 -0.00845462 -0.33143774  0.16152614  0.5630973
 -0.3208845   0.17730162  0.4548549   0.02206019 -0.03951727  0.20783517
 -0.37147295 -0.26320925 -0.00745239  0.29963532 -0.35340467 -0.16321471
  0.09537837 -0.08713109 -0.08915408 -0.1106189  -0.32361895  0.26367873
 -0.1513103  -0.17564557  0.24014422  0.06890203]
[ 0.40499362  0.16754474 -0.46691984  0.4417011   0.31981176  0.07684501
  0.2454574  -0.18722492  0.10735252 -0.17356496 -0.14184505 -0.03205003
 -0.1341652   0.06130228  0.15210982  0.08239842 -0.21727502 -0.2649729
 -0.2789174   0.47479087 -0.28821713  0.04966577 -0.13218811 -0.24024518
  0.11831607 -0.14601883 -0.25962844 -0.41589928  0.8677087   0.11542434
 -0.17074487 -0.12889388 -0.36446163  0.00369098  0.03239494 -0.01403574
 -0.09996376 -0.18209726  0.1153865  -0.1514751 ]
[ 0.22787353  0.2041198  -0.0873047   0.31574476 -0.18016034  0.09346613
  0.17087343  0.14415625  0.2730856  -0.19471863  0.17098151  0.34110263
  0.22840263  0.00987685  0.13217813 -0.2738542  -0.18865041  0.21789043
 -0.0483183   0.16051924  0.07618215 -0.35367128  0.05000328 -0.06854404
 -0.10339717 -0.224579   -0.03658266 -0.25229496 -0.09779188 -0.12261138
 -0.27912712 -0.07109594 -0.1545457   0.02636017 -0.14165333  0.23702672
 -0.1254937   0.3509992  -0.19564135  0.03619539]
[ 0.11261497 -0.00117936 -0.11449656 -0.02989894 -0.1307153  -0.35352883
 -0.21219687  0.10404327  0.17168278  0.25750932 -0.25552905  0.14745606
 -0.09587777 -0.33982283 -0.2569725  -0.02522855 -0.13360742  0.06484979
 -0.13246617 -0.40782335  0.20974258 -0.10399298 -0.14640501  0.29447457
 -0.11443412  0.3122072   0.09387168 -0.01561023 -0.2922791  -0.21712963
  0.04063317 -0.19967826 -0.21606416 -0.16090548  0.273226    0.21447456
 -0.18201591 -0.2155155  -0.15505214 -0.13284887]
[-0.01544255  0.1869182   0.39689386 -0.03093053 -0.17280294  0.17331068
  0.2517524   0.07140818  0.05280054 -0.15731055  0.12897712  0.10213166
 -0.00185265 -0.22555555 -0.43659896  0.05702013 -0.00528405  0.3235671
 -0.25987387 -0.15004629  0.1977944   0.01899062 -0.00810705  0.09562594
 -0.22263362 -0.30314878  0.01917814  0.15937048  0.17275031  0.29022667
  0.23103124 -0.34119084  0.04601239  0.01389725 -0.21676706 -0.1329894
 -0.12394276 -0.22031769 -0.31347096  0.11654079]
[-0.17848171 -0.09396016 -0.25022113 -0.16808803  0.16985065  0.03418875
 -0.17579335 -0.0770777  -0.1617838   0.00464967 -0.30419225  0.11666477
 -0.10195673 -0.00598519  0.18093954  0.15937509 -0.11075741 -0.07531794
  0.10330972 -0.36463937  0.20770168 -0.14189094 -0.27040133  0.21267456
  0.20052376  0.05285308 -0.19642243 -0.11074326  0.12731235  0.0464982
 -0.10532553 -0.23480637 -0.08969444 -0.19035357  0.01464745 -0.23591027
  0.01665842 -0.1500227  -0.13932842 -0.11164866]
[ 0.25575018  0.1959977   0.2095658   0.2832155   0.19922146 -0.03765155
 -0.16079606  0.11622497 -0.00531462 -0.25820363 -0.00734538  0.1528465
 -0.23186651  0.2350661   0.21220401  0.15262382  0.28997922  0.14786902
  0.17001109 -0.03902318  0.0885919   0.21864077 -0.3075357  -0.06821981
 -0.10445144  0.13058628 -0.20008779  0.34639242 -0.22422716 -0.05323208
 -0.16972306 -0.1885866   0.19119957 -0.18240361 -0.1698466   0.03808341
  0.31127194 -0.08082947  0.05212987  0.14521109]
[-0.30186528  0.02908356  0.2815603  -0.33520633  0.17708108  0.25487405
 -0.10212427  0.1462428  -0.09146663  0.03317726  0.23587102  0.0880761
 -0.27856684 -0.17629269 -0.43452975  0.3010105   0.01196821  0.407923
  0.26598406  0.06074987  0.2360369   0.13945171  0.13877644  0.3791567
 -0.0314914  -0.1654358   0.01557375 -0.02045165 -0.46135703  0.02103134
  0.15488942 -0.32490337  0.3610324  -0.19225426 -0.12523803 -0.00918887
  0.01807892 -0.07953237 -0.09231545  0.08936522]
[ 0.06563817  0.30649725  0.05570727 -0.03896478 -0.23835762 -0.21541184
  0.15889084  0.02872569 -0.02920854  0.0352143   0.17778005  0.13097039
  0.20747502 -0.17058522 -0.5000001   0.30256966  0.28714257  0.26818746
  0.28748545 -0.197275    0.13558908  0.06266139  0.06839276  0.21934035
 -0.04058076  0.2566417  -0.26551095  0.17051516  0.17549759  0.07665505
  0.13212927 -0.21369107 -0.04220943  0.28923768  0.28123653  0.18790965
  0.02245278 -0.08621164  0.12103945  0.12219639]
[ 0.00812403  0.1698674   0.04228286 -0.14598992  0.37542444  0.33931255
  0.13174187 -0.03777541  0.19118626 -0.04801058 -0.043536   -0.233828
 -0.05615093  0.04079812  0.11638387  0.08951449  0.06252296 -0.11028264
  0.02141021  0.22202903  0.01525521  0.1892591  -0.03118833 -0.3386587
  0.14360708  0.29615155  0.10121062 -0.11129212  0.16127457 -0.21719891
  0.37729806 -0.29831967 -0.2159353   0.36163428  0.19887225 -0.35007298
  0.6900208  -0.2471904   0.4397935   0.19066322]
[ 0.3077748   0.03088721 -0.28515044  0.35612974  0.07047281 -0.26153755
  0.05913464 -0.38107002  0.01602895  0.00198788 -0.21096878  0.48976743
 -0.23540308  0.09316982 -0.14605226  0.05705256  0.05786363 -0.251969
  0.07627186  0.3815096  -0.14915806  0.18850848 -0.06212257 -0.447021
 -0.07442497  0.28688642 -0.21120332 -0.64719486  0.2369266  -0.01664359
  0.1805644  -0.14617251 -0.4573249  -0.01207485 -0.02648742 -0.1329794
 -0.40380013  0.18946074 -0.02922092  0.02899701]
[ 0.06433104 -0.03496709 -0.00845847  0.1787319  -0.09243657 -0.09048246
 -0.040241    0.11166499  0.18893218 -0.3587815  -0.26645964  0.28097257
 -0.250685    0.38370624  0.29108423 -0.21459134 -0.24655607 -0.01504062
 -0.14985816 -0.05283459 -0.06916859  0.05827577  0.16056952 -0.4477401
 -0.23871751 -0.2102022   0.08271768  0.14799738 -0.02727918 -0.10185879
 -0.03829167  0.08844043  0.12472851 -0.03396774 -0.14923827 -0.3866114
  0.38795662 -0.2021106   0.15806179 -0.1218119 ]
[ 0.13591863 -0.14386177 -0.8119742   0.32795507  0.29611513 -0.33295822
 -0.14424263 -0.15427251  0.30907848  0.22863998 -0.4748092   0.22222707
  0.18475126 -0.08441995  0.32331124 -0.17314602  0.18207447 -0.18603529
  0.0474907   0.14059602 -0.29511723  0.2604597   0.1436015  -0.24163821
  0.0792129  -0.12055429  0.02377291  0.1169475   0.21596254 -0.06906966
  0.09010836 -0.02105668  0.05559291 -0.27106348  0.09727731 -0.15230474
  0.37035415  0.18308358 -0.3191434  -0.06337593]
[ 0.18465872  0.22544271 -0.20432407  0.20145884 -0.12786743  0.10878092
  0.00672311  0.05344868 -0.03432095 -0.45936143  0.1354028  -0.07408432
 -0.08460874  0.19301704 -0.00193606 -0.17411073  0.2952438   0.12438577
  0.00975997  0.13394949 -0.16439295  0.20651017  0.1632458  -0.02686449
  0.1592593   0.0624174   0.0594294   0.06320003  0.09223137 -0.21813132
 -0.18556114 -0.1520033   0.16483884  0.01340495 -0.01875469  0.05434642
  0.27055463  0.09744503  0.09410153  0.21899141]
[-0.06810641 -0.08752911  0.03300279  0.32510293  0.07211379  0.06875046
  0.09171585 -0.364596    0.23193155 -0.28591225 -0.0732598  -0.19237253
  0.06646393  0.11998768  0.11345021  0.1944982   0.04360757 -0.30514878
  0.21700452  0.31675383 -0.2198101   0.15565763 -0.01959424  0.0973682
  0.24708644 -0.23636234 -0.05796885 -0.08686877  0.54666114 -0.30290133
 -0.30559787  0.17912212 -0.04709908 -0.28689203  0.00113103 -0.05437382
  0.04228449 -0.3175179  -0.1706501   0.257924  ]
[ 0.16094829 -0.09735128  0.04411701  0.05839837  0.18724571  0.16258696
  0.31673643 -0.1834299   0.10269503 -0.0369543  -0.48911372  0.2148302
 -0.26718268 -0.06538101  0.10950498  0.15419519  0.20786943 -0.4269779
  0.00471167  0.45838052 -0.18756154  0.15778047 -0.04568724 -0.27253023
 -0.20260362  0.06762117 -0.12203671 -0.45406988  0.2620812   0.05068897
 -0.07975535 -0.22936516 -0.2866236  -0.30345038  0.00765849  0.17481765
  0.05603428 -0.19381195  0.27559537 -0.3033592 ]
[ 0.04138174 -0.00832468 -0.06265617  0.05983084  0.04795501  0.03232278
  0.01004934 -0.07110418  0.03636163 -0.03126386 -0.01483036  0.00514011
  0.00763451  0.01266266  0.16409361  0.02151703 -0.00341592 -0.02613947
 -0.08877566 -0.03732048  0.00160219  0.06720859 -0.06254283 -0.03288445
 -0.01374901  0.02038958 -0.07763617 -0.0212692   0.02080365 -0.07303397
 -0.02911898  0.12252511 -0.06395709  0.02973752  0.00623511 -0.02495766
  0.03655061 -0.04618991  0.06381734 -0.02380835]
layer 3 Activation
tanh
layer 4 Dense
40 20
[ 0.08246129  0.22737765  0.12027273  0.16677222  0.30861104 -0.03233447
  0.24592355  0.08092306  0.05660035  0.2953765  -0.08880833  0.09519646
 -0.14816102  0.3151206  -0.04730818 -0.19332492  0.22323067  0.29047537
 -0.02601204 -0.12903164]
[ 0.2899127  -0.15857272  0.22202739 -0.00168538  0.02874343 -0.07911425
 -0.2824956   0.13682182  0.14958765  0.03279062  0.3286641   0.10026409
  0.23389243 -0.13309765  0.1831398   0.16574652 -0.28530398  0.19185181
  0.10073376 -0.28982234]
[ 1.64285883e-01 -3.02437544e-01  1.10863894e-01 -6.86736628e-02
  1.01291321e-01  2.15015158e-01  1.03947532e-05 -1.36415526e-01
  7.11320117e-02  2.51974672e-01 -2.76686728e-01 -2.24758521e-01
 -1.72201954e-02 -2.72090495e-01  3.11984032e-01  1.10262014e-01
 -2.89109558e-01  1.21404357e-01  3.62745449e-02 -9.31426436e-02]
[-0.38229114  0.00611324 -0.28799605  0.14380632 -0.16732664  0.03250616
  0.35522568 -0.1477751   0.08429655  0.19363312 -0.09130879  0.24199305
 -0.01069506  0.2951277   0.2930648   0.08091634 -0.14993253 -0.22040282
  0.29420036 -0.30694166]
[-0.18326439  0.01241945 -0.29195926  0.1850609   0.1642583   0.22430252
  0.2680655   0.14485443 -0.06165955 -0.28664058 -0.09252387 -0.07135391
 -0.12246126 -0.15075395  0.15056506  0.08768632  0.19653563 -0.03647785
  0.03538243 -0.14079908]
[-0.30392352 -0.1078677   0.13461149  0.13896671 -0.43821904 -0.09960734
 -0.06393959  0.1998227   0.13648543  0.21914566 -0.09966289 -0.28795156
  0.1563024   0.2702607  -0.15228893  0.32171708 -0.2495381  -0.03698263
  0.08770078 -0.2886155 ]
[-0.34625924 -0.05954362 -0.11358654 -0.17045206  0.05106432  0.00650204
  0.1231005  -0.25596693  0.21443698  0.02302096 -0.23245268 -0.24412483
  0.03790841  0.05024699  0.05415784  0.25923365  0.20054394 -0.23469299
 -0.03713312 -0.09991805]
[ 0.14363955  0.07893503  0.1473936  -0.11714768 -0.05015866  0.20436966
 -0.3617036  -0.01806865  0.15300222 -0.19418421 -0.02032945 -0.06205818
 -0.13542823 -0.17001438  0.05511566  0.15581606  0.13503939 -0.18162537
  0.22876188 -0.04625482]
[-0.11074772  0.12677805  0.18293221  0.03663496  0.24800645 -0.05626693
  0.25106922 -0.05071166 -0.2430074   0.21924058 -0.07676265  0.20233044
 -0.17563036  0.27986288  0.12318026 -0.16801444  0.21846677  0.16069984
  0.39225346 -0.17084834]
[ 0.11073276  0.0025567   0.06653209  0.15003203 -0.09932595  0.22062942
  0.06553123  0.1525408  -0.29497343 -0.09808772  0.21805522  0.19166262
  0.02027001 -0.32160315 -0.11407118 -0.17651336  0.24564998  0.13299866
 -0.16165859 -0.19436288]
[ 0.24273224  0.270812    0.1487056   0.0382551  -0.12615499  0.23291682
 -0.22210321 -0.2329149   0.19321315  0.434492    0.08410662  0.05534081
 -0.32615173  0.24986029 -0.3420423  -0.11586566 -0.22219303  0.23309399
  0.17938659  0.29461062]
[ 0.31650212 -0.05814146 -0.34878266 -0.20878607  0.1886811   0.11624504
 -0.13040961  0.12068275  0.04082938  0.27498293 -0.160658    0.16040108
 -0.08406546  0.03936069  0.20310906 -0.23655827  0.1461381  -0.20907634
  0.17403106 -0.32110083]
[-0.05765317  0.07652746  0.1795642  -0.02199223  0.14781593 -0.11113573
 -0.11155113  0.19973437 -0.06893356  0.04499954 -0.05771597  0.23430908
 -0.14659005  0.09363612  0.02793635 -0.19525212 -0.16120163  0.15578581
 -0.05971663  0.1413709 ]
[-0.33470988 -0.02728475  0.25091085  0.09857972  0.08683356  0.24255192
 -0.25100052  0.11752845  0.005052   -0.18893118  0.28206348  0.25131783
  0.3451715   0.029643    0.09948645 -0.1042894   0.13737744  0.03086552
 -0.16229281  0.15827222]
[-0.2912431  -0.11636777  0.01240924 -0.01991606 -0.1479469   0.16182661
  0.35743764 -0.22406602 -0.17572124  0.06097509 -0.12723266  0.38155365
 -0.10538448  0.2550646   0.19882038 -0.1622317   0.16363923  0.30358398
  0.4555683   0.07158335]
[ 0.24442077 -0.00079807 -0.12359358  0.03172171  0.02621368 -0.14908439
 -0.14383201  0.22670756 -0.08784896  0.20282003 -0.17850196  0.00337427
  0.18280053  0.29113978 -0.06464694 -0.02322143 -0.24454452  0.17679812
  0.10254998  0.00078773]
[ 0.02760449  0.27980408 -0.30458656 -0.2567744  -0.4105231   0.17616408
 -0.11175495  0.03203224  0.14393602  0.25896907  0.2214318  -0.07813378
 -0.16435365  0.02173308  0.10018722  0.2571364  -0.19351384  0.2387556
  0.2446714   0.25246036]
[ 0.25531942  0.14503185  0.28969142 -0.32654497 -0.1678423   0.19799957
 -0.34663305 -0.09260575 -0.14322114  0.29693407 -0.16381699 -0.06367454
 -0.02570333 -0.28800264  0.05829159  0.00755606 -0.13769534  0.01871233
  0.21302664 -0.09995489]
[ 0.01729845  0.01962047  0.03462426 -0.02333005  0.1677075   0.04134127
  0.1563824  -0.13488542  0.14831783  0.1323707  -0.35912716 -0.21795084
  0.00260199  0.02940031 -0.05467815 -0.24361357  0.27382734  0.15065995
 -0.11884627  0.18574359]
[-0.01115879  0.24845602 -0.32734552  0.09998921  0.05137668 -0.22179097
 -0.20277508 -0.30094206 -0.0909308  -0.16874686  0.2420183  -0.12281147
 -0.00725562  0.3368544   0.3376902   0.23417693 -0.02235175  0.04629889
  0.26551086 -0.22223319]
[-0.04896297 -0.12019911 -0.22994372 -0.33315387 -0.17444536  0.08989213
 -0.26455486  0.02497697 -0.26778978 -0.02706635  0.3230467   0.03238342
  0.25739765 -0.06601956  0.07029252 -0.14706081 -0.10377523  0.1791208
  0.03771399 -0.01119462]
[ 0.10361224  0.08613729 -0.1157369   0.16216676 -0.04164968  0.05062754
 -0.16921513  0.18786901 -0.05655489 -0.30643022 -0.1535966   0.23786157
  0.14084914 -0.11274365  0.03009459 -0.05552442  0.00786615 -0.01918228
 -0.1879598  -0.21915549]
[-0.25722218 -0.03718957  0.23798443 -0.20237854  0.10536008  0.10633699
 -0.17088161  0.0190469   0.13553761 -0.28013417  0.01867708 -0.03040548
 -0.16777797 -0.02991616  0.18712573 -0.11368939  0.27935654  0.24692042
 -0.27214423  0.05981756]
[-0.14234123  0.18893372  0.28806844  0.16655049 -0.06987756 -0.08236189
  0.13620833 -0.080143    0.10834137  0.32547998 -0.14349635 -0.22883531
 -0.05184416 -0.02537759 -0.3183399   0.08213593 -0.17703354 -0.29465076
 -0.2039312  -0.06751812]
[ 0.19411825 -0.21150956  0.23969267  0.32652634 -0.03088995 -0.16732582
  0.28500912 -0.22433983  0.30742678  0.11291206  0.09944607 -0.08276253
 -0.05088499  0.06496203 -0.02365937 -0.13811341 -0.11295971 -0.1692915
  0.02072771  0.04171573]
[ 0.2888308   0.00987528 -0.31685758  0.24108857  0.13295324 -0.13403733
 -0.1228153  -0.08762021 -0.2081292  -0.21222198 -0.15157396 -0.32759583
 -0.27259758  0.31449884 -0.07431515 -0.16950072  0.30980724 -0.22891158
 -0.34159535 -0.2877142 ]
[-0.10625163 -0.01071375  0.03711708 -0.1858123   0.10943624 -0.19964053
 -0.22098818 -0.16895357  0.11449517 -0.1766417   0.03439243  0.13222249
 -0.1836943   0.24175231 -0.17030585 -0.28331524  0.39229977 -0.11871476
 -0.16327894 -0.08937594]
[-0.2262366  -0.26126984 -0.04754892  0.04579943 -0.06505488  0.06611276
 -0.18606271 -0.05699787 -0.06675956  0.16762215 -0.00298316 -0.27492622
 -0.22084229 -0.34353414 -0.20183584 -0.0626152  -0.08156271 -0.10044416
  0.34366757  0.08043391]
[ 0.06796274 -0.03363024 -0.06878155 -0.13345958  0.04549357  0.2116346
  0.32855836 -0.01665548 -0.10833542 -0.3188011  -0.05316804  0.31649628
 -0.24247451  0.4507925   0.20529209  0.15521172  0.2853363  -0.24302454
 -0.09678103 -0.19088982]
[-0.20751671 -0.20845865 -0.2520828  -0.33480442  0.16994312 -0.11570004
 -0.1333936   0.11004906  0.3452839   0.20712167  0.09350325 -0.16644418
  0.0897146   0.0521221  -0.25184467 -0.13308755  0.18585154  0.11334994
 -0.28011203 -0.07072803]
[-0.11387936  0.34431     0.29611737  0.22935316  0.09057873  0.09779827
 -0.16105255  0.10896723 -0.09815654 -0.26368573  0.05469877 -0.1827501
 -0.1452235  -0.36677596  0.22332706  0.07545366  0.00724887 -0.16695616
 -0.29646686  0.34849462]
[-0.11604037  0.10281312 -0.01269959  0.2657871  -0.035809    0.18121524
  0.16271532 -0.05588669 -0.25504178  0.23498608  0.02263964  0.2533093
  0.05256667  0.1031832  -0.20248297 -0.31722644 -0.04103407 -0.17891692
 -0.01491288  0.17628972]
[-0.2218675   0.09231009 -0.09794554 -0.0961817   0.07469803 -0.24195905
 -0.19301912  0.05547765  0.0164046  -0.17169765 -0.05383286 -0.25514272
 -0.18643127 -0.1346546  -0.16629505  0.09632166 -0.0676204  -0.06647698
  0.15173602  0.12637201]
[ 0.28043744  0.09867907 -0.10665856  0.14380297 -0.26098767 -0.24574265
 -0.05303007 -0.00493019  0.2173028   0.16913317  0.33481878 -0.14773776
 -0.13607478 -0.0536005   0.24274504 -0.0379791  -0.18130103  0.141125
 -0.12489659  0.36725694]
[-0.08016033 -0.02949575 -0.21902668  0.18016154  0.05713129  0.26999924
 -0.13216005 -0.27203003 -0.07670472 -0.24235262  0.30458573 -0.09551877
 -0.08545088 -0.09016256 -0.222539    0.02299375  0.15636203  0.35486773
  0.12822562 -0.11148777]
[ 0.2540165   0.03892787 -0.27142152 -0.1763675   0.27607238 -0.01405915
  0.2000633   0.12964067  0.09594832  0.23455437 -0.03768843 -0.24308434
  0.07796419 -0.11088269 -0.18210444 -0.01059906  0.28672165  0.04799205
 -0.23300783  0.22035842]
[-0.1561299   0.30843976  0.05740635  0.27174422  0.16195585  0.09007424
 -0.25988707 -0.07342495 -0.11227734 -0.36520684  0.12697165  0.291399
  0.0932217  -0.26386884  0.09928069  0.36854145  0.346392   -0.24106199
  0.32299    -0.28464118]
[ 0.01855751 -0.23955962 -0.06737495 -0.21485569 -0.31361264  0.13700484
  0.13185048 -0.22956687 -0.05255197 -0.05798675 -0.06589879 -0.20398442
  0.04032586 -0.0198787   0.06872416  0.08037136  0.30437252 -0.08141642
 -0.21732765  0.21019079]
[-0.3258862  -0.08669433  0.07848302  0.14091766 -0.29761282  0.01871437
  0.09057552  0.1471934   0.017159   -0.22190064 -0.11681543 -0.19535917
  0.0495369  -0.2748052   0.27934152  0.34142202  0.01809516  0.31734508
 -0.00248913  0.0952986 ]
[ 0.13870828 -0.08396691  0.02358812 -0.14383638 -0.22706352  0.18353254
 -0.24160099  0.07731769 -0.10340077 -0.23353478  0.3503085  -0.03844661
 -0.2550231  -0.07445481  0.04607252  0.278862   -0.26446667 -0.08133834
  0.05917961  0.1830583 ]
[-0.03283986 -0.02231076  0.00046345  0.0447835   0.06221425 -0.01028559
  0.03105499  0.01713652 -0.03584737  0.04292979  0.04945436  0.04327713
  0.01101659  0.00136729 -0.00087898 -0.02046504  0.01198087  0.03864368
  0.02637853  0.02898061]
layer 5 Activation
tanh
layer 6 Dense
20 1
[-0.05322105]
[-0.02173726]
[0.06712253]
[-0.23110422]
[0.0036318]
[-0.00448035]
[0.39620587]
[0.0004784]
[0.08190381]
[-0.16367218]
[-0.00070123]
[0.28323153]
[-0.01214721]
[-0.39304388]
[-0.33514237]
[-0.09306154]
[-0.10187989]
[-0.01085609]
[0.1775229]
[0.04504615]
[-0.02459199]
