layers 7
layer 0 Dense
20 20
[ 0.28860125 -0.259391    0.13986318 -0.10901531 -0.09362148  0.3715845
 -0.32898542  0.11615413 -0.4059037   0.3180507   0.14805682  0.07374012
  0.14953378 -0.04638818  0.09685452 -0.08129027  0.17609698  0.37596968
  0.25865716 -0.24087523]
[ 0.0683081   0.08643509 -0.94082224 -0.66069347  0.5113063  -0.48867184
 -0.48483226  0.18423834 -0.40892425  0.27156612  0.1131026  -0.4164832
  0.5116694  -0.10529915  0.23772724  0.3497383   0.17349699 -0.44594008
  0.15736102  0.2222261 ]
[-0.3728122   0.57700396 -0.47134972 -0.1595795   0.67548203 -0.14985178
  0.20931321  0.24600004 -0.60427344  0.35438457  0.37401605 -0.5760154
  0.32754466 -0.31466138  0.08124324  0.11411806 -0.4180724  -0.20230569
  0.06347249 -0.40675104]
[-0.16843094  0.10612214  0.25447658  0.26606858  0.19466081 -0.26105285
 -0.33660817  0.09492121  0.12338863 -0.0374248  -0.11914343 -0.09704328
 -0.07617358  0.5907432   0.1846323  -0.21972467 -0.07622457 -0.01185241
 -0.14758801  0.05813411]
[ 0.33242682 -0.2976323   0.19051373 -0.22454104 -0.37293458  0.25428388
 -0.48254853  0.04120204  0.34747612  0.16828462 -0.44163114 -0.0100576
  0.32467422 -0.0848     -0.06077119 -0.03048441 -0.12387858  0.257206
  0.04759875 -0.2836369 ]
[ 0.3802108  -0.23784186  0.8549391   0.54949236 -0.85858625 -0.18778765
 -0.18456493 -0.7147839   0.55559623 -0.5148305  -0.09364159 -0.11031428
  0.01777914 -0.07571511 -0.25716555 -0.39878398  0.0402477   0.48967224
 -0.22955835 -0.10858613]
[ 0.24793395 -0.56840473  0.29622063  0.49400887 -0.8987004   0.12930866
  0.06365021 -0.57327217  0.67005146 -0.25080165 -0.03684676  0.034249
 -0.4839908   0.41986284 -0.45842463 -0.260867    0.02388863  0.44205335
 -0.37733847 -0.19942245]
[ 0.37568787  0.07278952  0.1438762   0.05333732 -0.35583484  0.3161562
  0.3263819   0.39061618  0.30405524  0.06890403  0.23505588 -0.1015476
 -0.03773446 -0.60470605 -0.03010491 -0.3272067   0.33822253 -0.47971314
 -0.03323654  0.16329986]
[-0.01414074 -0.18971965  0.05743261 -0.44846648  0.45781237 -0.12913172
  0.18195148  0.0693729  -0.32728794  0.00233047  0.3214209   0.27581897
  0.32332662  0.5419249   0.40634438  0.03078677 -0.2040675   0.26561326
  0.0965846  -0.26983678]
[ 0.12768713 -0.22798151  0.16065401 -0.2817762  -0.34261626 -0.04220096
  0.3250253   0.6294317   0.26633918 -0.17468943 -0.00603695  0.2808733
  0.02476311  0.02244689  0.10816556 -0.41290617 -0.06820327 -0.18812388
  0.18092167 -0.07078087]
[ 0.20417762  0.2618559  -0.08605159 -0.32536137 -0.22939205  0.1594993
 -0.3789871  -0.00142622  0.11005858 -0.06808567  0.23881029 -0.18862358
  0.19630763 -0.06030144 -0.01977436 -0.32612336  0.24555145  0.07830326
 -0.21348082 -0.25447816]
[-0.07132258  0.17020643 -0.5004723  -0.50542194  1.2740427   0.18608655
  0.07815409  0.3148272  -0.9120998   0.29261878  0.8133434   0.5297618
  0.45129326  1.570434    0.09503977 -0.16995816 -0.40470564  1.012712
  0.28301632  0.2565785 ]
[-0.20217218 -0.07465936  0.14629589  0.07232201 -0.50394034 -0.22717634
 -0.14421374  0.23082261  0.36094716 -0.28595656 -0.38462925 -0.916187
 -0.07263879 -0.14504333 -0.24010046 -0.09232646 -0.22233415 -0.06106882
 -0.07006379  0.09584361]
[ 0.06426735  0.09788821  0.21048795 -0.17502555 -0.14809696 -0.02265549
 -0.18912911 -0.6323811  -0.23987687 -0.3788011  -0.09647086  0.20077181
  0.01459377  0.35088402  0.072283   -0.12275115 -0.08999278  0.22886075
  0.03029331 -0.1689732 ]
[ 0.20677274  0.14140978  0.10164376 -0.1696387  -0.5489481  -0.14252858
  0.07649453  0.39938253 -0.7490171   0.06858797 -0.6132529   0.62351567
  0.3149796  -0.16674604  0.01865988  0.25433043  0.10890096  0.05061907
 -0.18629506  0.4983404 ]
[ 0.1356604   0.22396433 -0.23524982 -0.24010119 -0.46745238  0.19216082
  0.06315155 -0.4985728   0.19749059  0.40219474 -0.6772253  -0.39356792
 -0.17468984 -0.39458415 -0.2947422  -0.10102829  0.1858637  -0.17435117
 -0.22181693  0.02060614]
[-0.2631439   0.01681551 -0.07595997  0.6700357  -0.00188988 -0.04599986
 -0.04385429 -0.3067108  -0.18805501 -0.00900286  0.18155769  0.329305
 -0.35605103  0.09886521  0.18680213  0.31378576  0.29194745 -0.01998873
 -0.22550963 -0.21538275]
[-0.16646238 -0.02648588 -0.31030408 -0.26585022  0.1928484  -0.0301046
  0.40538505  0.01771652 -0.11420883 -0.18110241  0.17444357 -0.07488804
 -0.08918693  0.21696593  0.02706623 -0.22593988  0.19351307  0.06860725
 -0.03968785  0.0128932 ]
[ 0.1361014   0.09700181 -0.4195417   0.56612176  0.5451547  -0.1570279
  0.07735896  0.18109426 -0.09370898  0.03213488  0.6497588  -0.01803524
  0.08354083 -0.07800033  0.24732463 -0.00741692 -0.33435547 -0.04992707
 -0.03951393  0.07863196]
[-0.01077107  0.3741916   0.4402509   0.87440753 -0.4019424   0.18137851
 -0.13765943 -0.06487686  0.60828805 -0.30958083  0.20810886 -0.3912693
 -0.03322483 -0.8502074   0.0070612   0.38549596 -0.22272258 -0.82358414
  0.24609776  0.42438787]
[ 0.01282207  0.06173123 -0.04952835 -0.06323764  0.1741933   0.05461769
  0.08638612 -0.07297753 -0.21227068  0.23692441  0.13780247  0.1491179
  0.04208203  0.21675263 -0.0390116   0.0816845   0.00100969  0.29815224
 -0.01287784 -0.03118521]
layer 1 Activation
tanh
layer 2 Dense
20 40
[-0.05080266 -0.26515368  0.12632789  0.23667775 -0.20427947 -0.08402991
  0.19956315 -0.11560004  0.08140723  0.03704306  0.04304161  0.08037674
 -0.04796018 -0.14499404  0.16582571 -0.11628088 -0.01571354 -0.05316754
  0.1523412   0.07094538 -0.13132676 -0.17927572 -0.21735275 -0.11734
 -0.26061296  0.08287271  0.20281136 -0.1024247   0.05053352 -0.14974956
  0.0370435   0.118573    0.01119039 -0.03993767 -0.01712598  0.04945103
  0.03350401 -0.2666918  -0.20727487  0.09108125]
[-0.08005081  0.11424062 -0.12330721  0.0111653  -0.04212572 -0.05508334
 -0.02343088 -0.3248212   0.08197935  0.04089713 -0.06603923 -0.0939353
  0.22518566 -0.08269274  0.18808573 -0.13581738  0.07951185 -0.3010782
 -0.10332913  0.21064366  0.17085914  0.06243095  0.08717027 -0.02819343
 -0.18516561  0.07125351 -0.1555675  -0.21797659 -0.04040544  0.1626693
  0.2071767   0.05265875  0.03051891 -0.09612055  0.02297645 -0.1968505
 -0.18989903  0.15586126 -0.12542309 -0.17504941]
[ 0.3098592  -0.03591977  0.1552737  -0.08839566 -0.2311044   0.10138187
 -0.2093715  -0.1408494  -0.08200005  0.1870614   0.08026785  0.17624101
 -0.32481986 -0.06702836 -0.2314084  -0.11969072 -0.15736927  0.12198606
  0.07826211 -0.10851509  0.02292228 -0.11144447 -0.03428742 -0.21459714
  0.03134607  0.09349433 -0.12624986 -0.1241499  -0.10043515 -0.02766984
 -0.0399737   0.06192421 -0.20102282 -0.21380424 -0.25893316  0.326769
 -0.06061325 -0.2753587  -0.19014363 -0.05048548]
[ 0.33768168 -0.22725119  0.17933188  0.18825518  0.1744718   0.0653118
 -0.06201924 -0.15595993  0.00509714 -0.05897663  0.0999136   0.0018337
  0.11644585  0.13811688  0.2857869  -0.04852051  0.12534852  0.00294022
  0.0100514   0.02437825  0.2198884  -0.24691771  0.20023236 -0.15693384
 -0.3431439  -0.1836063   0.04835695  0.01848377  0.21692643 -0.18302585
  0.07399011 -0.24847513 -0.10733553  0.00132181 -0.298394    0.17548615
 -0.4832696  -0.00598297 -0.00903314  0.00896018]
[-0.18272449 -0.00928043 -0.3348721   0.09386612 -0.11519092 -0.0398085
 -0.09304947 -0.13828489 -0.22162227 -0.122002    0.12376127  0.23089707
  0.31821066 -0.2217897  -0.30204406 -0.09898102 -0.15978985  0.01144885
  0.24003345  0.32544044 -0.25268     0.04047101  0.03868995  0.39231092
  0.14471653  0.16695814  0.11200803 -0.311819   -0.04198574  0.16659863
  0.07551332  0.34389794 -0.1043044   0.01057006  0.10887083  0.05909565
  0.20995452  0.10618683  0.06814109 -0.09639153]
[-0.09632301  0.08723833  0.2643361  -0.24226773  0.24059764 -0.01864477
  0.04494683  0.19098145 -0.13074668 -0.13351187  0.15715005  0.34897822
  0.18519534  0.17078322 -0.03963782 -0.09058788 -0.00980199  0.18250476
  0.10940976  0.02751903 -0.05340195  0.11405099 -0.00610909  0.24759334
 -0.19800562 -0.09895723  0.16129704  0.02209292 -0.09077692  0.06338361
 -0.07383072  0.1818645  -0.09906466  0.11177842  0.04380651 -0.18736736
 -0.20592724  0.20552243  0.24177285 -0.02315867]
[-0.23966576 -0.11196985  0.25499213 -0.05464576 -0.06673896 -0.03853282
  0.14680776 -0.02990583 -0.12967002 -0.15864414  0.08355078 -0.08230332
  0.12225042 -0.31812435  0.06358921  0.00764669 -0.12976229 -0.15470316
  0.01787359 -0.11027088  0.26396638 -0.06651771 -0.12043735 -0.06827885
  0.00065153 -0.1777321  -0.20213912 -0.08162881 -0.16427885  0.18788762
 -0.18132913 -0.1684624  -0.14544578 -0.23953223 -0.18316424 -0.02659734
 -0.07889328 -0.21738681  0.21075872  0.16917539]
[ 0.02129786  0.11995653 -0.08868967 -0.02153976  0.07743942 -0.04884369
 -0.10120383  0.02509647 -0.11293907  0.10915806 -0.03097939  0.228706
 -0.25848144 -0.11517641 -0.13265331  0.25240067 -0.11898097 -0.13944593
 -0.01651662  0.00605049  0.21752556  0.21598539 -0.23378935  0.14186408
  0.05806255 -0.11132454  0.0220723   0.05235535 -0.17004809  0.01258307
  0.09957887  0.1832495  -0.02255211 -0.06810954  0.2965964  -0.10544793
  0.19690304 -0.01474128 -0.08457632 -0.12766047]
[-0.18570857 -0.4404344   0.52033937 -0.14138393  0.13810119  0.22880572
  0.06362253  0.00758612 -0.00765465 -0.07575254  0.06128574  0.32015944
  0.08187606  0.12535106  0.1797195  -0.26781216  0.03716514 -0.07459623
  0.05543352 -0.0737117  -0.01900986  0.11288875 -0.12704161 -0.2810718
 -0.25142345 -0.11836601 -0.01323075 -0.08233386  0.07323631 -0.14119878
 -0.06156717 -0.04089601 -0.15451774 -0.14420779 -0.12400331 -0.01961033
 -0.35394996 -0.18252416  0.14311591 -0.09658456]
[-0.25759178  0.13943061  0.05238958  0.20185843 -0.13551567 -0.21433707
 -0.16423105 -0.14138497 -0.1622038  -0.27897242 -0.09751569 -0.20378014
  0.02679393  0.01279383  0.08865228 -0.05402189 -0.14737834 -0.11090838
  0.22837588  0.11021765 -0.11254729  0.03466573  0.05342697 -0.05278906
 -0.02525018  0.28123054 -0.18806581 -0.25577193 -0.11608826  0.19707508
  0.16100606  0.20414893 -0.11139906 -0.24370217  0.04734489  0.18269
 -0.03309123  0.00926872 -0.09690343 -0.07785545]
[ 1.3684519e-01  2.7027664e-01 -3.4550533e-01 -2.3605308e-01
 -2.2846562e-01 -2.0230122e-01 -2.0053118e-01 -2.1479312e-01
 -2.6095927e-01 -1.6843855e-01  8.2594767e-02  2.1701851e-01
  2.8388667e-01  1.8584443e-02 -2.7833324e-02 -8.2458835e-05
  4.3226525e-02  8.0364920e-02 -1.4555612e-01  1.1114918e-01
 -1.9610658e-02  2.1039829e-01 -2.0009440e-01  2.4269441e-01
 -1.1404448e-01  1.5964586e-01 -2.2104695e-01 -1.3994367e-01
 -5.9006575e-02  2.3323929e-01  1.7247680e-01  1.5298769e-01
  8.4115095e-02  8.7701812e-02  3.0892620e-02  1.4727561e-01
  3.1751627e-01 -1.5994830e-01 -1.8918769e-01 -3.2484657e-01]
[-0.06925011  0.14582898 -0.25741476  0.1478464   0.18657644 -0.17434944
 -0.1690523   0.15308367 -0.18789575  0.20365871 -0.24444586  0.13342988
  0.29720345 -0.1584537  -0.09244476 -0.03380961  0.02739211 -0.156046
  0.1690406   0.263607   -0.20092519  0.02279814 -0.15297948  0.222597
  0.2742254   0.05489848  0.05117283 -0.01165342 -0.1593837   0.0952092
  0.03281216  0.1667376  -0.00901633  0.08255801  0.14259821  0.09181376
  0.43072245 -0.03178545  0.12516883 -0.2397738 ]
[-0.11217771 -0.03175984 -0.01184815 -0.00436101  0.2562242  -0.07860047
 -0.07957052 -0.10128574 -0.05667944  0.09388474  0.15059893  0.33581242
  0.12341271  0.21544164  0.08154786 -0.02387756  0.2287721   0.36707178
 -0.1403033  -0.10681     0.17093478  0.12553659  0.04296705  0.05669995
  0.07524227 -0.01353762 -0.02179008  0.03057103  0.09870388 -0.19076726
  0.06468743 -0.03829278 -0.12324171 -0.07002241 -0.00992889 -0.12814415
  0.00756706 -0.07960553 -0.00851213  0.13864182]
[-0.15475062  0.01739147 -0.54677904 -0.24135149 -0.07112058 -0.45850006
  0.14362182 -0.04712949 -0.10201357 -0.15642592 -0.20307572  0.02305174
  0.30098262 -0.20166938  0.02976744  0.06070426 -0.2517557   0.04179237
  0.12241435  0.1590406   0.12184491  0.27431414 -0.23787948  0.51593095
  0.60081846 -0.07724083 -0.18928425 -0.00937948  0.05014087  0.39361474
  0.2899848   0.32996842 -0.00280085 -0.01432858  0.00074907  0.13324921
  0.25963014  0.22335811  0.10816412 -0.26929364]
[-0.2706493  -0.20711109 -0.06125339  0.07115266  0.16820091 -0.21121839
 -0.08699968 -0.0938791   0.03244603 -0.00361322 -0.00542625  0.01597027
  0.04758665 -0.15938279  0.25709996 -0.2329921   0.14790744  0.08493802
 -0.16998151 -0.10878062 -0.14021343 -0.15839861  0.17092355  0.19737838
 -0.17568637  0.12111408  0.19753721  0.02011204  0.17876177  0.05328719
 -0.276949   -0.10981965 -0.02066113 -0.12283552  0.00679357 -0.10259937
 -0.06285285 -0.08876617  0.16203035 -0.03893929]
[-0.13186365 -0.16853583 -0.00059047 -0.21217735  0.05111828  0.20561697
  0.3261975   0.01248245  0.0298706   0.04979515  0.1156434  -0.14624241
  0.03553635  0.08449446 -0.08665019 -0.17492417  0.21773939 -0.1613154
  0.03647282  0.1798102  -0.1656484   0.06871771 -0.1662839   0.10834286
  0.03429581 -0.1717043  -0.06608528 -0.08598276  0.04043539  0.2335652
 -0.11629144  0.06305195  0.14665577  0.02344707 -0.13968942 -0.20085979
 -0.09144188 -0.22603849  0.05725316  0.12345444]
[ 0.00136657 -0.07605034  0.01633878 -0.13437188 -0.1649099  -0.14518079
  0.03883575 -0.12370804 -0.03830196 -0.1807671   0.18569271  0.19753362
 -0.05203502  0.15223211  0.16073738 -0.1520344   0.07751521  0.0038723
 -0.06633364 -0.01396552 -0.08405589 -0.14484222 -0.03472642 -0.11432758
 -0.22732675  0.0442548   0.02446577 -0.16727231  0.20582452 -0.17245337
  0.09597442  0.01945451  0.07368878  0.31909683 -0.00532329 -0.11249568
 -0.01317295 -0.06522696 -0.08729441 -0.11555582]
[-0.06823109 -0.07594968 -0.11472647  0.05186719 -0.26789445 -0.25292575
  0.07653445  0.06850274 -0.08619689 -0.24296874  0.01359939  0.1191358
 -0.17991632 -0.02957534  0.07167435  0.27455086  0.05660339 -0.30406392
  0.11563069 -0.09119197 -0.0339068   0.16079405 -0.26906282 -0.16597742
  0.32432595  0.00497112 -0.02186308  0.00167932 -0.24675927  0.3503756
 -0.1799206   0.24914001  0.13247913  0.19272156  0.07787359 -0.19370754
 -0.0996676  -0.20096467 -0.2292816  -0.022266  ]
[ 0.01148025 -0.25718737  0.06088238  0.00846762  0.04804769 -0.08158534
  0.21377024  0.02269305  0.16399834  0.35192576  0.03515547 -0.00589167
  0.10207783  0.2469216  -0.02508497 -0.12807877 -0.12985906 -0.07700191
  0.15970068  0.01700217 -0.07724702  0.02501275  0.04366791  0.00416096
 -0.14860977 -0.16280268 -0.00999439 -0.0775807   0.18527022  0.04451708
 -0.21124646  0.17491356  0.1481876  -0.2938183  -0.2826679  -0.0543514
  0.13018537  0.19371247  0.0379721   0.05865083]
[ 2.13611573e-01 -1.69643611e-01 -2.20834948e-02 -9.87856463e-02
 -1.83756128e-01 -2.28617713e-01  6.79632127e-02 -2.52877623e-01
  1.95513263e-01 -8.18407983e-02  8.96778554e-02 -7.50624249e-03
 -3.92546684e-01  1.28559247e-01  2.90107965e-01  6.18447810e-02
  1.49410889e-01 -9.54119116e-02  8.36353190e-03 -1.72211260e-01
 -2.05042059e-04  9.11800936e-03  3.39775681e-02 -1.17490515e-01
  7.73723572e-02  1.26272231e-01  2.36999050e-01  4.37725298e-02
  1.24422245e-01  1.14272073e-01 -2.60456860e-01  8.44565481e-02
  7.44794831e-02  1.70220166e-01 -4.92234454e-02 -5.39053231e-02
 -9.37908217e-02 -9.23326425e-03 -1.15548857e-01 -1.64716616e-02]
[ 0.02077609  0.08017333 -0.21853939 -0.03128862 -0.02823443 -0.02655691
 -0.07619621 -0.03444566 -0.06700195 -0.1543792   0.10391806  0.11960193
  0.06690313 -0.05611544 -0.03481835 -0.04911092 -0.12486604  0.05084218
  0.04850335  0.03143955 -0.03868812  0.08975402 -0.02219819  0.05658731
  0.06604617  0.01141954  0.0021926  -0.10085719  0.05948536  0.17799756
  0.04316843  0.02790518 -0.04873722  0.04192701  0.01669008  0.0264872
  0.04186525  0.04126868  0.08979999 -0.05773294]
layer 3 Activation
tanh
layer 4 Dense
40 20
[-0.05024789  0.12058632  0.0480258   0.10503786 -0.1725469  -0.05998562
 -0.11460962  0.13751489 -0.27078944  0.25037986 -0.14752984 -0.1901687
  0.05422242 -0.21544111 -0.2618171  -0.21004795  0.10574818  0.05051419
 -0.29818174 -0.03941386]
[-0.12663825  0.03055388 -0.21327783 -0.17552736 -0.14054699 -0.18105617
 -0.1909826  -0.2277791   0.0960454  -0.01061229 -0.07136935  0.05664187
  0.02841471 -0.0445794  -0.1041922   0.00727659  0.26416004  0.06991841
  0.26987788  0.09139033]
[-0.19320892  0.03411344 -0.08679242 -0.11779516  0.08911137  0.08812208
  0.31398746  0.2442379   0.19333896 -0.19714086  0.23771046 -0.03727971
 -0.14429091  0.16128965 -0.10155403 -0.09030634 -0.10862946 -0.28608325
  0.11834681  0.22873962]
[ 0.10390888  0.11146188 -0.06581003 -0.20304272  0.11240121 -0.24607487
 -0.18772778  0.06299759  0.09700368  0.09358113  0.19025639  0.08163815
  0.04979739 -0.09192166  0.07986858 -0.14665678 -0.11549073 -0.02590071
 -0.07769547 -0.08995114]
[ 0.0139321   0.12728362  0.00848705 -0.05550315  0.00916899 -0.01575727
  0.35922024  0.0132256   0.06499156 -0.23695283 -0.12311047 -0.04950908
 -0.00724314  0.15839139  0.09276982 -0.14115816 -0.20724025 -0.16240968
 -0.16082034  0.09149353]
[ 0.01609837  0.09235504  0.03179399 -0.10577631 -0.24897854 -0.05634934
  0.02313031  0.06404269 -0.19349687  0.04496637  0.08910117 -0.00918031
 -0.306505    0.1367449   0.10451477  0.2740357  -0.2717874  -0.16396224
  0.22074045 -0.16884564]
[ 0.02880355  0.1838104  -0.02864362  0.25661942 -0.03680114  0.02492645
  0.31162047 -0.01374283  0.09086557 -0.22805151  0.00098123  0.10924179
  0.28749713 -0.08933475 -0.10275023 -0.15955809  0.03548814 -0.07982496
 -0.12522417  0.04932058]
[ 0.12392185  0.01384575  0.0278862   0.24524342  0.02333083 -0.05096681
  0.28552923 -0.16747655  0.29140362 -0.06596575 -0.13845514  0.02739335
  0.13273917  0.02731784  0.09589301  0.13262916 -0.23994613 -0.10715011
  0.14757636 -0.01361124]
[-0.08779886  0.10138638  0.00054853 -0.11394353 -0.16059285  0.11417408
  0.15198782 -0.20799981 -0.00094331 -0.13717516 -0.02090085 -0.13347833
  0.07459217  0.2516602  -0.07365986 -0.12197451 -0.11925521 -0.03598802
 -0.2509566  -0.03773841]
[ 0.06707333 -0.18842919  0.08866469  0.242617    0.04299032  0.25525773
  0.09721623  0.08183201 -0.09709988 -0.05003847  0.26482347  0.00106056
 -0.19005324 -0.05199313 -0.00929262 -0.10565487  0.04287244 -0.08484949
  0.14742868 -0.19156979]
[ 0.00872193  0.22510041 -0.04530332  0.04147364 -0.06766059  0.19508365
  0.0236365   0.12172118 -0.00278156 -0.18425992  0.02012018  0.01079325
 -0.17815469 -0.277317   -0.12634066  0.15302579 -0.01843077  0.04609145
  0.17290428  0.01650009]
[-0.13101715 -0.05982019  0.0374846  -0.15241997 -0.00559288 -0.0385753
 -0.00918373 -0.24164285 -0.11933316  0.16103204  0.14730084  0.10230494
 -0.00563823 -0.08532347  0.11453891 -0.14936417 -0.23172209  0.13149318
  0.07575937 -0.10605825]
[-0.09802558 -0.05320242 -0.23055567  0.26181912  0.14849977  0.1441017
 -0.19692166 -0.23535715  0.2982172   0.15761845 -0.13990887  0.13053337
  0.12540916 -0.09548463 -0.05525418  0.01919014 -0.00910962  0.07853729
  0.20787352  0.14269899]
[ 0.13865149 -0.0357965   0.00067386  0.10922794 -0.23541246  0.22987276
  0.1711088  -0.2881548   0.09010907  0.09516273  0.02763266 -0.07018881
  0.2184418   0.07982419 -0.23722664 -0.12976804  0.0732862  -0.20191818
  0.17434691 -0.04126699]
[ 0.15519263 -0.025018    0.22828637  0.1542857  -0.28167278 -0.01997376
 -0.02709921  0.07246587  0.09479885 -0.06676512  0.31140974  0.05134939
 -0.07859578 -0.21224737  0.1347153   0.04194819  0.08473809 -0.05968187
  0.09642315 -0.11089744]
[-0.17052539  0.01528522 -0.18853684  0.14619736  0.04418207 -0.22835857
 -0.00359111  0.08625388  0.1564926   0.00473537 -0.19601783  0.03360033
  0.22628297 -0.02548376  0.11123445  0.13850649  0.17549635  0.12224421
  0.18900383 -0.1066466 ]
[ 0.00145847  0.19096614  0.09399934 -0.14154518  0.10009348 -0.16193806
  0.05739749  0.02509992 -0.06444079 -0.1019773   0.23508818 -0.00177214
  0.36328635  0.20184173  0.1425022   0.06964716  0.14213073 -0.24722905
 -0.04223464 -0.14805718]
[-0.18900062 -0.15088302  0.17744178  0.11008163  0.04955132 -0.1265766
 -0.06173228 -0.00177983 -0.19257344 -0.13725245 -0.15497747  0.01813484
  0.18149954 -0.02108504  0.00421726 -0.00121479  0.19457214 -0.01822277
  0.13582763 -0.05152968]
[ 0.00878635  0.15431221  0.07968615 -0.27915564  0.17712203  0.01257919
 -0.28732556  0.10378756 -0.1417356  -0.15649202 -0.37349024 -0.18000488
  0.18572414 -0.18657355 -0.12852937 -0.09857679  0.00168763  0.08216191
  0.22533777  0.04888646]
[-0.03788708 -0.01432086  0.29751098 -0.25162756 -0.07638611  0.18553713
  0.06115607  0.1589469   0.12623715 -0.11740857 -0.1028834   0.04841737
  0.22855619 -0.25502574 -0.12582709  0.03012994 -0.01167034 -0.03341164
 -0.20049791 -0.01871795]
[ 0.03384916 -0.15263337 -0.13987923 -0.2936329  -0.02334169  0.22377065
  0.12619935 -0.04507982  0.08542549 -0.03068028 -0.19003622 -0.00427594
  0.11649819 -0.15293346 -0.0881383  -0.17528339 -0.2160053   0.06276612
  0.03612769  0.19774228]
[ 0.02882615  0.19732197  0.15533727  0.02096507  0.10679474 -0.01865968
 -0.12876436  0.15049534 -0.00166402 -0.03542588 -0.1522021   0.09555487
 -0.09025534  0.06909501  0.07507049 -0.09137062 -0.2239751   0.12997909
 -0.1082641   0.0322631 ]
[ 0.35417143  0.0567446  -0.14748481 -0.07685696  0.03556298 -0.03644042
  0.01509866 -0.01361166 -0.14855786  0.07393821 -0.13140927 -0.19960637
 -0.2816242  -0.25573552 -0.06646058 -0.02141686 -0.16356029 -0.16790639
 -0.11531755  0.12351546]
[-0.08852699  0.19442776  0.22525665 -0.17835116 -0.04755625 -0.00325306
 -0.36825618 -0.05374846 -0.02423129  0.00200751  0.01726221  0.05708329
 -0.29134667  0.04265959  0.07113482 -0.15515728  0.23057859  0.2352807
 -0.19496506  0.09973058]
[ 0.22184886 -0.20230252  0.15692344 -0.17371137  0.169472   -0.03145678
 -0.11427338 -0.26723552  0.04969876  0.13759808  0.04635517 -0.24338377
 -0.13019794 -0.00464193 -0.18194428  0.12574433  0.34040987  0.4674246
  0.21338423  0.2983978 ]
[ 0.13051796  0.03409252 -0.09678961 -0.04843731  0.13811108  0.14174964
 -0.13244691 -0.32207507 -0.01088401 -0.10366318 -0.18738212  0.16255048
 -0.26245686  0.02503464 -0.21754864 -0.13252199 -0.25384802 -0.09432707
  0.03661498  0.06283829]
[-0.0322758  -0.16295505 -0.04571933  0.10767429 -0.06434497  0.08681845
  0.50701547 -0.25167328 -0.15439717 -0.04224652 -0.11776254 -0.1665038
 -0.07512198  0.05338949 -0.0618244   0.25332227 -0.1277519  -0.0680634
  0.12071768  0.0175294 ]
[-0.02005604 -0.04494236  0.08297937 -0.02245216  0.11704963  0.2073303
  0.14599164 -0.079292    0.06285198  0.04313805  0.09533558 -0.00474728
  0.29102272 -0.21788958 -0.17745963 -0.11236395 -0.19623062 -0.07917009
 -0.21640266 -0.00318352]
[-0.06016073  0.06512929 -0.03835012 -0.221132    0.02627685 -0.27745795
 -0.13585462 -0.15924898 -0.45443228 -0.1622971  -0.02933856  0.13389717
 -0.03416173  0.14665624  0.1381617   0.11727217 -0.02308082  0.07259252
  0.2624907  -0.00128857]
[-0.10649042  0.12341764 -0.09228613  0.06204877  0.09255044  0.15741526
 -0.49943006 -0.15182546 -0.01898354 -0.09083907 -0.10713976 -0.03414947
  0.1338724   0.05493611  0.0319338   0.05669737 -0.15744224  0.34960076
 -0.1176727  -0.12510277]
[-0.0220493  -0.05925519  0.18884593  0.11497866 -0.17328003  0.03294434
 -0.36869395  0.2636469   0.16698909  0.1061346  -0.08089442 -0.06379505
  0.02508133  0.19276099  0.17869343  0.12491433  0.00611906  0.17033917
  0.00254161  0.23922232]
[-0.03423133 -0.17137524  0.24081449  0.19924489  0.11450101 -0.18360206
 -0.28354505  0.05874525  0.00276452 -0.07965527  0.05939458  0.12045333
 -0.03665693  0.18525825  0.33437115 -0.07752462  0.04401027  0.10076728
 -0.10009781 -0.10878312]
[-0.0620302  -0.19784282 -0.01635123  0.01687164 -0.10829529  0.17307217
  0.01327666 -0.01819075  0.09512549 -0.10145707  0.04718333  0.09160268
 -0.15322934 -0.08574492 -0.02022231 -0.02258522  0.12694082 -0.05332393
  0.1803941   0.06842039]
[ 0.09467471 -0.1708568  -0.11149976  0.07862769  0.05869052 -0.00304793
  0.03039667  0.26814318  0.15157866 -0.28552118 -0.10909095 -0.16834913
  0.05263032 -0.14637674  0.01065049  0.13019721 -0.11952132 -0.02488584
 -0.09426191  0.12327241]
[-0.08660297  0.20084041  0.04910266 -0.06536159 -0.10189193  0.17193304
 -0.07539684 -0.27874085  0.19354542 -0.14658114  0.18337394  0.20013538
  0.11898438  0.04559023 -0.09618266  0.15911108 -0.16488476  0.147538
 -0.11293209 -0.00128132]
[ 0.04317122  0.07286662 -0.04243346  0.09348278  0.03361173  0.23870772
 -0.14487284 -0.02215683 -0.03635887 -0.12333585 -0.29575977  0.0223232
  0.25078103  0.06914268 -0.08974856  0.14156675  0.25522977 -0.0047703
 -0.14937884  0.05856311]
[-0.00384748  0.2428941   0.2844754  -0.12464497  0.3567457  -0.2402367
 -0.01328658  0.00151667  0.34406957  0.0037626   0.07082193 -0.03681159
 -0.16843079  0.07791372  0.1862271  -0.07825359  0.12331777  0.26719946
 -0.13101956 -0.00675758]
[-0.11625668 -0.04202465  0.24483109  0.07785865  0.02978549 -0.14360179
 -0.2755524   0.18978547 -0.11125866  0.06364197  0.01249784  0.02964089
 -0.00386104  0.05434698 -0.01135591  0.11399944 -0.1767759   0.16513468
 -0.2374778  -0.11092746]
[ 0.10584513 -0.15890138  0.18497138 -0.00047956 -0.11540687 -0.20960148
  0.13696137  0.18452893  0.04667934 -0.03169938  0.10634322 -0.02059596
 -0.166743   -0.06881816  0.06003613 -0.02085183 -0.02829205  0.00387155
 -0.2797903  -0.02182489]
[ 0.05131027  0.03916154 -0.17894562 -0.14664927  0.00765818 -0.0429834
  0.10245996  0.13949873  0.23779601  0.0343397   0.17955916  0.04043319
 -0.14397788  0.11054333  0.193062   -0.07010685 -0.06621814 -0.12103587
 -0.03558101 -0.14616327]
[-0.0128168   0.03820586 -0.05024897  0.04197073 -0.04878223 -0.00056472
 -0.09027416  0.02759003 -0.08619876  0.00589747  0.02847832  0.00613779
  0.00258561  0.04566467 -0.03541428 -0.02990239 -0.05253131  0.08637039
  0.02055219  0.02960541]
layer 5 Activation
tanh
layer 6 Dense
20 1
[0.0214128]
[-0.00119747]
[-0.03544191]
[0.02052882]
[-0.09031297]
[0.01684276]
[-0.07242918]
[0.0230669]
[-0.07263002]
[0.02177764]
[-0.04314804]
[-0.02669162]
[0.01388797]
[-0.00842939]
[-0.02690479]
[-0.01063314]
[-0.02810594]
[-0.17468086]
[-0.00050496]
[-0.01104274]
[0.18060257]
