layers 7
layer 0 Dense
20 20
[-0.42733607 -0.21076182 -0.58701736  0.25609168  0.07685421 -0.03531351
  0.22781365  0.07535926 -0.14989677  0.15509984 -0.22547272 -0.7114991
  0.0787884   0.04552877  0.2677792   0.0217515  -0.58198315  0.0479685
  0.04846146  0.32016885]
[ 0.15815634 -0.11131759 -0.25365284  0.3054622   0.4811442   0.37524346
  0.5633088  -0.3814258   0.0605525   0.534028    0.68075067 -1.0401876
  0.18303221  0.46366975  0.712537    0.45692953 -0.22241664 -0.19380629
 -0.10590662  0.04657897]
[ 0.30245608 -0.30399695 -0.51674587  0.61341906  1.075535    0.7941802
  0.00294228 -0.4120342  -0.10329536  0.13477734  0.3449752  -0.63700336
 -0.33648512 -0.06277203  0.3037407  -0.01459738 -0.03092606 -0.25780225
 -0.00201127  0.01967018]
[ 0.03720847  0.2600149  -0.39385536 -0.27850893 -0.3098982  -0.36814448
  0.09441691 -0.0151471   0.16141348  0.11312356 -0.3772582  -0.7522892
 -0.00762723 -0.2266661   0.07546248  0.03279397 -0.09387709  0.14044985
  0.14221841 -0.05324384]
[ 0.0906283  -0.61582357 -0.2509386  -0.24761447 -0.06410693  0.1013993
  0.1332007  -0.06479237  0.42912015  0.01355672  0.14007533  0.111602
  0.0363916   0.0055847  -0.11902206  0.37976483  0.09424675  0.39829305
  0.56360096  0.04524856]
[-1.4911294e-01  3.7057161e-01  3.8878329e-02  2.6873721e-02
 -1.1254311e+00 -8.6375475e-01 -2.0967057e-01  4.2933521e-01
  1.5605558e-01 -1.6467355e-01 -8.9282614e-01  8.4915918e-01
  3.0394194e-01 -2.1703273e-01 -3.3557713e-01  5.7624740e-04
 -1.2823868e-01  7.7331376e-01  5.3420156e-01  4.2722273e-01]
[-0.43642893 -0.05461687  0.4386603  -0.6576607  -0.5975134  -0.5993206
 -0.02917911  0.09211232  0.5066848  -0.00751733 -0.6866412   0.34473085
  0.11941244 -0.01356838 -0.34516385 -0.1634269   0.13864139  0.77257675
  0.12458173  0.12312494]
[-0.39930648  0.09557085  0.5969018   0.01155159  0.43973738  0.14159766
 -0.4109291   0.22781353 -0.2669607  -0.49526927  0.33802837  0.5220685
 -0.01083984 -0.03689822 -0.29884717 -0.10364206  0.47920313 -0.04677918
 -0.3274527  -0.01640972]
[ 0.33710855  0.0274375  -0.25157535 -0.6599448   0.50108755  0.4482987
  0.30538538 -0.02930091 -0.31452927 -0.06861454  0.23571998 -0.46198016
  0.06305104 -0.32795572 -0.3178265   0.17520033  0.4908737   0.33257416
  0.29717943 -0.26752827]
[-0.4059136   0.1507018   0.38679516  0.16153455  0.29847062 -0.55557793
 -0.58680683  0.06789172 -0.27020675 -0.46977857  0.77477866 -0.37110457
 -0.01201985 -0.25304803  0.90292424  0.18098189 -0.50341    -0.31230476
 -0.1513641  -0.09934563]
[ 0.7784558  -0.09311271  0.299404   -0.18486027 -0.31372783 -0.22916533
 -0.01244924  1.0546424   1.2968378  -0.7698816  -0.18725568  0.2151918
 -0.97105646 -1.0745633  -0.03030549 -0.01187954  0.12425228  0.07120169
  0.09505033  0.70393693]
[ 0.32316265 -0.37192672 -0.0427567  -1.751516    1.0953696   0.11443743
  0.29959288  0.00483414  0.12352112  0.660162    0.8454783   0.11098681
  1.2061645  -1.211684    0.04624363  0.87057227  0.6805523   0.10630342
  0.98263353  0.08360425]
[-0.98298395  0.90885985  1.0015758   0.24233982 -0.6105096  -1.0773623
  0.8999272   0.08028823  0.26560202  0.22959001 -0.6614296   1.0529783
  0.24521248 -0.4174965   0.7480085   0.6238584   0.22741967  1.1668254
  0.30445933  0.468506  ]
[-0.21560791 -0.02192611 -0.4800034   0.2598109   0.07493313 -0.18715402
 -0.30943945 -0.02033216  0.43874833  0.12733002 -0.13022125  0.55139965
 -0.10802206 -0.33962777 -0.17530042  0.3121973  -0.02797115 -0.13702187
 -0.14735918  0.04421735]
[ 0.24227625 -0.01538623  0.1583938  -0.24632348 -0.65279275 -0.00732211
 -0.20554502 -0.5088593   0.1497779  -0.01794685 -0.037661   -0.56230134
  0.42488945  0.41877416 -0.11669668  0.09968571 -0.01715038  0.01222237
  0.24445274 -0.22937638]
[ 0.1803874   0.1362916  -0.8511729  -0.4940629   0.7444769   0.3819694
 -1.4761616  -0.03102344 -0.21914719 -0.6557249   0.86449945 -0.6529531
 -0.20396732  0.08004673 -0.55816585 -0.5146689   0.6153001  -1.3040292
  0.49693128 -0.11642145]
[ 0.73902947 -0.40845877 -0.40925774  0.10827255 -0.08374895  0.04784512
  0.07333406  0.5247575  -0.36147505 -0.01958181  0.59296304 -0.34867266
 -0.59391063  0.3277304  -0.8536092  -0.60617924 -0.00199968 -0.46666804
 -0.06023654 -0.31833756]
[-0.03775309 -0.19891596  0.5122457  -0.22111657 -0.8237462   0.8746499
  0.31999516 -0.20532686 -0.19513258  0.18071623 -1.528675    0.01580461
 -0.08895654  0.5907348  -1.3644395   0.33733073  1.2993741   0.25257728
  0.9922992  -0.44857696]
[-1.0706886  -0.09044144  0.46078938  0.393332    0.55347246 -0.23675124
 -0.5468651  -0.8003466  -2.237539   -0.04300047  0.05005717  0.30398732
  0.8223164   0.38014787 -0.15258443  0.19224037  0.2601702  -0.07238273
  0.3537599  -1.3481169 ]
[-1.0887318   0.7817832   1.6058366   1.3217971  -1.6749941  -0.05430479
  0.5463111   0.26069185 -0.35364535 -1.2665513  -0.8429284   0.33797857
 -0.44527566  1.1641501   0.56438655 -1.2624152  -0.7237097   0.5569159
 -1.5765139   0.40492097]
[-0.15725574 -0.15645364 -0.2968035   0.09514832 -0.09559396  0.05556276
 -0.1246638  -0.11906492  0.22763336  0.0857311  -0.05792479 -0.24396451
  0.13219936  0.00466106  0.10044266 -0.00717329 -0.42632836 -0.00687659
 -0.11265571  0.07150331]
layer 1 Activation
tanh
layer 2 Dense
20 40
[-0.13294144 -0.09864452  0.18117772  0.16428049 -0.32306203  0.18691501
 -0.20363152 -0.62416613 -0.43344527 -0.32970467  0.5525832  -0.40620527
  0.35969758 -0.03163304 -0.49560758 -0.13054436  0.5886136   0.31810036
  0.743456   -0.408392    0.16143535 -0.08272292 -0.23236571  0.44102344
 -0.6566285   0.19111083 -0.372817   -0.1324975   0.0634266   0.2773056
  0.04679655 -0.2689809   0.24615887 -0.09291069  0.17875625 -0.22173946
  0.3033421  -0.3741553  -0.13405454 -0.1206472 ]
[-0.05554597  0.14701703  0.05735075 -0.1203033   0.06237767 -0.14053346
 -0.06917736 -0.13187823 -0.09536538 -0.2734113  -0.07794289  0.27778214
 -0.03608663 -0.02158654  0.00443267  0.20840578 -0.13694797  0.1524258
 -0.26612362  0.00297744 -0.15593833 -0.01543572  0.07339252 -0.03438709
 -0.30624425  0.1762651  -0.32562515 -0.08203603 -0.24434094  0.07675627
  0.20527165  0.13629127  0.04357195  0.00425958  0.19764473 -0.01409085
 -0.2743429   0.25124866 -0.01007893 -0.06670699]
[-0.18938377 -0.37987512 -0.71610534 -0.09629233  0.09231161 -0.17221795
 -0.25627145  0.3573162  -0.02149028 -0.51469916 -0.6158309   0.38540307
 -0.00534176 -0.4053024   0.87561285  0.08267754 -0.46473268 -0.47463644
 -0.8970597   0.24248318  0.16855322 -0.29943496  0.9292687  -0.1701712
 -0.13680749 -0.60730636 -0.1566987   0.3136464  -0.31304693 -0.7489135
 -0.07597853 -0.30230722  0.44303483  0.5835421  -0.20251065  0.4451018
 -0.61890876  0.20351163  0.03165062 -0.20112486]
[-0.02668097  0.11987959  0.07987297  0.19422759  0.02961701 -0.21177112
  0.455802   -0.04801794  0.34059522 -0.5427519   0.23610699 -0.06163236
 -0.21189475  0.36058068  0.03650253 -0.08693418  0.00272441 -0.04441641
 -0.30579183  0.24333595  0.2744355   0.16950785 -0.3971324  -0.20930822
  0.10473489 -0.21130192  0.09375861 -0.00667116  0.0995943   0.20883252
 -0.06349376  0.31881443 -0.29352054 -0.18429403  0.06921012  0.0054428
 -0.4184616   0.0209967  -0.02112363  0.00595781]
[ 6.94894872e-04  1.35351986e-01  9.91979465e-02 -1.06808700e-01
 -3.26033413e-01  2.76910514e-01  1.50262669e-01  2.55132884e-01
 -2.63383836e-01  2.90741533e-01 -1.30464574e-02  4.93278950e-02
  9.92835611e-02  6.13979660e-02  4.08918142e-01  8.21185783e-02
  1.51508385e-02  4.53749686e-01  5.94359517e-01  8.38309340e-03
  3.30616444e-01  1.32311946e-02  1.43788859e-01 -1.34500653e-01
  1.96539804e-01  1.66582718e-01  2.38902673e-01 -7.55248368e-02
  9.67072137e-03 -5.74785709e-01  1.90155003e-02  7.22676665e-02
  2.38392547e-01  1.91720441e-01 -2.34171361e-01 -7.85279348e-02
  7.98664451e-01  2.99452305e-01  4.19980943e-01 -1.26147926e-01]
[-0.00963709 -0.12581551  0.21793337 -0.29137033 -0.0120875   0.3202948
 -0.1130676   0.10484666  0.07105695 -0.03201567  0.24830346  0.01508232
  0.07152222 -0.2086064   0.23301904 -0.11046102  0.11378448 -0.15086561
  0.41279814 -0.15442392  0.03173031  0.34859118 -0.11505024  0.01701487
 -0.02116822  0.20014729  0.23867601 -0.06467347 -0.06555083  0.02706107
 -0.05734599  0.03901758  0.11907315 -0.18492286 -0.181876    0.19925044
  0.59066564 -0.05281771 -0.02424834 -0.22290277]
[ 0.0297712   0.18609408 -0.17412706 -0.33173618 -0.12350184 -0.11548295
 -0.20425929  0.31494945  0.2656241  -0.14274669 -0.037055    0.2705812
  0.2778718  -0.5471315  -0.38689125 -0.118269   -0.23870263 -0.01267724
 -0.05521262  0.39723894  0.01930005  0.01930314 -0.08308208 -0.06328741
 -0.22416687 -0.14309202 -0.06804019 -0.32996836  0.33895305  0.21014072
 -0.15336235 -0.46506062 -0.03597987  0.3267166  -0.35771087  0.28817382
 -0.25337875  0.21385956  0.22470571  0.13709284]
[-0.07427192 -0.0820318   0.1453026   0.09837463 -0.05952374  0.40991664
  0.08682172 -0.21799491 -0.2173903  -0.34633785  0.16266441  0.2584676
 -0.1784616   0.5763704   0.2484653   0.11866812  0.12168615 -0.01705828
 -0.05881091 -0.13252716 -0.12125976  0.09709557  0.5728426   0.05071436
 -0.23754944  0.1514112  -0.1700911   0.18719548 -0.41104433  0.45972434
 -0.01910954 -0.34393772  0.2923258   0.13317364  0.0029312  -0.08500852
 -0.4382756  -0.10439321  0.11344456 -0.311731  ]
[-0.39908987 -0.03472526 -0.14740007  0.03819314 -0.47934318  0.53623223
 -0.6310648  -0.22685398 -0.5246126   0.102643   -0.28835484  0.26681066
  1.2705485  -0.18972632 -0.25340748 -0.1961907   0.6339169   0.40298975
  0.05583185 -0.44139796  0.45146182 -0.34007078 -0.43064255  0.5264802
 -0.39509958  0.10158477 -0.67030734  0.39343247 -0.64405125  0.6558118
  0.11804777 -0.46528506  0.385421    0.7044453   0.58193964 -0.20523952
 -0.82006794 -0.14873792  0.5394646  -0.11823056]
[-0.15455915  0.26292804  0.2970314   0.09890048  0.08447016 -0.02656553
  0.19901866  0.0230574   0.12524699  0.87008804 -0.07520772 -0.4083396
  0.22627456 -0.32616395 -0.7150474   0.07052419  0.01174404  0.2386714
  0.0329149   0.03915558 -0.19861673  0.03166371 -0.09961176 -0.0389495
 -0.20019518 -0.17460209  0.05437683 -0.0741677   0.28119993  0.43507418
 -0.2754414   0.1891774  -0.00499137  0.14316024 -0.13975386  0.10644946
  0.39560658  0.18116632 -0.14065887 -0.19443399]
[-0.02332424  0.10438081  0.261359    0.1000294  -0.00487097 -0.09865198
 -0.20175569 -0.18631794 -0.34095767 -0.62758034  0.11014841  0.24343681
 -0.01327747  0.00264194 -0.0829533   0.23565592 -0.28972182  0.07938622
  0.6204212   0.09671404 -0.36212584 -0.12241014  0.2502782  -0.21728781
 -0.17538585  0.3701735  -0.45897222  0.23552217 -0.07976258 -0.61369425
  0.06113968 -0.01302576 -0.09640513  0.22631758  0.4260548   0.01543577
  0.6865862   0.31420386 -0.06738912  0.29024717]
[ 0.0864322   0.235155   -0.913208   -0.1332436   0.1412553  -0.11774602
 -0.10576236  0.13622043  0.10475434  0.4574609  -0.3925266   0.49924213
  0.25476998  0.19281927  0.89044887 -0.3768162  -0.03916514 -0.28896028
 -0.17737387 -0.1314272   0.02636763 -0.24882701  0.6656362  -0.0448745
 -0.16838151 -0.444735   -0.25147563  0.16004312  0.13428533  0.00447274
 -0.11553025 -0.06463468 -0.13375497  0.63384014  0.06753133  0.12906595
 -0.1495702   0.16591309  0.2779118  -0.36752883]
[-0.16796896 -0.02150347 -0.13263588  0.02809652  0.03744913  0.10509796
 -0.46361306  0.06191841 -0.17957054  0.67758465 -0.13968167  0.07209193
 -0.31147364 -0.36888862 -0.09877602  0.01877423 -0.2832033  -0.04072269
  0.03441676 -0.12652226 -0.19148688  0.13221537 -0.34845266 -0.10052968
  0.1952147  -0.2535052   0.07945558 -0.07169275  0.25958762 -0.1670933
 -0.05193374  0.15322617  0.13687138 -0.22738943 -0.3761359   0.14018874
  0.3837668   0.25599414 -0.13084897  0.21052806]
[ 0.38896072 -0.07147728 -0.14432557 -0.00349435  0.26863384 -0.08898563
 -0.18385695  0.2748067   0.3440301  -0.68029225  0.49236268  0.1216967
 -0.24554649 -0.65117794 -0.16912721 -0.18873598 -0.13197652 -0.40129238
 -0.5140779   0.434527   -0.1415294   0.15812717 -0.14598064 -0.12858258
  0.40202928 -0.345505    0.33099082 -0.31162146  0.33820271 -0.17249037
 -0.0416149   0.36240736 -0.21486324 -0.44801563 -0.06479996  0.27768224
 -0.04386664 -0.2463389  -0.35048774  0.41159976]
[ 0.0448677   0.22309123 -0.2264033  -0.14761353 -0.16859601  0.31963745
  0.23090841  0.02987062  0.3125208   0.24955282 -0.37335014 -0.16133268
 -0.14682752  0.7293563  -0.3202962   0.13733941  0.1725168   0.0251773
 -0.72452813 -0.38164207 -0.08432905 -0.1098417   0.01431731 -0.45225292
  0.24190398 -0.01287997 -0.52702135 -0.00232607 -0.24010314 -0.16331667
 -0.05850057  0.2711805  -0.09740154  0.28051367 -0.00725083  0.13666685
 -0.9744259   0.32591456  0.01829797  0.25593224]
[-0.19231045  0.15630196 -0.36227667  0.19777869 -0.35331532 -0.05690036
 -0.41790313  0.14875418 -0.31306747  0.9719376  -0.01669143  0.01609363
  0.42089647  0.0520798  -0.10857988  0.10800474 -0.01583794 -0.23917982
  0.31546128 -0.2017017   0.16093454  0.10087634 -0.29483017  0.19580904
  0.03621189 -0.28966323  0.1005135  -0.08090349 -0.08675448 -0.06640351
  0.00951348  0.16760685 -0.2943235   0.26178893 -0.26464364  0.13836607
  0.19281176 -0.04300174  0.09849253  0.17193091]
[-0.16490903 -0.21158437  0.08383516  0.13361771  0.29026565 -0.13220441
 -0.19897555  0.44192874 -0.22986042 -0.05256127  0.31825843  0.20147479
 -0.41146392 -0.33635792  0.6170725  -0.1117162   0.2707628   0.16629232
  0.15659897  0.13835116 -0.02618228 -0.0039653   0.4561147   0.04474854
  0.18656483  0.14287825  0.27570447 -0.07949381  0.16590546  0.23605543
  0.1489102  -0.20521103 -0.1410555  -0.06201024 -0.03617599  0.07351451
  0.3024251  -0.03707445 -0.20012864 -0.5887826 ]
[-0.1551364   0.03315283 -0.3035369   0.00289969  0.04692087  0.01064054
  0.10291646  0.00659943  0.09431656 -0.03593764  0.01844224 -0.10461044
  0.2616355  -0.6034767  -0.00595356 -0.262409    0.07237418 -0.3352313
 -0.29311693  0.34830087 -0.01472129 -0.16969965  0.02223307  0.3498342
  0.21060374 -0.2154755  -0.05518441 -0.38694412  0.04911995 -0.5531141
  0.03105113  0.15651694  0.05013007  0.25068578 -0.26421785 -0.15132973
 -0.47507787  0.017798    0.26434729 -0.03429972]
[ 0.10946504  0.2743432   0.05626012 -0.24600586 -0.32863218  0.30068094
 -0.24710177  0.30987996 -0.18095201  0.8424775   0.13493496  0.27752978
  0.00581302 -0.39154747 -0.2982009  -0.04555906  0.1932967  -0.2731677
  0.38986513  0.09363312 -0.11849765 -0.04716438  0.388039    0.07895358
 -0.04400421 -0.05336839 -0.08052253  0.14990641  0.09758204 -0.09486909
  0.0344778  -0.16691183  0.02150353  0.01114006 -0.00835426  0.06477061
  0.27795208  0.11669917  0.43529913  0.02870594]
[-0.10153884 -0.03108015 -0.22236964 -0.06224836 -0.05611626  0.02019598
 -0.21891125 -0.10587744  0.01186229 -0.21392925  0.01854832  0.08882724
  0.20489976  0.25555193  0.04028649 -0.05546626  0.10536931  0.274831
 -0.19051526 -0.19567402  0.22965412 -0.29570508 -0.0586855   0.19880721
 -0.40719864  0.3714734  -0.46776974  0.1047024   0.00622481 -0.10978735
  0.09231483 -0.21763946  0.07699718  0.11689091  0.27568662  0.13545339
 -0.5201039   0.28006518  0.03323887 -0.01657935]
[-1.2005089e-03  1.2104624e-01  2.1131968e-01  1.9585067e-01
 -1.4811912e-01  1.5232880e-01  6.4426325e-02 -1.4560980e-01
 -5.4675853e-04  2.6691669e-01  8.5241437e-02 -3.8295734e-01
 -7.7947214e-02  4.2317978e-01 -4.3608943e-01 -6.0917623e-02
  1.2036764e-02  1.9291829e-01  2.0172048e-02 -4.1275229e-02
  5.1135555e-02  4.2284593e-02 -2.7193514e-01 -5.6319598e-02
  3.3049334e-02  5.9944309e-02 -1.8034354e-02 -1.0194655e-02
  1.2516652e-01  6.6602749e-01  1.3589913e-02  2.1168613e-01
 -1.6980950e-02  3.4152623e-02 -2.1938393e-02 -9.6523151e-02
 -1.5873329e-01 -1.0446048e-01  5.0589804e-02  1.0288470e-01]
layer 3 Activation
tanh
layer 4 Dense
40 20
[ 0.17761321  0.05206063  0.03335043  0.11906271 -0.06623576  0.08329212
 -0.1695553   0.14811549  0.14729784 -0.02839602  0.02904065  0.07636763
  0.05671461  0.01376176  0.10434778  0.02672137  0.05633572 -0.05066089
 -0.1388933  -0.18361859]
[-0.11296838  0.12975252 -0.11389067  0.25612822  0.15594783  0.17564532
  0.0868884   0.16039976 -0.14395374  0.03811682  0.4222443  -0.02339027
  0.05189832  0.10599765 -0.24231157 -0.24996419  0.07920518 -0.07595261
 -0.1049361  -0.41431144]
[-0.05971459  0.19659658  0.14601481 -0.06568506 -0.12364147 -0.16400921
  0.17222871  0.00605439  0.04332114  0.01649308  0.1125581   0.04114372
  0.02404159  0.32733002  0.30128965  0.12764898  0.3420627  -0.02623889
 -0.17380615 -0.33745548]
[-0.01691491 -0.2202033   0.07628758 -0.1966236   0.00539967  0.03448366
  0.06263838 -0.10796592 -0.02559693  0.05096537  0.17046759  0.00073437
 -0.04021322  0.01800433 -0.0222581  -0.05623248 -0.06214839 -0.00968575
  0.03945116 -0.02711716]
[ 0.05774714 -0.20970793  0.10421305 -0.0029389  -0.02371806  0.14105536
  0.21631332  0.1659087  -0.11256317 -0.01992326 -0.26710483 -0.16544317
  0.13155383 -0.01356367  0.20018335 -0.1473986   0.1297707  -0.24926925
  0.0953507   0.13675095]
[-1.7046245e-02 -1.3671701e-01 -3.2951507e-01 -3.7706304e-02
  7.2762758e-02 -1.9416329e-01 -4.2306274e-02  1.9272672e-01
 -1.4239636e-01  1.0388927e-01  2.3686677e-01 -2.0198895e-01
 -3.4193116e-01  5.9023198e-02  6.9165723e-03  4.4108845e-02
 -3.2152754e-04 -3.0272001e-01 -5.8789211e-03 -1.6332604e-01]
[ 0.2673564  -0.16045375  0.05265871 -0.0646058   0.02927109  0.20506015
  0.14696017 -0.09631763 -0.16080742  0.13435669  0.08545434  0.05052624
  0.02844544  0.09191464 -0.05157795 -0.05435191  0.2623679   0.1235491
  0.17745689 -0.21194053]
[ 0.25615618 -0.02092234  0.22631988  0.212732    0.30424094 -0.00604931
 -0.07893355 -0.04713814  0.030994   -0.17498434 -0.1460138  -0.01323581
  0.09403487 -0.2923836   0.125609   -0.19539607  0.09531816  0.0209665
  0.11705521 -0.02719911]
[-0.03306919  0.00760029 -0.02252381 -0.15091468 -0.14446142  0.31478983
  0.03964383 -0.01513373  0.10713136 -0.1705824   0.265617    0.13693768
  0.1994348  -0.08766109  0.02188201 -0.17135443 -0.03567115  0.22248037
  0.01942533 -0.14181387]
[ 4.3282125e-02 -1.7382581e-02 -6.7060626e-01 -3.7862563e-01
 -1.7273736e-01  5.2365828e-01  4.8298866e-02 -4.4419535e-02
 -5.9128937e-04 -4.8648325e-01  2.3190939e-01  1.9082394e-01
 -8.2348824e-02 -3.2896796e-01 -1.3479960e-01 -5.6547004e-01
 -9.4768532e-02  2.4437787e-02  8.3901193e-03 -4.6058691e-01]
[ 0.06810658 -0.05777309  0.1193092  -0.07995002 -0.02054632 -0.10973698
 -0.09823976  0.17628142  0.10734197 -0.17789753 -0.17924194  0.01610701
  0.43385082  0.5733009   0.53701866 -0.28061265  0.03084559  0.19771494
 -0.16550699  0.15658979]
[-0.13602847 -0.0833764  -0.02878099  0.11322872  0.19445513 -0.16627626
 -0.05979308  0.20645915  0.15754993  0.20886171 -0.38737622 -0.00493887
  0.2846407  -0.32334036 -0.31051347  0.02884796  0.05017603  0.10520944
 -0.04599954  0.3618215 ]
[-0.22723937 -0.02725076 -0.32563698 -0.10546874 -0.00230944 -0.42184415
  0.19074377  0.14867342 -0.09705292  0.05273712  0.3631244  -0.09139654
 -0.06246701 -0.26709482  0.10218268 -0.0218497  -0.2165613   0.14288585
  0.18010095 -0.01352183]
[ 0.01559192 -0.19871132  0.19553845  0.11189135 -0.1316951   0.28731844
  0.19524392  0.05744772  0.05350408  0.42990738 -0.10629426  0.03980128
 -0.26727048  0.30058023  0.08526882  0.17766875  0.10617974  0.1405734
  0.2181917   0.0181396 ]
[ 0.22608063  0.1850166   0.14825982 -0.42252848 -0.01592864 -0.03204469
  0.05290705 -0.18704672  0.12876464 -0.33515558 -0.67425716  0.18923008
  0.03319305 -0.5591952   0.03269387  0.0234383  -0.27754614  0.20393187
  0.2153375   0.33783862]
[ 0.1285601   0.01409948 -0.016532   -0.22429039  0.23857024 -0.05844438
  0.07233994 -0.5041858   0.13542247  0.06009466 -0.12342127 -0.05760094
 -0.0192067   0.03980786 -0.07709072  0.02747842 -0.388249   -0.14841145
 -0.2068738  -0.12003766]
[-1.5768243e-01 -1.0808034e-01 -2.7872404e-01  1.8140292e-04
  7.8115575e-02 -1.4090583e-01 -1.7807393e-01 -4.6088655e-02
  8.7897412e-02  3.0080020e-01 -1.8883361e-01 -7.8048259e-02
  1.0937302e-01  5.3254352e-03  1.2944253e-01 -2.4017094e-02
 -1.0322380e-01 -1.9054303e-01 -1.1889577e-01 -1.3322043e-01]
[-0.20527257 -0.18711399 -0.09136448 -0.03925689 -0.0975119  -0.0352548
 -0.06616989 -0.14348064  0.02047407  0.24138448 -0.13798235  0.13874704
 -0.16055761  0.16494393  0.04165688 -0.10315739  0.11015185  0.1435102
 -0.00427452 -0.25054327]
[ 0.05963282  0.20029628  0.3442962   0.03748636  0.02830547 -0.43490607
  0.14125584  0.03500376  0.03870017  0.42845905  0.18000326  0.08804546
  0.40209234  0.6580864   0.19965388  0.148619   -0.1451684  -0.1954079
  0.05718457 -0.19885188]
[ 0.16013718  0.20860487  0.2567955   0.03850954 -0.10092658  0.07795977
 -0.07065286 -0.17458014  0.04387842 -0.2776776  -0.12156653 -0.16699821
  0.27046227 -0.12075064  0.19786923  0.08217962  0.02036166 -0.07217764
 -0.21185759  0.22520848]
[-0.28794134  0.20954928 -0.1453269  -0.13653898 -0.22812152 -0.19060189
 -0.00082883  0.13992219  0.1011605   0.0398964   0.07720149  0.14645834
 -0.13881907  0.06740241 -0.23043095 -0.01729632 -0.06178775  0.205371
  0.35686806  0.00196294]
[-0.02068456 -0.13669202 -0.00632004 -0.1252921  -0.19770645  0.02360074
 -0.07307534 -0.11632264 -0.08493677 -0.10400876 -0.02152376  0.06761184
  0.22301835  0.07883251 -0.14215024  0.06295952  0.06576975 -0.06101391
  0.0836006  -0.06351269]
[-0.11705885  0.02992898 -0.27816418 -0.06522054  0.14989145  0.00782632
  0.26795387  0.02908118 -0.12338947 -0.01771428 -0.5628965  -0.23766442
 -0.17442855 -0.41574967  0.04005272  0.0815124   0.0131647   0.12967439
  0.06250969  0.28679734]
[-0.09410859 -0.01481032 -0.31244603  0.18286993 -0.08681493 -0.04636003
  0.30535954 -0.06531838 -0.2064493   0.12390012 -0.03212225 -0.1356222
  0.29620016 -0.05444235  0.09464826  0.17768754 -0.07593967  0.0137391
  0.24308817  0.1273001 ]
[ 0.304928   -0.16484061  0.30934247 -0.15305787  0.06446847  0.10529002
  0.00717987 -0.17889883  0.00954209 -0.0603618   0.34590092 -0.06482039
  0.23697427 -0.10400962 -0.25406823 -0.328482   -0.15337956  0.05129946
 -0.17864917 -0.2617176 ]
[-0.07425152 -0.13085197  0.13014385  0.04941136  0.27248883 -0.11593626
 -0.00453916  0.12978162  0.02504958  0.15898316 -0.3201922   0.03983416
 -0.03355718  0.15770726 -0.2108134   0.13322622 -0.10744529  0.01918362
 -0.10442173 -0.0336487 ]
[ 0.00371025 -0.07304643  0.08663562 -0.08674207 -0.01125873 -0.05668657
 -0.01786465  0.0319968  -0.10124559 -0.25379452 -0.04347968  0.0708356
  0.2989174   0.17708766 -0.26148465 -0.08165531 -0.05050984  0.10230149
  0.35786366 -0.2840964 ]
[-0.12961102 -0.08426176 -0.01043197  0.07680538  0.1834196  -0.10309658
  0.00195538 -0.08535107  0.02812836  0.22677319  0.09884193  0.13816223
 -0.24872878 -0.16109295 -0.05851036  0.04739151  0.18072483 -0.2174625
 -0.07980032 -0.01983877]
[-0.03364841  0.01476023 -0.0449178  -0.01263019 -0.03686805  0.18947247
  0.11948502  0.05474377  0.06623505 -0.2020017  -0.05199112 -0.01427683
  0.3441379   0.1489109   0.18411975 -0.40606895  0.10184745 -0.17912924
  0.03370241 -0.27893332]
[ 0.08572307  0.21929649 -0.3131068  -0.09420728 -0.26388246 -0.15600672
  0.12272352 -0.23750544 -0.00734825 -0.20263232  0.02163134 -0.10162952
 -0.20834728  0.21550483  0.10668362 -0.04743069  0.00342773  0.14368731
  0.14973049 -0.48005384]
[ 0.05532862 -0.04625149  0.05434673 -0.14563103  0.4476717  -0.08720875
  0.07075369 -0.01023754 -0.26442403  0.04266942 -0.10245127  0.1397889
 -0.07258625 -0.06983998 -0.06601097  0.25265646 -0.31383684  0.12651543
  0.06202006  0.19943269]
[ 0.03620373  0.20348662  0.35147023  0.1621017   0.16378035  0.31678292
 -0.1304463   0.10643993  0.15861481 -0.13962825  0.31309402  0.08283742
 -0.05434282  0.17655197 -0.14100662 -0.20495233  0.17785    -0.18922928
 -0.09322544 -0.41434526]
[-0.15352972  0.0147951  -0.17295882 -0.12834    -0.16450734 -0.17181236
  0.06247699 -0.04353254  0.15591487  0.03995471 -0.02377846 -0.02419934
 -0.16545537 -0.06564914  0.1963402   0.49962804  0.05794165 -0.22129972
  0.03122235  0.18411623]
[ 2.07578838e-02 -3.92061435e-02 -1.22029938e-01 -3.23847518e-04
  1.28759548e-01 -1.14997864e-01  1.70300782e-01  4.64217626e-02
  8.25727731e-02  3.23940873e-01  2.72578567e-01  2.40073308e-01
 -2.72338629e-01 -4.67174500e-01  5.78017421e-02  2.58097470e-01
 -2.05303758e-01 -1.45858809e-01 -8.89274999e-02  1.46695167e-01]
[-0.08235057 -0.01174967  0.11783135 -0.03178942  0.06681635 -0.11316705
 -0.17830236 -0.08358467  0.01016175  0.13713747  0.01755995 -0.15740225
 -0.03698354  0.09040087 -0.09724369  0.2888633  -0.09814367 -0.04953492
  0.02133114  0.01943   ]
[ 0.11690869 -0.17771322  0.08170276 -0.00824675  0.15715805  0.09104369
 -0.03862316  0.12390318 -0.15407991 -0.17202531  0.20796588  0.07555899
  0.08246566 -0.18526575  0.19667292  0.03992512 -0.18469106 -0.10516417
  0.02154698  0.16596922]
[-0.10228653 -0.13225657  0.41610008  0.08795615 -0.10848065 -0.40893245
 -0.19242918  0.00698421 -0.13953893 -0.07770136 -0.17151867 -0.37548876
  0.3607718   0.41029087  0.09005295 -0.09472345  0.09875485  0.2070251
 -0.05514252 -0.00227922]
[ 0.21614143  0.19282314  0.07663385 -0.02141052 -0.04668629  0.01108277
 -0.07134806 -0.06289897 -0.09322487  0.2459084  -0.34044915 -0.15427965
 -0.12063845 -0.16279364  0.02230881  0.01197445 -0.07260028 -0.03645681
 -0.13582265  0.12188074]
[-2.4190631e-02 -6.6662103e-02 -2.2719587e-01  2.0343369e-01
 -9.1850609e-02 -1.7877378e-01 -6.0565669e-02  1.3568825e-01
 -6.4962924e-02 -4.0599196e-03  3.1557938e-01 -1.8607377e-01
 -2.6176819e-01 -2.3080739e-01  1.6397753e-01  1.1144012e-01
  1.0649757e-01  1.5988102e-04 -1.1868819e-01 -2.3817502e-01]
[ 0.07155252 -0.03025251  0.18142436 -0.15158643  0.14724614  0.25124753
  0.15601812 -0.27147165  0.11805891  0.06195607  0.47783628 -0.37355876
 -0.32005617  0.21181248  0.22014016 -0.04844635 -0.2953114   0.34261808
  0.06465659  0.00293935]
[-0.01879395 -0.06225929 -0.13867322  0.15035044 -0.15664096  0.14519152
  0.00800108  0.10969467  0.00393087 -0.09337983  0.06820728 -0.04756505
 -0.10893569  0.0867713  -0.01994202 -0.1555235   0.11883816 -0.07385392
 -0.01101055 -0.2189096 ]
layer 5 Activation
tanh
layer 6 Dense
20 1
[0.02598745]
[0.01539298]
[-0.12318547]
[0.00473624]
[-0.02253363]
[0.11265259]
[-0.00164179]
[-0.00042681]
[-0.00634812]
[-0.09474702]
[-0.08426126]
[0.02358488]
[-0.09416299]
[-0.1453289]
[-0.03975201]
[-0.00653936]
[-1.7143553e-05]
[0.00438092]
[0.02521878]
[-0.08720223]
[0.10770704]
