layers 7
layer 0 Dense
20 20
[ 0.29550707 -0.11645059 -0.18928564 -0.04653382 -0.15439036 -0.3035563
 -0.23610577  0.0324812   0.00609128 -0.02491971  0.26135787 -0.01295467
 -0.20539543  0.10807522 -0.09518841  0.3626635  -0.14020157  0.00200649
 -0.21127525 -0.27378002]
[-0.54231185 -0.025345    0.15851086  0.2258297  -0.19677     0.2146769
  0.02683537  0.05709252 -0.13286448 -0.1935033   0.10862074 -0.3023614
 -0.25063178 -0.2686721  -0.04596376  0.17710185  0.213203    0.19527285
  0.14842203  0.20708425]
[-0.28219074 -0.22237864 -0.33962652 -0.15696117  0.28856164 -0.1469819
  0.03457483  0.07160342  0.27443248 -0.16389437  0.1868947   0.11755592
  0.04638837 -0.3522799  -0.40459672  0.35332924 -0.16978247 -0.25301978
 -0.07840251  0.12349726]
[ 0.02970185 -0.28395608  0.3258253  -0.36264536  0.34726045  0.26334634
  0.3598367   0.0716785  -0.26650497 -0.02203265 -0.19773789 -0.17861852
 -0.09937256  0.3231457  -0.30031407  0.14478026 -0.21673393 -0.18841943
  0.02452908  0.01223353]
[-0.35299695  0.35561052  0.03530743  0.1787469   0.2288776  -0.24030603
  0.17728353  0.17587294 -0.00370091  0.3215839  -0.2514232  -0.03975376
  0.02671118  0.07176346  0.14664638 -0.25234163  0.24565093 -0.3663143
 -0.19525316 -0.2835003 ]
[ 0.26456654  0.03224938  0.09130139 -0.05867133  0.2017116   0.13814908
 -0.27433884  0.19642906 -0.46818706 -0.37086356 -0.21818346  0.24574417
 -0.01099614 -0.48862928  0.16399626  0.06626465 -0.12147421  0.25747386
  0.16210887  0.09194548]
[ 0.5477226   0.13522524 -0.2685182   0.12420263  0.45180395  0.2776682
  0.1193137   0.06246926  0.0219383   0.08156832 -0.31216606  0.07398549
  0.01399046 -0.3524786   0.44540063 -0.33656868  0.42654535  0.43578422
 -0.16557515  0.43239114]
[-0.31214055  0.01115456  0.1159749  -0.22487216  0.09615882  0.10786801
  0.2972137  -0.10890967 -0.11344533 -0.24765095 -0.3074603  -0.24524152
 -0.04994059 -0.03264171 -0.10874786  0.30313173 -0.02231246 -0.1653495
  0.2925102  -0.12482896]
[ 0.32064003 -0.09768708  0.04114057 -0.04303466  0.23608574  0.3334836
  0.24771638  0.17946851  0.2975667   0.02744802  0.18096994  0.07310109
 -0.25179312  0.09886699 -0.49262547  0.1453898   0.35601288 -0.40960255
  0.35568994  0.13028443]
[ 0.03763934  0.10885566 -0.08321724  0.04223013 -0.15216196 -0.10619986
  0.04259623  0.31922203  0.34457254  0.15015344 -0.4477898   0.07289771
  0.21615826  0.22565429 -0.06148152  0.04332592  0.12143676 -0.23196122
 -0.24504931 -0.03193665]
[ 0.29846963 -0.18400535 -0.11453923  0.22077408 -0.05942059 -0.31483632
 -0.07274673 -0.0376316  -0.11217765 -0.23700826  0.05794845 -0.3145404
 -0.2647534  -0.29864186  0.14149556  0.17784612  0.00508704 -0.1596169
 -0.12579715  0.42616913]
[ 0.41208586  0.14275576  0.25833157  0.1742502   0.26491925  0.00806027
 -0.42078686  0.037308    0.4318366  -0.01263336 -0.14764816  0.3099349
 -0.04581635 -0.03510291  0.39848727 -0.20295903  0.26372892  0.19229022
 -0.3445399  -0.08391192]
[ 0.36268017 -0.01308972  0.36581415  0.06818301 -0.06657671 -0.03346558
 -0.19450349  0.195959    0.32960153 -0.00950908 -0.12760536 -0.19417587
  0.33521387 -0.02062465  0.18152611  0.43735936 -0.21514484 -0.26927158
  0.04304562 -0.12824012]
[ 0.34795058 -0.4045748  -0.11459407  0.26899222  0.33378705  0.08891331
  0.30921867 -0.33933607 -0.598586   -0.24941032 -0.02916659 -0.01772052
 -0.13391814 -0.45567933 -0.42851794 -0.44352886  0.10705256  0.6053924
 -0.29905832 -0.52251387]
[-0.42211017  0.3592529  -0.07449939  0.45921707 -0.39303088  0.18928514
 -0.17044902  0.51163656 -0.28914985  0.25963748 -0.41776863  0.48675245
  0.28098485  0.36239886  0.38804883 -0.2616599  -0.28365338  0.22639258
  0.32551575 -0.05524009]
[-0.09373816  0.19553031 -0.42224973 -0.30678478  0.31378183  0.37898672
  0.22524764  0.16730213 -0.46216294  0.3380526  -0.30853808  0.1739179
  0.245856   -0.04566235 -0.24873562 -0.40490893  0.00142961 -0.43180096
 -0.14330946  0.52390665]
[ 0.17879249  0.01786456  0.3160434  -0.10446179  0.21523318  0.38458273
  0.26520196 -0.1049182  -0.1789967  -0.12208354 -0.00605127 -0.01270478
 -0.29850292 -0.18733604 -0.1860624  -0.30965364 -0.43087006  0.19465873
  0.19456741  0.22350286]
[-0.29840007 -0.25289115  0.4066671   0.13478944  0.07331978  0.18141234
 -0.03629953 -0.2125576   0.2901024  -0.13031507 -0.10405717  0.10209008
  0.20728484  0.44817168  0.10492008  0.23637864 -0.26856956 -0.35943338
 -0.34022784  0.14796624]
[ 0.19604133 -0.19987163  0.3556367  -0.14332737  0.16628261 -0.2428879
 -0.15055403 -0.19442725 -0.17537461  0.11640064  0.03853925 -0.16149929
  0.25702175  0.22427304 -0.23032252 -0.20621479  0.23735704  0.13802521
 -0.3358199   0.28159857]
[ 0.26409686 -0.09405352 -0.1326107   0.16395244  0.00260907  0.21401733
 -0.06971404  0.10992499 -0.02855634  0.43824503  0.14284559  0.388008
  0.38860202  0.20284775 -0.2559218   0.02713161 -0.03840607  0.3102379
  0.21156551 -0.5704952 ]
[-0.00371622  0.01907575  0.04245605  0.00513471  0.00744101  0.00418534
 -0.01192839 -0.15328184 -0.02368746 -0.06546875 -0.00306609 -0.01085482
  0.00753865 -0.03850175  0.00518441  0.02790595 -0.09663381  0.1589814
  0.00387016  0.00148801]
layer 1 Activation
tanh
layer 2 Dense
20 40
[ 0.29341665  0.35251102 -0.09729291 -0.14190611 -0.2959148   0.07537976
  0.38148242  0.04481019 -0.28277877 -0.27445373  0.02415489  0.0676697
  0.06384927  0.3148138  -0.14499466  0.32135472 -0.28051898 -0.32506725
  0.07379312 -0.27638766  0.01187372 -0.33865657  0.3381979  -0.08078276
  0.05824979  0.07527974  0.23018083 -0.06398322  0.53701496  0.07458454
  0.22341755 -0.0099546  -0.32868224  0.15593866 -0.09216242 -0.03151929
  0.17081752  0.08951482  0.24452995  0.07357717]
[-0.11082084  0.00981574  0.25480014  0.18853837  0.2019195   0.21688163
 -0.09917989  0.00876835 -0.08874235 -0.11045663  0.19243626  0.04814245
  0.33019844 -0.1507716  -0.19203646 -0.16283858  0.03903186  0.23076563
  0.3219056   0.26887882  0.35382393  0.11984365 -0.21300682 -0.28203472
  0.09586798 -0.24512108  0.03471667 -0.10548105 -0.33163652 -0.11280315
  0.07578893  0.1313157   0.2603592   0.00937981  0.10120636 -0.29659286
  0.11036641  0.24552958 -0.10965516  0.17163725]
[ 0.29047522 -0.006748    0.20791079  0.312521    0.14421664 -0.15388495
 -0.06602369 -0.20331296  0.21170114 -0.3369791  -0.01035702  0.00717259
 -0.331208    0.01887541 -0.20121254  0.02907133  0.18176612  0.281795
  0.10696109  0.06769946  0.10634376 -0.05684146  0.31758153 -0.15900986
  0.16181543 -0.24668068  0.19879925  0.19077161 -0.24729416  0.20190045
  0.21127169  0.07102133  0.03605188 -0.3186212   0.22339153 -0.33301377
 -0.02955464  0.20002984 -0.24213998 -0.14011043]
[-0.18590862 -0.2835781   0.00427868  0.07835229  0.01866916 -0.04725922
  0.16478814 -0.12180215 -0.19974597  0.04834097  0.19731651 -0.20544349
 -0.24071617  0.19287403 -0.20401886  0.12511154 -0.20103915 -0.0063898
 -0.07343437 -0.28664368  0.25557038  0.2650426  -0.12478639  0.18644203
 -0.19057259 -0.19999681  0.1255998   0.05577578  0.19180726  0.19961669
 -0.06972163 -0.08880161 -0.2501666   0.1715608  -0.13075086 -0.12922439
  0.19027607 -0.13828205 -0.15828969  0.31790808]
[ 0.3081658   0.28918067  0.06382529  0.37966996  0.16008884  0.30015352
  0.04529696  0.17603496 -0.24967581 -0.09125986 -0.04856587 -0.23388486
 -0.24662949  0.00626831 -0.25006145 -0.16899168  0.16761902 -0.39931428
  0.09851788 -0.16421705  0.23507187 -0.11652996 -0.19297615  0.17769125
 -0.05141964  0.09398986  0.064234    0.22984949  0.16697064  0.12950693
 -0.14715438 -0.17402567 -0.08537816  0.14109343 -0.40714082  0.17364271
 -0.2322512   0.20658764 -0.07241223  0.2271396 ]
[ 0.2180021  -0.14603887 -0.3209361  -0.19941126 -0.2786683   0.21202913
  0.26413715  0.23128675  0.1203334  -0.11812845  0.00301026  0.03992025
  0.03866323  0.05131355 -0.1539254   0.27971175  0.06119612 -0.13444816
  0.3910511  -0.07913518  0.23866415  0.07130266  0.17624913 -0.09225598
  0.05916051  0.10038785 -0.21839286  0.12816153 -0.37990963 -0.08994122
  0.02039876  0.07438209  0.18461396  0.20650345 -0.14041775 -0.10522708
 -0.09633507 -0.20177753  0.04530815  0.25687805]
[ 0.08838766 -0.21937037  0.04068116  0.21541396  0.11710451 -0.02659739
  0.29069826 -0.03254872 -0.08453636 -0.14736119 -0.00303156  0.0587447
 -0.2158852   0.05500675 -0.25321478  0.26280844  0.10336559  0.02431064
  0.11925063  0.35519648  0.01769104  0.0020128  -0.1494306   0.03400173
 -0.27372047 -0.09333984 -0.10640601  0.00194499  0.20171407 -0.08868238
 -0.18473938 -0.01344459 -0.35364527  0.17072952  0.29969075 -0.13084047
  0.2508192  -0.10987044 -0.25440767  0.04441869]
[-0.01234585 -0.13262333 -0.15559755 -0.22688183 -0.21299751 -0.2505192
 -0.20766465  0.12407565 -0.0917547   0.19054428  0.31038848 -0.07070823
 -0.05083792  0.14043587 -0.08788297  0.0258934   0.03362042 -0.24041168
 -0.02393278  0.08291322  0.27703908  0.31324473  0.2411514  -0.328267
  0.11279797  0.3056004  -0.04309062 -0.01667319 -0.18240009  0.00864752
  0.08064965  0.16162881 -0.05032551 -0.08347532 -0.08137666  0.30520985
 -0.2995534   0.22637285 -0.30568668  0.07026654]
[ 0.3098827  -0.1518983   0.17382641  0.25104243  0.1399298  -0.09134583
 -0.15670231  0.1962907  -0.03424758 -0.26114964 -0.2363049   0.25394085
  0.12331296 -0.17677143  0.11011869 -0.27798724 -0.1811542   0.14990339
  0.21440826 -0.2692861   0.25844502  0.29451764  0.3815007  -0.2458047
  0.1658075   0.13121463  0.22401802  0.1695618   0.2232836   0.13113785
  0.03526018  0.15380718  0.03031911 -0.0725074  -0.08549676 -0.33898923
  0.21469845  0.330917   -0.01865571  0.2836183 ]
[-0.15906997 -0.16841297 -0.11618339  0.14990059  0.13442811 -0.07556795
  0.259781    0.05332897  0.05210575 -0.08058415 -0.05621959  0.2026499
  0.15629292 -0.12904239 -0.07300965 -0.0929954  -0.24914202  0.00680849
  0.16197722  0.34330782 -0.13686752 -0.1470145   0.02627994 -0.3323871
  0.2639912   0.09240905  0.26615253  0.27446374 -0.0885232   0.02354483
 -0.16676639 -0.09921367  0.25564998 -0.10217416 -0.07880671 -0.16423619
 -0.20742434 -0.02780713 -0.16115014  0.10114243]
[ 0.19510722  0.04901033  0.17100164  0.04140626 -0.28430873  0.04421458
 -0.11297446  0.15963154 -0.18354665 -0.02632395 -0.37298444 -0.24567303
  0.18063052  0.1734225  -0.2474209  -0.00696848  0.14307153 -0.24766369
 -0.11146271 -0.34954026 -0.2880361  -0.25617805  0.1296534   0.42400378
  0.08220434 -0.21670489 -0.18482059 -0.08892667  0.2581561   0.17054921
  0.11084691  0.26893184 -0.3173365   0.07882033 -0.2553644  -0.24716073
 -0.3261209  -0.13930026 -0.00996037 -0.11152964]
[ 0.1396629   0.3444291  -0.3762155   0.09980305 -0.14028282  0.00445494
 -0.23405346  0.02269883  0.0805535  -0.11981371  0.32601967 -0.12749206
  0.16014732 -0.08149309 -0.13140778  0.00760389 -0.28660133 -0.08648403
 -0.21753916  0.12119385  0.11597136  0.28139845 -0.2419184  -0.25006998
 -0.09778877  0.09337872  0.22852862 -0.3563138  -0.29246897 -0.14736867
 -0.37099695  0.20578113 -0.10680126 -0.18065777  0.2508252  -0.2018202
  0.0650027   0.21498057 -0.0068625   0.28227928]
[ 0.14998814  0.13981833  0.16676724  0.12064424 -0.1643298   0.21852
 -0.11161758 -0.01408521  0.17087406 -0.01698347  0.23461157  0.02158215
  0.10329199 -0.00042652 -0.202364   -0.21868977  0.0180661   0.0244415
 -0.1707942   0.11989707  0.17345539  0.03165056  0.26579857 -0.05656635
 -0.05635158  0.20102187  0.07204586  0.05292515 -0.02647199 -0.02734677
 -0.10273705  0.09855278  0.41270074  0.22508465  0.1366233  -0.08403976
 -0.06865434  0.0059058   0.03928978  0.0781355 ]
[-0.22423469 -0.09313401 -0.27453682  0.01786448  0.17348115 -0.04086035
 -0.1540473   0.01276671 -0.15818453  0.26218888 -0.15276738  0.07410948
 -0.2383153   0.23039453  0.00106751  0.31637162 -0.244078    0.23617417
  0.18993634 -0.04094931  0.15147015  0.04619972 -0.17016214  0.00264546
 -0.12868242 -0.2816543   0.21268936 -0.34088278 -0.13558786 -0.00078257
 -0.123916   -0.07878938  0.31491944  0.20558296  0.07163358  0.20081206
 -0.08457316 -0.01702411 -0.02320516  0.08908647]
[-0.02667288 -0.00936359  0.00946943 -0.11159987  0.02004825 -0.29288396
 -0.19515905  0.2454285  -0.2621485   0.21543254  0.09324239  0.03034913
 -0.12581873 -0.2612607  -0.1920499  -0.04429451 -0.12261019  0.33749261
  0.5268149  -0.3198485   0.26473233  0.21498303 -0.12334636  0.05876138
 -0.06023818 -0.00784663 -0.08171483 -0.10508969  0.12127327 -0.27755624
  0.24427995 -0.16967782 -0.12623048 -0.3731206  -0.00379987  0.05241784
  0.39039385  0.3062942  -0.13183299  0.3349836 ]
[ 0.01629426 -0.09737319  0.2177356   0.04835514 -0.23598512 -0.13831443
 -0.05838192  0.236971   -0.17691396 -0.15649337  0.18865642 -0.11185375
 -0.25596392 -0.18509209  0.37467617  0.18277685 -0.01113466 -0.14507656
 -0.22184671 -0.05641524 -0.0618822  -0.26171756  0.24263632  0.24256407
  0.1976553   0.11117015  0.07408365 -0.3381388   0.2834759  -0.12326983
  0.09415007  0.5432518   0.23886865 -0.03910479 -0.33485487 -0.1869277
  0.01264891 -0.12242874  0.06359362 -0.04810973]
[ 0.2756882   0.13587715 -0.17867708 -0.34180182 -0.11159549  0.18491314
 -0.14358814  0.26794443  0.16342537 -0.09347393 -0.19282804 -0.28001434
  0.16667487 -0.09153835  0.3195819   0.26003695 -0.22852089 -0.22733028
 -0.31282404 -0.137084   -0.31551278 -0.3357287  -0.17296787  0.03434202
  0.06457529 -0.09508737  0.22543378  0.39230022  0.21466383 -0.2649675
  0.12747349  0.01213325  0.11915617  0.15131477  0.15118498 -0.020469
  0.11989995 -0.1955463   0.27348107 -0.14396763]
[ 0.29245716 -0.20132938  0.07051856 -0.36403087  0.27191332 -0.33977282
  0.15213594 -0.10267886 -0.17968915  0.3089091   0.22280766  0.1740419
 -0.22909859 -0.05166535 -0.20715708 -0.29394573  0.16801801 -0.27262607
 -0.19463243  0.12588812  0.34017962  0.2424054  -0.27594578 -0.02437622
  0.1999355   0.15726872  0.3343712   0.15690485  0.18306659 -0.3163698
  0.16546045 -0.0402854   0.27138442  0.11809389 -0.23552722  0.12655976
  0.38022158  0.05795776  0.06186111 -0.12629691]
[-0.15043633  0.09239701  0.15303086 -0.21796483  0.04456549  0.04735817
  0.00873824 -0.00893395  0.2105381  -0.12046903 -0.1410961   0.30655354
  0.09992974  0.15249766  0.21210858  0.19699349 -0.206061    0.33223426
 -0.07354633  0.18345508 -0.22791894 -0.15304875  0.30295765 -0.03878716
  0.14402968 -0.02382988 -0.2628639  -0.10269386  0.01666242 -0.0738041
 -0.28411433  0.07541353  0.2985763  -0.10345902  0.03303264  0.21777143
 -0.0369456  -0.33382198 -0.1622763   0.2069139 ]
[-0.3654538  -0.2273029  -0.07070564  0.32596233 -0.10890629  0.05891708
  0.19613582 -0.21935248 -0.00782771  0.27493885  0.1530504  -0.23812553
 -0.12540913 -0.27094722 -0.22219773  0.17891227  0.16944388 -0.24101123
  0.14604203 -0.22108363 -0.13595827 -0.47461978  0.11716754  0.08589566
 -0.13229607 -0.34498197 -0.26052085  0.02604391  0.2681335   0.04673401
 -0.02031011 -0.14105292  0.08966178  0.14377385 -0.05911607 -0.27395773
 -0.30702212  0.39901978 -0.01339506 -0.21560198]
[ 0.01838654  0.02566884  0.07931578  0.06147758 -0.0144476  -0.02359589
  0.05982741 -0.01191942 -0.00097783  0.02718517  0.01386001 -0.06659643
 -0.01056664  0.07401396 -0.0543729   0.03215742  0.01114441  0.00344258
 -0.13455288 -0.00451251  0.01277246 -0.02360819  0.03248364  0.07054632
  0.01142721  0.03148347 -0.004246   -0.02185625  0.06325267  0.07695524
 -0.02173684 -0.02925527 -0.00231954 -0.00861313 -0.03109775  0.02060445
 -0.02429232  0.0148188   0.02303214 -0.00299593]
layer 3 Activation
tanh
layer 4 Dense
40 20
[-0.04187863 -0.00355733 -0.27074164  0.0810698   0.22093666 -0.20554839
  0.17207167 -0.15572919  0.22548033  0.16124374 -0.07209533 -0.11945038
 -0.18840745 -0.14440288 -0.20976955 -0.10058925 -0.12744132 -0.08794192
  0.22511184  0.16251042]
[ 0.33036512  0.156266   -0.02163964  0.27913237 -0.03984066 -0.10101591
 -0.11708011  0.15976022  0.18352345  0.33262786 -0.00804656  0.2138779
  0.2464458   0.06184774  0.06154514  0.22489433 -0.17738533 -0.09344856
  0.01841937  0.02271797]
[-0.23821546 -0.16840096  0.29592854  0.01587497  0.14632998 -0.2604793
 -0.0412295  -0.20443414  0.15834777 -0.19315386 -0.08637182  0.03609031
 -0.16319413 -0.11890712 -0.10261658 -0.11589321  0.30778888 -0.03668546
  0.25589374  0.08754399]
[ 0.25624287  0.26420525 -0.09959028 -0.05913711  0.2748911  -0.19109507
 -0.03060489  0.35424918  0.08212665 -0.01422311 -0.11989231 -0.08516625
  0.23909393  0.05307493  0.22724357  0.25260082 -0.19743973  0.2907053
 -0.17759386 -0.2661618 ]
[-0.07127166  0.03101199  0.25469905  0.20523517 -0.2202241   0.08423968
  0.22457133 -0.27792928 -0.23523705 -0.01424459  0.2188255   0.15251812
 -0.33142278  0.02240251  0.19460976 -0.27343285 -0.00270209  0.06310216
  0.18229458  0.20386149]
[ 0.1775932  -0.13706873 -0.3361899   0.13575462 -0.32119513 -0.0189869
 -0.24963236  0.01616493 -0.11371845 -0.17719375 -0.0326776  -0.17256172
  0.29257324  0.16844198 -0.1663711   0.19068436 -0.17666738 -0.13560133
  0.19882445 -0.05219863]
[-0.22362144 -0.20880912 -0.04131763  0.00801214  0.07455631  0.17598096
  0.01894428  0.09082265  0.15133464 -0.13360305  0.21723957  0.0383516
  0.24941738 -0.22166982  0.16713643  0.22101821 -0.2560921   0.02856936
  0.0432154  -0.08303836]
[-0.24140614  0.2914404   0.03056991 -0.06456551 -0.0973426   0.02499215
 -0.1264142  -0.3008849  -0.22575022  0.3384976  -0.07961643  0.13482592
  0.15532246 -0.3877288  -0.14669605  0.18661933  0.01675774  0.08259825
  0.23986463  0.25533158]
[-0.01398256  0.16393304 -0.02461004  0.2842213  -0.02078137  0.11884061
 -0.0727078   0.07141694 -0.01463867  0.11826003 -0.28323716  0.1998974
  0.19964474 -0.24510662  0.08460887  0.16844478 -0.13732722  0.09848882
 -0.09815726  0.07522356]
[-0.32311273  0.16173364  0.23008038  0.25294945  0.23194759  0.13559723
  0.1216293   0.14079668  0.22392118 -0.10666701  0.17103738 -0.19547565
 -0.1814676  -0.12593928  0.15037312  0.21047385 -0.21546501 -0.21020724
  0.18526551 -0.27126205]
[-0.30883417  0.201301   -0.04576512 -0.14588816  0.25774854  0.29668307
  0.27444172  0.07147136  0.11079185  0.22825114 -0.24786186 -0.03453511
 -0.13183564  0.12486315 -0.16659562  0.12038275  0.15267323 -0.04315227
 -0.17833534  0.19075912]
[-0.2158832  -0.14947659 -0.28169104 -0.10269379 -0.12907569  0.250555
 -0.2127063   0.09878431  0.23603228  0.16893789 -0.17696035  0.07791223
  0.2642162  -0.30006546 -0.08106966 -0.06250041  0.06031079  0.22510406
 -0.2148367  -0.16885291]
[-0.28323656  0.04903755 -0.0763118  -0.06300978  0.17289156  0.24344999
 -0.3198223  -0.03776277 -0.00979441 -0.10224733 -0.06019223 -0.19442202
  0.09334072  0.23283817  0.02604963  0.15995935 -0.2865382   0.07677932
  0.17882615  0.32401547]
[-0.2371641   0.01123435  0.2563439  -0.20724092  0.07454476 -0.13935871
  0.1841561  -0.29991764  0.15294793  0.23576154 -0.04733595  0.19051388
  0.09205735 -0.25650463  0.15803172 -0.05532692 -0.09748842 -0.10278631
 -0.01521966  0.2038055 ]
[ 0.25845996  0.18062426  0.27292335  0.20353182 -0.18365593 -0.16620083
 -0.02536448 -0.23164742 -0.29941636 -0.19318746 -0.00345404  0.26497084
 -0.31412607  0.13020337  0.18962413 -0.2762162   0.04825361  0.30866432
  0.0428574   0.28229845]
[ 0.1393017  -0.06008916  0.16676943 -0.27243334  0.14768685 -0.07791267
  0.0371619   0.10444187 -0.2694284  -0.01749427  0.00914187 -0.23689137
  0.0674428   0.07082216  0.22452265 -0.13139075 -0.02728235 -0.1694695
 -0.26628733 -0.33973846]
[ 0.05708316  0.27072826 -0.03363262 -0.24634877  0.2752482   0.05220722
  0.06406695 -0.20764348 -0.21945377 -0.22160438 -0.26044363  0.17644924
 -0.18572754  0.37280738 -0.11261071 -0.14707188  0.09972663 -0.28130108
 -0.2985796  -0.21138152]
[ 0.13656068 -0.03501049  0.30770606  0.30194378 -0.01312837  0.13282315
  0.0143088  -0.3068838  -0.21781678 -0.09691058  0.18354051 -0.320972
 -0.28905767  0.08907996 -0.20619895  0.20375927 -0.16842282 -0.13384975
  0.00119898 -0.1971716 ]
[-0.01404145  0.29051158 -0.33576223 -0.19295129  0.2385295  -0.18133375
  0.30024368 -0.17021178 -0.02639983 -0.2333572  -0.18795925  0.01570127
  0.12520282 -0.13999441 -0.08617     0.20815133  0.04673055  0.34853086
 -0.00890453 -0.1249079 ]
[ 0.20130858  0.04057765 -0.1444189  -0.07058623 -0.28567263  0.06664214
  0.22228257 -0.04313727  0.01028479 -0.01586273 -0.04217524  0.21469541
 -0.11422231 -0.04927957 -0.16624658  0.18749729 -0.27366495 -0.10330947
 -0.05048581  0.11763848]
[-0.11667944 -0.01115586 -0.14660238  0.22772068  0.22293171  0.05847346
  0.17033727  0.0189431   0.06776367  0.22928272 -0.04944946  0.02801057
 -0.14226267 -0.10269769 -0.15807983  0.2869595  -0.06840593  0.18987018
 -0.30304086  0.08244682]
[-0.27700207 -0.2838219   0.17634113  0.2449265   0.06768403 -0.05180294
 -0.11658502  0.25825015  0.05721697  0.02765461 -0.22826637  0.24997035
 -0.29049793  0.00817474 -0.3345524  -0.18184806  0.27495104  0.00673588
 -0.05401988  0.1357956 ]
[ 0.15656316 -0.22267315 -0.05019346  0.10184244  0.03761955 -0.24720126
 -0.08161258 -0.2124593   0.27743924  0.06806367  0.11593054  0.33370653
  0.17181222 -0.2539945   0.20229478  0.2494063  -0.10389057  0.33782014
  0.13011843 -0.22727185]
[ 0.21072629 -0.16204172 -0.15289342 -0.05482868  0.11338969 -0.1351991
  0.04276593 -0.36787048  0.17033435 -0.29067925  0.3019643   0.2342355
  0.06551547  0.29440686  0.2755357   0.2020787   0.27210066 -0.09635516
  0.32563508 -0.39087862]
[ 0.2180606   0.20477925  0.35231516  0.01407732 -0.05600703 -0.1113606
 -0.00983471 -0.10608025 -0.0898522   0.06659212  0.38939133 -0.01984104
 -0.00053292  0.10814454  0.03886837  0.17303534 -0.09387422 -0.01018207
  0.42210057  0.2624357 ]
[-0.13002951 -0.12314589 -0.20632985  0.27134112  0.09599041  0.2941802
  0.29206437  0.16924815 -0.02963185  0.19051963 -0.26308772  0.26698968
 -0.05882843 -0.20369205 -0.06446645 -0.00390325 -0.15226193 -0.20063192
  0.15508859  0.34831613]
[ 0.21375975  0.04799087  0.13986391 -0.02753096 -0.25714463  0.15151532
 -0.2035843   0.19997917 -0.24651435 -0.17584445  0.26016375 -0.10273413
 -0.24636425 -0.019518   -0.24201523 -0.19286352 -0.17608708  0.04079104
  0.10664385  0.31205416]
[-0.09667841  0.14478269 -0.15237775  0.13106222 -0.12065529 -0.15729249
 -0.15975098 -0.35327595 -0.18721575 -0.20048037  0.17996128 -0.02268824
  0.08954382  0.18714407 -0.1869094  -0.27528453 -0.3731176  -0.16185683
  0.20895265  0.10425381]
[-0.21193157  0.02328678 -0.2321176  -0.16449438  0.25298315 -0.29641634
  0.14874113  0.03002139  0.19126852  0.01536604  0.2844787  -0.22325884
  0.08777255  0.10576829  0.28844643 -0.35671768 -0.273069   -0.21642411
  0.23633835 -0.02856825]
[-0.02454874  0.12494789  0.11895717 -0.15821315  0.23458795 -0.06498335
  0.25626287  0.10013374 -0.10786462  0.18932772 -0.14509642  0.2672944
  0.14573292  0.26546404  0.2455184  -0.24285758 -0.06348878 -0.02051673
  0.05443224 -0.0199417 ]
[ 0.05059946  0.20903143 -0.116869    0.05521423 -0.2258681   0.10271853
  0.12351522  0.22701202  0.3221314   0.1280771  -0.06725129  0.2217362
  0.0548422   0.20239042  0.30375516 -0.16778655 -0.09835537 -0.10944182
  0.24416088  0.0725795 ]
[-0.0368406  -0.19000675  0.23870178  0.0971636   0.05440225  0.27307045
 -0.11461055  0.08142349 -0.30340138 -0.17799652  0.04181077  0.03180596
  0.26123747 -0.15008798 -0.13323323 -0.1967985   0.02970293  0.1852206
 -0.14857495 -0.15638253]
[-0.15566057 -0.18095121 -0.147876   -0.2410336   0.07401447  0.2565069
  0.25710166  0.08386823 -0.22589798  0.16771577  0.21669765  0.09010968
  0.09973663 -0.2980965   0.31721938  0.09916126 -0.12186468  0.26107967
  0.24143702  0.12605453]
[-0.04589848  0.02511833  0.05074903 -0.16885576 -0.2469028  -0.12201384
 -0.10984911  0.3110277  -0.09016018 -0.0817673   0.1502954  -0.10932612
  0.06459755  0.01229441 -0.11240418 -0.07138778  0.13133276 -0.38257754
  0.04572018 -0.07739052]
[-0.07785232 -0.20634481 -0.11669777  0.09260742 -0.15330932 -0.09028023
  0.25927225  0.17388694 -0.30933776  0.05319161  0.07928102  0.36755815
 -0.24665615  0.0366799   0.0847136  -0.2849151  -0.18377732  0.23253524
  0.1962733   0.2756615 ]
[-0.04833717 -0.192521    0.28997937 -0.09768269  0.36625874  0.13745978
 -0.10789593  0.08923189 -0.15159519 -0.02411075 -0.03775738  0.11796229
  0.04997828 -0.04698388  0.11628523  0.17415102  0.01983027 -0.01515081
 -0.22276494  0.11193033]
[-0.06550359 -0.19322978 -0.21829471  0.25846788  0.03743708  0.14093421
  0.22208422 -0.12586372  0.07286251  0.1990782   0.14428191  0.20239516
 -0.2031257   0.29413772 -0.16857198  0.04493325  0.26067522  0.15577921
 -0.25298104 -0.18971172]
[-0.07912369  0.27066994  0.06063149 -0.2308064   0.32691878 -0.25124004
  0.17676964  0.22253576 -0.2507796   0.23582238 -0.28677574  0.20040998
 -0.1550647   0.10285322  0.28857073  0.32092556  0.25756788  0.3027177
 -0.1631978  -0.13392772]
[ 0.18584159  0.16041878  0.09001446  0.2757607   0.21206565 -0.27202648
  0.36294442 -0.14169627  0.16874762  0.04814754 -0.13407694  0.07038719
 -0.2049697   0.07666253  0.36181605 -0.08993778  0.0466364  -0.1738916
  0.10873336 -0.06674606]
[-0.3569508   0.3231361  -0.01497289 -0.03901721  0.24491364 -0.08626374
  0.20871113  0.33610788  0.18678623 -0.30184194 -0.21089874  0.21480238
 -0.15950856 -0.21121807 -0.18610846 -0.18712519  0.22527301  0.28592518
  0.12733725 -0.04079748]
[-0.00546269  0.00087166  0.00556715 -0.0337914   0.03568675 -0.00960878
 -0.01077367 -0.00228351  0.00996613  0.00839274 -0.00539547  0.11842215
 -0.0175692   0.00668285  0.01678997  0.00641079 -0.02728991 -0.02688843
  0.01217758 -0.02738685]
layer 5 Activation
tanh
layer 6 Dense
20 1
[-0.44613403]
[0.02052267]
[-0.07091942]
[0.04563638]
[-0.40108067]
[-0.33461803]
[0.03424639]
[0.11668646]
[-0.37768543]
[-0.14905058]
[-0.06570457]
[-0.00540111]
[0.39227715]
[0.21568525]
[0.40394574]
[0.34599072]
[0.19221415]
[-0.24430142]
[-0.31290647]
[0.20500033]
[-0.00875379]
