layers 7
layer 0 Dense
20 20
[ 0.13196816  0.06401848 -0.47819775 -0.4714079   0.05335043  0.01277327
 -0.46980613  0.40551457 -0.23140521  0.34049717 -0.14939386 -0.05828784
 -0.381561   -0.06462435  0.21297513 -0.06812429 -0.28084275  0.15188129
  0.08727715 -0.10391776]
[-0.06680268 -0.05134888  0.14965041 -0.22212642  0.13537522 -0.27786392
  0.02441724  1.1440344  -0.75374717 -0.09268495 -0.2323958  -0.07997859
 -0.41778168 -0.2055672  -0.40968838  0.20521349 -0.20453742  0.03505845
  0.08553081  0.501844  ]
[-0.08162498  0.20620312 -0.19971661 -0.37512073 -0.03499094 -0.70862544
 -0.04660651  0.71634895 -0.2433202  -0.18570681  0.38799384  0.6634274
 -0.59150964 -0.23421949  0.141395   -0.29720148 -0.12484911 -0.07287452
  0.26022393  0.22114414]
[ 0.2553439   0.17722984 -0.34804374 -0.06919252 -0.241744   -0.32559535
  0.09368092  0.2780811  -0.43925998 -0.30828443  0.26901063 -0.22805023
 -0.31404063  0.19882704  0.2787526   0.08650012 -0.19760643  0.36444426
 -0.23565957 -0.12121072]
[ 0.3280441  -0.06152145  0.25160402  0.27631024 -0.3790956   0.17401631
  0.03995985 -0.06582212  0.28499848 -0.23234488 -0.29076242  0.19924526
  0.56010795  0.14295512  0.00561317 -0.38043326  0.03942354 -0.27831239
 -0.0807566   0.11516205]
[-0.45715043  0.34949693  0.11341216 -0.10778426 -0.12330496 -0.01283853
 -0.41429314 -0.7661056   0.4242674   0.33075836  0.03973687 -0.09379206
  0.7570581   0.8463149   0.12731536 -0.2227606   0.43659154  0.67587745
 -0.21908481 -0.21698526]
[-0.06994942  0.1606714   0.43847615  0.43716344 -0.5040406   0.49773005
 -0.44988412 -0.8531316   0.27357408  0.3224965   0.04065453 -0.4624499
  0.65505505  0.71322495 -0.2024673  -0.1980791   0.3662967   0.21324681
 -0.25447425  0.21678618]
[-0.47631145 -0.11465412  0.08354226  0.6691911   0.0038576   0.10054703
  0.01828882 -0.23192112  0.35938928 -0.02893598  0.2853568  -0.14536265
  0.07448295 -0.24013887  0.1724473  -0.32492948  0.07561227  0.2110989
 -0.02629903  0.36586803]
[-0.21368553 -0.5521517   0.20078719  0.28232288  0.16210607  0.38252684
 -0.37949368  0.08163974 -0.14983687  0.07067926  0.38895226  0.5798668
 -0.24336515 -0.23502223  0.4842412  -0.34359357 -0.45595917  0.18087935
 -0.36178783  0.24104826]
[-0.19482894  0.498323   -0.5299332   0.4696621  -0.65361863 -0.45814002
 -0.2561976   0.05777569  0.43834558 -0.2992289   0.7204697  -0.1837931
 -0.50600487  0.4150126   0.12839195  0.99963176 -0.01774896 -0.46085554
 -0.8369367  -0.7265167 ]
[-1.5036492e-01  6.0206831e-01  4.0014889e-02 -1.4267559e-01
 -6.2018985e-01 -1.8051516e-01  7.8083444e-01 -5.4908115e-01
  2.6096684e-01  7.7729034e-01  9.3303084e-02 -5.8907706e-01
  5.1039904e-01  1.2861737e+00 -3.2998428e-01 -7.1867621e-01
  1.2520303e-01 -4.3908157e-04  4.5625487e-01 -4.9956715e-01]
[-0.78071773 -0.42294735 -1.6111752   0.57777375  0.32870507  0.88011134
 -0.29738286 -0.8813021   0.57014525 -0.83853847 -0.5929243  -0.0503023
 -0.7781917   0.6898543   0.39207286  0.6342372   0.4594688   1.0269417
  0.39694008 -0.1577816 ]
[-0.03890355 -0.12148382 -0.21375035  0.16168031  0.30455363  0.15556985
 -0.08731993 -0.5893784  -0.2595997  -0.42028874 -0.25893095 -0.53970766
  0.13163747 -0.07578754 -0.28258348  0.29739222 -0.16338488 -0.3260085
  0.34784478  0.28483322]
[ 0.09725308 -0.1956687   0.51215297  0.17818864  0.6379624   0.14900891
 -0.42656848 -0.15487874  0.06200797 -0.03388977 -0.284568   -0.26479614
  0.8375713   0.27285177  0.04982011 -0.07183428 -0.44365188  0.2481596
  0.15797779 -0.2962141 ]
[ 0.01654006  0.01644846 -0.27073544 -0.02746726  0.74694544  0.0034087
 -0.20242436  0.65250003  0.10559833  0.03610354 -0.13071148 -0.06961268
 -0.2828112  -0.42476207  0.433826    0.5276899  -0.18959118  0.17386986
 -0.04517784 -0.48680565]
[-0.1138678   0.681622    0.77946883 -0.47994798 -0.57506526 -0.929853
 -0.06480586  0.72295713 -0.849723    0.7522909   0.8300912   0.1223977
  0.38189328 -0.1347014  -0.14434752 -0.5196332  -0.5608848  -0.14980301
 -0.7260055  -0.04283518]
[ 0.18335925 -0.02710854 -0.3938559   0.11418685  0.05745297  0.05932039
 -0.19079451  0.45926452  0.31444347 -0.18655117  0.19909403  0.15796928
  0.51897043  0.20198974 -0.09783293 -0.05932311 -0.3612682  -0.23727164
 -0.30792436  0.18776351]
[-0.02504129 -0.1351257   0.29442143 -0.43839133  0.05795973  0.01280498
 -0.26746842  0.40064558 -0.3587794  -0.35245594 -0.5137087   0.45112243
 -0.30882317  0.31642842 -0.5824913  -0.26489958 -0.05521272  0.25026238
  0.16747397  0.1282998 ]
[-0.07885829 -0.1505493   0.13217267 -0.23272812 -0.21390921  0.10784207
 -0.0189896  -0.22824933 -0.00091047 -0.12164426 -0.21274282  0.23048472
  0.11116946 -0.4995885   0.02697207  0.23188545 -0.20661874  0.16753061
  0.60580695  0.6123584 ]
[-0.31627297 -0.3674841  -0.1476288  -0.04189169  0.37711787  0.09846701
 -0.44006014 -0.4351961  -0.57790935  0.49356687  0.284306    0.07856014
 -0.3660551  -0.27724275  0.18534644 -0.5186954  -0.27601042 -0.0601426
 -0.00487101  0.03568555]
[ 0.14626813  0.1403178   0.14318539 -0.38897234 -0.09774718 -0.1853479
  0.06325266  0.2562471  -0.09861381  0.03362212 -0.00611814 -0.00789446
 -0.12248547 -0.08535397  0.03459806  0.16455363  0.00948285  0.09553544
 -0.14091346 -0.10249866]
layer 1 Activation
tanh
layer 2 Dense
20 40
[ 0.264883    0.26216075 -0.17570543  0.18269674  0.00316771  0.12877768
  0.04925257  0.10435489  0.12957402 -0.23084159 -0.20655744 -0.11285582
  0.5172752   0.16660881 -0.1435417   0.05422482 -0.6302277  -0.20135048
 -0.27663764 -0.0570577   0.05428841 -0.16412765 -0.51008695  0.29982787
  0.4139888   0.10117826  0.36541498  0.34944353  0.07358218 -0.12502643
 -0.08364743  0.32431996 -0.07099085 -0.19785519 -0.01142696  0.13657802
  0.13975258 -0.10902055  0.2201696  -0.12408306]
[-0.44945633  0.19810554 -0.4726877  -0.3860745   0.33421668  0.50975823
 -0.06839749  0.00117193  0.03141801  0.03203808  0.14123769  0.16703783
  0.35981432 -0.29216817  0.03139597  0.02030928  0.04950996 -0.16253175
 -0.31213346 -0.16776413  0.08343363  0.00245783 -0.14603731 -0.1244171
  0.05467648  0.14467846  0.26780698 -0.1091714   0.27873105 -0.32169268
  0.2841952   0.01943298  0.40242875 -0.09956026  0.2738159   0.32334882
  0.1307538  -0.16630043 -0.0912836   0.13065913]
[-0.00314309  0.2425783   0.32096216  0.01082882  0.2825426   0.19823416
 -0.16301309  0.06309403  0.00575851  0.21586232  0.11714322  0.03389059
 -0.18353228  0.04181222 -0.143601   -0.07289647  0.14799364  0.14503539
 -0.00383067 -0.21235469 -0.23380609  0.05570807  0.12407698  0.01021751
 -0.02090119 -0.00632455  0.22932115 -0.00243225 -0.02366819  0.12796554
 -0.1327531  -0.1681467   0.07417185 -0.5243958  -0.08432425  0.05821493
  0.1374415   0.11296586  0.05299991 -0.05524816]
[ 0.26034665  0.10441457 -0.26432133  0.3158498  -0.5164196  -0.39171654
 -0.23846082 -0.00189435 -0.25192794  0.1832649   0.14947286 -0.2826131
 -0.30706808 -0.15296113 -0.39879966 -0.3914512   0.06566802 -0.06466887
  0.49532247 -0.01872627  0.28125536  0.18089479  0.26309058 -0.3660074
 -0.5356815   0.04175438  0.01616856 -0.22679219  0.15809676  0.13268054
 -0.03930116 -0.37770185  0.07511999  0.2843206   0.03996472  0.12240157
  0.39200172 -0.05876271 -0.23389597  0.04559953]
[ 0.37850645  0.13839944  0.16146451  0.53558636 -0.08677637  0.15363777
 -0.05270363  0.18489005  0.2704482  -0.6099853  -0.31163242  0.08845823
 -0.3386889  -0.20654579  0.1631897  -0.33397087 -0.06498402  0.01354012
  0.330176    0.12069041 -0.28914055  0.57754624 -0.22776453 -0.05615161
 -0.09761165 -0.29035452 -0.44376203  0.05126918 -0.11083397  0.2505771
 -0.10812541 -0.03466851 -0.307227   -0.26266125 -0.5265615   0.0225803
 -0.2843308  -0.05961051  0.05704274 -0.20434017]
[ 0.4354812   0.05931818  0.2510013   0.1654721  -0.04508959 -0.04349662
 -0.02735666 -0.11876544 -0.10097373 -0.23436238  0.18612209 -0.04031514
 -0.15753958  0.06521859  0.11467334  0.00586595  0.19842643 -0.04730139
  0.48672876 -0.00573892 -0.15770721  0.5524088   0.43651116 -0.29747486
 -0.2914639  -0.19080931 -0.1196319  -0.09478249  0.20991538 -0.24665907
 -0.39208713 -0.51773524 -0.1956463  -0.09313149 -0.04171525 -0.52661264
 -0.22269931 -0.0572454  -0.20057552 -0.06222205]
[-0.12864777 -0.16929936 -0.24597922 -0.15390903  0.12141896  0.1444455
  0.2118304   0.26293674 -0.06472639  0.16153076  0.33147234 -0.16456416
 -0.16664712  0.07249717 -0.12270221 -0.09414385  0.10956733 -0.1648042
 -0.08565256 -0.07201938  0.35243234  0.13557647 -0.12478694 -0.11274852
 -0.42378315  0.12279564 -0.02990707  0.05470264  0.20427358 -0.1699951
 -0.4394749   0.16304778  0.50869423 -0.47672853 -0.08368225  0.17752297
  0.3748978  -0.33860508 -0.03791035 -0.21313499]
[-0.35460615  0.4005839   0.38675743 -0.2191528   0.57910365  0.03154721
 -0.19661309 -0.37491965  0.39086774 -0.06221477 -0.01732957 -0.06066739
  0.35348594 -0.07564653  0.1184793   0.35035974 -0.43128532  0.1270144
 -0.05873637  0.40873268 -0.16697459 -0.16211681 -0.46257263  0.14873631
  0.14172328  0.37808728  0.52693015  0.49890673 -0.17164724  0.02088196
  0.1271884   0.64238775 -0.18703364 -0.18231477  0.15428293  0.3793217
  0.04848975 -0.26510572  0.41508114 -0.18155764]
[-0.08817621 -0.09966673 -0.02897431 -0.14544688 -0.34010467 -0.33134407
 -0.06449609 -0.0688838  -0.31047896  0.03758126  0.1671332  -0.0469282
  0.09711468 -0.15660885  0.12928055 -0.16792274  0.14492673  0.27730623
 -0.18188585 -0.1607709   0.08172343  0.09979099 -0.05575575 -0.3825434
  0.02501038 -0.01110846 -0.3210972   0.07048309  0.22711335 -0.3044807
 -0.09766672 -0.37382585  0.41744295  0.10304663 -0.21501558  0.1426378
  0.21458645 -0.11468175 -0.37895474 -0.1660247 ]
[ 0.03135379 -0.11030018  0.01145805 -0.33812696  0.29702058  0.35381037
 -0.14500625 -0.20767587 -0.13552305  0.21844919  0.2828132   0.12299258
 -0.04245238  0.20738542  0.16710214  0.15654711 -0.17951652  0.21004577
 -0.23301934  0.10231024  0.00250779 -0.21459618 -0.1675862   0.14316389
  0.2086745   0.24042629  0.11325783 -0.39021268 -0.22512968 -0.13518058
 -0.17441992  0.07337615 -0.22336945 -0.32577923  0.19277795  0.25327635
  0.1240547   0.09758126  0.03275841 -0.20170884]
[-0.22219276  0.01816945 -0.22690976 -0.26174462  0.63667005  0.03367788
 -0.22204901  0.09119474 -0.16059886  0.28987822  0.13280982 -0.04385351
 -0.28962946  0.09710176  0.11032653  0.15213643 -0.08804645 -0.2671587
 -0.3028565  -0.07710308  0.21815757 -0.00335008  0.23528866  0.00912188
 -0.00838846  0.48198935  0.03333493 -0.61169106 -0.43125534 -0.22729513
  0.05434841 -0.03568526 -0.33988205  0.3314818   0.38586554 -0.07354089
  0.41020685  0.1243284  -0.01373073  0.29838842]
[ 0.3227159   0.34319198 -0.23810372 -0.11550681 -0.188736   -0.26721707
  0.02970734  0.08427269  0.09157957  0.3107154  -0.23883568  0.11866069
  0.07563512  0.2604038   0.25247413  0.01897022 -0.2241242   0.04988922
  0.19062613  0.21741956 -0.19610763  0.27904665  0.19687848  0.44132176
  0.25526935  0.20622781  0.06369331  0.12850212 -0.09385249  0.30226135
 -0.21797328 -0.25297394 -0.17307472 -0.17653425 -0.14276983  0.17615156
  0.2717805  -0.21547556  0.03113064 -0.2936012 ]
[-0.36432007 -0.11196265 -0.16902773 -0.04860893  0.46570182 -0.16424857
  0.28765908 -0.16746487  0.14837538  0.03150462  0.2389421   0.11916061
 -0.23042051 -0.02305452  0.2385924   0.103375    0.17625651 -0.01112856
  0.17450581 -0.17589049 -0.0092723  -0.18336786 -0.04889628 -0.36616486
 -0.00544275  0.09801624  0.28792065  0.49611905  0.21475412 -0.08473559
 -0.20872611  0.11953609  0.37635145 -0.5193632   0.05068007  0.2238149
  0.0567992   0.21466002  0.43410897  0.13920152]
[-0.13645776  0.3571152  -0.37892383  0.14841469  0.07222455  0.06015753
 -0.09354036  0.1138135  -0.3994835   0.05767441  0.10658032  0.14119875
  0.20523179 -0.26326865 -0.20167936 -0.29450497  0.14653207 -0.22888073
 -0.15255794 -0.19755283  0.8130997  -0.30494997 -0.3539021  -0.0898305
  0.40322268  0.38555062  0.11897608  0.29543707  0.06033741 -0.24194555
  0.08076129  0.37903202  0.67371005  0.42501011 -0.1184836   0.3147965
 -0.37535703  0.12669806 -0.28733155 -0.15100242]
[-0.2737094   0.09633595  0.18461655  0.0571684  -0.14601716 -0.21585548
  0.23795646 -0.16365494 -0.08844132  0.13577579 -0.13151853  0.2348764
  0.20015268  0.10188833  0.10806382 -0.12971291 -0.07073687  0.2643578
  0.32235122  0.01938106 -0.21284792  0.21547583  0.26835877 -0.13426074
  0.1469713   0.27889022  0.13293497 -0.27396405  0.13711968 -0.03155207
  0.06801637  0.23864286 -0.12871268  0.02294676 -0.13473997  0.02482194
  0.28225768  0.03079128  0.07539992 -0.10568775]
[ 0.11769501  0.11543809 -0.5808563   0.25931168 -0.10968238 -0.02174366
  0.22022152  0.11144155 -0.19915244 -0.3919952   0.05654956  0.12648705
  0.26831588  0.05863606 -0.10420517 -0.4444768   0.08225171 -0.1736349
  0.25136983 -0.13070561  0.27773413  0.34600225 -0.41290122 -0.0019776
 -0.01641541  0.00177585 -0.13072579  0.3974786  -0.07347982 -0.3183862
  0.51316243  0.06002549  0.05655579  0.78970945 -0.50302976 -0.3824585
  0.28231552  0.09893452 -0.37598512 -0.16068201]
[-0.36222166 -0.04034327  0.19006237  0.04559769  0.08803543  0.12385626
  0.16138743  0.06979085 -0.2613347  -0.04224528  0.2006249  -0.17550981
 -0.13252383 -0.08303463 -0.14793867 -0.14662236  0.03205446 -0.16603568
  0.15034638 -0.24189788  0.0867266  -0.29727817  0.5734669  -0.07312091
  0.073062   -0.00354723 -0.3641718  -0.03138278  0.43306112 -0.2216478
  0.00511391 -0.05601707  0.21896513 -0.1764457   0.2223839  -0.06176881
  0.3086305   0.00124185 -0.40812823 -0.0375093 ]
[ 0.14492479  0.20948605  0.08741135  0.6277509  -0.16392207 -0.06705443
  0.00265716  0.05994035  0.19423634 -0.15347973  0.01803641 -0.02167732
  0.6052786  -0.01776017  0.04056569 -0.05679171 -0.04382203 -0.09521262
 -0.20043561 -0.2222447  -0.35981563  0.04399004  0.29666677 -0.06905258
  0.14989392 -0.1780614  -0.16761723 -0.03331199  0.067625   -0.04896173
 -0.26330414  0.32047403  0.18557197  0.0668544  -0.45938748 -0.01742549
 -0.22937644 -0.0449171  -0.14121048 -0.24110648]
[ 0.6485408  -0.00950882 -0.15189785  0.15577987 -0.31198382  0.33532688
  0.1233734  -0.07078598 -0.07413156 -0.25029993 -0.20539977 -0.1542765
  0.12494957 -0.18423243 -0.16387254 -0.01657863 -0.09530152 -0.06701498
  0.17001979 -0.22219919 -0.24611871  0.3318886   0.07434574  0.18461964
  0.0259249  -0.26966172 -0.00679102  0.06524786 -0.05276527 -0.02344913
  0.20402396 -0.23669635  0.21526837 -0.32752502 -0.12734218  0.32125032
 -0.31822395 -0.23161288  0.10814176  0.12562713]
[ 0.2000445   0.06059413  0.08014981  0.46407315 -0.34589309 -0.54395765
  0.10045825  0.01953005 -0.2847576  -0.30130792 -0.09706414  0.24170226
 -0.23517737 -0.32873628 -0.15786785 -0.09008958 -0.08263995  0.32921755
  0.32435617  0.18182312  0.23752807  0.4929276  -0.34527174  0.31660792
 -0.0506829  -0.4683182  -0.139106    0.1594892   0.39457208 -0.02573314
 -0.01282068  0.28088596  0.00271697 -0.22129256 -0.42381287  0.3216575
  0.10808275  0.19797029 -0.05932084 -0.27545655]
[-0.11435855  0.27117714  0.05515409 -0.04752596  0.40234488  0.23212402
 -0.07287016 -0.16793075  0.04710087  0.03876786  0.0259664   0.0528098
  0.24291529  0.06786932  0.07627507  0.17266484 -0.40703577 -0.0208612
 -0.07914139  0.09031697 -0.12421985 -0.18809988 -0.27374846  0.25336915
  0.37507632  0.05200392  0.54310215  0.09014892 -0.15931982  0.06488492
  0.10814064  0.37633395 -0.1318994   0.03449406  0.01281159  0.14179295
 -0.03604579 -0.18330796  0.15228856  0.02000447]
layer 3 Activation
tanh
layer 4 Dense
40 20
[-0.6708825   0.30847663  0.09255263 -0.05085713  0.11991633 -0.3148281
  0.10221896 -0.00287786 -0.30474433 -0.06434131  0.05617815 -0.31870732
  0.21534307  0.10658404  0.28267255  0.3896404   0.1673965  -0.17414688
 -0.08272002 -0.2556867 ]
[-0.27712092 -0.28278986  0.19667271 -0.08393782 -0.08827374  0.050481
 -0.0523443  -0.11232751  0.02501012  0.06666771  0.24335535  0.305036
 -0.17714222  0.05972935  0.29148474 -0.18117684  0.10061412 -0.05012871
 -0.14415088 -0.01728959]
[-2.8273973e-01 -2.4516238e-01 -1.3731034e-01 -3.0846846e-01
 -1.7654753e-01 -2.4867846e-01  2.9075128e-01  5.8464337e-02
  6.1521318e-02 -4.6760213e-02  1.5460749e-01  4.1999367e-01
 -2.0694963e-04 -3.4807380e-02  3.9595116e-02  2.1375041e-01
 -2.7244872e-01 -1.6951101e-01  3.1117726e-02 -2.5845718e-01]
[-0.4682006   0.24857514  0.00476628 -0.12812042 -0.296175    0.09761582
  0.0413667   0.25054124 -0.15543061 -0.20946951  0.24330723 -0.02745688
 -0.10375455 -0.03564113 -0.05115301 -0.15916856 -0.04648298 -0.0322192
 -0.3252661  -0.1188581 ]
[ 0.3611593  -0.39086354 -0.14618605 -0.11606842  0.12303188 -0.1299651
 -0.32994142 -0.07519875  0.48606575 -0.08926312 -0.15033554  0.7477507
  0.05586397 -0.06990237  0.05812075  0.29743338  0.07513557 -0.3823238
  0.03324851  0.19859415]
[ 0.06245337 -0.17007707  0.31108952 -0.13846253  0.07906374  0.3550415
 -0.03456317  0.21593304  0.08434682 -0.24786825 -0.16082917  0.04513529
  0.21665503  0.196723   -0.03926906 -0.19596997  0.26373148  0.05923455
 -0.3307723  -0.091671  ]
[-0.00480591  0.234734   -0.06445561  0.16861872 -0.25794488 -0.13198692
  0.20287763 -0.08920405 -0.0450706  -0.15635794  0.06018078  0.04685032
 -0.12069444 -0.11367305  0.02323364  0.3657082  -0.00513279 -0.23920387
 -0.01287576  0.12688969]
[ 0.07497168  0.02791124 -0.04575766  0.15013294  0.01897331 -0.09403762
  0.37192816 -0.05833431 -0.09466092 -0.0564197   0.2120979  -0.21252891
  0.2331414   0.0443734  -0.22555299  0.14270222 -0.20201315 -0.2203975
 -0.00118237  0.04191019]
[ 0.2243442   0.06485876  0.15790755  0.0968602   0.19268724 -0.19541673
  0.36236277 -0.2369961   0.0470516  -0.13085498  0.16115433  0.14208299
  0.18490623  0.083665    0.17113754 -0.0148383   0.2224841   0.03240827
  0.13056651 -0.29935944]
[ 0.28614476  0.06370999  0.19257572  0.16176333 -0.04270023  0.16223991
 -0.15462582 -0.06444509 -0.1155844   0.24569243 -0.13342208  0.10522389
  0.0988732  -0.11200424 -0.31207305 -0.05312189 -0.05239749  0.03277994
  0.30400646  0.14305669]
[ 0.22236104 -0.16667077 -0.16117612  0.20742616  0.24510297  0.30513942
  0.16699682 -0.13404243  0.05236373  0.19247578 -0.29996836  0.09325645
 -0.20037103  0.00516475 -0.0688417  -0.12787881  0.11604671  0.1180364
 -0.0379364   0.24244529]
[ 0.04691293 -0.05407727  0.09715793  0.22717758 -0.04381839 -0.24948993
  0.008332   -0.22346362 -0.08334014 -0.15056364  0.11463201  0.06662728
  0.23426244  0.08336139  0.11668817 -0.23572508  0.12738758  0.0380359
  0.14272651  0.05688142]
[ 0.27396238 -0.29305264  0.30825543 -0.09111189 -0.34691092  0.30963656
  0.22565863 -0.14069264  0.01334454 -0.34636185  0.22212802  0.4802318
  0.18821271  0.05414143  0.19091944  0.0640302   0.07448531  0.23818074
  0.16932079  0.21793528]
[-0.12677175  0.04430157  0.26522547 -0.05515052 -0.144826    0.16962174
 -0.05815543  0.14984848  0.28840438  0.13041659 -0.09580723  0.02801276
  0.00188519 -0.33089438  0.2103996   0.12052732  0.05812487 -0.00650678
  0.17474474  0.00154368]
[-0.04552247  0.16609591  0.0712493  -0.03264552 -0.3586685  -0.15215403
 -0.09375355  0.09161448 -0.11396558  0.10407994 -0.10077477  0.38324356
  0.13357668 -0.11337391 -0.24102838  0.0777142   0.07384825 -0.17451748
  0.04874199 -0.10693805]
[ 0.07640588  0.10066228  0.26342663 -0.0622204  -0.02700389 -0.25766754
  0.3114463   0.17400593 -0.18659894 -0.26365703 -0.19499555  0.43720773
  0.02641232 -0.17361204 -0.2442543  -0.08488724  0.06323578 -0.34135783
 -0.11543113  0.03311738]
[ 0.02269484 -0.27637425 -0.23261282  0.10259487  0.04774179  0.18107441
 -0.15137361  0.15568843 -0.18195453  0.07799488 -0.15026039 -0.15444902
  0.32159093 -0.22293995  0.02382352  0.01952943 -0.23116076  0.20939478
 -0.24691878  0.02725791]
[-0.23595911 -0.29049334 -0.22220834 -0.06652898 -0.00215212 -0.05004416
 -0.25423896 -0.04530332 -0.08204704 -0.04624872  0.07391441 -0.01899646
 -0.08668657 -0.20335695  0.25281572  0.00042593 -0.20999277 -0.1839535
  0.3833246   0.00763946]
[-0.30645236  0.05124392 -0.20608252  0.18165655  0.04876318  0.21856025
 -0.2591383  -0.29006976 -0.26729402  0.3310501   0.2751824   0.1742421
  0.166255   -0.06953426  0.14675462 -0.11995849 -0.00215561  0.24936503
  0.39015126 -0.17555796]
[-0.12401573 -0.12036777 -0.20383881  0.16445702 -0.0757676  -0.2595053
 -0.32711738 -0.12013637  0.14826405  0.30510947  0.33667892  0.23694411
  0.1903016   0.09867223  0.04329242 -0.09698627  0.0047684  -0.307761
  0.31422538 -0.10872504]
[ 0.05226582 -0.10843646 -0.1345665  -0.23050281  0.25655413  0.37544417
 -0.17749053 -0.08182406 -0.11564497  0.21456552  0.02803875  0.04471246
 -0.1090087  -0.30644935 -0.11134477 -0.35540792  0.06179743  0.00499474
 -0.14718711  0.32741064]
[-0.5210515  -0.0152577  -0.26735148 -0.08924054  0.08950652  0.10542142
  0.0738554   0.1052581   0.22203131  0.3141261   0.15579198 -0.21216936
  0.07104963  0.08064206 -0.05801346  0.17930588  0.21024328 -0.01423899
  0.26707858 -0.1791866 ]
[ 0.03918533  0.17310618 -0.06593197  0.12079251 -0.10117031  0.11704779
  0.26390436 -0.371273   -0.11621191 -0.07058573 -0.30798545 -0.21339145
 -0.16718206  0.11301226 -0.14448361  0.18772446 -0.32394782  0.2713594
  0.05051022 -0.1519634 ]
[-0.29465234  0.10264065  0.3317615  -0.01242772 -0.21182768 -0.2389358
  0.23193885  0.24260037  0.2994595  -0.2265113   0.04224321 -0.01212505
  0.06134139  0.12195568 -0.12964892  0.01950911  0.16377552 -0.3344979
  0.20861055 -0.05675477]
[-0.18917151 -0.2737891   0.25108087  0.08473282  0.20526612  0.14499806
  0.25801903  0.052008    0.37120947 -0.32173142  0.07422721 -0.03049915
 -0.05956513 -0.32336313  0.28843766  0.16153659  0.10902481 -0.30634597
 -0.06301761  0.12203397]
[ 0.3955448  -0.23273131  0.08266364  0.00784688 -0.31857476  0.34299564
  0.00134663  0.20545645  0.29451463 -0.07013301 -0.03084372  0.13316551
  0.00961364 -0.08553962 -0.08113106 -0.03937317 -0.09535111 -0.04182334
  0.26793888  0.18019192]
[ 0.52675074 -0.29343364  0.2000252   0.11307134  0.1429132  -0.21007648
 -0.09241533  0.28927696 -0.02660333 -0.2056424   0.18336971  0.477528
  0.19523089  0.11951408 -0.14032155  0.09977113  0.12560418 -0.23528844
 -0.30557737  0.21899115]
[ 0.02574775  0.06298793 -0.02352722  0.11397385  0.22894633 -0.02663554
  0.06552936 -0.14071389  0.18739744  0.08945109  0.3821012  -0.01794082
 -0.2167963   0.10262787  0.00303652  0.20895277  0.24333075 -0.1941037
 -0.5401851   0.09556611]
[ 0.00616245 -0.18872066 -0.10464978 -0.17152077  0.08367494  0.1285267
  0.21897942  0.18762149 -0.13640037  0.1730464  -0.03936019 -0.42798543
  0.13386698  0.17879337  0.14376791  0.11596759  0.11056785 -0.07312132
 -0.44410375  0.01870226]
[-0.05658735  0.04159433  0.14085889  0.35512784  0.29954538 -0.35788652
 -0.13385673  0.11204731  0.06819732  0.24442051  0.15284137  0.18648116
 -0.15230617 -0.14763448  0.18186355  0.18296017 -0.19745965 -0.09000634
 -0.15520768 -0.14883156]
[ 0.2122126   0.04657118  0.17808115  0.04239254 -0.26194546 -0.00033623
  0.06273852 -0.1445203   0.12704799 -0.08377708  0.22494648 -0.06392641
 -0.14092815 -0.03991923  0.07136655  0.17333649  0.2666072   0.08067963
  0.12640816  0.11666704]
[-0.03023177 -0.35959566  0.3162323  -0.18018425 -0.12473914  0.22500601
 -0.24915285 -0.30553496  0.3577937  -0.23480539 -0.22188582  0.39645746
  0.09750907 -0.03973815 -0.15880458  0.17028078  0.35103357  0.03751431
 -0.07340779  0.13007516]
[ 0.37995696 -0.07287237  0.11354118 -0.09974428  0.11206381  0.1532701
 -0.06151043  0.14530668 -0.452551   -0.11451075  0.06255595 -0.24814281
  0.18594871 -0.12809923  0.11414694 -0.29071543 -0.05448619  0.24493223
 -0.4526334   0.2567007 ]
[-0.26056558  0.4630219  -0.19732232 -0.14981812 -0.13686578  0.53025293
 -0.00827791 -0.1316029  -0.4704695  -0.253852    0.44035217 -0.28931785
 -0.14213464  0.1450706  -0.19344841 -0.1036488   0.37444475  0.5093221
  0.5845783   0.60746706]
[ 0.6631601  -0.2645868  -0.08901396 -0.3267837   0.2601528   0.01775686
  0.06113231 -0.30726224 -0.05048347  0.23148188 -0.39037767  0.06699657
 -0.19721895  0.14084385 -0.03927447  0.14315093 -0.2122637  -0.375535
  0.21353061  0.19368063]
[ 0.3354538  -0.10989406 -0.12061828 -0.20940515  0.21676373 -0.26811105
 -0.033067   -0.184828    0.21790922  0.20676741 -0.09682826 -0.01430962
 -0.1824996   0.29087022 -0.07126367 -0.14310594  0.22782362 -0.18993473
 -0.34983352  0.10207291]
[ 0.3715362  -0.24666558  0.02456507 -0.11335311  0.22889026  0.13106905
 -0.15461458  0.020883   -0.06070551  0.20368503 -0.29531866  0.25929967
  0.29923707  0.15665261  0.2618497   0.03580861 -0.27716106  0.06066222
  0.35784978 -0.25162554]
[-0.07272753  0.295527   -0.12309516  0.0615246  -0.10416049  0.09475962
 -0.01946206  0.23190627  0.20341352  0.08258274 -0.253557   -0.15263176
  0.22537236  0.1853545   0.10624756 -0.04603344  0.1268517   0.04690987
  0.09121065 -0.00813718]
[ 0.05439144 -0.12367042  0.06215289  0.02065264 -0.16375467 -0.20719083
 -0.19385284 -0.06428162  0.39347473  0.02805151 -0.12052185  0.2904282
 -0.14271992 -0.10870131 -0.25676998 -0.10733024  0.24125253 -0.0572785
 -0.20831652 -0.09789492]
[ 0.14980565 -0.14390713 -0.09740548 -0.21451557 -0.16099402  0.13295615
  0.00087847  0.2581096  -0.11609838 -0.10029429 -0.19040562  0.06955072
  0.08956651  0.09598997 -0.28338084 -0.18115622  0.00340894  0.09768467
  0.29043487  0.18397735]
[ 0.11763564 -0.06044747  0.12547101  0.06371385 -0.01167963  0.00275804
 -0.05462797 -0.04965897  0.07295375 -0.03402172  0.06170747  0.29613972
 -0.01217984  0.03840251  0.09175917  0.03293329  0.07060747 -0.05459529
 -0.0253358   0.05422621]
layer 5 Activation
tanh
layer 6 Dense
20 1
[-0.15761104]
[0.13553952]
[-0.29331517]
[0.00704584]
[-0.02680014]
[0.08271287]
[-0.00871083]
[0.01064972]
[-0.0980284]
[-0.22573532]
[0.22158808]
[-0.21080412]
[-0.02115017]
[0.0001888]
[0.00818879]
[-0.00333176]
[0.3662355]
[0.06831017]
[-0.14719765]
[0.37151256]
[0.05588092]
