layers 7
layer 0 Dense
20 20
[-0.01835255  0.14298074 -0.05576191 -0.1588972   0.2189691   0.10344913
 -0.279003   -0.39718515 -0.34856492 -0.23905928 -0.09160879  0.1360323
  0.18576485  0.04134174 -0.06938463  0.07655369  0.36187023 -0.09888085
  0.03555189 -0.0355641 ]
[-0.28336897 -0.02464741  0.4907776  -0.01469627 -0.46098575  0.12209465
  0.2304717  -0.52572733 -0.10589164  0.116448    0.4327107  -0.21344236
 -0.15853113 -0.07682687  0.09185585 -0.25528413  0.08974767  0.55758095
  0.37312806 -0.37904626]
[-0.2093084   0.5119837   0.5590918  -0.06234236 -0.58861005 -0.21069734
  0.50744396 -0.05925002 -0.29704365  0.41209403  0.37238136 -0.3930581
  0.35263276  0.03217729  0.05241861 -0.08551802  0.39959785  0.20222309
 -0.05568385 -0.28651574]
[ 0.0252506  -0.24642837  0.16174176  0.06774619  0.03932889 -0.2519166
  0.35286576 -0.01374675  0.0458867   0.36141378  0.07081614 -0.15880042
 -0.24191675 -0.2947268   0.12954709 -0.18317473 -0.35018182  0.0773359
  0.12573603  0.12631023]
[-0.24734917  0.05126599 -0.3431527   0.2063323  -0.0544696   0.13041867
  0.12360746 -0.21302979  0.37396494  0.22851834  0.30186078  0.2555161
  0.18469429 -0.1444726   0.06559625 -0.16337092 -0.28164154  0.3603141
  0.10674427  0.34872344]
[-0.24375425 -0.26692247 -0.46330413  0.04544977  0.51965076  0.3624481
 -0.19320251  0.226422    0.38402948 -0.39864817  0.00591323  0.471897
 -0.10026386  0.17321573 -0.28578332 -0.1820169   0.22537829 -0.47789383
 -0.20141765  0.33355922]
[ 0.44577345 -0.409969   -0.19526865 -0.3723091   0.18344349  0.55966884
  0.07903393  0.4002234   0.45419446 -0.46921957 -0.10100826  0.4442479
 -0.41430223  0.2077994   0.17781995  0.43482375 -0.39705235  0.12282604
  0.00382158  0.4437228 ]
[-0.02303116 -0.0694918   0.2757532   0.20648114  0.18036896 -0.35480142
 -0.43251196  0.18568091 -0.00626318 -0.3003406  -0.28633255  0.16145761
 -0.27600646  0.16878232 -0.46080476  0.00440616 -0.02976605 -0.01890909
  0.17311403  0.27542296]
[ 0.23753724 -0.15646535 -0.08340313 -0.36372855  0.17031454  0.4453066
 -0.39281344  0.4604061   0.5983988  -0.23883222  0.08428542  0.06855547
 -0.29438758  0.5785904  -0.15079527  0.26814517 -0.05882405 -0.21525308
  0.04820507  0.19269024]
[-0.45325902 -0.3306197   0.06201582  0.49037385  0.3349168   0.09741489
 -0.06852295  0.34858465  0.06758993 -0.0255964  -0.03070538  0.29745972
 -0.14249332 -0.14167395  0.09448489 -0.23957531 -0.04150233  0.27397883
 -0.10358298 -0.3224716 ]
[ 0.3026799  -0.26555046 -0.04073418 -0.46716377 -0.03620591 -0.09715562
  0.02048511  0.3832085  -0.22591025  0.20774719  0.03455572  0.12250129
  0.20066012 -0.32585847  0.06231739  0.07446603 -0.04004125  0.0058634
  0.21188761 -0.29054174]
[ 0.02802452  0.21816793 -0.04865547 -0.17753005  0.05818963 -0.39121118
  0.13636757  0.14061427  0.43324    -0.04614093 -0.33885753  0.07354882
 -0.24772073  0.44178727 -0.09683691  0.30350125 -0.02645385 -0.1465515
 -0.18766387 -0.03829521]
[-0.34403652 -0.13654572  0.25950897 -0.18567996  0.142578   -0.27469397
  0.09758282 -0.0935405  -0.5740225  -0.00680145  0.02902409 -0.1689295
 -0.14261821 -0.09714414  0.5923576  -0.18825641  0.17394257 -0.12537129
  0.26158693  0.2006489 ]
[ 0.2541939  -0.02881906 -0.23879565  0.19085409  0.44865656 -0.31173182
  0.18219206 -0.42963874 -0.17467332 -0.20065223 -0.24395253 -0.30923998
 -0.3096732  -0.32920897 -0.01640107  0.24178933  0.32155436 -0.2952239
 -0.10511472  0.30947256]
[-0.06136232 -0.20144166 -0.1753531  -0.24498938 -0.18983002 -0.16354388
 -0.02917988  0.18452324 -0.11679389 -0.16446091  0.03647128  0.03839149
  0.2371911  -0.11175632 -0.17018525  0.43805498 -0.25295034  0.08120014
  0.01842763  0.45667806]
[ 0.56284     0.19721784  0.40841305 -0.4124668   0.14798947  0.5364604
  0.06316921  0.44624895  0.14508335  0.33537576 -0.5636142   0.3224903
 -0.18161616  0.23258157 -0.03562132  0.27407584  0.04103544  0.1004885
 -0.5739729  -0.3372356 ]
[ 0.43195084 -0.06043727  0.17672181  0.12473799  0.17360562 -0.37742403
 -0.27584732  0.08501697  0.39683753  0.00865535  0.05771582  0.42652878
 -0.21270317 -0.13748679  0.1584885  -0.301406   -0.27604198 -0.22878923
  0.18858433  0.5457598 ]
[ 0.16119288 -0.1608823  -0.03718289 -0.12317279 -0.54415965 -0.12337954
  0.10519818  0.09921082 -0.46250436 -0.1265842  -0.00228786  0.38810197
  0.19741434  0.10281578 -0.0920233   0.15452197 -0.41245618 -0.21550597
 -0.00098447 -0.06445092]
[ 0.2699486  -0.21063358  0.45784035 -0.22224973 -0.14269383 -0.1963107
  0.1776511  -0.16685012 -0.24626549  0.21180712 -0.27356252  0.03644995
 -0.10832468  0.24449392 -0.1178147   0.16163845  0.16420977 -0.16569723
  0.13946462  0.02524215]
[-0.15131679 -0.00198534 -0.29183507  0.04500049 -0.06992541  0.19609424
  0.06862953  0.40964976 -0.38855878  0.09675328  0.14883606  0.02529171
 -0.45555025  0.09465049 -0.21166347 -0.08272821 -0.3671683  -0.31968468
 -0.51268786 -0.00585938]
[-0.03994865  0.01552796 -0.03735096  0.01369705 -0.00980891  0.01294568
  0.10502601 -0.17563042 -0.11142861  0.02199154 -0.19507469 -0.1469695
 -0.02600745 -0.05037088  0.06543148  0.06335369  0.02889987  0.02040729
 -0.1157621  -0.01937347]
layer 1 Activation
tanh
layer 2 Dense
20 40
[ 0.04611943 -0.28452933  0.10799833  0.10617584 -0.09282784 -0.08867175
 -0.00211562 -0.16475014 -0.27497488 -0.10649391  0.1759656   0.19790971
  0.21264319  0.14426942  0.31288072  0.10375241  0.04263706 -0.43585306
  0.24908677  0.34594664  0.0392514  -0.2974373  -0.33555433  0.09255686
 -0.23997061  0.23336801 -0.12861124  0.12606779 -0.0145612  -0.11940663
 -0.01098556 -0.20067933  0.05831958 -0.01539408 -0.01932582 -0.28656435
  0.11119477 -0.24552839 -0.07008591  0.18726306]
[-0.07412738  0.16719207 -0.02062067 -0.06580539 -0.04875595  0.06824322
  0.04387674  0.02822362 -0.05893017 -0.10804147  0.29922172 -0.10100587
  0.00445462 -0.17897312  0.05758799 -0.26437938  0.04058372 -0.28356555
 -0.04187685 -0.1008945   0.21007952  0.10466265  0.07045229 -0.0153051
 -0.12421215 -0.05175517 -0.03089579 -0.1021503  -0.1660982   0.16663036
  0.00399721 -0.10269238 -0.13853712  0.1439849  -0.2342086   0.23729739
  0.08093266  0.01339479 -0.07878827 -0.27842084]
[-0.14734367 -0.00453773 -0.03569974 -0.10696579  0.16344091  0.11323002
  0.25835812 -0.09569775 -0.24157695 -0.06471574 -0.0870782  -0.25899294
 -0.23802109 -0.15731694 -0.05818089 -0.14964236 -0.07526302  0.06410602
 -0.13412118 -0.17430758  0.15810522 -0.25748515 -0.28331178 -0.02281523
 -0.15678255  0.16165012  0.04943423 -0.1182585  -0.13696443 -0.03667907
 -0.03383629  0.2559685   0.20680296  0.12834418 -0.0317168  -0.07729901
  0.25771526  0.23396246 -0.03692675 -0.27532983]
[-0.11202499 -0.12443383 -0.13779545  0.00859342 -0.18365008  0.1299229
  0.22656517  0.32948598 -0.0462351  -0.25133964 -0.08258913 -0.19078556
 -0.14729199  0.09338237 -0.2391552  -0.27970418  0.03065808  0.04382422
 -0.26433986 -0.0803843   0.068898   -0.28054655  0.36232427  0.0957065
 -0.2595141   0.03515755  0.23868558 -0.23656523 -0.16572312 -0.05370359
  0.02328387  0.06402971  0.02467849  0.29437158  0.08144545  0.28353634
  0.30229676 -0.24448122 -0.20684595 -0.09791841]
[-0.37728179  0.26607674 -0.01105836 -0.36091858 -0.39719498 -0.03706443
  0.19845682  0.32894334 -0.04008845 -0.04512542  0.04947199  0.10450176
 -0.23526075 -0.22936875  0.22059852 -0.08187149 -0.08462699  0.05413594
 -0.10943175  0.22392885  0.05847715 -0.323915   -0.11565782 -0.13220236
  0.09497505 -0.06790762 -0.27538309 -0.03116834 -0.1521558   0.03422922
 -0.13811503  0.3004649  -0.34052324 -0.05513864 -0.11788905 -0.03721543
  0.00052712  0.29171395 -0.15671124  0.07464547]
[-0.25965223 -0.04858555  0.06247231 -0.23931138  0.04939068  0.1456532
  0.3305846  -0.18542075  0.20629774  0.15165512  0.18756329  0.21796076
  0.02404711 -0.05573734 -0.1000538   0.24388058 -0.04379998  0.11496919
  0.12853727 -0.1157763   0.13656047 -0.02748144 -0.25781673 -0.00232304
 -0.24577817 -0.21544693  0.03536718  0.05149658  0.14213955  0.17835741
 -0.00628125 -0.1661863  -0.07926768 -0.24924996  0.34232825 -0.03661116
 -0.14666769 -0.045816   -0.25330213 -0.18472874]
[-0.10727546  0.0565937  -0.1778804   0.12198711 -0.22020017 -0.14768483
 -0.13828425 -0.29206792 -0.04748209 -0.18999092 -0.02930067  0.18258773
 -0.10540693  0.06334436  0.03106244 -0.09875371 -0.07949123  0.07619669
  0.3011866  -0.2946937  -0.20089772  0.19121735 -0.15227537 -0.18519136
 -0.21996745  0.06790587  0.18727575 -0.00178336  0.0044324   0.13601846
 -0.05308928  0.03003157 -0.08963788 -0.00272893 -0.08238082  0.21995938
  0.04006191  0.03221017 -0.00403774  0.08964575]
[ 0.127665    0.12954673 -0.17873645 -0.12049358  0.13230528  0.26863137
  0.1128647  -0.08654549 -0.01933233  0.00970567 -0.24627689  0.10357269
 -0.21300614 -0.23531453  0.1262944  -0.07882948 -0.00943639  0.22274613
 -0.28215566  0.30394423  0.1198277  -0.3094938   0.06416085 -0.04656275
 -0.15585731  0.17789894  0.174206   -0.04190626  0.25675875  0.24860086
  0.2690191  -0.04906493  0.00544002  0.03840541 -0.15635428 -0.05100397
 -0.09865463  0.25051928 -0.17442219 -0.12179414]
[-0.1906969   0.18445623  0.00874372  0.03730037 -0.14774416  0.0379203
  0.16262037 -0.16176139  0.16406146  0.01633999 -0.04989724 -0.05305175
  0.02461212  0.09154256  0.42263985 -0.13330685 -0.05625759 -0.15165564
 -0.20850238  0.07693779 -0.04740241 -0.0176077  -0.09373281  0.19924982
 -0.09577856  0.10190968 -0.14439137  0.00116449  0.14778203  0.05586841
 -0.17798181  0.16626951  0.19094844 -0.1985421   0.04398575 -0.09236396
 -0.18434034  0.3078086  -0.11365794 -0.26447204]
[-1.64031580e-01 -6.92618415e-02 -1.68642611e-04 -1.36786848e-01
 -3.61650810e-02 -2.07597122e-01 -1.28242299e-01  1.96112052e-01
  9.72344726e-02 -3.10189843e-01  1.94665447e-01 -1.50529638e-01
 -2.16212317e-01 -1.74343213e-01  2.12076697e-02 -1.22090071e-01
 -1.05657995e-01 -3.46595794e-02  1.30178273e-01 -9.20667872e-02
  1.68940783e-01  8.50850567e-02 -6.60529956e-02 -8.26813281e-02
 -2.22693011e-02  1.90805584e-01  8.07496533e-02  3.42451297e-02
 -1.92099124e-01  1.49391472e-01  8.61098021e-02 -9.88848135e-02
  1.50808007e-01 -8.96558091e-02 -1.80385560e-01  5.13011031e-03
  5.95254637e-02 -8.54261871e-03 -2.28968695e-01  6.32176399e-02]
[ 0.1849578  -0.03240591 -0.11374099 -0.14893998 -0.0546298   0.04885353
  0.02416649 -0.04839959  0.1461056  -0.00711538 -0.10135427  0.07622856
 -0.00660276 -0.15384    -0.00084592  0.14880084 -0.246819   -0.00176815
  0.16565162 -0.05836394  0.04399754 -0.05999073 -0.12420948 -0.06620491
  0.15651822  0.30145785 -0.1506529   0.04699565  0.06906534  0.050718
 -0.07792183 -0.07340787 -0.25564888  0.0653663   0.01376987  0.08317756
  0.07432242  0.05935214  0.07330641 -0.01655093]
[ 0.2679396   0.06734045 -0.08017111  0.26572338 -0.20293094 -0.267664
 -0.0436532  -0.02191252  0.11163859 -0.10945331 -0.2163848   0.03506223
 -0.24735625 -0.00521638 -0.12873001 -0.27004728 -0.05437168 -0.2792513
 -0.13790603  0.1267581  -0.12716247 -0.10825787 -0.00626005 -0.06527039
 -0.18127766 -0.10096575 -0.21172948 -0.11691162 -0.12866382 -0.06056036
  0.0719291  -0.2929652   0.04801227  0.02059615  0.10245259 -0.11990221
 -0.1958391   0.08171529 -0.20090853 -0.19570607]
[-0.11961544  0.03891847  0.2884934   0.17068444 -0.08923351 -0.113319
 -0.21205574 -0.27015868  0.04023189  0.03773715 -0.05285746  0.02946922
  0.13573915 -0.20624082  0.15302347  0.02070773 -0.13616003  0.20089205
 -0.08300336 -0.14829315 -0.06542201 -0.04879102  0.15772103 -0.15263286
  0.1692224  -0.06746401  0.06309336  0.01729442 -0.1355778   0.24646296
 -0.15173581  0.13669541 -0.10097917  0.2161929   0.10272865  0.15932652
 -0.12950312  0.19351844 -0.2045643  -0.19408919]
[-0.03815817 -0.15335295 -0.05540637  0.22697754 -0.26565036 -0.259671
  0.0320153   0.3097993  -0.07417367 -0.03776903  0.29458985  0.10522298
  0.23916233 -0.21362129  0.21322684 -0.0610034  -0.11035722 -0.15199888
 -0.08731438  0.32306784  0.12377468  0.15573114  0.04283023  0.05327028
 -0.06111566  0.03376998 -0.06813523 -0.19336371  0.00584187 -0.16238865
 -0.30769044  0.0767284  -0.16295087 -0.05257646  0.0438815  -0.03357305
 -0.17745727 -0.10130206 -0.05798094 -0.03657857]
[-0.03977414 -0.01287108 -0.17667411 -0.10510783  0.23176178  0.3395059
  0.08334134 -0.10703862  0.01948349  0.08491089 -0.39014855 -0.23881787
 -0.11286282  0.01522687  0.04981628  0.07363021  0.07680529  0.27440926
  0.05472469  0.0099677  -0.2620008   0.38618436  0.31388736  0.07175472
 -0.09227259 -0.27739853  0.3164762  -0.00059235 -0.2264233   0.05355472
  0.0564213  -0.18457513 -0.06208677  0.04840426  0.12374975  0.10977752
 -0.01572496 -0.04969622  0.08684901  0.03681063]
[ 0.17615326  0.00574507 -0.08910887 -0.06738694 -0.1830207  -0.01634124
 -0.18286753 -0.1612553   0.08822113 -0.06012963 -0.10053392 -0.0049572
  0.12568578  0.28206393 -0.03947124  0.06093784 -0.2629986  -0.32672134
 -0.22455466 -0.05590718 -0.05084115  0.09647482 -0.14757778 -0.00484974
  0.04464426  0.22162598 -0.22456776  0.08715963 -0.04008189 -0.06769723
  0.08557314  0.11358208 -0.11606133 -0.05989437 -0.2446103  -0.19840348
 -0.09076082 -0.11822938 -0.21438254 -0.27143034]
[ 0.01612058 -0.18506554  0.09140477 -0.08867262 -0.07167733  0.09686075
 -0.17154191  0.15550362 -0.02213344 -0.14444566 -0.11813022 -0.174283
 -0.22293492  0.10274525  0.01658463 -0.17822927  0.07303151  0.18703973
  0.13528655 -0.10604285  0.02944767 -0.16857238  0.17725492  0.21701042
 -0.36765307  0.01671217  0.15326609  0.01738392  0.2137091  -0.03877135
  0.30847448 -0.28767672 -0.09509842 -0.04764215  0.08372762  0.21503638
 -0.01680917  0.07274669  0.10256622 -0.3021602 ]
[-0.15634847 -0.31408927  0.0892482  -0.04215632 -0.03928356 -0.1208092
  0.09688665  0.29713506  0.22948958  0.0796426  -0.0902881  -0.11754818
 -0.13694966 -0.04882547 -0.24151488  0.27040684  0.03962617 -0.06658559
  0.25314847  0.06094826 -0.13477132  0.01054368  0.03256436 -0.25058526
 -0.08388924  0.27610984  0.22665     0.13876556  0.07657341 -0.07453398
  0.24828573  0.05550461 -0.02936312  0.0891153  -0.00806629  0.1766333
  0.20197925  0.16156948 -0.132234    0.21528018]
[-0.08175626 -0.27499855 -0.07461811 -0.242941   -0.20531368  0.08214091
 -0.21203092 -0.13558875 -0.26915714  0.04334134 -0.06519583 -0.04847701
  0.12211908  0.17390403 -0.05981679 -0.06449056  0.08671428 -0.25173348
 -0.03433292 -0.11322867  0.1200647  -0.07122332  0.15295394 -0.27784336
 -0.00612628 -0.19178763 -0.05210441 -0.15195939  0.14585012  0.0923438
 -0.05467582  0.19907022 -0.06450405  0.09172367  0.19223586  0.19999434
 -0.03567287  0.19657494  0.29139417 -0.20006958]
[-0.01454151  0.09474491  0.2660512  -0.06370611  0.04063347 -0.29997823
 -0.08166497  0.11698143 -0.24264446 -0.26315236  0.2723971  -0.13496454
 -0.12500966 -0.20313397  0.18455324  0.27951595  0.03579678  0.11397023
  0.16579379 -0.18701994 -0.05898377 -0.1387486  -0.10347806 -0.00481305
  0.11497976  0.1486478   0.11478619  0.02670892 -0.16879162  0.00522424
 -0.12194962  0.08177258 -0.15089929  0.2481476   0.14415948  0.14284992
  0.34550327 -0.2666738   0.24662583 -0.11729732]
[-5.99840507e-02 -7.86651969e-02  2.85870768e-02 -2.86286157e-02
  7.12872967e-02  8.80961418e-02  1.01453364e-01 -2.80414671e-02
 -1.28662670e-02  1.01660989e-01 -9.25587490e-02 -3.80344614e-02
 -9.29687545e-02 -3.29381712e-02 -1.84849456e-01  1.60816386e-02
  1.15893677e-01 -1.28631806e-02  1.24195442e-01 -9.31690410e-02
  5.21741174e-02  1.35887057e-01 -5.54114766e-02 -1.36083122e-02
  3.07765584e-02 -1.51326463e-01  8.75996724e-02  1.87116787e-02
 -2.78503187e-02  2.15052702e-02 -3.87901366e-02 -3.92494462e-02
  2.31486894e-02  2.96643302e-02  7.78320245e-05 -4.58767265e-02
  4.77522090e-02  5.06196730e-02 -6.68865442e-02  1.30263016e-01]
layer 3 Activation
tanh
layer 4 Dense
40 20
[ 0.0860637  -0.03117798  0.15620059 -0.10414692  0.03092363 -0.24393034
 -0.18001212 -0.16816849 -0.1761376  -0.1047912   0.15354584  0.02102638
  0.2410416   0.08572343  0.08195355  0.00496686  0.00331178 -0.26518252
 -0.14120555 -0.03001329]
[-0.32176876  0.16604716 -0.19074407  0.15127799 -0.14895743 -0.13343003
 -0.10502017  0.06712539 -0.2784819  -0.0400332  -0.1870557   0.07978857
 -0.08690222 -0.02450461  0.08122468  0.2535949  -0.07043248 -0.0994239
 -0.14611244  0.02344501]
[ 0.1461182  -0.22263847 -0.2070989  -0.14049403 -0.01979798 -0.1715053
 -0.12565818  0.13106982 -0.02264637 -0.00102187  0.00608412  0.1770879
  0.01164828  0.26379701 -0.02040553 -0.17095436 -0.03310799 -0.04994978
 -0.12098604 -0.2198215 ]
[ 0.05475118 -0.09206057 -0.03119544 -0.09261061  0.00706852 -0.2266052
  0.21136126 -0.00504423 -0.16076587 -0.06000249  0.29147547 -0.04844444
 -0.11937208 -0.1170966  -0.16399133 -0.08534396 -0.00312358 -0.17583738
  0.0451738  -0.36474982]
[ 0.02269806  0.0675316   0.05843772 -0.25024396  0.08421341 -0.1554753
 -0.16334537  0.15927647 -0.12920155  0.01803968 -0.16859275  0.13640822
 -0.09283251 -0.14420608  0.22108461 -0.16202094 -0.12392007  0.0518636
 -0.14677577  0.11105951]
[-0.17734054 -0.17383984  0.26684898  0.03954699  0.14660263  0.14239722
  0.0072983  -0.1189409   0.09487657  0.08495946  0.0668637  -0.06747272
 -0.13353689 -0.22548296  0.18843529 -0.10561094  0.02336107 -0.21012473
 -0.00483162  0.04086676]
[ 0.17726655 -0.06182416  0.21891296  0.15509519  0.16684279  0.29003653
  0.19574152  0.00245163 -0.3307688   0.12156758 -0.16367461 -0.08413363
  0.10605602 -0.11641366  0.03624734  0.17357117 -0.19971992 -0.3361138
  0.13817905 -0.07615614]
[-0.06547602  0.17332625  0.18314488 -0.07259792  0.24552551 -0.29935604
  0.09489974 -0.05077522  0.05718012 -0.09400741  0.25010785  0.01254061
 -0.18749823 -0.05865445  0.00607478 -0.21176548  0.01486644  0.00760728
 -0.01883241 -0.03352254]
[ 0.07798336  0.21341045  0.21178529  0.16531269 -0.01899317 -0.00728147
 -0.09055192 -0.14574677 -0.10146919  0.13753168  0.2790035  -0.07467755
  0.21107207  0.17199264  0.31264755  0.02422874  0.16031654  0.02515821
  0.24268134 -0.03741131]
[ 0.17945443  0.13140473  0.19534513 -0.16236131 -0.1543201   0.24831869
 -0.03804804 -0.1262294   0.18568943 -0.07865278 -0.09164222 -0.19151771
  0.16467394 -0.16191128 -0.05465546  0.23458084  0.04405207  0.150851
  0.01188972 -0.16083425]
[-0.07399645  0.1624009  -0.42377362  0.00959355 -0.28214166 -0.15517747
 -0.26046464 -0.08042844  0.19540317  0.19330339 -0.09582764  0.23295942
  0.2622313  -0.19517672  0.11500997  0.27528176  0.05935887  0.08489071
 -0.1880275   0.08769046]
[-0.1461029   0.3181757  -0.11389819 -0.08671131 -0.14206445 -0.00167853
 -0.02701665  0.04026275  0.30901834 -0.2711235  -0.18017174 -0.12784344
 -0.2553749  -0.22036871 -0.2760309  -0.2669582  -0.27129713  0.2547139
  0.01848564  0.06257931]
[-0.14380705 -0.12524901 -0.24077253  0.03148253 -0.10036867 -0.20401673
  0.21489112  0.05826533  0.10103571 -0.11387192 -0.11642335  0.20284516
  0.20513472  0.02057172 -0.06992079 -0.05368753  0.03714639 -0.21201919
 -0.07084225 -0.11701185]
[ 0.17816685  0.30405822 -0.1312499  -0.20423706  0.13849987 -0.07951969
  0.25989202  0.14503413  0.3290089  -0.06991928 -0.27990755  0.1803554
 -0.00296513  0.01257015 -0.0400808  -0.18193066  0.0589239   0.10044862
 -0.12513925 -0.15894735]
[ 0.1408442  -0.20824987 -0.17906459  0.2559036  -0.1372065   0.11995509
  0.23441678 -0.05111655  0.00488836  0.24595046 -0.00446647  0.0299209
  0.00040162 -0.00478053  0.17923899 -0.05264103  0.00938749 -0.03592042
 -0.29550016  0.13211025]
[ 0.01717907 -0.04215774 -0.17106922  0.15639648 -0.00426414  0.20758563
  0.09226569  0.15668371 -0.03811245 -0.14863487 -0.01098013  0.32342705
 -0.12447362  0.1334913   0.15942283 -0.17155829  0.03489035  0.28536123
  0.12316075 -0.35203758]
[-0.05649871 -0.22576308  0.00578921 -0.2828914  -0.14936772  0.10970701
  0.08555636 -0.13314405  0.12490263 -0.09644116 -0.1324731  -0.02591497
  0.28474927 -0.16513166 -0.02283867 -0.23275529 -0.14151752 -0.24549164
 -0.13243204 -0.04601808]
[-0.11958802 -0.02838254  0.12670612  0.15667143 -0.19462155 -0.06771535
  0.1453029   0.26710376 -0.22205353 -0.0397092   0.30860856  0.12218811
 -0.01826427 -0.20626275  0.19933216 -0.02896818  0.04280308 -0.15082139
  0.15426238 -0.17735693]
[ 0.10361821  0.05676502 -0.04212977 -0.00831572  0.0888203   0.21385267
 -0.23454265  0.18517861  0.11149163  0.00375879  0.0990367  -0.00986541
  0.05196869 -0.16210072 -0.31423008  0.21283817 -0.11784443  0.10255911
  0.19493699 -0.08668262]
[ 0.00725322 -0.1363253   0.010193    0.24503288 -0.15062141  0.05206755
 -0.04896108 -0.28270903 -0.00524013  0.16322525 -0.03992052 -0.15252104
 -0.14471614  0.08867741 -0.2303986  -0.04474696 -0.02998245  0.02759518
 -0.04175638 -0.12372342]
[-0.18898854 -0.0952371   0.13468371 -0.0587643  -0.17163429 -0.1330395
  0.19435987  0.20707044  0.04766207 -0.21385907 -0.1488073   0.06432529
 -0.05863071 -0.21112218 -0.29278713 -0.2603778  -0.2530691  -0.03290929
 -0.06222443 -0.15977913]
[ 0.16044599 -0.12498535  0.21004196 -0.24130967  0.1712834  -0.22121602
 -0.05450499  0.18437028 -0.19184019  0.09429    -0.14248425  0.02369254
 -0.13045347  0.27842683  0.24955693  0.00786    -0.14795822 -0.06349915
 -0.22778642 -0.14166485]
[ 0.10722376  0.12858996  0.28346643  0.11670257  0.2338694   0.00632978
  0.12032483  0.1171421  -0.02133599 -0.00435524  0.02481589  0.3216823
  0.27353683 -0.10379927  0.1596401   0.08296558  0.0696108   0.05563486
  0.05058207 -0.0913268 ]
[-0.07756731  0.15329194 -0.21211213 -0.11901443 -0.06837557 -0.25380316
  0.148483    0.00306548  0.10003271 -0.16572936  0.2118447  -0.17277788
 -0.18921249 -0.14811741 -0.04110317 -0.07925204  0.28924534 -0.10168228
 -0.22707103 -0.01641419]
[-0.2611784   0.10458621  0.1353753  -0.05254509 -0.08067374 -0.05150719
  0.06602211  0.06174454 -0.34843338  0.00040407 -0.17180237  0.24187618
 -0.04189776 -0.18585269 -0.20194027  0.13528238 -0.14394446 -0.15258878
 -0.25078902  0.00970758]
[-0.10576161 -0.23822163  0.01445426  0.01037214  0.08451706 -0.26116076
 -0.03810043 -0.05215608  0.1072182  -0.13787095 -0.11367713  0.03184353
 -0.01041704  0.13166289  0.1605335   0.29753813  0.2085685   0.05473091
  0.15671255  0.18209149]
[-0.08689331 -0.10701025  0.21956398 -0.12025097  0.21469371 -0.02548784
  0.07998212  0.10480573  0.10055432  0.00187589  0.31472328 -0.2437496
 -0.23461829  0.06370674 -0.06011275 -0.10159133 -0.07356495 -0.19420795
  0.24207826  0.09769325]
[-0.19815978 -0.04650525 -0.10081173  0.0316438  -0.09365525 -0.08573826
 -0.21926099  0.13393892 -0.13580082  0.06489632  0.01095469 -0.149905
 -0.13154812  0.01786859 -0.0090314   0.09741963  0.00857435 -0.24924132
 -0.09745951  0.06132422]
[ 0.09434875 -0.08656988  0.18611406  0.11261592  0.18355113 -0.21911865
 -0.26619974  0.10971785  0.10440329  0.1245706  -0.0057191   0.2280323
 -0.195156   -0.15445241 -0.17234777 -0.16587117  0.15500762  0.0965478
  0.01512146 -0.01993221]
[ 0.04059572 -0.10262814  0.1734908  -0.21495293 -0.17472525 -0.21774547
  0.11594485 -0.07802625  0.3270348   0.1157864   0.20144829  0.02108984
  0.12680106 -0.15231702  0.16281551  0.03832717  0.12814504 -0.0444283
 -0.16526352 -0.36530846]
[ 0.04128847 -0.03722577  0.15884785  0.01873251  0.15399002  0.01433909
 -0.00554015  0.03131859  0.08015985  0.05363922 -0.08687914 -0.02477473
 -0.0851358   0.08308052  0.21404848 -0.09429321 -0.16518384 -0.17891476
  0.10530595  0.10553133]
[ 0.09883568  0.11561298 -0.00278186  0.16935866 -0.14985608  0.03926771
 -0.19849922  0.00998371 -0.00713833  0.06529692  0.131435    0.09786884
  0.12344183 -0.06025434 -0.09392267  0.04846026 -0.03521775 -0.10745785
  0.14795576 -0.09355547]
[-0.19447565  0.05623498  0.02419953 -0.14929458  0.1126308  -0.08181537
 -0.25575945 -0.14808226 -0.04900742  0.0790753   0.19716008 -0.15779847
 -0.3486324  -0.18478264 -0.16962984  0.09335271  0.00119575 -0.02534365
  0.18510889 -0.06273635]
[-0.04015963  0.07681727 -0.06989398 -0.16920635  0.10376266  0.12426415
  0.1500054  -0.00134914  0.29797566  0.03405886  0.08941241  0.21056762
 -0.22407824  0.01345673 -0.12888825 -0.1413568   0.25914147  0.1676378
  0.39822504  0.04075909]
[-0.12183969  0.19711013 -0.26549318  0.11710683  0.12543876  0.20385456
 -0.253146   -0.15447032 -0.10060295  0.1616342  -0.19194543  0.14577843
  0.19763611  0.01281603  0.28005084  0.0900667  -0.20409212 -0.12982458
  0.2612064   0.24559188]
[-0.17271645 -0.13588585  0.02839414 -0.09183977 -0.18971454 -0.18235423
 -0.14599216  0.23646775  0.19232334 -0.10911844 -0.04012161  0.15217014
  0.11712603  0.13693096  0.11585049  0.06217372 -0.0645849   0.10605408
  0.19521837  0.31134036]
[ 0.03177392 -0.07787294 -0.29552028 -0.14280662 -0.08581899 -0.167675
 -0.02594665  0.02948111 -0.30146748 -0.07216881 -0.01774306  0.4136365
  0.11182932  0.2257548   0.31655818  0.16401495  0.02627408  0.15841676
 -0.01283897 -0.07019665]
[-0.06574868 -0.0825263   0.2704116  -0.15652514  0.2742648   0.18873645
 -0.02421971 -0.30605346 -0.08296605 -0.05172587 -0.07492225  0.16452372
  0.1397781   0.09651858 -0.156311   -0.10686029 -0.20338105  0.02720574
  0.20792285 -0.07529883]
[-0.05310846  0.0174327  -0.15105607 -0.05130209  0.1814557  -0.12068814
 -0.15738927 -0.10913373  0.1521956   0.08383075  0.00202559  0.08307794
  0.27304527 -0.06796298 -0.12555082 -0.04556719 -0.08251704 -0.18939072
 -0.19563264  0.30742553]
[ 0.18844622 -0.13283485  0.18999906 -0.01207866 -0.03884538  0.16317727
  0.16333841  0.2501078  -0.18147111  0.00814049 -0.23063989  0.06270893
 -0.05101011  0.2784397   0.11423149  0.0798208   0.01078871 -0.17101477
 -0.42342275 -0.08616129]
[-0.00229902  0.06424027  0.12831375 -0.0119565  -0.06005381  0.07327709
 -0.01815514  0.01061361 -0.0446634   0.07690653 -0.01539121 -0.05945027
 -0.01703963 -0.00783275 -0.06009666  0.00377238  0.00935107  0.00306669
 -0.04276729 -0.06652208]
layer 5 Activation
tanh
layer 6 Dense
20 1
[-0.01501056]
[-0.02434207]
[0.07843522]
[0.03434786]
[-0.02194652]
[-0.0738375]
[0.01323748]
[-0.03232533]
[0.01133011]
[-0.00289254]
[-0.02590115]
[0.03854111]
[0.01658997]
[0.027429]
[-0.01155862]
[-0.00626793]
[0.02015453]
[-0.02108561]
[-0.00867773]
[0.02644861]
[0.04966174]
