layers 7
layer 0 Dense
20 20
[-0.46105713 -0.3838047   0.5644454   0.06440043  0.49800456  0.408379
  0.24699174  0.35967362 -0.11870723 -0.34989265 -0.2844976   0.12958562
 -0.24914345  0.7410183  -0.45104796 -0.10318785 -0.03271275  0.3983203
  0.29156607  0.52558553]
[ 0.26725438 -0.64705634 -0.32615265  0.7820484   0.31451052 -0.39888987
 -0.70572215 -0.33561307  0.30003604  0.07812352 -0.8487415   0.14588112
 -0.41530982  0.31458429 -0.02317281  0.606676    1.0895512   0.26176584
  0.8094253  -0.10530436]
[ 0.20077412 -0.46754313 -0.58810747  1.2614658  -0.18613453 -0.25636497
 -0.64617753 -0.25943977  0.12125803 -0.24753296 -0.6964193   0.04523022
  0.1623764   0.03122942 -0.3274139   0.36864436  0.9779517   0.0776958
  0.20189986 -0.01537417]
[-0.44708863 -0.20597492  0.10088258  0.5194758   0.052526    0.42581394
 -0.19407797  0.02857715 -0.09002836 -0.06444594  0.25591898  0.03192504
 -0.15109025  0.322686   -0.5804593  -0.02554316 -0.07594426  0.46094084
  0.49491626  0.40818346]
[-0.03936292 -0.08490811 -0.51230276 -0.20612055 -0.3279661  -0.14848864
  0.43319708 -0.7472024  -0.798737   -0.3745991  -0.36614546  0.40961176
 -0.5940664   0.18158081  0.34323794 -0.8979332  -0.1753966  -1.0094271
  0.25782752  1.3149216 ]
[-0.44547862  0.68647623  0.24545647 -0.47486788  0.04034701  1.1458662
  0.31790426  0.66799176 -0.25588146 -0.23389377  0.794926    0.5433651
  0.12062626 -0.12331852  0.00625635 -0.12851833 -0.9186072  -0.3134079
 -0.28586772  0.05862641]
[-0.07813483  0.03201736  0.5738901  -0.5892127  -0.11584132  1.0903926
  0.5736146   0.6571669  -0.523322   -0.03427156  0.5128103   0.16561125
 -0.18134332  0.2574572   0.30335405 -0.3936696  -1.1902145  -0.06714692
 -0.24356912 -0.12381054]
[ 0.06060712 -0.32021454  0.05704586 -0.2305688   0.35299042  0.2856674
 -0.7500404   0.12354217  0.39298674  0.59307086 -0.3271395  -0.92681056
 -0.12627386  0.08842605  0.2608682   0.2934324   0.12393148  0.09941333
 -0.10846037 -0.8946124 ]
[-0.05032215  0.5269893   0.93077946 -0.75959474  0.6220226   1.308392
 -0.5394817  -0.20460305 -1.3371444   0.31574592 -0.67859685 -1.1446477
 -0.44215885 -0.28045827 -0.2986779   0.03846964 -0.26600748  0.36173195
 -1.6691445   0.2603944 ]
[-2.0497985  -2.1320443   0.6053841  -1.3428782  -0.706517   -1.0026246
  0.35286912  1.0154141  -1.0392749   0.29150882  0.10605936 -0.52123135
 -0.26633337  2.1096265  -0.8719579   1.7455035   1.7575624  -1.8861214
  0.7208322  -0.19611622]
[-0.5321101   0.47688326 -0.848853   -0.34051904 -1.6121476  -1.6330992
  1.3382398  -1.2238443  -0.5081543   1.6848184   0.41485432 -1.8176843
 -2.00108    -0.7598535   1.323059    0.05207543  1.4105248   0.2691926
 -1.8526059  -0.23315139]
[ 0.20118797  0.6488834   1.5804063  -1.1130743   0.02116116  2.246958
  0.49181843 -1.2261345   0.34732497  0.87003195  0.23985167  0.43469265
  0.0119152   0.07872739 -0.42974463  0.5976415   0.7401604   1.3143578
 -0.14701036  0.60823834]
[ 0.06748793 -0.20480296 -0.31364322  0.22969957 -0.49756327 -0.30997956
  0.25870588 -0.2945605  -0.20452662 -0.11742985  0.802756    0.34862265
  0.29885915  0.28431204  0.43142682 -1.9419014   0.40838158 -0.65260166
  0.59515744 -0.00299941]
[ 0.4139524   0.75329053  0.20789242 -0.07318124  0.09515922  0.56413287
 -0.6623862  -0.09366407  0.661674   -0.17750606 -0.06639961 -0.09364314
  0.3542969  -0.6871662   0.6405598  -1.5743817   0.32286543  0.23814964
 -0.5777384  -0.75482845]
[-0.8280401  -0.18864375  0.6851098  -0.40445793  0.7842559   0.7737505
 -0.43639454  0.37983775  0.2536     -0.0919327  -0.03181196  0.23460202
  1.4223602   0.4643017  -0.8112286  -0.49641442 -0.8064814   0.05556967
 -0.12857828  0.21687144]
[-0.7043985  -1.1171069  -0.31929877  1.9947864   0.11805151 -0.7526228
 -0.01713616  1.0211358  -1.1717778   0.879183   -0.6115626  -1.4083099
  0.01592271 -0.6954393   0.01748351 -0.72400695 -0.29318988 -0.6909693
 -0.3710452  -0.43339348]
[-0.48947614 -0.46657798  0.37880093  0.44446248 -0.04563573  0.00890427
  1.186315    0.50458217 -0.21038795 -0.46041906  0.09488399  0.16830866
  0.10605995  0.8300382  -0.11828469 -0.4984417  -1.1130925  -0.84072924
  0.2815397   1.6334118 ]
[ 1.0851202   0.41243008 -0.20542756  1.0044243  -0.10628965  0.2994502
 -0.08876715  0.05742983 -0.259278   -0.4784827  -0.7039265  -0.06906414
 -0.3016297  -0.62525463 -0.2016709   0.23859265 -0.93498254  0.7674253
 -0.12413702  0.664412  ]
[ 1.1466773  -0.6395568   0.66597944 -0.12380478  0.28662792  0.5790995
  0.03727316  0.19619918  0.4958562  -0.57742625  0.08013795  0.7783679
 -0.34083813  0.54135674  0.2827438   0.21080306 -0.2717939  -0.5933198
  1.4715257  -0.6661898 ]
[-0.2671125  -0.23420158  0.34564018  0.47643685  0.81054235 -0.76404965
 -1.8091618   1.0893451   0.72883916 -0.42892057  0.42936394 -0.7427232
 -0.0951447   1.1166441  -0.45939198  0.00360082 -0.12948981 -0.01742353
  0.3569571  -0.87163085]
[-0.01124845  0.18198001 -0.09416765  0.09297042  0.23827045  0.04809317
  0.01232176  0.13871752  0.04028439 -0.10643785  0.15963528  0.4671667
 -0.05758193  0.19104664 -0.08821953  0.23799214  0.0668029   0.3342792
  0.29819557 -0.07046025]
layer 1 Activation
tanh
layer 2 Dense
20 40
[ 0.42528772 -0.31220904  0.66336775  0.9453986  -0.84020483  0.338893
  0.42111188  0.96609175  0.96258587  0.21737766 -0.25216052 -0.7517687
  0.30552366  0.23436807 -0.71043086 -0.9260698   0.4633291  -0.40392968
 -0.7534543   0.68314505  1.2377166  -0.09294807 -0.6611886   0.8391383
 -0.19026487  0.23728937  0.11150865 -0.7020876  -0.7380168   1.0047594
  1.026696   -0.9889326  -0.48720354 -0.92573595 -1.2649997   0.5602468
  0.20443878  0.10710523 -0.50651914 -0.14388856]
[-0.08932395 -0.1327477   0.5926899   0.85064507  0.3025008   0.869213
  0.44030797  0.51730895  0.7004516  -0.19719616  0.5352311  -1.1023426
  0.07727569 -1.2102278   0.15398836 -0.8107719   0.0791299   0.18391451
 -0.41413954  0.38458714  0.02014382 -0.40461802 -0.24641958 -0.3226915
 -0.05079322 -0.12728049 -0.319886   -1.1684833  -0.4725665   0.54064995
  0.6683191  -0.3041047  -0.7839818  -0.35332417 -0.492871    0.8528872
  0.31738797  0.07865495 -0.5753412   0.30572692]
[ 0.3299153   0.06812181 -0.241986   -0.10179661 -0.12414142  0.19733256
 -0.2183182   0.30471718  0.4590308  -0.16967334 -0.83982    -0.11770521
 -0.03339013  0.90755063  0.5607169  -0.57874155 -0.66740555 -0.47183388
  0.30366397 -0.136907   -0.38685882  0.68772656 -0.2352066  -0.19185092
  0.27419266  0.27882954 -0.23467188 -0.383163    0.562008    0.42016825
 -0.61432296 -0.15156467 -0.26887068 -0.41726878  1.2231287  -0.16226637
  0.34322315 -0.6773489   0.3496658  -0.28916213]
[-0.36924735 -0.40322188 -0.13809623  0.4352562  -0.00193525  0.17848314
  0.74085325 -0.35674533 -0.5500602  -0.24455863  0.4516619  -0.3062592
 -0.11180994 -0.29922223 -1.081998    0.1489114   0.16756585 -0.07920757
 -0.30256706 -0.00249643  0.16374451 -0.6655465   0.14828706 -0.14108343
  0.18558519  0.90876675 -0.32890466 -0.5058276   0.04440058  1.2287455
  0.36515263 -0.13482463 -0.05687085  0.31231567 -0.7668374   0.14468247
  0.01861282  0.39212143 -0.01095994 -0.0750208 ]
[ 0.4407742   0.06386063  0.47944957  0.440892   -0.4684766   0.6354358
  0.22649533 -0.29466072 -0.7039473  -0.03218409  0.09755855 -0.18108338
  0.0304295  -0.1702753  -0.2167884  -0.2857373   0.20994776 -0.04117336
 -0.14863731 -0.53425926 -0.3241863   0.02756097  0.24049869  0.51664567
 -0.23732948  1.0858299  -0.26700696 -0.37993026  0.39779565  0.7920145
 -0.43635595 -0.52340686 -0.88264656 -0.04473118 -0.01058929  0.42759064
  0.4572584   0.31531078  0.05161497  0.5281257 ]
[ 0.7880152   0.42368245  0.34692147  0.43500328  0.24775735  0.39692718
  0.66752183 -0.32707965 -0.35409796  0.1710041   0.0149389  -0.6069726
 -0.16519433  0.38351506  0.21202438 -1.0017483  -0.5137583  -0.572639
 -1.0045636  -0.7311728  -0.27908823  0.25041032  0.27493295 -0.48867258
  0.17633532  0.171783   -0.00639445 -0.37662345  0.09490287  0.39840436
  0.6019745  -0.94641614 -0.28654072 -0.41183642  1.1646082   0.11196706
  0.7119993  -0.21677029  0.25652793 -0.13455947]
[-0.26155186  0.2500863  -0.44990516 -0.6228372   0.3585025  -0.38546428
 -0.5514938   0.46944222  0.23315035  0.11401503  0.12191518  0.5678683
 -0.23007688  0.05426034  0.2850181   0.62695396 -0.61187935  0.2586958
  0.34016147  0.37464646  0.61632544 -0.13449562 -0.18132633 -0.17587565
  0.0921644  -0.37601107  0.29884866  0.60172504 -0.50403553 -0.5042231
  0.28875634  0.39643458  0.76538825  0.54727393  0.30412054  0.13187131
  0.03411601 -0.37183928  0.2256322  -0.10272933]
[ 0.63043207  0.41520286  0.10653434  0.03679398 -0.66237324 -0.11871232
 -0.17258337 -0.62958443 -0.2442606  -0.08974697 -0.26149064  0.34681943
 -0.14907826  0.07559157  0.11041886  0.07424965  0.44739282 -0.2379369
  0.07558189 -0.19825925  0.14954142  0.43990323  0.44458848  0.40786037
  0.12556744  0.7151793  -0.1458592  -0.08431856  0.09193072  0.13009697
 -0.5463854   0.09064327 -0.09251846  0.2032885  -0.19237141 -0.17512545
  0.37966782 -0.10771616  0.3382227  -0.02460785]
[ 0.34163633  0.2233698  -0.06468207  0.28324592  0.11586155  0.46129385
 -0.19640379 -0.09759735 -0.01065372  0.1067809  -0.42750406  0.01214906
  0.10257068  0.20987418  0.3139622  -0.19775133  0.46308273 -0.5041703
 -0.18421294 -0.40478912  0.5471523   0.27332303  0.01762627  0.22816093
 -0.0689557  -0.2003903   0.63134     0.29431224 -0.3246392   0.07200553
  0.08122046 -0.08200663 -0.36635685 -0.5254901   0.38713676  0.31814307
 -0.08973575 -0.07497233 -0.12551637 -0.05998398]
[-0.42082688 -0.18346673 -0.2658836  -0.10610252  0.04248857 -0.09767992
 -0.4229153  -0.01868506  0.01674366  0.1621487   0.29244128  0.800741
  0.52616537 -0.1581413   0.13306849 -0.10536916  0.06762365  0.20167845
  0.07456967  0.1977959  -0.04550887 -0.15444149 -0.3082204  -1.0015764
  0.30589217 -0.5869514   0.05683405  0.19315884  0.38332456 -0.31387538
 -0.2822157   0.18983868  0.42236626 -0.15677324 -0.03503289  0.7912463
 -0.31685692  0.02311819  0.23833127  0.08371651]
[ 0.14500059  0.01815551  0.21301752 -0.39045164  0.3269827   0.00469792
 -0.31050894  0.15559624 -0.15526997  0.12269651  0.11850765  0.2351164
  0.2104474   0.26255393  0.15610872 -0.09065077  0.16788964  0.28333786
  0.24605733  0.40147483  0.4950344   0.16529293 -0.09446642  0.67937356
  0.5590804  -0.14373219  0.22987539 -0.21560188 -0.15766272 -0.1707138
  0.18893012  0.07037547 -0.03001936 -0.34995535 -0.30259424 -0.18991886
  0.10827482 -0.2455842   0.01153991  0.21954042]
[ 1.0891491  -0.09228657  0.16794424  0.7875016  -0.16119322  0.54770994
  0.07852905 -0.01555    -1.1376172  -0.1606386   0.4310115   0.02132523
  0.14486411  0.6370726  -1.1716954  -0.94799465 -0.6709976  -1.0761617
 -1.0674689  -1.0972403   1.2073834  -0.18537295  0.15573093  1.3699672
 -0.17065173  0.8038824   0.7003508  -0.56797236 -0.0319232   0.0482277
  0.7056383  -0.6266675  -0.4263004  -0.21561654  0.03296817  0.7785894
  0.8290934   0.81615174 -0.1139506   0.19630732]
[ 0.54560983  0.27295476  0.04291321 -0.50901234 -0.12564027  0.04336111
 -0.21206374 -0.09335113 -0.5953735   0.15602136 -0.07427496  0.18669233
 -0.27289015  0.5748702   0.14758267 -0.7264531  -0.19444063 -0.08676876
 -0.20956674 -0.5588512  -0.04439285  0.33221328  0.06409773  0.27967882
  0.13818376  0.42690945  0.2244303   0.15431252  0.03301775 -0.19559954
  0.10295762 -0.27186477 -0.02855357 -0.0611485   0.7351228  -0.13715357
  0.5520962   0.55767465  0.0302039   0.03766358]
[ 0.42072713  0.88450307 -0.05379004 -0.39088425  0.29511085 -0.3863871
 -0.43508857 -0.65546083 -1.0130789  -0.24244569 -0.98683757  0.32494655
  0.20852377  0.5116568  -0.7231884   0.2879611   0.10331525 -0.55996263
  0.15859269 -0.39091745  0.07032935  1.225972    0.7273071   1.1436604
 -0.10088219  0.7961118   0.09533723  0.6014522   0.9623773   0.4874977
 -0.63424313  0.3828249   0.6092191  -0.08196951  1.0911387  -0.43279552
  0.48776385 -0.38248372  0.53862184 -0.4289115 ]
[-0.57349133 -0.3996664   0.04502953  0.30169013  0.07016523  0.31618083
  0.1910651   0.25820825  0.9937145  -0.12049683  0.12644234 -0.1230272
  0.08898626 -0.1624884  -0.41565794  0.05243445 -0.39058337  0.11510155
  0.07564712  1.2427863  -0.02476088 -0.27579108 -0.35688794 -0.08863612
  0.02808392 -0.19113064  0.18274465 -0.4713763  -0.7610482   0.22624664
  0.19047008 -0.11272444 -0.35525835 -0.22008452 -1.2328027   0.05362725
 -0.46748048 -0.19900042 -0.24907425 -0.33000824]
[ 0.28479153  0.30783632 -0.57450986 -0.44311768  0.07227246 -0.5954469
 -0.5154807  -0.7794276  -0.24994    -0.07728598 -1.5391856   1.0539978
 -0.46309778  0.18144758 -0.5800672   0.8195134  -0.4334664   0.44681016
  0.02111777 -0.00358046 -0.41955245  0.301156    0.42729843 -0.19123572
 -0.17773873  0.5108429   0.11952904  1.086423   -0.23326913 -0.4482616
 -0.62875724  0.6004701   0.4159954  -0.19165969  0.7480296  -0.8307576
  0.08901364 -0.50114924  0.44825283 -0.31228578]
[-0.17430888  0.266274   -0.2839861  -0.72612756  0.13721175 -0.39099267
 -0.8748199   0.03870976  0.8271685  -0.21965644 -0.40725556  1.1622216
 -0.26588544  0.43994927  0.96974546  0.5204692  -0.65702486  0.12696362
  0.29999104  1.0905838  -0.5771011  -0.06121743  0.25156918 -0.20439415
  0.4192131  -0.49565557  0.2762895   0.4951127   0.19344626 -1.1886429
 -0.7477567   0.50523156  0.69551253  0.45160693  0.12591028 -0.36012778
 -0.54726    -1.1350929  -0.06813738  0.30413622]
[ 0.11777384 -0.07009     0.07613339 -0.29418105  0.09559244 -0.15470387
 -0.45687115  0.6647483   0.3570141   0.05012341  0.5523329  -0.12971258
  0.42634764 -0.30471218  0.3537061  -1.0046347   0.4589499  -0.6286921
 -0.6279614   0.2315886   0.82483506  0.16903153 -0.42968315 -1.1817667
 -0.25391456 -0.40169936  0.4612384   0.22025536 -0.36152005  0.21492317
  0.7450958  -1.2079175  -0.02117777  0.00642989  0.30336386  0.5620737
  0.2554394   0.70398086 -0.21252021  0.25277266]
[ 6.3847786e-01 -1.3458411e-02 -3.8565576e-01 -4.1285363e-01
 -4.3242180e-01 -9.6401840e-02 -3.1957027e-01 -5.9426641e-01
 -4.7476670e-01  1.9265592e-01 -8.2000536e-01 -3.9641118e-01
  2.0519713e-01  1.4220158e+00 -4.1725355e-01 -5.8176601e-01
 -4.6329513e-01 -7.7566731e-01 -1.1050413e+00 -5.4757172e-01
  1.5841280e-01  1.0119539e+00  5.5295461e-01  1.1092818e+00
 -9.2663445e-02  6.5846324e-01  4.8510286e-01  6.6265988e-01
 -1.4257395e-03  3.7264264e-01 -4.3232405e-01  1.9558783e-01
  2.3673293e-01  1.4545422e-02 -1.0925776e-01 -1.4359570e+00
  9.4912618e-01 -5.1363027e-01  6.3278264e-01 -1.4381355e-01]
[ 0.07103397  0.29662845  0.04929728 -0.37078822  0.7107338  -0.18355893
 -0.35795823 -0.15390497  0.5112389   0.11183694 -0.59152794  0.35837576
  0.10357855  0.20214812  0.8289194  -0.05850327 -0.3228172   0.10803398
  0.07963927  0.9627878  -0.08737721  0.15965177  0.08859312 -0.18024366
 -0.06443001 -0.5250367  -0.17098826  0.43985295 -0.3598143   0.09855417
  0.22659837 -0.3485145  -0.0629221   0.16306326  0.65178245 -0.55135715
  0.33240873  0.03670595  0.07817402 -0.20713708]
[ 0.24417995 -0.05392999 -0.03441522 -0.08603189  0.0934795  -0.15752934
 -0.0407006  -0.07116592 -0.34434292 -0.3537393  -0.01696714  0.07647887
 -0.15560979  0.01239803  0.12917264  0.05390245  0.45711765  0.01165221
 -0.10373901 -0.27222928 -0.04144301 -0.18674542 -0.0543937   0.27928036
  0.16854471 -0.20203605 -0.5048813   0.00519446 -0.08685443 -0.25998586
  0.04869472 -0.36489177 -0.17422196  0.5068669   0.14697327  0.0055241
  0.23694126  0.14936107 -0.22591035  0.29089266]
layer 3 Activation
tanh
layer 4 Dense
40 20
[-0.35404596  0.12104931  0.17266285  0.5396678   0.0370742   0.41820788
  0.02838602  0.06891713  0.16921876  0.46155104 -0.16028965  0.06710892
 -0.09026156 -0.07867401 -0.65553856  0.4789881   0.48209062 -0.09701235
  0.743637   -0.11846253]
[-0.41318738  0.03063788  0.13024692 -0.11920974 -0.06090689 -0.04424447
 -0.12194726 -0.2669381   0.10919333  0.16503987 -0.22655785 -0.08710114
 -0.18102708 -0.15856996 -0.3634785  -0.19024336  0.14777109  0.10009989
  0.1650426   0.17069149]
[ 4.2918627e-04 -3.2936290e-01  1.8008438e-01  3.7882376e-02
  1.6376311e-01  2.3795088e-01  1.2010827e-01  4.4429606e-01
  2.9555019e-02  1.7430119e-01 -1.6324835e-01 -2.9150125e-01
 -4.0554023e-01 -5.1150296e-02  4.6861476e-01  5.4766070e-02
 -1.3213240e-01  1.1622754e-01 -2.4589708e-03 -1.0072196e-01]
[ 0.5327382  -0.20761426  0.3020383   0.22244433 -0.08472595  0.30215022
 -0.08024882  0.5375276  -0.03659382  0.03963633 -0.1053896  -0.318125
  0.17071149 -0.22448209  0.3562709   0.35817742 -0.07090949 -0.09695398
  0.20983884 -0.05215603]
[-0.09080176  0.15317939 -0.05139766 -0.11540172 -0.1590135   0.21565436
 -0.40033424  0.18477353 -0.09300271  0.11170238 -0.12365108  0.2927596
  0.06150831  0.17374487 -0.33206975  0.18015577  0.17378944  0.23765256
 -0.29750556 -0.26507246]
[ 0.46583533 -0.44343412  0.11998658  0.27620414  0.08184927  0.40037698
  0.44181678  0.22345923 -0.00156574  0.02646087 -0.2880367  -0.28867298
 -0.15522136  0.19444661  0.2626818  -0.26129484  0.05998295 -0.04369602
  0.3018205  -0.13301028]
[ 0.03270705  0.03057049 -0.1188359  -0.20227185  0.07487816  0.35026252
 -0.03011471  0.36267778  0.12580273  0.17559545 -0.21041204 -0.2169595
  0.10321189 -0.12515654  0.04974251 -0.1618223  -0.3481307   0.17731045
  0.37398595  0.08535088]
[ 0.5392011  -0.4946069   0.35034332 -0.1175807   0.14070284  0.3394288
 -0.04248188 -0.11920876 -0.18468022  0.00996344 -0.10139232 -0.05789708
 -0.21586163  0.17664371  0.6587257   0.48450994 -0.32483143 -0.4060049
 -0.43240663  0.05972542]
[ 0.4915557  -0.52213496 -0.1653831  -0.6598155  -0.24405208  0.17889339
  0.55751944 -0.23864074 -0.4226495  -0.2558265   0.18561028 -0.25470808
 -0.627209   -0.1380905   0.7675732  -0.19884174 -0.23514412 -0.6379693
 -0.56461805  0.28730282]
[-0.10131802 -0.08789939  0.07492946 -0.04473028  0.09769829  0.02484074
  0.36279297  0.295735    0.11271159  0.02195759  0.04140108  0.01866497
 -0.12633125  0.21963406  0.0410374   0.07670382 -0.29282624 -0.34581533
 -0.02040073 -0.07456184]
[ 0.70763624 -0.55284876  0.03970917 -0.3300106   0.5119173   0.2518707
 -0.09454848  0.15771762 -0.47873074  0.17435837 -0.09817517 -0.52976614
 -0.77480507  0.01570412  0.42762268  0.06799979 -0.7098694   0.23475426
 -0.31979418  0.04740046]
[-0.12692174  0.19164509  0.01567324 -0.02266208 -0.5464901  -0.5278905
 -0.48604348 -0.59043795  0.15118575 -0.45790985  0.3187889   0.4301898
  0.00606878  0.01368825 -0.31860858 -0.13190891 -0.13763748  0.25559652
 -0.19531722 -0.0611462 ]
[ 0.3840752   0.00599737  0.03797932 -0.0635787   0.0556132   0.06855802
  0.07532275  0.17416415 -0.12838827  0.17056862  0.01440132 -0.03783269
  0.11368684 -0.11008493  0.04231718 -0.06353412 -0.14782253 -0.23608612
 -0.15846866  0.17491752]
[-0.7100448   0.52293044  0.17035025  0.29042304 -0.39411125  0.41141605
 -0.14799672 -0.01956115  0.31145552  0.49635845  0.06318943  0.4513886
  0.4398931  -0.07810357 -0.33207396  0.264775    0.3858964  -0.17500837
 -0.1220268  -0.14202555]
[-0.15410551 -0.10579307 -0.15679748  0.17381443 -0.37238023  0.47886255
  0.48831445 -0.03965372 -0.34671026 -0.02113835 -0.26772937  0.01995178
 -0.5845806   0.00160156 -0.814244   -0.30194208  0.03999089 -0.05401513
 -0.11190032  0.0964477 ]
[ 0.19428612 -0.071893   -0.04185522 -0.5185891  -0.8764011  -0.5849734
 -0.49856496 -0.4602339   0.47696254 -0.70783836  0.69709307  0.22627856
  0.64026505  0.08754175 -0.20995243 -0.4461214  -0.49724853 -0.09532768
 -0.11665899  0.23755546]
[ 0.21359967 -0.10093121  0.31482056 -0.16992426  0.42636907 -0.162083
  0.5418823   0.0563677   0.2892457  -0.19057563  0.35492682 -0.3861577
  0.04980602 -0.34421554  0.3795253  -0.20731267 -0.12486164  0.5493264
  0.11458955  0.13488272]
[ 0.42811668 -0.37929595 -0.17564236 -0.49607912 -0.06982104 -0.36835107
  0.08415519  0.00517454  0.20963287 -0.3476976   0.2046338  -0.05342577
 -0.30975226 -0.13745317  0.1046004  -0.04501376 -0.07574435  0.17854945
 -0.33909735  0.23633325]
[ 0.22131649 -0.1638281   0.18685704 -0.5019222  -0.17860164 -0.36873502
 -0.22323962 -0.66017675  0.15967141 -0.23246385  0.30348423  0.1809357
  0.02604359  0.15767474  0.33850858 -0.34146732 -0.14906318 -0.22790518
 -0.16956069  0.09850477]
[ 0.25084344 -0.20332079 -0.2236672  -0.6602974  -0.4775457   0.0207013
  0.20787406 -0.4797965  -0.23205818 -0.21818277  0.28802702  0.04731271
 -0.50139916 -0.00650024  0.21273135 -0.15732805 -0.41487446 -0.16012257
 -0.77560794 -0.13726248]
[-2.74650782e-01  1.01796575e-01 -9.60896164e-02  4.79170948e-01
 -1.60999030e-01  4.35128987e-01 -1.54188767e-01  2.38558680e-01
 -6.45791531e-01  5.48237741e-01 -4.22813356e-01 -1.65625513e-01
 -7.17692614e-01  1.52216875e-04  2.72012115e-01  6.25484884e-01
 -1.23159215e-01 -1.06927842e-01 -2.98296362e-01 -1.54503450e-01]
[-0.57539654  0.23555082  0.20492038  0.3784832   0.00798755  0.18507254
  0.22340766 -0.04484781  0.2634129   0.03021008  0.06619463  0.38669837
  0.21057156  0.15807423 -0.35283536  0.34752995  0.20211484 -0.21459915
  0.30909365 -0.02684445]
[-0.563897    0.22008252  0.28813335  0.0492954   0.06305114 -0.12430917
 -0.50582445  0.16873369  0.09705756 -0.0577778   0.17160429  0.07475179
 -0.00186691  0.02887908 -0.31157836 -0.24317278  0.38053483  0.3620808
  0.19235758 -0.10455238]
[-0.20802319  0.2166255   0.07460868  0.24073696  0.445809   -0.4727167
 -0.09145471  0.39389044  0.5313445  -0.23684219  0.17762838 -0.38353568
  0.8370272   0.07983618  0.5388665   0.38821104 -0.16800414 -0.22313406
  0.57655865 -0.13935809]
[-0.34369713 -0.07586802 -0.2081801  -0.1030032   0.00416386  0.10235898
  0.4068115  -0.11188415  0.06183654 -0.10147961  0.42990282 -0.04432904
 -0.05196744  0.20269494 -0.07226399 -0.01232926 -0.08106863 -0.05857751
 -0.10957153 -0.10294383]
[-0.24057332 -0.00172278  0.20786549  0.5814818   0.33267406 -0.42812622
 -0.04688348  0.07564508  0.60914785 -0.54977286  0.38093624 -0.21802072
  0.6117417  -0.14625682  0.41867438 -0.11008918 -0.21897843  0.07050395
  0.36949253  0.36567712]
[-3.93491834e-01  1.86080530e-01  1.53906852e-01  2.32931495e-01
 -1.01130024e-01  1.76060155e-01  1.48563743e-01 -2.52942771e-01
 -2.85918474e-01 -2.12527579e-04  1.47389546e-01  2.24771261e-01
  3.35097253e-01  1.23520739e-01 -6.07668199e-02  3.27770293e-01
  1.55733619e-02 -6.20189369e-01  1.40201971e-01 -1.02372035e-01]
[-0.1961746   0.30246958  0.00214496  0.14871551 -0.33369988 -0.4260319
  0.10433099  0.00441914  0.11281462 -0.01498807 -0.17137581  0.638585
 -0.10473111 -0.204305   -0.38430813  0.1607269   0.29499933  0.40135664
 -0.33032808  0.03642957]
[-0.45054492  0.33603665 -0.0691828  -0.05118929  0.27101249 -0.1003228
 -0.01482702  0.0561874   0.16535957 -0.04282669  0.07814483 -0.14344557
  0.44538632 -0.23017262 -0.45003068  0.00483627  0.42146885  0.06633611
  0.06248257 -0.02014259]
[ 0.14159274 -0.31503177  0.15765885  0.15081777  0.47367218 -0.14593482
  0.33735788  0.16607755  0.02847351  0.8938138  -0.49723062 -0.06474519
 -0.0485668  -0.09455007 -0.2202313  -0.16830696 -0.00240458 -0.40550137
  0.31626946 -0.32575908]
[-0.03759777 -0.17327799 -0.01220367 -0.15470928 -0.1226639   0.60424614
  0.3563616   0.16486831 -0.564477    0.26942632 -0.07615601 -0.18044658
 -0.75660515  0.0058343   0.5151199  -0.07123018 -0.09951999  0.05273617
 -0.42851773 -0.2090408 ]
[-0.3819066   0.17984234 -0.0147398  -0.38341492 -0.563214   -0.35845572
 -0.02788345 -0.6254184   0.03155459 -0.3761273   0.23098974  0.56691104
  0.32238853  0.23053722 -0.00366907 -0.30091166  0.16143101 -0.23947753
  0.06917169 -0.01516439]
[-0.34561563  0.60931873 -0.2842954  -0.29928622 -0.33110967 -0.36925644
 -0.4246697  -0.3223289   0.02354323 -0.37370738  0.04233651  0.20135643
  0.46085635  0.28964663 -0.11019426  0.06865477 -0.02477267 -0.19649987
 -0.39251205 -0.3518846 ]
[ 0.10397354  0.02391868  0.02221808 -0.49097502  0.02653297 -0.10347312
 -0.615437   -0.2678342   0.23381156 -0.41250336  0.22519857  0.33424
  0.74353945 -0.11706321  0.06573879  0.26419663 -0.15535031  0.5913313
 -0.27968395  0.17124815]
[-0.9251137   0.5588715  -0.379414    1.0113162  -0.46471733 -0.02741451
  0.19426309  0.11639892  0.5266505   0.39902952  0.11399855  0.61906636
 -0.2951922   0.07095204 -0.87283754  0.13684177  0.36750275 -0.18774818
  0.25479054 -0.20804442]
[ 0.18892978 -0.7706515   0.1031859  -0.22972254 -0.03222184  0.52781624
 -0.30087742 -0.02010862 -0.19822685  0.2241416  -0.17195365 -0.6543109
 -0.45399764  0.00629393  1.0255567  -0.16829188 -0.24187683 -0.25436902
 -0.11118032 -0.3522146 ]
[-0.33770517  0.547495   -0.20552474  0.29841968  0.32196182  0.0887823
  0.1991421   0.28817567 -0.3412353   0.31543282 -0.36797085 -0.33417803
 -0.05712353  0.03107409 -0.4357515   0.38844225  0.48497227 -0.23357774
  0.4215952  -0.22509083]
[ 0.14337407 -0.3914112  -0.4431345   0.19647785 -0.04283216  0.34294322
 -0.04081397  0.2955981  -0.35081807  0.23079135 -0.37923092 -0.25122404
 -0.4152123   0.11998313  0.56202716  0.28560948 -0.18780473  0.44433513
 -0.00812388 -0.39953035]
[-0.42613283  0.1483017  -0.09837541  0.18065687  0.00698537 -0.22372718
 -0.03153757 -0.32684067  0.19652638  0.11832742 -0.0594961   0.15642971
  0.36956757 -0.17776234 -0.2539655  -0.15499929  0.42607152 -0.04507904
  0.03933307  0.14843804]
[ 0.47736123 -0.29224268  0.06377128 -0.05433749 -0.10155126  0.18570292
 -0.19534515  0.18673818 -0.02518195 -0.09253357  0.03605106 -0.04936976
 -0.5185112   0.31269392  0.09846184  0.05400706  0.16257574  0.63847905
  0.08217094  0.1857305 ]
[ 0.0309414  -0.03837495  0.14354512  0.07631793 -0.08685528 -0.03811062
  0.33782005 -0.36292142  0.08893711  0.03616307 -0.11316336  0.03619971
 -0.03647035 -0.07995903  0.01914517 -0.26798594 -0.09486474  1.0852789
  0.16695493  0.09649678]
layer 5 Activation
tanh
layer 6 Dense
20 1
[-0.10041299]
[0.35771263]
[-0.04631956]
[0.5287534]
[-0.4364815]
[0.43118146]
[-0.01277961]
[-0.04620503]
[-0.45072836]
[0.38431245]
[-0.09210251]
[0.42827445]
[-0.30655617]
[-0.02650495]
[-0.18004207]
[0.05781291]
[0.14024425]
[-0.13834342]
[-0.54696596]
[-0.01681575]
[0.0478708]
