layers 7
layer 0 Dense
20 20
[ 0.4151240946667258 -0.4969789723204088 0.08024254919685876 -0.559704035737909 0.17667101954232042 -0.2158260176148761 -0.40907728411384464 -0.5335305174571214 0.13423392261131442 0.08521742716480021 -0.6365145540271419 -0.45219481463603894 0.2673450901873308 -0.10853045226735791 -0.3665111049465032 -0.17688848147339792 -0.14154069640258876 0.1126403040530458 -0.41224703761892045 -0.3250952220439186 ]
[ -0.06500460594089766 -0.22957275699266558 -0.2460896645958364 -0.12560892129002849 0.029545539903103792 0.3580729826822146 0.3580558833917574 0.29403080985846136 -0.32897029437987835 -0.07793294045222164 -0.04781335455949453 -0.2328136857106823 0.14027994622654238 0.001924483869011386 -0.30923363949839044 0.3297806277244688 0.11512835550020463 -0.22019257884278282 0.07063061415538104 0.2101884786512363 ]
[ -0.16536872261287394 -0.2265025710656012 -0.1494213965082473 0.36165527503185874 0.048722111588617036 0.329288680731783 -0.12361672839859113 0.07184980116450504 0.3064566206789688 0.292042346179221 -0.16039431387783842 0.03537759529494799 0.15897102645761677 -0.27134895320165353 -0.3288765259575934 0.15338265945290797 -0.11679262217072 -0.11797325300780563 -0.2944129899063306 -0.386742503074695 ]
[ 0.11899079459014528 0.014217555653971061 0.39413261649748427 -0.4650781891875509 0.19699355192857657 0.020210842047297905 0.03409581308351574 -0.23852884197576385 0.2984936018176735 -0.10212174075179946 -0.17885607635735246 -0.06672062909142967 -0.2377230803002645 -0.0014765902673492025 -0.011211390110233086 0.36746109399039206 -0.051638249747340964 0.019633925935887624 -0.053796671157292544 0.02803283857013098 ]
[ 0.28802677031559026 -0.35176423372926274 -0.0538561527226269 -0.019326086414906688 -0.1803628265449449 -0.1908646358453478 0.04107979270559456 0.5399483892881273 -0.14305545458500468 0.17035794028047324 -0.5093203732420368 -0.29787370887719317 -0.016526759634613402 0.23526883545896926 -0.05770459823466307 -0.26172014823801176 -0.030015279314001726 -0.4136221494727717 -0.164977109132301 0.06122636981384759 ]
[ -0.15152219130727784 -0.07991003402722682 -0.3832213533837659 0.3832293673094321 0.18985249413211394 0.2742091979643239 0.08690100171322024 0.3092575098750257 0.03688463309963314 0.06973461068675009 -0.3436779243320895 0.22873509540595846 0.0336509583314019 0.24368837122766254 -0.24051429133416435 0.2832031353599638 -0.24927002076613425 0.07742563490486766 0.280089725943263 -0.08072018826732062 ]
[ 0.09586554852708391 -0.11009528029961645 -0.0692536678767301 0.29624664196075084 0.3239425006253933 0.2079423969202558 0.3212194169738295 -0.22395373000856145 -0.3358854160457618 -0.3324093341253128 0.38499535911525523 0.007630142627161135 0.12833842390820308 0.33462517600170427 -0.07617055329393732 0.142857021094972 -0.27350217991042 0.35053143375361234 0.14585277904205918 -0.04657165471491525 ]
[ 0.1961243608501308 0.029176380453214742 -0.35387594349132667 0.25182470897971465 -0.4279495017845849 0.05975843111741854 0.1456764891639719 0.4594624895273597 -0.15268549641103263 -0.011707696593555927 -0.2665406180034385 0.04924711401599565 0.4139095291189192 0.018978262488994646 -0.2571423142629619 0.32169983507106925 0.32534169908516836 0.21912104866982776 0.2597493629207817 0.049931266345620666 ]
[ 0.3633649543093128 0.126029113673331 0.005685886723151396 0.5135765454221969 0.09530851775793261 -0.4165327722491609 -0.051351671165750915 -0.34553340353284073 -0.2135308420237836 -0.1348177157219736 -0.16207944407956304 0.031237062377089318 -0.3060496319971524 0.9401268761960097 0.20173997233435367 0.08727027582314752 -0.10127259536367963 -0.08765888439717957 0.019919649490400114 0.35206389960604423 ]
[ 0.5133124485269243 -0.48024656047044134 0.5386454427940514 0.105164497302773 -0.23085356953014058 -0.40891356741671286 0.7520193393007802 -0.22945825917289125 -0.7777308220256748 0.09426249090155134 -0.2353341220677224 0.8070315505096817 0.48923092525239276 -0.6859455535503289 -0.21153985123373903 -0.6385726067459532 -0.6795826809689015 -0.5310697637296132 -0.12835057910197314 0.061083557956002656 ]
[ -0.1116594088535 -0.33957945634901354 -0.7524972619178181 0.5003369985204756 0.2956830180375687 0.5843713818503385 -0.39730653000460403 -0.6800479131509541 -0.321933208238979 0.7336044055768157 -0.34204479508174673 0.7189627472305785 0.5778638638769584 -0.3511209777079108 -0.8398103903660944 0.4232781661585646 0.09916592217869354 -0.18724029590641347 0.00681001235973882 0.5789591564078557 ]
[ -0.6278608772586559 0.5332496973260812 -0.8909608403974844 -0.10727703471325399 -0.7808939886740075 0.8092361907422774 0.9058004334033583 -1.1438744759774306 -0.27505850707602497 -0.31524429739780857 0.5227044359742331 -0.6445307317829694 0.780215048248435 -0.23197586875312534 0.6237349716597935 -0.6186638384377515 0.24842877667812804 0.1147407474866551 -0.001670431569914004 -0.013035114799386696 ]
[ 0.19621149906431645 -0.33916609025171957 0.714989426619998 -0.37925015189324573 -0.04007005417698733 0.30523625317323716 -0.08332807789651249 0.3098458911957672 0.22823757409445344 0.7642539418035844 -0.6473904519437059 0.27381227823472737 -0.3756388347083934 0.38931930436209955 -0.06771258297063305 0.4122465964846598 -0.3962650033474345 0.0780629423815203 0.4538168561847723 0.30122143809150276 ]
[ 0.22765223177435503 0.09072132726292119 -0.13300229146137948 -0.2521735538479099 0.26020151765237826 -0.17641194470512622 -0.35037117003466833 -0.11837759043033115 0.01984225102315545 -0.3353368481995836 -0.23902213499666233 -0.4670653403095461 -0.20914687805279006 -0.23184958324450658 -0.35948180799693213 -0.19755469117057572 -0.06555788583295213 0.18208614320821181 0.03992446942074434 -0.4221705277432525 ]
[ -0.2810840070711066 0.054030029973221115 0.09460418779983888 0.15283633117857356 -0.13725873879853265 -0.41309976270706966 -0.1102101715731009 0.04831981776126276 -0.11434871990446989 -0.30342920646454186 -0.1814009104500439 -0.08188784501769637 -0.05740950466420866 0.09560787733757166 0.3896026827499535 -0.25270069282970326 -0.11884715073273193 0.10437313166100237 -0.09204505612756453 -0.07099607053973601 ]
[ 0.013052778564958293 0.22123106618207608 -0.8131017662457724 -0.3232444760914439 -0.3047074681651403 0.12572386828443713 0.497453989526608 0.8946470653623453 0.1105649225286492 0.6488320986631726 -0.8011939120621001 -0.40577236893651997 0.2763199685240988 0.6459507321455391 0.26106450619962634 -0.05642355532602469 -0.317087854313124 0.3761870282876602 -0.02537546962551005 0.0922515714416687 ]
[ -0.2690474874100429 0.16925403746521345 0.032381239177812854 -0.1818172294474504 0.15692783274466782 0.21239669242400191 0.07142196604268276 0.3201037129499347 0.08203717977329411 0.05344766167240465 -0.23567163692744672 -0.35777545994336857 0.4633022905613079 0.7641002305902235 0.12267308352963267 -0.5425708904517464 -0.09426096375353787 0.2996168533610179 0.2792641483251289 0.07131366213911149 ]
[ 0.0234843371704854 0.5754368573521039 -0.12841456584527022 -0.28742371121552585 -0.08924880440873978 0.1428743266580678 -0.5571411294310223 -0.049558769315088125 0.756268040012763 -0.320153879692961 -0.379422090262751 -0.8406915987778172 -0.554087385695945 0.621721522604609 -0.10059367803556597 0.6185366137039718 0.3359288363408066 0.3869631018177041 -0.05659377621436804 -0.4544540002274194 ]
[ 0.3258796563305047 0.08140935523751898 0.7047467874603199 -0.6953760695072034 0.08057247727150153 -0.6178695258117455 0.2268685459000872 -0.016271654240465 -0.003776239310799733 -0.5808846731476947 0.2914598901925969 -0.2444386373473832 -0.11807710217995875 0.1071183673242066 0.6091984582794399 -0.43215712882483365 0.43142339120247736 0.0318320746496022 -0.0011644463087400264 -0.6351894839211983 ]
[ -0.025542557608901006 -0.08307873070620582 0.6540833972889422 0.4488326941536898 0.24231910094837225 -0.43454104064962135 -0.6296095215135676 -0.23759676245864655 0.3519172592588174 0.22504794811563764 -0.03142369384322484 0.4941861884165313 -0.7296827832535108 0.23322306052254296 -0.3196536949020804 0.046780405930131226 -0.4200433058168656 -0.24118812672672854 -0.03289398678848306 -0.0391110643980866 ]
[ 0.011889528247166227 -0.05050821910573826 -0.018359891468646725 -0.10196783401186486 0.1382294630095112 0.012764658511992806 0.02468886168159243 -0.21082838863513195 -0.06131516940141748 -0.12823052595899526 0.11894980232627343 0.077457665591207 -0.06581566130962639 -0.2131288909461427 0.006930556424597225 0.03504596117286544 0.0996252353719242 -0.09686940661781152 -0.09783551045967909 -0.06954351095656464 ]
layer 1 Activation
tanh
layer 2 Dense
20 40
[ -0.1096170905627846 -0.26163114293026773 -0.18082257519776537 -0.09915749330123164 -0.003873299519080666 0.011545022050835864 -0.007452931820056948 -0.10884373391015033 0.3456632107010817 0.21707147815846367 -0.015312457268686158 -0.19667432741808835 -0.00504300061598705 0.2155860539881396 0.19226606229211513 -0.11280827522731521 0.44301759584848754 0.06516444778268733 -0.12079975859951098 0.43024133765253264 -0.12568937305974912 0.1623757051507834 -0.17487672925058545 0.11774607972918551 -0.3133036404717852 -0.24131756997213896 -0.3603877030859347 0.0746727836982045 0.2949521013778954 0.04646135496187821 0.0330502376101285 -0.26232177186435235 -0.2430519843154881 -0.00030939060142346506 -0.34591054466194404 -0.37576202305911194 -0.029233797346328364 0.14010702750881576 0.024241799433071864 0.4312274916928692 ]
[ -0.19334121995933665 0.08174975008214537 -0.25252765567952923 -0.3667203764248656 0.1698503855649408 -0.03313766222562087 0.22349456522551758 0.3143003769171957 -0.2696032044612781 -0.23886018766491746 -0.12283349580900278 -0.17522212962801226 -0.1351979896968889 -0.02890821835334056 0.6494834574672634 0.12507342119251935 -0.20953470818068984 -0.3842044330514987 0.016739795698307962 -0.0750246245636322 0.19818601426780677 -0.04965425005416752 -0.09321421389799851 0.21457941169246306 0.12944370089821722 0.13798505644742273 0.29302426184014957 0.04407800339120577 -0.47160914356536404 -0.08039816243565863 0.05935310457147267 -0.08040649615277042 0.14944386409725433 -0.33069308402917724 0.19640584360975744 -0.10869627543641908 0.19204200208377434 -0.06202164032294112 0.43750090258025487 0.04511234867842974 ]
[ 0.4229760273741635 0.10934242882779073 0.23638057908572088 0.03706634310166862 -0.1770278470313952 0.04834133656223567 -0.45080591264553244 0.14513562363952448 0.16512749414043684 0.27780410014628365 0.3485864467852412 -0.24264540986647237 -0.4048653289921666 0.8135318150571574 0.3355000539293105 0.2616758986005477 0.5673113279646892 0.6454295941896485 0.40771607534306165 0.22968971609622058 -0.24748266407506456 -0.05555604186391548 0.27928971941007286 0.11046953305611297 -0.1264813337136741 -0.26554319657325937 0.18526390560503192 -0.4554702742951251 0.4346230369202092 -0.14011039667156705 0.5095110514800292 -0.543872245905242 0.19261975820007535 0.07264735379669644 0.23751150141515673 -0.23524110872896642 -0.004844826680368498 0.6101357915116271 0.1762851000840623 0.27152632997681475 ]
[ -0.2895237537711735 0.2558002733897491 -0.20488939664183786 -0.39910448395400866 0.4534587471263465 -0.17380928156379735 0.10097805830979356 -0.45135180451585905 0.18988957231164172 -0.23096630104261304 -0.21699036224565824 -0.027710114697994215 0.0765837248548027 0.12320843506951916 -0.22045267759593165 0.04126276006541712 0.3310669394330232 -0.1747580344265987 -0.2305936568382449 -0.09363006675181967 0.12687406307465668 0.34531823288653185 -0.15819263175432322 -0.2977651230887606 -0.20221225099972792 0.43755551155086214 -0.038786516578607697 -0.11825679125544895 -0.2628192421977672 -0.12407588055183567 -0.24387815967213408 0.06593832920164075 0.05108269539627662 -0.4681213246543646 -0.4340931175269575 -0.2731126622591671 0.3780452875731185 -0.10853808645306134 -0.15581970545562257 -0.03909642461461917 ]
[ 0.15510806434740435 -0.18665394422684656 -0.037410266298654786 0.07320873923053145 -0.016480405129647525 -0.10617400545593267 0.060345139947582095 0.2012361577596608 -0.15791175704318453 0.09260880408640768 -0.08736254057713583 0.02401559299942126 0.09358349362931495 0.2570991476605218 -0.29332661433478435 0.1787744471272293 -0.24592847912367372 0.4445888527946198 -0.11549766227676983 0.32011200055705685 -0.3468905548912581 -0.20757858510294175 -0.36709620342648885 -0.1885878613176238 0.11504161026916736 0.11839482500181492 0.16111696551726162 -0.39995395050248966 0.15535194994965215 0.24137662013659786 -0.35963177573202665 0.4507154150101366 0.3694480181646948 0.2547951960220511 0.08330083213696243 0.2625536992550244 -0.08630739389363755 0.20533842876735806 -0.12176881250201596 0.09671315396929878 ]
[ -0.09784019147036119 0.14981216593679167 -0.04563077273851426 0.3991617074820703 -0.14207369143512544 0.3081181870446745 0.19581402314856122 0.3518146933162958 0.5912087357420553 -0.023487156618547774 -0.3003555434974228 -0.04505434808668134 0.039046155075447585 -0.3785342621246552 -0.1392107915292422 0.1114391534739988 -0.485184707279618 -0.26503883923252575 0.05742328970655517 -0.0054588240672855445 -0.22955988728208593 -0.15103265381920375 -0.15534298770202154 0.2027866905520078 -0.44654539356598044 0.107652616062418 -0.05750494064380851 0.3364617242961472 -0.35092129980015496 0.08762690230464602 0.18170074997796568 0.42509130521496635 -0.16664724204915274 0.01635861157909681 0.1558028699364116 0.41267955249756155 -0.14060345584098952 -0.210977384059846 -0.20522804504892853 -0.4200394619855024 ]
[ 0.3609803056649218 0.2712992551065496 0.38685917868268566 0.09173173028618233 -0.695414508810913 -0.41492234441551146 -0.24623416007484417 -0.3963931993404541 0.3763277406373262 -0.4171699467729716 0.08895716725218443 0.3362610941098391 0.5241939644770307 -0.007038495534226093 -0.20192368895839627 -0.013726000633611964 0.17993421082645775 -0.8526339496706921 0.058980645717939935 0.43518629411583354 0.4476026766939635 0.5076077718224469 0.4067715482582304 0.501781793180164 0.0167432730884274 -0.7323242424796337 -0.9984240928896925 -0.3783552974286297 -0.07011191089292702 0.03848202500491153 0.06448522623262778 0.2579665366100665 -0.23811956499490858 -0.10655884524338044 -0.07229680618591858 -0.0990551622936058 -0.1906630692283768 -0.4177690403397675 0.9900499635399078 -0.15996063270465696 ]
[ -0.2110541211045164 0.05428105013642497 0.07171731826072189 -0.25292243578464246 0.197663990707814 -0.0016706394351785406 -0.1919435213301949 -0.644947351574708 -0.44093363018478515 0.0901478342482014 0.013973180630665289 -0.008482375418624222 0.21235318359801217 0.25131912311296395 0.3184645587195663 -0.37805701490061017 0.391362114380366 -0.05436613268927289 -0.14510169078052612 0.3205503796168337 0.13332209444794435 0.13188642146350274 -0.027524589500144976 -0.08345009709479904 0.31692603063812846 0.1136427462118999 -0.2039516952631427 0.05239588563899338 -0.00786651022696146 -0.15329308789071683 -0.6077632647416632 -0.14918743241466875 -0.6751006855133849 -0.0815500072587942 -0.22542442885316008 -0.030956585331112847 0.49902869585579257 0.27177433061696427 -0.06861396508659777 0.4846126086046201 ]
[ 0.2547752018243941 -0.20955646001465442 -0.19036127461438712 -0.11070976588612465 -0.4667911458957565 0.3805567718553304 0.12477685415441735 0.3622573674319293 -0.40672380095783783 0.4032708424588065 0.1335175850370176 -0.24240531173717228 -0.5606158967708579 0.3648386225779922 0.3142113509624488 -0.2529258985931376 -0.37807511033776814 0.08282004290200769 -0.07450669116715297 0.06392898805405217 -0.1077464986172704 -0.042194505979953764 -0.14954888571461047 -0.2532424486315782 -0.0758847307461349 -0.31396222735472307 0.6668924242805304 0.054736411355878596 -0.21865517456170688 -0.046822586883504616 0.13027544488746662 0.06589762865538573 -0.07923152391880953 0.36652553795217324 0.3325074036006358 0.33219424684780646 0.3074717824506993 0.4391658148410541 -0.18401248962273795 0.10461148353967296 ]
[ -0.3079293973025427 -0.031552519824458426 -0.10705549521651676 0.14799839653460226 0.051677432120181804 -0.06758259701375594 0.2543801579873662 0.09205125674532356 0.08915378206323891 0.01892896901380867 -0.24965066085249776 0.1574214197492419 0.1780102670294174 -0.4485394166988625 -0.08137135089636022 -0.07846980167788221 0.37851138317893795 -0.08998029524025328 -0.34179745979986487 -0.13936548116106892 -0.868482588253446 0.04037546414983619 -0.04636723883987038 0.021547308579991466 -0.4708628498576025 0.08603092836767462 -0.0306101053982407 -0.37928755659752955 0.3434673194007767 0.5684809707112478 -0.41966638653483374 0.5651287996543918 -0.21107671682803572 -0.2645144691754858 -0.21162273430667486 -0.10222010163748145 0.12079108159570699 0.16368112126629636 -0.47277029226312023 0.010534680564909088 ]
[ 0.1343120050937376 -0.02571902549803189 0.16383844401394096 -0.5772201970180869 0.5171411186574725 -0.597008226125034 -0.13882597954146864 0.5236474124329948 0.29100014819720604 0.09404809325009719 0.22918820346281252 0.01985253594516088 -0.2173593637587097 0.0012828018531528742 0.2864295414685331 0.02572304728237219 0.07428349207399748 0.19005730826325748 0.578847496953504 -0.36938755555406594 0.522205355521304 -0.03466465855619452 0.15464621153412733 0.22166500614111523 0.4304998253077035 0.040140923742922135 -0.28233077656344036 -0.5092541144682691 -0.2926576909501723 -0.7365869576566256 0.19274281623580317 0.10367642296491761 0.03809106511132473 -0.020370090251599637 0.4156483873295048 -0.4194488659501934 -0.1370540823581752 -0.021350858786033693 0.2843999546350701 -0.1681609416580345 ]
[ 0.08507351097433619 0.1905750477586826 0.07978324124532979 -0.5174566060193458 0.6320940145877941 -0.371143274082711 -0.4483907905860181 -0.22472819947572567 -0.2704661137765033 -0.13998862924680913 0.19965292151393066 0.19231247589479647 0.31367922685998817 0.5191404897318379 0.18123398446040234 0.12658700112423274 0.21031391442311556 0.2073035081009801 -0.16519814894065882 0.49200312229156934 -0.038664053978034484 -0.33771467728937643 -0.4569946727206681 -0.20385673364017393 -0.19191172502905632 -0.08560849153337234 0.20916673496593605 -0.2877486539172344 0.23457852297858284 0.18058284259211652 0.09214164238232411 -0.3205432128030067 -0.6908338309055901 0.4414224706491834 -0.3424616010307037 -0.41394580120835595 -0.2023812141253425 0.11371056674478573 0.08394965577289637 -0.471254377689148 ]
[ 0.3790149879708757 0.1019525742137193 0.2680533107320516 0.25295203265607874 -0.14818985839209037 -0.33951242728122943 0.3018310002644841 -0.36953869108701365 0.585456523480148 -0.16899202735014723 -0.2056489200754209 -0.059888795456614075 0.09199804308192151 -0.49511209230829273 -0.4831540151746782 -0.06149178509853251 -0.02348936867135242 -0.6804482833016239 0.2616225981755407 -0.06440351373301524 -0.004396102742485262 -0.16275840506055042 -0.2388342883463818 -0.20224681454482119 -0.18311993582178848 -0.46916749801242147 -0.7009236885725431 0.2539930744429619 -0.12671377100171738 -0.07613627191525774 -0.2118560744669883 0.5356778068393244 0.052131830398722205 -0.28021883902529404 -0.5794889635172085 -0.01238474867069862 0.1338935528988838 -0.36723357349371794 0.35130639767405863 -0.37970145133254496 ]
[ -0.5584145099995119 -0.5020853303991208 -0.287589939225069 -0.08530139112249509 -0.18453447692302583 0.5508839401281851 -0.11485702248867131 -0.40482556257085806 -0.6012220817760331 -0.29557711621624044 -0.28311486035474115 -0.6728304090740632 -0.16848632507745331 0.4668990268610134 0.08787448830538243 -0.08957180496611919 -0.23185938904786874 -0.2246415830840754 -0.5179736403409859 0.5488346473099445 0.14977323824067823 -0.44614792019318333 -0.2031412461632716 -0.010007108166059448 0.13212659974464308 0.42420879613205087 0.19728494832296914 0.35356207619650615 -0.24662658777600252 0.18608065259378853 -0.33170256338205206 -0.48847191233638515 0.07008476116050537 -0.06902360238552564 0.2027888876682378 -0.3005410295497597 0.7257091373806374 -0.027870095609479135 0.1644872885193452 0.2521024111953154 ]
[ 0.11305320939147054 0.2939088698859808 0.21878724949898162 0.41545613198281683 -0.5543638693312554 -0.3024018655345808 -0.16010158748502404 0.1593105397376553 0.25866505401372264 0.25739248418782107 -0.21026758276929605 0.06317477965166123 0.12045556813687064 0.06718721182214159 -0.13518640596990253 0.10201556955503685 -0.024246918199852436 -0.4848698352969658 0.07140643602153494 0.0838325038978996 0.7809204179581073 -0.14558913267629767 0.27860156706213657 -0.17382192750555425 -0.08364061666695267 -0.09258025144738707 -0.2957245210466813 0.3992498355827221 -0.39279977966484764 0.11960142618644871 0.43194680767753524 -0.20851649943875072 0.24556984327521 0.04730671962481241 0.5222848777052114 0.026818490170296725 -0.026369517011213213 0.32204644196593174 0.6196874533168153 -0.08527467028388709 ]
[ 0.0994433988277153 0.3214649246284383 0.06752219060768981 -0.6347413777429831 0.832831177435533 0.28649397562957224 0.28703398881748865 0.11026278530524758 0.2615978977449683 0.11191793994200681 0.018063838580811117 0.018582135727178022 -0.3631058389701482 0.02189469004761645 0.09556730256458543 -0.20115566112710928 -0.26819971670139786 0.17141064558779795 0.11838787098833171 0.1273878928334136 -0.1786138074396929 0.03839192316465412 -0.4062562948623842 -0.2897348172200317 -0.6670616663737252 0.43774835164408843 0.056829613161106594 0.0018841175289750372 -0.026650300852824875 0.10738398104973533 -0.5462329884540054 -0.015327977745663003 0.28992620478139797 -0.13037883073920606 -0.20694777279412094 0.20011714966128366 -0.17615649002229572 -0.10462080278764048 0.04093184762973182 0.014232459943063405 ]
[ 0.026563965243832144 0.15573197599995248 -0.36988466836591466 -0.251073394869496 0.23655867801597227 -0.238675139182664 0.35346197293622106 0.18570484835478313 0.008107388906503562 -0.16848648114385137 -0.006271845478840472 -0.16762021056722656 -0.31567506155761077 -0.22967572464368655 -0.058520463909212915 -0.045828759848825465 -0.17161518009098675 -0.25684652141192194 0.016777894496379103 -0.23503075497279316 -0.24013311312102723 -0.10194984179920386 -0.026688774891546405 -0.1844330659810472 0.34676855729039086 -0.10678624991651384 0.020819286627913124 0.03937799309298379 -0.23491768568105165 0.01307392925750712 -0.00696646200205973 -0.12778353328733288 0.4372494499624531 -0.04823901763674397 0.20543662501820514 -0.1782707621094391 0.18693454573997553 -0.2710339677987496 -0.09632388463925128 -0.27709845416521 ]
[ -0.02351669181104883 -0.09646197133086884 -0.03009233040027304 0.06272540594206177 -0.2775267587288637 0.43614495674131076 0.05177113708521825 0.3400778321673707 -0.31869081915099445 -0.21534697246272655 -0.0037452959990068087 -0.19615569967771307 -0.27847639285664716 -0.08499307566178647 0.17067061477065298 0.040845746367608037 -0.3279657199853158 -0.45262569496053606 0.025329636585021176 -0.11758266828810421 0.05825364023389111 0.050135528598652286 0.26160962939222887 -0.2982494214518257 -0.13813048588455729 0.36010121550372864 0.18251584216736982 0.1842897334162841 -0.17504509955219233 -0.04161643976703238 0.005521253605388709 -0.2746387755988183 0.2203701546426988 -0.2590391518297394 0.3329042939625104 -0.020140146190147184 0.4107374921742957 0.041004210446552974 -0.12014962025862029 0.21391188684884624 ]
[ 0.0837246511315269 -0.014926198808360613 -0.11334917333671836 -0.0997157154697382 -0.010744066426663567 0.11816391155829473 -0.09941819516455477 -0.11419558166983684 -0.0750741288214351 0.30608389745436715 -0.02843500317701319 -0.029117194917779355 0.11668933397663228 0.05897866897979065 -0.2209857296068371 0.2945020219286083 0.1822403526999647 -0.27782425288312274 -0.21803532958192817 0.07049986479815998 -0.17130104334997903 0.1664606634550435 0.1654037324326239 0.15851520344118009 -0.12902568056679187 -0.16675602549052349 0.11142617336865747 -0.11597596526490492 -0.26792951334137083 -0.00882202860371656 -0.102815442051589 0.14172976370479198 0.10393482016671567 0.1400381317515393 0.00291500567598476 0.27529966578092235 0.10429503146162866 0.04952128133900647 -0.19988503727878623 0.2645475435715208 ]
[ -0.3064827703350393 -0.3170249652296423 -0.30074167880420505 0.29088706673768566 0.13325706276464697 -0.18015790006523552 0.0402678674456545 0.05014058810525245 0.47723227651120464 -0.21647407193461257 -0.07542348460558301 -0.025154265864021762 0.2610278461219698 -0.4707116515144363 -0.3020675636217453 0.0015850635175030164 0.41140485322161696 0.38971770266783146 -0.16439100434656484 -0.10840507068263167 -0.06268075969438418 -0.03676352868366984 0.013292661295281253 0.22190623096007348 -0.4060408015537992 0.02761907536051325 -0.26070927311834063 0.24956796265080705 0.31568256401807376 -0.21647898871316662 -0.12418924658647164 0.29706789289098096 -0.2725199660790235 -0.03694509529307271 -0.6258985036976149 -0.2151344834018469 0.14816255398323788 -0.3805610702045699 -0.36784787187301765 -0.3372315747056074 ]
[ 0.1332282530210004 -0.10382092958275284 -0.043799165958769634 0.0009332701632203365 -0.01969473889267537 0.048354577733395195 -0.026416104195124485 0.06997606601643765 0.09961279054935528 0.17233596529350578 0.11073045413194059 -0.15591873519709262 -0.1738922194475978 0.23154941784317565 -0.03159765340218372 0.1024609865368581 0.08983532136484186 0.3264105457457191 0.08616979514254132 0.2263162363683932 -0.2662566707736042 -0.15371330168536407 -0.06865079299169999 -0.06203535421421455 0.10026046955268911 -0.13003525834063423 0.11408226506621458 -0.3999816674374108 0.1730257052867202 -0.04446485461099155 0.22451204174348274 0.03639065614991474 0.17105705796187884 0.20892117274664693 0.09449292483574377 0.03769213788850529 -0.1330701313959271 0.14560220880724808 -0.1712920625304312 -0.00493264201090841 ]
layer 3 Activation
tanh
layer 4 Dense
40 20
[ -0.2519570390907074 0.08804980745185893 0.38988177190482237 -0.14762856492143958 -0.09707227093911486 0.16848654638579239 -0.2784479520715222 0.22095326133354729 -0.31914212466761616 0.18133151104968218 -0.4442038786087189 -0.30032465292310007 -0.20875435339784268 -0.11031681712086994 -0.10198414915585635 0.20342780315832873 0.11640491701596396 0.2248574911530337 0.11447039666821693 -0.23210346636020876 ]
[ -0.040974978686665546 -0.11057598684977796 -0.14525049172830662 0.24177705354134335 -0.05046691770144454 -0.24253320636870335 -0.4107109546947769 0.20713712384456937 -0.09434538562150087 -0.3431425374938663 0.29226289369287883 0.008146526773368232 0.46570629986593304 -0.051701727056576746 -0.706167203751373 -0.34171107615768864 0.16855241323204195 0.09533263951240485 0.21402144938935644 0.14880343434032373 ]
[ -0.13888221714169827 -0.16857759516688905 -0.0833792542119079 -0.1984067088726627 -0.024991686964514724 -0.20928354314731762 -0.32140477864173594 0.23619891590019354 0.031208979105230683 0.05820234116375932 -0.20518604962535808 -0.22811675760137243 -0.15444718364743393 -0.3625634774432381 -0.16951051194279135 -0.01211677503855979 -0.1299583060716635 -0.04548272563536555 0.16110774850964446 0.18344731414205367 ]
[ -0.2490288502590238 -0.2108684871668242 -0.3134132889902667 0.18998157495729107 -0.05221807125344385 0.29602653790632966 -0.0849301122154582 -0.013526740821164838 0.27969022643963426 0.12830873744612867 -0.5374831344696867 -0.337885540044516 -0.32483487745471507 -0.036649187409937584 0.07716621360552922 0.34198700341039523 -0.09813918308830358 0.44322903434003963 0.22527091732151505 0.04926940645333689 ]
[ 0.05390408292896536 -0.07518908414267637 0.20985538439058748 -0.1185536347335483 0.1469151941894484 -0.23384175677452554 -0.05588711676497306 -0.32961123400076 -0.3407794791939894 -0.011700211024288162 0.5910999206909714 0.38292553461334333 0.4686606002734335 -0.04333734749888121 -0.3301073299093863 -0.1405575377510601 0.3718625944154464 -0.4449513495922307 -0.36201451107891225 0.043141166917562576 ]
[ 0.18827940813252755 -0.18758868240610352 0.31463302447497027 -0.11650277705074953 -0.08177260709759641 0.22610070608182928 0.40748177960472054 -0.21173813609581302 0.20614141431345556 -0.0174842867915639 0.20758457622297957 0.18038218157016145 -0.22916373080822208 0.14963198463726918 0.43703295164734707 -0.21514663805459047 0.3889745131225348 -0.08510388107147902 0.3740531752775635 -0.16649451563862938 ]
[ -0.19013841132896755 0.23882743528707034 -0.07769670134985719 -0.2447535969190064 0.024840044349605992 -0.10136630311049466 -0.0829074995360062 -0.2566836232327991 0.16904007023383538 -0.10976425410854342 0.26824831150736383 -0.02810023756442687 0.36804709768574817 0.08181088156334954 0.0349545763265854 -0.1635939264893582 0.15838526750106055 0.2517285237613897 0.3571006599092233 -0.3096600882872799 ]
[ 0.3458679896338858 -0.2273545074966417 -0.25153641410487587 -0.16907650100191532 0.20584721949206197 0.41900637569296495 -0.44903014687726334 0.01857354666401305 0.23324310691245365 0.1666254621658853 0.21798915264017635 -0.41354993061581424 0.30481043909871247 0.34676584380639036 -0.05040028186971756 0.44827858531237136 0.18235309328738117 0.026127753123310518 -0.05028593902996441 -0.41556143788602506 ]
[ -0.23221711999402322 0.06402580069904094 -0.42277523582023946 0.2771902176821132 0.24337380242266732 0.31038812935500804 0.06174605231602309 0.039168028992663716 -0.18840101085080127 -0.32386249219689683 -0.11607010781812535 -0.36384540426480827 0.28968736174478266 -0.30503732296454006 0.2491888244671973 0.10185743505861311 -0.06229035198298997 0.416588330444763 -0.2675508366589547 0.29860346435278184 ]
[ -0.15730652819843072 -0.007583307415640006 0.13692077933647814 0.24250194922707305 -0.2547120214358336 -0.17439281652805183 -0.16212169629068357 -0.06197130218639382 -0.1940586910878904 0.08115150699260094 -0.0568083042527738 -0.17775740700378434 -0.0732816154202146 0.09313533297194204 0.2570183213710944 0.26429288611437485 0.10478079963057754 0.055824313803761176 0.44096746056676966 -0.32814814079494625 ]
[ 0.224976543865609 -0.003940957772227271 0.007675739792832382 -0.17736888255849026 -0.15011589115595114 -0.18834413013127538 -0.380782384570268 0.21577889126265717 -0.2578992040056079 -0.041112544742463494 -0.23396797026357732 -0.21789066840512694 -0.22333829787213558 -0.050389547650432166 0.01595471444019903 0.05430821716267688 0.24544647682719203 -0.05382292870415152 0.001978301961635304 0.16949200394096725 ]
[ -0.1124816190642963 0.28451823775419494 -0.0076581801071843765 -0.20042668120428708 -0.13763900959645117 -0.0789202122561087 -0.3273960483540486 -0.16422235625778442 -0.07213741760193487 -0.17292116589542395 0.09436170286617726 -0.06256599779019593 0.055783516228334225 -0.06292806407544807 -0.4329581071458746 -0.32571114831592124 -0.1900777312273558 0.05476419098674167 0.04850378951580379 -0.14442161262130518 ]
[ -0.3988859298072011 0.22775574138655566 -0.2897111247411524 0.050791277815136975 0.17728754771510882 -0.08972952693138876 -0.09305309895226295 0.07947167652152916 -0.12004605892594765 -0.194269129737283 -0.12416621633532939 0.277895423879949 -0.08525388361725872 -0.14638996512877075 0.025035425992756172 -0.3618502673890911 -0.18517230559129733 0.18584391660759986 0.05486857549035718 0.08442003312188504 ]
[ 0.3857867752744651 0.20024882019546514 0.25509027124207756 0.031284191021181386 0.2126825632361513 -0.0552006975175455 0.01215965484684149 0.22882518244519992 0.06310218085270541 0.5094697646129233 -0.05723268765105505 -0.29390310743749215 -0.32258758934356596 -0.2612036625845719 -0.21032996335074616 0.38616879370345253 -0.11834556914599346 -0.37931755627878133 0.053365437607656115 -0.11352172055132508 ]
[ 0.05627385595800821 0.2748107821227149 -0.08200937651402027 0.2509205633809206 -0.3243869507967019 -0.2945319953945709 -0.07784895245162246 -0.029209427621921177 -0.2458872773709433 -0.07541634488105149 -0.28312803212094534 0.05848496758639262 -0.2716914221247815 0.10376929029972425 -0.14112050095842782 0.3456778640986937 0.1938434246629685 -0.33515452509039084 -0.135212675042846 -0.22914286112751683 ]
[ 0.17613218338142328 0.0530403361391746 0.017358544543490895 0.28800974454588496 -0.17239859652501496 0.12418454527778079 -0.19481096435067743 0.011333461742674305 -0.08984403805180462 0.03783795041490944 0.29456288832380656 -0.060234546553991 -0.2511534048718793 0.09914371740203644 -0.22211965828455701 -0.08785234306449756 -0.11266708436754333 0.15217244725621756 -0.20114833709224947 -0.2029413415304067 ]
[ -0.17987528799079786 0.04603192803353307 -0.011255252319234493 -0.12331091199637127 0.10867883373851628 -0.0795823789740672 0.015345060287746489 0.28932452751059634 -0.13676841031251424 0.291173479625847 -0.027821913417066923 -0.06740560296843337 -0.5095182810017297 -0.21669699632545195 -0.29076386859692227 0.09224858449881464 -0.3390193992099206 -0.20883708270868293 -0.42908993281194185 0.16488513423551956 ]
[ 0.37081368211419136 -0.24258990798880026 0.5775865760904161 0.06991214884442354 0.20924784184138007 -0.2591701495021981 -0.3689681933356545 -0.3773546045000666 -0.28833558026064404 0.020337780514720624 0.06724540163528256 -0.25965691760689513 -0.301904539084998 0.12188653119052484 -0.16404748894675286 -0.15013344635718076 0.06014380537887228 -0.04158450766363126 0.0671326689312028 -0.5509103126272566 ]
[ 0.2770624366915442 -0.015616164117728482 0.271732124739744 -0.0018777663510235964 -0.09524559237278517 -0.0038055739205828717 -0.21879974973789976 0.060101199279395306 -0.3212300613101364 0.20045086365612955 -0.3620761415988838 -0.29624255818048023 0.3028889331415794 0.19645070354861008 0.0637878087316278 -0.06619235520580834 -0.14074823454987387 0.2616625092561637 0.11594861378884587 0.13530007836583857 ]
[ -0.29057026375223727 0.13181497760097177 0.12771496152744957 -0.18187456065289942 -0.1376821957545015 -0.3198560604051054 -0.053386515039608 0.051755487492073246 0.23503243503572713 0.36554407807147027 -0.2185367665656822 0.039692927572716696 -0.38261531485449884 -0.20310726797972098 -0.04909402344927873 0.11207509094847755 -0.006562236718108267 -0.2105402320619796 0.08155807114008999 -0.09339266952565013 ]
[ 0.24710867710853074 0.3433921604729969 -0.16794858652679023 -0.3061747350141732 0.15996033459291684 -0.39343831490725567 0.04284997083596589 0.24018431508890664 0.16820977592626424 -0.2685546592660885 -0.1654428255233572 -0.06071335039648703 -0.17554665112580706 0.3652653134087445 -0.386819969471193 -0.0799915151000421 -0.26932890556590106 0.26275171820431364 -0.2655967177798781 -0.19876877010702668 ]
[ 0.05745349387760514 0.14750575542828662 -0.2389286295306151 -0.07615670089565899 -0.20051290223173637 -0.14578049972832496 0.12493842951622475 0.21699207731707953 -0.05846381088001851 -0.3058431380821609 0.19885329975198768 -0.14327696783776747 -0.19917573231657623 -0.28599735889740063 -0.6246103834215527 -0.21595210562871697 -0.030285783057335463 -0.06515333014226668 -0.3115194764453875 0.4700663147260327 ]
[ -0.033865978000064266 -0.23526799318076055 -0.34083686503441163 -0.1340711972157826 0.1261793838777945 0.09174005659590542 0.3038206969211299 -0.16061520231483623 0.22903786569030843 -0.1458878442614787 -0.018019789787218944 -0.29216340821824893 -0.34271172707003206 0.2771096943312072 -0.06922848893944278 0.31514718666661184 -0.17559000040706318 0.07773542253508244 0.13191886857291032 0.3566011336106909 ]
[ -0.26447550421465826 -0.014208659429973765 0.052508161633966995 0.21960554888532743 -0.015337577239988217 -0.004090626108676869 0.07914655646147956 -0.07062174725574862 -0.06509187917476487 -0.1643848167216031 -0.13658280297387798 -0.24295157376425056 -0.3313750399418787 -0.1893237460785898 -0.494414638676981 0.09509802811565037 -0.3222601367663271 0.26810720237811225 -0.4025873465193507 0.0987306138055133 ]
[ 0.17680778440666528 0.06482809434468545 0.1452349457270643 -0.23078177556749827 -0.10002994102490788 -0.1258785693806841 0.16346613066284443 -0.17485316948893515 0.21615726189189371 0.2692886680520075 0.07076996266645967 -0.05798242591149395 -0.33989089824594304 0.16994672644681363 -0.029117643752793455 0.40273174876566153 0.04433053961489242 0.08456686292941441 -0.021988450624039806 0.25016278371108236 ]
[ 0.2647278589607857 0.09197993725549758 -0.3233714149679441 0.10427715145269674 -0.26840966883304207 -0.06055431971819469 0.15276132007607837 -0.1684849498184822 -0.04267331866702469 -0.32054091253405825 0.20412404966216866 0.08446118524282697 -0.046999766116868236 0.10815956297944973 0.4390645023127444 -0.12588003986447446 0.23109580784096218 -0.37911373923786645 0.10750789689772801 -0.24092961115957737 ]
[ 0.3591812649610436 0.14121831110959993 0.13368084888988296 0.017348367173115834 0.13102542575086776 0.16990073013763407 0.12790727454211084 -0.08443160044097199 -0.2845211641130281 0.20989285122998141 0.4384411692064144 -0.14463748064000675 -0.17967813536448402 0.37646732771168434 0.413492521105289 0.024196813032300167 0.20672888836051517 -0.42829236572593893 0.285566211810725 -0.5464803149699238 ]
[ -0.13555110495901238 -0.06256545065495533 0.12742693524615128 0.03560165920592557 0.1609836444073511 -0.0607854991637798 0.5544574038016036 -0.09278689910619715 0.28737300214022143 -0.20840894220012413 -0.18550412195543767 0.23340053407683956 -0.008610535470125798 0.23958710100355873 -0.1344526967461382 -0.03994936436292637 0.039383457230452945 0.17329010600087832 0.12595189717566152 0.024177500309035573 ]
[ 0.12024068765053744 0.2998433361007842 0.3282729381854438 -0.11999020685613317 -0.24002651711613354 -0.24661907859419227 0.14020839622489345 -0.3167943485169049 -0.4600685579134044 0.5177268916586742 -0.23509694619247948 0.018469182591732348 -0.22270764191021503 -0.36785545456696733 0.01959342330629615 -0.5123362499388331 -0.12055284055291528 -0.612635116257518 -0.486967153276937 0.12188037779865099 ]
[ -0.22287212561697728 0.1138850018129374 -0.27685882333727835 0.13798656685524044 -0.10750264484230294 0.09887707575678362 0.18725628112401121 -0.31817154424145616 0.15935798125740175 0.1735990652374234 -0.1585993217564966 -0.11859457552341761 -0.16994130482532982 -0.2507324751955495 0.5614480936951124 -0.3246543019848517 -0.18834553746988272 -0.0986432667545492 0.3490627845992483 -0.3965985457289147 ]
[ -0.11182098892450663 -0.0007930660226148666 0.3730316654931392 -0.1528897469454248 -0.4053936535774453 -0.1750854528506113 5.636414870279741e-05 0.14364754889687145 -0.21241779988134302 0.09996371783785005 -0.3312981097417645 -0.17694925783828316 -0.2623461582420865 0.3691720886382008 -0.231401313437686 0.2734004323036906 -0.11974925129008013 0.18504807788539135 -0.16688650141797157 -0.05650318965477902 ]
[ -0.2261556464636092 0.09414861739916731 -0.5022487327125723 0.17424687282183343 -0.03804932855583629 0.35989168646037606 -0.012628251141101027 -0.30848646908771404 0.19092747810955057 -0.15485136159654905 -0.06955930227785112 -0.05463782204604435 -0.03492887702943342 0.1749325904583119 0.31018235118177206 -0.09136213482224896 -0.19668470754167675 0.16436585828014624 0.24485757649519035 0.13112534395406866 ]
[ 0.4227316471962589 0.20390448504129147 0.2506918173742837 -0.07468180107495596 0.018329447638292633 0.3129747568580041 0.18142815597822692 0.17824985360886744 -0.10389935238206237 -0.1067753101425576 0.22369867042064537 -0.28666595033546166 0.29602025723738545 0.16629798384640887 0.0658916347986392 0.43274763228909185 0.3905860312716022 0.3219832685825095 0.314708808207375 -0.16125426005647014 ]
[ -0.0739553563062617 -0.02946744497330487 0.19883465924427407 0.11452462670646057 0.07973559376483269 -0.09422596276233533 -0.24996471870874543 -0.16166354096276284 -0.003919588514637639 0.1958512606774529 -0.14055960702075485 -0.1429828522000546 0.11203439982835182 0.25013199307306816 0.3293923477337719 0.02173112816463956 0.15196045590088217 -0.162682665221955 -0.012664603798757694 -0.03225952818622378 ]
[ -0.05155397476337678 0.01991969656853458 0.2701298846405475 -0.07437394592311596 0.0053055308187249794 0.11611050945842381 0.030741294392732696 0.1503696954283084 0.2921639137837079 -0.19004935629299446 -0.29829878407168403 -0.16742306111063437 0.3163497214035915 0.20717221772377226 -0.07457543763722391 0.25925173684135655 0.19840068326293586 0.4011546231116232 0.43132357631366186 -0.0501802170546558 ]
[ -0.11967321571963008 0.2913775297783496 -0.22054778208731704 0.15797383932143633 0.01640336302237091 0.2994271535120907 -0.09357985897615918 -0.14972169121524156 0.16797827447451608 0.15330165638998644 -0.276663681766726 -0.008212953529908886 -0.0908496939806802 0.2625318901688264 0.24885559642932367 -0.13075985619162275 0.31410548558479867 0.3232777156018615 0.3650442594730773 -0.014093759527488016 ]
[ 0.2957543148040297 0.12050679164560184 0.19361759011233234 0.08574963896645224 -0.21746350664087086 -0.12940883853524937 0.3158627556180152 0.018743331828383374 0.3389909418188907 -0.17064799427062846 -0.11102380697304662 -0.04969410868592791 -0.15196528144557203 -0.1571406771465548 0.1415067605114115 -0.14324720008987876 0.21809415240130423 -0.09817670488336912 -0.3384648912920118 0.1726019620598427 ]
[ -0.22208392574309352 0.13496131206930692 0.09966421359530943 0.22998682488834446 0.10836461307678004 -0.30276905413516525 0.2604028603703686 -0.11433372695407293 -0.3359519464137299 0.16570101176396693 -0.38950602971357834 -0.29876670628647606 -0.5980732538169511 -0.12103814940082747 0.19305964876136958 0.11877890341896022 0.4235640634364452 -0.015917208587012 -0.019760363459448364 -0.29914872839398066 ]
[ -0.12672043599087188 -0.04022103730687675 -0.1593442133125008 0.20778742615835546 0.1414542354678696 -0.46817765040563436 -0.2887780794195618 0.39908230096218295 0.2451325801817157 0.004357938821357368 -0.5139795945722417 0.04445110885094359 0.34298314874231695 -0.25918603209564883 -0.5647445416323285 0.1451577402605844 -0.20918926930366577 0.42104852264217546 -0.00421200692515504 0.087370741610495 ]
[ 0.08113330008180772 -0.19157489641933964 0.30461566713221955 -0.021280363972671683 0.18294167524553706 -0.08503369265992029 0.2662134250555038 0.1990808357419703 0.044925223069935204 -0.09711967712928286 0.09981596163391554 -0.05412347372014229 -0.4853407414549201 -0.054058084801392056 0.024273279846840683 0.15288387415804883 0.30442893254480513 -0.2769296970265734 -0.13237894717383658 0.1405821643902382 ]
[ 0.07295366150763284 0.042582667642003746 0.13741567910021218 0.1208660581113305 -0.0028330467441741395 -0.01793134189594749 -0.019327312444972114 -0.08393541164924836 -0.08743375901890468 0.2281955162690082 -0.03268011848954942 0.00915621020891388 -0.05479799739054542 0.056519186118902845 0.3682860223829358 0.04216339089822193 0.06275427539269139 0.1512423959906246 -0.0008502797175156138 -0.131530061161918 ]
layer 5 Activation
tanh
layer 6 Dense
20 1
[ -0.2877849429602217 ]
[ 0.005903018273183472 ]
[ -0.29115490729997806 ]
[ 0.002793978346242012 ]
[ 0.00020576469412341282 ]
[ 0.3055208211002723 ]
[ -0.285972957133809 ]
[ 0.2256823957436915 ]
[ 0.41366057771410675 ]
[ -0.2178184415707352 ]
[ -0.09538952517787225 ]
[ -0.3717988679329349 ]
[ 0.1017653549554915 ]
[ 0.4009841700008864 ]
[ -0.05082213184531256 ]
[ 0.19196753850551185 ]
[ -0.30903192936254525 ]
[ -0.21890079955423092 ]
[ 0.14763503029953126 ]
[ 0.08219805731042229 ]
[ 0.030511280073209177 ]
