layers 7
layer 0 Dense
20 20
[ 0.1727874  -0.9187642   0.7420075  -0.91801     0.545602    0.88627905
  0.19399728  0.06344549 -0.96460295 -1.3253219  -0.02490145  1.1202707
 -0.47429946  0.0343309   0.27184156 -0.16816096  0.2362291   0.15090497
 -0.974609    0.69116277]
[ 0.14235136  0.319663    0.08648389 -0.5916585   0.10010424 -0.1043774
 -0.59374756 -0.524355   -0.69816214 -0.66351444  0.5697539  -0.57733285
  0.22303249  0.87500906  1.4930724   0.22333388 -0.08221886  0.23128639
 -0.6783211   0.8259152 ]
[ 0.20015702  0.00547822  0.21736008 -0.3987221  -0.23486707  0.66580826
 -0.26128876 -0.25220057 -0.79123765 -0.17763525  0.46344665 -1.0105113
  0.8511366   0.48031837  1.0151163   0.17665368  0.24753447  0.37930742
 -0.1835321   0.80668044]
[ 0.21570249 -0.33131275  0.7614406  -0.61726326  0.41036835  0.84723604
  0.10727742 -0.640872   -1.0225794  -1.028219   -0.23046695  0.31912535
  0.20882507  0.61193544  0.5645948  -0.65263474  0.13535777 -0.00611673
 -0.89120364  1.4860054 ]
[ 0.9095835   1.416504    0.7404721  -0.3829822  -0.4210146   1.0497701
  1.3902956  -0.5693548   0.7482862   0.09633265 -0.36894163  0.05857367
  0.3724237  -0.06818357 -0.2618409   1.7408422  -0.691848   -1.3207474
 -0.38189334 -0.37931877]
[ 0.5636848  -0.01990145  0.6339765  -0.4043604  -0.2708148   0.36449808
 -0.5466778  -0.27237043 -0.16250259 -0.42636865  0.5382843  -1.2235674
  0.8399107   0.55202186  1.1958368   0.00893814  0.29198647  0.225008
 -0.7995051   0.5579195 ]
[ 0.09083369  0.55673784  0.08355484 -1.0225253  -0.5087335   0.6559376
 -0.68009996 -0.315365   -0.8036553  -0.57355833  0.2567668  -0.6222503
  0.63112396  1.0253325   1.3129852  -0.20541528 -0.03973606  0.22914606
 -0.49658632  0.8435097 ]
[-1.7057341  -1.5818021  -1.4440131   1.3358961   1.0606091  -1.5336622
  0.35877478  1.3481281   0.61114377  0.32645008 -0.7251385   0.88517684
 -1.4312403  -1.2112954  -2.4771953  -0.9660139   0.03471946 -0.26077518
  0.8540348  -1.0164294 ]
[ 1.1444855   0.4786965   1.3245268  -2.5833156   1.7317196   0.6421764
  0.8768246  -0.41416535 -0.02939624 -0.44286898 -1.8886883   0.00895523
 -2.5899863   1.6022934   0.8411791  -0.15029791  0.54147834 -0.8611635
 -0.37998605 -0.7386857 ]
[ 1.0083694   0.32594585  0.2062142  -0.25327206  2.4539537   0.25115946
 -0.5752108   2.5287642   0.79952693  0.9205394   1.5592903   3.0927641
 -0.52434117  1.0361705  -1.2203902  -1.1307596  -2.2395723   1.6182578
  0.14930065 -0.18400018]
[-0.30674353 -0.3105069   1.5608321   0.18973896  1.8315892  -0.02817924
 -1.0389354  -0.3706017  -3.5239859  -0.23472793 -1.3100115   1.0577843
  1.8675961  -2.5778027   2.063289   -1.8352743  -1.881158   -0.18361767
 -1.0172415  -0.20181021]
[ 1.5432016   1.7792461   2.922395   -3.0081763   2.84536     2.1906757
  1.6865493  -0.8268417  -2.3565376  -0.14977126 -3.4238207  -1.5547107
 -1.2976538   3.6720173   1.3496498   0.21458453 -0.25446787 -1.8387727
  0.8702883  -1.5889322 ]
[-0.01017645  0.2852865   0.18511634  0.54752254  0.07803899  1.0825417
  0.7225046   0.61839     0.54807174  0.95800215 -0.21963386  0.67704934
 -1.4845701  -0.9184151  -1.9182237   0.1166003  -0.41729814  1.6027907
  0.03962098  0.2055076 ]
[-2.5992663   0.7723497  -1.8917087  -0.5169582  -1.881148    0.19074984
  2.8479068  -2.572753    0.7105792  -0.49538186 -0.28671464 -0.16462918
  0.81037503 -0.84539396  1.2813523   2.6196804  -0.5731851   0.34804058
  0.47800422 -0.16623113]
[ 0.9672006   0.85607016 -1.0355792   0.99814045 -0.55828935 -0.46881822
  0.2640708   0.30827165  1.2458259   1.0730406  -1.0609748  -1.1838708
  0.3727963  -0.16233988 -0.15283486  0.59912544 -0.15883566  1.3247454
  0.03223243 -0.04863299]
[-1.9089744  -0.80758643 -0.6274058   0.3202638  -0.87916607  1.8109022
  0.9876154   0.35554367 -0.8027429   2.35051     0.9960323   0.8460724
 -0.5691091  -1.2845336  -1.1877189   0.42877206  0.53492606  3.1134276
  4.0974617   0.5287437 ]
[-1.4638197  -1.7380115  -0.30328837  1.2613852  -1.0477275  -0.3541546
  1.6415051  -0.51062775 -0.8148128  -1.6814449   1.1332124   3.0827549
  1.523163   -1.7406536  -0.08533728  0.92465067 -0.29754123 -1.9919649
  0.07950425 -0.62066555]
[ 1.0701647  -0.50003237  0.42804015  1.2938973  -0.02364849 -0.33876702
 -1.5376952  -0.22942288 -1.3198928   0.14382143 -1.2282194  -1.4464054
 -0.871195   -0.11456567 -0.8890961  -1.6959058   2.9768546  -0.9670202
 -0.59482574  0.10560958]
[-0.98387676 -0.5109289   0.41004035 -1.1019894  -0.705846    0.5588492
  0.5836849  -0.43342867  0.6433004  -0.8548289   2.2380054   0.71727973
 -2.8201747   2.312523   -1.1204953   1.0091188   2.6036758  -1.8263013
  0.5682341  -0.06956755]
[-1.1500146  -3.9562483  -0.75462306  0.07489551  1.0432433  -2.4127853
 -1.4460979   1.488131    0.26837155 -3.2098563  -0.61745423  2.629771
 -1.0895735  -0.3035646  -0.38969788 -1.7568259  -0.56000274 -0.36242646
 -2.324318    0.15184695]
[ 0.510811    0.34981355  0.5092811  -0.74388236 -0.29835966  0.36088747
 -0.6621728  -0.5773573  -0.6848434  -0.3916967   0.42905688 -1.0860282
  0.7510968   0.92937976  1.4589036  -0.14811143  0.39529604  0.73715186
 -0.5784641   1.6315039 ]
layer 1 Activation
tanh
layer 2 Dense
20 40
[ 1.3779495  -0.25475815  0.14977674  0.36379153  0.2241028   0.14505138
  0.863217   -0.6847737  -0.25114128  0.47242153  1.2852765   1.6094447
  0.13340537  0.26837274  1.7950524   0.04828081 -1.1699932   1.2665808
  0.74164236 -1.162739    0.6364389   0.5085435  -0.518442   -0.67406845
  0.34383082 -0.18183182 -0.5811713  -0.22079036  0.5304016   1.0209054
  0.8040856  -0.6611083  -0.8425599   0.17773533 -0.44002876  0.5949969
 -1.6844054  -1.5026492   0.06276781  0.5496015 ]
[ 1.0950569   1.5211892   0.18035017 -0.33013123  0.7285488   0.66544026
  2.059797   -1.3753138   1.2169456   1.9142927  -0.99743855  0.35093707
  2.141278    2.331649   -0.19039537  0.17553563 -1.1833417  -0.2058255
  0.21149673 -2.2247236  -1.9631875   1.170609   -0.29113245  0.44026637
  2.402359    1.246162   -1.33497     0.12656106  0.72895944  0.18979277
 -0.47635475 -0.47142836 -0.40121523  0.02395426 -0.38694808 -0.0175392
 -1.6347225  -0.09960794  0.5375122   0.17852145]
[-0.32343647 -1.1142147  -0.3884031  -0.6087707   1.3386027  -0.77964765
 -0.17789666 -1.0894532   0.06767047  1.4331157   1.076756    0.29951897
 -1.1179291   0.71334714 -0.79312766 -0.7774514   0.18163776  0.15868855
  1.1240102  -0.25658095  0.03413993  0.2097188  -0.29591683 -0.8719644
  0.60569143 -0.00504683 -0.2936299  -0.20006801 -1.156009   -0.89599645
  0.38432038 -1.177246    0.6305366   0.06628646  0.2121416  -0.07843284
  0.719314    0.46258062  1.0248579  -1.07072   ]
[ 0.10804764  1.1981553  -0.5532526  -1.3082874   1.2725269  -0.76318806
 -0.8797947   0.69430447  1.6386448  -0.6549732   1.5641732  -1.4940815
  0.4216091   1.60893     0.06460188  1.0378972   1.3642392  -0.260437
 -1.3406575   0.5604692   1.3772147   0.45315433  0.8432737   0.83051616
  1.90993    -0.9077901  -0.43161345  1.8841585   1.5365341   0.70986813
 -1.395266   -0.03948778 -0.16420919  0.9785355  -0.30353215 -0.61784226
 -1.1014813  -1.7983452  -0.13326761 -1.1920786 ]
[ 0.6572761  -0.9147058  -1.8565141  -0.6721731   1.8713279   0.37290016
  0.4364419  -0.50563586 -0.40187496  0.9587483   0.17489025 -0.1366352
 -1.2666056   0.02817971 -1.636311    0.15962443 -0.61137164 -0.50405973
  0.14726357 -1.1936964   2.0429428   0.02230835 -0.03753093 -1.3457444
 -2.261202   -1.4867009  -1.1806475  -1.9116962  -0.7211187  -0.14922975
  0.5069992   0.7731641  -1.2729455   0.133954   -0.64973986 -1.4404844
 -0.8172932  -0.5421114   0.5360612   1.4715976 ]
[ 0.6707366  -1.9096266   0.44174653 -0.38726503 -0.2177975  -1.0658575
  0.13923003 -1.7290245  -0.7981697   1.9993219  -0.63093555 -0.5007051
  0.52664596 -1.656932    0.13160065 -2.131492   -1.7798688  -1.6844144
  0.7102323  -0.28942487 -2.1929011  -1.7198279  -1.3202779   0.6847439
 -0.07512759  1.1365392   1.2371458   1.0334783  -1.2995876  -0.16060536
  0.13043928 -0.25652772  0.24583952 -1.2120793   1.2190259   1.5796576
 -0.6829569   1.8232023   0.61069494 -1.1741588 ]
[-1.0661577  -0.36373731  1.1096928   0.404554   -0.09008682  0.7150549
 -0.44121182 -0.3929439   0.17500144 -0.27927685  0.2281131  -0.00997389
  1.0018339  -0.89830357 -0.04114128  0.79592234 -1.1300354   0.8430012
 -0.76798064 -0.7508122  -1.9494963  -1.3549154  -1.0482539   1.4729601
  0.6253399   2.1988068  -0.80813265  0.44858998 -0.0372089   0.28452557
 -1.0497526  -1.6024165   0.80015016 -0.29353315 -0.5563517  -0.8161092
  1.9078023   0.64530975 -0.6530943   0.483368  ]
[ 0.5499107  -0.595869   -0.980919   -0.08441252 -0.2296102   0.54688483
  0.01303679 -0.92101824 -0.25022566 -1.8745148  -1.1619234  -0.68239886
 -0.585875    0.30703297  0.8773787   1.3521783   0.26373687 -0.14887583
  0.6406771   1.0168152   0.48721138 -0.22710046  0.2017533  -1.2554325
 -0.69665736  0.35683388  1.132841   -0.6051368  -0.36693388 -0.83683074
  0.438558   -1.1314272  -0.2918541   0.3090442  -0.62203133 -0.29979613
  0.26267213 -1.4187229  -0.10383555  1.101264  ]
[ 2.0712786   0.5558226  -0.8389431   1.0018257  -1.3959864  -0.18028633
  1.1628631   1.0403582  -0.83195066 -0.8524533  -1.7821729   0.2405972
  1.5329416   0.5186465   2.8180916  -0.41406435  0.28125662 -0.68616354
  1.1632783  -0.07531917 -0.4982099   1.199055    1.3891417   0.84106106
 -0.3055827   0.996942    0.5589126  -2.2360475  -1.1570059  -0.8776232
 -0.6827613   0.9397299   0.6295402   1.3365386   0.04022378  0.49741334
 -0.4364      2.527548    0.28382248  0.04668709]
[ 0.8277741   1.2681643  -0.8019804  -0.17528975 -0.5918783   0.4212777
 -1.3271481  -1.09332    -0.4146685   1.0573313  -0.5199138   0.8254337
  1.0214223   1.7900721  -0.47586444 -0.70824975 -1.444972   -0.6748652
  0.5179851  -0.21562563 -1.3644928  -0.66370463  0.11341899  1.2836636
  1.3349354   0.6253772   2.9022791   2.0640824   1.3712584  -0.364369
 -0.53184247  0.37456107 -1.0343792   0.30238032 -0.09965573  0.09789008
 -0.66498977 -0.81785744  1.1388658   0.1641683 ]
[-2.49087973e-03  3.18677187e-01 -2.23709464e-01 -2.26617932e+00
 -1.76769316e+00 -5.82799539e-02  1.12845115e-01  5.74432015e-01
  5.09851813e-01  9.86501276e-01  2.87537837e+00  7.19598353e-01
  1.07867450e-01  1.46537709e+00 -8.60284150e-01 -5.68324208e-01
  3.05922002e-01  8.92360330e-01  2.03034163e+00  8.22058022e-01
  2.40659133e-01 -6.53579056e-01  8.57219338e-01  8.77305746e-01
 -7.51007259e-01 -6.34617209e-01 -1.73643970e+00 -9.17376518e-01
 -9.33844566e-01 -2.20392060e+00  1.19395530e+00 -5.64792931e-01
 -1.46787524e+00  1.25586510e+00  9.92291868e-02  6.16992235e-01
  1.49521792e+00  1.88994515e+00 -7.49223948e-01 -2.42041975e-01]
[-1.3627429  -1.9423206  -2.842651    0.25626168  1.8366477  -1.4551044
 -0.2078111   1.8737756   0.67064375  0.24936177  2.024344    0.3252956
 -2.2129798  -3.0555243  -0.34129104 -0.46310142  1.7891328   0.19362244
  2.7293825   1.6950264   1.3729225  -0.8344396   3.2527895  -0.718236
 -1.918503   -1.2127225  -0.5854957   0.8336815  -1.4799122  -2.7276444
 -0.8279795   1.2323418   0.2729981   2.386708    0.09814268  1.5258278
  0.68027526  2.3371384   0.3704053  -0.2834383 ]
[-1.3291545   0.5330725  -0.3236113   0.8449405   1.2122557  -0.7402516
 -0.8117297   1.5533702   0.44018707 -0.2572556  -0.08233564 -0.3141629
  1.9954338   0.54952633  0.33831748 -0.80762476  1.973925   -0.98121774
 -0.7377553  -0.43506712 -0.15331924 -0.39074737  0.43593544  1.0062909
  0.66019446 -1.0978034  -0.7957914  -0.05735695  0.5366112  -1.3356366
  0.5045255  -0.6163169   1.3892374   0.4784977   0.6491242   0.9915041
 -1.53607     0.4309578   0.62933743 -1.0084054 ]
[ 1.0569154  -1.2005156   0.46418267  0.8399929  -2.4206064  -0.7634404
  2.2541392  -0.47594157 -0.43422648  0.57148236 -0.7516157   0.58268756
 -2.7218547  -0.21671477  1.3173935  -0.8398238  -1.5420277   0.7345892
  1.3432546   0.5548631   0.90293646  1.0608373  -0.48445702 -0.7972704
 -0.12699819  1.4323068   0.62966007 -0.7131659   0.9017627   0.933603
  1.3053511   1.4914287  -0.56861305 -0.41024157  0.10657872 -0.7342142
 -0.8718189   0.08379654  0.41963816 -0.46998715]
[-0.25720623 -1.0064145   1.6626799  -1.210556   -1.0612353  -0.16411076
 -1.4882212  -0.26752323 -2.0648785  -0.01065044  0.9179009   0.35315913
  0.47470126  0.82614386 -0.19915468  1.5454128  -1.1911839   0.31742373
 -1.0501165  -2.2234793  -0.6796479  -0.34463668 -1.4004809  -0.6209819
  0.2253464   1.1227058  -1.5773902  -0.4212281  -0.00937432  1.9986932
  2.6042075   2.4214642  -0.6601054  -1.8071188  -0.35667166 -0.34370765
  0.04670753 -0.1358735   1.9409274  -1.3715382 ]
[ 0.82882935 -0.3636214   0.7641697   0.7676564  -0.8808902   0.25804496
  1.4436036   0.7231477   0.3384087  -1.5954597  -0.2869544  -0.06471507
  1.454584   -0.84188586  1.251422   -0.5399098  -0.8087185   0.47593284
 -0.6026368  -1.1440169  -0.82169896  0.2819465   0.02501556  1.5755091
  0.4146678   2.6046     -2.02115     1.7125491  -0.36708727  0.705889
 -0.88513476  0.04421787  0.00836585 -0.6856263  -0.19807635 -0.4589492
  0.5780756   1.1689143   0.30836424  0.2851774 ]
[-0.10063563  0.5037473   0.6434572   0.06464663 -1.1828108  -0.4632337
 -0.99125856 -0.14964995 -1.1090978   0.8966161  -0.6716886   0.3952494
 -0.4418139   0.61154974  0.22626983  0.8436332  -0.2748305  -0.43677956
  0.72838384  1.1446537  -0.2134456   0.2518442  -0.57204425  0.7903211
 -1.1382324   0.56941855  1.2403345  -1.1950132   1.1500221   0.18811509
  1.7922684  -1.7290511  -0.11040591 -1.1868241   0.00515369  0.6824768
  0.9042869   1.7924796   2.2356126  -1.111414  ]
[ 0.5746797  -1.6184726   0.7790387   0.5391715  -1.4501449  -0.4127145
 -1.6315529  -1.3245686  -2.1800845  -0.25918126 -0.30470374 -2.7778974
  0.16859007 -0.31679845 -0.4676486  -0.7371282  -1.0854077   0.12342912
  1.1982929  -0.2188613   0.9521641  -2.4263494  -1.3132616  -1.8982236
 -1.4291086  -0.07441253 -0.34663063 -0.6562155  -0.41128904 -0.87852913
  1.5988185  -0.2680567   1.1796964  -1.9595869   1.0114894  -0.1680447
 -1.5976764   0.29844284  1.466935    0.06106024]
[-1.2818588   0.08865524  0.01697429 -2.780245   -0.6414062   0.36579093
 -0.80937505 -1.5751371   0.5498296   1.740241   -1.340715   -2.4094274
 -0.05246885  1.9022623  -1.8204107   0.8662643  -0.95348096  1.424607
  0.42877635  0.38261062 -0.7267203  -1.0236561  -0.66639245  1.2806798
  1.0892692   1.5628395   1.1377708   1.2060202  -0.9724826   0.49866253
 -1.2305946   0.89621407 -0.0157032  -0.7666827  -0.41542563 -1.4058625
 -0.11609724  0.74302804  0.40377495  0.7341663 ]
[ 0.98330337 -0.76622885  1.1893251   0.99992895 -1.219778   -1.9115019
  0.02948    -0.7784808  -1.400608    1.1962861   0.48664343 -0.27984798
  0.4872205  -0.4347042   0.06033161 -1.4444193  -0.3981922  -2.0285711
  0.8584414  -0.9137635   0.3900902   0.40932482 -1.6435835  -0.3458367
  0.10516433  0.22227833 -0.67303133  0.58555305  0.42819008 -0.05653217
  0.9199503   0.09731558  1.7359028  -1.2098918   1.5985113   1.6678255
 -1.8447082  -0.03660107  1.7173856  -1.4073374 ]
[ 1.2517784  -0.8146257   1.1818525   1.0973909  -0.97704947 -1.9795266
 -0.05079196 -0.8572594  -1.6742048   1.3435037   1.0070018  -0.05482144
  0.37565845 -0.8703529   0.47686994 -2.081965   -0.93564934 -2.2387648
  0.50959027 -1.096574   -0.25621846  0.5364887  -1.4935943  -0.3275381
  0.5643024   0.65521973 -0.7880564   0.6041059   0.28916565  0.08876882
  1.5247816   0.39502162  2.224471   -1.2589444   1.6933594   2.226585
 -2.399931    0.49816877  1.9775213  -2.1914206 ]
layer 3 Activation
tanh
layer 4 Dense
40 20
[-0.62606174 -0.07158977 -1.074545   -0.4300933   0.25354296 -0.4143468
  0.4454325   0.22808406 -0.06995416  0.4133771   0.09357461  0.21565226
  0.2095437   0.11590424  0.22263454 -0.2619509   0.43491283  0.10373223
 -0.20606866  0.9619299 ]
[ 0.71326756  0.10274183 -0.2452665   0.4013095  -0.5748099   0.8902482
 -1.5687028   1.4912155   0.633198    1.0507203  -0.43470207  0.6439675
 -0.13887955 -0.3486906   1.7514545  -0.45366234 -0.17656611 -0.00240493
  0.4374204   0.08682049]
[-7.6593763e-01 -6.6655375e-02  2.1291640e-01 -1.1289636e-01
  7.1244484e-01 -1.0177280e+00  3.8301116e-01  5.3074554e-02
  3.1139266e-01 -4.8368227e-01 -3.9748043e-01 -1.6203669e-01
 -1.2399781e-03  5.9456736e-01 -1.6571758e+00  7.5239427e-02
  6.6591777e-02 -4.4751042e-01 -9.1543102e-01 -9.1469795e-02]
[ 0.21099642 -0.39713863  0.8087334  -0.73484856 -0.17073092  0.57850724
  0.25310236 -0.68415797  0.33252168 -0.31268534  0.5354907  -0.10555129
 -0.23912632  0.47003236  0.5097916   0.17104657  0.20920393 -0.16372135
 -1.0512118  -0.77147645]
[ 0.69126195 -0.06766687 -0.21776852 -1.1425433  -1.825513    1.1112163
 -0.93147606  1.1554707  -0.36955693  0.8347697  -0.86886775  0.88169163
  0.66024524  0.24073358  2.1424656   0.0078769   0.14501734  0.05612165
  1.9708005  -0.44514045]
[ 0.7142615   1.0952208  -0.71319044  1.2091901  -0.70974594  0.80169225
 -0.7558428   0.53411037  1.267479    0.97263145 -1.0318092   0.42890257
 -1.1612403   0.32405543  1.1330808  -0.06560212 -1.0614161   1.0719166
  0.59442484 -0.2161565 ]
[-1.2235793   0.62440974  1.2747172  -0.1301922   0.5377208  -0.3916891
  0.01974081 -1.3220485   0.4724312   0.10193157  1.0489975  -1.0013926
 -0.7612834   0.12591179  0.03635636  0.5675178  -0.5482436   0.94691616
  0.22793446 -0.41866788]
[ 1.2542604   0.6383129  -1.3784857   0.1659725  -0.6317185   1.2854272
 -1.0333252   2.0331144  -0.09809624  0.47518042 -0.83643234  1.541149
 -0.27834433 -0.47791985  0.3315168  -0.4540048  -0.03359476  0.13683584
  0.11587238 -0.32330754]
[ 0.47814137  0.2774646  -0.9153348   0.9754952  -1.1787198   0.9372667
 -0.5552026   0.8558365   0.75054115  1.2399055  -1.0858786   0.76066583
 -0.5763311   0.14512628  0.8777422  -0.00890738  0.02830401  0.27924392
  2.020904    0.43671596]
[-0.39171782 -0.04749889  0.9321315  -0.57923675  0.53681546 -0.30187705
  2.0481737  -1.3779376  -0.3556758   0.39091256  2.0766807  -0.75548935
  0.245508    0.55960166  0.19660513  0.57661843  0.01859445 -0.28314006
 -1.2171897  -0.31731266]
[ 0.29467762 -0.11904392  2.112541    0.25511724  1.3411009  -0.5861337
  0.7188491  -1.0971367  -0.37569886 -0.8504596   0.01134776 -0.93441594
 -0.1500957  -0.02509022 -0.82916874  0.37404954  0.2091378  -0.63191265
 -0.6478183  -0.26560286]
[-0.3886874  -0.5541604   0.63217664 -0.5717345  -0.22781335  0.58880055
 -1.4856219   0.6074868   0.21196996  0.5546135   0.78187615 -0.42862278
 -0.08687004  0.5320758   0.19289035  0.6491528   0.11468796 -0.18607846
  1.45271    -0.32241267]
[-0.39232302 -0.03763457 -1.9661182  -0.42379934 -0.8337106   0.5976238
 -0.7472057   1.476673   -0.0346491   0.5095307  -0.7909144   1.9167402
  0.34100434  0.9304342   2.0337381   0.9803031  -0.30483732 -0.24144977
  1.3127447   0.8525109 ]
[ 1.0977422   0.42674038 -1.6419647  -0.33838215 -1.3103584   2.4491158
 -0.1543756   1.3518155   0.05625213  2.4005804  -0.8545615   1.5770924
  0.1719334  -0.6177354   1.9665014  -0.7701144   0.12984039  0.56905717
  0.7630717  -0.4796565 ]
[-1.1384567   0.14749376  0.5256477   0.6137941  -0.15056546 -0.15635675
  0.46634382 -0.8878968  -0.12674278  0.51537675  0.08667282 -1.1977476
 -0.37037832  0.5472411  -0.57280105  0.38153595 -0.16104214  0.16480698
 -0.50132716  0.09325656]
[ 1.2643188   0.9247655  -0.6103523   1.0600505  -0.33927566  0.7280309
 -1.3321599   0.29454315  1.1498039   0.8426956  -0.28216884  0.07685692
 -0.7952222   0.39862815  0.4457289  -0.0138193  -0.6830519   1.0135863
  0.89879906 -0.5162624 ]
[ 0.62438715  0.5069207  -0.4078075  -0.26560435 -0.29671237  1.2389793
 -0.19914739  1.8642431   0.41721272  1.157123   -1.061626    0.73753303
  0.24515028  0.23205183  1.0858947  -0.41841736  0.40125117 -0.05084532
  0.2457404   0.9762986 ]
[ 0.61368614  0.33025324 -0.90275     0.74036145 -0.9329291   0.8470141
 -0.33731347  0.29570356  1.2375752   0.4262589  -0.38798052  0.41748932
 -0.42059347  0.8716421   1.0621909  -0.02486326 -0.11127087  0.727141
  0.53523535 -0.478453  ]
[ 1.6922559  -0.2480246  -0.6672071  -0.09153482 -0.4750396   0.13149509
  0.36366767  1.3441365  -0.20975208  0.16157512 -0.18936905  1.02905
  0.3652087  -0.3777612   0.09050497  0.04840025  0.3306054  -0.6030068
 -0.44227648 -0.43319625]
[ 1.4450526  -0.42834136 -0.46563628 -0.04417373 -0.6391451   0.03754661
 -1.2261908   0.41053817 -0.02582706  1.3386294  -1.2073854   0.17648996
  0.01074762 -0.01239189  0.20612991 -0.5641242   0.13605815 -0.09654467
  1.1560453   0.27524406]
[-1.3570658   0.29288083  0.5111776   0.8038199   0.6497962  -1.4683645
 -0.02525763 -0.6678706   0.63773006 -0.4397542   0.82952327 -1.0337886
 -0.1504562  -0.23243539 -0.8753079  -0.37495035  0.13697019  0.13984218
 -0.39145318 -0.81013924]
[-0.21450906 -0.2689412   0.22008829  0.08112155  0.12121662 -0.4572904
  0.05017991  0.64167154  0.09492497 -1.0347819   1.3250008  -0.50742847
 -0.09053808  0.2888027  -0.05099891  0.10257479 -0.15628488  0.162336
 -0.08745735  0.4988293 ]
[ 0.08908482 -0.01929039 -1.1277812   1.4293772  -0.9535975   1.111014
 -1.1303364   1.633471    0.10192882  1.2797085   0.22520658  0.5150757
 -0.414112   -0.5920205   1.5358808  -0.27133116  0.17329988  0.17648593
  0.28619072 -0.04875681]
[ 0.04303909  0.00779662  0.96365935  0.220681   -0.59217453  1.4522464
 -1.1614218   1.5341326   0.5753985   0.7371843   0.6396463   0.22304903
  0.40449682  0.06208674  1.5366658   0.10396101  0.46376202 -0.41638437
  1.5034904   0.1508506 ]
[-0.91862816 -0.14982316  0.9816084   0.4308942   0.02809872 -0.18030503
 -0.48545033  0.43141583 -0.36806163 -0.3754514   0.09649386 -1.5054641
  0.22153556  1.5892311  -0.5879645   1.6183027  -0.06599917  0.07421946
  1.1354359   1.1716185 ]
[-1.2925869  -0.09115671  1.2898501   0.14404652  1.2348471  -0.6623791
  0.60308546 -1.176576   -0.2591746  -1.5775872  -0.23998229 -1.4211161
 -0.44370934 -0.03134853 -1.4946028   0.16748784  0.24141026  0.25315553
 -1.7549909  -0.6721384 ]
[ 0.16518787  0.5669277  -1.5233839  -0.3380119  -1.2440056  -0.23156898
 -0.3823813   1.3501179   0.00468896  1.187388   -0.5491826   1.1619363
 -0.51279384 -0.14965269  0.8497942  -0.08831503 -0.1348814   0.35733116
  1.5179182  -0.03387274]
[-0.80816567  0.1384115   0.7560798  -0.13684435 -0.38260671  0.72563237
 -0.95125705  0.39745378  0.5659466   0.7858532   0.3213579  -0.24761066
 -0.03109946 -0.15390027  0.23745765  0.16105899 -0.14007096  0.32396606
  1.3517956   0.6823346 ]
[-0.02904769 -0.03514182  0.316973    0.29141554 -0.12593149  0.18352845
 -0.8584582   1.3811845  -0.05608145  0.2968159  -0.96549356 -0.60233545
 -0.27548426 -0.16544664  0.24031614 -0.12003176  0.08386965 -0.33716953
  0.6666545   0.22026725]
[ 0.78128755  0.25641054 -1.0068524   0.83378637  0.31762734 -0.5537641
 -0.4612178   0.25273463 -0.3253063  -0.19985415  0.09470874  0.69486684
 -0.12656683 -0.15366204 -0.40984505 -0.08364143 -0.1258489  -0.10590648
 -0.26384634  0.04355768]
[-0.5503988  -0.67293614  1.8168548   0.12340295  1.7626728  -1.6536304
  1.5855225  -1.5524607  -0.22277667 -1.6353283  -0.02980342 -1.6685046
  0.2530287  -0.1454713  -1.526401    0.60900354  0.61748475 -0.68770784
 -1.5459912  -0.34566668]
[-0.36138538 -0.18161872  0.83110565  0.21912928  1.253668   -0.49042886
  0.17047824 -0.16199495  0.04904782 -0.43585217  0.6665347  -0.64507324
 -0.02718162  0.06186911  0.519013   -0.07233751 -0.12370463  0.08506991
 -0.51398104  0.24587548]
[-0.09738153 -0.4722327   0.02825894 -0.9900463   0.8099172  -0.9161276
  0.9431569  -0.16422606 -0.4539273  -1.6287575  -0.03709925 -0.37807283
  0.7291589  -0.6757805  -0.8226778  -0.515726    0.57220066 -0.71917146
 -0.5001052   0.44779694]
[-0.8062231   0.15918602 -0.56615186  0.21769525 -0.9907938   1.4526491
 -1.2134172   1.7247181   0.7068528   1.04609     0.29499096  0.9449612
 -0.35552818 -0.31702685  1.7926455  -0.19269878 -0.5291021   0.38299254
  0.83650815  0.38883764]
[-0.5661357  -0.7933062   0.52940106 -1.0103644   0.70548475 -1.2137417
  0.8994156  -0.2381456  -0.34991676 -1.0839492   0.49229828 -0.2843429
  0.9746344  -0.0287748  -1.1246793  -0.00495811  0.5625108  -0.67428684
 -0.05520816  0.23348477]
[-0.471917   -0.52717066  0.58021295 -1.2347136   0.99210167 -0.8606928
  0.927734   -0.515209   -1.2488694  -0.89775336  0.49036816 -0.89103526
  1.0411347  -0.09145279 -1.0679606  -0.43121013  0.6235729  -0.9184168
 -0.5818305   0.77362096]
[ 1.4687184   0.53935724 -0.9689612   0.5986681  -0.9841516   0.21641992
 -1.91406     0.85828096  0.4904178   0.0530404  -1.3045387   1.4721957
 -0.12773754  0.02731776  0.32716018 -0.85603637 -0.10945282  0.18745051
  0.9840992  -0.01263204]
[ 0.46716943 -0.12455302 -1.4101287   0.56694347 -1.5966939   1.4817547
 -0.4558344   1.137274   -0.14714347  1.6726576  -0.90809125  2.1388302
  0.24297884 -0.19509868  1.7710489  -0.17323788  0.1529658  -0.176828
  0.5318453  -0.27973023]
[-0.61471087 -0.3815563   0.9776561  -0.7001298   1.146472   -1.0691596
  0.80963147 -1.1321439  -0.67343664 -1.0882109   0.7903467  -1.1876829
  0.5253034   0.04169425 -1.1130027   0.15322345  0.3195217  -0.4260974
 -0.91570103 -0.05084556]
[ 0.7190741   1.0156575  -0.9561412   1.1271888  -1.0331961   0.9714599
 -1.0577489   0.64175236  0.7961939   1.0689232  -0.98606324  0.9782611
 -1.1161546   0.568845    0.99490094  0.12557252 -0.9115957   0.9625912
  0.8557647  -0.4637591 ]
[-0.6739129  -0.6559088   0.8353022  -1.0888928   0.84561986 -0.811167
  0.7644418  -0.6265501  -0.9244602  -0.91115546  0.74523234 -0.6102996
  0.88117796 -0.18551917 -0.9845722   0.12169905  0.77155864 -0.90985835
 -0.5288722   0.3016425 ]
layer 5 Activation
tanh
layer 6 Dense
20 1
[0.7270124]
[-2.251632]
[-1.7576873]
[-1.8546575]
[-1.3546764]
[1.6555914]
[-1.4362818]
[1.1824645]
[-2.1838546]
[1.4482502]
[-0.882344]
[2.087873]
[2.4900105]
[-0.29603842]
[1.3643658]
[-0.17509241]
[2.4362223]
[-2.0842266]
[1.7632661]
[0.3145884]
[2.4083126]
