layers 7
layer 0 Dense
20 20
[-0.04574228 -0.22233264 -0.1172405  -0.0609845   0.50707185  0.14440475
 -0.2992638   0.35023215 -0.1960258  -0.02726828  0.44142824 -0.2510739
  0.2715254   0.21901098  0.06912731 -0.42343655 -0.2487861   0.06612257
  0.12860683 -0.16479282]
[-0.01283812  0.0021556   0.21410266 -0.03747256  0.2979331   0.22054799
 -0.40174598 -0.11994596 -0.06120005  0.47864196  0.14210194  0.29241958
  0.17049368 -0.05442456 -0.18902192 -0.15019368  0.16519172  0.44188046
 -0.17798506  0.11417199]
[ 0.24091485 -0.3353165   0.08875824  0.0696597   0.23108074  0.31348628
  0.00511402 -0.21924402  0.385847   -0.10192615 -0.21049733  0.53632534
 -0.5263811  -0.08274399  0.4556661  -0.21394996  0.5143593   0.11598404
 -0.35435972 -0.04157869]
[ 0.19198707 -0.3119823  -0.31076038  0.33966106  0.02364505  0.31402436
 -0.08864778  0.2782045  -0.26611534 -0.09021815 -0.26962936  0.30033183
  0.36489737  0.15139692 -0.2307721   0.19267677  0.2398714   0.04090934
 -0.01935778 -0.01977442]
[ 0.1133681   0.15325907 -0.02557904 -0.21952625 -0.1088265   0.10227165
  0.02162657  0.1499691  -0.05578698 -0.25584507 -0.06265768  0.1540471
  0.49018937  0.00639522  0.0970569  -0.0218195  -0.15652321 -0.1016036
  0.39284518  0.05004347]
[-0.13878493  0.02590595  0.22598323 -0.01001762  0.11207705 -0.1377285
  0.22872902  0.28375798  0.08980641 -0.02145672  0.5751592  -0.02310704
  0.14782502 -0.17315283 -0.19456235 -0.19588728 -0.30871436 -0.5730678
  0.7545102  -0.12239489]
[ 0.46453083 -0.21504557  0.07047978 -0.26600656 -0.00130616  0.20552847
  0.21492304 -0.21618    -0.4084459  -0.06710786  0.32192376 -0.13258232
  0.1985254  -0.2518322  -0.49871933  0.4947895  -0.28820756 -0.40603897
  0.30125326 -0.04236813]
[ 0.15660015  0.34884638  0.05295681 -0.08103881 -0.34453005 -0.3020847
  0.36972496 -0.07779589 -0.03556445  0.3666359   0.23591273 -0.27270186
 -0.2362361   0.00184814 -0.18988289  0.15791795  0.24326468  0.03719263
  0.23653604 -0.09741591]
[-0.27030817 -0.31239945 -0.00950584  0.39976132  0.04823558  0.2652788
 -0.0103612   0.44668344 -0.5818634  -0.21709017  0.37400422 -0.5041055
  0.03018088 -0.40051827 -0.3846925  -0.2376432  -0.15726775 -0.17290385
 -0.15193528 -0.17653471]
[ 7.3735125e-02 -1.0799079e-02  1.5567771e-01  3.2562274e-01
 -8.3571360e-02 -5.3630721e-02 -3.0018589e-01 -2.1292282e-02
 -1.5477470e-01  2.6399589e-01 -3.5131685e-02 -7.2307228e-03
  1.6804418e-04  1.6960612e-01 -1.8825148e-01 -6.3089386e-02
 -6.6176213e-02 -2.9420631e-03 -1.0853668e-01 -4.3346220e-01]
[-0.3565909   0.20788047 -0.15463184 -0.21231443  0.09372433  0.17083922
 -0.42649668  0.18556707 -0.06115498  0.0460982   0.267421    0.01391077
 -0.23144613 -0.00302918  0.23520072  0.33330458  0.19653355  0.35557947
 -0.15139906 -0.17002381]
[ 0.18992804 -0.294691   -0.20748629 -0.03908894  0.16496813  0.29971135
  0.00267543 -0.14821018  0.5443952   0.792271    0.19270003  0.820873
 -0.46214846  0.02438384  0.820847   -0.46032375  0.28621027  0.1465997
  0.18097472  0.3517527 ]
[ 0.04105768  0.03058798  0.12213807  0.13072838  0.04158192  0.24487711
 -0.19952843 -0.28193006  0.15357415  0.6292397  -0.29954308  0.5847221
 -0.60438085  0.47281238  0.2467242   0.03458496  0.07965279  0.27648458
  0.12308077  0.09813201]
[ 0.20350319 -0.03617094  0.17206542  0.2444446   0.05636634 -0.18559821
 -0.15654749 -0.23171759  0.04197282 -0.57728523 -0.05548225 -0.1396292
 -0.22863635  0.01681863  0.06556098 -0.1623424  -0.0113862   0.06177204
 -0.18870603  0.5907524 ]
[ 0.45379046 -0.17078458 -0.11408269  0.27258563 -0.31204388  0.232692
 -0.20666918  0.07866194  0.38569698  0.17116904  0.22819597  0.22427215
  0.45647275  0.11315645 -0.3542893   0.4729096  -0.5578576   0.13977078
  0.7323857  -0.32406995]
[-0.54293483  0.29906392  0.02898132  0.3621767  -0.25027195  0.10955366
  0.15068336  0.26065493  0.0539758  -0.77122086  0.38079962 -1.0814656
  0.19486967 -0.99880296 -0.53915167 -0.51295996 -0.21658912 -0.34927836
 -0.23856936 -0.86955726]
[-0.31786865 -0.05751526 -0.42002788  0.21865486 -0.13402322 -0.05603931
  0.14249401  0.16187271  0.14550658 -0.0015848  -0.10179805 -0.01446797
  0.3095395  -0.21905017 -0.03595239 -0.18633011  0.14462869 -0.21267965
 -0.04957996 -0.02177309]
[ 0.3345949  -0.4964029  -0.03503973 -0.14380011  0.19481501  0.43757808
  0.12250074  0.01823495  0.18465023  0.12865025  0.32889006 -0.09584613
 -0.47274086  0.21384026 -0.198544    0.4855861   0.01533334  0.23789732
  0.27971673 -0.4762864 ]
[-0.28525552  0.5468334   0.12716201 -0.2620694   0.17367919  0.01742724
  0.24995793  0.07359891 -0.06065909 -0.02363557  0.16929601  0.06826771
 -0.35449898 -0.10180325  0.36095354 -0.30335602  0.36539695  0.2152551
 -0.13184378 -0.10338601]
[-0.11789581  0.01772574  0.09303321 -0.08250049 -0.33595163 -0.18237239
 -0.0505646  -0.04866176 -0.18214293  0.11008739 -0.49956092  0.29862058
 -0.05698089 -0.28188834  0.20915215  0.20296486  0.31406274  0.5634565
  0.0171865   0.6298951 ]
[-0.00335218  0.08680036 -0.05985731  0.15709071  0.07550972  0.10712109
 -0.00858768  0.04300945  0.08914557 -0.04701548  0.06889932  0.13029169
  0.01870445 -0.02768531 -0.02552325 -0.15449344  0.06963536 -0.014265
 -0.00469736 -0.0042266 ]
layer 1 Activation
tanh
layer 2 Dense
20 40
[ 0.24137177  0.09117894 -0.17448567  0.21847655 -0.22173882  0.12502958
 -0.05525582  0.10423093  0.43220142 -0.07307138 -0.0594825   0.02462364
  0.07022486 -0.23726101  0.05742119 -0.02914271 -0.23558183 -0.1622995
 -0.10019782 -0.07176898  0.16981705 -0.18076687 -0.15476863  0.11699826
 -0.19151726 -0.35622916  0.17144296  0.15272763  0.3667601   0.20476215
 -0.00738811 -0.29168156  0.21513142 -0.13038489  0.01490376 -0.28838724
  0.27417263  0.10149387  0.06937781 -0.11160439]
[ 0.02763595  0.08685173  0.13750976 -0.18738358  0.3280242   0.07850485
  0.23139131 -0.01749041  0.05276521  0.08625076  0.08469899 -0.00817315
 -0.26296064  0.15548693 -0.28665105 -0.0491147  -0.04640792  0.22699063
 -0.13807441  0.15135    -0.15854628  0.21577442  0.09846418  0.08654001
 -0.04316853  0.20190981 -0.04531432  0.08190673 -0.03561071  0.0693642
 -0.22659321  0.30496937  0.21472676  0.06239638 -0.06456181  0.1238723
  0.18772426  0.16458583 -0.12955433  0.16723052]
[-0.07095864  0.10127442  0.01076921  0.16398595 -0.13003339 -0.22000772
  0.20007177  0.13829911 -0.11032975  0.20193142 -0.10578734 -0.3071876
  0.05384892 -0.02404774  0.19335537 -0.07123754  0.36711922  0.15562686
 -0.04666645 -0.28227654 -0.05501577 -0.07657483 -0.19068521  0.04098247
 -0.11215864  0.18112117 -0.1307659   0.00065115  0.32533172 -0.16504447
 -0.17133996 -0.10652994  0.06552698 -0.04989555  0.23610677  0.24880815
 -0.08588898 -0.1537983   0.02098457  0.08052783]
[ 0.19644068 -0.03854964  0.13089195  0.07456435 -0.05659737 -0.08325569
 -0.37872675 -0.11454219  0.04110869  0.13733576  0.07939871 -0.20298052
 -0.22899918  0.01726325  0.12484048 -0.36750922 -0.06370237 -0.48003757
  0.1145308  -0.25131714 -0.02575422 -0.26590222 -0.21276098  0.1217947
 -0.3493643  -0.19327562  0.0268486  -0.07397652  0.036715   -0.26989266
  0.36844847 -0.20038424 -0.04332756  0.06549137 -0.23509572 -0.03112219
  0.0734426  -0.00126339 -0.10797925 -0.02201502]
[ 0.24815692  0.23640032  0.08710712 -0.33048508  0.13859402  0.06370504
 -0.24468118 -0.23468097 -0.25733086 -0.06783564  0.2869253   0.04925846
 -0.03008353  0.05121682 -0.17849247 -0.41851637  0.17358795 -0.0911318
  0.23664582 -0.07558461 -0.15763548 -0.28650627 -0.00897544  0.19195251
 -0.00263657  0.10619045 -0.19305313  0.05241724 -0.24737637  0.07039356
  0.02783669  0.00743429  0.1862272  -0.2889713  -0.3849541   0.04474225
  0.05240496  0.3139859  -0.07187913 -0.00444914]
[ 0.12922285 -0.13996361 -0.3673335   0.01279346 -0.14748186  0.10811585
  0.19597137  0.25455028 -0.13834147 -0.10403208  0.21836881  0.0321046
 -0.17860028 -0.04363314  0.05763451  0.02889796  0.16942401  0.03572034
 -0.09048679 -0.14945208 -0.18302134  0.20593493  0.026692   -0.01891574
  0.195909   -0.04203322  0.28478435 -0.3193391   0.03162006  0.11504375
  0.10544503  0.14136316  0.00115426  0.04889277  0.12510613 -0.29716578
  0.06670714 -0.12592633  0.04092112 -0.0044595 ]
[-0.00990584  0.01366442 -0.10770491  0.0054923   0.11664341 -0.24984936
  0.2684547  -0.04541788 -0.0966229   0.02884074 -0.03273403 -0.2758286
 -0.03480213  0.15345028  0.01237171  0.24230729 -0.22087519 -0.3977468
  0.04757799  0.16324373  0.1761054   0.12017434 -0.07525467 -0.16815498
 -0.2796489   0.05846912 -0.19500053  0.14855403 -0.11131275 -0.00775629
 -0.2017377   0.03582423 -0.15924928  0.13780719  0.19391984  0.22204846
 -0.10432696  0.13099743  0.09519563  0.05672607]
[ 0.12261266  0.09446433 -0.09224285  0.13720831 -0.09380112 -0.25209397
 -0.10421923 -0.00662308  0.12064224  0.06540789  0.26531732  0.06619723
 -0.08665742  0.17134888 -0.04362572 -0.03711892  0.20515665 -0.04802445
 -0.12575635  0.11754721  0.12093858 -0.14932902 -0.20315988  0.10225774
  0.21015501  0.1993424  -0.25501925 -0.1513699  -0.23534937  0.11491885
  0.06195073 -0.2608158   0.07860151  0.11816455 -0.09698333 -0.10319346
 -0.27557907 -0.24615581  0.30649462  0.21920735]
[ 0.08365687 -0.04837505  0.26215196  0.03396425  0.2137216  -0.02086135
  0.06681062  0.10546579 -0.0100599   0.03778906  0.23544134 -0.14253844
 -0.19468808 -0.11671583 -0.1508053  -0.11259376 -0.201226   -0.07408544
  0.13986436 -0.16508073  0.00788916 -0.15211985  0.00064099 -0.08167944
  0.1712646   0.08390297  0.02067213 -0.01124593 -0.09853014  0.09391311
  0.01485939  0.20328364  0.07935908  0.03663732  0.0540846  -0.2792025
 -0.02952793 -0.0929434   0.1264688  -0.25961336]
[-0.07867866 -0.03236701 -0.05494509 -0.22932911  0.07865254  0.19032703
 -0.33463785 -0.05636831 -0.02776877  0.23558196  0.37153465  0.09356327
  0.0429245  -0.22449635 -0.11452753  0.19852442  0.3888276  -0.43693578
  0.13400282 -0.03985386 -0.24058853 -0.03299301  0.07438955  0.08178287
  0.26891074 -0.03340343  0.19174244 -0.15684548  0.01162815 -0.20341426
 -0.3116391   0.22588767  0.01773454  0.09746188 -0.20599978 -0.03064089
 -0.02579473  0.15008578 -0.15511923 -0.0263408 ]
[ 0.16124257 -0.0956692  -0.17243558 -0.11029705  0.06700373  0.30141282
  0.20905258  0.24224322  0.03644423  0.03469741 -0.37724605  0.0022497
  0.09723578  0.17286532  0.23532702  0.00592908  0.22684391 -0.04236615
 -0.13589868  0.03716825  0.21676967 -0.18733697 -0.28899583  0.12314583
 -0.04323589 -0.09486653  0.06214907  0.25622672 -0.28826162  0.27138034
  0.36364144 -0.44305265  0.18217982 -0.2582802   0.06416191  0.13094214
  0.06807788 -0.2838305  -0.08729708 -0.2265496 ]
[-0.19146842  0.00653967 -0.12855788  0.13979301 -0.36044383 -0.1978651
 -0.52814144  0.05259102  0.18697906  0.19058107  0.45142972 -0.2778013
  0.01845734 -0.3919019  -0.22041862  0.37121746 -0.23124386  0.298456
 -0.16055535  0.05052832  0.3053085   0.03091312  0.01447853  0.27422684
  0.0339245   0.2849487   0.37797806  0.07012016  0.30516687  0.06411301
 -0.01691028 -0.22269486  0.18645161 -0.14672051  0.17144465  0.15721595
 -0.38385257  0.42286766 -0.06251102 -0.03263647]
[ 3.1996366e-01  8.4447101e-02 -3.6002302e-01  3.0855501e-01
 -2.6627108e-01 -1.8937512e-01 -5.4940652e-02 -2.5317556e-01
  7.0052817e-02 -1.8844724e-01 -2.6121986e-01  2.2677040e-01
  1.1395758e-01 -3.1536806e-01 -3.4686472e-02  1.2701756e-01
 -2.0611547e-01  2.4392372e-02 -1.7154166e-01  2.2680135e-01
 -8.1101932e-02  9.9978358e-02  1.2071142e-01 -8.1708647e-02
 -3.5219684e-01 -1.6023667e-01 -2.3095869e-05  6.7687556e-02
  1.2688257e-01  1.2758592e-01  1.4606406e-01 -1.1516426e-01
  2.7811253e-01  2.6050976e-01  2.3605254e-01  1.8273823e-01
  3.5787344e-01  1.4627287e-02 -7.0705064e-02 -9.5911339e-02]
[ 0.36951095 -0.04888157  0.1554826   0.02777282 -0.33454838  0.18724409
 -0.24085355  0.32019898  0.37012744  0.19457361  0.11484601 -0.01611012
  0.0437655  -0.15787183  0.14092077  0.3158315   0.08383055 -0.01827608
 -0.1325306  -0.2943289  -0.26611945 -0.1580908   0.06883985  0.01885928
 -0.02248126 -0.00829808  0.26477224  0.14596954  0.17550962 -0.03780173
  0.34082416 -0.16394563  0.07641602 -0.17575793  0.15856445 -0.13892454
 -0.15184279  0.22297724 -0.05473226 -0.30303204]
[-0.01227392 -0.17067337  0.20315015 -0.08932029  0.37744528  0.07584932
 -0.32045576  0.14314137  0.09540003 -0.1295946   0.05453597  0.2442139
  0.28365427 -0.21252091 -0.11031912 -0.06778134  0.17162567 -0.13170382
  0.3342494   0.12350187  0.14644074  0.12740919 -0.18239556 -0.1602925
  0.110579    0.27116308 -0.01941114 -0.38164684  0.24346864 -0.05712563
 -0.0239892  -0.17233948 -0.03174459  0.04737182  0.07734759 -0.10711931
 -0.3956738   0.35001984 -0.03583958  0.00407249]
[ 0.00809845 -0.09739868  0.06157315  0.091609   -0.11348584 -0.15797067
 -0.01260434 -0.01421257  0.13537177 -0.16573244  0.01340649 -0.07473687
 -0.21742238 -0.04893003  0.11887073  0.3182502  -0.19135006 -0.06755506
  0.06688131 -0.1971659  -0.09686714  0.26815578  0.29815412 -0.1993407
 -0.09023412 -0.08068413 -0.04699668  0.00362481  0.26055378 -0.07513438
 -0.2213566   0.19582418  0.19105828 -0.2136985   0.01861912 -0.02235376
 -0.03936484  0.1249551  -0.26465616  0.20120484]
[ 0.04676096 -0.02921725  0.07067468 -0.20110928  0.34008682 -0.01843301
 -0.13735498 -0.22119212 -0.28682137 -0.03032576  0.04765718  0.14733386
  0.0465747   0.25325832 -0.02299466  0.04849616 -0.18105099  0.31602022
  0.01751153  0.03856723  0.07516827  0.20590669 -0.10069481  0.18075769
  0.2579974   0.402889   -0.22173567 -0.21872972 -0.15834613 -0.19940798
  0.0165495   0.15770881 -0.01834563 -0.16372561 -0.22403288 -0.08144426
 -0.20625164  0.4330982  -0.0839571  -0.05478405]
[ 0.013284   -0.1213978   0.08347473 -0.21092549  0.03356069 -0.01036073
  0.2002119  -0.20567909 -0.11724525 -0.14321508  0.10220256  0.03894293
  0.14904587 -0.07401684 -0.17747776  0.26109874  0.12939352 -0.22770323
 -0.01484993  0.05939077  0.0342823   0.24604681 -0.09467053 -0.00973914
 -0.02984251 -0.05038359 -0.092446   -0.00862452  0.02070607 -0.17117566
 -0.1049879  -0.13807905  0.2678919  -0.09767637  0.11760064 -0.20241177
 -0.05925158  0.10530794 -0.03915584  0.20536406]
[-0.142257    0.32505396  0.1856029   0.32454994  0.00541607 -0.0145916
 -0.02466584  0.19393666  0.22014904 -0.14662433 -0.21025404  0.09348691
  0.2941722  -0.33072814 -0.08156657  0.30087188 -0.21098737 -0.26238897
 -0.2720244   0.3166733   0.13486505 -0.1227887   0.18778744  0.10820821
  0.24178955  0.19012399 -0.11905493  0.12300116  0.28592846 -0.13273343
 -0.14428158 -0.11498304 -0.11752166  0.22913514  0.18571359 -0.11112484
 -0.02192925 -0.29820803 -0.29928666 -0.11835415]
[ 0.18947053  0.22696893 -0.10570608 -0.40718183 -0.33824116 -0.12097293
 -0.33716673  0.16228305  0.10022453  0.2821143   0.37742314 -0.13147499
 -0.08628105 -0.254317    0.18706918  0.15131496  0.31680787 -0.3486666
 -0.15533483  0.11439458 -0.15557729 -0.3334005  -0.11273991  0.22003365
  0.37700152 -0.09869776  0.1857613  -0.04516044 -0.18078302 -0.06353217
 -0.18299793  0.14992207 -0.03008937  0.03174838 -0.04029959  0.14996772
  0.06626884  0.22000015  0.14378142 -0.13637997]
[-0.01168998  0.03519857 -0.1283534  -0.03751488 -0.04558324 -0.04563265
 -0.04048419 -0.00546927 -0.04543291 -0.02210755  0.03716183  0.01752424
 -0.00998734 -0.02559517 -0.04135481 -0.04289839 -0.02816008 -0.02653058
 -0.00272419 -0.03925189 -0.07831659 -0.03740338 -0.10833578  0.04066169
  0.03652099 -0.12308241  0.0271658   0.05320445 -0.04737762  0.00383082
  0.0321316  -0.00778867 -0.02743241  0.01096535 -0.02338699 -0.0414715
  0.0009885   0.08559168  0.01217003  0.0170513 ]
layer 3 Activation
tanh
layer 4 Dense
40 20
[ 0.16128033  0.02490363  0.08717701  0.39224803  0.18821946  0.24053535
  0.28818035 -0.03012688  0.2803044   0.26081863 -0.14566417  0.13885745
 -0.09179026  0.19268684 -0.21616122 -0.12339372  0.02249066  0.00098364
 -0.20714732 -0.25285655]
[ 0.05800837  0.2305467   0.10334498 -0.09721658 -0.09396726  0.07069805
 -0.08708737 -0.24967133 -0.28798103 -0.19198084  0.00859187  0.14834712
 -0.06548601 -0.01661453 -0.02407908 -0.18485546 -0.16780406  0.3255976
 -0.05138623  0.00088454]
[-0.2654969   0.1429083  -0.1901068  -0.15075107 -0.16886333 -0.21850024
 -0.00728463  0.09917685 -0.23585542 -0.21771154 -0.01477165  0.13827573
 -0.13529477 -0.06841576 -0.08540453  0.21622242  0.14927809  0.2753647
  0.17346051  0.25126275]
[-0.12418917  0.11481868 -0.274109    0.13398223 -0.25365603 -0.15234198
  0.13985477  0.05424213 -0.27227548 -0.21059668 -0.13812026 -0.04180973
 -0.16448     0.2593966   0.24368039 -0.16467518  0.21523461  0.28561878
 -0.20196469 -0.2085402 ]
[ 0.05280833  0.00566989 -0.21332291 -0.32058546 -0.20061134 -0.24303986
  0.1583465   0.04427917  0.1136931   0.06454866  0.19836798 -0.16375764
 -0.27805126  0.11531061 -0.20225285 -0.22692615  0.22061947  0.16952547
 -0.3106114  -0.07938539]
[ 0.11393789  0.24900518 -0.13320176  0.16498809 -0.02364852  0.1244162
  0.10037453 -0.03877518 -0.07867866  0.33932504 -0.18014938 -0.40243536
 -0.12686779 -0.07341072 -0.20634292 -0.12727374 -0.27155614 -0.21043181
 -0.26395622  0.1918887 ]
[-0.02900612  0.10920737 -0.01717877  0.02610357 -0.081806    0.04684032
  0.03386572 -0.22144797 -0.10855848  0.02375589  0.09310821 -0.18570341
  0.04363234  0.14838086  0.17894298 -0.24655166  0.25979796 -0.04440768
  0.02898061 -0.25629213]
[ 0.06281852  0.337046    0.05055541 -0.18845159 -0.10465252 -0.04481937
 -0.06306849  0.08484931  0.07979599  0.24738078 -0.13537538  0.12078673
  0.31408706 -0.03070143  0.08037679 -0.07232267  0.20761971  0.06042172
  0.24872118  0.33000073]
[-0.26644024  0.16822374 -0.07716593  0.2642608  -0.01597539  0.24265563
  0.14018549  0.2373974   0.00894137 -0.03726943 -0.11996244 -0.12407295
  0.24303609  0.00805163 -0.0932077  -0.18708716 -0.18770759  0.29401293
  0.1457226  -0.32168674]
[-0.16622283 -0.03473527 -0.06274615 -0.04291709 -0.15200393  0.23771288
  0.04283032  0.00873247  0.26180246  0.12167672 -0.00078913  0.2504667
  0.1714518  -0.19301356  0.01365518  0.12517734  0.14225288 -0.3157482
 -0.0788958   0.20450436]
[ 0.03887486 -0.24735497  0.2527995   0.27350086 -0.07809506  0.09080597
 -0.05869156 -0.020943   -0.01283683  0.34341082  0.12874123  0.05017386
 -0.1819649  -0.24786413  0.29382583 -0.25442117 -0.22579549  0.23420693
  0.16794309 -0.17856441]
[-0.02652257 -0.33637902  0.09099577 -0.05937702 -0.28260535 -0.02014494
 -0.213017    0.03463403 -0.19746335 -0.22677684 -0.00126434  0.05790954
 -0.2650692   0.04992625 -0.14462656 -0.05675109  0.18646707  0.09705444
  0.16010574 -0.18845183]
[-0.33916366  0.00612666  0.16346972  0.09833364 -0.20772181 -0.21666753
  0.09054884  0.01431879  0.20720184  0.2802148  -0.07424122  0.10947776
  0.08592536 -0.13807933 -0.03019139 -0.11128173  0.17947473 -0.14181209
  0.02011601  0.01221643]
[-0.27217945  0.06456876 -0.04676006  0.09463012  0.03203957  0.32542962
  0.03533559  0.10465927  0.02288909 -0.01506588  0.08306048 -0.2072744
 -0.15073387 -0.05708285  0.08898427  0.23276362  0.12359791 -0.32258302
  0.22169624  0.12711439]
[ 0.02800864  0.00144917 -0.25206602  0.21431834 -0.06780605 -0.25325042
 -0.0319077   0.23413475 -0.11533488 -0.03582472  0.12748799 -0.08097028
  0.12233438  0.00210231 -0.14619574  0.17353652 -0.2045211  -0.27670282
  0.09702484 -0.25867245]
[ 0.05670558 -0.24258228 -0.23496252 -0.11633329 -0.29276976  0.1697565
  0.06036058  0.0586019  -0.23523985 -0.11236934 -0.12054765  0.10880966
  0.2619564  -0.04452528  0.17754696 -0.26448572  0.01937721  0.18585467
 -0.24709609 -0.23684017]
[-0.0662386  -0.31123906  0.18669216 -0.02518133  0.20771772  0.23514676
 -0.04239316  0.09930693 -0.07768948 -0.02091822  0.22007158  0.32599387
  0.08525458 -0.2380005   0.20444122  0.13942608  0.090327   -0.24239053
  0.08496661 -0.20932023]
[-0.02892927  0.18603049  0.28384438 -0.08632022 -0.23848474 -0.00518418
 -0.30719233  0.16299175  0.23236357 -0.06201121  0.11805771  0.21938354
 -0.00236025 -0.26038656  0.10028753 -0.30798703  0.13891372 -0.1816715
  0.06955798 -0.2677811 ]
[-0.09126779  0.02804021 -0.05796977  0.08931078  0.15378039  0.05724029
  0.23005027 -0.06277697  0.2729502   0.13706414 -0.11365133 -0.10882141
 -0.18711321 -0.02933056 -0.15533537  0.1010527   0.00102238 -0.0074068
 -0.11283834  0.13909052]
[ 0.13713105 -0.00068491 -0.2526609   0.19935615 -0.1804476   0.11535686
  0.12521595 -0.2142733   0.32564825  0.22127919 -0.1821998  -0.04967052
 -0.04093981 -0.05851653  0.12242619 -0.14408113  0.4102843  -0.06744733
  0.11267716 -0.05769487]
[-0.01605631  0.13462473 -0.07135218  0.23792788  0.01967271 -0.20366068
  0.00867948 -0.15967606 -0.02612688  0.0259269   0.21124873  0.11194536
  0.0621692  -0.01512384 -0.15875076 -0.04719535 -0.20000623  0.03221091
 -0.2551559   0.03944504]
[ 0.17689808  0.11221828  0.0755333  -0.28350413 -0.34482604  0.098119
 -0.2602364  -0.00436012  0.26256236 -0.0895455  -0.26725376  0.06656524
  0.17006569 -0.1261049  -0.2768434  -0.23073497  0.19255792 -0.09393003
  0.08250853  0.2693307 ]
[-0.01850464 -0.05473672 -0.20006445 -0.24212433 -0.114843   -0.02804023
 -0.19380264 -0.00638044 -0.18390156 -0.3237902   0.1962816  -0.02227675
  0.2514516   0.08935712 -0.164704    0.22256947 -0.0998015  -0.0448817
 -0.02849372 -0.29720378]
[ 0.06794368 -0.26321676 -0.02655909  0.03433094  0.11425293  0.04261575
  0.21707597 -0.2215117  -0.33123374  0.05801727 -0.20094375 -0.2765314
 -0.09266551  0.05157129 -0.06826583 -0.06523287 -0.18459061 -0.09284569
  0.0659539   0.00395531]
[ 0.02131705 -0.31845105 -0.2696702  -0.23800364  0.01244202  0.15216035
  0.24322541  0.1439749  -0.00761369  0.2031639   0.02505461  0.3828022
 -0.19558401 -0.21368667 -0.25396124  0.22257227  0.14337105  0.2819813
 -0.00790361  0.01274046]
[ 0.00131628 -0.21776327 -0.21880336  0.13309024 -0.19149332 -0.19131607
 -0.07360194  0.09191117  0.20287588  0.3088209  -0.30285284  0.3287351
 -0.11270023 -0.0209271  -0.02796762  0.12685864  0.28992248 -0.07007363
  0.08212263  0.33238152]
[ 0.07460002 -0.18495134  0.13765754  0.1921367   0.0613495   0.0445246
 -0.05818959  0.20170549 -0.34571874  0.11233478  0.08977639  0.05271882
  0.22844838  0.03686028  0.02260504 -0.23272598 -0.08773161  0.1090283
 -0.26711148 -0.00799844]
[-0.05890662 -0.14988738 -0.06054049  0.20802583  0.18078971 -0.03368036
  0.07931931  0.09680066  0.0317671  -0.3436981   0.07606358  0.15469539
  0.01167743  0.08464003 -0.0629616   0.23516093  0.16747202  0.17951307
 -0.00093056 -0.28775686]
[ 0.00788511 -0.28343043  0.16886887  0.2234002  -0.21193613  0.05300878
 -0.15780245 -0.21781586  0.08397761  0.04853476  0.28161284  0.31248495
 -0.10164069  0.22402823 -0.04229124  0.10516247 -0.16866608  0.08904174
  0.09503198  0.26041338]
[ 0.2936857   0.22900862 -0.10215997 -0.11208465 -0.06235128  0.18637264
  0.08381963 -0.15232244 -0.28085274 -0.29489356  0.21042687 -0.13395265
 -0.29523146  0.27729413 -0.12154671  0.02809063 -0.16070063 -0.27192202
 -0.09341339 -0.2778229 ]
[ 0.18691441 -0.2292812   0.15321593 -0.10408938  0.14889243 -0.28505105
  0.05028284  0.17297778 -0.08988244  0.08244548  0.30687279  0.07243067
  0.00755558  0.16818036  0.01713477 -0.16442974 -0.2784075  -0.20549205
  0.18980148 -0.05284365]
[ 0.28758103  0.19167855 -0.0613961   0.02502325 -0.3022404   0.0986299
 -0.25483397 -0.06888267 -0.21441749 -0.14560948 -0.01301428  0.02464141
  0.05376298 -0.20474671 -0.09833152 -0.22856826  0.02882802 -0.18877923
  0.09488054  0.01081852]
[-0.14919634 -0.2088662   0.09200679  0.2281609   0.07482973 -0.185426
  0.02265577 -0.18950532  0.04872755  0.09291045  0.1533057  -0.03862332
 -0.06346328  0.08155552 -0.2120369   0.05894506 -0.14597803  0.13482822
  0.12411551 -0.27106366]
[-0.10880219  0.18217532  0.07942404 -0.14550944  0.03981735 -0.0860463
 -0.17025216 -0.01034849 -0.11815211 -0.1064619   0.15830968  0.13301142
  0.07673718  0.1561751   0.10149441 -0.17983368  0.04797272  0.39185777
 -0.260291   -0.36046872]
[ 0.18213645  0.26222837 -0.15233885  0.11563064 -0.3141215   0.30647045
  0.21124068 -0.12166138 -0.15205196  0.03418737  0.04506962  0.17425722
  0.21889932  0.20449987 -0.26512155 -0.1337494   0.18053846 -0.10031805
  0.10751946 -0.11871639]
[-0.24426629 -0.1982243  -0.15997306  0.23929635 -0.11998053  0.02730421
 -0.21293211  0.26048383 -0.171713    0.22893761  0.3213774   0.10921621
 -0.17681125 -0.26788452  0.24998623 -0.1761607   0.03799802  0.26422578
  0.09723801  0.03994077]
[ 0.04713426  0.15713444 -0.10888389  0.40071785  0.22718155 -0.2879824
 -0.08439525  0.11594184  0.24036728 -0.01754778 -0.17968968  0.02088579
  0.2816049  -0.03299601  0.1687569   0.12123495 -0.25182462 -0.00732114
  0.11310224 -0.03977813]
[ 0.13264011 -0.15851659  0.20341916 -0.06785317 -0.10593058 -0.12773895
 -0.06452772 -0.05980194  0.0349669   0.24629095  0.20097907  0.10902569
 -0.25774926 -0.20603089 -0.01109026  0.21936731 -0.03329311 -0.09466679
 -0.20748521 -0.12850985]
[-0.22529255 -0.24637344 -0.03097214 -0.02644444 -0.03357073  0.18748917
  0.153567   -0.0935729   0.26892307  0.2586238  -0.31712982 -0.03243048
 -0.13330626 -0.02328286  0.11827333 -0.23016728 -0.25464067 -0.17081298
 -0.36571848  0.05218403]
[-0.23063792 -0.02353699 -0.20513545 -0.27787426  0.11556371  0.00935549
 -0.15272139  0.1559775  -0.16974363  0.30146098 -0.2120167   0.11321348
 -0.16260415  0.00285004  0.03295444  0.33190623 -0.35053998 -0.23293582
 -0.04901154  0.0685254 ]
[-0.00942829 -0.04173824  0.0402903  -0.01726775  0.03117413  0.03728353
 -0.00209687  0.00491065  0.03247283 -0.05527888 -0.07887673  0.01250098
 -0.04966353  0.04977409 -0.01234409  0.01290856  0.01972659 -0.04706384
  0.05633967  0.01351712]
layer 5 Activation
tanh
layer 6 Dense
20 1
[-0.03996721]
[0.04921508]
[-0.17479864]
[0.0092155]
[0.14766152]
[-0.01744338]
[-0.09010539]
[0.01629177]
[0.027363]
[-0.06760077]
[0.00102721]
[-0.00296833]
[-0.16014932]
[0.13940322]
[0.00243838]
[-0.09591869]
[0.02592057]
[-0.06899017]
[0.01145478]
[0.00932506]
[0.02216905]
