layers 7
layer 0 Dense
20 20
[ 0.13928254 -0.29802358  0.28924853 -0.09816343  0.17449321  0.09800436
  0.23527932 -0.22502439 -0.23429003 -0.1408989   0.43158087 -0.17671762
  0.154341   -0.1376537  -0.20498309 -0.13603517 -0.4880043   0.34600782
  0.2042475  -0.3532175 ]
[-0.02960587 -0.18016136  0.1254976  -0.39436677  0.20758478  0.05621684
  0.18743296 -0.20636198  0.00816418 -0.00359893  0.09753507  0.28418237
 -0.56837475 -0.20913967 -0.06836953  0.15215051 -0.8927111  -0.11025521
 -0.15579739 -0.08661343]
[ 0.12226098 -0.19189401 -0.16599026 -0.3795811   0.6041646  -0.6014329
  0.22421955  0.03600486  0.6498367   0.22315867  0.2285728   0.13593447
 -0.25155637  0.17331684 -0.68959963 -0.00860875 -0.38307518  0.5120749
 -0.32682177  0.17369422]
[-0.24287565 -0.24428597  0.4329145   0.2955038   0.02826878 -0.1915084
 -0.01899096 -0.28161556  0.50136447  0.21307187 -0.05126189 -0.1449385
  0.18712452  0.41306537 -0.01844421  0.29801702 -0.3546475   0.13113111
 -0.26383922  0.08614875]
[-0.30232587  0.02135881 -0.01459274 -0.0767749   0.14375609 -0.09900652
  0.53424263  0.34674364  0.00117935  0.17906912 -0.13476783 -0.11095929
  0.3877275   0.16268758 -0.1557602   0.4078467   0.12404834  0.15306355
  0.3776972  -0.2519439 ]
[-0.16227354  0.09380867  0.08960759 -0.21429816 -0.8040999   0.60999084
 -0.09412677 -0.29189286 -0.19987911  0.05675858  0.33247536 -0.3342253
  0.39136553 -0.33055785  0.14000666 -0.3596398   0.33845142 -0.05513277
  0.17013958  0.23671974]
[ 0.02255354  0.5408508   0.04489191 -0.28403583 -0.90500206  0.19083068
 -0.40394142 -0.11667348 -0.21323653 -0.21357104  0.45654556  0.09734846
  0.2218851  -0.34412432  0.28503138 -0.04936683  0.6869978   0.13831206
 -0.0043722   0.19937873]
[ 0.23395911  0.533138   -0.3737789  -0.06859423  0.42330512  0.10764593
 -0.5612314  -0.03081571 -0.23423971 -0.21252063 -0.58964115 -0.3113277
  0.15427528 -0.02928415 -0.26014012 -0.27940348  0.55522174 -0.02276024
  0.22743057  0.27926993]
[ 0.32033524 -0.69960374 -0.18833703  0.39627057  0.37320966 -0.00263608
  0.32992205 -0.24488916 -0.43930534 -0.32056275 -0.580716   -0.08711854
 -0.23577358 -0.07049329 -0.52602863 -0.17778453  0.19537759 -0.046867
 -0.15536748 -0.23746085]
[-0.15301782  1.0095439  -0.4628782  -0.21402298 -0.33781147  0.26195526
  0.09182557  0.490938   -0.58108014 -0.23462717  0.59391856  0.6976292
  0.2904875  -0.88937676  0.00513938 -0.8602396  -0.43860835 -0.45824623
 -0.35232377  0.19607598]
[-0.9170898   0.6772913  -0.44322434  0.83134735 -0.4262767  -0.4233827
 -0.45103168  0.29697317  0.23147595  0.22618948 -0.23108958  0.5318337
 -0.39876688 -0.86615175 -0.776735    0.27946982 -0.55724037  0.04399931
 -0.39573526 -1.3571246 ]
[-0.05632998 -0.49805662  0.57428503 -0.01128494  0.44185978  0.4339794
 -0.21987987 -0.1553416  -0.14426331 -0.3501685  -0.25510928  0.2850067
  0.03074946  0.21732736  0.5011932   0.042905    0.40624654  0.11294355
  0.5627827   0.29374942]
[ 0.17296861 -0.4172345  -0.28964755  0.02651019 -0.35554942 -0.01656135
  0.5460322  -0.1086895   0.09295267  0.16733035  0.35152334  0.19808131
  0.09437705  0.1037588  -0.1992832  -0.06268954 -0.0059215  -0.00858957
 -0.5249253   0.19084035]
[ 0.77442217 -0.5268112   0.48883045  0.9750126   0.38040367  0.5556446
  0.5832364  -0.3338004   0.5587929   0.9549512  -0.09515641 -0.9804178
 -1.4519061   0.25853345 -0.14779882  0.65233755  0.27035448 -0.16328703
  0.5626635  -0.5033342 ]
[ 0.63217896 -0.580961    0.48801696 -0.7290316   0.324359    0.72849
  0.2527894   0.43720752 -0.78414035 -0.29071698 -0.06768388 -0.15003408
  0.1081384   0.07994484  0.9923479  -0.3679172  -0.6442735  -0.07202841
  1.2718797   0.47650486]
[ 0.15896724  0.6678796  -0.8944502  -0.26251727 -0.9707957  -0.4333971
 -0.44433436  0.06413282  0.03497717 -0.17924097  0.75313544  0.06532729
 -0.05617632  0.04313015 -0.66731215 -0.04978109  0.27097243 -0.35188663
 -0.48450238 -0.5630432 ]
[-0.19797343  0.7216444   0.8499056   0.01788101 -0.73281926  0.40365043
 -0.25308335  0.5617913  -0.208014   -0.02864747  0.86796904 -0.23670296
 -0.13462354 -0.09567785  0.71323776  0.38042778  0.4145476   0.10609528
 -0.08185626 -0.4810762 ]
[-0.41538328 -0.48203337  0.15136088 -0.60324687 -0.19929145 -0.2519616
 -0.04624546  0.02958753  0.33139718  0.03737063  0.13981976  0.20850638
  0.28799438  0.13146113  0.05044153  0.0537962  -0.35610616  0.5409792
  0.09752449  0.17408244]
[-0.01465762 -0.09187406  0.09309029 -0.02618244  0.06195435 -0.16427357
  0.5420073  -0.18098035 -0.07025041  0.3735606  -0.20931432  0.2634808
  0.08692778 -0.07416879 -0.02947483  0.33556396  0.52631146  0.17764068
 -0.4748246   0.5818316 ]
[ 0.22014575 -0.12934908 -0.23380081  0.17660856  0.2944184  -0.29651546
 -0.01993137  0.23900627 -0.50265956  0.22031744 -0.24953547  0.33231708
 -0.35051155  0.12271209  0.24564372 -0.16268195  0.31487352 -0.14594223
 -0.01321709 -0.11671439]
[ 0.05770228 -0.10900789  0.03666146 -0.19138645 -0.0312858   0.03744648
  0.13280779 -0.18280712  0.21361461  0.05351378  0.14774112 -0.09888335
 -0.10517184  0.08357366  0.16268997 -0.02792722 -0.28197032  0.08745163
  0.10014186  0.00383643]
layer 1 Activation
tanh
layer 2 Dense
20 40
[-0.06627006 -0.06131476 -0.19857913  0.22083612 -0.4520433   0.22128153
 -0.12165619 -0.15593933 -0.09340923 -0.1198493  -0.19529058 -0.06322048
 -0.02852062 -0.0563271  -0.34451038  0.3467125  -0.16613509 -0.19711219
  0.41066658  0.06714212  0.09461146 -0.29219916  0.05762029 -0.7016695
 -0.19247176  0.16799493 -0.29455525  0.28979108  0.03254778 -0.05623332
 -0.2534491   0.9694056  -0.27732807  0.5449198   0.29480785 -0.12261846
  0.1474591  -0.25498354 -0.02884395  0.5118355 ]
[ 0.5994514   0.06952683  0.15067196  0.5899953   0.14857858  0.47639853
  0.07370678  0.4028006  -0.36852053  0.60908383 -0.07084314 -0.5263511
 -0.28848338 -0.17396815 -0.0411558   0.1292281   0.2661515   0.39580163
 -0.78953546  0.724626   -0.02153617 -0.10282079 -0.07806612 -0.0203684
 -0.04257809  0.45022961 -0.11030035 -0.93906343 -0.11035825  0.07371788
  0.50621843 -0.40233067  0.02904845 -0.6082807  -0.89465535  0.20608272
 -0.3952514   0.25239205  0.38559034  0.3085114 ]
[-0.35910645  0.22539735 -0.20948549  0.28901583 -0.11285879 -0.21181265
 -0.32209465  0.32057273  0.31559673 -0.06113204  0.41821185  0.08540815
  0.27539232 -0.34063128 -0.00834423  0.0733668   0.22648603  0.24535999
  0.39317375 -0.14379843 -0.00291691  0.2813922   0.35634428  0.07062225
  0.00984793 -0.20018144 -0.29084572  0.24133706  0.10813504  0.6193692
  0.44626856  0.06584541 -0.19397365  0.20324357  0.2895327   0.19797091
  0.32733804  0.29472443  0.48366496  0.3458692 ]
[ 0.06219008  0.05139844 -0.11750523 -0.4353776   0.41522285  0.08040722
  0.0171376   0.32546684  0.13799174 -0.08837011  0.22827983  0.08340816
  0.03452622 -0.05529584 -0.05974066 -0.09883223 -0.3580042  -0.20049298
  0.3905085   0.5131442   0.12275735  0.22768421  0.38923705  0.09413666
  0.11789513  0.06450436  0.27024478 -0.1469298   0.28887883  0.05984202
  0.14273036 -0.3056368   0.49376193  0.25820225  0.12764193 -0.18057644
 -0.00880155  0.14212163  0.11214215  0.73011255]
[-0.03197063 -0.11164966  0.09414916 -0.17671084  0.09782824 -0.03137976
 -0.2840185  -0.7143716  -0.08798739  0.02356545  0.47945562  0.10574092
 -0.07126508 -0.2803545  -0.14401422  0.04109711 -0.09571286  0.12683615
  0.5959116  -0.24426757 -0.3555843   0.17982192  0.20486811  0.06623431
  0.14100501  0.01371914  0.02109223  0.2437556  -0.04230376 -0.43077797
 -0.08263671  0.07278325  0.04163753  0.15972489  0.39301234 -0.27639213
  0.1178878  -0.1335167   0.17035688  0.29936364]
[ 0.01675506  0.27464664  0.21261325  0.28223154 -0.31939963  0.00315589
 -0.20166151  0.08877937  0.29360694 -0.26579928 -0.1811696   0.25181192
 -0.12700106 -0.3233612  -0.36943272 -0.16198322  0.25443548  0.16400346
  0.00306985  0.1320709   0.1375517   0.16756693  0.2906034  -0.517559
 -0.15648471  0.02299904  0.03508627  0.14807573 -0.22568618  0.05226232
 -0.17810765  0.6339155  -0.24959356  0.38823882  0.4637172   0.2581721
 -0.14200658  0.3222678  -0.1553039   0.18648472]
[-0.02118768  0.14613073  0.12832405 -0.09210848 -0.04821871  0.09046319
 -0.04551113 -0.0786377  -0.10719756 -0.28483492 -0.2530094  -0.00621582
 -0.21980727  0.08149443  0.03246325  0.22216597 -0.03212307  0.09570216
 -0.07855836 -0.39012858 -0.20932661 -0.33810845  0.2752943  -0.05521601
 -0.4998963  -0.2843229  -0.54601604  0.28761464 -0.7558253   0.29085258
 -0.11888858 -0.08338469 -0.06645341  0.29271814  0.42465886 -0.61263484
 -0.02178113 -0.47595006 -0.57050914  0.08137789]
[ 0.02525587  0.00575178 -0.09021064 -0.36364707  0.05675697  0.1151019
  0.12025224  0.04726491  0.13538706  0.23928511 -0.03412878 -0.05562524
  0.09777374 -0.31973955 -0.24471323  0.22667947  0.14005606 -0.31022236
 -0.26362824 -0.19099475 -0.09195997 -0.35230944 -0.30291733 -0.46317306
 -0.05459933  0.26249096 -0.20037155 -0.41020316  0.18499073 -0.15663686
  0.06935093 -0.0013026  -0.13003868 -0.33151376 -0.25057933  0.02044251
 -0.22650999  0.3389786   0.2763575   0.09767856]
[-0.42587098  0.18114953 -0.02709069 -0.04255309  0.5232912   0.10802422
  0.42253226  0.71257067 -0.16933693  0.17963766 -0.06827739 -0.26962113
 -0.11973482  0.32323912  0.05547388  0.0364862  -0.2653455   0.1895035
 -0.24096875 -0.26426047 -0.3801057   0.4811454  -0.49327794 -0.145256
 -0.1551376  -0.17467195  0.37690362 -0.08668638  0.27489924 -0.19759607
  0.35551277 -0.4099445   0.23876974 -0.34162465 -0.06751437  0.12402388
  0.17147568  0.3172952   0.07648814  0.2776673 ]
[-0.14211003 -0.03934557  0.32113966 -0.20222788  0.01028951 -0.08603927
 -0.15396555  0.3245214   0.15103105  0.23185474 -0.18627183 -0.10165267
  0.0677846   0.39870763 -0.2889899  -0.00134587 -0.11627869 -0.10952037
 -0.37078044 -0.00138685 -0.23480116 -0.11976463  0.2648895  -0.21061902
  0.0043827  -0.4800594  -0.02340588  0.45256358  0.11646418 -0.02374504
  0.02793947 -0.01078443  0.3956554   0.07970252  0.03608389 -0.5678407
  0.14306481 -0.18970557  0.04696707  0.31241828]
[ 0.07032932 -0.05951068 -0.16690148  0.6222499   0.07228637 -0.1530466
 -0.09391659  0.40825483 -0.03470948 -0.09373577 -0.20435977 -0.2062381
 -0.14950602 -0.15258133 -0.15099683  0.08973547 -0.12755539 -0.37071943
  0.1446451   0.00082266 -0.13536121  0.31153554  0.25205988 -0.15366216
 -0.42074823 -0.21140364 -0.18773168 -0.12793444 -0.1576974   0.6313482
  0.1463572  -0.1975281  -0.18383634 -0.04947344 -0.09937116 -0.1021608
 -0.15984797 -0.22253373 -0.27929512 -0.10557055]
[ 0.08255428  0.17480072 -0.12113725  0.04293481  0.16134329 -0.23882732
 -0.16917142 -0.1301019   0.2193717   0.15672559 -0.15417403 -0.05379144
  0.19461964  0.17883195  0.18056652 -0.29930174  0.0193696  -0.22184636
 -0.15380576 -0.03028748 -0.1682126  -0.18199918 -0.07406185  0.7225242
 -0.03976223 -0.15527388  0.01237621  0.03581162  0.06511082  0.10032598
 -0.0754186  -0.48097605 -0.33236533 -0.05918567 -0.3803288   0.39647043
  0.07219563  0.02059569  0.38231552 -0.35945636]
[-0.03145931 -0.27645716  0.0020744   0.29787531 -0.26945454 -0.11073565
  0.0102398  -0.09152023 -0.13935317  0.28064674  0.15320499 -0.22483277
 -0.20523681 -0.27785328  0.31780052  0.3303609   0.24984115 -0.02944351
 -0.08610265 -0.08496503  0.10628     0.035574   -0.11846505  0.6019945
 -0.5362423  -0.10727312 -0.34397495 -0.06704205 -0.52724695  0.02150229
  0.1477266  -0.27553156 -0.02301311  0.04828342 -0.3782835   0.34146816
  0.05094696  0.06745958 -0.05890944 -0.8207862 ]
[-0.03504298  0.12397709  0.14573087 -0.18538432 -0.11028358 -0.26463565
 -0.22072574  0.23868215 -0.11793787 -0.11749098 -0.00527304  0.13360235
  0.11445541  0.02474643 -0.23606957 -0.05136652  0.1132566  -0.00090331
 -0.0111983  -0.24391846  0.21146512 -0.12998964 -0.3669406  -0.03662708
  0.06350211 -0.07464944 -0.10361632  0.12485745  0.33442336 -0.04025789
 -0.17300326  0.38120052  0.03114457 -0.09876262  0.34644863 -0.07109375
  0.03410891  0.18581463 -0.23248993 -0.1327361 ]
[-0.42809406  0.21649233  0.02991999  0.41378254  0.01563811 -0.08339034
 -0.42748415  0.22665417 -0.19542234  0.3272689   0.08649149 -0.10432661
  0.03980685 -0.06516825 -0.23890278 -0.25592372  0.0424426  -0.04678956
  0.3595713  -0.4018216   0.1966601   0.06284665 -0.29944032  0.10952779
 -0.50918645  0.16643253 -0.20394005  0.17567053 -0.00786014  0.50134456
 -0.1371215   0.45509475 -0.2520034  -0.15952706 -0.09041227  0.4200472
 -0.06912738  0.20065206  0.11007246  0.0116426 ]
[-0.11594088 -0.10651757 -0.07281205 -0.32344908  0.33484924 -0.23808199
 -0.11735571  0.32916027 -0.137748   -0.14798254  0.25045463 -0.06492962
 -0.09465342  0.24751583 -0.21114102  0.05226535 -0.3733761  -0.2033092
 -0.20018673 -0.17111728  0.01590745  0.54493034 -0.10870277  0.03463301
  0.16470642 -0.36755776 -0.10857973  0.18203788  0.286878    0.35031784
  0.28155974 -0.2514834  -0.02273195  0.22666742  0.32329404 -0.37083268
  0.18780945  0.33575797 -0.14508995  0.22892489]
[ 0.0899205   0.24319528 -0.1938516  -0.16911721  0.29932198  0.14102127
 -0.5679404  -0.2886531   0.3106322  -0.00604829  0.37534958 -0.45913666
  0.21146435 -0.46156362  0.01203099 -0.09817438 -0.14272092 -0.07099157
  0.4363164  -0.01200953  0.25772822 -0.04056488 -0.38194323  0.16316085
 -0.23979598 -0.05418446 -0.35547075  0.27925944  0.19584799 -0.2822765
  0.09685513 -0.2969303   0.3468576   0.32775298  0.41330114 -0.38805258
  0.48441195  0.5139112   0.37369186  0.282565  ]
[-0.10527965  0.07030781 -0.21086903 -0.33337346 -0.02383948 -0.16118073
  0.3045064  -0.18463808 -0.08563488 -0.05714197  0.13333778  0.09577104
 -0.03209592  0.21453944  0.19987346 -0.04837694  0.08757706  0.26127473
  0.30805558 -0.41461834 -0.14412501  0.18520674 -0.18794343  0.00376691
 -0.04091708  0.05611113 -0.11390506  0.2825676   0.27401522  0.0639015
  0.3080269  -0.5421906  -0.20768218  0.02748514  0.03976425  0.13589256
 -0.33177888 -0.26912558 -0.1912084  -0.23728637]
[-0.3657098   0.52160114 -0.44149795 -0.17889282 -0.13354376 -0.42099693
 -0.43712366 -0.19662267  0.42870268  0.04208698  0.19604853  0.01571718
  0.01517496  0.0033149  -0.31355834  0.26783127  0.20662382 -0.14484854
  0.20055012 -0.45065883 -0.20667511  0.1705171  -0.18261917 -0.5938432
 -0.42506653  0.25299013 -0.37181586 -0.14893049  0.690476   -0.2104572
 -0.27077404  0.67174107 -0.3154523   0.28135467  0.03964777 -0.01765007
  0.3089234   0.14607386 -0.11221785  0.14248271]
[-0.47547334  0.17694241 -0.39525223  0.31467232 -0.27997243  0.3978038
 -0.3894501  -0.05637591  0.21868081  0.09029219  0.09137703  0.26124868
  0.01638652  0.04729559 -0.1183079   0.1275576  -0.07787497  0.04800891
 -0.03746404 -0.06851114  0.01885086 -0.6103183  -0.14679033  0.19179934
 -0.61313707 -0.2340296  -0.39705887  0.58298033 -0.8155121  -0.4340852
 -0.43983433  0.08861466  0.1061329   0.5646592   0.511685   -0.02918312
 -0.26629838  0.05271345 -0.19731571 -0.04853459]
[-0.31546724  0.1453333  -0.03121384  0.2369869   0.34584984 -0.23539938
  0.00398202  0.6370683   0.0885732   0.28912655 -0.02977545  0.06233776
  0.05987059  0.11375088  0.00850359  0.3414748  -0.15829258  0.03019396
  0.06150005  0.02616115  0.07701522  0.22238731  0.22863543  0.22562177
  0.07395817 -0.16686423  0.07961228  0.11507241  0.0942537   0.24548115
  0.10276411 -0.11977617  0.12839718  0.04824287  0.05670984  0.03364382
 -0.00970139  0.04783006  0.00777364 -0.06346826]
layer 3 Activation
tanh
layer 4 Dense
40 20
[-0.15494314  0.20959347 -0.15860708 -0.01702511  0.29811203  0.13529162
 -0.2842971   0.37337953 -0.1435705  -0.08136958 -0.1621336  -0.00707161
 -0.04976099  0.28055233 -0.28755963  0.2584628  -0.17536063  0.06718746
  0.03835768  0.05398741]
[-3.7378650e-02 -1.8443856e-01  1.4927606e-01 -5.4895487e-02
 -4.3233851e-01  6.3611843e-02  3.4233746e-01 -2.8250399e-01
  2.4616809e-01 -8.8390738e-02 -7.2161192e-03  9.5480241e-02
 -7.9135045e-02 -2.3349924e-01 -1.0771094e-02 -1.8331856e-01
  3.4479238e-04  1.2224164e-01  2.1291251e-01  1.6922456e-01]
[ 0.06018192 -0.03584276 -0.47586232  0.03103795  0.05033875  0.30781844
 -0.32879364 -0.09399674 -0.15892076 -0.08015415 -0.26688465  0.09214516
  0.04989484  0.11212353 -0.29221177  0.11941993  0.02087916 -0.02076297
 -0.02550519 -0.08973472]
[-0.05947264 -0.18349962  0.02237439  0.01357076 -0.24488471  0.18849115
  0.26650217  0.15283448  0.4776923   0.5164271   0.47439456 -0.02340405
  0.49475044  0.2624088  -0.23590386 -0.1360356  -0.36528486 -0.0192446
 -0.00214408  0.31255436]
[-0.09887041 -0.32441974 -0.09185383  0.40663916 -0.19513197 -0.00534211
 -0.22341165  0.23767427 -0.10753217 -0.27609378  0.13952003  0.08025317
  0.2459924  -0.1924253  -0.22100845  0.02970793 -0.03014656  0.05898302
 -0.1060533   0.28490773]
[-0.11154547 -0.18644589  0.01904325 -0.27301076  0.1561516   0.24489242
 -0.07473436  0.39597943  0.02823694  0.08468585 -0.2287309  -0.20977573
  0.03028844 -0.01898156 -0.1330446   0.35777617 -0.2653399   0.40040776
 -0.16421811 -0.19307761]
[ 0.26902997  0.18649404 -0.42815056  0.10385002  0.36809003 -0.15685351
 -0.41916063  0.1772756  -0.04469648 -0.09487803 -0.23142694  0.19112726
 -0.0013935   0.05286325 -0.34775397 -0.22302698  0.02190244  0.45154414
 -0.0893506   0.01124948]
[-0.12900387 -0.34008652  0.386627    0.41838682 -0.531607    0.08619247
 -0.04281775 -0.26248047  0.4279886   0.01086406 -0.02344391 -0.07018888
  0.19428994 -0.37563968 -0.29438227 -0.11954623  0.23703812  0.22834554
 -0.06085688 -0.00652501]
[ 0.02840528 -0.06133351  0.3260508   0.09239228 -0.23136093  0.1365295
  0.33228177 -0.12431922 -0.08635016 -0.29541394 -0.07255893 -0.11168629
 -0.11543678 -0.0612899   0.21196403 -0.04639183 -0.15585034 -0.08906005
 -0.02429585  0.08327804]
[ 0.12643644 -0.28108838  0.02415944 -0.06166421 -0.09430221  0.00090764
  0.2978974   0.37617093  0.4113004   0.10381853 -0.2131515  -0.29929262
  0.22102141  0.14868529 -0.33566707 -0.07847878  0.18703493 -0.04880138
  0.03271552  0.01546321]
[ 0.16855784  0.04949987  0.35503346  0.25984812  0.26109126 -0.13189116
  0.10543996 -0.45975187 -0.01032244 -0.17891604  0.1172442  -0.08574238
  0.00219718 -0.07614288  0.14615293  0.07423043  0.12866825 -0.21068813
 -0.07960228 -0.1480866 ]
[-0.07618797  0.1024597  -0.00212492  0.25330952  0.00659885  0.0182537
  0.25137225  0.01309723 -0.08525418 -0.00727835  0.24110188  0.11412865
 -0.05333348  0.14359446  0.15417647 -0.35986334  0.10169402 -0.06203829
  0.00929146 -0.14880829]
[ 0.05120664  0.12531777  0.00546964  0.12999517  0.08373018  0.21771099
  0.11606754 -0.5634722   0.01061658 -0.27497435 -0.05645264  0.03293981
 -0.08221073  0.03675015  0.11099791 -0.07938646  0.07825438  0.09362309
  0.05599438 -0.19005957]
[ 0.18185087  0.16155243 -0.08451597  0.19457993 -0.02401112 -0.09093805
 -0.3173823  -0.22045882 -0.16590358  0.22135179 -0.07266387  0.0966334
  0.08757963  0.071443   -0.00065044 -0.02360145  0.5467704  -0.06897349
 -0.0926123   0.06854934]
[ 0.0400057   0.18406485  0.03002454  0.32881927  0.18626736  0.15939629
 -0.31461838  0.3541543   0.3736093  -0.03460383 -0.1481434  -0.03157759
  0.01267896  0.2279677  -0.01009485  0.13103078  0.3344664   0.30168247
 -0.08500301 -0.04357165]
[ 0.117223   -0.06013183  0.04629032 -0.16197419 -0.26829973 -0.08127117
  0.24850231 -0.13450822 -0.0444028   0.04906369 -0.16222823  0.09366041
  0.11166506 -0.0152337  -0.02370537 -0.03456133  0.13865381 -0.09258216
  0.04460008 -0.09923115]
[-0.0119725   0.3937285  -0.10574672 -0.24315172  0.0282801   0.12488139
  0.1791949   0.30070522  0.13804881  0.18366207 -0.17057434 -0.01882757
 -0.07645106  0.18306403  0.13277218 -0.10031492 -0.09186716 -0.04394458
  0.17386048 -0.11060979]
[ 0.01195287 -0.06970549 -0.28968138  0.15742587 -0.07794616  0.17174506
 -0.21911572  0.15972157 -0.08515907 -0.1811584   0.2574083  -0.1580218
  0.30189466  0.20243052  0.04439266 -0.08538423 -0.0281595  -0.41165745
 -0.17018971  0.03413365]
[-0.24579476  0.07966226  0.08789042  0.2516268  -0.11619662 -0.03029236
  0.18344793 -0.57996285  0.16877331 -0.36482564  0.35918352  0.04395794
 -0.04372774 -0.12832762  0.23542778 -0.21045156 -0.35627118 -0.14250655
  0.189399    0.20081697]
[-0.18503775 -0.02542354  0.19538946  0.23170316  0.02206038  0.2742436
 -0.07560569  0.31280512 -0.18545723 -0.45553553 -0.27369747 -0.08012115
  0.32183507  0.06170558 -0.12337287 -0.1882825  -0.43662366  0.32629848
 -0.27331594 -0.19996528]
[ 0.15692526 -0.17842853 -0.22283614 -0.3591642   0.17381516 -0.03763043
  0.0192955   0.17284693 -0.01448774  0.09781545  0.18042736  0.15112549
 -0.05295812 -0.14932391 -0.17332692  0.07238767 -0.21483779 -0.02094097
 -0.00828452 -0.22489884]
[-0.05444329  0.20559388  0.2437341  -0.06225196 -0.06085335 -0.2516425
  0.19922477 -0.2958403  -0.08066341 -0.46402735  0.31889287  0.24752837
  0.3413868  -0.11218965 -0.31288642 -0.30636054  0.26574436 -0.06039595
  0.30917886 -0.2239158 ]
[ 1.6230641e-01 -4.3739197e-01 -3.9634615e-02  1.8293533e-01
  2.5269482e-01  4.9820114e-02  1.9931082e-01  1.1149695e-04
 -1.6305525e-02 -2.3201005e-01 -7.3462397e-02 -9.7305201e-02
 -6.2590770e-02  1.7662533e-01 -2.1213211e-01 -2.8920671e-01
 -3.4415555e-01  3.7405815e-02 -6.0602620e-02  1.5997195e-01]
[ 0.08988751 -0.4060206   0.027725    0.24579355  0.33511287  0.11387756
  0.12586528  0.01353455  0.34777993 -0.38839087  0.03583812  0.23544213
  0.2691171   0.01997132 -0.23776342  0.21754529  0.32863608 -0.10844111
  0.12266997  0.01172457]
[ 0.22353521 -0.01834875 -0.17841588  0.2543429   0.2777805  -0.08599971
  0.02099361  0.13697477 -0.02601611 -0.40081188  0.03210361  0.03946926
 -0.17438158 -0.14839467 -0.36643153 -0.4362119  -0.06295796 -0.02975521
  0.03311511 -0.05951263]
[-0.00697053  0.34667948  0.3677116  -0.21211436  0.0562939   0.10137772
  0.15076448  0.1376678   0.09284648  0.26305482  0.03844435 -0.07084403
  0.13178453 -0.12144773  0.22424884 -0.22259203 -0.07259626 -0.12099168
  0.25854513 -0.13445504]
[-0.18411905  0.03690472 -0.34127572  0.4008521   0.12961918  0.09034425
 -0.18923227  0.15761605 -0.27239963 -0.20796584  0.13763782  0.04155203
  0.08539145  0.1591159  -0.15001546 -0.17835383  0.01925863 -0.24756937
 -0.10591973  0.14225684]
[-0.16753118 -0.2046299   0.10566945 -0.20967564 -0.06046521 -0.14952311
  0.06876352 -0.4036321   0.3192962  -0.00189729  0.3405295   0.07061307
 -0.3287264   0.02462449  0.15145941  0.34041926  0.14213432 -0.03387569
 -0.10516679 -0.15795118]
[-0.00699891  0.4168263   0.24604057  0.3803883  -0.3426325  -0.1672014
 -0.2825477  -0.14532419 -0.3361027  -0.7327907  -0.19332816 -0.04391752
 -0.2779781  -0.5570061  -0.43590745 -0.49222428  0.3946311   0.19871956
  0.37874722 -0.15721801]
[-0.06863641 -0.2901286  -0.03275442  0.19236235 -0.20844802 -0.18556389
 -0.00936867  0.00862635  0.4648239  -0.47088012  0.27833766 -0.12866198
  0.42993298 -0.3224614  -0.35201216 -0.07046878  0.12743616  0.13063209
 -0.08941867 -0.20277622]
[-0.11242356  0.04288524  0.15279195  0.01224772 -0.0891713  -0.04907949
 -0.17125556  0.08810607  0.3393604  -0.42396924  0.07853485  0.19330929
  0.07446045 -0.2963276  -0.37428138  0.24652214 -0.08206756 -0.03625751
 -0.15471445 -0.07704227]
[-0.01818144  0.24361695  0.17979975 -0.3287963  -0.28116927 -0.07365943
  0.09292017 -0.14623907  0.15851967  0.40462732  0.26305807  0.16554527
 -0.3268893  -0.21033902  0.43712842 -0.5053669  -0.21616878 -0.247374
 -0.29445538  0.09782472]
[-0.12560697 -0.3510514  -0.28265825  0.05203189  0.14956433 -0.24774067
 -0.22893403 -0.01236914 -0.2935649   0.08198337 -0.11068422  0.17036265
  0.09371129 -0.26290527 -0.3460143   0.23328917 -0.11493206 -0.3210853
  0.10304531  0.05769528]
[ 0.12932485 -0.28378442  0.25170016  0.1351383  -0.2676274  -0.24846607
  0.07124962 -0.13923262 -0.054567    0.16793156  0.30143306 -0.02122671
 -0.2089734  -0.13980551  0.4081757   0.29952756 -0.2734504  -0.36207893
 -0.02935194 -0.15005088]
[ 0.12163659 -0.3112482   0.19374533  0.2773131  -0.34832367 -0.08367987
  0.21310446 -0.2993067  -0.25635642  0.06979827  0.20019095  0.28854316
 -0.20662107 -0.23436227  0.41633573  0.35551313 -0.18113914 -0.10168469
 -0.03319776 -0.12652172]
[ 0.14875361  0.10393869 -0.14460161  0.09002641  0.06125842 -0.34856734
  0.2715627   0.39311525  0.42901614  0.06500221 -0.1339002   0.35063815
  0.2435908   0.27395913  0.15225284 -0.1686636   0.05185897 -0.14142665
 -0.13397561 -0.14167179]
[ 0.261271    0.2028892   0.13577016  0.23575832 -0.07154082  0.05033998
 -0.22572555 -0.45460987 -0.4532304  -0.3929305   0.25046632 -0.01692841
 -0.10513481 -0.3289246   0.17652465  0.06042928  0.10504773 -0.00729034
 -0.16031834  0.08033737]
[ 0.01811011 -0.14584975  0.24146974 -0.03278206 -0.18603931 -0.22728127
  0.08835207 -0.31784117  0.09631164 -0.49770764 -0.24154662 -0.17093424
  0.02067357 -0.22683306 -0.07978255  0.2934173   0.11054333  0.18688577
 -0.23527288  0.17600468]
[ 0.0531183   0.0369298  -0.15389316  0.16884258  0.14758043 -0.02479432
 -0.15906078  0.01093971  0.15105687 -0.6225342  -0.00753025 -0.09974366
  0.22191988  0.07791069 -0.06652001 -0.0369412  -0.2686257   0.04171689
 -0.27917543 -0.00267387]
[ 0.01845061 -0.11719435 -0.04712132  0.16244552 -0.167936    0.17389385
 -0.01624574 -0.35756007 -0.2646249  -0.5674602  -0.16069409  0.02069504
 -0.29805824 -0.35333136 -0.36306185  0.12111954 -0.46147612 -0.02350559
  0.12825115 -0.06753489]
[ 0.02732367 -0.2607742   0.08003265  0.1393281  -0.08380499 -0.01394281
  0.06857745 -0.08756145  0.09194218 -0.09192866  0.13511573  0.04509687
  0.10728565 -0.09025043 -0.12654567 -0.27214673  0.23257814 -0.13444594
 -0.03472663  0.03252367]
layer 5 Activation
tanh
layer 6 Dense
20 1
[0.00162937]
[0.10975726]
[0.03357665]
[0.09196862]
[-0.11805772]
[-0.00173459]
[0.10400966]
[-0.01478978]
[0.11034299]
[-0.06245957]
[0.01853384]
[-0.01484002]
[0.1642161]
[-0.11274998]
[-0.09953118]
[0.1361779]
[-0.11008765]
[0.00757157]
[0.00380681]
[-0.0104686]
[0.04160788]
