layers 7
layer 0 Dense
20 20
[ 0.08736667 -0.21780324  0.24208966  0.03791162  0.00168958 -0.23499846
  0.34997404 -0.43607372  0.44319877  0.44026572  0.46160877  0.10540225
 -0.12376112  0.01164251 -0.2705307   0.07414524 -0.44590065  0.42637298
  0.01528856  0.22518143]
[-0.07626224  0.02457642  0.24246123  0.08493654 -0.5294578  -0.35707808
  0.09126312  0.35322008  0.04273877  0.31893405 -0.43262926  0.25058484
  0.18584083 -0.40684113 -0.04162503 -0.28945574 -0.00853214 -0.13528991
  0.0666331   0.2829657 ]
[-0.07100128  0.3256726  -0.2845414  -0.07087854  0.2043431  -0.63977826
 -0.15599577  0.41735512  0.51560444 -0.0770066  -0.35089028  0.3345732
  0.05996076  0.08828655 -0.02063642 -0.48361024 -0.21926008  0.1301328
 -0.15235257  0.27460137]
[-0.00955945 -0.18283232 -0.02240787  0.20534773  0.03098613 -0.03619189
 -0.08179278 -0.02849056  0.14693446  0.33516145 -0.15380351  0.18763496
  0.39299053 -0.12304495  0.26840475 -0.40606478 -0.06312199 -0.13708961
  0.04923737  0.27950722]
[ 0.18109462  0.25474408  0.34229547 -0.15038756 -0.39243937 -0.15871947
  0.06266568 -0.25403196  0.13553733  0.20780455 -0.22519784  0.20042521
 -0.04460458  0.12725104  0.15378499 -0.2703963  -0.33766025 -0.33533394
  0.22436468  0.2984163 ]
[-0.13523488  0.0926942  -0.32077295  0.48657724 -0.20812552  0.56203276
  0.3631171  -0.11975686 -0.12840241  0.10644401  0.09297907 -0.07112227
  0.30554998  0.18219785  0.08752201  0.30788356  0.5029772   0.28713885
  0.6156898   0.00898386]
[-0.14793696 -0.38476172  0.32152927  0.08778563  0.40261787  0.72873133
  0.28246537 -0.25350827  0.03594156  0.29310894  0.5463245  -0.54309785
  0.556159    0.56664866  0.10018998  0.77269393  0.12976533  0.24758115
  0.6219612  -0.09194804]
[-0.41464466  0.0514435  -0.30549723 -0.208169   -0.2555436   0.37065232
  0.13514951 -0.2519238  -0.36846372 -0.11020879 -0.49353668 -0.39112598
  0.2465669   0.21789901 -0.08456238  0.30076194  0.31825846  0.40520447
  0.01604288 -0.09542488]
[-0.01812037 -0.0874594  -0.20605066 -0.5727003  -0.04202733 -0.47808453
  0.30688986  0.18229468 -0.09322204 -0.31724134  0.08401555 -0.21543212
 -0.14052667 -0.4589279  -0.48641533  0.35751924 -0.07206858 -0.52058655
 -0.3378367  -0.30082232]
[-0.30570784  0.31547022 -0.23298626 -0.02357069 -0.07970922  0.03668584
  0.11795704  0.04086118  0.17190634  0.56032056 -0.53641295  0.5469237
 -0.5878458  -0.3082702   0.2598433  -0.06124572  0.18568207 -0.3256254
 -0.10504027 -0.23568472]
[-0.5620224   0.6426537   0.70723623 -0.35573345 -0.38935018 -0.1529502
  0.60739833 -0.18372701 -0.47148338 -0.30451426 -0.1924361  -0.4084604
  0.06567872 -0.14830777  0.31116763  0.38002762  0.00648799  0.00659812
  0.20981    -0.26793677]
[-0.29813114 -0.14854833 -0.1341522  -0.02583779 -0.3907101   0.7165216
 -0.09117767  0.14451034 -0.3329321  -0.25439957 -0.07106056  0.37683794
  0.58089656 -0.5655214   0.27458873  0.23575436  0.25315407 -0.34913722
  0.3667648  -0.04069502]
[-0.24550869 -0.12943885 -0.23913735  0.6859851   0.25524753  0.5849066
 -0.69439375 -0.24731725 -0.17887601 -0.13013011 -0.552234    0.4126569
 -0.19246204  0.5531108   0.63799965  0.8269473   0.5114041   0.757538
  0.5029074   0.3393239 ]
[ 0.18034445 -0.11160756  0.3096367   0.08664349 -0.20012747  0.29016498
  0.24020992 -0.23256838 -0.3339359   0.09539747 -0.04645311  0.07166865
  0.44053295 -0.14060391  0.20572616 -0.42202288 -0.02362602 -0.25491524
 -0.20687068 -0.25122243]
[ 0.12344278  0.09026593  0.15171064  0.1407309  -0.01018432 -0.29840606
  0.12657024 -0.25202733  0.28628063  0.29042268  0.28778568 -0.26258728
  0.1884442   0.21951726  0.07758874 -0.38273925 -0.04365906  0.06442322
  0.17943183  0.01458613]
[ 0.81663376  0.22638832  0.01064238 -0.9736593  -0.18829736 -0.7482564
  0.23939951  0.10681766  0.07652222  0.29015568  0.761746   -0.13520102
  0.22586982 -0.5140632  -0.54027045 -0.42035744 -0.09488009  0.19727254
 -0.72232896 -1.0673465 ]
[-3.0620908e-04  3.9737040e-01  2.6197182e-02  1.9183655e-01
 -1.9199823e-01 -6.5094151e-02  3.6451390e-01  6.5971726e-01
  3.0242193e-01  2.8783950e-01  3.2266140e-01 -5.4555750e-01
  1.9534606e-01 -5.0897360e-01  3.4106012e-02 -3.8247830e-01
 -4.4563144e-01 -5.3937221e-01 -4.9444979e-01  7.4556045e-02]
[ 0.03054842 -0.22270055 -0.22764483  0.5235021  -0.6190297  -0.6280355
 -0.1476667  -0.44619086 -0.01218507  0.23626922 -0.04618011 -0.53470653
  0.6221195   0.48115122 -0.04327524  0.60835046  0.30428353 -0.28774744
 -0.21217531 -0.12162741]
[-0.05029231 -0.18722264 -0.69649756  0.48919022  0.39816874  0.56761247
 -0.38197002 -0.32656077 -0.01609233 -0.16768675  0.1003355   0.4048592
  0.08997859 -0.08411524 -0.74892235  0.31254938 -0.5256249   0.19786458
 -0.18910462  0.00112497]
[-2.92822450e-01 -4.49238606e-02  1.07581727e-01  2.02328101e-01
  7.90732324e-01  6.14488184e-01 -4.15680319e-01  2.08085179e-01
 -3.24269772e-01 -6.75057292e-01 -1.01318456e-01  1.87082831e-02
  2.12173704e-02  5.01508296e-01  4.04678471e-02  6.78138137e-01
  6.06624186e-01  6.94290102e-01 -1.95289555e-04 -2.20451087e-01]
[ 0.22969903 -0.07262804  0.00417259  0.01004415  0.03646315 -0.02713558
  0.03156741 -0.13588051  0.03773555  0.1522047   0.04240736  0.09785304
  0.0981389   0.0427846   0.04526276 -0.09823262 -0.1294998   0.00234734
  0.0380787   0.05974992]
layer 1 Activation
tanh
layer 2 Dense
20 40
[ 0.276595   -0.04926268 -0.16842584  0.10887378 -0.10109816  0.2269423
 -0.13833633  0.10886619 -0.33853704  0.01927621 -0.02345206 -0.02119718
 -0.051676    0.23127498 -0.16119915 -0.28106827  0.21982808 -0.30846938
 -0.15766875 -0.13030344 -0.19369112 -0.19987626 -0.22526202 -0.20278245
  0.36886743 -0.25830457  0.03855356 -0.17974634 -0.10316022 -0.27304435
  0.14813696 -0.01476644  0.00427865  0.10864173 -0.07960568 -0.26972216
 -0.01199762 -0.12318114 -0.17365317  0.24244022]
[-0.18723017 -0.21216124 -0.20257407 -0.04468285  0.07739457  0.15001802
  0.28167993 -0.02794264  0.02826457 -0.09935834 -0.30234706  0.14121969
  0.12708269  0.12657684 -0.14246485  0.05332271  0.3254656   0.2086225
  0.2020213   0.03335594 -0.05319561  0.20536685 -0.26591098 -0.04396285
 -0.09844564 -0.1925037   0.0789258   0.11351764 -0.2543057   0.06734403
  0.13115013 -0.09556138 -0.10385765 -0.19417006 -0.2501578   0.2583
 -0.04641133  0.08094018 -0.09304656  0.08291107]
[ 0.21628179 -0.06022635 -0.16080517  0.3678216   0.21093628  0.3484317
  0.3916615   0.19270706  0.11642208  0.01251179  0.33161983  0.47902343
 -0.05164778  0.4283395   0.1107884  -0.21443555 -0.0465285   0.27883533
 -0.17237693 -0.2849799   0.08444621 -0.0893705  -0.22483712  0.14148748
  0.25891578  0.3402864  -0.03159393 -0.22152945 -0.21675676  0.19068593
 -0.2625505   0.38297522 -0.01675064  0.31488812 -0.04871716  0.2749563
 -0.16403066 -0.22437614 -0.00531305 -0.24524316]
[-0.30176836 -0.10538761  0.11889724 -0.39350614 -0.27415526 -0.2836407
 -0.51667744 -0.31118602 -0.3141657   0.05930465 -0.17206025 -0.36139962
  0.06879885 -0.17842092  0.18722266 -0.02684023  0.12797661  0.2427803
  0.08094992  0.22114617  0.14199005  0.12673613 -0.15676779  0.15991348
  0.04840369  0.10633579  0.28646323  0.10860369 -0.142895   -0.15338315
  0.02655036 -0.23570442  0.35947287  0.0776035   0.575447    0.00286097
 -0.1923419  -0.3111526   0.11905383  0.16025017]
[-0.38771877 -0.18617922  0.16955186  0.04905229  0.18809487 -0.01748108
 -0.24093959 -0.25571513 -0.04239476  0.3432286  -0.1095732  -0.12390234
 -0.28733632 -0.2644836  -0.37119445  0.00734661  0.09551237  0.10682273
 -0.12310499  0.08403831 -0.08573296  0.10227077  0.00273616  0.08840735
 -0.07766555  0.1587654  -0.22697474  0.06603101 -0.48248777  0.06273443
 -0.05359316 -0.33900702  0.32770395  0.46851924  0.05194765  0.2258229
 -0.2951855  -0.09778205 -0.22905697  0.15995856]
[-0.4390158  -0.16914073  0.22847657 -0.09595925  0.32377294 -0.18758208
 -0.4753263   0.3537301   0.11291525 -0.05391433 -0.2063116   0.11754652
 -0.0073796  -0.12421401 -0.10267553  0.16287161  0.00951001 -0.22148563
 -0.11091493 -0.01271262 -0.06039402  0.08534946  0.21135609  0.04539613
 -0.08249295  0.2913439   0.3229819  -0.15204787  0.07862493  0.01996982
 -0.00914547 -0.12013952  0.2901423  -0.42397258 -0.0197779  -0.010484
  0.01722727 -0.09760426 -0.04061221  0.04723732]
[ 0.16198288 -0.24023974 -0.09238099  0.2750378   0.08680259  0.27576116
  0.3421273   0.33471933  0.0032977  -0.24374641  0.3517662  -0.13931546
  0.14755747  0.49821034 -0.06452333  0.01254783  0.07080326  0.13198131
 -0.01389536  0.16472186  0.00955142  0.22844844  0.13241123  0.1206732
  0.0537813  -0.14171559 -0.2768851  -0.03803136 -0.04492441 -0.0834759
  0.24640219  0.08835121 -0.14132132 -0.0638614  -0.34134156  0.24921994
  0.16125469 -0.142939    0.0380774  -0.24515866]
[-0.10329276  0.23942077 -0.01116549 -0.15079905  0.19343527  0.02844957
  0.16542986  0.28860444  0.02265401 -0.14098707 -0.36972278 -0.22098655
 -0.15105037 -0.08268315  0.02519975  0.07492264 -0.15302631 -0.23759086
  0.1529852   0.10984723 -0.0874414  -0.0996178  -0.1868588   0.1098634
  0.25911018 -0.14861716 -0.03791911 -0.18995485  0.16276753  0.13288826
  0.39041275  0.04970026 -0.06486905 -0.26805535 -0.25801396  0.26450238
 -0.07509223  0.13441925  0.20240928 -0.25766408]
[ 8.1627212e-02 -2.2082232e-01  1.9721426e-01 -1.1567884e-02
  2.9820003e-02  1.7962554e-01 -8.2202613e-02 -1.6755810e-01
 -5.9562519e-02 -2.7592540e-01  1.8286355e-01  1.1981559e-01
 -1.0308080e-01  1.9723077e-01  1.1986311e-01 -9.4845369e-03
 -2.3552151e-01 -6.2750563e-02  3.2072532e-01 -2.0291004e-02
 -8.2279164e-03  4.7272479e-05  2.7674042e-02 -2.4293673e-01
  1.2855764e-01 -4.1630888e-01 -1.3397853e-01 -1.0463441e-01
 -6.5560155e-02  1.1602768e-01  3.0920246e-01 -3.4411114e-01
  2.6746893e-01  8.2890667e-02  1.4995703e-01  4.4521336e-02
  2.8911722e-01 -3.0000040e-02 -2.4737154e-01 -2.1994482e-01]
[-0.1782116  -0.0905507  -0.27482238 -0.10276643  0.03774069  0.05133589
 -0.12971433  0.03109349  0.1816419   0.00589696  0.2916042  -0.2295553
  0.24581431 -0.12283377 -0.2447497  -0.09073086  0.05928501  0.2595778
 -0.19407855 -0.3236496   0.04183472  0.16844751 -0.1397222   0.03545082
  0.2710761  -0.4150473   0.01543807  0.10087315  0.00399972  0.21993561
  0.24717192 -0.11538702 -0.13087977  0.42149088 -0.03278099  0.02387349
 -0.04755585 -0.42958733  0.24514395  0.2592498 ]
[ 0.01392449 -0.37778315  0.34381568  0.1279836  -0.28790745  0.12668948
 -0.28958347 -0.2692362   0.18238437 -0.125215    0.2766681   0.15528062
  0.00257597 -0.06893902  0.24578388 -0.21320263 -0.367653   -0.2149831
  0.05549787  0.07720672 -0.04941517  0.16374965  0.16482842 -0.14884871
  0.02801176 -0.27856642 -0.02882689 -0.11534189 -0.10281001  0.13233757
  0.08299089  0.14664991  0.24107705  0.33831275  0.17006607  0.19197854
  0.13130023  0.01372945  0.01171042 -0.19261375]
[ 0.11766031 -0.10305318  0.13502786  0.0962366  -0.00684817 -0.1380183
 -0.45664948  0.14439063  0.03800245  0.3717742  -0.01048139  0.10661362
 -0.127464    0.03733784  0.27317065 -0.04557652 -0.19352728 -0.02376467
  0.3347009  -0.07078501  0.05477052 -0.28415197  0.3344271  -0.12591144
 -0.05785606 -0.03699655 -0.15489443 -0.2684049  -0.18397018 -0.24252015
 -0.34804562  0.09714156  0.21272233  0.2119311  -0.10870259  0.03407754
 -0.03620455 -0.16738899 -0.15862668 -0.0802661 ]
[ 0.23858392  0.02806878  0.14201503 -0.05666877 -0.01725108 -0.07957179
  0.25148985 -0.02223954 -0.2401481  -0.05211962  0.02689113 -0.14392196
 -0.09615631 -0.2487216   0.15375665 -0.32404774  0.15303488  0.23689815
 -0.25242522  0.19381171 -0.07846352 -0.02304853  0.16389006  0.08545393
  0.05519177  0.03358948 -0.20555016 -0.08638822 -0.05029068  0.16091502
 -0.03172634 -0.09629351  0.24083984  0.28381154  0.28525162  0.14106359
  0.18851504  0.10586432  0.1567091   0.3989419 ]
[-2.03636870e-01  3.89484495e-01 -1.49088785e-01 -7.92108402e-02
 -1.11700900e-01 -4.90719974e-02 -3.02956849e-01 -4.64062095e-02
 -7.72967376e-03  1.22885585e-01  3.88339758e-02 -1.32508799e-01
 -2.79335380e-01 -6.77357495e-01  2.17701823e-01 -3.87135565e-01
  2.49246269e-01  2.68420398e-01  1.91355199e-01  3.47978994e-02
  6.12717047e-02  1.68313399e-01 -2.62257516e-01  1.87018961e-01
 -3.25401932e-01 -4.11428176e-02 -2.35779539e-01 -9.47180204e-03
 -1.32887334e-01  2.50895682e-04 -2.54933208e-01  1.93056896e-01
 -2.56350525e-02  1.19098432e-01  1.24106005e-01 -1.56055856e-02
 -1.33005008e-01  2.64067113e-01 -1.75479978e-01  1.30478933e-01]
[-0.23605596  0.12764548 -0.60678923  0.11832115  0.08878814  0.24578302
  0.2734738   0.12691742  0.0445277   0.13069274  0.030943    0.44152462
  0.40930274 -0.09328403  0.33194023  0.16661656  0.41837448 -0.0611494
 -0.07182678 -0.2948146   0.04201262 -0.24197286 -0.27411264  0.12763825
 -0.09397963  0.16269624  0.06909752 -0.16308022  0.18994689  0.13530238
  0.16378355  0.38298196 -0.29134387  0.20257944 -0.11815781  0.21106543
 -0.2139376  -0.02648668 -0.19884415 -0.26859948]
[-0.07768554  0.35410076  0.16521807  0.07717342 -0.16137277 -0.20471534
 -0.2612407   0.30696762 -0.08485813  0.23743618  0.00652175 -0.1828119
 -0.24816635 -0.06931318  0.3790684   0.03195204 -0.03104116  0.27901977
 -0.21917039  0.25923815 -0.15808228  0.12185606 -0.35484898  0.2265235
 -0.3017205   0.3342397   0.43722373 -0.15911628  0.00757647 -0.03106544
 -0.17407407  0.14696684  0.1437645  -0.3090459  -0.21908133 -0.31833047
  0.19689688  0.4264507  -0.14447594  0.01949158]
[ 0.04955677  0.5168989  -0.04158472 -0.02021174 -0.14640689 -0.15236771
  0.1088644   0.0742295   0.22471865  0.36395708 -0.33317044  0.4267725
  0.15895674 -0.48425296 -0.02979339  0.10827279  0.2430547   0.22719069
  0.03748536  0.27904567 -0.29118878 -0.1357651  -0.19993715  0.1360779
 -0.29015052 -0.14652844  0.2827233  -0.09137685  0.19632576 -0.09841235
 -0.19045141  0.04777259 -0.33936837 -0.29395297  0.10769461 -0.07088136
  0.03798265 -0.26801294  0.02893276  0.16237643]
[-0.31118155  0.5447118  -0.35460246 -0.10826059  0.00837594 -0.02604351
 -0.61239237  0.20843323 -0.09946319  0.13412778 -0.31273896  0.11837652
 -0.17704564 -0.43128237 -0.08837339 -0.26295575 -0.093178    0.24824429
  0.08491457 -0.14687343 -0.1977771   0.07099897  0.01257904  0.2852633
 -0.22067288  0.12606555  0.42038968  0.00499907  0.10575628 -0.21388108
 -0.02652443 -0.08426978 -0.08578802 -0.26002672  0.19883518  0.22122745
 -0.19638363  0.04149449 -0.08525237  0.01327827]
[-0.26818755 -0.01702998 -0.19859196 -0.3101203   0.06715378  0.01632244
  0.29916808  0.283012   -0.11050121  0.35531107 -0.03197158  0.12100843
  0.43301335 -0.13555996  0.149246   -0.17865662  0.2623865  -0.07465652
 -0.12630755  0.11601178  0.20017324  0.07841035  0.21772607  0.39561412
  0.03990187  0.07085438 -0.04486285 -0.23648523 -0.1340602  -0.01626004
 -0.23952109  0.18397526  0.10516649  0.19088508  0.17427044 -0.08843917
 -0.22965409  0.15690707 -0.08957674  0.17970343]
[-0.05727535 -0.07027016 -0.07019316 -0.11537872  0.3012734  -0.3251258
 -0.01764318  0.01287664 -0.17934948 -0.11218307 -0.10333759  0.00963746
 -0.20131764 -0.18341477  0.06310613 -0.17751914  0.23595911 -0.21462172
  0.2035194  -0.16869627  0.00922952  0.0269933  -0.01589241  0.19164053
  0.2862301  -0.17718145 -0.16463329  0.27306592  0.01932711 -0.09998294
 -0.26314077  0.08961938  0.16326529  0.18671797  0.07558257  0.12711632
 -0.19897303 -0.2567512   0.21187899 -0.21791674]
[ 0.02677281 -0.08424168  0.02186645  0.05992006  0.01171018  0.07364114
 -0.10232106  0.07882057 -0.17263757  0.01858599  0.20066634  0.04656278
 -0.03296147 -0.01909632  0.07123521 -0.01492542 -0.02838002  0.02620814
 -0.09768192 -0.09236843  0.0315957  -0.01347096  0.00161159  0.02148591
  0.14367306 -0.05480266 -0.10613643 -0.05067776 -0.19037426 -0.01390805
  0.0260295   0.00110848  0.01488701  0.21869479  0.03805288  0.01423196
 -0.03191341 -0.3641149   0.0231073   0.15867925]
layer 3 Activation
tanh
layer 4 Dense
40 20
[ 0.12871145  0.15178302  0.38289616  0.05002975 -0.06379667  0.07221273
 -0.06641386  0.17979586  0.19835553  0.02674056 -0.02483005 -0.19174689
  0.10232147 -0.07356556  0.08656477  0.07721338  0.16089568 -0.2037411
  0.02722464 -0.3015649 ]
[ 0.17480275  0.16380733 -0.26430547 -0.02370697 -0.31628338 -0.35952795
  0.09055118  0.15446426  0.30448008  0.34658423  0.16059743  0.04800653
 -0.09565251 -0.19142972 -0.07277921  0.05654284  0.17832105 -0.14112636
  0.13620359 -0.309752  ]
[ 0.25879014  0.11414618  0.12837037  0.11653963 -0.18991885  0.08041932
 -0.11004755 -0.00283672  0.22445673 -0.19355004 -0.05670209  0.06643786
 -0.14543077  0.27646238 -0.17029619 -0.19851193  0.01845754 -0.15922052
  0.20925714  0.29536796]
[-0.16346827 -0.14496912  0.31785312 -0.23869196 -0.11027474  0.10481834
 -0.43714952 -0.25567228 -0.03834423  0.1846256  -0.11568294  0.11494104
  0.16332187  0.02977386 -0.15858851  0.13961588 -0.13081382 -0.17157255
  0.22534601 -0.19394366]
[ 0.273088   -0.24507746 -0.01915658  0.03352693 -0.03449475 -0.04362615
 -0.06652995 -0.03890543  0.04514499 -0.04588281  0.11712024 -0.17778964
 -0.10740358  0.23532599  0.1631868  -0.05484051  0.03414598  0.34292796
 -0.1063471   0.17579688]
[ 0.01937815 -0.21728504 -0.08096896  0.0709458  -0.07271729  0.2292157
 -0.32669201 -0.00357727  0.16525789  0.09276491 -0.37586692  0.11864625
  0.06485339 -0.28657225  0.25478542  0.1950216  -0.14331125 -0.24054489
  0.21732178 -0.28790691]
[-0.10433183 -0.07027328  0.21527888  0.01699599 -0.19181049  0.37749866
 -0.25803044  0.22166677 -0.19615157  0.16373466 -0.4232866   0.14827625
 -0.07611078 -0.04983761 -0.07581381  0.04323385  0.03206891  0.25547338
  0.25914246 -0.09440275]
[ 0.04101885 -0.1909412  -0.18448016 -0.15705812  0.04229629  0.27149832
  0.18156801  0.21852075  0.05318722 -0.14359175 -0.2751935   0.08682916
 -0.05577556  0.4165516  -0.2412445  -0.05894098  0.1382529  -0.03596941
  0.05454326 -0.35870054]
[ 0.22699463  0.08900677 -0.20047556 -0.17622752  0.24583447 -0.17750159
  0.02245048 -0.048848    0.2835781  -0.15698014 -0.25789577  0.13488041
  0.01494098  0.14725976  0.04044208  0.11119566 -0.07909121  0.20490104
 -0.01072024 -0.11941533]
[ 0.23565699  0.04420838 -0.284084   -0.21406476 -0.24537703  0.08610728
  0.34753287 -0.07949818 -0.14471197 -0.07330706  0.2840545  -0.12731117
  0.16818589 -0.22430491  0.288147   -0.06579395  0.07462993  0.0279662
  0.05825511 -0.02622925]
[ 0.22654837  0.21391246  0.32845196 -0.24326423 -0.1673322   0.23142424
 -0.07833294 -0.12922727  0.34493697 -0.20838475 -0.09449156 -0.20117219
  0.01246982 -0.18744026  0.05025667  0.10210834 -0.25353837 -0.19039977
 -0.01912153  0.12336502]
[ 0.06128716 -0.2462373   0.00942898 -0.17355932  0.19078673  0.18807593
  0.28202218  0.09711484  0.00996252  0.11860313 -0.00696684  0.12925924
  0.16223164 -0.28947586  0.14667933 -0.05506279 -0.15549055  0.06929533
  0.19998667 -0.19257407]
[-0.16421369 -0.20279908 -0.10904384 -0.10811931 -0.03990218 -0.19191578
  0.23370719  0.19912972 -0.10516998  0.17932358 -0.4346447  -0.03553883
 -0.15981704 -0.21412101 -0.02877867 -0.22052546 -0.00708553  0.32624182
 -0.12960245 -0.3796936 ]
[ 0.00905643 -0.24754398  0.29303375  0.11886165 -0.14019464 -0.04958849
 -0.4373303  -0.30883622 -0.1482608   0.15701953 -0.19385518 -0.23692888
 -0.09129366  0.37136707 -0.04290049  0.09592795 -0.03422442  0.2124247
  0.02065355 -0.04424596]
[ 0.32879314 -0.25330833  0.16571878  0.13279425  0.04526233 -0.02760979
  0.27452666  0.07214887 -0.02513197  0.23782286  0.12273779 -0.32514074
  0.22345893 -0.25148943  0.11437491  0.34653658 -0.12863703 -0.279562
  0.08727338  0.18908718]
[ 0.10056931 -0.19919407  0.30137572 -0.09234577 -0.03051334 -0.25653034
 -0.12303886 -0.08711732  0.08476024 -0.06137723  0.19070794 -0.2715104
 -0.08404096  0.32404184  0.11418108 -0.15134647  0.24172376  0.3041671
 -0.20793554 -0.30030593]
[ 0.2825953   0.02093024 -0.15589492 -0.22854744 -0.04861954 -0.14214407
  0.24017026 -0.12240923  0.17411943  0.34440348 -0.16964747 -0.12922342
  0.21725999 -0.02372798  0.15619828  0.10434474  0.2049415   0.00694278
 -0.2832706  -0.19360726]
[-0.34415832 -0.23262975  0.13386968 -0.08892392 -0.01391242 -0.13491958
  0.3938535   0.21791057 -0.03953863  0.24278127  0.15654881 -0.20513783
  0.02079604  0.10292468 -0.2831733  -0.04716973  0.06900831 -0.04782123
 -0.19530614  0.11062642]
[-0.05347995 -0.17887019 -0.11042241  0.16694383 -0.17747074 -0.15689254
  0.28709826  0.19910851  0.01008969 -0.1732455  -0.13664305 -0.16720973
 -0.18977356 -0.24268126  0.18478866  0.03275076  0.10994174  0.2524534
 -0.15500627  0.12107583]
[-0.21667005 -0.2044678  -0.24455954  0.2965766  -0.10657126  0.17977051
  0.27457115 -0.03664063 -0.13237208  0.33766848  0.30689323  0.19833562
  0.04675777  0.21991986 -0.0160541   0.12761815  0.2764889  -0.01150898
 -0.34464917  0.05314207]
[ 0.17948462 -0.0513187   0.09136388  0.12837133  0.0373617  -0.01933384
 -0.27340212  0.08937558  0.0015165  -0.23569764 -0.31456372 -0.05926912
 -0.2882995  -0.30590397  0.04332002  0.03414165 -0.14319514 -0.1444042
  0.12314349  0.12206329]
[ 0.21040331  0.10382602 -0.00341205 -0.01126742  0.02789907 -0.24625339
 -0.03167221  0.12876488 -0.00709823  0.23313813  0.02197956  0.0976133
 -0.14460048  0.06559832  0.11191927  0.00601961  0.22954436 -0.21984906
  0.08547042 -0.06104174]
[-0.14303099 -0.08969548  0.11729727 -0.10948566  0.03982425  0.33031955
 -0.51819295  0.09276459  0.18424597 -0.06122391  0.19739933  0.00791785
  0.19031918  0.2786886   0.2136364   0.22000474  0.29671875  0.21657461
 -0.18325245  0.18073128]
[ 0.0383276   0.04432796 -0.16713603 -0.1245453  -0.03227103  0.01369419
  0.32923788  0.11063053  0.33978587  0.1633457  -0.11769852  0.2748119
 -0.01723573  0.15635099  0.02099953  0.1321992   0.04154204 -0.15203257
 -0.08286338 -0.0282491 ]
[ 0.22172223 -0.22994013  0.22991599  0.06305508 -0.08042188  0.09798657
 -0.34336776 -0.2825738  -0.01183621 -0.10880129 -0.12918697 -0.28045475
  0.02452482 -0.27733943 -0.10407618 -0.20115477 -0.01324835  0.1354823
 -0.24536178  0.30035254]
[-0.06208058 -0.25157565 -0.29305774  0.09750366 -0.06848457 -0.0749644
 -0.2734935   0.05683941 -0.00490899  0.3988408   0.03618107  0.00300324
  0.20834579  0.40028033  0.06232324 -0.03018845 -0.14126572 -0.22391756
 -0.0038448   0.1408622 ]
[ 0.23237814  0.18739046 -0.2015915   0.02652583  0.13236877 -0.2001615
  0.14998096  0.25545454 -0.0374052   0.01948133  0.24000129  0.20711255
 -0.01515963  0.3857778   0.17422298  0.29154187 -0.07084502 -0.04312862
 -0.02586435  0.01207625]
[ 0.10237346  0.01230431  0.13532199  0.21525164 -0.05911915 -0.3467577
  0.08640091 -0.24503243  0.256463   -0.00771932 -0.05383255  0.17420834
  0.30182263 -0.17831296 -0.06594314  0.29207143 -0.2694339  -0.06685135
  0.2515498   0.21677265]
[-0.04020752 -0.0399527  -0.08208658 -0.03998132  0.32422802  0.02959343
  0.20288834 -0.15386736  0.23352794  0.28588668 -0.07324884  0.08097187
  0.28097615  0.34287727  0.17350249 -0.08967133 -0.21079512  0.16632663
 -0.0862149   0.14701599]
[-0.06668433 -0.04105515  0.11027877  0.01478452 -0.15176456 -0.03590834
  0.08990647 -0.09554626  0.03868154  0.17183894  0.05259168 -0.08008213
 -0.19557217 -0.05274716  0.16956948 -0.16975187 -0.24062403 -0.07062784
 -0.09892222 -0.20881653]
[-0.06392608 -0.24415024  0.25158352  0.23826878  0.27499428 -0.02678537
 -0.10343466  0.1445272   0.24971385 -0.363195   -0.29247993  0.25587362
  0.0297889  -0.09458369 -0.05190326 -0.16459477 -0.21692267 -0.02391938
  0.33767468  0.16454534]
[ 0.04092309 -0.05219487 -0.13172519 -0.13061272  0.23432212 -0.11477981
  0.04559797 -0.26535985  0.13630193  0.46397498 -0.260331   -0.08384908
  0.06172672 -0.05254123 -0.03927623 -0.36675408  0.02319949 -0.03175732
  0.17579855 -0.224648  ]
[-0.00886046 -0.08929828  0.05843839  0.31570488  0.19023807  0.16396068
 -0.4133306   0.21817738  0.16629909 -0.19722283  0.29644853  0.1455494
 -0.20695141  0.11869293  0.0181238  -0.01039002 -0.16850193 -0.14675246
 -0.06784832  0.27757847]
[ 0.04134877 -0.15993917  0.3000105   0.23644722 -0.07143171  0.3629316
 -0.24053656  0.210683   -0.23859082  0.01052685  0.32845125  0.17688043
  0.22140759 -0.4345507  -0.06410486 -0.07790488 -0.0687699  -0.3235277
 -0.20465751  0.19030958]
[ 0.04554828  0.05174245 -0.17540282  0.21968855  0.10883537  0.12640859
 -0.08584466 -0.14091767  0.0460826   0.11760234  0.32861885 -0.03628445
 -0.23950697 -0.18577828  0.16993941 -0.2381442  -0.05903086 -0.06009132
  0.15263002  0.08421647]
[ 0.10280234  0.02882188 -0.02196145 -0.30574504 -0.20782469  0.12353083
 -0.17980045 -0.15131088 -0.12468679  0.14504465 -0.15431881  0.19857551
  0.03587201  0.07312814  0.25668192 -0.11048897 -0.21007474 -0.06960273
  0.17356712  0.10768171]
[ 0.2478102  -0.00402582  0.28851575  0.11043824  0.11120334 -0.20695691
 -0.26361504  0.11608379 -0.19275643  0.11122624 -0.2433743   0.01270827
  0.05552267  0.614964    0.2867172  -0.03929363 -0.00354187  0.11160849
  0.22119042  0.05215828]
[ 0.02246249  0.04704806 -0.06433266  0.24553992 -0.17647944 -0.29380316
  0.306691   -0.25390488 -0.22009496  0.29472294 -0.13961864 -0.20875037
 -0.21661675  0.4140654   0.00988769 -0.16265662 -0.13566934 -0.04699181
  0.08785676 -0.30052716]
[ 0.01246743 -0.0562138   0.3412864   0.05312014  0.06626014 -0.00916874
 -0.33403274  0.16691644  0.03630589  0.03111544 -0.22932026 -0.12975812
  0.27789718  0.20540035  0.30897495  0.00224147  0.24921083 -0.20735413
 -0.39748368  0.07608427]
[ 0.04952334  0.34069604 -0.05705182 -0.17832133  0.14357811  0.2500219
  0.1181447   0.09137446  0.01177475  0.06277303  0.17141311  0.01659374
  0.00867897 -0.05546801  0.0610601   0.23820515  0.0768093  -0.24341558
  0.15648438 -0.14168116]
[-0.0505088  -0.06542055 -0.0053627  -0.0854295  -0.057679    0.00168609
 -0.14649394 -0.01204064  0.00495768 -0.12001283  0.09761248 -0.04937486
 -0.08397218 -0.08176611  0.00187928  0.07602967 -0.07558848 -0.12519464
  0.04718343  0.09474476]
layer 5 Activation
tanh
layer 6 Dense
20 1
[0.0024253]
[-0.11184994]
[-0.10533991]
[-0.13558634]
[0.00905867]
[-0.09533599]
[-0.01502956]
[-0.01783732]
[0.0040996]
[-0.0806756]
[0.06302091]
[-0.00902441]
[0.01621125]
[0.1233146]
[0.0123737]
[-0.00628193]
[-0.01700275]
[-0.11957734]
[-0.00710038]
[0.05149442]
[0.09671264]
