layers 7
layer 0 Dense
24 20
[ 1.3209822  -0.09105867  0.62348306 -0.24238445 -1.780955    1.5295299
  0.6383465  -0.07515523 -0.95668715  0.05482523  0.3564324  -1.2109869
 -0.76466846 -0.8077066   0.04355226  0.9332295  -0.83184534 -0.6093659
  0.7064443   0.6530627 ]
[ 0.68517745 -0.2642856  -0.12807073 -0.11617237 -0.40144265  0.78902936
 -0.18240334  0.17446208 -1.0003945  -0.04400292 -0.21542019 -0.2502348
 -0.06468743 -0.41562933  0.18204252  0.39941612 -0.296115   -0.43902266
  0.62119836  0.44828004]
[ 0.34355503 -0.691848   -0.22968774  0.12102106 -0.56460285  0.75132996
 -0.22189546 -0.02692684 -1.0201172   0.01440916 -0.53609854 -0.3674585
 -0.32009363 -0.2050038   0.3259962   0.39702243 -0.41210473 -0.58380026
  0.76910794  0.4674293 ]
[ 1.1405566  -0.36189258  0.16835573  0.19541772 -0.9586564   1.0140252
  0.37350574 -0.18488792 -1.002272    0.11860098 -0.16196331 -0.70259786
 -0.2754077  -0.20763919  0.08526311  0.69875073 -0.38583627 -0.9297062
  0.4021079   0.38170943]
[ 0.4783042  -0.60292786  0.31233433 -0.99263054 -1.1098565   1.181294
  0.41354483 -0.18910018 -0.02150692 -0.40358153  0.1406289   0.18791078
  0.14016362  0.31369397  1.0094398   0.67602074 -0.20734027 -0.12647042
 -0.23484051  0.25536463]
[ 0.3280491   0.03667627  0.17451382  0.47498283  0.24789591  0.20562127
  0.57011706  0.1886029  -0.28695768  0.18715823  0.31300756 -0.5862687
 -0.6216215   0.0184125  -0.5185991  -0.12998533 -0.20595595  0.13695471
 -0.5831301   0.14224656]
[ 0.2807246   0.47645068 -0.03837441  0.23226425 -0.0194621   0.20840779
  0.1849915  -0.03400666 -0.52051693  0.39699322  0.44327676 -1.0507692
 -0.38259912  0.2743386   0.18783388  0.09934751  0.23657708 -0.05546369
 -0.2244917  -0.08202761]
[-1.4369498   0.6797576  -1.0953444   0.4251419   1.2762618  -1.4085435
 -0.22784986 -0.11946568  0.9975755  -0.31095278 -0.5960612   1.3358992
  0.46720898  0.5373302  -0.89554924 -1.0950544   0.5343924   1.2030449
 -0.65559304 -0.92792886]
[-0.14342768 -0.22858687  0.82479656 -0.2121668  -0.21647674  0.3859911
  0.5792789   0.09791686  0.6693022  -0.35504237  0.71330106  0.3047932
  0.39214298  0.09540805  0.16772991  0.0699382   0.45460185  0.2587286
 -0.14153089 -0.32428953]
[-3.4568367   1.2675425  -1.2678483  -0.66184914 -0.05014505  0.09963311
 -0.9847822   0.27991033 -0.08778696 -0.4271453   0.29770258  0.24867202
  0.47024983 -0.621167    3.953694   -0.17242153  0.09438872  0.12633264
 -0.20038943 -0.18883935]
[-0.17430706 -0.6520053   0.061593   -0.80232716 -0.54528433  0.39351156
  1.2061574  -0.211258    0.13071719 -0.60599905 -0.18393254  0.15522046
 -0.4669625   0.12053481  0.20586087  0.59851307 -0.1123908  -0.12511533
  0.07371978  0.16464174]
[-0.9690077   1.3787224  -0.7309373   0.18702307  1.8513985  -1.8138126
  0.0240371  -0.10636438  0.65213996 -0.48669997  0.4196054   0.9349189
  0.7843315   1.1074771  -1.6257306  -0.68836796  0.10381532  0.470072
 -0.6702431  -0.6219232 ]
[-0.01466591  0.12099569  0.27131572 -0.5084466  -0.48341027  0.53435
  0.26296517 -0.1466871   0.5267454  -0.62395144  0.5302848   0.55623066
  0.59617573  0.5324217  -0.46688095  0.42337042  0.2606307   0.6027175
 -0.02586996 -0.09076232]
[ 9.7239691e-01 -2.6373392e-01 -4.1775797e-03  5.8532053e-01
  3.9018670e-01 -3.6823097e-01  6.5027930e-02  1.3576435e-01
 -4.4970328e-04  2.8706279e-01 -4.2439765e-01 -2.7854592e-02
 -2.3119511e-01  4.7811430e-02 -8.8035321e-01 -4.9523851e-01
  4.1724272e-02 -2.1366553e-01 -1.4877078e-01 -4.7755118e-02]
[ 0.65993804 -0.04363537  5.4679775   1.539647    0.02979526 -0.14561386
 -6.1363244  -0.6549251  -0.62560445 -0.21675438  2.3809917  -0.25316915
  1.1949188  -0.23243721  1.559303    0.19428633  0.1124563  -0.1169294
  0.16437264 -0.02193443]
[-1.4338093   1.6687224  -2.8181417   0.7357894   2.4068575  -2.0034513
 -0.71615887  0.542627    0.01193944 -0.10109283 -0.55744684  1.0864753
  0.01782478 -0.08127924 -2.93612    -1.3589399   0.34303606  1.0113283
 -0.72217077 -0.54762346]
[-0.2411745   0.54098654 -0.43872017 -0.39896393  0.30795753 -0.22405589
  0.46455923  0.5655531   0.84217566 -0.7316013   0.12048128  0.87231016
  0.39221877  0.70894974  0.66168576 -0.43313766  0.6657804   0.40026394
 -0.3772254  -0.22264647]
[ 0.77490294 -0.86332965  0.7678083  -0.25043923 -0.576172    0.62815696
  0.15372726 -0.12295613  0.44385764 -0.34129095  0.00135287  0.11700321
  0.04669746  0.26144606 -0.00739805  0.34503713 -0.01829691  0.06240939
  0.09305068  0.22651964]
[-0.51829565  0.6942475  -1.4924976   0.6066882   0.76493275 -0.8270475
 -0.02681397  0.81739736 -0.52098274  0.59133923 -0.68442065 -0.2545936
 -0.2825585  -0.6599969  -0.40201584 -0.25858167 -0.23735197 -0.26323044
  0.04832813  0.04635978]
[-1.0737969   1.2816869  -0.75878614  0.27417064  1.3864945  -1.0969939
 -0.33460745  0.37865898  0.4496119   0.45798388 -0.14643517  0.5477188
  0.5393812   0.60874397 -0.49224177 -0.34812433  0.6121114   0.7721811
 -0.5173051  -0.33681834]
[ 0.11697507 -0.06733482  0.30373612 -0.11325482 -0.42150667  0.12791532
  0.48395666 -0.4030915   0.58891416 -0.50139403  0.60336024  0.55975854
  0.15420431  0.396676    0.1989461   0.03819421  0.04562711  0.4432307
 -0.24326654 -0.14033979]
[ 0.18227826 -0.4559503   0.41705054  0.12594691 -0.6476767   0.5712614
  0.75505143  0.3371269   0.9820951  -0.5786584   0.49919048  0.36586788
  0.01557548  0.46985352 -0.31407696  0.3062475   0.31397033  0.28754777
 -0.01617259  0.08499134]
[ 1.0291555  -0.61323726  0.8503493  -0.35502845 -0.88227814  0.7244782
  1.6250551  -0.5045959   0.18385217 -0.41620922  0.665319    0.11725453
 -0.15351564  0.2629333   0.292962    0.6624905  -0.14184584 -0.08778334
  0.13485529  0.5017127 ]
[ 0.10676664  0.16010188  0.14281826 -0.14682128  0.22765388 -0.03855952
  0.45479906 -0.44411883  0.3543882  -0.28317884  0.19248058  0.8281282
  0.17769149  0.5506329  -0.065015    0.24440281  0.14372641  0.1062566
 -0.16942422 -0.19427055]
[ 0.5623834  -0.2753051   0.25484556  0.18331163 -0.48245388  0.464309
  0.00716014  0.05404628 -0.71896553  0.46227866 -0.00073011 -0.71804655
 -0.4798986  -0.47597733  0.0967151   0.30958185 -0.50435174 -0.5369799
  0.36569294  0.3944895 ]
layer 1 Activation
tanh
layer 2 Dense
20 40
[ 0.41626    -0.8754973   1.0872569  -1.438174    1.1744342   0.46690756
 -0.5166386   0.9372992  -1.0340719   0.02121613  0.5147574  -1.0906035
 -0.9334142   0.40358108  0.64415663  0.592691   -0.41836154 -1.3514845
 -1.3497113  -0.08663816 -0.30597353  0.51624566  0.0886537  -0.37386644
 -0.7049334  -1.3184706  -0.10819615 -0.8241952   1.2518436   0.3786117
 -0.33571815  0.7189886   1.2252637  -1.3264197  -0.7423212  -0.07516412
  1.2613484  -1.6260891  -0.8970336  -0.1865996 ]
[-0.43947378  0.23368157 -0.45279342  0.774299   -0.28641877 -0.30780497
 -0.15247187 -0.18544424  0.40036345 -0.16103096 -0.28896534 -0.29360753
 -0.760538    0.65208375 -0.13128126 -0.755038   -0.4185903  -0.44716632
 -0.3416276   0.33993474 -0.10970335  0.0794316   0.58204526 -0.47257742
 -0.12814246 -0.5715708  -0.4056599  -0.3533418  -0.2990132  -0.2667666
 -0.34784883 -0.5673314  -0.15702012  0.42106622  0.01731639  0.1247811
 -0.3188832   0.07033864  0.13427368 -0.04106947]
[ 0.43054977 -1.0026307   1.2710109  -0.96189064  1.2745497   0.08304042
  0.9344167   0.1296011  -0.79965407 -0.21152316  1.3177776  -0.8814041
 -0.33295733  0.6010152   0.5720702  -0.3057196   0.25327766 -1.3780185
 -1.1804192   0.15440322  0.1663458   0.99426204  0.2943821   0.51648545
  0.11046583 -1.0645992  -0.31930128 -0.50755244  1.0093554   1.0415493
 -0.9647903   1.3414783   1.1082186  -1.1474679  -0.93404984  0.0505375
  1.1812623  -1.4101579  -0.9417689  -0.39565924]
[-0.45653492 -0.29345536  0.86455935 -1.1963112   0.7386598   0.5439453
 -0.09616757 -0.1085419  -0.461646   -0.29239732  0.23577392 -0.70975775
 -0.06581696  0.02223487 -0.29431137 -0.38143647 -0.44152057 -0.42911384
 -0.0511986   0.2289724  -0.46484676  0.07617009  0.68417233 -0.8390181
  0.03866664 -0.49772456  0.34168473 -0.12762882  0.7707092  -0.0586679
 -0.75356853  0.46206537  0.78787035 -0.83361757 -0.31036755 -0.12328103
  0.47535005 -0.3634653  -0.36210185  0.46615615]
[-0.25040102  1.2984972  -1.1674144   1.0072767  -0.55418646 -0.66072273
 -0.07225014 -0.9732983   1.1335809   0.15915205 -1.1279358   0.13151075
  0.6077777  -0.89215004 -0.7253692  -0.42123297 -0.07625806  0.9257583
  1.2551723  -0.42076454 -0.2686472  -1.3847139   0.25955275  0.29839602
  0.31009984  1.1838409   0.11308396  0.7107902  -0.89602464 -0.49410734
 -0.11672643 -1.0256656  -1.2220762   1.1690611   1.1582371  -0.6343569
 -1.2335936   1.5222882   1.001068   -0.30253804]
[ 0.7665722  -1.3006411   1.5941525  -1.9024117   0.88494587  0.7401773
  0.8222053   0.91031104 -1.6220707  -0.44476464  1.8927845  -0.30002454
 -0.42870626  0.01238004  1.5446875   0.4923972  -0.05696207 -1.271179
 -0.88112855 -0.4110349   0.6358482   1.9555162  -0.49403188 -0.03325145
 -0.07292286 -1.0563414   0.0601275  -0.8865679   1.7984009   0.8813056
  0.41854975  1.7200341   1.7989552  -1.7937694  -0.56261516  0.51257414
  1.736972   -2.2893913  -1.223598    0.0620902 ]
[ 0.44901332 -1.2549593   1.0376261  -0.9217552   1.0867306   1.0635227
  0.32165274  0.30263767 -0.79262984 -0.16948877  0.65158933 -0.24987313
 -0.24880971  0.20293942  1.0175651   0.9194478   0.52119684 -0.65201414
 -0.422609   -0.16930813  0.42043015  1.012135   -0.93407553  0.4512799
  0.39419007 -0.6365135   0.4378688  -0.3094307   1.0985804   1.0623089
  0.5631613   0.73772204  1.1437927  -1.1648237  -0.5162015  -0.30489284
  1.1183743  -1.2832054  -1.0121313  -0.16016112]
[ 0.6852922  -0.32520455  0.17911045  0.08941613 -0.08576583  0.10881931
  0.901603    0.13791117  0.22833602  0.2869264  -0.4362961   0.40972203
 -0.32911357 -0.25088835  0.60448486 -0.03938962  0.1832561   0.38807476
  0.15816584 -0.20786685  0.20703666 -0.3647112  -0.44125703  0.51962525
  0.4271276   0.5432346   0.1694834   0.38650373 -0.10348893  0.26089737
  0.13159311 -0.01334171 -0.25477216 -0.076602   -0.17782131 -0.02544542
  0.08361358 -0.13183153 -0.12578042 -0.22685756]
[ 0.8240039   0.37484333 -0.93439907  0.68047327  0.10968564 -0.8103482
 -1.0637234   0.41151783  0.19716473 -0.15636566 -0.77728796  0.3317484
  0.89066243 -1.2695106  -0.17621092  0.61651665  0.16674584  1.0120902
  0.7571975  -0.72437406  0.47539455 -0.37514552 -0.97919434  0.27755964
 -0.13961627  0.56650835 -0.14150423  0.33896142 -0.05698756 -0.8691341
  1.3623272  -0.98036027 -0.40586936  0.85389346  0.9124664  -0.61870223
 -0.62669235  0.83085376  0.28519526  0.3583693 ]
[-0.96188456  0.10413531  0.12434521 -0.0359255   0.346709    0.3869607
 -0.04268919 -0.3646085  -0.10529997 -0.1289328   0.0929762  -0.21821234
 -0.94283116  0.78132397 -0.21566872 -0.889706    0.15591753 -0.4171312
 -0.89484966  1.0509641  -0.32556334 -0.3441118   1.2572441  -0.25861835
  0.52099913 -0.3624653  -0.03753457 -0.02423071  0.23328647 -0.31037676
 -0.763481   -0.01636944 -0.15334716 -0.27122775 -0.15431666  0.10768344
  0.0856317  -0.3394564   0.18549605 -0.20940672]
[-0.34743717 -0.00817182 -0.34701398  0.2414287   0.23326072 -0.5466017
 -0.29166374 -0.1391825   0.07418153 -0.11564017  0.26844266  0.00503694
 -0.12964089 -0.15748203 -0.13182063 -0.10908927  0.5436741   0.25583726
 -0.09155785  0.14156674  0.08270184  0.22896567  0.3278872   0.53441244
  0.26634526 -0.18078056  0.17682907  0.05409908 -0.20639516  0.16045468
 -0.34141424  0.06357479  0.13012107 -0.06096822 -0.13948391 -0.25261617
  0.21267325  0.01601305 -0.05324067 -0.23249608]
[ 0.61595273  0.66678125 -0.39447337  0.45869777 -0.49347523 -0.54373527
 -0.7673044   0.15418099  0.31306374  0.06272131 -0.44078     0.60870177
  0.78717446 -0.58798116 -0.79719305  0.91060525  0.3797105   0.9741635
  1.0821198  -0.47991753  0.2635773  -0.57464623 -0.8535255   0.1593785
  0.34295434  0.89260316  1.063091    0.15712604 -0.52337396 -0.27540907
  1.0695665  -0.22923066 -0.7395091   0.4746415   1.2358797  -0.5677892
 -0.41390917  0.42497662  0.805858   -0.15060365]
[-1.1428167   0.17827491 -0.28980482  0.09668819 -0.09672834 -0.02465098
  0.3877988  -0.78024894  0.6446143   0.5163981   0.9647025  -0.19824886
 -0.2504976   0.7907416  -0.37341937 -0.74442244  0.1134777  -0.23815243
 -0.51263505  0.98328394 -1.0221822  -0.02885226  1.0372611  -0.08457322
  0.0569354   0.05921255 -0.91670823  0.9699235  -0.66541755 -0.08508553
 -1.136295   -0.01119398 -0.3673686   0.0668069  -0.71387845 -0.19994582
  0.02463672  0.15363324  0.13108659 -0.24418193]
[ 0.7762178   0.32205734  0.13731803 -0.20447281  0.00781559 -0.13940646
 -0.16473074  0.18140736  0.16126625  0.52844054 -0.16877684  0.0965662
  0.40184003 -0.6065239   0.01434477  0.48376942  0.4280742   0.50070226
  0.57731634 -0.83178157  0.18069847  0.10411124 -0.94178694  0.707552
  0.6333774   0.61747324  0.30912903  0.20605151 -0.2609057   0.04351643
  0.52108884 -0.00126953 -0.0148036   0.09987946  0.774334   -0.39685595
 -0.19340867  0.40390757  0.20940022 -0.32971558]
[ 0.44963676 -0.8014527   0.8272993  -0.79998726  0.5869914   0.8040744
  0.9280903  -0.10766032 -0.7019883   0.00319309  1.1678581  -0.26268607
  0.08017685  0.32671705 -0.01500522 -0.6454119   0.24870305 -0.7018297
 -0.5253776  -0.08535825  0.11439899  0.927767    0.582566    0.4371671
  0.13555294 -0.41356274  0.5953531   0.02136545  0.94676924  0.782796
  0.2182232   1.0067999   0.6893375  -0.80500764 -0.42789334 -0.37136373
  1.1233263  -1.0841312  -0.75588757 -0.49309823]
[-0.5135936   0.0335274   0.31565672 -0.73144543 -0.355264    0.1710984
  0.4396245   0.4111348  -0.11593153 -0.37167206  0.5835003   0.420111
  0.61988026 -0.24883005  0.05713376  0.17338836 -0.21836293 -0.24295452
 -0.46145988  0.6222035  -0.17381649 -0.25764978  0.5874791  -0.6733491
  0.01667983 -0.41743925 -0.60119647 -0.06077952  0.20674665 -0.12379649
 -0.2830288  -0.04527946 -0.32342848 -0.05250308 -0.6731539   0.33396083
  0.23748653 -0.5217902  -0.29119712 -0.02485595]
[ 0.6552069  -0.28546926  0.00230226  0.33524498  0.40606087 -0.18248951
  0.4524263  -0.48636517  0.07575944  0.5098127  -0.15656036  0.39103654
  0.4730441  -0.50131434  0.16671243  0.32011992  0.831754    0.6868451
  0.37174633 -0.296359    0.18824199  0.10112692 -0.513559    0.8418194
  0.08924153  0.38461542 -0.20615311  0.32422817 -0.34636098  0.45832938
  0.20445405  0.04188664 -0.42983115 -0.16937749  0.20684002 -0.3349241
  0.3199461   0.24798459  0.10782546 -0.34350887]
[ 0.59678566  0.15296623 -0.18298768  0.2587103  -0.23772936  0.23974212
  0.14900623 -0.3848784   0.37993366  0.13689288 -0.4207814   0.13875216
  0.51278454 -0.28417104  0.08521164  0.28990668  0.304231    0.8692281
  0.8912967  -0.69757956 -0.05370201  0.00816762 -0.31422338  0.2673227
  0.7332558   1.0503746   0.856584    0.29841155 -0.12005346 -0.4469064
  0.709021   -0.04860137 -0.04965184  0.15819685  0.86814725 -0.11190619
 -0.19066845  0.29601917  0.40510315 -0.49098554]
[-0.2255507  -0.15324962 -0.05047081  0.02456446 -0.29616988 -0.3461072
 -0.21826771  0.4575346   0.09249495 -0.6946664  -0.11924121 -0.39021307
 -0.6190646   0.39631516  0.1889708   0.34557605 -0.93881625 -0.50935864
 -0.7822024   1.0284452  -0.16764733  0.4350113   0.3652058  -0.6891612
 -1.1766492  -0.35697946 -0.33656043 -0.7916147  -0.18746434 -0.02274352
 -0.50741786 -0.61789036  0.07844754 -0.35284212 -1.099487    0.483302
 -0.06718393 -0.16104701 -0.24569952  1.1265091 ]
[-0.6932649  -0.2402235   0.10743786 -0.00144438 -0.26484728  0.00424402
 -0.21582186 -0.00489833 -0.08488698 -0.5083365   0.2572944   0.01567033
 -0.66491526  0.5360027   0.02787543 -0.4121488  -0.99449074 -0.33333504
 -0.6707399   0.69147545 -0.5013507   0.23545486  0.37787703 -0.91299915
 -0.55279076 -0.24076124 -0.38384837 -0.3573958   0.16347937  0.07390304
 -0.33421063 -0.14427803  0.36779058 -0.06850795 -0.64274514  0.17509948
 -0.07003996  0.00431394 -0.31900278  0.652637  ]
[-0.4836034   0.05902599 -0.15705544  0.01481689 -0.4425296  -0.25045788
 -0.25299925  0.25268716  0.00951757 -0.13687392  0.21479852 -0.21981317
 -0.463674    0.39647993 -0.085123   -0.17606114 -0.6261011  -0.3900149
 -0.48746654  0.4090103  -0.1387129   0.18942511  0.40749437 -0.6117547
 -0.5659836  -0.3612881  -0.4418758  -0.36608127 -0.06653934 -0.31825995
 -0.44881678 -0.25582767  0.14322503  0.04265274 -0.46622106  0.11701292
 -0.32466158 -0.09099227  0.00935979  0.48452795]
layer 3 Activation
tanh
layer 4 Dense
40 20
[ 0.64052033  0.15753639 -0.21118036 -0.00525774 -0.24489775 -0.07101026
 -0.16193172 -0.46483397  1.3850061   0.66463643 -0.08883757 -0.04624585
 -0.37810737  0.365344    0.03673741 -0.20395015  0.17256856 -0.14037508
  0.40117347 -0.02157473]
[ 0.715415   -0.68284655  0.40968055 -1.1122047  -0.04442852  0.7741976
  0.29862064  0.75489926 -0.3101383   0.5361309  -0.06502336 -0.01643608
 -0.10606771 -0.21131581 -0.28726792 -0.18929519  0.3323243   0.14484863
  0.21220425 -0.06405353]
[-0.45803663  0.58959186 -0.08641186  0.88349634  0.29766104 -0.83569497
 -0.16907835 -0.82466656  0.13251212 -0.25065374 -0.0176534  -0.16476327
  0.9866144   0.4947941   0.10270563 -0.57096785 -1.0546868   0.04502211
 -0.22367762  1.2026647 ]
[ 0.5795975  -0.8452781  -0.21848612 -0.7220695   0.67887324  0.7312384
  0.47426578  0.24761006 -0.05806533  0.17359458  0.36830544  0.7141241
 -1.2227609  -0.3636011  -0.5035186   0.48674995  1.109089    0.09900162
 -0.08031507 -1.7155819 ]
[ 0.11671533  0.18227507  0.17377335  0.46772593 -0.15892528  0.24947207
 -0.58084685 -0.14186051 -0.3590831  -0.1399084   0.22811262  0.10979714
  0.95114565 -0.06831577  0.21414392 -0.2670486  -0.6912063   0.08864319
  0.04903276  0.6664216 ]
[-0.5515707  -0.09717566 -0.07541879  0.15280212 -0.4869609  -0.5665568
 -0.11730719  0.00743847 -0.00197561  0.49171698 -0.21975236  0.03256196
  0.10427381  0.18050738  0.25847828 -0.19975133 -0.03416787 -0.13996254
 -0.20324259 -0.04709448]
[ 0.08962024  0.685131    0.04771207  0.27848402 -0.19924821 -0.6567857
 -0.5208229  -0.30833915  0.06601869  0.41516313 -0.5343611   0.12677693
 -0.16925558 -0.02775418  0.39503273 -0.39705983 -0.48213634 -0.14075826
 -0.07046327  0.33926913]
[-0.39103422  0.21615791 -0.3379947   0.06554984  0.46396834 -0.36004025
  0.6542106   0.17166466  0.1987812  -0.11384028  0.38002703  0.30592576
 -0.03438407  0.12692328 -0.29835042  0.5210697   0.1860506  -0.3254394
 -0.37066513  0.0416149 ]
[ 0.5865395  -0.19480027  0.10250131 -0.6407902   0.4442875   0.6630997
  0.42252392  0.42415288 -0.25261357  0.5905904   0.05986965 -0.07999674
  0.23812875 -0.23517056 -0.15919413  0.07148577  0.41784933  0.17760992
  0.02576351 -0.71971124]
[ 0.10530548 -0.24768646  0.00937665 -0.02989566 -0.20341504  0.69854736
 -0.501144    0.0205587  -0.98686355 -0.15601307 -0.17729934 -0.22725101
  0.45230988 -0.3563154  -0.3322638  -0.31738773  0.11049635  0.2843958
  0.18043077 -0.14192346]
[-0.884812    0.9367227  -0.18542276  0.63019824  0.27954513 -0.28882092
  0.02568447 -0.87064314  1.3369287  -0.6790278   0.60043865 -0.13423485
 -0.04955006 -0.0866108  -0.413739    0.44833255 -0.33734316  0.07680681
 -0.25986454 -0.16018035]
[ 0.2801131  -0.23299508  0.3088414  -0.03648539 -0.15632974 -0.24959338
 -0.24703003  0.52565736 -1.134577    0.21394005 -0.7704972   0.11006019
 -0.27222887 -0.21416391  0.67284817 -0.9270878  -0.289374    0.06078523
 -0.21365583 -0.15256885]
[ 1.2333827  -0.07216866  0.84323364 -0.40955278 -0.4018883  -0.33026507
 -0.92567796  1.2442813  -1.3371527   1.050654   -0.7191473  -0.334969
 -0.0173294  -0.4230402   0.6442482  -0.9570654  -0.46326727  0.79774606
 -0.6207665   0.2156194 ]
[-4.1509411e-01  7.1770430e-02 -1.1119035e-01  4.9001908e-01
  1.1082729e+00 -2.8641391e-01 -4.6070885e-02  7.2570696e-02
  7.3139474e-02 -5.6604278e-01  4.6415675e-02  2.3789619e-01
  5.3527415e-02 -2.8235951e-01 -2.7563158e-01 -3.1000855e-05
 -2.9943845e-01 -1.0242741e-01 -6.8188524e-01 -2.6296830e-01]
[-0.57548577  1.3181885   0.25401244  0.52830935 -0.02802714 -0.457102
 -0.27025303 -0.53959316 -0.03783853 -0.3748952  -0.28456533 -0.06162873
  0.2693703  -0.0667729   0.29034504 -0.73374814  0.33622327  0.06662399
  0.12380232 -0.52255434]
[ 0.02042417 -0.19424881 -0.17239492 -0.09500594  0.5218785  -0.15423936
  0.64114654  0.55814695 -0.6583274   0.21086684 -0.14388642  0.4388675
 -0.3630392   0.40752792 -0.17008299  0.5963894   0.21510555 -0.35995212
 -0.3288262  -0.30523148]
[ 0.44402906  0.37453607  0.54058903  0.36876798 -0.58374584 -0.13071147
 -1.6112853   0.03954186 -0.6801325   0.30693042 -1.0947646  -0.46652377
  0.27252927 -0.30954862  0.714997   -1.0141217  -0.38383025  0.56356883
  0.42293233  0.46958914]
[ 0.6825751  -0.5968582   0.51534265 -0.648059   -1.063052    0.5884888
 -0.8484991   0.87802434 -1.0513985   0.3232816  -0.55268645 -0.07307331
 -0.89363545 -0.2252072   0.3849249  -0.4616959   0.22039193  0.28025818
  0.2951325  -1.1114877 ]
[ 0.49479198 -0.3539249   0.396079   -0.7384776  -0.93418956  0.8836502
 -0.07978179  0.49683058 -1.3444384   0.89294654 -0.27462    -0.40913215
 -0.85338426  0.20710035  0.41326737 -1.1018149   0.23448545  0.03788297
  0.6450415  -0.7689439 ]
[-0.4365594  -0.29401192 -0.14050336 -0.07549657  1.0328523  -0.2192972
  0.4091273   0.7945257  -0.46313754 -0.48081544 -0.06129787  0.28817964
  0.8243184  -0.22160485 -0.02054197  0.5851933  -0.2446405   0.12887916
 -0.8530409  -0.03641855]
[ 0.47255802  0.25367293  0.41444817  0.26633787  0.4111995  -0.1024719
  0.06392006  0.7062741  -0.368803   -0.15978895 -0.07845922 -0.08500977
  0.23824921 -0.33690885 -0.24745281 -1.2913692   0.03754151 -0.05199051
  0.07112331  0.09862266]
[-0.52894604  0.57894874 -0.64535904  0.48028374  1.0434549  -0.08860331
  0.17517008 -0.5316004   0.9413972  -0.69836104  0.5064377   0.06963496
  0.7269252   0.08885647 -0.34314007  0.7814733   0.19326116 -0.6142352
 -0.7721312   0.35614064]
[-0.39985013  0.23812066  0.09575406 -0.07128621 -0.00089015  0.12281384
  0.26481488 -0.26225325 -0.0220374  -0.332042    0.44238102 -0.23520926
  0.12372361  0.1163021   0.00632027  0.00071724 -0.49282113  0.1735325
 -0.44910026  0.54480886]
[ 0.437764    1.0065333   0.33202845  0.77299    -0.16191153 -0.2090526
 -1.3454593  -0.12290014 -0.18689737  0.02973518 -1.0173987  -0.31706432
  0.09878565 -0.68129575  0.85680467 -0.71658313  0.13568205  0.44173712
  0.32436398  0.75490075]
[ 0.16559035  0.14600164  0.6249096   0.4024017  -0.51257914  0.3243443
 -1.0150939   0.01098471 -0.3768423   0.5226374  -0.9843468  -0.454136
  0.19232166 -0.710958    0.45816478 -0.88245505 -0.2995927   0.764752
  0.5435705   0.20866816]
[ 0.47768277 -0.46418935  0.37722784 -0.6686362  -0.795402    0.30890825
 -0.9575129   0.64752156 -1.7940578   0.8700226  -0.5726529  -0.10003075
 -0.6565087  -0.2618425   0.7975811  -1.1719289  -0.22980346  0.13912143
  0.4690996  -1.3635457 ]
[-0.08782021  0.29319003 -0.09233978  0.0354814  -0.16476154  0.52216834
 -0.34296316 -0.38578874  0.24970604  0.2066715  -0.30372083 -0.41769314
 -0.37029198  0.11624162  0.29262328 -0.60880244 -0.02748498  0.67224526
  0.41921076 -0.27146003]
[ 0.08769053  0.6656209   0.46999964 -0.14975794 -0.6810661   0.69535846
 -0.24105614 -0.36111307  0.8047805   0.02945829 -0.20096496 -0.11228326
 -0.43659174 -0.65039986  0.01444181 -0.69213396  0.22440915  0.3439851
  0.66066766 -0.6738731 ]
[-0.47789732  1.1545833   0.1327908   0.88962317 -0.50737774 -0.84658253
 -0.4011789  -1.0563246   0.54256195 -0.27176335  0.15209824 -0.07135815
  0.26745573  0.04607695  0.29425344 -0.42498672 -0.65274405 -0.14044754
  0.10961156  1.5642906 ]
[-0.1718299   0.6055067   0.00256094  0.5476385  -0.2486771  -0.09694812
 -0.38455734 -0.2604192  -0.5123945  -0.1233173  -0.4095711   0.0915357
  0.62830913 -0.273962    0.32225934 -0.5773709  -0.32886845  0.3591003
  0.38365427  0.94144773]
[ 0.4531714   0.20500945  0.12981904 -0.12924336 -0.46955913  0.04938829
 -0.0272784   0.40067312  0.6374291   0.22752805 -0.20532204  0.06972267
 -0.9477105   0.41493204  0.13984998 -0.2829292  -0.13238654 -0.13121295
  0.28968084 -0.01618464]
[ 0.17141324  0.35521168  0.32097775  0.66257733 -0.16499588 -1.0975047
 -0.0857178  -0.5273452   0.24120022 -0.08218937  0.03088102  0.07599563
  0.12191567  0.15392615 -0.23329242 -0.5779866  -0.9597777  -0.15662019
  0.04837674  0.8976823 ]
[-0.33884507  0.61625296 -0.36849815  0.7629026  -0.20521142 -1.1956582
 -0.53002495 -0.5579048   0.3760031   0.11652245 -0.24664082 -0.31774098
  0.5941105   0.09145489  0.07130368 -0.29778227 -0.81284356 -0.3224966
 -0.32213748  1.1406473 ]
[ 0.5984303  -0.68741006  0.532724   -1.2151083  -0.44459966  1.3528265
 -0.4969808   0.72918975 -0.68661517  0.42040637 -0.02729241  0.02333567
 -0.6429427  -0.8863859   0.35391977 -1.1809647   1.0967572   0.3157183
  0.37335047 -1.1651958 ]
[ 0.8853665  -0.19440256  0.02204255 -0.664772   -1.1243988   0.6199935
 -0.598279    0.10622733 -0.4036931   0.6428868  -0.35879514 -0.58792025
 -0.15760407 -0.15706068  0.2506929  -0.6120924   0.04625453  0.21481787
  1.043698    0.16763532]
[-0.65006655 -0.5448147   0.121321    0.00761834 -0.37969485 -0.46845663
  0.07885042 -0.6670963   1.132693    0.36277163  0.00876793  0.54921055
 -0.3474243   0.23468803 -0.04466791  0.4442392   0.40435663 -0.57245946
 -0.01229354 -0.24301441]
[-0.28174698  0.574185    0.02142493  0.96988094  0.58685297 -0.959861
  0.43241516 -0.36400765  0.63895303 -0.0055683   0.14974214 -0.5157649
  0.9351723  -0.08237105 -0.31092536 -0.0992947  -1.6726482  -0.2738761
 -0.2975801   1.0957553 ]
[ 0.9632766  -1.4107888   0.17127368 -1.8870429  -0.64738584  2.2660773
 -0.27998778  1.0101341  -1.2138691   0.3317604   0.24232444  0.12090188
 -1.5127724  -0.49488577 -0.01983926 -1.3759092   1.480426    0.27038375
  0.17353146 -1.3424946 ]
[ 1.0166978   0.09622896  0.08426904 -0.5933087   0.5082181   0.94259983
  0.11863259  0.7060048  -0.21979263  0.4987968   0.05289378 -0.21504033
  0.04808252 -0.22467303 -0.2851281  -0.155374    0.4998544   0.32937473
  0.15024176  0.07174654]
[-0.47094923 -0.43500972 -0.25736567 -0.04451285  0.7360805   0.24298517
  0.940479   -0.33808237  0.6241429  -0.34561107  0.6765597   0.5929555
 -0.216615    0.6066973  -0.47301072  0.58248836  0.2962635  -0.37836
 -0.47925755 -0.8802957 ]
[-4.0366650e-01 -2.6497206e-01 -3.9731637e-01 -3.2626176e-01
  5.6904370e-01  6.3099571e-02  9.5386541e-01 -8.4706277e-02
  4.4373059e-01 -2.6918229e-01  5.8945495e-01  3.5797879e-01
 -3.9318070e-01  3.1960770e-01 -6.5437305e-01  4.4718209e-01
  4.8775223e-01 -1.3216120e-01 -3.0286625e-04 -2.8008988e-01]
layer 5 Activation
tanh
layer 6 Dense
20 1
[0.0931828]
[-0.3348234]
[-0.1846774]
[-0.5832312]
[0.20526177]
[0.87733734]
[0.41104972]
[0.12462882]
[-0.02948265]
[-0.33045202]
[0.34019545]
[0.31841034]
[-0.27469343]
[-0.03789559]
[-0.35384387]
[0.14355405]
[0.36335802]
[-0.0481208]
[-0.23765345]
[-0.54009193]
[0.68335015]
