layers 7
layer 0 Dense
20 20
[-0.03913744 -0.03451926 -0.33104602  0.2836193   0.21506436 -0.1406232
  0.00105471 -0.37531564  0.25299817  0.28495064 -0.29642916 -0.3793572
  0.23497103 -0.26755527 -0.2542071  -0.02573704  0.1383461  -0.16661437
 -0.3276588  -0.212392  ]
[-0.3831605  -0.23532873 -0.07025997 -0.36450264  0.1041845   0.22874187
  0.29522464 -0.12167527 -0.05970584 -0.323738   -0.3067919  -0.14158094
 -0.12099099 -0.22398354  0.38268787  0.21368577  0.25705716 -0.13558367
  0.32909286  0.3615072 ]
[ 0.19952835 -0.14748508 -0.1319362  -0.16799614 -0.36855286  0.43979287
 -0.25209355  0.11009218  0.03783147  0.21630707 -0.29941422  0.24102922
 -0.01027907  0.29614288 -0.3094786  -0.47294152 -0.09959342 -0.01519142
 -0.05709862  0.21304312]
[-0.34848928  0.25881493 -0.34620136 -0.3107355   0.36819902 -0.14201213
 -0.05168392 -0.00625681  0.1321929  -0.12295548 -0.21852645 -0.3376149
  0.03499451  0.42083108  0.05898077  0.0133217   0.30705023  0.10786384
 -0.20579995 -0.30864358]
[-0.0225371  -0.14577134  0.02798958  0.28775343 -0.31432167 -0.27152234
  0.37533882 -0.05263961 -0.21479556  0.28482628  0.22163571  0.02705334
 -0.3210266   0.12796104 -0.24045712 -0.0792331  -0.13273841  0.19606912
  0.24124925  0.13169715]
[ 0.17517066  0.3172348  -0.31264657  0.3326166   0.19282188  0.10926928
 -0.4133454  -0.24945253 -0.1689383  -0.3613206   0.04978142  0.25933042
  0.04040764  0.31730476  0.27215692 -0.21994808  0.08156453 -0.0150518
  0.27312765 -0.33959737]
[ 0.4222389  -0.2977614  -0.0884864   0.4013173   0.26883674 -0.01315013
  0.32193062  0.16172236 -0.50340664 -0.08538482 -0.14520705  0.01193996
 -0.21208379  0.09057409  0.19831847  0.31045964 -0.40372846 -0.34380242
 -0.04524124 -0.21950385]
[-0.12090079  0.04371207 -0.09681488 -0.30418563 -0.14973181 -0.03641459
  0.39987254 -0.1802969  -0.14131403  0.02787002 -0.11905823 -0.22221757
 -0.14192383  0.10850496  0.28534374  0.05354973 -0.36232203 -0.19757023
 -0.14449957  0.17492947]
[-0.31063697  0.00079579 -0.11347934 -0.31538948 -0.13551024  0.08033177
 -0.2814129   0.04713198 -0.01623019 -0.1969266  -0.3066298   0.32376066
  0.16807903 -0.25569984  0.00747004  0.26920608  0.04975327 -0.1326054
  0.33830315  0.27425686]
[ 0.01985242  0.20383804 -0.18675385 -0.20136243 -0.37974578 -0.30271518
 -0.43381745  0.24437092  0.16477744 -0.09220961 -0.3059871   0.18197872
 -0.1192015   0.11048443 -0.16745934  0.27331677 -0.23815027  0.01737437
  0.17211336 -0.4203018 ]
[ 0.30148736 -0.01384804 -0.07129396 -0.2751822  -0.23690799  0.05476649
  0.1664127  -0.0490699  -0.10631737 -0.20029078 -0.2810607  -0.13164629
  0.23272192  0.24144308  0.00595776 -0.10389854 -0.26482463  0.16736192
 -0.04124644  0.19028638]
[-0.333847   -0.18759239  0.06442313  0.1396495   0.0191672  -0.39308855
  0.01680108 -0.2864334  -0.07161654 -0.11694888 -0.22804244 -0.34956607
  0.13957225 -0.08273826  0.13485372 -0.02656659  0.30939454 -0.08642851
  0.2110857   0.2322429 ]
[ 0.37629452  0.33456096  0.16088358  0.23836467  0.18246487 -0.03070329
  0.11872921 -0.22145443 -0.255509   -0.06439194  0.20542015 -0.23201145
 -0.35712883  0.34400278 -0.25525233 -0.38499805  0.26517847 -0.09568626
  0.22498392 -0.1761952 ]
[ 0.2760428  -0.00195744 -0.17629993  0.24172553 -0.23875704  0.16042519
 -0.23678075  0.4229251  -0.34104797 -0.07932012  0.00850503  0.28233492
  0.05115905  0.18450174 -0.0618059  -0.4464566   0.01236383  0.29547098
 -0.12201269 -0.18469305]
[-0.28587565 -0.28962132  0.32376418 -0.17066641  0.24615096  0.27623773
 -0.15059084  0.19499251 -0.14526889 -0.09976016  0.05042167 -0.0312677
  0.3923192   0.04765324 -0.39220664  0.4062402   0.14141431  0.09719964
  0.34389225 -0.2476071 ]
[-0.02245235  0.25032896 -0.32599893  0.1682046   0.2873726   0.39450675
  0.22395326 -0.3128097   0.24526523  0.06385309 -0.1772004   0.43651474
 -0.25566587  0.11330621  0.12242055  0.10234567  0.06443293 -0.26054585
 -0.04786331  0.1425312 ]
[-0.01104469 -0.09965443  0.16237256  0.36609316 -0.191806    0.06136142
 -0.21925415 -0.04764912  0.27278516 -0.301964    0.10588186 -0.10022111
  0.23630491 -0.06243302 -0.05773021  0.28859463  0.05588854 -0.08158263
  0.3200716   0.16202663]
[ 0.02304217 -0.07794335 -0.32137296 -0.29463986 -0.12901065 -0.31622073
  0.37867466  0.05668064  0.31117496 -0.11612166  0.25629413  0.04707916
 -0.34139663  0.275695   -0.16129884  0.4068148  -0.21905704 -0.2712159
 -0.19746685 -0.239509  ]
[ 0.06426019  0.49036184 -0.20222026 -0.12002937  0.28436705  0.00723678
  0.343129   -0.2088467  -0.38260373 -0.32057998 -0.13619423 -0.3302868
  0.3140617   0.067669    0.03330877 -0.02948106 -0.1876494   0.04102116
 -0.11595689 -0.20362926]
[ 0.26499248  0.06995446 -0.33458224 -0.16688642  0.0709561  -0.266388
 -0.07190493  0.2918574   0.06016689  0.32534212 -0.18140751  0.21606873
  0.10088914 -0.20897275  0.18191081  0.11154758 -0.29117495 -0.04928176
 -0.08234559 -0.3583212 ]
[ 0.01537339  0.0667545  -0.00148042 -0.02487731 -0.0134836   0.08498035
 -0.06760526 -0.02233064 -0.03911936 -0.00949911 -0.04368279  0.03188046
  0.0244293   0.0218436   0.00263918  0.00247559 -0.00246958 -0.10670287
 -0.00449405  0.02216217]
layer 1 Activation
tanh
layer 2 Dense
20 40
[-0.19035146  0.24742277 -0.02609031  0.06391498  0.02653912 -0.08764217
  0.25554106 -0.12026333 -0.02273333  0.03518087 -0.02671246 -0.08342637
  0.0155864   0.08919416  0.00228808 -0.02581956 -0.01875655  0.30325794
 -0.1472134   0.03511022  0.269357   -0.16732532  0.19928926 -0.2825313
 -0.23954488 -0.2068957   0.12693341 -0.07656549  0.14749502  0.0608294
  0.14327379  0.09523659 -0.28755888 -0.07068744  0.04801343 -0.04154994
  0.07885087 -0.22567688 -0.3036404  -0.2914478 ]
[ 0.11800282 -0.21629609 -0.15319061  0.00608234  0.1722001   0.05078397
  0.22607602  0.01710548 -0.01280461  0.23726508 -0.26122898 -0.08649715
 -0.28977364 -0.14799446 -0.20589148  0.15222915 -0.20151757 -0.19967099
  0.22855143  0.27148962 -0.07891073 -0.30557135  0.25123212  0.06388152
 -0.07441455 -0.2710347  -0.09205174  0.21031293 -0.2338657   0.07149786
 -0.1372551   0.07259904  0.01821145  0.13047606 -0.2628161  -0.137868
 -0.20222713 -0.25407112  0.0937383   0.27775645]
[-0.06468661 -0.12416283 -0.01945742 -0.09767874 -0.19739442 -0.01279027
  0.25600427 -0.21567853  0.10229677 -0.02332442 -0.28016344  0.01670885
 -0.26440376 -0.01924104 -0.1384513  -0.17246641  0.08397196 -0.08163122
 -0.00207163  0.27780846  0.08287426  0.21246025 -0.26742223  0.22836454
 -0.29965863 -0.29390988  0.07576486  0.29777306  0.06475853 -0.00705075
  0.31104589 -0.02768398 -0.07304993  0.34207284 -0.21643704  0.07719159
  0.24235868 -0.06592371 -0.18900764  0.21103284]
[-0.21553014  0.23002787  0.05057495 -0.10145248  0.2788554   0.2658311
 -0.22141588 -0.01807995  0.10674307  0.2282225  -0.15214558  0.03095352
  0.2723065   0.00698507 -0.25419036 -0.12929583 -0.05824569  0.1330892
 -0.1213997  -0.15659167 -0.09211464  0.02002663  0.11270218  0.12933002
  0.1596131  -0.2509341  -0.24326901 -0.21842119 -0.16417713  0.05092975
  0.17061125  0.35119483 -0.13511534 -0.13806577 -0.0513651  -0.14683534
  0.19747746 -0.22125262 -0.00660325 -0.27425876]
[-0.2530502  -0.02385828  0.14141831 -0.05052557  0.08115236 -0.18225242
  0.04387111  0.18167052 -0.03296202  0.06789625  0.11583699 -0.1126069
 -0.00752137  0.13458554  0.08194094  0.01690863  0.04570271  0.09136458
 -0.260023    0.14662422  0.05824295  0.24677044 -0.00097676 -0.3212992
 -0.11540975 -0.12437961  0.12158729  0.04836376  0.07777441 -0.07502001
  0.22182898 -0.04634365  0.11879589 -0.18162182 -0.16126885 -0.05354451
  0.00370041 -0.0604647  -0.09972434  0.07227825]
[ 0.10115439  0.01828688 -0.2523019  -0.13006236 -0.25910878  0.16691813
  0.31149837 -0.00377485  0.31553608 -0.00617607  0.01187788 -0.07896288
 -0.28400537 -0.18801683 -0.20721461 -0.07281646  0.2305715   0.23366268
 -0.19015881 -0.05979651 -0.13384005 -0.04018201 -0.08674669  0.04894453
 -0.27090985  0.14642763  0.20790844  0.17926125 -0.01958892  0.22866595
 -0.23160408  0.11414581 -0.04500475  0.07183722 -0.13808481  0.00681079
 -0.2864302  -0.05718175  0.06012824  0.09014627]
[-0.03426267 -0.32167453  0.2713732   0.08061441 -0.09411146 -0.27453756
 -0.24860062 -0.32039392 -0.25656798 -0.14153983  0.17140754  0.13718532
  0.23135206 -0.2699006   0.31392512 -0.00654618 -0.24747159 -0.03706757
 -0.20560355  0.10699923  0.23295932  0.09889004 -0.04851596  0.2196765
  0.14580545  0.16786751  0.27421072 -0.19695643 -0.06063453  0.08231169
 -0.08404844  0.26033884  0.08735652  0.07549635 -0.09359074 -0.03932203
 -0.17261517 -0.08784924  0.04114351  0.3006964 ]
[ 0.03380945  0.22605714  0.3095723   0.26949084 -0.15904772 -0.11983033
  0.0251358   0.08310612  0.26457226  0.26082852  0.01089208  0.18676582
 -0.23546156  0.10878646  0.0766525  -0.35633942  0.263403   -0.31223872
 -0.12797669  0.18152891  0.27170727 -0.126847    0.16116463  0.0736507
 -0.05548138  0.18487969  0.18472557  0.25309643  0.11816256 -0.1658869
 -0.28408694 -0.16132326 -0.0719847  -0.17597236 -0.12009309 -0.28034836
 -0.20140761 -0.15792355 -0.15856695 -0.20938379]
[-0.20177318 -0.04997884 -0.18149713  0.0310339   0.16462633  0.20815228
  0.207923   -0.17776914  0.15879658  0.15340488 -0.11005719  0.26223707
  0.0092531  -0.15712245 -0.00917955  0.16062544 -0.02832451  0.02989494
  0.33928153  0.30168986  0.2303626   0.08422373  0.26425755  0.22841579
 -0.15374608 -0.2686578  -0.1569066  -0.05883944 -0.31670007  0.0724503
 -0.23567541 -0.23548034 -0.0102515   0.11722673 -0.17269379  0.28964502
 -0.0024603  -0.22763728  0.3259533  -0.2675176 ]
[ 0.09271529 -0.24376899  0.08874793 -0.3674966  -0.20591289 -0.05634649
 -0.13432178 -0.19542383 -0.00338055  0.08558744 -0.04717224  0.00883958
  0.15793106  0.02293049  0.05255729  0.18221182 -0.2162074   0.20263627
  0.2567057   0.17036729 -0.1820745  -0.11837599 -0.11342824  0.19375916
  0.21595152  0.21844508  0.08477486  0.13362789 -0.32436216 -0.13193265
  0.04660639 -0.19052276 -0.04665991  0.3045989   0.31386417 -0.04570355
 -0.23464122  0.13409263  0.11854459  0.08297499]
[-0.27267122  0.25585687 -0.0438497   0.02367467 -0.04403122 -0.15240005
  0.11728812  0.09118711  0.05948234 -0.2678376   0.04765185 -0.27082512
 -0.26170456 -0.21076222  0.15192397  0.14548466 -0.01218579  0.16204771
 -0.00056872 -0.23497872 -0.00467162  0.26292893  0.2233646  -0.17138723
  0.07521253 -0.11372088  0.01053418  0.19876057 -0.30560118  0.228946
 -0.03779236 -0.08473059 -0.02300833  0.06115079 -0.15740275  0.22814047
 -0.17824833 -0.13297926  0.16596077 -0.20011966]
[ 0.24612407 -0.24961509 -0.10907137  0.01641856 -0.14164335 -0.04383162
  0.25503904 -0.22787665  0.31238735 -0.08756296  0.24669372  0.08049464
  0.14535691  0.17144938  0.07133797  0.21409194 -0.32947043  0.13229007
  0.22408262 -0.11968246  0.08156483  0.26771232  0.12794091 -0.14367251
 -0.1740187  -0.0388591  -0.15674849 -0.13022466  0.26255557  0.26018068
 -0.05046633  0.11010336 -0.10162868 -0.23864208  0.17700012 -0.16916594
 -0.25912455 -0.13546926  0.30074242 -0.09455174]
[-0.08742418  0.22869435 -0.16903122  0.10211091 -0.08824919 -0.03104449
 -0.11541205  0.0327739  -0.06908369 -0.19587114 -0.18108371  0.27981704
  0.16301186 -0.19381246  0.0268546   0.00254007  0.2597507  -0.14651994
  0.33695492 -0.2272967  -0.2336922   0.22530818  0.04125032  0.02879686
 -0.00351308  0.2949038   0.09696367  0.3016615  -0.255496   -0.1315032
 -0.20604813 -0.10513233  0.2011404   0.17716482 -0.20216066 -0.09022579
  0.02292445  0.07153111  0.00119283 -0.3016622 ]
[ 0.16478272 -0.02857106 -0.3390496   0.09357128 -0.23815674  0.12617691
  0.26081544 -0.21850501 -0.06489051  0.13283923  0.04278715  0.2407917
 -0.07503451  0.063459    0.22528301  0.00206349  0.08607828 -0.03199916
 -0.28459802  0.25156888  0.01121348  0.04458445 -0.0408312   0.2405156
 -0.07822356  0.01351177 -0.0472283   0.01907614  0.01566193 -0.21939778
  0.01390378  0.06805055  0.02100827  0.21412674 -0.00969945 -0.14606868
 -0.29778     0.28265047  0.27474988 -0.10895205]
[-0.24067324  0.11140195  0.16949585 -0.21681045  0.20500873  0.01200681
  0.2703284  -0.20257005  0.1870559  -0.13524975  0.21637581  0.14406149
  0.00211797  0.20429258  0.3376079  -0.12961136 -0.15732461  0.040856
 -0.12155164  0.25336027  0.22367972  0.09546322  0.22856614 -0.25326487
 -0.10183465  0.00389828  0.09982041  0.27463517 -0.25132808  0.22340691
  0.22258584 -0.11582188 -0.09825993  0.03184712 -0.17538153 -0.24177201
 -0.02618798 -0.16683358  0.10994671  0.10022414]
[ 0.34656698  0.0298354   0.04921348 -0.02406557  0.22221678 -0.21019538
 -0.07686778 -0.24967605  0.09399878 -0.08119293 -0.04149108  0.18796144
  0.31200194 -0.05642698 -0.2719668   0.17484915 -0.02748831 -0.30749023
 -0.23214248  0.18149309 -0.17677122  0.26049197  0.07705356  0.31629437
 -0.03120576 -0.36533356 -0.25853047 -0.11720598  0.15247533 -0.31842902
  0.20499834  0.27786875  0.23676805  0.26553944 -0.14548308  0.26587388
 -0.14109398 -0.18619852  0.01209022  0.25506735]
[ 0.17458396  0.11568469 -0.21565847 -0.30200675 -0.22409992 -0.03294368
 -0.2727235  -0.07296687  0.2685367   0.23769991  0.09481882 -0.28855196
  0.04609467  0.1082234   0.0593552   0.2558428   0.08869693  0.20693606
  0.05038679  0.09852061 -0.06341472  0.22766156  0.08600963  0.03280072
  0.20728305  0.14732428 -0.15136611 -0.05676237  0.2934155  -0.22004314
  0.05858223 -0.13452208  0.29560304  0.27073643  0.15284109 -0.18408082
 -0.23803593  0.0605566  -0.15378001 -0.02542086]
[-0.02430734 -0.0349706   0.0500894   0.01550206  0.06112488 -0.07402299
  0.16791396  0.14539723 -0.17416722 -0.20782156  0.06257373 -0.00726231
  0.26940033 -0.11104726  0.23803434  0.06855627  0.27784717  0.0033759
  0.1575019   0.06317405  0.10390858 -0.2196019   0.27111647  0.0006013
  0.09756251  0.14991474 -0.15002167  0.04329243  0.1523536  -0.01383185
  0.03404078 -0.1992303  -0.17809825  0.22859798  0.05521941 -0.05175016
 -0.20297457 -0.25516126  0.02940724  0.06318159]
[ 0.18337314 -0.27970982 -0.16562681 -0.02319919 -0.04714524  0.08815566
  0.18715347 -0.25476363  0.05542597 -0.06792492  0.00661917 -0.04731236
 -0.03144957  0.19587658  0.08593109  0.34480932  0.03352829  0.17830613
  0.2816918  -0.05839245  0.15082511  0.05243561  0.27565598  0.04900703
  0.1111687   0.14948377 -0.04307168  0.15304482 -0.16402383  0.18136814
 -0.15798427 -0.15959255  0.16827042 -0.10139777 -0.0986399  -0.14176957
 -0.06941195 -0.03103226  0.16040713 -0.14653982]
[-0.24584018  0.19157234 -0.18855739 -0.25399873 -0.03150453  0.16135913
  0.19932137  0.0552249   0.08545666 -0.09791172  0.2300768   0.12120782
 -0.14385635 -0.20041548  0.35080683 -0.09078139  0.28505567  0.124541
 -0.26054272 -0.03489799 -0.19383979 -0.02708193  0.0181385   0.06075654
 -0.3388804   0.06288479 -0.05379392 -0.20103918  0.15854825 -0.17104456
  0.00854217 -0.3948334   0.28344876  0.16583785 -0.12833887 -0.25149718
 -0.2907857  -0.01633655  0.06558989  0.0720512 ]
[-0.00191417 -0.01164484  0.00373404 -0.03098834 -0.01723541  0.00932254
  0.00427024 -0.0037306  -0.00147382 -0.01028122  0.01442911 -0.00685407
 -0.00179821 -0.00853569 -0.03942581  0.06118469  0.02450658  0.03950036
  0.05006387 -0.01396853  0.00575004  0.00895752 -0.03982506 -0.02360461
  0.01242771 -0.03257185 -0.10021047  0.01012246  0.01264028  0.04160159
 -0.01081251  0.05472451  0.00457583 -0.00351731  0.01805824  0.00132753
  0.00306695 -0.03277399  0.017288    0.01120994]
layer 3 Activation
tanh
layer 4 Dense
40 20
[-0.03984735 -0.0994824   0.347244   -0.16992109 -0.01212163 -0.21705471
  0.07899904  0.18845938 -0.27411735 -0.06051756 -0.05395821 -0.13873589
  0.27133015 -0.26160824  0.00356904  0.02615432 -0.11854769 -0.11612592
  0.11342935  0.15957807]
[ 0.09563185  0.22200169 -0.2527496   0.16161732  0.15765132 -0.0216458
  0.08459767  0.2564747  -0.01210363  0.24855308  0.31985655 -0.04729844
  0.097148   -0.2713838   0.06516894  0.13557076  0.2385304   0.04345
 -0.12140171 -0.04879292]
[ 0.302341   -0.13283604 -0.19521175 -0.00190105  0.2456621  -0.05649979
 -0.19729961 -0.02769604 -0.3093402   0.10616577 -0.06840638  0.10628019
 -0.1514225  -0.26238012  0.00687754  0.12265451  0.28371158 -0.19450665
  0.0664601   0.10942895]
[ 0.18575622 -0.06803019  0.02301587  0.19341338 -0.18850443  0.16936581
 -0.04437851  0.28223708  0.08357802  0.15410003  0.25630498 -0.32080108
  0.01267041  0.07639285  0.30932188 -0.08888073  0.14233257  0.16977371
 -0.09873633  0.0190798 ]
[ 0.12825976  0.2350833  -0.30847058 -0.2763016  -0.21885818  0.17330629
 -0.03974044  0.2219585  -0.02095192 -0.00712739  0.05975152  0.23466633
 -0.00206189  0.10152664  0.05852779  0.11502043 -0.34930524 -0.18477559
  0.1649776  -0.2409118 ]
[ 0.01156473  0.07929425 -0.09959575  0.14801615  0.14024383  0.30976945
 -0.15059035  0.0990317  -0.28538844  0.254434   -0.22781435 -0.07588735
  0.13043316 -0.24535054  0.04938048 -0.14023922 -0.11954137 -0.2424456
  0.16906711  0.19961159]
[ 0.09674238 -0.24674024  0.29094285 -0.02272366  0.19427925  0.31188902
 -0.01810765  0.01052782  0.00211795 -0.26075125  0.22817618  0.07273664
 -0.29447135 -0.11877998 -0.05675424 -0.0399661  -0.02671245  0.18770796
 -0.04715643 -0.15148498]
[ 0.04710832 -0.27933627 -0.0318055   0.16865644 -0.19886921  0.14666803
 -0.3341071  -0.01595399 -0.14813574  0.23083527  0.34710547 -0.22062908
 -0.03107476  0.16824688 -0.20981312  0.09212709  0.22524011  0.27994394
 -0.05052596 -0.24529955]
[-2.31901675e-01 -2.16607958e-01  1.40685588e-01 -2.25809827e-01
 -1.17707476e-01  3.47990058e-02  2.36879319e-01 -5.82382716e-02
 -2.21725449e-01  2.74203194e-04  8.73043165e-02  1.22488581e-01
 -1.39452457e-01  1.70859322e-01 -2.11902693e-01  2.13969052e-01
 -1.02866724e-01 -2.98674464e-01  2.98332691e-01  7.90967792e-02]
[ 0.11962175 -0.09111591  0.23619238 -0.06634564  0.26157558  0.12614693
 -0.2712758  -0.1691854   0.12571949  0.01615529  0.17497909 -0.23043449
  0.22196703 -0.00281758  0.09328661 -0.17615853  0.08036993  0.22381386
  0.33357418  0.00231346]
[-0.23958564 -0.08895344  0.18336943  0.134999   -0.22755787 -0.12567425
  0.12460042  0.11860581 -0.03232693 -0.09814178 -0.06272139  0.23747894
  0.07471212 -0.1320496  -0.044611   -0.22108251  0.16825305  0.0208572
 -0.24625798 -0.062594  ]
[ 0.19494946  0.19372253 -0.08950961 -0.03617722 -0.19239208  0.11296162
  0.0693856  -0.15865685 -0.14688866 -0.01721876 -0.10565899 -0.10983972
  0.1016947   0.11453681 -0.2878032   0.19011486  0.16286573 -0.06502005
 -0.22927454 -0.06060114]
[ 0.06253498  0.29725826  0.15189183  0.21149336 -0.24072446 -0.13431905
  0.13074674  0.2140287   0.20200084  0.27731267  0.12523755  0.003031
  0.17922023 -0.20930181  0.26953572 -0.22777085 -0.02080483  0.07872293
 -0.1678586  -0.04146891]
[ 0.1970394  -0.20318098  0.07206969  0.26258546 -0.3082756   0.22289653
 -0.1305524   0.02101027  0.07831413 -0.20483123 -0.06792372 -0.23505546
 -0.1765405   0.00637606 -0.3415042   0.08040816  0.0059336  -0.02976195
 -0.13079321 -0.03541236]
[-0.25830662 -0.08314568  0.22039248  0.06725661 -0.03430492  0.27452615
 -0.3336299  -0.00138545  0.20259659 -0.35974452  0.12678552  0.09222163
 -0.05249682 -0.22657748 -0.13899405  0.2075168   0.11586269  0.22434643
  0.08923991 -0.09719028]
[ 0.228265    0.24329095  0.24906564  0.1845214   0.253401   -0.22138003
 -0.05018384 -0.23757476 -0.17739506 -0.15823223  0.30344626 -0.03048348
  0.0306314   0.2637226   0.13171765 -0.23984304  0.03442879 -0.16361608
 -0.03456428 -0.24567866]
[-0.22426687  0.14831167  0.18987408 -0.14526632 -0.03581046 -0.07045559
  0.10434481  0.16739322 -0.24300578 -0.04791033 -0.28543156 -0.24970524
  0.2709821   0.30639806  0.23035823 -0.1322405   0.08678397 -0.1935192
 -0.00611321 -0.18365213]
[-0.04775775 -0.2876684   0.16626312 -0.26677108  0.04803811 -0.27394626
 -0.06325457 -0.15943964 -0.10465832  0.14544421 -0.23881274  0.23847185
 -0.21925186  0.06009892 -0.0393662   0.2637997  -0.17113674  0.22672425
  0.02195819 -0.2632482 ]
[ 0.11472289 -0.06791216  0.08397292 -0.2751851   0.27746287  0.24466759
  0.26527828  0.19517304  0.16667634  0.07260424 -0.24711335 -0.09341631
 -0.23164283  0.16047283 -0.12972839 -0.1405603  -0.26442236  0.04803039
  0.27376533 -0.17927842]
[ 0.08634829 -0.20165926  0.00150969 -0.10373595 -0.2693299  -0.2082357
  0.2283016   0.02071522 -0.27896816 -0.15375577 -0.2624713   0.24167599
  0.26157787 -0.23037748  0.03170633  0.11342211 -0.21489397 -0.27983528
 -0.2584545  -0.0321894 ]
[ 0.13798839  0.00551884 -0.21555151  0.12115988 -0.29561523  0.1759355
  0.09029882  0.2681153   0.17075098  0.12358921 -0.0939286   0.06935466
  0.24206866 -0.2921625  -0.02430299 -0.14389499  0.21717641  0.13634814
 -0.2069588   0.12791891]
[-0.24248712  0.33029503 -0.20271938 -0.31319192 -0.07292011 -0.25319737
 -0.1478156  -0.2573157  -0.27728018  0.13822967 -0.20731068 -0.28453398
 -0.13906536 -0.13698676  0.16048428 -0.12300888  0.10044581  0.00933679
  0.27891612  0.24114613]
[ 0.15137088 -0.02905689  0.10516912  0.23099346  0.14896232 -0.17772584
 -0.1750151  -0.32551312 -0.10993022 -0.06074144  0.1662579   0.2141968
  0.014523    0.12194373  0.2515733   0.23898764  0.07039318 -0.19899574
  0.08139171 -0.15078722]
[-1.75667137e-01 -7.76656345e-02  1.29474446e-01 -1.74783528e-01
  2.83996135e-01  7.03316182e-05  1.39083654e-01 -2.81198584e-02
 -5.09118326e-02 -1.02752365e-01  1.65569577e-02  1.60310224e-01
  1.25861555e-01 -2.22841188e-01 -1.77748859e-01 -3.46498728e-01
  4.11530435e-02  1.82609573e-01 -1.43784493e-01 -3.24753858e-02]
[ 0.10519389  0.24522623 -0.09309201 -0.27927962 -0.00603487 -0.12751345
  0.04061782 -0.25568306  0.02806902 -0.33718616  0.20863394 -0.34533006
  0.1499587   0.27625653 -0.19813606  0.2860096   0.18840736 -0.18785727
  0.16197224  0.04495101]
[-0.36046338  0.09103192 -0.22586538 -0.05537762 -0.20063448  0.22390941
 -0.01781428  0.18001789  0.09083303 -0.0670504  -0.29088098  0.03845586
 -0.29602525  0.16311656  0.0184359  -0.1900014  -0.02143254  0.1271983
 -0.2044566   0.02499704]
[-0.32246447 -0.16087018  0.14791928 -0.06824216 -0.1056768  -0.01395617
 -0.13722338  0.196878    0.16721074  0.2639197  -0.18892795 -0.0900891
 -0.19402549 -0.17493066  0.09776869  0.16243291  0.11071025  0.2547106
 -0.28734004  0.26226613]
[ 0.03832878 -0.25558954 -0.23613909  0.03991275 -0.22145198  0.1580313
 -0.07461952  0.088898   -0.06186627  0.2711399   0.2028019  -0.11607339
  0.27848238  0.2515337   0.30069557 -0.24469498  0.20569104 -0.09958527
  0.0754995   0.13326718]
[ 0.23090932  0.13885647 -0.28205112 -0.21388818  0.33560947  0.2191434
 -0.2969236   0.1696866   0.13800418 -0.27982572  0.06478581 -0.12820166
 -0.03860383 -0.21199068 -0.04484424  0.20065169  0.29294708  0.20970292
 -0.13218282 -0.26369172]
[-0.05081402  0.0668866   0.04561869  0.27888924  0.26119277 -0.26222983
  0.08564202 -0.11736323  0.11274987  0.08621895  0.04185429  0.09446298
  0.3274254   0.09057122  0.09749349  0.20501284 -0.03270431  0.0520228
 -0.283305    0.10338491]
[-0.06537024  0.1495506   0.16127478  0.19290224 -0.04600916 -0.07375494
 -0.26199993 -0.12436171 -0.1374372   0.18502599  0.20524988 -0.19113274
  0.21933885 -0.13254088 -0.20743957 -0.28790295  0.27845472  0.06909474
 -0.06016191 -0.31393927]
[-0.05857783  0.24457923 -0.03295899 -0.24102817 -0.11800785  0.01865771
 -0.30150202  0.08533785  0.21639389  0.17461047  0.07830032  0.2860284
 -0.25814176 -0.24944972  0.30466098  0.18823698  0.01546587  0.01697952
  0.13772075 -0.2756139 ]
[-0.12939171  0.2814659   0.20879526 -0.01651264 -0.12958872  0.02144899
 -0.2806128  -0.22247119  0.07717544 -0.07951204 -0.0438212   0.08258975
  0.01194154  0.25068086  0.01017114  0.10315141 -0.0008165  -0.12728497
  0.03723491 -0.05527433]
[ 0.2510926  -0.08884832  0.23622932 -0.04692764 -0.22789918 -0.06210179
  0.04646431  0.2175057  -0.06265677 -0.19326259 -0.15303716 -0.18310468
 -0.24323617  0.18692958 -0.12699151 -0.09981916 -0.02417136 -0.1515447
 -0.01209153 -0.21251665]
[ 0.10325223  0.22320628  0.3291551   0.17599855 -0.23237108  0.14421357
 -0.14582376  0.27167207 -0.06291175 -0.16602516  0.10874089  0.02111078
  0.13892506 -0.07837257 -0.1863904  -0.14735772 -0.20869386 -0.17661817
  0.23526287  0.05400397]
[ 0.19477385 -0.10262547  0.12512456 -0.04259883 -0.21911131 -0.15660687
  0.2234256   0.29157165  0.22248486 -0.17136386  0.02961224  0.11852694
 -0.15166269  0.07157585 -0.2886362  -0.2249881  -0.01401312 -0.1973162
  0.03338627  0.03349659]
[-0.21314387  0.06342997  0.04311319 -0.28491026 -0.00163764 -0.21115866
 -0.03683315 -0.24649489 -0.3487284   0.27441663 -0.18313998 -0.20116168
 -0.02879944 -0.06151488 -0.06054118  0.21231012 -0.0043585   0.13741258
  0.08262035 -0.24752018]
[-0.22509879 -0.28262913  0.19827287 -0.19688593 -0.20818354 -0.07722309
  0.15567367  0.28367314 -0.08026974 -0.08371466 -0.32690865  0.22564705
 -0.25797942  0.28814578 -0.0928726  -0.17795293 -0.21857323 -0.21920411
  0.06779342  0.06980301]
[ 0.09550408 -0.27445975 -0.2259226   0.18931738 -0.290266   -0.16430211
 -0.11473387  0.12000598 -0.21675909 -0.07690363 -0.16709746 -0.13339627
 -0.09229879  0.06651617 -0.24990518 -0.2891654   0.1335857   0.13857476
 -0.24818708  0.02055149]
[ 0.29175508 -0.05544081  0.26378053  0.05098237  0.02282323  0.05854649
  0.29131588  0.23018782  0.14309154 -0.14377992 -0.19213271 -0.19014104
  0.06393414 -0.13284501  0.08263659  0.24836446  0.0514144   0.21770741
 -0.18755741 -0.00074148]
[ 0.00278404  0.01553977  0.00160526 -0.00264254 -0.00108108 -0.00882099
  0.00405176  0.00969258  0.01703998  0.0061836   0.09390118 -0.01152716
 -0.00740927  0.00903459 -0.00464771 -0.00785746  0.00499161  0.02584731
  0.01348021  0.00140169]
layer 5 Activation
tanh
layer 6 Dense
20 1
[0.2021423]
[0.26979068]
[0.19019967]
[-0.18995357]
[-0.12348201]
[0.39777595]
[0.07044736]
[-0.08926909]
[-0.01540337]
[0.24079908]
[-0.00789692]
[0.29744697]
[0.04310588]
[0.3904041]
[-0.18756495]
[0.16327965]
[0.39704368]
[0.01103327]
[-0.13683248]
[0.17676969]
[-0.00220404]
