layers 7
layer 0 Dense
20 20
[-0.3215843   0.14575064 -0.20850092 -0.1113677  -0.10377209  0.08048403
  0.07682146  0.14466244 -0.04892708  0.17871374 -0.4829553  -0.3193723
  0.09199748  0.25939187 -0.24213596 -0.42673242  0.23735902  0.0267421
 -0.20015115 -0.31636888]
[ 0.49079192 -0.29741615  0.30512834  0.5688598   0.38703114 -0.8087403
 -0.3832746   0.02792489  0.17807521 -1.0110128   0.32457644  0.9804716
  0.02516064  0.3718095  -0.10705252 -0.17043379  0.61101747  0.09464783
 -0.53960836  0.71075994]
[ 0.14769901  0.00887015 -0.14836612  0.5463376   0.6505418  -0.623382
 -0.71248364  0.61613244 -0.19219288 -1.0347157   0.52576673  0.8074311
  0.3735018   0.67657053 -0.1410931  -0.43790302  0.3190703   0.46906954
  0.05984993  0.7311495 ]
[-0.45271957 -0.12889403 -0.03215792  0.48206633  0.23566332 -0.35710743
  0.12267519 -0.29843193  0.29445755 -0.15490462 -0.0989206   0.22487548
 -0.50675523 -0.24175268 -0.21478829 -0.41830716  0.5206467  -0.5950762
 -0.20818746  0.26409337]
[-0.30804223 -0.62783045  0.02199299 -0.25413346  0.02310906 -0.01942355
 -0.11569992  0.66921175  0.00998978  0.15198615  0.03837068 -0.33098957
  0.5497013  -0.17488852 -0.05587542 -0.0264403   0.04531829  0.6739551
 -0.34564787 -0.2817852 ]
[-0.66395754  0.27279618  0.08451317 -0.42333537 -0.6275929   0.6794012
  0.11757804 -0.61759734  0.07594354  0.71263015 -0.65584874 -0.80238295
 -0.5005662  -0.72549874 -0.12105423  0.06222951 -0.9611692  -0.01370377
  0.26536977 -0.2798889 ]
[-2.2599226e-01  1.9501624e-01  8.4233005e-04 -1.0879860e+00
 -1.8408270e-01  8.3613396e-01  2.3790589e-01 -3.9762336e-01
  1.5937039e-01  1.0804545e+00 -2.0726393e-01 -9.5313478e-01
 -3.7650177e-01 -2.5102785e-01 -2.6143456e-01  3.6032388e-01
 -2.4359351e-01 -4.7187930e-01  1.8947765e-01 -5.6823283e-01]
[ 0.15655729  0.3994379  -0.266523   -0.3268356  -0.07926217  0.35406622
  0.12363032  0.71418417 -0.1425397  -0.18104784  0.530677   -0.4746403
 -0.33187917 -0.03434119  0.2620339   0.49593326  0.07648323  0.01651544
  0.12260489  0.40119475]
[-0.02660902 -0.07935918  0.27208918 -0.8579272  -0.2174331   0.8381579
  0.12181036  0.42667043 -0.09249242  0.3099048   0.20541781 -0.6394287
 -0.2776845   0.20896646  0.23029613  0.4651033  -0.06473913  0.35062668
  0.15080623  0.61068386]
[-0.07039028  0.47208348  0.0090474  -0.44121265  0.08939116  0.46872634
  0.4595011   0.17554055  0.23215581  0.29228726  0.11426233  0.51903325
 -0.32586423 -0.23095177 -0.09403817  0.2605521  -0.2817489  -0.18863966
  0.06985297  0.17710567]
[ 0.23084356 -0.03179257  0.11138967  0.04096052 -0.06745301  0.39127216
  0.3010976   0.20822486  0.2439378   0.25631055 -0.38268965 -0.17457363
 -0.07618424 -0.36128485 -0.2301087   0.18403348  0.20007186  0.07165585
 -0.17036211  0.3014046 ]
[-0.04175502  0.12917344 -0.22715686 -0.30509716  0.07490216  0.09434021
 -0.05162302  0.19702266  0.23320651 -0.2982501  -0.46696362  0.06009741
 -0.2835443   0.15801914 -0.08719321  0.14189023  0.03548497  0.00753263
  0.50224453  0.06244818]
[ 0.39359877 -0.47047606  0.40500218 -0.03151128  0.1687905  -0.48898256
 -0.38651332  0.24297254 -0.3166536  -0.475024   -0.00346648 -0.2537289
  0.37959608  0.23336303 -0.46005994 -0.24625808  0.09293308  0.47989973
 -0.22288582 -0.41311994]
[ 0.13653664  0.04529279 -0.22077025 -0.14273891  0.01215881  0.05331277
 -0.15173362  0.10302266 -0.3200618   0.00688868  0.16871893  0.0092699
  0.21744005 -0.18347758  0.2866518  -0.18833779 -0.01260901  0.20277955
 -0.10063057 -0.09261706]
[ 0.41550925  0.25704825 -0.48929432  0.7950617   0.413461   -0.51029193
  0.22119595 -0.50285214 -0.15961213 -0.9879097   0.5288685  -0.9040581
  0.27381566 -0.2600922  -0.1453399   0.26790354 -0.18032052 -0.6851827
 -0.36787215 -0.0559633 ]
[-0.1421395  -0.15863757 -0.2955335   0.30775988 -0.12573437 -0.8916136
 -0.21266577 -0.5686335   0.30586267 -0.7840469  -0.20443451 -0.23313096
  0.85261446 -0.37020168  0.00301268 -0.16642362  0.05243677 -0.46633995
  0.5975925   0.14523867]
[-0.12034097 -0.51532954 -0.09278364 -0.6789011  -0.0964875   0.28420585
 -0.04455612  0.63268983  0.04584308 -0.2388663   0.10554329  0.14677088
 -0.74390453 -0.14009227 -0.29792076 -0.11368989 -0.20016554  0.21981597
 -0.04515075 -0.1863224 ]
[-0.17194527  0.4687041  -0.5367965   0.44661734 -0.42392462 -0.06101172
 -0.2013971  -0.5638928  -0.2456705  -0.38549742  0.24500936 -0.5738055
  0.11171569 -0.07310498 -0.13576292 -0.01759052  0.40640986 -0.7973479
  0.10808668  0.05087378]
[ 0.28090942 -0.22335434  0.23763485  0.01860734 -0.10151821 -0.4610465
 -0.14203137  0.31342575 -0.3860964   0.6145255  -0.15340035  0.68963283
 -0.03974178  0.1746291  -0.13808538 -0.08810286  0.06167773  0.34225032
  0.21516222 -0.28139597]
[-0.04126539  0.23016189 -0.29903835 -0.80831337 -0.24582694  0.4405722
  0.18863034  0.56598026  0.2818812   0.25469348 -0.07064173 -0.6384421
 -0.80442226  0.46297812 -0.06116843  0.73393285  0.13067277  0.27329406
  0.60733217  0.34001288]
[-0.17297272  0.130625   -0.24123406  0.7001574   0.05770991 -0.34339428
  0.26217544 -0.58664113 -0.00214048 -0.19760476 -0.29935452  0.2683598
  0.00711452 -0.14200582 -0.05514482 -0.37502682  0.17276977 -0.64346135
 -0.12955864 -0.0481262 ]
layer 1 Activation
tanh
layer 2 Dense
20 40
[ 0.15627542  0.06272925  0.37184054  0.31414586 -0.17244497  0.05498918
 -0.0718378  -0.6124124  -0.29313043 -0.2746725  -0.3324891  -0.07198718
 -0.3643911  -0.10896095 -0.01150749 -0.26046684  0.0599643  -0.0937032
  0.12773187  0.13119547 -0.11200232  0.01301374  0.07112288  0.15200418
 -0.09588535 -0.04542953  0.03750194 -0.40257174 -0.01503845  0.1970803
  0.12243994 -0.05836255  0.07139431 -0.1813071   0.1396931  -0.12075765
  0.04319426 -0.4768114  -0.01756266  0.02740854]
[ 0.21443795  0.099252   -0.3146295  -0.11923502  0.06878147 -0.03666703
  0.38049483  0.29633573  0.27057338  0.03727417  0.07244996 -0.313758
  0.04449971  0.22927594  0.12216212  0.15184098 -0.23233873 -0.16220988
  0.06322651  0.05744189 -0.08940795 -0.14275911 -0.16456334  0.11641384
  0.10562433  0.0630032  -0.22376837 -0.31755644 -0.00147234 -0.24878635
  0.20029207  0.15077916 -0.19517969 -0.40758163 -0.35738218 -0.15408565
 -0.07585019  0.13814412 -0.14205313 -0.11368513]
[ 0.0882076  -0.03562998 -0.12383289 -0.07382557 -0.0444079  -0.07801047
 -0.23794399 -0.09262349  0.23670527  0.07877111  0.03538405 -0.00398458
 -0.07343711  0.06507987  0.05364862 -0.11523888 -0.09306387  0.1273593
 -0.0635725  -0.0106532  -0.02192214 -0.09003682  0.0782059  -0.05574922
 -0.0017951  -0.06658591  0.01019829 -0.18026024 -0.10964004  0.2236622
 -0.03286621  0.06405647  0.2788606  -0.03551462 -0.24586713 -0.11259082
  0.01554068  0.02846552  0.26119033 -0.17576255]
[ 0.1212406  -0.1776761  -0.27174097 -0.27855787  0.21212392  0.09770183
 -0.02212992  0.66973215 -0.19305366 -0.07313457  0.15438513 -0.03654633
  0.2189784  -0.0046748   0.02639875  0.48424175 -0.04652321  0.02465731
  0.33728617  0.08092781  0.19462745 -0.12034736  0.2804475  -0.04054751
  0.24568924  0.22334191 -0.20328566 -0.29481843  0.04423417  0.24293815
  0.13706103 -0.03136292 -0.608086    0.29344591 -0.11406092  0.29226798
 -0.03166725  0.3212307   0.02964838  0.02367009]
[-0.0690988  -0.16982394 -0.01100405 -0.09387692 -0.17493922  0.02012829
 -0.18244843  0.09399534  0.07352874 -0.19926293  0.14760578  0.09593112
  0.15848705 -0.03208997 -0.18683249 -0.12823482  0.25176784 -0.07593051
  0.05416066 -0.17289259  0.02291875  0.25092643  0.22788487 -0.06411676
  0.00145874  0.04987051 -0.00758452 -0.08782326 -0.07084446 -0.04833076
 -0.08464675  0.03467913 -0.1919691   0.3037752  -0.05891363 -0.09666578
  0.25279397 -0.20193279 -0.06434129  0.35012293]
[ 0.06587905  0.42899978 -0.02696173  0.01679117 -0.2469098   0.24423869
  0.05891989 -0.09226877 -0.22094628 -0.14078414  0.09264173  0.08603331
  0.16532764 -0.07750887  0.08147258 -0.1912697  -0.07110893  0.16329454
  0.18855593  0.01773031  0.21715748 -0.01300982 -0.03497335 -0.09905379
  0.02096026 -0.0374957  -0.29884416 -0.24449636 -0.29973888 -0.14096826
  0.07374577 -0.07146525  0.16073608 -0.32857442  0.19276144 -0.05694647
 -0.39644793 -0.48764962 -0.05385452 -0.03500009]
[ 0.23746698 -0.10871401 -0.20344286 -0.31782356 -0.08276308  0.22130926
  0.11217134  0.21815781  0.23313856  0.11947269  0.12379596 -0.23557122
 -0.21085194  0.16316314  0.16665126  0.10827073  0.01451211  0.08271563
  0.2340014  -0.15959069  0.04774924 -0.01324978  0.00457672  0.10376544
  0.20462106  0.2251845  -0.04883458  0.04765804 -0.07226212 -0.14522794
  0.00078744 -0.04444832  0.06753042 -0.05982944 -0.06354552  0.22916801
 -0.06987274  0.17797862  0.10264225  0.03479099]
[ 0.00969187  0.04499295  0.24078861  0.32458872 -0.1752187  -0.15531544
 -0.19935563 -0.46062398  0.03955058  0.04918066 -0.07271528 -0.21685623
  0.03904914 -0.08112534 -0.02567861 -0.51386446 -0.09965583  0.02108195
 -0.13343272  0.11427096  0.11475358  0.02035308 -0.05424947  0.00740984
  0.2152087  -0.16926174 -0.05402511  0.13674913  0.11169434  0.06264446
 -0.18048938  0.18474096  0.49233097 -0.10502421  0.21771948 -0.39980254
  0.14948007 -0.37651524 -0.04984096  0.14320016]
[ 0.02769463  0.08876537 -0.22684327 -0.00160704  0.09456421  0.08711351
  0.0019723   0.19964924  0.04379237 -0.33429235  0.09089407 -0.13601346
  0.16141787 -0.16052817  0.01106878  0.16872011  0.1400072   0.06752948
 -0.1029563  -0.0090785   0.09457574 -0.05469467  0.3672594  -0.09664756
 -0.09288245  0.1663918   0.00752359 -0.19011554 -0.20249102 -0.35132328
 -0.14180523  0.02567736 -0.13700053  0.02397404 -0.28313878  0.00994925
 -0.2772949   0.07296411 -0.1123677  -0.08069916]
[ 0.17229164  0.09089248  0.16169281 -0.08545409 -0.0661479   0.03708908
 -0.10271018 -0.00679289 -0.05072509  0.14059788 -0.0599996  -0.05085196
 -0.2084409   0.20750044  0.26832896 -0.18021533 -0.09393499  0.15485613
 -0.00292143 -0.04451833 -0.04731781 -0.04151915  0.25823697 -0.01781229
  0.23855491 -0.02924204 -0.21270138  0.13325682 -0.12931879 -0.00873066
  0.15472989  0.074858    0.20932311 -0.20176454  0.2511996  -0.04085578
  0.03578692 -0.24622779 -0.23370107 -0.00160763]
[-0.18490268  0.19707467  0.49233362  0.4530189  -0.2164885  -0.11089509
 -0.00775766 -0.64748275 -0.07997248 -0.01099905 -0.07786487  0.15381597
 -0.10507711  0.05732799 -0.2553077  -0.23326837  0.05310377 -0.19112955
  0.1748253  -0.00402806 -0.11896209 -0.08238556 -0.29865417  0.14083071
  0.097704   -0.18147111 -0.03805165  0.05751785  0.06606933  0.15832032
  0.01357931 -0.16651171  0.18843918  0.00779236  0.10802964  0.02881456
  0.10189226 -0.36551172 -0.04339428  0.1353494 ]
[-0.26394463 -0.45972914  0.0122045  -0.1954829  -0.07634756 -0.20986149
 -0.46778283  0.4813665   0.03714889 -0.20238966  0.06928965 -0.07845259
 -0.04759139 -0.32426217 -0.30336234  0.42989603  0.01410605 -0.11987272
 -0.02633083 -0.08207294 -0.05989716  0.28352368 -0.06578583  0.04364637
 -0.26052174  0.20032106 -0.0263686   0.24685292 -0.11168304  0.10370337
 -0.13441303  0.07317461 -0.42870548  0.6893377  -0.07512701  0.36292228
  0.03807997  0.38885367  0.3416779   0.27878618]
[ 0.00051923 -0.06133182  0.24024136 -0.01884677  0.04525476  0.10382922
 -0.09145368  0.02406392 -0.15746213 -0.02924233  0.0026774  -0.22993325
  0.16453561  0.20737296 -0.18346982  0.03876434  0.01271938 -0.08972505
  0.19563581  0.02687791  0.07408106 -0.1910025   0.3467902   0.16636026
  0.07521499  0.04698634 -0.15654434 -0.23720178 -0.20105541  0.03001491
  0.06983499 -0.1090313  -0.1530283   0.13423838  0.00999254  0.06270397
  0.30859393  0.14871605  0.0796817   0.17367819]
[-0.12438584  0.05507848 -0.01421567 -0.08133896  0.06528961  0.08105596
  0.16268401 -0.12481649  0.04087013 -0.2447845   0.18702424 -0.12424196
  0.02414736 -0.03685265 -0.11001857 -0.16732714  0.15943295  0.36517307
  0.24993764 -0.04083038  0.08617348  0.05848238  0.05834223  0.11608811
 -0.15427685  0.10829656 -0.17109981  0.00511132  0.04135587 -0.14421159
 -0.05722486  0.01537424  0.16261198  0.03075813 -0.13006866  0.14855258
 -0.1795118   0.02580918  0.20958763  0.07282835]
[-0.07399906 -0.13888457  0.22478795  0.10898781 -0.23241018  0.02948992
  0.53070676 -0.30822358 -0.3749994  -0.10571016  0.0779868   0.29112557
 -0.23926608  0.02169427 -0.16302924 -0.3561957  -0.15968366  0.21586166
  0.2658685   0.10578147  0.04054483 -0.07152274  0.15215386 -0.01198783
  0.0413304   0.06672798  0.00728696  0.04074902 -0.22942375 -0.03407744
  0.06575855 -0.29414833  0.26634672 -0.03377236 -0.07397675  0.00432154
 -0.0399046  -0.36808547  0.13947763  0.16741388]
[-0.1365767   0.5024368   0.26112515  0.12310015  0.08560367  0.14103515
  0.2983438  -0.59997153  0.02671075 -0.03209798  0.08918218  0.13289402
  0.05644066  0.00846351  0.02690698 -0.6685338   0.06140511  0.08613495
  0.03091198  0.04531972 -0.02999475 -0.11313594 -0.19079933  0.03076841
  0.01961492 -0.12512557 -0.0515627   0.06841239  0.14754395  0.06415074
  0.06360167 -0.22910023  0.3558618  -0.45608088 -0.16790096 -0.1940134
  0.12182646 -0.3103551  -0.12915224 -0.1382362 ]
[ 3.3456752e-01 -2.7162680e-01 -1.6855004e-01 -3.5793260e-01
 -1.1117838e-02 -1.0460712e-01 -1.7866135e-01  2.5803986e-01
 -2.4083090e-01  7.7982126e-03  1.9055408e-01 -9.3229547e-02
  5.6010503e-02  9.3935631e-02 -1.0798723e-02  3.2125562e-01
  1.0148296e-01  1.7369439e-01  1.8026228e-01 -1.8909976e-01
  1.6883237e-04 -8.5041769e-02  9.7154208e-02 -2.5409567e-01
  9.3146108e-02  1.9928215e-01 -5.6627553e-02 -7.8945138e-02
  3.1249008e-01 -1.0190735e-01 -6.3062400e-02 -1.4225496e-02
 -2.7123287e-01 -1.7721573e-01 -2.2473739e-02  3.3705059e-01
 -5.0582856e-02 -1.8460241e-03 -3.5109762e-02 -7.1651846e-02]
[-0.16217847  0.03491261  0.07241887  0.4964481  -0.06003394  0.04044949
  0.10253982 -0.6370296   0.23966366 -0.12999666  0.09664101  0.38083813
 -0.060751    0.12722763  0.03811889 -0.16287373 -0.03330486  0.18430096
 -0.14564404 -0.11314176  0.02101783  0.0296666  -0.07280555  0.00373615
  0.05582459 -0.18108767 -0.05133426 -0.03346499 -0.2714808   0.16540913
 -0.00406317 -0.10340087  0.43895876 -0.18426332  0.1409644  -0.41221204
  0.04193374 -0.6228481  -0.16032672 -0.1131949 ]
[ 0.01798391  0.06383365  0.2599247   0.37559548 -0.11924679 -0.09316433
 -0.05615689 -0.16616799 -0.21108532 -0.19756696  0.07402369  0.15680964
  0.03669942  0.07201939 -0.1919205  -0.12530933 -0.00327607  0.08982186
  0.04797799  0.05222973 -0.08117402  0.302743   -0.10764451  0.144117
  0.10615692  0.09339843 -0.22627851 -0.14171723 -0.07313589  0.10017479
  0.02569578  0.2528211  -0.09280654 -0.43548396  0.13482115 -0.0094885
 -0.03923119 -0.03722845 -0.11461654  0.17191109]
[ 0.27575034  0.36609247 -0.24638112 -0.23218854  0.06125615  0.01303633
  0.16708802  0.06529937  0.22186589 -0.01281083  0.23054153 -0.00356396
 -0.05277624 -0.03633938  0.01004855  0.07597506  0.00262307 -0.07186062
  0.34053317  0.07915707  0.20241131 -0.01005811  0.30267617 -0.12969816
  0.1189274   0.25766674 -0.1456934  -0.14295584  0.1698478  -0.24484916
 -0.04001783  0.07914297 -0.02709562 -0.3799068  -0.15281048  0.11158089
 -0.08515922 -0.11017306 -0.03072772  0.04706245]
[ 0.06384733 -0.14686629 -0.10932226 -0.25372493  0.06129951  0.0309275
  0.17311697  0.39970994 -0.08967595  0.20049934 -0.0226081  -0.11674062
  0.06507505 -0.00657895  0.02297035  0.25413716  0.04127854 -0.02124534
 -0.06863599 -0.0392541   0.02053145 -0.10974173  0.09776478 -0.03723936
  0.08179132  0.03245769 -0.00804338  0.03637964 -0.02804471 -0.2303092
 -0.03835095 -0.16736725 -0.20037167  0.0975922   0.03660053  0.19711827
  0.01564311  0.41939056  0.05048664 -0.10222492]
layer 3 Activation
tanh
layer 4 Dense
40 20
[-0.09703036  0.12031289  0.0234975  -0.01646237 -0.38835075  0.06803755
  0.09805147  0.14261405  0.02154138  0.05902338  0.07453257  0.10833068
 -0.02162334  0.30160794  0.02722447 -0.02685411  0.28849593  0.05953901
 -0.19613115 -0.0405391 ]
[-0.05680072  0.04677296  0.05165757 -0.7003491   0.22389412 -0.27111423
  0.01430084 -0.06855769 -0.22504003  0.07198711 -0.00601814  0.20902604
 -0.12224454 -0.01340031 -0.02908055 -0.00222536 -0.31469402 -0.11773442
  0.0528145   0.3074551 ]
[-0.21062544  0.09515466 -0.14991082 -0.22649698  0.1246785   0.05944915
  0.03572633 -0.23259225  0.07396071 -0.13194656 -0.2777779  -0.09493856
 -0.09716292 -0.25087216  0.03356886  0.04288766 -0.26825354 -0.2109421
  0.03945628  0.19611606]
[-0.03091988 -0.03809777 -0.1756772  -0.28918958  0.20173876  0.18654087
 -0.1606672  -0.47087848  0.07457208 -0.12651935 -0.20867924 -0.23974365
 -0.23927362 -0.57188773  0.13708766 -0.07422285 -0.46451172 -0.12123545
 -0.1882375   0.37165123]
[ 0.01930881 -0.05589746 -0.01797654  0.21419676 -0.10042338  0.03801703
 -0.08430064  0.01977501 -0.02741027 -0.09883215  0.15021984  0.07327729
 -0.08389445 -0.01380147 -0.06039123  0.08642522  0.28172827  0.22136056
  0.0499116  -0.0773581 ]
[-0.13335143 -0.02231188  0.08567664 -0.21489479 -0.0189597  -0.1076348
  0.08531496 -0.0230819  -0.00413948 -0.0353269   0.11569594  0.00660439
  0.01791202  0.05346686 -0.00818148  0.01173261  0.16966732  0.12725452
 -0.11404814 -0.04785946]
[ 0.1773671  -0.08142247  0.11797749 -0.563777    0.33553296 -0.03605437
 -0.00060983  0.22315845  0.05166927 -0.06396712  0.02293243 -0.01193877
  0.03368539  0.1659745  -0.0502208   0.22572762  0.04982229  0.26788715
 -0.11823335 -0.00327631]
[-0.05073383  0.1300023   0.07203371  0.31105486 -0.13715045  0.07630344
 -0.10740321  0.4829392  -0.01434394  0.0637727   0.09166189  0.01708666
  0.00317211  0.52956873 -0.12662621  0.09178939  0.52827555  0.1908371
  0.07251843 -0.34005883]
[ 0.237577    0.17216489 -0.02428882  0.18649364 -0.0268413   0.11428179
 -0.06160339  0.01821493 -0.08736287  0.024373   -0.18119583  0.19194064
  0.04083075  0.23494412 -0.05635058 -0.05711238 -0.15814494  0.17992508
 -0.01664188  0.01345907]
[-0.05125635  0.05514248  0.00208012 -0.01070285 -0.13429141  0.08353075
 -0.1380597   0.16855115  0.01333743 -0.06173189  0.07896561 -0.04059754
 -0.06762627  0.41837305 -0.03921755  0.08189238  0.05568214  0.2272491
  0.13171735  0.19239263]
[-0.02127735  0.05061435 -0.10108221  0.05612143 -0.01716357 -0.02985577
 -0.14079063  0.16944098  0.02764449 -0.07703789  0.00370074  0.00760111
 -0.06683769  0.1126431  -0.08088696 -0.10980313  0.17046541  0.18325311
 -0.11575685 -0.13694657]
[-0.13075306  0.12400423 -0.07503374 -0.16071062  0.06432286  0.11566484
 -0.08214969 -0.13901643  0.17251968 -0.11139297 -0.22162019  0.10418659
 -0.15211214 -0.19338264 -0.04697837 -0.05665273 -0.30912837 -0.10378177
 -0.11157881  0.20325403]
[ 7.74011463e-02 -1.27310783e-01 -5.84515790e-03  1.36292011e-01
 -1.53006747e-01 -3.17132235e-01 -4.00928329e-05  2.29027554e-01
 -6.24485090e-02  8.91657844e-02  3.01256925e-01  1.50613949e-01
  2.04394430e-01  3.22043002e-01 -1.14308804e-01  7.51926824e-02
  1.27940886e-02 -2.68750992e-02 -1.84628963e-01 -2.53312558e-01]
[ 9.9623702e-02 -1.2820721e-01  5.2036256e-02 -2.8461400e-01
  5.7722442e-03  5.1051214e-02 -1.5605403e-01 -3.4267116e-01
 -4.8522241e-02  1.1795097e-01  7.3607698e-02  8.7945715e-02
  9.5689259e-02  2.0267433e-04  1.5828227e-01 -8.0357879e-02
 -9.5096335e-02  2.3907159e-01 -1.1974243e-02  6.3174985e-02]
[ 1.64274484e-01  4.63701859e-02  2.37269123e-04  6.68541417e-02
 -1.95921406e-01  6.79859966e-02 -1.37530759e-01  1.58743724e-01
 -5.41964583e-02  2.98531000e-02 -7.49079091e-03  1.35525921e-02
  7.30212405e-02  4.37810749e-01 -9.53707322e-02  3.32360342e-02
  2.25247324e-01 -1.03651471e-02 -1.15452476e-01  5.13133556e-02]
[-0.0543982  -0.14906721 -0.13597456  0.2555164  -0.30818486 -0.04771643
  0.097629    0.33764756  0.12323177  0.01496017 -0.14196773 -0.15054576
 -0.04904018  0.34299177  0.18492179 -0.24791177  0.34660903  0.18897517
  0.02660606 -0.43403018]
[ 0.11738206  0.14115809 -0.198931    0.30214033 -0.16151175 -0.17698756
 -0.07549302  0.07308907  0.05848502 -0.06862256 -0.10110572  0.00525233
 -0.22584994 -0.02928488 -0.10825618  0.15113205  0.03701824  0.02898875
  0.0514228  -0.18587297]
[ 0.19002977 -0.07195109  0.24749367 -0.27722958  0.08347452 -0.08561333
 -0.14571653  0.16223055  0.01531007 -0.04482929 -0.15834251 -0.01395867
 -0.10291412  0.12061332  0.01920845  0.17113051  0.18865816  0.20730989
 -0.01054407 -0.19290477]
[-0.24010882 -0.06804274 -0.00978163 -0.3049384  -0.22465262 -0.18249296
 -0.01026865  0.15949985 -0.0074949  -0.12120613  0.01715195 -0.0923777
  0.12788823 -0.10206807 -0.02054672  0.13310015 -0.04699795  0.01064127
 -0.12875153 -0.10548388]
[-0.12226875  0.09719517  0.06727909 -0.18607704  0.09757747 -0.0757851
 -0.07096479 -0.0203368   0.05851627 -0.05619587 -0.03424     0.03007147
 -0.12036476 -0.06020455 -0.08791844 -0.23395278 -0.1712632  -0.05020161
  0.04354736  0.11372376]
[-0.05175076  0.06784745 -0.03356725  0.05051723  0.00787502 -0.03824021
 -0.03031924  0.18213548  0.04524029 -0.08679782  0.21909589 -0.04092271
 -0.02829956  0.110291   -0.0296214   0.03081199  0.39035928  0.13664122
  0.02182127 -0.18424045]
[-0.09093302  0.23495704 -0.02676829  0.15217309 -0.01581283 -0.28706458
 -0.10089171  0.22507896 -0.07341883  0.09318531 -0.04097661  0.13078605
 -0.08885465 -0.07133748  0.06597282 -0.12918632 -0.02685641 -0.28136683
 -0.13395046 -0.11829747]
[-0.10045686 -0.07667115  0.00228132 -0.01384941 -0.21758077  0.00646325
  0.00238564 -0.02352634 -0.03101134  0.10033492  0.1079447  -0.0680628
 -0.15866551  0.18748233 -0.1194576   0.12945025  0.13998145  0.2815801
  0.00190527 -0.09849291]
[-0.03228924  0.11403838 -0.10180569 -0.0500508   0.10445812 -0.17592381
  0.00245879 -0.04460574 -0.09463666 -0.11087032 -0.26085925 -0.12288466
 -0.02953959 -0.33082977  0.08815958  0.01032137 -0.22316507 -0.05663846
  0.10467357  0.03765278]
[-0.2360148   0.07304862 -0.06444027 -0.16887112 -0.08288148 -0.18825677
 -0.0222337  -0.00040747 -0.06749038  0.01848259 -0.02319316 -0.06359716
  0.02781184 -0.09135842  0.08540304 -0.0608949  -0.05481058 -0.15643048
 -0.03717056  0.10874574]
[-0.00289608  0.14469822 -0.02114285  0.04443426 -0.24255162  0.04082462
  0.08013338  0.237638    0.11080718 -0.04738669  0.14654568  0.00958738
  0.01488464  0.02972626  0.03149016 -0.22613637  0.28976145  0.1527281
  0.0170945  -0.36030504]
[ 0.04371096 -0.07775526  0.01509889  0.2340101   0.12432282  0.16673744
 -0.03933232 -0.12496252 -0.02630467  0.01587804 -0.01639094  0.15227956
  0.05656015  0.05071118  0.08305842 -0.02017461 -0.11709987 -0.03217097
 -0.05830953  0.07381047]
[ 0.13808951  0.02219369 -0.04649198  0.23318054  0.26062524  0.3192509
 -0.023334    0.11335912  0.00659188 -0.03939968  0.02601023  0.16019082
  0.0703788   0.36352518  0.11158977  0.12992907 -0.08795452 -0.03878393
  0.05520864  0.02371407]
[-0.04158495  0.01284506 -0.16413485  0.03527026 -0.09963977 -0.08795507
  0.08872253  0.18500733  0.04272877  0.04151218 -0.00352277  0.08879666
  0.1172407   0.04261625  0.25077423 -0.03586768  0.01756318 -0.09096804
 -0.18203819  0.02222451]
[ 0.1459879  -0.1368154   0.03978145  0.0255006   0.05105662  0.05383933
  0.03924084 -0.24221861  0.05455263  0.06637737 -0.25077102  0.10345406
  0.01318147 -0.4086273   0.02930385 -0.06041301 -0.10960635 -0.07277352
  0.01496679  0.05030211]
[-0.16407223 -0.11967311 -0.03990075 -0.20347576 -0.02158394 -0.11506213
  0.05455684 -0.07849804  0.06842065 -0.08374273 -0.04242954  0.00752902
  0.12970617 -0.04839434 -0.1241508  -0.09271657 -0.25335163  0.03485116
 -0.09290824  0.18868774]
[ 0.03216992  0.20178376  0.05205059  0.17312446 -0.24684611 -0.15123205
 -0.05338509  0.18589121 -0.08632326  0.06701228  0.10232973  0.04923814
  0.01191484  0.10017204  0.1860838  -0.19501427  0.02548258 -0.13903233
 -0.02453553 -0.12407608]
[ 0.16313104 -0.21036886  0.16893324 -0.09475975  0.12584673  0.31794357
  0.03269347 -0.28688475 -0.21633807 -0.06011049  0.232524    0.17575459
  0.08330878 -0.2233987  -0.10379726 -0.14261356 -0.34442428 -0.00772471
 -0.12508383  0.42953753]
[ 0.0270865   0.01377546  0.27133623  0.47715545 -0.04691287  0.41207775
  0.01324891 -0.01233798  0.07345194  0.04639174  0.16425808 -0.00172924
 -0.07314347 -0.23408672  0.26561177 -0.16496417 -0.2755556  -0.16953035
 -0.26107374 -0.17530274]
[-0.03757371  0.00267435 -0.00879502 -0.02351082 -0.06693549 -0.00585969
 -0.03884907 -0.02170659  0.02245398  0.02767099 -0.14642836 -0.04806538
 -0.04944649 -0.24065262  0.19848485 -0.02799003 -0.17941143 -0.3299301
  0.00555146  0.0595031 ]
[ 0.02785063 -0.06885325  0.13582449 -0.09338899 -0.21905105 -0.05135868
 -0.159613    0.41940698 -0.17410891 -0.08674079 -0.28937104  0.00259235
 -0.13211958  0.15677103  0.04461696  0.10937037  0.41449103  0.01191811
  0.19676732 -0.40899277]
[ 0.05147044 -0.17000571 -0.08174172  0.06008482  0.26230878  0.07622111
  0.07373032 -0.30593708  0.01101015  0.07530731 -0.01218535 -0.00241354
 -0.09961728 -0.14576745  0.06318176  0.12972686 -0.22072008  0.26460147
  0.13005014  0.2335372 ]
[ 0.03666674 -0.02294511 -0.26445147  0.5056079  -0.23559976 -0.1801851
 -0.06036185  0.4009806  -0.05557775 -0.15647545  0.07503737  0.15566199
 -0.19184045  0.3038762   0.03765744 -0.11611865  0.400584    0.00808354
 -0.01491126 -0.30381534]
[ 0.04235404 -0.16009127 -0.08985281  0.37487078  0.01631225 -0.06918963
  0.08843685  0.22519183 -0.09193825 -0.08040889  0.00910471  0.11616356
  0.041477    0.03824458 -0.05904571  0.15728049  0.18854031  0.19615294
 -0.22257233 -0.16221857]
[-0.0596499   0.03664933 -0.0016745   0.03760758 -0.06922101  0.09986708
  0.08306102 -0.22650507  0.01645171  0.04990334  0.08825483  0.03399495
  0.03363225 -0.38716343 -0.0137003   0.10754895 -0.02668891 -0.20423813
  0.21926369 -0.0673408 ]
[ 0.08018275 -0.08630913 -0.03517837  0.06077763 -0.07915422  0.09504297
  0.00776929  0.0229985  -0.03194281 -0.08336591 -0.19116351 -0.00547556
 -0.04380302  0.08353544  0.05612784  0.04234019  0.08280642  0.03700059
  0.01313055  0.15539436]
layer 5 Activation
tanh
layer 6 Dense
20 1
[0.00238299]
[-0.0187459]
[0.01897208]
[-0.05279206]
[-0.06217911]
[0.02134138]
[-0.00473004]
[-0.1449842]
[-0.03249311]
[0.02402128]
[0.01114081]
[-0.00562529]
[0.00953438]
[0.03658254]
[-0.00207205]
[0.00581715]
[0.0587804]
[0.03452719]
[0.01337992]
[0.09772459]
[0.09772195]
