layers 7
layer 0 Dense
20 20
[ 0.5595363  -0.29521146 -0.36229426  0.5656934   0.4704363   0.5517976
 -0.7531281   1.2843168  -0.45873693  0.8261487  -0.48139307 -0.01310424
 -0.7079952  -1.509934   -1.198869   -0.5309426   0.5470005   0.11371735
 -0.6775086  -0.9102589 ]
[ 0.40806538  0.4286989   0.5816782  -0.22758065  0.03002718  0.37106946
 -0.77157336 -0.17450252 -0.15619053  0.084464   -0.22500536 -0.22082871
 -0.59360445  0.31834885 -0.07592198 -0.20491542  0.47423112  0.1842268
  1.2145654  -0.15937874]
[ 0.52493554 -0.03331729  0.4424083  -0.16551805  0.17501381  0.6952274
 -0.8007895   0.28304633 -0.1568279   0.32205242  0.02887823 -0.08921675
 -0.72036296 -0.02200808 -0.18702897 -0.59190375  0.97233105  0.38428175
  1.2035246   0.14738198]
[ 0.74521416  0.19210544  0.35019425  0.13834655  0.53461957  0.11652014
 -0.7957101   0.3961065   0.07702478  0.23235922 -0.48691055  0.08948976
 -0.78165495 -0.65494925 -0.885817   -0.07238285  0.66585803  0.26534277
 -0.27733898 -0.00820019]
[ 0.01487072 -0.07595477  0.11455729 -0.11393192 -0.1201783  -0.11022997
 -0.3247058   0.48692897 -0.8141065   0.44182122 -0.42161122  0.20805843
 -0.13504717 -0.810486   -0.42201188  0.11645462 -0.18781628  0.13618161
  0.09837565 -0.01944422]
[ 0.21178512  0.24823414 -0.46691614  0.49744406  0.17855187 -0.36310783
 -0.09429876 -0.27045026  0.499836   -0.46097925  0.06562459 -0.00585164
  0.45717955  0.5268871  -0.34762946  0.17294684  0.18834975  0.00301117
 -0.35577112 -0.0405939 ]
[-0.2723239   0.53680974 -0.5831891   0.57243186  0.1576468   0.23284175
  0.02010911 -0.40394512 -0.06743125 -0.3510865  -0.6541788  -0.03115178
 -0.18380937  1.0123     -0.4277954   0.2670839   0.20950443  0.5752127
 -0.640317    0.18950006]
[-1.1521903  -0.84313077 -0.7455564  -0.39860162 -0.67864835 -0.9756449
  1.2744883   0.19889826  0.7115937  -0.41104582  1.3323534   0.05717518
  0.65341574  0.26947543  0.970797    0.20644626 -1.1336801   0.04631829
 -0.65601945  0.19231868]
[-0.10576953 -0.5615019   0.00579138  0.11097484  0.14561072  0.21504226
 -0.1377132   0.67815906 -0.7348828   0.44800857 -0.06638716  0.30537963
  0.21186884 -0.5538281  -0.47003177 -0.0274468  -0.42479724 -0.02459194
  0.23345923 -0.7383136 ]
[ 0.40558204 -0.43015024  0.32914135  0.33763185 -0.7273332   0.6709315
  0.7547213   1.0072241   0.02196336  0.8766739  -0.41981238 -0.27062023
  0.5492169  -0.35657278 -0.59256744  0.15049697  0.07151078  0.3179551
  0.77807623 -0.17896652]
[-0.5490994   0.35308346  0.4264166  -0.19790095  1.1138755   0.06898069
 -0.51174974 -0.37086537 -1.1143669  -0.85950434  0.45497847  0.22060853
  1.4483103  -0.6870198   0.25851488  0.9618364   0.1381614  -0.43750003
  0.24131973  0.20577034]
[ 1.1015238   1.1798993  -0.26192087 -0.6133082  -0.9123927   1.695987
  0.7094999   1.8888822  -0.22254586  0.23629306 -2.193931   -0.40654
 -2.2874045  -0.36340252 -0.5138821  -0.8972856  -0.2037843  -0.21354689
  2.0301948  -1.8798045 ]
[-0.06853615 -0.73585033 -0.03912539  0.34748867  0.06733061 -0.1709265
  0.4320806  -0.12671396 -0.6804055  -0.02053368  0.02468144  0.5913116
 -0.35189247 -0.90869313  0.02318891 -0.00867935 -0.15664455 -0.41884074
 -0.55892086 -0.6402774 ]
[-0.47668874 -0.56922793  0.11412859  0.51859504 -0.6516496  -0.8902354
 -0.7638705  -1.1367159   0.6423063  -0.05372912  0.5505061  -0.5544744
 -0.25321147  0.36196563 -0.01201086  0.06565237 -0.25084597  0.4264529
  0.8530009  -0.04187141]
[ 0.59174156  0.04922589  0.8623731   0.02660811 -0.6747016   0.07293331
  0.7629755  -0.5648777  -0.03003785  0.603643   -0.42517936 -0.94728833
 -0.9460533  -0.94626456 -0.00526028  0.511536   -0.15807676  1.3837385
  0.16307993 -1.2997518 ]
[ 0.5403605   1.1051126   0.12518501 -1.6512607   1.0246555   0.5637945
 -1.0527259  -1.9492571  -1.2442226  -0.743167    0.2195862   0.56938016
 -2.3380227   0.03093378  1.4815782   0.8374191   0.25106734 -1.6854012
 -0.80118865 -0.46120298]
[-0.04729616 -1.5227307  -0.01821524  0.93065196 -0.37333176 -1.9429628
  0.37532842  2.6456778  -0.25177568  1.8734096   1.7092464   0.3785632
 -0.2325414  -2.015989   -0.8508614  -0.19471858 -0.5505323   0.57331634
 -1.2706442  -0.8193973 ]
[-0.25598922  0.90458435 -1.4722282  -2.1287065   1.906713    1.3480008
  0.5583876   0.92197645 -3.10556    -1.7161751  -0.47946858  2.0154338
 -1.2692245   1.3767843   0.26534602  0.124437   -0.23648295 -0.68273723
 -2.6614766   2.5858629 ]
[-0.48976457 -1.0899972  -1.9720012  -0.07725417 -0.5265703  -0.24674632
  0.20974834  2.2330036   3.1395686   1.313159    0.17031327  0.5128115
 -1.0924809   3.3276527  -0.61958444 -2.0614755  -0.09852412 -1.3990219
 -1.1016139   2.13983   ]
[-6.3853580e-01 -1.6140189e+00 -2.1037559e-01  1.3597815e+00
  4.1214786e-02 -1.1359905e+00  6.9578516e-01  9.7218245e-01
  2.7507749e-01  8.4522152e-01  9.7465330e-01 -8.3963430e-01
  8.9974052e-01 -1.4470130e+00 -2.4757382e-01 -5.6675607e-01
 -4.6971169e-01  1.1825328e+00 -2.0288367e+00 -1.8659420e-03]
[ 0.3866965   0.45840052  0.20172484 -0.03274556  0.27679324  0.5092418
 -0.45830715 -0.10195128  0.08026434  0.00449506 -0.4372158  -0.13411984
 -0.34647486  0.29825017 -0.3453209  -0.06874416  0.57731235  0.08388149
  0.52349275 -0.01591066]
layer 1 Activation
tanh
layer 2 Dense
20 40
[ 0.17953904  0.5298211   0.28535825 -0.25821668 -0.25501078 -0.18125962
 -0.6672322  -0.11552151  0.46652317 -0.1093576  -0.2233119   0.19604805
 -0.5064133   0.4870738  -1.0435895  -0.00993852  0.40814176 -0.62551844
  0.21085806 -0.8174238  -0.78101456 -0.40908316  0.8095759   0.16451216
  0.15808648 -0.29306433  0.49799308  0.04750058  0.25011864  0.08003885
  0.16377525  0.4860167   0.05867242 -0.99258167  0.32414025 -0.11067524
  0.024542   -0.6942552  -0.9055795   0.40088755]
[ 0.10379528  1.0241541  -0.5818473   0.06412768 -0.10444485 -0.15506189
  0.78514016 -0.73401     0.67046297  0.1752316  -0.27681383  0.27651417
  0.06996428 -0.20538561  0.04927416  0.36368036 -0.10959569  0.97251713
  0.84547204  1.0038599   0.53659254 -0.39748123 -0.6735884  -0.7058534
 -0.4458836  -0.32106566  0.703688    0.20613012  0.318453   -1.6116995
  0.71941864 -0.04170956 -0.22791821  0.8883641   0.06629735 -0.07197361
  0.02250752 -0.8317778  -1.1062499  -0.05973988]
[ 0.30632883 -0.07322151 -0.14633372 -0.52309096 -0.07225509 -0.16380577
 -0.4149713  -0.6064009   0.14805976  0.04848074 -0.46603385  0.5143685
 -0.00492317 -0.16234948 -0.36859345 -0.33169863  0.40911666  0.19520429
  0.21903707 -0.2551499  -0.55354136 -0.2164636  -0.09797301  0.7714139
  0.22144386 -0.1968588  -0.1755425   0.35520613 -0.17071417 -0.49404702
  0.35019773  0.25985685  0.2798008   0.02070059  0.7288773  -0.20214547
 -0.25032222 -0.3825607  -0.7646159   0.29414314]
[-0.03754841 -0.46815595 -0.25862363 -0.82533276  0.04727127 -0.06132421
 -0.70226634 -0.12617666 -0.08372867 -0.22953692 -0.30836263  0.30970913
  0.28934622 -0.31711766 -0.2475869  -1.0553567  -0.00552877 -0.2352126
 -0.25118113 -0.52295256 -0.711237   -0.19021022  0.31984597  0.36706924
  0.45656738 -0.21372743  0.2034587   0.24946673 -0.59603024  0.20653197
 -0.5902403  -0.00282141  0.10770255 -0.36378473 -0.03291813  0.39253166
 -0.19325273  0.21905588  0.19875912  0.38916227]
[ 0.57202864  0.6405283   0.13980038  0.30078474 -0.0942973   0.13374823
  0.34018683 -0.29265493  0.45381132 -0.2162642   0.24705048 -0.2603984
 -0.1573021  -0.26073825 -0.56169224 -0.25456062 -0.27593932  0.02754275
  0.54786795 -0.16931379 -0.16079265 -0.0425261   0.15723996 -0.45854822
 -0.5480157   0.0290548   0.21932763 -0.18796924  0.9163344  -0.9350528
  0.39606678 -0.26776507 -0.39705342 -0.41442925 -0.06186783 -0.20202777
  0.10384783 -0.44774884 -0.46137494 -0.2354273 ]
[-4.7745261e-01  1.6888943e+00 -4.2508420e-01  6.9192398e-01
 -4.8413649e-03 -1.4185292e-01  2.7036494e-01 -3.7117496e-01
  5.1166105e-01 -2.7001627e-02  6.2991483e-03  3.2121435e-01
 -6.8130958e-01  1.4054400e-01 -4.8466370e-01  6.4301938e-01
  4.8728961e-01  7.9003197e-01  1.0907753e+00  5.2966875e-01
 -1.3187136e-01 -1.5777199e-03 -3.5602206e-01 -1.1662399e+00
 -1.3014832e+00 -2.3172097e-01  8.4109539e-01  1.0435314e-01
 -2.6216537e-01 -2.6957148e-01 -2.3987213e-01  3.5378343e-01
 -1.9999187e-01  2.2147143e-01  2.2425612e-02  3.1921115e-02
 -3.5862121e-01 -3.7438026e-01 -2.5001791e-01  3.6541764e-02]
[ 0.6135018   0.08225146  0.621741   -0.2071227   0.36493003  0.76059085
 -0.8519435  -0.43715736 -0.62193984  0.6679669   1.0224742  -0.15182212
  0.34729382  0.38677973  0.79807913 -0.4974091  -0.80720603 -0.87306
 -0.32187605 -0.7535773   0.35740164  0.96456337  0.05616915  0.78095835
  0.00685797  0.70671433 -0.14413902 -0.25486708 -0.00290503  0.80438083
  0.03502913 -0.7238033   0.6687893  -0.17715526 -0.03010492 -0.6640854
  0.8749209   1.1462305   0.9933696  -0.59045136]
[-0.8636687   0.5853584  -0.8063313  -0.23251367  0.20079045  0.38065842
 -0.8438099   0.26338986 -1.7620926  -0.34666756  0.23017108  0.8459321
 -0.30084497  0.6381974  -1.1126251   0.23497747 -0.3208553  -1.8530793
  0.53857756 -0.61563855 -0.88739437  0.3670259   0.7209483  -0.60404587
 -0.30261737 -0.5318426   0.41961324 -0.5761159  -0.23647629  0.48112684
 -0.5369583  -0.32962966 -0.2149893  -1.7787913  -0.04583304 -0.02873052
 -0.03077806  0.61420965  0.3495263  -0.3618372 ]
[ 3.2975060e-01 -4.7211701e-01  9.6539861e-01  5.3124670e-03
 -1.4749231e-03 -1.8133084e-01  8.3406545e-02 -6.1700929e-02
  4.8513600e-01  3.9606795e-01 -2.1465582e-01 -7.7333158e-01
  7.5982821e-01  1.8195989e+00  1.2455050e+00 -1.4221368e+00
  1.7462142e-01 -4.1250682e-01 -9.8488972e-02 -1.0857191e+00
  1.9614176e-01 -2.5026923e-01  3.9041069e-01  9.6505827e-01
 -1.3181509e-01  9.5335597e-01 -3.2754931e-01 -1.3624594e+00
 -1.3521913e-01  5.2649909e-01  3.8331240e-01  1.5683933e-01
 -1.7967276e-01  9.4895922e-02 -4.4666860e-01 -9.5192052e-02
 -6.3546620e-02  4.9656749e-01  4.9618906e-01  8.4224808e-01]
[-0.5184657  -0.30776158  0.25474882 -0.05071841 -0.13242164 -0.17954804
 -0.69061023  0.5067206  -0.1083538   0.0145045   0.06703068  0.0929238
 -0.26210812 -0.40341648 -0.59246624 -0.00746157  0.10108185 -0.6894018
 -0.0631573  -0.5076924  -0.57311463  0.04896225  0.16513178  0.22405307
  0.03622083 -0.217783   -0.15224595 -0.45383865 -0.32946527  0.61354244
 -0.8008558   0.06489972 -0.7242856  -0.6593028   0.02748475  0.08654849
 -0.15297183 -0.09179942 -0.14381577  0.37151065]
[ 0.8549767  -0.92569983  0.340192   -0.38888472  0.3751807   0.59352386
  0.41337207 -0.5656642   0.9757017   0.3749174   0.78077245 -0.8565435
  0.4468656  -0.7277205   0.8116839  -0.48951834 -0.24699864 -0.52021635
 -0.16095258  0.12351099  0.7078939   0.32082424 -0.16439414  0.7104227
  0.32756418  0.6801304  -0.0523777  -0.26093745 -0.06409143 -0.43786913
 -0.372986   -0.23178793  0.43308985 -0.20799081  0.48053053 -0.10274905
  0.37955064 -0.2806072   0.5091614   0.52192897]
[ 0.23193409  0.15314104  0.18712486  0.9925622  -0.09036753  0.16392763
  0.7879      0.89561814  0.16911182 -0.16328157  0.15146913 -0.7301422
 -0.14967197 -0.89643353 -0.34558892  0.80778944 -0.09789525  0.06079513
  0.27517772 -0.21008366  0.08743595  0.16556826 -0.24712051 -0.55655974
 -0.4240587   0.1476229   0.3772422  -0.514019    0.7403648  -0.5256177
  0.6155442   0.01944141  0.17027636  0.14372264 -0.5200641   0.47306973
 -0.27565935  0.22419783  0.2507838  -0.27358276]
[ 0.97525644 -0.8923528  -0.07970825  0.42519912 -0.25760567 -0.01150073
  1.2101097  -0.16489941  1.3491428   0.14281593  0.04015281 -1.1183046
  0.6735099  -1.29647     1.6025237  -0.98635274 -0.02539715  1.1031071
 -0.36178908  0.40097573  1.2840323   0.11970913 -0.7779873   1.491222
  0.11699718  0.79754585 -0.34922755  0.06952408 -0.13243207  0.09924401
  0.797564   -0.03021156  0.2137075   1.5231808  -0.25996056 -0.3598312
  0.35723388  0.16595973  0.4256523   0.7488611 ]
[-0.9066522   0.8162979  -1.2112713  -0.77827156 -0.06659469  0.391868
 -0.1409703   0.19942217 -0.860578   -0.27734253  0.5167408   0.96488446
 -0.44374388  1.5836523   0.23894905  1.0936215  -0.02868744 -0.5818472
  0.9102514   1.4957896  -0.04821462  0.5707134  -1.0185455  -1.3115867
 -0.38812548 -0.7837609   0.9074465   0.51947784  0.0268849  -0.41708815
  0.1693583  -0.05528919 -0.23004268  0.12702958 -0.42255354  0.42618704
 -0.39252135 -1.189484   -0.9716785  -0.8286369 ]
[ 0.40475717 -0.4178212   0.05397598 -0.23529227  0.33664832  0.09233147
 -0.01435495  0.25809538  0.3323621   0.22496252  0.30308938  0.02942896
 -0.11395023  0.6036859   0.80776066  0.9805975  -0.32362133  0.4844851
 -0.5958371   0.75236946  0.7349307   0.31665346 -1.3830696  -0.2326466
 -0.24107444  0.21082042 -0.30384415  0.72378063  0.00844052  0.31409985
  0.5216996  -0.31010345  1.3827348   0.9251345   0.29543728 -0.2879679
  0.43022984 -0.21478672  0.21058375 -0.35147995]
[ 0.20490932 -0.11051692 -0.421592   -0.06976388  0.13257726  0.23915426
 -0.25256303  0.19915725  0.5307473   0.26612812  0.25191903 -0.4081959
  0.06849838 -0.5994229  -0.00748911  0.46173644 -0.32268393  0.2395947
  0.07409662  0.44704285  0.07810223  0.4839408  -0.44378638  0.08889977
  0.11714015  0.12525243 -0.34975815  0.83574986 -0.13826047 -0.86448866
  0.4424315  -0.24638969  0.06878428  0.25159627  0.6973197  -0.4654648
 -0.2081972  -0.09561998 -0.034185    0.06743755]
[-0.92022043  0.335387   -0.9906379  -0.43431595 -1.3091892  -1.6003945
 -0.37784564  0.5989253  -0.07334681 -0.4009845  -0.9909525   1.1312352
 -0.5820793   0.09717888 -0.84860057 -0.13643895  1.3038507  -0.12497403
  0.60673946  0.01135845 -0.5560635  -1.215101    0.4120508  -0.13362595
 -0.14713347 -0.84395885  0.97231334  0.39221478  0.26622728 -0.34408513
 -0.33203965  1.2148194  -0.37353012 -0.44267738  0.33100912  0.36679855
 -0.7127818  -0.81392807 -0.9876624  -0.73880446]
[-0.35338765  0.16135713  0.31178108 -0.630708    0.19114351 -0.03088877
 -0.9648867  -0.9064544   0.08133929  0.23828375  0.19090414  0.23157662
  0.08506856 -0.15583882 -0.3446437  -1.479383   -0.18231618  0.33989245
 -0.4502602  -0.31872362 -0.118354    0.02706314  0.00311194  0.47809148
  0.759371   -0.34670436  0.04726757 -0.12121465 -0.03814764  0.3985833
 -0.5572286  -0.15901995 -0.14898221 -0.40236947 -0.24430948 -0.02887463
 -0.05345615 -0.02538685 -0.20973314 -0.03387568]
[-0.2714386   0.01663796 -0.64888763 -0.74964184  0.08913207  0.4371972
 -0.6779558   0.9633178  -0.70746887 -0.4457133   0.55229     0.12279996
 -0.2732563   0.44533736 -0.53193676  0.3523886  -0.40074947  0.75387573
  0.49748957  1.0583625  -0.63246477  0.28877506 -1.0145181  -0.5474367
 -0.05742178 -0.47334257  0.01347945  1.5346745  -0.07514222  0.06899972
  0.0854013  -0.34859177 -0.48097715 -0.3466201  -0.2612927   0.6100571
 -0.26229757 -0.5344988  -0.6942459   0.48539597]
[ 0.25340477  0.05786549  0.51155484  0.53331894 -0.03203912 -0.43169132
  0.9163545  -0.21015488  0.2124563   0.23928168 -0.6996973  -0.17659666
 -0.01402384  0.1961902   0.709736   -0.39867714  0.07004769  0.38075683
  0.4309863  -0.48742718  0.508146   -0.5911716   0.41424817  0.21401756
 -0.1285236   0.12234361  0.09221166 -0.7381314  -0.13848223 -0.03052084
  0.42763242  0.24367595 -0.46806294  1.0275553  -0.66363925 -0.14095816
  0.05442851  0.7464109   0.59637797  0.039219  ]
[-0.90581155  0.52467626 -0.710419   -0.26341373 -0.8188258  -0.7999322
 -0.3213943   0.5543155  -0.00664808 -0.5500306  -0.9965043   0.9449737
 -0.39998272  0.38734484 -0.7525299  -0.03416918  0.8231686  -0.12919964
  0.62416005  0.10943022 -0.716876   -0.8885542   0.09985814 -0.22949748
 -0.29745197 -0.8351445   0.49137422  0.10741124  0.18326686 -0.4662738
 -0.08537027  0.87100756 -0.4275212  -0.1910404   0.01973927  0.4853972
 -0.6055077  -0.5623171  -0.65678525 -0.38920188]
layer 3 Activation
tanh
layer 4 Dense
40 20
[-0.04746032  1.2262943  -0.19703333  0.5154459  -0.03126526  0.60712874
 -0.27242374  0.5782934   0.30312365  1.3300933   0.26733202  0.6009345
  0.30070993 -0.55771714 -0.64184827 -0.03754613  0.33907178 -0.03603666
  0.6355777   0.68252295]
[-0.0813961  -0.9070514   0.31526628 -0.72345024 -0.12288596 -0.40677112
 -0.37392452 -0.12449177  0.00169723 -0.6437889  -0.8434679   0.29459584
 -0.06911847 -0.18762392  0.5758631   0.9323305  -0.8494862  -0.57851624
 -0.642497   -0.11513827]
[ 0.27852145  0.8429549   0.03468677  0.842512    1.02241     0.6205459
 -0.6805212   0.8540435  -0.56474656  0.45560268  0.8593922   0.31452706
  0.32263762 -0.37308988 -0.80017316 -1.2856984   0.61670256  0.6866317
 -0.03087975  0.7984095 ]
[-0.2959192   0.5510284   0.05790935  0.214869    0.3377561   0.27981475
 -0.19214204  0.46178487  0.11987404  0.12404627  0.22141898 -0.00816192
 -0.34037688  0.12166954 -0.35535792  0.07038341  0.12153833  0.5489308
 -0.19204327  0.4905213 ]
[ 0.25806442  0.39032975 -0.3302052   0.4923995   0.51378196  0.40980563
  0.30252585  0.5508765  -0.6743848   0.2365036   0.32247424  0.59612143
  0.2450151  -1.3044423  -0.6086433  -1.1965858  -0.19779721  0.2341874
  0.24906623  0.5070393 ]
[ 0.62635875  0.04594136 -0.6351863   0.4767523   0.03719028  0.24250321
 -0.21102984  0.5693466  -0.7320428   0.8191537   0.6543356   0.66700095
  0.51605564 -0.5628162  -0.6273165  -0.43092588  0.04634502  0.54058367
  0.59510005  0.6804901 ]
[-0.1624505  -0.03775815  0.4722321   0.48973504  0.09585983  0.63895315
  0.27941296  0.20884223  0.36846128  0.59132516  0.9198758  -0.20185322
  0.17458355  0.26999995 -0.64650154 -0.29213133 -0.16315302  0.93672293
 -0.6251227   0.36252913]
[ 0.07623649  0.17713954  0.35343537  0.08914994 -0.568764   -0.40824953
  1.1568153  -0.02944094  0.23541668 -0.10649178  0.38725877 -0.3335904
  0.09456427 -0.01128002  0.22022183  0.88008714  0.28392753  0.19868626
  0.21900752 -0.13819924]
[-0.42611787  0.25988707  0.89985406  0.3392581   0.17073637  0.53668123
 -0.3526131   0.28576258  0.8392344   0.74830985  0.5397141   0.06822423
 -0.1299967   0.47668663 -0.25821     0.19580618 -0.14134875  0.61456406
  0.00795655  0.46079746]
[-0.05389614  0.36085126 -0.2991154  -0.01627935  0.41566214  0.24754928
 -0.30440357  0.25496417 -0.30955395 -0.0816877   0.08596421  0.22126095
 -0.04295623 -0.5775736  -0.05506248 -1.2087487   0.03483906 -0.09034936
  0.33679974  0.20293899]
[ 0.6185525   0.13489398 -0.75970185  0.7243584   0.09249281  0.51362735
 -0.21355027  0.572305   -0.39227697  0.74426425  0.6292888   0.780465
  0.68382454 -1.0323025  -0.46635187 -0.15668783  0.04636196  0.4104832
  0.32380176  0.01356984]
[-0.30099556 -0.99435693  0.06312843 -0.40690503 -0.56929564 -0.46627295
  0.17878869 -0.20763102  0.11401613 -0.8821314  -0.47812322 -0.27733502
 -0.29348496  0.11501713  0.6069541   0.4804639  -0.40357482 -0.3108828
  0.06744514 -0.38333464]
[-0.15456356  1.0779948  -0.7584169  -0.15304047  0.38179618  0.2732424
 -0.3270576   0.4077869  -0.02589564  0.49068925  0.06470412 -0.25262868
  0.1758458  -0.0655536  -0.3831868  -0.39333442  0.12547514 -0.2906306
  0.16865267  0.4310379 ]
[ 0.04150658 -0.69514847 -0.3190709  -0.82127464 -0.47253406 -0.82967424
 -0.37556708 -0.3725488  -0.64293915 -0.20339817 -0.7976183  -0.07010233
  0.34897706  0.03506918  0.3494175  -0.24972135 -0.1969878  -0.7506114
  0.2636944  -0.6419119 ]
[ 0.11744164  0.7395382  -0.6296619   0.9787445   1.3596783   1.4254895
 -0.82114387  1.2752186   0.18228723  0.8886618   1.2118919  -0.29790536
  0.34988296  0.24545771 -0.8455548  -0.900132    0.28557914  0.7537351
 -0.35048953  0.9562931 ]
[ 0.17083527 -0.64874935  0.09862434 -0.17425099 -1.0975782  -0.7924925
  1.8309299  -0.44110632  0.21959706 -0.04471613 -0.5522776   0.3795223
  0.20707788 -0.05890477  0.50323045  0.44376037 -0.17596127 -0.3265895
 -0.3790346  -0.49675342]
[-0.45205575  0.04190798  0.20904194 -0.23774423 -0.27625263 -0.52168065
 -0.22951566 -0.5935647   0.8558411  -0.39244038 -0.32556903 -0.57007986
 -0.27277133  0.732409    0.4185934   0.47707805 -0.01657069 -0.4427439
 -0.07862362 -0.55045885]
[-0.20919551 -0.13997403  0.62382245  0.6760563  -0.1614896   0.340043
 -0.21038519  0.4972926   0.6861423   0.16740581  0.2192434  -0.655708
 -0.29352692  0.6175758  -0.68742144  0.04225275  0.02883231  0.24228446
 -0.2362371   0.22579786]
[-0.14290993 -0.79468155  0.09228628 -0.04855779  0.6919754  -0.28967
 -0.25022134 -0.30178785 -0.2556607  -0.5591881  -0.1599391   0.23357356
 -0.09167765  0.03382156  0.19394091  0.03164169 -0.7984267  -0.23909794
 -0.9966005  -0.14935575]
[ 0.04729758 -0.5213128  -0.25237188 -0.85853297 -0.8721602  -0.44505996
  0.5409469  -0.5390758   0.05364168 -0.20746031 -0.7777826   0.27728933
 -0.05156378  0.02770839  0.35847664  0.04656785 -0.7055221  -0.4707014
 -0.27767104 -0.7354485 ]
[-0.1293661   0.40992206 -0.12574096  0.26620412  0.3304725   0.5703001
 -0.6603336   0.46588004  0.2280999   0.68223643  0.29230615  0.21784584
  0.05064135  0.29806682  0.05085337 -0.8112961  -0.09593079  0.28674337
 -0.35713384  0.5255244 ]
[ 0.6082621   0.22833154 -0.8020022   0.5859703   0.02441619  0.45177552
 -0.27516133  0.17454077 -0.43120015  0.22685105  0.5693229   0.6156009
  0.7637977  -0.90215003 -0.63254315 -0.4521853   0.1429287   0.42854178
  0.42855537  0.39971235]
[-1.17421046e-01  6.82846382e-02  5.48002161e-02  3.32618840e-02
  5.17335415e-01  4.96955472e-04 -6.64114296e-01 -1.61186010e-01
  3.78745794e-01  3.53584737e-01  2.21535340e-01 -1.16438396e-01
 -4.80245471e-01  3.33139747e-01 -6.19276017e-02  3.87756862e-02
  4.72228259e-01  4.57211673e-01 -3.30776006e-01  2.23106503e-01]
[-0.18619138  0.8446736   0.08822154  1.0926287   0.07005361  0.40220544
 -0.05604424  0.4395482   0.40659     0.8266526   1.3287807  -0.22315294
  0.12782288  0.3633891  -0.75769943 -0.42662013  1.1096333   0.6310472
  0.51916426  1.1991718 ]
[-0.05243122  1.0236851   0.18373036 -0.07762064 -0.36708337 -0.10853543
  0.23773982 -0.03426658  0.04094119  0.59876657  0.42440644 -0.07457975
 -0.10256416 -0.45696926 -0.25270477 -0.0228303   0.3973038  -0.08294053
  0.26410997  0.14016618]
[ 0.35763356  0.6272833  -0.7319495   0.09207943  0.80840355  0.49346688
 -0.24812119  0.4739807  -0.23862016  0.7287967   0.00993246  0.5229318
  0.30046418  0.1000099  -0.9465712  -0.8341953   0.50023836  0.26572102
  0.07308812  0.54241943]
[ 0.05723505 -1.0474164   0.1060528   0.1177799   0.21255742  0.11260238
 -0.11671113 -0.4131955   0.42406982 -0.8702689  -0.14046088  0.05528479
 -0.26034236  0.05817643  0.08555438 -0.07933977 -0.68853766 -0.11529721
 -0.7487362  -0.19684336]
[-0.05778176 -0.3309451  -0.10146631 -0.6475918  -1.4602808  -0.61345965
  0.8020967  -0.5340595   0.35946682 -0.08334731 -0.5587496   0.39205757
  0.28152496 -0.24602763  0.7292302   1.2033486  -0.17571054 -0.40461415
  0.50092626 -0.48959962]
[ 0.09505536  0.14104939  0.10128642  0.14894603  0.32267028  0.23000559
 -0.4190354  -0.0241095  -0.12498114  0.33989456  0.06829632  0.15354225
  0.1283355  -0.14097401  0.06558303  0.6153508   0.09963743 -0.11106711
 -0.15507099  0.12312345]
[-0.38990623  0.2864243  -0.30377182  0.39388216  0.91188765  0.6176878
 -0.13551174  0.8185659  -0.2931444   0.14365615  0.3751845  -0.4417921
 -0.19166625  0.42678538 -0.81774724 -0.332019    0.25818205  0.28620893
  0.33811307  0.5363606 ]
[ 0.12177799  0.10061071 -0.19299553  0.3075896   0.09054986  0.49413708
 -0.00319579  0.2930492  -0.4350827   0.42403203  0.1128189   0.02149468
  0.13620092  0.07553031  0.01397242  0.21352097  0.28232884  0.1158856
  0.09413664  0.14178117]
[-0.19092017 -0.5761834   0.6373284  -0.4504631   0.0315712  -0.79015785
  0.13471341 -0.4326789   0.41069245 -0.40400034 -0.31140226 -0.5294413
 -0.6589693   0.71209013  0.32287028  0.0778781  -0.37236264 -0.35618916
 -0.31980073 -0.56913334]
[-0.08160853  0.41265902 -0.05461363 -0.01683468 -0.15151972  0.16046928
 -0.05776825  0.12898517 -0.06730888  0.7956231  -0.11160672  0.11033832
  0.17232873 -0.95287293 -0.08984824 -0.6895281   0.40363663 -0.21410401
  0.2531874   0.14020357]
[-0.44854888 -0.01022869  0.6797239   0.94547653  0.88888043  0.84918326
 -0.34988874  1.0819663   1.0568725   0.63244796  0.86252177 -0.18023336
 -0.6101109   0.50159574 -0.8790033  -0.5640268  -0.11426308  0.6921497
 -0.8885618   0.9369022 ]
[-0.31231228  0.3444629  -0.06276757 -0.2895826   0.35112     0.10486973
  0.1945665  -0.21492833  0.1684636  -0.0522567  -0.25905448  0.0599952
 -0.32118514 -0.42982233  0.10462868 -0.4806311   0.15946835 -0.4343933
  0.0813717  -0.07558392]
[-0.21750054 -0.5481189   0.8573436  -0.04330784 -0.33204257  0.08506989
  0.32433477 -0.15325715  0.5557683  -0.8479549   0.00738324  0.05394156
 -0.19917156  0.60899574  0.21666087  0.5762339  -0.2896204   0.17347194
 -0.29725295  0.11181247]
[ 0.39023623  0.06126306 -0.77258927  0.19885258  0.14711429  0.45914567
 -0.4888659   0.04191067 -0.46924785  0.721317   -0.08187011  0.81891304
  0.6366715  -0.9850073  -0.556174   -0.27986404  0.6603966   0.07057862
  0.40979794  0.2768019 ]
[ 0.06889012  0.5711503  -0.09395623  0.5379805   0.15890071  0.47565028
  0.05795137  0.27037758 -0.6025261   0.39735007  0.83136433 -0.333994
  0.04420377  0.05839714 -0.4216399  -0.6653613   0.24593864  0.6585047
  0.28463638  0.6827384 ]
[ 0.0763898   0.7247903  -0.28508237  0.32411644  0.9663674   0.10007205
  0.17546488  0.24075341 -0.8754668   0.24354178  0.61358887 -0.31160688
 -0.349102    0.28085864 -0.15050644 -1.0330687  -0.36217102  0.76506215
  0.25879848  0.3551216 ]
[-0.14462255 -0.4270413  -0.23343375 -0.01143271  0.45879814  0.3395981
  0.5754596   0.09934719 -0.0330804   0.17378545  0.02949048 -0.2151874
 -0.0388469   0.49016982 -0.3865291   0.05579855 -0.20484672  0.35684592
 -0.06531874  0.32819062]
[-0.29435274 -0.12767673  0.44952822 -0.38398075 -0.23116069 -0.41423813
  0.10565589 -0.26112399  0.42029604 -0.43692198 -0.276912   -0.46288615
 -0.31297427  0.69354594  0.24782667  0.1942193  -0.08189868 -0.2254476
 -0.34579986 -0.22181675]
layer 5 Activation
tanh
layer 6 Dense
20 1
[-1.1286857]
[0.07618786]
[0.9532695]
[1.0373205]
[0.5652562]
[0.6362399]
[-0.33237457]
[0.7125653]
[0.82771015]
[0.35100433]
[0.9686733]
[-1.1585466]
[-1.2386403]
[0.9394075]
[-0.5979638]
[-0.20017835]
[0.5263688]
[0.8309172]
[-0.5464508]
[0.933048]
[0.977681]
