layers 7
layer 0 Dense
20 20
[-0.11335572 -0.15321748  0.2818335  -0.06126651 -0.31099033  0.27187404
 -0.23712312 -0.06403887 -0.01917088  0.05507723 -0.06200044 -0.24551463
  0.03452033 -0.12009639 -0.10415062 -0.35728177  0.22188525 -0.12811668
 -0.02319406  0.16454878]
[-0.09404352 -0.2586379   0.3361668  -0.02024211  0.15053412 -0.00729799
  0.392869   -0.20048547 -0.09764501  0.18867317  0.22975112 -0.17946698
 -0.37342113  0.15053159 -0.06160269  0.4454242   0.4299385  -0.49682292
 -0.11444023  0.37629765]
[ 0.17188329  0.31208378  0.20989928  0.18866028  0.26925004  0.17679374
 -0.10061852 -0.5593518  -0.02334866 -0.04405973  0.22324818  0.00458258
 -0.07642214 -0.33155474 -0.43411097  0.0685254   0.27934638 -0.19868183
  0.28246132  0.40451   ]
[ 0.16786863 -0.18260318 -0.25671777 -0.03284512  0.0753132  -0.19345902
 -0.10544734  0.0861892  -0.06524972  0.28080538 -0.10825048 -0.20325874
 -0.14272629  0.01816922 -0.04851572  0.0432012  -0.09079692 -0.19888635
 -0.02659925  0.16008167]
[-0.13707744 -0.08272313  0.22513425  0.05019185 -0.24109161  0.04133869
  0.10918399 -0.02424661  0.21735285 -0.11479416 -0.19293036  0.11800696
 -0.4194922  -0.13699587  0.0308465   0.28231168  0.25222182 -0.05211297
 -0.27276212  0.16726051]
[ 0.51026064 -0.3098164   0.34886208  0.251211    0.29153684  0.07399766
  0.11528001  0.5994582   0.17292869 -0.08570693 -0.23600648  0.41249397
  0.24694411 -0.15343972  0.2306595  -0.06117248  0.05240059  0.06453686
 -0.48317167 -0.27583733]
[ 0.1435061   0.19504021  0.05182584 -0.24839275 -0.01223788 -0.01665773
 -0.30169782  0.21625759  0.02725421 -0.07992092 -0.30880645  0.00917976
  0.02174311  0.20822553 -0.02878498 -0.03051759 -0.34495106  0.26503387
  0.05971702 -0.23449257]
[ 0.53807634 -0.21135682 -0.54455596 -0.33463356  0.3855856   0.33538952
  0.14737107  0.18410085 -0.18931472 -0.02338518  0.18475689 -0.19634078
  0.01202694  0.2989562   0.30946392  0.3251192   0.04546776  0.2626213
 -0.07952935 -0.41007602]
[ 0.07394623  0.38306516 -0.21560515  0.12622242  0.18553299 -0.05485879
  0.33154684 -0.3557353  -0.06662756 -0.4179948   0.13544182 -0.10205527
  0.10284037 -0.35597068  0.34971356 -0.11497645  0.11604815 -0.37830997
  0.04323148  0.2680796 ]
[-0.17224543 -0.5486656  -0.10880866  0.3454488  -0.00666456 -0.01554853
 -0.13185334 -0.09702176 -0.12451883 -0.07892117 -0.04468381 -0.07192539
 -0.15179504  0.20155042  0.19725846 -0.01539148 -0.3514877  -0.43572536
 -0.15232746 -0.33324468]
[ 0.03222589 -0.10737073 -0.06946693  0.07189811 -0.40002415 -0.3613982
  0.03003189 -0.18790154 -0.00714766  0.60349625  0.57642716 -0.4448159
 -0.13912655 -0.06112206  0.5681603   0.5710702   0.72955906 -0.48879984
 -0.31740093 -0.16618368]
[-0.71987605  0.53170514  0.019854   -0.13559324 -0.27239263 -0.3223795
  0.11477654 -0.21526165 -0.08704142 -0.49812654 -0.18737458  0.760279
 -0.0905898   0.28706917  0.21819888 -0.44880983  0.55479765  0.04135858
  0.08607157 -0.22011599]
[-0.29019678 -0.1916064  -0.0152772  -0.23335576 -0.2441634  -0.22684045
 -0.20285857  0.23757966  0.3195984   0.04821478 -0.08074042 -0.33441663
  0.3912228   0.3585207  -0.02316735  0.32145828 -0.02809583  0.01583696
 -0.345484   -0.710699  ]
[-0.3599408   0.21262442 -0.0549927  -0.04023835 -0.4101216  -0.15741223
 -0.0186139  -0.38084713 -0.27701616  0.24467564 -0.13451494  0.04020724
 -0.01053492  0.04268686 -0.11357027 -0.05559741  0.0849082   0.47317472
 -0.23997413  0.050667  ]
[-3.2250372e-01 -3.5598105e-01 -2.1103714e-03 -2.0611413e-01
  1.7327546e-01 -1.8456268e-01 -2.0057152e-01 -6.6415995e-02
 -2.3807150e-01  1.5175319e-01 -1.5328429e-04 -2.0773746e-01
  2.1728994e-01 -8.4070936e-02 -1.8214114e-03  4.4393908e-02
 -2.0893966e-01  2.5812553e-02  4.2168144e-02  2.4876523e-01]
[-0.28503492  0.166542   -0.16293614 -0.11691305  0.00481794  0.31518435
  0.11468126 -0.5230768  -0.17629    -0.4444776   0.11518287  0.32259318
 -0.5104301  -0.71014124  0.46100616 -0.29648677 -0.13514604 -0.1177878
 -0.03253021  0.34509856]
[ 0.13361968 -0.27817526  0.3313672   0.4743553   0.3388119   0.0301407
  0.05230685 -0.04596281  0.1349581   0.3594732   0.13767608  0.16560653
 -0.45275387  0.08378357  0.05408841 -0.3805929  -0.30855227  0.19594862
  0.57698244  0.4066016 ]
[ 0.16551766  0.8398852   0.24198765  0.01565219  0.02435762  0.4965396
 -0.09001869 -0.51062375  0.14830774 -0.35054073  0.64856714  0.31939435
  0.8291952   0.30455065  0.01807064 -0.28649622  0.4111837   0.20870309
 -0.11276824 -0.15654606]
[ 0.026777    0.25855535 -0.10863682 -0.36688164  0.27816927 -0.08857643
 -0.5667949   0.81763697  0.0090596  -0.50129557 -0.8958737   0.10879225
  0.2007576  -0.22557259 -0.53853816 -0.2155776  -0.35935494 -0.11836512
  0.9430762   0.0469929 ]
[ 0.8969767   0.11985329 -0.22184975 -0.25463092  0.38718596 -0.41179448
 -0.25171348  1.2180239   0.11881535  0.7300305  -0.17026418 -0.07794821
  0.667155    0.64192045 -0.3104797   0.18109459 -0.72672206  0.25932887
 -0.2882697  -0.13507026]
[-0.06781358 -0.08375122  0.08511376  0.02777195  0.01238481 -0.02087696
  0.06954003  0.0145445   0.0258235  -0.01415875  0.0324806   0.00408192
  0.00974967 -0.00108886 -0.02840822  0.002168    0.11382842  0.01767293
 -0.1370774   0.10055688]
layer 1 Activation
tanh
layer 2 Dense
20 40
[-0.26887825 -0.13325436  0.15084147  0.5042849   0.4016409  -0.13429064
  0.02566369 -0.14947101 -0.21585718  0.13034096  0.26282942  0.44775933
 -0.05226229  0.24014193 -0.3232541  -0.04169238 -0.11576029  0.06183724
 -0.17229955  0.2856002  -0.2965589   0.03855587  0.32561934  0.4549852
 -0.03462073 -0.19020452  0.04729718  0.33568105 -0.45828727  0.09074922
  0.05209656 -0.4566619   0.02095874 -0.19529289  0.12278733  0.36768508
  0.09221359 -0.0037197   0.18418716 -0.39399302]
[-0.30107534 -0.15642583 -0.12515879  0.01384932 -0.12020747 -0.01609045
  0.32886532  0.06751075 -0.0557075   0.12008421 -0.10526349 -0.23721863
  0.26885042  0.12991837 -0.19395086  0.253932   -0.261217   -0.12626453
  0.38710308  0.27723467 -0.17225052  0.01918279  0.00325576 -0.36508206
  0.2579773  -0.3876409  -0.0170988   0.08598253 -0.34849465  0.08070956
 -0.03249788  0.22899282  0.01054659  0.10838181 -0.1908337  -0.25671473
 -0.09064244 -0.01165894 -0.00044596 -0.23453031]
[ 0.13366993  0.06362089  0.39021552  0.03514476  0.17864244 -0.3102003
 -0.17739157  0.20144004  0.21923602 -0.06210662  0.09882074  0.08429847
 -0.21716265  0.10520975 -0.27948985 -0.19658786 -0.33953002 -0.10773961
  0.08624679 -0.22939767  0.12200404 -0.11514045 -0.11878006 -0.13129061
 -0.2515451  -0.08120003  0.02798904  0.06529897  0.31372738 -0.05119072
 -0.08953889 -0.01256893  0.06931458 -0.03931371  0.203024   -0.13760276
 -0.0631173   0.17501399  0.03377509  0.107916  ]
[ 0.02975972 -0.22148593  0.10123239  0.13625655 -0.09853604  0.2090894
 -0.20275041  0.11933858  0.27556327  0.07153147 -0.00630229 -0.18175913
  0.03823611  0.1961301  -0.39213586 -0.03062926 -0.03765874 -0.13670549
 -0.24417262 -0.08278852  0.13826126 -0.15194345  0.0977551  -0.11059775
 -0.1259617   0.28682417 -0.21888319 -0.22219932  0.24454609  0.15237018
  0.04996623 -0.1352993   0.10659479  0.15855426 -0.03485285  0.00508933
  0.2815164  -0.03260786  0.14955488  0.04838818]
[-0.00527421  0.4147985  -0.00824602  0.16624442 -0.14959648  0.36882755
  0.09924675  0.20302957 -0.28219593  0.2668691  -0.1841995   0.47814912
  0.2588738  -0.18772574 -0.10570317  0.08059042  0.05213398 -0.20994729
  0.04976914  0.15695612 -0.14276558 -0.14959045  0.02090027  0.23787303
  0.08914143 -0.14270595 -0.27086112  0.31814462  0.30373067 -0.19345607
  0.03899895 -0.3730839  -0.02606893  0.05095219 -0.31607544 -0.23211044
 -0.0914151  -0.10458598 -0.17452905 -0.26340523]
[ 0.12367628  0.1502593   0.10943239  0.15071845 -0.05605983  0.24437062
  0.21471174  0.22110334 -0.18502878  0.04804758  0.13498783  0.25777325
 -0.20970522 -0.08965233  0.19722493  0.20956072 -0.08347473 -0.03762813
  0.1978479  -0.18942855 -0.0363251  -0.2228743  -0.12520102  0.12598202
  0.29610726 -0.25767905 -0.19824818 -0.09917597 -0.12928419  0.13957539
 -0.01915511 -0.12690115 -0.24150755 -0.11442935  0.00280126  0.00041639
 -0.09753624 -0.04621523  0.08431185  0.2697703 ]
[ 0.16968912 -0.23132381 -0.17803375  0.04829107  0.2696348   0.18086167
 -0.05674078  0.26667568  0.33597586 -0.12422991  0.00343689 -0.1546758
 -0.02974178 -0.01690035  0.08594774 -0.2129154  -0.02347116  0.24358459
 -0.2128691   0.05749082 -0.21214515 -0.14066474 -0.09116067 -0.24043936
  0.07324777 -0.21281788 -0.0380791  -0.20244163 -0.24905705 -0.13801509
 -0.00802226 -0.14079605 -0.15811476  0.26142845 -0.21547031  0.08360317
  0.17386334  0.12019101 -0.06454033  0.24749021]
[-0.05335726  0.23000076 -0.41697302  0.7700708   0.144072    0.27189234
 -0.00222769 -0.3684457  -0.09300029  0.22109964 -0.1097409   0.29772657
 -0.14625707 -0.24850811 -0.23690446  0.06422319  0.16392007 -0.1339975
  0.0885285  -0.11519855  0.26868615 -0.28957948 -0.11833098  0.3396809
  0.31860694  0.35321644 -0.14884761  0.1648533  -0.24800876  0.01933912
  0.07031871 -0.16037747  0.3519244  -0.20902364 -0.1616288   0.24935783
 -0.17770164 -0.07901484  0.1027538   0.18550447]
[-0.15331703 -0.09027592 -0.09742782  0.12955786 -0.01275076  0.10892022
 -0.09875033  0.16823107  0.05857369 -0.21863374 -0.01992529 -0.02298917
  0.10513467  0.0170077  -0.02856786 -0.28462854 -0.29614487 -0.22814521
 -0.11507584 -0.24209973 -0.04814429  0.15715966 -0.06940179  0.09
 -0.07809919  0.08086969  0.22602116 -0.5739603   0.19948654 -0.19610171
 -0.17513081  0.35241023 -0.10008004 -0.16251008 -0.2976191   0.0347283
  0.24031712  0.27491108  0.0607826  -0.09394524]
[-0.03085589 -0.21002044  0.15599176 -0.06644636  0.3125618   0.11620814
  0.23592749 -0.22701065  0.37870997 -0.3490119  -0.24085692  0.1785838
 -0.255464    0.31200406 -0.26902068 -0.21729393  0.2186288   0.4022736
  0.17252237 -0.26030895  0.37765086  0.11908435  0.04203703  0.15894867
 -0.46310893  0.25512144  0.06580536  0.04833472 -0.4372568   0.00252382
 -0.08526617 -0.2647182   0.01651105  0.1664517  -0.01898732  0.26691872
 -0.07911    -0.16573119 -0.11225659 -0.0625379 ]
[-0.10019325 -0.2024605   0.24641337 -0.2508224  -0.03174784 -0.40111575
 -0.15327677  0.19976829 -0.1077927   0.07996656  0.09888549  0.14731568
 -0.1276935   0.04370526 -0.2881941   0.09489524 -0.40986308  0.03874857
 -0.3014008   0.3259639  -0.14216954 -0.1287471   0.3358027   0.4088536
 -0.29844964 -0.3541651   0.05437037 -0.23114184 -0.4175827   0.18904363
 -0.18975918  0.15900303 -0.09590366  0.30850783 -0.12240236  0.09619718
 -0.10840545 -0.21070974  0.17692278  0.1386498 ]
[-0.331531    0.00279163  0.09787519 -0.16308728 -0.2093548   0.09658798
 -0.03707382  0.06465795 -0.22135971  0.01498779 -0.22727212 -0.29749656
  0.21008027  0.10423954  0.01193522 -0.070411   -0.03816327 -0.36662003
 -0.04180852 -0.03366328  0.09277419  0.24640112 -0.2697937  -0.28232256
  0.2067594  -0.05124497  0.04272926 -0.00268618 -0.22850505 -0.29941615
 -0.05347873 -0.12437974 -0.08984286  0.2774581   0.01856818  0.11459616
  0.00369404  0.2831236   0.07482032  0.13989513]
[-4.44975287e-01  3.18714380e-01  3.11634690e-01  2.84126729e-01
 -2.20992081e-02 -1.35130569e-01  6.12539425e-03 -3.78156453e-01
  1.56435162e-01  4.72263284e-02  1.65482610e-01  2.99568713e-01
  1.03428051e-01  7.38152489e-02 -5.18251583e-02 -2.30420250e-02
 -3.53202552e-01  2.63635647e-02  3.63780499e-01  5.15921079e-02
  3.16761166e-01 -1.92638114e-01 -1.61101088e-01  3.78578246e-01
  3.04122210e-01  4.75284178e-05  2.42485881e-01  2.15080343e-02
 -2.60819495e-01 -4.01480764e-01  4.91222627e-02  1.90658599e-01
 -8.84442255e-02  1.68831423e-01 -8.76712799e-02  1.46030098e-01
  3.74965332e-02  2.40017742e-01  1.57442614e-01  1.20654136e-01]
[-0.29151636  0.05509098  0.16452359  0.37148497 -0.06688658 -0.00388257
  0.1642822   0.22857225  0.27309325 -0.14995666 -0.2971952   0.62782526
 -0.13522418  0.0752438   0.09512904 -0.15942444 -0.01658641  0.25908342
  0.04414722 -0.15733474 -0.03930095  0.13795336  0.03295203  0.30512276
  0.15918794  0.24849457  0.20784126  0.32453018 -0.01469849  0.21666074
 -0.30452174 -0.00938184 -0.16135655  0.10234833 -0.37793052 -0.03575461
 -0.16847478  0.24773176  0.24399441 -0.2813999 ]
[-0.1498944  -0.0709075   0.4286911  -0.3645859   0.02187003  0.2775592
  0.1340776   0.22491685 -0.06586603  0.02634136 -0.13968176 -0.31354144
  0.01624166  0.05559024 -0.25211325  0.29760537  0.01994169 -0.22437085
 -0.19657415  0.18833113 -0.30826682  0.03678047 -0.19301844  0.30328053
 -0.13429445 -0.2593185   0.21305837 -0.10382644 -0.16520435  0.04683578
  0.14996332 -0.19574802  0.16260469  0.2982129   0.09228728  0.11787921
  0.28023535 -0.13122846  0.0244341   0.04519881]
[ 0.10847929 -0.48845732  0.06756388 -0.10348749  0.16545685 -0.00490572
 -0.10742937  0.05373963  0.25323328  0.01868617  0.21114184  0.02190603
 -0.21483235  0.13877863  0.20827515  0.24309658 -0.01024234  0.3093956
  0.03458362 -0.01351611 -0.0643794   0.15136655 -0.0440339   0.23904395
 -0.28050327  0.20671324 -0.25619704  0.04105939 -0.22386825 -0.02993549
 -0.2578883   0.2272129  -0.1555473  -0.3207344  -0.2368633  -0.10731466
  0.03384214 -0.27593017 -0.10162393  0.08837302]
[-0.13186985 -0.499073    0.39405966 -0.19225243  0.0734047  -0.26533815
  0.20282724  0.39525527 -0.26172742 -0.04685684 -0.02326248 -0.38775298
 -0.3243862   0.3303671   0.1508979  -0.00634718 -0.13158804 -0.08535197
  0.08785702  0.1772652  -0.32368746 -0.1277936   0.17834798 -0.03113613
  0.21404356 -0.30095193 -0.00951861 -0.15149258 -0.10383009  0.09531946
 -0.01159566  0.00699781  0.3068738   0.11169907 -0.11088686 -0.08356283
  0.20172758 -0.14364631  0.10586192  0.13479608]
[-0.24315162  0.32725847 -0.15315536  0.26222315 -0.08672285 -0.17994861
 -0.2057734   0.203762    0.1491111  -0.1579232   0.04469322  0.54686385
 -0.0558811   0.135941    0.06341396 -0.04193122 -0.02204663 -0.15941338
  0.21269073  0.32365003 -0.08241006 -0.15865527 -0.23546158  0.21443023
 -0.0281599  -0.3957673   0.14538571 -0.23371351  0.25637782 -0.23993741
 -0.29697415 -0.00281911  0.07762197  0.1308092  -0.0841224  -0.04122261
 -0.18739796 -0.22833836 -0.08368934 -0.06060759]
[ 0.2905162   0.2512511  -0.2030797   0.19529009  0.01220557  0.08601884
 -0.07671811  0.22722754 -0.2807101   0.15613538  0.29249617 -0.20846108
  0.06406386 -0.14332321 -0.07380039  0.20696439  0.14720774 -0.2072316
 -0.0701391   0.19394256 -0.00860715 -0.22490571 -0.08295738 -0.2689194
  0.41123828 -0.15245838  0.09985422  0.31903708 -0.11828513  0.02465096
 -0.00897436 -0.34774694  0.1598433  -0.1198642  -0.09679829 -0.11422482
  0.17847295 -0.13052157 -0.1398668  -0.05812421]
[-0.04514617  0.15082005 -0.18103682 -0.30618805  0.06136909  0.21332559
  0.18187831  0.39594853  0.31440678  0.02744232  0.1314663   0.10529906
  0.1971535  -0.29012027 -0.11567777  0.14128906  0.1637     -0.12107421
 -0.06136279 -0.03416453  0.5654458  -0.16168584  0.21620984  0.03872798
  0.03661957  0.05985687 -0.11461626 -0.09995499  0.00629829  0.23603515
  0.32415542 -0.25309855  0.23357451  0.3824526   0.3415234   0.03954389
 -0.2770002  -0.26499462  0.07247999  0.27433184]
[ 0.09398997 -0.05949694 -0.05251856  0.10031971 -0.06980564 -0.06461082
  0.00699122 -0.0521607  -0.06117604 -0.0025243   0.00531896 -0.15937965
 -0.04559764 -0.03025465 -0.0486866  -0.13696776  0.08380388  0.00113429
  0.0576285  -0.12814385  0.10201357 -0.06592672 -0.01325576 -0.05410892
  0.01190954  0.13136044  0.01050856 -0.07241852  0.1223764  -0.00643545
  0.14062667  0.18589991  0.14391665  0.02170583 -0.01873505  0.00296252
  0.05016527 -0.00182117  0.03145575 -0.03423715]
layer 3 Activation
tanh
layer 4 Dense
40 20
[ 0.29948816 -0.1688319  -0.16466036  0.11618986  0.21721429  0.05191754
 -0.17460948  0.15359695 -0.12345073  0.11584239 -0.01098     0.20616986
  0.06520755 -0.23094484 -0.24178624  0.05436925 -0.3617777   0.2982017
 -0.07446156 -0.3434902 ]
[-0.19109383  0.3420095   0.02764094 -0.23161986 -0.09019803  0.2963664
  0.07762396  0.26398736 -0.22111292 -0.0255671  -0.1322411   0.24839017
  0.19499272 -0.20180203 -0.328782    0.05345955  0.07499653 -0.23261319
 -0.27558547 -0.11059622]
[-0.28962073 -0.22688127 -0.10484842  0.08185844  0.0094334  -0.07455944
  0.19856948  0.09003351 -0.28236222 -0.25806555 -0.06747084 -0.14032814
  0.31229922  0.37169394  0.07590023 -0.12084328 -0.05724639  0.22230794
 -0.02203408  0.04878048]
[-0.29984617  0.2851807   0.10616305 -0.11510338  0.04122416  0.20997734
  0.38007736 -0.30752754 -0.03948457  0.30125654  0.0118694  -0.3575609
 -0.29075044 -0.22657987 -0.17256464 -0.17548431  0.15612799 -0.14613444
  0.02860807 -0.06220899]
[-0.3085014   0.1232923  -0.13565817 -0.25526965 -0.20976953 -0.03777078
 -0.11784663 -0.36301857  0.37890768  0.05651369  0.03130837  0.09747351
 -0.24847291  0.22353257 -0.22117367 -0.07455186  0.20407727 -0.10025091
 -0.31247282  0.18132411]
[ 0.32151073  0.20768452 -0.12042144 -0.02880959 -0.08805156 -0.04851592
  0.14920941  0.07623728  0.13627888  0.15869884 -0.06413507 -0.17994247
  0.11659063  0.2555669  -0.29704207  0.04707368 -0.02040739 -0.23055735
  0.01605877 -0.1281663 ]
[-0.20243007 -0.23854685  0.02761772 -0.02417142 -0.1036097  -0.25953573
  0.09480606  0.27814257  0.21841837 -0.00413051  0.24169385  0.14911437
  0.00874225 -0.2835733   0.19166718 -0.13188624  0.16576195  0.02297507
 -0.15155236  0.0792806 ]
[ 0.13599986 -0.31728932 -0.1490005   0.2668346  -0.00823146  0.06152892
  0.13095568 -0.27041596  0.19023603 -0.27359444 -0.04154769  0.14565556
  0.18355949  0.32983154  0.05438695  0.21958539  0.12409295 -0.2395459
 -0.07346042 -0.01483703]
[-0.27221784  0.03392564  0.00945671 -0.31148848  0.30540824 -0.13987163
  0.19557539 -0.20970955  0.13656837 -0.2792944  -0.08935324  0.3508653
  0.1591478   0.35315898  0.19196728 -0.17242907 -0.09839533 -0.03090125
  0.35854515  0.35548988]
[-0.1268947   0.05719826  0.08729331  0.15592372 -0.13083914 -0.05535678
  0.2373774  -0.0193874  -0.27344927 -0.23784994 -0.04730615 -0.227172
 -0.2968725  -0.3327246  -0.12694013  0.13633502 -0.039433    0.04323698
  0.03176718 -0.0432987 ]
[ 0.03244082  0.10156221 -0.25874615 -0.09036908 -0.23533343 -0.22661118
  0.06306349  0.12049121 -0.26464176  0.03356717 -0.00290866 -0.04427851
 -0.0437073  -0.06131325  0.11151427 -0.15247552  0.20594957 -0.16031067
  0.3704594   0.04211657]
[-0.35484597  0.01829877  0.04298178  0.18371312  0.01468307 -0.07727066
 -0.08246388  0.30453303  0.01567104  0.2312138  -0.32472432 -0.28301927
  0.09111188  0.06121222 -0.16136128  0.00038557  0.27392557 -0.27671736
  0.28690782  0.10804871]
[-0.26498857  0.31689727 -0.24764526 -0.17026153 -0.04860085 -0.01868219
  0.18656883 -0.03683429 -0.06747958 -0.08861648  0.1737612   0.15549976
  0.31594035 -0.10755052 -0.229974    0.2211828   0.17061736 -0.29037452
  0.1239442   0.03198883]
[ 0.01835459 -0.03084468 -0.07280666  0.20661366  0.038741    0.01055524
  0.11701885 -0.35420394  0.35256678 -0.12092355  0.03009888  0.06218091
 -0.22917165  0.24423958  0.23592816  0.01001919  0.17681341  0.27084678
 -0.31757548 -0.18017143]
[ 0.19705607 -0.00969182 -0.1874647   0.03228544  0.31196308 -0.11172007
 -0.07679331  0.02958268  0.26351935 -0.16639131 -0.276959    0.15332294
 -0.11016487  0.02573602  0.10647462 -0.13515954 -0.16827175 -0.18045497
 -0.23685549 -0.04790822]
[ 0.05309705 -0.05934737  0.04739037  0.1411658  -0.08687869 -0.13966535
  0.00430787 -0.06972138  0.25362575 -0.14331454 -0.16606489 -0.14337063
 -0.05837048  0.05166936 -0.08479777 -0.21430147  0.17901786 -0.3486178
  0.05776194 -0.06871422]
[ 0.18291041  0.14429188  0.05479695  0.09473179  0.3620141  -0.04037298
  0.10066883 -0.01055862  0.13191317  0.36086103  0.14591436  0.1322693
 -0.1562785  -0.07306191  0.02709804  0.28819045 -0.17829292  0.05308495
  0.02196129  0.11131541]
[-0.3237271  -0.23978762  0.19944397  0.2809734   0.29885548 -0.01905759
 -0.25222042  0.07923971 -0.02536508  0.3219614   0.0360741  -0.16322275
 -0.2240629   0.12191579  0.13778855  0.19179365  0.01864288  0.36686957
  0.02164069  0.14705406]
[-0.07107914  0.34301376 -0.19898605 -0.06422773  0.3137662  -0.09361378
  0.21549515  0.16741729  0.2528921  -0.16939688  0.2240256   0.268223
  0.28711763 -0.26948678  0.35113508 -0.16267504  0.02641527  0.02486917
  0.02279648 -0.18056358]
[ 0.13753498 -0.12369097 -0.17984985  0.25289407  0.1879175  -0.30979463
  0.381695    0.2394773   0.38713893 -0.31684548 -0.30524647 -0.19680585
 -0.10538857 -0.04374912  0.15779798 -0.25571108  0.3112745   0.01684811
  0.1249862  -0.01907114]
[-0.12662734  0.07924989 -0.10358447  0.08743045  0.27730736 -0.04438087
 -0.14303415  0.20268537 -0.2764601   0.26970172 -0.24069214  0.3855324
 -0.32334122 -0.36045504  0.23131113 -0.21205294  0.05116276  0.10016895
 -0.09792529  0.05130445]
[ 0.1260949  -0.08480081 -0.23507926 -0.06861492 -0.10094231  0.22167136
  0.07959936 -0.18351397  0.05112504  0.26833144  0.14684393 -0.01203948
  0.21983126  0.19318837  0.03678954  0.24662505  0.03355363 -0.21192855
  0.02576396 -0.17958312]
[-0.13395384  0.07124431 -0.12418912  0.15541655 -0.15339373 -0.13404284
  0.09726144  0.04544923  0.11142239  0.05848322  0.17474225  0.27784804
 -0.08718235  0.28348473  0.06351345  0.0676845  -0.01158476  0.14374815
  0.17451003 -0.00096572]
[ 0.18128093  0.13494201 -0.10980581 -0.08976339 -0.00411788  0.1586206
 -0.10778512 -0.1126629  -0.34116963  0.25496063 -0.31899258 -0.29666865
  0.3254913   0.36012885 -0.1693573   0.25753894  0.22296007  0.24283524
 -0.21842332  0.3475704 ]
[-0.09952477  0.08262323  0.18640906 -0.24020608 -0.25771022  0.01978401
 -0.25163236  0.0184643  -0.03370277 -0.28573292  0.2770912  -0.1784787
 -0.18797165 -0.24492499  0.2169456  -0.30887958  0.15575802 -0.18615259
  0.0203914  -0.24586362]
[-0.02830757  0.23591816 -0.26964086  0.15832928  0.31425118  0.04314298
  0.05595012  0.09807583 -0.12093934  0.27741367  0.10203528 -0.13832557
 -0.33621132 -0.27419102 -0.16300257  0.06042878 -0.25582942  0.27084514
  0.08488753 -0.1959948 ]
[-0.19674455 -0.01458166  0.11089536 -0.12243686 -0.16367185 -0.1396953
 -0.102003   -0.1795359   0.13758515 -0.36660177 -0.00924851  0.20638189
  0.22042884  0.20178744  0.04941972  0.29977322 -0.14908724 -0.10040791
 -0.0320998   0.01515499]
[-0.08405446  0.17969386 -0.25233102 -0.30520344 -0.08774625 -0.09305079
  0.0127397  -0.01056393  0.26871285  0.25720602  0.21197118 -0.12438307
 -0.18725945  0.30008784 -0.11719742  0.28495985 -0.26322764 -0.27677798
  0.0571866   0.09448544]
[ 0.21741167 -0.04276501  0.1055178  -0.34789303 -0.11144021 -0.23486568
 -0.17751986 -0.10476415 -0.33085886  0.2626508   0.04923356  0.2701403
  0.20665263 -0.17573199 -0.13707215 -0.25088516 -0.28688917 -0.32364306
 -0.06377108 -0.08737355]
[ 0.02376566 -0.11841132 -0.12993522 -0.27276707 -0.226704    0.00114422
 -0.09920714 -0.27916566 -0.04806783  0.13903566  0.33865842  0.2338624
  0.21470618  0.201931   -0.1483961   0.22154246 -0.20042793  0.04664589
 -0.11865465  0.0572855 ]
[-0.23118982  0.03703787  0.3015003   0.07012014 -0.02992478 -0.0083311
 -0.20517308  0.29939628 -0.36827123  0.10121501  0.22073197  0.27907678
  0.07535138 -0.00314761  0.16721894 -0.18959597 -0.23895149 -0.11012838
 -0.17719804 -0.05568522]
[-0.37051806  0.01922516 -0.14989878  0.15900107  0.28957695 -0.14121294
 -0.08107185  0.23874916 -0.21189868 -0.23143773  0.00578316 -0.05992603
 -0.21471408 -0.19706137  0.24357551 -0.05175006 -0.27474073  0.18209118
  0.21761517 -0.2923217 ]
[-0.06724478  0.15847944  0.02554422  0.2340088  -0.31623784 -0.15207615
 -0.19576004 -0.02816353  0.1320151   0.12469204  0.32014304  0.32642114
 -0.1268662   0.11017273  0.12091631 -0.07041932 -0.04166485 -0.22975071
 -0.05984323  0.05952311]
[ 0.01154113 -0.14080857 -0.24298841 -0.30780786  0.19960849  0.11748833
  0.25901175 -0.01585065 -0.12278714 -0.20343225 -0.08545502  0.13084666
  0.2731658   0.22404353 -0.01286422 -0.02890305 -0.03908572  0.14159305
 -0.20753393 -0.09512071]
[-0.07759348 -0.2605061  -0.11514063  0.00760915  0.11539216 -0.223342
 -0.12197434  0.05217447 -0.186975   -0.00976728  0.04070746  0.22407055
 -0.00321007  0.10234828  0.2494448  -0.15316163  0.02823519 -0.1920161
 -0.06504697 -0.15431948]
[-0.14555524  0.14477351  0.20323479  0.02423464 -0.07752156 -0.17324804
 -0.06893015  0.19667049 -0.09021538  0.277013    0.15464622 -0.04834867
  0.20836245  0.29346636 -0.2778508   0.01323353  0.15708698  0.4032458
  0.11843847  0.40361154]
[-0.07072502 -0.13893521  0.17822404  0.10429814 -0.14236094 -0.01950503
 -0.14424175 -0.25669312 -0.14807339  0.06851974  0.30673614 -0.23769449
 -0.00182802  0.04178165  0.18107751 -0.19342077 -0.17773885 -0.16932207
  0.15247123 -0.2731054 ]
[ 0.25738302  0.2093973   0.18013318  0.16951454 -0.21439704 -0.03193876
 -0.20295715 -0.11891656 -0.01425917  0.02770488  0.01113229 -0.20133917
 -0.07070791 -0.3017233  -0.09098219  0.11566395 -0.13039161 -0.21413425
 -0.2262885   0.07129169]
[ 0.01597093  0.22248049 -0.16491076  0.3131952  -0.1558522  -0.23813677
 -0.04704719 -0.01044214 -0.13472357 -0.16692638  0.08010899  0.01073259
  0.03913484  0.11419094 -0.19339113 -0.16964175 -0.18260176  0.08475274
  0.10870996  0.34957287]
[ 0.24650188 -0.1220373   0.22620966 -0.14656161  0.01220883  0.01314494
  0.17190665 -0.26615766 -0.12844893 -0.01720645 -0.1653624   0.03813329
 -0.05100143 -0.06550965  0.18602538  0.02943931 -0.05636264 -0.22014433
  0.35825193 -0.02105663]
[-0.03208555  0.03955855 -0.01862294 -0.03237601  0.00118488  0.00946613
 -0.01037494 -0.02420712 -0.0429959   0.07918271  0.04160545  0.05443983
 -0.01492039 -0.10933387  0.04486847 -0.01140131 -0.08539144  0.06625952
  0.00369876 -0.06581604]
layer 5 Activation
tanh
layer 6 Dense
20 1
[-0.08666424]
[0.13946006]
[-0.01752359]
[-0.00558214]
[-0.12427105]
[0.00302253]
[-0.02023613]
[-0.03263493]
[0.15551376]
[0.14830796]
[-0.19994625]
[-0.12220222]
[0.13364269]
[-0.14331356]
[0.14014548]
[-0.00274079]
[-0.28245306]
[0.16687013]
[0.00853879]
[-0.01918877]
[0.02511667]
