layers 7
layer 0 Dense
20 20
[-0.546182    0.16122994 -0.33387625 -0.13983865 -0.37611488 -0.26594055
 -0.10720935 -0.18461695  0.0027721   0.27213794  0.01275517 -0.17596953
 -0.14247818  0.02753799 -0.03541094 -0.08897778 -0.24027137  0.31536502
 -0.0910797   0.07238674]
[ 0.35488725  0.13835612  0.3410482  -0.6166577   0.01650085 -0.1371848
  0.26473144  0.08755666 -0.35711914 -0.3377216  -0.06879129  0.05393903
  0.06455759  0.2906839   0.32276887  0.45171827 -0.25709218  0.16544819
  0.48062527 -0.26108646]
[ 0.33699077 -0.06509144  0.3339339  -0.2632551   0.36635324  0.60364795
 -0.2519819  -0.09703801 -0.096157   -0.2872632  -0.17304724  0.1424708
  0.10313452  0.08513222  0.39611268  0.30399182 -0.32456875 -0.1415089
  0.40880057  0.05915244]
[-0.22929381 -0.12188996  0.17027645  0.32516375 -0.09656865  0.1280751
 -0.25319687 -0.0886699  -0.21059826 -0.08621623 -0.15823828  0.1062682
  0.18525343  0.12852043  0.15042907 -0.14039011  0.02747878 -0.12593071
  0.1956814  -0.19795856]
[-0.3276506   0.15988092 -0.43515587 -0.48342842  0.35982177  0.12577397
 -0.46130133 -0.25382286 -0.14663765  0.07987198  0.22984226  0.05536738
  0.3683659   0.10052469  0.22470722 -0.10727088 -0.45108157  0.38763103
 -0.35154605 -0.26376724]
[-0.36520466  0.17934331 -0.19416851 -0.10974979 -0.31651527  0.10303476
 -0.19948615  0.20843938  0.566887    0.10893229  0.25440508 -0.38100588
  0.36239296 -0.396565    0.27869952 -0.34544197 -0.34663567 -0.02002733
 -0.5476852   0.40324077]
[-0.6746614   0.33044812 -0.34004378 -0.02519995  0.18401538  0.08123545
 -0.06621538 -0.01054136  0.48914656  0.12570827  0.24912064  0.02140952
 -0.12679544  0.06685554  0.232167    0.18438949  0.26818287 -0.07583484
 -0.06376534 -0.15482584]
[ 0.32561815 -0.023142   -0.10970268  0.3868592  -0.09434888 -0.35331473
  0.30059567 -0.1697481  -0.50562733  0.15049581 -0.46783242  0.16357662
 -0.27162057 -0.3406059   0.33374745 -0.17835431  0.40434343  0.0941617
 -0.01652098  0.21105202]
[ 4.9477223e-02 -3.0408528e-01 -8.4848583e-02  2.0041880e-01
  1.3724621e-01  2.2871172e-01  1.0315350e-02 -4.5936880e-01
 -2.8604233e-01  2.0295589e-01 -8.3498009e-02  2.1367362e-01
 -2.2395709e-01  2.9877695e-01  9.2273191e-02 -1.0323506e-01
 -2.9443431e-04 -3.2648343e-01  4.6719170e-01 -2.3883550e-01]
[-0.30642116  0.17654717  0.36787653  0.4047052  -0.0180374  -0.14259434
 -0.59822583 -0.15394872 -0.02882705  0.06892832 -0.06983517  0.32780838
  0.13999672  0.3057816   0.25290138 -0.06392358 -0.12333557  0.49645165
  0.6260373  -0.07035928]
[-0.18495011  0.32773528 -0.24894446 -0.3073594   0.2614069   0.01181351
 -0.22753996  0.0259794   0.23459364 -0.23480009  0.2781812   0.146834
 -0.07060219 -0.19405112  0.04429086  0.06603384 -0.31589073 -0.07847495
  0.43470523 -0.04001317]
[-0.44969797  0.361631   -0.45291692 -0.19979973  0.12275507  0.19157083
 -0.21112785  0.29870743  0.13982487 -0.18561615  0.09125368 -0.3317143
  0.18570036  0.34394354  0.01591686 -0.26956865  0.33741063  0.127066
  0.5614929   0.1639298 ]
[-0.04092514 -0.36110055 -0.17720617  0.23649994 -0.09366991 -0.10359318
 -0.02181704  0.3240477   0.09409284 -0.30063894 -0.3342956   0.35757568
  0.11469959  0.19274585 -0.3102569   0.01794708 -0.1382456   0.394495
 -0.3093867   0.03708711]
[-0.06031477 -0.22139145 -0.16085137  0.4045256  -0.15710238  0.03409379
  0.04166415 -0.40922305 -0.278253    0.32949722 -0.05889403 -0.03042134
 -0.2589557   0.4370869   0.17226169 -0.23837054 -0.10559687  0.12695971
 -0.09693406 -0.12153652]
[ 0.300581    0.3112239   0.12490779 -0.15209405 -0.27400163  0.09777939
  0.26637316 -0.19897749 -0.01272386 -0.23867264 -0.02011339 -0.14309514
 -0.03984232  0.39203456 -0.11729353 -0.33307722 -0.21711892 -0.082343
  0.4578496  -0.16307637]
[ 0.30560666 -0.05689903  0.04517607  0.49009097 -0.15084115 -0.6064979
  0.20325379  0.03930927  0.29549587 -0.05058655 -0.43267334  0.23685578
  0.35620815  0.06003787  0.4741151  -0.15635097  0.10439481  0.2982724
 -0.1761743   0.23174547]
[-0.2083188  -0.3351198  -0.03346622  0.00254963  0.36615136 -0.07177833
 -0.48142472 -0.00408302  0.356122    0.37082526  0.31153238  0.10066856
  0.18347274 -0.10690954  0.1453732   0.23344156 -0.14857124  0.22447027
 -0.2561507  -0.14052773]
[ 0.2838151  -0.1626337   0.10682892 -0.00311031  0.39902094  0.06113212
 -0.00253158 -0.05334235 -0.26951084  0.19175592 -0.19022025 -0.16957642
 -0.21612297  0.07580735  0.15869023 -0.08455397  0.18341814  0.29639193
 -0.284087    0.04554135]
[-0.04885325  0.22276096  0.12999777 -0.09805924 -0.19502549  0.15305541
 -0.15405872  0.04188906  0.06259658 -0.2337404   0.06842941  0.08541574
 -0.15598226 -0.04630309  0.01051405 -0.13049261 -0.34627727  0.05285129
  0.07437935  0.20352414]
[ 0.30686548 -0.3703125   0.27488145 -0.04266476 -0.2732239  -0.11692055
  0.01140299 -0.31589    -0.32763484  0.20075026 -0.00614562  0.29281542
 -0.04134881 -0.15790573 -0.02268643 -0.27438295 -0.26927632 -0.29999182
  0.21351068  0.05537386]
[ 0.11138885 -0.04045917  0.05728463 -0.00421564 -0.03207292  0.03015734
  0.0947009   0.00971783  0.06135589 -0.00994579  0.1396825   0.09563495
  0.03716038 -0.07509942  0.01923047  0.0581482  -0.01987274  0.04121025
 -0.0637464   0.02015453]
layer 1 Activation
tanh
layer 2 Dense
20 40
[-0.41756886 -0.21405816  0.2852333   0.22626233  0.1208927  -0.3176653
  0.07809219 -0.32094973  0.0256871   0.04458206 -0.35356244 -0.163698
 -0.04844256  0.2289687   0.19662869  0.02523382 -0.07471791 -0.24572663
 -0.12986036 -0.19454779 -0.08907362 -0.11280508  0.27211818 -0.01769112
  0.03446598 -0.03227052 -0.2562725  -0.12435806 -0.11830717  0.01226782
 -0.33989504 -0.08383407  0.10185048  0.05792408 -0.12953912 -0.06892496
  0.2500333   0.12467749 -0.14595547  0.20558095]
[ 3.90961945e-01  1.18517056e-02  2.01664884e-02  1.37521863e-01
 -2.24115908e-01  2.43148938e-01  2.25169942e-01 -1.19000793e-01
  1.08342081e-01  1.86476246e-01  3.07611644e-01 -2.01925337e-01
 -1.57143712e-01 -3.49486135e-02 -1.06372118e-01 -1.13113821e-01
 -7.76017830e-02 -2.95604348e-01 -3.34538054e-04 -6.95116520e-02
 -2.13207155e-01 -1.31348222e-01  1.27156526e-01  2.08620176e-01
  6.15083016e-02  1.43920749e-01  2.07639426e-01 -1.91401705e-01
 -1.57415882e-01  2.69849598e-01  8.16429183e-02  9.60858613e-02
 -1.20275244e-01  3.20687192e-04 -1.46312982e-01  3.06602456e-02
 -1.78492337e-01 -1.98041514e-01 -9.88457054e-02 -4.07827497e-02]
[-3.37785631e-01  1.28963351e-01 -4.37068716e-02  3.17560919e-02
 -2.77780056e-01  5.93865551e-02 -7.82023743e-02  5.77212647e-02
  1.46340281e-01 -2.55371034e-01  1.17063254e-01 -1.76160648e-01
  1.17408767e-01 -1.40644610e-01  2.58667439e-01  1.40929878e-01
  2.34169617e-01  1.14547722e-01  2.37882584e-01 -2.41078392e-01
  2.07954645e-01  1.26253128e-01  1.53532013e-01  2.35821586e-04
 -2.35910743e-01  1.33397803e-01 -1.80149198e-01 -1.91385403e-01
  1.08745068e-01  4.27242890e-02  1.23124853e-01  1.69637352e-02
  9.75257680e-02 -2.31283922e-02  2.65063047e-01 -4.32775170e-02
  2.47158483e-03  1.88050270e-01 -1.01091564e-01  2.41764113e-01]
[ 0.21541345 -0.03267191  0.16588478  0.05542627  0.0325682  -0.11306556
  0.02430365  0.12263872 -0.02088742  0.09219422  0.26014885 -0.13328867
 -0.14391793 -0.28417608  0.16354112 -0.22417133 -0.08755171  0.3139279
  0.2780093   0.08571865  0.05884136 -0.17463103  0.10079259 -0.10073192
 -0.17948969 -0.22330588  0.15501226 -0.15513588  0.07314575  0.2562923
 -0.17313233  0.13352305 -0.21726857  0.12415448 -0.2338821   0.00994445
  0.1574626  -0.02277537  0.24159054 -0.02768565]
[ 0.13173774 -0.00169893  0.09409056 -0.0058078   0.0195875  -0.09368478
 -0.23325182 -0.23089641 -0.07952693 -0.00224059 -0.13184504  0.04866778
 -0.07193753  0.09004036 -0.15907589  0.21398523 -0.01167924  0.21420145
 -0.04331472  0.09521048  0.28439185  0.27435002 -0.12311451  0.03393798
 -0.17793107  0.12415496  0.12062851 -0.23555379  0.22390242 -0.16436432
  0.22673681 -0.12050638  0.26767963  0.17691305  0.24998094 -0.19532427
 -0.01014932 -0.40164798 -0.3866358  -0.10171738]
[ 0.0009542  -0.06717448 -0.14354411  0.0265663   0.20553736  0.04404297
  0.1134859  -0.00639173 -0.19860181 -0.06585207 -0.01068791  0.19731821
 -0.16250114  0.2657465  -0.17098592 -0.15447922  0.21420734  0.16116326
 -0.2279614  -0.12552743  0.15595268  0.08523913 -0.26502788  0.18754767
 -0.21332414  0.16723372 -0.10375509  0.03388467  0.09878393 -0.2533722
 -0.21937038  0.09568513 -0.06761501  0.22023697 -0.06214949  0.03673763
  0.01725244  0.01284266  0.17014149 -0.11109108]
[-0.27513838 -0.08428203 -0.19614625  0.09043752 -0.16294831  0.23627774
 -0.02064288  0.19896744 -0.05895528  0.11996948  0.24066019  0.11864668
 -0.04886133  0.09784754 -0.20858799 -0.12731253  0.03683208  0.16049352
  0.06738919  0.01809729  0.02294242 -0.02481328  0.05140032 -0.18970297
  0.07340648  0.32970926  0.13355245  0.11453647  0.04238861  0.16617306
 -0.21730968  0.09482168 -0.04911906  0.15960385 -0.05920152  0.05578423
 -0.07429341  0.15409061 -0.03126268 -0.07918502]
[-0.3664773  -0.03295959  0.16260955 -0.14811304  0.09712857 -0.13241887
  0.05301218  0.05332126 -0.00178939  0.13356756  0.22106025 -0.04668644
  0.07528887 -0.28650606 -0.17529297 -0.01231385  0.17924878 -0.06843058
 -0.18890971  0.08958992 -0.08104442  0.10804366 -0.3057772  -0.00834887
  0.10136419 -0.10663816 -0.10829291  0.06632342  0.09655183  0.23704724
  0.18837745 -0.30165783  0.01760007  0.29677555 -0.08840498  0.18210162
 -0.15234563  0.19952706  0.32131618 -0.03169817]
[ 0.0722848   0.14449213  0.1667292   0.13505231  0.10170231  0.16193874
  0.2872586  -0.05085006  0.1372919   0.01412647  0.09245607  0.05570132
  0.08632968  0.09764825 -0.25220275 -0.01484837  0.08313456 -0.25558057
 -0.2086924  -0.22981401  0.17210878  0.12416972  0.06249952 -0.113111
  0.13909742  0.3412976   0.08219478 -0.19742844 -0.01953568  0.16273998
 -0.24141803 -0.22158323  0.06869373 -0.10853575  0.29421282  0.08694682
  0.27099982  0.18532464  0.1569552   0.07587128]
[ 0.14857665  0.1981478   0.07494094 -0.16436422  0.1186456  -0.1377798
  0.06497168 -0.14607252 -0.10129502  0.11099771  0.25346333 -0.2066734
 -0.10098737  0.25893915  0.14206631  0.1874514  -0.16648982 -0.13550685
  0.24671462 -0.09398439  0.19927798 -0.30113587 -0.13200665  0.23306797
  0.21397826  0.2786225   0.04323011 -0.09705849 -0.04824015 -0.05529147
  0.31728685  0.22116788 -0.04397856 -0.3026305   0.13677008 -0.336336
  0.02179199  0.00287864 -0.33911332  0.1096642 ]
[ 0.19796965  0.04921364  0.06672646 -0.09965821 -0.09840768 -0.00268264
 -0.15915133  0.02446876 -0.18299828 -0.16617101 -0.13062496 -0.05347883
 -0.01363929 -0.02822818  0.29305506  0.14355443  0.06089314  0.07608717
  0.01299149  0.20136164 -0.29255995  0.16874568 -0.14608967  0.03206172
  0.13290294  0.29668078  0.26159477 -0.09510117  0.01585362 -0.04093051
 -0.33610928  0.06785359  0.04336932 -0.20848711 -0.06197597  0.15307513
  0.02031018  0.17714767 -0.31001416 -0.09482851]
[-0.01287583  0.15953757  0.17150763  0.2384811  -0.03619799 -0.04022731
 -0.02751863  0.18745957  0.02456789  0.0171038   0.20397845 -0.08968719
 -0.06736731 -0.1345343  -0.30373824  0.20038438  0.2411079   0.12187679
  0.1191496   0.23476925 -0.1854726   0.15766571 -0.0006354   0.1947977
 -0.22704552  0.00384059 -0.07873702  0.2532155  -0.07234672 -0.09051443
  0.08145895  0.27753916  0.02524957  0.12401004 -0.20734124  0.0030201
 -0.15909214  0.01091244 -0.06790531 -0.16930121]
[-0.10145145  0.11020022  0.09994424 -0.02306103  0.01660855 -0.30216953
  0.01726065  0.2532868  -0.1946293   0.06225577 -0.00245777 -0.12740858
  0.11091404 -0.1239671   0.12046469  0.07270493 -0.00288088 -0.04897467
 -0.25825652  0.14620715  0.16556437 -0.23674773 -0.11605975  0.06907925
 -0.02604306  0.22093184  0.10973211  0.02376437 -0.04249348  0.12721127
  0.22523089  0.09921954 -0.06127731  0.03309446 -0.1355646  -0.24081354
  0.05823772 -0.0180198   0.31450155  0.35444534]
[ 0.13917564 -0.08594574  0.1776723  -0.14099732  0.16651092  0.09663442
 -0.04611322  0.04556214  0.13403372  0.06772396  0.01486666 -0.04416046
 -0.15537007  0.06815359 -0.08577184 -0.07299908  0.14257963 -0.2143562
 -0.08286626  0.15267897 -0.17316292  0.08670764  0.15334351 -0.22884966
  0.05563394 -0.14999956 -0.14187446  0.00708124  0.13568385 -0.06855474
  0.0797878  -0.0708423  -0.18441387 -0.16537419  0.2259721  -0.04229316
  0.10662239  0.08940961  0.31342793  0.16080263]
[-0.18243705 -0.21138033 -0.05326402  0.14353187  0.25801018  0.16653189
  0.06715498 -0.08523674  0.0232321  -0.12152892  0.18042594 -0.30198607
  0.25923404 -0.21585159  0.044738   -0.05211415 -0.05407865 -0.05291421
 -0.02877623  0.24378166  0.1951256  -0.03011796  0.15761437 -0.12881228
  0.09403137  0.04701469 -0.28846     0.04727194  0.29043826 -0.26564163
 -0.36883608 -0.25580204 -0.02261852  0.06167476  0.04906482 -0.02201767
 -0.13199466  0.17315665 -0.11759273 -0.14273618]
[-0.16231246 -0.15623802  0.02359666  0.05691941  0.11581235  0.01970481
 -0.00503631 -0.17820424 -0.1176173   0.0259296  -0.10256935  0.24284972
 -0.33770865  0.17976642  0.16302088  0.00642873  0.25151408 -0.04276549
  0.06286602 -0.06408703  0.10448487 -0.05345333  0.1591999  -0.2604462
  0.00428706  0.25058314 -0.20173323  0.1031888   0.13416234  0.2140828
 -0.11283877  0.14672177  0.13019772 -0.0749132  -0.1532549  -0.26141536
 -0.00601757 -0.08298428 -0.09281865 -0.05701919]
[-0.30731317  0.06855502 -0.21764524 -0.10873039  0.26801148  0.05161023
  0.04238337  0.24455056 -0.01528698 -0.01941375  0.15151978  0.19957888
  0.1199315  -0.28063464 -0.02224904  0.07572493  0.02973727 -0.02847395
  0.18925887  0.35653284  0.15676813  0.05745469 -0.33042973 -0.04308268
  0.21984807 -0.3174305   0.23308851 -0.16480498  0.02134222 -0.00459616
  0.20611541 -0.01173941  0.0952775   0.00731431  0.02682623 -0.23415236
  0.02351318  0.19973283 -0.14717284  0.13379821]
[-0.21971335 -0.22016346 -0.25988775 -0.00864166 -0.20040141  0.3253319
  0.07953022  0.27923036  0.22944124 -0.11034961 -0.134417    0.06305558
 -0.10745114  0.28067443  0.01392967 -0.30121136  0.1322259   0.20328403
  0.23686956  0.22132032  0.04785397  0.20661582 -0.03389718 -0.04871575
  0.15813974 -0.19358046  0.08600962  0.01492758  0.04070898  0.19859152
 -0.15883385 -0.17666008  0.01766007  0.09180512 -0.07234955 -0.03303311
  0.16717003  0.11543405  0.24628602  0.26781005]
[ 0.43576217 -0.12521915 -0.11145724 -0.32145274  0.25484225 -0.26939282
 -0.1215144  -0.20220874 -0.0950015  -0.10062392 -0.20747341 -0.0194929
 -0.09781941 -0.08281977  0.01328859 -0.18867302  0.12064133 -0.11212177
 -0.20768459 -0.00250192  0.1607213  -0.10584139  0.11853834 -0.10794573
  0.3449757   0.06754111 -0.18418357  0.08197292  0.11565995 -0.1106419
 -0.13994499 -0.20050152  0.18324679  0.20664348  0.10680025 -0.06713802
  0.16402985 -0.21703878  0.21626875 -0.35241523]
[-0.27281636  0.11970899 -0.11525885 -0.0577317  -0.14543284 -0.31516296
 -0.04844937  0.20311353 -0.17205058 -0.2000835   0.04419373  0.17425667
 -0.20290543  0.01528907 -0.07355117 -0.23493052 -0.16843538 -0.17730744
  0.13382053  0.11445846 -0.16229787 -0.04545664  0.28253126  0.1448987
 -0.21246381  0.19364955  0.14112532  0.17443596  0.01141857 -0.02094474
 -0.2919601  -0.12335077 -0.14244474 -0.08253021 -0.1662033  -0.2661647
  0.42718613 -0.15852623 -0.13720185 -0.0787362 ]
[ 0.05581066 -0.05227314 -0.04493514  0.0120046  -0.04844918  0.00208834
  0.02140535  0.05665414 -0.07073925  0.00555951  0.04207063  0.03183214
 -0.01558292  0.02034374  0.03809097  0.05556621 -0.00928427  0.00782097
  0.08185307 -0.03463058 -0.03328101  0.01250401  0.02698303  0.01060579
  0.09772182 -0.03625075  0.04144276 -0.00741368 -0.01425333 -0.01904984
  0.01806384  0.02824211  0.06796507 -0.0191245   0.0179905   0.01383822
 -0.01172212  0.02747951  0.02880975 -0.004719  ]
layer 3 Activation
tanh
layer 4 Dense
40 20
[ 0.00886309 -0.37298793 -0.15602049  0.18393892  0.33504185 -0.14577737
 -0.01916527  0.29465625  0.12704627 -0.2715337  -0.27688152 -0.15806526
 -0.11469075 -0.13239156 -0.35210153 -0.19100176  0.04121182 -0.13305911
  0.02325856  0.04800804]
[-0.16398737 -0.05531342  0.00366444  0.06904635 -0.15337144  0.17487217
  0.17543356 -0.37946314  0.24086067  0.03504945  0.07458449  0.05318841
 -0.08199442  0.33386838 -0.1464532  -0.18656021  0.20864229  0.03193295
 -0.07513256  0.14069916]
[ 0.22916149  0.3003637  -0.02828483 -0.05477045 -0.26651907  0.04510952
  0.1590924   0.02537383 -0.22248784  0.05619888 -0.03990375 -0.2701862
 -0.00250955  0.3191938   0.26875475  0.27751854  0.24363616  0.12367802
 -0.01604605 -0.17816274]
[-0.23115712  0.3751764   0.01611083  0.07799435 -0.27289942 -0.14015278
  0.00353057 -0.03618523  0.2622233   0.0980242  -0.00930217 -0.21270649
 -0.06041037 -0.0782977   0.24165702  0.06407901  0.13113873  0.02905736
 -0.07651861 -0.03068013]
[ 0.15723659 -0.07710338 -0.10434166  0.21783926  0.27999434 -0.14809993
 -0.10620821 -0.19537131 -0.15043731 -0.11283001  0.06948256  0.15658496
  0.20904514  0.19828817  0.10668337  0.2403174  -0.1096794   0.01252989
  0.10340803  0.09900685]
[-0.04513651  0.08048689 -0.16506268 -0.2883982  -0.01655328 -0.04764024
 -0.07169894  0.08622503 -0.16978577 -0.08656107  0.039885   -0.16172802
  0.00182422 -0.00132508  0.09039189  0.01530352 -0.01078952 -0.28789595
  0.04266961  0.20210823]
[ 0.03503895  0.28195718 -0.28276947 -0.23182516 -0.2574377  -0.18228358
  0.10911094  0.34416765  0.2789705   0.02340286 -0.17205499 -0.22945395
 -0.09666441  0.29105318  0.10297629 -0.28031898  0.11786879  0.14468329
  0.02246333  0.09784251]
[ 0.25079262  0.21873245 -0.12622231 -0.15433821 -0.36085683  0.18800524
 -0.06584638 -0.22120276 -0.09309462  0.04698143 -0.05597151 -0.3428453
 -0.17886242 -0.2416623  -0.06622639  0.11204576  0.01968565  0.09183402
  0.06535341  0.04385364]
[ 0.0128637   0.1065862   0.07291416 -0.22246887 -0.04334817 -0.17298158
 -0.14694579 -0.04146034 -0.0571531  -0.06256182 -0.16714448 -0.02240085
  0.11706426  0.27881938 -0.01171215  0.18524237  0.05673545  0.13989486
 -0.02242163 -0.20913309]
[ 0.2936512   0.06061784 -0.18718678 -0.27331787  0.237597    0.00224255
 -0.25672036  0.07959006  0.08294344 -0.08886816  0.20409895  0.01856421
 -0.02399096 -0.00511235  0.20543355  0.24607272  0.02333753  0.06455115
  0.14159012  0.03290766]
[ 0.09613889 -0.05481218 -0.18292902 -0.22670017 -0.05247375  0.31478202
 -0.17308284 -0.2638233   0.04280483  0.07366014  0.2213207  -0.36186394
  0.18830119 -0.03512146 -0.20468025  0.21034469  0.05694395  0.1261744
  0.01483094  0.11538519]
[ 0.20864394 -0.00632503 -0.19492118  0.22872299  0.13578662 -0.25112563
 -0.14176154  0.02276099 -0.22912712  0.2836774  -0.08202044  0.3099003
 -0.2030835   0.1414617  -0.14298923  0.07031879  0.03080182 -0.25580922
 -0.00322999  0.196006  ]
[-0.18733963 -0.16810815 -0.12466083  0.19326676 -0.13746923  0.07233228
 -0.22386573 -0.23087184  0.16931936 -0.2812385   0.0649951   0.18548642
 -0.01263527 -0.00964122 -0.07627453  0.22443089 -0.21462773  0.13051835
 -0.14579271 -0.00262687]
[ 0.0413698   0.19542196  0.06266962 -0.15021512 -0.01300939  0.03369365
  0.1578941  -0.22471756  0.31408474 -0.22866958 -0.00304046 -0.03866462
  0.17490287 -0.21613365  0.31368846 -0.06652121  0.22332495  0.17678957
 -0.13202961  0.04212873]
[ 0.12074783 -0.11630397  0.1326845  -0.26081207  0.06798155 -0.15208115
  0.06985371  0.16306487 -0.06709652  0.19166237 -0.07244746  0.0111677
  0.20576406  0.19634601 -0.25683078 -0.00449668  0.11040182 -0.10475206
  0.010959   -0.02294409]
[-0.04586035 -0.15204458 -0.36536258  0.16759174  0.3248408  -0.14992936
 -0.13158639 -0.10336044 -0.08289405  0.17332749  0.30614656 -0.05189367
 -0.07073014  0.02581336  0.21685599  0.298902   -0.24639064  0.11855862
 -0.09940055  0.12424343]
[-0.24011564  0.09607556  0.01774047  0.34412172  0.2521412  -0.06908736
 -0.2051408  -0.08896462 -0.36673248  0.23789391  0.20831583 -0.12831688
  0.10838832 -0.36770052  0.10442971  0.13446864  0.07396334 -0.13902183
 -0.05737849  0.13893166]
[-0.15521829 -0.14193787  0.26183823  0.06292333 -0.21988831 -0.08943746
 -0.1852756   0.31540045  0.20561066 -0.26043457  0.27874878 -0.21180528
  0.1971878  -0.2596633   0.10315631 -0.15171573  0.07033611  0.26630542
 -0.10433559 -0.29710847]
[ 0.1961803  -0.16023906  0.23400608 -0.10623996 -0.01083105  0.15022956
 -0.12066603 -0.01016054 -0.0601608   0.05383773 -0.10208465 -0.26712787
  0.01301343  0.12753512 -0.28138432  0.2131803  -0.15326828 -0.04274204
  0.4940262  -0.24259107]
[-0.04544431  0.02713428 -0.21354608 -0.03054289 -0.26130247  0.10547276
  0.22919811  0.12143171 -0.07286984 -0.25281164 -0.22971418 -0.31778923
 -0.12968874 -0.21731997  0.26038706 -0.059072   -0.18934168  0.21124502
  0.09139443 -0.07061847]
[ 0.08111069 -0.06749567 -0.16123544 -0.19458222 -0.14418164 -0.17825384
 -0.08639731  0.26977047  0.10398499 -0.04914289  0.08210986  0.32795623
  0.12239949 -0.21683514  0.10706045 -0.22706611 -0.0975963   0.04005528
 -0.0591112  -0.09305911]
[-0.04093054  0.11489832 -0.18288957 -0.10377835  0.00671722  0.13307549
  0.18583542  0.10939332 -0.13710031  0.23994999  0.021094    0.24909776
 -0.17473526 -0.19287434  0.21149167  0.1895425   0.05751164  0.22117868
  0.07443815  0.05001   ]
[ 0.00425283  0.01760987 -0.00265583  0.01321662 -0.2508628  -0.06800015
 -0.24864754  0.28721413 -0.25648314  0.03598825 -0.00506102 -0.27027306
 -0.15906988 -0.17012195 -0.14778273  0.2877604   0.15187024 -0.22303358
 -0.18997219 -0.21218824]
[ 0.17747007 -0.06156275  0.05183951 -0.02521579  0.12638403 -0.18130988
 -0.09574807 -0.34529665 -0.12050965  0.20277697  0.08957987 -0.1856343
 -0.23073055  0.06618316 -0.04042695  0.04625601 -0.13479479 -0.27083924
 -0.04174248 -0.16733925]
[ 0.10057356 -0.15553808 -0.08718929 -0.17212202 -0.04612057  0.18175219
  0.27879536  0.040335   -0.16220124 -0.16242328 -0.28548402 -0.1786632
 -0.17077605 -0.23814058 -0.02578024  0.19025776  0.17721511  0.09191519
 -0.16153468 -0.071015  ]
[ 0.15578702  0.22350505 -0.04638585  0.01522521 -0.2586186  -0.14641088
  0.3288973  -0.10676356 -0.17629156  0.2572266   0.1938823  -0.02589911
  0.16394132 -0.04283578  0.27193686 -0.19147915 -0.23235679 -0.18640003
  0.16688053  0.20715596]
[-0.21364579 -0.03998409 -0.24270813 -0.05330022 -0.24977614  0.01900189
  0.26867583  0.1633367  -0.12523839 -0.09189181 -0.17354494  0.1691637
  0.18650137 -0.2639275   0.03437296  0.06972124 -0.03411851 -0.31022787
  0.01736229  0.28157088]
[ 0.25379485  0.12179721  0.28687316 -0.26071623 -0.19215474 -0.02973928
 -0.02207108 -0.32207116  0.06933625 -0.02174169  0.00854204 -0.25806996
  0.04573017  0.326517   -0.05986391  0.1262767   0.02246651 -0.07886194
  0.03849076 -0.22647505]
[-0.2225706  -0.19476107  0.09959549 -0.2115502  -0.19216266 -0.11223328
  0.21407156 -0.24617323  0.2489669  -0.10193612 -0.01401676 -0.12880261
 -0.14090055  0.13646786 -0.14946592  0.12574767 -0.31015903 -0.12336586
 -0.21459259 -0.13446088]
[ 2.34843213e-02  2.14317247e-01 -1.08706482e-01 -2.82590408e-02
  1.38849348e-01  6.16936870e-02  1.77168529e-02 -1.80874720e-01
  2.48269692e-01  1.72461331e-01 -8.98398682e-02 -1.09018706e-01
  3.61829437e-02 -4.13010269e-02 -5.83567508e-02  9.97591466e-02
  8.17233995e-02 -2.09872902e-04  1.89122364e-01  4.46090475e-02]
[-0.2793803  -0.25573343  0.14616707 -0.09444384 -0.01864499 -0.19676267
  0.02831998 -0.2515383  -0.22985488 -0.1458252  -0.23229931  0.298034
 -0.20586617 -0.03774176 -0.24987622  0.18589461  0.15520148 -0.13863179
  0.00497855 -0.10848346]
[ 0.21869318  0.09141053 -0.03588189  0.01912534  0.26063406 -0.20454983
 -0.0227409   0.29711375  0.00643875 -0.09849852 -0.09957743 -0.2900075
  0.1418651  -0.14462742  0.0485158   0.28147814  0.37972432  0.0180387
  0.32315654  0.28045714]
[ 0.07759486  0.03692415 -0.29993802  0.22383939  0.10296416 -0.22481202
  0.1418892   0.03607019  0.04512215  0.2992484  -0.13754418 -0.01281767
  0.23603521  0.13965681  0.13293059  0.15204965 -0.1334566   0.17819136
  0.10142139 -0.08066687]
[ 0.0946504   0.16208354 -0.21519092  0.01089855  0.11751644  0.01318618
 -0.14178784  0.20890033  0.05228879  0.2591281  -0.21357973  0.0039234
 -0.03779786  0.2251577   0.08272604 -0.18555759  0.13388516 -0.22130217
 -0.07040325 -0.28297445]
[ 0.04687813 -0.12060057 -0.01213632  0.1415461   0.00898417 -0.3249236
  0.15191954  0.10725638  0.20024389 -0.05134128 -0.23959203  0.30279458
  0.063177   -0.05795256 -0.19401889  0.32333276  0.08205026  0.054734
 -0.18342651  0.1381032 ]
[-0.24941981  0.13325591  0.23023027  0.08578315 -0.0264839  -0.197394
  0.20736    -0.1814879  -0.3297244   0.07940297 -0.06130549 -0.1640808
  0.01985733 -0.01499377 -0.10994788  0.00719918 -0.03357334 -0.0634965
 -0.03836266  0.27375096]
[-0.16125673  0.02705748  0.14175428  0.16799293  0.12774855  0.0260247
 -0.25768948 -0.19708215 -0.21917996  0.04458093 -0.00519675 -0.2607825
 -0.09677442 -0.24432267  0.04516613 -0.26314032  0.03642058  0.2746188
 -0.10407796 -0.29912442]
[-0.14877182  0.29790026  0.07236773  0.19952287  0.04442573 -0.16450107
 -0.3526835   0.17689544 -0.10860191  0.1605484   0.06316973  0.17999712
 -0.11801879 -0.10471041  0.00504309  0.13039304 -0.12559062 -0.13622232
  0.07876353  0.27831274]
[-0.0733294  -0.10363793  0.13925697  0.20216262 -0.14731112  0.2101303
 -0.25074944 -0.08057652  0.13824958 -0.13470435  0.28488448  0.1354983
 -0.00666777  0.16615926 -0.03092897  0.24580239 -0.21962972  0.2745742
 -0.2388899   0.22291929]
[ 0.0983881   0.35117084 -0.18269877 -0.25828725 -0.23850715  0.19705428
 -0.30628577  0.19591817 -0.09625339 -0.00322058 -0.11860427  0.20802596
 -0.19076337 -0.1510532   0.17845581  0.03160793  0.12468082 -0.39311904
  0.09069655 -0.07153834]
[ 0.04444908 -0.0805655   0.02501606 -0.0342276   0.0118545   0.01249258
 -0.01936033 -0.01587101 -0.02398136 -0.02338373 -0.03079378  0.01051717
  0.06601952 -0.00252255 -0.09627178 -0.01725646  0.00616689  0.08963021
 -0.12223674  0.00296356]
layer 5 Activation
tanh
layer 6 Dense
20 1
[-0.00975146]
[0.26486796]
[-0.11225426]
[-0.00175317]
[0.08987203]
[-0.02759813]
[0.13824573]
[0.05116345]
[-0.0216599]
[-0.15420985]
[0.09655161]
[0.03497379]
[0.00594415]
[-0.01713826]
[-0.2841369]
[0.01035461]
[0.03618291]
[-0.01353008]
[0.02712937]
[-0.14613573]
[-0.0023966]
