layers 7
layer 0 Dense
20 20
[-0.16573137 -0.35070658 -0.09916463 -0.2443756  -0.32120275 -0.43402907
  0.15627491  0.17511462  0.15606283  0.27266553 -0.0774945   0.07721712
 -0.33488497  0.38183358  0.19082701  0.10519962 -0.22938079  0.09120058
 -0.26890102  0.221337  ]
[-0.40156713 -0.06098356  0.16680731  0.29457894 -0.22789972  0.04613243
  0.22549812  0.3192162  -0.4083615  -0.18719424 -0.03217999  0.21847387
 -0.29828817  0.24949087  0.00933926  0.3539197  -0.3475721  -0.02902671
  0.28791103 -0.4595067 ]
[ 0.05929257 -0.33701855  0.23643583 -0.25058806  0.2151471   0.11007409
  0.2976576   0.39647034 -0.15304933  0.19399852 -0.12272621  0.39006603
  0.2896927  -0.368567    0.30677664  0.01967849 -0.34483105 -0.18951511
 -0.21695825 -0.35861853]
[ 0.11815207  0.25159895 -0.440278    0.23086622  0.09060764  0.2980257
  0.22594081  0.35321555  0.3261011   0.32671756  0.061492   -0.401275
  0.18124285  0.05821433  0.05591175 -0.08519808 -0.01040738  0.28924143
 -0.11784714 -0.07286073]
[-0.02054775 -0.3179604   0.23308015 -0.16262574 -0.272724   -0.26089638
  0.20620225  0.2647829  -0.03405499  0.0285368   0.01920386 -0.12298699
 -0.1665886  -0.05626002  0.37812826  0.1573301  -0.00268868 -0.21817388
  0.29472777 -0.03973233]
[ 0.317989    0.12332215  0.02213347 -0.23394871  0.14936207 -0.16637988
  0.01382004 -0.08650167  0.15454435 -0.01056962 -0.01674196 -0.2580964
 -0.31987128  0.04809577  0.38963914  0.25860533  0.17665741  0.2093687
 -0.04756247 -0.02513832]
[ 0.02320024  0.15332286 -0.17626517  0.01891155  0.08883066 -0.21394624
 -0.25506613 -0.18081963 -0.19045909  0.08275831  0.01730498  0.1811431
  0.20655197  0.09322196 -0.07147712 -0.22307922  0.16069797  0.4348953
 -0.3827641   0.33865824]
[ 0.03904321  0.27333558 -0.29424667  0.29662812 -0.06935689  0.38120702
  0.2783552   0.22560653  0.04648522  0.12226657  0.11922982 -0.22106683
  0.31819254 -0.0708487  -0.38311672  0.22419032  0.40740147  0.16095737
 -0.325196   -0.14876771]
[ 0.2980071   0.19602928 -0.09322905 -0.20766792 -0.11380231  0.3533747
  0.03450348 -0.1501168   0.09384759 -0.16432102 -0.16763444 -0.364334
  0.09582306 -0.36594954 -0.24999972  0.134371   -0.24263668  0.2001448
 -0.37175623 -0.01717281]
[ 0.21794109  0.31553826 -0.0906757  -0.16883944 -0.19704449  0.2154537
 -0.25014845  0.03619327 -0.23593254  0.11675504 -0.16586314 -0.10238851
 -0.13679333 -0.15968233 -0.39910847  0.2840803   0.21068422 -0.2122405
  0.10120909 -0.01328989]
[ 0.32629228 -0.28898612 -0.32701877 -0.27192098 -0.33822662 -0.08658931
  0.07837472  0.39646742 -0.15426764 -0.14291923 -0.10617448  0.01454814
 -0.04891704 -0.07354301 -0.09861112  0.02986225 -0.30989516 -0.08287603
  0.19938411 -0.43765825]
[-0.25089234 -0.30885085 -0.17582318 -0.3293768   0.14860354  0.05563037
 -0.20967335 -0.0924035  -0.4583474   0.04224416  0.4358183  -0.27275038
  0.01056175  0.06640077 -0.3927997  -0.16864549  0.2820168  -0.06552131
 -0.01975336 -0.22695826]
[ 0.35996774  0.11096176 -0.34762588 -0.07739706 -0.03846858 -0.3470038
 -0.3399249  -0.3414299   0.22937949  0.20258541  0.1035194   0.22635652
 -0.14662814 -0.05957484 -0.01377841 -0.19823617 -0.12999135  0.31206796
  0.2198305  -0.31026223]
[-0.31085068  0.22244044 -0.18327366 -0.09492936 -0.06019523 -0.28750896
  0.21468112 -0.00347857  0.24063079 -0.02257015  0.04541364 -0.06758224
 -0.08770021  0.34100187 -0.00364019 -0.09657309 -0.13060011 -0.04478364
 -0.21878615 -0.1376869 ]
[ 0.09930313 -0.2357876   0.18339661  0.12775952  0.29325542  0.05058373
 -0.29706162 -0.28118792 -0.3452865   0.21067852 -0.05716442 -0.16483712
 -0.01842338 -0.25113803  0.27879098  0.23419903  0.05469345  0.39505213
 -0.24340145  0.39356306]
[ 0.3744911   0.21074831  0.00102761  0.10807311  0.48672527  0.19536762
  0.38777304  0.03546422  0.3535437   0.17632018 -0.08944822 -0.17573558
  0.22719769 -0.35445315  0.25518635 -0.05478892 -0.31110758 -0.07520501
 -0.0453587   0.02323429]
[ 0.18146646 -0.23699121 -0.04367039  0.04139679  0.09728997 -0.00523798
  0.3777604   0.3634005  -0.22546     0.00066593  0.01416587 -0.10959373
  0.10905388  0.31684256 -0.02227807  0.01690293 -0.2292494   0.01664311
 -0.08708762  0.1971947 ]
[ 0.11405125 -0.21102129 -0.0522614   0.1925029  -0.0884851  -0.14392586
  0.20911422  0.0512704   0.30575374  0.24251822 -0.3860559  -0.03510096
 -0.37941384 -0.16906445  0.09689335 -0.17736602  0.14521869 -0.0224913
  0.13159883  0.14805152]
[ 0.32703665 -0.04814203  0.19114013 -0.07531288 -0.20817901 -0.12496418
  0.29886487  0.27067336 -0.01079346 -0.28325936 -0.08624208 -0.17187345
 -0.36713514 -0.2006802   0.00985892 -0.08677799  0.02734572 -0.19126111
  0.17145546 -0.37217137]
[ 0.02355406 -0.06969333  0.00542163 -0.02452263 -0.24317603  0.23982517
  0.11115525 -0.28867993 -0.29444695  0.14287212  0.22056325  0.01901794
 -0.2973862   0.26630312 -0.25233278 -0.10136485  0.12927721 -0.22538422
 -0.26562467  0.33984944]
[ 0.02300014 -0.05387453 -0.06691742 -0.01659014 -0.00241561 -0.06451553
  0.04404062  0.03641196 -0.0180253  -0.01675674  0.0028565  -0.02254749
 -0.04767858  0.02658841  0.00197332  0.02431342 -0.03677427  0.03384245
 -0.00250646 -0.05411589]
layer 1 Activation
tanh
layer 2 Dense
20 40
[-0.09712838  0.05832885 -0.04170934  0.24834321 -0.10282242  0.03292335
  0.31681475  0.08332732  0.13149308 -0.20685317  0.21606308  0.06330384
  0.18117598  0.06783333  0.22807139 -0.2958237  -0.27500975  0.21086164
 -0.29932582  0.27736878  0.02092841 -0.13259844 -0.27135175 -0.02966191
 -0.1648951   0.27701265 -0.16623226  0.04591813 -0.07418674  0.08877088
 -0.01130665  0.1869743   0.32835153 -0.18861137  0.224869    0.27516124
 -0.09250333 -0.2081888  -0.14729162  0.25608525]
[ 0.09171551 -0.04226924  0.1955076   0.0126602   0.10131824 -0.11366687
  0.12808311  0.2032372   0.3177545   0.07340289  0.02546957  0.15802881
  0.14808106 -0.11287047  0.21437214  0.17557393  0.13840206 -0.25445604
 -0.31519294  0.21618253 -0.25396636 -0.26239     0.21923336 -0.23391145
  0.06966116 -0.06127513 -0.06712825  0.12656565  0.17652294 -0.17482245
  0.25159043 -0.25628626  0.05978595 -0.12477326  0.02391792  0.26933828
 -0.13519657 -0.22842798 -0.15833865  0.10287759]
[ 0.23620315  0.16076505  0.03053636  0.10654293  0.08615858 -0.15627447
 -0.18763268  0.0476422  -0.12157109  0.2506891   0.294389    0.06453923
 -0.02094718 -0.00975985 -0.11397363 -0.05370829 -0.12269309  0.08477662
 -0.1137657  -0.1461552  -0.17043138  0.01790177 -0.03623074 -0.2641358
  0.16836101 -0.01809355 -0.21823801 -0.21888597 -0.03330508  0.19639318
  0.12409633 -0.09805694  0.08797982  0.02453479 -0.03030587 -0.01809622
 -0.17857508  0.26001033 -0.23814112 -0.25316453]
[-0.17332396  0.2495314  -0.07381862  0.16185322 -0.18728265 -0.15236466
  0.2528206  -0.14681427  0.28479117 -0.20213555 -0.22808395 -0.06902628
  0.1287739   0.19962934  0.1394321   0.18390965 -0.16459532 -0.12193009
  0.11227623 -0.12566553  0.33798125  0.08424203  0.12307911 -0.22874503
 -0.20515892 -0.17142272 -0.0532703   0.2259316  -0.02215643 -0.05391591
  0.16623335 -0.20825431 -0.04484991  0.15870541  0.11011863 -0.05642063
 -0.17452607  0.05347398  0.03345042 -0.15185152]
[-0.36238992  0.093431    0.03421426  0.05528845  0.22471066 -0.14680319
 -0.23256733  0.21290097  0.13208374 -0.00131046 -0.03479992 -0.08741843
  0.14171194  0.13261166 -0.10660751 -0.1647762  -0.2752659   0.2419331
  0.30856964 -0.21214066 -0.0629765  -0.06040425 -0.23101088  0.20756145
 -0.22791906 -0.21960172  0.16527352 -0.24652372 -0.04310735  0.02926662
 -0.2063343   0.26176184  0.08446503 -0.07110697 -0.16746084  0.25198126
 -0.21687967  0.20956315  0.32099208 -0.04255726]
[-0.08426987  0.16219617 -0.26479864  0.20137106 -0.02262946 -0.06641369
 -0.04361686 -0.20976253 -0.14597951  0.29024118  0.20101714  0.23569886
  0.07672367  0.23295744 -0.18812335 -0.05793791  0.23895346  0.1064062
  0.10451027 -0.02610996 -0.01543137  0.20481478  0.12002606 -0.07825721
  0.28862718  0.22633706 -0.17079505 -0.07189884  0.16003235  0.33186677
  0.08254384  0.18349397 -0.19306956 -0.35047483 -0.13828903  0.08033186
  0.01678585 -0.15416548  0.04708232 -0.1834668 ]
[-0.08796614 -0.24941112 -0.28670275  0.16862743 -0.05599831 -0.0043905
  0.28281036  0.25012964  0.291422    0.13243692 -0.2900893   0.07459559
 -0.14186646  0.0461113  -0.14883779 -0.02840266 -0.13240857  0.05890513
  0.05309913 -0.20612973 -0.00303146  0.16272342  0.24879639  0.20775536
  0.15669443  0.11980265  0.27264482 -0.07902168  0.26311725 -0.06176201
  0.29117605  0.15236744 -0.2646162  -0.3028996  -0.06030504 -0.13245663
  0.09064549 -0.21631965 -0.00567961 -0.27455628]
[ 0.29250446  0.2597798  -0.10875845  0.09464908 -0.13945317 -0.24156575
 -0.02490419 -0.24591272  0.3557692  -0.02902871  0.17706054 -0.06237636
 -0.04354345  0.05038137  0.22598927  0.14527825 -0.19894321 -0.12375572
 -0.04281811 -0.10486678 -0.32356343 -0.23858255  0.27515343 -0.33762982
  0.14256011  0.00166917  0.10795872  0.2005455  -0.32158446  0.02917988
 -0.18327156  0.09025912 -0.16652577  0.0319057  -0.30054772 -0.1524589
  0.0436242   0.16462278  0.07165986 -0.18249825]
[ 2.8674465e-01 -2.7892396e-01 -2.3311214e-01 -7.7609628e-02
 -2.6789528e-01  2.5587875e-01  1.3846554e-01  2.2420831e-02
 -2.1272142e-01 -1.0325410e-01  2.0147957e-02 -2.5620580e-01
  3.0709383e-01  1.0455505e-01 -1.8010323e-04 -1.4931124e-01
  6.6597007e-02  1.4076856e-01 -2.0609714e-01 -1.7194769e-01
  3.4256529e-03 -1.4559421e-01  1.3340183e-01 -2.1530867e-01
 -2.0977829e-01 -1.8844761e-01 -1.3674936e-01 -3.0327845e-01
 -1.5820372e-01 -1.6973934e-01  9.4387501e-02 -1.9234699e-01
 -5.4498404e-02  9.3048431e-02 -3.5853196e-02  3.0014339e-01
 -1.8353373e-02  1.2599120e-01 -1.1211815e-01  7.7168792e-02]
[-0.06644467 -0.03007698  0.20134516  0.06127748  0.30941653  0.2765745
 -0.21938439 -0.23963925 -0.08870468 -0.33796567 -0.04104163  0.16478312
  0.10133845 -0.28071302 -0.204052   -0.04930886  0.1253906   0.03201582
  0.20130007 -0.01152638 -0.13369773  0.21910761  0.21789074  0.3427687
 -0.19101195 -0.03848492 -0.12172795 -0.13344921 -0.1288205  -0.14362335
  0.06335362 -0.20937923 -0.3022873   0.11687276  0.16214186 -0.0199016
 -0.26132265  0.04714524 -0.1779547  -0.30244634]
[ 0.14108397 -0.12780887 -0.16807975 -0.23487647  0.15345779  0.15430005
 -0.23207611 -0.18113826 -0.14773686  0.14956518  0.2973278  -0.13250923
  0.17103803  0.14331105  0.03451954 -0.11029731  0.33205086  0.2828894
 -0.10843708 -0.17555755 -0.00412734  0.15997082  0.03137728 -0.22569266
  0.02822486  0.20864181  0.1541904   0.2693881   0.23262192 -0.1872003
  0.18071267  0.0552303  -0.02555809 -0.01259752  0.17350568 -0.00737581
  0.15415043 -0.12844719 -0.00512507 -0.05279082]
[ 0.01976005 -0.04193017 -0.13292481  0.176065    0.08870421 -0.17571336
  0.25227174  0.08192015  0.02022194 -0.28949928 -0.16144751  0.04518048
  0.2244072  -0.11887142 -0.1958744   0.08499311  0.0365273   0.02281214
 -0.16922668 -0.2894244   0.02613875  0.11354557  0.13869691  0.11864951
 -0.04028793  0.16859944  0.10028335 -0.05650304  0.0014852   0.14952974
  0.00335166  0.24068944 -0.01570354  0.12418988  0.02377046 -0.23102897
 -0.19161317  0.08518237  0.22265162  0.11984425]
[ 0.12603615 -0.13406621 -0.3125288   0.13372885  0.05577851 -0.0741976
 -0.0247921   0.03479183 -0.14930788 -0.08650591  0.32413495 -0.10857043
 -0.15611282 -0.07740998  0.22905721  0.2736651  -0.24382067  0.12225677
 -0.079363   -0.01335218  0.01746428 -0.08832744 -0.01310225  0.19818772
 -0.26894686 -0.14438853 -0.26044366  0.05819633 -0.22070555 -0.16579029
  0.00145453 -0.29782298 -0.03773896 -0.02801145  0.26242295 -0.24917915
 -0.06411391 -0.27421513 -0.15092841 -0.3033152 ]
[ 0.21966232  0.08483579  0.04299137  0.07324395  0.1740577   0.2388927
  0.01575348 -0.33292025  0.24129854  0.03158237  0.23640229  0.03007967
  0.11718159 -0.10256398 -0.01235981  0.08119874 -0.07346947  0.12892036
 -0.03337015  0.11244153  0.22067681  0.2277156  -0.13470064 -0.22441071
  0.04259444 -0.24808544  0.32304832  0.27724072 -0.21841463  0.14603987
  0.06585117 -0.24548668 -0.12921302  0.08436701 -0.12464232 -0.03030071
  0.1846708   0.3189957   0.26638165 -0.14459357]
[-0.04729125  0.2961053  -0.17884122 -0.03496204  0.24665113 -0.14015327
  0.05713478  0.03219023 -0.19670087 -0.2802866   0.261791   -0.16135243
 -0.03794401  0.04464132  0.11980682  0.21281755  0.21774937  0.07917119
  0.08723323 -0.06442749 -0.01397406 -0.0623144   0.21818316  0.18532714
 -0.07094195  0.08222968  0.09162077  0.26274678 -0.01892675 -0.3907524
 -0.17166801 -0.29084858 -0.30357903  0.20595351 -0.26303536  0.36421674
  0.20683189 -0.04092411 -0.16520755 -0.18619052]
[ 0.14069751 -0.07711573  0.12539129 -0.21856505  0.00739095  0.15620524
 -0.20760694 -0.18002832  0.2212327  -0.09312065 -0.20163353 -0.20222344
  0.00694713 -0.28682017  0.00889861  0.02088405 -0.04335528  0.0240023
 -0.14714995 -0.00230213  0.08996876  0.17276289 -0.07928724 -0.17678791
  0.27834663 -0.25290576  0.19974548  0.03156908  0.28024063  0.07283654
 -0.00446374 -0.01684355 -0.1011044   0.13425449  0.04751444  0.26112324
  0.12741014 -0.11542057  0.16390276 -0.11450146]
[ 0.19413143 -0.29073015 -0.21209016  0.23562604 -0.28298753 -0.2082298
  0.07440511 -0.191791    0.2240925  -0.09969559 -0.17989865 -0.1125895
 -0.05311082 -0.06803691 -0.27710763 -0.28331485 -0.10814817 -0.14822699
 -0.24756697 -0.24835363 -0.16292056 -0.03387698  0.00175684  0.16897649
  0.02928552  0.01381304  0.27367526  0.16675211  0.14575826 -0.2009325
 -0.34579137  0.17670992  0.13786282  0.0243654   0.25821522 -0.04644786
 -0.10889126  0.19523843  0.17967469  0.1315881 ]
[ 0.20462506  0.16218092  0.27464846 -0.26263762  0.20208679  0.27956071
  0.08651181 -0.04039813 -0.31051826  0.21325256  0.11857125  0.26066148
  0.0530545  -0.25502768 -0.26003486  0.23248962  0.00904649 -0.22682144
 -0.30055225  0.23181374 -0.09954249  0.3093715  -0.2300384   0.1744063
  0.15348895 -0.19738676 -0.2590706  -0.0734205   0.19722646 -0.35755384
 -0.01062537 -0.2866847   0.16504392  0.04519404  0.16105576 -0.08115848
  0.13097432  0.01316829 -0.06884775 -0.2323375 ]
[ 0.06776095 -0.19445625  0.03317063  0.03729683 -0.24789947  0.01090973
  0.11913906  0.26003492  0.27699164  0.26817662  0.11153339  0.02853472
 -0.18877244  0.10849884  0.10261966 -0.04254771  0.30419666  0.18864636
 -0.11234041 -0.29215682 -0.09445952 -0.35024238  0.00880909  0.21717311
  0.3145479   0.2529517  -0.14391364 -0.07392314 -0.0167818   0.15184829
 -0.2318923   0.06922644 -0.2307467  -0.19112703  0.10043667  0.15559834
 -0.2544729   0.06516045 -0.17167288 -0.03211283]
[-0.2071931  -0.08937844  0.09902459  0.01072899  0.02539401 -0.27718323
 -0.12009747 -0.19748479 -0.3798252   0.05258349 -0.02952565 -0.06122861
  0.19874574  0.16265614  0.17274858 -0.0762516  -0.26160026  0.21772465
 -0.29071876 -0.2531616  -0.18381274  0.2625091  -0.21514475 -0.18257481
 -0.2393987  -0.02113075 -0.22011173  0.0367596   0.30182624 -0.27922994
 -0.03201062 -0.27806032 -0.2863886  -0.09948725  0.3097252  -0.0206503
 -0.16560547  0.20051415  0.18296254  0.2641144 ]
[ 0.00214441  0.00479856  0.01723653  0.00664351 -0.01489803  0.03804928
 -0.01155842 -0.01197299  0.0645703  -0.00648032  0.01014775  0.00542866
 -0.01429126  0.07929426  0.00013479 -0.01779615 -0.03858028  0.01097622
  0.06568074  0.03703858  0.04323034  0.04095034 -0.01999659  0.03171937
 -0.01896517 -0.00033949 -0.01760801 -0.01997659 -0.02792901 -0.0157355
 -0.03511231  0.01250722 -0.02721238  0.00468998  0.00183142  0.00686637
  0.03627055  0.01414269  0.02747682 -0.00337519]
layer 3 Activation
tanh
layer 4 Dense
40 20
[ 0.14395592 -0.301063   -0.25237495  0.21299201 -0.04065125  0.07696288
 -0.13399415  0.05660057 -0.25246108 -0.17520703 -0.10593992  0.08652466
  0.23476675 -0.29974818  0.22318873 -0.0502918  -0.2505809  -0.28391638
 -0.2672112  -0.00238704]
[-0.20440821 -0.27932265  0.06995475 -0.23920113 -0.09555338 -0.01209361
  0.07774191  0.19098541 -0.04366524 -0.02773016  0.23789878  0.05241026
 -0.2441039  -0.0581745  -0.01154553  0.00836129 -0.04643189  0.07848722
 -0.03851309 -0.03898225]
[-0.04983072 -0.21584463  0.07433509 -0.10027427 -0.16524965 -0.09287492
  0.22889668 -0.19555415 -0.17090866  0.24176256  0.25231835 -0.00676048
 -0.25015503 -0.01370542  0.217238   -0.11341498  0.10428424  0.09498169
  0.13713863 -0.17331241]
[ 0.11155584 -0.22857183  0.11298442 -0.31435528 -0.06556661 -0.01825103
  0.22143397 -0.1453413  -0.1610971   0.01470677 -0.15471329 -0.2797466
 -0.21926464 -0.13313064 -0.18812607  0.18345067  0.08208458 -0.16308677
  0.197285   -0.1795984 ]
[-0.23825367 -0.23289241  0.19445997 -0.13829003  0.1482042   0.00137891
  0.29618114 -0.01690353  0.12305532  0.17435843  0.29155236 -0.2817337
  0.09425157  0.05276727  0.12505074 -0.25550392  0.15636267 -0.10544993
  0.01307439  0.02163943]
[-0.2804924  -0.26413497  0.05269425 -0.19238588  0.01248601  0.2744541
 -0.1452885   0.2253686  -0.28378424 -0.17215107 -0.14241599 -0.18772896
  0.11866812 -0.06476977  0.29267547 -0.0418973  -0.29976168  0.05450423
 -0.20033313  0.01243539]
[ 0.25777194  0.19849664  0.18310924  0.10235985  0.23187307  0.20583607
 -0.07978387  0.21250409 -0.18466356 -0.26615706 -0.25535142 -0.16525248
  0.31444755  0.3551569   0.08090451  0.06805829 -0.20240276 -0.3712442
 -0.24235353  0.17284134]
[ 0.03069097  0.12861209 -0.24219283  0.1796277  -0.30390805  0.24190183
 -0.13832259 -0.12776309 -0.22284779 -0.2703846   0.21203645  0.2413984
 -0.00742296  0.14233539  0.04170612  0.13166672  0.14882898 -0.00896794
 -0.15544087 -0.12684181]
[-0.09475426 -0.175021   -0.04527128  0.2078553   0.2092533   0.33305636
 -0.12287827 -0.11454089 -0.29390445 -0.12399448 -0.12395605  0.19302619
  0.01195936 -0.26268628 -0.03572572  0.1147567   0.23235899 -0.02517484
 -0.18740305  0.38543856]
[-0.15989913 -0.15756682  0.08943425 -0.02681314  0.14333236 -0.09263808
  0.06872297  0.07080878  0.3208359   0.21104015 -0.18588325  0.2266491
  0.07568789 -0.17285667 -0.19917986 -0.04084358 -0.11935086  0.04146804
 -0.25215364  0.23841673]
[-0.1875175  -0.17087351 -0.228119    0.04850733  0.10628882 -0.02371293
  0.21873532  0.2625476   0.03405897 -0.09831233  0.07014288 -0.13617162
  0.25883007 -0.20079306 -0.3088705   0.07492875  0.01256034  0.06398329
 -0.24991436 -0.21597967]
[ 0.13159916 -0.1631218  -0.2612312  -0.3223773   0.20415096  0.02420032
 -0.03874749 -0.13857985 -0.15552269  0.23339044 -0.19133593  0.0997063
  0.22655812  0.126402    0.11409634  0.27380815 -0.0984442  -0.05445081
 -0.13315442 -0.2720514 ]
[-0.03026153 -0.06455272  0.2842461  -0.06643064  0.1199573   0.01404978
 -0.09200005  0.04226498  0.11803254 -0.1612826  -0.05222007  0.12336438
 -0.24206585  0.03320054  0.27406245  0.15775762  0.13740331  0.27218345
  0.13493836  0.21651497]
[-0.11987333 -0.05961148 -0.22862187  0.00364428  0.22458377 -0.21004423
  0.10763815 -0.21778858 -0.0203472  -0.12046555 -0.00805339 -0.10873796
  0.0988537   0.14152741 -0.12100223  0.03882549 -0.0773245  -0.16230293
  0.1407058   0.20505387]
[ 0.13993654  0.18552384  0.27108482  0.11151689  0.13482575  0.04548152
  0.27106062  0.00793003  0.0910925   0.2529284   0.08179756  0.24433252
 -0.21055324  0.04553398 -0.29653558  0.06716815 -0.09301926  0.03171618
 -0.23555492  0.09986099]
[-0.12658888 -0.24761297 -0.17052639  0.21864398 -0.27150634  0.20074505
  0.24438979 -0.03844085  0.03509487  0.05771575  0.0632707  -0.08885149
 -0.20695294  0.25338468  0.1617128   0.05110561  0.19475363  0.10405499
  0.00789803 -0.24784453]
[ 0.22774705  0.04920102 -0.08437327 -0.12796786  0.2179297   0.1118841
 -0.33122528 -0.1040921   0.275023    0.17025153 -0.23290938 -0.01994991
  0.27401724 -0.0238874   0.11380284  0.03542607 -0.17917474 -0.23656058
 -0.06991284 -0.17031948]
[-0.20048288 -0.13650408  0.07488899  0.10003701  0.21389468  0.29550275
 -0.13000326  0.3193173  -0.24425144 -0.25971878  0.20041409  0.10406677
  0.11781602 -0.22714429  0.09980078 -0.17915797  0.26842237  0.03398367
 -0.1006481  -0.10872011]
[ 0.2530408  -0.29928067  0.08745174  0.09764957 -0.24041218  0.13333856
  0.25105545  0.19793618  0.21858084 -0.13873655 -0.1332076   0.15288803
  0.13003622  0.02223451 -0.18846741  0.16837654  0.22662106 -0.20473024
 -0.12999268  0.04836457]
[ 0.20912246 -0.12182793 -0.25479952  0.20426738  0.13350146  0.17576522
 -0.16814992 -0.25758696  0.01112721  0.26885527 -0.24726717 -0.10518881
  0.17242467 -0.1764075   0.16903041  0.0006274  -0.12403707 -0.09989513
 -0.20093618 -0.2232066 ]
[-0.10957947  0.07751785 -0.00135117 -0.31687766  0.05793607  0.07257178
  0.14560746 -0.25514996  0.06056441 -0.06101689 -0.0284088   0.08470327
 -0.05482041 -0.02586355 -0.25764516  0.18215773  0.1923537   0.09546962
  0.26902857 -0.10681469]
[-0.28102225  0.01547595 -0.18504326 -0.11668056 -0.08964007 -0.06349161
  0.3268578   0.26747164  0.07200836  0.02762184  0.34518307  0.14123246
 -0.20516525  0.15145706 -0.06562342  0.07382944  0.09484971 -0.1061307
  0.2561371  -0.34106454]
[ 0.27951697 -0.26806343 -0.00529587  0.21975322  0.13096793  0.15267661
  0.24715905 -0.3065973  -0.2478578   0.24638543  0.12490913  0.07341025
 -0.18676038  0.11824854  0.17486854 -0.14166385 -0.05892464 -0.27980688
  0.2321577   0.01795341]
[ 0.2155704   0.21807638 -0.16623683  0.0472731  -0.01350433 -0.16299291
  0.1660136  -0.06265672  0.10223236 -0.00348626  0.03624417 -0.00164768
 -0.10027964 -0.17827542 -0.21034439 -0.19189581  0.13420868 -0.10333005
  0.01598436 -0.23569281]
[-0.05132097  0.18108909 -0.22554994 -0.2702203   0.19611366  0.23535436
 -0.32105693 -0.30116785 -0.2054808   0.35354897  0.21323015  0.06938112
 -0.20393844 -0.2392035  -0.17282322 -0.07749429  0.14966327  0.19982424
  0.2122207   0.30403048]
[ 0.17787775  0.2010968  -0.088282   -0.11549821  0.3068217  -0.17895824
  0.16363925  0.21827996 -0.11879479  0.20515427 -0.25740102  0.07932907
  0.2876245   0.23013818  0.07634311 -0.27612418 -0.26019207  0.03516192
 -0.02694406  0.03775571]
[-0.02791725 -0.09373833  0.22392394  0.11609232 -0.05157727  0.23031676
  0.09394281 -0.01517045 -0.27947164 -0.10653906 -0.10379115  0.08904838
 -0.03964771 -0.02995819  0.3206523   0.01809511 -0.18269438 -0.22116259
 -0.11032701  0.34419242]
[ 0.10180454 -0.37343177 -0.20003173  0.04882927  0.23991632 -0.0822413
  0.0592772  -0.21507303 -0.30418804  0.06210367  0.18110384  0.25698248
  0.25604612 -0.12265386 -0.00923995 -0.168482    0.20431031  0.24737392
 -0.2053626   0.02902958]
[-0.15524994 -0.26875278  0.07524748 -0.15741211 -0.14152493 -0.07012601
  0.19323105  0.10384292 -0.08950465  0.2109842   0.25196862  0.18343927
  0.20613383  0.05064052  0.24295089 -0.2975962   0.19858855  0.3260237
 -0.16889164 -0.24538308]
[ 0.25928992  0.01189046 -0.07095214  0.13591021  0.23202793 -0.22122209
 -0.14687988 -0.09934255 -0.27656454  0.12141567 -0.31111613 -0.18977816
 -0.17211065 -0.1639016  -0.03708274 -0.09760199 -0.15514745 -0.13965455
 -0.1813777   0.17105627]
[ 0.27678102 -0.24980819  0.19889885  0.02500493  0.2072565   0.26047492
  0.08956622 -0.20059824 -0.3297883   0.25695592  0.24349222  0.22264688
  0.24164043  0.20929486  0.25649756 -0.15139316  0.11935323  0.05867048
  0.22612832 -0.04043736]
[-0.23892908  0.0952407   0.11234661  0.22845617  0.03538387  0.166034
  0.19208735 -0.17576642 -0.1424505  -0.26923946 -0.23074304  0.16656408
 -0.05842659  0.08269107  0.07284325 -0.0593338   0.20880166 -0.17411567
 -0.22593702  0.32005394]
[ 0.22663605  0.02430476  0.01016867 -0.0207593  -0.23253495  0.07282201
  0.16551061 -0.14008202  0.00184526  0.00982821 -0.26657376  0.25205123
  0.11134608  0.16414097  0.0038243  -0.01797429 -0.15899466  0.11675893
  0.14018501  0.25475472]
[-0.09946916  0.04525375 -0.01177349  0.06420256  0.24570958  0.17258053
 -0.16923417  0.01082358 -0.24969877 -0.21529852  0.2771753  -0.17481329
  0.14672656 -0.21995966 -0.1584142   0.12791376 -0.01687472 -0.18396114
  0.00732806 -0.22005196]
[ 0.09108955 -0.06308267  0.19972777 -0.25920704 -0.01065427 -0.10738474
 -0.22977893 -0.07051136  0.17241725  0.09418274  0.03070983  0.08128484
  0.15161756 -0.08245627  0.26071543 -0.2244195   0.13218755  0.23272312
  0.23240595 -0.10182492]
[-0.04365197 -0.20168997 -0.21401559  0.20135188  0.17837808 -0.19197862
  0.26092067 -0.28441682  0.25354144  0.01985959  0.32045674 -0.19713546
 -0.02964642 -0.1734989  -0.29861337  0.04263508 -0.2820043  -0.03621827
  0.1915961  -0.06652249]
[ 0.14006023 -0.10201237  0.2086609   0.11253384  0.03358876 -0.12758453
 -0.14193188 -0.29052633 -0.13156788  0.0551453   0.04389562  0.26180622
 -0.217199    0.24533758 -0.02520343  0.15224093  0.00541836  0.11978503
  0.06111586  0.32247555]
[-0.13297081 -0.157096   -0.19283651  0.15171401 -0.22699983 -0.19243328
  0.17047572  0.16879965  0.34991333  0.2837222  -0.17387368 -0.25075924
 -0.05182885 -0.15939994  0.01143266  0.10604475 -0.13889413  0.14646065
 -0.03346958  0.1686087 ]
[-0.00752243 -0.12855114 -0.012333   -0.05616444  0.27656028 -0.2677817
  0.27879617 -0.27480343  0.2758105   0.21534729  0.2091911   0.01617166
  0.13629906 -0.27616915 -0.23800102 -0.1907879  -0.12175078  0.03196915
  0.02702269 -0.1988138 ]
[-2.4180289e-02  2.4733312e-01  2.5858952e-02  2.7849579e-01
  2.1381325e-01  4.0816405e-05 -1.7396010e-02  8.4400356e-02
  2.6746342e-01 -7.1043640e-02 -1.7925131e-01  2.1028370e-01
  1.0113907e-02  3.1948909e-02 -1.1209859e-01  1.6286013e-01
  1.9014804e-01  1.3527657e-01 -1.0071902e-01 -3.7548326e-02]
[-0.01980512 -0.03953835  0.01734566  0.01781457 -0.01561334 -0.0241634
 -0.0175757   0.00700085  0.00145462  0.01133833 -0.01064654  0.00448842
  0.01470133  0.013172   -0.01859407 -0.00447028 -0.01424791 -0.01589053
  0.02102032 -0.0109371 ]
layer 5 Activation
tanh
layer 6 Dense
20 1
[-0.43785053]
[-0.24051318]
[0.2546007]
[0.3202223]
[-0.28957427]
[-0.27184963]
[-0.29404414]
[-0.05753555]
[-0.33073032]
[0.34871313]
[-0.42671946]
[0.21679115]
[0.15345506]
[0.12568234]
[-0.38398236]
[-0.04012312]
[-0.05727324]
[-0.24717426]
[0.25254008]
[-0.28755504]
[0.01770982]
