layers 7
layer 0 Dense
20 20
[ 0.15385239  1.2263926   0.16991259  0.08386101 -0.3216167   0.38413048
 -0.0856544   0.14691456  0.05339327  0.48071644 -0.3465678  -0.22196585
  0.13736935 -0.0630537  -0.01706774 -0.2115174  -0.47630686 -0.6191364
  0.3531009  -0.14855698]
[-0.04256989 -1.2508231   0.4195382   0.19204067  0.43643475  0.7649559
 -0.55239266  0.2732879  -0.52507216  0.84427303  0.15211041  0.7875849
  0.01493305 -0.26492956  0.04447794  0.43843758  0.19881886 -0.57155573
 -0.38795727 -1.3177916 ]
[-0.5854915  -1.2921237   0.19966258 -0.14304192  0.5318321   1.37977
 -0.31064808 -0.22288339 -0.2044413   0.32165214 -0.09821118  0.674215
  0.0273308  -0.21137524  0.35549533  0.05358388  0.04469825 -0.8559309
 -0.46547994 -1.0886075 ]
[ 0.02102358  0.49970663 -0.30053282 -0.24186985 -0.61211544  0.38468578
  0.22204454  0.36835882 -0.7216495   0.07026075 -0.02891974 -0.43138593
 -0.08588901 -0.06730073 -0.09734027  0.5610089  -0.34869814 -0.3428514
  0.7646871   0.33440518]
[ 0.40031156  0.09590302  0.08960564  0.206597   -0.34356636 -0.14600344
 -0.05372229 -0.35337663 -0.45762515 -0.1393202   0.27890483  0.613093
  0.9826483   0.62218225  0.22132693 -0.4431483  -0.655708   -0.23449388
 -0.29715434  0.3362693 ]
[ 0.63100535  1.4282314  -0.30878818  0.23660785  0.12821272 -1.1108253
  0.26809627 -0.34658575  0.14349726 -0.59081244 -0.08953249 -0.08125604
 -0.59184104  0.36438936 -0.33875033 -0.09101118  0.21997282  0.9592196
  0.29237548  1.0888875 ]
[ 0.4138191   0.7981426  -0.26116437  0.21537252 -0.5203223  -0.5444263
  0.30075786  0.01790027  0.06546422 -0.8996899   0.16810806 -0.2249907
  0.10819347  0.18588743 -0.07324283 -0.6628608  -0.07769384  0.54480493
 -0.06825902  0.8705703 ]
[-0.5412623   0.40402275  0.59743994  0.07290984  0.563538   -0.7177728
 -0.4542604  -0.42780817  0.6864085   0.2157788  -0.07033814 -0.5682844
 -0.71487063  0.01970299  0.29529363  0.2001123   0.98349553 -0.36849126
 -0.5937004   0.0095016 ]
[ 0.45529056  0.35539436  0.6153484   0.16100626 -1.2504197   0.48819464
  0.18111789  0.12353446 -0.18210201 -0.7097075  -0.3251281   0.4228512
  0.3199279  -0.13435355 -0.48495814  0.27382758 -1.0170127  -0.5418147
 -0.62176627 -0.21217322]
[ 0.18494248 -0.70277816  0.75152916  0.20005675  0.2197855   0.09820887
 -0.37375924 -0.45273688  0.02572494  0.1862467  -0.22461706  0.20079811
  0.07364876  0.9515258  -0.4907863  -0.44146934  0.57716745  1.6130673
  0.31343308 -0.42940962]
[-0.4266444  -0.6680094   0.35020342 -1.6119658  -0.20892563 -0.6858286
 -0.11319389 -0.52752286  0.10570113 -0.75347316  1.5491309  -0.7545779
 -0.3051082  -0.4892052  -0.07938109 -0.17840484  0.10784289  0.70122313
 -0.05098756  0.3958051 ]
[-0.2697206  -0.43791127 -0.6808233  -0.29213083 -2.9403694   2.0263033
 -0.18089652  0.5257276   0.33091703 -0.5806709  -0.885849    0.36552203
 -1.131732   -0.8101631  -0.5262228   0.9444549  -2.1287515  -0.6947998
  0.3881096  -1.2195847 ]
[ 0.106351    1.7342046   0.53146505  0.16040437  0.9687902   0.06471451
  0.4815663   0.32847768  0.1439822  -0.72083414  0.01713579 -0.23037824
 -0.11946208  0.8954692   0.5484802  -0.47720522  0.0577641  -1.3136041
 -0.27207202  1.2946619 ]
[ 0.39420277  0.0391978  -0.0476361   0.87007576 -0.06569187 -0.866148
  0.2490182   0.22601704  0.01711047 -0.35855338  0.00357871  0.53396624
  0.43729892  0.03524182  0.16956149 -0.01897386 -0.3167402  -0.2004149
 -0.13958523 -0.3586396 ]
[ 0.51229435 -0.0982646  -0.19633454  1.1582615  -0.1100557   0.2115516
  0.20371713  0.38267285 -0.21841988 -0.2513501  -2.14532     1.3232528
  0.40858528  0.28470638  0.20868179 -0.6897718   0.14918424 -0.12575434
  0.21778014 -0.8070198 ]
[-0.4982145   2.9725347  -0.71627057 -0.5217388   1.1405873  -1.0157272
  0.9094842   0.9611344   0.04179487 -1.3937017  -0.31053618  0.5547686
 -0.03619502  0.7388926  -0.63899565  0.35918996  0.27369672 -2.009194
  0.18720533  0.38271126]
[ 1.2721273   0.48832074  0.24349749  1.0677036  -0.27778566 -0.82276505
 -0.30148652 -1.0313898  -0.476127    0.5925686   0.37088564 -0.85174894
  1.3838574   0.09506516  0.54753625 -1.1222022  -0.374963   -0.22176771
 -0.4757269   0.48104963]
[-1.2726287   0.6083283  -0.7098697  -1.1785331   0.7811872   0.7783902
  0.1585468  -0.50197893  0.19217503 -1.0437561   0.23757501 -0.23920494
 -1.295116   -0.5181231  -0.29138163  0.15735184  0.1544863  -0.9801268
 -0.37382948  0.33861703]
[-0.11565802  0.3307233  -0.3137389   0.706565   -0.0338526   0.73233086
  0.40745953  0.434771   -0.2990531   0.9155455   0.23498213 -0.5458005
 -0.11555191  0.35722458 -0.18491633  0.69049764  0.09687067 -0.41155505
  0.23508136  0.5743853 ]
[ 0.8010119   1.1477194   1.9517303   1.082361    0.22417817 -0.23991777
 -1.1488645  -1.1109419   0.7660534   2.721357    0.4321932  -0.8769273
  0.2455962  -0.08616115  1.1282549  -0.567697    0.92358506  0.7151635
  0.04686227  1.7139914 ]
[-0.00947787 -0.23378342 -0.34838137 -0.08430783 -0.13569514  0.4077689
  0.05689466  0.29465917 -0.5428346   0.02995838  0.15506607  0.08948711
  0.02935263 -0.02763968 -0.18455409  0.3067773  -0.15988992  0.04229408
  0.78064936 -0.24456227]
layer 1 Activation
tanh
layer 2 Dense
20 40
[ 0.27941528 -0.60946745 -0.30658728 -0.01724983 -0.2333852   0.05474603
 -0.52085227 -0.4056783  -0.3199637  -0.00412353  0.04439194  0.807141
  0.19842896 -0.16405235 -1.1518341   0.14244758  0.08619118 -0.29651627
 -0.03105546 -0.00963837  0.1993101   0.43845215 -0.2720125   0.2959683
 -0.40233716  0.27182564  0.01514977 -0.08143561 -0.03550553 -0.06928758
 -0.28147686 -0.21346632 -0.6380467  -0.2195798   0.97566414  0.09364835
 -0.5716669  -0.4194429   0.12705928 -0.21429145]
[ 0.22083442  0.41681534 -0.25872666 -0.22567701  0.24620515 -0.21547538
  0.3462179  -0.98923737  0.20168282 -0.08359046  0.14335561 -0.47759888
 -0.18740106  0.33638054  0.07752658  0.0481774   0.49801472  0.1756672
  0.04205848  0.1773762  -0.19373783  0.02062859  0.16166994  0.16639237
  0.38043618 -0.2363758   0.16056217 -0.1732801  -0.41844797  0.55664766
 -0.20875975  0.11229156  0.35664675 -0.6179282   0.47781882  0.9083708
 -0.7752764   0.07851111 -0.16310392 -0.03512998]
[-0.0421907  -0.17332554 -0.07205496  0.06986478  0.0490955  -0.19427572
  0.12856148 -0.8399585  -0.19267532  0.15454471 -0.00468426  0.23120818
  0.14163162  0.2062288  -0.5429253   0.06030235  0.4759243   0.08550517
 -0.21455577 -0.13346758  1.2017536  -0.14466225 -0.03545867  0.05068783
  0.22590153 -0.19332463  0.0058742   0.2768659  -0.0900292  -0.03298398
 -0.04045646  0.18864626 -0.16811818 -0.25651762  0.33546308  0.08104274
 -0.605186    0.08426173  0.12788744 -0.19494005]
[-0.04881096 -1.0367751  -0.40389872  0.26564628  0.3486382   0.01848721
 -0.75465167  0.2875221   0.37716234 -0.28641698 -0.13130721  0.27243257
 -0.04710909 -0.00384757 -0.9306842  -0.26342788 -0.20228067  0.06601204
  0.28973     0.25618783  0.55852586  0.40690613  0.25637004  0.10539255
 -0.08875374  0.0692886   0.01173251 -0.2291983  -0.11262186  0.23395334
 -0.12393834  0.13430557 -0.47241908 -0.13296932  0.645355    0.26879168
 -0.7006447  -0.7564391   0.07479426 -0.1344161 ]
[ 0.24844116  0.55719185  0.2724497  -0.23422915  0.2915312  -0.44102284
  0.5722782  -0.83734906  0.04279218  0.14015035  0.2453696  -1.295715
  0.21175194  0.39390746  1.2246594   0.30893326  0.7649512   0.91546583
 -0.25684652 -0.11522508 -0.12027487 -0.31840026 -0.5250505  -0.47967988
  0.89938504 -0.06172243 -0.1588761  -0.05673544 -0.0031538   1.1564356
  0.36546952 -0.06945457  0.22947854 -0.2475648  -0.34476587  0.6929822
  0.20369963  0.12543307  0.32151312 -0.3199197 ]
[-0.02672615 -0.2711105   0.12153745 -0.02071665 -0.07688957  0.11436696
 -0.04959348  0.7246445  -0.02202545  0.04847128  0.33174536  1.0932189
  0.2426743   0.07580902 -0.5137936   0.2763789  -0.64796543 -0.5509265
 -0.0563494   0.10916749 -0.00805358 -0.05387716 -0.2293156  -0.31783712
 -0.79429317 -0.10209559  0.04142263  0.12836404  0.03097761 -1.1068246
 -0.3856878  -0.06228978 -0.09781591  0.18236157 -0.2349574  -0.5664025
  0.34943447  0.26619062  0.07251206  0.3957382 ]
[ 0.06899061  0.24604875  0.0214515   0.06373073  0.03744936 -0.23463972
 -0.02188385  0.58017683 -0.00096514 -0.42065248  0.07061563 -0.43869966
 -0.01024738 -0.18809749  0.04702391 -0.34784478 -0.03100595 -0.01138779
  0.17469487  0.06592304 -0.28609952 -0.06466161  0.36690196 -0.07740273
  0.24524835  0.14526857  0.10362557  0.11967548  0.10219442  0.08813888
 -0.21448345 -0.11150696  0.10281323 -0.19086562 -0.0307804   0.06483224
  0.16924323 -0.05667765 -0.08427254  0.09218941]
[-0.0102155   0.1368038   0.09014828 -0.22500187  0.09055147 -0.18776721
 -0.06205736  0.75541353  0.1759549  -0.37336943  0.05374142 -0.37664512
  0.22161989 -0.12318056  0.10354636 -0.10222874 -0.15216057  0.06210374
  0.0281385  -0.00579896 -0.90573734 -0.09017187 -0.00394742 -0.20250414
 -0.09753472 -0.17419851  0.14041084  0.19557853 -0.1786964   0.05491883
  0.12410025 -0.3370714   0.05518708 -0.38529035 -0.10209266  0.36660343
  0.35749432 -0.569599   -0.16374965 -0.32116842]
[ 0.13923597 -0.03576027 -0.14430444 -0.13045143 -0.0220563   0.02137749
 -0.11249531 -0.2835373   0.20787089  0.33867994 -0.08377113  0.41819492
  0.2061581   0.12521751 -0.18960175  0.01966283  0.25809282  0.1036525
  0.02814304  0.19500355  0.47239828 -0.28621617 -0.18804969 -0.09479523
  0.47072297  0.00357668 -0.11935285 -0.09612811 -0.16270131 -0.08302467
 -0.30558264  0.15631668 -0.03544946 -0.2562314  -0.64051753  0.32049018
  0.45609227 -0.18698475 -0.11208279 -0.22670019]
[ 0.11365058  0.11241523 -0.536719    0.23984286 -0.22639592  0.24467544
  0.07123826 -1.0644896   0.04814174  0.6532813  -0.05800049 -0.47481596
 -0.3905178   0.18233274  0.21541247 -0.34927848  0.5422425   0.21730745
  0.37420323  0.26556268 -0.31854293  0.18110865  0.38703224  0.48830703
 -0.23065059  0.21615368  0.32221693 -0.2289911   0.07490148  0.01051326
  0.0203651   0.48346728 -0.11663675  0.03082476  1.1661476  -0.0104831
 -1.1527816  -0.5356748  -0.08329559 -0.5363844 ]
[-0.25215086  0.02001289 -0.27683517  0.26006046 -0.08116848  0.18844223
 -0.25107127  0.06931087  0.04219886  0.14623268  0.42183164 -0.26201418
 -0.23677501 -0.3011562   0.08170944 -0.11882514 -0.5147433  -0.14420925
  0.08274435  0.13673432  0.9036519   0.07759138  0.0105096  -0.08932485
  0.07053367  0.12495695 -0.07970255 -0.27628896  0.05775071 -0.48320216
 -0.05465838  0.00831382 -0.23611714  0.39642885 -0.43919024 -0.3672811
  0.34888345 -0.06692603 -0.00171811  0.36803207]
[-0.12217671 -0.7019699  -0.4540571   0.36429873  0.09135258  0.19222465
 -0.62663317  0.67431337 -0.11248888 -0.00469388  0.08118112  0.23662475
 -0.16708949 -0.01095757 -0.22046255  0.18610018 -0.01879345 -0.5148671
  0.05900468  0.09154031 -0.24314089  0.258924    0.19971098  0.27391472
 -0.14099354 -0.1212015  -0.22636312 -0.1806664   0.11240814  0.15648511
 -0.3526088  -0.19811285 -0.39546204  0.1067483  -0.17502445  0.19618538
  0.21270038 -0.15360959  0.17607391  0.21479398]
[-0.22206563 -0.9241926  -0.51450753  0.11840177 -0.20994538  0.08647365
 -0.42735806  0.13126819  0.22804672  0.03993945 -0.04540846 -0.11201121
  0.09179986 -0.2317444  -0.51153594 -0.08480074 -0.22632733  0.07807162
  0.15054926  0.39879045 -0.05218102  0.6294092   0.15344596  0.02336259
 -0.02550047 -0.17939174 -0.15682189 -0.104638   -0.03520036  0.12861647
 -0.12560269 -0.25813365 -0.39533454  0.10909181  0.7452322   0.05197979
 -0.6722436  -0.21828762  0.24636003  0.21878317]
[-0.16697899 -0.51300496  0.14703351 -0.04298438 -0.19944806  0.32871822
 -0.46083915  0.33913893 -0.00450035  0.1564604   0.03105789  0.13627392
 -0.1953505  -0.38194752 -0.07038252 -0.05365879 -0.15189314  0.088145
  0.27255315  0.13926707  0.17259596  0.01556002  0.22446275 -0.02211584
 -0.46127725 -0.03838511  0.10315788 -0.0735203  -0.08025439  0.592174
  0.11089738  0.15693344 -0.3102321  -0.28329965  0.284548    0.79197127
 -0.13167435  0.03623376 -0.02457804 -0.20951359]
[ 0.15106039 -0.54360837 -0.24610159  0.08373339 -0.23166664 -0.01383307
 -0.43566075 -0.4566061  -0.09749724  0.6810738   0.19779366  0.02324032
 -0.20564081 -0.08479577  0.23026465  0.07828114 -0.23704062 -0.50033367
  0.18496715 -0.09615047  0.62324274  0.27162626  0.1658111   0.03132267
  0.09841785  0.71327436 -0.0738862  -0.51110363  0.13095233  0.002775
  0.00688685 -0.04951648 -0.49410728  0.10022227  0.1482862   0.19385992
 -0.05037048 -0.43885356 -0.3048177  -0.29474044]
[-0.00243654  0.9871074   0.8189275  -0.16041946  0.05462091 -0.26898262
  0.20393999  0.11056421 -0.43342897 -0.05788001  0.40996316  0.40382826
  0.09115985  0.18757498 -0.21474323  0.29359055 -0.08029846 -0.4935766
 -0.10376687 -0.30567744 -0.87048614 -0.92709064 -0.39468297 -0.42797655
 -0.2697086  -0.5920845  -0.23466203  0.47756562  0.1761708  -0.60405
  0.05100916 -0.25471562  0.542337   -0.01617792 -0.5231098  -0.16958962
  0.73278713  0.26972878 -0.02449508 -0.38812798]
[ 0.11793738 -0.10322734  0.05382924  0.11740845 -0.16086975  0.32834738
  0.17500834 -0.42740914 -0.10760862  0.31313416  0.12051987 -0.29883754
  0.32120413  0.08784849  0.51421565 -0.47559536  0.40626824  0.14526218
  0.34886807  0.0802254   0.14994556  0.09633576  0.17424335  0.27694336
  0.58732516  0.28506222  0.33944857 -0.0827647  -0.3125955   0.6742627
  0.26692158  0.4961104   0.06860743  0.05933541 -0.30679426  0.61654997
 -0.10809377 -0.3632868  -0.14764692  0.21814916]
[ 0.18691368  0.28543952 -0.15974428 -0.30925405  0.14900793 -0.22250937
  0.32857013 -0.68448776  0.08893009 -0.4387476   0.01309881 -0.08090728
  0.10926068  0.21753855  0.13724412  0.14278531  0.42597696  0.45993766
  0.22085924  0.10103884  0.45755684 -0.15101565 -0.13138695 -0.11666235
  0.56744283  0.09177227 -0.27938658 -0.07255755  0.2009686   0.6901573
  0.4207959  -0.22815259  0.32826692 -0.18168248  0.66900283  0.13120607
 -0.73961467  0.43776518 -0.14073507  0.05654864]
[-0.309501   -0.02672132 -0.02503387 -0.00789165 -0.15154773 -0.01840785
  0.12424037  0.7412355  -0.21682227 -0.30103543 -0.07705699  0.5304321
  0.0448547  -0.03031245  0.13547906  0.32626176 -0.8030347  -0.37848797
 -0.1747132  -0.12086702 -1.0265009   0.22754894 -0.07922746  0.06206181
 -0.16910993 -0.09894076 -0.09928375  0.0497252   0.01227481 -0.4782589
 -0.02493237 -0.50677264  0.01256114  0.1488056   0.12758571 -0.20113687
  0.27951995  0.19448484  0.02335075 -0.15383574]
[ 0.05558097  0.00340088  0.22150637  0.06938393 -0.05331595  0.22872749
 -0.11345568 -0.0468802  -0.21049231  0.52825534 -0.31474435 -0.68534416
  0.23568647  0.10309657  0.41754332  0.25440994  0.04573803  0.16258119
  0.23066583  0.3311776   0.9904083   0.18329276 -0.0222151   0.5125144
  0.07639433  0.11688524  0.365792   -0.07813229 -0.344236    0.33558378
 -0.27274987  0.44563952 -0.0257817   0.3925609   0.34386754  0.5644079
 -0.22645253 -0.12899914 -0.14772226 -0.12231284]
[-0.2200753   0.10193929  0.02926261 -0.06854612  0.12368204 -0.08914192
  0.17227557  0.46000007 -0.18475868 -0.28513157  0.12579013  0.5006885
 -0.05597757 -0.44204956 -0.01480127  0.46860573 -0.5389504  -0.2775806
 -0.20894933 -0.20380874 -0.751745   -0.04024128 -0.20096707 -0.08987398
 -0.34079885  0.0818496  -0.22231907  0.04209377  0.28867525 -0.32908022
 -0.00342766 -0.42836484 -0.07533426  0.18059961  0.13866417 -0.42232797
  0.12317796  0.35691807  0.00928556  0.13173011]
layer 3 Activation
tanh
layer 4 Dense
40 20
[ 0.18649748  0.15322047  0.04396793 -0.08982384  0.12589186 -0.07746375
 -0.09761523 -0.06588839  0.07913934  0.14911926 -0.00498015 -0.06541768
  0.11618429  0.04632733 -0.075214   -0.01388135  0.25591433  0.09325502
  0.1158344   0.07786739]
[-0.24743024  0.20449787  0.10834839  0.06950387  0.11307186 -0.02530825
 -0.23550221 -0.49889818 -0.05531     0.5390096  -0.29845196  0.35682493
  0.01093284  0.08142819 -0.11155762 -0.15436731  0.09134471  0.24921809
 -0.27487803 -0.45366904]
[-0.05994682  0.0698512   0.08347793 -0.12801817  0.05142291  0.19270469
  0.12195172 -0.21601953  0.05660292  0.30061197  0.17679305  0.3425362
 -0.29465678 -0.02358225 -0.06767073 -0.04284624 -0.06829153 -0.11292733
 -0.16244073 -0.1818979 ]
[ 0.06254967 -0.04151624  0.01472665 -0.08249325 -0.22573267 -0.08132526
  0.07132994  0.08570108 -0.18815722 -0.1263252  -0.11777532  0.16456299
  0.03734639 -0.08634374  0.25433782 -0.00482058  0.16222292 -0.04746142
 -0.12399714  0.14786954]
[ 0.0848646   0.10698538  0.11120183 -0.08336656 -0.13095462 -0.05151389
 -0.07351333 -0.07043744 -0.09897904 -0.0458081   0.03968306 -0.1803439
 -0.2442766  -0.06705385 -0.15658633 -0.13361229 -0.14870743  0.20037095
 -0.14357457 -0.10598025]
[ 0.01674104 -0.02907009 -0.09944454 -0.03992053 -0.04858876  0.14568584
 -0.00338502  0.03511704 -0.10743782 -0.03472541  0.09255058 -0.08400676
  0.03806505 -0.04708331  0.22175188  0.11185827  0.13511683 -0.02908211
 -0.03050789  0.10616322]
[-0.03031659  0.21907182  0.23820373  0.3156233   0.18522939 -0.1313488
  0.10507502 -0.30596426 -0.03844906  0.33939666  0.08794407  0.10909603
  0.00410676  0.15554419 -0.11460184 -0.1313449  -0.22281267 -0.01727851
  0.15275279 -0.279099  ]
[-0.43297887 -1.0774816   0.06052841 -0.2450074   0.09564864 -0.12957777
  0.15844058  0.9896911   0.05099861  0.75722003  0.2164892   0.23572372
 -0.9330719   0.12218329  0.00593146  0.19237521 -0.26674667 -0.12212969
 -0.19627133 -0.0064542 ]
[ 0.24361148  0.14387706 -0.05294546 -0.08829621 -0.11757032  0.31991625
 -0.07278451  0.06514914  0.08060634 -0.1573206  -0.04890972 -0.27702573
 -0.03063266  0.04531938  0.0454247  -0.03868019  0.03419917  0.07732213
 -0.06538565  0.13409886]
[-0.06242448  0.00054996 -0.15874663 -0.05793246  0.09850995  0.04737657
  0.05123506  0.0441789   0.00686231  0.18322538  0.08700468  0.23325127
  0.46935868  0.01981099  0.20850973  0.249199    0.02665741  0.3260477
  0.08234821  0.358036  ]
[-0.37351358  0.0535467  -0.06593312  0.02688911 -0.07499837  0.03771444
 -0.14979531 -0.05702139  0.1109172   0.12685238 -0.11022799  0.10363609
  0.06605345 -0.07437396 -0.01014783 -0.07589346 -0.18440409  0.1343854
  0.01075421 -0.06532121]
[ 0.06242717 -0.8452345   0.0094859  -0.01987343 -0.06655823 -0.02916308
 -0.09029073  0.37372532  0.03902489  0.04338895 -0.01635298  0.16072005
 -0.20326746  0.21996455 -0.04550387  0.7966894   0.10465782 -0.1120085
 -0.10268222 -0.00380475]
[ 0.00220767  0.01952719  0.0232077   0.03098007  0.09597196 -0.02564993
  0.11416547  0.11258402 -0.02019701  0.03560619  0.03182498 -0.01729884
  0.02713775  0.04261478 -0.10274562 -0.16722044 -0.02582086  0.09227794
 -0.07368436 -0.10096316]
[ 0.24886581  0.04067337  0.26251915  0.02456263  0.15528357  0.01759783
  0.15997942 -0.15829983  0.23235813  0.14636052  0.15674527  0.32041565
  0.18560876  0.1749969  -0.0395993  -0.17600885  0.4223632   0.18018697
  0.23999901  0.10870275]
[ 0.11390298  0.4863872  -0.11158368  0.15467425  0.22968097  0.1004735
 -0.19768406 -0.41296145  0.0032297   0.36128458  0.09594156 -0.00829308
 -0.14962916  0.09110989  0.08210898 -0.334903   -0.04489078 -0.13895595
 -0.14225239 -0.16941524]
[ 0.06815715 -0.3539812   0.38519004  0.02670883  0.04517794 -0.06362864
  0.2418558  -0.24901998 -0.07845639  0.00790998  0.07885957  0.21190411
  0.10066951  0.03531871 -0.15418464 -0.00452173 -0.15778808 -0.05514147
  0.08189936 -0.21278471]
[ 0.2082887   0.7423356   0.11293403 -0.11077336  0.22457473  0.08956412
 -0.03209456  0.14276126 -0.30814356 -0.22168124  0.02971269 -0.24154088
  0.0090807  -0.24887298  0.34587044 -0.3621218   0.3779604  -0.11724321
  0.22644305 -0.21193588]
[ 0.12881285  0.36823255  0.14173672  0.15751265  0.17372598 -0.19441266
  0.14271079  0.11644993  0.10891648 -0.21737404  0.12004815 -0.0273468
  0.01809646  0.18742235  0.06719671 -0.22967583 -0.20246156  0.09133617
  0.26869258 -0.1644753 ]
[-0.0342619   0.06961445 -0.30540314 -0.06046975 -0.06482203  0.0035459
 -0.1817701   0.04034324 -0.00496035  0.0049376  -0.0905973  -0.2530171
  0.04150425 -0.01704017  0.20353109 -0.12831528  0.09959611  0.08388843
 -0.10264501  0.12229729]
[ 0.05489136  0.04158279 -0.20544659  0.02676181 -0.06807811  0.0774131
  0.03318623  0.1055214   0.00780853 -0.04598396  0.10171627 -0.2744765
 -0.0465127  -0.02832207  0.15203731 -0.08526018  0.14531262  0.01858534
  0.2126465   0.09754336]
[-6.7831561e-02  3.5493571e-01  2.0454983e-01  9.4279043e-02
 -3.5234977e-02  8.3369195e-02  4.8436850e-04  7.8011423e-01
  1.6057137e-01  3.3680287e-01  1.5453285e-01 -6.4500812e-03
  1.7212503e-01  1.7747632e-01  2.6474204e-02 -3.4310919e-01
 -4.8788413e-01  5.5915233e-02 -1.8687944e-01  6.4070421e-01]
[ 0.10956802 -0.02027464  0.03677452 -0.05824284 -0.06983805  0.17382792
 -0.05068705  0.5022138   0.00709661 -0.2654304  -0.07625967 -0.28064835
  0.11450905  0.3166554  -0.2794406   0.05049952  0.1574872   0.05856591
  0.00821945  0.02185087]
[ 0.07255196  0.030558   -0.16727473  0.04939178 -0.0814658  -0.11999311
 -0.02093308  0.11127657 -0.0480182  -0.07498143 -0.16692163 -0.34212482
 -0.09285704 -0.17196     0.14643443  0.09036621  0.12030233 -0.14885098
 -0.1138839   0.19692507]
[ 0.03120925 -0.00469387 -0.20549849  0.1526717  -0.05760306 -0.12052301
  0.1461476   0.15565537  0.10520792 -0.05793341  0.2239411  -0.17935869
  0.05233385 -0.03572718 -0.03611592  0.04700769  0.27307215 -0.09184207
  0.12785617  0.09324014]
[ 0.21458332  0.40416613 -0.17457284 -0.09051123 -0.08423106 -0.2900375
  0.00496065  0.09931319 -0.00091389  0.25369343 -0.173671   -0.29068446
 -0.22976518 -0.00669425 -0.0868132  -0.27484205 -0.18055442 -0.03415225
 -0.07953117 -0.18911745]
[ 0.09439722 -0.01075229 -0.23279151  0.02971953  0.079982    0.057911
 -0.01293651  0.14916962  0.1318025  -0.06170362  0.06063337 -0.29759106
  0.33728066 -0.09214209  0.12162142  0.08723014  0.08108089  0.01831347
  0.04693985 -0.00443217]
[ 3.79867107e-02 -1.09699331e-02 -6.87498003e-02 -5.19801397e-05
  1.21759595e-02 -2.09813640e-01 -4.40091640e-03  1.17893495e-01
  1.26351908e-01  1.18996024e-01  2.01371506e-01  1.45456111e-02
  1.47553802e-01  1.96088597e-01  1.97613597e-01 -1.51955888e-01
  2.87169278e-01  1.49938203e-02  8.95684659e-02  2.34174326e-01]
[ 0.02942192  0.02495107  0.33029568  0.15386465 -0.09250217 -0.10864975
  0.01652006 -0.09725092 -0.1201977   0.15246083  0.11897435  0.37807652
 -0.45865288 -0.08951497 -0.16855177 -0.05468323 -0.10182737  0.1922928
 -0.00814912 -0.27062958]
[-0.17792813 -0.03142305  0.04543277  0.04893898 -0.0559636   0.00521258
 -0.21277338 -0.09632437 -0.02101932 -0.02921828 -0.1728913   0.18948668
 -0.04459945 -0.08029571 -0.01082488  0.08793324 -0.15914232 -0.03498129
  0.06421491 -0.07021613]
[ 0.1606614   0.6951107  -0.09823804  0.12736611 -0.10916351  0.11662299
 -0.16677554  0.20661655 -0.13880174 -0.42143002  0.06249322  0.22568685
  0.11573627 -0.06038405 -0.15000837 -0.5178709  -0.13134483 -0.03604236
 -0.01250182 -0.34645742]
[-0.00435335  0.17106202 -0.18958496 -0.04276248  0.32625082 -0.04198518
 -0.07686716 -0.05549582  0.02331032 -0.00161108 -0.18179536  0.00427678
  0.04408483 -0.05057763  0.05251264  0.01944777 -0.09183102 -0.03208897
  0.02242675 -0.10446338]
[-0.11998641  0.21467575 -0.20218882 -0.17595623  0.01139543  0.2212013
  0.15874214  0.11610329  0.01574945  0.17702164 -0.08130769 -0.12569074
  0.26731774  0.02951678  0.12203308  0.10856692  0.15080957 -0.03572868
  0.05520171  0.24296261]
[-0.23954414  0.10366314  0.21752366  0.14738926  0.02829695 -0.01793948
 -0.03557685 -0.2447126   0.00759341  0.33871734  0.0141285   0.23614804
 -0.05958132 -0.04794757 -0.3413793  -0.11633193 -0.01800694 -0.12682673
  0.04277393  0.0019293 ]
[-0.22623838 -0.19941899 -0.14597727 -0.1540352  -0.07839838 -0.05434667
 -0.15772879  0.04358343 -0.2314972   0.08159032  0.10218538  0.1038508
  0.37347427 -0.13556358  0.15630358  0.14314806  0.05300628 -0.03000752
 -0.14587538  0.11985956]
[ 0.06235926  0.42762265 -0.20366056 -0.10711392 -0.16227709 -0.04044165
 -0.21879326  0.51800025  0.02120885 -0.6709691   0.08978261 -0.01167127
  0.6848416  -0.14145218  0.14980528  0.13929176  0.45541665  0.07072789
 -0.01414659  0.28771535]
[-0.10791171  0.39286643  0.11776557 -0.09170926  0.12137355 -0.24408226
  0.3652296   0.12859863 -0.20703222 -0.4830862  -0.10026009 -0.03758539
  0.2957612  -0.11539666  0.0204641  -0.6605761   0.49811184 -0.13498972
  0.19853456  0.15667246]
[-0.07223152 -0.48346877 -0.12524459  0.00298766  0.2315516  -0.15738145
 -0.1991386  -0.2312888  -0.0109548   0.5206514  -0.1465523   0.01794029
 -0.5641663  -0.04768046 -0.18519425 -0.0037182  -0.2753274   0.06155566
  0.18779683 -0.32667157]
[-0.0590079  -0.3203523   0.39244348 -0.25042617  0.09526507 -0.15040103
  0.20562768 -0.35193968 -0.10406525  0.13106856  0.05181809  0.15772814
  0.22383644  0.2945625   0.07780051 -0.14616998 -0.45616218  0.00593007
 -0.16831231 -0.26172084]
[-0.02752752 -0.01062527  0.2956506  -0.00453078  0.14204037 -0.14665557
  0.1354644   0.03850225 -0.29943603 -0.08924679  0.01904103  0.07200784
 -0.06193411  0.10398836  0.15997757  0.03514828 -0.08552305 -0.10627138
  0.0370441   0.1252648 ]
[ 0.01125731  0.04102949 -0.08021863  0.04475304 -0.28114533  0.23548989
  0.12413627  0.01474577 -0.24450585  0.19384016 -0.0621233   0.18863872
 -0.04279219  0.00456613  0.01231034  0.366426   -0.23385316  0.03670126
 -0.05812163  0.02766519]
[-0.02826016 -0.5721695   0.07602844  0.09874957  0.07749511 -0.2469677
  0.01876223 -0.37470186 -0.11365525 -0.35545176 -0.00705608 -0.03061861
  0.10168672  0.09515131 -0.10662409  0.25739706  0.01465675  0.00261856
 -0.05957971 -0.37795073]
layer 5 Activation
tanh
layer 6 Dense
20 1
[0.03161898]
[0.2401561]
[0.04050492]
[0.03020436]
[0.02185715]
[0.00842615]
[-0.00399855]
[-0.17488958]
[0.00746951]
[-0.16921934]
[-0.01975332]
[0.01061768]
[0.11310416]
[0.0023407]
[-0.0177358]
[-0.09314492]
[0.08865772]
[0.02527995]
[0.01806829]
[-0.08871153]
[0.37309453]
