layers 7
layer 0 Dense
20 20
[-0.18933608 -0.35142547  0.11234149  0.24245967 -0.18536632 -0.21028124
 -0.10325153 -0.13208401  0.20996718  0.29897988  0.1290158   0.4239058
  0.09808518 -0.14915681 -0.05156868  0.11908015  0.18415223  0.09528531
  0.23584327  0.1609033 ]
[-0.37735802  0.03454858  0.30316547 -0.24292198  0.17102249 -0.42102635
 -0.24840188  0.27616152 -0.33112663 -0.5437806  -0.24859653 -0.38414863
 -0.04647629  0.12558787  0.46146128  0.18298686  0.00474974 -0.17403838
  0.7187697   0.27765232]
[ 0.11214671  0.23753144  0.32305548 -0.2584836   0.07091707 -0.03344197
  0.02586877 -0.2201691  -0.01155178 -0.51728255 -0.44913286 -0.45678356
  0.18153311  0.06330125  0.30660444  0.20045948  0.2540039   0.05898944
  0.66660815 -0.21456283]
[-0.19062772  0.23833059  0.09237835 -0.19846794  0.1269644  -0.26382738
  0.06823871 -0.19098386 -0.04773011  0.38590086 -0.28452274  0.45445794
  0.24326366 -0.20097758 -0.1318458  -0.0674565   0.02032293 -0.23748447
  0.02577424  0.10968967]
[ 0.19131833 -0.05051234  0.12307473  0.45741287 -0.03165963  0.09271887
  0.21844609 -0.33976665  0.05393113  0.21131141  0.14876604  0.3409115
  0.19222158 -0.5735328  -0.20292078 -0.08732334  0.01796114  0.00879788
  0.06013646  0.297385  ]
[-0.17009862 -0.4167954  -0.1945642   0.21348193 -0.04367087 -0.0618432
 -0.39774194 -0.25630382  0.03288193  0.20855486 -0.01277313 -0.04784802
 -0.0973613   0.21741277 -0.30399907 -0.34992713 -0.4543894  -0.3191723
 -0.10676724  0.08713303]
[ 0.54202974 -0.36320865 -0.1779016  -0.3091814   0.21549362  0.04509246
 -0.47454146 -0.02861921  0.08098049  0.31743893  0.42082834  0.49361563
 -0.33456215  0.10305601 -0.0564387  -0.5569118  -0.2082957  -0.23052011
 -0.40181708 -0.04036452]
[ 0.6171929   0.15824021 -0.20665902 -0.49243617 -0.07857049  0.58367044
 -0.18183133  0.3271073   0.34208727 -0.34151754  0.25008193 -0.2326831
 -0.2770917   0.07417417 -0.10641867  0.43415284 -0.25230724  0.19175859
 -0.3147982   0.362591  ]
[-0.41456115 -0.14358872  0.01978182  0.22023603  0.04905855  0.37528998
 -0.26536122  0.20282105  0.22341101  0.65059125 -0.48371375 -0.2745144
 -0.01080409 -0.18572472  0.01565584 -0.11475871  0.11252384 -0.53524345
  0.6343446  -0.44449827]
[ 0.01999258  0.18181157 -0.33520734  0.07898574 -0.24678746  0.09900863
 -0.24634013 -0.0980376  -0.11071341  0.02856871 -0.07489039 -0.23217265
 -0.21842156  0.05882071  0.13701731  0.3408128   0.46020615 -0.05022744
  0.02230381 -0.09992946]
[ 0.19831637  0.46007636 -0.30097356  0.04173575 -0.19192101 -0.3127679
  0.23408926  0.3562005  -0.02133569  0.02621231 -0.13922879  0.0727785
 -0.3561843   0.17486632  0.1287776   0.46921012 -0.14262967 -0.03750513
  0.04375415 -0.5760177 ]
[-0.9101789  -0.760234    0.01380835 -0.5042685  -0.13215393  0.37906396
 -0.66957456 -0.23868711  0.10509048  1.3857087  -0.7874479  -0.5065421
  0.22865023  0.13018502  0.16168363 -0.27827978  1.1740266  -0.94912225
  1.005291   -0.6556304 ]
[-0.0098164  -0.10357217  0.01580404 -0.1111114  -0.18843478 -0.39550504
  0.10810846 -0.161876   -0.16288146 -0.16867268 -0.09736181 -0.10312633
  0.12710387 -0.00298337  0.15221374 -0.21187396 -0.34455338  0.71877134
 -0.8044438   0.21461828]
[-0.04119519 -0.12138274  0.13884301  0.36386114  0.03916693 -0.01968241
 -0.24861108 -0.05023069 -0.12968378 -0.03060247 -0.29165137  0.43225977
 -0.2738463  -0.18945788  0.1052857  -0.2797777  -0.13043475 -0.20283034
 -0.13037182 -0.09122156]
[-0.035616   -0.16199726  0.2717151  -0.1434538   0.02196747  0.29682675
  0.02772238 -0.07052199 -0.27012184  0.07063133 -0.21010318  0.01009714
 -0.09885773  0.20747139  0.12379301 -0.22529115 -0.2902325  -0.43697563
 -0.15578388  0.6012561 ]
[ 0.18057908  0.6951726  -0.15743902 -0.11113638 -0.12534198 -0.44885173
  0.11646584  0.03602565 -0.06293768 -0.39134222 -0.10433333  0.15322672
 -0.36330935  0.16268481  0.44921657  0.31930974 -0.5904319  -0.09144225
 -0.5877457  -0.14603332]
[-0.21532044 -0.25897425  0.07794883 -0.33205888 -0.12896056  0.42309827
  0.29179552  0.04542204 -0.25617123 -0.46215788  0.13951588 -0.01895174
  0.14763203  0.36457586 -0.44209003  0.3417082  -0.19123475 -0.2182454
 -0.11253001  0.40079564]
[-0.16528763  0.4306974  -0.06767549 -0.232735   -0.04397431  0.09365872
  0.12222202 -0.19762123  0.18743877 -0.05267203 -0.38243365  0.1836611
 -0.15316574  0.24724911 -0.26956928 -0.2785819  -0.0134337   0.11530643
  0.18074678 -0.5857985 ]
[-0.267246   -0.07298079 -0.18159579  0.09411324  0.00564067  0.3725045
  0.28504792 -0.22171053  0.19401002  0.11278827  0.05906169  0.31246594
  0.22000617  0.1360325   0.18654679 -0.01277184 -0.38687184 -0.10769873
  0.13736045 -0.04676846]
[ 0.5370033  -0.07308028 -0.17536272 -0.60717624  0.5559445   0.76787627
 -0.02104004  0.21260606  0.21914238 -0.4837512   0.5676873  -0.08603253
 -0.01766076  0.8556633  -0.34545174  0.75646365 -0.3520948  -0.01097544
 -0.4639276  -0.04253802]
[-0.18819623 -0.04428098  0.03185105  0.09276602 -0.00554322 -0.09989692
 -0.14785355 -0.02650157  0.03720906  0.22435205 -0.13002682  0.06666539
  0.03133971 -0.06709997  0.11830927 -0.07810486  0.04326135 -0.07580111
  0.22454734 -0.06697397]
layer 1 Activation
tanh
layer 2 Dense
20 40
[-0.17971902  0.00690951  0.08167605  0.27411696  0.30809662 -0.18237938
 -0.17287163  0.10343698  0.04443094 -0.3529671  -0.15117063 -0.21672054
  0.13139969  0.14391205 -0.12409593  0.16397677 -0.23894818 -0.04452367
  0.02380132 -0.34205672  0.39987126 -0.15444921 -0.00269243  0.15728386
 -0.25152418  0.20647001 -0.15538292 -0.27073076 -0.24973385  0.03066943
 -0.32160896  0.09683023  0.03264052  0.21744943  0.16905329 -0.07986727
 -0.3739897   0.17353095 -0.05900565  0.24608363]
[ 0.32364392 -0.03351877  0.17499919  0.40142187  0.26635015  0.0440842
 -0.13259743 -0.11615479 -0.31611857 -0.01865945  0.16439503 -0.10367757
 -0.12934206  0.1937406   0.18550965 -0.22985579 -0.00451947  0.02791463
  0.05370204  0.00686553  0.11120936 -0.0892934  -0.16094297  0.14199193
  0.05450496 -0.07383357 -0.0023574  -0.2108798  -0.14524032 -0.12992802
 -0.14154285 -0.05531982  0.18053676 -0.02639895  0.02427063  0.2555756
  0.3537455  -0.18450186 -0.03821879 -0.01634199]
[ 0.13450857  0.03634924  0.19067149 -0.0765488  -0.26397797  0.10327207
 -0.20688564 -0.05887777  0.40848508  0.05145018  0.2354756   0.07676588
  0.06383808  0.23047318  0.15390804 -0.25961778  0.07289445  0.03737244
 -0.09742196 -0.06511619  0.23948966  0.04207071 -0.05205605  0.03261394
 -0.22494455  0.10319679 -0.174071   -0.13900168 -0.07036544 -0.04261012
  0.02399125 -0.22183366 -0.07750395 -0.13344933  0.02277002 -0.01137076
  0.00427591 -0.00573346  0.06918747  0.2577456 ]
[ 0.28290567 -0.1998904  -0.1018429   0.04889258  0.24935268 -0.3122999
  0.08506745 -0.02616318  0.07800964  0.0182922  -0.04445645  0.16993333
  0.20883511  0.10274172 -0.15490724  0.07986439  0.25637627 -0.06443845
 -0.08141628  0.18387619 -0.14724916 -0.26613197 -0.1589556  -0.05147874
  0.01445964 -0.26852354 -0.18984942 -0.04098657  0.11958162 -0.02858751
 -0.11934192 -0.04578316 -0.14850125 -0.08164609 -0.08915792 -0.00512851
  0.17609727 -0.21218227  0.0360025   0.00583753]
[ 0.15130179 -0.19330953 -0.21711725  0.05290169 -0.34413865 -0.10756691
  0.04979417 -0.33926582  0.19310749 -0.16531189  0.25916687  0.17688811
 -0.00355473 -0.25683787 -0.12361658  0.00563177  0.01591571 -0.06376696
  0.0455692  -0.04797413 -0.22674072 -0.0957221  -0.22076531 -0.27879393
 -0.00402507 -0.03176131  0.24033396  0.11446609 -0.12703879 -0.02127389
  0.07767101  0.05636337 -0.2949157  -0.06727998  0.0689151   0.36963314
  0.21194062 -0.05098632  0.12187582  0.09533878]
[-0.09271488 -0.04733854 -0.14376724 -0.37296894  0.2152708  -0.03106112
 -0.11941843 -0.201469    0.1306556   0.1641189   0.17764853 -0.17918721
 -0.3237112  -0.10804541  0.14915878  0.02776039  0.06293693 -0.1774894
 -0.40413922 -0.33562303 -0.24290976 -0.2041662  -0.04757999  0.39463905
 -0.05912405  0.43260223  0.0133234  -0.28698292  0.13765706  0.09588604
 -0.22389969  0.17604995  0.27609727  0.02915602  0.03031335 -0.61387664
 -0.4352094  -0.00961893 -0.05060928 -0.23772304]
[ 0.19827782 -0.04525733 -0.21887045  0.33392563 -0.05634508  0.21641745
 -0.11165045  0.0479135   0.138218   -0.11448254  0.23954552 -0.01504807
  0.22027268  0.2633127  -0.04546004  0.3144137   0.06350584  0.38102344
  0.16923669 -0.02145068 -0.08059696 -0.250782    0.2567111  -0.03326498
  0.01509124 -0.18054031  0.03129685 -0.01426405 -0.05242397  0.25599968
  0.06354587  0.03948628 -0.21930468  0.0051588   0.28345427  0.31723076
 -0.02108151  0.11937539  0.23618902 -0.1458533 ]
[-0.08636567  0.09209662  0.01507971  0.01247208  0.17466174 -0.09615728
  0.2540026   0.283433   -0.19545889 -0.22184803  0.13703948 -0.45018047
  0.04811434  0.09113624  0.01725716  0.12123837  0.02968575 -0.02776217
 -0.15246113 -0.30162418 -0.29267958 -0.0697242   0.08765205  0.3174639
  0.06106223  0.33194038  0.1926242   0.12347759 -0.15641817  0.01080863
  0.10828716 -0.07082071 -0.11676756 -0.00879795  0.11241023 -0.42378962
 -0.1854224  -0.06602661  0.06142729 -0.05361931]
[-0.1041085   0.00318997  0.19220011  0.10816152  0.18183796 -0.1835322
 -0.03766245 -0.252788    0.08739948 -0.05570654 -0.01303976 -0.09003599
  0.18896383 -0.05527788  0.22365859 -0.16823684 -0.08612571 -0.18715103
 -0.33786762  0.0443685   0.00721341 -0.19896045  0.0836814   0.10745144
 -0.25094914  0.07280641 -0.17803076  0.02531379  0.0795951   0.02578433
 -0.04454751 -0.16398767  0.14908192 -0.10544304 -0.08401693 -0.19688834
 -0.30081558  0.14143807 -0.19959481 -0.17912462]
[ 2.27118984e-01 -1.13164537e-01  9.72712338e-02 -2.21915722e-01
 -1.10822387e-01 -7.51753300e-02  1.19581506e-01  9.28735659e-02
  2.78667659e-01  2.35064179e-01 -4.29057419e-01  3.92001793e-02
  3.25663179e-01 -1.72810808e-01  1.95375592e-01 -1.47695139e-01
 -4.42240201e-02  3.40288550e-01 -2.68679485e-02  2.95481402e-02
 -3.80573004e-01 -3.03802729e-01 -2.36747831e-01 -4.12034333e-01
  1.13938563e-01 -2.10405573e-01  1.01587683e-01 -9.52512026e-02
 -7.67454952e-02  1.67261660e-01  2.42301673e-01 -3.44541855e-02
 -1.80773705e-01 -1.03626810e-01 -2.77254939e-01  2.58103698e-01
  1.45737439e-01  1.68636888e-01  7.81823765e-05  9.00085643e-02]
[ 0.32557073  0.10624025 -0.01516076 -0.03218713 -0.15873094 -0.30383
  0.40648618 -0.14355454 -0.21293297 -0.27507535  0.1178731   0.03928806
 -0.03203219 -0.32329112 -0.0194283   0.06412247  0.02486067  0.07408264
 -0.36574423 -0.16983955  0.13640851 -0.19317542  0.0309824  -0.06171069
 -0.26264206  0.43045714  0.23721841  0.18228401 -0.16458157  0.2284566
 -0.35003486 -0.01548416  0.00098831  0.14107193  0.1796952   0.01142324
 -0.2470954  -0.3030594   0.14286408  0.17548077]
[ 0.1400903   0.12517202 -0.11543208  0.03648656 -0.4847994  -0.04505832
  0.00759036  0.16639264 -0.25167373  0.18113805  0.02212677  0.17987713
 -0.016034    0.20230691 -0.12500823  0.02399485  0.07170704 -0.12263048
  0.44651315 -0.00507218 -0.30912024  0.16571161  0.01468215 -0.13713153
  0.35258162 -0.07207579 -0.23934823  0.20092219 -0.21225284  0.3471374
  0.16046259 -0.45246762  0.10912066  0.3327971  -0.15992843  0.45215154
  0.10290423  0.06537779 -0.14552706 -0.20269269]
[ 0.08003723  0.24532431 -0.09165835 -0.02008965 -0.3661247   0.1927182
  0.06423299 -0.26215518  0.17551501 -0.0847515  -0.13668987 -0.10990528
  0.25479487 -0.21153878  0.18599898  0.07905588  0.1155085  -0.03607798
  0.43746546 -0.11840277  0.08077468 -0.16252804  0.17955214 -0.2186302
  0.34373543 -0.22977717 -0.15341675 -0.2420864   0.25655693 -0.1279844
  0.00837595  0.10792875  0.05551256 -0.28892997  0.2904848   0.3813323
  0.23737562 -0.19809538  0.15843087  0.01723718]
[-0.11718036 -0.08317659 -0.13679886 -0.05352105 -0.31752685  0.10867999
  0.19964918 -0.32941598 -0.3527941  -0.13060471  0.07980309 -0.08287464
  0.05373399  0.05848613  0.20982726  0.1102747   0.02639387 -0.03713652
 -0.33590382  0.13783467  0.09652975  0.29121166 -0.20276383 -0.0426471
  0.07993296  0.06726917 -0.09246843 -0.31586802  0.08374342 -0.16659811
 -0.40827003  0.15376179 -0.09919428  0.07638835 -0.27165404  0.13469921
  0.00250757  0.02325501 -0.17151152 -0.15133189]
[ 0.03483077  0.05117697 -0.244396    0.34815997  0.34115112 -0.17238995
  0.09108172 -0.04346171  0.15410355  0.04533911 -0.2674687  -0.09868862
  0.01855087 -0.03302562  0.06545235  0.03820429 -0.126854   -0.12652549
 -0.04850578 -0.16043225 -0.2657959  -0.05225705  0.01906826  0.01043161
  0.18836305  0.06246471 -0.01682895 -0.09536383 -0.14579836 -0.06738947
 -0.05943389 -0.05061787  0.0304034   0.03867245  0.23017323 -0.22378603
 -0.13654654  0.03817464  0.17362589 -0.11119356]
[-0.11572452 -0.05385213 -0.0828179  -0.11704633 -0.21449144 -0.16113156
 -0.01774993 -0.04979464 -0.31667507 -0.27537656  0.21768296  0.02172121
 -0.04946775 -0.21113676  0.01615204 -0.18416929 -0.15120496 -0.24229188
 -0.03254828 -0.32800078  0.0635874   0.01048577 -0.13059944 -0.16867997
  0.06140323  0.35627973  0.04309446 -0.2884144  -0.28184086 -0.22531039
 -0.04031415 -0.17109944  0.21091068 -0.22309375  0.2615164  -0.15428506
 -0.00912481  0.11540511  0.07769634  0.16316386]
[-0.0088557  -0.04417562  0.26109365 -0.45043054  0.23253684 -0.22974356
 -0.12019169  0.0432444  -0.09118432 -0.16668797 -0.01007552  0.00911544
 -0.14523049 -0.1171668  -0.10053419  0.22835709  0.09336487  0.2280602
  0.15364213  0.05999829 -0.24240878 -0.1941709  -0.3755371  -0.24132723
  0.17277028 -0.04508971 -0.0044537   0.12526667 -0.26846182 -0.04974441
 -0.1823482  -0.06805902  0.20751853  0.10293526  0.19513215  0.40073842
  0.18537778 -0.2523211   0.11201344  0.04226254]
[ 0.00998085  0.04348236 -0.12458292  0.3962968   0.4041602   0.010609
  0.18655537  0.25231677 -0.16777334 -0.01998389  0.06152531  0.06516704
  0.03628074 -0.03212909 -0.17583704  0.08165716  0.11303695  0.31926128
 -0.22001113 -0.22943275 -0.00312747  0.17310417  0.18322898 -0.08794688
  0.03219579  0.2143683  -0.14483002  0.194552   -0.01691985 -0.12712458
  0.00278968  0.01969139 -0.0470968  -0.11779997 -0.02203377  0.05468125
 -0.0367445  -0.13512519  0.11278131 -0.00483506]
[ 0.25301275 -0.32022393  0.30308172 -0.6337045  -0.17738543  0.33066335
  0.08716002  0.02864607  0.33683255  0.20001666 -0.2861298   0.14000139
  0.12378261  0.20374908 -0.05795662 -0.24915081 -0.10307784  0.33440793
  0.32805476  0.08468461 -0.48427945 -0.12011324 -0.1729968  -0.10234319
  0.40134674 -0.6117398   0.19416155  0.42258024 -0.09613067  0.03247866
  0.08227419 -0.13813835 -0.3118218  -0.10298874 -0.25098768 -0.18198498
  0.09445167  0.2920047   0.20232669 -0.13122238]
[ 0.17669986 -0.10371173 -0.02731309  0.13091111 -0.415982   -0.0994646
 -0.20199002  0.06706192  0.23197415 -0.2127033   0.18041125  0.35030153
  0.11463095 -0.05922965 -0.08759584 -0.04951588 -0.21687703 -0.01247572
  0.02611189  0.100003    0.37294227 -0.04473638 -0.05283676  0.17690904
 -0.2676369   0.28530928  0.00871552  0.11878346 -0.01770843  0.01801745
 -0.08599123 -0.00202273 -0.17353313 -0.24014112  0.10275756  0.08388964
 -0.00782731 -0.02916276 -0.21919338 -0.12500031]
[ 0.27019858 -0.0064046   0.02225328  0.01774267 -0.15922986 -0.00182729
 -0.05198209  0.01287041 -0.01457106  0.06072655 -0.04868473  0.08248156
  0.15468706 -0.04593079 -0.02487634 -0.09682968  0.05007956  0.06724565
  0.44521016  0.1547852  -0.10634778 -0.04082111 -0.27974054 -0.31050056
  0.1121795  -0.23728743 -0.1081951   0.1721899   0.05327173  0.07890674
 -0.06913029 -0.25270715 -0.0372647  -0.00373703 -0.10257385  0.5662254
  0.25802383  0.02108453  0.11956996 -0.0847761 ]
layer 3 Activation
tanh
layer 4 Dense
40 20
[-0.15629493 -0.31109536 -0.09083752 -0.0998965  -0.22961493 -0.11640211
 -0.26372537 -0.27174863  0.14652525  0.21893062 -0.37257946 -0.0341562
  0.39193383 -0.31264767  0.25585365 -0.11940922 -0.28980845  0.02287725
  0.26851004  0.0862068 ]
[-0.19894867  0.08523095  0.07402581 -0.03672063  0.13389958  0.18192846
 -0.1065997   0.20263399 -0.2161996   0.1472107  -0.16181332 -0.0317509
  0.26290607 -0.11738497  0.0440348  -0.07838021  0.2322039   0.26264885
 -0.03096764 -0.00638768]
[ 0.15475462 -0.1319613   0.2808044  -0.14428404 -0.02686504  0.14971389
 -0.11302403  0.09308667 -0.16170944 -0.3102912   0.101808    0.35769868
  0.23487052  0.04231545  0.011774    0.15156253  0.1505405  -0.06904327
  0.2223987  -0.17204963]
[ 0.14740074  0.23953782 -0.0085203  -0.07863085 -0.36330506 -0.46502426
 -0.06688473  0.0454071  -0.13613762 -0.03518473  0.04803915 -0.01380118
 -0.01734494  0.03883553 -0.3083275  -0.10727803  0.08301368  0.2848816
  0.23423448  0.29413283]
[ 0.11468665 -0.2005738   0.20418417 -0.08330002  0.19703996 -0.21889344
  0.22525391 -0.05911368 -0.03910526  0.07334512  0.31010592  0.13443947
 -0.26219305  0.08901908  0.13417788  0.2029001   0.24585246 -0.2703776
 -0.2661759   0.2848613 ]
[-0.1379286  -0.16007976  0.2722318   0.2168708   0.09134179 -0.22173111
 -0.06456818  0.20686404 -0.02482081  0.20282586 -0.07728934 -0.00837069
  0.10979352 -0.05343818  0.15804358 -0.03710442  0.14865531 -0.10407824
  0.14158899 -0.29306203]
[ 0.17248403 -0.09664778 -0.20069939  0.188115    0.12222622 -0.08099668
 -0.20312615 -0.1509338   0.17676811 -0.19960645  0.02831592  0.2396254
  0.13815601 -0.25587183 -0.31758657  0.06444279 -0.16870664  0.12451012
  0.24298474  0.05943563]
[ 0.02721531  0.1224663  -0.13845862 -0.21114962 -0.33832985  0.08878013
  0.09133396  0.06560661  0.05399483 -0.0988167   0.23888673  0.10140917
 -0.11254573  0.00377206  0.16062151  0.0804076  -0.1490812   0.2504755
 -0.13428736 -0.07705422]
[ 0.12065009 -0.31339714 -0.21909806 -0.15394287  0.31900808 -0.04283555
  0.08764942  0.383965    0.13381381  0.09064751  0.2158977   0.1686713
  0.16627346 -0.19310592  0.3129144   0.2607332   0.07467959 -0.2341151
 -0.13183251 -0.01650557]
[-0.18305844 -0.02419868 -0.10336761 -0.29105842  0.03604029  0.05036353
  0.0455271   0.276742    0.01311198  0.16184583 -0.2731083   0.09507523
 -0.07568784 -0.19677834 -0.01636658  0.22911693 -0.16171545  0.2452257
 -0.2321141  -0.18146443]
[-0.3022097   0.26001102  0.14984106  0.01960443  0.08522951 -0.26644954
  0.00189897 -0.25746977 -0.17540513 -0.1446155  -0.25808454  0.02511972
  0.12132496  0.07085098 -0.2389113  -0.25481504  0.06975729  0.164679
 -0.25758535  0.10295141]
[-0.23467201 -0.15206698 -0.19874008 -0.03279265 -0.18845257 -0.00428491
 -0.11895622  0.15499781 -0.17103803 -0.04904293 -0.22757773 -0.04968486
  0.1496736  -0.1370658  -0.0388738  -0.21531273  0.00167205 -0.07147299
  0.21549554 -0.02760674]
[ 0.09239395 -0.14807522  0.05892151 -0.00250465 -0.02158163 -0.09128779
  0.1072988   0.06849121 -0.09769117 -0.1109801  -0.10961035 -0.08044285
  0.23845142  0.22886334 -0.04948268  0.19647041 -0.00605465  0.25995114
 -0.09493016  0.2098467 ]
[-0.19250739 -0.23626368  0.1799151  -0.27751774  0.06206422 -0.01528776
 -0.06460395 -0.19566238 -0.02711273 -0.09326321 -0.06317628 -0.36450577
 -0.08669239  0.01605614 -0.06595399 -0.16580124 -0.20895314  0.18838327
 -0.19569609  0.17154644]
[ 0.01738437 -0.02856963 -0.10225191  0.06678226  0.08342671  0.11915307
 -0.04628211  0.33977252  0.11723725  0.08129565 -0.08069328 -0.01240927
 -0.14193891 -0.14590321 -0.06112614 -0.03207012  0.13564964  0.12157217
 -0.22762288  0.25538686]
[-0.25325507  0.34034917 -0.02561799 -0.2980325  -0.12672411 -0.00090863
 -0.00834236 -0.10632859  0.24230188  0.22828457  0.1887642  -0.11048695
  0.07968516  0.11906516 -0.14804468 -0.20298164 -0.08456651 -0.23583405
 -0.15663849 -0.15734114]
[ 0.1279179   0.00696709 -0.06424662  0.03320621 -0.26064885 -0.02302301
 -0.02905487 -0.31738752  0.14139223  0.18945074  0.16245478  0.13727583
  0.28107035  0.17658518  0.2525351   0.04413738  0.10727672 -0.10858063
  0.13493586  0.00639697]
[-0.06211298 -0.30413744  0.01193011 -0.14516926 -0.27380165 -0.09589566
  0.09652715  0.30750784  0.2292624  -0.11241621  0.09650428 -0.0211776
  0.13678846  0.28408128 -0.11801551 -0.09952606  0.13847591  0.10576195
  0.03437603  0.3007686 ]
[ 0.23039125 -0.22346373 -0.09364336  0.32623163 -0.33418164 -0.05071831
  0.17725964  0.25153598 -0.18106204 -0.12038379 -0.22929046 -0.1013046
  0.47176188  0.17174062 -0.06147841  0.08563566 -0.23246019  0.10906236
  0.34043863 -0.35696325]
[-0.08427187 -0.26261008 -0.12470339  0.14161287  0.06949051 -0.17167763
  0.17339295  0.19987302 -0.1898783   0.0725152  -0.38514206 -0.0602158
  0.21900523  0.10490834  0.09357395  0.05755896 -0.02968772  0.29475015
  0.12124579  0.16716899]
[ 0.07073922 -0.22751655 -0.31107184  0.05684725  0.1612255  -0.3379904
  0.01935033 -0.33245534 -0.03876222  0.16264564 -0.07381643 -0.03296363
 -0.21138905  0.08489766  0.06981023 -0.41958648  0.13129179  0.17172828
  0.03542943  0.1444846 ]
[ 0.18525138 -0.05190707 -0.03687762  0.26162267 -0.06348911 -0.31480917
  0.15460113 -0.04919865 -0.09890643  0.13865466 -0.14010577  0.17814817
  0.16155823 -0.02176698 -0.09397948 -0.10465267 -0.04603828  0.03305147
  0.20284392 -0.24672045]
[ 0.00330729 -0.1112444   0.28633183  0.21743093 -0.33721045  0.28368586
 -0.03411647  0.03748899  0.24443053 -0.17482296 -0.19134346  0.1572217
 -0.23295791  0.0577646  -0.10654341 -0.18102646 -0.23563531 -0.30680725
 -0.2138078   0.22017618]
[ 0.19354235  0.20330441  0.36311147  0.13517277  0.03882664 -0.23222242
  0.05244055  0.07763264 -0.07731587  0.09063645  0.3445783   0.00045928
 -0.19453569 -0.14864439 -0.07501812 -0.13754714 -0.32892355 -0.3785776
 -0.12333373 -0.17615202]
[-0.1175435  -0.28373712 -0.31468424  0.04652864 -0.09877017  0.24279168
  0.2154532  -0.01170205 -0.12646239  0.23949507 -0.29434463 -0.08567549
  0.25245202 -0.1282952   0.15663801 -0.06356645  0.12192053  0.25386584
  0.03404251 -0.26459828]
[ 0.11518753 -0.19228676  0.37417367  0.09564922  0.32514468 -0.1229239
  0.18873501 -0.31888473  0.03246395  0.11651721 -0.12949012 -0.0307828
 -0.272277   -0.0386811   0.07079063 -0.23155594 -0.03658181 -0.04480608
 -0.3116636   0.10642034]
[-0.12461554 -0.07959304 -0.02971561  0.02941966  0.21890303 -0.21225719
  0.07965101  0.0242707  -0.10602618 -0.30648187 -0.14676686 -0.02514211
 -0.17428553 -0.09124457 -0.28737614  0.02953523  0.06657121 -0.08813796
 -0.02700539  0.29042926]
[ 0.1418323  -0.23886478 -0.27945575  0.1220136   0.14878227 -0.21747935
  0.21680811 -0.0227666  -0.0078385   0.0996464  -0.22721675 -0.17973927
 -0.00847461 -0.12519653  0.50863785  0.11539225 -0.2677044   0.2526598
  0.09296697 -0.16723333]
[ 0.03090054 -0.1195164  -0.25768894  0.00510381 -0.03314764  0.09818505
  0.24481264  0.12531732 -0.06258704 -0.02429505 -0.03843182 -0.2482802
 -0.20049953  0.25781366 -0.08286578  0.02009109 -0.13589707  0.07283878
 -0.0817486  -0.08889791]
[-0.25902286 -0.1698889   0.1449857  -0.02076473  0.04459979 -0.115673
  0.08789824 -0.18291679 -0.12796797 -0.03519171 -0.3080821  -0.02521534
 -0.02941449 -0.02201779  0.01465159 -0.1440881   0.03000066 -0.20548749
  0.1702544  -0.24203122]
[ 0.26044896  0.02160565 -0.00048214 -0.13665484 -0.20351098 -0.24585594
  0.07345077  0.10155384 -0.17497635  0.16843109 -0.36869547  0.2326782
  0.0102856  -0.21630791  0.09865     0.15259002  0.1645905  -0.00428687
 -0.1023997   0.0499149 ]
[-0.03721935  0.0702601   0.28118366 -0.23861495  0.25785735  0.0889901
 -0.02428103  0.08820395 -0.14481808 -0.17409968  0.32868394 -0.2526884
 -0.18992613  0.00625334 -0.24482816 -0.17823617  0.13613285 -0.00864841
 -0.24974556  0.13392942]
[ 0.09762333  0.20473352 -0.09824217 -0.17462063 -0.07393631 -0.07884584
  0.00684694  0.23034877  0.14310893  0.15568596  0.24570829  0.14765422
 -0.1409477   0.09966636 -0.07044291  0.00066045  0.30795947 -0.05625601
 -0.04967636  0.22391963]
[-0.09064195  0.25809094  0.17215954 -0.01051295  0.07813549 -0.1616135
 -0.04427176 -0.03074899 -0.02673674  0.2280073  -0.13606957 -0.47642347
 -0.31521496  0.06979827  0.311397    0.19983889 -0.2600313   0.16483068
 -0.15401226 -0.27225983]
[-0.06095574  0.17880873 -0.11123411 -0.09278677 -0.020448   -0.0407346
  0.09361386 -0.03083103  0.01620968  0.04353618  0.03848008 -0.09015214
  0.08349141 -0.11234732 -0.16810913  0.03216787 -0.13085042 -0.02307869
 -0.08124821 -0.1367621 ]
[ 0.11897369 -0.12914003 -0.16569808 -0.19175625 -0.12696625  0.31229505
  0.12645546  0.36604315  0.12854467 -0.13481069 -0.2944931   0.17211056
  0.2171698   0.1735404   0.4258657  -0.07610595 -0.06815967  0.3668571
  0.31670466 -0.21547842]
[ 0.17952904  0.22263111 -0.271686   -0.04892747 -0.2653884   0.08236574
 -0.05939219  0.33805302  0.24512754  0.01759002 -0.29972395 -0.11524054
  0.36401618  0.04267832  0.38321605  0.11203632  0.17217268  0.18441801
  0.21255691 -0.3349158 ]
[-0.16968289  0.00598814  0.21473235  0.25406495 -0.0207801   0.00378695
 -0.03121937  0.24620661  0.12652561  0.19371039 -0.03194685 -0.24254078
 -0.3480525   0.28720227  0.1091646   0.15306054 -0.23046908 -0.13959455
  0.02802994  0.21718295]
[ 0.14002337  0.09383084 -0.2669501   0.0106364   0.07832181 -0.00765944
  0.10221951 -0.0477566   0.135841    0.16354182  0.27367672  0.1609877
 -0.02300305  0.29555672  0.1351868   0.17959239 -0.02044077  0.13369918
  0.07348355 -0.29264444]
[ 0.0393367   0.06174648  0.04563447  0.01240956 -0.16127294  0.3744418
 -0.0034775   0.10115095 -0.20607391 -0.11172388  0.16151221 -0.03774579
 -0.09538399 -0.13517419 -0.08924202 -0.01867196 -0.07308715  0.12754366
 -0.24617155  0.2086428 ]
[-0.08550676 -0.01699331 -0.00487322  0.01265147 -0.1319664  -0.00103348
  0.04548635 -0.02368522  0.0547363   0.02439296 -0.21336514  0.09644526
  0.04769527 -0.03660036  0.17614478  0.02132232  0.03869247  0.11886837
  0.16710606 -0.03371917]
layer 5 Activation
tanh
layer 6 Dense
20 1
[-0.00166121]
[0.13276127]
[0.08403801]
[0.0548382]
[-0.07551098]
[-0.0366035]
[-0.00370755]
[-0.0509378]
[0.02986854]
[0.02264126]
[-0.13315384]
[0.02211732]
[-0.31207627]
[0.00332398]
[-0.00426539]
[-0.10828171]
[-0.00907494]
[0.18516402]
[0.3188117]
[0.03798229]
[0.01130634]
