layers 7
layer 0 Dense
20 20
[ 0.28795978  0.12548026  0.2109062  -0.07726154 -0.15637736  0.2232539
  0.45387194  0.09715679  0.03844172  0.22956777  0.13803753  0.13495292
  0.33277947 -0.24313168 -0.45155337  0.24715568 -0.37542078 -0.3476116
 -0.03039733  0.19256295]
[-0.01008764 -0.09448466  0.3512222  -0.11125636 -0.40585664  0.40803275
 -0.16256921  0.22684832 -0.01996579  0.3565643  -0.5144428  -0.12486299
  0.22584836  0.36536348 -0.4262108  -0.2695132  -0.21846277 -0.28777623
  0.29369512  0.3354164 ]
[-0.6815916   0.13610408 -0.1852728   0.5792474  -0.6334161  -0.03548188
  0.4919585   0.3812062   0.48911047  0.38611293 -0.56097233  0.11912227
 -0.16637042 -0.1415192   0.00926262 -0.22341564  0.41744915 -0.49062282
  0.0472474   0.5303812 ]
[ 0.22868654 -0.08638106 -0.22412552  0.23261182 -0.06937478  0.31037468
  0.42572984  0.4006711  -0.0551297   0.16347638  0.03501932 -0.25625825
 -0.24581914 -0.07708547  0.00669972 -0.06121223 -0.2972466  -0.21959516
  0.31896737  0.22839108]
[ 0.27800608  0.24351177  0.51438797 -0.00350279  0.07488314  0.39736447
 -0.3899624   0.0836215   0.05652582 -0.11276636 -0.17726153  0.05305013
 -0.03059945 -0.25206158 -0.11844125  0.13701531 -0.19302988  0.0988288
  0.4218691   0.20002355]
[ 0.40064865  0.5842466  -0.33417216 -0.27437237  0.70741385 -0.06766865
 -0.36083362 -0.22570272  0.11721478  0.16132239  0.41398937  0.44350126
 -0.17215669  0.0045192  -0.24788636 -0.03165165 -0.14631376  0.3957887
 -0.07425289 -0.11477973]
[ 0.59481895 -0.02502582  0.09850269 -0.23448753  0.43501496 -0.06597579
 -0.41883418 -0.09567288  0.16282406 -0.43899348  0.73361486  0.2288509
 -0.42362314 -0.49590755  0.28873396 -0.49727905 -0.13931352  0.711349
 -0.32312152 -0.7212323 ]
[-0.39095938 -0.41638514  0.18848355 -0.07435084  0.19417648  0.30051062
 -0.2619276  -0.28521904 -0.20813328 -0.02713183 -0.09579121 -0.20093967
 -0.38412264  0.39190933 -0.11841133 -0.07418535 -0.06553806 -0.2786583
 -0.21943979 -0.02424406]
[-0.51934046 -0.21554649 -0.2773286   0.12121272 -0.19352901  0.04017159
  0.04513258  0.15341143  0.1474807   0.10922232 -0.2939421  -0.17036125
  0.15097536 -0.19286506  0.0950522  -0.13764405  0.19201532  0.12512873
  0.25333133 -0.311815  ]
[-0.09638378 -0.39195994  0.5203849  -0.02214968  0.46574855 -0.35834822
  0.9170173   0.5533843  -0.2729172   0.04590978  0.495513    0.1448162
 -0.1946117   0.87439436  0.5499096   0.25555328  0.16489823  0.5014478
 -0.18947245 -0.19816533]
[-0.88663787 -0.47425216  0.2139492   0.5758178   0.6329419  -0.29658213
 -0.2548145   0.12960903  0.5943024   0.50119966 -0.09882543  0.17478703
 -0.47304708 -0.4072946  -0.22872928 -0.03689104 -0.09223605  0.5976482
 -0.31331524 -0.62935495]
[ 0.09460658  0.26964018 -1.0409572  -0.0071661   0.31543946 -0.39300585
  0.9369812  -0.27098167  0.09477878 -0.6199097   0.35454485  0.4880733
 -0.26819235 -0.47518116  0.6064019  -0.1723272   0.60277     0.3412724
 -0.8146676  -0.83092004]
[ 0.10953558 -0.16369714 -0.40585637  0.14359218  0.23789905 -0.31163
 -0.23726827 -0.07492222 -0.09114948 -0.07863011  0.38271374 -0.25717747
  0.1688481   0.07659893  0.02431763  0.07651859  0.06177813  0.35853803
 -0.5566327  -0.5544038 ]
[ 0.1364914  -0.13858327 -0.36127627  0.1706696  -0.40168902  0.44015798
 -0.02756183  0.51475734  0.52176183  0.24768804 -0.41433778  0.29138246
  0.29691896  0.10326358 -0.11038317  0.13388517 -0.13958916 -0.06631887
 -0.30377    -0.05706003]
[ 0.35855138 -0.18980515 -0.05176469 -0.38743424  0.5604556  -0.11054394
  0.14844082 -0.14213547  0.0795472   0.07066879  0.4874522  -0.35359025
  0.12537815  0.15262893 -0.07787997 -0.2953051  -0.29530138 -0.43808535
  0.12585561  0.42136964]
[-1.6858356   0.20519817  0.7645616  -0.06926206  0.21928304 -0.07781902
  0.04544596  0.60529095  0.2748142  -0.07051804 -0.5170839  -0.08236728
 -0.15918338  0.30858335 -0.6406508   0.03682597 -0.15584849  0.18237083
  0.30711228  0.1969347 ]
[-0.11640283  0.43674892 -0.07241888  0.35319456  0.07645923 -0.14836857
 -0.3426332   0.03828397  0.1191809  -0.08173195  0.23121841  0.32481852
 -0.29713967 -0.28014502  0.02175507  0.10915016 -0.03666046 -0.4351973
 -0.27971745  0.04364203]
[ 0.15170133 -0.02247824 -0.4291976   0.30654538 -0.12794206 -0.3039874
 -0.14377935 -0.20202136 -0.34248984 -0.39612272 -0.40637913 -0.05034875
  0.01225637 -0.35748997 -0.45788336  0.29797956 -0.0892792  -0.15950441
  0.24939281  0.19401094]
[ 0.53447527 -0.18688951  0.07813554  0.0895913  -0.40225196 -0.04965788
  0.5674671   0.23166493 -0.09055051 -0.18044712  0.35387087 -0.36707723
  0.2184356   0.0574874  -0.22358783 -0.28536037 -0.278999    0.40740696
  0.42830333  0.19864671]
[ 0.13143465 -0.15643305  0.292175   -0.12170467 -0.71371084  0.15241009
 -0.22150604  0.0950781  -0.02213098  0.2869494  -0.68783635  0.19589111
  0.38668677  0.5526154  -0.2378833   0.01364599  0.38724816 -0.04175698
  0.24718387  0.26253006]
[ 0.0761336   0.13634135  0.00122666 -0.15461811  0.08312944  0.03511709
 -0.00386479 -0.10615639 -0.05376577  0.10792433  0.06457543 -0.00892837
  0.08028287 -0.04174571 -0.05258563  0.02418787 -0.07200316  0.01356237
  0.02490098  0.04833597]
layer 1 Activation
tanh
layer 2 Dense
20 40
[ 0.01803431  0.09877807 -0.2204563   0.41824743 -0.0625215   0.1989457
  0.34164894  0.38977417 -0.07028072  0.12298404 -0.01512897 -0.01316133
 -0.16302842  0.17668524  0.33735493 -0.04284592  0.09040296 -0.12910323
  0.29135898  0.06329086 -0.34603798 -0.25991845 -0.13470237 -0.10556338
  0.21361496 -0.11933099 -0.2719011  -0.26728624  0.1309379   0.10679902
  0.33600676 -0.17003252  0.23473088  0.03031297  0.39840126  0.15377936
 -0.10097893 -0.3663604   0.35846105 -0.42137456]
[ 0.19645163 -0.05171056 -0.2019111   0.31279367  0.04377078 -0.13970424
 -0.25538078  0.24111743  0.11885472 -0.04901176  0.07169233 -0.02227856
  0.04671314  0.00127782  0.24498393  0.00412552 -0.23171315 -0.12445073
 -0.19279383 -0.13823983  0.20656516  0.08500021 -0.12040448  0.11340046
  0.10567618 -0.00846487 -0.00892208  0.01452639 -0.21411762 -0.1017026
 -0.01759796 -0.0971391   0.04152546  0.28763044  0.15294291 -0.2761882
  0.17517035  0.0248154   0.27670985 -0.11029316]
[-0.16162977  0.04752616  0.48882762 -0.16355765  0.25801587  0.30036914
  0.06008393  0.41518542 -0.2063582  -0.04611398 -0.22887042 -0.46004927
 -0.03892383 -0.01067889  0.04244337 -0.30613995  0.19167373  0.13498868
 -0.12870698 -0.48807597  0.05839051  0.07406069 -0.02309169 -0.04748562
 -0.19318159 -0.08134247  0.22200228 -0.3871891  -0.10724963  0.24263173
  0.34857464  0.07918256 -0.26006523  0.07728896 -0.5769311   0.42912653
  0.17634326  0.13074532 -0.0299342  -0.02880497]
[-0.22310829  0.10355982 -0.13466313  0.00241358  0.03514896  0.17116103
  0.15954004 -0.04608513  0.08692984 -0.28440794  0.08141678 -0.05881155
  0.14989185 -0.02640984 -0.122495    0.1446856   0.15051599 -0.26566133
  0.20349826  0.16030316  0.32350656  0.32672927  0.22167489 -0.20385565
 -0.12207404 -0.07434038  0.09939471  0.18856467  0.16490127 -0.29727846
 -0.24854708  0.2428951  -0.24460849 -0.20190927 -0.17718528  0.2900975
 -0.16247283  0.21911614  0.10917552  0.3435225 ]
[ 0.22438352  0.07185929  0.26107785 -0.10521092  0.02027211  0.19905992
 -0.23731592  0.26404455  0.25663698 -0.12013958 -0.46747464 -0.31671858
 -0.06157256  0.09753722  0.1823962  -0.05040231 -0.10240244  0.05992831
  0.33848387 -0.06173925 -0.1404642   0.18222181 -0.28906512  0.17791894
  0.3925008  -0.07779984  0.09790982  0.04235883  0.00208848  0.2283004
 -0.27789646 -0.22320244 -0.2403473  -0.14776963 -0.10992691  0.3947948
  0.10607242  0.0219444  -0.27991033 -0.28676   ]
[ 0.04528337  0.12290828  0.22687049  0.13777113  0.04915735  0.16378343
 -0.06274977  0.1805387  -0.18572612  0.15093239  0.20778479  0.25904247
 -0.02858921 -0.22088048 -0.11492618  0.14739874  0.03741422  0.13532294
 -0.39558646  0.2878493  -0.01572426 -0.18919328  0.18940218  0.05600975
 -0.1896812   0.07443192  0.04442759  0.20400715  0.09821642  0.25900933
  0.18194808  0.09556039  0.25123668  0.08698143  0.30691034  0.2225052
  0.03280585 -0.00766578 -0.49598122  0.25438747]
[-0.14487629  0.15618907 -0.04251402  0.06326727  0.25056702 -0.18117668
 -0.1153435   0.12231042 -0.06570664 -0.17877255 -0.30154365  0.33669642
  0.02822215 -0.2486066   0.23460835 -0.28815943 -0.10301595  0.06469526
  0.0124433   0.11400381 -0.16570018 -0.01247266  0.08542348 -0.08588614
 -0.13261747  0.2742146   0.31854063  0.05818319 -0.1703502   0.16354464
 -0.32749152 -0.24707362  0.14301032 -0.06170782 -0.00095391  0.20819907
  0.04847854 -0.1220687  -0.08826623  0.1430457 ]
[-0.32895333 -0.0863477   0.32738468  0.07587562  0.16995819 -0.25376403
  0.15648651  0.10279378 -0.22927547  0.15678531 -0.2316034   0.20880572
  0.3240899  -0.10244259  0.04778808  0.06611569  0.05531576  0.21119513
  0.10101602  0.1292722  -0.3146777   0.12117668  0.01151772  0.26621002
 -0.42443836  0.22838606 -0.04881737 -0.25385687 -0.06790719 -0.05453656
  0.06081199  0.03591478 -0.26513728 -0.0404892  -0.06823938  0.13228245
  0.22833095  0.11928144 -0.23022842 -0.09163113]
[-0.2859968  -0.21678579 -0.01296006  0.05965767  0.2538274   0.04511702
 -0.3626868  -0.18795589  0.1919748   0.00720145  0.07026991 -0.00853593
 -0.249261    0.22579612 -0.13895023 -0.07288172  0.17110407 -0.10840135
 -0.12219498  0.35502735 -0.11129449 -0.21252275 -0.0675313   0.14813763
 -0.14065889  0.06373307 -0.01141511 -0.2649399   0.2541058  -0.02006035
  0.02265707  0.18265387 -0.19644481 -0.20481662  0.11888959  0.02478714
 -0.05506054  0.11894393 -0.07583079 -0.16174236]
[ 0.21163656  0.1652307  -0.09074246 -0.11437017 -0.21261682  0.39525887
  0.11449064 -0.32693073  0.21845777 -0.13318115  0.0727035  -0.09757005
 -0.16830589  0.01287748  0.06942376  0.26466277  0.3056195   0.08511259
 -0.14781709  0.05236465 -0.31285113  0.25960243  0.19469798  0.22711386
 -0.09616666 -0.38869748 -0.0966479  -0.01935684  0.00418643 -0.13795114
  0.11434177 -0.18113862  0.00890246  0.14670129 -0.23753045  0.03891503
  0.07723964  0.16587095 -0.09476892 -0.22791642]
[-0.34339735 -0.03391427 -0.14061512  0.39469802 -0.22836319 -0.23237565
  0.2443079  -0.14141743  0.42472658 -0.08303235 -0.23892792  0.05629658
 -0.04447594  0.25307798  0.2068051  -0.04875497 -0.38040653 -0.20336409
  0.5575739  -0.21330583 -0.16212633 -0.242042   -0.03391618  0.38677752
 -0.27008167  0.36289656 -0.14360066  0.06800982 -0.33257374 -0.16955204
 -0.12549646  0.08039166  0.0603203   0.01681855 -0.12908208  0.18905173
 -0.32443613  0.18204989  0.29542983 -0.28476116]
[-6.77908286e-02 -2.39298493e-01  2.08705783e-01 -1.21718861e-01
 -1.33686960e-01  1.50101334e-01 -1.25732914e-01  9.12137479e-02
 -4.26898114e-02  2.43487164e-01 -2.12621108e-01  2.46094307e-04
 -1.11386202e-01  2.09074944e-01 -2.97955722e-01  3.27011436e-01
  1.65446803e-01 -8.39412659e-02  1.06814913e-01  1.85870796e-01
  2.49156073e-01  7.87618309e-02  2.31546849e-01  1.04321264e-01
 -1.10709332e-01 -2.35053133e-02 -1.88568346e-02  2.49851152e-01
  4.03090529e-02  5.55308759e-02 -1.83015779e-01 -1.21813796e-01
  1.69928074e-01 -3.26901704e-01  2.36197278e-01 -1.28909588e-01
  4.65035848e-02 -1.34229019e-01  2.02134214e-02  3.04178566e-01]
[-0.05105698 -0.11937039 -0.04760632  0.10778174 -0.14945348 -0.34804243
  0.4264866   0.31014872 -0.01897454  0.1088907  -0.26373276  0.42049327
  0.28570238  0.1529273   0.2540532  -0.07199754  0.24283017 -0.45274088
 -0.28847817 -0.42828345 -0.33747703  0.20391862 -0.00644735 -0.15019731
 -0.14831577  0.0758015   0.10502626  0.13528858  0.2541944  -0.23065951
 -0.03141055 -0.01165879 -0.35065615  0.05391625  0.0759334  -0.18319952
 -0.22630073 -0.49420506  0.28345394  0.18121989]
[ 0.05828254 -0.1057969   0.07857325 -0.01730527  0.20477818  0.03833974
  0.19891642  0.08143039 -0.09271402  0.05327105  0.04540874 -0.047299
  0.01131206  0.00163554 -0.13047656 -0.34173808  0.35216197 -0.12335659
 -0.14102964 -0.40428552  0.20136121 -0.09396271  0.17031486 -0.02658856
 -0.19712585 -0.07478284 -0.06794803 -0.2158291   0.22323726  0.1310316
  0.05493516 -0.00678425 -0.08512171  0.18608652 -0.22081545  0.23633778
  0.03505259 -0.08641946  0.24679267 -0.24894315]
[-0.3384553  -0.14944905 -0.14026478 -0.11503277 -0.3104703  -0.26862633
  0.13961272 -0.28827852  0.0258927   0.04888378 -0.18852288  0.09355752
  0.09295236 -0.191663    0.08754922  0.3550985  -0.33898994 -0.22201312
  0.36890155 -0.05604099  0.22970651  0.11210204 -0.03967465  0.1924674
 -0.04706242  0.5159472  -0.25130832  0.02333215 -0.27675363 -0.23736817
  0.16290228 -0.0881253   0.05530335  0.04111939 -0.1448023  -0.0361938
  0.3457052   0.02036778  0.21009494 -0.09425362]
[-0.15817598 -0.26025867  0.13825387 -0.1075528   0.15358895  0.10497931
  0.139142   -0.02190492  0.09101417 -0.17964664 -0.19274925 -0.26334035
  0.11126747  0.00421346 -0.12592438  0.2019321   0.20968156 -0.03449673
  0.16016792  0.10987836  0.21222363 -0.20540313 -0.04712826  0.21744743
 -0.11899798  0.31723273 -0.06875949  0.04399969  0.15662335  0.09803733
  0.11911852 -0.2131535   0.01429066  0.0934684   0.15506032 -0.05903437
 -0.2746551  -0.28448984 -0.25858817  0.11263046]
[-0.11866125  0.05849718  0.2507579   0.09568769 -0.02138145 -0.0127174
 -0.03151782 -0.22408006 -0.03857155 -0.25164264 -0.2236711  -0.09675989
  0.12026174  0.20105012  0.12658516  0.43501085  0.25098264  0.27261367
  0.18854843  0.04450834 -0.10551929 -0.26522398 -0.01733209  0.19917734
  0.2978047  -0.09524315  0.0242268  -0.14834487 -0.09474469  0.2873017
  0.29009408  0.16333851  0.1263042  -0.18473291 -0.30128786 -0.0918499
 -0.04804064  0.25542685 -0.21647823  0.0918037 ]
[ 0.1760301  -0.0934599   0.12393331  0.13055374  0.23272446  0.19780606
 -0.23459876  0.05171633  0.17270046 -0.28876224 -0.19555992  0.07761738
 -0.22119124 -0.06458569 -0.05093735 -0.14302243 -0.06025356  0.00214286
  0.3804381  -0.17498721  0.3130994   0.25713786  0.05980639  0.2270212
  0.20274231 -0.10960707  0.11328872 -0.20113218 -0.08277033  0.08943883
 -0.27309027 -0.18869522  0.14298733 -0.1264122  -0.38590914 -0.21325572
 -0.21731944  0.14034     0.04522469  0.34676328]
[ 2.5211093e-01 -8.4117644e-02 -1.4811698e-01  1.0385161e-01
  6.0521360e-02  8.5641302e-02  2.5895947e-01  2.9522213e-01
 -2.0562169e-01  1.1167551e-01  1.6454270e-01  4.2574275e-03
 -1.7991434e-01 -1.9135018e-01  2.4736379e-01 -3.2605129e-01
 -3.2468908e-02  4.3115830e-03 -1.6004509e-01 -2.5074810e-01
  4.8112299e-02 -3.0508460e-02  1.2400344e-01  2.1856022e-01
 -8.0043167e-02 -4.9251363e-02  1.7477701e-04 -1.5733996e-01
  2.8992343e-01 -2.9583173e-03  1.3855885e-01  1.2088323e-01
 -7.4921064e-02  2.2415665e-01  3.1018072e-01  1.0905612e-01
 -1.4140441e-02 -3.4989439e-02  3.7479040e-01 -1.7406584e-01]
[-0.01794877 -0.23971447 -0.03851596 -0.06568883 -0.09201782 -0.0188446
 -0.15505098  0.3476634  -0.2681287   0.02000153  0.0837219   0.4024197
 -0.03028274  0.01359838 -0.05423431 -0.09647413  0.18296494 -0.26622108
 -0.25507057 -0.25655842  0.3148425   0.03294565 -0.32599494  0.1657765
 -0.12663895  0.24196412 -0.13324904  0.04090964  0.21821962 -0.16188224
  0.2010997   0.0268906  -0.05013667  0.2686816   0.46298444 -0.22971205
 -0.16159746 -0.1525919   0.23605242 -0.40549576]
[-0.03182314  0.00470886  0.09185509  0.01158187  0.02639789 -0.00063151
  0.11182938  0.0402262  -0.0163117  -0.01886762 -0.08099562  0.052439
 -0.04390121 -0.01751542  0.04182145 -0.05846731  0.08631462 -0.1384685
 -0.02982721 -0.04577769 -0.00274086  0.01982485  0.00277455  0.06245738
 -0.18660319  0.12674734  0.05725439 -0.04234108 -0.08932935 -0.05406363
  0.0250847  -0.06377263  0.0331395   0.03827986  0.08741045  0.08147032
 -0.1541405  -0.14622614  0.11813399 -0.06594548]
layer 3 Activation
tanh
layer 4 Dense
40 20
[-0.19845575  0.04057323 -0.3234594   0.3068729  -0.29518798  0.04086574
 -0.17458318  0.3196303  -0.23836881 -0.25231284 -0.18710615  0.18534729
 -0.26870453  0.02354387 -0.2761726  -0.02901887 -0.09043352  0.21855794
 -0.43568042 -0.23271134]
[ 0.0345231   0.05575034 -0.09821926  0.03866582  0.07858893 -0.16279434
  0.13611034  0.20198499  0.11169637 -0.04244996  0.20405413  0.05837704
 -0.1200086  -0.02358606 -0.01183572 -0.06772959  0.21537781  0.15595518
  0.18313432 -0.27241302]
[ 0.07732971 -0.28571832 -0.11374082 -0.34911552 -0.11309638 -0.3053538
  0.00171495  0.20654738 -0.36629027  0.24959019 -0.2027599   0.01605294
  0.19698374 -0.3167232   0.08486772  0.15088099 -0.17319992  0.04699764
 -0.10768302  0.34216458]
[-0.15574445  0.10545243 -0.33269966  0.0496545   0.13836728  0.26244432
 -0.03247119  0.01384909  0.09983467 -0.01338006  0.14351729 -0.0807392
  0.10987076 -0.09123566  0.07979891 -0.05689454  0.300068    0.14081524
  0.20635873 -0.35119307]
[-0.00504752 -0.34609634 -0.09220345 -0.06803545  0.10682726  0.08931017
 -0.0392619   0.2085288   0.12187096  0.21084484 -0.17698981 -0.00779123
  0.05292011 -0.10122563 -0.00228927 -0.18607855  0.21573274  0.23621851
 -0.190003    0.26363513]
[ 0.23302905  0.01961955  0.17026044  0.16354436 -0.10048717  0.08641481
 -0.21213903  0.18208961  0.05641366  0.14107618  0.06622187 -0.13837406
 -0.1520781   0.27627432 -0.12774567 -0.21293123 -0.12250228 -0.06321536
  0.14951342  0.21613702]
[-0.3804751   0.11280396  0.08243236  0.10984213 -0.03503066 -0.02277648
  0.10302328 -0.21011223  0.30425417  0.00134752 -0.16735071  0.13984977
  0.29508927 -0.07991189  0.03276623 -0.2713196  -0.20515062 -0.07432388
 -0.20456544 -0.08645076]
[-0.22419253 -0.32748833 -0.31232494  0.26462194  0.20210373  0.08139087
  0.33272204 -0.22252436  0.14597231  0.12762888  0.20205174 -0.06888051
 -0.01002457 -0.13944933 -0.23190333 -0.219195    0.02625663 -0.09273041
  0.14464569 -0.16133249]
[-0.0469306   0.14702006  0.12544303 -0.17412557 -0.18346575  0.17655845
  0.08292368  0.28930795 -0.1988706   0.00160822 -0.23041198 -0.05604856
  0.08729526 -0.05994783  0.07709677  0.21630521  0.3123715  -0.2797335
  0.07106777  0.18047419]
[ 0.17398833  0.22667757 -0.14141314 -0.13439758  0.08515085 -0.13684851
  0.18032904  0.01521582 -0.0067957   0.14840296 -0.02237916 -0.13580123
  0.1824903   0.3594173  -0.0996866   0.13955702 -0.09193037  0.0877419
 -0.13141724 -0.34032145]
[ 0.17517312  0.04917687  0.16087608 -0.02474198  0.25096908  0.06473515
 -0.11009928 -0.07599074 -0.05179521 -0.2685638  -0.22406267 -0.09185165
 -0.19937105  0.16447794 -0.05712016 -0.27496547 -0.06710831 -0.2012409
 -0.03252319  0.04956639]
[-0.33106625  0.20845503  0.20399202 -0.1204542   0.17977801 -0.1309505
  0.16577837 -0.3375118   0.01046364  0.19219938 -0.29464334 -0.25280514
  0.33080715 -0.21948753  0.00640265 -0.27362692 -0.219285    0.05054065
 -0.02260794 -0.07662188]
[ 1.9863881e-01 -2.6170579e-01  2.2851232e-02  1.2386112e-01
  1.0726349e-01  1.9574727e-01  1.5543032e-01 -1.4740300e-01
 -2.3840259e-01  1.9290018e-01  7.7599786e-02 -6.5426469e-01
  3.0970490e-01  1.4166932e-01  3.0680284e-01  7.4609958e-02
 -3.6816518e-03 -7.3367260e-02  4.9120863e-05 -1.6252768e-01]
[ 0.20361215  0.15479839 -0.10651969 -0.16413888  0.03528491  0.19184427
 -0.08761048 -0.1458423  -0.13768756 -0.1362647   0.3444645   0.09296683
 -0.12038836 -0.04614529 -0.16240877  0.09029623  0.14476842 -0.10272487
 -0.10911489  0.07713394]
[-0.36805865 -0.02053199 -0.18022579  0.01619834  0.13234933 -0.3280281
 -0.14499569 -0.2255963   0.02700815  0.21192105  0.03904181 -0.15149233
  0.06890777  0.03004345  0.01897046 -0.1667824   0.1232198  -0.11288725
  0.25733414 -0.24804585]
[-0.1134345   0.12528925 -0.00052654  0.14883366 -0.00752041 -0.01196316
 -0.05216601  0.08081473  0.04397951 -0.2919633   0.15620853  0.11253409
 -0.24854182  0.11189401  0.12613869  0.29940787 -0.06937923 -0.00914327
  0.24025437  0.3562533 ]
[-0.1739528   0.15265542  0.07394268  0.0744013   0.0192374  -0.19362849
  0.07587885  0.00550945 -0.42992777 -0.20622997 -0.16827412 -0.17535552
  0.24144475  0.16750218 -0.07407828 -0.2301095   0.14466283 -0.05566768
  0.15743937  0.20029059]
[ 0.13855603 -0.13345113  0.12721956  0.13807012 -0.22718035 -0.08678948
 -0.0428677   0.22790933 -0.23218092 -0.18497951 -0.05702953  0.01683806
 -0.17246918 -0.10375618  0.12052774  0.14295451 -0.22238825  0.12053898
  0.05681193  0.076952  ]
[-0.09180658  0.33012152  0.35138336 -0.03761734 -0.31224465  0.06696271
 -0.16073442 -0.17923884  0.31539518  0.2064173   0.06162016 -0.00832033
 -0.17478046 -0.56548274 -0.00247723  0.06837691 -0.11682611 -0.26562208
 -0.10081352 -0.30154237]
[-0.065177    0.30921218  0.3227753   0.05438449  0.3013669   0.12719037
 -0.10337447  0.23618355  0.17284507 -0.06757636  0.13203242 -0.08772228
  0.25925878 -0.26990432  0.0110894   0.39279848 -0.02841537  0.12788048
 -0.05962609 -0.1664005 ]
[ 0.08038238 -0.23660447 -0.08608011 -0.16851772 -0.24576549  0.2006762
  0.01198433  0.18225002 -0.14572985 -0.15925363  0.27575332 -0.09109303
 -0.2095614  -0.2912919   0.0846849   0.26087126  0.31829947 -0.22870424
 -0.22835036  0.16770385]
[ 0.27460074  0.17591938  0.22370386 -0.04226464 -0.00247934  0.18163742
 -0.05450001  0.30141753 -0.00619482  0.12952614  0.07181158  0.06963528
  0.28074875 -0.30922225 -0.10114891  0.03503465  0.07633089  0.20827805
 -0.29405174  0.32491526]
[ 0.38920844  0.05615876  0.2889681  -0.08081765  0.03414391  0.2160552
 -0.02036112  0.00199297  0.3454258   0.10172562 -0.09684151 -0.03609213
  0.21876383  0.28412658 -0.04145188  0.2218813  -0.05820022 -0.23797634
 -0.26512152  0.21900947]
[-0.20432518 -0.17255795 -0.04143389 -0.15669174 -0.1198253  -0.11291274
 -0.14990684  0.15185691  0.14879116  0.27482644 -0.3086506  -0.40305376
  0.13092425 -0.14191334 -0.34677973  0.38429853 -0.06487592  0.02765303
  0.10715789  0.04705841]
[-0.13870154  0.20401785  0.1446055   0.29551515 -0.28659016  0.04831351
  0.02485899  0.09542071 -0.2162055  -0.29866374 -0.06357983 -0.01964254
 -0.2949891  -0.09720313 -0.13040282 -0.2454575  -0.1447503  -0.18725413
  0.06555397  0.07923411]
[-0.23811448  0.04974747 -0.27805486  0.12577337  0.08152996  0.02951593
  0.13369524 -0.29772246  0.2504791   0.11674643  0.23371209  0.05384494
  0.15127629 -0.31068    -0.07392681  0.14299656  0.12748376 -0.23141298
 -0.14837237  0.2347376 ]
[-0.08070023 -0.20486988  0.03969909  0.04628621 -0.00293574  0.04829074
  0.10551444  0.28554833 -0.13801508 -0.01780293  0.09791025  0.30966547
  0.05190816 -0.18231577 -0.00579729  0.02912311  0.04747834  0.06169079
 -0.18522811  0.14999929]
[ 0.02377989  0.00638623  0.2066977   0.1197227   0.31044972 -0.22167927
 -0.16387603 -0.03111409  0.20009437 -0.08304903 -0.05011909 -0.17192449
 -0.16749755 -0.24764322 -0.11230724 -0.09470443 -0.12112245 -0.00908395
 -0.07420287 -0.09512993]
[ 0.22568154 -0.15225144 -0.16239735 -0.18892448  0.1246738   0.00162185
  0.2477359   0.08158177 -0.2412639  -0.22364525  0.05153907 -0.05627095
 -0.27488476  0.27132428  0.03554762 -0.26879132 -0.2336359  -0.21066111
 -0.01726012  0.08458046]
[-0.02233734  0.2783215   0.03697664  0.07275444 -0.31708923 -0.19211143
 -0.0113818  -0.14939828 -0.32820436 -0.13391554 -0.11894593  0.01585064
 -0.02032081 -0.2346743  -0.21223064 -0.21135849 -0.10901879 -0.16725187
 -0.05213539  0.14429599]
[ 0.17175479  0.15145782 -0.1584123  -0.04714919  0.03852433 -0.07518284
 -0.23713239 -0.3494483  -0.08034064  0.02394422  0.11407954 -0.14764729
  0.1478559   0.35816288 -0.11642791 -0.06718232 -0.04398535 -0.1628519
 -0.23365004 -0.03030756]
[ 0.2852798   0.02065504  0.20452966 -0.22083516  0.09328672  0.13866489
 -0.05478542  0.41100588 -0.13376547 -0.04855348 -0.02044595 -0.06125944
 -0.09271162  0.41266677  0.34345803 -0.05194342 -0.06154955  0.3323671
 -0.17875767 -0.22353575]
[-0.01263925  0.09188478  0.05818364  0.1713651   0.19578533  0.09168547
  0.03368749 -0.1935849   0.1185219   0.05043504 -0.14063372  0.0230392
  0.11068328 -0.15764743  0.02474923 -0.14150518  0.32324806  0.04860436
  0.22525305  0.03126813]
[-2.55519480e-01 -2.19147310e-01 -3.60597968e-02  1.34376690e-01
  1.09846853e-02  2.00238079e-01 -3.13369989e-01 -4.62965608e-01
 -1.34470433e-01  1.43372267e-01  1.61471233e-01 -1.32564887e-01
  2.62114972e-01  1.80642486e-01  7.16425255e-02 -3.43943268e-01
 -3.08753923e-04  1.88827664e-01  5.95161207e-02 -1.19478814e-01]
[-0.19815224 -0.24861102 -0.14743221 -0.24068017  0.4146599  -0.31827158
 -0.18746242 -0.38875046  0.1748707   0.07109428 -0.0213357  -0.08027963
 -0.32808363  0.3432358   0.24124879  0.2503606   0.00732798 -0.20173733
 -0.18677112 -0.34583062]
[-0.17891166 -0.32302737 -0.15604478  0.07881309 -0.18537979 -0.28128448
 -0.07030417 -0.184857   -0.09770069  0.32057047  0.14496689 -0.06729608
  0.20953797 -0.22325867  0.35014403  0.26084304 -0.11380169 -0.0317756
  0.16001427  0.38432056]
[ 0.03960983  0.21776427  0.19107956 -0.0139608   0.11087555 -0.3142108
  0.11935429  0.2633826   0.23952498  0.24955642 -0.19611065  0.00537926
  0.01010447  0.14071834 -0.0982512  -0.20695059 -0.361751   -0.01744316
 -0.09212171 -0.04761746]
[ 0.12528609 -0.12410039  0.20758924 -0.00118185 -0.08410096 -0.24068381
  0.14166099  0.05248492  0.04423447 -0.03538778 -0.17259443 -0.11198089
 -0.07770779 -0.31194338  0.12568979  0.28362006  0.08759119  0.3124017
 -0.04132403  0.07001118]
[-0.16291471  0.3195888  -0.3689505  -0.2277019  -0.08750887  0.20275632
 -0.02913387 -0.31964022  0.2927331   0.08385126 -0.31088367  0.32447165
 -0.00869325 -0.18411978  0.05404064 -0.2981397   0.04788247  0.20052284
 -0.29214013 -0.04991363]
[ 0.18770042  0.05446202  0.32939762 -0.25357828  0.28492698  0.26607093
  0.06145446  0.2401722   0.08208603  0.00391142  0.10758646  0.08836766
  0.16862303 -0.01128001 -0.18698144  0.04534375  0.01853747 -0.11865299
 -0.00412021  0.28907064]
[-0.05227362 -0.08651169 -0.00357523  0.01377355  0.02113794 -0.05547851
  0.00320136 -0.10535597  0.09291766  0.06343603  0.01826338  0.03836419
  0.08275389 -0.05161075 -0.02844498  0.02343741  0.02514211  0.01338027
  0.07861513  0.00016037]
layer 5 Activation
tanh
layer 6 Dense
20 1
[-0.0847245]
[0.05431713]
[0.12894599]
[-0.02184182]
[0.13098161]
[0.05642981]
[0.02135481]
[-0.07513624]
[-0.0675252]
[0.16453265]
[-0.00615101]
[-0.01244763]
[-0.13836457]
[-0.0675639]
[0.00732353]
[0.09096214]
[0.02121936]
[-0.01231547]
[-0.01880819]
[-0.0803558]
[-0.03354924]
