layers 7
layer 0 Dense
20 20
[-0.28184503  0.2170863  -0.03247     0.3185748   0.11496104 -0.06058265
  0.17338751  0.5842278  -0.473367    0.07314408  0.04282633 -0.16494702
  0.35739866  0.547132   -0.06329183 -0.36785227  0.6491304   0.21862213
  0.32451105 -0.34288874]
[-0.8381664   0.17987987  0.49005753  0.03973687  0.2163054  -0.41568425
 -0.753361    0.1229677  -0.48762223 -0.4333944   0.10907302 -0.73446405
 -0.38024083  0.37661135 -0.61951673 -0.70742714 -0.00775633  0.54102606
  0.5792698   0.61985505]
[-0.8277548   0.15847684  0.4162845  -0.3322776   0.26298168 -0.5174139
 -0.10971919  0.6831635   0.00428714 -0.15376422 -0.03952482 -0.7704112
 -0.11104064  0.49592406  0.08387805 -0.6596594  -0.27757517  0.7179073
  0.40559962  0.42838788]
[-0.30421576 -0.5161886   0.2934525   0.10586994  0.08477589 -0.5238185
 -0.03486021  0.6415739  -0.06640307 -0.15662149 -0.08312904 -0.30727243
 -0.21502703  0.17888325 -0.4260429  -0.19263178  0.23413251  0.11365806
  0.6084151   0.321921  ]
[-0.05439048 -0.35202157  0.70840424 -0.15452778  1.140373   -0.5956997
  0.6662116   0.3519263  -0.68414956 -0.15564798 -0.4985112   0.46954042
 -0.16466638  0.08316341  0.23556793 -0.67947876 -0.42511317  0.4824207
 -0.16348524 -0.12870735]
[ 1.0547427   0.353351    0.19944611  0.15907589 -0.38864195  0.2645249
  0.20033616 -0.788729   -0.27168965  0.2697628  -0.47035113  0.1115648
 -0.11936174 -0.01433214  0.39846838 -0.08248007  0.28065214 -0.8035014
 -0.12493735 -0.11393914]
[ 1.2011693   0.20197049  0.10759898  0.03189984 -0.45464364  0.17238985
  0.67649406 -1.2939903   0.38021302 -0.04256957 -0.25604635  0.62995344
  0.34683442 -0.17854676 -0.0472611   0.31318268  0.38432208 -0.83896524
  0.11828744 -0.6542654 ]
[ 0.4606556   0.73752904 -1.3302196  -0.5158001  -1.139268    1.1275939
 -0.23665828  0.0260382   0.5371207   0.6431349   0.13499337  0.38822737
 -0.2560461   0.61239    -0.11674981  1.4059155   0.916675    0.15548317
 -0.9276151  -0.3169765 ]
[ 0.65738994 -0.06997985 -0.9795944  -0.32834652  0.9123348   0.6378054
  0.3083094   0.03828657  0.13622528 -0.3642517  -0.39596006  0.34540513
 -0.16527167  0.37358603  0.26118112  0.77056086  0.52614915  0.01297437
 -0.61253124  0.10199104]
[ 1.2575802  -0.4005908  -0.22786331  0.4393099  -1.1693399  -0.6078486
  0.745815    0.81652975 -0.0338404   0.2858265  -0.53511554  0.704417
  0.34732124 -0.26079243  0.8576188  -0.4472545  -0.54570645 -0.62858933
 -0.13444012  0.83140486]
[ 0.6695409  -0.299329    0.22329727 -0.4915549   1.2822572   0.48071012
 -0.08306365  0.78773576  0.0788177   0.34569034  0.6483847   0.43936694
 -0.14230363  0.20875864  0.06860858  1.2448138  -1.4199853  -0.3934837
  1.032035   -0.20629688]
[ 0.11698885  1.2037656  -0.9367944  -0.42871377  0.07684793  0.47438246
 -0.01186601 -0.7877106   0.13222487  0.15680815  0.10760073  0.01331792
 -0.507115    1.1707814  -1.1929172   1.3349316   0.8966587   0.23018394
 -0.5937391   0.84486806]
[-0.48903564 -0.27656496  0.8285332   0.02315929  0.755289   -0.21007818
  0.47887045  1.123181   -0.27278823 -0.74433875 -0.30222678  0.59695333
  0.25101286 -0.7425482   0.7047244  -0.5166421   0.19707796  0.6534532
  0.28824767 -0.21370651]
[-0.73626786 -0.03072896  0.30634034  0.43461555  0.2812096   0.5584688
 -1.1350511  -0.7335522  -0.3579945   0.42136136  0.55895615 -0.38289076
  0.2621896  -0.28632396  0.63646173  0.13414434  1.5927399   1.2577008
  0.23015493  0.72028095]
[-0.9269382   0.3699184  -0.40704337  0.8914822  -0.938824   -0.20586184
 -0.16981423 -0.01498963 -0.23098235  0.69527155  0.5534592  -0.9375454
 -0.25012156 -0.09989866  0.81757087 -0.33772278  0.7336159  -0.4999038
  0.89623463 -0.19386506]
[-1.9193991  -0.31086865  1.3027748  -0.27942747  0.8264782  -0.84820586
 -0.9431752   2.8895483  -0.5922056  -0.37917644  0.39222673  1.1365713
  1.0430644  -1.5254331   0.0860722  -0.6742447   0.9223096   0.11242611
  1.3625287   0.8326005 ]
[ 0.1315987   0.07215168  0.62685716  0.2604951  -0.11485761 -0.36442912
  1.4136987   0.20517161 -0.18521652  0.746541   -1.165513    0.30702335
 -0.6757343   1.1545888   0.321972   -0.7458308   0.31226718  0.2411647
 -0.42200062 -2.355981  ]
[-0.6234092  -0.45743302  0.1435317  -0.06357677  0.24083748  0.20674874
 -0.29228202  0.09424993 -0.0591501  -0.6199523   0.10777013  0.4268051
 -0.11184788 -0.6937047  -1.20255     0.20304447 -0.5648476  -0.42722392
 -0.14939556 -1.1971563 ]
[ 2.9670569e-01 -3.0298489e-01  2.3714870e-01 -1.2072655e-03
 -2.9441020e-01 -4.1156989e-01  9.4302547e-01 -3.0186310e-01
  1.5000223e-01 -7.0127875e-01 -1.2791876e+00 -1.0288460e-01
 -2.1495931e-03 -1.6334856e-01 -3.5368887e-01 -6.4231348e-01
  8.7166578e-01  1.0638137e+00 -1.9340003e+00  4.2132339e-01]
[ 1.3284738   0.53915936 -0.36851054 -0.12243681 -1.4858915   0.5201039
  0.48608568  0.21920739  0.6466166   1.5400772  -0.4894753  -0.17267865
 -0.8460555   0.84553194 -1.0548916   0.21961635  1.2820767  -0.02506364
 -0.6101959  -1.6998736 ]
[-0.2909146  -0.34023026  0.2960547   0.10502479  0.32896343 -0.30100313
 -0.19708678 -0.14213769 -0.26317793 -0.39812085  0.15491161 -0.16482009
  0.06562655 -0.19904856 -0.1624804  -0.5631797  -0.17821741 -0.06106912
  0.5128171   0.470302  ]
layer 1 Activation
tanh
layer 2 Dense
20 40
[ 0.18110773  0.10075866  1.5403925  -0.25016117  0.12229015 -0.8589737
 -0.01750275 -0.04536237  0.15674782  0.06022223  0.40455538  0.32290548
 -0.1183153   0.44361952  0.14107953 -0.38656133 -0.10954311 -0.18076046
  0.5134185   0.12682475 -0.13733685  0.14915895 -0.60866463 -0.20105031
 -0.09980986 -1.231327    0.09360975  0.11048882 -0.03929988  0.56887525
 -0.983471    0.08507991  0.22047123 -1.4091665   0.30066332  1.2668636
  0.27365726 -0.40077516  0.08805498  0.10328174]
[-0.09632125  0.06373859 -0.17776279  0.2518253   0.11134855  0.07130828
 -0.17609787 -0.10461522  0.07137799  0.08568627 -0.47872138  0.04621888
 -0.10613374  0.16061142 -0.13492991 -0.44150233 -0.05427974 -0.12978558
  0.47415134 -0.13557203  0.09791239  0.2710464  -0.07976297  0.00172273
  0.10737021 -0.2886801   0.01845426 -0.13087183  0.06153532 -0.23772581
 -0.4296239   0.22080097  0.10320311  0.20334882  0.24341398 -0.03571911
 -0.23977154  0.18205878  0.4989509   0.08208121]
[-0.03913618  0.3514906  -0.09963149 -0.03617495 -0.10061651 -0.23018587
 -0.10842947 -0.11849187 -0.04408158 -0.27430695  0.08223957 -0.4984749
 -0.22775374 -0.36502326  0.19454989  0.12869373 -0.28469568  0.20340808
 -0.42231497  0.08795062  0.30084026 -0.3350524  -0.01736279 -0.5476796
 -0.05846631  0.8220511  -0.05248612  0.05888164  0.2865312   0.35737997
  0.364879   -0.13973413  0.0228368  -0.0613923   0.23743562  0.05026169
  0.35964087  0.22487935 -0.84861463  0.3054334 ]
[-0.15692002  0.01861965  0.21085341 -0.00877658  0.19819307  0.11409956
  0.00966331 -0.09667749 -0.12359479  0.00878423 -0.17921053  0.13642484
 -0.06022464  0.0344362  -0.11557126  0.01308504  0.10025538  0.08457074
 -0.45019448  0.09988406  0.07011371 -0.4137711  -0.26775607  0.15038899
  0.04953389  0.39638463 -0.25918478  0.06016852 -0.01001011 -0.05768787
  0.3655956   0.21412395 -0.19683442 -0.01848255  0.228284   -0.3802344
  0.3195327   0.5693464  -0.4401058  -0.16378486]
[ 0.00654727 -0.04644441 -0.7703179   0.05114287  0.03421722  0.49354962
  0.00350125  0.10698742 -0.34628484 -0.23581582 -0.16230541 -0.01404869
 -0.3097069  -0.30555442 -0.25124273 -0.27803895  0.04734436  0.2245601
 -0.05597534  0.28739327 -0.04249267 -0.18451378  0.4859946  -0.10597976
 -0.33925897 -0.4420961   0.18611033 -0.4023954  -0.19756159 -0.06090437
 -0.54007834 -0.22107859 -0.22103378  1.0854232  -0.2733836  -0.42539907
 -0.40034783  0.13341826  0.10729769  0.16346945]
[-2.53950581e-02 -1.29719466e-01 -2.09478438e-01  1.29915684e-01
  1.05826132e-01  3.84565890e-01 -3.15088071e-02  6.30325377e-02
 -4.52426344e-01 -8.03047717e-02 -3.41714233e-01  1.60664260e-01
 -5.74178025e-02 -1.85784295e-01 -1.19360924e-01 -5.76717496e-01
  1.68399826e-01  2.26951553e-04  5.31537652e-01 -1.44734651e-01
  5.81245720e-02  7.13324770e-02  6.97077392e-03  4.60238755e-02
 -1.89336717e-01 -5.85523605e-01 -1.58239201e-01 -3.15837264e-01
 -8.50616172e-02 -8.16006064e-02 -7.15063572e-01  1.03403464e-01
  1.39707521e-01  6.09774709e-01 -6.98864579e-01 -5.76129258e-01
 -5.65231442e-01 -1.81204841e-01  6.13381803e-01 -4.28856052e-02]
[ 0.15598246  0.0385072   0.5011537   0.1114096   0.12144448 -0.36482975
  0.02333004 -0.08604623  0.22843467 -0.47219473  0.01351614 -0.02712302
 -0.42910755 -0.16847828 -0.01704544 -0.45564288 -0.06429586  0.31605795
 -0.05385825  0.06365271  0.10213181  0.29033655  0.23455667 -0.03795315
  0.06988312  0.07198118  0.02982739 -0.13618903  0.04156471 -0.02460389
  0.74052507 -0.07998791 -0.03939532 -1.1270448   0.9309114   0.6898786
 -0.07949948  0.3367021   0.08313059  0.13587213]
[-0.04010093 -0.13909683  0.23248099  0.06196794 -0.00386824  0.156225
 -0.08304452 -0.05823607 -0.5286957   0.17221656 -0.42030805  0.07246695
  0.20006828 -0.19097726  0.04845609  0.17088868  0.20226085  0.01902433
 -0.05719659 -0.16670437 -0.05082031 -0.47744176  0.6786393  -0.40387708
  0.21453282  0.19065468 -0.17050135 -0.05254544 -0.03238275 -0.20003314
  0.1970461   0.04500291 -0.409066    0.3753136   0.7803219  -0.01881365
 -0.27987915  0.7264365  -0.99134105  0.27600726]
[-0.11305182 -0.08165468 -0.0380532   0.02151678  0.18553986  0.20693737
 -0.19042952  0.15453589  0.12362453  0.26944387 -0.05020398  0.1901851
  0.26449525  0.15148622 -0.0605545  -0.31701127 -0.13759775  0.01316358
  0.25253356  0.20484623  0.03119312  0.23249277 -0.17921354  0.18789656
  0.24077097 -0.19327043 -0.08100839  0.34514737  0.04879803  0.14264752
  0.05469502  0.2189234   0.17016461  0.24815688 -0.04930354 -0.21553335
 -0.09383239 -0.0190552  -0.06555503 -0.28367585]
[-0.04419347  0.18684842  0.4325316  -0.05705003 -0.06662088  0.12016161
 -0.00620393 -0.17051151 -0.14165483  0.14558142 -0.06064772  0.20568101
 -0.24276644 -0.02451509 -0.05905756 -0.46180955 -0.16916315 -0.02753708
  0.32688358 -0.12702928 -0.12052198  0.49919453 -0.39097267 -0.21027556
 -0.05746135 -0.5796509   0.07630432 -0.02403977  0.20337589 -0.05318543
 -0.16786076  0.17261702  0.29782128  0.5616602   0.09784155 -0.10511699
 -0.49692538  0.13062975 -0.6485415   0.17112589]
[ 0.20175855  0.17525502 -0.25369355 -0.05805975  0.01735182  0.4145094
  0.0552974   0.09153359  0.17901483 -0.09075622  0.3647911  -0.38957405
  0.501282    0.01318795  0.05896877  0.48559353 -0.15480499 -0.0266114
 -0.07715318  0.05168705  0.17363088 -0.08442739  0.21848834  0.1819809
  0.14197843 -0.61227846 -0.14154771  0.07942887  0.10727291  0.22263324
 -0.40544212 -0.32009113 -0.2402341   0.91295755 -0.33441243 -0.4188585
  0.06511049 -0.4598272  -0.0511659  -0.40441838]
[-0.00355994  0.09355172  0.17130853  0.1233457  -0.37972027  0.03641546
 -0.08265481 -0.06747171  0.22119145 -0.11840042  0.30875048 -0.01829329
  0.37927434  0.13552102  0.0052613  -0.28718537  0.19745673  0.19619904
  0.11419746  0.21135801  0.15954843  0.3305192   0.13041773  0.28050393
  0.1111813  -0.23710889 -0.16569108  0.09649076 -0.14197375  0.22528644
 -0.12221312 -0.02910495  0.49817598 -0.40954056 -0.05170928  0.1429573
  0.02642675 -0.42807686  0.93100554  0.03735197]
[-0.00228537  0.18219939 -0.19545315 -0.23371795 -0.06023229  0.02626923
 -0.2889745  -0.05751235  0.12046266  0.03048716  0.03112337  0.38172573
 -0.00217516  0.15732159 -0.01360482  0.08873396 -0.11552786 -0.29778618
  0.12625624  0.12108151 -0.11714584 -0.14274672 -0.01322991 -0.3278561
 -0.23533753 -0.09106619  0.01775274  0.19661243  0.30435205 -0.04240854
  0.290635   -0.00651015  0.29703736  0.23874967 -0.2319454  -0.06081368
  0.24193868  0.33745652  0.01512597 -0.02084745]
[-0.06740597 -0.1157965   0.29645434  0.41508475 -0.03004362 -0.0556296
 -0.28341863 -0.14706804  0.5018039   0.10265952 -0.49893266  0.04942732
  0.00816512 -0.09479345 -0.18460588 -0.06536479  0.17499706 -0.05530911
 -0.54824275  0.33753327 -0.32675198 -0.41302863  0.03301617  0.06699119
 -0.4202986  -0.36462948  0.03251705 -0.11320683 -0.3130418  -0.47874832
 -0.42787483  0.06144712 -0.5853411  -1.3968434   0.29884627  0.3723643
 -0.08000564 -0.16767325  0.6457158  -0.2838191 ]
[ 0.10058026 -0.00403524  0.30791384  0.07691816 -0.41221645 -0.44658267
 -0.21871988 -0.12107363  0.79640794 -0.17628324  0.6904856  -0.30055344
 -0.12718174  0.10945655  0.49329558  0.04028948 -0.1697777  -0.0484429
 -0.06463949  0.14326449  0.0815753   0.623115    0.0603026  -0.26831988
  0.03966793 -0.75583094  0.05265085  0.30333844  0.08554781  0.4279421
 -0.29912198 -0.30651814  0.8624516  -0.3452928   0.0695411   0.5220947
  0.6169586  -0.6664834   0.1591261  -0.05165539]
[-0.04273337 -0.03389554  0.5697419   0.3312019  -0.07925433  0.01650495
  0.0703272   0.06772878  0.48732877 -0.17684838  0.4829885  -0.53909135
  0.10889717  0.28558764  0.43017864  0.41690108 -0.28903413  0.02140556
  0.32174268 -0.11597013  0.13270968  0.44370383 -0.2567855   0.11684103
  0.1811848  -1.2184485  -0.08406521  0.39340842  0.05594648  0.37912446
 -1.3640473   0.08731079  0.5234742  -0.01734232 -0.9103201  -0.1336816
  0.3703479  -0.95565933  0.53161615 -0.03459124]
[ 0.22545722  0.22054765  0.48147076 -0.33939144  0.06732083 -0.3949695
 -0.04397257 -0.12502362  0.04681382  0.06941019  0.46512684 -0.05144865
 -0.14388809  0.3967931   0.10384309 -0.03687319 -0.26997042  0.018369
  0.04806513  0.07713161  0.12551714  0.3037823   0.09201451 -0.1229556
  0.1457927  -0.70591366  0.00537254  0.23404802  0.1603729   0.30753943
 -0.6759812   0.13075888  0.00561393 -0.7857837  -0.7605403   0.8454578
  0.24147432 -0.02286973  0.35221738 -0.12719645]
[-0.3313104   0.23395996 -0.06702264 -0.31327325  0.19635537  0.0307049
  0.14328474 -0.15208656 -0.4548344   0.16652691 -0.74146193 -0.0930438
 -0.31063795 -0.16002019 -0.04278497 -0.35875037  0.216548    0.00315894
  0.47606274 -0.15949616 -0.11052889 -0.2664653   0.11158762 -0.13538106
 -0.06635175  0.16139974 -0.11290226 -0.08589977  0.28776464 -0.06402285
  0.4462888   0.0149615  -0.34897488  0.28419548 -0.2827295   0.42874962
 -0.2425783   0.13726354  0.80299425 -0.00840814]
[ 0.16536573 -0.19883445 -0.35022017 -0.32882914 -0.17038593  0.44572625
  0.17898647  0.23054859 -0.81261384 -0.08558517  0.2355573  -0.00269675
  0.10306522 -0.52170444 -0.28190157  0.40322244  0.04908046 -0.09652432
 -0.04488279 -0.16900915  0.13824238 -0.17118908  0.35629913 -0.11812969
  0.19145308  0.21963988 -0.12307028  0.46771353 -0.19803631 -0.25557727
 -0.19477324 -0.07766379 -0.39705232  1.0131124  -0.01886844 -0.21217404
  0.00582737  0.8570649  -1.4322731  -0.04919746]
[ 0.04064987 -0.09263057 -1.2760849   0.22630093 -0.24781397  0.6813567
 -0.06653805 -0.11002967 -0.2349936   0.06901487 -0.5527264  -0.35046446
 -0.22270447 -0.26375178 -0.0171701   0.48614386  0.10675823  0.30300957
 -0.44402537  0.10290384 -0.01155469 -0.90276617  0.2532124  -0.13845596
 -0.12866312  0.94572765 -0.08164741 -0.32556677 -0.21511056 -0.3788965
  0.8008278   0.03257876 -0.89369315  0.97978604  0.6157525  -0.2083223
  0.13503063  0.87774265 -0.33073524 -0.13708104]
[-0.09798737 -0.0063741  -0.07059783  0.2034502  -0.22108027  0.03304303
 -0.03587019  0.00621069 -0.16726717  0.28143176 -0.24798755 -0.36237815
  0.05706958 -0.4544309  -0.01470799  0.43862358  0.19501565 -0.03009561
 -1.021176   -0.08915582 -0.07278451 -0.87926054  0.1785254  -0.12120173
 -0.01828143  0.5575039  -0.0851833  -0.17875656 -0.16912667 -0.3628306
  0.48742995 -0.12382302 -0.61828136  0.1728635   0.11771815 -0.3486953
  0.1889008   0.32342303 -1.0045211   0.03029703]
layer 3 Activation
tanh
layer 4 Dense
40 20
[ 0.11310294  0.06083692 -0.15164039  0.07277939 -0.01527413  0.1422412
 -0.05932255  0.0629348  -0.13667741 -0.0185318  -0.02332252 -0.01467459
  0.0473893  -0.0615502   0.24579872 -0.03110646 -0.04147831  0.11585322
  0.13022837  0.03874639]
[-0.15449966  0.06352543  0.02372055  0.09570783 -0.01509395 -0.08604845
 -0.06156812 -0.03123071  0.12641674 -0.09945285 -0.20808797  0.0995699
  0.06645617  0.12997653 -0.00450961  0.06259583  0.01925525  0.09025368
  0.03672588  0.1042916 ]
[ 0.0292358  -0.20132269 -0.86176807 -0.15620135  0.68174464 -0.5822099
 -0.03603422 -0.04039647 -0.03957105  0.01188804  0.00103552 -0.2699008
  0.11544743  0.0416076   0.02860367 -0.08082521  0.0773553  -0.10351947
  0.10552027 -0.17616205]
[-0.34943604 -0.06482665  0.09369528  0.04781914  0.17278674 -0.09422395
  0.04723544  0.00988797 -0.13288428  0.01722248  0.02606079 -0.15628658
  0.0769402   0.04981028  0.06811561 -0.05017462  0.10820837 -0.10920486
  0.03140603  0.02608768]
[ 0.27671206 -0.0047817   0.13828199 -0.14191689 -0.08559752 -0.04677874
  0.15785392  0.04997968 -0.08706298  0.07626572 -0.06780963  0.12092745
  0.01610659  0.09099021  0.11278234 -0.12073328 -0.15171076  0.02509991
 -0.0562941   0.00796755]
[ 2.7825049e-01  5.4106835e-02  3.2604373e-01  2.4853119e-01
 -2.7873725e-01  3.2619172e-01  1.1589427e-01  3.5083648e-02
  2.9048268e-02 -1.0211820e-02  4.8814648e-01 -6.8628483e-02
 -6.1315656e-02  2.0214689e-01  2.4452135e-02 -1.1052931e-02
  5.9424550e-05 -1.2607567e-01  8.3818838e-02 -1.1104823e-01]
[ 0.07172863  0.12682943 -0.05582254  0.01711416  0.03663196  0.06324591
  0.1258535  -0.0768122   0.10475154 -0.04677637  0.11072246  0.09916851
  0.00464137  0.20806158  0.16100329  0.04764929 -0.06344014  0.03164751
  0.01806997  0.09805508]
[-0.0243426  -0.03785708 -0.08611816  0.05070631  0.1693402   0.06490292
  0.05286888 -0.02636866  0.00849503 -0.00293321  0.1922165   0.03948993
 -0.11332274  0.07962696  0.13067076 -0.033806    0.02732883  0.03866132
 -0.00883685  0.01849585]
[-0.07266272 -0.00220706 -0.0837329  -0.12570545  0.28336796 -0.27986816
 -0.14733556  0.02499706  0.03675318 -0.06661297  0.07863788 -0.06030434
  0.05390557  0.01302902 -0.05162735 -0.08670425  0.07607651 -0.05493412
  0.01907687 -0.02699063]
[-0.07239728 -0.10014547  0.14605069 -0.14489764 -0.3567957   0.1421342
  0.08774377 -0.03026006 -0.12738483 -0.05697433  0.01096653  0.06906443
  0.01233617  0.11695334  0.03249176 -0.0605     -0.01708263  0.08707288
  0.03328266  0.07889447]
[ 0.05456676 -0.00657026 -0.48798135 -0.20394747  0.27143636  0.1513631
 -0.05962342 -0.00252754 -0.14394526  0.04252752  0.00190905 -0.0802147
 -0.06230329  0.00432044 -0.09205909  0.05463971  0.14476681 -0.09958332
 -0.04153608  0.17730157]
[ 0.3787643   0.14080182  0.0294468  -0.03020186 -0.05058932  0.03024211
 -0.03130151  0.07663056  0.0536748   0.01984139 -0.0226127  -0.00861989
  0.08030739  0.07621349  0.065715   -0.00196474  0.2044713  -0.03655442
  0.01109308 -0.02634992]
[-0.12715037  0.01034395 -0.03933458  0.04639569 -0.00093881  0.09772143
  0.00186283  0.03615805 -0.10672435  0.00966764  0.13271601  0.00903052
  0.06036127 -0.0902309   0.10697665  0.02933023  0.03256984 -0.04465638
  0.07124484 -0.00896104]
[ 0.35776252 -0.03281363  0.01519294 -0.07541046  0.11264502 -0.05292485
  0.06576569  0.1446218   0.06133049  0.04264521 -0.15097684 -0.0874397
  0.15207596  0.00133769  0.07316476  0.01627054 -0.2033531  -0.03878107
 -0.02726933 -0.08417255]
[-0.31336474  0.06984475 -0.13202064 -0.00456139  0.26202863 -0.11807229
  0.01631751 -0.00594944 -0.11077573 -0.06667504 -0.15264131  0.03415308
  0.01809984 -0.14198962 -0.02226744  0.12286244  0.09945848  0.02614676
  0.02780305 -0.02790411]
[-0.5285101   0.03098164 -0.08206842  0.02003241 -0.12226933  0.19747458
  0.03341749 -0.06003447  0.09669252 -0.06833696  0.3560419  -0.13324462
  0.03650672  0.03372524 -0.14771432 -0.0444653  -0.15271217 -0.20153104
  0.06370274  0.05313007]
[-0.03462097 -0.1264172   0.0900325  -0.0231928  -0.11006466 -0.00611102
 -0.08096644 -0.0689804   0.0303826   0.08643657  0.03223779 -0.05763907
 -0.13233982 -0.09922747 -0.09635687  0.01040203  0.11163282 -0.0249233
  0.09516662 -0.10198836]
[ 0.11226568  0.02116912 -0.01740561  0.11334527  0.28507748 -0.11655623
 -0.01049034 -0.01566842  0.06160657  0.06254567  0.00370267 -0.06537031
 -0.09752783 -0.06371754 -0.10260206  0.04998937 -0.05522716 -0.02778289
  0.02602442  0.14026432]
[ 0.67209905 -0.17611675 -0.1136838   0.0397771   0.19285476  0.37013283
  0.01895897 -0.04201762 -0.0832271   0.16297491 -0.31762567 -0.17242615
  0.12255995 -0.06268211 -0.20230699 -0.03804027  0.09714185  0.0278039
  0.04830861 -0.13086782]
[ 0.02629619 -0.05696101  0.04605949  0.1160045   0.06154548 -0.09727187
 -0.22626007 -0.03431737 -0.19949548  0.1583267  -0.05802506 -0.1703903
 -0.0616294   0.03852439 -0.12590763  0.0338741   0.05939312 -0.00934038
  0.08564177 -0.04607837]
[ 0.030498   -0.09192365 -0.15555856 -0.09041892  0.14416522 -0.02228985
 -0.03461016 -0.01126504  0.03438191  0.00283489 -0.02964426  0.1157885
  0.02234438  0.13283594  0.05436025 -0.01121859 -0.17548668  0.0315014
 -0.07955264  0.00963602]
[ 0.6066318  -0.02828351 -0.22508606 -0.02560197  0.4243907   0.4107482
 -0.23918208 -0.05172261 -0.03085321  0.13848728 -0.1702352  -0.14429183
  0.10268702 -0.0900735   0.01352165  0.11135033  0.08379398 -0.12799697
  0.08976395 -0.03743925]
[-0.0968783  -0.11345381  0.07826943 -0.1692044   0.02720599  0.25055432
 -0.22499844  0.09070143 -0.15755671  0.04930038 -0.23587714  0.43313375
 -0.24445523 -0.14522262 -0.09574857  0.04552942  0.14817816 -0.10886365
  0.04424029 -0.05404378]
[ 0.230871   -0.03813269  0.21009803  0.00542797  0.10616338  0.01603395
 -0.01485058  0.06972179 -0.15243374  0.06820584  0.2192682  -0.11067556
  0.03962281  0.14617465  0.03304174 -0.02047227 -0.04495033  0.03512221
  0.02459905 -0.02227701]
[ 0.01617371  0.02822411 -0.12700693 -0.16324976  0.01913348  0.13143826
  0.09813534 -0.06691561 -0.14198993 -0.01714944 -0.08315682  0.23906435
  0.11247542  0.3018046   0.05325649 -0.12461533  0.02749415 -0.02454169
 -0.03025665  0.10633551]
[-0.12238096 -0.01987614  1.2929513   0.0039571  -0.5524181   0.34578517
  0.02304679 -0.02357231 -0.11222853  0.1287991  -0.23806663  0.20367727
 -0.1431099   0.03152533 -0.00687196 -0.03772292 -0.01069715  0.07995
  0.01849631 -0.16752261]
[ 0.07636491  0.07749168 -0.02078681  0.1693825   0.10260382 -0.12692474
  0.03082099  0.02419946 -0.16663782 -0.02030694 -0.0130735  -0.06755632
 -0.02160734 -0.10580681 -0.06429067 -0.08830653  0.02275352 -0.04059513
  0.06103259 -0.03919937]
[ 0.11960744  0.02246776 -0.16228558 -0.05951417 -0.09343019  0.16051301
  0.11234531 -0.00344456 -0.08945639 -0.02066343  0.02154863  0.12510481
  0.06943778  0.01605734  0.10456919 -0.06083212 -0.07691199  0.07044847
  0.00937461  0.01930065]
[ 0.22233005  0.16808824  0.00925489 -0.01969393  0.002788   -0.10874359
 -0.07442368  0.0093206   0.0609068  -0.07724857 -0.2122604   0.15964228
  0.00823944 -0.02509657 -0.07326082 -0.10323606 -0.05081009 -0.00247226
 -0.05851902 -0.03438299]
[ 0.13841237 -0.01113724 -0.1464114  -0.04018096  0.25936064 -0.02857736
 -0.14349167 -0.00141858 -0.06470583 -0.06505726 -0.21546215 -0.03953231
 -0.06648217  0.00300923 -0.02078919  0.08561456 -0.08974809 -0.05725431
  0.01183408 -0.0959496 ]
[-0.243431   -0.09186313  0.691118   -0.17811406 -0.57312065 -0.3048228
 -0.12943925 -0.02682056 -0.08445273 -0.12331188 -0.05923704  0.33800343
 -0.05307292 -0.11154994 -0.09533585  0.08965737  0.2111554  -0.150172
  0.02775369  0.13438967]
[ 0.18199395  0.02273303  0.11588887 -0.15478279 -0.14759047 -0.04474083
  0.11952028  0.03702158 -0.08193918  0.10679615 -0.09604309  0.02921037
  0.11296199  0.26934552  0.00060657 -0.01182686 -0.00696926  0.05804003
 -0.0350986   0.04322881]
[ 0.36670458  0.00918967 -0.40108737  0.19010872  0.94018394  0.06865361
  0.02634461 -0.13700196  0.14292058 -0.12724824 -0.38598192  0.19525461
  0.00779229  0.1973211   0.141513   -0.01811616 -0.03142966  0.03425618
 -0.14398324  0.2008524 ]
[ 0.06314915 -0.07678094  0.71704274 -0.01225355 -0.7943557   0.61797535
 -0.02593617  0.04836533  0.0188999  -0.01987997  0.6649143  -0.22992828
  0.03750177  0.00360166 -0.1487457   0.00785082 -0.17122293 -0.07528755
 -0.01957249 -0.07052519]
[-0.18028899 -0.0152091   0.28989476  0.14373443 -0.68995935 -0.38011485
 -0.05677532  0.02936627 -0.13281173  0.05929392 -0.42377886  0.45776188
 -0.14619058 -0.11337269 -0.00774115  0.09539    -0.04893177  0.02223804
 -0.01224279 -0.02957014]
[-0.14311323  0.00319406 -0.3929678  -0.01972711 -0.06063576 -0.6349807
  0.22998655  0.0260316   0.05695302  0.04450352 -0.6067911   0.17229624
  0.05933465  0.09529418 -0.11253153  0.02222524 -0.21691279 -0.10648218
  0.06144857 -0.05901318]
[-0.48266825 -0.25435382 -0.13297324 -0.24222375  0.1659683  -0.03915936
 -0.08234412  0.08515665  0.12379594  0.18855645  0.06804841 -0.06555233
 -0.09302478 -0.09645586 -0.0081376  -0.01481681  0.07684611  0.00817318
  0.12246484 -0.05508428]
[-0.23559707  0.13157846  0.28156883  0.21947135 -0.7907058  -0.14098933
 -0.06801344 -0.08090696 -0.1309602   0.01341531 -0.5433527   0.5409574
  0.15792152  0.20797427  0.02471981 -0.02481688  0.03172537 -0.19281861
 -0.09551476  0.12499119]
[ 1.7799649e-01 -1.3833390e-02 -3.7810558e-01 -4.4112019e-02
  1.0318652e+00 -5.7493931e-01 -1.3334815e-02 -1.1614522e-02
  6.3437987e-03  2.8705368e-02  3.0642042e-01 -3.0830649e-01
  1.4178546e-01  1.0518197e-01 -6.2391639e-02 -1.3555945e-01
 -2.8878946e-02 -1.0262123e-01 -4.1290847e-04  2.5887153e-01]
[-0.03749171 -0.0969331  -0.11228591  0.08889623  0.11570333 -0.07165089
 -0.07767999 -0.03397135  0.09902225  0.02456033 -0.09778932 -0.02885944
  0.07121114 -0.04529647 -0.08973925 -0.04354317  0.03350436 -0.08018322
  0.00835361 -0.02839222]
[-0.36881536 -0.0668032   0.29184124  0.11891939 -0.5278254  -0.22945403
 -0.09300607 -0.03349641  0.07295528  0.0350922   0.31494907 -0.09460469
  0.04974098 -0.0009007  -0.05105314 -0.03237519  0.11777015  0.02530717
 -0.04099209  0.05550494]
layer 5 Activation
tanh
layer 6 Dense
20 1
[-0.08299685]
[0.00626359]
[-0.18558314]
[-0.01090119]
[0.17662814]
[-0.09397636]
[0.02523606]
[0.01088507]
[-0.01075484]
[-0.02081556]
[0.0734495]
[-0.03556262]
[0.01422748]
[0.02395635]
[0.02490116]
[-0.00417356]
[-0.02502695]
[0.00760039]
[-0.00795684]
[0.00878398]
[0.33184043]
