layers 7
layer 0 Dense
20 20
[ 0.32534978  0.5644565  -0.5259323  -0.2348311   0.3477442  -0.05057778
  0.27191034  0.03715127 -0.0536587   0.40023482  0.31708562  0.18325983
 -0.09080368 -0.1299963   0.30037415 -0.69921917  0.22715707 -0.22783853
 -0.13480076 -0.01901384]
[-0.19210026 -0.02663516 -0.43445808  0.06620087 -0.06559972 -0.12148123
 -0.37692693 -0.4145621  -0.5682839  -0.37365645  0.0720818   0.11212177
 -0.05800622  0.6266772   0.3748106  -0.66174966 -0.03444538  0.06688998
  0.06166505  0.27790806]
[ 0.4619328  -0.03142988 -0.6507784  -0.1883909  -0.3490043   0.01305934
 -0.3154925  -0.78286546 -0.7024429  -0.06863793 -0.3917478   0.37471157
 -0.13456012  0.1984585   0.11991222 -0.45998767 -0.19834201  0.17837867
 -0.00768773  0.46187273]
[-0.21925566  0.12807192 -0.11336133  0.0832599   0.11420938 -0.08709768
  0.47636107 -0.25110608  0.08584659  0.68452823  0.15693176 -0.10520419
 -0.4083303  -0.7931437   0.20250055 -0.47383365 -0.20402367 -0.00190703
 -0.24937843  0.01775236]
[-0.20439483 -0.2818919  -0.12128358 -0.33412397  0.07703323 -0.49321344
 -0.4253223   0.2680394  -0.23554537 -0.4402477   0.1091945   0.4457024
 -0.15398474  0.39108613 -0.02437624  0.01425911 -0.149727   -0.43031108
 -0.27633306  0.53261447]
[-0.32013154  0.48242024  0.9486536   0.3102549   0.5515302   0.09054134
  0.64236087  0.5360526   0.5775772   0.08690205  0.415055   -0.12790075
  0.00830525 -0.5373536  -0.00936899  0.38513124 -0.36422655  0.3149634
  0.22001281 -0.59316033]
[ 0.01697686  0.80273986  0.4212547  -0.13343318  0.35239086  0.16225015
  0.92820597  0.18740422  0.09371641  0.2836523   0.10552919 -0.36915508
  0.21976933 -0.5694048  -0.19916481  0.21666479 -0.48332173  0.3968102
  0.26749745 -0.38262632]
[ 6.0176898e-02 -4.8387170e-01 -8.8887755e-04  2.2623660e-01
  3.1815338e-01  1.3663223e-01 -9.5234704e-01 -3.1370029e-01
 -8.2912818e-03  6.0440768e-02  1.7710216e-01  5.4071895e-03
  2.1512498e-01  7.7651107e-01 -5.3997964e-01  7.1771318e-01
  3.8793021e-01  2.4237853e-01  2.3257245e-01 -1.7680643e-01]
[-0.679119   -0.05459186 -0.5186909   0.30048877  0.05207963  0.15549333
 -0.7243766   0.1396972   0.20924208  0.05899696  0.36215225 -0.17922175
  0.18881299  0.38300228 -0.04913621  0.22635175 -0.10530128 -0.21172851
 -0.50287896  0.19812125]
[-0.13560688 -0.23892206 -0.05161925 -0.14669634 -0.53912586  0.34433278
 -0.12081415  0.72846305  0.27686208 -0.58423847 -0.69678855  0.5777588
 -0.01653873  0.20162387 -0.4519439  -0.06486791  0.3445615  -0.33592594
  0.19196962 -0.37626895]
[ 0.48511165 -0.5421077  -0.06073771 -0.05005491 -0.00736372  0.30085462
 -0.55943805  0.8388357   0.22792654 -0.49048734 -0.08992917  0.5106992
  0.07874507  0.8264011  -0.6105924   0.7377837   0.13287583 -0.10738439
  0.27515027 -0.11955756]
[-0.14430648 -0.30665892 -0.18553708  0.02564452 -0.44659713  0.1406285
 -0.32386857 -0.41849023 -0.04314062  0.01071968  0.07554918 -0.06379205
  0.51111096 -0.33213472  0.39943138 -0.06558765  0.43697214 -0.02530714
  0.29684106  0.17271294]
[ 0.04242228 -0.6292356   0.1992588   0.02564055  0.339923   -0.01681173
  0.17641611  0.7541541   0.3581675   0.01917854  0.08382323  0.30472115
 -0.81129277  0.22020571  0.01343986  0.08470497 -0.49458605 -0.54328865
  0.2526283  -0.0432245 ]
[ 0.5703382   0.07619747 -0.6950972   0.4943792   0.03491699 -0.11107741
  0.07020121 -0.3254345   0.37806588  0.06680438  0.501757   -0.17731407
  0.50570786 -0.08213228 -0.4455785   0.0735204  -0.16770995  0.06525221
  0.9362492  -0.28803185]
[-0.610246    0.54777074 -0.2223799   0.04579106 -0.06403073  0.26644048
  0.5730848   0.10185032  0.05743225  0.552428   -0.09879827 -0.24860078
  0.22923517 -0.36463943  0.403333   -0.12752502  0.22461322  0.36957595
 -0.22964339  1.0615388 ]
[-0.25029     0.3355195  -0.02855547 -0.61777216  0.2590684   0.4466766
  0.25426     0.16201542  0.42485666  0.3835728  -0.38122296  0.16636913
 -0.03027458 -0.29866233  0.33189687  0.0661092   0.27698857 -0.11071865
  0.0366146  -0.72575563]
[ 0.01857775  0.30792433 -0.17922522  0.08560572  0.04710017 -0.32007182
  0.34417373  0.13366711 -0.26192355  0.2866598   0.06427439  0.36775082
 -0.5219537   0.3556927   0.01032245  0.06325535  0.41740328 -0.22016174
 -0.61924744 -0.14102681]
[-0.46075118 -0.1313447   0.7040236  -0.5436499   0.05816884  0.23428173
 -0.06674154  0.12160461 -0.81684643  0.7705352   0.6803577  -0.33638117
  0.42420968 -0.07675137  0.3555375  -0.0876061   0.39741144  0.27617863
 -1.2437575   0.5046465 ]
[ 0.22551724  0.42898712 -0.12377451  0.2083151   0.3742758   0.06100715
  0.2630495  -0.6295871   0.03267721  0.20652512  0.3756119   0.06316378
  0.07357913 -0.23944928  0.03960506  0.05911763 -0.2648395   0.14648446
  0.0256404  -0.5460359 ]
[ 0.4337275  -0.7918679  -0.05844065  0.5088346  -0.13082032  0.09163056
 -0.5400196   0.2480801   0.4283486   0.5968135   0.2739988  -0.16180976
  0.26414332  0.3959772   0.49995288  0.25251266  0.1196631  -0.80013454
 -0.16241683 -0.01992746]
[ 0.25161937  0.5563686   0.08485696  0.01762687 -0.02495402 -0.04923946
  0.68980956  0.03875621 -0.09101933  0.33937567 -0.03336831  0.0027613
 -0.1757963  -0.48146597  0.1969804  -0.51700354 -0.11146151  0.12017137
  0.13150235 -0.12181641]
layer 1 Activation
tanh
layer 2 Dense
20 40
[-0.08478379  0.13928412  0.12657155  0.11568487 -0.2801727  -0.1760291
 -0.1970742  -0.031787    0.15734844  0.09695987 -0.18135676 -0.24490707
  0.02729068  0.0066638  -0.43809515  0.38763008  0.17150608  0.3989555
 -0.06131227 -0.19611266 -0.08226474 -0.18065389  0.12897578  0.43983158
  0.02426238 -0.33008358  0.2727392   0.25861678  0.17591089 -0.12983008
  0.22376318  0.00222848 -0.17650229  0.06172112 -0.01590679  0.291762
 -0.02984438  0.23279838 -0.51900756  0.2619771 ]
[ 0.06513116 -0.04062159  0.01293565  0.04136316  0.12377136 -0.19990312
  0.19362941 -0.06357414 -0.00438803 -0.2361373   0.17673443 -0.251288
  0.09058456  0.17605822  0.6255273   0.01418255 -0.06880173  0.02412488
  0.01015149  0.75882965  0.9814303   0.06082445 -0.5812529  -0.53505385
  0.03215391 -0.04605833 -0.23862153  0.06583297 -0.15425462 -0.01927145
  0.08375444  0.12130389 -0.12532227  0.11367139  0.20042783  0.0211958
  0.37648034  0.04423838  0.28943598 -0.5171134 ]
[ 0.22180828 -0.27877888 -0.07862332  0.17036708 -0.0848933   0.05668406
  0.04951385 -0.22293364 -0.04584889 -0.12277567 -0.05560159 -0.11144561
  0.34317115  0.23296325 -0.18102677 -0.19471869  0.17758776  0.14008702
 -0.21446358 -0.03513602  0.03560455  0.0230979   0.00536484  0.09148639
 -0.1598581   0.10013194  0.00563211  0.00872456  0.12750354  0.2154528
 -0.26262373 -0.12888262 -0.24198867 -0.08191144 -0.04916891 -0.02592671
  0.01667592  0.13821076  0.14233682  0.12875794]
[-0.0894542   0.26382524  0.20409645  0.1065799   0.31179014 -0.11314426
 -0.00985272  0.085179    0.13546194  0.42490038 -0.00455203  0.15285693
  0.02438374 -0.16216934  0.01559384  0.0698226   0.2841011   0.21969588
  0.10218788 -0.24219683  0.00619344 -0.00890431  0.10607161 -0.11523797
  0.24028273 -0.06899208  0.24310528 -0.18175317  0.06804451  0.218717
 -0.13324365  0.00214236  0.01979581 -0.07919094  0.11664856  0.05512814
 -0.16202912 -0.34228352  0.03813865 -0.19516826]
[-0.08107881 -0.13960367  0.09707364  0.08777209 -0.14354452  0.14489678
  0.04414735  0.21579683 -0.05400723 -0.10977489 -0.01097906 -0.11306345
 -0.13341905 -0.20078832  0.11190835  0.35981336 -0.06341782 -0.01043191
  0.10900256 -0.16788845 -0.15893734 -0.31488746  0.23299491  0.24381922
  0.007231    0.01486871 -0.09257616  0.13772413  0.1416029  -0.32034728
  0.05438162 -0.13085994  0.15155873  0.13552448  0.1230791   0.19517432
 -0.12936498 -0.3828889  -0.04475721 -0.12491699]
[ 0.01382347  0.00667081 -0.02782221  0.05720522 -0.23025465 -0.08419207
 -0.27891025 -0.32923985 -0.12358595 -0.07529756 -0.10409994  0.07706756
 -0.30063966  0.1428879  -0.08148865 -0.21370184  0.18969306 -0.2795629
  0.18088964 -0.15992878 -0.12361001 -0.03158011  0.18480349  0.21446685
 -0.17111114  0.127893    0.31506434 -0.2261591   0.00810391  0.22021255
  0.15826021 -0.0303046   0.17756464  0.03209752  0.4107302  -0.20290132
 -0.16911258  0.21061932  0.1988325  -0.16325162]
[-0.00192112  0.21331546  0.03961602 -0.20216504 -0.20423795 -0.16323951
 -0.11530799 -0.11887152  0.0936146   0.09735633  0.12190948 -0.00124034
  0.20149629  0.22582027  0.21278071  0.11054804  0.14158833  0.28432515
  0.05326502  0.8030524   0.511371    0.08763183 -0.504276   -0.34710076
  0.1399439   0.12625654  0.09376129 -0.01412609  0.5546106   0.08865871
 -0.29319432 -0.42096695 -0.03977631  0.28172183  0.43425828  0.19286323
  0.14717838 -0.0753326  -0.02986344 -0.6535495 ]
[ 0.04354977  0.44293988  0.43796864  0.08141071 -0.36117572 -0.1732009
 -0.0932359   0.0170184  -0.28003365  0.2878422  -0.3059978   0.03295776
  0.13218053 -0.12071125 -0.41514388 -0.06716712  0.00510083 -0.00768175
  0.03838174  0.13078804 -0.2655231  -0.2506446   0.06007856  0.13681789
  0.3020032   0.04445896  0.02935582  0.14100501 -0.16010194  0.28031164
 -0.5147092  -0.11328456 -0.2924348   0.08215082  0.27711815 -0.20333338
 -0.29308417  0.13939637  0.22324663  0.15356687]
[-4.82495758e-04 -1.07850477e-01  2.01846454e-02  1.06870262e-02
  1.01538204e-01 -4.84733842e-02 -5.15195787e-01  1.40795395e-01
  6.60141259e-02  1.91691652e-01 -4.12067294e-01 -1.77914500e-02
  9.26085636e-02  5.17390482e-02 -3.49916220e-01  2.14227214e-02
  2.65582532e-01  1.91827819e-01  1.97323591e-01 -2.23310843e-01
 -1.32211983e-01 -2.29535297e-01  4.06207502e-01  1.07122518e-01
  1.28736943e-01 -2.94458985e-01 -5.02844993e-03  6.88389316e-02
 -1.73752934e-01 -1.77778140e-01 -2.24226713e-01 -7.78889433e-02
  9.39546749e-02 -2.41848215e-01 -3.91688235e-02  1.37072597e-02
  3.07351369e-02 -1.13863334e-01 -2.19761476e-01  3.92872632e-01]
[-0.20822944  0.09286258  0.18546912  0.07793961  0.3874848   0.15671247
  0.08519028  0.20499703 -0.0512002  -0.10830989 -0.10362014  0.09601068
  0.12132455  0.03531763  0.50589675 -0.01319119 -0.06729105 -0.24548604
  0.08235113  0.23830721  0.2586791  -0.1924513  -0.12580848  0.331911
 -0.19185266  0.29391396 -0.05609681 -0.19986917  0.23372321  0.09927135
  0.08702724 -0.27608806  0.28437725 -0.06893138  0.45996648 -0.09361098
 -0.15710531 -0.09554428  0.1803658  -0.3051523 ]
[-0.28057107  0.31229112 -0.05155307 -0.05888504 -0.06903865 -0.02510205
  0.23499967 -0.03553011  0.07310695  0.25500286  0.03375416 -0.2808087
 -0.33927724  0.18746409 -0.51120865  0.3056196   0.34040332  0.08929214
 -0.09039869 -0.0998124  -0.15162705 -0.16502285  0.35612744  0.15247473
  0.22618487 -0.05214873  0.60360086  0.2068806   0.04595316 -0.26040354
  0.17875698 -0.10361353 -0.05406098 -0.21072014  0.21181734  0.00498447
 -0.03064892 -0.06569471 -0.38061175 -0.01920027]
[-0.20852429  0.00953647  0.25694948 -0.318825   -0.3425227   0.3017847
 -0.00192841 -0.05322531 -0.0430377   0.20882311 -0.05332502  0.40610367
  0.0633653   0.03270171 -0.0744079  -0.03118911  0.04295222 -0.3712691
  0.00272947 -0.09975588 -0.05264834 -0.17783098  0.15825574 -0.19446617
  0.01031021  0.07007349  0.23717156 -0.02599829 -0.00332892 -0.07025703
 -0.15069993  0.05721257 -0.17872095 -0.10647035 -0.1412457  -0.09114095
  0.19674644  0.29431403  0.04498872  0.27620542]
[-0.22031812 -0.22427106 -0.3421792  -0.19136624  0.31290433 -0.06951886
 -0.14890395 -0.04703221  0.01918085  0.13816285  0.30325034  0.31273603
 -0.02911126  0.33419394  0.2208444  -0.15612875  0.17796704 -0.01953523
 -0.17513303  0.2001737  -0.19373521  0.22671439 -0.04422856  0.14361607
 -0.1795475  -0.0506781   0.05927385  0.13044329 -0.32731518  0.06396156
  0.09129506  0.18350586 -0.02716959 -0.02176679 -0.16840485  0.14749499
  0.02897493 -0.03676589 -0.06300166 -0.243145  ]
[-0.26552385 -0.02108746 -0.0137156  -0.23652199 -0.11856359  0.08054118
 -0.10692289  0.04094939 -0.08116855 -0.06274539  0.17139839  0.4226724
 -0.06965903  0.11289322 -0.06083219  0.02176363  0.03566654 -0.32774544
  0.10307733 -0.71053874 -0.4686072  -0.03132858  0.43504906  0.38519412
  0.14191207 -0.08536667 -0.2234337   0.16824739 -0.3627517   0.26711592
  0.2575145   0.22142059 -0.17428863 -0.22278278 -0.20430256 -0.188166
  0.20378713  0.11320909  0.12928858  0.18198358]
[ 0.01455264 -0.12457184 -0.04797199  0.16947095  0.1851466   0.17182274
 -0.26641244 -0.18473883 -0.3279338  -0.06084338 -0.27982932 -0.01175331
 -0.18113458  0.0084151   0.48472863 -0.14309773 -0.29400182 -0.05898571
  0.35030723  0.30119058  0.5467812  -0.0154551  -0.15810613  0.07706295
  0.1164883   0.11807647  0.00367578  0.05604502  0.13864285  0.14014325
 -0.00167931 -0.33373854  0.07613058  0.04728552  0.11691345 -0.228468
  0.08076737  0.02419644  0.19368428 -0.14222245]
[ 0.20614031 -0.41823915 -0.20295466  0.04270491  0.12163752 -0.24674056
 -0.05645147  0.25384256 -0.16243309 -0.26987183 -0.13212788  0.15425503
  0.20270309  0.01476786 -0.6516306   0.03952452 -0.29611123 -0.07781737
 -0.11805525 -0.56918555 -0.9918873  -0.1835166   0.58671093  0.5799577
 -0.14687088 -0.1796737  -0.32616112 -0.20215537 -0.5610538  -0.0733045
  0.31659937  0.24703376  0.07444339 -0.10963643 -0.08350042  0.18909375
 -0.15606081 -0.12757859 -0.21518834  0.23777202]
[-0.24990799 -0.22842307  0.25542352 -0.1561555  -0.22455059 -0.16291633
  0.04399419 -0.14667134 -0.39748147 -0.13542405  0.04368278 -0.22854185
  0.18224007 -0.23943102  0.04943539  0.08792759 -0.06088519  0.02376465
  0.1316438   0.07944147  0.27222103 -0.12709254 -0.23023222 -0.07691074
  0.1687271   0.23346949 -0.3104947  -0.2762144  -0.15968834 -0.04862213
 -0.24807487 -0.31849563  0.01803857 -0.13639401 -0.04210573 -0.3924365
 -0.13575496 -0.46887583  0.4649433   0.01920513]
[ 1.36993572e-01 -3.88393492e-01 -6.41742229e-01 -2.30707034e-01
  1.77666143e-01  1.76529735e-01  3.76325995e-01 -1.65474713e-01
  2.07783859e-02 -1.93662763e-01  1.81147695e-01 -9.41483825e-02
 -3.34102035e-01  3.45276356e-01 -4.00662243e-01 -7.98763409e-02
 -2.73533892e-02  1.91076204e-01 -5.20078242e-01 -1.70703262e-01
  6.38258643e-03 -1.37067780e-01  1.39936700e-01 -4.94471341e-02
 -3.45448732e-01 -2.78833389e-01 -9.98294204e-02  7.82881007e-02
  1.02428950e-01 -1.20053235e-02  2.26882309e-01  2.83783883e-01
 -1.18883975e-01 -4.58034165e-02 -1.95630148e-01  2.17870772e-01
  4.45465557e-04 -2.69993991e-02 -3.04576129e-01  4.17892709e-02]
[ 0.08765735  0.29867303 -0.21517223 -0.20990673 -0.4909081   0.1093027
 -0.2690198   0.24189427 -0.10477584  0.2023185  -0.2619096  -0.18709344
 -0.12804553 -0.01984653 -0.2315839   0.06897776  0.10766882  0.44509393
  0.15480621 -0.15468422 -0.36238092 -0.2789055   0.15229346  0.21231762
  0.10655731 -0.13593844  0.01399913 -0.15843047 -0.13186139 -0.05838272
  0.23168589  0.12390011 -0.09624409  0.00177739  0.20148258  0.1857744
 -0.19861305  0.1554353  -0.55368555  0.0667678 ]
[ 0.16115838  0.18491045 -0.02356354  0.07890844  0.02362309  0.23737517
 -0.07761955 -0.07558341 -0.16761613  0.28176066  0.41359112 -0.30022016
  0.04982715 -0.21590629 -0.07917901  0.1604327  -0.15890749  0.31771085
 -0.18315956 -0.25924942  0.09670027 -0.27901927  0.18173453  0.03303019
  0.13461532 -0.24309994  0.13385072 -0.05005753 -0.15534163  0.02525891
  0.12312054 -0.13429809  0.09172653  0.1623518   0.08420056 -0.03376409
  0.02742707 -0.00283381 -0.10483163  0.11700764]
[ 0.11167032  0.15231667  0.05266722  0.04117937  0.06167135 -0.06332935
  0.11493878 -0.1275912   0.27052793  0.04020967  0.06320149 -0.4497087
  0.10489301  0.01770921  0.22876701  0.27321726  0.13426538  0.25722915
 -0.16208038  0.41855362  0.32790336  0.5265153  -0.2710372  -0.46773216
  0.30894363  0.00345769 -0.1795458  -0.12844434  0.13947152  0.07429677
 -0.03005112  0.0208808   0.03612189  0.00702943  0.07535537  0.012228
  0.13208534 -0.00338994  0.03586496 -0.0338627 ]
layer 3 Activation
tanh
layer 4 Dense
40 20
[-0.14828865 -0.06539928 -0.3261912  -0.34223443 -0.02807648 -0.04285831
 -0.15136306 -0.22223563  0.14537281  0.0063343   0.06708508 -0.00869317
  0.13850173 -0.15198147 -0.13398987  0.28236085 -0.22376373  0.02358212
 -0.15731059  0.20333944]
[-0.14971434  0.19214989 -0.08319502  0.25246355 -0.10199584  0.13142586
 -0.14684305  0.05897553 -0.1877872  -0.01620658 -0.21030395  0.12175056
  0.05701344 -0.01257828 -0.28842276  0.20634124 -0.41159856 -0.02217664
 -0.20263596  0.24008238]
[-0.12969378  0.297473   -0.00140991  0.1967425  -0.05129178 -0.13577165
  0.05202778  0.08340996  0.0164408  -0.01350514  0.03630634  0.12930046
  0.06997792 -0.17564708 -0.12117753  0.29112825 -0.0826862   0.09429433
 -0.10036435  0.0572731 ]
[ 0.03765966 -0.02228698 -0.00603281 -0.14121462 -0.11255463 -0.05189631
  0.01374919  0.18616912 -0.12153076  0.01051469  0.2713116  -0.09116799
 -0.15891054 -0.09254617 -0.03493101 -0.02501351  0.11974084 -0.02709984
 -0.01882499 -0.20729095]
[ 0.29521784  0.14540882 -0.18641523 -0.10611454  0.09586804 -0.04609272
  0.01689165 -0.39781794 -0.07758989 -0.15350391  0.25188175  0.31090146
 -0.01184003  0.03867982  0.02754026 -0.05206212  0.11144104 -0.01825767
  0.09283113  0.02742921]
[ 0.07259876 -0.04469617  0.16360909  0.03080913  0.01119371 -0.17643984
  0.09638951  0.07490042  0.07613127  0.14399616  0.2607267   0.00518359
  0.12721375 -0.18259855 -0.03557413  0.04829937  0.22474426 -0.10472669
  0.14954951  0.02051702]
[ 0.3157631   0.02395724 -0.17618    -0.01026712  0.07443963  0.06671493
  0.06262497  0.1567416   0.20980918 -0.16328943  0.19066097  0.0392247
 -0.17119917 -0.08870236  0.1859449  -0.04896444  0.06558081  0.02468077
  0.20027854 -0.22441693]
[-0.29414183 -0.18702705 -0.19361156  0.23769313 -0.03046596 -0.21813564
  0.05396928  0.07717615 -0.05028663 -0.02404946 -0.0176204   0.01879909
 -0.09382746 -0.24250011 -0.20865133  0.212294    0.02678358  0.00862953
  0.28604206 -0.08752259]
[ 0.14574544  0.20219074 -0.12898724 -0.07708678  0.02191389 -0.025152
  0.09134609 -0.12739438  0.48410907  0.0371543   0.01222152  0.20497455
  0.14185861 -0.02440345  0.2485544  -0.24953143  0.21570434 -0.12682885
 -0.12706731  0.02964567]
[-0.24042004  0.06149764 -0.16556272  0.35768616  0.06520804 -0.01639797
 -0.00268772 -0.07404186 -0.17517984  0.07199387 -0.25384516 -0.07944799
 -0.02141222  0.06596994 -0.2670083   0.0530875  -0.16476503  0.03551691
 -0.2835744   0.05608537]
[ 0.11338826 -0.02865909 -0.09379875 -0.06177086  0.18941239  0.21029936
 -0.03147377  0.13526382  0.1403866   0.2001123   0.02563234 -0.00328465
 -0.21810776 -0.08054383 -0.08965362  0.03148974 -0.24981304  0.01575172
  0.0721033  -0.06199911]
[-0.22194028 -0.3600391  -0.19819255 -0.06134129  0.12341304 -0.04241256
 -0.23183896 -0.03864623 -0.12475622 -0.08339286 -0.1799319   0.04076905
 -0.28946966 -0.20317262 -0.16231282  0.20070612 -0.06372656  0.04431806
 -0.00735865  0.21675722]
[ 0.12524725  0.32906732  0.1690004   0.0494394  -0.02636446  0.07093258
  0.12693802 -0.22344382  0.2720817  -0.01845983 -0.06759064  0.04002849
  0.1809639   0.12420503  0.12731755  0.17831041 -0.07426601 -0.01746493
 -0.06369139  0.06418069]
[ 0.14463913  0.00186264  0.13574381 -0.10664501 -0.21286163 -0.03360574
 -0.0368345  -0.12633716 -0.00635544 -0.03460816  0.04092268 -0.02168687
  0.0445013   0.18003161  0.03518758 -0.30187994  0.03609934 -0.01643048
 -0.08860181 -0.02017811]
[-0.05172489 -0.06042589 -0.15985012 -0.43763974 -0.21744637  0.20915493
 -0.25612456 -0.1258633   0.2451986  -0.20711355 -0.18744032  0.53422046
 -0.04223137 -0.26304123  0.2225876   0.24037178 -0.4449573   0.27247673
  0.18775374  0.332758  ]
[ 0.02606722  0.41361704 -0.1848581   0.3688774  -0.10715603 -0.04939952
  0.21660274 -0.03621065  0.20030977 -0.12719171 -0.02570003 -0.05572407
 -0.07480654  0.04577965 -0.19381982  0.02845414 -0.05182647  0.10490899
  0.00816426 -0.04397172]
[-0.28060028  0.0673274  -0.01281982 -0.0615017  -0.14802891 -0.08455022
 -0.13145617 -0.29349136  0.07305425 -0.02663465 -0.06959752  0.09884029
 -0.07930164  0.03932927 -0.10355438 -0.12248006 -0.14714314  0.03032523
 -0.24908668  0.3024978 ]
[ 0.17367199  0.6125621   0.02832522  0.24357302 -0.0839829   0.08364067
  0.15026772 -0.2739067   0.31500697  0.0471824  -0.05650031 -0.02267438
  0.32862186  0.14741741  0.12531407 -0.4693518   0.06141428  0.0184912
 -0.28690964 -0.06064957]
[ 0.06909411  0.1418962   0.02417562  0.08233303  0.00544362 -0.02862828
  0.23844437 -0.00849802 -0.04321743 -0.21078268  0.0615054   0.27975887
 -0.0558484  -0.02449122  0.07591094 -0.02219664  0.05881763  0.10161328
 -0.11627643  0.1180956 ]
[ 0.14473632  0.19046654  0.25367415 -0.27694988  0.33078077 -0.30135226
  0.16463135 -0.35567114  0.30400822  0.02694221 -0.06493965  0.4048114
 -0.30619475 -0.31646422 -0.23731302  0.02883808 -0.06334842 -0.03059181
  0.03560741  0.42557147]
[-0.14438608  0.29077813 -0.41449058 -0.24386361 -0.07782405 -0.16745505
  0.04498703 -0.36791313  0.39849037 -0.13421883 -0.13685046  0.51229084
 -0.1599323   0.27810955  0.20279913  0.21518147 -0.5217366  -0.18034722
  0.14424066  0.53094894]
[ 0.16871552  0.06511237 -0.13514794 -0.33500126 -0.03299745 -0.0614463
 -0.08950247 -0.17485218  0.34702182 -0.02895335  0.03006802  0.30195445
  0.1140624  -0.05518553  0.06879688  0.033552   -0.03669606  0.08851255
  0.02808153  0.19968937]
[ 0.10615836  0.13471347  0.00988847  0.29846513 -0.02684177 -0.13549554
  0.12740824  0.19247279 -0.3654416   0.06100645 -0.2756849  -0.5955066
  0.01282638  0.04666318  0.07986308 -0.03137567  0.5155006   0.07261901
 -0.21973394 -0.16293922]
[ 0.30510554 -0.06530684 -0.10899215  0.3620038   0.00517269  0.02755687
 -0.05673259  0.34154618 -0.46235585 -0.01198607  0.09041009 -0.6074449
 -0.06738698 -0.00159909  0.13769107 -0.28305915  0.25642022  0.07219665
  0.2144199  -0.28625843]
[ 0.01229129  0.27793208 -0.05041898  0.2874115   0.08160952 -0.0284408
  0.18835701  0.09460654  0.1598528   0.10967635 -0.079695    0.11513054
 -0.07140689 -0.015592    0.0243536   0.06388219 -0.06435318 -0.05731159
 -0.11937585 -0.13629526]
[ 0.18451254  0.07737152  0.13899367 -0.15701379  0.04726654 -0.09546907
 -0.11047152  0.15497623  0.0397973   0.20214514  0.18399777  0.12346305
  0.06276888 -0.05489301  0.20669305 -0.03046943 -0.00110527  0.00254455
  0.08490298 -0.00516891]
[-0.11642464 -0.05430843 -0.10652037  0.26294675  0.01069277 -0.15618427
 -0.03129601  0.14319354 -0.2890949  -0.01264036 -0.02880576 -0.05363031
 -0.0042193   0.08611913 -0.26225546 -0.01260479 -0.16949888  0.19898136
 -0.0544767  -0.04946626]
[-0.0978369  -0.04916399 -0.02326894  0.39269045  0.04378188  0.01573398
  0.00500739  0.17854597 -0.29263958  0.11201099 -0.09200416  0.02635444
 -0.08616506 -0.05399847 -0.4624968   0.18071249 -0.16798942  0.08253255
  0.27619004  0.09563674]
[-0.01284127  0.10927436 -0.3403538   0.2538673  -0.1174845   0.13241783
  0.09796868 -0.3770999   0.08796944 -0.00823687 -0.16084103  0.20236377
 -0.04797265  0.17013395 -0.21160042 -0.1158009  -0.5873162  -0.16266575
 -0.18070357  0.4352764 ]
[ 2.2421300e-05 -7.8608811e-02  9.0524547e-02 -4.1059652e-01
  1.5982524e-01  4.7292259e-02 -2.0683630e-01  1.8468124e-01
 -6.0487892e-02 -8.1397422e-02 -5.6161650e-02 -3.7029196e-02
  2.0697825e-01 -9.2062995e-02  1.9881509e-01  7.4855555e-03
  7.9334229e-03  2.2440369e-03 -2.2111539e-02 -3.0998388e-01]
[-0.07888952 -0.19002557 -0.19570126  0.03778199 -0.03917418  0.01224706
  0.00860641  0.10944993 -0.03618946 -0.10163438  0.07548368 -0.10092857
 -0.34748957  0.0585664  -0.09869984 -0.16045716  0.08816805  0.05657615
  0.01076557 -0.18336216]
[-0.3340965  -0.4853094  -0.16425523 -0.15345953 -0.14367637 -0.15412138
 -0.2292143   0.01597064  0.05567645 -0.14042157 -0.09428214  0.10188161
  0.02664991 -0.227529    0.06335443  0.13033263  0.11236966 -0.18892181
  0.1167969  -0.12921955]
[ 0.08317591  0.02648211 -0.07473557 -0.11511435  0.11629127  0.06915398
  0.09805895  0.06582321  0.00116138 -0.06997123  0.10403737  0.21384458
  0.03942339 -0.02078412 -0.03831057 -0.08179675 -0.20275074  0.09346385
  0.06863366  0.31871495]
[-0.22535434  0.27797213  0.00837978 -0.14864036  0.2069026  -0.0512186
 -0.13652031 -0.2619515   0.351949    0.3399434   0.15682054  0.13575523
  0.08167949 -0.0820936   0.00177199  0.05981673 -0.1466696   0.05484458
 -0.20882028  0.2691308 ]
[-0.11064073  0.10491724  0.19467258  0.43911394  0.10569798 -0.02355677
  0.04155875 -0.16040559 -0.11064406  0.10892141 -0.17647743  0.04007147
  0.00244608  0.11048124 -0.28196794 -0.0631537  -0.4141215   0.08104974
 -0.09150542  0.07732001]
[ 0.08525996  0.02088395 -0.00885827  0.3367808  -0.24117358 -0.1469074
  0.07216877 -0.09152713  0.01444688  0.01507015  0.20993112 -0.11291098
 -0.00801461  0.1455897  -0.0149617  -0.24679154  0.09853    -0.23039599
 -0.00209399 -0.1631928 ]
[ 0.22976239  0.35032126 -0.04196896 -0.1621525   0.04542705  0.00847095
 -0.01209371  0.0569499   0.21130794 -0.12984098  0.09538753  0.03244629
  0.10285518 -0.08358384  0.20770828 -0.02279678 -0.09826183 -0.10088146
  0.04605699 -0.02151924]
[-0.13131918 -0.13169192  0.0358272  -0.08876079 -0.00763581 -0.08782251
 -0.32326669  0.17574131  0.10422698  0.08191809 -0.14476267  0.13765755
  0.17065944 -0.03529736 -0.12542985  0.31806114 -0.20740561 -0.07102446
  0.05707647  0.08202185]
[-0.03980634 -0.03033288 -0.23833218 -0.60976034  0.1806362  -0.00893652
  0.06043179 -0.11095569  0.21292636 -0.0546466  -0.04331416  0.20348941
 -0.06314904 -0.17062736 -0.10023026  0.46970358  0.03206597  0.00435028
  0.0513673   0.16433334]
[ 0.31228676  0.13604876 -0.17864297 -0.02092024  0.02592302 -0.02021005
  0.04537952  0.33788672 -0.4605572  -0.01567483  0.20710278 -0.5894576
  0.15291984  0.02164085 -0.29814222 -0.11984669  0.03157915 -0.32768086
 -0.33844164 -0.42031077]
[-1.1380349e-01  1.0397371e-01  9.1539085e-02 -1.8452534e-01
  5.1383689e-02 -7.1607754e-02 -1.5330834e-02 -3.6061090e-01
  3.9272688e-02 -7.6861240e-02 -1.4447868e-02  2.3057964e-01
 -5.2204754e-02 -1.7237110e-01 -7.4208274e-02  2.4205425e-01
 -3.0194788e-05 -1.5166733e-02  3.6729202e-02 -1.3584948e-01]
layer 5 Activation
tanh
layer 6 Dense
20 1
[0.0032845]
[0.05653118]
[-0.00497757]
[-0.01841362]
[-0.00681857]
[0.00263303]
[-0.00331773]
[-0.133919]
[-0.08819873]
[0.00729529]
[-0.00729191]
[0.16752094]
[-0.00311796]
[0.00715788]
[-0.00650162]
[-0.00128471]
[0.1519941]
[-0.01025818]
[0.00668642]
[-0.15350908]
[0.02366493]
