layers 7
layer 0 Dense
20 20
[-0.5014452  -0.01844269  0.14025281  0.12345423 -0.81899416  0.21496482
  0.06092808 -0.160798    0.04012294  0.13482632  0.29083332  0.38095057
 -0.1912394   0.04064362  0.14639927  0.07417458 -0.25447392  0.0593716
 -0.30452657 -0.591791  ]
[-0.51800364  0.43402654 -0.50748855 -0.6999616   0.19086179  0.6760485
  0.6808522  -0.11307379 -0.11703373  0.35836792 -0.76456815 -0.5164106
 -0.5084617  -0.63776654 -0.70956886 -0.24593154 -0.16251363  0.61379415
 -0.21476641 -0.69405854]
[-0.3945832  -0.07426757 -0.11870058 -0.32054755 -0.43089217  0.40723068
  0.37625548 -0.03029592  0.23288982 -0.1416372  -1.0318452  -0.21070603
 -0.47766954 -0.4584953  -0.23963703 -0.3437834   0.14793687  0.18883744
  0.12243719 -0.18785818]
[-0.1785911  -0.16422527 -0.26961324 -0.26410043 -0.79885143  0.18759613
 -0.24397624  0.22709708 -0.13106    -0.14178024  0.12857015  0.17291954
 -0.3696436  -0.15113033  0.2144973  -0.27800253  0.11222177  0.05696328
 -0.3443572  -0.39175147]
[-0.3820753   0.04421469 -0.47833112 -0.37969258  0.13907465 -0.32544878
 -0.11508518  0.32532606 -0.24074566  0.10882425 -0.0860181  -0.10471672
 -0.0800306  -0.24551079 -0.37332645 -0.27348897 -0.26544276 -0.32277974
 -0.11801343 -0.13128926]
[-0.340339    0.2617205   0.48477563  0.16452406 -0.32904074 -0.73014176
 -0.7258411  -0.4699816  -0.51930165 -0.16614868  0.8916889   0.49023357
  0.36925644  0.66419023  0.3241443  -0.20549047  0.36910942 -0.31206626
  0.09811853  0.42439595]
[ 0.29689965 -0.2924455  -0.20243163  0.4530912   0.01290855 -0.04130296
 -0.7217309  -0.07314273  0.19517294  0.18554239  0.55785644  0.7168942
 -0.21167909  0.34001654  0.3053787   0.11464639 -0.17978598 -0.46557435
  0.01028833  0.40912998]
[ 0.6473657  -0.07273325  0.46422985  0.48018986  0.83535206  0.05690629
  0.3390583  -0.3632127   0.29338512 -0.31488279  0.19880961 -0.21431832
  0.26407984  0.56480825  0.07304031 -0.01587156 -0.44067675  0.25302565
  0.35785484  0.3580643 ]
[ 0.24924107 -0.09016958 -0.41171858  0.13161777 -0.4539743   0.2896558
  0.07681695  0.31686902  0.00492885 -0.04392346 -0.80556     0.10909013
 -0.45211023 -0.13261814  0.2040011  -0.07972853  0.54751796  0.22499067
  0.62698907 -0.06572128]
[-0.6916597  -0.76679194  0.5068309  -0.21894729 -0.22437626  0.21532968
 -0.84404564 -0.12681744  0.30161366 -0.4667714  -0.14209615  0.93289
  0.06477706  0.4543913   0.69460446  0.5093775  -0.48942474  0.28763667
  0.5707387   0.34127113]
[-0.15484592  1.0229301   0.52997804 -0.11345373  0.33115697  1.1126752
  0.34853405  0.19507594 -1.0489321  -1.0731171  -0.5355162   0.20799449
 -0.6532358   0.49190378 -0.07706888  0.82941556 -0.29409555  0.13297124
 -0.5143306   1.0899887 ]
[-0.26258984 -0.10222746 -1.022349    0.12002231 -0.04121292  0.4601941
  0.20589916  0.2732091  -0.09547263 -0.10344539 -0.80943614  0.25983793
  0.03326667 -0.3872678  -0.4265236   0.47244063 -0.4005212  -0.03873463
  1.4335481  -0.29546234]
[ 0.08419749 -0.18025677 -0.8414882   0.6239004   0.8962979   0.5782935
 -0.44888994  0.5976919   0.00638483 -0.11697377  0.84946656  0.40341112
 -0.25051147  0.38944492  0.11277663 -0.18460692  0.25184435  0.00254607
 -0.4521655   0.5980162 ]
[-0.00323641  0.2709761   0.03459517 -0.35770717  0.13537268  0.25594667
  0.13083285 -0.2219727  -0.23807015  0.2673139   0.05213063 -0.08805674
 -0.12370628 -0.28272122  0.2553242   0.16792203 -0.14184685 -0.10699712
 -0.07527382 -0.17796487]
[-0.21325669  0.4027192   0.16413695  0.11718408 -0.70464027  0.25620785
  0.04365704  0.11156406 -0.12541783  0.11560634 -0.02347538  0.04402521
  0.14342424 -0.5917585   0.06882368 -0.49273953  0.34754264  0.04967508
 -0.16603106  0.23905057]
[ 0.5546593  -0.35328373  0.3689691  -1.0900911  -0.6659352  -0.12349056
  0.42796645 -0.860156   -0.43359336 -0.1944359  -0.52353126 -0.37872508
  0.22307648 -0.67462313 -0.48243725  0.99204    -0.29106882  0.01561791
  0.80796576 -0.3033902 ]
[ 0.09139194 -0.20269956  0.9816064  -0.6160622  -0.45068517 -0.5417242
  0.539018   -0.16804022  0.31623456 -0.26164025 -0.26669723 -0.64878505
  0.09869827  0.05513331 -0.29398093  0.1964229  -0.10400658 -0.12835816
 -0.03029758 -0.7718501 ]
[ 1.0095626   0.25589254 -0.5372861  -0.15850106  0.12364572 -0.5035195
  0.99828887  0.16910987 -0.0700931  -0.06833524  0.05066584 -0.6808734
 -0.5287156   0.0092598  -0.9155375  -1.1148132   0.6220574  -0.10006019
 -0.36097705  0.80796313]
[ 0.0704201  -1.2624333  -0.8382189   0.6738244   0.3571316  -0.22445188
  0.10863604  0.48997316  0.88951665  0.2197061   0.8679174  -0.15186796
  0.80305785 -0.45309278  0.23899673 -0.49559003  0.25485596 -0.44177222
  0.82143474 -0.92044747]
[ 0.0652847   0.3944236   1.2189349   0.742169    1.049094   -0.90549535
 -0.66678184 -0.12552099  0.57101065  0.03652683  1.2672698  -0.17221838
  1.4477472   1.1080049   1.5011737  -0.60750663  0.6432771  -0.53899086
 -1.5753524   0.8511253 ]
[-0.17389894  0.10762565 -0.14852233 -0.13859862 -0.24653682  0.06064849
 -0.02502625  0.04597642 -0.06043615  0.14415345  0.09903294  0.02241562
 -0.11838955 -0.2836154  -0.10388464 -0.0201067   0.02832044  0.06456327
 -0.02976104 -0.0605706 ]
layer 1 Activation
tanh
layer 2 Dense
20 40
[-0.10471334  0.15336719 -0.2703344   0.01239502 -0.0731382  -0.00537192
  0.32760024 -0.09550714 -0.29297787  0.01785093 -0.24449278  0.25883946
 -0.02726732  0.29911855 -0.45565808 -0.34767106  0.66843057 -0.175861
 -0.07607812  0.21406199 -0.24640213 -0.35490754  0.11909994 -0.2961874
 -0.05313034  0.25192842  0.17499632 -0.22294846  0.21865001 -0.26673067
  0.01663716  0.07060704 -0.06349953  0.00505581  0.04507708  0.48167333
  0.5252329  -0.33517095 -0.20342489 -0.15574445]
[-3.75299841e-01 -2.24705383e-01  4.60842729e-01 -3.78075272e-01
 -5.65645158e-01 -1.32260591e-01 -6.25179708e-02  7.59449452e-02
  3.14112633e-01 -8.67909417e-02  5.70552289e-01  4.36348498e-01
 -3.74709666e-01 -2.80389674e-02 -1.17098406e-01 -4.91235964e-02
  5.48600495e-01  9.92144272e-02 -3.36280875e-02  2.62974828e-01
  4.03525308e-04  3.34466100e-01 -2.08034087e-02  1.09580010e-01
 -9.29995254e-02 -5.04698634e-01 -1.58695221e-01  2.97133386e-01
  2.40830764e-01 -9.51366276e-02 -1.63669214e-01 -1.03209138e-01
 -1.22800000e-01 -2.78201610e-01  7.41372630e-02  1.96888447e-02
 -6.99520931e-02 -4.92619097e-01  1.13769919e-01 -4.76439416e-01]
[-0.4222962   0.28794345 -0.1256407  -0.92761856 -0.2549774  -0.42235827
  0.00826353  0.2943545   0.33371177 -0.18833716  0.684842    0.37139526
  0.70200384  0.14741652  0.06936851  0.09617353  0.04497391  0.3919512
  0.50754803 -0.09598527 -0.29146096 -0.3467269  -0.21570465  0.21877879
  0.0881685  -0.11395717  0.44884077  0.25067425  0.35121894 -0.15646273
 -0.40130877  0.71213543  0.04468193 -0.2851291  -0.1903282  -0.33089644
  0.10183762 -0.02400034 -0.12650868  0.23611283]
[-1.4529014e-01 -5.7767190e-02  1.9597761e-01  1.1085356e-01
  1.0673940e-01  6.2370324e-03  3.0634779e-01 -3.9284914e-03
 -1.9069052e-01  2.8859334e-02 -6.0497347e-02  1.9759672e-02
 -2.0870370e-01 -1.3463095e-01 -1.2491389e-02  2.5046211e-01
 -1.9125197e-02 -2.7734123e-02  2.7014360e-01 -6.3791148e-02
 -1.5467893e-01  1.7891189e-01  2.6377994e-01 -3.9212406e-01
  2.6713184e-01 -3.9685838e-02  2.6831758e-04  5.1494818e-02
  1.9531205e-01 -3.3908436e-01  3.0155662e-01  4.3672153e-01
 -1.0944780e-01  2.5112429e-01  7.8862511e-02 -2.8739855e-01
  1.7022869e-01  2.8337356e-01 -1.8221091e-01  2.7504128e-01]
[ 0.35760322  0.15752041  0.48522055  0.24378198  0.09766368  0.04897255
  0.28680298  0.32209378 -0.4092057  -0.14655823 -0.15382469 -0.17809613
 -0.18173149  0.09853086 -0.27742904 -0.1548949   0.06864019  0.3649152
  0.02706425 -0.20488754  0.12899777 -0.43812886 -0.06694635 -0.7321528
 -0.3474542   0.10835395  0.35020825  0.1938985   0.27205515  0.17400576
 -0.10671501  0.30901507  0.557462    0.20148878  0.29925996 -0.31978586
  1.1289736  -0.45587564  0.10873783 -0.27792653]
[-0.28570515 -0.12561409 -0.17923173  0.2160599   0.23320732 -0.01277189
 -0.02106029 -0.1940971   0.18846078  0.06134879  0.5842209   0.10086355
  0.15933195 -0.5042366  -0.0401386   0.25054607 -0.5698      0.10446177
 -0.08356266 -0.09001734  0.04114019  0.101924   -0.39481091 -0.12654053
  0.15743682 -0.10677543 -0.06508326  0.22870356  0.11124218  0.00911483
 -0.01615786 -0.16493632 -0.14266185 -0.24442941  0.04019364  0.1737638
 -0.12328856  0.06389323  0.01994346 -0.28679684]
[ 0.08887485 -0.21933833  0.21472415 -0.20454735 -0.04954907  0.15146098
 -0.41774538 -0.21440986 -0.11771584 -0.15060538  0.17770831  0.0028134
 -0.11903103  0.64536387  0.15534341 -0.3972201   0.68413734  0.22368708
 -0.0936206   0.02212017 -0.16389862 -0.12970732  0.29544094  0.02468699
 -0.00266098  0.18247186 -0.10513385  0.29937133 -0.00933823  0.15026864
  0.00972565 -0.27722263  0.12836161  0.29407707  0.3736596   0.52609277
  0.37172794 -0.03519065  0.11249841 -0.16452177]
[ 0.16999087 -0.16031018  0.06844027  0.20155096  0.04151406  0.1466917
 -0.05472509 -0.04583631  0.20298049  0.21973501 -0.06955002  0.0789635
 -0.0261354  -0.17887054  0.18468837  0.1480687   0.20090598  0.26583275
 -0.13331087  0.22698548 -0.1880746   0.43627453 -0.01533089 -0.35106376
 -0.00451903  0.2145326   0.00165401  0.18713808 -0.12445179  0.16125678
  0.45289168 -0.23244813  0.1915913   0.05612387  0.13696265 -0.00936834
  0.01005701  0.39639634  0.07353844 -0.11086815]
[ 0.47533715  0.18699683  0.02739775  0.24453901  0.07250401 -0.13990505
  0.14375757  0.07183925 -0.02090102  0.22489595 -0.5073176   0.11400862
  0.3761122   0.36032066 -0.48406315  0.03967303 -0.13741076  0.0861488
  0.28376728  0.0990141   0.1006682  -0.00196325  0.17898174  0.13887338
  0.07038075  0.11462325 -0.04099999 -0.02496434 -0.05993567  0.01130481
  0.6374326   0.13541412  0.33377635  0.46759695 -0.09616052 -0.2996167
  0.11633302  0.11509456 -0.32240897  0.4551636 ]
[ 0.15774363 -0.0522553  -0.24090545  0.36666945  0.06657274 -0.07606836
 -0.00305189 -0.35828418 -0.38783473  0.23295085 -0.37665763  0.14024627
  0.02214915  0.29472288  0.16461857  0.08942124  0.3043309  -0.00855394
 -0.03494716  0.13933343  0.20153207  0.10931985  0.07670984  0.02390442
 -0.04752714  0.06352507  0.28636748 -0.2085724   0.04091559 -0.12001839
  0.13674705 -0.13942164 -0.15619834  0.13290791 -0.028       0.15582599
 -0.13365072 -0.10393526  0.06579451  0.21424705]
[ 0.66008466  0.21958895  0.130071    0.5259584  -0.5845731   0.04553942
  0.28905421  0.5152757  -0.27068752  0.22949953 -0.16483192 -0.304019
 -0.5922832   0.46501437  0.43967244  0.13065712 -0.40608254  0.46682638
  0.1756725  -0.13143156  0.23161481  0.22014949  0.3022442  -0.2635874
 -0.00290265  0.01731876  0.2965561  -0.26511404  0.22608641 -0.265105
  0.20994444  0.2682556   0.60010445  0.3614644   0.2658662  -0.537533
  0.25467932  0.32606387 -0.15089665  0.09073888]
[ 0.09235257  0.11225197  0.17100897  0.00084699  0.19397824  0.15319657
 -0.19907776  0.03693492  0.3858769  -0.09042981  0.33279258  0.17475486
  0.12485701 -0.53391445 -0.10071972 -0.10867148 -0.7409218   0.26661536
  0.23426019  0.25037134  0.1506726   0.17955598 -0.24427538  0.06833073
 -0.23739326  0.2239375   0.11086728  0.21391807  0.00272336 -0.19416837
 -0.08619481 -0.09216481 -0.07696152  0.14179792 -0.08883606 -0.44311297
 -0.20911542 -0.1607041  -0.13998556 -0.17514211]
[ 0.21008556  0.18725456 -0.4172229  -0.2401429   0.13223691 -0.03268429
  0.1462255   0.2423438  -0.29685563 -0.00048339 -0.45381224 -0.12759809
  0.38431755  0.26764932  0.12736051 -0.08314233  0.22951356  0.14856076
  0.35284692  0.2422183  -0.00940235  0.21261966  0.22588286 -0.23364146
  0.08650316  0.02574253  0.15275979 -0.15477882  0.13133731 -0.03280205
 -0.02445935  0.15896708  0.2997431   0.29968438  0.19452715 -0.04705294
  0.18391122 -0.08633297 -0.32289904  0.10768563]
[-0.10453609  0.18802108  0.1951983  -0.43604612 -0.39083037 -0.24242693
  0.433702    0.33825856  0.22212958 -0.0139056   0.46732715 -0.04839952
  0.0427339  -0.25061    -0.11807316 -0.1261263  -0.3417342  -0.00396218
  0.10281358  0.262312    0.05213473  0.006119   -0.35934988 -0.40304184
  0.13359997 -0.3946676   0.20467126  0.07302956  0.26381615 -0.328652
  0.16331086  0.08469228  0.28697774 -0.3155337   0.1778165  -0.09295897
  0.4519103  -0.10206162  0.35595053 -0.27806368]
[ 0.02711149  0.06763151 -0.1304093  -0.1944727  -0.32793775  0.10785559
  0.46112847  0.33516085  0.15343533  0.07248966  0.39285058 -0.14322056
  0.21338214 -0.16547264 -0.02666824  0.09563497 -0.17245016 -0.04286677
  0.19002567  0.21006218 -0.04926579 -0.28997213  0.01278579  0.22177985
  0.01184665 -0.08588761  0.16198805  0.29102874 -0.2152083  -0.07839496
  0.23379892 -0.25002778  0.48094854 -0.10215256  0.01666563 -0.63167894
  0.1279336   0.2177647   0.11929522  0.02323302]
[-0.41790307 -0.09464025 -0.51152396  0.02316454  0.5590163  -0.23826674
 -0.21796344 -0.22864363  0.22018701  0.06540307  0.26400873 -0.07653618
  0.21480998 -0.9000626  -0.20831311  0.0831445  -0.64488715 -0.05416738
  0.01576799 -0.28085354  0.02044317 -0.14838217 -0.23150866 -0.10797564
  0.17867723 -0.34455234 -0.25511423 -0.00956981  0.09121258  0.04228301
 -0.23174444  0.02203374 -0.41845933 -0.1050735  -0.46559203 -0.1419354
  0.30843928 -0.3388891   0.15676439  0.39403224]
[ 0.18145072  0.00607036  0.32131034  0.15660469 -0.18091409 -0.03756777
  0.07106953  0.00617338 -0.4077654   0.24812451 -0.03110431  0.12499189
 -0.2649951   0.22376652  0.01949538 -0.02565597  0.42779833 -0.09447027
  0.26294607 -0.19062978 -0.20170128  0.11587618  0.14667131  0.170995
  0.29477164  0.09325315  0.09507206  0.1453319  -0.05066278  0.09754685
 -0.02105664 -0.048031    0.04424848  0.08354694  0.24829622 -0.00578584
  0.00918062  0.19052276  0.07385702 -0.22102697]
[ 0.01794527  0.14582342  0.21184084 -0.15353812  0.30617335 -0.30476356
 -0.02976803  0.13138996  0.22456318 -0.3814471  -0.08071888  0.01762446
 -0.01880281 -0.3459768   0.07090761 -0.03880956 -0.04223821 -0.1730355
 -0.03930834 -0.02741787 -0.32610157 -0.2132491  -0.10922241 -0.01619739
 -0.11882748 -0.137058   -0.06087951 -0.02787531 -0.27188146  0.06935116
  0.13438645  0.0640214  -0.11471853  0.06282371  0.01881561 -0.05001101
 -0.18272324  0.03149546 -0.01999921 -0.2641039 ]
[-1.4513268e-01  1.1213383e-01 -2.8771403e-01  1.0008061e-01
  8.1696379e-01  3.2210818e-01  1.0128002e-01 -2.4343891e-01
  5.9028946e-02 -7.9788147e-03 -5.2723074e-01 -2.2206944e-01
  3.7008867e-01 -7.8612636e-04 -1.1570707e-01  6.6970766e-02
  1.1327861e-01 -3.6047388e-02  1.4244910e-01 -4.4083041e-01
  3.4804821e-01 -2.8003651e-01  1.4185233e-01  1.0562027e-01
 -2.6052353e-01  3.2975599e-01 -1.4200823e-02 -5.1176667e-01
  1.2204473e-01 -2.3587307e-01 -1.2810154e-01 -1.9283487e-01
  1.9635141e-02  2.7157518e-01  2.9625336e-02  5.3505665e-01
  2.6677546e-01  1.5607802e-02 -1.3952254e-02  2.9159054e-01]
[-0.03807437  0.16307944  0.49915704 -0.39915925 -0.61759275  0.10439112
 -0.32321987  0.18139811 -0.0068347   0.03111954  0.4291935   0.5244844
 -0.3578831  -0.7923628   0.22632462 -0.09610356 -0.24832882 -0.1394734
 -0.21490844  0.14773144 -0.18261702  0.0779201   0.16926825 -0.03999281
  0.24814263 -0.37703246 -0.03764113  0.2976619   0.09260931  0.06372006
 -0.27263758 -0.06289011  0.3504673  -0.3572008   0.13007379  0.12224469
  0.19898488 -0.1961203   0.08172742 -0.5877118 ]
[-0.0007306   0.00601379  0.0394592   0.16198479 -0.15852122 -0.03339922
 -0.20786986 -0.13982043  0.25068286  0.05438399 -0.02289833 -0.04813154
 -0.16261807 -0.28849477  0.07597768  0.02692757 -0.1346162  -0.02867524
 -0.047948   -0.02397391  0.07266609  0.01791655 -0.15211794  0.05991778
  0.04078854  0.15869848 -0.09758033  0.07026837 -0.15328714  0.0340779
 -0.03468083 -0.10715107 -0.08066931 -0.01801738 -0.05841037 -0.07219617
 -0.1362472   0.02622414  0.0982024  -0.1614885 ]
layer 3 Activation
tanh
layer 4 Dense
40 20
[-0.16962387  0.25078848 -0.14165832 -0.11209213  0.2879792   0.08214952
  0.0741851  -0.3345886   0.16386835  0.02644717 -0.03824114 -0.20618841
 -0.10510217 -0.24597499  0.26260915 -0.27164522 -0.16132995 -0.20095582
 -0.14876409 -0.1980879 ]
[ 0.04589457 -0.09552474 -0.24622236 -0.20981352  0.08174371 -0.1361334
  0.15581231 -0.2122501   0.25278455  0.30285028 -0.08842874  0.10943338
  0.24453464 -0.03754834 -0.23696104 -0.09047902  0.06055249 -0.1290649
 -0.11313299  0.09251481]
[ 0.05770646  0.05594499 -0.10609817 -0.25585762  0.30086127 -0.09355281
  0.08146792  0.22466266  0.28780627 -0.02309909  0.19085123  0.21494825
 -0.27445862  0.19426525 -0.04679094  0.35267156  0.22812426  0.20254755
 -0.15500647 -0.04012014]
[ 0.23217379  0.4070917   0.21690695 -0.28336772 -0.00160489  0.04744593
 -0.10735334  0.06624038  0.07350192 -0.44738516 -0.04916874 -0.23859587
 -0.24879567 -0.20166919  0.06508941 -0.6702982   0.20313892  0.08547367
 -0.18290824  0.08274058]
[ 0.01976149 -0.407732   -0.57368106 -0.07555983 -0.07303764 -0.00691074
 -0.4741819   0.09192275 -0.18234254 -0.08860748  0.18875964  0.09245507
 -0.22570056 -0.30098483  0.17907622 -0.09203112 -0.06342087 -0.17054416
 -0.06265415 -0.02712134]
[-0.2571762   0.14024141  0.40273294 -0.07995119 -0.03537977 -0.0745213
 -0.25123632  0.10910498 -0.26921943 -0.10309597  0.27138856 -0.19864148
 -0.1101183   0.1805567   0.03589384 -0.2832287  -0.33102092  0.02602391
 -0.0906345  -0.12951095]
[ 0.04702595 -0.17892064 -0.04854089 -0.31443352  0.01329522 -0.08483934
  0.17707266 -0.10719493  0.2543817   0.1111555   0.26634538 -0.11446845
 -0.19539173 -0.12307759 -0.17249611  0.10724681 -0.334591    0.17183405
 -0.1434532  -0.0189206 ]
[ 0.07676656 -0.22127092 -0.16372213 -0.13779695 -0.06914271 -0.11196773
  0.40499806 -0.25577167  0.4183647   0.25635043 -0.21181603  0.0383717
  0.15488748  0.00427534  0.29203585 -0.03668987  0.10426068  0.00485133
  0.4070876   0.01474566]
[-0.07357281 -0.29586506  0.12732375  0.2868281   0.00675321  0.2625715
  0.17596734 -0.0092878   0.02008639 -0.13196638 -0.41152903  0.03191758
 -0.02442653  0.05868096 -0.28974333 -0.17576203  0.3518841   0.258491
 -0.02842842 -0.11464777]
[-0.08728551  0.05945403  0.06132922  0.22603764  0.17336044  0.10569714
  0.06607883  0.11118649 -0.03546683  0.01609278  0.19692695 -0.14039047
  0.15013073  0.03967061 -0.01531795 -0.30030602 -0.23542945  0.11415239
  0.1830585  -0.10807489]
[ 0.15103152 -0.19054388  0.28045157 -0.00635903 -0.22353424  0.09555224
  0.26170787 -0.0207484  -0.05791586  0.2647827   0.249746    0.1853884
 -0.10699847  0.3229534   0.07005181 -0.11374164 -0.00277211 -0.23213284
 -0.09076355 -0.01105546]
[-0.17586102 -0.20262565  0.14265369  0.01764991 -0.057877    0.01063807
  0.26604345 -0.03664182 -0.22429524 -0.06646005  0.05152958  0.09931637
  0.07952914 -0.02031881 -0.01466009  0.3613691   0.06052332  0.15351146
  0.2749604  -0.08294041]
[ 0.2503537  -0.1691008   0.01163543  0.11206002  0.11882081 -0.15904169
 -0.343489    0.22088848 -0.13222009  0.35038844  0.07061009  0.24714197
  0.18710566 -0.29876003 -0.11435881  0.4313942  -0.3141158   0.16325696
  0.02940401 -0.03779191]
[ 0.13149634  0.36715287 -0.17346479  0.10745914  0.08144388 -0.06434039
 -0.16497517 -0.26248604 -0.13054457  0.21707442  0.24520205 -0.27707613
  0.2705971  -0.332622   -0.14233817  0.4103846  -0.03609936  0.00776797
 -0.10461042  0.06158494]
[-0.07051861  0.2500749   0.26535186  0.3265436  -0.09339004  0.20172566
 -0.06921881 -0.05893565  0.22791812  0.16505095 -0.0972032   0.09653401
  0.09656818  0.19085693  0.0569932  -0.22844934 -0.06873385  0.02837509
 -0.24246249 -0.10877093]
[ 0.19425607 -0.01270595  0.31102684  0.11710209 -0.02746773  0.14354324
  0.10975754 -0.09995475 -0.01010225 -0.06437112  0.10299437 -0.02752992
  0.18446916 -0.00857004 -0.17726281 -0.18610172 -0.04565484 -0.2379848
 -0.01571137 -0.17248873]
[ 0.16193722  0.07772496 -0.09408242  0.33796966 -0.27973667  0.29910082
 -0.18020669 -0.18087527 -0.21972342  0.29905936  0.00467909  0.2729634
 -0.03045696 -0.5329701   0.1856246   0.56243736 -0.39488837  0.09976312
 -0.07101647 -0.13460286]
[-0.0058019   0.07000702 -0.21475194 -0.07307431  0.17659633 -0.07852882
  0.10706001 -0.49668837  0.27979305  0.20332822 -0.10294534 -0.05846901
 -0.08868134  0.03009946  0.12854409 -0.1129985  -0.10842996  0.18433902
  0.24895456  0.23191147]
[ 0.03218381 -0.15738273 -0.46137047  0.00549258 -0.04555148  0.13096182
  0.28375995 -0.20112573  0.02313414  0.31363642  0.01257643 -0.08375167
 -0.21733555 -0.154108    0.03369549 -0.14004639 -0.21899438 -0.2710027
  0.18470807 -0.01109216]
[ 0.15356912  0.1120151   0.4902509   0.09275817 -0.17584342 -0.17256601
  0.05503111 -0.22103742  0.11835603  0.12127499 -0.33315274  0.05506947
 -0.19439077  0.05582599  0.15256792  0.28451684  0.01845714  0.03352305
  0.12783939 -0.15766819]
[ 0.2720663  -0.01730493  0.04864651  0.03639624 -0.04504022  0.0164132
 -0.18256849  0.28670445  0.20815736 -0.03551633 -0.02072917  0.00617565
  0.02184572 -0.05790374  0.04344009 -0.31930345  0.19200595  0.10575153
 -0.06014453  0.05464628]
[ 0.24448115  0.14555423  0.4992748   0.32221308  0.00539427 -0.03668958
  0.31413645  0.11770177 -0.02838725 -0.09358693  0.1695179   0.17518197
  0.21953416 -0.08956406 -0.15494566 -0.2671492   0.05711968  0.24366085
  0.01201673  0.03863116]
[ 0.03341657  0.29996058  0.05486023 -0.11546253  0.06313369  0.20793918
 -0.1231645  -0.29731497 -0.14565456  0.19923802  0.05364678 -0.16070871
 -0.11247303 -0.00201736 -0.14824198  0.00472825 -0.23999268 -0.27035573
  0.01449156  0.12173024]
[-0.00530278 -0.14275561  0.49564987  0.63705087  0.29776704 -0.136258
 -0.06008271  0.06484864 -0.06966488  0.22225256 -0.4174267   0.16859856
 -0.32474253 -0.14640029 -0.02700437 -0.18670689  0.06392951 -0.16697885
 -0.06238791 -0.09699224]
[ 0.00886592  0.09809021  0.08080802  0.33119035 -0.28601947  0.15212269
  0.07089078 -0.12207235 -0.01226552  0.10730593  0.23445185 -0.113831
 -0.10716041  0.08514775 -0.04289793  0.034753   -0.01080456  0.04946648
 -0.01686288  0.01363769]
[-8.29823762e-02  2.76194550e-02 -1.56431749e-01 -2.50241283e-05
 -9.01290998e-02  1.54796749e-01 -1.16309963e-01  2.61974514e-01
 -1.24150239e-01 -2.13021964e-01  1.14435315e-01 -2.77399838e-01
 -7.24940300e-02 -2.63106555e-01 -4.63533476e-02 -6.36175945e-02
 -2.85422534e-01 -3.39418612e-02  1.58681851e-02  2.76264362e-02]
[-0.28849268  0.02738463 -0.26494944 -0.29818547 -0.09705157  0.15706536
  0.12386463  0.04542212  0.12998514  0.3004469   0.15070069  0.10000718
 -0.07497643 -0.02326546 -0.23034523  0.02184066 -0.2072631   0.11804746
  0.21859647 -0.06632104]
[ 0.11119824  0.10031264 -0.12555116  0.24476999  0.24890192  0.24782914
  0.29620767  0.04324473  0.03261789  0.06961161  0.09198482  0.29028836
  0.06355801  0.30220926 -0.03297871  0.31752816  0.09023957 -0.16768911
 -0.07006536 -0.11477144]
[ 0.15252486 -0.16782121 -0.07850987 -0.43256268 -0.04090652 -0.10621651
  0.27219236 -0.13473073 -0.02795834  0.07318858  0.07290144 -0.08000221
  0.04301602 -0.09911573  0.17580438  0.21124536 -0.20969523 -0.06339554
  0.03321819 -0.11547881]
[ 0.15598634  0.11437527  0.09756183 -0.02801397 -0.02189046 -0.01937123
 -0.02575427  0.00135027 -0.16277713 -0.07447549 -0.0156129   0.01777284
 -0.06581555  0.04032211 -0.07716778  0.12535366  0.17405297 -0.05830489
 -0.19314    -0.05623283]
[-0.14691411 -0.12592326  0.19742294  0.14437865 -0.07841388 -0.17412905
  0.03599818  0.14800756  0.16298121 -0.05229319 -0.04257708 -0.37721094
  0.17572564 -0.17416053 -0.02210191 -0.10273243 -0.3181323   0.0587808
 -0.10709633 -0.09120615]
[ 0.09641393  0.04909147 -0.3039805  -0.29848203  0.16256753  0.22714433
  0.12881775 -0.38050827  0.04915528  0.19134541 -0.13740997  0.29071167
 -0.22829698 -0.14911748  0.18984348  0.11658049  0.04161894  0.27144453
  0.1332323  -0.0960945 ]
[-0.170205    0.05288871  0.1306148  -0.28410724 -0.10401212  0.04078241
  0.2201926  -0.07899881  0.29291573  0.11468209 -0.13784048 -0.22383793
 -0.03780799 -0.07668151 -0.09968521  0.23349567 -0.2427718   0.02922082
  0.06267101 -0.08851486]
[ 0.28972074  0.02355746 -0.2139346   0.00967579  0.04842615  0.06445934
 -0.00320874 -0.10212409 -0.02675375 -0.16971393 -0.00378246 -0.21436988
 -0.03036071 -0.19014838 -0.07488446 -0.20616391 -0.37052232 -0.12916937
  0.15305138 -0.0931873 ]
[ 0.16382     0.3518201  -0.2105535  -0.35443613  0.26422098 -0.2602146
 -0.2401244   0.22384335  0.12190212  0.06011724  0.07363638 -0.10171957
 -0.06165764  0.16357225  0.2746364   0.26832366 -0.35773954  0.10307383
  0.00621124  0.11174396]
[-0.26642445 -0.28495318 -0.3881067   0.16136971  0.2511008  -0.06432759
 -0.43272075 -0.08007939 -0.16330525 -0.13680278 -0.0391439   0.06401949
 -0.00652515 -0.33607352  0.08641811  0.18772428 -0.32649186 -0.12184943
 -0.16897249  0.1951404 ]
[ 0.20681155  0.25279185 -0.37475052 -0.5884794  -0.0458626   0.07612799
  0.03274829  0.00096334 -0.06291921  0.22497393  0.15135074  0.04050484
  0.03107671  0.03116788  0.03882782  0.14255077 -0.02854551 -0.04013582
 -0.0892017   0.02445263]
[-0.02663375  0.0107257   0.16790324  0.3044204  -0.24811438 -0.08347139
 -0.03351741  0.17620227  0.15320025 -0.00577026  0.00251582 -0.32964712
  0.1034864  -0.20796877  0.131286   -0.06710538  0.0867708  -0.17093721
 -0.1320247   0.24551034]
[ 0.00880461 -0.11468289 -0.16110493  0.01205395  0.1204655  -0.2262796
 -0.04186464  0.1313767   0.1595025  -0.17849243  0.13035546  0.18843366
  0.03001493  0.1977222   0.15614021  0.18756156 -0.06628034  0.10774338
 -0.20675567 -0.1488227 ]
[-0.01348748 -0.07963572  0.03160018 -0.08904105  0.01920538 -0.25119847
 -0.16563705 -0.29011413 -0.02311275  0.26694983 -0.2605681  -0.23458263
 -0.06060689 -0.19414246 -0.2502948  -0.1619195   0.03348749 -0.04160906
 -0.23289491 -0.1782936 ]
[ 0.06845602  0.01636094  0.02681958  0.0698447  -0.00287775  0.00317949
  0.06591021  0.08171998  0.04490105 -0.12730491  0.00447351 -0.0409295
 -0.01207181  0.17273387  0.02405843 -0.13451453  0.10128441  0.0103622
 -0.05577715  0.01636993]
layer 5 Activation
tanh
layer 6 Dense
20 1
[-0.01091566]
[0.10034618]
[-0.04858999]
[-0.13536558]
[-0.01058518]
[-0.03818673]
[0.10360178]
[0.01706989]
[0.07212287]
[-0.14112547]
[0.0040817]
[-0.10730021]
[0.0186343]
[0.1334922]
[-0.00921371]
[-0.10271458]
[0.06505925]
[0.00666515]
[-0.02103098]
[0.00657768]
[0.02770128]
