layers 7
layer 0 Dense
20 20
[-0.11389591 -0.08352525 -0.22026746 -0.01778069 -0.08892459 -0.07121801
 -0.07860223  0.392566    0.06510028  0.34394264 -0.30515122 -0.17173295
  0.3067761  -0.33858135  0.03251455  0.20822296 -0.1641911   0.37102038
  0.2402013  -0.08821558]
[-0.5972967  -0.35715973 -0.32712185  0.10989936  0.29175064 -0.0321224
  0.21673375  0.578233    0.3311479   0.5638912  -0.0174581  -0.6222346
  0.48251483 -0.15751494 -0.6607242  -0.04028099  0.17381452 -0.6109598
  0.5337871  -0.10285977]
[-0.72161    -0.40137738  0.04290133 -0.14304903  0.04355302 -0.03693289
  0.31644052  0.28267953  0.6226218   0.09449791 -0.5985611  -0.62087363
  0.2269484  -0.46286163 -0.7087259  -0.42856416 -0.39873257 -0.61073685
  0.536863   -0.3567264 ]
[-0.20881788  0.36593303  0.12418029  0.29026604  0.19136553  0.06370572
 -0.24155325  0.2340392  -0.27168897  0.33007765 -0.54350144  0.2497567
  0.22876936 -0.36238757 -0.2638598  -0.40070233  0.42078072 -0.06939427
  0.065119    0.126424  ]
[-0.20703213 -0.11384258 -0.17795055  0.21585101  0.09623221  0.4944484
  0.05087924  0.04661436 -0.14429513  0.25899276  0.17913392  0.11754812
 -0.26590216 -0.22750087 -0.31216386 -0.19682035 -0.16594583 -0.07033796
 -0.2421036   0.14510877]
[ 0.7162626   0.31894514  0.3719242   0.03670738  0.21010175 -0.28514013
 -0.45867604 -0.14596355 -0.29843885 -0.21936245  0.12959556  0.13017158
 -0.6298783   0.15468845  0.6175766   0.13869487  0.3896911   0.5080818
 -0.10941502  0.38483828]
[ 0.28074783 -0.1469195   0.40754324  0.39523673  0.049257   -0.09202207
 -0.51983714  0.00897714 -0.6483056   0.1100877   0.45637572  0.5517658
 -0.6639975   0.4134802  -0.0729458   0.09983255  0.27669725  0.6643795
 -0.25826254  0.34503555]
[-0.06944557  0.0348026  -0.40068412  0.03016557  0.20631811 -0.03361205
 -0.14454858  0.14155461 -0.09636568 -0.00453206  0.05215529  0.37921396
 -0.45626175  0.12107914  0.18290532 -0.0118978  -0.02077811  0.18424462
 -0.38284007  0.08352519]
[ 0.05951175  0.22676356  0.09876785 -0.00229744 -0.3024478  -0.47118005
  0.29526195  0.26940283  0.10270339 -0.3850446   0.09623132 -0.189623
  0.2455299  -0.31689918  0.04092691 -0.08115364 -0.5484178  -0.36621177
  0.5821845   0.32337028]
[-0.725058    0.5263954   0.45776358  0.2646452   0.5501845   0.01269166
 -0.5213803  -0.21097624  0.45232385  0.4347838  -0.22154157  0.72415566
  0.2094308  -0.34982312 -0.42909467  0.25861615 -0.45268443  0.02231703
 -0.3677191  -0.31715068]
[ 0.36830798 -0.04648816  0.17880844  0.5570267   0.11336567 -0.22550635
  0.1827869  -0.5482657   0.681235   -0.1810753   0.05606441 -0.3367648
  0.31621638 -0.39810112 -0.3146822  -0.82730275  0.3404285   0.10629182
 -0.08504404 -0.1192819 ]
[-0.8993887  -0.4415148   0.56901175 -0.2556684   0.1274519   0.12731168
  0.02340386  1.2234219  -0.7257954  -0.4106336   0.18674053  0.55430627
 -0.67405885  0.47532216  0.0531994  -0.6688423   0.09324631  0.00589337
 -0.9151221   0.3785351 ]
[-0.29121456  0.2309276   0.33388805 -0.03859062 -0.33488494  0.15276974
 -0.16099791 -0.17795886 -0.3051317  -0.63722587  0.33254218 -0.19796401
 -0.03602481  0.27404153  0.06304886 -0.31763834  0.592648    0.5013276
  0.009695    0.10086378]
[ 0.03580765  0.03241204 -0.2419726  -0.18219236  0.02499065  0.01844869
 -0.09490402 -0.12486257 -0.1433198  -0.10607102 -0.20120972  0.04336951
  0.21718256 -0.3218025  -0.2198315  -0.12856549  0.07458124 -0.02573799
 -0.0512196   0.5239184 ]
[ 0.13707666 -0.08023904  0.01622055 -0.4761913  -0.13203736  0.18131171
  0.03673591  0.35598776 -0.27199325  0.21909237  0.08265169  0.04415016
  0.43945298  0.7787181   0.02004481  0.2805192  -0.16486742 -0.13200922
  0.16204523  0.14628188]
[ 0.33212858 -0.02410288 -0.45450318 -0.44014144 -0.0863865  -0.25590557
 -0.226536    0.04091638  0.9175711   0.58581686 -0.4158633  -0.74061304
  0.3572759  -0.14937446 -0.14176401  0.26273987 -0.6249925   0.17266189
  0.29615182 -0.46174845]
[-0.27334085 -0.05245569  0.17480917 -0.33157703  0.27331564 -0.35854864
 -0.08805753  0.18526568  0.38476658  0.0013095  -0.215371   -0.1485362
  0.07516807  0.15346804  0.23734736  0.16744563  0.18861894  0.23247577
 -0.24555592  0.13496856]
[-0.07531491 -0.16883352 -0.11918261 -0.08873487 -0.25047317  0.47566757
 -0.21637137  0.00689028 -0.21457568  0.26454797  0.13385452 -0.5570951
 -0.15525453  0.04336273  0.5140048  -0.15250552 -0.01388727 -0.09757445
  0.33746547  0.45492977]
[ 0.10571411 -0.17138928 -0.36634418 -0.30254504 -0.11664184  0.5517283
 -0.36590633  0.13953803 -0.11975436 -0.12941454  0.03672746 -0.04643594
 -0.3834693  -0.4669389   0.34105432  0.21910444 -0.31992874  0.41658378
  0.15158564  0.29471347]
[ 0.24664131  0.32609588  0.07552925  0.08376241 -0.22531356 -0.43434253
  0.10273644  0.2185058   0.20123419  0.03965137  0.06730061 -0.5198682
  0.00730612  0.33584732 -0.4394726   0.43893376 -0.3285638   0.09220143
  0.348152    0.25221932]
[-0.09031077 -0.01196768  0.05473438  0.07316644  0.05081169  0.01719684
 -0.00049274 -0.044803    0.13194242  0.33380663 -0.09346463 -0.0876153
  0.25500128 -0.12299041 -0.06900661 -0.0461885  -0.02662207  0.02051417
  0.0160029  -0.07837788]
layer 1 Activation
tanh
layer 2 Dense
20 40
[-0.01971567 -0.06732445 -0.12669288 -0.0716508   0.26550192  0.24775876
  0.41758487  0.15367734 -0.1452023   0.14696887 -0.23928215 -0.12261741
  0.24284457 -0.24208331 -0.26468176  0.1804067  -0.09432679  0.00108791
 -0.06714721 -0.08681808 -0.00860671 -0.14731136 -0.18623891  0.15727994
  0.20414416 -0.07984313  0.18247813  0.04081396 -0.10718191  0.26268318
  0.19999884  0.04126857  0.00985766 -0.30262557 -0.13580053 -0.27660298
 -0.19155864  0.20154311 -0.19211459 -0.19697523]
[ 0.2081266  -0.24724026  0.03139106  0.10038481 -0.0053263   0.07347168
  0.06950691  0.35350925 -0.1122914   0.3041515  -0.0319203   0.16472577
  0.14445125  0.23115292  0.34370565  0.30417296  0.07324004  0.3040035
 -0.09825236  0.10815378 -0.05018114 -0.13101372 -0.2451189  -0.00947965
  0.30772763 -0.12502652 -0.10713965 -0.05502407  0.1563242  -0.00436425
 -0.02475496 -0.13260116 -0.07398438  0.22531457 -0.11754671 -0.25734848
  0.21920308 -0.13904157 -0.1505621  -0.2563086 ]
[-0.13339378 -0.20105737  0.09868774  0.17356493 -0.42659342 -0.22747701
  0.16324379 -0.05219621  0.05799313 -0.07152425 -0.2889404   0.16956311
  0.00551825 -0.06656244  0.38530993 -0.07753108 -0.18986875 -0.10551191
  0.11031675 -0.08752968  0.00857487 -0.14783859  0.01892128 -0.2611174
 -0.11828451 -0.17696288  0.02582552 -0.10930612 -0.01452425 -0.2337832
 -0.18136036 -0.24418265 -0.16983806  0.30662397 -0.00312045  0.35905698
 -0.24016991 -0.19340627 -0.21159726 -0.19337118]
[ 0.05948401  0.25003526 -0.2574504  -0.25438976 -0.10278713  0.02118155
  0.21128517  0.14078502 -0.24752234  0.07984079  0.14893448  0.5121688
 -0.17602052  0.19249491  0.3725109   0.10607607  0.16204776  0.3195771
 -0.01021141 -0.00499032  0.16338854  0.27384007  0.0610468  -0.13116719
 -0.06960221  0.12484317  0.36263406 -0.25396308  0.01041294 -0.24659981
 -0.35438687 -0.17284988  0.35091695 -0.07218369 -0.03543521  0.01888897
  0.14697646 -0.24178511 -0.09616756 -0.10041784]
[ 0.04101393  0.14769857 -0.10766567 -0.1443136  -0.26504272  0.24330246
  0.09731899  0.0813858  -0.08711205  0.12789877 -0.28506598  0.03702719
 -0.05820902  0.02670063  0.2600873   0.15180957  0.25473312  0.26861224
 -0.07157663 -0.07879071 -0.17434382  0.22679603  0.09980559  0.11788972
 -0.11095393 -0.06951319 -0.07983936 -0.0097719  -0.16893344 -0.01804002
 -0.1618117  -0.1706322  -0.08506983  0.06751768 -0.16518994  0.00878005
 -0.26566976  0.2668123   0.06080173 -0.23855583]
[-0.15632077  0.17494051 -0.12324025  0.2062374  -0.16533343 -0.34124088
  0.18027    -0.45080453  0.19028331  0.05566611  0.24953923  0.04762166
  0.30844378  0.02476566  0.14838716 -0.41999847 -0.01657571  0.20561184
 -0.0110621   0.3733059  -0.08323813 -0.04944906  0.03883965 -0.31744245
 -0.2313378   0.27075097 -0.04336977 -0.02642781  0.05739109 -0.05761025
  0.32674527  0.01250009 -0.42260304 -0.08627209 -0.22371158  0.10841709
 -0.31997088  0.16668637  0.03833849  0.03334987]
[-0.10990537  0.30802575 -0.08020223  0.28176093  0.13281621  0.01635374
  0.04044766  0.2352964  -0.21032374  0.15496278  0.03624336 -0.11269075
  0.12707847  0.01382683 -0.12756433 -0.19340618  0.14301021 -0.2491448
  0.02667185 -0.12780832 -0.08792703 -0.36868444  0.11774035  0.10063024
 -0.1454307  -0.1274424  -0.19405414  0.03526463 -0.25848433 -0.1727836
 -0.27684098  0.11560604  0.15523808 -0.30053198  0.17236531 -0.09431493
  0.10583399 -0.02909987  0.05957054  0.35284624]
[-0.17485155 -0.22596788  0.00916704 -0.03585793  0.1379594   0.20182328
  0.05611319 -0.39676762 -0.27151966 -0.3378361  -0.09388777  0.09970102
 -0.06590865  0.32335952 -0.13501112  0.21317409  0.35797113  0.20827436
  0.05119246  0.11982444 -0.1272447   0.04245687  0.10603733  0.29437542
 -0.31639847 -0.07004248 -0.21908592 -0.21056446  0.16281165 -0.0958987
 -0.01263597  0.12375218 -0.42355564 -0.05093851 -0.15801862  0.17003843
  0.28208518 -0.10856982 -0.08989036  0.11934841]
[ 0.5334037  -0.49494556 -0.09538852  0.19152819 -0.33126268  0.15607041
  0.01410682  0.4322675  -0.23215409  0.29119217 -0.23999803  0.46777743
 -0.1147124   0.41820204  0.22472687 -0.24069022 -0.25371897 -0.19264197
  0.3095372  -0.34768733 -0.10467383 -0.29536358 -0.3257229   0.06728333
  0.47334784  0.04284218  0.1944659   0.14513882 -0.04330378  0.39747137
 -0.15469337 -0.03456318  0.19690508 -0.08379968  0.00147797  0.4801705
  0.01230077 -0.19577117  0.262187    0.1724508 ]
[ 0.36837387 -0.5606487  -0.25450417 -0.18368375 -0.1772811   0.05962761
  0.5094426   0.10804109  0.01944465  0.11960186 -0.01713419  0.43741244
  0.11185422 -0.24857959  0.14803295  0.17173614 -0.21389082 -0.28545535
  0.15588765  0.37041548 -0.06744798  0.46512324 -0.20860477  0.00778191
 -0.18598948  0.01968366  0.3857806   0.01197762  0.19431409  0.14120378
 -0.06540953  0.145213    0.11624086  0.01774671 -0.04943698  0.15976782
 -0.18559559  0.4564837   0.09959574 -0.17366137]
[ 0.21417427  0.23099594 -0.33371103  0.24354571  0.205338    0.00903521
 -0.4623983   0.11788043  0.09099433  0.13024545 -0.10119089 -0.23279071
 -0.048988   -0.18036829 -0.01857993 -0.11106328  0.09888278  0.03719068
  0.00186113 -0.14792721 -0.21224777 -0.30064288  0.29144192  0.07502469
  0.29775053  0.01847729 -0.2368152  -0.29538527 -0.12787963 -0.288512
  0.38750264 -0.00797157  0.09977867  0.07450926 -0.11421856 -0.31445572
  0.0502191   0.10630102 -0.24927723  0.20411524]
[-0.15286683 -0.42796347  0.01281041  0.07573872 -0.05106492  0.08369135
 -0.38373274 -0.6237126   0.0268538  -0.37299886  0.18737051 -0.13221334
  0.1774875  -0.19376749  0.0063968   0.49075884  0.00994103  0.06754655
 -0.20814882  0.04642901 -0.32824528 -0.09540488  0.10073002 -0.05728475
  0.13209966 -0.2744594  -0.38192055 -0.13092509  0.10516374 -0.6653741
 -0.6524151   0.07316731 -0.260505   -0.10333141 -0.06859598 -0.45383456
 -0.36226964  0.32502422 -0.32148877  0.07436115]
[ 0.070338   -0.13412078 -0.35135365  0.14445975 -0.31486404 -0.02364032
  0.35069838  0.08123238 -0.1534912   0.16936529  0.07774951  0.08358804
 -0.06250059 -0.22402908 -0.03805855  0.1508797  -0.31463206  0.24784678
 -0.21584716 -0.11456447  0.13408497  0.3443414  -0.31256267  0.17701343
 -0.11330553 -0.19627689 -0.03587675 -0.23098177 -0.3582565   0.43116042
 -0.23117185  0.17835364 -0.02691323 -0.2782127  -0.03853762  0.06569684
  0.1571372  -0.07493951 -0.02398257  0.07257951]
[-0.49370056 -0.09172416  0.19539689  0.3458375   0.38651448 -0.01650289
 -0.13030878 -0.06986392  0.04423746 -0.45024446 -0.3694129   0.12673305
 -0.06645187 -0.32809368 -0.3423461   0.3715805   0.37844557 -0.28078818
  0.08494336  0.14043109 -0.17400081 -0.1392486   0.21707736 -0.05704084
 -0.08473542  0.03616302 -0.3477308  -0.1015598   0.32263494 -0.34593114
  0.05233008  0.10856599 -0.10092811 -0.00134037 -0.15267427 -0.12043332
 -0.34599775  0.02241264 -0.11629663  0.16360253]
[-0.2778152  -0.00793504 -0.18874967 -0.34645757  0.2996506   0.09701277
 -0.19075154 -0.55908    -0.15709841 -0.31858882 -0.01059826 -0.19772916
  0.19802402 -0.1252318  -0.5265677  -0.42959997  0.21351638  0.0766198
 -0.14674273 -0.20380263  0.10516144 -0.19888738 -0.17519125 -0.02500604
 -0.23375642  0.04269131  0.40202925  0.34036034 -0.06235854 -0.21694842
  0.18038175 -0.233433   -0.153764   -0.08915639 -0.05674037  0.29925773
  0.18513697  0.19235884  0.21483062  0.37263492]
[ 0.22721736 -0.5723951  -0.2192888  -0.36468312  0.4223316   0.11729386
  0.37502584 -0.29987004 -0.21989617  0.06622216  0.14157152 -0.08454875
 -0.06191473 -0.3106384   0.09038223 -0.35585225 -0.05014931 -0.11536749
 -0.29353878  0.0026826  -0.11821269 -0.14384966  0.00918236  0.22432539
 -0.05654333 -0.05572243  0.05175058  0.20628572  0.05748574 -0.20224087
 -0.07394461  0.1417951   0.09364663 -0.17072512 -0.0573264   0.0871362
 -0.00086092  0.20164208 -0.3440495  -0.21338503]
[-0.45844254  0.14592911  0.39549434  0.15732944 -0.10166095  0.12519045
 -0.13094439 -0.1803723   0.06376094 -0.25419042  0.3366788   0.0080596
 -0.53546655  0.01258481  0.41347882  0.11980329 -0.02968911 -0.03841799
  0.23091838 -0.11430873 -0.21790825  0.10743504  0.07075778 -0.1265256
 -0.1986727  -0.00896081 -0.2385399  -0.15123366  0.33218583 -0.2806471
  0.05543185 -0.2053402   0.24849345  0.02813842  0.04594821 -0.24197899
  0.2501677  -0.36194533  0.32415128  0.34621274]
[ 0.05957687  0.03144005  0.20277329 -0.18999669 -0.16016383 -0.17627697
 -0.07013106  0.20451568  0.22727095  0.07707091  0.1928569   0.05464823
  0.20036374 -0.03266371 -0.16025272  0.20117074  0.25940475  0.19347975
 -0.10985743  0.12010641 -0.07270528  0.13534285  0.2883601  -0.10110548
  0.08541449  0.3283139  -0.16324626  0.09610832  0.03254686 -0.11322185
  0.2921254   0.04967948 -0.16714396  0.2621653  -0.19435029  0.21241939
 -0.2432705   0.15874045  0.12628832 -0.24149264]
[-0.19451255 -0.08363019 -0.20629148  0.21548377  0.56256276  0.19701356
  0.17717169 -0.23314998 -0.06216462  0.15575309  0.3510955  -0.15512475
  0.17741372  0.05706577  0.06977932 -0.42396697 -0.4498645   0.12771592
  0.2577007   0.06491545 -0.2296616   0.11300477  0.21943347 -0.24616587
 -0.02653344 -0.15698043  0.5269759   0.23593888 -0.29370162  0.68699276
  0.20288527 -0.0818207   0.3512717  -0.142211   -0.04645443  0.13660719
 -0.14859284 -0.0128643  -0.129154   -0.05449057]
[-0.27620518 -0.03759269 -0.26935363  0.12187944  0.34388304 -0.2059071
 -0.04426122  0.11655066  0.0626009  -0.03318918  0.29125273 -0.3090187
  0.10900084 -0.2533629  -0.4601424   0.01823496  0.10666184  0.33237135
  0.3209082   0.20692264  0.36714488 -0.29685387  0.06589002  0.03930142
 -0.22450328  0.26640105  0.2204977   0.03120099 -0.12557134 -0.36776805
 -0.180063    0.26805067  0.38154405 -0.20980723  0.05622568 -0.28305155
 -0.18603998 -0.0989304   0.02418943  0.20044018]
[ 0.05600361 -0.04874999  0.02976578  0.01046385 -0.01404772 -0.0828767
  0.2250061  -0.15741177 -0.04061827  0.09978374  0.17011034  0.24397413
 -0.03174939 -0.0604202   0.21707699 -0.12264573 -0.14458923  0.03453943
  0.01443828  0.09306771 -0.02120878  0.19656022 -0.0346185   0.00165145
 -0.05416466 -0.0676325   0.13454221  0.03341499 -0.01203812  0.20247483
 -0.15262139 -0.01812513 -0.04108228 -0.0646413  -0.02540271  0.07492262
 -0.00732812  0.11833158  0.0683637   0.02251073]
layer 3 Activation
tanh
layer 4 Dense
40 20
[ 0.2680643   0.20167418  0.30143252  0.07512585 -0.01107826  0.2447153
 -0.05400201 -0.19992428  0.1201441   0.16974054  0.3116182   0.11290058
 -0.20390718  0.41186318  0.0534462  -0.00463952 -0.1584786   0.22475614
  0.17885268 -0.15249886]
[ 0.26303136  0.0807374  -0.3596622   0.12035237 -0.24160747 -0.12971686
 -0.02133171 -0.09233284 -0.29808822  0.17034249 -0.17317732 -0.12629758
  0.06478734 -0.0598289   0.13086097  0.07077021 -0.04184037 -0.01983785
 -0.07313737 -0.05306095]
[-0.17007324 -0.04245579 -0.01921791  0.36428398 -0.04089953  0.22628152
 -0.03269392 -0.03520548  0.05006585 -0.14176407 -0.16982956  0.16450158
 -0.12850259 -0.24213596  0.14625841  0.10684836  0.25282046  0.26834527
  0.16666281 -0.04148036]
[-0.23408891  0.34320888 -0.2207123  -0.02793719 -0.14064457 -0.05162035
  0.23723249 -0.06667873 -0.16168971  0.19916181 -0.1501139   0.01930849
  0.03178962  0.4069383   0.27870268  0.2029607  -0.04581922  0.05454756
 -0.11536564 -0.06131646]
[-0.18664387  0.2236593   0.06357384 -0.21142554  0.0055315  -0.25195056
 -0.06848222 -0.19045296  0.47045067 -0.0380278   0.26546723 -0.1578612
 -0.29768655 -0.1577106  -0.05000988 -0.13729395 -0.24530871 -0.05512524
  0.15342113 -0.1409805 ]
[ 0.00175409 -0.16073376 -0.13768178 -0.05366823 -0.09149836 -0.14306061
  0.03916372 -0.05830648 -0.18412179  0.0518213   0.08581644 -0.2291748
 -0.38766238  0.08193857 -0.02636564  0.26158544  0.00412219 -0.36232817
  0.14836994  0.08750524]
[-0.13973197 -0.12693775  0.32598728 -0.33190596  0.20388484  0.16422795
 -0.21264726  0.03600839  0.08845225  0.0679989  -0.25817078 -0.19024315
 -0.30231208 -0.14175817 -0.19785807  0.01540999  0.02764487 -0.001518
  0.22631907  0.26023108]
[-0.22191061 -0.15565921 -0.05737978 -0.36402524 -0.38914746 -0.10411131
 -0.2768057   0.30273443 -0.2045685   0.05585651  0.1009208   0.04191029
  0.10708573  0.15124424 -0.27785456  0.0429841  -0.26417112  0.03518132
  0.3462067   0.02196874]
[-0.21027194 -0.2130852  -0.12472346  0.04324102  0.28226846 -0.21942896
 -0.26537117 -0.29123053 -0.02874748 -0.09885819 -0.11145883 -0.30454093
 -0.17912693 -0.24625614  0.24503143  0.24193045  0.14288525  0.0587354
  0.06336959 -0.22396557]
[-0.24335054 -0.22082165  0.42399493 -0.44617882 -0.28399152  0.00257048
 -0.0552562  -0.08851416 -0.1412157   0.01301654  0.13843146 -0.0008484
 -0.32056764  0.14411132  0.18965393 -0.16825104 -0.01448462  0.14918657
  0.07308829 -0.00230432]
[ 0.02316846 -0.21173199  0.29445097  0.18907535  0.22373955 -0.14484374
  0.2343542   0.01180104  0.12490731 -0.17488185 -0.31475687 -0.19454797
  0.11102856  0.1693843   0.09480231 -0.08352068 -0.03273014  0.18483804
 -0.08527344 -0.17104647]
[-0.01911962 -0.29966837  0.24872355 -0.26783186  0.28416428  0.289027
  0.12281608  0.26753944 -0.11008181 -0.2538771  -0.01845076 -0.20434764
  0.16288091  0.24897145 -0.23781979 -0.02481599  0.02478922  0.02877824
 -0.15560798  0.06129136]
[-0.29024145  0.18689474  0.02529235  0.26749668  0.16266663  0.06363123
 -0.02487383  0.06635377  0.10825241 -0.12931268  0.03069354 -0.14077118
 -0.1356522   0.04756447  0.02029865 -0.21535528  0.14313462 -0.10508548
  0.14349389  0.23507637]
[ 0.01479072  0.05532981 -0.10686005 -0.18200226 -0.3071737   0.38039306
 -0.02560947 -0.0188341  -0.23668656  0.0272136  -0.07348305 -0.25227192
 -0.15596502 -0.35998923 -0.18033029  0.0495983  -0.43721765  0.17156298
 -0.15999793  0.113011  ]
[ 0.17201541  0.31414285  0.17664064 -0.1851931   0.08545714  0.31551746
  0.14269632  0.2919495  -0.23913124 -0.01917248 -0.3084251   0.17589599
  0.02640982  0.01253125  0.03729296  0.20529228  0.02383026 -0.1656076
 -0.3116132  -0.11840929]
[-0.10528579 -0.17055278 -0.40532586 -0.01181803  0.06820804  0.2775751
 -0.2652449   0.0025788  -0.1233974  -0.22103229  0.224919    0.28631935
 -0.24408033  0.24877831 -0.08376091  0.17405184  0.05791455  0.1960109
 -0.03215655 -0.00477365]
[-0.12720746  0.20665063 -0.37211856 -0.10242028  0.07539999 -0.06540456
 -0.06267355 -0.09420688 -0.03944921  0.07897793  0.14584747  0.1035168
  0.20679072 -0.3757301  -0.12413927 -0.12994076  0.12473895  0.14713828
 -0.28647324  0.23480646]
[-0.09188434 -0.12125127 -0.01756879 -0.22080792 -0.1792843  -0.04317886
  0.11538366  0.18227483 -0.04148275 -0.20091888 -0.10425718  0.15427692
 -0.14919828 -0.317524   -0.15946919 -0.00891889 -0.04992071  0.00614286
 -0.23645268 -0.04322324]
[ 0.18280336  0.1446609   0.12381279 -0.07524743 -0.2706019  -0.25412127
  0.22896071 -0.03965146 -0.28821433  0.02363499 -0.09016005 -0.0185904
  0.26788846 -0.19295262 -0.1486632  -0.28234765 -0.16511536  0.03566577
 -0.12501751  0.08752808]
[ 0.13247056  0.13442321  0.05673154  0.31902277  0.24728921  0.19674952
 -0.1876297  -0.09135991  0.22221899  0.12821767 -0.29170707  0.06978799
  0.03912401  0.23568282 -0.00725051 -0.24693735  0.06262811 -0.2243273
 -0.39039418 -0.08266098]
[-0.18371072  0.09995204  0.01801404  0.16685209 -0.2785285  -0.22491503
 -0.00108302 -0.21740693 -0.05562904 -0.02873703 -0.19744803 -0.13014968
  0.15977696 -0.15756416  0.40155846 -0.06626318 -0.04831296  0.27173108
 -0.14608806  0.12139601]
[ 0.3192536   0.29790232  0.25830474 -0.23787026  0.27539822  0.33616564
 -0.12397267  0.09837046 -0.04175782  0.19965187 -0.3428713  -0.03876938
 -0.00816721  0.11849426  0.22231801  0.18584962  0.17661618  0.04133093
  0.21296667 -0.04392815]
[-0.24203917 -0.12679176 -0.1098529  -0.03323799 -0.07131413 -0.13954273
 -0.15733737  0.270685   -0.01337917  0.02304358 -0.04900679 -0.04775442
  0.23478387 -0.23104258 -0.00912103  0.02028026  0.11383153 -0.10009085
 -0.3162502   0.18305854]
[ 0.34362358  0.19323716 -0.11074224 -0.22873259 -0.11883013 -0.11607797
 -0.01644165  0.30385986  0.04089625 -0.07379765  0.11059736 -0.17857017
 -0.06136262 -0.08216287 -0.16053262 -0.22486457  0.08740064  0.17975292
  0.13855621  0.18439648]
[-0.05276249  0.18175738 -0.22595417 -0.31617063 -0.33273065 -0.282638
  0.0335069  -0.10732373  0.17887865 -0.18216202  0.3944697  -0.26653558
 -0.22809835 -0.05996257  0.18797635 -0.21442911  0.1677822   0.07467135
 -0.06478325 -0.29850388]
[ 0.21482894  0.17180614  0.00628037  0.26134208 -0.01789843 -0.367109
  0.16288328 -0.01382687 -0.2220186  -0.10346536  0.25115803  0.17823306
  0.1862261  -0.03036669  0.32898924 -0.09250487 -0.13058165  0.15506817
 -0.10786148  0.21995449]
[-0.2323071   0.2845274   0.43442443 -0.03580642 -0.06446178 -0.29984283
 -0.04515763  0.10666296  0.14826235  0.12383395 -0.32429668 -0.00165404
  0.19016424 -0.08576503 -0.12057678 -0.02731279 -0.24316771  0.31318563
 -0.33925417  0.01733089]
[ 0.2639002  -0.3101991   0.10682169  0.29126257 -0.0965406   0.03133732
  0.03106525  0.00278126  0.17656192  0.21332566  0.04479261  0.12874332
 -0.19613704 -0.301536   -0.2614378  -0.25232604  0.18790936 -0.0910047
  0.10504921  0.17173629]
[-0.30029485 -0.23660582 -0.0388152   0.22962904  0.10491165  0.26511705
 -0.21535908 -0.13955593  0.05841732 -0.2501463   0.01909743  0.0835729
  0.11839399  0.17534527  0.08191104  0.11070926 -0.17184104 -0.05270642
 -0.29865304 -0.08057692]
[-0.35523295  0.11934702  0.42064917  0.03084967 -0.22658318  0.03387687
  0.02730927  0.07059593  0.02618825 -0.2802221  -0.31200558  0.15335809
 -0.24322106  0.28739697 -0.10981677  0.17326598 -0.24214497  0.023766
  0.28369752  0.27889284]
[ 0.18761551 -0.15804014  0.21433204 -0.10714092 -0.0668234   0.09032571
  0.00903903 -0.0864121   0.26154113 -0.05704352  0.11343126  0.15400188
  0.3096238  -0.20403765  0.18600835 -0.10461663  0.05109557  0.1260688
  0.07720118 -0.20858134]
[-0.2183719  -0.22942239 -0.1388045  -0.1827765   0.21081893 -0.27136204
  0.13608453  0.00795615  0.16961153  0.14751683 -0.06354526 -0.2171092
 -0.05287537  0.03840362 -0.05370436 -0.23927258  0.30296677  0.09377974
  0.01242482 -0.15528648]
[-0.01424508  0.0846402   0.00973171 -0.02845553 -0.46432197 -0.34504306
 -0.12221869  0.15699856 -0.19107045 -0.01030567 -0.12143354  0.29391587
 -0.05802364  0.2899631  -0.2021836  -0.17469494 -0.1406239  -0.12444828
  0.21112287  0.1399618 ]
[-0.20425512 -0.15724173 -0.01310809 -0.03772411  0.04139901  0.12795426
  0.10625127  0.00065007  0.07346861  0.18282133  0.11943836 -0.23652755
  0.1321033  -0.13860655  0.22593473  0.28451157 -0.38088816 -0.17849697
  0.06425937  0.11559092]
[ 0.09311853 -0.1900502  -0.01847807 -0.11442357 -0.04200685 -0.18293948
  0.02522909 -0.0960974  -0.19322616 -0.07699276 -0.17781426 -0.07144414
 -0.10066495 -0.02225513  0.10249205 -0.2692587   0.09240256 -0.0744984
 -0.09920173 -0.24823466]
[-0.13213187  0.29651138  0.31437257  0.30592328 -0.19928731  0.24246305
 -0.26257062 -0.15991476 -0.00404531 -0.08252507  0.14018157  0.22587831
 -0.2938456   0.11575465 -0.18964118 -0.03356942 -0.28848273 -0.10946654
 -0.21856338  0.00986335]
[-0.01086649 -0.11845806  0.11016382 -0.22594306 -0.19492637 -0.10573413
 -0.09938464  0.23415244 -0.06739757 -0.11878925 -0.10132775  0.03808421
  0.22706762 -0.06552438 -0.0312678   0.23245668  0.20921007  0.15041639
  0.11223034 -0.07156525]
[ 0.02415059  0.07242848  0.10943273  0.27925956  0.28532395  0.17066428
 -0.12347297 -0.16434518  0.29742807  0.1363779  -0.04897142 -0.01244134
 -0.20464301  0.01272592  0.03081176 -0.00572107  0.15376899 -0.16902211
  0.02050672 -0.14878401]
[ 0.12073473 -0.08523634  0.12287706  0.19111033 -0.09454908 -0.06069569
  0.2545727  -0.09864991 -0.27596653  0.11630328 -0.21926756 -0.04066952
 -0.02616623 -0.11417823 -0.1398428  -0.0388358  -0.11431298  0.2825485
 -0.03721222 -0.05333092]
[-0.09093296  0.0767871   0.05176923  0.31544152 -0.1213621  -0.3880707
 -0.3472624  -0.09467677 -0.0080136  -0.14484143  0.15876395  0.29003096
  0.352841   -0.13244054  0.13057473 -0.20123166  0.13598761  0.14978199
  0.24739721 -0.25061357]
[-0.03212167  0.02051874  0.11879925  0.01962174  0.02019005  0.06915078
  0.00121167 -0.02341514 -0.04855182 -0.01028265 -0.12076233  0.02398693
 -0.04469634 -0.02461102  0.02458937  0.00294601  0.01545618 -0.04008473
 -0.04959343  0.05298771]
layer 5 Activation
tanh
layer 6 Dense
20 1
[0.00091391]
[-0.01480965]
[-0.35537598]
[0.09025904]
[0.170018]
[0.12794909]
[0.00454317]
[-0.00476215]
[-0.21597832]
[-0.00173485]
[-0.28735298]
[0.01396617]
[0.18420886]
[-0.06928223]
[0.0205611]
[0.03096392]
[0.00634472]
[0.01209298]
[0.0221206]
[-0.0288903]
[0.07862511]
