layers 7
layer 0 Dense
20 20
[ 0.43909574 -0.01672134  0.15159994  0.18943067  0.20204821  0.38956782
 -0.09198038 -0.11471178  0.00838036  0.18714073 -0.28624195 -0.0578538
  0.16997047 -0.16443491 -0.00587269  0.06826332 -0.13113563  0.14361417
  0.12787026  0.06989247]
[ 0.15002196 -0.2477445  -0.4300772  -0.21747282 -0.14214028 -0.2656034
  0.15747628 -0.36148027  0.14969933 -0.62324655 -0.6172291   0.118365
  0.23316532 -0.19521624 -0.11647023  0.42536324  0.60981226 -0.08394258
 -0.09707922 -0.2978706 ]
[-0.38906556  0.40805572  0.25816387 -0.23824258 -0.17550606 -0.25206444
 -0.18830085 -0.26543382  0.16408104 -0.52603656 -0.23817061  0.15442051
  0.41869184  0.2159137   0.11984252  0.11263607  0.48503     0.34552228
  0.1265288  -0.34635365]
[ 0.50881493 -0.5082878  -0.28424487  0.08040557  0.09856046  0.18995152
  0.04347192  0.15719675  0.33900067  0.3887781   0.4047371  -0.19305575
  0.2587708   0.11620279 -0.24280593 -0.11452768  0.04232452 -0.2343739
 -0.31412968  0.21335922]
[-0.31799346  0.23917784 -0.32941833 -0.34765244  0.04915791 -0.11500899
 -0.13044119  0.1915978   0.27603006 -0.15239418  0.03408284  0.13951442
 -0.11766792  0.3772423   0.01522679  0.17685494  0.06080496  0.05573478
  0.3387134   0.1629008 ]
[ 0.26284027 -0.5196761   0.22944695 -0.20363219 -0.09272018  0.27558836
  0.31012866  0.20172346 -0.2976059   0.3985543   0.12704174 -0.44062206
 -0.26236057  0.08700678 -0.04473791  0.04856716 -0.09465504  0.11458546
  0.10660058  0.5103888 ]
[ 0.4107585  -0.572055   -0.01530582  0.4667205   0.33758193 -0.01790266
  0.560837    0.5400715  -0.32115045  0.23425145  0.56066066  0.13699785
  0.1501153  -0.24469326  0.46974525 -0.15576798 -0.33658946 -0.21255116
 -0.25660646  0.2012573 ]
[-0.45168436  0.22170155  0.27869672  0.01711067 -0.50494707 -0.31822857
 -0.27904898 -0.10601442 -0.16682045 -0.30088446 -0.40710697  0.17258532
 -0.31744877  0.24716945  0.28473157  0.3652659  -0.17281327 -0.56363344
 -0.05629107  0.17371044]
[-0.01429852  0.14709026  0.25597498 -0.24756895 -0.324512   -0.20442384
 -0.1074895  -0.01509123  0.40680042  0.1651423  -0.16882645  0.22078352
 -0.19809113  0.05880128 -0.20043802  0.25815365  0.30005383 -0.37215692
  0.04282286  0.10950173]
[ 0.20623624  0.14591621  0.21924587 -0.12207922 -0.25656325  0.30191505
 -0.23677024 -0.0017513   0.02355601  0.05814144  0.13561654  0.26587415
 -0.28807637  0.33317184  0.38568982  0.21699385 -0.1284262  -0.11859528
 -0.15412126 -0.11860172]
[-0.06893465  0.28515646  0.39494464  0.19256103 -0.04735473  0.2742407
  0.21845315  0.05249139  0.14912601 -0.04652177 -0.03652951  0.5028408
  0.23977858 -0.31047273 -0.43269575 -0.28681192  0.43185142  0.33576006
  0.27434182 -0.36341217]
[-0.17518854 -0.01082764 -0.12868877 -0.03683381  0.02578504 -0.19635089
 -0.19065608  0.03112472  0.00505596 -0.35316172 -0.21187946 -0.20078523
 -0.16188976 -0.4332609   0.04910927 -0.16745004 -0.14045978 -0.22328642
 -0.18593201 -0.46279767]
[ 0.36434793  0.28810465 -0.29702607  0.02621788  0.082132   -0.07496572
  0.23475729 -0.1147899   0.00296617  0.3665617   0.41823608 -0.00393774
 -0.03792475  0.00603696 -0.00321362 -0.07870981 -0.44501022  0.1602298
 -0.00981723  0.29983762]
[-0.07629915 -0.17064132 -0.09935713 -0.03004672  0.1751634   0.2611629
  0.05663159  0.12771687 -0.04131619 -0.03387681  0.10239486  0.42056262
 -0.35730425 -0.40651602 -0.02245745 -0.27701896  0.05822021  0.06009447
  0.14054435  0.2327962 ]
[-0.19035694 -0.03640747 -0.08261265 -0.14633979 -0.20378065  0.24162512
  0.2701991   0.17288311  0.2537944   0.01275865 -0.38575232 -0.1476766
  0.22351658 -0.1520355   0.175166   -0.05209683  0.21398517 -0.32153854
 -0.22281711 -0.04378834]
[ 0.39839625 -0.06990137 -0.64387566 -0.35301065  0.01834886  0.10251967
  0.7023698  -0.2702143   0.11907896 -0.35534915  0.38261428 -0.18899977
 -0.02781684  0.18061961  0.13964877 -0.5398005  -0.4921952   0.09144928
 -0.52333874  0.48949128]
[-0.28515753  0.07796565 -0.14249748 -0.35520706 -0.08702169 -0.12341358
  0.27961493  0.22221822 -0.14367089 -0.20152055 -0.18494064 -0.18656266
  0.19409564 -0.40430868 -0.336875   -0.33664566  0.308513    0.09972432
  0.09293705 -0.27049738]
[ 0.02490352 -0.34706727  0.15235768 -0.02380067 -0.00687402 -0.0154631
  0.02542465  0.00094192  0.16015427  0.11010621 -0.17309026 -0.10086761
 -0.14514731  0.2648052   0.01371546  0.1110961   0.29973248 -0.0133447
 -0.1983685  -0.12364732]
[-0.26596522  0.01073216  0.20935217  0.35088202  0.23475718  0.4075668
 -0.1880865  -0.16404483  0.2806339   0.0136303  -0.14174174  0.09225943
  0.08418803  0.1825247  -0.28187272  0.2003225  -0.2979007  -0.23063126
 -0.3795545  -0.04543279]
[-0.25951076  0.3468999  -0.01794261 -0.15346256 -0.34681243 -0.24154302
 -0.26688927 -0.26912808 -0.06324625 -0.0380355  -0.45504463 -0.31210417
  0.31573802 -0.3924032   0.12078201  0.0321687   0.15184996 -0.39725426
  0.37008765  0.00622761]
[ 0.0490772  -0.17755982 -0.09552682  0.05239914  0.09711454 -0.01421435
  0.06029225  0.00380881 -0.02005961  0.01927355  0.01055091 -0.04438214
  0.05866957  0.06311884  0.02449632 -0.02996512 -0.05902254  0.13507444
 -0.00671715  0.02155993]
layer 1 Activation
tanh
layer 2 Dense
20 40
[ 0.26489663 -0.0702987  -0.18041019  0.03516095 -0.24111691 -0.24611647
 -0.16885099  0.15597346 -0.38157088 -0.01569179  0.04250456 -0.01282485
 -0.292229   -0.03203509  0.4021784  -0.11091815  0.42171043  0.22695515
 -0.1421732   0.27966335 -0.3632666   0.03831803 -0.15306486  0.16799337
 -0.08911312  0.32266903 -0.17509396  0.00788726  0.08816241 -0.17141753
 -0.35649985 -0.02321254  0.25642294 -0.4009896  -0.2308031  -0.0249202
 -0.20230074 -0.06607961 -0.29121864 -0.04678906]
[-0.3427093   0.00565507  0.07383926  0.38174886  0.23562713  0.24404906
 -0.2221958   0.25716949 -0.02371642  0.0549566   0.04579087  0.08755988
  0.22912048  0.00675948 -0.2155568   0.20532396 -0.20582558 -0.16372582
 -0.18014911 -0.12304631  0.1270952  -0.13620235  0.26852256  0.01725696
  0.18419015  0.00846156 -0.43508285 -0.04581508  0.26320523  0.36295015
  0.27206743  0.15703385 -0.35790452 -0.09057946 -0.04876124  0.42051253
 -0.23967868  0.06791763  0.13729438 -0.17538555]
[ 0.19642654  0.36270878 -0.18687053 -0.11569277 -0.02668033  0.12354917
 -0.02689284  0.27173284  0.23233637  0.06351516 -0.20894948 -0.02994744
 -0.15644751  0.08732452 -0.01373036 -0.20947185  0.17896889  0.14993662
  0.300412   -0.21208137 -0.00488905 -0.07060054  0.37851983  0.22070111
 -0.1551816  -0.04665864  0.17453487  0.09373012 -0.39307192 -0.05658872
  0.03745817  0.02163723 -0.3335074  -0.26552272  0.1852876   0.09629957
 -0.16051847 -0.07164911 -0.34253103  0.03029568]
[-0.12418225 -0.37479737 -0.05333625 -0.16278906 -0.02363881  0.22821647
 -0.00106635 -0.14069594  0.0235541   0.15484484  0.25991037  0.2562504
 -0.13328673 -0.28945094  0.2479568   0.02664658  0.15019716 -0.22818017
 -0.15974268 -0.0492008   0.04509851  0.10415991 -0.39045152  0.17433253
  0.17244437  0.2238416   0.19015902  0.14395821 -0.34229785 -0.06392089
  0.17076594  0.05692806  0.01544565 -0.33745742  0.12883805  0.00201457
  0.07688086  0.10613056 -0.34241134  0.13636744]
[ 1.3078623e-01 -3.7763253e-01 -1.1507238e-01 -9.7809769e-02
 -2.0605882e-01  5.1136166e-02 -2.3728775e-02  2.1821707e-01
  2.5283036e-01 -1.6728057e-02  1.9011928e-01 -1.4967881e-01
 -4.1562074e-01 -1.7472796e-01 -1.6042279e-01  2.6403248e-01
  2.2345693e-01 -2.8459797e-02 -1.9167963e-01  1.6749845e-01
 -3.5268572e-01  2.0250110e-01  6.6225246e-02  2.5979046e-02
 -1.3283035e-01 -1.1196682e-01  5.0721522e-02 -1.3832110e-01
  4.1624424e-01  8.2465038e-02  2.0845741e-01 -6.4313717e-02
  2.4486502e-01 -1.8036404e-01  2.2924150e-04 -3.3922359e-01
 -1.5704893e-01  6.5911837e-02 -2.0028031e-01  7.3271625e-02]
[ 0.31960598 -0.1519491  -0.03870453 -0.02128995 -0.13525753  0.01686379
  0.2938837   0.20303644 -0.08315638  0.08059243 -0.14619431  0.26307264
 -0.32562608 -0.00437771 -0.07540155 -0.21097904  0.32239267  0.06640242
 -0.09801935  0.05882011  0.13434505  0.01792478 -0.01701509  0.1816296
  0.03267834  0.30325803  0.2984201   0.02078948  0.23310228 -0.1031884
  0.21335654 -0.1402889   0.32315713 -0.34532836  0.31767842 -0.17434062
  0.03897319  0.1325558   0.01090717  0.00624066]
[ 0.25492772  0.154396   -0.11946649 -0.15797159 -0.27310064 -0.27149478
 -0.30728933  0.08869461  0.11044934 -0.0392019   0.2601486  -0.12341518
 -0.25053555  0.15568058 -0.24649304  0.17524518  0.27676243  0.19769783
  0.03444296  0.23160523 -0.22939366 -0.05926964 -0.37055793 -0.21639043
 -0.2893806  -0.0550869   0.07544512 -0.33329585  0.47209877  0.06576921
 -0.12421912 -0.12110764  0.40050614 -0.03781214  0.10290411  0.01213201
 -0.1547575   0.04956177 -0.14279826 -0.126389  ]
[-2.32198402e-01 -1.87009454e-01  1.13527052e-01  1.20813020e-01
 -2.70528942e-01  2.33369440e-01 -2.11108848e-01 -1.23552628e-01
  1.07044242e-01  2.52581149e-01  1.05019227e-01  2.80146539e-01
  1.98044449e-01 -1.78910121e-01  1.53682098e-01  1.11200919e-04
  3.04411620e-01  2.79686868e-01  5.20092882e-02 -2.16940075e-01
  7.32987449e-02 -8.44049007e-02 -1.64086908e-01  1.57016233e-01
  2.63369717e-02  1.94456503e-01  2.71688461e-01 -2.14708913e-02
  5.25040999e-02 -7.10184947e-02 -1.19677335e-01  1.58975422e-01
 -2.55845934e-01  1.87103361e-01  2.14630440e-01  7.82905370e-02
 -2.14454293e-01 -1.82095379e-01  7.95341004e-03  2.06760183e-01]
[ 0.33600414 -0.31447384  0.1338158  -0.17420089 -0.15889204 -0.3158501
  0.00295458 -0.24556364 -0.1035189  -0.30341724 -0.19648288 -0.21644041
 -0.28945428 -0.10653649  0.25729755  0.33473054  0.2678875   0.18519548
 -0.3301305   0.11955955 -0.37286165  0.14743605  0.07046825 -0.03964183
  0.24644233  0.11557438  0.13830996 -0.22851714  0.11459626  0.22748564
 -0.00325859  0.12739386 -0.16682397  0.01709994  0.09245221  0.27019426
  0.01266872  0.31703457 -0.18773517  0.1536969 ]
[ 0.0453704   0.12862131  0.16383728  0.08998036  0.27544364 -0.0846142
 -0.0610114  -0.30496463  0.16412355  0.09755085  0.11491507 -0.09159262
  0.2061772   0.20530143  0.39101034 -0.1338534   0.26596788  0.3180071
 -0.18200368 -0.16340218 -0.23521042  0.13212949 -0.27535868 -0.08422945
  0.13818216  0.16817404  0.22905278 -0.3490614  -0.01748895  0.09008964
  0.0802453   0.14051169  0.15920204  0.08325808  0.28683928 -0.22997421
 -0.24847887 -0.01630043  0.02573247  0.19764964]
[ 0.20038818 -0.21273555 -0.18777522 -0.18720064 -0.31125736 -0.21071956
 -0.00640448 -0.26266128 -0.05135878  0.23236485  0.08628789 -0.14031258
  0.0120755  -0.06484108  0.22725126  0.23704511 -0.01173094 -0.18322752
  0.25373316  0.30631727  0.00790055 -0.01886598 -0.29897273 -0.00268899
 -0.07486209 -0.01933867 -0.02405054 -0.17564811  0.21215117 -0.2706399
 -0.11182603 -0.02269126  0.3013786  -0.15646829 -0.06449777  0.03716344
  0.17307287 -0.14003491 -0.24362093 -0.12405521]
[ 6.43602088e-02  1.91020444e-01 -1.89146236e-01 -6.37448952e-02
 -2.11555347e-01 -3.26262295e-01  1.86798379e-01 -1.97926432e-01
 -2.27585100e-02  1.02196321e-01 -2.92709231e-01 -2.29267329e-01
  2.63070136e-01 -1.27702579e-01 -8.53726119e-02  4.42459174e-02
 -1.09039918e-01 -1.67312026e-01  5.01053454e-03 -2.68664807e-02
  1.03255756e-01  3.38321589e-02  3.06951795e-02 -2.36306101e-01
 -9.09364671e-02 -7.66408145e-02 -3.00927609e-01 -2.34377414e-01
  2.70331919e-01  3.19500238e-01  2.40844309e-01  7.94710368e-02
  1.63235098e-01  5.27781010e-01  1.48758754e-01 -1.97067217e-04
 -1.29451662e-01  7.57107735e-02  7.55524784e-02  1.46740347e-01]
[ 0.04208967 -0.29383397  0.13561645 -0.03463665 -0.07011487  0.008702
 -0.18639325 -0.14737627 -0.23639333  0.08879862 -0.02383707  0.291817
 -0.2623525  -0.20133795 -0.06395397 -0.1575848  -0.00659654  0.07692346
 -0.13636464  0.2733997  -0.11913264 -0.17642371  0.15956885  0.1511552
 -0.2138144   0.01262115  0.21434268  0.16630541  0.11979352 -0.32442117
  0.01412092  0.12750006  0.1600789  -0.11725807 -0.0512233  -0.09754092
 -0.07429491 -0.17376564 -0.28716835 -0.07647196]
[-0.11173332  0.10927826 -0.15502685  0.2779224   0.23585317  0.02339913
  0.12398896 -0.01747794  0.08464785  0.29790625  0.29971308 -0.16012284
  0.05265527 -0.14294726 -0.23995145 -0.194273    0.0355146  -0.27945414
  0.30416912  0.07726126 -0.08289362 -0.2792506  -0.19554181 -0.1323478
 -0.10362186 -0.24750932 -0.03565013 -0.3298341  -0.0340292   0.23145124
 -0.1700335  -0.23065984  0.22949922 -0.093573    0.18105435 -0.24460664
 -0.04728223 -0.06959363  0.16109146  0.35486338]
[ 0.00676294 -0.17114662  0.00610193  0.09587851  0.25246993 -0.14050673
  0.29911226  0.17907648 -0.1372408  -0.04374619  0.19562398  0.04011695
 -0.22235641  0.26415992  0.14732644 -0.01650938 -0.33705202 -0.0062119
  0.1488762   0.19876888 -0.22190835  0.00865008  0.00107343 -0.03486738
 -0.05287501 -0.3229859   0.05408803 -0.13078314 -0.14085552 -0.14564142
  0.2195477  -0.16152692 -0.02566596 -0.05386821 -0.12294423 -0.17660098
 -0.1620768  -0.03006893 -0.20478928 -0.08735969]
[ 0.01036714  0.31404462 -0.22530791 -0.07456927 -0.14027402  0.18258399
  0.05469251  0.16882785  0.12893113 -0.20707038  0.24824826  0.18834879
  0.2853991   0.04980753 -0.06288034 -0.03148371  0.06004016 -0.10270683
  0.22561282 -0.28526375 -0.24682601 -0.32141545  0.10282851 -0.2877805
  0.3346238  -0.2879802  -0.15467049  0.04769304  0.04838811 -0.23591395
  0.19522925 -0.31294593  0.01396303 -0.23701803 -0.15397258 -0.30936173
  0.37514755  0.15747924  0.066632   -0.09386367]
[ 0.14953882 -0.02699213  0.04444134  0.0454373  -0.3130399   0.1843438
 -0.05682078 -0.01248443  0.26602808  0.2153964  -0.13795511  0.15227638
 -0.24689499  0.2728426  -0.24721624 -0.02902003  0.13171798  0.11508973
  0.1925434  -0.4425553  -0.07404993 -0.14699504 -0.21800485  0.0117303
  0.23978087  0.21625029  0.01483218  0.14068587 -0.08606616 -0.05232043
 -0.06464399  0.36787185 -0.09049249  0.15502377 -0.21329992 -0.08539005
 -0.00263913  0.08816481  0.09946833 -0.01611599]
[ 0.0211428  -0.4116706  -0.20111254  0.00518774  0.03238894 -0.18764721
 -0.11175135  0.2540381  -0.07419494  0.11216561  0.18824682 -0.06379499
  0.03152062 -0.07941587  0.3062892   0.28772438  0.00640355 -0.15388401
 -0.10434009  0.1794155   0.10964474  0.20777592 -0.27900943  0.26538378
 -0.11206662  0.17384936 -0.03601795 -0.27269998  0.08823384  0.37769186
  0.13704832  0.1138472   0.28218925  0.05378146 -0.09533785  0.3338099
 -0.30562186 -0.04468018 -0.16722931 -0.05597464]
[-0.33449534  0.31405464 -0.23435643  0.12468078 -0.12749353 -0.19146487
 -0.26193678 -0.09473962 -0.06359447  0.04860181 -0.28437397 -0.05740383
  0.3357363  -0.1705588  -0.21845357  0.18958291 -0.013861   -0.26817203
 -0.09024202  0.2045923   0.02849789 -0.24937405  0.31324175  0.21611683
 -0.29351005 -0.36559215  0.18802844  0.10710013  0.1355484  -0.02136783
  0.14082469  0.05811593 -0.20028971  0.3853596   0.23750375  0.2987562
  0.05139939  0.14570269  0.22467701  0.08668865]
[-0.11161876  0.13155413 -0.2004804  -0.06312313  0.3639567  -0.23379265
  0.19138117 -0.01165348 -0.13635698  0.16744034  0.16023058 -0.11201011
 -0.04695987 -0.19004744 -0.22461192 -0.07008727  0.14959799 -0.02519616
 -0.13352309  0.10321355  0.03761263 -0.25518575 -0.16627154 -0.06966408
  0.2246021  -0.20939304 -0.11472178 -0.17465186  0.15175177 -0.16993351
 -0.00752024 -0.04792553 -0.32226133  0.10573813 -0.17072603 -0.22034542
 -0.20542431  0.01853834  0.10664745  0.1367733 ]
[ 0.07384289 -0.10633846 -0.00431794 -0.03631293 -0.0056615  -0.01714099
 -0.00230801 -0.01169493 -0.05885318 -0.01475296  0.02246217  0.093584
 -0.08357462 -0.08473996  0.07293758  0.00996337  0.18615888 -0.00736252
 -0.06827734  0.0443796  -0.126342    0.02984018 -0.18691543  0.02959543
 -0.02291265  0.08559865  0.11462487 -0.0260216  -0.04433842 -0.01533195
 -0.08196114  0.03325384  0.07922657 -0.12233351  0.01578056  0.03058169
 -0.00740179 -0.03362327 -0.02539128 -0.04172109]
layer 3 Activation
tanh
layer 4 Dense
40 20
[ 0.16657786 -0.0841757   0.2322914   0.21623771  0.30787703  0.10273754
 -0.40147448  0.22808212  0.10302393  0.35301098  0.18581393 -0.11187062
  0.1981869   0.101423   -0.17207178 -0.18082048 -0.18089725  0.30661947
 -0.23717937  0.18100026]
[ 0.11472708  0.13557628 -0.0497933  -0.21422929 -0.339064   -0.30320925
  0.07768116  0.3107151   0.20914324 -0.03530467  0.00142511  0.04754497
  0.38812768  0.15086287 -0.23746149  0.20618115 -0.36193183 -0.3353495
  0.18365109 -0.13848224]
[-0.20505601  0.06426214 -0.36281797  0.21558623  0.1047627  -0.0679794
  0.1718732  -0.1748356  -0.01110337  0.34940708 -0.07859048  0.03916995
  0.36255622 -0.27200907 -0.08837813  0.12951306  0.08353927 -0.13294223
 -0.05786294  0.06208039]
[-0.06401508 -0.07334141 -0.22810441 -0.33669654  0.15363711 -0.16271614
  0.04517677  0.30691963  0.06453677  0.05729726 -0.10847101 -0.05037724
  0.38702428  0.1091797  -0.12392702 -0.19994497  0.00953243 -0.15735713
  0.31337202 -0.13346441]
[-0.27615994 -0.14186558  0.29486617  0.1816309   0.04053302 -0.00715806
 -0.08133915  0.1328441  -0.1475613  -0.25703695 -0.29363057 -0.17338681
 -0.057376    0.32646596  0.23738377  0.14387079 -0.10206351  0.06440794
  0.29497457  0.01190847]
[-0.28020397 -0.13633889 -0.18250261 -0.22649667  0.07212847  0.15233292
  0.00857668  0.26087785  0.11259351 -0.20781927  0.03374002 -0.30368757
  0.40992975  0.05224214  0.05371995  0.2367959  -0.0272752   0.05262483
 -0.17907174 -0.10347663]
[-0.17048399  0.20368478 -0.00591754 -0.11785921 -0.06201896  0.14180444
 -0.01861337  0.18717203  0.28794637  0.07632319  0.19934477 -0.20240931
  0.27181518  0.69693464  0.05119205 -0.21885312 -0.02712916  0.11215264
  0.21922684 -0.18824472]
[-0.07959546 -0.17601413 -0.09258872 -0.1307311   0.1677007   0.196555
  0.1166437   0.11524801 -0.03571906  0.05171667 -0.22801474 -0.15011896
 -0.059333   -0.04229401 -0.23839568  0.21881627  0.19232696  0.08371448
  0.24080554  0.1733625 ]
[ 0.31983566 -0.32000193 -0.22316936 -0.16337158  0.04719102 -0.1425152
  0.15190442  0.09021131 -0.13011467  0.03448791 -0.33379596 -0.12196316
  0.20024405 -0.01563072  0.10749333  0.27284446  0.1732137  -0.16915053
  0.26822415  0.1138132 ]
[ 0.23480508  0.17242093 -0.1021229   0.06822498 -0.03872673 -0.22881483
  0.1302563  -0.03947806 -0.16081049 -0.24519873  0.11283551  0.04981611
 -0.41751972 -0.16867036  0.25515813 -0.1598627   0.09379458  0.07766443
  0.02718425 -0.03737116]
[-0.08739767  0.04541579 -0.08210056  0.01025567  0.1646723  -0.2696677
 -0.05920338  0.2624123   0.28176787 -0.05363182 -0.15760073  0.13944604
  0.17622049 -0.01482168  0.1340611  -0.26292562  0.27786988 -0.20206545
 -0.26437408  0.51787084]
[ 0.2039758  -0.20797539 -0.21160226  0.29230583 -0.04179401  0.19558781
 -0.06331959 -0.12478667 -0.06716103  0.44070625  0.12165905 -0.03975146
  0.10010942 -0.03566768  0.12915401 -0.22145861  0.16015142  0.37660456
  0.04079514 -0.0447176 ]
[ 0.20204307  0.12846607 -0.16580394 -0.01339301 -0.13101512 -0.18069893
  0.00469953  0.30912417  0.16635032  0.00318852 -0.23607872  0.12943849
  0.13657111 -0.17496523 -0.05256734  0.07142954 -0.15672846 -0.05194086
  0.32099903 -0.24706928]
[-0.11725238 -0.04716171  0.11368931  0.06551661 -0.195988    0.26265118
 -0.13628216 -0.1911912  -0.08664539 -0.27259678 -0.2039465   0.15513003
  0.33214515  0.00865752 -0.0907148   0.08675279 -0.0960708  -0.0272871
 -0.00382625 -0.18271014]
[ 0.04909372  0.24323271  0.05122609  0.11693579  0.140766   -0.06469193
 -0.4055549  -0.14336008 -0.2793521  -0.15033051 -0.23366366 -0.09160174
  0.11901059  0.3195018  -0.20003928 -0.2554196   0.3084533   0.29741365
 -0.26971862  0.20194793]
[ 0.06812332  0.21197554 -0.28334707  0.01550286  0.26317498 -0.3122587
  0.34604594 -0.09536932 -0.06221839 -0.08120202  0.13096124  0.2954993
 -0.14562137 -0.15229246 -0.2977585  -0.2022276   0.01685954 -0.20272084
  0.28307417  0.08922131]
[-0.17477435 -0.25797155  0.34984574  0.25503406 -0.23918526 -0.01203135
 -0.02550455 -0.15609433 -0.05647385  0.18128335  0.16475502 -0.02005011
 -0.38746747 -0.09672572 -0.35103956 -0.32757762 -0.07843241  0.3097528
 -0.04687838  0.18485193]
[-0.20682426  0.01615523 -0.0153733  -0.20814632 -0.06697869  0.10209116
 -0.09559236 -0.2623115   0.20851882  0.2267797  -0.05291442 -0.24898595
  0.0733825   0.10836238  0.20345132  0.12463254  0.29630557  0.2949581
 -0.28902897  0.22808395]
[-0.2501177  -0.17532976  0.10759611  0.01483291 -0.04651668 -0.30082452
 -0.06762011  0.11404679  0.2772252  -0.2817609  -0.3181396  -0.10871252
 -0.1087168   0.0947335   0.29148242  0.2958246  -0.31751227 -0.34868908
  0.2734047  -0.22124305]
[ 0.14950757 -0.23296191  0.08066949  0.05349959  0.10956493  0.16931722
  0.14894803 -0.21423544  0.37272406  0.26445818 -0.10485108 -0.0528396
 -0.01335084  0.18700105 -0.15114531  0.03530018  0.22449741  0.21727598
 -0.08461098  0.1068949 ]
[ 0.33210772  0.17876679  0.05073022 -0.20819147 -0.22299427  0.17723024
  0.13874729  0.2620557   0.06859829 -0.3206693   0.11745725 -0.22166182
  0.11389166 -0.15218948 -0.24458115  0.2802217  -0.19221914 -0.17123343
  0.04882765 -0.45820093]
[-0.0447634  -0.31262407 -0.0603133  -0.15238315  0.17113362 -0.10444651
 -0.16590478 -0.16159183 -0.01018337  0.10595577  0.09570009  0.05135691
 -0.30122265 -0.0481324   0.0153312  -0.32440233 -0.13372338  0.07183632
 -0.11987902  0.4023729 ]
[-0.28640878 -0.262287   -0.2793864  -0.19723484 -0.26464644  0.09298076
 -0.09513857  0.30660552 -0.2121033  -0.3572474  -0.24819374  0.24857561
  0.44221032 -0.16022563  0.08609047  0.02319052 -0.19883439 -0.18445972
 -0.07398856 -0.20840283]
[ 0.13441588 -0.1493843   0.31688216 -0.16872077  0.00178566  0.04674221
 -0.19762187 -0.2631487   0.06409536  0.29936108  0.19078787  0.34582177
 -0.20630655 -0.07368691  0.00910808  0.11429162  0.2578072   0.07953899
 -0.11628496 -0.13216968]
[ 0.13226743  0.11014489 -0.2417564   0.12041427 -0.19470018  0.13707341
 -0.12102588 -0.05557261  0.04338543  0.05575387 -0.04622326  0.23850006
  0.2827928   0.13602701  0.14390747  0.22232954  0.06659491  0.27935567
  0.20348944 -0.3516017 ]
[ 0.07364997  0.1549901   0.2601333   0.17856902 -0.2548702  -0.09052782
 -0.19230773  0.0440919  -0.180847    0.13964443  0.3406896   0.2909817
 -0.1880039  -0.07358275  0.13111942 -0.10858395  0.11337517 -0.01878215
 -0.35409525 -0.2944963 ]
[-0.28712192 -0.11129862  0.17344025  0.29664737  0.2285959  -0.00478896
 -0.2679922  -0.1570551   0.04508585 -0.0601635   0.31529233 -0.09721855
 -0.167566    0.28483185  0.14328718 -0.00435304  0.20301579  0.15366004
  0.11580436 -0.2807352 ]
[-0.06697901  0.15527472 -0.11710137  0.09590057 -0.23595299 -0.30132753
 -0.09008361  0.09816006 -0.19577138 -0.07400912 -0.00865263 -0.27903548
  0.37574673 -0.13449162  0.11756078  0.1826472  -0.06717392  0.09296931
 -0.08937596 -0.52585536]
[ 0.284714    0.17930546  0.24377878 -0.15457362  0.1836215  -0.09688997
 -0.28456622  0.2058767  -0.12426781 -0.11636208  0.03175183  0.28487378
 -0.29670727  0.13310647 -0.2262073   0.07209665  0.16228661  0.10094617
  0.12668686  0.09795228]
[ 0.18667525  0.17940545  0.20287453 -0.00658723 -0.0985743  -0.00907605
 -0.10339246  0.11880089 -0.00869991 -0.16577576 -0.23965451  0.19587512
  0.19759586 -0.23356971 -0.12334384  0.2878147   0.1745638  -0.1266996
  0.30316404  0.2935556 ]
[-0.15240529 -0.14140728 -0.30133736 -0.03013572 -0.08159691  0.09986143
  0.00717774  0.30432618  0.0164727  -0.10369933  0.15493491  0.2722724
  0.06949343 -0.3065032  -0.03566844 -0.18334205 -0.26139745 -0.19616975
  0.20695275 -0.31437156]
[ 0.2406124  -0.38180548 -0.08316376  0.3448436  -0.28876907 -0.11258911
 -0.2912026  -0.14175397 -0.23299496  0.07335795  0.08884948 -0.0930963
 -0.04447306 -0.4299671  -0.02669427 -0.02106196  0.02033079 -0.15691599
 -0.23394771  0.27260995]
[-0.1389665  -0.2620541  -0.17981872  0.11485604  0.3948897   0.21196759
 -0.17471014 -0.06219498  0.06169896  0.16803883  0.28404745  0.01677004
 -0.42599136 -0.15609321 -0.12586221 -0.21121593  0.2879666   0.23537108
  0.14048512  0.19018094]
[-0.01829915 -0.1545697  -0.3048044   0.09553714  0.22700681  0.21004151
  0.41633952  0.00914158 -0.27750826 -0.1733071  -0.18530902  0.22253942
 -0.0323783  -0.09014556 -0.15270324 -0.00522201 -0.28337693 -0.07311857
  0.36495978 -0.2183311 ]
[-0.11307115  0.17422813  0.28459686  0.18000132  0.01021629 -0.12994377
 -0.03610777 -0.02647709 -0.18919311  0.00515525 -0.04770625 -0.04802956
 -0.30752158 -0.11169291  0.04987355 -0.03999235  0.16049561  0.02091631
  0.01691744 -0.07059089]
[ 0.30297208 -0.13725854 -0.11800367 -0.11653306 -0.07610103  0.03526823
  0.2424782   0.29796597 -0.20316169 -0.16303341  0.10864242 -0.10785956
 -0.07761425 -0.2439702  -0.00197905 -0.0379451  -0.19694696  0.12911727
 -0.23846862 -0.33296582]
[-0.10241357  0.01248629  0.08974222 -0.31275874 -0.26556328  0.15301539
 -0.00429551 -0.22034843  0.19259645  0.06470807 -0.10096012 -0.00838288
  0.36832458  0.81790686  0.05389168  0.07365726  0.27855858  0.01040422
 -0.10305529 -0.38335145]
[-0.12861668  0.10935174 -0.12932765  0.18509616 -0.29100886 -0.08431824
  0.0861453   0.0486646   0.02104778  0.04458737 -0.00177309  0.03216961
 -0.07049739 -0.05390911 -0.32431775  0.19453691  0.26232278 -0.11578865
  0.0141434  -0.24219804]
[ 0.07134973 -0.16358577 -0.11868856 -0.3381201  -0.16456829  0.16189408
  0.10511816  0.24530321  0.1845181   0.17707662 -0.29928857  0.01765709
 -0.13600324 -0.24500106 -0.25001216 -0.15742852  0.06607828 -0.03634098
  0.06129942 -0.07030287]
[-0.24210662 -0.23968273 -0.12904552 -0.11985834  0.21818753  0.10109937
 -0.03892904 -0.02002802  0.10159992  0.06722751  0.11852571 -0.31471482
 -0.08010533  0.01367566 -0.18857583 -0.13389687 -0.16648218 -0.23308308
  0.0707439  -0.09154014]
[-0.00294099 -0.0149925   0.03878379  0.043607    0.01670597 -0.0139884
 -0.08830736 -0.05887351 -0.00125249  0.04484568  0.06121712  0.02036245
 -0.0957397   0.044174   -0.01465299 -0.03995511  0.02669426  0.06491819
 -0.05204129 -0.07701056]
layer 5 Activation
tanh
layer 6 Dense
20 1
[-0.03545713]
[0.0038667]
[-0.2874694]
[-0.28616446]
[-0.17769158]
[0.00438567]
[-0.2533802]
[-0.3675443]
[-0.09465218]
[0.24855709]
[0.42585647]
[-0.0321748]
[-0.00544299]
[0.00053037]
[0.02428268]
[0.31942305]
[-0.2795301]
[0.365122]
[0.40476027]
[0.0318893]
[0.00320653]
