layers 7
layer 0 Dense
20 20
[ -0.07460685039859216 -0.7395613428727779 0.3825965513903449 -0.15411406135934116 0.5833438275522869 0.2326373560716581 0.6483575378527999 -0.5471715372725587 -0.35066872532931137 0.7368680167287155 -0.10384372620022647 0.02593046872611639 0.401647642333066 0.6078791506965914 -0.32278128860146466 0.13484030668049912 0.2648081947899649 -0.12166873300385829 -0.30385558447757616 0.2240328407499458 ]
[ -0.13787734946458285 -0.29641764230302065 0.1960616666418453 0.0775142928445379 -0.29022881320333893 0.25049801755309736 0.36709599989147385 0.38129235772158837 -0.191259401563243 0.2720109850470759 -0.07550012702200873 0.3736897396710432 -0.38482618645566896 -0.23021218556895498 -0.1029179034547135 0.07986513723832783 0.09362692073628477 -0.11426253107222503 -0.20043224246541616 -0.20304785890586236 ]
[ -0.07284675300797758 0.1426132316857167 -0.002651589651450167 -0.06796749665369108 0.2092296507827496 0.10045631408272833 -0.12096601307816732 -0.015647425479065207 -0.3671198865428171 -0.02997614688434566 -0.29421913097254987 0.023421557313156347 -0.3020312752262383 -0.2064677444370259 -0.32766510313122343 0.12192518808143193 0.2939069543060826 0.3293714588911804 -0.18561898528360313 0.02535089391397313 ]
[ 0.0004337646315432848 -0.7430829612749603 0.5483417937003954 -0.21951668348305456 -0.257876309424229 0.1170545144399495 0.6158584430023085 -0.05876042424315551 -0.38264018087939683 0.49883112995911527 -0.11866197931495702 0.5126083582065034 -0.030399185946444866 0.12104594415082719 -0.12172285138027969 -0.17603950440696037 0.013254108528682966 -0.11266210098754471 -0.2526159639661643 0.26304786464214086 ]
[ 0.28337423068493023 -0.19162908235817297 -0.04681846674310011 0.2383840495070914 0.15286877291085862 0.48860962119973017 0.4769583114875829 -0.07990291824290147 -0.6609816320844052 -0.07204773538111346 0.11008354276142494 0.2541331332919545 0.4634154364473321 0.6266475296817026 -0.0497412932623077 0.07614701147799384 -0.7608135099003214 0.829437576864991 -0.3501033638617977 0.13152218763391138 ]
[ -0.23775554983929362 -0.08406474012553652 -0.288674128905396 0.15077194999359694 -0.22946796038637646 0.061732139221107485 0.243135024104459 0.32430957502992824 -0.2279861136469741 -0.08208992969844951 0.154506707328741 0.04064479753198663 0.3394144286512935 0.24838874915443723 0.25374950936338275 0.2775933918756449 0.2953834727339553 -0.05644816932600565 -0.07901667558999492 0.30484044616606576 ]
[ 0.048939316328641166 -0.042860526021078676 -0.37124174648921365 0.33608579633805524 0.0632656344196816 -0.02278802226971195 -0.3570292302902647 0.0938276994174802 0.11278235039142141 0.16137649428416861 -0.20101468579319023 -0.09081481281545321 0.3769094447206054 0.24622745646512342 -0.26584979302946476 0.07162729436457116 0.2051266733178785 -0.17117680032712318 -0.12233922109145146 -0.182734501749606 ]
[ 0.03075638693886551 0.06104841229862064 -0.22480917256605185 0.10563121579437137 -0.4084354018263081 0.07844255506894815 -0.013473494914270495 0.06168294366826383 0.43761824588263154 -0.6187237005867035 0.07395341616275204 0.12774743732626015 -0.6981873946654404 0.09693295504274642 -0.3353024492444572 -0.3274196815876737 -0.15451269000422657 -0.5671778936135791 0.5722791788282293 0.30044751718012275 ]
[ -0.26488121676880827 -0.18042350113228744 -0.18214768400839662 0.020467735077463974 0.018613781890393713 -0.5948179813123394 0.6414955301366704 -0.6937089725635069 -0.346742686824112 0.14827515028908725 0.3271003960314939 0.6495850669927782 -0.0929968796542876 0.6350649233946066 -0.09246898129700887 0.3086115359528184 -0.8552734928383651 0.7593118846657714 -0.7440650939834949 0.21792031324112685 ]
[ 0.25250743314635754 -0.3212782137486721 -0.10767062316319435 0.023285663458731835 -0.7025484365981874 0.2122135964643449 -0.23100412680334012 0.26630117317744206 0.19636207945178508 0.23565239159824003 0.17023759219731205 0.12383025521501179 0.5362808174959087 0.08511622217551244 -0.21128719679328983 0.031541224221998204 -0.7564589561872225 -0.13214309435064625 0.4511599838374167 0.0098286911854863 ]
[ 0.16924756812291267 0.07334038628834282 -0.16313912694321475 -0.21389083321824076 -0.28070099644649976 -0.06607018566177977 -0.40368154151042895 -0.22023577756410218 -0.25567025801523835 0.3161073544730863 -0.36445681058807017 -0.37408746233419693 0.38436240509626085 0.22618334816649185 -0.05963982846477339 -0.1673899515493454 -0.4239387908788078 0.23533329278786363 0.20966637848290542 -0.46769578094896175 ]
[ 0.9502212636073546 0.5858129238930877 -0.26410793549856276 1.1114301505521398 -0.6554997605751619 -0.33378968196274883 -0.08251496063529248 -1.9313998557885468 -0.7718623275733555 -0.41770853557131254 0.9780878367422132 1.253009536764374 -0.5419000302992171 -0.850664029891478 0.40533079197885163 0.49981396056717514 -0.24856074615764603 0.16394895981134358 -1.6553640739363433 -0.8354258885414487 ]
[ 0.4774399802005551 0.2404128396000708 0.07630468189358096 0.08194780078218307 0.5799091100022296 0.2927324846700923 -0.20697878303744982 0.3183581448277501 -0.23661712426563056 -0.43622664861661 -0.642879593993179 0.5221848041321018 -0.922675356912161 0.306550866185172 -0.26085367180229896 0.46964658271098736 -0.07252110654927475 0.11431510129144354 0.10798746656826234 0.18013525447696388 ]
[ 0.301741302052494 -0.16385469613259918 -0.10007466465667005 0.16291963173992233 -0.3239780106276492 0.3127968147877021 -0.037679646910979483 -0.3094823734860469 -0.18675618933474009 0.2953515187212794 -0.10163423076506597 -0.2875523009381673 0.09087956569543146 -0.002671961113986664 -0.6787026705952683 -0.2986473908938888 0.3988405388949534 0.5137965608933839 0.3634325141384546 -0.29395441756490975 ]
[ -0.3921771730716385 0.04891583262876274 -0.19077223662846704 0.021741790255720466 0.12190902821995554 0.1512410175142761 0.3808861964217414 -0.21770951118353418 0.4456171759535029 0.29195633001506377 -0.053828078669263105 -0.3027960365117348 0.15687853863273696 -0.015892134525802633 0.06063686751240461 -0.2585606447015979 -0.45382599692621944 -0.3615232865813694 -0.20615998754345363 -0.6492430550608242 ]
[ 1.4968042669644455 1.0981317848686643 0.20447969291349108 1.2558281340445716 -0.41096818475697994 0.02415481489658907 -0.6809156994115753 -0.27529608011574247 -0.13578524033465464 -0.5114544791669235 -0.003909339113843606 -0.40898869661487064 -0.24427855514891594 -0.518214075656396 0.7610999815323809 -0.9426172373939643 0.1956343679739813 -1.0196900512336458 0.14293880516269375 -0.6321751816734511 ]
[ 0.23062768049864135 0.09021743351877713 0.2846292433504699 0.9313367923679069 0.4572701576789566 0.5768753858832777 0.25136935310097624 0.20909201882914105 -0.20350097331102665 -0.045551949653377034 -0.5847796057119996 -0.22430535926531003 0.6103100036134349 0.18979558866943358 0.5471150477471013 -0.7672887899512935 -0.5476376195834467 0.21171113559402052 0.5415906279506877 0.2917423100213842 ]
[ -0.8897304446216421 0.4665136192169344 -0.1466668345888258 0.3103280099775987 0.44398357132333593 -0.3945334284609672 0.48445087976353063 -0.37231548491794275 0.20995090322354557 0.23940891161129962 -0.2071682620623164 -0.24752390974664953 -0.14991452365285504 0.8824308339394032 0.9338692062890592 0.8939479235710519 0.6206062186738717 -0.278727650306474 -0.34527714725914505 0.21431378913670318 ]
[ 0.4615784096943023 0.23979324232233112 0.4965729147371656 -0.30295493649771127 0.4559271781676456 0.653032029725166 -0.10579457864936337 0.28357600397585647 -0.26596791406707 0.14429260334439414 0.5790302790793799 0.8123379420368112 -0.11253341709342445 -0.3996529379013245 0.35517360061916137 0.7232781270204631 0.7573663193332334 0.08709571922029963 0.2612413496184045 1.2165227169580588 ]
[ -0.5538786081647048 -0.742791195004867 -0.31375475866129054 -1.1231924333392689 0.3185510558670985 0.39571787857810403 0.2155846134026785 0.6221617998993545 0.6270087007156215 0.4850768714217375 -0.46990042648994684 -0.19598500332142937 -0.3041995015014525 0.11955221039141047 -0.5701347687213199 0.4028530709042437 0.19970804652173288 -0.17658281878984625 0.3113465504440833 0.4035861829382174 ]
[ -0.11239816540546513 -0.2357053009677937 0.1209287192403106 -0.10964842641304148 0.0033016662693843672 -0.1140658156103661 0.1637132286779008 -0.16104579700966543 0.00927567325409942 0.2668308787508494 0.11881027304685426 0.058270868191088405 0.18117260158281515 0.09121036391003731 0.02516233581527964 -0.04794778479599108 0.09326818906069814 0.07702015642745187 -0.24492191993304305 -0.14116447907041924 ]
layer 1 Activation
tanh
layer 2 Dense
20 40
[ -0.013014286528613184 0.3263135400630499 0.3525918291241779 -0.534537346075287 -0.4901983192285358 0.3381541574172173 0.14200930978463708 -0.04409524745041638 0.8330371831106774 0.03956361128151121 0.34607188864883304 -0.5489605647277778 0.22378333151226748 0.07085808833215368 0.04742633599073483 0.47995486098424045 0.2372861814927527 0.35082482496634143 -0.22398516156609496 -0.4901374625097492 -0.16360802513040162 0.23392282587945154 0.6059217136689695 -0.26202057136932827 -0.4797871575103128 -0.042600455028136655 -0.05483133990573974 -0.14972983012550234 -0.35862318418337263 0.07365819449319029 0.16588106210585749 0.014995764626624213 -0.2785982928829637 0.20707010465075942 -0.3275246124356559 0.18055074408070712 -0.060011899477138864 0.37777416887569226 0.19798029577923199 -0.1872778184741434 ]
[ 0.41749589966636746 -0.3401086047127127 1.0143127206865192 -0.34209450961629234 0.26378337883185515 0.304599670954899 0.21003845933194595 -0.10381364972202126 -0.2121395183651863 -0.008737207378823214 0.759376795422015 -0.2752295919531668 -0.36087765653871406 -0.12644904404224788 -0.10991540073873521 -0.4224014929156627 -0.024572259125860477 -0.19825006902757106 -0.16742785510808858 -0.5345262161159023 0.7498396345291367 -0.11276640837108012 -0.3351648823877038 -0.1338629046914835 -0.27277754069652566 -0.14540968101543908 -0.029581715275653772 0.08693352775543378 0.17407525045033254 -0.22528842976413574 0.10098969785538035 -0.012432158027800058 -0.2563142659451364 0.7203002691837996 -0.13233806126568953 -0.3492041020303175 1.0048907517323247 -0.5283281336837273 -0.04272790803489556 0.4863055888043713 ]
[ -0.2839937572506976 -0.03603538980575386 -0.2987493155873623 0.03600490591041909 0.14124046265780899 -0.1277223911551856 -0.07182980247209145 0.07556247279343924 0.4263579992198224 -0.4209965001389829 -0.22985028643546526 -0.07079844545101596 0.22837076254784816 0.1792321493156614 0.08011206615097166 -0.13416025172651547 -0.5408169048860867 -0.001142396113624182 0.16443084331607788 -0.1274483742554539 -0.33312523383828324 0.01763411271926392 -0.11531918700785126 -0.2745750613157313 0.3414370191682988 -0.054846959479019575 0.2567610422387916 0.09915988082792081 -0.42594117889683425 0.14048028197296974 -0.25315558037797 0.22360738796921636 -0.12189773654073802 -0.4425415289788155 0.08887824249898592 -0.027551708606472092 0.4962548010443316 0.43994309300795725 0.2760989029823242 -0.21770542354535283 ]
[ 0.17972619197260614 -0.847371147603337 0.8698330331392372 -0.5730343558095521 -0.35968866644952174 -0.2398305203935688 0.12203762060410557 -0.3915518895271369 -0.16174447811531653 -0.4248290569651447 0.4481710080868527 -0.5908852250420511 -0.028754972529713894 -0.04522664499013839 0.18792883964568413 -0.8315682436502488 0.2566953468852021 -0.38609783790370517 -0.3735273184922588 -0.20270632485790227 0.7247165653837161 -0.4392402795502257 -0.1000477997670969 -0.004742673379265887 0.07192847837028102 0.32574696519572766 0.07711492630387078 -0.1394243535625674 0.20171448552003268 -0.10381559178500338 -0.12366681935978169 0.14910400304945726 -0.4184505608073516 0.42841455168559706 0.10936002227422395 -0.3393834538446586 0.832997893422578 -0.019520662019095768 -0.11349897559975491 0.09925878023855762 ]
[ -0.060297379461241904 -0.7369784425377238 -0.5986913405596718 0.47160351101780384 0.4687838633914639 -0.2625378572438156 0.3902645426195162 -0.09123300204885948 -0.5281644772227289 -0.19279463249336717 -0.44251618425432043 -0.2833081252452821 -0.15519755289536244 0.394866604549657 -0.17860590831052828 -0.31062197375016654 0.11078565420380147 0.08441635785725655 0.36388015498492277 0.42270387607721543 0.3685532183870757 -0.1489982160856284 -0.7374387923821567 0.3492951362508616 -0.5713298041631102 0.29602515868367923 0.2571990198138898 0.22744249451972748 0.08413650984956487 -0.05055394969440147 -0.32691239073995326 -0.29910149926031576 0.46413535126315497 -0.21623168557976646 0.2106069633587111 0.012009430724243833 0.4412593493336974 0.29900611600003135 -0.17900276087675385 0.07837752968604662 ]
[ -0.3164358745318119 -0.20827145070839845 -0.20736834061702267 0.41297051530408 0.17559438407683203 0.208637116711748 -0.2522116195636617 0.2581262880872733 -0.41116769466863995 -0.2382347146590434 -0.31456493566915916 -0.5346078610751676 -0.22781435358182195 -0.1323103751406362 -0.1614279508963485 -0.015316183567425659 -0.13154476213705174 -0.12160815381159826 0.4131428059778448 0.033808886680486795 0.382471376479321 -0.14004193844507065 0.0636311081162807 0.49853753579836335 -0.13418836627908745 -0.32376876652300146 0.23936632734692806 -0.02241133185402066 0.3298420775888274 0.15990562153524931 -0.2506832258745233 -0.041095709830937396 0.2784309096907962 -0.15448103003772223 0.007404401790486283 0.06717282919666125 0.17227509373977873 0.27015222576797904 -0.08474376292421444 -0.16126427611983038 ]
[ -0.2876564002240402 0.011672891212453216 -0.34286680111282125 0.29798031192540503 -0.4412762530995847 -0.5793264442666467 0.27671007523842395 0.13554317056908102 0.08612757844744644 0.045601827625284884 -0.5144564638862671 0.20065148915664022 0.3033974672402115 0.06120364854370003 0.15278337503558445 -0.03987786316956007 0.22568777950161037 0.39158205734852836 -0.24240190714901216 0.0140749191524357 -0.45333373735923793 -0.38363169835471356 0.0780447075659165 0.1811905242545211 0.029501729724805498 0.2156466728219708 -0.014008539606247561 -0.11539514009218432 0.09878307499202478 0.343957314969072 0.24866501833569551 -0.24145356181575292 0.3738115493321006 -0.2526562292294447 -0.13984506699657404 -0.06518539600580535 0.10885779093300932 0.06687702978892353 -0.6081720084834312 -0.06701815179272334 ]
[ 0.07667133513889796 0.00048772194212525725 -0.3555473245501678 0.05341593127521054 0.6603186319691609 0.5630621463008946 0.09812142007828858 0.29805168910142976 -0.624928224720882 -0.18404973896212926 0.12150335059622973 -0.1868741265423205 -0.03187878804197816 0.04864904706212831 -0.33068718428204086 0.24407801113678132 -0.6038225136442505 -0.12134385642531209 0.1076206083084629 -0.31931197790959215 0.13642466687638827 -0.11596808577126669 -0.29048025234234576 0.5572280352741087 -0.3976608586558587 0.1652588200852577 -0.16223128805004502 0.40731404801927634 0.5162275789992161 -0.0612506493197039 0.13477493125527365 0.6081772170248023 0.04947032480725653 -0.022834933594022357 0.18012376582880377 -0.23604344124052204 -0.07224973782203833 -0.009771270148075394 0.43462786011279647 0.09551306115356893 ]
[ -0.30024666532904426 -0.20864890720402832 -0.0614637210163546 -0.13749428401679456 0.36072967379349885 0.2850107766315527 0.4358545689919458 -0.3473007204499702 -0.5730439151192573 0.3724739301987669 -0.38404008558007635 0.09087259296794184 -0.17957936198821786 0.055221459956835736 0.29826218678051497 0.011890307982307084 -0.1825365027761873 0.1948289167538689 0.20712038273118102 0.43677139267955517 0.4812921459181166 0.28084866175908096 -0.6703098950123397 0.07949090558213756 0.23343618364185062 -0.3890978359259035 -0.05493289960471482 0.12200104203910003 0.7047085335172694 0.13133183232406678 -0.06093592258679721 0.06516981024747881 -0.11483710528657733 -0.1858878884077141 0.03208639758638457 -0.07691936775973128 0.11183898803841712 -0.3655119030932478 -0.3469604619595087 0.05539739092259016 ]
[ 0.03485029559008766 0.09466281326143904 -0.8345070985277857 0.5573684893229829 -0.05005903110168945 -0.048644247668145256 -0.07832722917638613 0.36294154364668274 0.28439633777025186 0.21085871762051522 -0.3450003920723074 0.15614127981513296 0.49680556765091094 -0.025557517783420074 -0.13210075199861882 0.2555340134122756 -0.27838463309929884 0.008649432282452995 -0.34007764557028414 0.13209110930781 0.10174886148336057 -0.16618431083237228 -0.33997357222209673 -0.46395546336294835 0.499642439081828 0.2618753691710989 0.13968085691062562 -0.3368950283413486 -0.42175442685144127 0.36635750533006767 -0.13066713947855174 0.1352093594405312 0.4022809852096325 -0.2853131328528617 -0.21920850784316998 0.4388995931872477 -0.45899369773677273 0.13374565242990114 0.07881735569151824 -0.7176617313986705 ]
[ 0.019099244789341975 0.23697106466300846 0.34152904376937016 -0.49951093963031756 -0.23471248952445067 -0.39041957323125764 0.3488254499641325 -0.2530533515084877 0.7127445990116417 0.08753221626280143 -0.003968226778987064 0.3746333839631256 -0.29245131793628804 -0.33709815183869823 0.17079272332278628 -0.3015023489256461 -0.43701253320116173 0.45045664338718305 0.4563994567804582 -0.008091240505830653 -0.6965881808957604 0.18911684292050437 -0.007434886837628946 0.1249536445820645 0.39384055338770774 -0.15206973011306338 -0.21356562721515834 -0.0625803228354832 -0.4696895120583691 -0.07893554610104608 -0.11315678704785556 0.3010806736191836 -0.21958243265127467 0.6779121117655754 0.31550437571581585 0.0687876412010221 -0.1451895621926741 0.16010387234724757 -0.07919232860007148 -0.04000848447275138 ]
[ 0.29899932666007556 0.13559625899908637 0.17958721827922916 0.12564823971804526 0.30735740931754296 -0.7552260125093154 0.4918033640349621 0.01943109855116787 0.1703451918420817 -0.08211765267681766 0.26111038957323296 0.34345726567064006 -0.07995350258861338 -0.17858458534437605 -0.0676412924782197 -0.5060531146482545 0.29463633802561273 0.8368645718778672 0.6414026369036244 -0.20820764262694952 -0.3863666993535196 0.40668197948445534 0.04423983726298805 0.5846800159741006 -0.8741628149341496 -0.2143000104525138 -0.25890019017446714 0.13750891805000537 -0.42389004747325 0.1582437855456719 -0.41441350437393076 -0.5014684104890141 -0.03417855405161702 -0.1560596740332298 -0.02198391564733842 0.01165941582425985 -0.060643349963856084 0.373208708086733 -0.38145450549048604 -0.13498618547087196 ]
[ 0.16126303491120436 -0.47616917549094645 -0.08734204949735135 0.28366088908598663 -0.4521546982951462 -0.14318011328868055 -0.003146060620663659 -0.02821642205499561 0.1535960802578389 -0.3575907220613389 -0.43051403929689397 0.14349919307967893 -0.1070122717556861 -0.01971729971926856 0.19289990170526394 -0.16816165442977463 -0.07087003187080664 0.2598195620158364 -0.11833947602187536 0.336903781807449 0.08709318254561231 -0.2522557788496759 0.3371102277020751 -0.042214118163803695 0.4982317163662643 0.012075612571698481 -0.1828353610345767 -0.06078785218414622 -0.27979590318423037 0.2102083129864822 0.05551484306026306 0.09368004376326114 0.08704776338047521 -0.4116565086723241 -0.05106479713680023 0.18707437281664935 0.8348593666045873 0.50761952894994 -0.021101978391972035 -0.629722937425831 ]
[ 0.0495268246028998 -0.11114255651756347 -0.26572705923816115 0.009753171988073486 0.02139018562565271 -0.3668821808347209 -0.3773585788172771 -0.11596936446221076 -0.38211066746026784 -0.15423113357629326 -0.3655206594247079 0.19732531110859883 0.23578862155565683 -0.021590606195788748 -0.21669493501385534 0.18604091707876572 0.46165666460713123 -0.053003451772519014 -0.0720727056006655 0.6492221484839199 0.18141287081877236 0.2487182012895762 0.14602605555432652 -0.22053142511445292 0.10665036202341795 -0.06828088873272205 0.2067489892572862 0.038930259883617264 0.2828888644841119 0.02182724885904926 -0.19843828388180015 -0.9687173696541647 0.1820814361175499 -0.09271500705840209 -0.1263000067380044 0.4631588697827611 0.35606210651533554 -0.1053645303814679 0.09538716173854127 -0.005383479180101253 ]
[ -0.21199112507796009 -0.6911048657270311 0.0008747837739543629 -0.1724908630088006 0.05783188527770558 -0.23425566805328946 0.1285636154064989 -0.0314283520262415 0.37194456430193934 -0.22320514800800081 0.5060491701746662 -0.026139167504097727 0.01027715975162874 0.17759619751296393 0.18810618827584122 -0.8332755560983451 -0.05315097710593868 0.47874615311835933 -0.06427403419804356 0.15955986318712911 -0.009747306730406772 -0.22386331274395768 -0.07271204972375021 -0.30894121533228447 -0.04419520536921168 0.02197609577858382 -0.3398898249874645 0.2073602315592911 -0.31842715101563407 -0.1436969852339872 -0.13810070038066968 -0.34043971340186624 -0.2428321751081998 -0.19392652525406778 -0.1494113467599488 0.1901582193635458 0.7881469122124926 -0.35620729298740417 -0.11280024178195426 0.007813640819369323 ]
[ -0.22231016402226603 0.4611797839239586 -0.13609590786139567 -0.023949059565541952 0.20170597727340095 -0.5606263815741946 0.1437971188422831 0.15169783122971983 0.27681648891913174 0.3310657113415179 -0.26191238704029957 0.719079330452486 0.08673946554783579 0.14485453333349796 0.038279671026664554 -0.5976598621862313 -0.25950386353298804 0.4709855278922219 0.08693273291138459 0.13148472670551486 -0.5152944818785093 0.3571464528346568 -0.04926728273918159 -0.39315158534030525 -0.6540051673713858 -0.15897261806467494 0.35981038634042345 0.08883666432664669 -0.08882486764325855 0.37501136519538636 -0.3882250120793198 -0.22718326834002006 -0.2013136807206869 0.12230521264106943 -0.2045187767263813 0.3024362423698515 -0.1415007040712559 -0.2485815695033495 -0.04988139408667842 0.37935394964649294 ]
[ -0.027846329780165616 -0.40551899428743865 0.025951086463331212 0.1960771334578189 0.27136901379619777 0.024022851637597775 0.32430236333792467 -0.0029134711057173844 0.14456530181877028 -0.2327072515422724 0.19744175652867108 -0.10373835036952869 0.19539776010044635 0.2322353748714125 -0.2552703274942796 -0.581352926257786 -5.1177734538526156e-05 -0.2616934053859927 0.367294750317487 -0.4428668731746905 0.46074395003591334 0.14417402539757163 -0.14107843502392717 -0.08445280732677442 0.038373264326728766 0.019804997296718065 -0.18559680685051122 -0.06752743814035743 -0.030088383410012354 0.16158960292644836 0.04948412901071653 0.4011037972274567 -0.115498269393215 0.3525879097002021 -0.004793111344053232 -0.28334064491799094 0.46265193631587276 0.13529944274298641 0.11374837279247231 -0.4852059508476603 ]
[ 0.06862013281950946 0.6193888308811387 -0.4686123827277394 0.3345640820197593 -0.002935393793577183 -0.48676453602302555 0.40866974616120716 -0.3320263717247741 -0.25026005990329725 -0.17867819002929178 0.017041085181076544 0.5007411681657219 -0.05199541050407449 0.146429556642168 0.06468459539442155 0.2763763348954699 0.24235306021177153 0.38444274939757944 -0.026327506281805642 0.17443036612652232 -0.4897639026222251 0.353493903777402 -0.2836648380537435 0.13168065970635448 -0.6102933955706337 -0.29330584352755845 -0.17125943701328816 -0.18077907735896195 0.4413454971514377 0.40693854180294137 -0.563871475481763 -0.4723150712058933 0.330007695103929 -0.20690175176517608 0.07060243219089678 0.27837926744626784 -0.629588989840579 -0.2821693701508254 -0.4057242036937433 -0.0751898878600808 ]
[ 0.3353383402144793 0.13752015572134643 -0.13056750714515172 -0.045762277080929954 0.344813967828249 0.513058925579627 -0.2592530584557092 0.009137237099490571 -0.47251419391576777 0.32204158746725486 0.16462553836174249 -0.24552654962245674 -0.016832764378974893 0.12107158504614061 0.022631550182115885 0.6033583819572607 0.06070852526326863 -0.2754270999434611 0.40822488041058214 -0.42735431823844966 0.2622733297235599 -0.16092299131107984 -0.3929108943711348 0.6279756840325168 -0.4404836883365014 -0.111257810740105 0.45948587862834234 0.3720488808490791 0.38871453686707946 -0.25704014412118303 -0.26649263332159695 0.09556570039000185 -0.17724051164993007 -0.22254255665815081 -0.06517802411445257 -0.1214837514505943 -0.14992019412344254 0.10632114550297878 0.3502307647319265 0.6714541587072343 ]
[ -0.3413921190791612 0.12324000847958967 -0.3039928387383251 0.32403879290226045 0.6426268914275024 -0.18505200170881864 0.1004393443380268 -0.09343320889046779 -0.534550436373525 -0.3769654863994273 0.023996081490884287 -0.46578442265882986 -0.029561397747154376 0.010980258447090835 0.21089354030355012 -0.019842144437886716 0.01680796233546705 0.1985943805865999 0.9202348433547766 0.07157478977691431 -0.3398166400835506 0.4468364626347122 -0.0736683787285769 0.5561215276610575 -0.9463968009920991 0.22334955810416723 -0.2880214409639293 0.36680757407868747 0.5713508238773072 -0.11128936541587343 0.2921172344243605 0.16820741902118996 -0.0117101512643768 -0.619505639812625 -0.03535870064023042 0.351385721491769 0.8343835121558465 0.10490090162939841 0.32365802930895776 0.13382013588575958 ]
[ -0.22232335470224512 0.23642267247721607 -0.5774763062459938 0.25883236562511375 -0.24176883167134705 -0.04619486332049085 0.02225809956208738 0.2890356700218888 0.5380612528423008 -0.05160410286563703 -0.36762551025976287 0.09154540055263191 0.2044026332291112 0.2126469372186592 0.051572868896838694 0.06686463449383467 -0.5396419367964762 0.10124236177671148 -0.13495340335671252 0.10801683410246643 -0.2143830677822417 0.06546867758317089 -0.13847675799638823 -0.25487473742564976 0.278722619773786 0.03217887754335634 0.16091546811615942 -0.09184362734447798 -0.4110262465422534 0.29359188262900376 0.037371223666493154 0.028588475914081587 0.22929724079680167 -0.3764890665194153 0.058234750772554696 0.22821895318337346 -0.18188525558319366 0.1996241100765805 -0.11778153465957845 -0.3693895182554575 ]
layer 3 Activation
tanh
layer 4 Dense
40 20
[ -0.031221966232187027 0.15373466585818943 -0.11860981023054676 -0.28595512808813583 0.031185779673662414 0.032372633174835755 -0.17231620351845586 0.0720944539076413 0.042480445122037164 -0.286989580567436 0.0588218297132324 0.21221573462241974 0.06616224293260103 0.2595606189040197 0.2989403328414341 0.2887033244202613 -0.06042856315558598 0.2606231102741765 -0.19403590487260483 0.04420454470841509 ]
[ -0.3884648018731549 -0.048531886749128235 -0.20156154942894203 -0.0819900245394334 -0.15590707886925162 0.3978723698234909 0.08531470712277064 0.2848584300386721 -0.33217473940390585 0.13880282983812103 0.302338712238231 -0.16736126370753063 0.05896957001510451 0.25245583204799316 -0.26922472445139317 0.07951971640457504 0.4950174651060392 -0.5410749989425714 -0.07399813673757026 0.1932041496227564 ]
[ -0.023590335346986104 0.13722597799343209 0.13235068276428016 -0.3297836090886861 0.33167723858356274 0.007006249726646082 -0.02298886500904487 -0.3048054110378074 -0.12828380924403893 -0.4794251816170141 -0.07827554849887537 0.23291882837522554 -0.15865018087479243 0.05989018567458802 0.46333317757553166 0.7191607461603593 -0.2959850242014884 0.5889634398121445 -0.10463542823032634 -0.3594439898303057 ]
[ -0.11184928372001043 0.13453517892123742 0.08141385277777906 0.09894310571129324 -0.0369179417300298 -0.28863732558306177 -0.17358451360809346 -0.06823567337798865 0.3457289392057291 0.30165835942727515 0.14121815559277634 0.14676027324737062 0.06914176719013129 0.34123293338626703 -0.3536227461780817 -0.5137583546178095 0.10467927078722285 -0.573415437688209 0.23079023448795463 -0.04171444342882474 ]
[ -0.584578877229191 0.1811357963150818 0.29415396953589107 -0.08867346763672593 -0.26068691089281687 -0.006894935129970038 -0.057367588753243264 -0.3709693876018676 -0.15403469612504464 -0.0774023749904198 0.29735146463795026 0.3442654548640577 0.1648013022809325 -0.4490817604272432 0.02111171886975063 -0.24244358776265693 -0.12608367480550406 0.10929715757112282 -0.08249406724900313 -0.24754560208326 ]
[ 0.07905689798205534 -0.14686237232171556 -0.30412905685894726 -0.18817213366660654 -0.24143115711332458 0.04668379352228853 0.4222724635851688 -0.057818325997482725 0.22284097848905493 0.04149058036001492 0.18280722696731463 0.1670553798998325 0.07672341705183229 -0.26526149978535496 -0.20490300833744104 -0.2914471231491761 -0.18148558122649047 0.4079758410069713 -0.1343218476040076 -0.18081313393497972 ]
[ 0.010839672999346267 0.25361293105155297 -0.10673980772372046 -0.27652666569076867 0.14970211863036031 -0.010981667699944964 -0.45549425933022014 0.14210867377445335 0.18135808560725764 0.2055322529255344 0.23875357125057856 -0.14130153923150052 0.13900980635749385 -0.1715852381187097 0.30509110969245873 0.17833648013781953 0.5964802018721906 -0.07774686629725204 0.0828314190536185 -0.23071364377279518 ]
[ -0.2588999164133258 -0.2047055794212219 0.14833287032618753 0.15011330052764632 0.030518930372891648 -0.11254333425395753 0.018487114058398108 0.33500330748883944 0.15520676679837941 0.3923103529705617 0.0007161017859097515 0.0029239566640445755 0.23099970271123027 -0.1731335981242194 -0.33310695439173 -0.382284932091407 0.09344790903563509 -0.053731012861632794 0.13740732651477047 0.13258613960353255 ]
[ 0.5046222177333769 -0.25701793182192073 -0.18100459448598394 0.2218222993555963 0.568205685620682 -0.18550097680656258 -0.12981767470333572 -0.06637946861516175 -0.07362489720647954 0.3561102559208634 0.18610998264494877 0.08507391277779235 0.24156065833389376 0.4284351158783121 0.08977009116488704 0.0484405411941748 0.2760675856569094 -0.5353940239456392 0.08866945368653073 0.15085951131189942 ]
[ -0.01811744436303217 0.2238645466074069 -0.41282100928026577 -0.33389514940356174 -0.09840076172392416 0.09782520631878662 -0.008808199946525638 -0.2079210511573422 0.0395581999009356 -0.3847359477372472 0.3338050955227304 -0.03915442139983398 -0.1411383603144049 0.02884872548201805 -0.3514414894036569 0.17978780800057406 0.3715338586174645 -0.266410196177397 -0.04237583034664167 -0.29301148867323007 ]
[ -0.13020856116564314 0.21409900578840518 0.28264565127507685 0.012566128903955386 -0.12909308511655687 -0.10330677324348167 -0.14892493216428995 -0.3827940501762759 -0.21370676119240548 -0.10914417423212754 0.32226300925366774 0.461583047192561 -0.19491549393423982 -0.358404615363579 0.30021710135787655 0.4277577144938251 0.14688127064917406 0.21225086556629583 0.02068721567937946 -0.12517244739613753 ]
[ -0.03317924665370387 -0.08156014009811506 -0.0898226373660273 0.072748582651955 0.13894090998283687 0.22970868955686613 -0.05941785939218841 0.2977514314039614 0.39268690605687323 -0.08726613206536869 -0.2042431470645318 -0.5425882317311348 0.5001970682108277 0.48301333910308303 0.08254069336862649 -0.1651223979037822 0.02366672428186306 -0.47860859588130794 0.125645750083198 0.11946506830465312 ]
[ 0.06427420816058292 -0.2610131501777098 0.006947779647474041 0.4528999251211241 -0.17992454698120464 -0.19777871426060353 -0.20849862681928463 0.09532824223168103 0.28755537764315914 0.23045247371661015 -0.12048286272976033 0.1499984068082948 0.2273140537282875 0.020774403711172392 -0.1413337316571786 -0.23806546658916908 0.24260514732649674 -0.14707572388733609 -0.07763194009385614 0.25949460548918 ]
[ 0.262832818667619 0.08469997764260045 -0.13120669562508866 0.2808639691331877 -0.08468792207219501 -0.3832904278698811 -0.08704539581347809 0.1782773058039707 0.33440229175932856 0.13276171481842503 0.17887148699598324 -0.06183348922976731 -0.2718380813948174 -0.12071524289050303 0.09704662642934953 -0.19790167354834484 0.061605836307379494 -0.10069655190376024 0.009997167616590622 0.0693826961633699 ]
[ 0.21241788060671069 0.04192964531547305 0.09285434389864783 -0.2503996677457917 -0.04822581566855857 0.24834297576518252 -0.05194037729149077 0.1801637294929465 0.10192565459281565 -0.20327821646332725 0.1389702524444029 -0.23808527635992094 0.15234017546411172 -0.1463897209065246 -0.08673554124017437 -0.012167307771549583 0.2976588399786063 0.01415964396163493 -0.10014515171045452 0.0701954725438594 ]
[ -0.5011928850913207 -0.44924063780689644 -0.2143763229263294 0.2186243526986713 -0.522289952696456 0.16561039607222935 -0.10992041437445835 0.10217429250148859 -0.31116269275548286 -0.06044842450543871 -0.046032111030717845 0.009169743599713813 -0.48941524509200246 0.18336944523514803 -0.31452109227577063 -0.34177519648085414 -0.5107392561292983 0.1730151535423615 0.006140423811454999 0.2037670630967012 ]
[ -0.00981330876505712 0.39983896880106085 -0.28919620802952284 -0.14757148711192383 -0.10220971875672503 0.06499533879271567 -0.016651755499622185 -0.2956297207949462 -0.11163881572873995 -0.2052889680483032 -0.020555217676717447 -0.043520657932933714 -0.104898328587805 0.21943323838197673 0.14420445693438289 0.2636497855186187 -0.36637460765385865 0.0809769442586718 0.162791908414594 -0.015132028798332581 ]
[ 0.0540559896623181 0.4055382497866403 0.3987882289501541 0.0009806010622236856 0.031237505973779063 0.16076494829346116 -0.47142041858201444 0.3661549879686017 0.06629752435609616 0.22127108293699585 0.3261526545062915 -0.23567700712694517 0.35317371948139215 0.14959126153287028 0.24005222316629185 -0.03000654080765095 0.1067388234872567 -0.1528573246207296 -0.0371491706021856 -0.16433486656202614 ]
[ -0.6385592864964957 0.3932432985455812 0.25621672919794625 -0.2893632174589831 -0.12033998859198364 -0.01627269404862779 -0.15360319091625177 -0.04077102324805336 -0.14978765895612306 0.13981643484518688 0.4199356392757788 0.5819021884057877 -0.2779174260781036 0.053704401102796485 -0.21463943985733913 -0.3251527297845614 0.19091277567908707 0.3636717742374186 -0.39987240915336897 -0.13244840482886883 ]
[ 0.06938133138292468 0.3103160023243285 -0.3544369612885683 -0.03527185079250264 -0.23342288362064298 -0.10453347021015842 0.14499588199413452 0.2015977637246863 0.25090061159739663 -0.3673684361417107 -0.4699446117341044 -0.13196454196455207 0.2931179071432589 0.12798777781421145 -0.24873021366952386 -0.4693056406985131 -0.4690675619715188 0.07979517638003304 0.16013080718913936 -0.14657399495132603 ]
[ 0.22689469907604087 -0.018980817476755237 -0.35510814951498987 -0.1768347244104966 -0.46390820834320395 -0.06295305126702673 0.19314990110539398 -0.3582176732776381 0.43519986627521745 -0.15951784953218512 0.08149924621809612 0.21254264571205728 0.06752463625755188 -0.46848228305640466 0.1754356678531839 0.08317320087681385 -0.11864468988711077 0.42559795296531794 -0.35369178507574495 -0.1679337927874563 ]
[ -0.27489417666531457 0.13076979315424256 -0.03435434884871555 -0.14417098603232384 -0.17700264806150565 0.22523703436262824 -0.20606712940744962 -0.15430554370389354 -0.11576342584747766 -0.0823910550009418 0.1883541670947895 0.08663869308218003 0.3054075418272338 0.07318682640291017 0.16672760912860332 -0.2582341108602743 0.5005700467302734 -0.21099082992933588 -0.19286230780160715 0.010678822729680557 ]
[ 0.3318327954113889 -0.09363116630348431 -0.20586423201296516 0.23545619571367288 0.53465558091574 0.4361586342796804 -0.1822288138476953 -0.06853391688808898 -0.22552872535572333 0.22092002963397434 -0.023954412521077963 0.4081176604592912 -0.433991123323335 0.162447490455535 0.23628989704850423 0.3843924578074364 -0.04099221229941669 -0.17712078392787206 -0.04312063628823213 -0.05435723379008565 ]
[ -0.6991669000806311 -0.035853681388538464 -0.02879772823810818 -0.3107752625486572 -0.5160433469408936 0.15193378067965835 0.2441214759246773 -0.4159343651250339 -0.4585385188370396 0.15889016007702975 0.47745208877428147 0.4459246617740224 -0.22695328035257056 0.13035792245025402 0.10654343327089862 -0.30276326672276915 0.1876762575062351 0.3908111574412326 -0.07371115362700732 0.32089464525235223 ]
[ 0.2457118616336433 -0.3534826336387693 -0.21647416962355215 0.25449900901245887 0.4222980392930979 0.18569600268596587 0.12477901734897383 -0.23139656802492053 0.34450307639470784 0.1976265027619372 -0.5300602182141193 -0.3981485208178779 -0.2687651882237853 -0.021047655211886413 -0.5034355709507303 -0.11450844378551277 -0.23011673984272515 0.20971114215336514 0.15695538726287797 -0.35906073336882793 ]
[ 0.13790402469366947 0.03699509536984767 0.16492125893784476 0.3523155615945256 -0.10923705334097025 -0.04841708587023249 0.01328846351041729 0.006326899901022727 0.1336789417709973 0.09169848915630063 0.020957662593303405 -0.1213017583538357 -0.0022598106703304024 0.07525572778486868 0.004069639159984956 -0.14519244431507453 0.199167168888514 0.1639342455917308 -0.13041727431339606 -0.00918753672778327 ]
[ -0.36894862342493745 -0.2727915205598521 -0.35815300053778126 0.2491068681224443 -0.05780874408361408 -0.20545524704855844 0.0045335686185423284 0.4470408761443721 -0.08947887355717514 0.03555406480497605 0.022551581458774186 -0.19431686044429758 -0.2836722590958763 0.0449434237884016 -0.39145153848453357 -0.06977968533537512 -0.6242400811621827 0.007357883544185979 0.10434247157212212 0.10831016219984414 ]
[ -0.051878936413922626 0.0817523766411037 -0.012246978294940081 -0.18473110978196455 -0.2651386941674558 -0.4743066895279585 -0.11939549048448322 -0.12529266627198046 0.046389640675354275 -0.2649235372561238 0.2551122851483599 0.26057215952693363 0.05545478894919799 -0.18247463334972525 -0.05436393045854837 -0.08682895508896614 -0.09540888569245072 0.15146413179319573 -0.011584312176383723 0.04558001625700527 ]
[ -0.47844350502129046 0.19610850409073854 0.2886570159309698 -0.36240631495963577 -0.318924035409735 -0.1688812890679494 0.16965997038032204 0.22506846075993825 -0.009211143361362842 -0.3510984237983308 -0.1970155040064381 0.11386588539732415 -0.008511182564494997 -0.1757887593986376 -0.29473545214224317 0.16768432428726734 -0.30139103799603967 0.4189134082699902 -0.0004347720233557851 0.1325719508460373 ]
[ -0.045882981577581756 -0.08034688525622738 0.3565016636435937 0.3115847117358835 0.17571083109840474 0.07713660954456728 0.017898685282610922 0.22530000973689798 0.302080794862723 0.4103131042133499 -0.0031350763545013234 -0.04476617519617173 0.18804007122932145 0.15888878913795995 -0.0346650158721148 -0.04118283460528027 0.3488570790636796 -0.26526287121259984 0.102851335682701 0.22749754847596798 ]
[ 0.19209732943027807 -0.3506490315337414 0.1752258369801095 -0.1788151886678141 0.2566503438200556 -0.16789500041109565 0.002053857163332053 -0.25157060420768984 -0.11483174969689522 0.0856568317634323 -0.08099070554242195 -0.052917970154665185 -0.3276676959688627 0.0038816923414292373 -0.32219167052829595 -0.09239775578110314 0.11741806868243924 0.11593189600428887 -0.2929304009700267 -0.2997049141154261 ]
[ 0.04724744827649766 -0.3912118492088318 0.42861907075273864 0.3396401480914448 0.08428754389410922 0.17615607242685186 -0.0604462998406322 0.19850550246794352 -0.11817812528694638 -0.137860965738976 0.23070001103581528 0.12979633512424746 -0.39098125366928743 -0.21653908989397688 -0.29030005514518525 0.04846431607143128 0.11086760694782181 0.1598531533693694 -0.23136705847248806 0.023952543087130847 ]
[ -0.1372213535320765 -0.19487577022076658 -0.3520019127641416 0.030493603229997092 -0.07855241995014801 -0.22350377095018126 -0.2462263290007662 0.49686871691162826 0.06816205557271836 0.29534451178716903 -0.013038299820578726 -0.2875248389284336 -0.022097016888527016 0.20847334147123375 -0.2784139902562605 -0.4070641435361265 -0.0857692783845823 -0.2621336919031669 0.2618772089157514 0.3705839062312217 ]
[ 0.3206182692785263 -0.04679968405656652 0.020438435365524112 -0.2556182365978415 -0.06764617233432475 0.06202866483861996 0.3315765926488444 -0.403714507172233 0.25740052487732634 -0.21074069045016014 -0.011554018495028648 -0.21779143098460643 -0.2568136687430914 -0.08104600127903872 -0.060253119876233115 0.3560202628096671 0.0501882484320116 0.18837460670967712 0.15677140911552884 -0.2861562628942911 ]
[ -0.1230246343802581 0.06570807983685348 0.01122430674797788 -0.05360663064598535 -0.0017533714757784658 -0.07845840025267875 0.3026298158078742 0.35639050691826435 0.007241701513110169 -0.10941609781263681 0.03720973784508522 -0.08952707230514109 0.15099602824803843 -0.046976458506177564 -0.10370094877284239 -0.13139576475337997 0.07833858756649568 0.0897129182184319 0.06900727913233315 -0.03728452172103687 ]
[ -0.04310033177061558 0.23582780642061257 0.3569259400563732 0.4633885025334588 -0.17336354487356492 -0.14870743985101761 -0.6225406439117112 0.5827359415891298 -0.2374117736220879 -0.06664016965316252 -0.20380252965812645 0.0817713194711411 -0.037427115677117935 0.13794587112089082 -0.0962619120038006 -0.30919590130859503 0.08024316154533706 -0.15097174729501353 -0.12307992711588613 0.255107267391381 ]
[ 0.4602885018687674 0.28576203169055364 0.5412374500622746 -0.2750013354145257 0.2363161933008509 0.05073868861149982 -0.11771547357520741 -0.38526982276581767 0.046606977582083535 -0.004976771237752194 -0.2989245427485136 0.6043493450029259 -0.04069689329535005 -0.3743166937241294 -0.0003013575728539454 0.2948794874325036 -0.42397089882761635 0.5618572735118073 0.073769903918182 -0.12648400534940726 ]
[ 0.17432931375789446 -0.18161897993554468 0.1685509173097362 0.385341134940281 0.3503759755187764 0.2019317755383563 0.4146417120312872 0.11177190229326084 0.032760046223521314 0.41674096220917495 -0.22481179592368142 0.4581414413495129 -0.4723758527945273 -0.009691979857013613 0.24096662009548536 -0.14840477019897194 0.02024970547994107 -0.12738592757502062 0.01717976257637769 -0.053333531187263146 ]
[ -0.083554327688856 -0.021281483962806325 0.2865521709986497 0.3038272491927622 0.3070142799324315 -0.22676569845308842 0.43750185429412597 -0.20479753654084737 0.19794904661736648 0.022350240960830554 0.0610894986986261 0.2416118861781388 -0.227294260248531 -0.06501153756053372 0.14464932819795706 -0.30814828819366463 0.0077449664836437854 0.2844063552557686 -0.04733833736326673 0.010019791538162806 ]
[ -0.3459065460744287 0.2469057575286236 -0.07707975651792782 -0.03542060507853163 -0.4070488085823246 0.046826854151955054 -0.21046452257595394 0.03552956553088539 -0.4591949108788269 -0.44890942000083317 0.6066297025480339 -0.2118888373046986 0.18671507428249046 -0.18989998270526956 -0.2570473503084643 0.519130527633312 -0.26008692748835466 0.2287825874454244 0.05554996937180048 -0.05941184851547296 ]
[ 0.0907678173703269 -0.08510333091050411 0.10904130177366975 0.12059022253358241 0.03207430457575097 -0.1312419444190531 0.06670188853075135 0.11090743367789577 0.10981443504698851 0.17324466970957045 -0.07390105064166466 0.017662564066051965 0.010478613025434621 -0.0002892071394714109 -0.09838940512102239 -0.23316904358558094 0.06553857682211571 -0.21055348694271822 0.043878654506721806 0.009727023057844984 ]
layer 5 Activation
tanh
layer 6 Dense
20 1
[ -0.1487265397444423 ]
[ -0.20176274502945665 ]
[ 0.12160797937152125 ]
[ 0.3592591866509682 ]
[ -0.20679888938490482 ]
[ -0.02334806128172286 ]
[ 0.04294419132039567 ]
[ 0.01848466510836593 ]
[ 0.2377458531754003 ]
[ 0.4344028340435266 ]
[ -0.2188636551908987 ]
[ 0.129579456089929 ]
[ -0.10796244445216771 ]
[ -0.23568857402456664 ]
[ 0.08324512423886035 ]
[ 0.21045939815053466 ]
[ -0.04737278640323919 ]
[ 0.6256717368556939 ]
[ -0.005170146302928743 ]
[ 0.03473791822088488 ]
[ 0.1889684210939696 ]
