layers 7
layer 0 Dense
20 20
[ 0.4597332  -0.17332572  1.007791    0.5973071  -0.61345804  0.3570138
  0.8807836   0.9392216   0.46833307  1.1072195  -0.49263197 -0.7336208
  0.21426135 -2.0092201   0.2809921   0.11306858  0.0194598  -0.084407
  1.2719353   0.14527188]
[-1.6314689  -0.10245211  0.94281256 -0.90424615  0.21876922 -0.9313479
  1.3054597   1.0163937  -0.22746384  0.38503093 -1.0938374   0.3899829
  0.520443   -0.77951545  1.1262188  -0.15542306 -1.1475273   0.8835238
 -0.4095606  -0.14085187]
[-0.9127779  -0.19191852  0.24222176 -0.95632195  0.4012993  -1.0259607
  1.4139844   1.383363    0.05734483  0.3498834  -0.8688977   0.4688736
  0.48907584 -0.3284145   0.8733102  -0.11944882 -0.7566517   0.82101524
 -0.27077588 -0.04785698]
[-0.26234722  0.32614857  1.167559    0.5061417  -0.21819265 -0.08776061
  0.85238105  0.91766185 -0.20145045  0.8209444  -0.13431051 -0.18284929
 -0.002677   -1.7828403   0.07176118 -0.05704666 -0.07777606 -0.15969957
  1.1433264   0.3417266 ]
[-0.2522234  -0.39587003 -0.58142114  0.5835325  -1.9803233  -0.31753513
 -0.368236    0.14747474  1.2180691  -0.03617244  0.21697465  0.60430425
 -0.49505445  0.35414818  0.28835955 -0.30547935  0.14958996  0.3887146
  1.0202712  -0.52168256]
[ 1.3896505   0.25773618  0.50989443  1.1177695   0.71359557  1.1117359
 -0.34633544 -0.21099271 -0.806082    0.14682405  0.5425995   0.06143393
  0.02654805  0.49229503 -0.39335486 -0.18587187  0.572976   -0.2827531
  0.5677734   0.43382668]
[ 0.9556882   0.23843822  0.7722588   1.4022251   0.9229931   1.3751986
 -0.5660742  -0.78382725 -0.78208804 -0.11080392  0.7709325   0.19315414
 -0.04633718 -0.0363458  -0.594496   -0.25555897 -0.03580926 -0.76087344
  0.46356905  0.81404626]
[ 1.090823    0.10615975 -0.77343273 -1.4788966   0.8296633   0.5850582
 -1.2547648  -2.0564382   0.25163054 -1.4128821   0.7379814  -0.47233275
 -0.92399025  1.0862389  -1.1062571   1.4587923   0.65001154 -0.9372326
 -1.52845    -0.01327322]
[-0.42453432  1.1924007   0.58752215 -0.7008841  -5.650288    6.2465115
 -0.8793095  -1.7250426   4.311918    0.15002649  0.8037758  -0.50592846
 -0.6757489  -0.14258091 -3.3033485   1.8571411   0.16955748 -0.7899661
 -0.21333498  0.6547048 ]
[-1.6544579   0.25169742 -0.7537044  -2.292399   -0.68534607  0.46421963
  0.00646241 -0.24918784 -2.4013474   0.3548039   1.5323541   0.7210313
 -1.274736    0.09350589  1.7838683   0.29539666 -1.1906054   0.9124535
  2.0758235  -1.1404419 ]
[ 0.8477998   0.37540847 -0.27518433 -0.9957621  -1.038975   -0.06649522
  0.01962867  2.4611647   0.808159    0.37905848 -1.5034113   0.68086785
 -1.1109298  -0.708996   -0.5636218   0.67912644 -0.2107438   0.1674628
  0.22850549  0.59363365]
[-0.64618534  1.4543282   3.9127514  -0.38836327 -0.8844962   3.5150208
  0.31582558 -1.2587317   0.45393682  0.18777464  0.35760894 -1.1930624
  0.50447804 -0.89235413 -2.7301457   1.0989591   0.6840885  -1.484643
 -1.4277568   1.9014741 ]
[ 0.10974732 -1.8851773  -1.4748173   0.9866379  -1.2769998  -0.8309864
 -0.5669053   1.036523    1.1180482  -1.2403355  -0.34900007 -0.8554252
  0.7975602  -0.46799016  0.22651458 -0.35174263 -0.19121286 -0.08696365
  1.8356699  -0.9421701 ]
[ 1.9347885e+00 -4.4570273e-01  2.7783760e-01  1.1566269e+00
 -7.4445271e-01 -8.5135001e-01  3.1106041e-03  3.4477976e-01
  3.8148634e+00 -1.0579380e-01  2.5317309e+00 -4.2095369e-01
  5.7086194e-01  9.6663171e-03 -2.4131098e+00  5.1293564e-01
 -1.9814572e+00 -2.2946916e+00 -1.7394969e+00  1.1713834e-02]
[-3.6346598   0.414695    0.56267434  2.3635962   0.64646417  2.0458522
  0.05344892  0.93767834 -1.3808783  -0.0823873   0.26453868  0.27299678
  1.745603    0.78611106  0.12377834  1.2444243   3.2755957  -1.7564327
  0.64912385 -1.7822928 ]
[ 1.557202   -2.4973361  -3.5546057   3.0778954  -0.6807061  -0.27827823
 -1.3869069   2.649924    0.950396   -1.4469672  -2.2895525  -0.78170323
  0.77999085 -0.89205074  0.5362367   0.70104086  0.59349346 -0.75322956
  3.0263143  -2.083572  ]
[ 0.7651354   0.7063545   0.30617     0.45923764 -2.7478883  -1.9493583
 -0.05252918 -0.5414641   0.6087318   0.5653899   0.2764276   1.381673
 -2.8045444  -0.3726307   1.4707677   1.2244455   2.7547863  -0.28695944
  1.6839494   0.36626813]
[ 0.082979    0.19802861  0.36412677  0.75603807  1.0166795  -0.35149786
 -0.14857651  0.08304069 -0.3109934  -0.10892487 -2.7214272  -0.2059825
  0.55729467  0.14274596 -0.18112648 -0.1984728   1.9635583   0.533534
 -0.52484363  1.3972259 ]
[ 0.29942107 -0.6813633  -0.24613322 -0.0492628   0.6730845  -1.0406257
 -0.09044495 -2.5530875   0.146035    0.21281779  1.0770462  -1.2170411
  0.8936885   0.7853629   0.6316622  -1.434524   -1.9798263   0.6702551
 -0.02940688  0.7967179 ]
[ 3.4004538   0.8877492   0.6619449  -1.822211   -0.02908639 -2.0091586
 -0.52445483 -0.7769618  -0.4102065   0.31530035  0.19520055 -0.881148
 -5.732053   -0.82106566  1.4626244   0.75200754  0.12475583 -0.5518506
 -0.45018873  0.37399018]
[-0.60821486  0.20961674  1.1401156   0.520399    0.603217   -0.33840966
  1.1244315   0.7726503  -0.42522094  0.9625153  -0.3438692  -0.17009497
  0.7571425  -0.709889    0.31670594 -0.6544147  -0.5999278   0.25942913
  0.49304238  0.22542542]
layer 1 Activation
tanh
layer 2 Dense
20 40
[-1.0164142  -0.4379251  -1.299479   -0.59392726  0.00764419  1.5494442
 -0.59372115 -1.3724564  -1.4744058   0.24832723 -1.1872972   0.29601702
  0.00221936  1.1620165  -0.31759542  0.6299221  -1.1894028   0.9387354
  0.5619218   0.03795609  1.0426425  -0.01229027  0.06998049  1.1195649
 -0.11199746  1.2041581  -0.06719951  0.34022233 -1.0158645   0.1446674
  0.21342759  0.8935217   1.0762055  -0.93712693 -0.17011361  1.2905374
 -0.6348271  -1.4269909   2.1400182  -0.31208414]
[ 0.5163972   0.13758932 -0.39263153 -0.22621445  0.42443106  0.14526434
  0.3817529   0.00494933  0.16100909 -0.7415236   0.14880309  0.1642727
 -0.20997691 -0.32297435  0.2602535  -0.553384   -0.17329934  0.53764194
  0.4249081   0.07865328 -0.30264115  0.33602774  0.15893033 -0.24900797
 -0.45558575  1.7187201   0.16575003 -0.68424106 -0.10292863  0.15534987
  0.16714829  0.2509131   0.6845347  -0.02039209  0.3298028  -0.35595253
  1.5416414   1.0592201   0.07141066 -0.32729518]
[ 0.14525333  1.0836207  -0.33140942  0.42909026 -0.5091069   0.86356276
  0.03475348  0.26257524  1.1336486   0.03163693  0.8806982  -0.77448595
  0.72318447 -1.1165328  -0.3149952  -0.52343196  1.0142088  -0.00569395
  0.01329562  0.47996995 -0.12606189 -0.19085662  0.41209868 -1.739864
 -0.5579947   0.46053934 -1.16537    -0.8943065   0.6265464  -0.1683219
  0.64203393 -0.4346295   0.90843374  0.21172598  0.34457815 -1.617714
  0.8118744   0.5996807  -0.3162876   0.43886867]
[ 1.1871481   0.9260488   0.56354916  1.7107315  -0.3919124  -0.682975
  0.9935123   0.6552779   0.92017746 -0.5192449   0.90312886 -1.0925443
  0.7826955  -0.6932138   0.20038232 -0.42326808  1.4208755   0.12699528
  0.3907095  -0.00555599 -0.4748364  -0.4115349   0.18733223 -1.282067
 -0.48100936 -0.7925536   0.2948506  -0.47928452  0.71581364  0.06883825
  1.3048941  -0.96869665 -1.355866    0.84685487  0.6147425  -0.8532347
 -0.5838224  -0.23899266 -1.3208175   1.4656411 ]
[-0.04137931 -1.4975983  -1.12439    -0.44036654  0.5061156   0.06660649
  0.5597761   0.15326056 -1.5087622  -0.9687116  -1.0356001   1.2343012
 -0.8049429   1.2574711  -0.07254797  1.2998252  -0.5126655  -0.71805733
  0.71978474  0.04520656 -0.12208088 -0.37623003 -0.12306692  1.3451613
 -0.71892405  0.6803161  -0.8417246   0.28161177 -1.4994094  -0.24528126
 -0.08376615  0.88669616  0.02670242 -0.973369   -0.02923956  1.3869717
 -0.13142303 -0.5953927   1.4748142  -0.41966373]
[ 0.46676287 -1.2674624  -0.3619728  -1.3698915   0.6997177   0.1356269
 -1.424141   -0.6084031  -0.13543637 -0.14808714 -0.976428    0.7718876
 -1.7209978   0.8925815  -0.38502243 -0.40209392 -1.3776518   1.0853076
  1.0103225   0.23629138 -0.7171105  -0.07799173  0.2865758   1.383016
  0.7830347   0.24580443  1.0051104   0.3915298   0.36276853 -0.36387455
 -1.1474104   0.79787296 -0.3622857  -0.5551174   0.05300517  1.2429672
  1.0317072  -1.0423927  -1.1374003  -0.48931465]
[-2.0356716e-01  5.7014149e-01  4.6347886e-01  1.2739574e+00
  2.1552598e-01  1.0962828e-01  9.9132890e-01  1.4974877e-01
  1.0198061e+00 -1.9007957e-01  1.0678148e+00 -9.2512852e-01
  5.5887151e-01 -1.2870674e+00 -9.0524155e-01 -3.7558764e-01
  1.3995572e+00 -4.8949024e-01 -2.6682973e-01  5.2386898e-01
  2.4706496e-02 -7.4270236e-01  9.2546070e-01 -1.4890835e+00
  1.4523070e-03 -3.2560628e-02 -5.2977914e-01 -6.1910135e-01
  7.9515612e-01 -8.0671680e-01  4.9643221e-01 -8.3620965e-01
  2.2905439e-02  2.7234209e-01  1.2324075e+00 -1.5361793e+00
  1.8778327e-01  2.4527684e-01 -6.6519254e-01 -1.3684769e-01]
[-0.64308196  0.7420092   0.1882661   1.0664598  -0.00618096  0.12130054
  0.85911614 -0.49939987  0.5634165   0.61840737  0.64273113  0.015511
  0.13723466 -0.985146   -0.40728977  0.1626822   0.9703538  -0.29829434
 -1.1031221   0.36718345  0.8543456  -0.8234793   0.09038419 -0.89174795
 -0.0426999  -0.21632342  0.5521732  -1.0950513   0.6966065  -0.4187366
  0.87006944 -0.08491805 -0.1659667   1.9059029  -0.02532354 -0.9948656
 -1.2995555   0.6365864  -0.8640891   0.8991307 ]
[ 1.6733754  -0.15540881  0.48805785  1.6009285   0.5369714  -0.6589214
 -0.9998931   0.13482223  0.7213777   0.5509281   0.5935871  -0.71953416
  1.2176882  -0.5012811  -0.2320856  -1.075305   -0.29583105  0.34138948
 -0.8835331  -0.05205636 -0.51542634  0.03326694  0.05276007 -0.5536647
  0.18378577 -0.37687993  0.08797751  0.05984448  1.318279    0.6059761
  1.2262263  -0.58056587 -0.8768542   0.9256526  -0.3591141  -0.50236267
 -0.24123521  0.41108653 -1.3590882   0.76379114]
[-0.6759057   0.18855034 -0.02198789  0.9319857   0.33802402  0.19555667
  0.8289406   0.25965372  0.35728008 -0.2680059   0.6105428  -0.7097622
  0.06729373 -0.7135854  -0.8444313  -0.15245892  0.97628516 -0.52254283
 -0.1234725   0.78833914 -0.06601018 -0.40278512  0.9069207  -0.9557834
  0.40895995  0.1677966  -0.53515714 -0.4990956   0.5800177  -0.6763804
  0.19647928 -0.69779104  0.20610489  0.5508864   0.6710058  -1.0244488
  0.40666166  0.25299585 -0.38963035 -0.6457977 ]
[-0.45438942 -0.00904378 -0.21503541 -0.9207589  -1.8284063   0.13750827
 -0.19187823  0.68135536 -0.17726098 -0.21624754 -0.75133806  1.6135377
 -0.3595654   0.07434737 -0.1121919  -0.48116082 -0.8701286   0.15424213
 -0.20073228 -0.26868078 -0.47638047  0.9363495  -0.13036177  0.5161255
  0.2937425   0.5156158  -0.6743875   0.6436602   0.05587558  0.576572
 -0.40093866  0.7920017  -0.12302376  0.37495032 -0.19546969  0.36825654
  0.01785256  0.14177074  0.7242045   0.02923201]
[-1.1201435  -0.39348316 -0.1480527   0.7852782  -0.5375255  -0.21389145
 -0.51952916 -0.9901721   0.2674627   1.2244369  -0.35345864  0.11177871
 -0.18927647 -0.19301265  0.47850406  0.08644901 -0.10750147  0.14724033
 -0.18456979 -0.0431367   0.20390727  1.1916877  -0.09310262  0.48461238
  1.4513509   0.14119166  0.16071953 -0.12694822  0.04324009  0.5089592
 -0.30661324  0.5779245   1.0122987   0.33224455 -0.5539403  -0.13983923
  0.59895116  0.8445673  -1.0557188   0.7633677 ]
[ 1.70541912e-01  1.76548138e-01  2.87493318e-01  1.26774633e+00
 -4.97072726e-01 -2.25681141e-02  9.78169739e-01  1.26329148e+00
  9.19179857e-01  5.93799293e-01  7.39376545e-01 -1.11279476e+00
  1.35745192e-02 -7.94060111e-01 -1.08902098e-03  4.36453938e-01
  9.36990738e-01 -2.73231924e-01 -8.13169479e-01 -4.04485092e-02
 -3.24822336e-01  4.07364190e-01 -3.06632500e-02 -1.10076416e+00
 -1.03931653e+00 -2.78563172e-01 -5.25483675e-02 -4.58080262e-01
  1.38386309e+00 -1.21214375e-01  8.05168390e-01 -6.40494764e-01
  5.16950190e-01  7.14581549e-01 -8.68109912e-02 -1.00628245e+00
 -4.71252948e-01  3.44867051e-01 -1.47298682e+00  1.33067358e+00]
[ 0.18397512 -0.7668489  -0.19113423 -0.6264144  -0.58445936 -0.15390714
 -0.5375739  -0.08655689 -0.6701508   0.22610949 -0.76090944  0.9500413
 -0.79850847  0.7637234   1.1508253  -0.1047099  -0.5552616   0.29480037
  0.19235633 -0.7111086  -0.12348399  0.3705141  -0.7186616   0.8510758
  0.002911    0.11473382  0.01575921  0.59142554 -0.10918547  0.7925964
 -0.07398052  0.6795037   0.01783452 -0.19915542 -0.66573405  0.79447573
  0.5510919  -0.13713814  0.81352997  0.24052261]
[-0.01660364  1.42272     0.21111947 -0.02500156  0.08792285 -0.6318637
  1.3998927   1.80679    -0.29797113 -0.15161726  0.62780976 -0.9842781
  0.8029549  -0.98590386 -0.5772897  -0.21956751  0.54694664 -0.8566444
 -1.0065235   0.04561208 -0.5363472  -0.5215765  -0.01358332 -0.97051597
  1.2144257  -0.51722527  1.0411543  -0.47927985 -0.5653522   0.21149762
 -0.23383126 -0.95395374 -0.50325245  0.66848487  0.05009289 -0.9876785
 -0.36958188  0.55102956  0.69224805 -0.29241887]
[ 0.33089158  0.22954029 -0.672277   -0.6736008  -0.37893656  0.62978566
 -0.97295547 -0.8195014   0.3328644  -0.48008835 -0.39718795  0.25220066
 -0.32486632 -0.5265725  -0.16867055 -0.4364921  -0.15948805  1.9171213
 -1.2889318   0.02032825 -0.55822134  0.17245135 -0.23850103 -0.22727199
  0.57806003  0.07273517  0.32796457 -0.4623279  -0.18244646  0.514137
 -1.0430489   1.0313106   0.3658506   0.35437393 -0.12424632 -0.33766606
 -0.08152141 -0.0941605  -0.24335803 -0.7961645 ]
[ 0.3351159  -1.5554774  -1.0633237  -0.93353665  0.06037798 -0.7050066
 -2.090296   -0.81433153 -2.1550395  -0.6234855  -1.8604159   0.60210055
 -2.1477637   1.8036705   0.8571642  -0.31990376 -1.8656201   1.186071
  0.72823757 -0.01217676  0.1326465  -0.06001849  0.11873548  1.9407271
  0.588205   -0.20525451  1.1568762   0.38422254 -1.3963592   0.20672932
 -1.203395    1.3058887   0.04737797 -1.1994939  -0.10408874  1.8696434
  0.03193721 -1.0844951  -0.2421193  -1.488642  ]
[-0.98090863 -1.269242    0.37819096  0.6529418   0.45191655 -1.038893
  1.3099672   0.68669826 -0.3735003   0.6585836  -0.00867095  0.16463995
 -0.46499366  0.20810534 -0.3314385   1.4173478   0.25373954 -1.8980088
 -0.6529824  -0.22836436  0.46621293 -0.39986557 -0.10040365  0.3299945
 -0.00489549 -0.2895671   0.2888388  -0.25898448 -0.48895165 -0.26246494
 -0.13717549 -0.7505668   0.98886126  0.01738005  0.07124632  0.5061003
 -0.2778231   0.23300779  0.8239517  -0.36166996]
[ 0.6844307   0.46254048  1.2424083   0.00147451  0.43864277 -1.2145431
  1.0848399   0.9236394   0.95973045 -0.12803379  0.37038124 -1.4260311
 -0.8161551  -0.9971082   0.34472144 -0.97875416  1.1457964   0.44145492
 -0.7369161   0.3874409  -0.74018073  0.14834082  0.307178   -1.0127094
  0.5686929  -0.92395306  1.3111612  -0.4289388   1.403746   -0.40655172
 -0.43792155 -0.52232736 -0.46890026  1.4044032   0.8116439  -0.8119677
 -0.48994324  0.54087746 -1.394586   -0.12137376]
[-0.8293265   0.45652142 -0.33559984  0.51756763  1.2236096   0.11683737
  0.09989267  0.08636266  0.4733953   0.27237752  1.1968555  -0.96489376
  0.8549335  -0.4208363   0.41310877  0.27365068  0.451672   -0.51362896
  0.47393683 -0.29431462  0.5642076  -0.21502547 -0.09822837 -0.4672392
 -0.9308163   0.72586393 -0.71963984 -0.5549119   0.3616699  -0.6530582
  0.88475585 -0.4243123   0.63347006 -0.43532073 -0.23489918 -0.44127885
  0.8750539   0.50776565  0.4839298   0.02053194]
[-0.21239878  0.80348414  0.37090194  1.5771888   0.45578727 -0.01300095
  1.2154524   0.40437314  0.941304   -0.2498216   1.1884309  -1.388613
  0.49191985 -1.0931519  -1.0014752   0.05454493  1.0736821  -0.24645312
 -0.30086318  0.76761484  0.2661394  -0.80727226  0.8296157  -1.0707079
  0.0549619  -0.18638973 -0.22870167 -0.8446325   1.1027944  -0.922992
  0.22522105 -0.91127354  0.08881573  0.44996113  0.8863005  -1.3332735
  0.02631888  0.41155627 -1.0331249   0.15541767]
layer 3 Activation
tanh
layer 4 Dense
40 20
[-0.64755124  0.6335594  -0.32421106 -0.07966382  0.02003924 -0.02210662
  0.12021571 -0.12758224 -0.07202516  0.25499654 -0.12807436 -0.03216044
 -0.37328696  0.1914103  -0.36476937 -0.04986038 -0.13638261 -0.27634618
  0.44692346  0.06649487]
[-0.73278517 -0.24335048 -1.0534966  -0.47770062  0.44408354  0.76015025
 -0.6188077   0.51466316 -0.89026266  0.8051458   0.10091598 -0.8132664
 -0.21813364  0.10271609 -0.47289938 -0.24850382 -0.8387387  -0.31234038
  0.7646561  -0.12138135]
[-1.0038567  -0.0049641  -0.06064857 -0.13744597  0.6454344   0.06184635
  0.63760364 -0.28036183  0.40557796  0.13328119 -0.39573774  0.16023305
  0.08954041  0.23218904  0.13481426  0.24140517 -0.0391998  -0.5354651
 -0.23660819 -0.36368304]
[-1.2199315  -1.6445749  -1.1594669  -0.58504564  0.55735654  1.1666865
 -0.8686642   1.4689394  -0.63288456  1.0714499  -0.8608417  -0.6742376
 -0.41549352  0.1371215  -0.8417283  -0.13455187 -0.8103572  -0.5403032
  0.51237077 -1.3477707 ]
[-0.02407717 -0.06140367  0.09408332 -0.14994502 -0.5173681   0.12351784
 -0.22167169 -0.10473327  0.10436086 -0.37255245 -0.16647872 -0.41085163
 -0.5858      0.77998835 -0.22424182 -0.07646953  0.60707235  0.14168409
  0.52553046 -0.07817558]
[ 0.49266782  0.21237285  1.050329    0.1511597  -0.5797094  -0.22623388
 -0.40488768  0.27953008 -0.48096794  0.05794263  0.11659992 -0.18193078
 -0.39678583  0.5350947   0.17606536 -0.22932534 -0.00362408  0.07167383
  0.12385275  0.21599956]
[-0.5393089  -1.0989327  -1.518679   -0.5654877  -0.19386643  1.4879158
 -1.5804565   1.8246344  -1.2517822   0.49382284 -0.5990686  -1.4591285
 -1.2806711  -0.23479705 -1.4177622   0.6772729  -1.3566265  -0.21316722
  0.72489506 -0.43411225]
[-0.8859834  -0.3316052  -0.28149608 -0.20185287  0.8988996   0.07768752
 -0.1945691  -0.4932578  -0.28135857 -0.2405703  -0.62022215 -0.54498243
  0.08809464  0.32191363 -0.07600662 -0.3921364  -0.34108588  0.18388283
 -0.11004809  0.12159497]
[-0.28770033 -0.70915747 -0.2161062  -1.1139213   0.15531167  1.4785895
 -0.6608576   2.0119905  -1.3010573   0.8662256  -0.96195465 -0.74025583
 -1.0463672  -0.14266275 -0.3384236   0.31900913 -1.0006478   0.13627397
  0.83990085 -0.5562167 ]
[ 0.04701796 -0.13914056  0.2716118   0.06715167  0.40901777 -0.37936842
  0.3861015   0.09690127 -0.1087562   0.05435824 -0.02702851 -0.01859049
  0.22864145 -0.23747367 -0.07645855  0.24016915  0.30374968 -0.431891
 -0.5437376   0.26135877]
[-8.8787299e-01 -7.9865086e-01 -8.0764174e-01 -1.2319382e+00
  8.5015887e-01  6.0476184e-01 -4.3299535e-01  8.6673093e-01
 -5.5003500e-01  8.3920938e-01 -1.7402475e+00 -4.0059248e-01
 -5.3322488e-01 -1.0344896e-01 -1.2340561e+00 -4.5822095e-04
 -6.1788237e-01  1.9428793e-01  4.4707322e-01 -7.8306848e-01]
[ 1.0168545   1.491712    1.3771731   1.3530457  -0.7023416  -1.0786343
  1.0512415  -1.1615671   0.08773544 -0.8958835   0.84350145  0.5138081
  0.53968287 -0.2722055   1.2247161   0.02960497 -0.180385    0.15651254
 -1.0260781   1.8332148 ]
[-1.4905428  -0.88590723 -0.685207   -0.6128265   0.02883496  0.54940635
 -0.12532325 -0.00675836 -0.34056473  0.43789452 -1.2153116  -0.3771982
 -0.06189153 -0.48742837 -0.7622582   0.49856183 -0.3063557   0.37470895
  0.9166003   0.1342021 ]
[ 0.07216822  1.193352    0.09733991  0.82161605 -0.75183934 -0.89416355
  1.0893927  -0.5807582   1.6696578  -1.0028387   1.5065098   1.2983536
  1.5332009   0.0957661   0.5520351   0.32783002  1.5636307  -0.23457615
 -1.2986342   0.99948245]
[ 0.2186388   0.30641696  0.23659797  0.39507535 -0.20509577  0.00871599
  0.21721934 -0.13012822  0.13887085 -0.16522865  0.5150586   0.06607923
  0.40828657 -0.21480013  0.21828094 -0.13898654  0.06693121  0.54953665
 -0.4930264   0.40532574]
[-1.0542079   0.05760016  0.23975506 -0.14461622 -0.61123997 -0.04489214
  0.11565843  0.5398965   0.7035884  -0.24750987  0.32772976  0.22952038
  0.00775144  0.3732446   0.02586077  0.24635467  0.16132091 -0.23648366
  0.06491982 -0.6943544 ]
[-0.54462546 -0.95353544 -1.1036248  -1.1391541   0.7141183   0.9285001
 -2.2769914   1.3850843  -1.1040599   1.4582727  -1.5018946  -0.5345143
 -2.1110756   0.13481116 -1.675044    0.06304654 -1.3819034  -0.35606524
  0.9587102  -1.2492616 ]
[ 0.6310133   0.6432215   0.1075333   0.4168668  -0.12045866 -0.10588609
  0.15677159 -0.33835655 -0.79727066 -0.24813172  0.08952195 -0.28999865
  0.48540896 -0.02135884  0.31670803 -0.08964394 -0.4509165   0.08340723
  0.07456564  0.63998103]
[-0.5211628   0.02523737 -0.1360918  -0.2625984   0.03818101  0.26358378
 -0.5429835   0.02948586 -0.06130037 -0.10053339  0.46146137 -0.42028013
  0.22434707 -0.40877375  0.4031813  -0.2607109   1.2380553  -0.27376756
  0.23677872 -0.08160137]
[ 0.01134061 -0.14577927 -0.04684413 -0.21152095  0.3667085   0.02625623
 -0.2332286   0.5280433  -0.24546601 -0.07152074 -0.3349393  -0.16048482
 -0.35292977  1.0484775  -0.05337199 -1.2895981  -0.26698017  0.32797545
  0.1256263  -0.2056009 ]
[-0.14094862 -0.3244855  -0.18356284 -0.26936576 -0.4364051  -0.16173041
  0.14756313  0.00401912  0.26256406  0.3687832  -0.29189676 -0.17493571
  0.6375702  -0.33966658 -0.13012627  0.13709018  0.23816149 -0.12173922
  0.0993256  -0.24092524]
[-0.01478304  0.7072133  -0.19169325  0.08460402 -0.05385869  0.1528908
  0.50407696  0.01244862  0.3280235  -0.306373    0.43560624  0.5267595
  0.33668792 -0.43144488 -0.15822616  0.7091345   0.16845676  0.11293168
  0.17248164  0.31716853]
[-1.0575414e-01  7.3935217e-03  5.6335483e-02 -2.3132464e-02
  3.8994253e-01 -9.6717015e-02 -3.7152225e-01  3.0923241e-01
 -4.4168372e-02 -6.7388915e-02 -1.9435675e-01  1.0215602e-03
 -4.1698417e-01  1.1732385e+00  6.1803844e-02 -1.2909763e+00
 -2.4244264e-01  2.4766074e-01 -3.3399661e-04 -3.6987165e-01]
[ 0.7947432   1.3737599   1.468493    1.5790311  -0.9009855  -1.5983536
  1.8039606  -1.7823542   1.6048158  -1.780167    1.3858998   1.2468823
  1.8679038   0.29376766  2.4282708   0.13002457  1.4700308   0.13144715
 -2.033801    1.4840828 ]
[ 1.1772132   0.30779323  0.20271513 -0.27467078  0.8722299   0.18268129
  0.1639834  -0.2904461   0.12327905  0.21855222  0.15420666  0.12618913
 -0.00412704  0.21407908 -0.5102422   0.06670389 -0.40160385  0.36019915
  0.02585452 -0.07789871]
[ 0.86486745 -0.13773268 -0.13553314 -0.09162758 -0.33546367  0.06154551
 -0.36515495  0.35974383  0.13747948 -0.07360807  0.3903087  -0.08815233
 -0.7681974   0.020725    0.3314154  -0.13259639  0.00318893  0.32277957
  0.2624052   0.3891154 ]
[ 0.0785327  -0.3479717   0.30276576 -0.05337359  0.3190709  -0.13542539
  0.0561412  -0.89390486 -0.5235388  -0.06533936  0.53979063 -0.7567206
 -0.48342755 -0.36503205  0.10618098  0.34490854 -0.7158502  -0.64398956
  0.31468996  0.17601632]
[-0.5261442  -0.0238507   0.3755179   0.07294221  0.5252716  -0.15493196
  0.4998743  -0.40149766 -0.3007895   0.15176576  0.19491957 -0.0118693
  0.34204546  0.44347507 -0.8562612  -0.34075013  1.1607033   0.01652919
 -0.740571    0.27898186]
[-0.298903   -0.5579078  -0.5232698  -0.7033827   0.72570693  0.34851432
 -0.56102145  0.64614916 -0.5802313   1.1052662  -1.2569807   0.12132848
 -0.08823328  0.3482084  -1.0436008  -0.06208683 -0.64998746 -0.3141914
  0.5299836  -1.1211284 ]
[-0.04439148 -0.09706175 -0.11210871  0.38625786 -0.06176631 -0.10203356
  0.08235003  0.09729869  0.07939671 -0.08839501  0.49264166  0.31942025
  0.7505509  -0.43389517 -0.1138519   0.0573092   0.10741612 -0.31978473
 -0.3042141   0.23569901]
[-1.159249   -0.06403063 -0.3331069  -0.06005576 -0.5054198  -0.02756982
 -0.0773427   0.46962214 -0.14215203  0.619742   -0.7305167  -0.04998052
  0.14038168 -0.5839397  -0.5836778   0.5011276  -0.13340084 -0.40048724
 -0.23800525 -0.35429522]
[ 1.1528804   0.30684868  0.82308954  0.20872225 -0.6765481  -0.18716522
  0.00561406 -0.3076726   0.37812635 -0.49857768  1.4799634   0.16280816
  0.6687783  -0.5232203   0.5495013   0.5028559   0.39893335  0.16467836
  0.30889988  0.76089275]
[ 0.49862668  0.08222938  0.56771404  0.5386311  -0.6616789  -0.12486209
  0.01089656  0.5020298  -0.31560847  0.43508077  0.49199307 -0.05894013
  0.12780324  0.21531026  0.02832938 -0.03050907 -0.41179562  0.26435164
 -0.00073216 -0.457274  ]
[ 0.42153966  0.08406019  0.17856273  0.6397261   0.24362628  0.07960106
 -0.09433482  0.20404369 -0.17906691 -0.06038729 -0.28139493  0.46542966
 -0.49506143  0.08194944 -0.27540055 -0.5662244  -1.0335598  -0.02380705
 -0.3443784   0.1440507 ]
[ 0.13866682 -0.10551394  0.0050949   0.01683366  0.37005332  0.03381978
 -0.35888958  0.58729    -0.23809275 -0.02202735  0.03735947 -0.09679233
 -0.51032555  0.82477087  0.09771774 -0.80599755 -0.2830429   0.12250211
  0.18123487 -0.27906814]
[ 0.5424227   1.7109094   1.7898455   1.3255454  -0.9426561  -1.2388306
  2.4695776  -1.8846577   1.9490252  -1.8700603   1.8708578   1.7386956
  2.3653138  -0.14851294  1.9639103   0.04231277  1.1621075   0.2892731
 -1.9283735   1.0687693 ]
[-0.630131    0.4631873  -0.5494697   0.0049454  -0.08526032  0.29859662
 -0.26073557  0.42089295  0.40262827 -0.15410315  0.02738838 -0.06991003
 -0.64785755  0.22060154 -0.03136353 -0.32221514  0.7397279   0.65349734
  0.2384896  -0.20105168]
[-0.08089554  0.1160083  -0.16680138  0.01686488 -0.34079996  0.09241358
 -0.28765315  0.49310428 -0.3583216   0.4682371  -0.12658004  0.3438287
 -0.27643666  0.00758828  0.06195209  0.3503605  -0.35809278  0.32450065
  0.50649846 -0.27355197]
[ 0.6905355   0.8425114   0.15832677  1.491436   -0.53388566 -1.0650322
  0.22163545 -1.1414849   1.1977108  -1.2966384   1.1656199   1.0813522
  0.58689356  0.3589992   0.37516293 -0.7947049   0.6007836  -0.1595166
 -1.5769184   1.5223691 ]
[-1.1774942   0.39428023 -0.05269068  0.3265274  -0.05445779 -0.3204315
  0.18306285 -0.34106243 -0.31856763  0.1334798  -0.53901565  0.17402944
 -0.4471173  -0.43792334 -0.27091548  0.20581813  0.32543033 -0.10821348
 -0.06074702  0.30930373]
[ 0.06078447 -0.22785132  0.11208559  0.17081363  0.3626657   0.03796094
 -0.33960703  0.6370117  -0.23992121 -0.13338026  0.0190923  -0.16045901
 -0.27629173  1.0058134   0.05194812 -1.6264688  -0.07600949  0.21570951
 -0.16172746 -0.42018348]
layer 5 Activation
tanh
layer 6 Dense
20 1
[0.2806725]
[0.38506714]
[0.23828557]
[0.33956638]
[-0.06730262]
[-0.32553935]
[0.40865624]
[-0.6696826]
[0.24862872]
[-0.24868481]
[0.23787236]
[0.31016007]
[0.27956694]
[1.510509]
[0.4201503]
[-1.8201913]
[0.14866547]
[0.11099604]
[-0.3448362]
[0.44219106]
[2.0844185]
