layers 7
layer 0 Dense
20 20
[ 0.17356734 -0.3439963  -0.13947113  0.32430598  0.22495602 -0.10441016
 -0.2337415  -0.03124874  0.05416077 -0.1011745   0.13767067  0.27539548
 -0.50547856 -0.15933141  0.37115467  0.24137355 -0.10731208  0.05912204
  0.24311598 -0.19318551]
[-0.10527121 -0.2051193  -0.122292    0.08875041 -0.22684248 -0.02168944
 -0.24104606 -0.03325618 -0.40942734  0.16407098  0.4821027   0.37605676
 -0.15472104 -0.09489867  0.11121316  0.15610689 -0.35322678  0.17009248
  0.45199367  0.16670604]
[-0.24963579  0.15576053 -0.30024108  0.1234374   0.43931186  0.5649455
 -0.28636754  0.09779926 -0.12956274 -0.05047591  0.70701796  0.5201956
  0.35144156  0.4726545   0.14837357 -0.3377407   0.09931997 -0.18749411
  0.05503223  0.2993402 ]
[ 0.02652532  0.32447213  0.34233695  0.1834988   0.39976642 -0.14710428
  0.2926458   0.4455849  -0.52651405 -0.40542272  0.13866656 -0.08333879
 -0.36522543 -0.25161672  0.08802798 -0.44075704 -0.11718074 -0.35359553
  0.00571727  0.15314846]
[ 0.00489349  0.50903165  0.14955857  0.3588099   0.05999997 -0.42381915
 -0.361783    0.54906875 -0.16680482 -0.36019555  0.08195859 -0.06713684
 -0.03746552 -0.25383192 -0.05621809 -0.24877721 -0.32676265  0.08486926
  0.08984727  0.42509472]
[-0.42511126 -0.11709078 -0.2391183  -0.08603058  0.0112734  -0.42986527
  0.39707687  0.5243195   0.15987742  0.25534344 -0.47628713 -0.52771145
  0.27263826 -0.16288376 -0.12320165  0.28862104  0.12263791  0.18338874
 -0.53684384 -0.21615489]
[ 0.03353004  0.28955114 -0.19061495 -0.15382074  0.26931876 -0.08550934
  0.11768068 -0.045885   -0.2937671   0.31083727 -0.13512054 -0.4591933
 -0.09070326 -0.26615     0.43049172  0.01880344 -0.18766168 -0.2672811
 -0.60138506 -0.01159354]
[ 0.26796627 -0.33190754  0.11196706 -0.04820843 -0.1515594   0.3606753
 -0.11085784 -0.6780365   0.4026038   0.45976904  0.4250607  -0.34576857
  0.009178   -0.04183109 -0.2900328   0.6043629   0.29490253 -0.00252479
  0.3094882  -0.14894646]
[-0.21282081 -0.28556    -0.4932919  -0.5928616  -0.2098814   0.64173424
  0.44041833  0.04531557 -0.1988632  -0.45073047 -0.5099796   0.18095037
  0.50759137  0.24428767 -0.30585888 -0.41159093  0.07541893 -0.11877424
 -0.6397268  -0.34732005]
[ 0.27030203  0.19566937 -0.41562596 -0.01153984 -0.01190201  0.06753421
 -0.20011507 -0.48708612 -0.16470984 -0.09054559 -0.13088404 -0.13255727
  0.04425761 -0.16415472 -0.22186759 -0.25795573 -0.43977645  0.2665447
 -0.10368712 -0.20954117]
[ 0.36278987 -0.0827326   0.0772247  -0.05615558  0.04867612 -0.04024465
 -0.05648836 -0.41984355  0.2017177   0.47571975  0.08331807 -0.08179589
 -0.02548233  0.5427045   0.13562134 -0.11584146 -0.11085974  0.15307552
 -0.271396    0.47258577]
[-0.1522532   0.63773555 -0.08285084  0.10188138 -0.4223677  -0.22294547
  0.15766251  0.7389111   0.41893914  0.14340295 -0.29945323 -0.46018168
 -0.70067567 -0.5636664   0.21026035 -0.14759485 -0.170544   -0.01487042
 -0.02452056  0.5960361 ]
[ 0.00531063  0.05859034 -0.23074716  0.02815902 -0.0393368   0.10946261
 -0.1948303   0.24583964  0.23083362  0.03648566 -0.23153529 -0.36040917
 -0.14533645  0.03688325 -0.19744341 -0.20804954 -0.14842702 -0.10892911
  0.12293197  0.28330463]
[-0.11483185 -0.40003687  0.2184689  -0.19202441 -0.38008767 -0.442224
  0.05902723 -0.20759355 -0.49989033  0.29063526 -0.35338837 -0.0977328
 -0.45251918  0.2626693  -0.41069344  0.09249827 -0.48350585  0.2840897
  0.23131172 -0.49513125]
[ 0.8849128  -0.09073779  0.07113484 -0.17352472  0.43817368 -0.46837124
 -0.61313635 -0.5635935  -0.67840576  0.20276418  0.02267516  0.6433003
  0.5236414   0.03019134  0.15812933 -0.07127693  0.10430779 -0.44673866
 -0.4298822   0.32573965]
[-0.2641511  -0.282348   -0.08363692  0.24065399  0.23057185 -0.2596804
 -0.20492613 -0.4670329   0.01190858 -0.15346494 -0.0862124  -0.13194633
  0.05208879  0.50577325  0.13721894  0.16221337  0.40597346 -0.0537386
  0.28630444  0.17979857]
[ 0.4150613   0.31052345  0.3807136   0.04147369 -0.35521057 -0.31727928
  0.10024087 -0.28363997 -0.195862    0.35685676  0.42783123  0.11972006
 -0.16076997  0.08554245  0.40345976  0.17945576 -0.24977149  0.01353259
  0.0441676  -0.08518588]
[ 0.3331704   0.57124525  0.13169314 -0.36019516  0.4773428  -0.18369257
 -0.22864527  0.6544924   0.14253385  0.11219732 -0.07850654 -0.35311112
 -0.02160395 -0.30077615  0.4635005  -0.47045606  0.4246028   0.08459167
 -0.23836143  0.4172073 ]
[-1.3731635   0.09061882 -0.86899495  0.22652684 -0.33811766  0.23451184
  0.9176945   1.1499346   0.31981617  0.06791403 -0.33147833 -0.6604532
 -0.5169108  -0.35612085 -0.48830992 -0.42829895  0.02909988  0.47465688
  0.911367   -0.8408537 ]
[ 0.09357835 -0.43627998 -0.02172185 -0.06350784 -0.5795027   0.2953617
 -0.09764863 -0.7457756   0.05611324 -0.04932059  0.52490884  0.45950058
  0.20394252  0.8176569  -0.18392916  0.28335148  0.55025965  0.12527035
 -0.445153   -0.28706187]
[ 0.02346969 -0.10633517 -0.03245574  0.04591846  0.14093944 -0.04176735
 -0.07699376  0.08363106 -0.19717391 -0.00765729 -0.06180895  0.02087236
 -0.08676636 -0.02194724  0.03759652 -0.10494655 -0.12455102  0.00758122
  0.04120917 -0.00658828]
layer 1 Activation
tanh
layer 2 Dense
20 40
[ 0.354176    0.18737935 -0.17697361 -0.4735462   0.02388253 -0.33736837
 -0.10424855 -0.06389067 -0.32335165 -0.04058924 -0.10969912  0.00370467
 -0.34888437 -0.1329794  -0.2932274   0.14498954 -0.28402087 -0.15911195
  0.23178072 -0.12939462 -0.24298126  0.24854153 -0.26497355  0.29749343
  0.31126902  0.1872936   0.02232515 -0.14715251  0.16960795 -0.5065633
  0.23105602  0.1345236  -0.58340055 -0.2730179   0.09041559  0.6510516
 -0.04062992  0.30801055 -0.30791584  0.06322704]
[-0.02904309  0.23677519 -0.43340784  0.04824492  0.16550957 -0.14729728
 -0.07130887  0.25680524 -0.05622614 -0.04828706 -0.01288742 -0.26532963
  0.26606372 -0.10575302  0.06806041  0.26679108 -0.03053064  0.0045573
 -0.41294292 -0.02180288 -0.16961645 -0.12049874  0.25335383 -0.00647222
  0.21111725  0.39029536 -0.03688139 -0.0633106  -0.2093903   0.15396819
 -0.05550491 -0.18007408  0.39279437 -0.09822371 -0.19751245  0.13753028
  0.00954811  0.03586559  0.45405358 -0.07975622]
[ 0.099486   -0.21866047 -0.298548   -0.40363643 -0.00054597  0.11668468
 -0.26558298 -0.21843487 -0.10535558  0.23811589 -0.05244069  0.10726872
 -0.12326661  0.26769507  0.19687648 -0.17858903 -0.0836852  -0.12709269
 -0.0878234  -0.15433532 -0.1592738   0.08459207 -0.19781709  0.265223
 -0.14481477  0.259687    0.07095412 -0.20578685  0.09385446 -0.35978204
 -0.144434    0.09853334 -0.07380636 -0.07005662  0.43142092  0.17801335
 -0.09101262  0.37038007 -0.0657797  -0.14018239]
[-0.0636892  -0.15536284  0.04056704 -0.02141706 -0.08836363 -0.06289337
  0.2762929   0.17206669  0.06557343 -0.17902273  0.01907864  0.18319084
 -0.15067378 -0.17198654  0.2772522   0.27103364 -0.00648711 -0.07785018
 -0.2309892   0.1147181   0.05738578  0.0649923   0.0444124   0.10560631
 -0.20430787  0.29468927  0.23818119  0.06819959 -0.10144286 -0.044184
  0.15086812 -0.16262569 -0.12744145 -0.13021842 -0.25652638 -0.06247712
 -0.19049652 -0.07685793  0.01870047  0.09129294]
[ 0.1815887  -0.21788457 -0.02665821  0.03297981 -0.13176319 -0.25856423
  0.18747516 -0.14161552 -0.26790532  0.14595756  0.14553443  0.08433272
 -0.16032493 -0.36075202 -0.34376755 -0.41472775  0.03349239 -0.14513002
  0.223295    0.0844731  -0.14692506  0.07536385 -0.2067046  -0.11296165
 -0.24680886  0.18374358  0.21646512  0.03033382 -0.08844908  0.3537983
 -0.0441573   0.28464523 -0.03693336 -0.16101591 -0.17635836 -0.08536436
  0.23620224  0.01579019 -0.10844446  0.29749945]
[-0.25862172 -0.12945911  0.30724287  0.4647304  -0.31389225  0.13216422
  0.04969395 -0.24145384  0.10033742 -0.07510389  0.1420088   0.36594188
  0.05251592 -0.077205    0.02409173  0.00328916 -0.29681897 -0.08936431
 -0.70456773 -0.24267752 -0.35086074 -0.10647218 -0.18134257 -0.49581546
  0.28532416 -0.10871404 -0.27062792 -0.19355537  0.42841944  0.6164814
 -0.26355308  0.1563354   0.43020862  0.20834984 -0.0511242   0.3187712
  0.28477052 -0.30187473 -0.08954239 -0.26628852]
[-0.24813813 -0.28648672  0.06255888  0.24109629  0.02430002 -0.05307512
  0.07838695 -0.2828017  -0.01674118  0.01718706  0.10638778 -0.1497161
  0.1251217   0.05145971  0.22653097 -0.23462968 -0.23774984 -0.25264522
 -0.28495702  0.02613252  0.12538628 -0.07124154 -0.267193    0.13739598
  0.12594497 -0.27556503  0.03829957  0.3441627  -0.38388166  0.17815988
 -0.10883313  0.28431794  0.45699653  0.12180042 -0.15468836 -0.15126905
 -0.07148592 -0.09082456 -0.08915564  0.23816489]
[-0.27465853 -0.49526617 -0.6078997   0.34755173  0.14502713  0.11968838
  0.6774709  -0.42033684 -0.2425243   0.3035796   0.620252   -0.53154707
  0.0788985   0.2455989   0.13984585  0.14255291  0.13698842  0.13533945
 -0.33342007  0.45166835 -0.06519744 -0.38777518 -0.03340222  0.4549896
  0.38479164  0.06131531  0.09536947 -0.17936273 -0.54332757  0.5582205
  0.23729861 -0.11273421  0.76159984  0.4791285   0.26881152 -0.40191597
  0.12965783  0.06314026  0.7680083  -0.09204952]
[-0.10688873 -0.18529686 -0.13739888  0.29696944 -0.11564919  0.04722804
  0.30110055 -0.19393699  0.18628871  0.00979551  0.2749936   0.34591872
 -0.08647364 -0.09795881  0.5077181   0.45469427  0.19666517 -0.08908919
 -0.06156251  0.02062893 -0.04161913  0.18985544  0.11532801  0.01188365
 -0.11964573 -0.27997518 -0.1175022  -0.25958574 -0.50003517  0.64613193
 -0.20985226 -0.31145808  0.12903963 -0.09294038 -0.27141383  0.3212581
  0.33738646  0.12667549  0.23763715  0.07036325]
[-0.09632714  0.17310075 -0.01232846 -0.30549264  0.03053547  0.10634121
 -0.3368997   0.19755334  0.34286958  0.21082774  0.02667903  0.03315539
 -0.24099046  0.18448795  0.27052048  0.39622322  0.12780614  0.08415223
  0.07939126 -0.1944437   0.01919053  0.01163206  0.07085582 -0.13426192
  0.11405024  0.36114505 -0.16532469  0.02370183 -0.20493369 -0.28916124
 -0.19617264 -0.13722907 -0.39067918 -0.16817468 -0.05437053  0.16671497
 -0.24003856  0.09072147  0.13046505 -0.21306148]
[-0.24242693  0.29847103  0.03141283  0.13872969 -0.09724063  0.21196534
 -0.23776042  0.23450245  0.09254994  0.19731398 -0.3728563   0.04910272
  0.23260117  0.17456236  0.05294107  0.30923894  0.19296516 -0.10189556
  0.29213378 -0.10749952 -0.24064599  0.12595578 -0.1312907   0.09783696
 -0.21201615  0.19927849  0.1633204   0.1742462  -0.04529397  0.21098047
 -0.13216317 -0.01316753 -0.64561355  0.08506462 -0.08977855  0.31755993
 -0.05675248  0.11097033 -0.27958316  0.2727489 ]
[ 0.26610854  0.03309843  0.34846708 -0.33085638  0.28333873  0.07970881
 -0.254881    0.20676494 -0.11574252  0.34657475  0.06295715  0.26292586
 -0.21911389 -0.07161776 -0.48088232 -0.2424843  -0.10976721 -0.1442712
  0.02002618  0.22781754 -0.11708008  0.29301944  0.27181387  0.49794465
 -0.35000244 -0.29827204  0.0064606  -0.18660536  0.37340653 -0.5265511
 -0.01565287  0.1490637  -0.6227603   0.27407885  0.24692681  0.08076067
  0.10851998  0.27650845 -0.01856377 -0.11381036]
[-0.04251352  0.07727808  0.18070497  0.36514762  0.00776441 -0.29624942
  0.2423349   0.25136608  0.12541391 -0.19237366 -0.30220133  0.11790544
 -0.15563639  0.11012201 -0.48801085 -0.2979926  -0.2960764   0.12461475
 -0.16934    -0.3351439  -0.1084913   0.18886057  0.07719522 -0.14203197
 -0.3282587  -0.06903907 -0.19292009 -0.08506424  0.801037   -0.01371831
  0.19518405 -0.00816975 -0.43883982 -0.13400653  0.19950551  0.45828316
 -0.14345698  0.15092257  0.05227844 -0.30402127]
[ 0.05380728  0.02143237  0.24617201  0.12445151 -0.08210878 -0.15767904
 -0.11679618 -0.06964014 -0.23464136  0.17627299 -0.00226084 -0.11741202
 -0.20970663  0.1274331  -0.02123837  0.27338168  0.02920454  0.28093868
  0.13410874 -0.12312247 -0.15498847  0.363731    0.1953757  -0.2543145
 -0.2859575  -0.06470296 -0.3335925  -0.19365847 -0.24443139 -0.00873096
 -0.30086917 -0.21710241 -0.41351232 -0.02289834  0.05017849  0.07927662
  0.12729065  0.1304208  -0.24346702 -0.36224723]
[ 0.03988101  0.23918375 -0.16189657  0.08902344 -0.05631325 -0.06006856
 -0.20386846 -0.11736388 -0.48653468 -0.12354464  0.363926    0.10945747
 -0.17902462 -0.02145724  0.07128175 -0.17378487 -0.18285197 -0.19091025
 -0.09636966  0.08305942 -0.05386591  0.01335265 -0.19777134  0.6672885
  0.28146762  0.35419545  0.17495151  0.11261998 -0.45127404  0.0218253
 -0.02143179  0.3112945  -0.03955098  0.08611583  0.22797635  0.18044882
 -0.3025091  -0.17154062  0.35415062 -0.0243419 ]
[-0.18463872  0.26446983 -0.21133883 -0.11727213  0.20664182  0.08232627
 -0.47397316 -0.10954931  0.19782068 -0.26698616 -0.11411076  0.34224477
 -0.08452068  0.3539846  -0.0016085   0.25022244 -0.0867038   0.2579216
  0.14005172 -0.00903274  0.0321192   0.30369088 -0.08839309 -0.2686269
 -0.02770767 -0.23599409  0.31856653 -0.07074915  0.13581982 -0.20914568
  0.1374509  -0.08396984 -0.6029486   0.02694906  0.40013567  0.174185
 -0.17440514 -0.30320412 -0.27981132 -0.13512836]
[ 0.11834107  0.22008938 -0.09682836  0.29558948  0.08404109  0.23777142
 -0.2393392   0.2321349   0.2111506  -0.31559062 -0.113526   -0.1723134
 -0.04913216  0.25024194 -0.42930624  0.27597418  0.10191493  0.24506463
 -0.2868956   0.31218934 -0.17667426  0.14317746 -0.2813502   0.0454875
 -0.02977973 -0.21172906 -0.02628808 -0.05769974  0.15612939  0.6032063
 -0.15111898 -0.19234516 -0.41386557  0.02325523  0.2744785  -0.06113381
  0.1265063  -0.09367436  0.5088642  -0.17864856]
[ 0.12980588 -0.2554348  -0.13131985  0.23773909  0.15279016  0.11207452
  0.06631795  0.0514031  -0.06287919 -0.1376003   0.10181815  0.300138
  0.03328801 -0.0180537   0.23326533  0.1124914  -0.173691   -0.18446688
 -0.02505594  0.15424459 -0.33001322 -0.19642003 -0.10644142 -0.14965753
 -0.04733922  0.03883842  0.34839326 -0.207863   -0.15236536 -0.05366984
 -0.1376852   0.02198082 -0.02434065  0.19572634  0.05918506 -0.09374149
 -0.0828394   0.15791798 -0.13230853 -0.27115285]
[-0.20707445 -0.03581897 -0.43089205  0.1541901  -0.34621674  0.3473058
 -0.1028439  -0.05636953  0.3317932  -0.20259699 -0.0034128   0.26499194
 -0.1174438   0.01920184  0.26396573 -0.28768128  0.19934241  0.13539684
 -0.19889672 -0.13416308  0.5199796  -0.12855352 -0.3177719  -0.11395326
 -0.03647847 -0.11000942 -0.10060982  0.20278457 -0.46399873 -0.01854293
 -0.05102565 -0.19101506  0.3563272  -0.28433162 -0.24895464 -0.4454579
 -0.13451225  0.25373268  0.40225732  0.3169482 ]
[ 0.5456965  -0.0531196  -0.26571417 -0.09754827  0.20125216 -0.39693567
  0.01793705  0.18779643 -0.5630982  -0.29354033  0.36650056 -0.25600043
 -0.1134875  -0.16398649  0.09421106 -0.07009071  0.1138286  -0.20634003
  0.32095855 -0.29417583 -0.40048793 -0.08197218 -0.03608486  0.21621755
 -0.03733894 -0.07236271  0.14123009  0.12719135 -0.42798313  0.08050471
  0.10722929 -0.04081288  0.07622863  0.03283462  0.03626359  0.7540233
  0.07516427  0.03301255 -0.06973499  0.41743743]
[ 0.12739386 -0.01391355  0.02636305 -0.01094775  0.08619414 -0.06657124
  0.00230447  0.07351861 -0.11706101  0.06798365  0.09329667  0.02557738
 -0.02134541 -0.10669133 -0.11081462 -0.16359985 -0.06202353  0.00497696
 -0.16493471  0.03274649 -0.02073161  0.00103632 -0.04715225 -0.04514329
 -0.0777007   0.01372317 -0.02592922  0.06145186  0.134839    0.08724931
  0.03374388  0.01589272  0.03264917 -0.10181024 -0.13417624 -0.15527937
  0.0391034   0.07604257  0.09452885  0.05068459]
layer 3 Activation
tanh
layer 4 Dense
40 20
[-0.13542931 -0.11425811 -0.22969545  0.35458437 -0.39429247 -0.1363738
  0.29173788  0.06946394  0.33148816  0.08619033  0.18979818 -0.14955932
  0.2523993  -0.24642979 -0.21402317  0.11480798  0.19908436 -0.19674793
  0.2154033  -0.0284308 ]
[-0.23974952 -0.16651654  0.03476641  0.0645188  -0.31687164  0.34672433
  0.0611397  -0.21059436  0.34575373  0.12423238  0.1498927   0.13745128
 -0.08930498  0.15108252 -0.00809516 -0.03213276 -0.23374006 -0.11106271
  0.09046917  0.11288428]
[ 0.1460469   0.29124716  0.10593231  0.09548061  0.13623118  0.40236393
  0.34312537  0.13839225 -0.27693677 -0.07400409  0.04471768  0.23727764
  0.51576626 -0.2884416  -0.05431331  0.26457524 -0.17783295  0.08473787
  0.06732745  0.0717755 ]
[ 0.17947371 -0.14152427 -0.05809673 -0.01476547 -0.04314002 -0.34549597
 -0.18343072 -0.06196503 -0.20578489 -0.13363236  0.0088799   0.02831439
  0.07517627  0.0848043   0.35515738  0.15585877 -0.16980624  0.33614263
 -0.25916338  0.2712028 ]
[-0.30045766  0.01939447  0.17514414  0.13521014  0.19450705 -0.14373262
 -0.01283171  0.13327362  0.5398664  -0.20026734  0.14790326 -0.39105332
  0.07329696 -0.11882866 -0.06582751  0.22271125  0.17480762  0.20330241
 -0.13573395  0.19799072]
[ 0.04085181  0.04334191  0.11732304 -0.3288497   0.27214715  0.19618098
 -0.15100954  0.19852792 -0.24638432  0.09635042 -0.26683456 -0.00532356
  0.07233592  0.3687599   0.26553047  0.4000667  -0.09634858  0.29729187
 -0.03619099 -0.21266735]
[ 0.3494255  -0.29852185  0.15842053  0.26429158  0.21719351 -0.4303777
 -0.21849136  0.08240674 -0.15824819 -0.05351317 -0.33609244  0.35157058
 -0.2901963   0.02496561  0.10975384 -0.31196094  0.04825458 -0.158351
  0.10731027 -0.35895124]
[-0.02404057  0.26377207  0.01939747  0.24559173 -0.0474705   0.10196411
  0.13134226  0.05072416  0.37428513 -0.12452592  0.02674579  0.22715826
  0.0883109   0.1478939   0.13725647 -0.1418226   0.12804027 -0.2053019
 -0.19511923  0.27511558]
[-0.03824514  0.04606928 -0.33464384 -0.22845829 -0.0556623  -0.08186518
  0.19578888 -0.15391155 -0.28355858 -0.07145274  0.22118418  0.11039047
 -0.03144594  0.21737364  0.41540334  0.13429382 -0.01755113  0.24671885
 -0.05020005  0.01484168]
[ 0.26897603 -0.02373693  0.17830102 -0.01633355 -0.08768582 -0.054671
 -0.02890953 -0.29770473  0.32744947  0.14243582  0.25856125 -0.09627045
 -0.26956296 -0.30047286 -0.16799061  0.14914775  0.26805514  0.2132134
  0.1218947   0.18989134]
[ 0.11641265  0.13903917 -0.11753926  0.16576862  0.25409007 -0.29188132
 -0.13381949 -0.01659946 -0.28914997 -0.04116507 -0.0134181  -0.06127726
 -0.21107683 -0.2962993  -0.20812887  0.0318248   0.12226471 -0.23344593
 -0.2549241  -0.1354148 ]
[ 0.12094677  0.15084592  0.21885331 -0.11264397  0.01628533  0.3535374
  0.30377242  0.02042541 -0.20089518  0.19292061  0.00542429 -0.00404316
  0.38613787 -0.21119264  0.23409574  0.26469713 -0.12150807  0.22027226
 -0.2447054  -0.04562497]
[ 0.24956365  0.13899757 -0.1877497  -0.11433186 -0.22278479 -0.12320235
 -0.2254655   0.12691967  0.15468992 -0.08514011 -0.26507223  0.06229605
 -0.05846862  0.16286562  0.10815839 -0.08216606 -0.0227729   0.15706861
  0.05504461 -0.40349284]
[-0.1973041  -0.10446261 -0.2870705  -0.20456079 -0.18120776  0.05728643
  0.1493677   0.2650712   0.12149879 -0.28918847 -0.17781101 -0.08156879
 -0.03315011  0.40171602 -0.05011153  0.06443954 -0.06238462  0.3786315
 -0.20961028  0.1049549 ]
[ 0.3045114  -0.03881676 -0.03287139 -0.48477837 -0.03952487  0.12004886
  0.19534191  0.05291716  0.15504223  0.06939334 -0.37651816 -0.30430493
  0.0311197  -0.16948122 -0.349234    0.34322634 -0.1307216   0.17874885
  0.1903745  -0.05025125]
[-0.07804551 -0.17476103 -0.213796   -0.45807794 -0.17494453 -0.03536278
 -0.3369287   0.15005264 -0.07271224  0.25401995 -0.09226665  0.27127022
 -0.04888863 -0.16487838 -0.18663433  0.32187214 -0.29826233  0.1489126
  0.10518445 -0.13609219]
[-0.14610972 -0.07155119  0.20507704 -0.2559421   0.09422584 -0.16396974
  0.31958058 -0.19057152 -0.23995434  0.12184908 -0.20522705 -0.00503332
 -0.17696555 -0.19737074 -0.14882502  0.05928722  0.08388788  0.25648585
 -0.03434266 -0.13055345]
[-0.09243713 -0.2920411   0.15869547  0.04988651  0.0183742  -0.06524763
 -0.02338056  0.0022842  -0.18664743  0.14420596 -0.11980204 -0.03321427
  0.23081051  0.14697872 -0.11129957  0.35967773  0.1065539  -0.01486016
  0.2875701   0.19463992]
[-3.4660640e-01  2.4912843e-01  1.7657621e-02 -1.4438507e-01
 -1.8014314e-04  1.7728898e-01  3.0925998e-01  1.6436343e-01
  3.2051048e-01 -1.1332259e-01  1.8839973e-01  1.8244512e-01
 -1.0369881e-01 -1.5600391e-01 -4.0442291e-01  6.1052635e-02
 -1.4647411e-01 -2.7736637e-01 -2.1185562e-01 -1.6919509e-01]
[ 0.15542752  0.01721076 -0.08546849  0.079367   -0.39024028 -0.08435746
 -0.04780632  0.15775469 -0.11858147 -0.04274428 -0.18604195 -0.27947554
 -0.01669209  0.25833458  0.17831567 -0.09163877  0.25275472 -0.11522722
  0.20941204  0.11799742]
[ 0.22324586 -0.11734928  0.2471983  -0.10660696  0.27383235  0.11021218
 -0.04680919 -0.18789476 -0.03738888  0.15976651 -0.28328145  0.03006651
  0.06084693  0.25798202  0.09510256  0.34688458  0.11904159  0.09309716
  0.43288     0.17075518]
[-0.38355547  0.09030604  0.05553411  0.02498953  0.14704393  0.03859443
  0.05834513 -0.09637623 -0.14210117  0.05559303  0.44363406 -0.07700704
  0.4094818  -0.10941181  0.00941409  0.06930395 -0.13453296 -0.14937147
  0.02833765  0.32367122]
[-7.0693046e-02 -9.9981889e-02  2.2454152e-01 -1.7078596e-03
  1.4176355e-01  2.3193929e-01 -1.9128327e-01 -2.5822183e-01
  2.7809095e-01  1.8810257e-01 -2.2416216e-01  3.8657480e-01
  3.6472853e-02 -5.1045064e-02 -2.1160991e-01  2.8027606e-04
  2.4512614e-01  2.9798371e-01 -1.8320948e-01  6.6639230e-02]
[-0.13015008  0.15848261  0.11448075  0.1721973   0.02545141  0.21171424
 -0.31843907  0.04985913  0.32571834  0.10115564 -0.07056962 -0.30595565
 -0.00763993  0.12379107 -0.26925313 -0.27858454  0.06520569 -0.16382289
 -0.2362985  -0.11212278]
[-0.24447429  0.23853427  0.14786315 -0.2720148   0.22418168 -0.11435321
 -0.18240365  0.0882553  -0.23990265 -0.49277654 -0.13263553  0.18884593
 -0.5060134  -0.12815908 -0.24056527 -0.17610537 -0.10045092  0.00353975
 -0.17414904  0.01856503]
[-0.02408934 -0.0507445   0.2361537  -0.001836    0.10406356 -0.21859005
 -0.3150869   0.16685061  0.41857776  0.0995591  -0.02726882 -0.091266
  0.19426374  0.08547856 -0.34291154  0.2411393   0.26535434 -0.28996247
 -0.36469004  0.09519517]
[-0.02818262 -0.27387866  0.04931509  0.17407341  0.00706144  0.0504327
 -0.23896872 -0.28042305 -0.16934021  0.03359136  0.00534574 -0.15373793
 -0.11128601  0.1359091  -0.1448107   0.18662514  0.17993437 -0.16409062
 -0.05156847 -0.13367209]
[ 0.24270055 -0.02330254 -0.06080981  0.11682524  0.08566935  0.10120595
  0.17780228  0.3262133   0.1188646   0.09347823  0.00654187 -0.3427261
  0.15599604  0.16800363  0.09656178 -0.2577968   0.13803034  0.03867613
 -0.18304469 -0.11515462]
[-0.20140961  0.02713329 -0.21973614  0.2867283   0.1763907   0.28378174
  0.12707478  0.02424657  0.20260423 -0.16993776  0.16283572  0.3674834
  0.23859085  0.20658728  0.30871832 -0.16559693  0.10803786  0.37200424
 -0.1910554  -0.16940771]
[ 0.3943201  -0.26560837  0.0507169   0.28544977  0.0559264  -0.4355573
 -0.09549142 -0.11503496 -0.1157396   0.16512674  0.284933   -0.10421415
  0.16892865  0.02971198  0.35585216  0.12729715 -0.10771334  0.02969119
 -0.11352841 -0.27838174]
[-0.2037869  -0.04671653  0.30630618  0.08218189  0.09129564  0.04471554
 -0.23850788 -0.12124279  0.1848143  -0.17965296 -0.11370166 -0.24737312
  0.12335567  0.04244693  0.15935229 -0.05519017  0.17450245  0.05033936
  0.2487968   0.04653072]
[ 0.06619186 -0.23293489  0.11395707 -0.05504877 -0.06940943 -0.04532506
  0.28434944 -0.24144961  0.09221211  0.21814881  0.02391454 -0.12415
  0.10320165 -0.05007828 -0.10270517 -0.40041354  0.02889719 -0.20284238
  0.0910977   0.08323388]
[ 0.36061427  0.0621849   0.08710904  0.08593279  0.06509649 -0.42825234
 -0.21071939 -0.04529513 -0.13970336 -0.04193467 -0.45730647  0.29882887
 -0.03573376 -0.24887517 -0.07607269 -0.20582929  0.22799146  0.01252872
 -0.09429079  0.12312274]
[ 0.3314465   0.17637451  0.27404353 -0.19260098 -0.28146467  0.16353172
 -0.33343747 -0.2383287   0.2105043   0.03995612 -0.26288185  0.15149923
 -0.06758254  0.18786201 -0.27708024  0.06816181  0.34002087  0.2679151
 -0.1694645   0.2965048 ]
[-0.28263968 -0.21527728  0.11387148 -0.02891872  0.14451772 -0.11182897
  0.2040399  -0.17846076  0.25181362 -0.00289654  0.27954718  0.13343807
 -0.36073565  0.11356214 -0.13848488  0.01483835  0.24522565  0.20635815
 -0.03074319 -0.24201544]
[-0.35289818 -0.07032432 -0.10461545  0.17853868  0.22586986 -0.25251505
 -0.03886611  0.24750699 -0.22668906 -0.06015187  0.23569903  0.23978177
  0.19148153 -0.39170843 -0.16438715  0.29781824 -0.02979368 -0.30412278
  0.12433723 -0.10213447]
[ 0.12863383  0.15529445  0.24097654  0.21722661 -0.18665221  0.08253857
 -0.03398574  0.23242903 -0.16395819  0.08580074 -0.17620173 -0.08393225
  0.04312063 -0.29348987  0.11185952 -0.33658826 -0.17257188  0.11263375
  0.04075636 -0.10490339]
[ 0.01879868 -0.14395575  0.20514445  0.04092352  0.09148661 -0.16000907
 -0.23472664 -0.22429766  0.28230342  0.46496448  0.18529983 -0.05341555
  0.12052007 -0.2078554  -0.01110673  0.34701023  0.12921356 -0.02858898
  0.07634252 -0.03550492]
[-0.1513113   0.2470479   0.05400502  0.16285162 -0.0430121  -0.4260468
 -0.38254625  0.24347028  0.17342131 -0.05399407  0.04465238  0.13739696
 -0.492471    0.1616773   0.30440375 -0.08670514  0.3802315   0.4476262
  0.0861333   0.14120606]
[ 0.14639303  0.23032205 -0.17315158  0.16285212  0.10094334 -0.24881081
  0.18409671  0.12627555 -0.02106112 -0.03026459 -0.08280794 -0.30800617
 -0.24776293 -0.2906299   0.22888716 -0.15809841  0.27484903 -0.11120262
  0.29872897  0.07652148]
[ 0.08442978  0.00678908  0.02504377  0.11959747 -0.07056504 -0.08176318
  0.07348679 -0.02248412 -0.0410636   0.0676596   0.04838345 -0.05197879
  0.05196983 -0.03650058  0.03945718 -0.09049159  0.01210061  0.01886399
  0.01150175 -0.00145355]
layer 5 Activation
tanh
layer 6 Dense
20 1
[0.24089888]
[0.02541058]
[0.03965423]
[0.27683216]
[-0.04036743]
[-0.24837698]
[0.04110805]
[-0.00295329]
[-0.10834813]
[-0.01391675]
[0.24556457]
[0.09343881]
[0.15373325]
[0.18066633]
[-0.29125544]
[-0.07225287]
[-0.1466086]
[0.24628897]
[-0.00962941]
[0.01250226]
[0.0181212]
