layers 7
layer 0 Dense
20 20
[ 0.05346936  0.2037883   0.45964208 -0.3101912   0.33730772 -0.06834476
 -0.24898703  0.21492662  0.22524516  0.24379295  0.12251589 -0.22533
  0.27121416  0.18150182 -0.3567123  -0.3825414  -0.1305984  -0.2758639
  0.1877086  -0.18371049]
[ 0.2294936   0.23524168 -0.27512258  0.21929353 -0.2986823   0.23971546
  0.30621597  0.22750288  0.25196633 -0.2370479   0.11266466 -0.3057178
 -0.19434132  0.2403294   0.26031044 -0.11151154 -0.02534647 -0.03060355
  0.23873161  0.38294807]
[-0.35514158  0.02317719  0.25748643  0.27661324 -0.18347654 -0.16717719
  0.2474743   0.3970273   0.35745066  0.11382568  0.32708657  0.03338998
  0.02830124 -0.31089258 -0.34295538 -0.07813673  0.0062763  -0.30330738
 -0.17895286  0.02777129]
[ 0.0443848  -0.14633255 -0.06092853  0.03710921  0.167104    0.0546502
  0.16047266  0.3318634  -0.35301486 -0.18392959 -0.37259713 -0.21070649
  0.00467181 -0.24420755 -0.30193233  0.07910867 -0.20252478  0.14602028
  0.15079102  0.341512  ]
[ 0.11472747 -0.07846693  0.00416934  0.27227315  0.00050273  0.26658255
  0.37060258 -0.280354   -0.14537181 -0.13904276 -0.24375087  0.24072881
  0.47138932 -0.21749653 -0.19083093  0.06322018 -0.4382213  -0.39817935
 -0.18052818  0.15760776]
[ 0.03606334  0.27809894 -0.23841467  0.20956808  0.02138479 -0.33922055
 -0.1437248  -0.18431023  0.19410108 -0.10833878  0.02527299  0.20509061
 -0.10905354 -0.24554236 -0.13332261  0.17626804  0.07273874 -0.30709648
  0.33373877 -0.25962996]
[-0.06365057  0.23316553  0.3091787   0.39431745  0.0782785  -0.22370487
  0.11939751 -0.30510488 -0.03856617 -0.1853485   0.34441143 -0.3597471
 -0.0706283   0.018525    0.12057984  0.30562794 -0.0425964  -0.03839321
 -0.04563601 -0.14070119]
[-0.13765745  0.02444318 -0.45090932  0.19417794 -0.3749605   0.20384657
 -0.33489347 -0.10271929 -0.20133553 -0.24170385 -0.26934886  0.4326575
 -0.1361829   0.03759822 -0.06610359 -0.16796401 -0.08496515  0.3743281
 -0.02553717 -0.03768899]
[ 0.0503567   0.20775282  0.27408487 -0.24169326  0.30118027 -0.3734926
 -0.3184284   0.1939236   0.38576272 -0.045925    0.19616574 -0.15933922
  0.26803452 -0.54812115 -0.08756775  0.41945598  0.0078499   0.36671123
  0.108301    0.02038166]
[ 0.11046446  0.19843349 -0.13292514  0.28389153 -0.31215453 -0.29128715
 -0.12409838 -0.38423544  0.33514842 -0.36542535 -0.07849962 -0.12536909
  0.13885045  0.33924738 -0.28348008 -0.16365919  0.41826066 -0.2736409
 -0.3382893   0.55293643]
[ 0.2655556  -0.4375087   0.33571526 -0.04160756 -0.26586232 -0.16200495
  0.11094184 -0.11115748 -0.5566661  -0.3711866   0.48858666 -0.21080224
 -0.33565566 -0.42409432  0.2287063   0.21693707  0.5176246   0.01558755
 -0.59592646 -0.12653634]
[-2.1890846e-01 -1.9870223e-01 -1.8298650e-01 -2.1269749e-01
  1.3371067e-04 -1.7333114e-01  2.5704578e-01  3.0818510e-01
 -3.6879620e-01 -1.5240853e-01  3.2167280e-01  3.3782741e-01
  1.5322457e-01 -1.0318025e-02 -1.3132529e-01 -4.2367318e-01
 -8.0163702e-02  3.1581643e-01 -8.2279176e-02 -1.2642503e-01]
[-0.0866087  -0.05488407  0.09413322 -0.19461174 -0.11739761  0.24858873
 -0.2095124   0.10386294  0.2878758  -0.1475122   0.00195095 -0.14148219
 -0.14456707 -0.35152042 -0.1786054   0.3855166   0.22081512 -0.28980616
  0.10188756 -0.3592431 ]
[-0.4467326  -0.2517671  -0.31155875  0.23596758  0.2166103   0.03852064
 -0.23967567 -0.21761039 -0.27263394  0.24477462  0.3139627  -0.3772938
 -0.4142855  -0.20678523 -0.2503804   0.14016756 -0.4420167   0.20757827
 -0.33254504 -0.2921681 ]
[-0.43572062  0.15497038 -0.08652973 -0.3061145   0.2632014   0.49262294
 -0.23056276  0.0634317   0.40248054 -0.17145762 -0.18355292 -0.02177534
 -0.00853599  0.10088398  0.10441603 -0.05981752 -0.08963513 -0.52905726
  0.4675999  -0.02380907]
[ 0.2555257  -0.33911136 -0.12506934 -0.46560386 -0.10488807  0.1899851
 -0.12191596 -0.28901976  0.06655543 -0.21590818  0.09855156  0.26454803
 -0.0899397  -0.058382    0.35267767 -0.4592103  -0.24318974  0.21574154
 -0.25131416 -0.08637489]
[-0.38938728 -0.46264398 -0.34630585 -0.3888256  -0.14411834 -0.32163486
 -0.08961872  0.14908232 -0.20906854 -0.32298464  0.05830507 -0.27256277
  0.02622425  0.51983744  0.5389657  -0.523456    0.25670183  0.19390978
 -0.31488624 -0.04741247]
[ 0.20423752 -0.10827675  0.00833166  0.27762976  0.3083104  -0.35238165
  0.07330583  0.17995116  0.02314327  0.26159585 -0.22308178 -0.28453326
 -0.20044625  0.06420127 -0.09867515  0.05393    -0.39472854  0.1785533
  0.17137213  0.22223713]
[ 0.21503498 -0.08853762 -0.06389885  0.12890057  0.1562352   0.3385209
 -0.04298002 -0.00361877 -0.26918742  0.00835534 -0.01329481  0.02338364
  0.14739503 -0.20328772 -0.21178284  0.22741237  0.20640431  0.12107855
 -0.16432957 -0.02188086]
[ 0.24540076 -0.16351342  0.08968988 -0.19496821  0.11228666  0.04952601
  0.18827252 -0.30067664  0.19784835  0.00541329 -0.09124596 -0.00213945
 -0.17912033 -0.27039668  0.36485413 -0.04416458  0.3312929   0.45839915
  0.12081004 -0.6105467 ]
[ 0.01852365 -0.0488632   0.06504491  0.03597573  0.02005934 -0.05166655
  0.01515073  0.10119688 -0.0193878   0.05547669 -0.02418187 -0.03203573
 -0.02264069  0.00347471 -0.16089135  0.03401073 -0.04517869 -0.03491387
 -0.03249371  0.08858089]
layer 1 Activation
tanh
layer 2 Dense
20 40
[ 0.2433932   0.3054524   0.11693228 -0.03961951 -0.01102047 -0.03468842
  0.12905161  0.2085574  -0.21496324 -0.3426398  -0.25078607  0.01992588
  0.27313155  0.19536442 -0.13892892  0.09763478 -0.15297717  0.336755
  0.27664924  0.3120238   0.0155109   0.2885     -0.20726138 -0.02517987
  0.01498745 -0.0095309   0.04448954  0.2257053  -0.14485392 -0.0678832
 -0.19159417 -0.1849759   0.21668811  0.29491222 -0.12223762 -0.27710205
 -0.19483465 -0.03041026 -0.2756575  -0.06963077]
[ 0.3223711  -0.26569918 -0.13439918  0.21502273 -0.09121398  0.2317381
  0.12985234 -0.23051737  0.15722825  0.2597934  -0.04600203 -0.39320502
  0.09089053  0.22996584  0.2785041  -0.1344902  -0.31796953  0.07534938
 -0.1407516   0.07771704  0.31187472  0.07756811  0.18639232 -0.17017065
  0.08333254 -0.23429652 -0.04472468  0.03446308  0.06431595  0.17903808
  0.11249729 -0.25346157  0.19626425 -0.0857546  -0.10968532  0.05097597
  0.0781111   0.33109674 -0.0844175   0.31948385]
[ 0.15495782  0.18293545 -0.17409398 -0.25732392  0.27552098 -0.11053587
 -0.03171929 -0.1525002   0.3017406  -0.20848347 -0.11936907 -0.0325732
  0.07345951  0.19183755  0.06738203 -0.31130034 -0.20690054  0.03393226
 -0.06287611  0.0198428  -0.25614184  0.02013627 -0.15797868 -0.3932328
 -0.05395706 -0.01884088  0.20500696 -0.02895462  0.06419386  0.19912323
 -0.27957892 -0.39056826 -0.05841627  0.21497804 -0.29832685 -0.22723016
 -0.29448098 -0.14794342  0.33770245 -0.1556769 ]
[-0.24947841  0.21545278 -0.01057503  0.12800804 -0.2323711   0.2245506
 -0.0873599   0.00101561 -0.08961669 -0.17827508 -0.2008425  -0.02668607
  0.28931016 -0.05498102 -0.0864583   0.24129704 -0.11094411  0.23616685
  0.2940745  -0.24131443 -0.06548588 -0.04915753 -0.282428   -0.13677822
 -0.01402725  0.190101   -0.00847046 -0.20105724  0.1897776   0.17899817
  0.1469024  -0.12457641 -0.02483999  0.22914252  0.07250185 -0.16032474
 -0.23110831  0.02481728 -0.01465272 -0.02183465]
[-0.10239578  0.30403578  0.16592444  0.24944706 -0.01982873 -0.07053013
  0.15257944 -0.16383772 -0.23532227  0.13435997 -0.13013072  0.14006002
  0.25247866  0.19257715 -0.02028914 -0.26607192  0.16929746 -0.40332356
  0.08356074 -0.33610466 -0.18740243 -0.02663293 -0.08411376  0.01459964
  0.06453305 -0.02871424 -0.223493   -0.26722792 -0.2539922  -0.329338
  0.2935126  -0.19475374 -0.01275569 -0.17608835 -0.02902944  0.22104487
 -0.16313003  0.08258761 -0.28389922  0.10963525]
[ 0.14206746  0.01478174 -0.2663646   0.24013919 -0.17184564  0.15134123
 -0.05652438  0.01789322 -0.18715139  0.0296194  -0.28904846  0.08656525
 -0.02577883 -0.12180027  0.03978386 -0.19842327 -0.11312289 -0.3775839
 -0.3922605  -0.33806407 -0.14528194 -0.0190431   0.14798589  0.17595755
  0.2845403   0.02731451  0.00396997 -0.38307148  0.27945378 -0.36718565
  0.18829985  0.12256859  0.18562028 -0.14251801  0.3820668   0.3799402
 -0.14472066  0.30985835 -0.24853314 -0.14913833]
[-0.19666626 -0.13350242  0.18082431  0.18946213  0.30738363  0.16265273
  0.3075919  -0.16051833  0.17538083  0.17737946 -0.10301557  0.03887351
  0.26125258  0.26843366  0.0531022   0.04930093  0.08596939 -0.09258128
  0.14857358 -0.25223124  0.04106759  0.02407945 -0.20860542 -0.05835813
 -0.12401713 -0.07118174 -0.01695248 -0.12028295  0.05315174  0.0854994
 -0.14905877 -0.2625167  -0.19949447  0.32361802 -0.02034427  0.0068071
 -0.11227666  0.00423882  0.04329001 -0.03664153]
[-0.06027601  0.10292575 -0.24034597  0.00627409  0.16173577  0.21480413
 -0.12170619 -0.1657229  -0.30647567  0.07239966 -0.30791357 -0.15964714
  0.03188537  0.16618583 -0.09231708 -0.14135075  0.12829345 -0.25540632
 -0.13741872 -0.13662195 -0.25525913 -0.29054582 -0.03013209 -0.08520922
  0.05738404  0.1625627  -0.09981659  0.22401428 -0.40802956  0.00850577
 -0.22905196 -0.22342086  0.16656527  0.17017634 -0.03757238 -0.04328438
  0.21339507  0.17392151  0.33202624 -0.1804439 ]
[ 0.01212988 -0.17970231 -0.1310609  -0.38100675 -0.22791013  0.45964336
 -0.14893897 -0.07299579 -0.05434885  0.27210662  0.04448166 -0.13002992
 -0.16237164 -0.13902996  0.16912568 -0.03959952  0.17631784 -0.10205042
  0.2448923  -0.15503673  0.188352    0.3857226   0.13320874 -0.20472491
 -0.18440393  0.27765635  0.1528813  -0.00485452  0.2564545   0.15654197
 -0.19341387 -0.2776237   0.25602794 -0.1570788  -0.03081789  0.4248235
 -0.16399044  0.0434143   0.27475446  0.44814146]
[ 0.14966565 -0.2559379  -0.02241306  0.28298903 -0.07250613  0.19119848
  0.08073423  0.17446288 -0.28312984 -0.24210404 -0.01695405  0.1914825
 -0.09433824 -0.03626415  0.264283    0.18209523  0.04082286 -0.06954049
 -0.29372776 -0.02136008 -0.04484466 -0.21831141 -0.24961981 -0.14139
  0.1504759   0.29572707  0.04549418  0.0678182   0.00957065 -0.20317364
 -0.1465506  -0.26140934  0.0707894   0.12873898  0.12819548 -0.15147719
 -0.06477976  0.14108959  0.02545954  0.27535617]
[-0.26792404 -0.11647031 -0.24592853  0.30582833 -0.22861637  0.10735405
 -0.06365831 -0.1438053  -0.07731511  0.19829744  0.32837957  0.07175814
  0.02183549 -0.3936714  -0.2863699   0.14317298  0.06829056  0.30784822
 -0.23613878 -0.158196   -0.21244307  0.13788438 -0.31036833  0.03082459
  0.03408923  0.12638189  0.24947649 -0.06294157 -0.10129157  0.29027522
 -0.23512529  0.3136472  -0.22415854  0.03919098 -0.07519259  0.05016804
 -0.24012454  0.01098419  0.00103088 -0.35433483]
[ 0.04607701 -0.31095952  0.20394516  0.02707805  0.24702193  0.14735235
  0.29013965 -0.23455156  0.25869018 -0.29439187 -0.00921029 -0.2252101
 -0.35978228 -0.10057214 -0.17222075 -0.07674458 -0.11665729  0.01906221
 -0.22200295  0.23597728  0.2337509   0.24279208  0.2370351   0.30522385
  0.08474676  0.13089594 -0.28701496  0.02532746  0.13042186 -0.09354927
 -0.28129593  0.3353565  -0.21540721  0.20483579 -0.1926289   0.38707313
  0.02225956  0.2409621   0.30909202  0.22026516]
[-0.25175315 -0.27852663  0.3556593  -0.3022572  -0.217641   -0.04762195
 -0.11725228  0.0768785  -0.0872601   0.45637572  0.02779467 -0.06626258
  0.2633031   0.00570197  0.27319    -0.08527341 -0.1250732  -0.01931783
 -0.04268166 -0.03176142 -0.37156907 -0.1166397   0.17128935  0.11944889
 -0.10928041 -0.16100915  0.15530437  0.20616232 -0.2036825  -0.26478404
 -0.03560303 -0.07991402  0.03624155 -0.00414021  0.02990638  0.13537721
 -0.4122118  -0.05479717  0.05024347  0.33177882]
[ 0.00207766  0.18185528  0.12453894  0.06954439  0.25347215 -0.13214351
  0.14148663 -0.0504025   0.0111271   0.19147094  0.11844101  0.19113167
 -0.13670771 -0.12023947  0.17202531  0.28389668  0.08060955 -0.18251169
 -0.1808228   0.19793223 -0.4048865  -0.18765818  0.12345875 -0.03626981
  0.15585916  0.01728902 -0.4116067   0.08922758  0.10485121 -0.17382696
 -0.367879    0.04538593  0.32539576 -0.39327666 -0.24852861  0.04933223
  0.07453252  0.26506656  0.18387933  0.03735565]
[-0.06210535 -0.13890466  0.10432533  0.16685218 -0.24499533 -0.1285924
 -0.27408546 -0.16362189  0.3151172   0.15201412  0.06748999  0.18050706
 -0.3133306   0.00106215 -0.17085706  0.17696221 -0.10631268  0.08031593
  0.15615495  0.1796558  -0.08804538 -0.05867874  0.18144351  0.14995323
 -0.04793605 -0.205424    0.21149704  0.11909724  0.0915162   0.18125665
 -0.06791164 -0.01743776 -0.08885755 -0.17970368  0.31986967  0.05409046
  0.33018133  0.18997881 -0.14223817 -0.07928348]
[ 0.34823814  0.06645554 -0.03083622 -0.16699655 -0.14863844 -0.26763743
  0.15322565 -0.09749889 -0.13557088 -0.44750232  0.02631604  0.19546922
 -0.23689862  0.04404367 -0.32088944 -0.23723406 -0.01265565  0.28304097
  0.0329656  -0.08880268 -0.0345364   0.14356536  0.27890083  0.03458235
  0.14861676 -0.06152146 -0.17978866 -0.29504126 -0.13150129 -0.13213885
  0.31855646 -0.31730735  0.07677243  0.1767138   0.21854638  0.07559805
  0.13961293 -0.02248926  0.05811421 -0.21490906]
[ 0.04149793 -0.12130979  0.0804859  -0.10980818  0.33850262  0.1283061
  0.2497922  -0.02433123  0.30053908  0.0162147  -0.01587542 -0.02703817
 -0.20771664  0.02358524 -0.29009372 -0.22807452 -0.3079162  -0.06186459
 -0.16195838  0.2890288  -0.13220923  0.3476271  -0.21141264  0.11496337
 -0.04772111 -0.43882     0.17341557  0.11933289  0.0571793   0.24246888
 -0.21791165  0.10129231 -0.16601583  0.35818884 -0.2772701  -0.34838015
  0.24643299  0.14718713  0.3172881  -0.07943232]
[ 0.16699353  0.18897882 -0.3164697  -0.07684834  0.13911341 -0.10379434
  0.21826237  0.08465391  0.1277327   0.05010122  0.13517745 -0.02848022
  0.0024397  -0.2517147  -0.27762207 -0.00801239  0.23658168  0.28415197
  0.31029177  0.2918255   0.09457556  0.09490585 -0.09394259  0.21181923
  0.20523067 -0.07151796  0.07845566 -0.15012866  0.16777515 -0.18650849
 -0.0804949   0.10564603  0.05720019  0.27976584 -0.16278674 -0.16060138
 -0.03311579 -0.19239756 -0.23250674  0.25292176]
[-1.6877787e-01 -5.1460671e-01 -2.3596555e-01  3.1384760e-01
 -2.4404454e-01  1.4606144e-01 -1.5955785e-01  2.2230195e-01
 -7.9217955e-02  1.9361016e-01  6.7699417e-02 -3.5575798e-01
 -3.7343732e-01 -1.2525280e-01 -2.1496933e-02  1.1311213e-01
 -1.5545736e-01 -1.8250866e-01 -2.1338648e-01 -1.2380650e-01
  2.9245170e-04  3.2104564e-01  2.7752319e-01 -3.2045761e-01
  2.8700542e-01 -1.9274148e-01 -2.0424552e-01  3.5900768e-02
 -2.1215008e-01 -1.3382302e-01  3.1851497e-01 -2.9005665e-01
 -1.6174039e-01 -5.9996512e-02 -9.6038468e-02  3.4387201e-01
  7.8831196e-02  8.0290340e-02  8.0725595e-02  2.8472096e-01]
[ 0.00260881  0.15719068  0.26432386  0.03965947  0.2631218  -0.05970561
 -0.08628879 -0.07847271  0.00533206  0.39989543 -0.01246925 -0.01080949
  0.31144142  0.31842425  0.31586245  0.18255486  0.10868511  0.14648679
 -0.15333237  0.2139451  -0.16001037  0.19800867 -0.08804832 -0.17027147
  0.05744166 -0.16643323 -0.19731766  0.16657376  0.06407757 -0.14846916
 -0.33225974  0.0918014  -0.1709445  -0.32009685  0.33001444  0.191566
 -0.0455103  -0.06974508 -0.24181591 -0.1429974 ]
[-0.00305269  0.0654947  -0.01685846  0.0267369   0.04414754 -0.06475036
  0.00856187  0.04571726 -0.05123518  0.08371608 -0.01740392 -0.01656687
  0.04959783  0.0567284   0.07593657  0.04673434  0.0631654  -0.02443304
 -0.02082158 -0.03753261 -0.01587248 -0.02309693  0.02554533 -0.03477231
  0.04511084  0.06958582 -0.0747689   0.03801573 -0.08532591 -0.02330996
 -0.01247271 -0.08952831  0.00485969  0.03310387  0.08015516 -0.07351995
 -0.06277764  0.03250579 -0.01928956 -0.02234175]
layer 3 Activation
tanh
layer 4 Dense
40 20
[-0.14812717  0.2402392  -0.14584775 -0.11953689 -0.08795196 -0.22939919
  0.06048322 -0.03329412  0.0688601   0.11669815 -0.22322051  0.19539179
  0.07702481 -0.0096504  -0.19110988  0.03423198  0.22929525 -0.25438157
 -0.22727843  0.08295438]
[ 0.09716357 -0.0891286  -0.07282916 -0.24559754 -0.24376036 -0.05778609
  0.1406949   0.10052831  0.13904849 -0.24989197  0.33118197 -0.14002939
 -0.20797549  0.05113211 -0.2878076  -0.07810499 -0.07849038 -0.31554365
  0.3426088  -0.27492154]
[-0.17014861  0.2522383  -0.28492594  0.06935015 -0.05816035 -0.1633889
 -0.22650759 -0.2051246  -0.28215098  0.2619227   0.22382878  0.2600716
  0.02523825 -0.06025876 -0.30721796 -0.1052397   0.1688304   0.11948558
 -0.04669121 -0.01246206]
[ 0.13315289 -0.12071386  0.18699193  0.21633533 -0.00332751 -0.08372819
 -0.02414973  0.31932497 -0.16236113 -0.1205391  -0.18702751 -0.3778918
  0.04668329 -0.14851408  0.16691183  0.23307545  0.20339866 -0.3230444
 -0.00765795 -0.07362654]
[ 0.07878121  0.25577784 -0.19646974 -0.17296052 -0.11955997 -0.2557452
 -0.17161627 -0.39823675 -0.07527591  0.12356223  0.27172962 -0.08627132
  0.14808133 -0.20101117 -0.45049772 -0.37550288 -0.22600155  0.15195388
  0.2670997   0.05518913]
[ 0.02440871 -0.2226965  -0.1091513   0.07463996 -0.15921375  0.17182575
  0.18755381  0.05904843 -0.12761919  0.26850107 -0.19630238  0.03927323
 -0.00697908 -0.05112981  0.15240273  0.23761763  0.04250002 -0.31021094
 -0.2688176   0.08682259]
[-0.17429768 -0.27128974 -0.10720903 -0.09109343  0.07016558 -0.2418861
  0.00667396 -0.02667192 -0.15805909 -0.2039515  -0.09123904  0.28448775
 -0.13795754 -0.0005207  -0.0384994   0.30402014  0.11124447  0.27822888
  0.03247228  0.13827793]
[-0.14388198  0.2888161  -0.18342826  0.00668076  0.26934662 -0.3114594
  0.09346401  0.11084316 -0.04352045  0.07423392  0.2031708  -0.2421334
 -0.17160827  0.03875789 -0.18765888 -0.23525544  0.07030696 -0.09857605
 -0.13359937 -0.21823652]
[-0.3451771   0.2528384   0.05268843  0.10882192  0.19018951  0.2751927
 -0.2699494  -0.20516834  0.32014725  0.199214    0.00972781  0.27900162
  0.18108912 -0.03579168  0.19265667  0.18760031 -0.12241682 -0.2057341
 -0.08340247 -0.219218  ]
[-0.34461498  0.23221879  0.23191781  0.19418848 -0.30623484  0.05786439
  0.11591215 -0.32755107 -0.27999133  0.27158278 -0.11286288 -0.07006294
 -0.03444763 -0.03965612  0.24772279 -0.17658024 -0.33939195 -0.28028023
  0.09033857  0.2864727 ]
[ 0.19844534  0.01697545 -0.02900718  0.1748567   0.21667734  0.20621893
  0.20892808 -0.20449008 -0.22909637 -0.16697377 -0.1669619  -0.00344843
 -0.28473344  0.27510986  0.16728155 -0.21970353 -0.27365357 -0.18684924
  0.32862845 -0.06251884]
[ 0.3180213  -0.16434875  0.22158884 -0.12610771 -0.18889786 -0.02307292
 -0.19812755 -0.1602654   0.1837956  -0.3009216  -0.30539173 -0.2820621
 -0.1614335   0.24940394 -0.16239084  0.17259525  0.04804611  0.1987448
  0.27597943 -0.20893283]
[-0.35417327 -0.16034064 -0.07629213 -0.17469907  0.03871598 -0.19041717
  0.08563979 -0.01313282 -0.29360378  0.10677756  0.11849234  0.00405947
  0.25377023  0.18947823  0.1760594  -0.24884656 -0.0006692   0.12113341
  0.28280511 -0.18486954]
[-0.34731707  0.25536996  0.13093416 -0.14922771 -0.09612235 -0.1502466
  0.2640861  -0.22591983 -0.00189667 -0.01330288  0.13790835 -0.21969818
 -0.20300722 -0.17959696 -0.10285389  0.19433591  0.00225226  0.07053785
 -0.21920013 -0.13994867]
[ 0.03705163 -0.01794531  0.30622694 -0.20987734 -0.34180534 -0.04076062
 -0.29137334 -0.26527795 -0.24697961 -0.20296146 -0.04879901 -0.09864543
 -0.09559477 -0.25704014  0.10066294  0.2107628  -0.19157746  0.25002944
  0.25740206  0.00135475]
[-6.3569628e-02 -1.2284554e-01  1.7060792e-01 -1.9576238e-01
 -3.6092922e-01  1.3963382e-01 -2.0223647e-01 -3.0786735e-01
 -2.6472208e-01 -2.4842930e-01  1.9742578e-02  5.5698067e-02
 -2.3446210e-01 -1.7590122e-01 -3.7952664e-01 -2.0692202e-01
 -3.0471763e-01 -1.9163531e-04  2.0437771e-01  1.8711171e-01]
[ 0.01758684 -0.04324109  0.12399983 -0.15978998  0.28342786  0.17452937
 -0.27754834 -0.11357897  0.09284164 -0.35708338 -0.11652897  0.03353375
  0.18087013 -0.28357953 -0.00940935 -0.2832509  -0.19953969 -0.19269441
 -0.07254065  0.23203246]
[-0.1142998   0.0574881  -0.30251384 -0.05861522  0.21101369 -0.05484303
 -0.1558945   0.05909677  0.13098869 -0.16091742  0.04581165 -0.20619877
 -0.27033445  0.0982326  -0.12873822  0.29569185  0.36059693 -0.18941598
 -0.12566477  0.11989734]
[ 0.10365961 -0.04747671 -0.1806112   0.2508827  -0.02518546 -0.06766268
 -0.29523364  0.0726639   0.36933085  0.19234927 -0.11120861  0.35351658
  0.06312313  0.00250401 -0.17119256  0.10145464  0.18315487 -0.28976384
  0.21972494  0.22073436]
[-0.26388618  0.13761471 -0.3037473  -0.02753976  0.17741837  0.13990262
  0.03143741 -0.32574558  0.21916296  0.18370965 -0.1660899   0.14402777
  0.17767318  0.16667005 -0.04076225 -0.28896588  0.32400566 -0.20262185
 -0.05480555 -0.11174265]
[ 0.20005845 -0.2593454  -0.13808748  0.02914894  0.06747411  0.14167881
 -0.04933028  0.23583417 -0.15151156  0.07529382  0.03997392  0.10640073
  0.13467956 -0.15111563 -0.01236171  0.10720072 -0.15179178 -0.05103128
  0.10313192  0.17918263]
[ 0.00402479  0.23718531 -0.3735486   0.0155106   0.05525085  0.12996334
 -0.14069879 -0.20567507  0.29497007  0.2507489   0.21140236  0.23871914
  0.17833798 -0.18199274 -0.3013682   0.01495774 -0.04737462 -0.31145117
 -0.24129033  0.03869074]
[ 0.31278777  0.01909554 -0.22627822  0.01208003 -0.16005415  0.23758002
  0.21463576 -0.3626773  -0.2576296  -0.16902034  0.25106364  0.29067242
 -0.23521796 -0.26140377 -0.25396234 -0.02895995 -0.17765929  0.01453084
 -0.2327196   0.11598035]
[ 0.25903532  0.24635504  0.26146573  0.09035823 -0.02540987  0.18218733
  0.2047542   0.28312978 -0.22093852 -0.24884789  0.1557005  -0.04485093
 -0.01241154  0.00699171 -0.05041558  0.27589598  0.2196169   0.1149165
  0.1880637   0.04006141]
[ 0.20931436 -0.02745534  0.03102394 -0.190202   -0.00514743  0.05049973
  0.18427184  0.14806701  0.01984428 -0.20498683  0.1996335   0.08699562
  0.01659607 -0.23924577 -0.2368477  -0.2429321  -0.01006413  0.07712442
 -0.04066987  0.2635158 ]
[ 0.3125703   0.18157041  0.00986336 -0.19221349  0.04927149  0.24663827
 -0.15494451  0.16711408 -0.18368009  0.06399772 -0.16856952 -0.23898093
  0.11379299 -0.11087988 -0.04589166 -0.06045531 -0.08824217  0.18875088
  0.05104486  0.13586254]
[-0.06599724  0.25427395  0.06577735  0.15516764  0.21437944  0.20041429
 -0.2515405   0.23467833  0.3556161  -0.07256384  0.06032829  0.24188043
 -0.01350274  0.23480992  0.24959436 -0.09128411  0.01768888 -0.17149828
  0.2953298   0.23059058]
[-3.1155407e-01  5.2855024e-04  3.6866890e-04  3.3248480e-02
  1.8012400e-01  2.8931286e-02  1.8737037e-01 -1.9329776e-01
  2.9987389e-01 -2.0950659e-01 -8.2103260e-02  3.7288693e-01
  2.4413465e-02 -2.7714887e-01 -1.2958160e-01  1.2231200e-01
 -2.5355396e-01  6.6134177e-02  2.8375876e-01 -1.9391388e-01]
[-0.01397416 -0.24093227 -0.03182998  0.07279272 -0.18070146  0.1584194
 -0.12765673 -0.10614888  0.06831452  0.1763711   0.16424637  0.18829292
 -0.12912276  0.1686394  -0.05054865 -0.12217002 -0.07022888  0.22221814
 -0.12976897 -0.13506222]
[-0.22342043  0.04907016 -0.04652797  0.35138282 -0.02626981  0.23822351
  0.27261502 -0.07177121 -0.1550205   0.09722261  0.25280997  0.23591395
  0.15333597  0.19411118 -0.17693737  0.15110502 -0.1759698   0.07590608
  0.00536793 -0.02841418]
[ 0.26574212  0.11965271  0.09245935 -0.21375541  0.19204426 -0.06666766
  0.21083723  0.3229163  -0.13582152 -0.29101077  0.07976238 -0.18011715
  0.04498402  0.02630805 -0.05190037 -0.27865848 -0.12601349  0.3041243
 -0.19062692  0.2222946 ]
[ 0.02092994 -0.23190324  0.1597212   0.32967323  0.00161358  0.15917625
  0.03767718  0.09645329  0.31340826  0.07578341 -0.12812269 -0.09589082
  0.05174496 -0.11513841  0.19836444 -0.03573544  0.07350088 -0.13989164
  0.16123039  0.19959114]
[-0.2682589  -0.00351669 -0.13447002 -0.18913469  0.02420249 -0.18879755
  0.12169703 -0.25326893 -0.36097085  0.04513454  0.13562341 -0.04111749
 -0.03218173  0.09387738  0.2601794   0.09340819  0.29431722 -0.11447489
 -0.29978278 -0.28266272]
[-0.03426859  0.252997   -0.28620282 -0.28544155  0.12931366 -0.0705152
 -0.17553198  0.27924436  0.14305307 -0.04175879  0.15056017  0.15285681
  0.03512554  0.29921344  0.03172129  0.17414297  0.16265191 -0.24206117
  0.10996948 -0.29960164]
[ 0.19375506 -0.14834066  0.36724287 -0.08383842 -0.22715393  0.10811551
 -0.2407847  -0.04229835 -0.05562108 -0.0791749  -0.33964133 -0.2946325
  0.19520429  0.03531331 -0.06680445  0.30418572 -0.04832841  0.08332097
  0.10022841  0.26934436]
[-0.10285432  0.2677359  -0.08449371  0.1693722  -0.17794093 -0.28969863
  0.07487283  0.22138901 -0.23519775  0.30222255  0.19727695 -0.1397368
  0.21249738  0.10773885  0.05357211 -0.22922859  0.18375076 -0.23885791
 -0.34645966  0.14884397]
[ 0.10815983  0.09868839  0.30498192  0.16650473  0.22473614  0.37357694
 -0.06088039  0.3989853   0.09215706  0.14539436  0.14504853  0.17411625
 -0.01254508 -0.10215358 -0.1329335   0.2387141  -0.19696677 -0.00320307
 -0.10013318 -0.31414053]
[ 0.0382207  -0.00344375 -0.13203615 -0.00724503 -0.25837028 -0.03561483
 -0.16018423 -0.32176778 -0.06646129  0.2602007  -0.21240567 -0.08372542
  0.14221522 -0.1234819   0.10815842 -0.04275246 -0.08566498  0.13615942
 -0.13515297 -0.09309887]
[-0.23395947  0.0886848  -0.31905368  0.18825833 -0.10676333 -0.1346889
  0.32723334 -0.14031775  0.34563625  0.40044883 -0.1680546   0.16937257
 -0.09664564 -0.20775275 -0.17761108  0.2801677   0.23137005  0.22640622
 -0.16820356  0.22330412]
[ 0.06692557 -0.27323964  0.04494314 -0.25444394 -0.16085474 -0.15759157
 -0.2350839  -0.2800587   0.19628704  0.36124006  0.15283112  0.20843212
 -0.10718237 -0.27897272  0.25330064 -0.23047878 -0.19101265 -0.14814778
  0.03379598  0.12101647]
[-0.05420783  0.00836237  0.00134855 -0.0067519  -0.04007703 -0.0260898
 -0.02284449 -0.0375212  -0.06491265 -0.06843261  0.01091635 -0.03853798
 -0.01158729 -0.02097957  0.00450937 -0.03186585 -0.03137852 -0.03923796
  0.02302394 -0.015031  ]
layer 5 Activation
tanh
layer 6 Dense
20 1
[-0.10549539]
[0.00902628]
[0.14526448]
[0.32842728]
[-0.04396768]
[0.10421128]
[-0.01472481]
[-0.03540545]
[-0.13212642]
[-0.06160636]
[-0.00936558]
[-0.12925163]
[0.0033561]
[-0.37733948]
[-0.05910663]
[-0.05288651]
[0.3356936]
[0.00106127]
[0.20841527]
[-0.0750584]
[0.02951814]
