layers 7
layer 0 Dense
20 20
[ 0.3938575   0.01591304  0.3948052   0.2974457   0.12668388  0.07081914
  0.2779881   0.34955534 -0.12267666 -0.415298   -0.32055637 -0.3727899
  0.17895728  0.09618527 -0.2022659  -0.04240902 -0.4283873  -0.12274311
 -0.17771532 -0.10131223]
[-0.4041604   0.1141001  -0.0809478   0.03634233 -0.22493039 -0.09022141
 -0.10928311  0.2108301   0.09685493 -0.31973097 -0.19877252 -0.30871862
 -0.23395416 -0.2706461  -0.04039557 -0.59833884  0.1427868  -0.04753645
 -0.20946342 -0.18235786]
[-0.36987656  0.12726519  0.44036657  0.31475767 -0.04392218  0.03647697
 -0.30796984  0.42204788  0.29324642 -0.12785138  0.18373673 -0.19341189
  0.01857551 -0.04003257 -0.06436983 -0.057836    0.36145878 -0.00434238
 -0.16077456 -0.39147455]
[-0.28128412  0.3283009   0.38369521  0.34388497 -0.17587556 -0.08421627
 -0.1568347  -0.12239497  0.39354786  0.12447069  0.31077185  0.32699332
  0.11274234  0.3947297  -0.22211249  0.13572335  0.05672759  0.1502362
  0.24465732 -0.2142065 ]
[-0.03590854  0.07845517  0.13917935 -0.07946998  0.16665746 -0.3383907
 -0.16046986  0.29970175 -0.17375223 -0.09150644 -0.17659192 -0.26823413
  0.06379667  0.00145265 -0.33497185  0.31196082 -0.00205364  0.28511378
  0.11676959  0.18450059]
[ 0.17077474 -0.07717092 -0.27464944 -0.32934305 -0.18474977  0.3601459
  0.04942221  0.2415937   0.20332232  0.00830393 -0.31054857  0.18176857
 -0.23023808  0.3954702   0.21871436  0.5851876  -0.07222968 -0.1525799
  0.12779003 -0.06563786]
[ 0.39787212  0.13431813  0.24296905 -0.1457147   0.04904762  0.30427858
 -0.16958012 -0.13724883  0.18350172 -0.01898018  0.03376786  0.08468311
  0.1528762   0.00602567  0.28644744 -0.01761304  0.04208548 -0.12890859
 -0.02306725 -0.08434619]
[-0.36464617  0.31666976 -0.10327213 -0.3215779   0.11355891  0.0816748
  0.27933383 -0.47573295  0.05621376 -0.01999469 -0.28398034  0.07840268
 -0.15035349  0.19884273 -0.14161927  0.3649433   0.3615343  -0.35671458
 -0.37279186 -0.31292823]
[-0.03252343 -0.06533006  0.1689438  -0.34569117  0.18747738  0.17013766
 -0.19604602 -0.03022697 -0.33674127  0.36557728 -0.09922226  0.04485212
  0.41923997  0.04717039 -0.04282137  0.34889537 -0.03182562 -0.1333787
 -0.22261932 -0.02041208]
[ 0.22338489  0.37381324 -0.21699423 -0.41475946 -0.0273449   0.3308833
 -0.195076    0.02449626  0.007397    0.17739119 -0.00784134 -0.38753432
  0.19394939 -0.34052896  0.05901796 -0.35114196  0.0234965   0.23637128
  0.16466616 -0.01012974]
[-0.2566735  -0.03534138 -0.29402643 -0.07643794 -0.2853543   0.08699826
  0.19235447  0.10767078 -0.15966663 -0.16675335  0.26539013  0.09727049
  0.16621695 -0.17886199  0.20739281  0.24071535  0.1273306   0.24179634
  0.30387634  0.18983601]
[-0.14127193  0.25814426 -0.1545337  -0.38284636  0.03142258  0.11854342
  0.36450598  0.0351237   0.04917926  0.20786232 -0.09065918  0.28380626
  0.2994421   0.10823572  0.19256084 -0.16107433 -0.49258476  0.24080513
  0.17494313  0.39943174]
[ 0.02659426  0.17337246 -0.17018093 -0.07818508  0.25872427  0.22126754
 -0.37120238  0.07650567  0.22877578  0.35103855  0.15959032 -0.38647664
 -0.43732888  0.37361002  0.11662114 -0.08643258 -0.25824416  0.03242731
  0.00509777 -0.22891903]
[-0.21172878  0.30365312 -0.0747719  -0.34592792  0.4951874   0.23775916
 -0.0584972  -0.16327398  0.01795129 -0.39601567  0.09460984  0.29477483
  0.08040313 -0.17393534  0.35221162  0.05903498 -0.04403695  0.10497793
  0.22078495 -0.31671935]
[-0.14012596  0.21519113 -0.03058608 -0.24441454 -0.27056018  0.39914477
 -0.08776546  0.26376393  0.03475621  0.09729597  0.02334233 -0.1676174
  0.18591842 -0.4658152  -0.1809296   0.00144121  0.14995876  0.12966217
 -0.08690456 -0.11456507]
[-0.21853036  0.1405753   0.19032902 -0.00521969  0.18798745  0.04379096
 -0.08112995 -0.11484382  0.02943777 -0.4780371   0.04677125  0.05464225
 -0.3888641  -0.14618357 -0.10629679  0.1435246   0.01520433  0.17778732
  0.12984787 -0.41283706]
[ 0.22786461 -0.15878767 -0.39112186  0.09066601 -0.19292071  0.20340285
 -0.08045134  0.2651223   0.1898555  -0.02004451  0.34196666 -0.10272644
 -0.2795391  -0.43977654 -0.3461454  -0.30044985 -0.16929974 -0.17015494
  0.01307036 -0.23044182]
[ 0.21374416 -0.50189996 -0.04598656  0.21743084 -0.38443354 -0.22521782
  0.04619581 -0.31931418 -0.06948155 -0.0426398  -0.21816863 -0.13902098
  0.29017067  0.4650458   0.10124898  0.38688385 -0.06979843  0.05450395
  0.07882018  0.12670256]
[ 0.07149857 -0.0175984  -0.15295562 -0.20709436 -0.22785902 -0.33425072
 -0.1937611  -0.26871407 -0.27807367  0.13373019 -0.04304878  0.08184704
  0.04073786 -0.16520819  0.11393123 -0.01118076 -0.19550078 -0.27722082
 -0.20839478  0.09530468]
[-0.03451722  0.16033608  0.04025975 -0.11518107 -0.11794708 -0.0546614
  0.03369439  0.08698978  0.07884692 -0.22538848 -0.3039374   0.00942716
  0.3058192  -0.26833588  0.18648838  0.05249752 -0.08682191  0.05740713
 -0.20125794  0.1797045 ]
[-0.13538837 -0.03176897  0.06448621 -0.0405773   0.03252537  0.16091505
 -0.01514224  0.1312874   0.00823839 -0.14668718 -0.02400903 -0.05969543
  0.01998444  0.06872753 -0.10110413 -0.01863357 -0.06007649  0.00805199
  0.00030683 -0.03330297]
layer 1 Activation
tanh
layer 2 Dense
20 40
[-0.25076917  0.21181284  0.11712063  0.04418418 -0.2473526  -0.11091384
 -0.21944301 -0.00143722 -0.14354149  0.00466741  0.21681054  0.08154692
 -0.03805746 -0.29229197  0.29202613 -0.23489453 -0.30284885 -0.24520253
  0.18749256  0.08813867 -0.19716913  0.02889995 -0.24799372  0.03812007
  0.15442039  0.11364519 -0.12544565  0.06598026  0.25381047 -0.15596177
  0.07047667 -0.01572344 -0.14278515 -0.26706707 -0.17931214  0.12392589
 -0.3041996   0.12382235  0.22060774 -0.00926991]
[ 0.05042465 -0.03662962  0.16125688 -0.16806711  0.29442534 -0.18684432
  0.17158534  0.18350293  0.03826634 -0.18845022 -0.12794358 -0.14932466
 -0.06185111 -0.06312898 -0.05420529  0.20506713 -0.01044182  0.23621793
  0.0398303  -0.05605695 -0.01233754  0.20919931  0.34540907  0.18949534
  0.07914754  0.03365609  0.1333234  -0.13590741 -0.12535265 -0.11347383
 -0.01260494  0.13214633  0.29373223 -0.12412295  0.33847484 -0.14320521
  0.02494495  0.32064697  0.00626076  0.26318637]
[ 0.10868766 -0.19632693 -0.23537213  0.01746141 -0.13651653 -0.06480729
  0.01480021 -0.17348374 -0.05514954  0.35441098  0.04328481  0.18021977
 -0.12027304  0.25759837  0.14228895  0.04344574 -0.15259287 -0.04912612
  0.36564592  0.0976625  -0.28729013 -0.26232326 -0.08021104  0.22047204
  0.04074423  0.11997551  0.22389358  0.02225089  0.26380342 -0.29640275
  0.01590119  0.06554438 -0.14868304  0.34669492  0.3709033   0.02464554
 -0.27035674 -0.09161335  0.14684355  0.14502369]
[ 0.16031416 -0.13836922 -0.13779767  0.05752501  0.05240912 -0.17170937
 -0.19494297 -0.1720248  -0.24301931  0.03218846 -0.01895653 -0.22502218
 -0.16592705 -0.04093283  0.02231235  0.02043072 -0.2567052   0.10778713
  0.28757802  0.08125115  0.19400316  0.14475287  0.19502293  0.12882127
 -0.15491444 -0.07677841 -0.22461206 -0.01925935  0.2680249  -0.01571923
  0.09089194  0.22414894 -0.27936095  0.2856996  -0.16537252 -0.03182283
 -0.02333419 -0.2938681   0.17556457 -0.0899115 ]
[ 0.28854913 -0.11451354  0.09841291 -0.21378642 -0.0469051  -0.02913741
  0.01110278 -0.12928359 -0.05873163 -0.19833112 -0.01256013 -0.13386998
 -0.20862281 -0.03412592 -0.13103043 -0.08619312 -0.1965247  -0.21417762
  0.12188127 -0.30280858 -0.25073478  0.07427827  0.15446712 -0.17894654
 -0.33176842 -0.12437178 -0.10345618  0.03211974  0.06424207  0.08427185
  0.08154958  0.20198387 -0.16416983 -0.03498022  0.21640596 -0.08979836
 -0.2660791   0.16562805 -0.03386652 -0.2924709 ]
[-0.0813306   0.28272834  0.1897456   0.32682356  0.17636089 -0.22162633
  0.10426697 -0.10089156  0.15786019  0.00144079  0.07425795  0.01591088
 -0.09008245 -0.18447973  0.07166789 -0.08965734  0.14100707 -0.2448279
 -0.19244595  0.09774654  0.04550724 -0.28196245  0.27304357 -0.2579611
 -0.19746892 -0.19137062 -0.07162318  0.14598624 -0.06105737  0.12421642
 -0.25069827 -0.25922167 -0.1441582   0.15283342 -0.03093903  0.23086396
  0.00610142 -0.28553608  0.03502081 -0.07771923]
[ 0.07193498 -0.06672413 -0.10934537 -0.29666045  0.14245333 -0.12101866
  0.25986663 -0.1401261  -0.17783289  0.06762494  0.27135673 -0.29403484
 -0.11128125 -0.19831522  0.251927    0.2671852  -0.13915826  0.20649369
  0.2947929  -0.04768387  0.3008446   0.18063807 -0.19100988  0.12625861
 -0.01891268 -0.26429218 -0.03528386  0.2108651  -0.03365495  0.11083498
  0.14916722 -0.22473557 -0.06359004  0.06977625  0.06341796 -0.02958184
  0.08161914 -0.03043723  0.04709014  0.02569013]
[ 0.2718974   0.13491029  0.07962488  0.19420479  0.09339984  0.27732077
  0.11527042 -0.21054204  0.13391571  0.20004803 -0.11083407  0.41785425
  0.38495928  0.08861818  0.16857359  0.12957615  0.02122892 -0.00874183
  0.31721228 -0.310694    0.23846231  0.10720267  0.0982915  -0.02767983
 -0.11417937 -0.2282635  -0.20467113 -0.0028341  -0.07221948 -0.00200147
 -0.10951594 -0.26672366 -0.1284092   0.01564859  0.2376154  -0.18179482
 -0.25665754 -0.05156896  0.1062926   0.21714142]
[ 0.22371173  0.2935284  -0.10400412  0.21076569 -0.10339288  0.06132184
  0.15126698  0.28069615 -0.18767169  0.14614163 -0.0898732   0.03921468
 -0.05990561 -0.05172548  0.17692097 -0.26890302  0.16028203 -0.22286494
  0.20867017 -0.05539876 -0.06029854 -0.0638733   0.19423768 -0.3024234
  0.04470063  0.12089226 -0.12901422  0.08965969  0.21973756  0.1237716
 -0.32539043  0.03939293  0.08049268 -0.23210557  0.1725454   0.066924
 -0.13826245 -0.3262136   0.32029542 -0.15888155]
[-0.10887849 -0.0822193   0.03790202  0.2850336   0.23793405  0.16120636
  0.05802948 -0.11760244 -0.26009753  0.23399633 -0.10381222  0.01878425
 -0.31078434 -0.1808814  -0.02965875 -0.18659702 -0.3403476  -0.12771252
 -0.10552335 -0.00900301 -0.05537105  0.09890775  0.02946042  0.28092116
  0.29593736 -0.10890797  0.0479765  -0.29016545 -0.14697906  0.28326702
  0.31993413  0.2580428  -0.20484309 -0.17578797 -0.03383398 -0.22227876
  0.07621354  0.272221   -0.02596908 -0.05015546]
[-0.062398    0.05023411 -0.14146395  0.28974643  0.33371183  0.0258814
 -0.04161223 -0.10097399 -0.10681706  0.2567301   0.25931624  0.18914373
  0.10025325  0.29381365  0.27392647 -0.26451498 -0.17587402 -0.26779994
  0.23372757  0.06458896 -0.22171845 -0.10039793  0.27190572  0.24279426
  0.13975935 -0.00340263  0.23385002  0.18097734  0.26927045 -0.25979155
 -0.01833955 -0.28231344  0.16062936 -0.08091242  0.01812566 -0.08831156
  0.218694   -0.13947852  0.19103628 -0.07512262]
[ 0.09561864  0.06543345 -0.2586301   0.01594307  0.16527914 -0.14776458
 -0.20422027  0.39487606 -0.0102421   0.04256978 -0.2516292  -0.25569427
  0.19768173 -0.13245903 -0.21837735  0.11082796 -0.15338913 -0.1251365
 -0.16217564  0.18198298  0.12939876  0.11243149  0.32194316  0.17106576
  0.14458816  0.14449693 -0.00185234  0.23124279  0.11702406 -0.08425449
  0.19256702 -0.01986502  0.11628645  0.28412747  0.12326258  0.28811076
 -0.16816796  0.2971522  -0.10226821  0.23377118]
[ 0.17798826  0.23662609 -0.2847647   0.19085824 -0.02298119 -0.05027216
 -0.22033311  0.33024958  0.1239758   0.23028779  0.074747   -0.08292831
 -0.0313461   0.12381971 -0.14208241  0.1848167   0.28117886  0.06164625
  0.23518813  0.09350955 -0.08879555  0.17384452 -0.18540938 -0.17042798
 -0.23866886 -0.2789236   0.15421705 -0.11489181  0.06263513 -0.07536406
  0.17418876 -0.16823992 -0.38857365  0.2415103  -0.12115049  0.12706695
 -0.26877093 -0.18806073  0.10310867 -0.021446  ]
[-0.08378297  0.02054393 -0.15237087 -0.2541157  -0.21944934  0.12877408
 -0.17247583 -0.1699935  -0.10171367 -0.03566803  0.16341749 -0.11670892
 -0.15045723  0.04941924 -0.17911963 -0.23824304  0.25145003  0.16328295
  0.04803166  0.22200362  0.24868914 -0.04274148  0.01042668 -0.1412822
 -0.22343856 -0.2953835   0.14878954  0.23488802  0.21210371  0.03096733
 -0.2770733  -0.26498172  0.05088926 -0.14212479 -0.05706429 -0.00378865
  0.029908   -0.3326013   0.1688814   0.2559477 ]
[-0.18790066  0.12645036 -0.05087599 -0.36405703 -0.10286976 -0.06772582
 -0.18145943  0.25470442  0.23578012  0.12193211 -0.10139164  0.01421678
 -0.2859104  -0.07487036  0.27451357 -0.19775487  0.00855886 -0.09163232
  0.0067848  -0.09602288  0.20403579  0.35717058  0.16211766 -0.18614002
  0.01427757 -0.0289168   0.06062305  0.16459292  0.25706214  0.2834651
  0.32135463 -0.13786428 -0.01452755  0.22366439 -0.18156603  0.16053927
  0.12008311 -0.01114593 -0.22737494 -0.08426789]
[ 0.21222234 -0.08286462 -0.27048543 -0.09053449  0.02303833 -0.16009337
 -0.2839774   0.21737926 -0.03705139 -0.11013243 -0.08456578  0.01017143
 -0.14193873 -0.05955118 -0.12450887 -0.11683322 -0.3236161  -0.19001661
 -0.09001802 -0.2184835  -0.02219122  0.10833049  0.09211017  0.1354225
 -0.1982474  -0.12591894  0.29861203  0.13190116  0.04633527 -0.15328112
  0.14108841 -0.04881934  0.16146187  0.07920478 -0.34440085  0.08237534
  0.226824    0.29979262 -0.03022105  0.17552333]
[-0.05175498 -0.13161844  0.10950074  0.16321383 -0.30258378  0.10237248
  0.07088356  0.19437443 -0.07389847  0.06803022  0.14136013  0.23274961
 -0.02080119 -0.00806073  0.29043758 -0.04132799  0.1324445   0.21075775
 -0.20044854 -0.18651427  0.17014404 -0.01396501 -0.23612328 -0.21633321
  0.09376401 -0.15645598  0.12762052  0.02934165  0.05775574  0.21551716
  0.04517273 -0.1714245   0.06323487 -0.28770518 -0.2899747  -0.29440576
 -0.30514285  0.24722765 -0.2512262   0.23495199]
[ 0.05957817 -0.20824082  0.28149214  0.29013568 -0.03696904 -0.07939772
  0.08587275  0.17872411  0.25955904 -0.24541295  0.17217688  0.05991557
 -0.15198368 -0.18379785 -0.16523062 -0.04116579 -0.16652316  0.10946018
  0.3123768   0.0869012  -0.1683598  -0.15525141  0.06357364  0.23863035
  0.24197608  0.02620482  0.25447387  0.14120866 -0.04939248 -0.27085248
 -0.01721827  0.21575096 -0.14584135 -0.21220204  0.43963113  0.24345249
  0.13870698  0.02148387  0.3619748   0.12025032]
[ 0.05815039  0.00525586 -0.16548356  0.21754979  0.15258248 -0.30285347
  0.12497999 -0.30802518 -0.00713067  0.16538185 -0.08643729 -0.20301664
  0.1059444  -0.0661042  -0.11209267 -0.03708717 -0.0377212   0.11815242
 -0.24469382  0.2523755   0.02109487  0.29531828 -0.22044097  0.28843656
 -0.00960136  0.08482885  0.16093925 -0.01112872 -0.13722044 -0.06254391
  0.15857558  0.13932331 -0.00186081  0.02256541  0.30914912 -0.15715015
 -0.12563328 -0.2723682   0.34399617  0.24491434]
[ 0.2854959   0.13254057  0.21595119 -0.11251691 -0.05795239  0.13776527
 -0.06939904 -0.0008415   0.09659015 -0.13849372 -0.17846411 -0.06122704
 -0.01808295 -0.22162744  0.06669356 -0.00485908 -0.06555835 -0.03011035
 -0.29217586  0.18358459 -0.24382944  0.26278967 -0.18445142  0.17607667
 -0.08762949  0.1462401  -0.01556133 -0.27689353  0.03065525 -0.18957281
 -0.06020588 -0.299845   -0.25613996  0.04742436 -0.22257753  0.05634569
  0.0917838   0.05148625 -0.05109062 -0.06165115]
[ 0.01728126  0.02569878 -0.00120074  0.00089942  0.04854107 -0.02713515
  0.01493497  0.02165311 -0.02028173  0.00075612  0.00331509  0.03108641
 -0.03001553  0.02861899 -0.01338129 -0.01917644 -0.00488984  0.00577409
  0.0709242   0.0097111   0.00532899 -0.04484443  0.00859686  0.00421972
 -0.01604944 -0.00260576  0.02071582 -0.01873332  0.01432568 -0.01183222
 -0.07858844 -0.03270511 -0.00350745  0.05861606  0.1483452  -0.00539994
 -0.02121606 -0.02158842  0.07094808  0.01894851]
layer 3 Activation
tanh
layer 4 Dense
40 20
[-0.1382138  -0.2737205  -0.16891664 -0.21649812 -0.22427379  0.08565308
  0.05706798  0.07055153  0.06604962  0.36623216  0.25392303  0.19050018
  0.02954185 -0.11901053 -0.17289826 -0.08352903 -0.00822041  0.14519538
  0.09171774  0.20932429]
[ 0.13639595  0.04586121 -0.29226348 -0.27171895  0.07435353  0.05316531
  0.13049342 -0.1705194   0.07967564  0.3139279   0.02917771 -0.22111696
 -0.0277869   0.10507007 -0.20238197  0.19632328  0.1321464  -0.00074477
 -0.1558879  -0.26429597]
[ 0.2148081   0.22038954  0.22736056 -0.06539451  0.2829386  -0.17808716
 -0.08729461 -0.01913298  0.11621449 -0.3262524  -0.26580802 -0.0798653
 -0.23526827  0.25238022 -0.15446143  0.10778344  0.2775106   0.27699426
 -0.26836243  0.18306817]
[-0.29739034  0.07925199  0.23786949 -0.343746    0.11535148  0.23969814
  0.20002681  0.12935752  0.03865545 -0.10643203  0.00048691 -0.07312234
 -0.05772628  0.36985967 -0.14844261 -0.24366595 -0.17293642 -0.16161229
 -0.21371813 -0.24151127]
[ 0.0247162   0.04020602 -0.34032735  0.19062315 -0.2812669  -0.00147312
  0.01974986  0.17887986  0.22131218 -0.15395038  0.11639394  0.20328319
 -0.23309574 -0.2828951   0.09286755 -0.08924048 -0.19832098 -0.19248547
  0.10683903  0.09627989]
[-0.08312227  0.13271306  0.07977393  0.05115621 -0.19149783 -0.12368386
 -0.25369778 -0.07032499 -0.00875228 -0.24104397  0.06704001  0.14405921
  0.04127643  0.14417055 -0.05933053 -0.03573155  0.03118621  0.16970718
 -0.18996549  0.23047677]
[-0.09104308  0.01473493 -0.19260009 -0.30710354  0.00215561  0.03612624
  0.2050148  -0.15001978 -0.07862485 -0.18187346 -0.2331547   0.10991396
  0.02224104  0.03034706 -0.13751474  0.10346594 -0.0192219  -0.02118416
  0.14385924  0.26668102]
[ 0.27349317 -0.3038587   0.14771909  0.19854786  0.02643299 -0.1662013
  0.10499326  0.2909003   0.28571492  0.227964    0.022458    0.21228878
 -0.15364589  0.30172178 -0.17472349  0.05515179  0.10586728 -0.2820669
 -0.10274266 -0.01377197]
[-0.27348888  0.14083616 -0.14365382 -0.23373689  0.0732329  -0.07263842
  0.03835374  0.15081657  0.02877721  0.18192115  0.0155755  -0.2094341
  0.2804428   0.34198976  0.11750854  0.1918385  -0.1470168  -0.10194328
 -0.20964868  0.10716068]
[ 0.04247418  0.06039685  0.01293224 -0.35344455 -0.06632374  0.02139679
 -0.06328793 -0.07651023 -0.20258075 -0.11573882  0.05050715 -0.13682328
 -0.12078594  0.11890525  0.25683358 -0.24552615 -0.08375639 -0.19839688
  0.13825318  0.16649307]
[-0.30924475 -0.22613357  0.02269075  0.31719887  0.32074043 -0.14731103
  0.17936176 -0.16494395  0.01470103 -0.00399613  0.1783862   0.25996798
  0.08563699 -0.31210384 -0.00803141 -0.23858272  0.15959126  0.20548356
 -0.02328562  0.07103845]
[-0.21311228  0.30751064 -0.01960812 -0.29492062 -0.02832148 -0.02711393
  0.01487853 -0.2267761  -0.2830193  -0.2557565  -0.06606153  0.01182681
  0.045157    0.3226983  -0.02318742  0.04667313  0.14972937 -0.17701997
 -0.04265311 -0.03538998]
[-0.2572734   0.1059149  -0.16313592  0.27707663  0.1132467  -0.09396253
 -0.1064765  -0.22580194 -0.03531995  0.23769465  0.0390538  -0.25412786
  0.17791297  0.13589625 -0.10805696 -0.16481793 -0.17242318  0.07574771
  0.16855375 -0.1519395 ]
[ 0.08249734 -0.20133358 -0.05433945  0.14999296  0.00450229  0.27514058
  0.14130737 -0.12576672  0.0117932  -0.15681209  0.10934494  0.21974756
  0.06285906 -0.10063434 -0.3501855  -0.13254908  0.28865868  0.08405444
  0.23173839 -0.21036677]
[-0.19492523 -0.09247519 -0.18161774  0.07875166  0.09233046 -0.14373401
 -0.27964914 -0.01188131  0.1916439   0.14285636  0.03609462  0.05733829
  0.07199764 -0.02950834  0.11732868 -0.16855717 -0.24958472 -0.19076835
 -0.16948014  0.08135957]
[-0.09311593  0.12440054  0.02272661 -0.2504104  -0.11345566 -0.12521654
  0.05778541  0.04537966  0.02855795  0.13117564 -0.17798798 -0.04158655
  0.07970889 -0.06136707  0.33906633  0.06557836  0.07770441  0.05374175
  0.17700115 -0.03065009]
[-0.07336004 -0.1707992  -0.23049018  0.27436355  0.17490393 -0.0291719
  0.25123367 -0.11516599  0.1049643   0.17091419 -0.07571779 -0.13426602
  0.01366107  0.09575628  0.18160069  0.29117727 -0.29956198  0.1827461
 -0.11058095  0.14043674]
[ 0.23196563 -0.16935001 -0.02154915 -0.13975883 -0.2279812   0.11251306
 -0.33629993  0.2668774  -0.07784272 -0.00326319 -0.30833727  0.17750433
  0.00422003 -0.2657833   0.2849143   0.21088278 -0.15428168  0.14516863
 -0.03782491 -0.12936977]
[-0.17359322  0.01791752  0.13834344 -0.21852359 -0.29667747  0.12515238
 -0.20574678 -0.17694683 -0.24926543  0.05226314  0.24012524 -0.14284971
 -0.19172812 -0.07032178 -0.2596695  -0.1554382  -0.2876553  -0.0403722
  0.05295898 -0.252154  ]
[ 0.25496376 -0.20682782  0.25709832  0.11984341 -0.08346465 -0.1143834
  0.24722698  0.10148983  0.00641577  0.33501133  0.28056768 -0.116053
  0.06716046 -0.151086    0.06470198 -0.28014597  0.13594478  0.24264155
  0.24640886 -0.28228796]
[ 0.28141809 -0.05093078 -0.11865576  0.24148428  0.12612371 -0.06496396
 -0.22322766  0.08518209 -0.03363858 -0.04599852 -0.09892762 -0.30535793
  0.26647606 -0.273698    0.17230143 -0.2631455   0.04110142  0.24275273
  0.18023382  0.18829706]
[-8.1383400e-02 -3.1661734e-01  2.3653781e-01  9.1228664e-02
 -3.2585472e-01 -2.0745620e-01  9.3346126e-02  9.5692761e-03
  1.8601568e-04 -7.1993954e-02 -6.0829364e-02  6.5670252e-02
 -2.2131938e-01  2.0346339e-01  6.4172551e-02  9.9340186e-02
 -2.4256198e-02  1.1106472e-01  1.2836711e-01  2.7907407e-01]
[-0.04417881  0.04415579 -0.09655134 -0.14293887  0.07563821 -0.04389507
 -0.23182869 -0.15986185 -0.3040201  -0.12726776  0.24038994 -0.04134277
  0.00675342 -0.12400603  0.19539988 -0.04741734 -0.24980456  0.284698
 -0.01579028  0.08332862]
[ 0.28549322 -0.00378791 -0.16487484 -0.2865578   0.0056403  -0.2637489
  0.10037367  0.18408364 -0.03578813 -0.15925072  0.2491839  -0.01894796
 -0.1051617   0.04850555 -0.16922946 -0.04615278 -0.30287346  0.23631327
 -0.27187428  0.13979849]
[ 0.30538663 -0.2616436   0.16985211 -0.28127217  0.17336223 -0.0255987
  0.05361091  0.2633292   0.13293469 -0.08459548 -0.28117335 -0.28982785
 -0.04870519  0.23044148  0.18433653 -0.3185574  -0.14450668  0.11235264
 -0.11414074 -0.04359475]
[ 0.3124253   0.03721319 -0.07015669  0.20257907 -0.03187199  0.20484208
  0.10588216 -0.14697158 -0.00459759 -0.23814553 -0.13347821 -0.27256045
  0.07907669  0.2556652  -0.04541568 -0.25102463  0.00929694 -0.01985793
 -0.28189066  0.00361233]
[ 0.26932696 -0.22110315 -0.21022776 -0.14394383  0.26405838  0.36444807
 -0.33108142  0.1779752   0.05979735  0.27546164  0.11565904 -0.30924395
  0.23587812  0.06801738 -0.17666481 -0.16029361 -0.21103124 -0.22497016
  0.13874663 -0.06236322]
[ 0.1201646   0.26233992 -0.1121202   0.06969134 -0.10165209  0.01619015
 -0.12856345  0.095792   -0.1151794   0.17754915  0.0242214  -0.28388593
  0.31923082 -0.10703096 -0.26465636 -0.22237474 -0.03834255  0.15176325
  0.17400965 -0.00634639]
[-0.16533738 -0.36912963  0.06515215 -0.01196315 -0.05119579  0.11854342
 -0.14556228  0.08537243 -0.24347658  0.26247892 -0.01022364 -0.22938111
 -0.16422544 -0.16516618  0.12167352  0.14426185  0.2042453  -0.15219514
 -0.2774197   0.08509675]
[ 0.06410909  0.19474025  0.30470616  0.14777811  0.12581818  0.00300333
  0.12295891  0.24013403  0.29996315 -0.06953496 -0.32407197  0.2365737
  0.18908583 -0.26109058  0.1954121  -0.14560013 -0.18387727 -0.10717811
  0.2724295  -0.17623106]
[ 0.16000783 -0.04255952 -0.25670394 -0.27027544 -0.22989994 -0.04957713
 -0.2369407   0.05419965  0.3022202  -0.10585704 -0.22972585 -0.21686131
 -0.29006416  0.03693916 -0.30781797 -0.22509454  0.11022337  0.23120211
  0.2959778   0.22417025]
[-0.26174924  0.22080645 -0.08548972  0.23394302  0.16802059  0.00500715
  0.01454151 -0.3032399   0.22164899  0.2087511   0.05278354  0.2007106
 -0.30602297 -0.05468308 -0.10527049 -0.26321453 -0.17538105  0.20868771
  0.12715356 -0.22953968]
[-0.23951729 -0.02790104  0.08855685 -0.11527915 -0.08867455 -0.09993542
 -0.15423872 -0.36127263  0.06891524  0.02156982 -0.19617282  0.08231083
 -0.18423064 -0.12110566  0.10819681  0.29900837 -0.3342946  -0.2527762
 -0.05497726  0.27213293]
[ 0.25548002 -0.07686139 -0.27621657 -0.24647075  0.17378557 -0.22460404
 -0.08265369 -0.01737241 -0.29864433  0.28380048  0.12760249 -0.23712051
 -0.27668867 -0.2637088   0.0828654  -0.07344363  0.24026142  0.04333428
  0.24131621 -0.11138322]
[-0.02262791 -0.25410363 -0.13103426  0.07291295  0.15960887  0.29553986
 -0.20005913  0.20177552 -0.21225587 -0.2673668   0.19041021  0.12591875
 -0.19971833 -0.07827363  0.13158117  0.08503918 -0.19026008 -0.07882143
  0.12890652 -0.2530666 ]
[-0.02581437 -0.24177827 -0.09808796  0.19809292 -0.215956    0.02331773
 -0.00305781  0.2879556   0.23702167  0.33776894  0.08227801 -0.08567403
  0.18153484  0.1312904   0.26095703 -0.29948342  0.0431923  -0.2406389
 -0.16866778 -0.19217153]
[ 0.14559999  0.24652742  0.29776797  0.16085474 -0.04184735 -0.28766698
  0.1635631   0.18222621 -0.19690554  0.01739791  0.19001347  0.01528044
  0.05412085  0.11806058 -0.17728779 -0.08039404  0.09833422  0.10781911
  0.05734915  0.28509364]
[ 0.03287695 -0.20720698  0.2102383  -0.23062085 -0.25844118 -0.24565804
 -0.277989   -0.2686706   0.19608118 -0.19357343 -0.3325622   0.07986175
 -0.07880094 -0.23206441  0.04996185 -0.13459048  0.1723513   0.23393668
  0.14249288  0.13501033]
[-0.17001306 -0.13294291  0.1159958  -0.22573958 -0.2566933   0.20003368
  0.28884435 -0.00316257 -0.136867    0.17663494 -0.1413017  -0.2649131
 -0.05820754 -0.09648401  0.08039283  0.11674847  0.15923274  0.26992312
  0.2747468  -0.3011512 ]
[-0.2276395  -0.16739748 -0.06243218 -0.28734052  0.05238016  0.21188334
 -0.11602426  0.14769492  0.18258913  0.3059667  -0.21515793 -0.14003658
 -0.21637195 -0.19026019 -0.10555687  0.00206853  0.02520952 -0.13171732
 -0.18542616 -0.3011517 ]
[ 0.01156941 -0.0360191  -0.00867028 -0.02101318  0.00052366  0.00730271
  0.02724759 -0.00466654 -0.00845968  0.00274792  0.01047779 -0.00962279
 -0.01675292  0.00065309 -0.00435657 -0.02699142 -0.00622401 -0.03397879
  0.01075351 -0.01750388]
layer 5 Activation
tanh
layer 6 Dense
20 1
[0.19273546]
[-0.42152324]
[-0.10426372]
[-0.30703363]
[-0.03463651]
[-0.41963807]
[-0.00258691]
[-0.25511354]
[0.46581492]
[-0.27873507]
[0.42307585]
[0.02932131]
[0.34183654]
[0.08694245]
[0.08744178]
[0.14136797]
[-0.04259595]
[-0.00835207]
[0.12627696]
[-0.39739582]
[0.00674857]
