layers 7
layer 0 Dense
20 20
[ 0.5416770938806561 -0.4923556274637498 -0.0582607587927614 0.02442686756574309 -0.22450774948560603 -0.11977196560653716 0.47194407815251505 0.08454373130965691 -0.35919386044301094 -0.30859536436353174 0.0770333718513903 -0.6203648627570619 -0.5753063403141028 0.4308359975837992 0.08198996071406403 -0.5205931526980182 -0.3314850085855178 1.2623300187252033 0.8391122480100511 -0.10528929956891793 ]
[ 0.02448611014378676 -0.15186489838610084 0.05184129651730755 -0.3740320863867526 -0.1967843401777071 -0.3139322054511063 -0.14717838746681602 -0.280128451350488 -0.016870014969081516 0.20900516730686589 -0.15692007469721092 -0.2907783291900327 -0.2558925190028301 -0.21320199883568874 -0.32255728901714964 -0.10139099176451848 -0.09262813718219644 0.18926026193310047 0.10776170287480334 0.37096278912941305 ]
[ -0.36861726935216105 -0.008282552707766249 -0.16303032905885667 -0.02666594129645061 -0.03357619004166919 0.11280289349345154 0.3226635895248233 -0.33863740486521904 0.3443498324299239 -0.28601088757531445 0.03470414933411268 0.28588485909297223 -0.3357511936771515 0.18619909336443682 0.07952139955388805 -0.3030828918271983 0.3278456879804139 0.17719395592879017 0.20526351481581107 0.11401413930460287 ]
[ 0.74376741865626 -0.49061542211722925 0.2713900529699465 0.32488636241208474 -0.469960365543647 -0.1089930812405574 0.536480736704891 0.5478402331460787 -0.36689067770361117 -0.15506935764130575 -0.41190190252514586 -0.37673504307442784 -0.16727482545099234 0.3163769457312326 0.19371641769487463 -0.22666396455576515 -0.5635821962763632 0.37776511600279067 0.7343131974776006 0.015826545189367658 ]
[ 0.41310745218932454 0.28077981621115766 0.2827805573551907 0.20190018774260948 -0.4798478671212422 0.2999156545686249 0.277545356105828 -1.64123723274871 0.7785950033370654 0.22092547729199033 -0.7955700198289988 -0.39913954223334186 -0.7703426701591707 0.6149330590544488 0.6133821616677717 -0.46555695456826807 -0.16483059454092766 0.9216601800995526 0.7691887777350422 -0.8400204177950317 ]
[ 0.003711614645922441 -0.11874531594152934 0.35852194933896536 0.17324198579080052 0.11542833252663007 0.04608909575652893 -0.24022536551355578 0.12802238734913252 -0.004793139824892154 -0.08167611268976804 -0.255275653870898 -0.3016935162641166 0.3345057680241168 -0.2294007425318679 -0.3820292452957171 0.24802677401554551 0.15962331248147582 -0.2057756933259311 -0.2675046801754981 0.11148687251760947 ]
[ -0.3598530939595984 -0.17168619114840766 0.03169700353814275 -0.036546077640916746 0.09027972219275278 0.09757644897979231 0.22578953603160135 0.1762019104996894 -0.3201856978214987 0.3469666877054947 0.2780327763769212 -0.36181372774478615 0.11057558938931665 -0.2697285380218752 0.2643922785895341 -0.3616206425778532 -0.25289346181852557 -0.031588223302345605 -0.26252436246586774 0.316963453639161 ]
[ -0.7032971066396995 0.597187709736261 -0.6099796201584003 -0.23119303043829031 0.7183314221604794 0.09118940179574689 0.06626581910350125 0.3419803103603709 0.3482722944395546 -0.06771484981121925 1.0911502771626376 -0.016607319688654754 -0.12562416046511912 -0.6583810166163693 -0.11858410061503243 0.7189983517125301 0.21882438503859614 0.11305224049299988 -0.4683741428289655 0.026126703807360315 ]
[ -0.2445920099378748 0.7134678763820844 -0.733561480985087 -0.5471855185799187 0.08873255357674453 -0.5622173195423964 -0.46248928741811995 -0.9727685571884295 0.8506395663032577 0.2522790671057979 1.3290950559922432 -0.724584802373192 -0.7769211802406906 0.09956943181521459 0.8222391782441313 0.3185272030246408 -0.5594254746381236 0.6715882434407275 -0.5452160387561367 0.39586433742417143 ]
[ 0.00573325366587563 -0.5333468617101995 -0.2267340912335083 -0.30127315168819474 -0.05865911042571821 0.20263403622933732 0.21492756813577507 0.3777510717794158 -0.7225384535399667 -0.307707557868905 -0.429833687251708 0.5556425650549787 0.23911273813703923 -0.029523891466866698 0.9039915914355623 0.2802342975204987 -0.0395346066540488 -0.24104512211318818 -0.020135610515622838 0.4921110692215454 ]
[ 0.2058500075057473 0.40526720706824576 0.6529441731956626 1.0406112041102318 -0.014447549045831195 -0.25259711739685115 0.2333962581824184 0.9136591134649115 0.7095868597951365 0.5016691733353417 0.11028548376554326 -0.6439695347981236 1.1218423454405129 0.20394374153306669 0.2565407664237043 -0.5977418079165866 -0.5919716571286775 -0.4187300184969416 0.017800121247327477 0.07838374788192087 ]
[ -0.47368302931245665 -0.18726081930323474 0.04610870063168733 0.43101244689418505 1.1279925654690308 -0.3035286653036953 -0.38998558588525234 0.7870597285337649 -0.6576318266741119 -0.47778246991976925 0.36288338650301905 -0.8622189459340123 -1.0618824838882361 0.4364891012213613 -0.6422609955709394 0.14796301389297722 -0.8131660392493355 -1.1049568587688126 -1.5302665789505077 1.8552583426526894 ]
[ 0.7485316207395227 0.46072037195263904 0.8951611906053142 -1.158956029353968 -0.914203611814226 -0.04424938348513121 1.4525947191372697 -1.0653579425245536 0.5144221968634671 0.6554773163119306 0.22349283675560944 1.061239606103885 0.23640102617240089 0.1736917602508813 0.9020479097745289 -0.479967682784468 -0.7222783511522453 0.029306229677489942 -0.2593002194343341 -0.05976398250674949 ]
[ -0.02830482545113916 0.8925554884354793 0.07218406576959406 0.7775336278154252 0.5050816624160522 -1.2502989572261123 0.10553317798467741 -0.9985990782959773 0.1818274230561927 0.23516643127477668 -0.8989302749895942 0.3587939391305916 -0.5204924899603002 -1.1127340278707776 -0.3766505373169409 0.4362605401896889 -0.4916099642421566 0.4839257762880035 -0.12238322150722454 0.7104332418674004 ]
[ 0.07352077276064914 -0.6347551527923051 -1.184925070453968 0.3432370062077353 0.34027861686533906 -0.351023867398743 0.23599578058532686 -1.481871261944947 -0.28599610168125783 0.352954335320254 0.3187607889391629 0.08647609114303689 -0.23550784011084902 0.6916202206623598 -0.09796881398686567 -0.4979886220454493 -0.4901217318903175 0.059418327581832485 -0.20169060023384355 0.151954723980881 ]
[ 2.2652595382547287 -1.0215754899520544 1.920065561685079 -1.142098835049814 -1.0351720923410963 -0.5592466497270967 2.6002993692901715 -0.04625524651338549 0.017711757802451746 -0.6828151057486213 0.2955209022493564 0.20439425063490257 -0.7488475677832915 -0.4173780666527414 -0.36998042737976433 -1.8409745662787917 -0.5212457940899051 -0.07250152019510617 -1.106529461724287 -1.0184625674999732 ]
[ -0.9061412980630572 -0.13181464827397396 -0.3571949616868827 0.48985125949696284 0.9506063782418239 0.21215002425650323 -1.077201905760098 -0.4606374074785937 -0.22921532872811706 -0.9917816586503908 -1.248309812931973 -0.9873257706116231 -1.4292464052151659 0.9968351049008171 -0.09468916268434684 -0.3499571944110935 0.13444422108597237 0.761115904540937 0.3679095693668034 -0.2641492822673334 ]
[ 0.0211418815914375 -0.3359070113614696 -0.0735854423952088 -0.5475752646657743 -0.5333344249023223 0.40343895242169453 -0.38212641309808143 0.11746084810211808 1.7684577719035268 0.27623088365106224 1.483568053487901 -0.9647017030268209 -0.0951374715358044 0.6113024658828787 -1.0691966026940636 -1.5819655039626264 0.1598565582875444 0.6019305263947797 0.23239211790663097 -1.5511710288083822 ]
[ -0.15540584736124566 -0.44846436273868645 0.48756086077399474 -2.297027668263821 -0.9036860357393602 1.4820776209372821 -0.7201688652880682 1.1943570729745203 -0.8179011880630318 -1.2588798774197307 -0.13609906474181516 1.1432722764313463 -0.995401970057945 -1.6507965757125767 -0.6469212495897267 0.6543139631700892 0.5615185339889598 0.00047637861970893257 0.04575815122447452 -0.30789344522728457 ]
[ -0.5022889408632144 0.4691881745733897 -1.0325402639952528 -0.23493513587735007 0.23583810557247187 -0.13781678444644582 -0.3463304996055209 0.007051964735185783 0.37550970942783723 0.7219506230357393 1.2328348560074165 0.966675939141319 0.7564531270397378 -1.1462973712787066 0.9267941774745266 0.901484054591876 0.014434397546250494 0.9660595360473078 1.0951786028779567 -0.90802193989595 ]
[ 0.3899776842319244 -0.5688731343876529 0.13105923091030786 0.0995347252571154 -0.20057427893012367 0.06781456757556958 0.18270146284326358 0.3054159642852393 -0.3760110546973479 0.07506769410468099 -0.1918088090535251 -0.022800303719344155 0.13979092911486157 -0.08824337806446593 -0.20423277197251025 -0.02009252122728773 0.047315513129616585 -0.12391948660423836 0.46099532205704663 0.030502122953846897 ]
layer 1 Activation
tanh
layer 2 Dense
20 40
[ -0.49834405684218747 0.15070022722981324 -0.9211598147254001 -0.34141477657759445 0.3045225678940365 -0.17774535440550757 0.18454857772453392 0.43029375029622763 -0.6694910024783655 -0.5468030710188753 0.1283831748134844 -0.2585927880383706 0.3341873325906915 -0.21728915360465728 0.8767543587025964 -0.13283366798431587 -0.11398385289982313 0.2939658501453599 -0.07148939822314078 -0.6312552332876049 0.29206525164075636 0.15772759584524834 0.22878055945754713 -0.8687180172778605 -0.030967978729255267 -0.404754808287369 -0.3558095739061288 0.3737204232240698 0.5367504030359064 0.42978570829789586 -0.19560676099731675 -0.007211156540808273 0.22502799834861603 -0.28001493131834765 -0.37351969486764547 0.2389903581764961 0.3335519590297234 -0.3216043401471624 0.41156636659238127 0.36475671535132276 ]
[ 0.469052785282694 -0.3006341200169852 -0.13263829144770503 0.051951490301094555 -0.3094295986318497 0.33337909286556583 0.5815680742498694 -0.21735980307072975 -0.20767595584757143 0.8662498920375445 -0.14181290226471438 -0.5105818786857166 -0.6921441684793553 0.18194221531137614 -0.09371057826846484 0.20910496747486387 0.7674710712565292 -0.09345114326526924 0.2505202730108489 0.06610759224094521 -0.17148696226937488 -0.16912154464685064 -0.22244981534654953 0.2667184523975145 -0.4060974824962161 0.8572833923937129 0.3406311467447298 -0.04475008106879703 -0.8381803083963836 -0.5497899623697787 -0.0003338027390802547 0.0826002527754263 -0.14959322819252058 0.21402555551876337 -0.023949463021382327 0.5273261739326952 -0.2860537174893778 0.28438908181300127 0.5072071049288449 0.5425227235233053 ]
[ -0.447890330708695 -0.03843532795182028 -0.7497338254448748 -0.09759234458056376 -0.3500194442586083 -0.19789126296211204 -0.4177239263256247 1.4973477582010057 -0.7680684677985584 -0.3367278909742798 0.12135368257847437 0.16252351332953677 -1.001396670973163 -0.08194618623094437 0.8239853225469089 0.5789749804891229 0.22956009685524045 0.16097652067824966 0.7712456611447738 -0.6625011803180207 0.48797473556607307 0.0783798284602968 -0.24708440015314176 -0.5892928700132262 -0.8589231569524166 -0.4404859135298737 -0.1690818883822988 0.2637229846481524 0.533444603834145 -0.4910381187134826 0.5809483646933463 -0.2443467300942865 0.28782601440321487 0.17543526807930562 -0.27784357439476204 0.105765037694778 -0.5693429332675717 -0.08242336201995462 -0.15224677146103754 -0.12815355255386685 ]
[ 0.32671878150695965 -1.3447778316236256 0.35124791480908957 0.08373093480326875 -0.16042770808225265 0.3417489928839462 0.16726179156769727 0.4191274578311507 -0.5920904492305579 0.5986388798634376 -0.38014208995493126 -0.8929975907144555 0.07200445980605309 -0.2558055023968663 -0.11526625442998667 -0.8146907783072402 0.30485910282855455 0.7477413846954238 -0.6014903933140882 -0.3459701276994651 0.02998574348749667 0.045725313088729715 -0.3904808479353447 0.5587559362356869 0.31510038465947143 0.02843260506680526 -0.21642583228629347 -0.8085052422688073 0.42837702247012077 -0.20719788525990876 -0.7542512162211936 0.6453767409850566 -0.9879164741381508 -1.076949687655819 0.3152059648981083 0.3823965955517761 0.43206511994331925 -0.6528299272386693 0.5259376788045557 -0.06623265320115228 ]
[ -0.3625579160288196 -0.6167567422681409 0.7523159663065369 0.19573900080520834 -0.48479574403022496 0.4728215690446486 0.7338443163189434 -0.21483282758950809 -0.5004928520748593 0.7805752839990375 0.24316177909888254 -0.759836635571355 0.3086367318034644 -0.6360349163625608 -0.5830535231861134 -0.07052153764874833 0.14046895809583407 -0.13994840333429173 -0.3043538191482415 -0.3239480039141315 -1.0127665300351563 0.3844341267851973 -0.3549947684100707 0.5204279038101353 0.4327522900888214 0.8000977442411134 1.3201829508995582 -0.4605587601097162 -0.9366941236803341 -0.03540943867673378 -0.09338945237536085 0.5843642984463059 -0.7779617924705157 0.3023154907057511 0.1958286003142126 0.6046976561646689 0.13944548802164702 0.5122775403246991 0.24324377528710023 -0.12452817821446471 ]
[ 0.5629644625249335 1.2212404546162599 0.09595144368701727 -0.06857314768200885 -0.18304476892323146 0.298614641395088 -0.5527747139872019 0.16169858617655644 0.27805890613033 0.3975529108573715 0.08593622742642075 0.8253077298947739 0.1778698548104448 0.2735316635010816 0.039186380473171786 0.6827179449206728 -0.24924604631751637 0.005485435431155955 0.45045227817422673 0.42808482780036367 0.2564410956883703 -0.0014871197298507344 -0.23872912131058202 0.12294429701782283 0.06595090169617146 -0.0019923934833901797 -0.5683955258015346 0.3436338768325089 -0.08911868300513899 0.5089244163277761 -0.10746977681324572 -0.6071463429936798 -0.29747819733301917 0.012178932927830921 0.20948810168000284 -0.35919094597775936 0.1931393407469971 -0.07394623308117051 -0.9781842948558299 -0.32283228751191406 ]
[ -0.4000922343035643 -0.6629414819965592 -1.5929088730310863 -0.7946072106928224 -0.03004918283738855 -0.46275043622284756 0.25648459560399123 0.7950761826469293 -0.7815628480960899 -1.502488454183772 -0.878705626206731 -0.6304065919900564 -0.4225167918321986 -0.2532097835563605 1.3104674332191766 -0.3487806097432443 0.01079421061514006 0.13793023074134825 -0.12166629763851022 -1.1579424467750268 -0.6142722745778348 0.10997706746200576 -0.19859503000115314 -0.8385532228278189 0.2547233610854468 -0.9879014187111952 0.23304255697744902 -0.5924997786615546 -0.7298127394355226 -0.006625629312336143 -0.09523537233690675 0.014566565322969502 1.0361076176134498 -1.4095940349480514 0.03008961874706946 -0.1148802619032964 -1.1127137841191272 -0.3960100856604633 0.781072555753734 0.011098240019250884 ]
[ -0.17827500971658847 -0.5306770476558159 0.2576124285492513 0.7750059826381759 0.6109062898367326 0.07509534906294696 -0.07595554061855622 -0.6218988518211569 0.7123107900983577 -0.052855879505557674 0.21724396214989425 0.4670709607511022 -0.5446668491376412 0.30427352306876987 -0.37957915860278924 -1.0713188790216426 -0.9023832342036948 -0.5224652155406361 0.5553872973797959 0.2586984017900418 0.17761631627710933 -0.2591919947120463 -0.03161764657746845 -0.12311759482903986 1.3794166160130528 -0.15471418082980037 0.10677319529028134 0.24722174778694941 0.36168440397372614 0.2626630778579292 0.7427745527265939 0.5119143141638554 -0.804209519506833 0.5036407793456817 -0.4366466958212205 0.37381043026943933 -0.08361855592656803 0.20766624782761162 -0.4694679712300418 -0.1381188430588958 ]
[ 1.3699650915727104 0.3328324550794461 -0.20215959111021603 -0.3004489728008712 -0.210872849773223 0.17685412308658094 0.0010584438872989028 0.6631586177463019 0.02119482739606583 -0.30799344337564105 0.03405423265428137 -0.8888798738247711 -0.39110218443854294 -0.6456654004137722 0.07641820761803671 0.4346041662477391 0.9066330857755409 -0.13800662947611186 0.015665207263900922 0.22029453560404857 0.3778806557334381 -0.08677386862043042 0.2584377889930744 0.39387094870432543 -0.7505969522254433 0.4259562509669827 0.45825665214336936 0.8559739378061232 -0.9512640671205165 0.30389409554024743 -0.5024572765703026 -0.4964499243897904 -0.1875710096335345 0.1298429247573209 0.8248532360932048 0.08650287338264498 0.192607837440833 -0.1887089562590222 0.5978668807858386 -0.009825875355864043 ]
[ 0.2165712904092084 -0.45999823623060276 0.15040714282659418 -0.36466228587860744 -0.01349642606527775 -0.6340328190960849 0.9131451932449669 0.279098871308873 -0.02776786571279871 -0.2333705642156133 -0.23230306117800292 -0.626863951383917 0.128929674996158 -0.5479150578070364 -0.3780847528761624 -0.3004945627739014 0.5602325496131331 0.02944902332114306 -0.1858849857693992 -0.07686548655735033 -0.28786541322500275 -0.34399589725512797 -0.5325661303328731 0.22816471275158387 -0.11920675005016787 -0.08888154807110275 0.20786232037846278 0.5561021677488556 -0.380152860396695 -0.11637735402721151 -0.5649326641680573 -0.8089682925841688 -0.2470791041779128 -0.2166903929979844 1.1054442490357268 0.01674128143275444 0.30375531885597884 -0.030681210838751704 0.7535713677876623 0.0322625730308622 ]
[ -0.2129000850077292 0.5675140164878377 -0.5002030865630421 0.7151077154314631 -0.08515095618989564 -0.2511337860545528 1.219170809626557 -0.013776051866536 -0.5089996886091517 -0.20258610754915926 0.34822512032708813 -0.9227569992500879 -0.18976596688188918 -0.4131166477756227 0.1517503359164401 0.11307191848825314 0.013218791893639946 0.14165377454481665 0.28372431384411406 0.27367524429762463 -0.7412315913233196 0.03365241884941911 -0.09597709355751344 0.19632195823565488 0.05019517925355413 -0.5884215635322647 0.00787632592366803 0.8859000831102505 -1.0961889435790557 0.7854222123585968 0.6550269992756319 0.26581598294263115 0.1008131579234826 -0.12310376968655524 0.8467911067657194 -0.4884123159189238 -0.9938580757322399 0.963757750547234 0.016310503506074898 -0.29734725142631474 ]
[ 0.8593177843728045 1.1116579804976459 0.47033440868897197 -0.48407402789085935 -0.6706971439978564 -0.2206813021451878 0.6116487045591528 -0.9625113143604744 0.5966091468406783 -1.2048352075139512 -0.3056610212291202 -0.4299444120380007 0.027993278577248357 -0.14489305483255724 0.4126244758724714 -0.16893250211082395 -0.406253708469213 -0.17972972955483338 0.9572811379289232 0.017658750854528962 -1.0065484880160076 -0.35509528959090125 0.42096010197029804 0.20018326212360404 0.11387176529619145 0.05459135833990432 0.219724984607136 -0.01799256988930461 0.09558932470859267 -0.2801600284844545 0.6923777283299227 0.2561659691936045 0.6065584508730076 -0.7861341035418637 0.3776329357218306 0.2836135630183274 0.06853618416382784 0.7260035586056097 0.411512628602069 0.41274784838443634 ]
[ 1.4702707058917184 -0.2968249941558882 -0.3604814124584619 -0.19695907697886342 -0.13664074803853238 0.0007939405009572695 0.5601203157254965 -0.4442003884992345 -0.2579136164924453 -0.08417236145660174 0.1523709751778665 -0.2650306858607838 0.3411547848388918 -0.13296533160559373 0.15368496850711733 -1.1272306908437892 0.20664353321340184 0.3267809121445776 1.1268220603415444 0.020524994294377628 0.3430249410766429 0.11743520007843807 0.1622419984841348 1.2843490414756842 0.0033987499791664185 -0.4386109834573001 -1.2780697228762294 -0.07858940383768483 -0.4017834265603537 0.4756940671107109 0.4506746661744198 -0.751496768719582 -1.0402437411409735 -0.8080349091324477 1.0341756727808027 0.4800624135818112 0.7534107999290264 -0.05975258815698069 0.5796350115428751 -0.1807277480703952 ]
[ -0.20855616002236158 0.0535706433653732 -0.0065636020153313985 0.23770439070993207 -0.25217828372603057 0.6708643375312285 -1.0073196577649606 1.1101315235092302 -0.31336887265992314 0.8082179832741402 0.7311480347419551 0.4532216127801711 0.7286244328821685 0.22084997242619525 0.09711253316800358 0.11405358849966285 -0.4000498747768742 0.5975523112178875 -0.7309018197589647 -0.49052931304032527 0.9991486358824758 -0.07451849581126428 0.10239706797440867 0.14203179068521746 0.09800079341956004 0.592194346880407 0.28377515853359153 -1.317014593779053 -0.028131331255158452 -0.39004744503614724 -1.0403506846026485 0.48015897757223036 -0.31318599297947913 -0.05560930118946466 0.3621332951673348 -0.23277379965735107 0.7975953977309768 -0.7582099087066516 -0.5937564260702088 0.279778619430178 ]
[ -0.4705932542924646 -0.4441399119472517 0.21871906819641782 -0.3895525591720245 -0.1596389947174146 -0.5762990275634761 -0.14319568437237234 0.4465203514998065 0.5168530339377984 0.23061260710106732 -1.0456170431718979 -0.6848685255462493 1.1398549468442747 -0.6419284613684701 0.309624923997999 -0.4932968145251391 -0.13391166719498637 0.5087534345153779 0.14659859021979374 -0.020560294825252293 -0.5097948080185649 -0.6013483939279994 -0.575380748872975 0.5742462941715389 0.688798485220523 0.3911843016127344 -0.13049630973506693 -0.489043358902539 -0.42473517080869577 -0.28985491393006574 0.08428194349710717 -0.24235146445079594 0.12563525811136972 -1.1033381262898865 0.891242663872629 0.2716288356500369 -0.5425325676805236 -0.14215256925513098 0.69963428864467 -0.34298959641444976 ]
[ -0.11110767320826756 -0.029992110152040338 0.7644870695022767 0.25608077263080264 -0.1949321607761504 0.3351612279736848 0.22263018757681854 -1.3045200903478005 0.5755661290455458 -0.1748209746745037 -0.7261329325658816 -0.31330463899012784 0.4425569408244591 0.22891374828084446 -0.662763424756162 -0.6607078069132796 -0.29653272284307197 -0.2780508672882459 0.47173423660743524 0.5935143977611902 -1.1172628334173478 0.07329936157116004 -0.09609676230838751 0.40838715877908566 0.6780733388782929 0.49272046003593784 -0.40648243062224765 -0.28308802758207136 -0.2814941776857739 -0.02354981291103313 0.1421690307762895 0.19887465434685714 -0.34197058522231744 -0.84405962913251 -0.20428994131378456 0.6732733835988336 0.12300704969997325 0.8500460255469351 0.7071687479446339 -0.014092194363027498 ]
[ 0.7146218322445307 -0.0061047433969687575 0.18086492040141075 -0.041245260651861376 -0.46330719790764263 0.07991132473295291 -0.32601048335913235 -0.10914073862150947 0.22906302936834308 -0.3141056137193924 0.3588801177389847 0.3101824865199454 -0.12481628187664143 0.18524872727578498 -0.027951325048503162 -0.22325540102595703 -0.11544087296181937 -0.11018545033559372 0.4564875075884463 1.0491004484006492 0.05624580385414984 -0.005005924546079133 -0.1396671727338068 0.2002840463351697 0.3358883923818603 0.09458592786509203 -0.1929345235607727 0.05856577415243215 0.1002347914362533 0.04090086404661099 0.2688140356410302 -0.47582940560513476 -0.41610727753193233 0.49024574264553883 -0.1743917708213212 0.1651465800031022 0.5029553949454264 0.3123892309217743 -0.11577789949186153 0.0011064986006725382 ]
[ -1.244979873282701 -0.06790788947920577 -0.1706671065270788 -0.0016303302138532163 -0.0661747951725902 0.16280151417801628 0.20011579960690853 -0.518958319709424 0.33000300719706527 -0.32731279512138717 -0.8785288670537057 -0.03335003486840276 0.9413218490148073 -0.2580642626665999 -0.05559927886676932 1.5370222976705452 0.9665834081793313 0.6784331748889719 -1.1649755761068874 0.6524168710644633 0.5700383312891447 -0.31239374237161455 -0.460955085030544 0.8604106256599369 -1.2259388871671033 -0.21015224779025835 -0.7737539175106539 1.0886353982544952 0.31946092114293795 -0.17262330096660436 -0.7001945659935669 0.5392670000195914 0.9524634741392651 -0.45419279083837527 -1.0540065382792239 0.6137657636342412 -0.6344053706100883 -0.33781987584650597 0.7417984229450743 -0.39819815995592656 ]
[ 0.196909910411088 0.8842530538268317 -1.0506620981583807 -0.413400622110086 0.8285445415618352 -0.03984674965775645 0.4515780208685218 -0.31838462395185596 -0.23127131222810363 -0.7548256105069721 -0.9714502588925561 -0.49592142636139575 1.1063892765020986 -0.7041992509216166 0.9460355419097952 0.3118856097288285 -0.16408753501271264 0.771259023415993 -0.358240385196815 0.087217468314997 0.34139299417530095 -0.06451651771097414 -0.6154019926378618 0.036438471745845816 0.19012348593115666 -1.018893729933066 -1.782712513992229 0.44817420387298723 1.0675576338517687 0.7972796005963019 -0.10723873416716216 -0.7152632350194348 0.030115308688786556 -1.4464179939774453 0.909772545260115 -0.19349987163070284 -0.2973245710147406 -0.1525821184800666 0.6264995465243128 -0.17844155922803495 ]
[ -0.6750442696879715 0.4014621562288214 -0.5793816304346375 -0.014437479406027173 0.33899067199392263 -0.725220439211533 0.7901027125648504 0.7939888642608005 -1.2730003247308515 0.522844291432623 0.29776891192100957 -0.6653862278587827 -0.8038404714894501 -1.135024451686743 0.1535434527300327 0.048859459812888716 -0.8150907756193355 -0.3312212956048404 0.43749159726749187 -0.9029422919036472 -1.0685259061199877 -0.07620822485974946 -0.27566911967222324 -1.0605419654735284 0.9374221156416945 -0.4824934457664994 -0.009143508202117831 -0.16680524893057322 -0.22408771041131256 -0.18379259965846398 0.4341136133691236 0.4169054411654955 0.05946073403973864 0.2715460997914043 0.2038290581564535 -0.5035932662526618 -0.44340625310810416 0.4739998146199868 -0.3097257345681778 -0.5260339884821854 ]
[ -0.10288013900569706 0.1539560017223424 -0.7960766769673723 -0.08772738366310794 0.699019120294466 -0.3078528780499344 0.14793831435664972 0.0679731390026901 -0.5146911272143044 -0.5624522810488045 0.2843813881632442 -0.29687591259710333 0.37697895736532705 -0.484838337179371 0.6800622438619531 -0.5162905887224305 -0.12945602817338256 0.5375254023091596 -0.07360127716577115 -0.40322426875747075 0.22412360946001936 -0.0880579905714218 -0.4160151754721043 -0.7938946756179339 0.12611444931748386 -0.8889563285269806 -0.776791617769256 0.4804613308311574 0.5070368430561069 0.3189273538076456 0.07249649097070805 0.0692851069313352 0.152453612905706 -0.1597449908240004 -0.1690448496770506 -0.3115283817269968 0.07562668308316893 -0.11317307864936846 0.2083829324606493 -0.03614259663449398 ]
layer 3 Activation
tanh
layer 4 Dense
40 20
[ -0.20589741536431674 -0.3111863191564249 -0.5382807001952897 0.5619282645541994 -0.16664184805335905 0.038293698364461545 -0.08318451276526603 0.27794558867637187 -0.43218100843021967 0.14506886778127576 0.6241873856462598 0.02130379742402621 -0.6543231286396057 -0.5535811296328056 0.3560596517188832 0.3348193642852709 0.3409491057742753 0.326785480737925 -0.13817397068811169 0.25254879234279254 ]
[ 0.6304511719017452 0.420142675221191 -0.01993290753201556 0.8394419068998968 -0.09776170169138146 -0.28482771331244844 0.008385102736560526 0.10313296784719328 0.1742451717038311 0.4173706504778512 0.6887763667455563 0.3805500301456001 0.06534233955882028 0.3271741121438357 0.5858603524760485 0.3135279023253884 -0.7116472087776777 0.25709672350191026 -0.314633339897702 -0.7454023085647359 ]
[ -0.16122132917008156 0.028317586951083332 0.4450374974249302 -0.010658029380337839 -0.514018256156893 0.20660776945504336 0.10071150509889379 0.2548374523837804 -0.013907312517520904 0.20628993354662434 -0.12968799512923707 -0.595940134666642 0.7043976994628781 0.013924023694703441 -0.2760209715871548 -0.028774508248783314 -0.020829586359096673 -0.26756350829949554 -0.24814022896121637 0.7636441723778679 ]
[ 0.011461621239164187 0.5532643789210148 0.17211851402291042 0.48145283373458153 0.39197306957926625 0.057347337433761185 -0.011038803629070474 0.41790929965274237 0.4438367575608922 -0.2723810077152261 -0.0764310909872443 -0.231558166653223 0.4556067097294634 -0.5434067759029417 0.12745870092357744 -0.7835834152064757 -0.27664121849510037 -0.3577140684119549 -0.25878521543974625 -0.20375311702222462 ]
[ 0.12030482325325265 0.07023242906550944 0.2288933426681786 -0.20675462654252683 0.8719634600968779 -0.1377723221969345 0.304070224360291 -0.050160376599042135 0.17066428972545766 -0.0031385836703062275 0.28623377296036007 0.36911593470410553 0.015665400490821886 -0.23079126365654648 0.03187716274801858 -0.7039020932662469 0.04251289396150559 0.015759330753014455 0.5397887377400896 -1.1794712673248342 ]
[ 0.023286090705889693 0.652404108734177 -0.06281084554561653 0.4008541384886654 -0.02259207666884365 -0.38465351946705356 0.6070616147072603 0.3859396709635169 -0.10124116456219195 -0.0479249182461591 -0.0826069529222399 -0.034269220712962026 0.33019606642812116 0.08058821718325017 0.2765452064562503 0.22584518909623272 -0.2255283186192465 -0.2089480219887759 0.10557602139070285 0.2510141833185589 ]
[ -0.41233097881978453 -0.07774687419231878 -0.11700114281224619 0.7811169526536537 -0.018965346042745766 0.11329272792006105 -0.16443067525647684 -0.18899040451650223 -0.16125332384720578 -0.2192452071307701 -0.1389804495414451 0.4729075416075924 -0.23256863203115966 -0.6153251988373084 0.31845236841791713 0.0040742187771503615 0.23262259578097697 0.3456340404038599 -0.26386111188708256 -0.4533738095158691 ]
[ -0.15924045389778396 -0.42455822649042596 -0.8178685600608999 -0.21910712743631347 0.16477817282790708 0.23779626517737423 0.4150651848526232 -0.15817517052879904 -0.7156381255768177 0.07037646496128123 -0.03939024009217677 -0.013238308415471833 0.05957379760275052 0.5061629060364602 -0.3373811101345305 0.47537236367552793 -0.03852311496841824 0.3648106089852656 0.9924624450281037 -0.5136444966745188 ]
[ 0.6784348432984942 0.2063598242100181 0.4293458207842945 -0.08713096358896556 -0.11919706134069302 -0.1364932915309646 -0.46106633829371746 0.5655453017183187 0.1324001940922083 0.632733294990295 0.39977056517596654 -0.40618958748947637 0.10481729036066127 -0.4192467788509634 0.6777622482096279 -0.1614199606479114 -0.04643219996329588 -0.1578441209238932 -0.3989017138614009 0.7986445426558035 ]
[ 0.08468733097654638 0.06145794634286011 0.34032752982316006 -0.18029565955670723 -0.4113241063394378 -0.3165704612657272 0.4362462654670983 -0.26929976477825457 0.03713903786048896 -0.1417918584739814 -0.747895695650224 -0.43297643185887047 0.40014104722816424 -0.11351460565082254 -0.391443463943049 0.2193149849860119 -0.46336779503223224 -0.3832953235931121 0.4641054291937261 0.16849296866888147 ]
[ 0.17934367005172158 0.24965113008562456 0.3082327945320453 -0.10017927758752036 0.06475203230872387 -0.32840385558527335 -0.072731898025352 0.3198715009645517 0.02238140884444388 -0.004603724723503623 0.15552250323103434 0.7822391910679062 -0.1846377391804754 0.2667746807303669 0.12323560662011113 -0.21638541213934215 -0.14066561215674633 -0.24276907302514156 -0.18903816059374837 -0.42577213403382363 ]
[ 0.6357689223309084 0.8450611276199628 0.39833710482051554 -0.46106373579052845 0.13947992248125202 -0.24055585248989161 -0.06011695588496176 0.12679398166722256 0.3731002097499535 0.9615313582721505 0.9546731114149394 -0.6150960224222746 -0.024584333585683217 0.5842503473624517 0.8537259485181594 -0.06989403668462808 -0.5008252965999553 -0.2541616844863023 0.0559129973330516 0.518458586406922 ]
[ -0.05330641085578422 0.02827981841923025 -0.9053435172465734 0.6824807924500357 0.10659527789781584 -0.53096287300116 0.37200653608003126 -0.24607208262961902 -0.764860642374261 -0.5112607888152699 0.2944885270169924 0.15259247494456724 -0.4040869456409336 -0.6114412786113427 0.19124033461385007 1.064516837500488 -0.5743252634662345 0.3245946584373627 0.7568054956629762 -0.3477390282889971 ]
[ 0.22366151876387824 0.7589969182300101 -0.0445990359928616 -0.2891447243700934 0.14970756288767093 -0.30424645892484564 0.3086096062714064 0.49091465097232484 0.15660985959124943 0.47029633874766946 0.13331570778914242 -0.45146177303113094 -0.01944261630648792 0.1213070375070826 0.12038330528616784 -0.21973858819420208 -0.3584459425413961 -0.13895390116650738 -0.10169226341138429 0.8186798891211289 ]
[ 0.1650052046029872 -0.2615221333724989 -0.407344993431101 0.20359367947389376 0.5349812739697117 -0.1196472854873872 -0.4407953071679792 -0.21637780650496863 -0.2525689377085285 0.18517559705132672 -0.003486716395921032 0.6845359305531113 -0.5245831581391777 -0.03231582520748294 -0.26754647946462085 0.24940403915404333 -0.20823090457028395 -0.1875968883629262 -0.026239258135821814 -0.48860738227416395 ]
[ 0.22188804781105861 0.11259462333278589 -0.48221483026697315 0.7275506967983637 -0.38102438097908536 0.3826063611145336 0.32431347753290213 0.5149313075391919 -0.5945738132659563 0.05117118581324934 0.24946169295814702 -0.029714255777179767 -0.4314367279763373 0.38503806657148426 0.7846828360593074 0.9922361075831437 0.07624813331081555 -0.10852927911179948 -0.14007089585968305 -0.21860793321381777 ]
[ -0.32282880623437044 -0.2553100577279038 -0.26843144447591594 0.14751778257738524 -0.434671670623445 -0.1523198523138153 0.4555166244711267 0.47970916738847696 -0.24682035478399594 -0.20320816012559373 -0.03015690963437193 0.14124020610556198 0.08189108343349184 -0.5413164098053415 -0.0745392004744263 0.543436046737184 0.7254005164188629 -0.11659969376506207 0.4084082788624886 -0.0037811756701133835 ]
[ 0.14284341726909952 -0.18528754987400933 -0.2804553290821632 -0.05176306796995782 0.05602805323601541 -0.16740076718317148 0.5569066587718503 -0.14549560947240692 -0.3483607227923659 -0.22087542587770054 -0.152100444094376 0.13956543334941862 -0.27499839379897273 -0.6152636860014205 -0.04180105910227987 0.4613488594221986 -0.5050259875686695 0.18490711631094334 0.28462939263919257 -0.38068699173604703 ]
[ -0.38110064644986097 -0.12953754119216232 -0.11281520628042314 0.4236354345828904 -0.3087842956434217 -0.014989604646239637 -1.4231030537325327 0.25362017388357216 0.8696275398867633 0.20465220199324113 0.22761848292577583 0.7313531794813678 -0.6174837444726525 -0.010350142919904454 0.5201916219405786 -0.3664895847420483 0.3072472892975418 0.06454329934137053 -0.2843852079267023 -0.42558283311363926 ]
[ 0.23155512230134212 0.2505981924210343 0.3182253398185066 0.19386983294034976 0.05103606633511596 -0.21996183228973037 -0.2225398819052247 0.8693362033513095 0.09863256036504708 0.23832195664598108 0.12262929252322093 -0.2315480019587748 0.45172292211967846 -0.2537366405995019 0.8065665987125119 -0.1659800178131395 0.13710485298933478 -0.8688600700710105 -0.5598135658251325 0.27337056422064726 ]
[ 0.30075288394226063 0.014889508992429298 -0.3771864884253738 -1.0150085351922884 0.6726952971499561 -0.1045970958790685 0.4964076694066036 -0.012781372655776457 0.16446317331628094 0.2395663242390201 -0.1797261534242039 -0.2576731987228792 0.18346132712407412 0.10716505617271246 0.2907858260393516 0.7840760773656317 -0.3427558498925613 -0.4913260776747288 0.8486011777623164 0.9333832294192206 ]
[ 0.2026195151208262 0.08209650249039907 -0.2640865239009184 -0.0359261572238851 0.011864132100195194 -0.3963675176876851 0.14346812191326 0.048718946917818216 -0.111698203482573 0.19381204532543356 -0.11597985925891742 -0.1486511533689863 0.03640689439971988 0.13538559616791154 -0.2554907282078031 -0.23942152672361544 -0.15145717960145028 0.06275935585144118 0.1360077868215267 0.016785083643133813 ]
[ 0.18563454515776673 0.40651228866666017 -0.13170555217301758 0.029178028782345652 -0.12218300622554232 -0.42407943486998656 0.011622229152608715 0.09059986044088472 0.006671133308789335 0.2886161490351631 0.18178006340923222 -0.03208873852217993 -0.00563338550144882 0.09283675559022178 0.07120788587271708 -0.2476891663126235 0.21503193049483132 -0.15384236124978035 -0.1782040488051913 0.13243984608184503 ]
[ 0.08772539928485693 0.36048452609147935 0.2646568236582525 0.07344680334607631 -0.5861917251224167 0.10615886438748295 -0.11353996503464658 0.015680143580633143 -0.13033246330225162 -0.05696866371050509 0.07626216459156347 -0.8444428769153689 0.31471535351365293 -0.4606749757015865 0.4596950480958153 -0.03993354630163165 -0.4336182610912564 0.0036326628354125946 -0.18531293137122323 0.6814244506363134 ]
[ 0.029578481250231662 0.2180521627726892 0.6186053738329058 -0.6084348482041148 0.2554709821195202 -0.18148212087126953 -0.38739049436021256 -0.732437625029388 0.6350051975545894 -0.32044861992182616 -0.6359136237691677 -0.3404374245249947 0.5716217256767752 0.08183933651171073 -0.4185512454386493 -1.0482310443103604 -0.26562666403743784 0.530283963980577 -0.5117883969407115 0.07285037204274274 ]
[ 0.15040505544541738 -0.1368869765525214 -0.2198534018798014 -0.05606032996318819 -0.6025888661382568 0.28321485133267793 0.38935322727802574 0.15230865420205048 -0.18068131973881507 -0.08854093143566191 -0.22094080520689496 -0.6402786099824885 0.5204754570897389 0.054820731326371844 -0.06993312724670983 0.01160481438253018 0.00032434159997017425 -0.23218124624121 0.0455307094246647 1.1940983103685938 ]
[ -0.11665648474276799 0.27300132035516955 0.2685224892461583 -0.03228711552912341 -0.44386218405493055 0.4595159269581549 0.29638374610302054 0.3316741737585988 -0.5459686134218663 0.21451558461460335 -0.1622885157554484 -0.585769008474087 0.6253284884877712 -0.04472850610001307 0.29894987685040525 0.3125197665140031 -0.010291711581889094 -0.24627010942990632 -0.3155232401827512 1.0787717940101738 ]
[ -0.025328748125993512 0.33280071297908986 -0.4671221164422256 0.5765159574052049 0.1705402779822628 -0.08157395958284272 0.337930037053604 0.7988813493408716 -0.36428610082329543 0.060918128284348 -0.06159295034116261 0.1640770913860255 -0.2791147923813869 -0.12825675183377652 1.2714274943892463 -0.26281075546224636 -0.30708990633767813 0.1134980463631142 -0.06508527814726817 -0.5070360859925144 ]
[ 0.1971650334632743 0.38547215445020816 0.06087568864631174 -0.6536946596570816 0.42554140730216633 0.24539399316811475 0.04512895683560231 -0.5790857980909032 0.3629895222032688 -0.2550439352812244 -0.08867184114265124 0.1990401227607884 -0.4744934693866295 0.47915448135344596 0.08158151970049142 -0.03569258804962737 0.07176611500754713 -0.3378352984183157 0.24858919095493678 -0.5840665047549775 ]
[ -0.12510170937726375 0.56905028331671 0.07415859862994736 0.25676314920333204 0.0070752867137970745 -0.5638927042774733 -0.33221325608134805 0.36822376420026204 0.4723331245344004 -0.09630657243629145 0.08036922806759661 0.11119101130926956 0.18350060572388852 -0.4280188474362871 0.5658441399621512 0.07180317180246655 0.3219352121222657 0.15101561764052931 -0.16874328479800393 -0.23002706310162077 ]
[ -0.04114627635987767 0.47142030274665553 0.17065823652784143 0.19894131666791137 0.0562362601904425 0.05881945547931489 -1.4173783637508195 0.11235076879309495 1.0736563231903282 0.9391610307479465 -0.1870253377330251 0.38305993957086154 0.13499818895228627 0.311781379826543 0.0656265364540413 -0.9486938034014212 0.0157473830732842 0.10757966000651048 -0.31767685168450055 -0.29974390792622757 ]
[ -0.2906555107035231 -0.30683979004492357 0.32448545494686615 -0.30842851532028914 0.3439397854384887 -0.21940897623286917 -0.1138004696982797 0.07433436683955959 0.07624517284040815 0.012225955809983017 -0.04636633388412253 0.4017360253218569 0.4392584621256373 0.03681381437268414 -0.744927347445358 -0.44028191998903915 -0.503945990711956 -0.296475027974888 0.017210975404394216 -0.2695960765355785 ]
[ 0.13836000941699153 0.201529638922322 -0.5840549280604458 0.1091500858274875 -0.04411711906800056 0.563020134436083 -0.3162549079906104 0.14755567936385772 -0.5077359454167124 0.16707936456521247 0.7072568407132525 0.46641760398335624 -0.5108516029968195 -0.03692972195789651 0.5625721343190723 0.6463995431024324 0.10689857983030077 0.06902348487033115 -0.09446006220442009 -0.08632496428918907 ]
[ 0.1128669729781609 0.09927498100569963 0.14916252378086692 0.13137929043117436 -0.04796647803327736 0.2094699363222108 -0.10318753816320161 1.0032873633402637 -0.4031514451486729 0.6208508756127394 -0.03255374432571054 0.1635706948848567 0.00969224731643898 0.9071149363833576 0.23544627644140984 -0.17608812691252176 -0.19215107386112038 -0.7251682505245577 -0.1711050877920485 -0.36866084392344595 ]
[ -0.2552015424707194 -0.18354726410772004 -0.40236690489453814 0.9461963776434164 -0.34551644618280497 -0.3185394591046014 0.3912548866080494 -0.07110116679114913 -0.6670081456965943 0.05936344487058163 0.4752382080820531 -0.15021027886755217 0.007079979971644857 -0.19669950822412285 0.4756593594025434 0.3297051692947188 -0.33348015900159195 0.42052396602870445 -0.00940693328902483 -0.0016313531433590019 ]
[ -0.34942850808998804 0.2372633705270879 -0.07484925385537242 -0.12266188156102492 -0.0695245459581465 -0.02984314317036641 0.2321834839784541 0.15227052922863699 -0.021425529902518607 -0.38694746556963777 -0.523718187554392 -0.21220122140869646 0.03415575523750901 -0.46256010715029433 -0.3798814078986447 -0.33495343125355015 0.10042594391561702 -0.17231156558069943 -0.126276425901526 0.41259922889872397 ]
[ 0.09039972684724365 -0.4059073071291527 0.06907940443595897 -0.49930840571557356 0.2761814458284351 -0.7484615933442272 0.7548903061970714 0.053560788199048734 -0.34426750134042716 -0.432190735258151 -0.3727106150180238 -0.4227763241297197 -0.32134822706071065 0.22181171015232287 -0.2919210132006183 0.3604937043829809 0.16437808971777482 -0.5184727090542385 0.35601500137016473 0.14044826316703785 ]
[ -0.0920385199132795 -0.08797534468185429 0.41723849825037657 0.6431716073077615 -0.14341207581759244 0.21043631917515093 -0.7434312281149694 0.06260316723170745 0.4834244020898495 0.20853411100864744 0.07597327551240342 0.2339817283277282 -0.03838736106399062 0.17930296472770407 0.6175241083625957 -0.6828281180475104 -0.016083608242096016 0.10437865888241879 -0.3030900275004519 -0.190859043909582 ]
[ -0.4785122437442099 -0.17578258485746032 -0.20852795960645712 0.00971220729291458 0.15680322648711773 0.43733555924828216 0.3814879133542945 -0.10866112267612596 -0.4849550782963184 -0.5876796298786366 -0.7126384006294796 -0.0724393830197121 -0.07168556244736352 -0.5367367587039942 -0.44120633818956084 -0.07707524179173186 0.6315457680081802 0.17946978317705797 0.14971662543160083 0.42486050701367273 ]
[ 0.019499592303083534 0.02838800797037078 -0.004672369793032257 -0.1411160979231029 0.32716800633931836 -0.1408501283288168 0.36584077214861366 -0.010188654939464763 -0.008380137767711045 -0.06109853726417258 0.0713388327900138 -0.06381518853724538 0.05054892977069963 0.2707890276066536 0.39937496101611164 0.09059192844047394 -0.03865584300006688 -0.1400373998479438 -0.04182791172825594 0.1871645697257873 ]
[ 0.032129770874380625 0.07432018005470199 0.10010178403431688 -0.0045176970312242335 0.4843601951447964 -0.2448699022657952 0.07166081891993822 -0.25172386612798325 0.2575942723671977 -0.24483903659416098 -0.08422802684111003 0.4205676466195978 -0.16323672366169623 -0.30771006319320565 -0.26902082267499544 -0.27550279764361535 -0.17752539391388977 -0.11005289787326307 0.37747081328003174 -1.155190927947372 ]
layer 5 Activation
tanh
layer 6 Dense
20 1
[ 0.14578486658968595 ]
[ 0.019314135658394804 ]
[ 0.2579417981139044 ]
[ 0.09323198276930802 ]
[ 0.8603058865325407 ]
[ -0.029802556652180557 ]
[ 0.12380876097341349 ]
[ -0.2543961180559861 ]
[ 0.1516960492586426 ]
[ -0.015641861317930387 ]
[ -0.12810584987322945 ]
[ -0.7890080664124476 ]
[ 0.22942595729077814 ]
[ -0.03854612075846264 ]
[ -0.05833860904887762 ]
[ -0.021208616601723976 ]
[ 0.005854607488711308 ]
[ -0.305307921738147 ]
[ 0.26389965173308205 ]
[ 0.6745638185495606 ]
[ 0.7599012090904259 ]
