layers 7
layer 0 Dense
20 20
[ 0.05243142 -0.2571329  -0.19122085  0.3047309   0.564943    0.26090527
 -0.2642043   0.21618016 -0.1209068   0.23054434  0.09415251  0.4399663
 -0.02956878 -0.4013222  -0.19373265 -0.4261137   0.09457087  0.1595744
  0.16705123  0.04891789]
[-0.05340213  0.17601621 -0.27965125  0.33579195  0.2678423   0.31887597
  0.09026092 -0.3155456   0.22867805  0.17726564  0.04711577 -0.14066295
 -0.09294605  0.21682769 -0.22417325  0.14843726 -0.03345594  0.31578863
  0.1832481   0.07542083]
[-0.11845437  0.38715476 -0.04022884  0.25557292  0.29546875  0.11464328
 -0.13894184 -0.29848003 -0.3242083   0.2562058  -0.04484922  0.07250598
 -0.09941137  0.32206225  0.3702289  -0.16911015  0.14960676 -0.07420364
 -0.03587845  0.32827723]
[ 0.05364358 -0.21333565 -0.00961543 -0.0374483  -0.00441479  0.28366968
  0.31427556  0.26913357  0.20473464  0.2920392  -0.206138    0.14590088
  0.19779147 -0.32315403 -0.00444269 -0.40998733  0.1864467   0.4531984
 -0.06107354 -0.14654979]
[-0.46214065  0.40636125  0.0997496   0.3767041  -0.27199566 -0.13684641
  0.3582614   0.54099524  0.4241779   0.2946695   0.04256592 -0.3555487
  0.37184107 -0.30367464 -0.7860928  -0.23286681  0.09972399 -0.0788812
 -0.22673225 -0.02611098]
[ 0.04729202 -0.12029257 -0.11673799  0.15781575 -0.3689643  -0.2924682
  0.12053746  0.2130478  -0.2271836  -0.12838128  0.36607254 -0.3338111
  0.05024043  0.03735229 -0.27393296 -0.05119991 -0.3784617   0.06655556
 -0.06203637 -0.24654841]
[ 0.1270929   0.20045495 -0.27340394 -0.28247544 -0.32413396  0.18783939
  0.20110857  0.277546    0.15313047  0.33955413 -0.28278625 -0.34565136
 -0.24963179 -0.34854344  0.16772127  0.26335394 -0.02090818  0.07960933
  0.0316447   0.15508598]
[ 0.6119611  -0.03391443  0.08765389 -0.36466554 -0.26878822  0.2552001
  0.18577537  0.20468189  0.12612599 -0.17819478  0.07178992 -0.13553008
 -0.41209272  0.03184902  0.4416784   0.03016774 -0.00102375 -0.42245793
  0.278962   -0.25405237]
[-0.668149   -0.7597794  -0.5006495   0.1419035   0.01890962 -0.38037887
  0.4793435   0.69115174  0.05746829  0.6561609  -0.5577513   0.8047666
  0.32181987 -0.51044834 -0.2732899   0.663024    0.63014424  0.14775918
  0.298338   -0.4770099 ]
[ 0.23204221  0.6855954   0.5953993  -0.9457886   0.75546384  0.8029484
  0.68314564  0.09484386 -1.0999597   0.25386617  0.45794475  1.2999371
  0.66829425 -0.36795646  0.98857266  0.6412715   0.47670048  0.9326898
  0.6564715   0.49061206]
[-0.1211458  -0.17200018 -0.7026075   0.20046459  0.684514    0.69389087
  0.58022916 -0.45570904 -0.21076334  0.58758974 -0.54201704  0.79194266
 -0.00134595 -0.22503945  0.86910343 -0.5294567  -1.0181278   0.39908823
 -0.5238804  -0.5877119 ]
[ 0.6373528   0.6813233   0.08024392 -0.42042318 -0.8056784   0.09334879
 -0.5131964  -0.5049775  -0.89633524 -0.13520823  0.62773436 -0.02416149
 -0.6411276   0.11935882 -0.0255855  -1.2690203  -0.30870405  0.24973868
 -0.5472514   1.4369825 ]
[-1.0913218   0.2358781   0.05702512  0.48842835  0.3006406  -0.9974372
 -0.70598     0.08491775  0.5320429   0.45930362 -0.15807424  0.33981115
  0.88561696 -0.6760535  -0.58191174  0.12055311 -0.07173424 -1.4464532
  0.3476047  -0.7236834 ]
[ 0.12786444 -0.19029306 -0.04504624 -0.28522456 -0.87592137  0.33922064
  0.6078341  -0.64694494  0.6309139  -0.78210056 -1.2610748  -1.9792969
 -0.8801234   0.5662984  -1.7876025  -0.99954194  0.12771101 -0.97241455
 -0.80053073  0.78685987]
[-0.0427165  -1.2009041   1.0854172  -0.52487963 -0.42520532  0.28418115
 -1.0307767   0.21858165 -1.1621459  -0.02215673 -0.26196826 -0.5867359
 -0.725032    0.44372538 -0.26505026  0.73309547  1.3427886  -0.06210783
  0.693727    0.78096575]
[ 0.6138612   0.83327323  0.58486384 -0.4586661  -1.0624937  -0.88100326
 -0.9901262  -0.7607533  -0.946276   -0.59950465  1.2476504  -0.4128789
 -0.69226295 -0.01833802 -0.02479153 -1.1674738  -1.1573505  -0.9759616
 -0.27053177  1.0135581 ]
[ 0.35954273  0.603051   -0.3034843  -0.18465896 -0.12308644 -0.366878
 -0.34260425 -0.44180605 -0.24477609 -0.01231242  0.44129783 -0.66399413
 -0.09830822 -0.14039047 -0.4366643  -0.30201495 -0.1225891   0.29317027
 -0.6978104   0.46840885]
[ 0.20654733 -0.24436884 -0.63790387  0.5158239  -0.06362686 -0.9375443
 -0.9226215   0.4108266   0.14262979  0.4295564   0.5367725   0.5708338
 -0.09946848 -0.24550551  0.79283345  0.18431425 -0.6102939  -0.3146304
  0.7228953  -0.509666  ]
[-0.06552228  0.9762503  -0.8945797  -0.0645776  -0.2621658  -0.8336377
  0.12155674  0.41113633  0.7412144  -0.42427868  0.70667434 -0.00580284
  0.56390184 -0.01025     0.07531872  0.2011971  -0.01147362 -0.47300288
  0.5818132   0.55535257]
[-0.55304873 -0.29171637  0.11169095  0.402865    0.78236556 -0.0701401
  0.3567691   0.2928426   0.7605333  -0.1788049  -0.6343813  -0.12985465
  0.76964605  0.03816835  0.25156766  0.7603318   0.4464573   0.14724483
  0.3778328  -0.5214261 ]
[-0.10649731  0.09283626 -0.3174869   0.0466135   0.34480372 -0.02896933
  0.1326662  -0.0875271  -0.03732129 -0.06072155 -0.1428651   0.07819695
 -0.0057119  -0.47049075 -0.21455386 -0.1779004   0.04161058  0.51212704
 -0.09062739 -0.04242294]
layer 1 Activation
tanh
layer 2 Dense
20 40
[ 0.27002344 -0.4623081  -0.08289603 -0.07920876  0.42822322  0.06876045
 -0.10641187 -0.57396406  0.4135207  -0.04021722 -0.39893112  0.5985947
  0.4873357   0.3555309  -0.54765886 -0.20294397  0.1236339  -0.30281925
  0.66117984  0.36448723  0.49379966  0.9065507   0.16682322  0.03181341
  0.38606745  0.18315569  0.18332513  0.54317653  0.1830613   0.3250665
  0.24303319  0.01184322  0.10634553 -0.22316417 -0.2953635   0.30932587
 -0.0122642  -0.57056624  1.0523045  -0.53319705]
[ 0.37963602 -0.36630955  0.47334787  0.6625157   1.086257    0.5515703
 -0.01060331 -0.15215535 -0.08849134  0.3706601  -0.6765182   0.79185486
  0.9755494   0.23473926 -0.0429558  -0.91358477  0.32373932  0.37717766
  0.7684049   0.07427199  0.01516005 -0.25002235 -0.5293283   0.3396483
  0.30510497  0.16344455  0.38957652  0.928955    0.44216424  0.04552191
 -0.61391073  0.50990736 -0.52596587  0.8228046   0.25387907  0.03945762
  0.56283385  0.62092066  0.24078512  0.44965032]
[-0.02634865  0.15003204 -0.5835909  -0.18386972 -0.45869914 -0.13890737
 -0.1976539   0.32062143  0.4150212  -0.03849699  0.6300631  -0.9017192
 -0.31963977  0.16136843  0.09638216 -0.01275946 -0.678738   -0.9014791
 -0.4650332  -0.24557175  0.01747372  0.33266866  0.10402966 -0.48903364
 -0.27976897 -0.40027305  0.26044968 -0.66497374 -0.7155258  -0.04026011
 -0.14576909 -0.5891397  -0.24483845 -0.11280275 -0.58227724  0.22448441
 -0.4725265  -0.03922081 -0.42693326  0.14064626]
[-0.28829435 -0.7495363   0.538809   -0.2860729  -0.6681716  -0.5672791
 -0.28236422  0.01504274 -0.22417039 -0.16184202  0.01801186  0.17087378
 -0.08325476 -0.33482862  0.34240517 -0.148396    0.740253    0.38952386
 -0.3114542  -0.11797643 -0.27154556  0.13900036  0.3278256  -0.27911156
 -0.12873468 -0.0325013  -0.67317057  0.10837761  0.1956054   0.29623857
  0.4114697  -0.5115734   0.2884824   0.31375626  0.6899895   0.34017202
  0.5168857   0.2592312  -0.36323586 -0.39199346]
[ 0.79555523 -0.20908473  0.24639894 -0.01373004  0.12525794 -0.04466991
 -0.05865049  0.18267635 -0.5933427  -0.35301438 -0.49833292  0.2456215
  0.319044   -0.23917565 -0.7494726   0.23260292 -0.20777917  0.3725512
  0.7651143   0.1135487  -0.04243146 -0.75455636  0.4555149   0.14315745
 -0.6723689  -0.20992325 -0.05965259  0.5733741   0.210432    0.01970015
 -0.53843284  0.7195263  -0.6182291   0.0536656   0.09672949  0.09622096
 -0.07170598  0.38054547 -0.3340734   1.0295447 ]
[ 0.27148953  0.53983843  0.35304418  0.12354561 -0.14568417  0.09570077
 -0.2912242  -0.33494186 -0.3167548   0.1854056  -0.4348921   0.1431631
  0.3563392   0.25946245 -0.4728058  -0.02058283  0.22373292 -0.35974482
  0.13013864  0.02708357 -0.44826344 -0.31640407  0.11238262  0.65648365
 -0.28240135 -0.34397483  0.11484673  0.31948984 -0.22009262  0.41894597
 -0.4801792  -0.05303217 -0.4722188   0.43246764 -0.3204824  -0.26226336
  0.22110233 -0.01666695 -0.4719698   0.41315314]
[ 0.00609139  0.56989    -0.010973    0.02050167 -0.31091502 -0.17367983
  0.8565442   0.35663518 -0.25292695 -0.23736864  0.07780606 -0.13667977
 -0.43542978  0.1265132  -0.10605858 -0.39232707 -0.01209841  0.3424022
  0.70005447 -0.0848189  -0.61750567 -0.0857304   0.19845834  0.67673236
  0.01226091  0.36353838 -0.25945905 -0.4707302   0.36358213 -0.52926356
  0.23998001  0.6084095  -0.10950726  0.714814    0.29787692 -0.9883634
 -0.19889377 -0.54305905 -0.31512383  0.55451655]
[-1.2341600e-01 -1.4755484e-01 -1.8888448e-01  6.2235659e-01
 -1.2404661e-01  1.8405101e-01  9.4162457e-02  2.5106895e-01
 -4.4555545e-01  2.5536360e-02  4.0116692e-01 -2.5709465e-01
 -9.8704833e-01 -3.5400560e-01  8.3077043e-02  6.4786978e-02
 -1.1538017e-01 -3.4608600e-01 -9.1249329e-01 -5.7285964e-01
 -6.9197261e-04 -3.4995577e-01  1.2849970e-01 -3.4808016e-01
 -5.5904832e-02 -2.3626730e-01 -6.9332349e-01  1.4259569e-01
 -1.1102281e-01 -4.8490414e-01  3.4993771e-01  2.4894917e-01
  2.8447127e-02  2.2980013e-01 -9.7348541e-03 -1.2017171e-01
 -4.0530458e-01 -2.9237306e-01  2.5824580e-01 -1.3048461e-01]
[-0.61354    -0.3864577   0.512929    0.5414755  -0.3616915   0.33971867
  0.4729664  -0.69368136  0.27081865  0.31762603  0.42641366  0.24231292
  0.07295886 -0.22851713  0.33556023 -0.09138958  0.2585005   0.35288575
  0.25496194  0.03917974 -0.8924286   0.41052806 -0.63124025  0.28479657
 -0.45569757  0.386768   -0.8978733  -0.46241924  0.5450432  -0.8388617
 -0.05612249  0.7709072   0.06090774  0.88812286 -0.00359418 -0.9397533
 -0.02345332  0.32138515 -0.44230023  0.46557572]
[-0.2651611   0.6425643  -0.30410436 -0.5587247   0.01056118  0.1486619
 -0.672584   -0.0297431  -0.4457384   0.4053803  -0.49994323  0.32365635
  0.4794158  -0.46136197 -0.10114121  0.43368378  0.08748621  0.01472437
 -0.04298419 -0.3045038   0.26048008  0.04354391 -0.05655455 -0.3681698
  0.03691272 -0.5673387   0.18114968  0.02492448 -0.1433284   0.59817183
  0.18011896  0.23833263 -0.05169783 -0.3502693   0.04176545  0.32713956
  0.55840707  0.12175744 -0.11717421  0.4906676 ]
[ 0.52396816  0.1262375  -0.12865768  0.28421164  0.5596834   0.67473394
 -0.41739866 -0.22588705 -0.36805546 -0.0329028  -0.89877605  0.3071872
  0.95422417 -0.06666523 -0.290368   -0.11014669  0.13293028  0.37634075
 -0.03174582  0.3075466   0.510447   -0.16308469 -0.12399039  0.12078992
  0.3006724  -0.23829377  0.40489614  0.4800522   0.16167247  0.7237371
 -0.11996993 -0.05885847 -0.42854053 -0.0835742   0.07168611  0.71854544
  0.3352443   0.23527606  0.5649882   0.21264108]
[ 0.48395577  0.46777162  0.25449222  0.01716919 -0.43464714  0.38599804
 -1.0192999   0.5306623  -1.5358809  -0.01334462 -0.54708487  0.14369015
  0.745159    0.3185204  -0.7000789  -0.32678676  0.82191765 -0.16804996
 -0.29711655 -0.9994801   0.42547235 -1.1554105   0.652819   -0.5457147
  0.29724514 -0.92418313 -0.25575653  0.92087317 -0.45522183  1.1002774
 -0.9224009  -0.10578951 -0.35569108  0.03857908  0.44175583  0.3363582
  0.07518006  0.53434575 -0.21015564  1.2030813 ]
[ 0.61044776  0.3387126   0.07442204  0.37509277  0.1734105   0.31148198
  0.3005905  -0.57877874 -0.07980403  0.19722015  0.01962991  0.15897067
  0.00816996 -0.3317429  -0.3298126  -0.25521976  0.03887646  0.47572058
  0.26094487  0.30214667 -0.5199572  -0.27171886  0.10901666  0.33949512
 -0.8523692   0.51747566 -0.40788028 -0.06638356 -0.04741634 -0.23888347
 -0.58650845  0.5648748  -0.01634689  0.92058533 -0.27051014 -0.75504124
 -0.4188127   0.07324714  0.00252176  0.37823632]
[-0.6872017  -0.19506086 -0.1771929   0.21694706  0.10293671  0.39349076
  0.13722742  0.1243585   0.04961526  0.03877293  0.42686522 -0.0448755
 -0.46492535 -0.04174307  0.11427233 -0.304495    0.18979816 -0.19292782
 -0.15109493  0.18470751  0.04725374 -0.05529565 -0.1642604   0.11433692
 -0.3143969   0.06598665 -0.15711784 -0.3912597  -0.01960879 -0.28780973
 -0.08819684 -0.40499693 -0.10496958  0.2644551  -0.10568861 -0.00567749
 -0.09184477 -0.552773   -0.14870706 -0.4134011 ]
[ 0.40426165  0.03589452  0.1912361  -0.00323402  0.5115601  -0.17966303
 -1.0027548   0.49527806 -0.9708099  -0.29349288 -0.9137257   0.8308552
  0.5040973   0.22745183 -0.6317695   0.20341852  0.5327048  -0.3337694
  0.10149836 -1.0622977   0.01429516 -0.3098689   1.1543477  -0.6473097
  0.15519899 -1.4443644   0.02543075  0.41599625  0.22216088  0.9365649
 -0.73006094  0.08458198 -0.4879128   0.01527569  0.16613443  0.50675577
  0.33569452  0.39219925 -0.27471396  0.05547418]
[-0.5991219  -0.22243239 -0.08500727 -0.01100172 -0.18698251  0.2917322
 -0.25530118  0.2551439  -0.22299096 -0.35739127  0.40612456  0.17763434
 -0.05007144 -0.42950526 -0.22977069  0.60478973 -0.4344173  -0.5509301
 -0.6901816  -0.57503784  0.18795288 -0.7246076   0.19977744 -0.43965456
 -0.6997424  -0.242805    0.31140825  0.35802916 -0.2042261   0.10970751
 -0.20292799 -0.56977415  0.15598063 -0.5104778  -0.40789843  0.85791117
 -0.3753741   0.28755903  0.24237108  0.27849048]
[-0.56213325  0.4079145  -1.024067    0.6071407  -0.72152716  0.17129324
  0.8623498   0.20754142  0.31113106 -0.17674339  0.3996095  -1.2315438
 -0.75347984 -0.71242225  0.15346503  0.74271095 -1.6762587  -0.96304977
 -1.2853374   0.10123831  0.6334733   0.35132805 -0.19802028 -0.39945775
 -0.12084299  0.49918488  1.0609349  -0.52930105 -0.19509494 -0.9372949
  0.47326154  0.09860458  0.3462986  -0.94500524 -1.1415007   0.19983761
 -1.6041778  -0.45199507  0.03602588 -0.10903233]
[ 1.2945096   0.25836018  0.65670425 -0.13824213  0.29609838  0.21256684
 -0.9685572   0.12975004 -1.1976337  -0.2670118  -0.6906445   0.7019431
  0.28737754  0.43863043 -0.21393852  0.01795709  0.024934   -0.29552492
  0.12110298 -0.84222305  0.42763454 -0.838563    0.18130837  0.04779456
  0.2422959   0.11130626  0.04158584  1.1163119  -0.14291713  0.94176275
 -0.46129385  0.15474178 -0.42529917  0.12892585  0.18664168  0.4398957
  0.12874532  0.20437603 -0.22971854  0.8609908 ]
[ 0.03860046  0.06838111 -0.3772875   0.4044887   1.3040968   0.63354266
  0.16350438 -0.1536483  -0.6117225   0.06230627 -0.5139505   0.26306704
  0.42759332  0.14175963 -1.069102    0.17371397 -0.65027434 -0.1440458
 -0.05900215 -0.362359    0.63280654 -0.30577797  0.6335838  -1.2209519
 -0.37513405 -0.5680927  -0.20584542  0.5700098  -0.18759963  0.35105795
 -0.890731    0.8525886  -0.8288844  -0.3125636  -0.38233575 -0.29779422
 -0.7033869   0.04865397  0.3786855   1.2153063 ]
[ 0.28285256 -0.62884676  0.08998751 -0.2552415   0.3686082  -0.22502738
  0.44298276 -0.36945403  0.9007766   0.90971524  0.25682905 -0.32930002
 -0.19106522 -0.40564945 -0.02982973 -0.00764268 -0.78431237  0.02422269
 -0.0721285   1.0261298   0.44840154  0.82247823 -0.8330104  -0.14890307
 -0.04312264  0.5269149   0.7717137  -0.15159062  0.71965486 -0.44003448
  0.7551906  -0.53217065  0.95135176 -0.49492592 -0.6640558  -0.333352
 -0.19669963  0.15144666  0.95153344 -1.0312078 ]
[ 0.45512503  0.385521   -0.0291805   1.072908   -0.44926816  0.10263895
  0.21144758  0.1285986  -0.3293516  -0.45295504 -0.08516172 -0.15065056
  0.11529557 -0.61949223  0.21903205  0.2068221   0.07000092  0.69577485
  0.12994407 -0.1720472  -0.40024266 -0.543173    0.33025742 -0.15807863
 -1.0054973   0.49370462 -0.56592035  0.4369155  -0.3586361  -0.06564952
 -0.22377312  0.19135387 -0.4094089   0.08318257  0.37090924 -0.91295177
 -0.05593543  0.58975464 -0.5562227   0.6157787 ]
layer 3 Activation
tanh
layer 4 Dense
40 20
[ 0.12386277  0.1830284   0.21548422 -0.6535907  -0.30703336  0.95592654
 -0.41413954 -0.1560548   0.26724365 -0.6708906  -0.00496016 -0.19022128
 -0.1170492  -0.22308798 -0.69083863  0.00388002  0.5652665  -0.45921448
 -0.27784678 -0.11799797]
[ 0.24404229  0.41286564 -0.02993722  0.11843609 -0.06107927  0.25852266
 -0.04321471  0.30496785  0.4845912  -0.20471346 -0.4386527  -0.23315832
 -0.01945244 -0.51262414 -0.41224194 -0.23133892 -0.07656743  0.08689829
 -0.5026271  -0.21152529]
[-0.5528017   0.13789964  0.40606007 -0.57213336  0.32663247  0.24362181
 -0.0794322   0.406261   -0.18986888 -0.49596265  0.11909206 -0.33094123
 -0.12918636  0.3609117  -0.12088669 -0.03367593 -0.10913426  0.46455818
  0.12857276 -0.48478007]
[ 0.6727571  -0.24632894 -0.07574798  0.02883792  0.53885233  0.6003773
 -0.15756811  0.07939534 -0.1038278  -0.06067675  0.0497258   0.50411904
 -0.04201855  0.41889936  0.8774623  -0.7433013  -0.21561792 -0.30955297
  0.17766741  0.3018917 ]
[-0.38854644 -0.2088981   0.0206324  -0.54512864  0.11925243  0.6751542
 -0.28655604 -0.24371006 -0.04558685  0.01231407  0.34771702 -0.42226052
 -0.4205732   0.30084515  0.44673908  0.2739498   0.8945576  -0.8807447
 -0.06932316  0.28078422]
[ 0.42526412  0.18878019 -0.07298514 -0.01688264  0.39272922  0.27319247
 -0.35452348  0.4051613   0.86490345  0.4673839  -0.7388392   0.04923175
 -0.24048343  0.07979097  0.01825546 -0.03161065  0.02976515 -0.35469767
  0.42176148 -0.12227824]
[ 0.4761035  -0.72504187 -0.2218192   0.17010123  0.19176237 -0.16835186
  0.47482577  0.0400909  -0.75425446  0.20125516  0.6762201   0.8000422
  0.72820467  0.26434574  0.7042577   0.00499883 -0.46286032  0.16477162
  0.410706    0.04890798]
[ 0.3496443   0.48233137 -0.71546394 -0.02271051 -0.6319197  -0.08804331
 -0.3891304  -0.62112045  0.07252962 -0.00578833 -0.12949863 -0.5836887
  0.14484957 -0.5680849  -0.81845623 -0.37973788  0.08068389  0.0514427
 -0.18104517  0.04032298]
[ 0.07683913 -0.900251    0.08787052  0.3317772  -0.0229522  -1.0506716
  0.5888891  -0.161462   -1.383941    0.10131826  0.9574597   0.87422866
  1.1578017   0.06934647  0.5505449   0.10871687 -0.10149249  0.09316061
  0.7072577   0.39840528]
[ 0.12604725 -0.3788948   0.34753796  0.2579476   0.6284309  -0.2862983
  0.07683733  0.3217966   0.03106716  0.06217603 -0.01943718  0.35406628
  0.28887135  0.65644085  0.19217035  0.41462347 -0.02360279  0.4131312
 -0.01948411 -0.12023949]
[-0.51156354 -0.37036288  0.07414962  0.6165003   0.3808503  -0.6559155
  0.6989137   0.32668805 -0.95594317 -0.46258375 -0.07129147  0.10007162
  0.6633498  -0.01523948 -0.17220426  0.18852158 -0.50553083  0.8294489
  0.61924845 -0.63675076]
[-0.12892802  0.18062101  0.48855707 -0.38212883  0.17586663  0.3373445
 -0.25490218  0.14272687  0.6563105   0.0458984  -0.4473147  -0.71807605
 -0.8594474   0.51311594 -0.01947499  0.3988904   0.2998054  -0.32690567
 -0.38676205 -0.1297755 ]
[ 0.31521797  0.39197564  0.35161796 -0.49670592 -0.16736074  0.6853251
 -0.78399205 -0.1458307   0.85950637  0.1609826  -0.3128762   0.3796829
 -0.22651872  0.08064412  0.03151458  0.29883894  0.5362934  -0.9399187
 -0.38507825  0.21773444]
[-0.9297903   0.18530224  0.02257741 -0.12495191 -0.1793109   0.13110228
 -0.13955076  0.17074691  0.03204959 -0.20289783 -0.50240105 -0.04217936
 -0.0836872  -0.46136752 -0.3378686   0.5344418   0.45699638 -0.24940787
 -0.12576285 -0.7003042 ]
[ 0.20978795 -0.15802848 -0.33615977  0.5262626   0.13136075 -0.5565522
  0.8073281  -0.29933152 -0.39030844  0.02447688  0.22663306  0.1222171
  0.24671294 -0.07618301 -0.05909051 -0.5180127  -0.6779551   0.5865069
 -0.29514518 -0.1440326 ]
[ 0.06927938  0.03078691 -0.36459184  0.08524536 -0.47887373 -0.06703073
 -0.04509164 -0.35407874  0.04994291  0.07643064 -0.08782674  0.18161237
  0.19550753 -0.7476994  -0.3401712  -0.19565319 -0.13866642 -0.13602993
 -0.20076083  0.02334357]
[-1.7917709  -0.08742352  0.9905956  -0.6220361  -0.05876446  0.30003104
 -0.06000847  0.7771774   0.45281437 -0.5688728  -0.19212613 -0.55847967
 -0.5593044   0.349493   -0.2788677  -0.04922008 -0.0675258   0.40211633
 -0.2719812  -0.9752429 ]
[-0.08194978 -0.34186542 -0.07232424  0.16037212  0.7897291  -0.16675201
 -0.03775987  0.10934981 -0.2325676   0.02522703  0.6721746   0.1771077
  0.15556651  0.6692493   0.6656738  -0.5006223   0.0262339   0.03190713
  0.27947152 -0.10008012]
[-0.29324797  0.01146051  0.7603503  -0.2088961   0.17571566  0.2208677
 -0.27098924  0.6567681   0.2356354  -0.39845684  0.7046561  -0.3406078
 -0.5865286   0.35523373  0.7585392   0.43460268  0.6453789  -0.47633776
 -0.01694298 -0.07089574]
[ 0.02351667 -0.7900746   0.29830435  0.31525728  0.33422312 -0.502261
  0.03665633  0.13822016 -0.7870246   0.27843454  0.56304836  0.72408843
  0.48870197  0.1327009   1.2107055   0.20384854  0.13652824  0.2635607
  0.69768286  0.28874612]
[ 0.8148909  -0.01940749 -0.28188908 -0.27546653 -0.55611676 -0.09382442
 -0.16535777 -0.20224203 -0.20072915  0.2712841   0.8031685  -0.5014876
 -0.41191256 -0.31053108  0.5782374   0.21814702  0.51673174  0.12912787
 -0.5664482   0.4926074 ]
[-0.0619407  -0.60532135  0.4131441   0.7087402   0.28027055 -0.71808434
  0.66739815 -0.1500069  -0.625667   -0.12393976  0.5999513   0.6077131
  0.9804814   0.06090021  0.271671    0.29410526 -0.33745626  0.08891132
  0.42292467  0.2472174 ]
[-0.41617948  0.28350475  0.02874367  0.0625212  -0.03688588  0.2935096
 -0.21451919  0.17610794 -0.16897868 -0.12704009 -0.56623095 -0.44771516
 -0.2724662  -0.54836    -0.56693465 -0.14377014 -0.06881694 -0.35171884
 -0.19982708 -0.2672625 ]
[-1.13268524e-01 -3.83048087e-01  4.62535262e-01  1.69130191e-01
  1.88032255e-01  5.56596569e-06  1.90806523e-01  3.44271392e-01
 -1.28790542e-01 -5.86616278e-01  3.92224342e-01 -3.65275959e-03
 -9.94088426e-02  9.55917165e-02  4.94355530e-01  1.87619269e-01
  7.64933005e-02  3.98247600e-01 -6.55327022e-01 -1.86439589e-01]
[ 0.4365531   0.40481198 -0.171085    0.36318946 -0.18002425 -0.5445442
  0.08793876  0.140336   -0.44704866  0.04678791 -0.95768136 -0.17669955
 -0.24562158 -0.17838982  0.14542924  0.9745432  -0.20591217  0.03744086
 -0.26654172  0.29020026]
[ 0.39864197 -0.82388437  0.26891756  0.16175556 -0.04295947 -0.5853484
  0.49623924  0.07868242 -0.71440125  0.0506408   0.26301345  0.7391525
 -0.07695442  0.12412635  0.56815267 -0.5076515  -0.38959017  0.23811923
  0.67706996  0.36333886]
[ 0.557857    0.03084632 -0.55327433 -0.25636765 -1.0702472  -0.41413316
  0.283492   -0.41637537 -0.5540151   0.21408619  0.19988716 -0.3377977
 -0.44032556 -0.95767987 -0.02146174  0.24598673  0.26905784  0.12769733
 -0.7018217   0.6621661 ]
[-0.0265052   0.60178244  0.6544532  -1.1209835  -0.19819738  1.2820781
 -0.23850574  0.02948192  0.79498094 -0.2727585  -0.28648117 -0.6327147
 -0.87987244  0.33423907 -0.22369453 -0.15392134  0.25443843 -0.5025827
 -0.11553437  0.25690615]
[-0.03351589 -0.43803245  0.15767884 -0.30693486  0.5179078  -0.04973383
  0.22054489  0.06708686  0.39658087 -0.06515394  0.4016454   0.12418691
 -0.1834436   0.66502535  0.28000808  0.4169501   0.17357421  0.03361944
  0.44930845  0.32447663]
[-0.3214074   0.9071399  -0.10725546 -0.67620945 -0.42007956  0.34974355
 -0.36659744 -0.41305843  0.95746464 -0.22566643 -1.0167346  -0.98111695
 -0.56230754 -0.18270063 -0.9522883  -0.21362334  0.5266911  -0.39231136
 -0.49869984 -0.0913533 ]
[ 0.16886495 -0.3202899  -0.5429109   0.7051205  -0.4850304  -0.85001224
  0.39519086 -0.7166632  -0.8108124   0.04040214  0.30965605  0.24773638
  0.6943091  -0.27246708  0.5832595  -0.34176847 -0.5303946   0.5216814
  0.23557997  0.29091874]
[-0.17307788 -0.02173897  0.47952798 -0.1945847   0.4617985   0.04614634
 -0.49856964  0.44897643  0.33465362 -0.01826804  0.30206314  0.628249
  0.02874295  0.4605296   0.33004484 -0.15321803  0.5973334  -0.7742651
  0.33561525 -0.23137496]
[ 0.09828946 -0.31746447 -0.37264654  0.9599223  -0.3388679  -0.90093976
  0.38042513 -0.3229183  -0.18512289 -0.02244829  0.18352693 -0.06160818
  0.33313105  0.27308017  0.27330723  0.19095801 -0.62676847  0.68950266
  0.30820394  0.0962311 ]
[-0.30441445 -0.14739501  1.3096776  -0.03075674  1.2019496   0.28241503
 -0.31872332  0.85627615  0.13427146 -0.47151133  0.72787416  0.11458316
  0.02502993  1.0723658   0.48030874 -0.10955706 -0.01759847  0.03666274
 -0.03767581 -0.43719015]
[-1.4766375   0.07842814  0.32346272 -0.16117145  0.65272325 -0.05230239
  0.07669335  0.50926524 -0.39954662 -0.83923316 -0.06615218 -0.28247502
  0.07683894  0.31778455 -0.322332   -0.20246774  0.02670511  0.06795041
  0.2576946  -0.8391736 ]
[-0.24555095 -0.21328413 -0.48263407 -0.10477652 -0.91507185 -0.25597206
  0.17635538 -0.2890174  -0.0196943   0.06504883 -0.2654038  -0.5202421
 -0.22927447 -0.7781977  -0.42388022  0.6531733   0.09549263  0.35889184
 -0.38471204  0.2357393 ]
[-0.7555226   0.23136204  0.73959905 -0.12421073  0.39597777  0.36318713
  0.09823699  0.5063412   0.36953008 -0.05514191 -0.30991298 -0.05934945
  0.11093178  0.11697276 -0.398505    0.06712736  0.1839199   0.08241532
 -0.42641562 -0.90489614]
[ 0.07600523  0.04272612 -0.1565628  -0.15429306  0.23555413  0.24596629
 -0.2730175  -0.34211716  0.3744715   0.07567838 -0.23426843 -0.21572293
 -0.600844    0.2353642  -0.12872072 -0.31457356  0.6940628  -0.6815904
  0.01751828  0.31747153]
[ 0.6969256  -0.16667019 -0.5099896  -0.3907469  -0.3936501  -0.01252928
  0.2639113  -0.55257314 -0.701093    0.19187327 -0.06673429 -0.14022532
 -0.00374747 -0.4995727   0.7955912   0.59935075  0.05891461  0.56038153
 -0.38305405  0.40339404]
[-0.15996905 -0.02759166  0.3460243  -0.7969121   0.29613972  0.58847535
 -0.2598661   0.5839229   0.64032215  0.3989469  -0.18740916 -0.24277097
 -0.5905778   0.04569311  0.24409637  0.13877688  0.9579982  -0.83986413
  0.2513652  -0.07002565]
[-0.29622388  0.00229922  0.02359823 -0.42012578 -0.09398656  0.49127787
 -0.13426097  0.11583168  0.151557   -0.10862488  0.15453008 -0.05998954
 -0.18593872  0.04167426  0.08372235 -1.4853586   0.05758648  0.10177597
 -0.23989522 -0.18703754]
layer 5 Activation
tanh
layer 6 Dense
20 1
[-0.72766554]
[-1.2522064]
[1.065949]
[-1.1565329]
[-1.0011091]
[-1.011512]
[0.75288546]
[-1.2797171]
[-0.7547793]
[-0.5317325]
[0.5994082]
[-1.1973474]
[-1.1724253]
[0.9814901]
[0.7010541]
[1.4393189]
[1.2774627]
[0.97623795]
[-1.2769376]
[1.013891]
[1.1975582]
