layers 7
layer 0 Dense
20 20
[ 0.31182057 -0.8952252  -0.52465487 -0.26189187  0.26763362 -0.30730847
  0.0080282  -0.3879436  -0.18641469  0.10426309  0.52909356 -0.22047505
  0.16075225  0.0372813   0.23775052 -0.04873845  0.34996006  0.3037783
  0.08776804 -0.39532813]
[ 0.8916193  -0.42694083  0.07233991  0.29473323  0.257234   -0.19421192
 -0.028524   -0.14722688  0.09616225  0.913997    0.64429855 -0.31454235
  0.2701545   0.07998513  0.21719494  0.02560862  0.14639802  0.17138076
  0.26340303 -0.35229778]
[ 1.0168759  -0.5776443   0.35379976  0.0980119   0.06921721 -0.05444798
 -0.30021593 -0.72655284 -0.1009529   0.56080526  0.3210356  -0.42063987
 -0.25031105  0.5257596   0.269416   -0.4322764   0.25186083 -0.04025319
 -0.23995379 -0.5387278 ]
[ 0.5085241  -0.70085174 -0.07920176  0.3709665  -0.24518573 -0.1686521
  0.3811944  -0.37887996  0.47935358  0.30081198  0.17075227  0.1270152
  0.17928793 -0.07867004  0.05737405  0.16389023  0.10210901  0.12569937
 -0.33479643 -0.45387396]
[-0.7758412   0.39772105  0.4395388  -0.21541786  0.0973435   0.17077468
 -0.00844615 -0.17520781  0.08038329 -0.64279574 -0.11563584 -0.19735508
  0.0620573  -0.01607669  0.10837705  0.29655343  0.00316628 -0.13962424
 -0.09184324  0.13730198]
[-0.30502263  0.45887297 -0.25699046  0.26088125 -0.07308388  0.62174606
  0.0078943   0.46494776 -0.38264474 -1.1075232  -0.03625528  0.8187946
 -0.46136838 -0.08365833 -0.384758   -0.07124503  0.13386458  0.14763726
 -0.11635948 -0.21448366]
[-0.45072326  0.40011704 -0.52406955 -0.07490012  0.19338323 -0.04004858
  0.21035658  0.34295696 -0.16703936 -0.71184707 -0.46039626  0.29401103
  0.10386001 -0.24902275 -0.09980881  0.30914938 -0.28584224 -0.0357714
 -0.23555313  0.29192397]
[ 0.2625741   0.25276896  0.35697362  0.04351693  0.1260884   0.48477146
 -0.08624002  0.245586   -0.20776676  0.2276609  -0.07352206  0.17316534
 -0.3623459  -0.34712052 -0.04225997  0.05224643 -0.4620457  -0.29319775
 -0.32366064  0.4799293 ]
[-0.41796073  0.6702521   0.53854316 -0.07021353  0.37282053 -0.1276015
 -0.06141446  0.43641895 -0.54203254  0.0070493  -0.38534808  0.4361405
 -0.04614636 -0.05505989 -0.14571255  0.20254023 -0.489342   -0.1089279
 -0.01460439 -0.07934056]
[-0.6381486  -0.2320556  -0.08653414 -0.1028602  -0.09808344 -0.1386275
 -0.14840356  0.14562841 -0.4004965   0.3845411   0.16072476  0.71485823
  0.12019657  0.5793523   0.5347375  -0.8134836   0.15826982  0.12568021
  0.37726253 -0.01876072]
[ 0.2717483  -0.41125926  0.3339599  -0.6089706  -0.08938746 -0.35414177
 -0.244557    0.3993807  -0.05388856 -0.02302263 -0.34750193  0.02152413
  0.5030338  -0.3040084  -0.34298655 -0.20089859 -0.01992596 -0.02875354
 -0.28512976 -0.09127976]
[-0.7599337   0.57061964 -0.32827544 -0.17976525  0.32855207  1.3444877
  0.84819293  0.5855332   0.00835573 -0.17630899 -0.12140978  0.6951255
 -0.83816624  0.56296396 -0.99365485  0.5999237  -0.4531098  -0.68053466
  0.21019432  0.9297881 ]
[ 0.20530438 -0.04754528  0.30606163 -0.0296522   0.0158901  -0.21018457
 -0.01242361 -0.2388804  -0.28814077 -0.18963188 -0.33986667  0.0720012
  0.17065342 -0.10159492 -0.39366955  0.44129476 -0.67482996 -0.1242096
  0.10145433  0.39512604]
[-0.60275126 -0.17073436  0.09727894 -0.2202612  -0.21120606  0.15445133
 -0.20429207 -0.88747776 -0.2513494   0.2393334   0.05798491 -0.0811255
  0.04211984  0.31764305  0.5119152   0.01332223 -0.16624475  0.06158744
 -0.1920193   0.20138934]
[ 0.336181    0.25726408 -0.85338235  0.02850471  0.11850046 -0.5507733
 -0.47016376 -0.09156451 -0.15616073  0.35327005 -0.52344686  0.4121542
  0.3351872  -0.4456114  -0.50478524  0.3516552  -0.244705   -0.28057665
 -0.42934453  0.0195599 ]
[-0.18129341  0.15766053 -1.1018074   0.13105121 -0.3750859   0.66799664
  0.36977142 -0.40647447 -0.5038207  -0.8086444  -0.6577394  -0.33911017
 -0.27470267 -0.04792519 -0.05672894  0.19645466 -0.8059927  -0.35124862
  0.67334074  1.1482301 ]
[ 0.03672343 -0.803195   -0.28679466  0.21497509 -0.2790933   0.23990151
 -0.662516   -0.24947768  0.7699487  -0.09974712  0.67029077 -0.91922677
  0.36183038 -0.7337261  -0.05543548 -0.46458825  0.42880568  0.4842267
  0.35310355 -0.99398667]
[ 1.965172   -0.25559714 -0.0118304   0.58554435 -0.58825314  0.38950953
  1.1056868   1.100589    0.868755   -1.0407774   0.12819752 -0.87397397
  0.33998913 -0.70887715 -0.9510831   1.5381967  -0.24626057 -0.2749299
  0.21836789  0.33633247]
[ 0.26250523 -0.44457036 -0.23251252  1.3982056   0.06086445  1.4225553
  1.8359587  -0.2722654   0.4646046  -0.5450579   0.31514174 -0.55655587
 -1.1962998   0.8924783   1.5256939  -0.5695429  -0.19324046 -0.27058578
  0.9981436   0.10792711]
[ 1.0865155  -0.45107928  0.19169341  0.5234772  -0.71084994 -0.36106098
 -0.7424685  -0.33111215  0.4850612   1.4637622   0.4428932  -0.4382765
  1.0029199  -0.06629672  0.801129   -0.7028535   0.37199414  0.20024943
 -0.8371453  -1.1371264 ]
[ 0.25119525 -0.15349346 -0.29842633  0.0987211  -0.05172946 -0.34772637
  0.23056607 -0.15884623  0.06625549  0.06874424  0.20012574 -0.07447386
 -0.1257448   0.18510692  0.24270707 -0.14913873  0.23787148  0.10681558
 -0.05498977 -0.1561927 ]
layer 1 Activation
tanh
layer 2 Dense
20 40
[ 0.2945328  -0.5589563  -0.5872259   0.07174646 -0.26313215  0.452973
  0.2775401  -0.29502374  0.28654736  0.21081686  0.1126616   0.04443258
  0.504976   -0.6435793   0.306279    0.16406699  0.4093841   0.6650784
 -0.05513458  0.09725132 -0.2758257   0.2620974   0.12058947 -0.02003764
 -0.2579542  -0.06570959 -0.4383135   0.1319555  -0.32728526 -0.8973999
  0.2251386  -0.45202652 -0.10208033 -0.39203852 -0.85520464  0.43535188
 -0.01053603 -0.11975039  1.0389302  -0.54868525]
[-0.38391486 -0.01889515  0.59952945 -0.31483954 -0.11839565 -0.27777323
  0.1473692   0.02655251 -0.18395384  0.34764385 -0.6328571  -0.1737386
 -0.15422799  0.2775761  -0.30188763 -0.01620954 -0.18596488 -0.3212778
 -0.29339856 -0.08845682  0.54438025 -0.14669204  0.29463804  0.27684888
  0.5009311   0.07449638  0.35972556  0.14669581  0.0395181   0.59172624
 -0.15269475  0.2993628  -0.008566    0.21468571 -0.27468902 -0.27525848
  0.16867697 -0.1844068  -0.0184522   0.4604557 ]
[-0.07640178  0.02786962 -0.11474308  0.19882707  0.02525717 -0.18486251
  0.0857276  -0.29390398 -0.2959323   0.36385173 -0.44917896 -0.12910087
 -0.41803065 -0.4244047  -0.32196856 -0.19854112 -0.10076355 -0.71436393
 -0.19575718  0.2811337  -0.1372418  -0.13796544  0.23822212  0.1573654
  0.52899927  0.35139734  0.6271702   0.4277786   0.2276647   0.00576107
 -0.07732265  0.47983712 -0.06401519 -0.0775      0.01287449 -0.281458
  0.3381649  -0.25693092 -0.36783347  0.18948978]
[ 0.35758486  0.45759252 -0.07345195  0.11218178 -0.4510747   0.04090978
 -0.06819559 -0.22224379  0.09025098 -0.00354159  0.00810365 -0.21340716
 -0.0785027  -0.00503874 -0.06732827 -0.32593924  0.11894276  0.4756514
  0.02292199  0.06140893 -0.21762674  0.3456713  -0.39554283 -0.385645
  0.25995377  0.11946522 -0.4093186  -0.09530696 -0.00447841 -0.16566995
 -0.13342413  0.15862101  0.07245743 -0.17265297 -0.13926934  0.20402119
  0.27087197 -0.01277166  0.14622343 -0.28876844]
[-0.10433444  0.3275349   0.10289148 -0.22248524 -0.10747363  0.19168696
 -0.11689889  0.16180968  0.00790599  0.08041832 -0.01808182  0.02548198
 -0.05170767  0.13224371 -0.02708511 -0.0166512   0.07469092  0.13907719
  0.00283913 -0.22579639 -0.04769627  0.19917235  0.2618248   0.10865318
 -0.00999794 -0.33432582 -0.10390759  0.02981013  0.14406495 -0.00764184
 -0.01972041 -0.21613498 -0.03678694  0.02442994  0.11108393 -0.10566132
 -0.31593806 -0.13792364 -0.13652468 -0.19005322]
[-0.10132594  0.49161637 -0.24668157 -0.2938847  -0.24149425  0.40683267
 -0.0477873   0.16625652  0.11226694  0.5106273   0.05664621 -0.694098
  0.17542195  0.5720183   0.12448041 -0.32524562 -0.2604196   0.02576721
  0.15167283 -0.2455077  -0.47543725 -0.18945906 -0.32629645 -0.06019619
 -0.28576297  0.12544398  0.2632589  -0.46177202  0.15136781 -0.32081327
  0.15146968  0.21469934 -0.02110813 -0.1471598  -0.13663983  0.10303197
  0.26343727 -0.01755621  0.36937037  0.0635884 ]
[-0.5294368   0.33863842 -0.00570333 -0.13564943  0.1223069  -0.29423246
  0.28890347 -0.29273027 -0.3041316  -0.04631346 -0.02281388  0.39455757
  0.03462565  0.5568165  -0.2991432   0.2334711  -0.3511193  -0.48724118
 -0.4385486   0.25324157  0.10033     0.36218086 -0.02991025  0.0575827
  0.04601453 -0.06871338  0.16721119 -0.137785   -0.2728226  -0.2765299
 -0.3789856   0.23733972 -0.094402   -0.25814897  0.6014173  -0.17997967
 -0.12671939 -0.25034913  0.11516462  0.19661288]
[ 0.13043994  0.31891665  0.08263125 -0.6841232   0.39980203 -0.22904544
 -0.12893045  0.04390912 -0.41467822  0.6523728   0.04078596 -0.4591646
 -0.18790829 -0.23118381 -0.46582752 -0.5230711   0.1551091  -0.41752934
  0.23794632  0.23695342  0.27826568  0.38947827  0.22158475 -0.0646021
  0.07867826 -0.13112114  0.03192052 -0.5536216  -0.2778842   0.26986548
 -0.06610838  0.04868466 -0.41553834 -0.22998077 -0.42115653 -0.26970398
  0.19104992  0.12624694 -0.31418046  0.05277713]
[ 0.19612588  0.5217305   0.34448186 -0.05580956  0.3219508  -0.02665587
  0.10885094  0.23625942  0.13474718 -0.01237387  0.36882687  0.0575629
 -0.05148986  0.20400459  0.09999429  0.04589312 -0.19344988  0.2243228
  0.2325144   0.31310266 -0.22226508 -0.13052683 -0.14978436 -0.11005262
 -0.42108425  0.26685348 -0.18760858 -0.5195663  -0.28023347 -0.47038096
  0.23131348 -0.20101134  0.4584865  -0.34906825 -0.18369326 -0.01127751
 -0.05757513 -0.2059007   1.0700965  -0.37403148]
[ 0.31535873 -0.75205797 -0.33912116  0.72093964 -0.58462554  0.14464337
 -0.02623248  0.03955685  0.14956026 -0.33233327  0.3473917  -0.08454163
  0.09480835 -0.7300756   0.35998145  0.18363057  0.2435498   0.47031853
  0.5376368   0.07444136 -0.45967698 -0.48980093 -0.29630125  0.23898537
 -0.06255335 -0.06350297 -0.3818404   0.7427378  -0.00879454 -0.21914183
 -0.01027834  0.06520045  0.13743688 -0.26938754  0.2904711  -0.04949066
  0.04892232 -0.16827472  0.05992036 -0.61314905]
[ 0.03063107  0.25874206  0.0860635  -0.3376387   0.18183568  0.18427324
 -0.09828828  0.02938019  0.07389217 -0.12100755  0.07828026 -0.01164259
  0.06690422  0.04564492 -0.0200966   0.17399327 -0.05198689  0.23437548
  0.33719963  0.07634743 -0.40165251 -0.23624805 -0.07817326  0.04609178
 -0.09586143  0.15286079 -0.19041292 -0.22100365  0.08678922 -0.147471
 -0.16606706 -0.16911747 -0.08387813 -0.2144383   0.55242985  0.02385134
 -0.1701792  -0.3768118   0.31426987  0.06050285]
[-0.29814166  0.06363229  0.08546113  0.32444146 -0.14558464 -0.3229097
  0.02811424 -0.2717925  -0.17519495 -0.13361897 -0.14433938 -0.084451
 -0.21417235 -0.19753706 -0.43904302  0.14630857 -0.02502794 -0.22134855
 -0.27578828  0.2840403  -0.00881604  0.23491202 -0.04186729 -0.06772377
  0.02720128  0.26825985  0.4496112   0.10735784  0.1061758   0.41118306
  0.00780995  0.26016462  0.05355569  0.04302897  0.14721583 -0.2119395
 -0.00313983  0.36318737 -0.7003395   0.05427799]
[-1.77927032e-01 -9.02440012e-01 -6.04480617e-02  2.03288957e-01
  2.17255116e-01  1.81106806e-01  7.28486478e-02 -5.77467261e-04
 -5.49011976e-02 -6.73642382e-02  1.05821788e-01 -2.02670344e-03
  9.95903909e-02 -6.17858231e-01 -1.87019929e-01 -6.29974008e-02
  3.99217635e-01  3.49516451e-01  4.20277506e-01  1.03759483e-01
  3.32214028e-01 -2.80746557e-02  3.44617397e-01 -1.03128806e-01
  2.20617242e-02 -3.26723009e-01 -3.69725823e-01  6.14321157e-02
 -8.52695778e-02  3.28272045e-01 -3.88384581e-01  4.84713055e-02
  1.89202964e-01 -5.96767813e-02 -7.10820615e-01  4.07491535e-01
 -3.14067781e-01  3.10068458e-01 -4.00059223e-01 -1.65375695e-01]
[-0.02629044  0.07999852 -0.12489441  0.49933192 -0.07371921 -0.03285561
 -0.00167948 -0.23456344 -0.13377562 -0.6280992   0.15582378  0.4295071
  0.10939348  0.56405395 -0.06442624  0.20736215 -0.12446424 -0.25954077
 -0.04640998 -0.01987032 -0.09289088 -0.14173281 -0.11894126 -0.16750635
 -0.5094609  -0.08604163 -0.02041735  0.06121835  0.14149168 -0.19094169
  0.03042824 -0.20911281 -0.00912275 -0.14724569  0.47525847 -0.11718355
  0.10253986 -0.49863914  0.04260286  0.06571053]
[ 0.34004748 -0.01328595 -0.24078378  0.6035102  -0.5139646  -0.01547652
 -0.23571137  0.28670534  0.20045088 -0.17904374  0.56186056 -0.08513201
 -0.06387202  0.00987486  0.3874937   0.08366471 -0.07481804  0.0748832
  0.29699823  0.28830683 -0.44511038 -0.60197526 -0.6682562  -0.27929115
 -0.07472702  0.02837082 -0.27471897  0.48449612  0.34860802 -0.71751964
  0.02714588  0.16124667  0.30087557 -0.37507883  0.41840482  0.10576019
 -0.16002843 -0.34014308 -0.30885103  0.11278147]
[-0.02550845  0.46696427  0.2314687  -0.3914958   0.6812088  -0.15021555
 -0.10791504  0.10919999 -0.40790734  0.2912264  -0.21103902 -0.5546001
 -0.19257127 -0.05824317  0.04551111 -0.51578385  0.5492126   0.21352255
 -0.13658914  0.15291283 -0.14047197  0.34465045 -0.01088387 -0.5332853
  0.4237283  -0.0681556   0.1270811  -0.83052623 -0.24925853 -0.11627109
  0.0377125   0.632693   -0.09869722 -0.5512551  -0.7819714  -0.22608823
  0.30203944  0.20365518  0.41752893  0.06194568]
[ 0.15036903 -0.17123851 -0.23017852 -0.06669102 -0.11789223  0.20832853
 -0.16473283  0.29939258  0.06311791 -0.10282768  0.21444976  0.16193838
  0.12084188 -0.06147378  0.08544295  0.48990953 -0.15386602  0.16190578
  0.14141923 -0.06958157  0.4633027   0.00219076 -0.00667808  0.02042885
  0.20806327 -0.14094931 -0.18842846  0.1558808   0.10190193  0.02443743
  0.00625511  0.06687438 -0.050837    0.05529618  0.27195203 -0.07099447
  0.03242838  0.26357734 -0.22103618  0.07044837]
[ 0.0460601  -0.16448323 -0.14845322  0.05721921  0.22956574 -0.24566688
 -0.01533065  0.21504048 -0.1796619  -0.3382108  -0.03765478 -0.01274646
  0.2029579  -0.01168973  0.05176838  0.06197796 -0.33422866 -0.04806996
  0.36737487 -0.04288367  0.2967381  -0.32026154  0.09553312  0.21566804
  0.19887702  0.20182787 -0.20270789  0.00701023 -0.3728447  -0.10739619
 -0.00525839 -0.07599725  0.23734951  0.32294333  0.20178707  0.09939662
 -0.16569868  0.01604984 -0.05938762  0.03703845]
[ 0.10493784  0.5111648  -0.31812882 -0.02651687  0.24690017  0.00970406
  0.08499497 -0.1342192   0.03990787 -0.0637773   0.00976297  0.0016793
  0.02700588  0.6018383  -0.12576576 -0.0376488   0.11708354  0.23508996
  0.08927815  0.05018138 -0.1652953   0.03181864 -0.02507493 -0.10259674
 -0.10694551 -0.09348193  0.02338064 -0.496285   -0.06820735 -0.00934573
  0.17080848 -0.41806492 -0.04730125  0.01503912  0.21096016 -0.3051211
  0.00990532 -0.05348013 -0.08459665  0.21056522]
[-0.37448895  0.33687094 -0.15164632 -0.14587028  0.23290618 -0.29997754
  0.6142696   0.09065723 -0.14853461  0.19205934 -0.2622531  -0.68833464
  0.12432183  0.57661754 -0.2544307  -0.34152687 -0.21532407 -0.10866965
 -0.62399757 -0.16843387  0.2821886   0.5707131  -0.38870123 -0.10933164
 -0.15225658 -0.19780356 -0.29286057 -0.16235605 -0.00649939 -0.04842958
  0.11206736  0.12587649 -0.44184387  0.03530001  0.11550365  0.23168166
  0.11522894 -0.22649159  0.26405615  0.22767581]
[ 6.4959012e-02 -3.6434597e-01 -4.6937418e-01  3.0390114e-01
 -1.5905078e-01  2.0885083e-01  7.1585044e-02 -8.4941261e-02
  3.8563973e-01 -6.2855172e-01  3.1217879e-01  3.9243495e-01
  3.0107179e-01 -1.1210128e-01  2.4052303e-01  4.9674225e-01
  2.5596225e-01  5.0467998e-01  3.1765890e-01  1.0097438e-02
  4.0857162e-02  1.4509393e-01 -6.9449909e-02 -1.1063091e-01
 -2.1413285e-01 -5.0262492e-02 -4.2470664e-01  2.5499034e-01
  5.0342739e-02 -1.3171209e-01  6.5326765e-02 -4.2309320e-01
  2.1852730e-01  5.0679408e-04  8.6003393e-02  3.1002289e-01
 -3.7178010e-01 -4.3842230e-02 -1.3125175e-01 -2.6567987e-01]
layer 3 Activation
tanh
layer 4 Dense
40 20
[ 0.10973373  0.10758908 -0.07122808 -0.13422923  0.03179362 -0.09257891
 -0.00701232  0.2933401  -0.21732365 -0.02419233  0.1559927   0.07012182
  0.01440699 -0.13275465  0.08048762 -0.13454078  0.29292476 -0.17167571
 -0.07516243 -0.18905818]
[-0.677447    0.4520782   0.17173553  0.06906029 -0.3017322   0.44116166
 -0.10732377  0.16390759 -0.16677967  0.07409552 -0.29408306  0.01656484
  0.0429958   0.34750903 -0.24717034  0.10100266  0.2219132  -0.30326423
 -0.22024615 -0.07807588]
[-0.20949732 -0.02746521  0.08559027 -0.21176213 -0.22623792 -0.14003757
 -0.08416849 -0.0810532  -0.3456659   0.00803681 -0.13483402  0.39339444
  0.31028408  0.09198609  0.17183414 -0.04958251  0.06687896 -0.14329383
 -0.04459073 -0.07192383]
[ 0.22587086  0.07902561  0.18976165 -0.13406947  0.3769445  -0.12242821
 -0.10252719  0.06382882  0.44318715 -0.23819199 -0.04856019 -0.39697787
 -0.04984942 -0.08699544  0.47395048  0.01354566 -0.2702781  -0.15271355
  0.08028868 -0.23922022]
[-0.33660567 -0.29257756 -0.23160125 -0.23595798 -0.33826268  0.2589982
  0.28680277 -0.15948765 -0.33804622  0.09032496  0.1980492   0.32913187
  0.00232604 -0.05544065 -0.17894027  0.23268759 -0.18668537  0.07877724
  0.0703873  -0.2166227 ]
[ 0.06002641  0.16930796  0.07269666  0.2136179   0.16100025 -0.26285416
  0.00402624 -0.1331736  -0.20899874 -0.01567867 -0.17403841 -0.02622408
 -0.10448703 -0.03001922 -0.18322715 -0.14833218 -0.02286454 -0.0140191
  0.08893335 -0.13610084]
[ 0.1648968  -0.05017214  0.08362696  0.06499608 -0.0264926   0.23675914
  0.00451704 -0.06345026  0.00995348 -0.07923669  0.10435897  0.11549865
  0.11102784 -0.06638297 -0.2894941  -0.02137874 -0.14778815  0.02424753
 -0.25304478  0.2735484 ]
[ 0.04236216  0.03918739 -0.09046134 -0.01862567 -0.231262   -0.04125794
  0.03122148  0.09309498 -0.2502392   0.14968164 -0.19886449  0.2768881
  0.026113    0.1824515   0.1363059   0.01042717  0.087049    0.27313778
  0.0100615  -0.09614342]
[ 0.13485998 -0.00910809  0.06921839  0.06742224 -0.0773582  -0.11489455
 -0.03998351  0.03554374  0.06095815 -0.09267373 -0.12980291  0.22889681
  0.03181912  0.05236046  0.03371449  0.0522657   0.11331733 -0.05018005
 -0.00416509 -0.05295192]
[-0.30693567  0.43234774 -0.20986655  0.23813362 -0.28990933  0.28958085
  0.12826762  0.07317125 -0.42933974 -0.030406   -0.06623358  0.32352257
 -0.08888666  0.09807052 -0.05769184 -0.03204958  0.3295323   0.04695984
  0.15314092  0.00737973]
[ 0.27303106  0.08898358 -0.06398026  0.0150123  -0.20326917 -0.10504196
 -0.11902778  0.23176804  0.28990638 -0.1431188  -0.33585098 -0.26913226
 -0.37582263 -0.21581227 -0.07772817  0.10561742  0.30994037  0.17206953
 -0.05452489  0.00407449]
[ 0.10292728 -0.2645198  -0.16239066  0.13114534  0.28604645 -0.24851117
  0.30565023  0.02423036  0.33743015 -0.2785499  -0.28279495 -0.09408342
  0.07436585 -0.18789108 -0.32427612  0.20612995 -0.0847702  -0.09852076
  0.11142698 -0.24819514]
[ 0.13509773 -0.15975279  0.1995998   0.19491675 -0.14115545 -0.08251248
 -0.22765766 -0.00680397 -0.0653427   0.13579845 -0.11396179 -0.23853327
  0.05336015 -0.18015905 -0.39567825  0.20210533  0.1743116  -0.17864694
 -0.08211418  0.01777281]
[-0.5977582   0.19582042  0.11650568 -0.37581867 -0.30837104  0.58587396
  0.0326132  -0.1982268   0.1354146   0.3492675  -0.53357065  0.63614196
 -0.14188159 -0.04470724 -0.55960816 -0.21863225 -0.3854687  -0.14857459
 -0.08860822 -0.00595476]
[-0.04342103 -0.03319255  0.00771242  0.2796934   0.07652814 -0.21772195
  0.10116468  0.14511845 -0.07021374 -0.00959166 -0.1070774  -0.12278312
  0.14028     0.09042675  0.01063645 -0.02364851  0.04535105  0.1399308
  0.02034155 -0.06326251]
[ 0.043293   -0.22241336  0.00223748  0.1463453   0.28914908 -0.17267293
  0.03901571  0.10378181  0.3027357  -0.20446761 -0.37726352 -0.241215
 -0.39144698  0.06369212 -0.19008279 -0.00876068 -0.04292827  0.03577586
  0.20118034 -0.04951604]
[ 0.02574937 -0.18798248 -0.05534374  0.03703739 -0.15895703 -0.28963816
  0.1024977  -0.18783443 -0.01922912  0.02186479  0.2611874  -0.25703892
 -0.04827541  0.11950991  0.00220162 -0.20267643 -0.06568874  0.02472712
 -0.05788966  0.04821845]
[ 0.47979897 -0.17114584  0.02612191  0.13793227 -0.39148906 -0.00663201
 -0.29593414 -0.1654931  -0.21794277 -0.21929447  0.05974438 -0.31677178
  0.17829472  0.03549713  0.05247286 -0.03233827  0.30357477 -0.07282365
 -0.25950482  0.04897331]
[ 0.2684832  -0.01021558 -0.28914887  0.21346627  0.24971329 -0.3138012
 -0.13916478  0.24165027 -0.01529293 -0.02781012  0.19079298 -0.28731707
 -0.04782083  0.03295187  0.2450181   0.311805    0.33050597 -0.02698869
  0.17272402 -0.04875462]
[-0.08435215 -0.00440288  0.13633943 -0.18242918  0.18324618 -0.20654695
 -0.01797067  0.18610455  0.23882066 -0.0321935   0.25722983 -0.06413047
 -0.17806104 -0.18922639 -0.0238866  -0.1281635   0.0205818  -0.14469354
 -0.01315023 -0.106374  ]
[-0.23589253 -0.38974348  0.08595482  0.1417016  -0.18771698 -0.03096775
  0.15514158 -0.13613011 -0.16347007 -0.19819386 -0.22051995  0.06864256
 -0.1211282  -0.03783053 -0.09544697 -0.0669334  -0.23361544  0.09370314
 -0.30816972  0.26135534]
[ 0.18533295 -0.1313741  -0.21324642 -0.21065201 -0.39655092  0.26533595
 -0.14537367 -0.03535967 -0.05480296 -0.26325542  0.264958    0.05853963
  0.35122716  0.01800271 -0.46509835 -0.22514047 -0.16902767 -0.31153655
  0.11956313  0.3583574 ]
[-0.03939147 -0.31797147  0.17030893  0.06610902 -0.14842679  0.00396694
 -0.03987831 -0.3522488  -0.26909876 -0.04196725  0.2325044   0.15933204
 -0.06497402 -0.09157587 -0.03918188  0.01458586 -0.33414325  0.00104313
 -0.13278846 -0.12750107]
[-0.02680262 -0.10349403  0.29463196  0.21222253  0.30997163 -0.1041166
  0.07367525  0.00094197  0.17554489  0.33162534  0.03496968  0.31632462
  0.10818963  0.13463108  0.16438569 -0.06102522 -0.28933504  0.3582604
  0.04232816 -0.1704931 ]
[-0.23704429 -0.14766255  0.13290268 -0.13399614  0.27761528 -0.058013
  0.16194558 -0.05169466  0.08241609  0.04816828  0.23582925  0.21639523
  0.0697232  -0.02803781  0.19005255 -0.00083372  0.05587973  0.00618016
 -0.14839198  0.3070099 ]
[-0.00757609  0.23468782 -0.23036337 -0.02994329  0.16580954  0.04125652
  0.0485337   0.18220282  0.03348923  0.03512021 -0.17855276  0.17746149
  0.02478527 -0.05318822  0.19670114  0.10601579  0.04858116 -0.22408947
  0.01042082 -0.02007549]
[-0.18570998  0.24640001  0.04287616 -0.31458366  0.35137352  0.22518608
  0.1977863  -0.34681827  0.1445936   0.16186197 -0.12820238  0.05200825
 -0.1805715   0.02589208  0.17933635  0.21101601  0.02066002 -0.010668
 -0.14832807 -0.23231354]
[ 0.28668627  0.21326587 -0.06664052 -0.15650284  0.34495237 -0.13719323
  0.16424952  0.05030351  0.3506552   0.07043669  0.18698479 -0.20990919
 -0.0785311   0.07877426  0.32210714 -0.02267106 -0.13080084  0.127096
 -0.16941783 -0.29848865]
[-0.01796635  0.11126864 -0.28778905 -0.08376789 -0.01280102 -0.21465129
  0.05383257 -0.1693286   0.08022767 -0.27988744 -0.44829124 -0.05851102
  0.01174637  0.20732039  0.3750365   0.11088733  0.09301353 -0.07976865
  0.01376541 -0.15136355]
[-0.4461117  -0.45056713 -0.10093414 -0.34661666 -0.23588087  0.4333689
 -0.07189474 -0.2452583   0.27963504  0.01111199 -0.1144287   0.49023625
  0.06313096  0.12683873  0.3980273  -0.10270176 -0.02580791  0.1449047
  0.2229083  -0.15666273]
[ 0.04196781  0.10288613 -0.05883555 -0.10054358  0.01474854  0.19639924
  0.01283559  0.07234359 -0.24914578  0.29266942 -0.3441147  -0.17998414
  0.01813083  0.11812724 -0.11053321  0.15934902  0.11885832  0.02673196
 -0.1358792   0.09648985]
[-0.20775944  0.08379757 -0.17912343 -0.30078194  0.20557475  0.17480181
  0.05716316  0.1177647  -0.00336067  0.08709559  0.217069    0.11515274
  0.1655229   0.01096569  0.20950994  0.12612775  0.10786289 -0.02094088
 -0.10592348 -0.11026172]
[ 0.01699842 -0.13880669  0.18432352  0.12236173  0.3300411  -0.01475359
  0.09566208  0.09224382  0.2085048  -0.08149034 -0.04841458  0.19472685
  0.03866901  0.06479877  0.10397729 -0.05731608  0.27728885 -0.04099309
  0.13818419 -0.0900979 ]
[ 0.07831625 -0.38905978 -0.22863366  0.05075759  0.04411547  0.16140328
 -0.21638931 -0.02032675  0.45274895  0.19402897 -0.24230152  0.30199596
  0.06971121  0.29598874  0.2213791   0.19233246  0.00944039  0.08551938
 -0.07338786  0.23555423]
[-0.27900633  0.23675758 -0.0069161  -0.4545038   0.2739446  -0.02433117
 -0.0783743  -0.11954596  0.5670691   0.23204976 -0.31361517  0.15258685
  0.12591054 -0.03624706 -0.3669511   0.00391324  0.14191101 -0.30582637
  0.02450312  0.16822095]
[-0.00184093 -0.21877754  0.07584563  0.14726184 -0.16819459 -0.26156405
  0.0230519  -0.13587366  0.05521064  0.09794823  0.10378318 -0.0747811
 -0.05242842  0.13324325 -0.21310963 -0.19790623  0.182727   -0.1726714
 -0.17966872 -0.16114162]
[-0.05885556  0.2206548  -0.12225584 -0.12635575  0.08088893  0.24162397
 -0.0963853  -0.03507037 -0.21726972  0.31253028  0.00434476  0.11540403
  0.06055874 -0.08596948  0.04317246 -0.2814707  -0.03140765 -0.20770262
 -0.02231008 -0.1527074 ]
[-0.14181419 -0.00560531 -0.12870081 -0.2910347  -0.25034314  0.02604863
  0.13845965 -0.19367594  0.27880928  0.3536615   0.13713558  0.12855628
  0.08880018  0.14920714 -0.2718352   0.18863162  0.01289437 -0.15407005
  0.1927466   0.02638216]
[ 0.11893865  0.38628402  0.05459828  0.53385985  0.220097    0.1492473
 -0.04727498  0.00984258 -0.41354    -0.10250752  0.05438641 -0.01413224
 -0.05262759  0.18798833 -0.245756    0.14172867 -0.05920798 -0.12278837
  0.16911194 -0.01079369]
[-0.32790676  0.04612657  0.03526651 -0.19493045 -0.0835204   0.30090997
 -0.07450704 -0.09186666 -0.01164402  0.065782   -0.2856925   0.02310046
  0.05729589 -0.17611726  0.24386081 -0.21184349  0.16965578 -0.0275399
  0.15866901  0.04127069]
[ 0.26162034 -0.18900675 -0.11007863  0.05078169 -0.00050753 -0.19944388
 -0.07947181 -0.05671624  0.17575268 -0.13735503 -0.01195379 -0.3898964
 -0.0146608   0.12531242 -0.22859298  0.11188012 -0.00207121  0.01090667
  0.07363037  0.01010448]
layer 5 Activation
tanh
layer 6 Dense
20 1
[-0.09893591]
[-0.07419799]
[0.00675467]
[-0.09205721]
[-0.06294019]
[0.04482688]
[0.00689268]
[-0.00988696]
[0.08685151]
[0.00773504]
[-0.08141333]
[0.05704184]
[0.04984193]
[0.01935117]
[-0.09170485]
[-0.01180718]
[-0.02505204]
[0.00608661]
[-0.0049086]
[0.0053371]
[0.17749338]
