layers 7
layer 0 Dense
20 20
[ 0.2833566  -0.08496545  0.44798103  0.512065   -0.17307733 -0.312065
  0.02658662  0.08889804  0.1676597  -0.11684942 -0.26718128  0.34658054
  0.3979196  -0.08596729  0.378975   -0.3451905  -0.17025656  0.05876004
  0.19608082  0.2600076 ]
[-0.40043738 -0.18436235 -0.31154102 -0.15657246 -0.49706364  0.07750795
 -0.32611862 -0.19224744  0.21823536 -0.11732791 -0.23968764  0.4624838
  0.7757537  -0.13811703  0.3992564   0.7672431   0.20947774 -0.27030745
 -0.20216545 -0.9816008 ]
[-0.07469366  0.49408275 -0.31535196  0.4417515  -0.11964783  0.50445163
  0.11246048 -0.50303906 -0.0579624  -0.03801919  0.01172025  0.40971825
  0.6609113  -0.07950286  0.32535678  0.69740736  0.4977012  -0.06710882
  0.3462717  -0.9947616 ]
[-0.10945369 -0.09960045  0.04335372  0.0328206  -0.39671254 -0.22732393
 -0.3017836   0.1423626   0.07643268 -0.00287192 -0.0452345  -0.23141532
 -0.1438601   0.11991343  0.2503783  -0.27055705  0.00128647  0.12943253
 -0.3283021   0.39754474]
[-0.3014319  -0.07682205  0.10942723  0.29411885  0.19366269 -0.18382536
 -0.32991353 -0.40377405 -0.24299416  0.34399083 -0.15461472  0.21043074
 -0.22181256 -0.25629663  0.30179298  0.18001442 -0.14635497 -0.10932623
 -0.04730063 -0.15404838]
[ 0.43245775 -0.08676798  0.61995846 -0.08221474  0.11728356 -0.19312772
  0.19400333  0.47766733  0.29214266  0.12068361 -0.04368554  0.01026982
 -0.2205014   0.3336253  -0.31485906 -0.25307408 -0.4289701   0.6328034
 -0.41727194  1.2046216 ]
[-0.19395551 -0.30400008  0.04818214 -0.02412459  0.67816454 -0.3700153
 -0.15881896  0.06400307  0.02216715 -0.2224716   0.20946568 -0.58841926
 -0.3142528  -0.05274041 -0.09374435 -0.02771368 -0.14738666  0.4312788
  0.02913553  0.6919007 ]
[ 0.14484343 -0.05461677 -0.68759876 -0.5071292   0.11551937 -0.1217187
  0.03005158 -0.07164437  0.06036375 -0.4766218  -0.5740374   0.21169852
 -0.348863    0.18059202  0.10230956 -0.16759989 -0.0133341  -0.00885833
 -0.10954548  0.27688575]
[-0.09286601  0.2315791   0.70423883  0.7141082  -0.7521951  -0.14753334
  0.29937372  0.64093584  0.0351583   0.15905805  0.13871194  0.22062221
  0.6474156  -0.2198607   0.41222534 -0.56369424  0.14564148 -0.04355127
 -0.4095846  -0.19762364]
[-0.19760075 -0.19110683  0.01304094  0.0438187  -0.34436548  0.43611917
  0.02773899  0.14897309  0.4376476  -0.36650717 -0.14758609 -0.09829544
 -0.36271447  0.171216    0.12013298  0.35137954 -0.1253125   0.30317667
  0.20744874 -0.382151  ]
[ 0.10950296  0.26878893 -0.13617206 -0.0229114   0.04738525  0.5036918
  0.10874981  0.08913966 -0.5078031  -0.2422913   0.20878856 -0.0234979
  0.4035362  -0.29158157 -0.06541727  0.3149807   0.1757027  -0.2644543
 -0.16224337  0.34929937]
[-0.22122374  0.10907044  0.9834965   0.8485185  -1.4363248  -0.56356585
  0.07238619  0.02336115 -0.489952   -0.13051192 -0.05515372  0.2921411
  0.9710586  -0.15992738  0.6073317  -0.5850918  -0.07121375 -0.06461158
 -0.63039064 -0.18574198]
[-0.19290924 -0.18183266 -0.05026156 -0.05235252  0.7588704   0.1795212
  0.17654769 -0.32445726 -0.38113484  0.17144836  0.29705235 -0.21210097
 -0.43462643  0.17815936  0.06481832 -0.38054767 -0.28446525  0.01028975
  0.11078125  0.4978351 ]
[-0.29421398 -0.2302626   0.17672677  0.1548152   0.23074655 -0.35848466
 -0.0758935   0.10643053  0.32015258 -0.01657455 -0.23817997  0.0499857
 -0.12563296  0.30272967 -0.12760441 -0.03427921 -0.30903056  0.01796452
  0.15296276 -0.4086277 ]
[-0.10510556 -0.38959447 -0.20174122  0.03483678  0.29166397 -0.26295498
  0.0787388  -0.0903815  -0.24039094 -0.29238984 -0.10100333  0.13836733
 -0.74312913  0.12060313  0.03448853 -0.24302806  0.05424997  0.0953012
  0.04022795 -0.7448523 ]
[ 0.16246848  0.03342281 -0.78996617 -0.78601474  0.69166154  0.16807926
  0.38205293 -0.18034114 -0.37912688  0.0685913   0.16631703 -0.2941801
 -0.24833336 -0.16009457  0.03172582 -0.06642414  0.5246125   0.14903444
 -0.13330074  0.6672401 ]
[ 0.23960437  0.07133199 -0.05485971 -0.2837331   0.03557     0.23335543
  0.46756104 -0.58148855  0.60612774  0.29651296  0.32196572 -0.24941668
  0.11424051  0.0978553  -0.15932475 -0.16280915  0.17719997  0.45430014
  0.23964544  0.45166242]
[ 0.39301193  0.34072283 -0.2955577  -0.06614026 -0.19074482 -0.46849653
  0.46448871 -0.04828644  0.10876789 -0.11607227  0.09544819 -0.13687648
 -0.14090426  0.04625219  0.36503804 -0.5349131  -0.18915743 -0.34983703
  0.20424953  0.17794555]
[-0.24716875 -0.1238854   0.09109698 -0.03407543  0.20077905  0.16567431
 -0.15929398  0.6837439   0.19762035 -0.07098059 -0.15077133  0.09255198
  0.18978898  0.21309151  0.27092314 -0.29203802 -0.06352822 -0.66692543
  0.3067926   0.5387322 ]
[ 0.37869442  0.27026987 -0.47092742 -0.02943157  0.63935125  0.9242013
  0.5565073  -0.7451646   0.9430629  -0.22290377 -0.45402375 -0.15991607
 -0.2356577  -0.2168612  -0.06801332  0.34328026  0.06594912  0.47589007
 -0.06502225  1.1891551 ]
[-2.0237334e-01 -7.8698788e-03  2.4011800e-01  1.9483970e-01
 -1.3935564e-01 -9.2267796e-02 -7.6746047e-03  2.7141666e-01
 -3.7128222e-05 -7.8443289e-03  1.6464138e-01  1.4157368e-01
  1.4296643e-01 -8.6366527e-02  1.4990641e-01  1.2711127e-01
  8.8702656e-02 -2.4522208e-01 -3.7912015e-02 -1.8743597e-01]
layer 1 Activation
tanh
layer 2 Dense
20 40
[-0.06264283  0.22562718  0.0445864   0.19912782  0.19372313  0.22663742
  0.17250173  0.21447434 -0.20662965  0.02519886  0.04502094 -0.06901368
 -0.33263433 -0.19533128 -0.16546771 -0.20766436  0.03429196 -0.03171951
 -0.29369542 -0.24582608  0.12495764 -0.20822431  0.10459127 -0.10438826
 -0.16968244  0.04725128  0.02759179 -0.1115746   0.08313929  0.17160134
 -0.02498901 -0.00947441 -0.19533774 -0.11878918 -0.12375217  0.12197758
 -0.26673535  0.23085947  0.3146591  -0.19400409]
[-0.05449203 -0.24298558 -0.04369735 -0.04556179 -0.07086748 -0.2970888
  0.02867684  0.10173868  0.00931715  0.02403846  0.0516513   0.18338522
  0.00967751  0.17572187 -0.16355312 -0.28771153  0.00135382  0.0227558
  0.03828273 -0.1309357   0.23448972 -0.02147607  0.1430202  -0.06941448
  0.08723636 -0.02543131  0.23107603 -0.19058456  0.15144977 -0.1581778
  0.07075291 -0.02597277  0.00806534  0.03747423  0.13488859  0.08591592
 -0.12217385 -0.02156404 -0.12391152 -0.1048607 ]
[ 0.09508742 -0.44442934 -0.24049705 -0.07704465  0.35881478  0.11581974
 -0.2171101  -0.16628936  0.10487168  0.03853597 -0.37978747 -0.06849573
  0.05735168 -0.19708128  0.03602561 -0.36903164 -0.08067954 -0.04305056
  0.17237204  0.18215251  0.26881346 -0.11136161 -0.04649736 -0.25349092
 -0.0819426  -0.10067506  0.02561108 -0.01683683 -0.00988965 -0.21049996
 -0.3352874  -0.11835975 -0.11053129 -0.063006   -0.13139375  0.02082328
  0.03743123 -0.09030101 -0.18006219 -0.04131301]
[-0.09180199 -0.16289966  0.12059009 -0.05383737  0.0089368   0.28751826
  0.00598536  0.1301737   0.01618271 -0.1617642   0.13778034  0.06661311
 -0.19630972 -0.09957398 -0.1591916  -0.25173074  0.30733082 -0.0283223
  0.1021883  -0.13530807  0.26285976 -0.007045   -0.25543964  0.11820053
 -0.04243061  0.02200969 -0.13211729 -0.06183795  0.17938197 -0.17335807
 -0.13846654  0.08084232  0.13436633  0.03084427  0.06757847  0.17810385
  0.2595259   0.3104656  -0.2828166  -0.04291659]
[ 0.03639932  0.29997954 -0.28647554 -0.02874626 -0.09877599 -0.62533104
  0.12775047  0.09837382 -0.18527305 -0.22947843  0.32589775  0.06987965
 -0.13847752 -0.03991937 -0.524816    0.1237895   0.08868574  0.19578654
 -0.47949806 -0.14812946 -0.16429153 -0.09304215  0.29325867  0.11942666
 -0.0986191   0.09564845 -0.06458827  0.43446726  0.07535173  0.40378177
 -0.01098229 -0.01247368 -0.03371642 -0.07558639  0.18361343  0.04372191
 -0.05720765  0.16161498  0.5789981  -0.04696417]
[-0.20193197  0.17318109 -0.07524581  0.26462093  0.03697858 -0.46876875
  0.303912   -0.03744169 -0.18029237 -0.03697944  0.3034341  -0.12391707
  0.00499452 -0.03642583 -0.31618646  0.32534057 -0.35033423 -0.12648295
 -0.17767078 -0.08723292 -0.23724636  0.03828841  0.16748439  0.16848037
  0.06564981  0.10081135  0.26487646  0.02222809 -0.10867847  0.38812762
  0.33910385 -0.05582273 -0.13168079  0.01925336  0.09977154 -0.00823759
 -0.17174453 -0.23352267  0.34840366 -0.22161184]
[-0.12083816 -0.00867572  0.05932957 -0.23508845 -0.07726895  0.26217222
 -0.00492897 -0.26455367 -0.06683537  0.11499547  0.09140541 -0.13153708
  0.07637651 -0.23545532 -0.22509384  0.14956436 -0.11664195 -0.13754775
 -0.12910871 -0.0381666   0.24948534  0.05313855  0.43374887 -0.19609313
  0.13190432  0.2780674  -0.16719648  0.0109615   0.411006    0.00052557
  0.24623853  0.09220902 -0.21261668 -0.21266642  0.09326532  0.18514669
  0.18573259  0.09304526  0.03053674  0.15996438]
[-0.11595702 -0.33922866  0.14403793 -0.18895155  0.03470398  0.39496684
  0.16740142 -0.11453093  0.10372139 -0.11241253  0.09125559 -0.15890644
  0.07777112 -0.1602994   0.13018627 -0.06121069  0.21104158  0.08284175
  0.12734945  0.09268406  0.0536424   0.0268196  -0.40448648 -0.01338106
  0.16730832 -0.01256774  0.16090657 -0.4076855  -0.21201111  0.20904122
  0.10631    -0.05409401  0.16833933  0.03846124  0.04192445  0.1569849
 -0.24061513  0.105375    0.00452779 -0.2787619 ]
[-0.02594308  0.09901538  0.35290077 -0.17285836 -0.45538643 -0.04727435
  0.06227313  0.23560691 -0.22712459 -0.01726278  0.08484668 -0.18081397
 -0.18291214  0.06492156 -0.6370114   0.31528586  0.05407313 -0.16839968
 -0.25672403 -0.27858615 -0.28928483  0.04356601  0.40238237 -0.12785807
  0.08851878  0.20662205 -0.2293372   0.02870001  0.0435789   0.24007827
  0.13468613  0.03035797 -0.31890228 -0.16008873 -0.05071216 -0.30955085
 -0.35088813  0.02602896 -0.1911946   0.27006322]
[-0.12474044  0.18882458  0.28933424 -0.10357508 -0.065245   -0.30118358
 -0.10312812  0.23861815 -0.0582095  -0.00386636 -0.23803927  0.19486213
 -0.0120184  -0.07871503  0.07591384 -0.11028746 -0.07988051 -0.04095479
  0.29288894 -0.28985214 -0.07186855  0.06257708 -0.04421177 -0.17432664
 -0.07968477 -0.29283467  0.31542966 -0.23647012 -0.1892457  -0.07131626
 -0.09425434 -0.02256115  0.20904703  0.11107103  0.04638425  0.02719051
 -0.05892769  0.19228452  0.17936312  0.10215781]
[ 0.13212451 -0.0193825   0.08401451  0.02978557  0.1963049   0.2330824
 -0.12316845  0.04408306 -0.03545427 -0.22709656  0.2474993  -0.05717769
  0.1288557  -0.01206064  0.0016135  -0.18152346  0.08600623  0.17213184
 -0.04450993  0.0682135  -0.0254166   0.07105343  0.10623502  0.17570615
 -0.00701182 -0.12682807  0.03694904  0.12568519 -0.2587522   0.00631782
 -0.27837792 -0.04979467  0.17489573  0.11036266 -0.15936162  0.08808419
  0.08388871 -0.03557192  0.162104   -0.01894629]
[-0.02580057  0.09535474 -0.0521656   0.17587268  0.21290442 -0.17788501
  0.13575406  0.0627549  -0.08602957  0.03237265 -0.12356354  0.08712751
  0.13317102 -0.01562035  0.17846532  0.07337569 -0.08427275  0.0055621
 -0.2177708  -0.16831969 -0.03883605 -0.18069175 -0.15215687 -0.09046382
 -0.24504688  0.04672287 -0.12571928 -0.06574211 -0.01944285  0.05674535
 -0.2623788  -0.00521059 -0.01752267  0.15587406 -0.12661476  0.08745825
  0.01546896  0.04524206 -0.18116859  0.00801639]
[ 0.09217407  0.01544286  0.14737643 -0.3588272  -0.16984513  0.32614818
  0.00829976 -0.20066862  0.09339657  0.22857442  0.08138473  0.16890165
 -0.09075864 -0.05939534  0.31542373 -0.38140604  0.15336363  0.02328624
  0.00444757 -0.01419157 -0.03311934  0.05463881  0.08945755  0.09246667
  0.06896908  0.3589068  -0.17731248 -0.39805636  0.14032257 -0.27482775
 -0.22141463  0.09631903  0.00355135 -0.06602938 -0.06937102 -0.12392569
  0.02079803  0.07110813 -0.08012316 -0.07034019]
[-0.19051254 -0.31477636 -0.05933835 -0.03251499  0.09922473 -0.23781598
  0.27427468  0.09676844 -0.01024282  0.21334983  0.06313332  0.11568028
 -0.071638    0.09688409 -0.0413924   0.06228222 -0.07050911 -0.31373525
  0.21735623 -0.1677107   0.06822298  0.02536311 -0.19904958 -0.009386
  0.15655752 -0.09358671  0.15245204  0.23607616  0.18298572  0.08450647
  0.04616414 -0.18619521  0.20706251 -0.11901212  0.08362201  0.18588318
 -0.01691311  0.12414141  0.03041597 -0.16027188]
[-0.01194886  0.04971336 -0.11587725 -0.24448676  0.06449208  0.36040327
  0.08677498  0.22649838  0.18582954  0.0742913  -0.12380541  0.3053644
 -0.11497091  0.15562774  0.39779022 -0.23044302  0.03308648 -0.3360802
 -0.09106431  0.22943747  0.05856208 -0.04515458 -0.16894914 -0.04191489
 -0.0704811   0.2270789  -0.01718099 -0.08879216  0.23765697  0.04109482
  0.2631959  -0.08134558 -0.09506546 -0.2137934   0.01032559  0.08006057
 -0.16621785  0.04583343  0.10070621 -0.09829647]
[ 0.07135886  0.00835779  0.09470204 -0.00155413  0.26797777 -0.3398905
 -0.03093737  0.2798733  -0.25658402 -0.13866024  0.02892837  0.08264998
  0.03965394 -0.07136153 -0.19131903  0.12891868 -0.10951542 -0.16603017
  0.14200321  0.12679353  0.04152236 -0.03685328 -0.04409119  0.1053131
  0.31857032 -0.03582539  0.05398531  0.08729097 -0.04256412  0.2844265
  0.01328404  0.12850247 -0.15815689 -0.18006599 -0.13265443 -0.07223138
  0.37880743  0.03088128  0.30663007  0.22504212]
[-0.15681463 -0.00313092 -0.01189534  0.20461568 -0.19496088  0.13518748
 -0.06641495  0.08707945 -0.158281   -0.07798941 -0.13094383  0.2304506
 -0.11207983  0.04199804 -0.1798659  -0.01412737  0.18593888 -0.1080974
  0.09516816 -0.14783648 -0.22659332  0.1391144  -0.02207507  0.27153254
 -0.06308249  0.00715524 -0.07198011 -0.199346   -0.28807682 -0.00319452
 -0.26704055  0.10396229 -0.09671365  0.06054471  0.07795108  0.06162703
  0.07827994  0.16390994  0.11558843  0.1595921 ]
[ 0.0232012   0.22609927 -0.20432448  0.19546063  0.13139696 -0.20391925
  0.18758108 -0.01508888 -0.00815026  0.02920298 -0.0192002   0.18648596
  0.14420465  0.07240467 -0.05343188  0.02121392  0.2611393   0.03600409
 -0.37320098  0.17602944  0.13299577 -0.00606195 -0.09247302  0.03332368
  0.26662436  0.1506924   0.09117442  0.03085575 -0.12745573 -0.12685612
  0.01013074  0.06586605 -0.00736378 -0.04033325  0.0737653   0.20847297
 -0.17933045  0.2742189  -0.03512103  0.00669142]
[ 0.15488508  0.15133403  0.17293932 -0.19030248 -0.1506911  -0.09437176
  0.06655508 -0.1426932  -0.0519466  -0.03970938 -0.17783011 -0.00143638
  0.08519173 -0.22638468 -0.08351999 -0.1964595  -0.15674056  0.04111521
  0.1880482  -0.18531232 -0.04608933 -0.04072765  0.09481908 -0.00100446
  0.13268171 -0.04709138  0.03861742  0.26983643 -0.12485943  0.0488596
  0.01683787 -0.02409782  0.034715   -0.04893876 -0.20180972 -0.11366226
 -0.03284827  0.10109458  0.3195197  -0.14348713]
[ 0.03979521  0.1827796   0.0278469   0.3403516  -0.34955138  0.00619155
  0.2858526  -0.05919221 -0.04442432 -0.15196562  0.01085716 -0.14470106
  0.09332231  0.29606625 -0.18766224  0.08523495 -0.04782839 -0.15347965
 -0.19730441 -0.14549024 -0.14853357 -0.07399381 -0.03237962  0.05109236
 -0.09483121  0.09024719 -0.27424696  0.24297589  0.1950371   0.09365118
  0.03569375  0.09491958 -0.10091679 -0.05816428  0.34369865 -0.02898735
 -0.10349832  0.12320901  0.25074258  0.0822549 ]
[-0.04773789 -0.40010503 -0.04108219 -0.05179739 -0.07881133  0.40712988
 -0.03782618 -0.05289701  0.07810948  0.04362782 -0.02654479 -0.0384377
  0.09879493  0.04438543  0.2278708  -0.21991499  0.02462376  0.07888731
  0.09760084  0.06575648  0.08833652 -0.05995098 -0.09206224 -0.14392442
 -0.1287249  -0.02544194  0.08653579 -0.0787973  -0.16220418 -0.24360351
 -0.07484624  0.06744484 -0.05320659  0.04239514 -0.06589896  0.09379158
  0.0572368  -0.20072225 -0.13098663 -0.08030637]
layer 3 Activation
tanh
layer 4 Dense
40 20
[-0.02953815  0.08287245  0.06426284  0.03506156  0.2235173   0.08737022
  0.00033081 -0.02273333 -0.0913319   0.00494325 -0.05336982  0.11457965
 -0.08445427  0.15232085  0.05093426  0.09391075  0.02043997 -0.07991849
 -0.03359236  0.10466425]
[-0.09661093  0.08418901  0.13382384 -0.08996118  0.23613982 -0.13372217
 -0.2270113  -0.12906885  0.15576768 -0.16686927 -0.11694501  0.0055727
  0.04060474  0.03419126 -0.11069357  0.15405014 -0.19127013  0.03047966
  0.1880811   0.02134027]
[ 0.00987229 -0.20078857 -0.02913543  0.05050661  0.12415533 -0.02795185
 -0.16492543  0.18363336  0.0461102  -0.10117812  0.02311971 -0.10253923
  0.07533337  0.04125862 -0.30293605 -0.11645251  0.13262896 -0.28940323
  0.10001013 -0.06369419]
[ 0.22088644 -0.14002778  0.03622025  0.17574348 -0.24355471 -0.12233648
 -0.04654169  0.04362482  0.1158377  -0.03977897  0.14758915 -0.0513468
  0.14509301 -0.00945615 -0.02101474  0.12166508  0.20263462  0.1959855
  0.04065415  0.24546678]
[-0.15382153 -0.08934235 -0.07040866 -0.22161256  0.07056785 -0.0294827
  0.38850617 -0.24623129 -0.19744173 -0.18930055 -0.09460896  0.16645855
  0.07950467  0.11164906 -0.17813963  0.07315946 -0.07583316 -0.08482762
  0.06377243 -0.16319373]
[ 0.10208671 -0.13863176  0.12870021  0.03808453  0.23897706 -0.12521358
  0.03519245 -0.18315211 -0.08768868  0.46181095  0.10299626 -0.17593373
 -0.1906615  -0.0562631  -0.10187393  0.08030675  0.11717653  0.17508616
  0.03158301  0.09814648]
[-0.21148995 -0.02089304 -0.18864891 -0.02406899  0.11938512  0.00279359
  0.08652203  0.00177498 -0.18500803 -0.01528904 -0.16380459 -0.19050083
  0.30166364 -0.06015683  0.29497424  0.157312   -0.07276267 -0.07668412
  0.04116943  0.22417988]
[-0.18166932 -0.01126293  0.08525433 -0.16368654 -0.08578807 -0.26531476
 -0.0843534  -0.08947887  0.00939059 -0.05522595  0.10164169  0.01994028
 -0.06600584 -0.06689493 -0.09848089 -0.10127595  0.15777645 -0.02840317
 -0.13178313  0.14200838]
[ 0.07790569  0.05981942 -0.05781203 -0.02306205 -0.22128664  0.01566381
  0.10393853 -0.12394422 -0.01775658  0.0710223  -0.21902682  0.08109689
 -0.12609307 -0.13185981  0.17867808 -0.0061456   0.02629357  0.04466428
 -0.0554162  -0.12261266]
[-0.05251668 -0.07150514  0.04981465  0.15489835 -0.08100913 -0.20829317
 -0.1218279  -0.12988973 -0.00243832  0.03312135  0.06403518 -0.00413203
 -0.14310803  0.00119294 -0.12182083 -0.00922906 -0.07623186  0.01121645
  0.15779479  0.01844741]
[-0.09355789 -0.12348095  0.10841097 -0.1530318   0.20299497  0.09431658
 -0.1466003  -0.24197316  0.08747406 -0.12686022 -0.04121562 -0.2372302
 -0.20791195 -0.06148472 -0.08063564 -0.12306777  0.24545792  0.00743994
  0.24332245 -0.01126826]
[ 0.06049367 -0.03570405 -0.07043596  0.09973503  0.08830409  0.19323239
  0.00879824  0.23236328 -0.13585168 -0.04498382 -0.03172737 -0.25028974
 -0.14574714 -0.0308248  -0.18586613  0.22805488  0.24248666 -0.05881048
  0.05251285 -0.24883528]
[-0.00709413  0.11480825 -0.0426943   0.03310902  0.15683788  0.00195222
  0.09647579 -0.16753897 -0.06027793  0.08245753  0.07834055  0.18535611
  0.01340659 -0.08981009  0.03861067 -0.26135018  0.1851108  -0.07076777
  0.23595206  0.1245468 ]
[-0.05171645 -0.19271776 -0.03908785  0.03359815  0.21451543  0.14646089
 -0.2918873  -0.04360822 -0.10496911  0.05480188 -0.03146134  0.10564852
 -0.12328277 -0.0887983   0.10102315 -0.08800633 -0.18615717 -0.0695992
  0.11704919 -0.03345526]
[-0.14501558 -0.2121451  -0.03261053  0.26697198 -0.2093117   0.14626634
  0.08158609  0.20906743  0.01339428  0.2263915  -0.06465296  0.16964197
  0.08401077 -0.06829678 -0.1498733   0.04396401 -0.10722872  0.18532564
  0.00343042 -0.06772513]
[ 0.01486681 -0.19192947 -0.15064113  0.11346131 -0.1584697  -0.00761624
  0.09413327 -0.04146823 -0.20310391 -0.37985453  0.00702152  0.21452567
 -0.13187698  0.08221946  0.07608479  0.04387537 -0.05369957  0.17727238
  0.21500927 -0.14051333]
[-0.05978419  0.00054932 -0.13045932  0.02865779 -0.11150295  0.07830705
 -0.03065659  0.16755702 -0.20889266  0.13786931 -0.19637632  0.20528688
 -0.11661441 -0.22526412  0.13516217 -0.12002479 -0.28726384 -0.09362776
  0.15359889 -0.17256485]
[-0.0990268   0.04729376  0.04351549 -0.06584003  0.12416115  0.15720974
  0.16260137  0.1893793  -0.04409451  0.07169656 -0.09652683 -0.08337379
 -0.18296136  0.05379584  0.09584817  0.0830916   0.23896359 -0.06610411
 -0.20106891  0.2682788 ]
[-0.23824805  0.13032663  0.26208162 -0.20691198  0.13085161  0.06593427
  0.48748797 -0.05157091 -0.13803822  0.28133672 -0.3081956  -0.23132479
 -0.24545823  0.0160349  -0.2130254   0.06645165 -0.10092807  0.14969614
 -0.09412906 -0.14644061]
[-0.00692983  0.00924881 -0.16184631 -0.01298027  0.07279418  0.1077957
  0.11014391  0.182491    0.1057495   0.17867456  0.00722494 -0.07990653
 -0.18435152 -0.32930422 -0.12038757  0.06353164 -0.03361935  0.01620394
 -0.01629956  0.03338362]
[ 0.15792832 -0.10366271 -0.11989085  0.23861809  0.12145561  0.11412074
 -0.22051488 -0.04272317  0.09316522  0.20243748 -0.10764539  0.09818784
 -0.23265284 -0.00592684 -0.14624047  0.07796523 -0.00166587  0.13078348
  0.10128223 -0.1312396 ]
[ 0.2799662   0.05459393  0.04368497  0.14469993 -0.09323867  0.08003864
  0.22060691 -0.04310036  0.03936663 -0.04699566  0.01325014  0.07059176
  0.24562107  0.02429774  0.03338589  0.17299516 -0.12639558 -0.24073848
 -0.10129796  0.00791144]
[ 0.14986208  0.05203545 -0.04467086 -0.22270301 -0.04880441 -0.01520094
 -0.31857055  0.15496139 -0.02900803 -0.14157702  0.23458333  0.01175086
 -0.10947748  0.06497835 -0.18010326 -0.16849053 -0.16486825 -0.04327044
 -0.17998505  0.08493191]
[-0.03662061 -0.05718645 -0.05190273 -0.10789494  0.17458089  0.11169712
  0.04737997 -0.02116302 -0.01416807 -0.09196225  0.02765215 -0.02036032
 -0.08563294  0.03916571  0.13177711 -0.12553494  0.000884    0.29661605
 -0.22450526 -0.08025745]
[ 0.01123057  0.07143274 -0.0246632   0.02264545  0.23494066 -0.05008779
  0.12209702  0.18186057  0.118834   -0.09122414  0.15930107  0.17449287
 -0.11243421  0.10483451 -0.00543822  0.1216407  -0.07545411  0.13428594
 -0.05638359  0.1669402 ]
[-0.01239383 -0.05260969  0.09765562  0.10067865 -0.14112587 -0.18684523
 -0.19864021 -0.20094426 -0.04633312 -0.04818561  0.01184077  0.12784629
  0.03208894 -0.10231241 -0.13164127  0.18011145 -0.01079697  0.08776528
  0.1397307  -0.16581222]
[ 0.04164113 -0.23035337 -0.11293228 -0.0334956   0.14720248 -0.03131748
  0.19189821 -0.087882    0.01777615  0.08387793  0.05091367 -0.14478914
  0.21556072 -0.05674479  0.1242047  -0.1689887  -0.08313829 -0.18706238
  0.08652805  0.13334383]
[ 0.09549519 -0.14114714 -0.06252166  0.240398   -0.05174525 -0.14658193
 -0.08399294  0.05810569  0.12046743 -0.28877336  0.01297664 -0.2649432
  0.15543266 -0.04807939  0.20265557 -0.05901751  0.02759495 -0.14614739
 -0.11559038  0.10300436]
[-0.24051075 -0.10315344  0.07378045  0.0703968  -0.2705461  -0.02587005
 -0.19624372  0.00814793 -0.07136879  0.00720848 -0.03279383 -0.18835783
  0.14199293  0.18507175 -0.11415284 -0.17022732  0.18643524 -0.07800585
 -0.19554356 -0.16362286]
[-0.17014973 -0.01031424  0.08928923  0.07444718 -0.29382032  0.14499857
  0.29062173  0.13307656  0.1370908  -0.25506583 -0.05254588 -0.19396567
 -0.13219184  0.17992258  0.05680755  0.04565083 -0.0973121  -0.25017524
 -0.12884043  0.2625576 ]
[ 0.19380042  0.32781366 -0.0429427  -0.15358664 -0.29310364  0.11444389
 -0.00753831  0.17356493  0.30976006 -0.28948188 -0.1485168  -0.10299672
  0.3396985   0.15898958  0.1165526   0.01834152  0.24868311 -0.13280152
  0.11947206 -0.22052485]
[ 0.1840473  -0.05855914  0.04104305 -0.01399534 -0.18012246 -0.20224448
 -0.07269309 -0.1122584  -0.11818266 -0.00955768  0.13397633  0.04048087
 -0.22553475 -0.01150129  0.08271739 -0.19527368 -0.04363447  0.24142319
 -0.2768459  -0.17569976]
[ 0.2087755   0.12570162  0.00542    -0.01458086 -0.2024198  -0.12656552
  0.2235826  -0.18538924 -0.00937895  0.03177326 -0.0734064   0.19375263
  0.1785791   0.18188699  0.05572506 -0.04416392  0.09288158  0.22049727
  0.16786505 -0.20315811]
[-0.07946368 -0.00281009 -0.1124518  -0.00110624  0.21962434  0.22606996
  0.14503501  0.12768053  0.00723464 -0.00841918 -0.03072195 -0.09299384
 -0.18181168  0.13134366  0.0736424   0.04795092 -0.01755815  0.1225936
  0.20250608 -0.06053582]
[-0.18739846 -0.01413284  0.11514713 -0.00185055  0.12313758  0.05284007
 -0.21913983 -0.22214371 -0.0296513  -0.06153049  0.02451836  0.27575997
  0.00648362  0.06861168 -0.04519457  0.10330882  0.20245904  0.09041583
  0.10029066  0.07993794]
[-0.20379716 -0.02022184 -0.08332696 -0.23612155  0.11601163  0.17410123
 -0.0801875   0.2635146   0.05668958  0.02023854 -0.14719412 -0.08523459
 -0.056475   -0.10338326 -0.21511066 -0.09159673 -0.17715047  0.1079364
  0.07383497  0.21374476]
[ 0.05773645 -0.21444288  0.13097732  0.04445425  0.12621042 -0.02654005
  0.24257763  0.11157539  0.00183802 -0.03315601 -0.00648384 -0.12922183
  0.0086335  -0.04876317 -0.04844248  0.03216025  0.17977117 -0.21183096
 -0.0080186  -0.01059007]
[ 0.11052084  0.13629237 -0.0540783   0.18621084 -0.1355758   0.13897322
 -0.02373357  0.07642218 -0.11359753 -0.01000923  0.15500107 -0.02542027
 -0.03998692  0.09236351 -0.07606362 -0.05579077  0.17511904 -0.14068115
 -0.11168649 -0.04454704]
[-0.14466861 -0.06300879  0.14342278  0.1870108   0.17996228 -0.05013458
 -0.23859744  0.12942165 -0.15773173 -0.18962157  0.18444529  0.0330978
 -0.04158244 -0.04598036  0.31793988 -0.02650886  0.12669963  0.27785674
  0.30615044 -0.07565134]
[-0.20407002  0.13267492  0.15802911  0.18695807  0.19672665  0.01062368
 -0.1651018  -0.15514211  0.05205572 -0.08400825  0.05586619 -0.15856013
  0.07745849  0.09612231 -0.14149152 -0.2006198  -0.11371447 -0.04064281
 -0.06182127  0.02477677]
[ 0.0245138  -0.0299883  -0.00986274  0.00753008 -0.0181633  -0.05300942
 -0.05591546  0.05696893 -0.04519105  0.2475915  -0.02382272 -0.05964948
 -0.02133759  0.03734383  0.04366362 -0.02782778  0.01850302  0.02426779
  0.06114468  0.05544921]
layer 5 Activation
tanh
layer 6 Dense
20 1
[-0.01340818]
[-0.00465529]
[0.00279132]
[0.00432372]
[0.0029871]
[0.00547811]
[-0.04042491]
[0.00831028]
[-0.00794426]
[-0.13699512]
[0.01204121]
[-0.015015]
[0.00539188]
[0.01921059]
[0.09380709]
[0.00265211]
[-0.00461547]
[-0.00248197]
[0.00985849]
[0.0217532]
[0.19952708]
