layers 7
layer 0 Dense
20 20
[-0.30560943 -0.17656712 -0.08037929  0.064271   -0.1606821  -0.17571497
  0.1862596   0.30129105 -0.20833665 -0.17323978  0.06549417 -0.05605938
 -0.2707565   0.19562995  0.18745688  0.21569511 -0.04449746 -0.26594248
  0.01061828 -0.0173843 ]
[ 0.00786199 -0.2000198  -0.14167441 -0.5058075  -0.05480266  0.16350812
  0.3241125  -0.2018561  -0.09412336 -0.10834403 -0.0154648  -0.1875202
  0.07166473 -0.21689142  0.02174831 -0.03708541  0.45250654 -0.18224216
  0.24845377  0.06398556]
[-0.212425   -0.09496808  0.21233387 -0.08396316  0.05230305 -0.15296163
 -0.37432516  0.3191865   0.42120886 -0.1684371  -0.09343066  0.28391156
 -0.27799106  0.01727872  0.0414126  -0.22851731  0.10901074 -0.03248288
 -0.2749496  -0.11686112]
[ 0.05556373  0.11866005 -0.11409865  0.0305821   0.17661612  0.3005023
 -0.26547363  0.03857965  0.11395027  0.0969798   0.21139765  0.23780303
  0.02502595 -0.38551432 -0.26700413 -0.03014637  0.2653633   0.29917425
 -0.24169086  0.15056202]
[ 0.01765959  0.19420992 -0.33342883 -0.3236916  -0.29739907 -0.08895547
 -0.24386133  0.32674864 -0.0526605   0.0223154  -0.07762691  0.08843045
 -0.16579273 -0.10121857 -0.14829725 -0.07417563 -0.08252662 -0.3030913
 -0.23948729 -0.44092348]
[ 0.14666305  0.2777817   0.18666111 -0.10391379  0.11534549  0.3550947
  0.20665401 -0.31314903  0.16485429  0.28698808  0.18843111 -0.07174634
 -0.09948584  0.27741465 -0.08993375  0.15433104 -0.05368366 -0.12557268
 -0.13224019 -0.15452792]
[-0.040364    0.32554078  0.00236324 -0.09175402 -0.16705054  0.38552406
 -0.06651919 -0.19018236 -0.3558973  -0.2940991   0.5763139  -0.0383735
  0.34937912  0.46887887  0.15018773  0.10794777 -0.33425575 -0.14064726
 -0.0782159   0.51070917]
[ 0.45775625  0.12583625  0.31235567 -0.03349718 -0.05984526  0.00419513
  0.26376978 -0.39704353  0.14426637  0.19443499  0.37565443 -0.16695133
  0.10481413 -0.03975634  0.0080264   0.24781117 -0.03864973 -0.18411304
 -0.34937522  0.1760439 ]
[ 0.09922407  0.28945598  0.24002527 -0.05746405  0.4170117   0.14482398
  0.31725806 -0.21306026  0.30250058 -0.15507844  0.21980771 -0.05842043
  0.23505391 -0.04999042 -0.328899    0.17533745  0.02974053 -0.5588111
  0.02421703  0.11190164]
[ 0.4894079   0.21973297  0.32030395  0.36799747  0.09254815 -0.20068951
  0.15143757 -0.06255073  0.18007047 -0.2505566  -0.00843497  0.15630598
 -0.05333293  0.12966658  0.1324005  -0.09854252  0.14823608  0.19767804
 -0.22373714 -0.20935631]
[-0.19342454  0.2819756  -0.14333329  0.24610454  0.06277359  0.08384599
 -0.2954618   0.20561518  0.34066072  0.13224775  0.34520033 -0.24315889
 -0.30534944 -0.26988235  0.02099192  0.31099635  0.20359263 -0.1297974
  0.16726445  0.028856  ]
[ 0.08054029 -0.15905246 -0.03848441  0.2582222   0.13684526 -0.07751971
 -0.42552632  0.04013895 -0.07152913 -0.24809419 -0.24521573  0.09950802
 -0.19713035  0.28372863 -0.18013963 -0.21359968  0.20330454 -0.18013467
  0.23285232  0.39217594]
[ 0.0294637  -0.35915315  0.06381775  0.16488771  0.05745566  0.17399448
 -0.30494818  0.48035982 -0.09652619  0.02343209 -0.4445112  -0.23913744
 -0.35332635 -0.10187588  0.32784364  0.2938523   0.3702818   0.41535634
  0.10069323 -0.01474236]
[-0.15035829  0.12444571  0.14633478  0.184216   -0.27650514  0.27907407
 -0.40009296  0.23007332 -0.17341614  0.04612326  0.35235956  0.04422734
 -0.26044154  0.2927644  -0.18256958 -0.08033901  0.18285468 -0.34449258
 -0.29516497 -0.34308022]
[-0.06208202  0.16078733 -0.05061186  0.00200621  0.2668454  -0.15108815
 -0.13819793 -0.12922418  0.07442196 -0.1965709   0.27909234 -0.04413432
 -0.29485312 -0.15632904  0.19857956  0.23858683 -0.18112853  0.2096
  0.09382547 -0.15126024]
[ 0.05946786 -0.76103884 -0.27402967 -0.22881871 -0.15603358 -0.31473622
 -0.16781296  0.5901003  -0.43594     0.04267786 -0.2913573   0.5458283
 -0.38844505 -0.6289839   0.57607144  0.0725078  -0.11353682  0.759168
  0.44388133 -0.19397862]
[ 0.23083359  0.11725684  0.3335086  -0.09368477 -0.13394092 -0.07609737
  0.29675087 -0.04169751  0.30543378 -0.25800788  0.19704968 -0.3796174
  0.4820372  -0.19471024 -0.40429127  0.09670884  0.14840803  0.24918701
 -0.22824374  0.46948513]
[-0.32708955  0.35132223 -0.0438508   0.01062988  0.04599216 -0.3474949
 -0.246799    0.1156692  -0.01810547  0.22469299  0.01895879  0.1364132
  0.06757796  0.18748964  0.23738511 -0.15621683 -0.233531   -0.1394961
  0.01514536  0.23166728]
[ 0.34008583  0.02554867  0.0300567  -0.13607343  0.15530461 -0.36939484
  0.18211412  0.01455981  0.07810189  0.08541314 -0.05836282  0.23850378
  0.40359426 -0.00065917  0.47456807  0.36468482  0.24980967  0.22864391
 -0.24736051 -0.44284827]
[ 0.34681466  0.23743562  0.07867261  0.04155853 -0.0318417  -0.07926168
  0.03966916 -0.12605621  0.10698632  0.10577313 -0.2007069  -0.23413023
  0.47964755  0.22740762  0.19573033 -0.3813042   0.23661433 -0.31786194
  0.02909939  0.22220266]
[-0.05174128 -0.1613986   0.01956517 -0.11686017 -0.04248925  0.08023857
 -0.12749599 -0.02234157 -0.07279038 -0.01789244 -0.04761989  0.17520607
 -0.01888547 -0.06700429  0.01701785  0.07543173 -0.02365384  0.05533269
 -0.00352522 -0.06289148]
layer 1 Activation
tanh
layer 2 Dense
20 40
[-0.03572244 -0.06406561 -0.11204661  0.06068784  0.04411987  0.21859188
 -0.30537027  0.05720788 -0.02132274 -0.17863216 -0.1152354  -0.12757213
  0.05813318  0.18686149  0.15680347 -0.17929612  0.14686769 -0.19931424
 -0.12030312 -0.31976166  0.19006667  0.06780439  0.35049736  0.2307593
 -0.20171043 -0.22004445 -0.2982559   0.22923756  0.09351216  0.09953056
 -0.22968031  0.03124542 -0.11114243  0.16231993 -0.3724037  -0.07583788
 -0.17655414  0.06633574  0.16908602 -0.21796411]
[ 0.07397216 -0.29764444  0.10681874 -0.15496565 -0.27788678  0.0704533
  0.24603191  0.05348521  0.21828422  0.03890829  0.0021181  -0.3069923
  0.1485928  -0.25349352  0.01030307 -0.07248107  0.20514171  0.05587444
 -0.04719919 -0.17781486 -0.12236796  0.16578534  0.04875948  0.3705872
  0.04986528  0.00499154 -0.01864564  0.15734126  0.07224793 -0.11359557
 -0.28658572  0.15424997 -0.14068592  0.15217406  0.1546571  -0.14053525
 -0.20726953  0.11309361  0.09582316  0.2245974 ]
[-0.23811632 -0.14015312  0.2986387  -0.23519072 -0.22698057  0.09792059
 -0.24376406 -0.01250042  0.1527161   0.04397481  0.16712043  0.20295298
  0.10922209 -0.02160016  0.14339471  0.02093607 -0.25214624  0.20197985
  0.28603426  0.08989382 -0.31877497 -0.20775041 -0.07266002  0.08995932
  0.19677223 -0.18109348  0.25871637 -0.13456339 -0.29805142 -0.05310998
 -0.07206267  0.03782927 -0.13181321  0.19132304  0.14325757  0.09344484
  0.03772247  0.03877151  0.06102717 -0.27205983]
[-0.2486162  -0.24278706  0.1812803  -0.16675237 -0.07843493 -0.00255632
  0.25997704 -0.0579689  -0.25234583 -0.08959954  0.06976534  0.17895705
  0.30435342  0.15320161 -0.16850859  0.16438927  0.17887266 -0.23775497
 -0.21800078 -0.07727093 -0.08515898  0.25378504  0.18141335  0.19078638
 -0.0511413  -0.00982268  0.019387   -0.10527987 -0.1355038  -0.25551894
  0.23621222 -0.10697822  0.24876519 -0.03983483  0.2488917  -0.12457968
 -0.05881693  0.0689968   0.07514174  0.21111846]
[ 0.06710777 -0.11907469  0.04616283  0.11945848 -0.002302   -0.05662674
  0.00139555  0.01329951 -0.01304095 -0.16180655  0.06738714 -0.00387164
  0.0462409  -0.07460987  0.23831321 -0.06512608 -0.17086378 -0.01645279
 -0.03480178  0.11845581 -0.03290832 -0.21797346  0.15837424 -0.00576099
 -0.05478946  0.0127129  -0.22699292  0.07225831 -0.22042441  0.19998944
 -0.0878594   0.25663868 -0.09057555 -0.01748879 -0.13148347 -0.01917664
  0.14046843 -0.00372176  0.14717989  0.05782197]
[ 0.07462758  0.20400092 -0.06703778  0.13724601 -0.05861583 -0.27766195
 -0.16544741 -0.04021593  0.06631232  0.07253632  0.20914523 -0.06476032
  0.13028292 -0.18113011 -0.20000802  0.2341373  -0.02930573 -0.11090096
 -0.16620047 -0.21737093  0.03295143  0.01932468 -0.1563456  -0.21000886
  0.07191565  0.00865653  0.1528009   0.03056274 -0.25618136  0.11155284
 -0.03097236 -0.16723406  0.12514886 -0.11323294  0.13587654  0.11425779
 -0.0588854  -0.21221733 -0.02951449 -0.03709399]
[-0.27990714  0.01114398 -0.05974448  0.15776595  0.09677547  0.1714637
 -0.2245669  -0.01033233  0.24040395  0.12843956 -0.3742395  -0.12162723
 -0.37695482  0.19455889 -0.13699117 -0.06770925 -0.16200495 -0.10514005
  0.01537843 -0.2593824   0.05703326  0.10784813  0.28461653 -0.05650406
  0.22038202 -0.18689853  0.10007338  0.11662913 -0.15348382  0.25554818
 -0.24685194  0.19846174 -0.13501646  0.13581324 -0.27069092 -0.26143453
  0.0341358  -0.10487703  0.43543267 -0.18069656]
[ 0.2341645   0.06684109 -0.34622136  0.10100504  0.04406447  0.15293767
 -0.12157662  0.13229682  0.23234253  0.156368    0.03234884 -0.09415133
 -0.00419823 -0.18009058  0.06518238  0.07514291 -0.18153462  0.1166763
  0.04006345 -0.02954558  0.34058723 -0.275657   -0.42635363 -0.27239576
 -0.23272927  0.29851693 -0.06030846  0.14514573  0.14887314 -0.3087536
  0.16439877 -0.0592721   0.17453873  0.23694685  0.19314328  0.26005045
 -0.05760923  0.12074007  0.2747936   0.1471864 ]
[-0.11708643 -0.04950319  0.05887034 -0.15397008 -0.14770679  0.12056492
  0.12699988  0.09920312 -0.19871171 -0.19022599 -0.06486294 -0.27674493
 -0.15410574 -0.00399629  0.07667921 -0.11318018  0.11536423  0.13599089
  0.26676843  0.04308866 -0.22777677 -0.15338857  0.18673362  0.37009874
 -0.21393351 -0.0486043  -0.18408403 -0.2513567  -0.02345205  0.17636807
  0.26980564  0.23703648 -0.1807072   0.20144424  0.13446762  0.04359898
  0.21474873 -0.14167877 -0.21668954 -0.11310679]
[ 0.23620832  0.0715027  -0.08506968  0.13757823 -0.03569546 -0.0023307
 -0.0372232  -0.01003897  0.20743114  0.14557475  0.09354728  0.22035092
  0.23788323 -0.09463178  0.07063676  0.2019265   0.04694606 -0.03806139
  0.2093019  -0.06333955  0.05870201 -0.0783455  -0.22028454 -0.1320537
 -0.16298357  0.06283689  0.00590635 -0.07021343 -0.143399    0.2181588
 -0.20218925 -0.20380597 -0.23483942  0.05856336  0.03160258  0.0547873
  0.04455946 -0.02550221  0.03927389 -0.0045149 ]
[-0.05719503 -0.25704417  0.10655851 -0.22804402 -0.08227617  0.16917595
 -0.1445949   0.23484209  0.0857441   0.09383533  0.358223    0.27134472
  0.10469244 -0.23229243  0.01602162 -0.13991946  0.01793225  0.11104855
 -0.05355     0.13148408 -0.11197365  0.06585095 -0.08480726  0.03327266
  0.0638859  -0.18969804  0.02572998  0.0959696   0.13433667  0.13564466
 -0.10221041 -0.33840752 -0.13227788 -0.194195   -0.17013624  0.16879928
 -0.04587005  0.24944746 -0.27055812  0.15036704]
[-0.21239716 -0.30651662 -0.07962164  0.2674425  -0.06439731 -0.16704206
 -0.02177271 -0.17370114 -0.30055383 -0.04187794 -0.21947783 -0.1644358
 -0.05229285  0.25812656 -0.06750418  0.17541961 -0.03764124 -0.14498223
  0.2862588   0.05713448  0.18494366  0.16995047 -0.3977881  -0.19464651
 -0.02135723 -0.18490939 -0.3520558   0.09747081  0.13592     0.19356273
 -0.01722486  0.20759104 -0.06724419  0.09295566 -0.22745262  0.35403487
  0.05045921 -0.08898629  0.20008035 -0.00565174]
[-0.24305867 -0.0080619   0.14627524 -0.22100939 -0.05797424  0.27445805
 -0.09384002 -0.23815341 -0.05758206  0.13987859  0.07649866 -0.27960616
 -0.02957258 -0.19594757  0.20766847 -0.06550777 -0.11100028 -0.10290865
 -0.08781396 -0.31485623 -0.07665178  0.22119185  0.19027475  0.15764295
  0.13902643  0.09859496 -0.14478555 -0.13330185 -0.31522033  0.00186499
  0.21834183  0.23323448 -0.17068604  0.06695092 -0.04263712 -0.3314563
 -0.19251117  0.0546731  -0.00850946 -0.05044538]
[-0.01099142 -0.18283564  0.02778045 -0.23333491 -0.23005602 -0.07484598
 -0.13784899  0.02079105 -0.25462303  0.2762448  -0.05665281 -0.11538598
  0.06855445  0.0670637   0.26447457  0.1608039   0.3346909  -0.11517081
  0.07999289 -0.2586772   0.07550592  0.14410621 -0.0787759   0.4091693
 -0.18324664 -0.29215997 -0.16631599  0.19786069  0.12003219  0.01604835
 -0.0630675   0.15685861  0.04479415  0.04221059  0.0257308   0.12054761
 -0.06879836  0.01072787 -0.28186908  0.09739836]
[-0.19585921 -0.20290078  0.01797618  0.2778018   0.11288189  0.13649432
  0.04665236  0.19248885 -0.19126776 -0.29064867  0.09677029 -0.21926191
 -0.10939008  0.3040018  -0.14004777  0.3562434   0.19006796 -0.08485984
  0.33584794 -0.168412    0.1369408   0.18085313 -0.06279853 -0.02811148
  0.01677586  0.31621042  0.16964047 -0.00879253  0.3064196  -0.04991546
  0.13194339 -0.06147543  0.07974614  0.19047186 -0.2263107   0.00053206
 -0.15341207  0.13147824  0.38841447  0.00322295]
[-0.25254744 -0.09912004  0.25941396 -0.0394271  -0.07529846  0.2863201
 -0.01918565 -0.12154117 -0.21474996 -0.1300412  -0.02530776 -0.2315271
 -0.06888735  0.23674642  0.13336156  0.09125236  0.04677304 -0.30591965
  0.25436762 -0.0573163  -0.09046818 -0.1842263   0.23671204 -0.09183117
 -0.0781218   0.1983529   0.07650419 -0.16943902  0.08747198  0.2393191
  0.14223386 -0.1632844   0.13402422 -0.04677984  0.02894688  0.23596025
 -0.11969672  0.11297154  0.08885983 -0.25641996]
[-0.15878986 -0.16284353  0.10027327  0.07256785 -0.01995395 -0.0733295
  0.2247951  -0.03525344 -0.22240166  0.19983113 -0.2269606   0.16651501
 -0.09039314  0.18760395  0.35487008  0.05321578  0.34144115  0.1324429
  0.14388189  0.12616952  0.20295773 -0.1722942   0.23406392  0.29097313
 -0.05136205  0.03979755  0.05281597 -0.11891462 -0.01695608 -0.17010242
 -0.15476945  0.19340862  0.09061436  0.12152772  0.05836619 -0.00050703
  0.05725743  0.05769669 -0.14111513  0.13145465]
[ 0.11817539 -0.07984316  0.20814998 -0.08668657 -0.21237428  0.29482687
 -0.15506427 -0.05805367 -0.00996416 -0.31210575 -0.27494106  0.02763176
 -0.03340956  0.35097244  0.21901712  0.11082356 -0.2083217  -0.13078386
 -0.01245818 -0.19742881  0.3434082  -0.15238754 -0.10720807  0.03169687
 -0.11282945 -0.2132486   0.02225749 -0.22242853  0.04720513 -0.15702322
  0.05477243  0.19329292  0.10518936 -0.01142295  0.14137481 -0.23737092
 -0.14277072 -0.01073377  0.30558383 -0.18530113]
[ 0.07645606 -0.21222463  0.10303167 -0.0433566   0.22426787  0.14974032
 -0.11246739 -0.0004744  -0.08191162  0.2821879  -0.06580345  0.08298846
 -0.08334325  0.2830102   0.07311881 -0.12486746  0.03837628  0.00125106
 -0.1325142  -0.09282065 -0.05834652 -0.27313167  0.11000025  0.27747178
 -0.02330901  0.25776303 -0.10513326  0.23399475 -0.14244068  0.01036842
 -0.0611833   0.08412072  0.23673998 -0.05096247  0.15908661 -0.06125331
 -0.03568476 -0.10942303 -0.11952893 -0.23409848]
[-0.27936742  0.14654924  0.07301905  0.14423434  0.05563085 -0.00382796
  0.01511708 -0.11022332  0.10509719 -0.05048301 -0.03481003  0.01606286
  0.20226361 -0.28799513 -0.15146433 -0.01592186  0.20693272  0.01397198
  0.21800362 -0.22480702 -0.03546025  0.2410275  -0.22457494 -0.16079113
  0.14923105  0.25983223 -0.17605503 -0.06882467 -0.06833112  0.08489711
 -0.21873651 -0.21620505 -0.04968103  0.06547148 -0.1413235  -0.06338641
  0.01454375 -0.24895355 -0.07703806  0.16976985]
[-0.02725778  0.00276345 -0.03327659  0.01784045  0.033869   -0.03051812
 -0.06602247 -0.01393577 -0.04832082  0.00954285  0.01177426  0.02157653
 -0.0577715  -0.00395327 -0.00145214 -0.0060488   0.00743277 -0.04406898
  0.04141685  0.08353327  0.06590446 -0.02383683 -0.10210668  0.04097314
  0.00659162 -0.01606538  0.00758591  0.04498773 -0.01553816  0.0264729
 -0.0145022  -0.04166744  0.11816961  0.03581457  0.04784065  0.03435967
  0.03224146  0.02136094  0.05313883  0.02028634]
layer 3 Activation
tanh
layer 4 Dense
40 20
[ 0.29639548 -0.19688512 -0.1976533  -0.12097824  0.30113912 -0.10786303
 -0.0381126   0.05722479  0.0110839   0.02573101  0.02201482 -0.27185628
  0.244346    0.11871325  0.31775993  0.23841572 -0.17209207  0.17274588
 -0.24045868  0.2702857 ]
[ 0.17158085 -0.12366603  0.03828765  0.22895329  0.2821165  -0.22752091
  0.19741327  0.26053646  0.21817228  0.20020956 -0.29723075 -0.12642103
  0.21067314 -0.05147664  0.28342333 -0.19660258 -0.32091534 -0.09225963
 -0.21869141  0.16087763]
[ 0.01345551  0.0246958   0.17559794  0.23824549 -0.13283934  0.16092978
  0.20176062 -0.12730573 -0.20950112  0.01681975  0.03956617  0.25499085
 -0.07814938 -0.26531762  0.09075896 -0.02413518  0.2513499  -0.15776382
  0.14665459 -0.18097736]
[ 0.2997274   0.11166707 -0.14313668 -0.2139672  -0.08312999  0.3647082
 -0.07470652 -0.1497766  -0.17580882  0.31267202  0.12546794  0.06186142
 -0.02200485  0.00826929 -0.21561429 -0.06418408  0.05838431  0.26603347
 -0.25141522 -0.09200496]
[-0.08670404  0.18038005  0.06409183  0.08313978  0.23086551  0.22258478
 -0.18048723  0.11786097 -0.23543735  0.07320079  0.02822426 -0.13354947
  0.06606051 -0.13072999  0.17572643  0.14195271  0.22279046  0.17817223
 -0.20477088  0.08467623]
[-0.04156277 -0.35353488  0.0335127  -0.20088106 -0.03210133 -0.2875106
  0.2054867   0.05220384 -0.19038191 -0.25642055 -0.03355377  0.23393661
 -0.03530739 -0.12618627 -0.2934352  -0.13995545 -0.15166834 -0.13092417
  0.1790789  -0.13274829]
[-2.14900821e-01  3.50602299e-01 -1.85078323e-01  1.13618635e-01
  6.20337762e-02  4.48277444e-02 -5.69381155e-02 -1.85643584e-01
 -1.13812769e-02  5.03550656e-02 -3.10390722e-04  2.50775758e-02
 -2.37613186e-01 -3.40293318e-01  1.66126177e-01  2.41393700e-01
  5.48766106e-02 -2.41971835e-01  1.07366905e-01  1.53298363e-01]
[ 0.3143461   0.2650941  -0.19146875  0.29031864 -0.07648423 -0.30689874
 -0.07798266 -0.05192237  0.17926967  0.2721972  -0.2603705   0.29618394
  0.11838119 -0.05433863  0.01030991  0.22090572  0.1105148   0.1044472
  0.09279875 -0.2602778 ]
[-0.23287976 -0.03158008  0.27090412 -0.06129372  0.15001932 -0.1947826
 -0.06922075 -0.17214403  0.24065338 -0.11247323 -0.02385356  0.12326309
 -0.1035173   0.02635909  0.10890515  0.06989841  0.21727706 -0.12226896
  0.02804824 -0.17199887]
[ 0.10498247 -0.05837836  0.13019656 -0.22599785 -0.04085482  0.09446574
  0.11178555  0.00054704 -0.08691658 -0.06112691  0.1974047  -0.04571389
 -0.18798691  0.18666999  0.0793961   0.18330285  0.18419507 -0.2603996
  0.20635545 -0.24918865]
[ 0.07765041  0.2652433  -0.31221747  0.18093261  0.02176633  0.10394038
 -0.03569661  0.30497932  0.07409193 -0.00340859  0.04919169 -0.2406501
 -0.08845217  0.0982684   0.01891738 -0.3249101   0.14654315 -0.30058703
 -0.15391381 -0.30131578]
[-0.09142537 -0.0141084  -0.00233724 -0.1148932   0.13564256  0.11490472
 -0.26462507 -0.21089603 -0.02645756  0.2926754   0.19610752  0.16104062
 -0.17134652  0.08997305 -0.17249727  0.12951066  0.06726611  0.23608366
 -0.14127102 -0.10707209]
[ 0.10536181 -0.0698104  -0.25144738 -0.13927612  0.27299714 -0.08387147
 -0.25579098  0.06407131 -0.17005472 -0.14869249 -0.2067944  -0.30160764
 -0.09235831 -0.07044712 -0.14779525  0.15712857  0.0178929  -0.04179599
  0.198637   -0.3252235 ]
[ 0.23290622  0.23865311 -0.00196608 -0.22514269  0.14948675 -0.02770137
  0.08663259 -0.06250712 -0.22364734 -0.27910632 -0.0989771  -0.17445113
  0.05481562  0.23995958  0.14641944 -0.15146217 -0.20835385  0.294015
 -0.02590333 -0.06481295]
[ 0.13859913 -0.02664277  0.20042081 -0.26596624  0.10685235  0.08335327
 -0.04883425 -0.09643614 -0.2202772  -0.28640196  0.11924586  0.05670783
 -0.24145085  0.15805882 -0.07216208  0.13391607  0.09854161 -0.23511776
 -0.01655947  0.15775819]
[-0.11978919  0.17285746 -0.09789561  0.03473525 -0.1153921   0.23429728
  0.08037777  0.17351781 -0.04390541 -0.13826555  0.1397842   0.08546154
  0.06905933 -0.16558419  0.02290517  0.08466983  0.04087294  0.09782948
  0.2392023   0.3283175 ]
[ 0.15440905  0.20189242  0.27795708 -0.03746313  0.26861584 -0.18078847
 -0.15448132  0.16791634  0.10955449  0.21783227  0.17204204 -0.03813925
  0.07967313 -0.0978974  -0.01626721 -0.17453565 -0.13332811 -0.24677978
  0.05047046  0.02512418]
[ 0.19526967  0.00740986 -0.26866418 -0.12131666 -0.16124181 -0.2750903
 -0.09781569 -0.07561751 -0.2063764   0.17864913 -0.01705382 -0.31829995
 -0.05114356 -0.1250048  -0.08300284  0.06357395  0.14166121 -0.01905005
 -0.00271622 -0.32765615]
[-0.30374706 -0.13441081  0.17610076  0.13660873 -0.29235408 -0.13209319
  0.09457997 -0.00429529  0.33429816 -0.21584617 -0.03690132  0.2888608
 -0.12594882 -0.24897398  0.07560463 -0.09744404 -0.0954802   0.13272688
 -0.18074411 -0.07082593]
[-0.23349516 -0.03506596 -0.1952668  -0.24936779 -0.13567546 -0.04920771
 -0.23512536  0.27073935  0.26408392  0.13688868  0.25061417  0.16516657
  0.10906     0.1845811   0.16062278  0.11037172 -0.09312657  0.3445341
 -0.26280665  0.07545331]
[ 0.06861496 -0.18595502  0.0894479   0.38895193  0.28390223  0.30585253
 -0.18048093  0.09069313  0.22476518 -0.18790203  0.10723408 -0.1255997
 -0.02313179  0.0548563  -0.00879471  0.22185618  0.01637694  0.35050002
 -0.15012056  0.24043983]
[-0.09116757  0.12561004 -0.1347929  -0.11731079 -0.08652414 -0.11178615
  0.1359285   0.18634029 -0.04443696 -0.03471935 -0.26746562  0.1865509
 -0.11610889 -0.22496615  0.02242839  0.15091456 -0.2672625   0.13186495
  0.36763242 -0.27458107]
[ 0.04307625  0.04773451  0.14093634  0.06955088 -0.28219095 -0.23690358
  0.33510318 -0.31195697  0.20323344 -0.2809843   0.09844074  0.08109744
  0.15500374 -0.13182105  0.00330701  0.20686504 -0.3031339  -0.30452967
  0.05747094 -0.16764784]
[-0.07851162  0.02808509  0.25182712 -0.06612659 -0.26682734  0.21334673
  0.12207476 -0.3413693   0.12102593 -0.22248283  0.10233299  0.1313741
  0.00204291 -0.06915005  0.2344246   0.0217203  -0.12270276 -0.1755512
 -0.2904001  -0.2034493 ]
[-0.1069289  -0.0528495   0.17774563 -0.09480412 -0.16497321  0.0945503
  0.17133576 -0.22269548 -0.26394826  0.16604915  0.1383078  -0.04760363
  0.041062    0.29105768  0.2419594  -0.04405561 -0.19198792 -0.19303721
 -0.23503155  0.2729131 ]
[-0.15564846  0.1460411  -0.26666644 -0.13861217 -0.08087163  0.09076812
 -0.03202138 -0.20063078 -0.2676962  -0.22874184  0.10026122 -0.26937386
 -0.2556253   0.00874291 -0.00358624  0.3358637  -0.29234323  0.24306557
  0.27273265 -0.10476515]
[-0.2869116  -0.25947708 -0.31736904 -0.01095889  0.11120883 -0.20945936
  0.01088469  0.06120275 -0.11941034  0.29856429 -0.1714506  -0.11185712
 -0.11599562  0.10481979  0.00421411  0.22384767  0.08649965  0.09408466
  0.00678471 -0.26582167]
[-0.15441902 -0.24485506  0.09986672  0.10990881  0.18331759  0.1441978
 -0.22129071  0.03858645 -0.08952881 -0.2508108  -0.17821948 -0.1379102
 -0.36813068  0.18273787  0.17579363  0.01338194  0.14564383  0.02898816
 -0.21994606 -0.04763503]
[-0.0357725   0.14497243 -0.01843688  0.12074727  0.15359096  0.03989941
  0.15330452 -0.09884755  0.09110978  0.2062879   0.25338626  0.10739828
 -0.32538745 -0.28349233 -0.06097938  0.20915735 -0.14065911  0.1548115
  0.10535767  0.14761686]
[ 0.00708153  0.11443473  0.23469009  0.07229932  0.14730449  0.14276859
  0.06302905 -0.12322461 -0.23285072  0.25684747  0.02494244  0.05244909
  0.2923263   0.3219002   0.24798432  0.21187937 -0.23686203 -0.13611089
 -0.27242213  0.26239395]
[-0.36183283 -0.09361499 -0.08485173 -0.2969497  -0.1633026   0.13574433
  0.17869744 -0.15324745  0.37424856  0.15636475  0.2406569  -0.17793652
 -0.15270151  0.19373651  0.09465003  0.2923256   0.0675602   0.07758456
 -0.12133411  0.27848437]
[ 0.00999987 -0.03541869  0.15279225 -0.13536516 -0.19258538  0.23033543
  0.24895632 -0.3439639   0.2568107   0.08654267 -0.10687764  0.15581642
 -0.35623944  0.32112312  0.04958259 -0.09101609 -0.23046347  0.0423333
 -0.03865067  0.19547637]
[ 0.16802211 -0.12532221  0.23710103 -0.07233241  0.32974687  0.12759875
 -0.04762005  0.2824148   0.05263822 -0.08594502 -0.22973438 -0.23968752
  0.10642355 -0.18509251 -0.07199727 -0.27246946  0.30396673  0.2407966
  0.1813623   0.26129508]
[-0.1694857   0.04346843 -0.03259882  0.0914271  -0.14488602 -0.20391764
  0.1927222  -0.01266776  0.09654304  0.20062654 -0.29590023 -0.16600369
  0.45394567  0.13641462 -0.05488815  0.22863777  0.27205163  0.24130203
  0.15383932 -0.1981559 ]
[-0.22513258  0.0549878   0.14553753 -0.11128233  0.2938431  -0.07132334
 -0.26028526  0.1801105   0.10279155  0.23864307  0.30460593 -0.07364036
  0.07319645 -0.00706515  0.31553724  0.00183416  0.10465446  0.15175202
  0.06500052 -0.23729715]
[ 0.05714599 -0.15182637 -0.26583734  0.22060293  0.09215437  0.11356057
 -0.31136334  0.01980473 -0.21985425  0.354939    0.17405057  0.23990294
  0.05652639  0.22491957 -0.31444532  0.05882068  0.24632242  0.10878864
  0.28145933 -0.08247763]
[-0.23855749  0.1089      0.112192   -0.18653241  0.2598552   0.12610456
 -0.21611768 -0.02429794 -0.2362901   0.00301649 -0.24860379  0.00688609
 -0.00097193 -0.1128649   0.12080778  0.10194757  0.2998063   0.16724144
  0.12402181 -0.19132586]
[-0.25662154  0.25584424  0.27806565  0.03304202  0.1844042   0.08193082
  0.14588219 -0.1817167  -0.03532354  0.18796417  0.12858883 -0.35521436
 -0.21127534  0.10069589  0.12600736 -0.07904985 -0.13584526 -0.0081678
  0.0239872   0.19093534]
[-0.21077457  0.15025935  0.11335619  0.25024652 -0.25737754  0.18958816
  0.2277054  -0.26201883 -0.1882015   0.18574768  0.14826229 -0.15323475
  0.00512156 -0.19948508  0.27675506  0.16192281  0.05861986  0.21963316
 -0.10551376  0.22039124]
[ 0.08057043  0.1335707  -0.03104005  0.2769384  -0.05214581  0.27299982
 -0.12442282 -0.10960748  0.04421077  0.09001175  0.14954689 -0.23827113
  0.04618054 -0.00093775 -0.21943241  0.01804241  0.01223314 -0.10712668
  0.08686901 -0.28800884]
[-0.02968186  0.00354584  0.05887886 -0.02970212 -0.06285059  0.07346734
 -0.07543815  0.05571045  0.03952655  0.0528041  -0.03885587 -0.03601284
  0.01832073 -0.04215565 -0.02945371  0.03230811 -0.05805424  0.01229194
  0.01868686 -0.01642029]
layer 5 Activation
tanh
layer 6 Dense
20 1
[-0.01540575]
[0.01770518]
[0.20218715]
[-0.00716198]
[-0.24663983]
[0.19096489]
[-0.2382836]
[0.19040513]
[0.00082251]
[0.09907268]
[-0.09596335]
[-0.04275097]
[-0.00037213]
[-0.02582465]
[-0.06887248]
[0.08038983]
[-0.08539011]
[-0.24006543]
[0.03085106]
[-0.0694344]
[0.06824078]
