layers 7
layer 0 Dense
20 20
[ 0.16737396  0.23851286 -0.37394118 -0.09847783 -0.22899455  0.28451735
 -0.4723229  -0.5641403   0.05886413  0.6926089   0.492517    0.15274155
  0.2925349   0.34917465  0.09838839 -0.3506561   0.0476938   0.26314256
  0.29939392 -0.3336492 ]
[ 0.29691863  0.32028824  0.04094106  0.16540195 -0.15803677 -0.24517936
 -0.38327315  0.08988559 -0.36369917  0.31474793 -0.02992405  0.10033476
  0.05175491  0.27947456  0.08480232 -0.21955031  0.11343655 -0.02549411
  0.2355381  -0.14702678]
[ 0.37804213 -0.11737001  0.05942902 -0.2768776  -0.19963418  0.05244733
 -0.54565203  0.01647176  0.18126269 -0.06029952 -0.16195314  0.24305078
 -0.09856643  0.03999678  0.227861    0.19756544 -0.24558516 -0.3827647
 -0.1271782  -0.5527592 ]
[ 0.53603333 -0.05324781 -0.00653046  0.30513418  0.07571784 -0.25887623
 -0.2014051  -0.40368772  0.04021408  0.35209173  0.30965775  0.0149671
 -0.13332672  0.40068784  0.3743818  -0.33216858 -0.20296463 -0.4628
  0.6758677  -0.3560604 ]
[ 0.37502438 -0.41636732 -0.59878635  0.05672102 -0.01633019  0.40787697
 -0.09464564  0.1457967  -0.57944095 -0.07234643  0.14979999  0.44648573
 -0.3383311  -0.6210538   0.37279955 -0.27779624 -0.32111505  0.19828512
 -0.23882903 -0.35255367]
[-0.0598988  -0.07938328 -0.23571195 -0.09556465 -0.01944654  0.206525
  0.01486735 -0.20275505 -0.11377125 -0.26965243  0.3324006   0.10769591
  0.3086055  -0.08673716 -0.29564223 -0.27539974 -0.25300938  0.096028
 -0.12712562 -0.27978313]
[ 0.48587534  0.05067671 -0.25444436  0.06693585  0.17576803 -0.19809406
 -0.4904751   0.37388337 -0.22539997  0.21316844 -0.36310935  0.11309399
 -0.01243125 -0.10155262 -0.17946704  0.32558507  0.30498198  0.03711724
  0.5390797  -0.48441282]
[-0.26533166 -0.01061011  0.42293784 -0.41469482 -0.2210915  -0.24946396
  0.7508401  -0.39622027  0.83936036  0.4427664   0.13354138 -0.25346926
  0.6265111   0.01173365 -0.5133215   0.5332829  -0.20212421  0.06500686
 -0.18385717  0.5451991 ]
[ 0.2221187  -0.64183056  0.11187841 -0.21681774 -0.01536149 -0.10394637
  0.37619823  0.13330129  0.42517215  0.16625153 -0.12693587 -0.85222423
  0.0172884   0.3894243  -0.4497211  -0.42512158 -0.14739233 -0.03177257
 -0.60646707  0.12749095]
[-0.19815543 -0.25603342 -0.27604377 -0.3109554   0.4699866   0.5552086
 -0.39340806 -0.12166625 -0.3664775  -0.20337844 -0.13615549 -0.44879907
  0.04390691  0.68892956 -0.1550637   0.7148176  -0.04164547  0.09941016
  0.06268488  0.17176709]
[ 0.04197308 -0.77150416 -0.40663403  0.6277481   0.2554217   0.1193657
 -0.02035598 -0.5462238   0.09951014 -0.28342485  0.16809034  0.09252021
 -0.1746989  -0.2535277  -0.35971457 -0.45312396  0.14560941 -0.7946
 -0.01686748 -0.13826771]
[-0.87365305 -0.07304771 -0.45417407 -0.18824029 -0.06273168 -0.16455905
  0.76895493  0.36679637  0.41995612  0.8864282  -0.48522314 -1.0334868
  0.3559282   0.66330224 -0.8709786  -1.5835181  -0.7469625  -0.60376185
 -0.3950232   0.7958392 ]
[ 0.6257823   0.27975312 -0.2828493   0.79053664  0.23861331  0.6660452
 -1.0021083  -0.06787614  0.23762964 -0.19666985  0.6045209   0.53285193
 -0.26163515 -1.2476766   0.17602524  0.4048539   0.04321011  0.5011528
  0.805338   -0.48751956]
[-0.03475956  0.06593303  0.734965    0.18267803 -0.4434016   0.17383309
  0.09831308  0.1186911  -0.23656943  0.55818987  0.08148376  0.8618476
 -0.0027505   0.15249947 -0.21816021 -0.6519105   0.6540876  -0.12337756
 -0.68507594 -0.06655619]
[ 0.28001112  0.31810492 -0.10635348 -0.52241135 -0.37824747 -0.05009574
  0.12129482  0.17224675  0.37870005  0.3414029   0.6566154  -0.06169504
 -0.06467894 -1.156809    0.76368797  0.2510063  -0.00908659 -0.25660688
  0.16036081 -0.312542  ]
[ 0.96720546  0.61648834 -0.30706155  0.24898647 -1.2240118   0.80627865
 -2.2961042   0.6993987  -0.4159957   0.35029608  1.2046288   0.9235329
  0.6275599  -0.36237922 -0.3228958   0.23511492 -0.94685924 -0.08228078
  0.7348219  -1.1427385 ]
[-0.8139221  -0.4790844  -0.99095446 -0.35343635 -0.16056474 -0.09036862
  0.6452135  -1.1546099  -0.9146054   0.67591786 -0.52108234  0.6610486
 -0.3971148  -0.28030694  0.9277625   0.15016608 -0.1398489  -0.53788096
 -0.5282335   0.6698041 ]
[ 0.1975213   0.16043498 -0.09748835  0.17279753  0.32706225 -0.6308985
  0.00198316  0.52647686 -0.10649411 -0.26255473 -0.14552462 -0.12000419
  0.342142   -0.68642384  0.3557216  -0.31162775  0.00489633  0.06306768
  0.16739072 -0.13208194]
[-0.13433348  0.0974967  -0.10719822  0.03880442  0.43409505  0.17826946
 -0.14647433  0.4353911   0.02378416 -0.37669793 -0.191952   -0.08060324
 -0.2983415   0.516966   -0.37103856  0.17995454  0.64125246  0.9473257
 -0.30469912  0.32243904]
[-0.04470494 -1.1429443   0.88697577  0.2591537   0.91838497 -0.32859084
  0.4233344  -1.3021759   0.85196525  0.2761112   0.26061174  0.52745414
 -0.06750071 -0.22485682  0.9060166   0.70170313  0.76281554  0.46755096
  0.6916372   0.6809828 ]
[ 0.24215077  0.31125683 -0.16198926  0.03812655  0.10151032 -0.04960837
 -0.34791806  0.05707213 -0.11901426 -0.09239573 -0.00100971 -0.0599041
  0.01981991  0.2524734   0.0827333  -0.06047243  0.07808104 -0.06565078
  0.28494695 -0.32511768]
layer 1 Activation
tanh
layer 2 Dense
20 40
[-0.51119    -0.1600841   0.19849369 -0.4693382  -0.2586202  -0.2715686
  0.3320673   0.19842464  0.4559701  -0.27494383 -0.2764074   1.0223622
 -0.02152996  0.02478833  0.21325701 -0.18165965  0.1941057  -0.10090419
  0.19115493 -0.20184301  0.275019    0.07095056 -0.43675798 -1.0190792
  0.38288268  0.08594784 -0.4556548  -0.516989    0.525264    0.26850715
  0.514425   -0.6146242   0.13799717 -0.36032468 -0.4218217  -0.14303434
  0.08273783 -0.198557   -0.3160737   0.1345762 ]
[ 1.14884265e-02  4.29244459e-01  1.31263003e-01  1.64277852e-02
  3.10664326e-01 -1.59165822e-04 -4.72492762e-02  5.81389740e-02
 -6.94903508e-02  4.48075652e-01  1.83399871e-01  3.57341111e-01
 -3.99044901e-01  2.48973504e-01  9.43059176e-02 -3.31263363e-01
 -5.49886465e-01 -3.35110277e-02 -1.02920882e-01 -4.01467413e-01
 -3.26146990e-01 -2.93729156e-01  1.60414919e-01 -3.04154009e-01
 -2.02153251e-01  3.90245463e-03  1.47175968e-01  2.83974856e-01
  2.95960605e-01 -2.88640317e-02  1.48769785e-02 -2.05224961e-01
 -9.53434855e-02 -4.21776831e-01  3.41400087e-01  2.86006123e-01
  5.44800982e-02 -1.83584541e-01 -1.92765519e-01  1.89104909e-03]
[-0.2621952   0.07182002  0.09965625  0.16664499 -0.23086452 -0.1177864
 -0.04072843  0.15182766  0.3599561   0.06555968 -0.26808375 -0.39469776
  0.41937587  0.78228974 -0.04073536 -0.534416    0.4646102   0.16704763
  0.1877431   0.05460596  0.05259058  0.06847715  0.11757168  0.5508473
  0.03175702 -0.08509167  0.7624941   0.00787171  0.07636344 -0.1535836
 -0.01574728 -0.2631291  -0.33239925  0.12154539 -0.17815149  0.07495762
  0.21148297 -0.2770864   0.44964015  0.51687086]
[-0.03588247 -0.39528075 -0.22070183  0.18387108 -0.01212201 -0.54545224
  0.28124782 -0.12276147 -0.5258909   0.01338818 -0.11046235  0.45114335
  0.15529664  0.33162     0.01008765 -0.01110234  0.19896671 -0.00602019
 -0.02780764 -0.23648977 -0.0281296   0.1216826   0.05281294  0.20769915
  0.1106085   0.12321218 -0.20583418 -0.3906317   0.2685234   0.3713765
  0.24552445  0.18957488 -0.29523686  0.03897028 -0.06802966 -0.10569326
 -0.0057135   0.01104648  0.31735918  0.21465635]
[-0.5603733  -0.06148468  0.2780018  -0.18146186 -0.05047736 -0.27280995
  0.5186751  -0.20395891  0.18844774 -0.46047086 -0.31171364 -0.5263636
 -0.10198409  0.38992897 -0.3753033   0.22604486  0.09940121 -0.42162833
  0.17693748  0.352111    0.15502834 -0.13565047  0.1300604   0.18791784
 -0.07291471  0.26429012 -0.55315185 -0.18920332  0.18441188 -0.10279337
  0.21628422  0.05231376 -0.1490352   0.41829807  0.3234132   0.5427933
 -0.24482663 -0.09963459  0.07187606  0.5258706 ]
[-0.12364506 -0.22351936  0.4258362   0.34826267  0.1093879   0.05163912
  0.37990993 -0.37530705 -0.868363   -0.50764006 -0.11150061 -0.29834303
  0.21128605  0.07208266  0.11827369 -0.08973363 -0.83465934  0.0965988
  0.3064147  -0.56038934  0.06941228  0.12065822  0.3337686   0.16454856
  0.10101821 -0.04005748  0.79504067 -0.5676568  -0.6266315   0.41064268
 -0.23931925  0.57008064 -0.02809314 -0.4027692   0.22356589 -0.25960907
  0.41636124 -0.17364423 -0.41589728 -0.6387775 ]
[ 0.82085544  0.18828268 -0.28019512  0.4763346  -0.16434081  0.08368085
  0.03350422  0.7898518   0.6578938   0.63999474  0.21172148 -0.96500146
  0.5911846  -0.8916025  -0.01859125  0.31951252  1.142662    0.10536309
 -0.19001393  0.7193368   0.05068478  0.31196037  0.3249565   0.4899222
 -0.15732637  0.02131834  0.16654208  0.17462613  0.21117967 -1.1961887
 -0.35171422 -0.19376461  0.31701922  0.4987089   0.34546924  0.01226211
 -0.461023    0.2533044   0.18811873 -0.10241909]
[-0.1406603  -0.17761838  0.18052648 -0.33431444  0.01049548  0.09125932
 -0.38104326 -0.07751197 -0.05123375  0.6805945  -0.20206435  0.5096002
  0.04331297  0.13144425 -0.03876312 -0.31477892 -0.51269525 -0.03255973
  0.01507829  0.13513456 -0.26078862 -0.24148798 -0.34248838 -0.04955752
 -0.0262707   0.23377453  0.36481887  0.24539289 -0.03968017  0.36532646
  0.21610059 -0.2588383   0.1832129  -0.35294548  0.16051303  0.13776276
  0.14186679  0.19501302 -0.24122366  0.06703793]
[-0.22690715 -0.22934833 -0.25180364 -0.07324044 -0.4196583  -0.24908763
 -0.04807374  0.21800897  0.3834151   0.03789617 -0.06901771 -0.326642
  0.09496211  0.39786294  0.14079864  0.6489584   0.4942174  -0.4226819
 -0.06877538  0.00823159 -0.09154397  0.35726064 -0.32560205 -0.08856802
 -0.09027144  0.39294633  0.39391363 -0.16793561  0.12267504  0.12226043
  0.42166054 -0.25824836 -0.3474413   0.17921677  0.03338885 -0.29297563
 -0.22999799 -0.3252783   0.18399593  0.9148808 ]
[ 0.12870347  0.355227    0.09345441  0.22991364 -0.24117437 -0.17412771
 -0.3312317  -0.11744282 -0.2090181   0.0569178  -0.17799576 -0.16711001
  0.38139164 -0.09955887 -0.09642407  0.2884388  -0.07131556  0.30280617
 -0.04603764  0.2559583   0.14217287  0.01975159  0.1708644   0.01651372
 -0.24312535  0.11649494 -0.0118457   0.41109258  0.24855454  0.13352942
 -0.2425243  -0.05784656  0.09656981  0.3710687  -0.0375023  -0.42499018
 -0.20536803  0.02126448  0.31668428 -0.35260344]
[-0.19272335  0.283842    0.08554295 -0.36057046  0.02005123  0.05937845
 -0.26972085  0.17475906  0.16615461  0.08025981 -0.31578436 -0.12538761
 -0.2567428   0.07935938  0.24700792 -0.2514302   0.58190507 -0.08206758
  0.5894267  -0.21144587 -0.00971213 -0.37485367 -0.13389124 -0.2114849
 -0.12634309 -0.00470258  0.08402697 -0.03876922  0.6276248   0.33995068
  0.47660044 -0.32463884 -0.11782327 -0.01840801  0.1798915  -0.31859827
  0.43313128  0.04232704 -0.14920783 -0.38452876]
[-0.5768978  -0.11680906  1.0437607  -0.12546365 -0.30959362 -0.0163455
  0.39311597 -0.3511512  -0.37814322 -0.39806938 -0.08144004  0.0851457
 -0.28358975 -0.04371194  0.22721677 -0.9050622   0.30466017  0.00672225
  0.45947653 -0.25981328 -0.03589534  0.21708317  0.10787254  0.4828796
 -0.4794847   0.16836633 -0.23256768 -0.51954186  0.06108662  0.27721885
  0.12186078  0.09863327 -0.19366492  0.43767348 -0.01183817  0.12735847
  0.12784488 -0.4070123   0.127311   -0.65586627]
[-0.00819109 -0.05123971 -0.4150566   0.01128633  0.07845575 -0.05434639
 -0.33230808  0.3613157  -0.00163628  0.3588816   0.02843327 -0.0102449
  0.30760288  0.16874151  0.09192386  0.23246905  0.35586584 -0.06826526
  0.17215283 -0.27193996  0.17041987  0.19691274  0.22459196  0.01358886
  0.25464264 -0.08101064 -0.30130917 -0.02174711  0.2067235   0.25076476
  0.13510776 -0.39844978 -0.18825646  0.3586385  -0.13536161  0.27707058
  0.1680309  -0.09276976  0.3592736   0.3685362 ]
[ 0.16938427  0.28046733 -0.36989802  0.03374304  0.5025471   0.05618309
  0.3657135   0.34504405  0.02738092  0.00614681 -0.1663898  -0.11739244
 -0.361799    0.35204417 -0.2943425   0.1890215  -0.24698253  0.2295557
 -0.6299918   0.16176106  0.1781516  -0.37911057  0.13986729 -0.59037334
 -0.40480915 -0.06555507 -0.15449306  0.61465293 -0.28723258 -0.47994965
 -0.01085842 -0.11961718 -0.03009438  0.06639694 -0.28443438  0.1016539
 -0.45779935 -0.01351167  0.1760742  -0.41516304]
[-0.2610347   0.06517501  0.45239463  0.08790277  0.5568965  -0.17270616
 -0.2997833   0.13151182  0.14443058 -0.64720166 -0.11971717 -0.3982258
 -0.583246   -0.33083755 -0.13215077 -0.84313005  0.62238663 -0.17976007
 -0.06876048  0.21986619 -0.03373278 -0.07452856  0.00226533 -0.25516456
 -0.0655153   0.17680918 -0.05125747 -0.14217071  0.48203486 -0.39691806
  0.2297726   0.42787033 -0.6019666   0.06256252 -0.0618754  -0.13730524
  0.27602485  0.10690226  0.09682462 -0.87957925]
[-0.18482351 -0.24116427  0.17155549  0.03715193 -0.5620428  -0.12263169
  0.77208984  0.34253943  0.3175677   0.15854095  0.06396376 -0.49766684
  0.01895002 -0.27879965 -0.21618061 -0.13417476  0.26476356 -0.01354292
 -0.01619643  0.20090413 -0.31481898  0.4864093   0.04173318  0.37502727
 -0.04774799  0.00083034  0.05778093 -0.3544439  -0.17680666 -0.3243422
  0.2882371  -0.06145691  0.05648518  0.2817559  -0.02933164  0.34192443
  0.03270782  0.29247007  0.44439128  0.09124073]
[-0.0593739  -0.05535759  0.23738216 -0.05779627 -0.06435462  0.11831284
  0.18584675  0.19158123 -0.20242636 -0.22739759 -0.32729053  0.05145471
 -0.23642609  0.38297668 -0.26906633 -0.00059916  0.0323394  -0.31773958
 -0.04255083 -0.10475578  0.03804859 -0.30030453 -0.22936831  0.39868596
 -0.5286619  -0.04787691  0.3166708   0.25143504 -0.06928729 -0.2735499
  0.21675302 -0.36684403 -0.0118946   0.05736989 -0.05112572  0.2970507
  0.0943306   0.11217961  0.09671418  0.31414077]
[-0.22664678 -0.30687827  0.36083424  0.02969813 -0.33290908  0.00232086
  0.17011091 -0.1159386  -0.44918036 -0.37488416  0.4345837   0.2896928
  0.11304537  0.16545026  0.32983747 -0.6997813  -0.640293   -0.1513582
  0.12893476  0.23618998  0.4376699   0.6604868   0.13816588  0.3899933
 -0.19999635  0.0119604  -0.41595265  0.0844643   0.1340989  -0.43336576
  0.34921846  0.14170161  0.2271987   0.13000998 -0.10586866  0.04548123
  0.03466716 -0.15692878  0.25859004  0.33641303]
[-0.5601765   0.30765486  0.12894794 -0.21364829  0.600276   -0.09586465
  0.33244458 -0.08374461  0.47209078 -0.4053024  -0.7005607   0.38457662
 -0.5681117   0.48012477  0.29827026 -0.09855815  0.13960624 -0.43644834
  0.05627884 -0.43712804 -0.34722355 -0.6545545  -0.46263525 -0.5103632
 -0.30294573  0.14049731 -0.56121963 -0.31366676  0.5001782   0.17994544
  0.29392144 -0.10817127 -0.93593735 -0.38367563  0.06993166 -0.08937597
  0.0873474  -0.17468683 -0.3432777   0.41169712]
[ 0.44497046 -0.15495823 -0.30496803  0.33758026 -0.28608218 -0.10909921
 -0.01851943  0.18505931 -0.5253709   0.289127   -0.1215682  -0.8581403
 -0.14402668 -0.06854884 -0.08611328  0.34647077 -0.23493499  0.34541768
  0.09831659  0.2162291  -0.217946    0.62906647 -0.04745892  0.55762136
 -0.40849286  0.00633309  0.43831098  0.01869125 -0.21549992 -0.35622862
  0.00538252  0.31397665 -0.42007515  0.852514   -0.21740726  0.19556616
 -0.12312555 -0.10784908 -0.08174073  0.03708817]
[-0.2757774   0.12939325  0.26642424 -0.2958593   0.5919505   0.08254977
  0.02534318 -0.15389343  0.06812333 -0.15903671 -0.15175839  0.31734604
 -0.4383718   0.03568294 -0.01275507 -0.22312106 -0.28076923 -0.02565059
 -0.06431665 -0.21484116 -0.08030444 -0.69903326 -0.0917792  -0.74861276
 -0.02979476  0.1229172  -0.05283711  0.06953359  0.14181453  0.14379801
 -0.01180374 -0.04940686 -0.10023256 -0.34344226  0.04857951 -0.02050463
  0.02357457 -0.10170576 -0.29530326 -0.16240466]
layer 3 Activation
tanh
layer 4 Dense
40 20
[-0.34620717  0.29439637  0.07942426  0.34257358 -0.22600046 -0.29433078
  0.14890166  0.03537796 -0.09299343 -0.23599133 -0.15397026 -0.01202148
  0.20193607 -0.2036824   0.33435574  0.00736967  0.13237958  0.18955727
 -0.22993247 -0.08767705]
[-0.28125727  0.18820058  0.08984633 -0.22191224 -0.32658532  0.17393307
 -0.08570948  0.40439     0.235217    0.227338    0.18319428 -0.161123
 -0.18141918 -0.04861669  0.25028807  0.2349313  -0.3809688   0.10304705
  0.25841355 -0.03464006]
[ 0.20445566  0.18442874  0.3684395  -0.28352714 -0.11584245  0.01926098
 -0.1254182   0.30020222 -0.12893575 -0.18780471 -0.15959197  0.05431066
 -0.5107249   0.50575507  0.22646853 -0.19604936 -0.03709836 -0.2157831
  0.22732215  0.17108232]
[-0.19353236  0.21899219 -0.16367203 -0.06698522 -0.26801637 -0.09171578
  0.24570866 -0.1289805  -0.18192707 -0.3523424  -0.21475421 -0.10664146
  0.11389378 -0.07530992  0.18615086  0.1255865   0.11925377 -0.14405921
 -0.21747614 -0.03937144]
[ 0.03667136 -0.19229612  0.15234913 -0.35074916  0.16468969  0.17260732
 -0.0212699  -0.19144191  0.01741489  0.10371913  0.5082282  -0.07719101
  0.06285706 -0.00465614 -0.10790744 -0.17303547 -0.3757482   0.15826796
  0.32510254 -0.05945789]
[-0.23834291 -0.16509038  0.0573801   0.10588437 -0.0223065   0.15708342
  0.00353378 -0.04354629  0.10466022  0.25302017  0.05773538  0.15494059
 -0.11158194  0.07443209  0.05517439  0.07295942 -0.1274131   0.14752348
 -0.01959823  0.06767261]
[ 0.01323074  0.20054603  0.05033841  0.20092376  0.03771239 -0.0686265
  0.20895734 -0.10010201 -0.12173182 -0.41612968  0.07343432 -0.13528967
 -0.3540951   0.5136105  -0.04180183 -0.17584358  0.27017224 -0.1774914
 -0.02068296 -0.11067912]
[-0.06525116  0.3641774  -0.25354624  0.31562674 -0.22644192 -0.37547803
 -0.47695565 -0.03494474 -0.03417671 -0.25361204 -0.08658073  0.08335651
  0.01680931  0.121975    0.14052844 -0.07690344  0.49926937 -0.47574085
  0.26236874 -0.11538535]
[ 0.19622885  0.3239681  -0.03254022  0.25235766  0.05907455  0.28536144
 -0.64195806  0.01045514 -0.06351212  0.23826122  0.02676916 -0.18900503
 -0.22768202 -0.20094468 -0.2466587  -0.0689835   0.14614236 -0.06520567
 -0.03780323 -0.1572497 ]
[-0.00910219 -0.02888483 -0.18367833  0.31015405 -0.03655996 -0.40994048
 -0.3236728   0.15688293  0.05825899 -0.01051999  0.06538504  0.0570632
  0.48831558 -0.41295788 -0.13449104  0.40440497  0.30157182  0.4194735
 -0.02601746 -0.08265714]
[-0.34016004  0.03603895  0.3128596   0.29167932  0.03728265 -0.12470939
  0.25996372  0.00230665  0.15546058 -0.1569173  -0.56810886  0.07941473
  0.20012124  0.15581559  0.08890421  0.14993757  0.23863323  0.01773367
 -0.28573892 -0.02743883]
[ 0.62644917 -0.5799946  -0.05718433 -0.5158372  -0.11107199  0.29652208
 -0.15677027  0.05501523 -0.03698058  0.12881325 -0.04193112  0.07557037
  0.05512863 -0.00160955 -0.05855841  0.14146195  0.00104925  0.635833
  0.19295059  0.1835864 ]
[ 0.02861988  0.38308284 -0.01537956  0.08016968 -0.19217418 -0.5651196
  0.1236721   0.08672395  0.00537422 -0.0788323  -0.6250727  -0.03473838
  0.25621387 -0.05018054  0.32986042  0.13502331  0.16206332 -0.07004254
 -0.41923317  0.06289909]
[ 0.33745843 -0.15626328 -0.22051413 -0.51241857 -0.11168306  0.09667123
 -0.27382374  0.12238963 -0.22929686 -0.0332794  -0.02677645  0.16995463
 -0.2784802  -0.15963292 -0.15795204 -0.43457547  0.01931345  0.02146033
 -0.25225943 -0.18787915]
[ 0.37327614 -0.10002785 -0.03214603  0.00442889 -0.00515247 -0.16205233
 -0.08092763 -0.00839402 -0.07762812  0.25126788 -0.03054647  0.19294563
  0.12860006 -0.33339313  0.05255179 -0.1707067   0.25209442  0.18431629
  0.16527258  0.15638104]
[-0.19202712 -0.06229771  0.22133331  0.326951    0.04231745  0.05766593
 -0.1777564  -0.22326022  0.07118933  0.21602286 -0.00635556 -0.10594402
  0.5759077  -0.42694554  0.16158627  0.37920937  0.05425407  0.11730158
  0.11886697 -0.10835905]
[ 0.09316579  0.4965281  -0.02681216  0.42858315 -0.05672779 -0.15737274
 -0.4161425  -0.06050551 -0.03587459 -0.3403927   0.22842419 -0.03059843
 -0.17252906  0.1508979  -0.22220312  0.40820923  0.07321952 -0.77083
  0.12373015 -0.02141787]
[-0.30065203 -0.00837325 -0.00607151  0.03537527 -0.12130538  0.19756916
  0.27770245  0.2765619  -0.20494269  0.20965031 -0.06971417 -0.08084423
  0.12059108 -0.14161386 -0.05021812 -0.20363738 -0.11766048  0.07610156
 -0.16985625 -0.20199019]
[ 0.13188526  0.20121308 -0.05075268 -0.0806371  -0.05441979 -0.38175982
  0.0375973   0.0221006  -0.14213422 -0.23517282 -0.60008204  0.13552698
 -0.04245653  0.13339604  0.2870341   0.09854103  0.15243578  0.05788821
  0.13097116 -0.10440621]
[ 0.10211085  0.43211922 -0.09916005  0.34810713  0.04101194  0.01347787
  0.33218548 -0.36566794 -0.02707726  0.01172431 -0.00198073 -0.17785186
  0.2880416  -0.33980486 -0.19445553  0.20260566  0.32351142 -0.14351362
  0.03710232 -0.07656763]
[ 0.01948798  0.15749344  0.2843854   0.15301058  0.03859421  0.06613433
  0.20823018 -0.22180086  0.00565699 -0.10581246 -0.36577553  0.08196491
 -0.06312381 -0.03142016 -0.30322555 -0.24101216  0.00511021  0.01657295
 -0.16496293 -0.11277081]
[ 0.19758774 -0.08918829  0.2824325   0.1758712   0.05801574 -0.46700925
  0.20836946  0.12397996 -0.28705618 -0.23775513 -0.5587913   0.12888034
  0.10168461 -0.4145116   0.17109767  0.07267282  0.18909852 -0.38669446
 -0.27847412  0.00941411]
[-0.33311906 -0.16344117 -0.15670136  0.06102478 -0.00181418  0.08901308
  0.1721071   0.00889688  0.27688128 -0.4051351  -0.15072785  0.19917005
 -0.05247224  0.26424292  0.1884903   0.10059037  0.03680021 -0.05372991
 -0.11165375  0.21085668]
[-0.10767841  0.05488103 -0.04651672  0.37304518 -0.21889548 -0.30685386
  0.46054426 -0.23672335  0.31442884 -0.23978932 -0.19877452 -0.2097322
  0.260276   -0.02164319  0.35529658  0.3003345   0.1233905  -0.01155584
 -0.04834565  0.05127936]
[ 0.00313688  0.16421762 -0.04859894  0.06509136  0.24341008 -0.2370266
  0.0717764   0.01871284 -0.01375274  0.09461761 -0.00968684 -0.17112699
  0.07857703 -0.0889367  -0.12363876  0.01613269  0.07959703  0.29646087
  0.01467759  0.20422511]
[ 0.12298647 -0.4278294   0.09862913  0.022343   -0.11012179 -0.06154436
 -0.1473143   0.0070471  -0.07330674 -0.14573266  0.20510559  0.05156292
  0.0396242   0.05736639  0.04561337  0.11385538 -0.01622365 -0.11348736
  0.19945629 -0.08395248]
[-0.2040907   0.1785241   0.08155449 -0.30884746  0.21485107 -0.21653534
  0.29428136 -0.2515966  -0.00528417 -0.3473583  -0.2448623   0.1727727
  0.19577672  0.28556395  0.14807363 -0.09909743  0.09505267  0.22114226
 -0.23550555 -0.28069568]
[-0.4248777   0.1735295  -0.03412409 -0.07197842 -0.03925637  0.39142004
  0.32069257 -0.17951356 -0.27393612  0.14396156  0.25253218  0.29025778
  0.17747565 -0.3067458  -0.3264809   0.06221904 -0.29952675 -0.02637242
  0.04516484 -0.00498965]
[ 0.14755318 -0.18283863  0.27173775  0.32390988  0.2033604   0.05553698
 -0.49284905 -0.12653443 -0.06544039  0.27364805  0.41576752  0.1646277
 -0.07741092  0.168226   -0.12963681  0.29059115  0.26988393  0.03776107
  0.46725914  0.14738023]
[ 0.1485325  -0.8263396  -0.19690761 -0.5200868   0.04399062  0.26835182
 -0.0092266  -0.08918568 -0.23678662 -0.14837708 -0.08274484  0.14607461
 -0.15493202  0.4603041   0.18554774 -0.2813594  -0.28277302  0.28874338
  0.2623943  -0.3113387 ]
[ 0.61405057 -0.47166902  0.2739692  -0.1474871  -0.02704591 -0.17103478
 -0.13758829 -0.24663192 -0.2626124   0.10922725 -0.187899    0.09258861
 -0.24384436  0.28801334  0.16736966  0.3394031   0.28342885 -0.09357806
 -0.1641342  -0.01143506]
[-0.1678154  -0.29913074  0.07713817 -0.2682331   0.13494864  0.41096586
  0.34613705  0.08408766 -0.1010489  -0.04996504 -0.3015707   0.18478498
  0.24484389  0.34461594  0.08596177  0.15287559 -0.13644528 -0.1382965
 -0.215962    0.02945404]
[-0.17894961  0.4898939  -0.02006667  0.47316456  0.07240409 -0.06286524
  0.21424957 -0.11991136 -0.07403819 -0.46566233 -0.2951381  -0.19741064
  0.07042517 -0.02672323 -0.04316844 -0.04144993  0.22000794  0.26125577
  0.01162561 -0.14244474]
[ 0.2269715   0.10582536  0.03952136  0.26259613  0.12908128 -0.01228256
  0.39514628 -0.2163208   0.03318525  0.12836903 -0.16256042 -0.22597253
  0.2994077  -0.3086402   0.21390183  0.33386394 -0.05324478 -0.33486065
 -0.29004595  0.18143581]
[-0.02727702 -0.10493708  0.11473609 -0.10428915  0.30690044  0.20694812
 -0.05190194 -0.1052764  -0.11062997 -0.09180473  0.08811197  0.02920334
  0.3402747   0.34854543  0.30773804 -0.03074151  0.10704148 -0.02543151
  0.1478777   0.24501477]
[-0.20567848 -0.05239662 -0.18678424  0.0809646  -0.08774085 -0.14755693
 -0.1219971  -0.12061467  0.2246659  -0.02707007 -0.3829739  -0.18286446
 -0.3157245  -0.0250325  -0.06361046 -0.02191801  0.33551228  0.05335348
  0.11229242  0.136899  ]
[ 0.00513131  0.09595793  0.06969329 -0.41782558  0.14390664 -0.21732424
 -0.09746829  0.24695592 -0.00211572 -0.1289608  -0.17062032 -0.20440304
 -0.088153   -0.22925268  0.31218466  0.22152987  0.30063632  0.3130739
  0.3149995  -0.09643162]
[ 0.03874987  0.34050792  0.06497261  0.1889155  -0.04577744 -0.4444834
  0.05532634 -0.18887083  0.03292047 -0.17803043 -0.06788277 -0.27722418
  0.2670826   0.09115989 -0.11811014 -0.00488755 -0.08968996  0.1347373
 -0.26378685 -0.29120797]
[ 0.07080887  0.45922163 -0.30915    -0.00248018 -0.10099166 -0.11041083
  0.12496391  0.03045378 -0.3790272   0.06041642 -0.45304754  0.23728897
 -0.19202682 -0.25444466  0.19171742  0.3148194   0.22515653 -0.22140281
 -0.2533437  -0.06499257]
[ 3.1683177e-01 -6.1535060e-01  2.3161747e-01 -1.7485084e-01
  1.1143681e-01 -4.0629065e-01 -1.2733951e-01 -2.6375329e-01
 -3.7303299e-02 -2.4932718e-01 -4.6075767e-01 -4.0100452e-02
 -4.0624726e-01 -1.2531726e-01 -4.9245715e-02 -2.1747045e-02
  3.6016706e-01  5.7393208e-04 -7.6729558e-02 -1.0029137e-02]
[-0.10315685 -0.03353051  0.01593651 -0.03002591 -0.09866778  0.38508818
 -0.1786344   0.08596069  0.01143007  0.02230047  0.06217605  0.06790786
  0.03597921  0.03389441 -0.13667327 -0.03394644 -0.27975205  0.03945187
  0.16627595  0.0175741 ]
layer 5 Activation
tanh
layer 6 Dense
20 1
[-0.15748675]
[0.04709619]
[-0.02840886]
[0.3675582]
[-0.01430075]
[0.3272809]
[-0.19412588]
[0.01482758]
[0.00781584]
[-0.0152402]
[-0.1560472]
[-0.03626158]
[0.17071712]
[-0.13480367]
[-0.12197097]
[0.01886231]
[-0.28842697]
[-0.33078372]
[0.19632486]
[-0.02452079]
[0.14877641]
