layers 7
layer 0 Dense
20 20
[-0.28046927 -0.10286679 -0.24627191 -0.07228305 -0.04473332  0.16137128
 -0.08466101  0.49030912 -0.26335165  0.3222552  -0.2925277   0.08610606
  0.2889817   0.01387055  0.3306528  -0.37156075 -0.22336182  0.24698721
  0.38153285  0.30940765]
[-0.944217    0.1473074   0.28242725 -0.265639    0.06237528  0.00888918
 -0.37851116 -0.05351866  0.09416437  0.68175745 -0.34834588  0.21136071
 -0.04827902 -0.53611183  0.09142041 -0.15486935  0.3294979  -0.14589953
  0.29004088  0.68816835]
[-0.25596958 -0.37814003  0.38460246 -0.31416574 -0.28432906  0.1313685
  0.00410781  0.04209197 -0.4959208   0.11086899 -0.17642663  0.3109241
 -0.20630394 -0.5074563   0.18448003 -0.78388715  0.20480451 -0.6620307
  0.5106075   0.19194394]
[-0.67817265 -0.273185   -0.55350333 -0.08579831  0.03644943 -0.31928182
 -0.6764196   0.25291824 -0.6465325   0.45815447  0.08774537  0.12162791
  0.32397577 -0.02993543  0.07625198 -0.08419562  0.3145453  -0.21574064
  0.18839853 -0.2803467 ]
[-0.22283536 -0.2346994  -0.22242315 -0.27351937  0.05906473  0.18117198
  0.18595044 -0.09465368 -0.33841074 -0.21886984  0.39434484  0.486008
 -0.1759946  -0.0518929   0.17490298 -0.01840657  0.07376187  0.39692533
  0.5256722   0.05244336]
[ 0.81301594  0.11928304  0.01580463  0.36053243  0.00253725 -0.59674037
 -0.2581404   0.19780031  0.36054876  0.09222136  0.3291918   0.08564038
  0.52363694  0.47944692 -0.0074852   0.7224424  -0.08619477  0.400575
 -0.12696108 -0.13186772]
[ 0.16498522  0.28892767 -0.26617438  0.07223226  0.64601994 -0.61363673
  0.00408773  0.62073475 -0.05240267 -0.11519685  0.57977545  0.25011966
  0.4881041   0.4173167   0.313455    0.20236883 -0.44719872  0.4838583
 -0.2416812  -0.43996453]
[ 0.56848264  0.21293806  0.3973712   0.02220776 -0.11754356  0.12019395
  0.2506026   0.10502884  0.5194673  -0.1453998  -0.1775259   0.09224715
  0.38341027 -0.35537735 -0.58701855 -0.09055267 -0.06799842  0.4504935
 -0.30754042 -0.08830758]
[ 0.24835733 -0.07215621 -0.76162493  0.3921257   0.32947722 -0.00377328
  0.1231439  -0.6442017  -0.3842992  -0.84667945  0.3742844  -0.22712104
  0.41013566  0.24287814 -0.08486692  0.05116591 -0.21311128 -0.23463556
  0.5783565  -0.10025495]
[ 0.16313733  0.14746796  0.69864035 -0.6124385   0.37475762 -0.10975047
  0.14667456  0.12601376 -0.16548501 -0.59491765  0.20981309 -0.04256887
 -0.6449785   0.26086974 -0.00186088  0.4857134   0.15669043  0.0982381
 -0.03862414  0.00405534]
[-0.02165496  0.43931    -0.07845014 -0.39531094 -0.19471851 -0.01240652
  0.25934803  0.06053187  0.27822363 -0.52345675 -0.15923809 -0.16821253
  0.14440516 -0.26417068  0.40017524  0.28686514  0.2860809   0.03527183
 -0.09817114 -0.44047174]
[-0.4566873  -0.46046475  0.8190568  -0.19783875 -0.48119065 -0.52787685
  0.17245965  0.38858175  0.6086474   0.35470772  0.06253199 -0.30532327
 -1.551576   -0.7186298   0.8245014  -0.42627293  0.23828322 -0.5680126
  0.46712148 -0.06488634]
[-0.5467429  -0.2191035   0.64951456 -0.03920147  0.02607249 -0.6993145
  0.07015394  0.39796525  0.25368544 -0.26710433 -0.4357918   0.18874185
  0.02584588 -0.8937646   0.26723498  0.04257454 -0.2760715  -0.12299597
 -0.0408546   0.6007892 ]
[-0.19551486  0.00684395 -0.781752    0.14180419 -0.9460288   0.5932161
  0.11787356  0.3189634   0.2245572   0.28079695 -0.33431765 -0.17559902
  0.60758334  0.05241013 -0.27587456 -0.26793018  0.39624888 -0.65351844
  0.2778333   0.6665073 ]
[ 0.06443568 -0.74132377 -0.68149     1.0602527   0.45193142  0.25019547
  0.23824213  0.3499268   0.16552605  0.27188784  0.68792176  0.74920565
 -0.16855939  0.60118705  0.77722305 -0.8620906  -1.2188551   0.8692692
  0.71480036  0.7401288 ]
[-0.00870567  0.10029756 -0.4951739   0.56983805  2.1020272   0.23084047
  0.44192502 -0.14568381  0.31996423 -0.44690776  0.09080134 -0.12767677
  1.9005567   0.30868512 -0.61872035  1.4480736   0.34360075  0.48971516
 -0.626943   -0.7892072 ]
[-0.32741377 -0.21757112  0.21703787 -0.10114776 -0.1570049  -0.1449579
 -0.1413128  -0.5737006   0.08662109 -0.05143745  0.40309614  0.18190871
 -0.29156128  0.32173866 -0.19876859  0.2837385  -0.23063734 -0.0973722
 -0.0957597  -0.22589694]
[-0.2421528  -0.13475852  0.42139646 -0.06143245  0.3877561   0.03829907
  0.11526494 -0.7856371   0.2911757   0.18888995 -0.15785559  0.6453399
 -0.72129303 -0.5530333  -0.14544888 -0.4778559  -0.33807302  0.11417722
  0.01727916 -1.1238567 ]
[-0.05043231  0.3471946   0.06211193  0.2116391  -0.5465106  -0.51523846
  0.26682442 -0.41783744  0.16215253  0.30615416  0.4679937  -0.46091875
  0.26309046 -0.29134688 -1.3130921   0.12194173  0.5075965   0.02455631
  0.05347534  0.05720059]
[ 0.2790894   0.1847197   0.18460013  0.09523106 -0.33824542  0.15067874
  0.51218617  0.7512254   0.34251535 -0.33484372 -0.1335176   0.39213642
 -0.4470198  -0.35591343 -0.3009554  -0.6389227   0.2514781   0.06560677
  0.22530846  0.09524174]
[-0.31150842 -0.07366818 -0.1408904  -0.13203558 -0.01501575 -0.14719433
 -0.44753462  0.18766382 -0.33785108  0.4138999  -0.06775     0.00603373
  0.06726198  0.0980289   0.24321239 -0.06409413  0.1561447  -0.17320418
  0.01782393  0.1071743 ]
layer 1 Activation
tanh
layer 2 Dense
20 40
[-5.1719587e-02  5.1603121e-01  1.4402688e-01  2.0015027e-01
  2.1682730e-01  3.8482440e-01 -1.1386769e-03  6.8520904e-02
 -1.7378487e-01 -1.3421243e-01 -3.8560340e-01 -8.9751929e-02
  8.4040679e-02 -1.5299225e-01  2.4961813e-01 -6.7599222e-02
 -2.9196540e-01  2.6271343e-01  2.0734819e-02 -5.0076348e-01
 -2.0274644e-01  2.6016760e-01  7.2015315e-02  3.3544425e-02
  1.7951991e-01  2.0238866e-01  2.3110487e-02  1.9309099e-01
 -4.3322352e-01 -6.0621113e-01 -3.7149612e-02  7.1574512e-05
 -5.9272178e-02  4.7472622e-02 -5.4277748e-01 -3.3111747e-02
 -3.0332905e-01 -9.8143660e-02  3.3226714e-01 -7.1231417e-02]
[-0.13356276  0.22044888 -0.18822014  0.07972755 -0.09091338 -0.07383056
  0.23308694  0.21890247 -0.14174531  0.2199539  -0.33213198  0.13664451
 -0.14121649 -0.03255154 -0.38167936  0.18995363 -0.23791486  0.16528901
  0.20488247  0.13544746  0.28579473 -0.10521987  0.21964045 -0.09101225
 -0.09941392 -0.33340973  0.07404611  0.11036522 -0.22249343  0.5709479
  0.36646     0.43018207 -0.02283146  0.15347424 -0.1104705  -0.11335887
 -0.19142427 -0.04291957 -0.16946569 -0.29787403]
[-6.56914473e-01 -2.04309598e-01 -1.34112462e-01 -2.20256776e-01
  5.75825498e-02  1.20127112e-01  1.28065959e-01 -2.59287447e-01
  2.56245703e-01  8.62641707e-02 -3.63946199e-01 -3.69129479e-02
  1.13405414e-01  1.54918864e-01 -1.48099273e-01  1.15362071e-01
 -9.15955901e-02  3.30545813e-01 -1.05723329e-01 -1.75196528e-01
 -2.44091868e-01 -6.06054254e-02 -3.55553687e-01  1.85204998e-01
  1.26955163e+00  4.97657061e-02  1.56316027e-01  1.70017928e-02
 -1.16893975e-03 -1.59939766e-01 -2.64966451e-02 -1.39967185e-02
  2.11140469e-01 -2.92531818e-01  1.14697151e-01 -4.56625938e-01
  2.46655777e-01  2.73740590e-01 -1.32969975e-01 -7.97912478e-02]
[ 0.24438561  0.3738576  -0.00223231 -0.01159021  0.3058033   0.00140077
 -0.24063759  0.23880596 -0.2565108   0.09080159  0.37844998 -0.4944708
  0.0690413   0.02231377 -0.06058649  0.08803364 -0.3294053   0.10014377
  0.1388152  -0.20314299 -0.3601094   0.44268483 -0.00121755 -0.01391381
  0.00355755  0.38824126 -0.24714476 -0.19476776  0.16081351 -0.27299553
 -0.09268703 -0.2512576   0.11963078  0.06365988  0.27928227  0.39241904
 -0.09102856 -0.23199996 -0.1327917   0.2624296 ]
[ 0.07243887  0.48744264  0.41954046  0.37432802 -0.23393755 -0.27162048
  0.3572187   0.2108927   0.65958244 -0.13582212  0.7233228   0.05163131
 -0.44752267  0.23802514  1.0683284  -0.29524904 -0.0355375   0.2721152
 -0.63323754 -0.31327575 -0.37853232  0.39014706 -0.51595247  0.06971684
  0.5025505   0.14200062 -0.05134685  0.46917957 -0.36702538 -0.00734661
  0.4838356   0.55161196 -0.06252274 -0.76959854  0.04068325  0.82378185
 -0.15695018 -0.268642   -0.35059115 -0.29045746]
[ 0.37718767 -0.04419503  0.37127614  0.32990348  0.11003543  0.07351959
 -0.22814514  0.18657678 -0.25488913  0.31186557  0.4915255  -0.15371375
 -0.18796857 -0.13498624 -0.343103    0.44696945  0.08598039  0.0496636
  0.08091582  0.20127293 -0.01337974 -0.03105964  0.28550243 -0.04218268
 -0.375327    0.2977566   0.08247624 -0.1320229  -0.31936523  0.30118644
 -0.17302585 -0.0528791   0.2254785   0.20942825 -0.17866457  0.15358363
  0.08245411  0.36080927 -0.154057   -0.00586047]
[ 1.9144444e-02  3.1005415e-01 -1.4940768e-01  2.8854167e-01
  4.2915609e-01 -3.8087908e-02 -3.4218556e-01  1.7047097e-01
  2.0199145e-01 -4.7834873e-02 -1.1644187e-01 -4.2192534e-01
  2.3525201e-01  1.6830795e-01  6.3470297e-02 -4.5192620e-01
  9.8104775e-02  4.8220503e-01  2.4532078e-01 -6.1771625e-01
 -2.2406448e-01  6.9508624e-01  3.7743233e-02  1.0425705e-01
  4.8830235e-01 -9.3529396e-02 -1.4865902e-01 -1.4944522e-01
 -2.7015111e-01 -6.0459220e-01 -1.8136972e-01  2.6101333e-01
 -3.8645731e-04  1.2083003e-01 -4.9694100e-01 -1.2061747e-02
 -2.3934744e-01  1.0820240e-01  2.2252399e-01 -1.5699057e-01]
[-0.42067358 -0.18241385 -0.45275962 -0.321458    0.1039817   0.1671883
 -0.32296842 -0.6867223   0.26008385 -0.25140065  0.06802287 -0.32345918
  0.15828578  0.1753019  -0.29723462 -0.05596528  0.08481477 -0.2097673
  0.08138485  0.19575937  0.00270571 -0.20314825 -0.2355957  -0.05363533
  0.43996277 -0.3670821  -0.05522592 -0.15903999 -0.18728146 -0.3694825
 -0.33161184 -0.07745661 -0.30341613 -0.30237553  0.1984693  -0.29568118
 -0.2576175   0.36350188 -0.19016594  0.14453284]
[ 0.08418409  0.13054365 -0.18683812  0.29426235  0.33502454 -0.06237658
 -0.1555399   0.43279415 -0.11801693 -0.1252475  -0.10726377 -0.46438122
  0.07628939 -0.25347105  0.17652212 -0.01238738 -0.17000309  0.28662333
 -0.04751411 -0.28489792 -0.56903756  0.13575593  0.28454304 -0.07733989
  0.49579662  0.09211586  0.05811326 -0.3036476  -0.2091276  -0.4253047
 -0.10242146  0.03226601  0.09223924  0.03325316 -0.5241305  -0.10594504
  0.01226653 -0.3594522  -0.03280712 -0.0038839 ]
[ 0.08395865 -0.2970572   0.12984046 -0.4306924  -0.13009343  0.00185748
  0.12064307 -0.7255049   0.5663823   0.10024728  0.01324679  0.19189665
 -0.1177901  -0.15645349 -0.38744736 -0.26402518  0.1332822  -0.30008265
 -0.20828219  0.3106394   0.17235643 -0.42939594 -0.28320733 -0.2142539
  0.01217395  0.09536416  0.05351029  0.00869302  0.67081463  0.16505615
 -0.17689838 -0.44601429  0.11953402 -0.25711232  0.37115392 -0.15949684
  0.24149947  0.40107334 -0.03296716 -0.38077492]
[-0.16423483  0.24768114  0.10585562  0.19392267 -0.22316457 -0.11095831
  0.17673494  0.5271125  -0.19337623 -0.15513921  0.30923623  0.3001883
 -0.22770305  0.17334765  0.37285742  0.2339641   0.02973102  0.22498176
  0.22850193  0.402097   -0.15388024 -0.28838047  0.15021989 -0.02565004
 -0.13740772  0.06219297  0.21965142  0.08104075 -0.38856927  0.20216602
 -0.0094876  -0.19831768  0.13071664 -0.20704576  0.12354405  0.45626462
 -0.13597007  0.10553904  0.014228    0.16896026]
[-0.06743129 -0.04287048  0.22703111  0.3962733   0.21735795 -0.18641037
  0.10141389  0.2968986   0.09562716  0.36495748  0.29556307 -0.09837886
 -0.14551309  0.18382251 -0.09078736 -0.00353126  0.07078274  0.01245994
 -0.08722901  0.30126226  0.2419634  -0.29850468 -0.21475412 -0.1916548
  0.17829585  0.44851616  0.14735228  0.09711576 -0.2532482   0.37935632
 -0.5313668   0.24585102  0.09424392  0.01629846 -0.16180475  0.23360007
  0.06495328  0.04139276  0.42793888 -0.18040752]
[ 0.93623877  0.55297387 -0.05104339  0.6322491   0.18634036  0.05829119
 -0.2596385   0.39245567 -0.4676402   0.17488928  0.62846947  0.01304558
  0.25168085 -0.35498208 -0.28187838 -0.3206704   0.04462661  0.27095145
  0.14512095  0.11727639 -0.2371931   0.26954368  0.02316172  0.42355454
 -0.8940082  -0.6977469  -0.35649708  0.13533695 -0.4173527   0.12558587
  0.9024557   0.07375066  0.26588443  0.42039385 -0.2895196   0.03204343
 -0.2937683  -0.5556655  -0.43666616  0.30409086]
[ 0.15367514  0.06857375  0.7023688   0.14051543 -0.03819789  0.14976463
 -0.23567986 -0.23565535  0.10987142 -0.00199955  0.4724642   0.2538449
 -0.4923407   0.10566659  0.39585024  0.00812086  0.2131496   0.03872068
 -0.29956338  0.27225715  0.42283124 -0.3467207  -0.03614033  0.2841453
 -0.17832331  0.02793079  0.09417946  0.34176964 -0.2506842   0.10152126
 -0.44922882  0.36986357  0.06991071  0.08636003  0.28834534  0.75389576
  0.04096308 -0.14576423  0.17376387  0.2856044 ]
[-0.2370727  -0.56451494 -0.18877602 -0.27502745 -0.21770616 -0.16231517
  0.667018   -0.19994597  0.3556931   0.41485935  0.09877265 -0.27809817
 -0.13257262  0.04859306 -0.19040918  0.01536076 -0.13850206 -0.29555854
 -0.18215719  0.12629166  0.4204341  -0.7588753  -0.2269061  -0.3563257
  0.2672934   0.29223967  0.15664724  0.05968454 -0.38211754 -0.02425823
 -0.6122647   0.13757965 -0.27426276 -0.0465448   0.10794185 -0.13259299
  0.47639942  0.08572693  0.41977668 -0.14548333]
[-0.30592543  0.14232111 -0.63730234 -0.02747836 -0.1480259   0.28735924
 -0.0813508  -0.01909314  0.25671834  0.13835932 -0.23617934  0.2101478
 -0.31881037  0.11537537 -0.31638578 -0.2875109   0.2159586   0.08396938
 -0.23337789  0.24608055  0.08787946  0.12292451 -0.11882044  0.10163555
  0.31730884 -0.38777408 -0.13543984  0.85912913 -0.33753818 -0.37625223
  0.52632076  0.05815448 -0.2065654  -0.29618165  0.22446023 -0.26207936
 -0.12877247 -0.29308894  0.15293792 -0.35465717]
[ 0.13384157 -0.1079843  -0.13915072  0.07180079  0.08759519 -0.02755147
 -0.14250164 -0.26804173 -0.01472276  0.11461003 -0.3768424   0.41601425
  0.08068042 -0.09936108 -0.47380394 -0.1183891   0.15075515 -0.03346188
  0.23854281 -0.06075482  0.45367336 -0.5699172  -0.0443998   0.35314783
 -0.358652   -0.30521294  0.00426258  0.41203535 -0.5459603   0.4364629
  0.6346853   0.07654738 -0.28323013  0.32454768 -0.00427973 -0.36555624
 -0.25615403  0.00557423 -0.293038   -0.15933287]
[-0.25191957  0.3050555  -0.00592381  0.14560665  0.39693686 -0.03671364
  0.15559836 -0.24696028  0.09537377 -0.15420163  0.02710995  0.21278518
 -0.00184654  0.13369982  0.5357308  -0.14045689 -0.4267951   0.512702
 -0.07368498 -0.3209334  -0.20283063  0.37208936  0.12156109  0.2968062
  0.5237816   0.52641535 -0.1955426   0.27768368  0.16610757 -0.26169032
  0.05846275  0.16850145  0.16337188 -0.17562762 -0.2832003   0.30804145
 -0.08197557  0.04662625  0.08483969 -0.04164396]
[ 0.1636928  -0.04197733  0.10227712  0.1106092  -0.03530454 -0.0523826
 -0.5137772   0.00447516 -0.09842526 -0.41044393  0.03834728 -0.12569803
  0.02692425  0.12672867  0.33526218  0.04476846 -0.31920707  0.3632265
  0.00329403 -0.00257497 -0.13842073  0.09284449 -0.02273802 -0.23105606
 -0.23493849  0.25137755 -0.05654416 -0.37211862  0.3192665  -0.00111749
 -0.26526096 -0.17456497 -0.04063068  0.08454805  0.299696   -0.1604365
 -0.2405188   0.18664004 -0.21821131  0.02547649]
[ 1.22487791e-01 -2.13211209e-01  4.50396575e-02 -1.93707839e-01
  8.35894942e-02  6.61528409e-02 -6.29039586e-01 -6.57354176e-01
  3.75521839e-01 -2.17523426e-02  1.55008838e-01 -1.82627007e-01
  1.56355545e-01  5.01310468e-01  1.66008189e-01  3.56059134e-01
 -1.03460625e-01  3.37254241e-05 -9.88618359e-02 -1.72479600e-01
  3.26255113e-01 -2.80100405e-01  2.53492799e-02 -4.18488592e-01
 -6.65730387e-02 -1.63528204e-01  1.16711289e-01 -3.58552247e-01
  3.10238898e-01 -3.57847869e-01 -3.26514125e-01 -3.95656914e-01
 -6.27546236e-02 -2.71067917e-01 -3.73670161e-01  6.45955503e-02
  1.53784491e-02  4.74770278e-01  3.08953702e-01 -2.26356298e-01]
[ 1.36548318e-02 -4.18723941e-01  5.36016859e-02 -1.35090724e-01
 -2.99085051e-01  1.23630017e-01  1.35916561e-01 -2.86946684e-01
 -8.98598284e-02  2.79711097e-01 -3.64309512e-02  1.26477987e-01
 -1.10174604e-01  8.90601203e-02 -1.44869685e-01  1.08133644e-01
  4.36261110e-02 -1.58856243e-01  5.98817952e-02  3.04418564e-01
  4.06365275e-01 -5.29660702e-01 -1.57708675e-01  3.87845039e-02
 -4.52427119e-01 -4.43116836e-02  1.27554476e-01  9.48900580e-02
  1.25305623e-01  3.49073082e-01 -3.53594124e-02 -2.34998599e-01
 -2.83769052e-02  1.90040886e-01  4.00078803e-01 -4.35559923e-04
  5.29154986e-02  1.42444685e-01 -3.90302204e-02 -4.76243487e-03]
layer 3 Activation
tanh
layer 4 Dense
40 20
[-0.32822788  0.2808904  -0.01150052  0.00824214  0.25550473  0.29984713
  0.24070266 -0.1624724   0.14886759 -0.46776447  0.08125026  0.57122934
 -0.3344522  -0.24497592  0.0794544   0.28580028  0.04818074 -0.02285009
 -0.0934089  -0.27863923]
[ 0.07067847  0.06770621  0.40537596  0.14588544 -0.1188502  -0.01543262
 -0.19919705  0.16338249  0.0064118  -0.2764515   0.4257184   0.1395067
 -0.5670344  -0.07769271 -0.39318416  0.48355547  0.0565692   0.37369406
 -0.21735354 -0.29227585]
[ 0.29920173  0.05945082  0.08781024  0.2585782   0.35012096  0.27365488
  0.24184029 -0.30593887 -0.01849988 -0.01911899  0.12627812  0.02669439
  0.08674099 -0.07557768 -0.18315525  0.27370083  0.27455917 -0.10835493
 -0.19441997  0.2621392 ]
[ 0.19121206 -0.04425577 -0.2585769  -0.09368267  0.23470911 -0.12464124
 -0.14401475  0.09453206  0.39581564 -0.02834846  0.2221715  -0.10196122
 -0.45470774  0.15820415 -0.2672522   0.08496148  0.30028147 -0.27420998
 -0.20446342 -0.02627108]
[ 0.25162262 -0.13696578 -0.17040887  0.05293667  0.01319204  0.01167514
 -0.40992934  0.2057303  -0.01066137  0.396659   -0.11370051 -0.15132602
 -0.02149874 -0.0126182  -0.17065848  0.22859402 -0.21117814  0.0623378
  0.00734993  0.1305145 ]
[-0.06636864  0.06617895 -0.20310906  0.00984749 -0.16974087  0.06683695
  0.15594774  0.28744876  0.17003202 -0.32349673  0.25748718  0.05358563
 -0.00815987 -0.10555618 -0.34604746 -0.1332757   0.0504934   0.09815855
  0.2060656  -0.19802971]
[ 0.01591928  0.2196447   0.06348727 -0.16207692 -0.12168317 -0.29308987
  0.50914824 -0.49815822 -0.11615938  0.36411005 -0.1721664   0.25834578
 -0.2739222  -0.19782798 -0.08225134 -0.1111524   0.03117035  0.1992896
 -0.2568185  -0.10065604]
[-0.04087935 -0.14836994 -0.12104653 -0.28899023 -0.02027626 -0.20964746
 -0.04449242 -0.1617324   0.09254084  0.15827392  0.00912893  0.1620157
 -0.22907695 -0.18995509 -0.1411      0.29687843  0.31121704  0.02356473
  0.12054051  0.22829251]
[ 0.11957154  0.30218503 -0.12002985  0.01232449 -0.17685655  0.01091985
 -0.13251382 -0.6064424  -0.30639142  0.11037932  0.1540749  -0.38896668
  0.26039377 -0.16658486 -0.0327511  -0.22541802  0.04304108  0.2342208
  0.03636775 -0.3509417 ]
[ 0.07919226  0.13177577 -0.14693014 -0.07585941 -0.10770974  0.04568985
  0.11169596  0.0900775   0.20110627  0.15102634  0.03021696  0.12034002
  0.050035    0.20800725  0.13325882 -0.09010829 -0.08190046 -0.20770034
  0.06543414  0.16673002]
[ 0.37773612  0.08885089  0.27339926 -0.07419248  0.36017588 -0.24491625
  0.19783327 -0.56443197 -0.15685122  0.08068388  0.2556994   0.33073837
 -0.38084868 -0.12852041 -0.28514344  0.18313648 -0.16110587  0.2771259
  0.08722163  0.1319433 ]
[-0.2121079  -0.19244234  0.02378565  0.27046883  0.22031802  0.1510841
  0.35253915 -0.23698005  0.02117965 -0.2053307   0.18695104  0.28904325
  0.20589522  0.00908851  0.15313175  0.19974563  0.03493164  0.07311355
  0.03241519 -0.04948153]
[-0.07615397  0.02943438 -0.02865292 -0.08507481 -0.34585893  0.31051224
 -0.33781067  0.4043728   0.38577956 -0.0592823  -0.27459946 -0.21050309
  0.11592049 -0.24931055 -0.16526087  0.26530975 -0.10692933 -0.12500085
  0.11972748 -0.130012  ]
[-0.10410615 -0.12789448 -0.24356574  0.14194459  0.11778396  0.14848283
 -0.19522543 -0.2480449  -0.106868    0.36139914  0.09077754 -0.30570152
  0.13965452  0.06232985  0.12777504 -0.00588928  0.17945965 -0.14671424
 -0.11396257 -0.11051185]
[ 0.16413811  0.37657416 -0.0617944   0.14330253  0.06104579  0.08952747
 -0.074817   -0.7686523  -0.06614733  0.71680003  0.1476142  -0.44181427
 -0.12918378  0.30180162  0.02024192  0.35623524 -0.2988819   0.05848192
 -0.2963807   0.1579999 ]
[-0.1440525  -0.02496274 -0.11054471 -0.18047456  0.31573638  0.1130328
 -0.02511682  0.433079   -0.05125531 -0.3172729  -0.22742772  0.08201915
 -0.14905469  0.28310645  0.042595   -0.02319671  0.32047936  0.07112075
  0.05320271  0.06650665]
[-0.09077699  0.14898668 -0.15971042  0.03730915  0.12257109 -0.16726692
  0.263608   -0.05761525 -0.29001093 -0.08076469 -0.00186404  0.04548227
  0.11996622 -0.22093497 -0.01079419 -0.04759838  0.05858633 -0.18386444
  0.21908237 -0.2117774 ]
[-0.07599139  0.2383529   0.03334707 -0.48369274 -0.15082169  0.05860593
 -0.09143261  0.15092951 -0.14652875 -0.02971782  0.16424473 -0.27819803
 -0.23901251  0.11797969 -0.19742729  0.17921756 -0.03809912  0.3485216
  0.08795989 -0.15667783]
[-0.0927356  -0.15943941 -0.0671868   0.14807609 -0.13429107  0.18681827
 -0.04719073  0.34950584  0.05938999 -0.46063066 -0.13623102  0.18171345
 -0.03936992  0.16634549 -0.20024997  0.0855231   0.12362035  0.01677945
  0.23922068 -0.09405679]
[-0.21790317 -0.05818733  0.21355158  0.20151716  0.04157706  0.14384657
  0.15590344 -0.17789862 -0.09444924 -0.01447802 -0.12528813  0.2183397
 -0.02141806  0.06012091  0.17948356 -0.30857283  0.08886956  0.24679144
 -0.14694993  0.16212346]
[-0.3298076   0.11676982 -0.27543113  0.17583583  0.18330659  0.10639063
  0.22601171  0.08943664 -0.27843866 -0.08728745 -0.09830533 -0.1053061
  0.13775088  0.23123035  0.4089228  -0.28717163 -0.38085765  0.06050082
 -0.1514743  -0.15113264]
[ 0.29085416  0.25691375 -0.03761518 -0.20570874 -0.28477263  0.01682499
 -0.39431882  0.20392047  0.5554606   0.23826072  0.3118614  -0.05868308
 -0.2500361   0.01748468 -0.5972255   0.5005819  -0.24642853 -0.15943389
  0.13922375 -0.12197749]
[-0.17497826 -0.1142991   0.26002154 -0.50248235  0.03747794  0.42389107
 -0.00840062  0.19721273  0.18237479 -0.13290624 -0.13795017  0.19621985
 -0.24811068  0.08756912 -0.23866257  0.19179718 -0.14073247  0.02109515
  0.1682484  -0.07672403]
[-0.23572825 -0.05687689  0.16274926  0.00709574 -0.19917604 -0.2984559
  0.09068571  0.14451748  0.08942104 -0.02585347  0.16686267  0.19306573
 -0.23315167 -0.29207516  0.17322351 -0.06421951 -0.20480277  0.17790608
  0.13964108  0.20090374]
[ 0.06219727  0.01211356 -0.32468888  0.06832839 -0.57750994 -0.01253056
 -0.3172914  -0.10668594 -0.05404857 -0.1000236   0.01042877 -0.62702745
  0.18340153 -0.01739724 -0.13237593  0.09340493  0.01502127  0.18456638
  0.03323179 -0.08571158]
[ 0.6771572  -0.2316733  -0.29169315  0.0979854   0.19288225  0.26061323
 -0.17020251 -0.19591954 -0.45927903  0.42807332 -0.32108697 -0.19345437
 -0.15319419  0.1665477   0.11916112 -0.18386628 -0.13085315  0.1670934
  0.10307217  0.39310953]
[ 0.22000697  0.16188     0.09682216  0.0843759   0.08986616 -0.0558503
 -0.04508123  0.15108272 -0.403948   -0.00168793 -0.09727353 -0.11357148
  0.07223841 -0.07444488 -0.06455426 -0.04521659  0.19787216  0.19721627
 -0.06784462  0.19794832]
[ 0.101406    0.21715789 -0.14284356  0.2943527  -0.04879448 -0.30548012
  0.27685782 -0.30493322  0.1366453  -0.05440028  0.310163    0.17659292
 -0.00763251 -0.2530512  -0.0552781  -0.00202248  0.22808668 -0.04106731
  0.13321732  0.01737529]
[ 0.12997729  0.02401384  0.14139712  0.31311667  0.3342073  -0.1931644
 -0.04390999  0.00947856  0.30121726  0.18040584 -0.30202693  0.13279226
  0.06595086  0.08029271 -0.19694167 -0.19435892  0.12266968  0.34008622
 -0.316838   -0.01412257]
[ 0.01476117  0.20077853  0.28804943  0.37679255  0.23300242  0.03719373
  0.32771647  0.03878375 -0.24139151 -0.29903078 -0.15480237 -0.1226227
  0.05673759 -0.08259377  0.33151215  0.00390309 -0.0981174  -0.16711374
  0.21340993  0.02408315]
[-0.16669309  0.10031515 -0.13288085 -0.04685566 -0.14452341 -0.21707296
  0.17285384  0.0078585   0.20999749 -0.17794889  0.45671374  0.26265648
 -0.20880613 -0.40296954  0.16301912  0.5681221  -0.24171832 -0.05726129
  0.09566773 -0.06912697]
[ 0.6026674   0.08378592  0.02334648  0.02564805 -0.20738022 -0.11883098
  0.1305948  -0.19654919 -0.00182612  0.15807442 -0.10451865 -0.19758253
 -0.18176092 -0.05059723 -0.15621334  0.12131969 -0.14200154 -0.11075437
 -0.1270353   0.22836983]
[ 0.7135325   0.02375783  0.14342947  0.19964372 -0.05263198  0.08320549
  0.05875474  0.0958581  -0.07281224  0.26412374 -0.10012461 -0.05255185
 -0.0401527  -0.12301468 -0.17092822  0.12614466 -0.14910382  0.00854794
 -0.03960962  0.0261771 ]
[-6.3822877e-01  8.4049918e-02 -1.2412633e-01 -2.1082169e-01
  1.3021123e-01  1.6567089e-01  3.2771519e-01  3.7257633e-01
  2.6563185e-01 -5.8822143e-01  1.4647784e-02  3.4124139e-01
 -9.8375097e-02  1.6868125e-01 -2.7575400e-01 -4.3027452e-05
 -1.8073419e-01  3.4906045e-02  1.4767970e-01  1.0247410e-01]
[-0.21469948  0.06456395 -0.14600287  0.19287369  0.10335475  0.2284731
  0.4786997   0.11452952 -0.02684226  0.13749136 -0.06173375  0.05131015
  0.39342177  0.04619917  0.18861721 -0.36856902  0.09581041 -0.23871349
 -0.01879584  0.02204132]
[ 0.43662712 -0.14544429 -0.14557654 -0.254348    0.41984713 -0.15449315
  0.2909157  -0.6135726  -0.07279065  0.29709136  0.1799446  -0.33346763
 -0.42727888  0.11733996 -0.22707361  0.50216985  0.30726358 -0.08053206
 -0.01070268  0.2900928 ]
[ 0.19938421  0.04094903 -0.30965534 -0.19314148 -0.10670163  0.12293597
  0.06328167 -0.18700166  0.02418504  0.09771166 -0.03399106 -0.30439934
  0.23170517 -0.00702608  0.03374993  0.02230956 -0.22698022  0.08080122
 -0.33168656  0.18406013]
[ 0.03659259 -0.15177074 -0.17596751  0.41222566  0.17406279  0.27435714
 -0.08741973  0.1942622  -0.4369666   0.08809131  0.05080033 -0.21695371
  0.09723422  0.24269009  0.15726742 -0.34135318 -0.05209682  0.10113489
  0.24752952 -0.08010422]
[ 0.12763812  0.05200526 -0.0445452  -0.23914734 -0.12005567  0.4193616
 -0.1255574   0.03374847 -0.2424273   0.17707786 -0.00568479 -0.03808319
  0.0556939   0.09029122 -0.26998264 -0.0288565   0.11590318 -0.18812107
 -0.05841982  0.24003017]
[-0.02917163 -0.09796181 -0.1268013   0.21843532  0.08923104  0.14414857
  0.05666734  0.30610856 -0.18178247  0.04262321  0.05970933  0.17749499
  0.12242323 -0.04869164 -0.09737311  0.25522104 -0.12441774 -0.15070896
 -0.37665138 -0.10031313]
[-7.5470507e-02 -4.5953065e-02 -3.2459910e-05  6.3029207e-02
  1.1278355e-01  2.0776650e-02  2.3054294e-01 -1.1813320e-02
  8.3525404e-03 -1.6369683e-01  1.6109016e-02  4.3784179e-02
  6.8079963e-02  4.1519005e-02  8.5826822e-02 -7.9593018e-02
 -4.3946687e-02  5.0976038e-02 -2.9809223e-02  5.7290826e-02]
layer 5 Activation
tanh
layer 6 Dense
20 1
[0.02125391]
[0.00195327]
[-0.00438934]
[-0.01846785]
[0.08842894]
[-0.02442068]
[0.32832363]
[-0.04596157]
[0.00303525]
[0.02078142]
[0.07740331]
[0.08728663]
[-0.12804705]
[-0.04529562]
[-0.06910313]
[0.20231126]
[-0.00465777]
[-0.0169096]
[-0.0081787]
[0.0287483]
[0.0355884]
