layers 7
layer 0 Dense
20 20
[-0.29131997 -0.5021985  -0.4550079  -0.5304941   0.43042433 -0.34682265
  0.0438804   0.16784807  0.11627369 -0.05626019 -0.64469343  0.5392098
  0.24488394  0.2661655  -0.433013    0.7137446   1.4049134  -0.18070886
  0.5695571   0.14246097]
[ 0.2793823  -0.11269048 -0.03507087  0.12907422  0.15464753 -0.24050462
  0.16516495  0.33779627 -0.2415717  -0.26099643 -0.13778724 -0.03761038
  0.34850574  0.19203758 -0.03648853  0.20483172  0.035256   -0.38688967
  0.17145216  0.16968137]
[-0.18603581 -0.10670301 -0.34459198  0.3055619  -0.35732526  0.2598828
 -0.05968007 -0.19266586  0.38007897 -0.16125754  0.32725286 -0.17609532
  0.01349205 -0.01707804  0.34554917 -0.14623515 -0.32925674  0.15447134
 -0.16573736 -0.08038932]
[-0.41953933 -0.06399447 -0.6034182   0.09175887  0.2010088  -0.03780313
 -0.07322227 -0.29123798 -0.31607017  0.34045643 -0.70316756  0.57398474
 -0.5276476   0.48049077 -0.3834656   0.4255006   1.2882048   0.01111541
  0.4170777  -0.33603558]
[ 0.01138701 -0.8129797  -0.6933881  -0.06240789 -0.05639203 -0.11534974
 -0.02994091 -0.2100189  -0.40913773  0.55882233 -1.5545087   1.5562288
  1.4634387   0.2888988  -2.329318    1.1681409   0.089349   -0.3724641
  0.7808642  -0.33832583]
[ 0.21785218  0.15084666  0.34056526  0.01913044  0.11060649  0.19694006
  0.2335794  -0.16392973  0.14364004  0.19951683 -0.3515789  -0.15290481
  0.2703259  -0.20630258  0.12072915  0.25215942  0.18236458  0.23062456
 -0.27414995  0.32122326]
[-0.34948307 -0.13148499 -0.08147228  0.2901227  -0.22858162 -0.28518236
 -0.34978336  0.09153929 -0.05670434  0.34232944  0.20229894  0.32774377
  0.11351931 -0.05276498 -0.22332864 -0.07599416  0.31279325  0.08923301
  0.02915394  0.11381543]
[ 0.40323165  1.4418781   1.2697172   0.35205555 -0.5021292   0.46167827
  0.28259775  0.42237797  0.20945448 -0.24997865  1.0377744  -1.1170452
  0.6964506  -0.40020117  1.7517939  -1.4966328  -1.3504344  -0.28562707
 -0.64726496  0.11809541]
[ 0.4822693   0.77325076 -0.822276    0.68207574 -0.61905426  0.6910838
  1.2699709   0.6428387  -1.6504214  -1.075736    0.17400785 -0.38843182
  1.0797243  -0.84928745 -1.1391826   2.766705   -1.0153453  -1.1536518
  0.7213884   0.48715913]
[-0.14697884 -0.02524436  0.06829712 -0.77193755 -0.7340421  -0.41381356
  0.17224355 -0.04991603 -1.1452391   0.08887011  0.00182953  0.19520588
  0.45963067 -0.83021903 -0.08204506 -0.10203909  0.14087608  0.07278791
 -0.1424475  -0.08418837]
[ 0.9466209   0.08931121  0.00195815  0.08043971 -0.61934286 -0.93787533
 -0.59168184  0.03191632  0.69231236  0.37358773 -0.2052658  -0.25534567
 -0.27840787  0.27318543 -0.07499551 -0.23886093  0.17148027 -0.74106216
  0.00342315 -0.02081352]
[ 0.1408188  -3.6032991   1.1301571  -0.26944754  0.09333961 -0.3997293
 -1.6967323  -0.63386506  2.295401    0.9022232   1.4311955  -0.3891534
 -0.40878293  0.27354568  2.5362349  -5.3055077  -1.8534333   1.6280284
 -1.6510358  -0.53246695]
[ 0.5256328   0.89277494 -0.8051782   0.37543043 -0.6156267   0.58874077
 -0.33724013 -1.8763491   0.09508909  1.6813296   0.43572852  2.0022626
  0.5818815  -0.5855118  -1.664506   -1.3889425   0.5217859   0.4721072
  2.728274   -1.3677086 ]
[-0.14278346 -0.01828688  0.06527688 -0.7248635  -0.6965009  -0.34013003
  0.23642951 -0.99127686  0.26581407 -0.77467954 -0.04123787  0.16236778
  0.13599902 -0.80686766 -0.07306968 -0.07048006  0.14330645  0.05624947
 -0.10180894 -0.01992209]
[ 0.96024585  0.11741441  0.00855271  0.08914242 -0.5347567  -0.78849
 -0.55270094  0.37928385  0.25232053 -0.48689842 -0.22189085 -0.2584317
 -0.05443805  0.30017766 -0.08248875 -0.23375137  0.17517143 -0.47102323
  0.06682854 -1.2770467 ]
[ 2.4022926e-01 -3.2966003e-01  8.8395816e-01  7.8451514e-02
 -5.3994223e-03 -2.9354361e-01  1.7885697e+00  3.1623175e+00
  3.8736534e-01 -2.8845232e+00  1.0211599e+00 -4.0086737e+00
 -5.8002824e-01 -3.5566804e-03  3.3483031e+00  5.4893506e-01
 -3.9729433e+00 -4.3404129e-01  6.6882849e-02  2.4926057e+00]
[-0.3615531  -1.1120164   0.39542183 -0.23355493  0.23554724 -0.24886589
 -0.6944372   0.38081488  0.8594648  -0.42934874 -1.1345142  -1.663534
  1.3360342   0.1244329   1.9829978  -1.1560441   1.0337273   0.8622106
 -1.9539918   0.21844184]
[ 0.8416962  -0.00973031  0.11801194  1.8375373   1.6111495   0.54702246
 -0.84297574  1.0764294   1.9359324   1.0308979  -0.04883783  0.14848568
  0.18922357  1.7212615  -0.01989127 -0.11848191  0.10486809 -0.60899025
 -0.27713618 -0.00822145]
[-2.0302002   0.10753642 -0.02578475 -0.09093016  1.6403093   1.4916791
  1.4890795  -0.41112062 -0.2928946   1.099283   -0.21104145 -0.2718867
 -0.05236027 -0.90602076  0.20360433 -0.26780036  0.1757063   1.2078687
 -0.01916501  1.3431516 ]
[ 0.66499144  2.6995456  -0.8929678   0.5315674  -0.69148964  0.37773934
  0.04068722 -0.9914179  -1.4509256   1.0420293   0.04006571  1.8916012
  0.597993   -0.50533354 -1.3262273   1.8713686   3.1675127  -0.6177381
  0.43612722 -0.8794724 ]
[-0.5151018  -0.503482   -0.8079384  -0.37585363  0.35323155 -0.2863794
 -0.24031676 -0.07444239  0.02555669  0.12380168 -0.2715026   0.46053144
 -1.0686706   0.23333189 -0.67621434  0.7236681   0.89988023 -0.04114117
  0.6833717  -0.12583476]
layer 1 Activation
tanh
layer 2 Dense
20 40
[ 1.7222624   0.27322933  0.36268568 -0.8251541  -0.07660993  0.23796079
  0.24453679  0.07576778 -0.03815425  1.0839282  -0.3055563  -0.314316
  0.16364403  0.56003255 -2.1489575   0.5169311   2.8553925   0.09822127
 -3.2747927   0.9446307   1.0880923   0.05474833  0.5071792  -1.8515258
 -0.21230204  0.6473181  -1.1471621   0.20814112 -1.1145838   0.69783884
 -0.65709585 -1.412235   -0.4411867   1.6170486   1.3904012   0.10763915
  0.0441763  -0.41961482 -0.31257504 -0.4278239 ]
[-1.0103264  -0.23938857  0.907344    0.4644857  -1.304436   -0.99003756
 -1.1154308   1.5101495   0.14510328 -0.9796592   1.0042577   0.75594807
  0.35121888  0.5801417   2.0220056  -1.4937953  -1.3795954  -0.8609737
 -1.2583046  -0.4553633  -0.61690056  0.4141158   1.1153765  -2.2067926
  0.20558597 -0.85077477 -0.9780315   0.5428103   0.56749254  0.3288387
 -1.2069478   0.809437   -1.4627948  -1.1643119   0.5206615  -0.95515305
  1.2048343  -0.81205916  0.93647337 -0.0975882 ]
[ 1.0924933   1.263835   -0.43109035  0.99229836 -1.2772079  -1.7976947
 -1.8348515  -0.06965345 -1.086861   -1.5405245   1.9735261  -0.7248206
 -1.7977484  -1.3640414   0.083301    0.3736859   0.6834411  -1.1838404
 -0.47493944  0.5419258   1.316533    2.4488251   1.6103902   0.00259623
 -0.7814523  -0.06121353  1.2061548   0.5356287  -1.100703    1.2765057
 -0.35227522 -2.0230653   0.872671   -2.0463793   1.9581518  -0.29458055
  1.6197814   0.05379901 -0.736735   -0.37681895]
[-4.090846   -1.1963097   2.6782787  -0.32445267  1.0206131  -0.08704098
 -1.5518177  -2.843335    0.04509255 -0.5689745  -0.63658065 -0.45870557
 -2.137554   -0.28729555 -0.02610102 -5.640104   -0.9987875   0.65200025
 -1.3023568   3.4892006  -1.1642082   0.3808677   0.17594464  1.8166839
 -0.81179225 -1.3854436   0.249943    0.8353597  -1.3653433  -0.24767101
 -0.6608093   1.2193998  -1.9624509  -2.352791   -2.6507866   0.12428708
  0.29258314  1.1350635  -5.132737   -0.5148217 ]
[-2.3426957  -0.38553807  2.6552956   0.33080646  0.49305636  0.19253832
  0.94342816 -2.2631269   0.43849283  1.5349687   0.17080063  0.4089847
 -0.7576169  -1.3480234   2.218914   -3.2321477  -2.385739   -0.46133956
  3.379845    0.3064441  -0.9318402   0.7523045   0.8623456   3.2148595
  0.5653705  -2.1114585  -0.26014435 -1.1123011   0.5095658  -0.6390306
  0.12584981  2.770571   -3.5586069  -1.8565906   1.0311408   0.2812524
 -0.52722186  3.0623312  -3.7562099   0.40964824]
[ 0.92132264  0.47767285 -2.573806   -0.52743435 -1.5123329   0.05679682
 -1.7102604  -2.504255   -0.54467326  1.2426529  -1.0424316  -0.2790817
 -1.7726172  -0.7089296   3.1209543   0.3177873  -3.775394    1.5080967
  2.6714232  -0.86093074 -1.2328264   0.876278    0.57436854  4.1517024
 -0.24343023 -3.0637753   1.3108395   0.3565696  -1.3849895  -0.2688673
 -1.3375807   2.8429003  -1.6835444   2.1503618  -0.40614513 -0.3835471
  0.88036335  1.983114   -1.0310297   0.05903658]
[ 0.03607823 -0.01452309 -0.70846933  0.03130354 -0.3595241   1.2146984
 -0.7282133   0.43263587 -0.3319762   0.30563536 -0.21641652 -0.2141484
 -0.14006436 -0.7328459   1.24387     1.420775   -1.7612559  -0.18848325
  1.263643   -0.89561725  0.01888319  1.0523676  -0.2798687   0.9828101
  0.20601507 -0.89822876  0.3389912  -0.56400853  0.1432747   0.20314044
 -0.3021346   0.13793173  1.7193497  -0.33239198 -0.41388217 -0.08337209
  0.38876122  0.51566786  0.8102263  -0.4381832 ]
[-0.9325914  -0.20846918  0.29573178 -0.07155871  0.23342977  0.48046863
  0.27075967 -0.10889734  0.17838565  0.8934522   0.07749137 -0.72448987
 -0.13672347  0.13684197 -2.3531632  -1.3653444   0.46135494 -0.61337095
 -0.16861665  0.30481136 -0.25249794 -0.6181482   0.10488365  0.7502507
 -0.11189514  0.33889169 -0.40624845  0.6152868  -0.3850421  -1.3577174
  0.42447606 -0.33707404 -0.0866826  -0.15678702  2.5847082  -0.8669066
  2.343472    1.8629125  -1.1536002  -0.611277  ]
[ 0.19373871 -0.19013856  0.34968358 -0.03657889 -0.5969524  -0.83818066
  0.03294874 -0.16444917  0.10588145 -0.81317914 -1.6276654   0.08464507
 -0.08623695  0.01607887  0.37169415 -0.8941632   1.773407   -0.7193367
 -1.1314019   0.2317088  -0.04860697  0.05554641 -0.20445114  0.81319094
 -0.09944137  0.47113374  0.17375     0.15724568 -0.42474595  0.5724483
  0.12995172 -0.27627185 -0.7104432  -0.34736356 -0.44441304  0.127149
 -0.31846365 -0.35770082 -0.33937797 -0.31427106]
[-0.5284462  -0.33579284 -0.22239701  0.0383954   0.26110172  0.10106914
 -0.1415032  -0.0952348  -0.09792329 -0.6917611   1.1167991   0.6653393
 -0.3710018  -0.80159503  2.3115935  -0.919941    0.7443913   0.17852795
  0.03405071  0.7129852  -0.3316478   0.2292418  -0.1521345   2.2354996
 -0.04449518 -0.62312573  0.71707875 -0.45450595 -0.2904342  -0.49257255
 -0.36136398  0.80589604 -0.48236653  0.54448944  2.2152603   0.7929868
 -1.2867681  -1.1001989   0.07733809  0.6148522 ]
[ 0.59618366  0.226156   -0.60126776  0.6309352   1.0196637  -2.3055265
  2.2522607   0.5455917   0.00607332  0.05223315 -0.49393287 -0.08819874
 -0.56975937 -0.32536244  1.4946874   1.4466727  -0.45539346  0.58723724
 -0.7996209   0.3904865   0.46924776  1.0079136   0.7808426  -0.4967933
 -0.03901142 -1.1014968  -0.12679902 -0.41723302 -0.1404532  -0.6653593
  0.3039737  -1.1182678  -0.74726707 -0.2507208  -0.13886954 -0.05826393
 -0.70697117 -0.5012721  -0.05988736  1.2568688 ]
[ 0.07870001  0.29451352  0.6747929   1.0349661   0.9696799   0.09883785
  0.8994022  -1.2696836  -0.50262344  1.1833851   0.18190777  0.0444783
 -0.45603853  0.3294216   0.9539956   0.72871345 -1.52134    -0.08812577
 -1.4393528   0.2564676   0.5323499  -0.7511389   0.8284932   0.16180211
 -0.42929935 -0.31054428 -0.23211244 -1.6558062   0.122453   -0.08146281
  1.3898032  -0.91398716 -1.453057    1.6658884  -0.58399606  1.0953993
 -2.6398938  -1.2277988   0.08895087  0.6082906 ]
[ 0.57316893  0.05792486 -0.49389052  0.3728648   0.42724344  0.12619273
 -0.29995632  0.19998404 -0.03214773 -0.24568182 -0.41099006 -0.32319066
 -0.05460426  0.10118096 -0.04714873  0.6897611   1.0816134   1.0248488
 -0.58730805  0.07571983  0.16490547  0.6519469   0.29877636  0.9954654
  0.01922128 -0.71908104  1.3018482  -1.6510892  -0.20541283 -0.316294
  0.868393   -0.7973633  -0.42120782 -0.22494742  0.02662557  0.8047985
 -0.8374195  -0.03668289 -0.26156294  0.94678175]
[-1.3707943  -0.40824562  0.5087776   0.94018775 -0.43594894  0.70508105
  1.3134483  -0.20339751  0.42826852 -1.4470347  -0.5611957   0.47387496
 -0.7083779   0.5555275  -2.1987698  -4.190212    2.1571295  -0.8778215
 -1.2184836  -0.55638134 -1.2323692  -1.3385428  -0.9484061  -0.39314002
  0.04756648 -0.89781415 -1.6114109  -0.11701211 -1.0962665  -2.8213713
  1.0628842   0.5153138  -0.90886116  1.2300423  -0.30172622  0.01057233
 -0.19589202  1.2194324  -1.3204702   0.40071046]
[-0.17335102  0.2575877  -0.12534404 -0.74981385 -0.50211424 -0.52641696
 -1.3044626  -0.18309733 -0.12698592  0.26036865  0.41145578 -0.16308485
 -0.37907884 -0.3078468   0.45064682  0.28393582 -0.23241797  0.24717265
  0.10025738  0.5056058   0.39834788  2.122203    0.60789114  1.4206096
 -0.14528921  0.18071118  0.1650857   0.7390279  -0.09536865  1.1963111
 -1.8704116  -0.31798154 -0.2602978  -0.17433478  0.17456144 -0.10355654
  0.55911267  0.3534032  -0.9450478  -0.02162352]
[ 0.12368119  0.887538   -0.7643385   1.3521856   3.5738554   1.9972427
  0.04546702  3.02129    -0.6500053   0.44668958 -3.5384948  -1.2272433
 -1.3248223  -1.0207117   0.7326588   1.1082681  -1.1962466   1.7969646
 -1.6951699   1.7887973   1.3079706  -5.600369   -1.3115214  -1.5007771
 -0.613868   -2.7867308   0.4406905  -2.2650316  -0.7577248  -7.03841
  1.3385247  -1.804059    1.8076521   0.37591487 -1.23927    -0.8128492
  0.84652466  1.686868   -1.6265016   4.6888394 ]
[ 2.4786928   1.1890905  -1.753191    1.2585305   1.2700158   1.9538718
 -1.8309339  -2.3301754  -1.3106545  -0.9600828  -1.9646312  -1.6955026
 -1.2797933  -1.283442    1.9563985   2.5500057   1.2071835   1.1481775
 -1.7968605   1.5659223   1.6844487  -2.1738667  -2.0777874  -0.518549
 -0.9528062  -1.1153474   2.0442688  -1.2262746  -2.0434747  -3.064397
  1.3187995  -3.0280213  -0.47890186 -2.0072892  -0.78508836  1.2014091
 -5.498318   -4.61529     2.4613376   2.1256237 ]
[ 0.5899604  -0.2632384  -0.71266216 -0.059759    0.6339131   1.2991649
 -0.15238847 -1.7166287  -0.5577675  -0.5588216   0.11655924  0.08442524
 -0.37586713 -0.44459233  1.7909216   0.52019304 -2.2183142  -0.9516201
  5.0946374  -1.5566543  -0.21421787 -0.32383907 -0.23292373  1.9440349
  0.30832818  0.79364246  0.9653098   0.8598613   0.3434083   1.589031
  0.03084649  0.33172622  1.1739624  -2.4987311  -2.5367594   0.515238
 -1.0286484   0.92885137  0.9039495  -1.1658227 ]
[ 0.6457905   0.1333841   0.2016845   0.2762026   0.6663075   0.9880498
  0.92064893 -0.2355517  -0.01907591 -0.03904285 -0.16662945 -0.2609089
 -0.30117092 -0.1570034  -0.59262884  0.41610476 -0.36604777 -0.4209483
  0.44581342  0.01037879  0.2119653   0.04581425 -0.37550464 -0.00373776
 -0.08273445  0.66677153  0.5130063   1.4674703  -0.17628375  0.44106215
  0.08948386 -0.49764642  0.6570711  -0.18802842 -0.23408681 -0.19993274
  0.6979307   0.75249267 -0.97278035 -0.4664886 ]
[ 0.09639154 -0.17919382 -0.09106158 -0.02071616 -0.9074687  -0.4316906
  0.35308057  0.40110147 -0.2288041  -1.5939204   0.16019973 -0.6268961
 -0.48676908 -0.06915494  0.01793227  0.04730852 -0.26263645 -0.28591907
  3.0477529  -0.45937124 -0.40777037 -0.05906823 -0.24496469  0.52496266
  0.11774623 -0.27644908  0.5783302   1.171774    0.17710966  0.80096126
  0.5358657   0.9642585   0.4619214   2.024464    0.5172549  -0.76349694
  1.7506921   2.5907595  -0.14610413 -0.03246334]
[-0.47041175 -1.6666888   0.29429668 -0.5672262   1.8517721   2.0552883
  0.85104483  0.6148076   1.9022655   2.3053896  -2.4029074  -0.637895
  1.0965582   1.7581589   0.01090374 -0.40512568 -0.49527085  1.9549137
 -0.28691483 -0.18828458 -1.2152635  -2.167961   -2.0162265  -0.30312595
  1.0505626  -0.18694249 -0.61409384 -1.2122422   0.12036755 -1.4874864
  1.1826718   1.3210056  -0.7249945   2.7054026  -2.5643935   1.1092569
 -2.2136662  -0.23103772  0.27878976  0.7432095 ]
layer 3 Activation
tanh
layer 4 Dense
40 20
[ 0.22304083 -0.194268    0.29559678  0.2987577   0.24125905  0.03348904
 -0.35323098 -0.83408487 -0.4028041   0.29578453 -0.30345568  1.1220555
  1.2874173  -0.4066607   0.21348168 -0.04855996  0.26728153 -0.87414324
 -0.14965855  0.2243171 ]
[ 0.43408048 -0.7205819  -0.26102772 -0.1773391   1.6580132   1.3401152
 -0.3770397  -0.24426584 -0.9078097  -0.49887094  0.38338098  0.26281023
 -0.07179627 -0.13411136  0.7206859  -0.6289374  -0.43349707 -0.3964907
 -0.5662937   0.28646857]
[-0.4426119   0.7030282   0.0749957   0.12552015 -0.25469494  1.0146116
  0.3345802  -3.155675    0.26898608  0.40578723 -2.3093798   2.05386
  2.376451   -0.15823355  0.10505708  0.32630873  0.6727157   1.498232
  0.02699862  0.1995362 ]
[-0.60350716 -0.79368865 -0.73273414 -0.7591473   0.44186673 -1.6363004
 -0.50619173  1.2172071  -0.90455055  1.1314625   2.3029792  -0.5152938
 -0.98998344 -0.3591307  -0.20081118 -0.7960623  -0.95484495 -0.82005215
 -0.50631267 -0.22494555]
[ 0.5162857   0.44169423  0.95519626  0.36497113 -0.3218034  -1.0337325
  0.7473956   0.7751243   1.2397543   1.5121657   0.12564689 -1.5370584
 -1.1434032   0.45071527  0.33812782  0.7482508   1.3108783  -0.5175338
  0.08643189  0.6735346 ]
[ 0.7323929   0.58420175  0.7577291   0.90611607 -0.8727486  -1.6001742
  0.47048151  1.3069763   0.6381514   1.1661247   1.7151034  -2.2737358
 -1.4280865   0.9998609   0.58254236  0.5654286   0.94190025 -0.6548635
  0.3405278   0.7016051 ]
[-0.16578257 -0.25948954 -0.14342193 -0.32393223  0.31337392 -2.348939
 -0.01655123  2.3992398   1.0452513   1.2793089   1.2029192  -3.1274393
 -1.8373413  -0.30133948 -0.08698504  0.03693664  1.2442057  -1.7767005
 -0.0393231  -0.05678666]
[ 0.27708086 -0.20724985  0.28125277 -0.19283557  0.35660356 -1.2550565
 -0.3848466   2.2419715   0.9893614  -0.1506335   1.329928   -0.8865589
 -1.1566559  -0.22399464  0.13620943  0.2845908   0.3917786  -0.79028547
  0.08555585  0.27303734]
[ 0.317734    0.82638144  0.62078667 -0.06083866 -0.7182207  -0.55218726
  1.1033039   0.38062623  0.63163745  0.6020618  -0.23900081 -0.8236332
 -0.12274691  0.54360616  0.20341489  0.44636542  0.5771191  -0.04350553
  0.8683179   0.51262367]
[ 0.22881366 -0.07597813 -0.20745374  0.2681701  -0.15844859 -0.50069267
  0.3077435   0.9147755   0.899456    2.7372036   0.7700901  -1.3478725
 -0.23347342  0.49674952  0.5702875  -0.15883653  1.6963079  -0.47826365
  0.02557304  0.07855004]
[-0.78175634 -0.6308182  -0.55574965 -0.78631353  0.82156676  1.1693282
 -0.6009608  -1.443424   -1.0804914  -1.3427329  -1.3699396   1.9883124
  1.5503496  -0.7716529  -0.23657574 -0.2567101  -0.9361922   0.99714404
 -0.6293059  -0.26170126]
[ 0.18880333  0.46037567  0.9607181   0.69749534 -0.65312356  1.4335936
  0.507137   -1.654097   -0.22454141  0.12615511 -2.1957567   0.46948418
  1.4537754   0.70467454  0.2271554   0.7447285   0.15626256  3.350142
  0.5455874   0.9565773 ]
[ 1.1811216   0.00912911  0.10938172  0.4575856  -0.27335402  0.60034215
 -0.02491459  0.01106564  0.58395576  1.2816906  -1.7340018  -0.38140294
 -0.05001958  0.2131978   0.03561983  0.49000865  0.42666927  2.9627376
 -0.08050021  0.1779987 ]
[ 0.39759028  0.2054709   0.2726261  -0.3109306  -0.23488066 -0.4407767
 -0.4225315   0.02211844  0.21668129  0.41126403 -1.1432201  -0.04487913
  0.74592286 -0.2749422   0.3803373   0.37244228  0.31523117  1.0353528
  0.4014633   0.39605272]
[ 0.79327905  0.31779006 -0.27723485  0.2557468   0.29784054 -2.5595481
  0.10711479  1.6652179  -0.30519187 -0.3240779   0.7300964  -1.2608647
 -2.0492334   0.31333163  0.27745104 -0.30151397  0.02113546  0.02042412
 -0.18866907 -0.37146673]
[ 1.0520723  -1.1398346   0.91185856  0.7460632   1.210857   -1.0301183
 -0.50079316  0.2288445   0.36375704  0.31314555  1.5759262  -2.1836033
 -1.6448368   0.34024477  1.0155087  -0.20985377 -0.05912296 -0.5732696
 -0.79475707  1.2016921 ]
[-0.16821435 -0.65419143  0.4324478  -0.08261722 -0.09814002 -0.68716496
 -0.8092991   1.5859803   0.13525045 -0.20734826  0.76714426  0.13750283
 -0.7573791  -0.05183716 -0.2949013   0.03625413 -0.16211325  1.4508348
  0.04788662  0.29693186]
[-0.6806003  -0.6293856  -0.42026296 -0.24792531  1.3114684  -1.9426001
 -0.54006404  3.9114914   1.727301    1.537821    2.4893363  -3.5657644
 -3.5880208  -0.5086807  -0.4450806  -0.7375936   0.69403493 -4.2284274
 -0.76763386 -0.4286045 ]
[ 0.1290099  -0.72052187 -0.6955475   0.5687454   0.6638172   1.383971
 -0.04555154  0.01211496 -0.06172754  0.60699755 -0.6477962   0.29517442
  0.8275644   0.7043247   0.08219931 -0.7043288   0.15611997  0.5427695
 -0.44206783 -0.18902718]
[-0.7699291   0.38115942  0.4165501  -0.03125382 -0.06706443 -1.7613356
 -0.09336957  2.0458877  -0.9350766  -0.61032015  1.7602769  -1.0701283
 -2.6589382  -0.08770933 -0.2572738   0.30984783 -0.9940889  -2.262686
 -0.00844244 -0.5925249 ]
[-1.0302432e-01 -7.2417295e-01 -3.4235191e-01 -4.8939964e-01
  1.0982674e+00 -1.6993728e+00  1.2370199e-04  7.5169906e-02
 -3.9539939e-01 -4.7728974e-02  9.2076713e-01  9.6160889e-01
 -8.7698019e-01 -7.2526807e-01 -5.4972440e-01  5.7317439e-02
 -1.8390678e-01 -1.7993485e+00 -4.1251206e-01 -2.7009305e-01]
[ 0.03022943 -0.19447078 -0.3477789   0.035845    0.16466609  1.3084834
  0.26862064 -0.5784798  -1.4458396  -1.1375165  -1.6467824   0.36534616
  0.7560537   0.01404357 -0.20226412 -0.05107823 -1.3456572   0.760576
 -0.45595536 -0.30979398]
[ 0.12657881  0.24453741  0.3617989   0.16025274 -0.15583791  2.4035354
  0.19960171 -2.2197258  -1.2934791  -0.6434562  -1.6127768   3.1033885
  1.5279756   0.08287835  0.22952719  0.53734374 -0.8119113   1.4981574
  0.58249635  0.5931625 ]
[-0.98380697  0.8176806  -0.38635865  0.16566293 -0.18180613 -0.5433074
  0.36056066  0.4779872   0.42424    -0.20772564 -1.3292211   0.16380677
  0.03637378  0.25228453 -0.10116102 -0.19808084 -0.35828185  0.06863128
 -0.57737887 -0.19795032]
[ 0.03804969 -0.00668817  0.86762613  0.5173947   0.7127991  -0.76892513
  1.0506382   0.37769175  0.91490406  0.6470363   0.5561105  -0.9771574
 -0.36810198  0.46806496  0.5953661   1.0678313   1.1520699   0.89207166
  0.46692085  0.8219053 ]
[ 1.0054177e-03 -4.0812093e-01  4.3690762e-01 -5.2845877e-01
  5.4202735e-01 -5.1631463e-01 -4.5211789e-01  3.9017713e-01
  4.5898995e-01  1.1041781e-01 -2.3899181e-01 -3.5321870e-01
 -1.5916596e-01 -3.4832612e-01  3.2874259e-01  4.9803123e-01
 -7.3656613e-01  1.5129693e+00 -1.7479615e-01  3.2802504e-01]
[-0.08910212 -0.49936548 -0.46686482  0.16531718  0.48930156 -1.6035825
 -0.22768344  1.2001226  -0.27391362 -1.1667683   2.314024    0.00745513
 -1.301464    0.05054176 -0.09479248 -0.01436031 -0.8102424  -1.2027214
 -0.06440496 -0.45082048]
[ 0.44974157  0.3720214   0.25177094  0.08255053 -0.25519723  1.5099957
  0.39206842 -0.6180787  -0.21679942 -0.71695244 -1.2688327   1.3187069
  1.708183    0.40582874  0.06653829  0.00665143 -0.1421091   0.83458847
  0.08317359 -0.01339493]
[ 0.29625964 -0.08921608  0.3747394   0.556925   -0.05738853  0.544057
  0.10464054 -0.7571824  -0.8824789  -0.05931283 -0.37510914 -0.98948145
  0.9687865   0.5887438   0.39324072 -0.0659588   0.20384154  1.9699858
 -0.15591264  0.3537342 ]
[ 0.2782621  -0.2087908   0.2736186   0.07870635  0.24887122  2.4740648
 -0.40276664 -1.64941    -1.4695452  -1.547659   -0.66025704  2.6452415
  1.4365307   0.56170166  0.08289859 -0.09381012 -0.9316534   1.4662715
 -0.40868276  0.22219646]
[-0.71945024 -0.72132593 -0.5303665  -0.80986965  0.5104929  -1.2467303
 -0.6943205   0.6435284  -0.5905352   0.10407755  3.1428754  -1.6162041
 -0.2607191  -0.59519625 -0.31534478 -0.31496647 -0.2709237  -0.922137
 -0.5644336  -0.5461767 ]
[ 0.9703068   0.84112823 -0.41327494  0.7860563   0.12638089  0.5293777
  0.5230788  -0.53818303  1.0178007  -0.32426137 -0.8911622  -0.5430519
 -0.1840036   0.31572342  0.31285667 -0.3405115   0.31498638  1.2028749
 -0.34663126 -0.3650884 ]
[ 0.22426805 -0.15053646  0.08338442  0.08214173  0.2105398   2.3351207
 -0.35204995 -2.32275     0.24083117  0.10976715 -3.0115805   1.3457187
  2.8241425  -0.23430015  0.20602831  0.12431834 -0.04486923 -0.28209338
 -0.08288966  0.24348669]
[ 6.9268781e-01  7.1773298e-02  1.8868552e-01  2.5884526e-02
 -8.9863318e-01 -1.1240814e-01  1.8450600e-03  2.0445480e+00
  1.5374798e+00  2.4661579e+00  1.5176067e-01 -1.2005161e+00
 -7.1195877e-01 -1.9731849e-02  5.9024107e-01  8.0911100e-02
  1.4941633e+00  4.4471195e-01  1.2177092e-02  1.5287477e-01]
[-0.05574548  0.14972894 -0.11365652 -0.49863127 -0.22875762  0.8052828
 -0.0166332  -0.2972081  -0.2901523  -0.5060629  -0.77303666  1.8693433
  1.3790271  -0.2758075  -0.1721614   0.0368746  -0.4865803  -0.7308237
  0.00798952 -0.17092687]
[-0.14840715 -0.2887359  -0.9333668  -0.28665152  0.72808427 -5.3323264
 -0.7340021   2.1346946   0.5593256   0.66998494  1.9923812  -2.3123946
 -4.0087266  -0.38726273 -0.22086371 -0.44321835  0.6004936  -2.5364318
 -0.31966248 -0.56942636]
[ 0.34753338 -0.12693563  0.23076841 -0.01663956 -0.35147935  3.4410503
  0.53415483 -4.407192   -0.41879702 -0.6123329  -3.2655048   2.020283
  3.699781   -0.08327631  0.30626294  0.35671735 -1.5445352   2.5889862
  0.70906335  0.13456762]
[-0.00866975  0.11399632 -0.12136349  0.1849095  -0.04009482  0.5665357
  0.20867755  2.5593035   0.6458532   0.39344728  1.8907926  -1.9545408
 -0.64476615  0.13715488 -0.09664514 -0.12870637  0.20245759 -0.9632413
 -0.13457227 -0.20053239]
[ 0.37612298 -0.343454    0.61823285  0.5491083   0.52597     1.0022064
 -0.635048   -0.28321373 -0.17629762  0.0619824  -1.5937783  -0.5705868
 -0.655433   -0.3941346   0.37671083 -0.5270339  -0.5894827   0.32555267
 -0.26728943  0.3560616 ]
[-0.8727505  -0.049546    0.03412215 -0.2855387   0.83691883 -1.9249433
 -0.26645446  4.592573    0.7350966   1.661341    2.3987103  -1.5730381
 -3.4333522  -0.7493808  -0.24293354  0.09796152  0.2145272  -2.424849
  0.01809834 -0.25204185]
[ 0.6870915   0.46639535  0.51585126  0.6489749  -0.61671776 -1.3529713
  0.6622002   1.6216083   0.81954825  1.1465008   1.4397731  -2.0580418
 -1.3972367   0.7381066   0.5014499   0.4896413   0.89103377 -1.0506929
  0.4145898   0.43387285]
layer 5 Activation
tanh
layer 6 Dense
20 1
[0.90013]
[0.91539955]
[0.6125007]
[1.1320679]
[-0.7611912]
[1.079973]
[0.64160216]
[-1.5354707]
[2.8011286]
[2.2657275]
[-2.0230224]
[1.2991725]
[1.4904754]
[0.9617025]
[1.1685281]
[0.91709614]
[2.2524111]
[1.0994955]
[1.5804684]
[0.8750028]
[2.2003405]
