layers 7
layer 0 Dense
20 20
[-0.00697627  0.08531562 -0.28415665 -0.31275934 -0.4104507  -0.12992996
  0.04721205  0.28575096  0.27345335 -0.28817865 -0.30969843 -0.2475472
  0.04053266  0.01062562  0.22118135 -0.34392652  0.00245568 -0.21906784
  0.06264987  0.29188555]
[ 0.08769833 -0.24375358 -0.2297171   0.13597271 -0.43093184 -0.21094531
  0.21573749 -0.2635092   0.11722849 -0.19360526 -0.13490114  0.24015306
  0.16866943 -0.3213083   0.32064572  0.30975705 -0.16931751  0.2835862
 -0.18351537 -0.1734635 ]
[-0.15091272 -0.02335919 -0.17433527  0.11728632 -0.3668415   0.20319986
  0.19337931  0.07217152  0.05674667  0.39025518  0.28748643 -0.03345245
  0.12081241 -0.07664688  0.27936232 -0.08060589 -0.25845188  0.08496475
 -0.30145526  0.38840252]
[ 0.04887762 -0.04109799  0.08933721 -0.2953388   0.2744976  -0.01633386
  0.2518552   0.20880882  0.36719212  0.31115514  0.10859693 -0.29615936
 -0.12579039 -0.31151348  0.17662437  0.27749273 -0.16302513  0.2516945
 -0.05884572 -0.04652218]
[-0.17161144  0.04286921 -0.00748544  0.05910177 -0.22653517 -0.25100222
  0.05461679  0.48854956 -0.17013608 -0.14526115  0.18245092  0.32843733
 -0.23746121  0.04677064  0.34903136 -0.3083048   0.11316726  0.23321977
  0.03883642  0.43050873]
[ 0.17672816  0.18957469  0.06828858 -0.25313127  0.40698183 -0.18601018
 -0.33757418 -0.4076348  -0.28928146 -0.2586116  -0.3470596  -0.0175614
  0.23605068 -0.11824182 -0.22556102  0.12506668  0.12462679  0.12640649
  0.19519795  0.02391498]
[ 3.5377079e-01  2.3371293e-01 -2.5274235e-01  2.6614392e-01
 -4.7111351e-02 -4.2151812e-01 -8.2222953e-02 -4.3306747e-01
  4.2586246e-01 -2.5541645e-01 -9.3041494e-02  3.8873416e-01
 -2.4889889e-01  2.8707960e-01 -1.2323607e-02 -2.3686989e-01
 -2.3944303e-05  3.2016465e-01  1.7662190e-01 -3.4054530e-01]
[ 9.13978368e-02 -1.30222008e-01  3.52629572e-02  1.16090156e-01
 -2.05620080e-01  5.25410473e-02  1.74609885e-01  2.46266872e-01
  1.08851038e-01  2.36795232e-01  2.23238394e-01  3.10228825e-01
  3.61396372e-01 -2.40929425e-01 -3.07900697e-01 -6.63115904e-02
 -1.60348549e-01  1.60750933e-05 -7.03311637e-02  1.27729237e-01]
[-0.23822163 -0.1404281  -0.04266143  0.28703374  0.47416565  0.2398188
 -0.22384974  0.11455797  0.2098648   0.08796196  0.05156017 -0.19112453
 -0.28389546 -0.07348038  0.25625858  0.12411021  0.03196728 -0.26294705
  0.11730435 -0.25545788]
[ 0.35787278 -0.07193686  0.17587252  0.09222971 -0.30956993 -0.45289236
 -0.24571015  0.32329917  0.09772425  0.08781584  0.19964404  0.10902128
 -0.00948128  0.05950939  0.05227874 -0.03261087 -0.12032466 -0.29933402
  0.24853262  0.3216692 ]
[-0.32709947 -0.01175352 -0.24511553  0.24208763 -0.3571188   0.09442934
  0.02037882  0.18493138  0.09113565 -0.45561004  0.26537254 -0.18184604
 -0.22398005 -0.25764155 -0.21870515  0.0375777  -0.19876719 -0.1428401
  0.14832383 -0.12624326]
[-0.41420808 -0.3633729   0.03203334  0.3484841   0.326115   -0.28064308
 -0.09686253 -0.08403844  0.1389585  -0.01961233 -0.2059594   0.0086715
 -0.11781362  0.2064784  -0.03998128  0.17787619  0.14680983 -0.0432029
  0.2932519  -0.28828955]
[ 0.15817633  0.16602321 -0.17294139  0.22701585  0.00463371  0.2883631
 -0.22281837 -0.07057886 -0.34711307 -0.2338911  -0.27537987  0.01161094
 -0.0665501   0.28522265 -0.24487676  0.00866635  0.15195315  0.17618278
  0.09330535  0.36065274]
[ 0.05018691  0.14636198  0.23016155  0.20748863  0.07528471 -0.34344965
 -0.23972718 -0.21379906 -0.2110372   0.31374204  0.06702749  0.00417718
  0.13905546 -0.30610907 -0.18467046 -0.13498822  0.00927632 -0.35336247
  0.29291078  0.06495764]
[-0.47484738 -0.21499489 -0.13033824  0.22648218 -0.07834859  0.15023017
  0.2398434  -0.3427149   0.01214318 -0.14711677 -0.0094441  -0.21357465
  0.05556587 -0.3697271  -0.09482297 -0.07273366 -0.18808813 -0.15645105
  0.06792894 -0.30582556]
[ 0.03654888  0.13386345 -0.21265534 -0.2788654  -0.2714914  -0.3311653
 -0.16407476  0.17908049  0.181456   -0.02996348  0.09493996  0.43723682
  0.05292552 -0.05948972 -0.06444535  0.06864619  0.0698318  -0.2329351
 -0.0761058   0.10844529]
[ 0.16989754  0.2718395   0.21359056  0.11279982 -0.39281017  0.15437129
  0.18062611 -0.30339715 -0.33513734  0.08761828 -0.00115119 -0.30511642
  0.16094048 -0.10874493 -0.17196487  0.4112808   0.11380723 -0.04414326
  0.24067682 -0.01248437]
[-3.9618692e-01 -5.9209681e-01  5.2407956e-01 -5.6158394e-01
 -1.0491238e-01  7.8740132e-01 -5.1806444e-01 -1.5638147e-01
 -6.5488845e-01 -6.0584414e-01 -5.8012557e-01  3.0378604e-01
 -4.5790307e-02 -5.7734700e-04  1.4548276e-01  3.3943617e-01
  6.5391243e-01 -8.9160092e-02  2.3197182e-01  1.3327730e-01]
[ 0.1495038   0.07151531  0.62601215  0.16756149  0.29783717 -0.1692787
 -0.4276889  -0.5824335   0.24762769  0.03542488  0.12205529  0.39506936
 -0.06434152 -0.09098077  0.52839005  0.20167838  0.00337492  0.36292648
 -0.13753814  0.5025126 ]
[ 0.23145649  0.11344711  0.25767526  0.15363374 -0.10100225  0.49428132
  0.27351576  0.11701592  0.08055111  0.06917495 -0.3914973  -0.05009399
 -0.01426509  0.07896847 -0.3618213   0.09695943 -0.49904525  0.2308919
 -0.44293493 -0.42292842]
[-0.01035739  0.02991369  0.00624493  0.09120059 -0.05603497  0.0967288
  0.02391647 -0.04363384  0.09974587 -0.08501101 -0.03371612 -0.03107629
  0.01001883  0.00306734 -0.00718825  0.0523847   0.05042275 -0.00754507
  0.03344886  0.03463591]
layer 1 Activation
tanh
layer 2 Dense
20 40
[ 0.17938977 -0.09524615 -0.19839773  0.11539526  0.19060513 -0.44613725
 -0.06887193  0.24999332 -0.27065247  0.18052478  0.24913861  0.04460569
 -0.23807716 -0.07349944 -0.0524752  -0.21305232 -0.19458166  0.267152
 -0.02236824 -0.11530809 -0.3107441  -0.35543865  0.17224379 -0.30124748
  0.07937809  0.03552491  0.06701344 -0.21926123  0.12289333  0.3073943
 -0.3659542  -0.18737487 -0.38741794  0.05182311  0.3819576  -0.23814458
  0.20989016  0.18962184  0.27919063 -0.23136878]
[-0.06233552 -0.03710618  0.05850871 -0.20538054 -0.04731037 -0.2681329
 -0.21595927  0.21880902 -0.08481331  0.21444449  0.08980935  0.19700629
 -0.19845434 -0.02066041  0.15811181  0.19650923 -0.26724005  0.10683747
 -0.08683121  0.03072828  0.25374287  0.10068114 -0.00137366 -0.01344444
 -0.12904213 -0.04754547 -0.16461577 -0.01649573 -0.11821076 -0.09816563
  0.08025357 -0.0676401  -0.20534052 -0.18476063  0.05535337  0.2379849
 -0.03582401  0.32682398  0.06565046 -0.01267156]
[ 0.153006    0.06241687 -0.01458062 -0.21244426  0.1265572  -0.14420803
  0.22192003 -0.18954484  0.21250637  0.32709455  0.05080958 -0.37177595
  0.25529143 -0.16993587 -0.1184281  -0.21078157 -0.0938892   0.18311311
 -0.29526615 -0.15898201  0.23083685 -0.38109124 -0.14380063 -0.11553653
  0.16358934 -0.28586948  0.21371996  0.06611115 -0.27426723  0.37198576
 -0.37097496  0.05948931 -0.2962089   0.0283368  -0.10728485 -0.20926926
  0.11437026  0.01385147  0.04389017  0.06488475]
[ 0.03009027 -0.32283765  0.30836535  0.30210677 -0.04222997  0.05702113
  0.02514014 -0.12646414 -0.17716241 -0.1531511  -0.27470136  0.11115055
  0.18991055  0.10306973 -0.2533374  -0.13815264 -0.20145792  0.17156817
  0.1743313  -0.05676118 -0.024248   -0.17216964 -0.04075709 -0.22301982
  0.00413109 -0.1339031   0.23580788 -0.03151155 -0.10834989 -0.0832726
  0.25740203  0.2875238   0.05008149  0.2664133  -0.00403578  0.11889748
 -0.02120691  0.16080414 -0.2791705   0.11539274]
[-0.09835713  0.02955116 -0.3115211  -0.29943126  0.16549322 -0.11268064
 -0.23781414  0.21784145 -0.09582244 -0.2543143   0.0054124   0.21561003
 -0.17129335 -0.23273465  0.00404582 -0.09156547  0.17703912  0.10773639
  0.02032878 -0.29221672  0.18806204  0.08879749 -0.10292839 -0.22732566
 -0.06228422 -0.02720426  0.2470496   0.42895988 -0.01421334  0.19782963
  0.27598387  0.08986568 -0.05807615  0.1389033  -0.22427316  0.10415924
 -0.02734718  0.14842765 -0.33095947  0.27850553]
[-0.02936633  0.11517383  0.28506845  0.2553653  -0.141796    0.08572777
  0.04110983  0.12194371 -0.02568858 -0.14023085 -0.04998673 -0.1456199
 -0.21182097 -0.02001078 -0.0246143  -0.23439305  0.20357378 -0.17996207
  0.15184942  0.23522478  0.20843737 -0.04687482  0.13746029  0.1842958
 -0.15266138 -0.19028786 -0.13053945 -0.43148667 -0.03345991  0.00962522
 -0.12256233  0.32160437  0.06835029 -0.27391002  0.01445111  0.03491991
  0.32187155  0.08723402  0.10617416  0.02309202]
[-0.05077482  0.18791822 -0.2574813  -0.04344111 -0.13002215 -0.2846845
  0.19586569  0.21524198 -0.29705146  0.09873091 -0.01940253  0.24905246
  0.01594223 -0.09778593  0.00280702  0.33821657  0.00325326  0.2541782
 -0.08777569  0.1296006   0.09657335  0.20860703  0.17500092 -0.02999485
 -0.3277822   0.31115592 -0.25421548 -0.3300228   0.06637571  0.0354166
 -0.09124672  0.3256254   0.17356052 -0.2593708   0.25751954  0.13770123
 -0.13850296 -0.4694623   0.35433143 -0.08440282]
[ 0.23724309 -0.00397503 -0.21751264  0.11597064 -0.13770296  0.13558987
 -0.19900113  0.10451164  0.12129569 -0.12258403 -0.1393443   0.35672158
 -0.12936765 -0.2386957   0.09143458 -0.13796191  0.12182035  0.13778554
 -0.17531736 -0.24077846 -0.10924236  0.03803406  0.2528344  -0.07876072
 -0.12858838 -0.00203382 -0.32016456 -0.00308369 -0.05488142 -0.20168242
 -0.13541624 -0.04742235  0.03984702  0.23381683 -0.1866773   0.22885142
 -0.12333559 -0.25868702  0.00233048  0.01796732]
[ 0.27257547 -0.09448762 -0.23154888  0.05343796 -0.24168855  0.03209941
  0.12522753 -0.01944143  0.14813672  0.00572249 -0.22534107 -0.28680903
 -0.09062776  0.20560786  0.11180934  0.23894529  0.17869374  0.29270428
 -0.27531263 -0.23138282  0.18362187  0.1595873   0.09486075  0.10640755
 -0.16160007 -0.27726933  0.13794954 -0.15766425 -0.11251098 -0.25180617
 -0.18024662  0.07546383 -0.21436945 -0.19106191  0.31198022  0.2916518
  0.0687589  -0.05471693 -0.18263647  0.14557119]
[-0.08747295 -0.13456817  0.13967805  0.13140981  0.08136634 -0.2975682
  0.22313337 -0.13962151 -0.08142924  0.01806288  0.20655563 -0.17787571
 -0.1114972   0.070642    0.15279569  0.308769    0.18364489  0.25263804
  0.2499869  -0.19358045  0.24139693  0.10631337  0.07834426 -0.01894392
 -0.2401268  -0.26580513 -0.21153069  0.1460114  -0.19190465  0.15255249
 -0.19651458  0.0667663   0.2751558  -0.18693615  0.23268978 -0.28718725
 -0.04651559  0.29499093 -0.03678353  0.3082009 ]
[-0.14886642 -0.03014848  0.10818068 -0.12672874 -0.03448869 -0.37567642
 -0.1801435  -0.11068607 -0.17934133  0.3712597  -0.07922751 -0.09521284
 -0.22488138  0.09035048  0.20049448  0.23610243 -0.44582045 -0.21785301
 -0.2239335  -0.2085638  -0.2266447   0.4316106  -0.06593101 -0.09951632
 -0.21722847  0.01453566  0.11714441  0.1577508  -0.01425849  0.07910153
  0.19498344  0.17114402  0.00977334 -0.01830709  0.12967263  0.07349601
 -0.19745648  0.16096427 -0.3533748   0.29149172]
[-0.10535455  0.06297064 -0.03127138 -0.08165182 -0.2931267  -0.12101048
  0.20761843 -0.09097787  0.00664887 -0.24141161  0.33144853 -0.12990537
 -0.0677565   0.20241351 -0.13776425 -0.21140254  0.11114205 -0.00591046
  0.07160606 -0.317175   -0.20353709 -0.07387216 -0.30154228 -0.0600427
 -0.18185078 -0.22302215 -0.1270598   0.18565586 -0.0099162  -0.03102426
  0.02529847 -0.16348507 -0.15518683 -0.07412098 -0.07484611  0.2451645
 -0.26183248  0.30305368 -0.20373611 -0.00591414]
[-0.03979456  0.28639227 -0.23454562 -0.16486213  0.07841376  0.13655846
 -0.12461335 -0.22729175  0.33678985  0.29939005 -0.09301142  0.07109327
 -0.02149804 -0.22343771 -0.0389805  -0.22140272  0.05964214 -0.04903888
 -0.12763149  0.16418806 -0.06283334 -0.05724569  0.0231858   0.19751221
 -0.17177014 -0.12425141 -0.21588588 -0.2446193  -0.12918182 -0.21972421
  0.1827848   0.01551738  0.04513387  0.14185561 -0.152438   -0.01457617
 -0.04119432 -0.18550311  0.11235067 -0.2866231 ]
[ 0.06029981 -0.1749603   0.03529358 -0.20332351  0.10467935 -0.19529329
 -0.06828905  0.04372402  0.18893404  0.20323849 -0.16765073 -0.3210946
 -0.22387332  0.24843122  0.21315645  0.24801844 -0.08148877 -0.27695155
 -0.05674203  0.09385771 -0.03060684  0.1562587   0.08058375  0.18129902
 -0.01126589 -0.23091407  0.18826182  0.43894717  0.18839201  0.16710539
  0.11583326 -0.27019477  0.18811636  0.1063508   0.0723533  -0.10050476
  0.27301282  0.30226088 -0.18503743  0.10231065]
[-0.27896795  0.025732   -0.16683252  0.21834302 -0.22545116 -0.18118905
 -0.23359804 -0.12902433  0.17038383  0.114627   -0.21051319 -0.14334476
  0.20289397  0.04892252 -0.2326157   0.15011194 -0.30594447 -0.02024802
  0.01619714 -0.20905794  0.3209279  -0.1547614  -0.10860735 -0.26299948
  0.1140599  -0.06644645  0.04441581  0.46021774  0.16639662  0.01819237
 -0.21615845 -0.25320533  0.19716875 -0.15859853 -0.15547213  0.18287657
 -0.02978304 -0.17937395  0.09960254 -0.15002167]
[-0.14350642 -0.20092855  0.1212792  -0.3571283   0.03494587  0.16454661
  0.32567444  0.14641662  0.328889    0.08507799  0.17031215  0.04439553
 -0.04819742  0.22297208  0.19612312 -0.19806728  0.25421092 -0.37813467
  0.01983206  0.19437738  0.16345383  0.02460761  0.08100369 -0.10473974
  0.17458148 -0.24955367  0.21298285 -0.15150069 -0.05790378 -0.09542751
 -0.11674502  0.00358109  0.07839859 -0.22642651  0.20022777  0.02918742
  0.25584403  0.03051075  0.2727907  -0.15348165]
[-0.18213037  0.04174205  0.0168332   0.03582505 -0.26644662  0.33717054
 -0.23164134  0.16262278  0.19704416 -0.16628934  0.26523465  0.16973504
  0.21028951  0.1310663   0.0753726   0.09108142  0.35399917 -0.22037882
  0.15417275  0.04265002 -0.06112801 -0.06555822  0.10516332 -0.25030568
  0.2521973  -0.14352831  0.24382748 -0.12844627  0.21705787 -0.08847866
 -0.07782085  0.17696577  0.03594726  0.07548991  0.26100925 -0.28796628
 -0.334264    0.23003529 -0.2581486  -0.12828885]
[-0.25054175 -0.09877202  0.12304484 -0.24767005 -0.05157137 -0.2730038
 -0.235891   -0.2586275   0.16538666 -0.16288005  0.22557147 -0.33627412
  0.08898567  0.00119846  0.28805545 -0.15445045 -0.04343356 -0.17137145
 -0.19063571  0.06560699 -0.03961669 -0.14696129 -0.30963644 -0.20152895
 -0.12721959 -0.02875401 -0.26992363  0.2971658  -0.16410759  0.02155829
  0.15270418 -0.24441606  0.07570201  0.17956573 -0.02246802  0.33654732
  0.1467273  -0.2155307  -0.07405458  0.10104322]
[ 0.19938983  0.13243067 -0.03062508 -0.2281213   0.05075535  0.05366936
  0.02861221 -0.10770207 -0.19856207 -0.01780605  0.21161559 -0.04589896
  0.14906608 -0.01028687 -0.03188883 -0.15798527  0.16546822  0.09983378
  0.26093832 -0.13931036  0.27163127  0.14631517  0.17018357 -0.09009762
 -0.12855594  0.04470528  0.0586338   0.20001844  0.16345236 -0.04430516
 -0.24891153  0.07913442 -0.2670374   0.27423665  0.11383067 -0.15213239
 -0.33037853  0.03475472  0.19543952  0.14510584]
[ 0.03782181  0.01429911 -0.11184605 -0.17803155  0.11037658 -0.11599182
  0.16714808 -0.1692775  -0.05312711  0.1121605  -0.22415084 -0.01586027
 -0.27659518 -0.07646649 -0.21056306 -0.30018595 -0.01609595 -0.03014991
  0.1443825  -0.16010277 -0.03260436 -0.13773753 -0.30221242  0.02076185
 -0.09180772  0.03868574 -0.00060699 -0.01696386  0.09295654  0.15584241
 -0.25539407  0.24454872  0.11091979 -0.29293054  0.15386474 -0.07394967
 -0.35059354 -0.03422831 -0.17085658  0.163248  ]
[-0.0140325   0.07142722  0.01865431  0.0322287   0.03874766 -0.02527207
 -0.02967395 -0.01790423  0.04504452  0.1208076  -0.01880576 -0.01842765
  0.01965357 -0.06072129  0.0210261  -0.02007136 -0.0428814  -0.02852742
  0.02689266  0.02828486 -0.02486757 -0.01294368  0.1174576  -0.00944514
  0.00873419  0.03797512 -0.04852777  0.07357454  0.02867014 -0.06716855
 -0.02506161  0.03143127 -0.05838632 -0.03087918  0.08582568  0.02887834
  0.04575269 -0.06135064  0.03104304  0.07446808]
layer 3 Activation
tanh
layer 4 Dense
40 20
[-0.17291756  0.104825    0.09707397  0.18256855  0.05744623  0.04134024
  0.137479   -0.08775385  0.1588303  -0.11292028  0.1879619  -0.24211931
  0.24519834  0.19748133  0.0272153  -0.21538681 -0.20016974  0.13409702
  0.12834163  0.13322712]
[-0.10072948  0.07709885  0.0090057   0.14749183  0.07393216  0.2161334
 -0.20365283  0.04142135  0.1960757  -0.29727495 -0.03469948 -0.27687478
 -0.09056919  0.2606481  -0.0741252   0.01099963  0.14060542  0.11296625
  0.00328193 -0.04962582]
[-0.2550081   0.03585069 -0.25324976  0.15010633 -0.2833853  -0.16517292
 -0.19756131  0.05811958  0.08448164  0.00989825  0.06174884 -0.14544192
  0.31256893  0.29685903  0.31101266  0.10516826 -0.0526898  -0.01932878
  0.2595269   0.28299993]
[-0.22321723  0.11403637 -0.08687925 -0.09919126  0.04619841 -0.27181464
 -0.20045741 -0.08814739  0.04986849  0.23210363  0.10713989 -0.18637887
  0.27308387 -0.11419682  0.28471565  0.114803    0.31647706 -0.15605423
  0.13446538  0.06517539]
[ 0.06813759  0.11126972  0.21546914 -0.14265856 -0.2777203   0.2899754
 -0.11657725 -0.22397865  0.08588895  0.03237092  0.02929533 -0.17787471
 -0.27213645  0.20878235  0.02494498 -0.03878777  0.06724744  0.01405842
  0.29190186  0.12970668]
[ 0.26412898 -0.17622913  0.02093987  0.1939946  -0.15662742 -0.2877255
  0.25406295  0.034302   -0.26310447  0.06041846 -0.0081185   0.25590748
 -0.325357   -0.1437079   0.22874527 -0.23008315  0.29419363 -0.20605583
 -0.10963448  0.13388358]
[-0.27202803  0.00948695 -0.05647399  0.24521875  0.26276875 -0.17860718
 -0.0899222  -0.2755703   0.19509156 -0.18137458  0.01152511  0.19536759
 -0.20124152  0.24611181  0.1074728   0.2028486  -0.19046085 -0.30702037
  0.01502911  0.0923183 ]
[-0.15881166  0.05619786  0.23922502  0.05869487 -0.16112316  0.13447236
 -0.26894522  0.12332808 -0.0969027   0.04848529 -0.11011788  0.11766701
  0.00816198 -0.03042213  0.17043753 -0.29170138 -0.03213545  0.02027441
 -0.31081423 -0.03605765]
[-0.0741315  -0.17805617 -0.2762672  -0.11660776  0.11524813 -0.05940048
 -0.24955355 -0.05788516 -0.18453471 -0.21307263  0.281241   -0.31148094
 -0.08777292  0.10331837  0.26662725  0.19059382 -0.11548853 -0.00035251
  0.01353925 -0.01879276]
[-0.02697502  0.1446153  -0.23902085 -0.1161708   0.0916841   0.0426417
 -0.2659521   0.13595745 -0.20386438  0.19153295  0.21044593 -0.25250536
 -0.08886375  0.13407004  0.13410446 -0.34833178  0.24467233  0.21725991
 -0.00788797 -0.3028575 ]
[ 0.1154784  -0.15398373 -0.15629502  0.06997562 -0.13331708 -0.20597607
  0.32908255  0.04104323 -0.21082748  0.18086416  0.01834347  0.20880866
 -0.13891147  0.2517753   0.14694832 -0.26410744  0.17925778 -0.06565406
  0.36671174  0.14056106]
[-0.03598176  0.33210263  0.18873814  0.2838715  -0.20077108 -0.27673638
 -0.00867145  0.01254479  0.19963357  0.10621534 -0.0721259   0.22670858
  0.28572932 -0.14038944  0.14445564 -0.03518521  0.24064504  0.07269003
 -0.14784597 -0.09863948]
[-0.09737395  0.05162369 -0.31311497  0.07220867 -0.0350693   0.27256927
 -0.21209186 -0.07627756 -0.08006687  0.13426799  0.2840821  -0.05619901
 -0.25987062  0.05405392 -0.25904536  0.04660029  0.2713837  -0.22996083
 -0.04550866  0.08175635]
[-0.1007279   0.06988498  0.01807769  0.13220006  0.05003099  0.0112888
  0.08033412  0.3160828   0.05573869  0.17065546 -0.05763794  0.01950031
 -0.05617451  0.07026956 -0.20375904 -0.45298153  0.07202747  0.17630063
 -0.1455794  -0.22614254]
[-0.01178925 -0.09484183  0.20812781  0.1709811   0.16648336  0.2387037
 -0.23946173 -0.00740177  0.04718234 -0.04170961  0.09635329 -0.17938569
  0.19544278 -0.13223906 -0.25634304 -0.12341077  0.33592165  0.23287113
 -0.1223063  -0.06423051]
[-0.08054083  0.05601081 -0.23323461 -0.22590907 -0.17618623 -0.19169241
 -0.14928061  0.17562282  0.16869591 -0.13732983 -0.07707489 -0.00404028
  0.10248833 -0.12102057  0.19856578  0.28238252  0.29903668  0.1634819
 -0.06319417  0.21821283]
[-0.16347225 -0.3021608  -0.24284627  0.16058564 -0.06736292  0.04053257
 -0.1817597  -0.06432385 -0.10055099 -0.06013255  0.30920225  0.05997709
 -0.15737066 -0.08199234 -0.15424076 -0.02092956 -0.06818768 -0.31392333
 -0.28633252 -0.10221095]
[-0.11763994  0.3079971   0.26908115  0.15175438  0.30179018  0.2757036
  0.02035873 -0.24443021  0.30964947  0.14603391 -0.13837786 -0.07906561
  0.2004767   0.08805316 -0.03800781  0.05882159  0.13445206 -0.09797104
  0.21301337  0.08280993]
[-0.18589677  0.11574426  0.29051524  0.04929176 -0.34621948 -0.01865165
 -0.06766239  0.16636762  0.17181386  0.21506986 -0.04780713 -0.23876712
  0.22364552 -0.2468844   0.12507428  0.04860436  0.2547087   0.12941122
  0.11484558  0.23385505]
[-0.05906459  0.28346512  0.16142718  0.16778424 -0.10808454 -0.17364545
 -0.3005762   0.02924253  0.31217885  0.18131228 -0.12060069  0.08373369
  0.05157213 -0.16250077 -0.06527523  0.1383625  -0.05272799 -0.04753023
  0.3078117   0.04327523]
[ 0.19083539  0.26374188  0.20505184  0.1013376  -0.05718513  0.24839322
  0.00246836  0.1295728  -0.05576917  0.01277685 -0.15250011  0.01449141
 -0.07144138 -0.12841462  0.00747449 -0.19068615 -0.3666692   0.1614609
  0.24046962  0.09792643]
[ 0.2499373   0.2851696   0.05393899  0.06395149  0.2625237  -0.1008063
  0.1519076   0.21635483  0.0615468   0.2956753   0.03908083 -0.05724454
  0.289506   -0.2591079   0.00721864 -0.23925877  0.12435902  0.23109482
  0.08881845 -0.24743982]
[-0.24271747 -0.04433193 -0.28860164  0.18902768  0.20369713 -0.11226659
  0.09239123 -0.20564964 -0.07817733  0.22152714 -0.13262336  0.12881824
  0.0861793   0.01432113 -0.15142542  0.17949921  0.0906212   0.29186952
 -0.26144364 -0.16224468]
[-0.1152638   0.11139452 -0.01818356  0.39978462  0.12229509  0.06178247
 -0.15847266 -0.36144373 -0.2927079  -0.00299984  0.11498082  0.19874173
 -0.08581014  0.00634459 -0.03011381  0.24210441  0.14793333 -0.31778237
  0.20259514 -0.33408338]
[-0.06586251  0.13100448  0.1558513  -0.24168983 -0.26939544  0.02640046
  0.28831944 -0.24974786 -0.24545737  0.24379799 -0.04598964 -0.01092353
 -0.23470204 -0.28433436 -0.11731957 -0.35364985  0.08425552 -0.26499063
 -0.25457752 -0.00969766]
[ 0.2194429   0.19165258 -0.17863531 -0.06042797  0.1692239  -0.25975424
  0.15677203 -0.21827021  0.0887062  -0.07637426 -0.00573854 -0.27003863
  0.00711351 -0.17414345 -0.0845541   0.18049033  0.28315032  0.20053972
 -0.23503473 -0.10469098]
[ 0.08163567  0.01647629  0.06728471  0.11523299  0.1310658   0.25497603
  0.10623501  0.2152193   0.09347828  0.20205675  0.13909662 -0.02489638
 -0.19442715  0.07936893  0.2200262   0.12860323 -0.2628986   0.16451973
 -0.23098426  0.1662548 ]
[ 0.2208579   0.10290572 -0.01218623 -0.29684344 -0.16011737 -0.21360578
  0.1787452   0.11835404  0.14386597  0.12710297 -0.22316965 -0.21750017
 -0.16285658 -0.13030253  0.11276969  0.07811126 -0.12457906  0.24610876
 -0.06082163  0.27066845]
[ 0.19464946  0.1265571   0.20559548 -0.08078338  0.23870361 -0.18926328
  0.1629599   0.01186639  0.06590112  0.21294907  0.01410375 -0.07409173
 -0.10921396 -0.0430195   0.30682188  0.17853668  0.22185221  0.10312056
  0.24340247 -0.165361  ]
[ 0.05128935 -0.16481724  0.1222878   0.02014195  0.00426734 -0.19112772
  0.256512   -0.28770602 -0.15249081 -0.18998915 -0.22282957  0.27738515
 -0.04955633  0.1695474  -0.13983156 -0.17300588 -0.19749707  0.21619895
  0.02896304  0.15857866]
[-0.0507105   0.22037487  0.02525709 -0.00995067 -0.21830365 -0.07125646
  0.18014666  0.12900928 -0.18397637  0.27772108 -0.11005933  0.19896688
  0.01143849 -0.01834144  0.15482509 -0.19227096  0.03570864  0.10137903
 -0.05765292  0.1104925 ]
[ 0.17927422 -0.2777689   0.11593792  0.2043213  -0.30680028 -0.14977862
  0.16332854 -0.17857754 -0.19825886 -0.1439085   0.2301951  -0.21673998
  0.17604065  0.13505954  0.29777405 -0.12153529 -0.10023104  0.17908284
 -0.09706174  0.20266224]
[-0.02357784  0.3003659   0.24878745 -0.05163993  0.08091372  0.08304038
  0.11433943  0.14338982  0.1905457  -0.04127654  0.21253504 -0.06742907
  0.21764652  0.23132755 -0.1995092  -0.13198067 -0.00832422 -0.24486333
  0.13723907 -0.01530251]
[-0.06359689 -0.10367507  0.26089293 -0.1616804   0.0238363   0.01271734
  0.17214246  0.20517258  0.25528342 -0.02357611 -0.08583663  0.08547796
  0.29952115 -0.17319176  0.03479133  0.10227058  0.20737135 -0.03793352
 -0.30037898 -0.054281  ]
[ 0.05991058  0.13062148  0.13442986 -0.25764138 -0.28645036  0.0294586
 -0.2303682  -0.24370493  0.08676086  0.09852435 -0.18064994  0.05434089
 -0.2361476  -0.14068376  0.17455554 -0.09687933 -0.2554922   0.22246647
 -0.28849643  0.1702145 ]
[-1.0088282e-02 -2.2438957e-04 -1.9768026e-01  8.3701469e-02
  2.0061907e-01  5.3225517e-02 -1.3013801e-02 -2.5246757e-01
  2.9434335e-01  1.8376641e-01 -8.7656125e-02  4.1494150e-02
  7.2549731e-02 -1.0829523e-01  2.7698788e-01 -2.9478818e-01
 -3.6835440e-02  2.9836389e-01 -7.0104308e-02  5.8817383e-02]
[ 0.2603153  -0.28329748  0.13343196 -0.24745874 -0.3359298  -0.20850731
 -0.40957287 -0.4499637  -0.04062571  0.3178011   0.13650484  0.24516426
  0.23944055  0.01197603 -0.23613398 -0.12352096 -0.03251166  0.21051598
  0.14766766 -0.16911092]
[-0.14053226 -0.3088913  -0.10624276  0.00118887 -0.10139439  0.04984148
  0.36651227  0.27907827  0.0228107   0.03465766  0.06339987 -0.06327137
  0.1481663   0.22478154 -0.2612797   0.05309128  0.25780448  0.01442426
  0.10593333 -0.2986281 ]
[-0.21484351 -0.08400288 -0.09099662  0.27971235  0.1940865   0.19706528
  0.11150189 -0.26888216  0.09120949 -0.28054106 -0.2606827  -0.16621229
  0.2594939  -0.21980242  0.19486646 -0.22556742  0.02625953 -0.1425346
  0.03302216  0.04432797]
[ 0.08777179  0.18128052 -0.10373079 -0.08423502  0.01009074 -0.14009751
  0.06353106 -0.20179945  0.21177295  0.12973653  0.07278267 -0.2707929
 -0.18506315  0.26664624  0.11743158 -0.17800319  0.17747189  0.19876093
  0.04943189  0.13351636]
[ 0.02746173 -0.01039929  0.01017888 -0.00291121 -0.03196587 -0.00366769
 -0.03871952 -0.04671955 -0.02050674  0.03500235 -0.02204042 -0.04370456
  0.00517272  0.00646057 -0.01113467  0.04195776 -0.01732519  0.01449274
 -0.03000056 -0.01885759]
layer 5 Activation
tanh
layer 6 Dense
20 1
[-0.32760128]
[0.27100518]
[-0.01813813]
[-0.21191365]
[0.00332408]
[0.0205635]
[0.19191083]
[0.14961362]
[0.0057841]
[-0.29514763]
[0.35367942]
[0.39529553]
[-0.31072718]
[-0.3311785]
[-0.00634042]
[0.00223277]
[0.11249265]
[0.3696715]
[0.08153775]
[0.00099892]
[-0.01884835]
