layers 7
layer 0 Dense
20 20
[-1.1181192  -0.8087609   0.6328996   0.35059375 -0.03320271 -1.2253131
  1.2998923   0.4158494   0.05512095  1.1554073  -0.86096907 -0.4407424
 -0.38322315  0.35080242 -0.08302218  0.6926417  -0.10859867  0.33163726
 -0.3299835  -0.7569909 ]
[ 0.41805124 -0.48196545  0.19852985  1.0480466  -0.7771362  -1.4758602
 -0.14720252 -1.8747196  -0.4815589  -1.2698718   1.1782885  -0.24015099
 -1.2380348   1.7375646  -0.4087846  -1.3273519  -1.2093221   0.89850056
 -0.4300922   1.13605   ]
[ 0.5370485  -0.49010614 -0.2739126   0.49096867 -1.1704336  -0.8765743
 -0.23206319 -1.5610442  -0.26374587 -0.94690996  1.621721   -0.724342
 -1.4303181   1.7445621  -0.83998257 -0.9412229  -1.2146279   0.77707344
 -0.12461039  0.9218368 ]
[-1.1663855  -0.11963078  0.80476433  0.25415632 -0.32505068 -0.99499595
  1.9845546  -0.29014444  0.23278283  1.0637023  -0.566751   -0.7130475
 -1.0037026   0.55892366  0.05071633  0.5000734  -0.06208356  0.19567119
 -0.8029484  -0.6600828 ]
[ 0.13416228 -0.7500569   0.5262166   0.12612978 -0.34650692 -0.77238
 -0.22580698  0.29214695 -1.2184541  -0.3837854   0.90711313  0.36018676
  0.12570877 -0.22769979 -1.0796126  -0.5228079  -1.9131185  -0.6889956
 -0.19559184  1.0856985 ]
[-0.6477317   1.050595   -0.00565076 -0.46904865  1.189596    0.9344477
  0.01747082  0.76897377 -0.06353872  1.6838546  -1.5503477  -0.07852855
  1.0626887  -2.1637323   0.79098886  1.0586962   0.740386   -0.8093237
  0.06884571 -1.6094193 ]
[-1.4456161   1.0741872   0.26101708 -1.07517     0.88992727  0.9556356
  0.43042237  1.0095334   0.21246356  1.1650398  -2.2405922   0.00662981
  1.0670179  -1.8781435   0.36838472  1.370416    1.064305   -0.53252566
  0.6174322  -1.3664497 ]
[ 0.8752613   0.30351585 -0.72254443 -1.9160951   1.8197575   0.8688679
 -1.4247589   1.306416    0.927877   -1.5322003   0.32589018  1.7317423
  2.6966205   0.2610214   1.0200403  -1.5741022   0.99518263 -1.5483185
  2.0697641   0.42329505]
[-0.12733412  0.23266388 -0.17547013 -1.0329957   0.8069235  -0.98003125
  0.0370445   1.1161523   0.02516554 -0.56271696  0.19078588  0.19279346
  0.84831226 -0.05286617  0.84687877 -0.5125563  -1.6916015  -1.3306372
  0.28644636  0.5985984 ]
[ 0.40817532 -0.8311817  -2.5005107   0.17479561  0.46882954  0.14015876
  0.09776727 -0.00465275  0.24329792 -0.29613525 -1.6090057   0.32203805
  0.92133415  1.8332431   0.2948945   0.17556064 -0.63079137  1.2464203
  0.44253346  0.1910617 ]
[ 0.16148123  0.29701018  0.3138559   0.10249373 -1.829091   -0.07861175
  0.0443773   1.1222862   0.44924024  0.11122799  0.46732304 -0.11945726
  0.20262922 -0.23606806  0.8384559   0.32170153  0.36670998  0.34733218
  0.30622727  0.96843326]
[-0.15994628  0.22239189 -0.6993883  -1.0218283   0.97329354 -0.39968446
  2.307142    0.70250577  1.2908553  -0.5210925  -1.3442874   0.5032092
 -0.19822988  2.2046728   0.88860697 -0.5350613  -0.11407567 -0.37780714
  0.4680407  -3.1058588 ]
[ 7.7338362e-01 -1.2717358e+00  9.1002113e-01  4.7678258e-02
 -6.9277573e-01 -9.6805674e-01  7.7732390e-01  2.0822078e-01
 -1.9607239e+00 -4.8341841e-01  9.5418197e-01  3.2197854e-01
  3.5789478e-01 -9.1262871e-01 -2.5374761e+00 -7.4022025e-01
 -1.4122000e+00  2.0297025e-03  4.0068495e-01  7.0709997e-01]
[-0.23456627 -0.9744914   0.80053097  0.9329586  -0.8735986  -0.4647903
 -0.47127947 -0.9763737  -0.21943915 -0.2345532   1.4100252   0.0144839
 -0.6515095  -2.012621    0.41757214  0.05434271 -0.12639093  0.32487372
 -0.31585756 -0.36318293]
[ 0.11076686 -0.44591767 -0.9026728   1.7419512   2.2378569  -0.36821756
  0.9142004   0.9167366   0.8641493  -0.41463837  0.01463628  0.21235178
 -1.4635121   0.14482066  0.95598763 -0.13765505 -0.5835782  -0.3970092
  0.40567082 -1.0150746 ]
[-0.13852033 -0.6717373  -0.11661355 -1.6746864  -0.24145132  0.15169407
 -0.0742818  -0.32191488 -1.6813548   0.344902    0.7742138   0.6135629
 -0.61053604 -0.80073655 -1.9197775  -0.38743544 -0.11111045 -1.2388158
 -0.40111917  1.4359955 ]
[ 0.12739855 -1.42918     0.5198193   2.6955585   0.11800569 -1.7079175
  0.16709861  1.3180166  -4.311756    0.00989631  0.10337844 -0.32291198
  1.330246    0.66899973 -3.3681943  -0.2197937  -1.3157697  -1.4321891
 -0.01022416  1.2604773 ]
[ 0.3367649   2.3113947   1.9004841  -1.7527292   0.17869027 -1.2034448
  0.50993925  1.5706371   0.17352277  0.08749343 -0.6854934   0.28410202
 -2.128407    1.4254183  -0.73833984 -0.17629595 -0.8758831  -2.2327828
  0.4977437  -0.07960104]
[-0.16902618  0.7988853   0.05568811  0.0246617   0.78175896  0.19899073
 -0.51491654 -1.7460359  -0.6706979   0.18544881  0.14849295  0.19057868
  0.53101385 -0.04720127 -0.9561969  -0.16563667  0.12525345 -0.87687224
  0.25509712 -0.78924364]
[-0.00820259 -0.74285424 -0.17175677  0.5342423   0.8793655  -1.3934087
 -0.6616363   2.2140918  -0.03366265 -0.04430156 -0.19781813  0.5999603
  3.1393473   0.5740304  -0.57847756 -0.23071392  0.43278328 -1.0323489
  0.75778717 -0.53759426]
[-1.305469   -0.05872514  0.3203113   0.8019307  -0.9376306  -0.45044458
  2.3226686  -0.8492677  -0.0043563   1.3115491  -1.0922887  -1.2607282
 -1.846837    0.38037828 -0.11958563  1.3215431  -0.52335334  1.2845017
 -1.08381    -1.4260353 ]
layer 1 Activation
tanh
layer 2 Dense
20 40
[-0.40770158  0.2152722  -0.00968196  0.4024533  -1.1545244  -1.0385202
  0.72770846 -0.72670084 -0.9639096   0.20772906 -0.46961614 -0.70131165
 -1.0464025  -0.9149232   0.49286598 -0.9224178  -0.54913664 -0.9281281
  0.71581715  1.1162214  -0.33339253  0.3155957   0.6346904  -0.6207775
  1.0826834   0.79613334 -0.5964613   0.43962798 -0.5840856   0.28998995
  0.14403091  0.9804152  -0.7527807  -0.23593925 -0.5148643   0.82014126
  0.8011646  -0.61266977 -1.1928473   0.58394885]
[-0.3406727  -0.57048887 -0.66283655  0.02721103 -0.811328    0.12295844
  0.53603214 -0.31396908  0.65990835  0.0142506   0.14994599 -0.59907
 -0.03104422 -0.05139618 -0.9695577   0.09641302  0.03238926 -0.6009995
  0.04368114 -1.1501302  -0.1563     -0.40176162 -0.72597796 -0.03297509
 -0.8689815   0.19319229 -0.4776411  -0.5535238  -0.19663352  0.54283285
  0.6024012   0.21898071 -0.2957911   0.71415406 -0.99599975  0.5716549
  0.17654897 -0.38492033  0.22676314  0.13838369]
[ 0.21927083  0.41778895 -0.01941348 -0.96953547  0.6248026  -0.03009075
 -0.42617825 -0.27337775  0.3920564  -0.17589265  0.56514984  0.44457948
  0.8622148  -0.8108794  -0.07835727  0.27196053  0.30620202  0.5806341
  0.09744538  0.38645723  0.08868577 -1.2431313  -0.23820452 -0.23197173
 -0.54692096 -0.21336687  0.07089253 -0.0159602   0.3797042   0.57259494
 -0.08372226  0.25288707 -0.39614385 -0.6311743  -0.16570397 -0.7891913
 -0.42645046 -0.33314493  0.7673369  -0.35492864]
[-0.00239479  1.2247941  -0.11998791 -0.36998144  1.0482074   0.3552226
 -1.003709    1.0432013  -0.21117458 -1.4212561  -0.06210683  0.4331795
  1.3340669   1.6010895  -0.65888566  0.34818205 -0.32916063  0.34148884
 -1.3988439   0.33858386  0.25339147  0.09942103 -0.9937251   0.4524841
  0.04489591 -1.4204843  -0.12084029  0.14187808  0.49039125 -0.7018173
 -1.4618218  -0.33599257  0.61855674 -0.18472777  0.45392728 -0.9710463
 -0.34983832  1.3588436  -0.13342798 -0.20634572]
[-8.5816634e-01 -1.3846278e-02 -1.8697858e-02  2.6713831e+00
 -5.8880287e-01 -6.6644174e-01  4.8159704e-01 -3.9308807e-01
  2.3141882e-01  6.5790540e-01 -2.3330043e-01  3.4969471e-02
 -1.7140115e+00  2.1294934e-01  5.2775043e-01  5.0298665e-02
 -2.2549531e-03 -7.6992744e-01 -8.3244637e-02 -3.2172582e-01
  2.1324362e-01 -5.0815326e-01 -3.9052784e-01 -4.5184806e-01
  1.1851926e-01  1.2112204e+00  5.1525301e-01 -1.2303209e+00
 -1.4084383e+00 -3.9835888e-01  8.4222430e-01  6.8522781e-02
 -5.2186084e-01  5.4195203e-02  6.8100744e-01  8.6465263e-01
  1.3895128e+00 -8.6706781e-01 -3.4497565e-01  3.9350247e-01]
[ 0.08897509  0.40578687  0.54242027  1.355845   -1.0142845  -0.06417216
  0.3609707   0.04237249 -0.38088217  0.07448704 -0.3784808  -0.3485634
 -1.0029477  -0.0029435  -0.2809855   0.06792478 -0.16744483 -0.34561664
  0.10852251 -0.31943196 -0.21113238  0.35835293  0.23949665 -0.19442089
  0.21893348  0.42184675 -0.15414812  0.05611062 -0.37261623 -0.459952
  0.65214115  0.37009257  0.23268542  0.54069996 -1.7271665   1.0035018
  0.33385113 -0.3171522  -0.3726058   0.06388395]
[ 0.53653383  0.56154174 -0.08460731 -0.06862547  1.0465288   0.32171744
 -0.5860992   0.50708276  0.9312507  -1.4779446   0.57196355  1.334935
  0.6634487   1.5475812  -0.43017644  1.1554008   0.41749132  0.54666203
 -1.2158139  -0.8953087   0.82579225 -0.9273317  -0.86364317  0.96224844
 -0.82672626 -1.0206304  -0.20731016 -0.49384317  0.19661453 -1.6065301
 -1.2859006  -0.8031309   0.43835393  1.7607362   0.33157095 -0.65782297
 -0.29893893  1.136048    0.66092753 -0.4618365 ]
[ 0.6381649  -0.19736604 -0.93000054 -0.4014366   0.2690111  -0.48053616
  0.30609787 -0.46242476 -0.7295053   1.3909416  -0.10513592 -0.21214147
  0.23093586 -0.54269195  0.2730065  -0.4289678  -0.09427509 -0.24434954
  1.369421    0.4651384   0.29530576 -0.06666952  0.44955713 -0.02519404
 -0.24302846  1.0283605   0.51929647  1.0066758  -0.77086645  0.50355583
  0.48584104  1.144526   -0.08504309  0.52335703  1.3553138  -0.44296882
  1.7562299  -0.7418766  -0.2349223   0.32819888]
[ 0.2539653   0.931914    0.5251729   0.4510521  -0.57767344 -1.2816317
  0.5705986  -0.5770884   0.16941041  0.8034315   0.04319853 -0.62507886
 -0.33272913  0.27099803  0.16104251 -0.24375191 -0.665009   -0.70055896
  0.4009029   0.20578714 -0.76648784 -1.2562234   0.7054416  -0.9916759
  0.45512602  0.04612936 -0.62275934 -0.01826032 -0.8110242   0.25949317
  0.70578223  0.64179206 -0.68831843  0.37654755 -1.0074415   0.6931685
  0.8806061  -0.34458366 -0.10344221  1.0160588 ]
[ 0.3369681  -0.66699225  0.7489383  -0.30478758  0.6256412   0.9327014
 -0.35916597  0.47903657  1.5091058  -0.73539436  1.6386936   0.44251958
  0.92326146  0.70528114 -1.0706898   0.91921157  0.5901927  -0.17560527
 -0.42791608 -0.63599557  0.27400872  0.06487136 -0.75141937  0.75937974
 -1.4436725  -0.8966913   0.39206055 -1.3094859   0.55063653 -0.4069155
 -0.5782106  -0.76171887  0.16193445  0.73273176 -0.03963569 -0.90128106
 -0.8722479   0.5580561   1.2223803  -0.29551268]
[-2.3324833   0.5858074  -1.1138946  -0.44173208  0.30561134  0.18264851
  0.07614929 -0.37887502 -0.12351875 -0.14636274 -0.6722327   0.27655432
  0.02661162 -0.42636886  0.29284123 -0.34090552 -0.06374215 -0.56968796
  0.28229997  0.21458125 -0.07981504 -1.0207912   0.62954485 -0.49237856
  0.474534    0.47713795 -0.33897504  0.8333162  -0.90493405 -0.24237855
  0.19206251  0.09330238 -0.32407755 -2.2251818  -0.22054856  0.0893356
  0.74481404  0.465776   -0.7098462  -0.12319328]
[-0.0273628   0.70810443 -1.0613505   0.3296497  -0.57867026 -1.1183097
  0.92341405 -0.7476025  -0.04876929  0.56405425 -0.40077108 -0.30036438
 -0.47476122  0.11965749  0.46006438 -0.23291461 -1.195005   -0.05126476
  0.46666777  0.45387593 -1.1888173   1.1535709   1.211497   -0.8282879
  0.5396869   0.6872907  -1.2447196   0.59050745  0.05915363  0.18542697
  0.31970286  0.40205258 -1.0622336  -0.25878498 -0.16311483  0.8796162
  0.3084342  -0.3446168  -1.0140353   0.63303727]
[-0.7825127  -0.82676816  0.41684082  0.9775849  -0.5837581  -1.0646341
  0.81781876 -1.7592661  -0.12370524  1.497436    0.20305835 -1.2988632
 -0.70728654 -2.4381466   0.04164482 -0.30063036 -0.6777398  -1.2483993
  1.0191057   0.28828433 -0.44859874 -0.5309182   0.38921157 -0.92221797
  0.36939794  1.8814995  -0.4426468   0.16371775 -1.1128502   1.1251796
  1.8667      1.5124176  -0.45993707  0.24411936 -0.03747759  0.23401764
  2.1510036  -1.9539711  -0.30376416  0.7978153 ]
[ 1.9253019  -0.22505718  0.5533697   0.15617448 -0.1833642  -0.27655482
 -0.07959696  0.02000439 -0.34881446 -0.4999462  -0.76091254 -0.29846066
 -0.0766657   1.3598536   0.27270636 -0.3517794   0.089444    0.05124622
 -1.406362    0.8521891   0.03209796  0.5951031  -0.21850894  0.1409186
  0.43158582 -0.13532326  0.01621188  0.19931874  0.00468527 -0.86246717
 -0.49322072 -0.35834107  0.314292    0.99265236  0.45423308  0.281591
  0.03792622  0.5744372  -0.56220543  0.37495625]
[-0.28816488  0.2811224   0.6133298   0.3883859  -0.40438968 -0.93350995
  1.0877713  -1.4472998   0.44959325  0.48218924 -0.16547038 -0.11841889
 -0.7325832   0.08969622  0.41687974  0.00479451 -0.2868398  -0.258166
  0.6187605  -0.38344765 -0.40760377 -1.9685044   0.8458662  -0.7650157
  0.13719924  0.5434154  -0.30553773 -0.13810563 -0.5646018   0.30864212
  0.48942485  0.41741627 -0.525814   -0.10126087 -1.7713532   0.79734725
  0.77042496 -0.69612914 -0.62759477  1.076603  ]
[ 0.6242688  -0.39932877  1.1536142  -0.18359543  0.7979707   0.9825298
 -0.5038035   0.65065074  1.2418526  -0.31223795  1.8908526   0.65744114
  0.7440282   0.1766528  -1.3277184   0.9405372   0.49081984  0.35952386
 -0.76923025 -1.0802449   0.11624657  0.26080757 -0.9545625   0.4361357
 -1.0257311  -0.5341849   0.25735757 -1.5246773   0.5455621  -0.15724054
 -0.7441018  -0.88443303  0.7452639   0.48981416  0.1702498  -1.0995737
 -0.2879341   0.702867    1.2422643  -0.8621517 ]
[ 0.96209896 -0.22767271  1.8244855  -0.1389382   0.45062858  0.1412743
 -0.11197516 -0.1545725   0.3373516   0.03821157  0.282392    0.51655513
 -0.58986664 -0.3488462  -0.7945669   0.3959389   0.6363199   0.86958855
  0.25571018 -0.22881514  1.0214465   0.2463231   0.02524683  0.56199837
 -0.314086    0.3633655   0.8562524  -0.9576267   0.97594714 -0.35413048
  0.41723928 -0.09053882  0.49558276  0.77619207  0.26677555 -0.20683834
 -0.39054307  0.1637411   0.5499783  -0.11285097]
[ 0.15165451  1.7406472   0.9660972  -0.5834035   1.3440068   0.44481742
 -1.2806323   0.8078771   0.7634215  -0.5992547  -0.4267794   1.4946216
  1.3964049   0.6491888  -0.15165144  0.5305732   0.20138346  0.38225347
 -0.9176086  -1.0062863   0.6111202  -0.73676836 -0.44347438  0.49384493
 -0.19311352 -1.1226566   0.05363065 -0.37885803 -0.07620992 -0.96954113
 -1.304659   -0.69913507 -0.23701954 -0.7226819   0.08540985 -1.3040164
 -0.0845297   1.1916519  -0.35280976 -0.7050601 ]
[ 0.34981284 -0.3000644  -1.1358055   0.38310036 -0.6199552  -0.5322803
  0.94451666 -0.23145829 -0.42108703  1.1770437  -0.45213726 -1.0212591
 -0.32150853  0.01700555 -0.22899862 -0.27281496 -1.3743666  -0.11144173
 -0.2918196   0.47417158 -1.1522155   1.3953066   1.3075733  -0.7575412
  0.5325654   0.26277047 -1.2411128   1.1325735  -0.7475032   0.6093288
  0.7846872   1.0022519  -1.0625492  -0.94197744  0.03490772  0.5823075
  0.2325192  -0.9274343  -0.70612645  0.76066387]
[-0.66455966 -0.51908255 -2.3629973  -0.22315317  0.6444349  -0.5218742
  0.6464067  -0.6571361  -0.83898133  1.3792576   0.17481336 -1.6044632
  0.2521659  -1.3103955   0.8938888  -1.355108   -0.27345046 -0.34700567
  1.3190573   1.7038178  -1.083909    0.07507334  0.6086436  -0.9120508
  1.2653342   1.1274197  -0.66921043  1.6711015  -0.16538663  1.1016527
  1.2662095   1.0608057  -0.56261706 -1.3842312  -0.22613014 -0.49357086
 -0.06873503 -1.3126277  -1.0445187   0.2825626 ]
[ 0.49366093  0.11842921  1.4715797  -0.3467932   0.72268665  0.79996073
 -0.52358264  0.7878557   0.28726694 -0.65208566  0.0818937   1.0231705
 -0.1340038   1.0410823  -0.2943015   0.5831127   1.5765427   1.1268258
 -0.4120252  -0.837162    1.4820096  -0.5756298  -0.7938875   1.3442372
 -0.84066945 -0.57253444  1.7924745  -0.7189267   1.0927885  -0.95541084
 -0.8368648  -1.205259    1.5432352   0.75824875  0.30664292 -0.611379
 -1.0443739   0.8413063   1.1291543  -0.43637058]
layer 3 Activation
tanh
layer 4 Dense
40 20
[-0.13058418  0.37835667 -0.29866606  0.00128064 -0.2676181  -0.2894212
  0.3745444   0.7789033   0.59462655  0.4255571   0.5039914   0.7844095
  0.5447564   0.45127127 -0.33111906 -0.42457026 -0.25384983  0.01182915
 -0.47144905 -0.06052471]
[ 0.46647623  0.7409929   0.47469673  0.066321    0.07097605  0.08755856
 -0.8415748  -0.54636484 -0.32005665  0.256221    0.08316952 -0.03666853
 -0.79440963  1.1506481   0.26295736 -0.00504503  0.39972958 -0.1221471
 -0.23373441  0.17780359]
[ 0.5364946   1.2175492  -1.5488341   0.3096583  -0.61547595  0.1964278
 -0.05442895 -0.16172358 -0.09749993  0.05917722  0.07968333  1.9368896
 -0.29623756  0.4038768   0.69520843  0.00320734 -0.49606043  0.24273264
 -0.22565942  0.71619815]
[ 0.6664496   0.15872662 -0.3664171   0.14666955 -0.40740612 -0.12643981
  0.47025582 -0.43134055 -0.7678251  -0.15774179 -0.4366856  -0.30119118
  0.6490828  -0.4931395   0.18053412  0.8034254  -0.37188366  0.27066976
 -0.76121074  0.2672162 ]
[-0.02837604 -0.73111653 -0.01193977 -0.27095056  0.33477467  0.04756543
 -0.2683564   0.04526702  1.2832652  -0.02815048  0.04522103 -0.26386112
 -1.3117789  -0.06788161 -0.34137478 -0.5248303   0.12571178  0.17416474
 -0.1686534  -0.19516146]
[ 0.5241948   0.07155652 -0.39107153  0.64643395 -0.7206604  -0.77124184
  1.2579819   0.88689417  0.510409    0.00737949 -0.841181    0.8558487
 -0.58119905  0.6540814   0.6804698  -0.66435975 -0.8430376   0.07015654
 -0.50688976  0.3814537 ]
[-0.31074658 -0.4925286  -0.19877893 -0.15709703  0.69841385  0.9417108
 -0.9441992  -0.92654103 -0.8726132   0.15836573  1.1544756  -0.6507873
  0.04982832 -0.78865635 -0.454202    0.91556627  0.82773465 -0.18377219
  0.7662995  -0.3636741 ]
[ 0.54144907 -0.34427673 -0.22709194  0.11210201 -0.567423   -0.59831923
  0.33713758  0.87144834  1.2946731   0.04512088 -0.28519937  0.7003147
 -0.40848926  0.4564235   0.2995941  -0.10310626 -0.3500889   1.2105613
 -0.8105055   0.28311723]
[ 0.7109696   0.14203976 -0.68899    -0.11234445 -0.13171658  0.3382381
  0.6600139   0.50608736  0.06435835  0.22380945 -0.4099698  -0.4928219
 -0.639191   -0.1911745   0.34297988 -0.18613493 -0.21819368  0.9404576
  0.35823458  0.42714024]
[-1.2894852   0.10656333  0.07132371 -0.22718696  0.96239746  1.0348241
 -0.9466296  -1.4739159  -0.9983236  -0.72315514  1.3032691  -0.4462818
  0.6490654  -0.19855236 -0.2603011   1.0777346   0.3867207  -0.15315312
 -0.20737845 -0.37539536]
[ 0.28629065 -0.37294525 -1.3215218  -0.22734255  0.09808144 -0.5876115
  0.519073    0.8650393   1.00837     0.03342802 -0.11308433  0.14676452
 -0.13025776  0.14082287 -0.27910185  0.02459991 -0.37285945  0.55219436
 -0.2682263  -0.31957135]
[ 1.5682441   0.50363004 -0.17697875  0.9592678  -0.9038169   0.13725509
  0.5405154  -0.04850326  0.00320531  0.56419086 -0.52503455  0.8915298
 -0.29122558  0.7196225   1.0269353  -0.26271218 -1.0030415   0.0519522
 -0.5055996   0.6393588 ]
[ 0.13021101 -0.6700525   0.84013206 -0.72797483 -0.11777626  0.31205273
  0.5465936   0.04019825  0.9910556   0.18253173 -0.3961494  -0.14333606
 -0.95219445  0.18248655 -0.5358837  -0.12298547  0.12454633  0.07740547
  0.31930634 -0.6855924 ]
[ 0.23975192  0.9025365   0.8308286   0.22622797 -0.5578504  -0.7696165
 -0.06211577  0.82933956  0.06649302  1.2079433   0.23295078  0.71515346
 -0.69137263  0.6524917  -0.47000894 -1.2653028   0.02279587 -0.24775705
 -0.4884858  -0.01524272]
[-0.24269015 -0.00608694  1.0033953   0.03572014 -0.03425988  0.5916115
 -0.6963751  -0.54186535 -0.7659953   0.30362162 -0.26118043 -0.38149044
 -0.01420721 -0.1530453  -0.28002176  0.5202846   0.51599836 -0.78776157
  0.22314987 -0.203827  ]
[ 0.82515395 -0.1561327  -0.33667082  0.21385257 -0.6777471  -0.69511944
 -0.0494463   0.26321292  0.70177376  0.37607136 -0.22171918 -0.03704148
 -0.00396727 -0.26223636  0.4957848  -0.44721502 -0.19145522  0.99395376
  0.18060534  0.17466962]
[ 0.5072743   0.70677537 -0.94485503  1.7176259  -0.69860595  0.3565634
  0.2124638   0.40963444 -0.01945558 -0.03716271 -0.13335653  1.1954263
 -0.37236506  1.0469605   1.6121933   0.043326   -0.5970015  -0.1599175
 -0.3256281   1.243842  ]
[-0.03799983  0.5145041  -0.59174037  0.3653659  -0.30089006 -0.66659063
  0.46102318  0.6204949   0.4423144   0.13737853  0.05914189  0.6535877
 -0.4214698   0.7334844   0.5621997  -0.6383238   0.11180497 -0.14983256
 -0.9167692   0.8077403 ]
[-0.2665507   0.29638803 -1.0499239  -0.41598213  0.48826146  0.20471136
 -0.4608131  -0.9678263  -0.364321    0.07791143 -0.3774299  -0.31235832
  0.552413   -0.20268223  0.35864195  0.83302647 -0.36321583 -0.2255387
 -0.00740212 -0.12488702]
[-1.0143471   0.15753579  0.64400256 -0.4822961   0.89996713  0.27694538
 -1.0655506  -0.36715534 -0.17277266 -0.23723765  0.4920526  -0.28361103
  0.3073183   0.26834324 -0.6978664   0.04990223  0.39390272 -1.0533379
 -0.06152747 -0.7372631 ]
[ 0.43886027  0.7236727  -1.0575105   1.0694554  -0.78350335  0.126728
  0.47436276  0.3911437  -0.10528222  0.35517773 -0.15501931  0.82683265
 -0.46710062  0.7017725   1.2436991   0.09077394 -0.936606    0.05009622
 -0.6232797   0.9163027 ]
[ 0.1609387   0.3798306   0.58395296 -0.01745656 -0.26418188 -0.37266633
 -0.49861085  0.7694809   0.6800469   0.8053429   0.12912634  0.39108217
 -0.221014   -0.93812734  0.23633425 -0.743237   -0.0206911   0.5169414
  0.23523413 -0.10784446]
[-0.5841158  -0.13749976  0.22302487 -0.42018735  1.1301746   0.61763495
 -1.0501995  -0.64142936 -0.6618573  -0.03524893  0.65467495 -0.83131593
  0.25664675 -0.49625292 -0.62796986 -0.69664377  0.7399829  -0.27507108
  0.4810313  -0.2799774 ]
[ 0.6474512   1.0859311  -0.5506336   0.7758429  -0.7006277  -0.07009522
  1.3621923   0.33248475  0.41714552  0.42910343 -0.6531997   0.8034082
 -0.42380968  0.7254859   0.64123607  0.49765283 -1.068659   -0.2001885
 -1.3226444   0.6172275 ]
[-0.17418066  0.09531331  0.68076843  0.28220126  0.68741196  0.62344414
 -0.7790182  -0.33308873 -0.4798914  -0.52774125  0.64654607 -0.26742
  0.21919097  0.17071813 -0.534206   -0.3550886   0.10801342 -1.02062
 -0.07379787 -0.22085118]
[-0.04364188 -0.3992313  -0.13548546  0.13521457  0.5204448   0.6903232
 -0.6205038  -0.96339613 -0.853835   -0.62119573  1.0008222  -0.26314878
  0.554337   -0.5344394  -0.2260043   1.5418363   0.63031846 -0.15490243
  0.21872826 -0.38812047]
[ 0.6240366   0.7756128  -1.0788327   1.2655948  -0.66158146  0.04234264
  0.12826858  0.15125005  0.03833185  0.03682538  0.03825891  1.0355233
 -0.6115229   0.96076065  0.8004518  -0.12229721 -0.57730967 -0.1289118
 -0.57451886  0.70848435]
[-0.75699884 -1.1358546   0.6853059   0.11518425  0.67236775  0.51470745
 -0.73244065 -0.22345415 -0.3449545  -0.12314532  0.6428753  -0.7991988
  0.17405036 -0.1845887  -0.38206336 -0.7409454   0.6991759  -0.30510464
  0.22309361 -0.18721353]
[ 0.21274802  0.20962298  0.31920514  0.6406234  -0.6142812  -0.38633823
  0.04616117  0.98617464  0.47101936  0.11809881 -0.08715323  0.7798989
 -0.59748536  0.80787313  0.6016421  -0.3176505  -0.12385115 -0.15386948
 -0.45232555  0.9339782 ]
[-0.43952063 -1.322148    0.71548045 -0.22675617  1.0462762   0.4229171
 -0.3214769  -0.8554478  -0.04980171 -0.43916655  0.01091169 -0.43547672
  0.30509642 -0.6495894  -0.14501454  0.2383297   0.31602123 -0.01524807
  0.723163   -0.19333044]
[-0.8277931  -0.3600978  -0.0189068  -0.314663    0.8170017   0.83053625
 -1.564025   -0.63015187 -0.5517346  -1.0175331   0.941436   -0.05433743
  0.70871586 -0.4688356  -0.5194692   1.8395276   0.5146071   0.20213957
  0.49444982 -0.28952715]
[-0.64971256 -0.20175467 -0.10907412 -0.52094924  0.9810158   0.8633225
 -0.89550054 -0.7978651  -0.49716312 -0.9670175   0.77663785 -0.9211649
  0.3386192  -0.35454187 -0.6094695   0.6636993   0.35664383 -0.14433622
  0.22046198 -0.34726614]
[ 1.0724766   0.23900443 -0.85188884  1.2655714  -0.07487583 -0.38166296
  0.27412567  0.3050843   0.5292186   0.10010079  0.18190558  0.67647934
 -0.47532222  0.56820995  0.95021224 -0.9677271  -0.10023927 -0.07563849
 -0.6431482   0.7266094 ]
[ 0.8497402   0.63514596 -0.5003572  -0.10497487 -1.1702965  -0.2767752
  0.5372274   0.32426667 -0.0129419   0.59880495 -0.7106237   0.53028953
  0.44084755  0.44601804 -0.03800501 -0.06445444  0.02661496  0.0672008
 -0.12686749  0.0983106 ]
[ 0.8647332   0.09950584  0.626576    0.07632219 -0.9162979  -0.3232685
  0.16390997  0.7840459   0.36315584  0.10889267  0.07585091 -0.05262841
 -0.5178831  -0.11035786  0.02382541 -0.47759306  0.42162254 -0.36265254
 -0.04389402 -0.13289295]
[ 0.31766465  0.83431053 -0.25416696  0.45274618 -0.8598964  -0.12321452
 -0.40132624 -0.40050784 -1.3500881   0.81686544 -0.32280925 -0.09500888
  1.6781768   0.22886811  0.28252202  0.15275605  0.27516276 -0.20330106
 -0.273961   -0.13776867]
[ 0.34245306 -0.29330638  0.42512846 -0.01603475 -0.2801802   0.851835
 -0.14979994 -0.3223087  -1.3772333  -0.1994832  -0.46190894 -0.32693565
  0.4985554  -0.67502254 -0.3080036  -0.1213819   0.20262615 -0.963668
  0.748024   -0.21637799]
[ 1.3720458   0.7566024   0.06932635  0.13869588 -0.74650866 -0.40309492
  1.1690817   0.9444205   0.27829248  1.1383197  -1.0119965   0.40044987
 -0.6748319   0.27663943  0.37672773 -1.4135756  -0.8466626   0.06543105
  0.02441953  0.37153584]
[ 0.4066544   0.6774091  -1.246663    0.12629227 -0.10744568 -0.01246317
  0.15821539 -0.2066267  -0.137891   -0.20872888 -0.06628457  1.0573052
  0.4359859   0.462137    0.7051739  -0.4763549  -0.31078     0.22481064
 -0.61574596  0.40798986]
[ 0.47171566 -0.5514598   0.5856551  -0.4980422   0.260327    0.5545248
 -0.30771267 -0.68409574 -0.41427243 -0.05009031  0.52965784 -1.2715433
  0.31552142 -0.6822866  -1.3334751  -0.01921011  1.0720558  -0.21096608
  0.6495908  -0.6760932 ]
[ 0.5608279   0.40776536 -0.8029763   1.0889992  -0.683213   -0.14887701
  0.08002175  0.58606666  0.29487932  0.3044302  -0.02733559  0.8836109
 -0.6606667   0.8136535   0.9930232  -0.08166545 -0.1766999  -0.20381589
 -0.5663564   0.71225697]
layer 5 Activation
tanh
layer 6 Dense
20 1
[-0.16095524]
[-0.00504661]
[-0.09558703]
[0.2236983]
[0.11626839]
[-0.02109228]
[-0.44157475]
[-0.01368139]
[0.07017247]
[-0.02884262]
[0.1118611]
[0.02864224]
[0.0479072]
[-0.00969818]
[0.25025976]
[0.3161373]
[0.02127911]
[-0.01648538]
[-0.08401454]
[0.23086022]
[0.2766242]
