layers 7
layer 0 Dense
20 20
[-0.1759849   0.25300086 -0.24200416 -0.6150473  -0.09967161  0.54157275
 -0.39923838 -0.28398687 -0.01368643  0.69445217 -0.09934879 -0.50699717
  0.39920145  0.6726779  -0.31398836 -0.2646981  -0.00848978 -0.03935284
  0.26475513  0.1540313 ]
[ 1.0905204  -0.45640048 -0.11000017  1.1462533   0.8151288   0.9256529
  0.15333235  0.05793646  0.2658753  -0.18131676  1.5835785  -0.68406695
 -1.2489718   0.339184   -0.39123616  1.1502622  -0.94920236 -0.91981614
  0.02390056  0.9561377 ]
[ 1.0917386  -0.15825674 -0.26468483  0.771626    0.3578162   0.9761204
 -0.06997877  0.3006953   0.25547242 -0.243799    1.0548013  -0.4453128
 -0.8308847   0.72432595 -0.29443178  1.190406   -1.0952947  -1.3216579
 -0.31530362  1.0128335 ]
[-0.09019855 -0.04270294  0.22261354 -0.84433097 -0.18563883  0.01132499
 -0.4110414  -0.2641939   0.58565867  0.35609573 -0.5027792  -0.28682235
 -0.29027566  0.18662725 -0.57248735 -0.14459676 -0.6690434  -0.3334806
  0.02235905  0.71038   ]
[-0.38925412 -0.21287052  0.07504853  0.02732073  0.04163774  0.24344832
  0.63367254  0.02036267 -0.22742306 -0.32011405 -0.6720987   0.21128424
 -0.38438344 -0.7982135  -0.01728492  0.20856795  0.04277739  0.05819692
 -0.23250036  0.02969098]
[-0.38367915  0.38141003  0.262124   -1.0262227  -0.34156892  0.19599053
 -0.23402666  0.22432718  0.5803467   0.5887661  -1.5917308   0.17224497
  0.6159589  -0.31481585 -0.188828   -1.0003009   0.31072322  0.7105154
  0.16000383 -1.1748075 ]
[-0.81126463 -0.0028289   0.38569114 -0.80297023 -0.96446806  0.46098632
 -0.04323144 -0.08362857  0.02555035  0.51804036 -1.8406659   0.21423607
  0.6834909  -0.18098545  0.12805016 -0.99240625  0.8858667   0.98062634
  0.4549674  -0.98213434]
[-1.0420403   1.0510303   0.1090314   0.99843824 -0.30531162 -1.1543102
  0.05199704 -0.51609194 -0.6839428  -0.07856774  0.5961462  -0.05976546
 -0.02600563 -0.04179301  0.10778134 -0.16878738  1.624776    0.07039578
  0.17607315 -0.6713997 ]
[-0.5620259   1.2136018  -0.75161844  0.11970522 -0.35817206 -0.51727134
 -0.02112273 -1.2336515   0.06399497  0.23474322 -0.24917503 -0.61188436
  0.10597336 -0.34540534 -0.3216618  -0.4351492   0.8143139   0.84547544
  0.66389155  0.08173409]
[-0.67060494 -0.32912612  0.2903197   0.26445067  0.23670176 -0.21084028
 -0.0081494  -0.55282384  0.12257347 -0.20686705  0.86302435  0.5794753
 -0.6019553  -0.4225277   0.29921424  0.74997884  0.3533902   0.35013822
 -0.50817835 -1.052499  ]
[-0.02669638 -0.2532652   0.19836529 -0.15828423  0.48927104  0.31399405
  0.29656896 -0.40411714 -0.05043087 -0.23266238  0.07566909  0.50579983
 -0.314788    1.0560807   0.6700222   0.11762764  0.5773982   0.27152905
 -0.20258902 -0.5350775 ]
[ 0.10056546  0.9637686  -0.1825342  -0.12396781 -0.47282705 -0.5679226
 -0.01626995 -0.23378333 -0.32708994  0.4233331  -0.05552572  0.06768204
  0.17511913  0.3930821  -0.36152333  0.1543303   0.2816467   0.46787536
 -0.1586147   0.03754931]
[ 0.06813738 -0.8825681  -0.42435032  0.11169589  0.43861416  0.7997396
  0.33258745  0.8251203   0.10888003  0.01939438 -0.68215     0.1165213
 -0.09419729 -0.4211131   0.07223317 -0.12375315 -0.92546207  0.24418095
  0.34673533  0.9069259 ]
[-0.61774105  0.81381726 -0.20666485 -0.00434194 -1.0457484   0.26873627
  0.25568473 -0.15669164  0.25267285  0.24321836 -0.80061585 -1.6409783
  1.1852434   0.3681752  -0.8020393  -1.4221051  -0.05130943 -0.89815986
 -0.4968218   1.8399167 ]
[ 0.620254   -0.6688306   0.2550863  -0.36934766  0.751126   -0.07487541
 -0.67371356  0.9112978   0.12385713  0.09522704  1.2788883   1.1579531
 -0.57726663 -0.9344827   0.5710612   0.5069816   0.14151861 -1.7397816
  0.4441595  -1.0606872 ]
[-1.7490642  -1.0515002  -0.39310062 -0.22617862 -0.145272    1.0624785
  0.6904895   0.69316363  0.11236838  0.3969793  -1.0841279   0.52758694
  0.2445476  -0.32902738  0.4076991  -0.3496344  -1.3330022   0.1822629
  0.24508536  0.80329204]
[ 0.02886532  0.22878449 -0.00325911 -0.12861234 -0.02695889  0.21747293
  0.17478311 -0.6593612   0.34569255  0.43372065 -0.09922956 -0.22964083
 -0.10963481  0.34086505 -0.23077717  0.12363457  1.0895308  -1.4665091
  0.8375263   0.1613738 ]
[ 2.2798061  -0.78851885 -0.5352775   0.04410166  0.5194377  -0.39137644
  0.3347239   1.3412436   0.01148254 -0.09489382  0.61527544  1.1407684
 -0.7030678  -0.06552815  0.8534647   1.2128215   0.23722853  1.0835218
  2.0870354  -1.1101476 ]
[-0.5768994   0.45661995 -0.55616206  0.20970748 -0.78690815 -0.36652997
 -0.22711778 -0.03093265 -0.01329962  0.04625209 -0.130736   -0.88960093
  0.9726997  -0.16053711 -0.8818043  -1.457882   -0.9457695   0.34935647
 -0.5605893   1.3281372 ]
[-0.9305483   1.0414419   0.40811127  0.27322793 -0.23231116 -0.7375198
 -0.32752588 -0.372495   -0.47280568 -0.11517332  0.8456994  -0.06734558
  0.08469212  0.27806845  0.09848607 -0.10113289  1.5188336  -1.0116427
  1.2033329   0.05908171]
[ 0.5018253  -0.29830912  0.14468376 -0.33802763  0.13945927  0.65087634
 -0.40928182  0.19972956  0.5385524   0.21076497 -0.1621919   0.03401989
 -0.04573094  0.4798322  -0.17515431 -0.1411222  -0.9587884  -0.25762662
 -0.4051409   0.37664765]
layer 1 Activation
tanh
layer 2 Dense
20 40
[-0.02738932 -0.58048564 -0.50391304  0.61705375  0.15864491 -0.305456
 -0.40959096 -0.15416907  0.90604573 -0.15816584 -0.3125083  -0.47821373
 -0.15986317 -0.13138695  0.57260466 -0.15630968  0.98347944 -0.10917934
 -0.3040237   0.00175898 -0.15115577 -0.89776933  0.1685416  -0.72119343
 -0.3471981   0.1883997   0.25830084  0.12266645 -0.26939765  0.23439638
  0.11031269 -0.14314525 -0.36889997  0.0480198   0.5519151   0.20668507
 -0.1382155   1.0394187   0.20581141 -0.00652758]
[-0.10836696 -0.5846442   0.74369913 -0.13643631 -0.9496277   0.8619764
  0.45051494 -0.4951664  -0.48927674  0.13838427 -0.00585185  0.5275715
  0.41005903 -0.94220424 -0.02034052 -0.05141155 -0.5819379  -0.48593587
 -0.31927133  0.2824534  -0.13482599 -0.048207    0.07459179  0.39340612
 -0.2542743  -0.04746351  0.26393226 -0.78590584  0.19508731  0.04950868
 -0.2550591   0.20567237 -0.01332885 -0.35863248 -0.7048551   0.0297863
  0.05945242 -0.8383575  -0.3499793   0.20091632]
[ 0.26520354 -0.18761535  0.03607025  0.33209133 -0.0555361   0.18501022
 -0.20687477  0.6447419   0.32574102  0.05410073 -0.26248664  0.00161266
  0.04943128 -0.09256461 -0.13577782  0.5062424   0.38356698  0.01203159
  0.2045388  -0.03381373 -0.08125976  0.02169964  0.32292852 -0.0182176
 -0.17309271  0.69297767 -0.84170437 -0.244164   -0.22412856  0.10019299
  0.16771254 -0.07148625 -0.14764886 -0.13189211 -0.16134664 -0.06213528
 -0.24794473 -0.1960624   0.51215816 -0.07067432]
[-0.44175133 -0.36466718 -0.20773074  0.13655856 -0.23330978 -0.138179
 -0.01082262  0.29028925  0.38895518 -0.33835277 -0.355897    0.04315235
  0.05517817 -0.32410985 -0.1847133   0.13069631 -0.4188265  -0.6212383
 -0.02461129  0.23197062  0.65859056  0.33412787  0.24278332 -0.22475111
 -0.07610565  0.33773172 -0.17488685  0.2907529  -0.19206445 -0.08578722
 -0.46464998  0.15238558  0.03914796  0.20357959 -0.27810055 -0.2508645
 -0.23424597 -0.4181083   0.41661593 -0.4132276 ]
[ 0.31421688  0.6253404  -0.5014747   0.40916854  0.35731936 -0.21496026
 -0.42556754  0.4133303   0.32625166  0.16328186 -0.03088286 -0.3288943
 -0.16902481  0.46679386  0.52650386  0.3098385   0.06176884 -0.20227952
  0.17999445  0.21676672 -0.25435367  0.0109243   0.01083006 -0.30750403
  0.3540927   0.3506127  -0.12120235  0.53787595 -0.04188215  0.41529536
  0.38811624  0.06644202 -0.1060259   0.13734655 -0.14916499  0.05006319
 -0.44394544  0.20572494  0.23901853  0.3536204 ]
[ 0.00071974  0.10991667 -0.28499883  0.16906483 -0.319374   -0.25610873
  0.03445944  0.15762575 -0.24815792  0.39717543 -0.00546232 -0.4500412
 -0.39708975 -0.16597188 -0.11029981 -0.1029517   0.69596916  0.58755773
 -0.10522909  0.01709469 -0.15085985  0.26325572 -0.0853942  -0.03664184
  0.24970184 -0.29024696 -0.15116648  0.06733893  0.2116802   0.12755257
  0.5527582  -0.5044218  -0.48283842 -0.01191963  0.64472514  0.3103799
 -0.14738281  0.5635333   0.13434795  0.27975282]
[ 0.00463224  0.15795195 -0.0760393  -0.2346147   0.18720086 -0.28233898
  0.08601948  0.19432649 -0.1593546  -0.31055734 -0.3490826   0.37417457
  0.08501688 -0.06290578 -0.14306535 -0.02080647 -0.51160055  0.19666891
  0.4395411   0.09991071  0.17095208  0.75123644 -0.25951904  0.11948088
 -0.05874001 -0.4182977   0.00411874  0.10239458  0.05974181 -0.0758872
 -0.25344777  0.13040344  0.33100906  0.5768529  -0.37411958 -0.12445679
  0.23914215 -0.2781137  -0.19347258 -0.2648018 ]
[-0.23114769  0.36286673 -0.12680916 -0.35784337 -0.07274423  0.2580743
  0.01505564 -0.36049274 -0.0586233  -0.04446075  0.00866315 -0.17533244
 -0.42754886  0.40828413 -0.32649586  0.10370848  0.2460757  -0.2525212
 -0.01121938 -0.06708088  0.01077975 -0.09233154 -0.08281201  0.35155284
  0.25729987 -0.09995605  0.11494669  0.306445    0.52923423 -0.03469348
  0.18141024  0.17174129  0.22513314  0.25042415 -0.04381208 -0.12791912
 -0.08357474 -0.10159181 -0.22487338 -0.08340673]
[ 0.72633445  0.08945026 -0.09088421 -0.06668238 -0.152937    0.16226104
  0.34511754  0.03814157 -0.41148487  0.592078    0.14338459 -0.5147567
 -0.47062397 -0.04186748  0.0183367  -0.24463882  0.7470134   0.18689933
  0.13492213 -0.12640914 -0.52005446 -0.15978897 -0.20072182 -0.09678358
  0.19341505 -0.38042828  0.10404898 -0.15605876 -0.26856527 -0.10038117
  0.10444611 -0.32944736 -0.53434485  0.02083849  0.40654907  0.3692544
 -0.03130129  0.4325157  -0.18187389  0.35489476]
[ 0.0542259  -0.3497719   0.19323562 -0.34479836 -0.271206    0.32333753
 -0.29810363  0.04306419 -0.04213386 -0.04172882 -0.35740027 -0.19624002
 -0.13112922  0.02676382  0.04824914  0.13842925  0.31918567 -0.16632417
 -0.07883197 -0.10649832 -0.33111897 -0.36051896 -0.20849721 -0.13613707
 -0.42487356 -0.00528634  0.0525903  -0.3791648   0.17579934  0.3684854
  0.24742022 -0.1840265  -0.67086583  0.20433757  0.35214442  0.29829565
 -0.27942383  0.17991321  0.02624799  0.02979859]
[-0.13635056 -0.08984987 -0.0457205   0.53240925  0.73187643  0.2957705
 -0.2765711   0.15569007  0.40154153 -0.03745154 -0.32958484  0.1668664
 -0.0227145   0.40510163 -0.19684626  0.12265096  0.2555529  -0.1706597
  0.4613677   0.2175155  -0.10713673 -0.12953545  0.25684932 -0.6019687
  0.11174125  0.20572038 -0.85552084  0.16516916 -0.09444103  0.42020485
 -0.17109154  0.1014511  -0.11981095  0.10090317 -0.220405    0.13892427
 -0.36539948 -0.22690837  0.7090131   0.18213601]
[ 0.17327952  0.82674354 -0.02408839  0.7176968   0.76620513 -0.3946418
 -0.69160634  0.686385    0.45328316 -0.28534603 -0.11204995 -0.28924787
 -0.14294705  1.023915    0.12989007  0.25372258  0.04818854 -0.10099579
  0.6217166   0.16273747  0.3577943  -0.2868249   0.43931034 -0.5474528
  0.6472685   0.14981915 -0.29825068  0.49321952 -0.09203189  0.7321969
  0.291425   -0.19849275 -0.1454222   0.1031278  -0.73580104  0.10291484
 -0.5910634   0.5020979   0.43837175  0.26337457]
[ 0.11914521 -0.24980873  0.37543982 -0.6358471  -0.33848932  0.3824056
  0.4060812  -0.2982025  -0.29038572 -0.0979538   0.03671084 -0.01661263
  0.01462168 -0.17520818 -0.47878554  0.02435119  0.02444438  0.47364026
  0.10851582 -0.29672477  0.42119497 -0.29391688 -0.07633212  0.3984718
  0.02916468 -0.15314321  0.17067225 -0.47564772 -0.08076491 -0.5139931
 -0.21169424  0.1505239  -0.2695041  -0.18802272  0.17666994 -0.16792746
  0.30846804  0.00673078 -0.33438912 -0.35140318]
[ 0.03171002 -0.48815775 -0.2093668   0.51695234 -0.13810395  0.10009794
 -0.0401541   0.18432237  0.22537243  0.22416398 -0.28866437 -0.22421128
 -0.0112507  -0.3720405  -0.21181758 -0.24834494  0.32579064  0.58408314
  0.06473156 -0.04062087 -0.16684513 -0.6082005  -0.06514899 -0.5297462
 -0.31191468 -0.00817162  0.33870268 -0.07540058 -0.5607848  -0.0281309
 -0.06471644 -0.4801883  -0.6871769  -0.17059584  0.20468378  0.06225209
 -0.15539598 -0.05721075 -0.07302436  0.15815298]
[ 0.25752935  0.36507452 -0.7151573   0.11351899  0.47906947 -0.4175751
 -0.27009547  0.43987626  0.49433255 -0.02667789 -0.76088953 -0.18786731
  0.09416912  0.5668249   0.41763493  0.03144968 -0.28468904  0.31898955
  0.7206759   0.10322065 -0.10336685 -0.3823155  -0.2933604  -0.2675289
  0.27193698  0.12729368 -0.9226367   0.7880282   0.36958998  0.36337328
  0.08334509  0.25913215 -0.25595325  0.5642523   0.31480017  0.15159352
 -0.03272957 -0.01458295  0.5584275   0.3515345 ]
[-0.13148029  0.49514446 -0.8146692   0.6645036   0.46070084 -0.32542324
 -0.8898708   0.14937565  0.76413345 -0.19364493 -0.7479705  -0.3618251
 -0.582196    0.50786823  0.78384924  0.25015163  0.19290201  0.02181932
  0.66681385 -0.03064812  0.08396024 -0.2500505   0.08119607 -0.67002076
  0.5803805   0.16693117 -0.5430328   0.815577   -0.5774968   0.6962367
 -0.13559191  0.3364967   0.1475204   1.0821886   0.3300874  -0.04249626
 -0.5708757   0.5571717   0.77830935 -0.01772852]
[-0.30114114  0.30540264  0.60474145 -0.39583132  1.2417076  -0.04472757
 -0.36796793  0.51002806 -0.36372522  0.02287641 -0.176604    0.955634
  0.5811361   0.86577845 -0.35617724  0.43287233 -1.2410604  -0.04776328
  0.96767366  0.20669179  0.05076944 -0.24991651  0.21321067  0.42408848
  0.6622967   0.01558381  0.08692519 -0.5523929   0.4330854  -0.13896044
 -0.54565877  0.15521845  0.97918105  0.10789464 -0.31911942 -0.20911278
  0.1125302  -1.4264395   0.27269325 -0.09273136]
[ 9.2082217e-02  4.9869025e-01  5.0075281e-01  2.1645822e-01
  7.0550907e-01  3.1290737e-01  6.8466634e-02  8.8074452e-01
 -4.0248206e-01  1.2561388e-01 -2.9398206e-01  3.7244588e-01
  6.5186244e-01  7.1437037e-01  1.3778876e-01  1.0116988e-01
 -7.6263106e-01 -4.4789512e-02  6.3594341e-01  3.9892173e-01
 -1.0429870e-03  2.3870976e-01  1.8253314e-01  8.8559106e-02
  7.2344095e-01  3.7012914e-01  3.7917800e-02 -4.0123558e-01
  4.3950275e-01 -2.2172733e-01 -3.4276286e-01 -3.0188799e-02
  3.3324841e-01 -1.2868352e-01 -8.5471198e-02 -8.9267753e-02
 -1.5522905e-01 -1.2048856e+00  1.4833815e-01  2.3619476e-01]
[-0.13960432  0.26180422  0.6126377   0.65602136  0.55964875 -0.46725985
 -0.17872983  0.47321287  0.07122137 -0.08115246 -0.01139533  0.14783844
  0.27114278  0.5801763  -0.2041645   0.03197997 -0.70328027 -0.3740011
  0.6001446  -0.11588255 -0.08232216 -0.26731643  0.33066761 -0.47989082
  0.490993    0.552955   -0.18962173 -0.2502171  -0.2865081   0.16830827
 -0.04250718 -0.2576051  -0.03068908  0.0713843  -0.15295695  0.03668961
 -0.22281252 -0.70373315  0.03624456 -0.2128234 ]
[ 0.28621167 -1.1210307   0.6640257  -0.98309517 -1.4193075   1.006175
  0.5410655  -1.4642531  -1.3429371   0.21504857  0.7713503  -0.9676554
  0.06927221 -1.502973   -0.17499945 -0.34088933  0.2311489   0.2568566
 -1.5121706  -0.6873725  -0.41456607 -0.01875534 -0.888815    1.1501234
 -0.46455643 -0.6038879   0.981494   -0.526739    0.15713118 -0.38983807
  0.78737843  0.20395654 -1.0209048  -0.41493604  0.3123273   0.3166852
  0.7147143   0.27342656 -0.34200084  0.6232438 ]
[ 0.32175186 -0.00858063 -0.08700055 -0.12758774  0.04439541  0.25654194
 -0.00475342 -0.2396872  -0.45082188  0.65488094  0.2759078  -0.29168206
 -0.20999768  0.0337141  -0.11898782 -0.11780325  0.26853463  0.41427207
  0.07061311 -0.3582092  -0.42950472 -0.07883178 -0.1303917   0.11758894
  0.1030808  -0.3896451   0.16340062 -0.1840952   0.00639337 -0.13084151
  0.5199015  -0.2852986  -0.35674542 -0.22629608  0.4247398   0.3005148
  0.03173001  0.24018168 -0.11995672  0.21974616]
layer 3 Activation
tanh
layer 4 Dense
40 20
[ 0.24796878 -0.02532924  0.08986042 -0.03553745  0.7040836  -0.2435348
  0.0608453  -0.04094832  0.338821    0.49973208  0.01111297 -0.6120977
  0.09123423 -0.19137715  0.09058423 -0.13465615  0.19796345 -0.24762383
 -0.47503376  0.10617688]
[ 0.17505758  0.13175318 -0.5035012   0.13362798  0.18682285 -0.6559213
 -0.14862905  0.28043535 -0.23252581 -0.11429302 -0.05887827  0.07242689
 -0.56703246  0.05596581  0.01089466  0.49623847 -0.14990339  0.04417451
 -0.14079937 -0.1192037 ]
[-0.09813399 -0.19373873  0.5405241  -0.38490233 -0.08983946 -0.00336204
  0.31339464 -0.02120953 -0.22109874 -0.22552969 -0.03173625  0.03818226
  0.04213671  0.2974739  -0.18099752 -0.57442504  0.05281614  0.47316062
  0.0847333  -0.17976423]
[ 0.2782984   0.48039106  0.2513073   0.15965095 -0.5923527  -0.4566048
 -0.22157344  0.6741335  -0.13254535 -0.7226044   0.36545822  0.0264981
 -0.0951345   0.49852255  0.03859828  0.44006371 -0.20076104 -0.28635934
 -0.3070441   0.10204877]
[ 0.5197863   0.15219197 -0.01999265 -0.14044122  0.40324068 -0.358897
 -0.10736636  0.28612044  0.22432709 -0.44220293  0.23186544 -0.25793654
 -0.53904355  0.28869966  0.4237788   0.3355879  -0.50584924  0.9225175
 -0.296744   -0.20937695]
[-0.20272076  0.06594701  0.16171782  0.01887089  0.16272238  0.4017433
  0.34191862 -0.34056792 -0.00339498  0.30931792 -0.32184824 -0.09015314
  0.99689376 -0.06692342  0.04068177 -0.21330042  0.05709566  0.06868159
  0.26253235  0.16540158]
[-3.4157974e-01 -6.6960365e-01  5.8798307e-01  3.7513588e-02
  4.0006831e-01  2.9981244e-01  6.6732442e-01 -3.6172542e-01
 -9.2544205e-02  2.6720858e-01 -2.4783717e-01 -3.9379591e-01
  3.6677963e-04 -3.5965940e-01 -4.1076380e-01 -5.5498958e-01
  1.6302401e-01  2.3466705e-01  1.9749859e-01 -2.0842774e-01]
[ 0.00195599  0.3455146  -0.06738468  0.07022333  0.19154884 -0.6950265
 -0.34226617  0.51079285  0.17279102 -0.4672568   0.35938627  0.10362609
 -0.12531121  0.0757409   0.32051495 -0.10652792 -0.4590612   0.49700218
 -0.37766054 -0.35023484]
[-0.05635947  0.56859    -0.25460777  0.05251426 -0.42284578 -0.0561015
 -0.32161024  0.42646348  0.05126033 -0.4197863   0.10139883 -0.10391342
 -0.33288956  0.14711577  0.33232036  0.550476   -0.45825088 -0.52667737
 -0.3789358   0.24458046]
[ 0.20135033 -0.13631435 -0.10298953 -0.09650584  0.39981493  0.0278254
  0.13372895 -0.20869367  0.04569903  0.25886512 -0.21540523 -0.3058359
  0.27551612 -0.33757588  0.08017814  0.10567565 -0.02631719 -0.09574905
 -0.04031859  0.10018946]
[-0.34178853 -0.36401066  0.36974186 -0.1838204  -0.18998712  0.49318403
  0.18014035 -0.23138031 -0.04036055  0.36460182 -0.2989219   0.0291221
 -0.28536305  0.04994039 -0.3885459  -0.42284185  0.11788618  0.00916319
  0.07250444  0.34419426]
[ 0.12591761  0.04501881  0.09540967  0.13122529 -0.1546069  -0.3830256
  0.17563526 -0.32383382 -0.2702152  -0.38805753  0.09265703  0.5494105
  0.03526893  0.17017995  0.13745542 -0.04633595  0.15821008  0.1889586
  0.13149357 -0.32666805]
[ 0.08517417 -0.07231399  0.2274692  -0.10687362 -0.20600197 -0.2275673
  0.0499658  -0.22031087 -0.05019932 -0.0369562  -0.18715136  0.14912733
  0.07277861  0.1033219   0.10376662  0.02991141  0.24113484  0.11030388
  0.17078945 -0.10564835]
[ 0.81939334  0.00938204 -0.544059    0.24525587  0.29173353 -0.6252314
 -0.04654436  0.27782002  0.20787568  0.06447616  0.20568642 -0.22965448
 -0.5974865   0.06263144  0.44912082  0.39988327 -0.41258535  0.98327416
 -0.30615023 -0.5252445 ]
[ 0.08192157  0.61869675 -0.06096974  0.18587565  0.42146572 -0.04755352
 -0.24961498  0.1525619   0.20322414 -0.05939622  0.07254392 -0.37706465
  0.06613517  0.0202084   0.34709102 -0.08475565 -0.06734426 -0.20086744
  0.25001687 -0.03726385]
[ 0.25027618  0.32526538 -0.08530056  0.145294   -0.29301524 -0.39231622
 -0.39238894  0.03156462 -0.17316958 -0.12365419  0.20032796  0.09617897
 -0.2500748   0.15427405  0.36265534  0.81060624 -0.25305137  0.01444971
 -0.49803212 -0.12726575]
[ 0.19411567 -0.1346447  -0.15951563  0.05887669  0.4562291   0.70777774
 -0.13468938  0.6549205   0.34330627 -0.01020941  0.02459412 -0.28774112
  0.15064335  0.07738792 -0.6342319  -0.36888513 -0.21401855 -1.0956368
 -0.20258982  0.32714683]
[ 0.25790307 -0.03773297 -0.7992601  -0.13240632  0.01642613 -0.4270386
 -0.01661691 -0.28760767  0.36195114  0.19151343  0.03978301 -0.22932824
  0.18967496 -0.37247276 -0.13905786  0.28447977 -0.09290922 -0.34581625
 -0.22261794 -0.003247  ]
[ 0.1045618   0.04305606 -0.29538602  0.05906164  0.2176737  -0.40895158
  0.09503999  0.23983318  0.00393744 -0.5470829   0.03505225 -0.22351927
 -0.33804363  0.4744181   0.3160205   0.39904213 -0.22424729  0.7198811
 -0.09872629 -0.4909838 ]
[ 0.22450861  0.16739449  0.13961913  0.00701908 -0.22100602 -0.3916289
 -0.19074374  0.06965459  0.03139446 -0.36518928  0.1345365   0.1342689
 -0.24629857  0.31472164  0.26001957 -0.2747478  -0.02215213  0.11223875
 -0.15956147 -0.42093366]
[-0.27904987 -0.10042088  0.05846904 -0.0841812  -0.50924575 -0.02673551
  0.00906336  0.26720834 -0.19555281 -0.13058291  0.14948234  0.53896856
 -0.66713417  0.193417   -0.13307504 -0.41994932 -0.19013858  0.36161378
  0.12731129  0.07876029]
[-0.2888501  -0.484074    0.21942553 -0.16197711  0.21292894  0.01254326
  0.50566    -0.16103728 -0.08250738  0.03055162 -0.06262779 -0.01419801
 -1.0886388   0.02341993 -0.06243129 -0.28104058  0.07138252  0.24231586
  0.1431563   0.11550041]
[ 0.03220975  0.2765288   0.08080596 -0.15171391 -0.04211044 -0.06434308
 -0.01041273  0.1688574   0.06140663 -0.31538355  0.45543075  0.33026707
 -0.5098001   0.34690437  0.16073555  0.04405374 -0.39021236 -0.0103094
  0.03594339 -0.24698508]
[ 0.06929756 -0.44164765 -0.0880333  -0.01225678  0.24804443  0.3261639
  0.23708028 -0.90521103  0.07354153  0.8129852  -0.23236969 -0.05888147
  0.23823905 -0.5911484  -0.04833277 -0.46956366  0.4562669   0.36167556
  0.56868464 -0.12449861]
[ 0.52286816  0.08164731 -0.4788872  -0.03881587  0.0338746  -0.4362633
 -0.24113639  0.3330135   0.09508884 -0.39874202  0.08550675 -0.03128793
 -0.34818596 -0.04398846  0.27986965  0.47722185 -0.07382804  0.39575174
 -0.22576386 -0.20056656]
[ 0.11813034  0.46265677  0.06635018 -0.00888226  0.13467488 -0.19526865
 -0.3389534   0.42169082 -0.16365303 -0.22922824  0.40847364  0.03159901
 -0.3461921   0.32559365  0.25428593  0.6812678  -0.46549857  0.19165745
 -0.44922644 -0.39719874]
[-0.2643775  -0.29297397 -0.12602232 -0.14626095  0.07405387  0.13492475
  0.23093842 -0.06449866  0.23299195  0.44575813 -0.4918391   0.25297782
  0.44028875  0.09459316 -0.6430652  -0.90463626  0.5064705  -0.36953947
  0.4982591   0.2529828 ]
[ 0.24937586  0.43079814 -0.5103971   0.10863786  0.01274317  0.00673061
 -0.33000705  0.28064013 -0.05721284 -0.21280338  0.01745816 -0.03742623
 -0.17440988 -0.08497561  0.30574602  0.37278894 -0.0382266  -0.35924885
 -0.11611945 -0.17466456]
[ 0.05189835 -0.47310233 -0.49371362  0.16410933 -0.12851311 -0.12361806
  0.1653897  -0.36019745  0.15343878 -0.04998115 -0.21198803  0.2474324
  0.19254372 -0.3136441   0.08463152  0.09039672  0.33670393  0.09580822
  0.18311526 -0.09619853]
[ 0.2685025   0.3865825  -0.41555923 -0.04871465 -0.29921183 -0.00456598
 -0.37396222  0.18253788 -0.05265866 -0.19715054  0.19644469  0.10055996
  0.1544437   0.15127446  0.41319785  0.24587846 -0.00831791 -0.2387934
  0.07960244  0.14975327]
[ 0.01773547 -0.1994525  -0.15525483 -0.23336734  0.12995549  0.01714845
  0.10249031  0.08152233  0.28032684  0.44731718  0.10394675 -0.55225235
 -0.030009   -0.23596236 -0.06386773  0.29950377  0.01735567 -0.20051569
 -0.4340053   0.34001106]
[-0.2839401  -0.16556148  0.00425791  0.02657902 -0.3711058   0.0668882
 -0.05396898 -0.00509906 -0.46146858  0.10889909  0.01870811 -0.08969299
  0.05176746 -0.02315579  0.07694789 -0.1348568  -0.21906722  0.1263091
 -0.171265   -0.49856585]
[ 0.01067907 -0.12309335 -0.40684333 -0.29783034 -0.01410718 -0.5711241
  0.02530024 -0.07235256 -0.14389159 -0.4623838   0.18179062  0.25656894
 -0.8446236   0.33896312 -0.19058731  0.41599765 -0.11926915  0.68469137
  0.03442327 -0.3409421 ]
[ 0.22629565  0.24804401 -0.3328298  -0.06583634  0.08955624 -0.21408403
 -0.16462603  0.18008418 -0.23516017 -0.2505731   0.19497396 -0.00494386
 -0.29676837 -0.02409204  0.19529378  0.26556915 -0.07532038 -0.02583664
  0.0199756  -0.1495561 ]
[ 0.01757079  0.0668538  -0.22666526 -0.09445596  0.7779163  -0.05830334
 -0.15899442  0.00451533  0.26984176 -0.12325022 -0.12868665 -0.5178955
 -0.20714095  0.14729127  0.04792286  0.47110954  0.28976783 -0.25419405
 -0.17614885  0.18966985]
[ 0.05315366 -0.13246731 -0.05096031  0.00057819  0.16626635  0.19437484
 -0.21387626  0.05547951  0.2585153   0.459732   -0.1690959  -0.46032724
  0.24988984 -0.06475367  0.18360649  0.29821226  0.18036458 -0.16954805
  0.21243736  0.2262967 ]
[-0.15096858 -0.3399936   0.2621497   0.05673205  0.368868   -0.12943307
  0.34513885 -0.3229269   0.2493684   0.3158799  -0.22985585 -0.14886576
  0.01534063 -0.1801827  -0.30538538 -0.18597114  0.13331608  0.16943334
 -0.12931399 -0.20886792]
[-0.09488936 -0.04971042  0.12575951 -0.38200304  0.08910967  0.48313433
  0.1704196   0.6851088   0.30068922 -0.02336584 -0.01390133 -0.28248218
 -0.00664216  0.09650323 -0.45714864 -0.22509788 -0.13575302 -1.0030062
 -0.3073772   0.7383513 ]
[-0.06715569  0.41486174 -0.015837    0.05237596 -0.01155086 -0.3192096
 -0.23989207  0.2943097   0.06578136 -0.37287375  0.1250329  -0.14124212
 -0.9058916   0.31785202  0.466019    0.8901845  -0.31178418 -0.01275371
 -0.28820628 -0.10205235]
[ 0.19342312 -0.42609516 -0.09503187  0.05317254 -0.03687515 -0.11477182
 -0.05603473  0.16582003  0.06825443  0.20752019 -0.18123513 -0.3880652
  0.3088559  -0.0614762   0.2114308   0.17350227  0.06351011 -0.1338011
 -0.09133166  0.03206252]
[ 0.17894909  0.10582084 -0.39720133 -0.12633607  0.4094681  -0.29734766
  0.04767717 -0.41400793  0.22575915  0.40037516  0.01240619 -0.38762388
  0.2469884  -0.2003685   0.04619836  0.2779158   0.03224075 -0.38360375
  0.11641128  0.2032224 ]
layer 5 Activation
tanh
layer 6 Dense
20 1
[0.0405511]
[-0.00948636]
[-0.02484906]
[0.00271863]
[0.05231251]
[-0.05994464]
[-0.03779194]
[-0.08916651]
[0.03731451]
[0.09343781]
[-0.03722114]
[-0.0328848]
[-0.01518003]
[-0.00718652]
[0.12794253]
[0.01071383]
[0.065778]
[0.4046294]
[-0.00184637]
[-0.00157064]
[0.28608328]
