layers 7
layer 0 Dense
20 20
[ 0.27374437 -0.33114424 -0.03369803  0.14847372 -0.22060525  0.2466236
  0.07376766 -0.02603947  0.19573641 -0.01368896 -0.2662254   0.4996326
  0.40099713  0.6317956   0.32436514  0.20390612  0.31896284  0.044783
  0.07713994  0.21394597]
[-0.0952116   0.11670023  0.37957203 -0.22379614 -0.08646193 -0.19133931
 -0.26428232 -0.06152973  0.03693694 -0.13615349 -0.06987154 -0.31485036
 -0.01397866 -0.34754083 -0.29335088 -0.36096054  0.01501009 -0.11313924
 -0.27202496  0.3696649 ]
[-0.02952304  0.16576523 -0.24803978 -0.20171343  0.21428418 -0.28259364
  0.01642075  0.11953807 -0.21798155 -0.18859    -0.23508248  0.27740544
 -0.27895564 -0.3240853   0.3429849   0.09367177  0.25690895 -0.08464736
 -0.08146498 -0.24840876]
[ 0.3783958  -0.21034187 -0.25006914 -0.2916614   0.31098288  0.42497373
 -0.4215571  -0.03105373  0.25838965  0.3446653   0.10691625  0.7071643
  0.10211936  0.3809442   0.64451987 -0.22808053 -0.27740863  0.59067893
  0.24187377 -0.12668997]
[-0.3916358   0.4322077  -0.16040172 -0.0476303  -0.0202451   0.16792397
  0.3714742   0.39899495 -0.11354402  0.23656748 -0.09406745 -0.26427686
 -0.27309096 -0.28715333 -0.2364077   0.2720678   0.29647368  0.08035458
 -0.4379246  -0.23800543]
[ 0.08297455 -0.17105813  0.24800873  0.30557    -0.11501291  0.0852147
  0.02291128 -0.10154957 -0.06237876  0.3169979   0.33193165 -0.25754544
  0.25771952  0.35153633  0.13519013 -0.26988065  0.26546705 -0.13816711
 -0.34624225  0.0718607 ]
[ 0.19794083 -0.25814658  0.35707068 -0.01593468 -0.13151354 -0.23901585
 -0.18916214  0.05071172 -0.37220716  0.24288118 -0.18510236  0.21868145
 -0.32889855  0.20526892  0.18259227  0.37103754 -0.02751189 -0.27969483
  0.06985667  0.32694077]
[-0.3925736   0.10109579 -0.25689304  0.12488332 -0.61719775 -0.5468632
  0.67829174 -0.02264596  0.05831184 -0.06458142 -0.29464465 -0.5951016
 -0.40876418 -0.7787337  -0.35145333  0.26836613  0.35969502 -0.7083194
  0.35323745  0.23321724]
[ 0.12475219 -0.17476305  0.03900917 -0.01476478 -0.20305657 -0.34702754
  0.29770488 -0.09047239 -0.10328682 -0.40310088  0.03977699 -0.42173597
  0.00053389 -0.19392256 -0.22819956 -0.52547944  0.35918328 -0.41871417
 -0.25680512  0.11265505]
[ 0.3571584   0.43702343 -0.6598505  -0.35785583  0.14777035 -0.46634912
  0.19283356  0.77525    -0.37211838 -0.5678175  -0.13482617 -0.05745348
  0.3054091  -0.15613322 -0.04431224 -0.03777342  0.5970271   0.12410793
  0.27058768  0.49015903]
[-0.7050576  -0.28239158  0.3441949   0.04901195  0.08913337  0.24011227
  0.12834345 -0.04451566 -0.20282412  0.43512347  0.10303666  0.0282662
  0.6076527   0.09929589  0.07938565  0.44891003  0.23327455 -0.37026972
 -0.2152851  -0.39454705]
[ 0.711983   -0.3166775   0.3091375  -0.86765915  1.1367729   0.22900522
 -0.84354186  0.00376942 -0.17036907 -0.3826472   0.46169037 -0.11460673
 -0.19076477  0.29478765  0.5818318  -1.0998818  -0.3348481   0.2824243
 -0.1292059  -0.41063744]
[-0.45917732 -0.21369012  0.11643827 -0.17910245  0.12842686 -0.23848476
 -0.20392017 -0.3564016  -0.32363296  0.18748042  0.0922679  -0.3947972
  0.08762001 -0.14835028 -0.24173503 -0.03115571 -0.11598786 -0.26442885
 -0.32206568 -0.1782367 ]
[ 0.49503365  0.0832207  -0.28590503 -0.20687862 -0.0720014  -0.2270822
 -0.44945994  0.25765195 -0.16469519 -0.23320493 -0.4831316  -0.07819244
  0.3006384   0.08958721  0.309496    0.12918557 -0.45597234  0.09399784
 -0.09527099  0.16846956]
[-0.07980374 -0.13841647  0.13790736 -0.15984254  0.07261822  0.02587592
  0.04884895  0.05094365 -0.2852781   0.50262    -0.09904002 -0.02414859
  0.5599782  -0.08606334  0.07926147  0.321995    0.26361287 -0.09766684
 -0.08373979  0.30610704]
[ 0.5329706  -0.86785424  0.18714231 -0.41030282  0.88083595  0.33820522
 -0.7368432  -0.2359745  -0.38124797 -0.27571627  0.6370008  -0.04345204
  0.03576207  0.05782649  0.39908013 -0.64840186 -0.345428    0.4299237
 -0.6330039  -0.5249253 ]
[-0.0539946   0.57930815 -0.15801515  0.06703066 -0.2694069  -0.58006626
  0.3343281   0.2709257   0.23393022  0.13539687 -0.03930779 -0.26013827
 -0.35810125 -0.2831859  -0.39918542  0.4209366   0.58244413 -0.06617418
 -0.5292549   0.24946883]
[ 0.18624921 -0.11372542  0.952781    0.48217806 -0.530968    0.5580956
  0.1270647  -0.78534734  0.32543218  0.43797976  1.0094408   0.07083286
 -0.21921536 -0.14307795 -0.16294035  0.54422206 -0.15381837 -0.33393228
 -0.71736765 -0.7671484 ]
[-0.2070601   0.7394973  -0.80998445  0.39439026  0.08562123 -0.651049
  0.19982271  0.29976887  1.2221912  -0.8860831   0.2650052  -0.00991102
 -1.1452551   0.26993054 -0.04142325 -0.6683196   0.5105894  -0.16263504
  0.12532878  0.24264315]
[-0.20438802  0.75499773 -0.05740566  0.4381319  -0.11600325 -0.38616768
  0.33077213  0.23347005  0.05549528 -0.14031632 -0.42796144 -0.10825586
  0.04593654  0.05802655 -0.23377952  0.17465399  0.5109832  -0.0612803
  0.60523456 -0.12535259]
[ 0.41480792 -0.24021053  0.06738164 -0.1102934   0.24519536  0.28747907
 -0.2979658  -0.13428628  0.0544242   0.06977498  0.05125161  0.40677848
  0.16491929  0.38187033  0.40894827 -0.04728461 -0.1960232   0.44090807
 -0.0292921   0.09444763]
layer 1 Activation
tanh
layer 2 Dense
20 40
[-0.06116014  0.0527248  -0.30217582 -0.08152006  0.04295766 -0.08431257
  0.09313104  0.3480453   0.03545288 -0.06760242  0.03951078  0.3202373
  0.65932107 -0.19447744  0.07860227  0.14407521 -0.15141623  0.13235609
 -0.15587643 -0.19026141  0.1732813  -0.02234653  0.2910513   0.24845546
 -0.19574048  0.3488352   0.08427561 -0.06490445  0.12436704  0.09672683
  0.23069693  0.07609344  0.32563198  0.3510774   0.04558666  0.22355464
  0.06797906 -0.11542816  0.4409245   0.05312939]
[ 0.31001982  0.70414233 -0.1251633  -0.3793467  -0.5130078   0.43484694
 -0.17587101  0.40814194  0.04906652 -0.5369668  -0.32712358  0.04515629
 -0.18922216 -0.41358325 -0.53038657 -0.5275774  -0.02555033  0.5632188
 -0.0288416  -0.5335119  -0.1673149   0.41986364 -0.27301434 -0.73303974
  0.43329024 -0.01791612 -0.37151465  0.49890313 -0.00544595  0.02290197
 -0.16828959  0.752748   -0.22613959  0.02932527  0.24043725 -0.44524613
  0.11221872  0.5176851  -0.23816808  0.46395817]
[-0.18777627 -0.28167155  0.600444    0.27559057 -0.00883805 -0.08563477
 -0.05472425 -0.42101386 -0.30845642  0.02094444  0.18406048  0.02885732
 -0.55781704 -0.487349   -0.05908073  0.60273963  0.14461213 -0.5391347
  0.3508843   0.49697348 -0.47892427 -0.48882386 -0.8043282   0.03350821
 -0.27223572 -0.64934456 -0.10993771 -0.02770089 -0.6208044   0.09228514
 -0.6801988  -0.51972985 -0.52553    -0.06619406  0.51297146 -0.33735526
  0.46803108 -0.20069434  0.15441093 -0.30329064]
[-0.15969092 -0.10905393  0.3512754  -0.42776072 -0.05238365 -0.05944899
 -0.26079795  0.28615373 -0.09517486 -0.4116646   0.22442222  0.11826703
 -0.5337043  -0.43112257 -0.56995517  0.10908968 -0.28246826 -0.04922235
  0.21017969  0.48310578  0.21062894 -0.37199455 -0.24948156 -0.35428086
 -0.2345313  -0.13710894 -0.3895726   0.56219876  0.20015012 -0.38135153
 -0.36811683  0.3745634  -0.25573877 -0.22517194  0.17255826 -0.2660556
  0.4638075   0.06360358  0.12111329  0.33950102]
[-0.09223311  0.37370703 -0.14101101  0.3129543  -0.11963584 -0.31008732
 -0.00177101  0.02913929 -0.08535708  0.08486017  0.19045445 -0.24650916
  0.4839862   0.18267159 -0.00311367 -0.03497514 -0.06036907  0.38667685
  0.23864245 -0.61259705  0.19901916  0.25624973  0.43948177  0.35273206
 -0.23651455  0.47577652  0.28815123 -0.34897137  0.21274923  0.57089055
  0.4989878  -0.386202    0.28437623  0.13081758 -0.5747288   0.10510635
 -0.61134243 -0.5504255   0.37159702 -0.34661838]
[-0.5409335  -0.47615594  0.03239309  0.34262693  0.10224649 -0.01229448
  0.27397275 -0.46715024  0.48151734 -0.0943687   0.36831403 -0.28120324
 -0.2576151   0.31912306 -0.31237206  0.2061151   0.10595895 -0.7100987
 -0.17004927 -0.15743296  0.4106095  -0.6561565   0.11745953 -0.02077937
 -0.04971849  0.4006832  -0.25869313 -0.03736671 -0.08692908 -0.40123305
  0.42808604 -0.18205543  0.1358378  -0.5338713   0.5178646   0.43849656
 -0.23405959 -0.29673803  0.16288544 -0.12349355]
[ 0.35551468  0.40587965  0.55986696 -0.42245853 -0.5756065   0.4549645
 -0.10337203  0.74397165 -0.02446832 -0.355423   -0.5757347   0.26726913
 -0.29563344 -0.3147157  -0.438282   -0.26599246 -0.4005198  -0.09598796
  0.4102583   0.42660046 -0.18768238  0.09095232 -0.5177656  -0.61635685
  0.36931515 -0.2887374  -0.08929853  0.30507278 -0.25559664 -0.22031169
 -0.43533123  0.13289195 -0.43314907 -0.21540675  0.1594353  -0.462702
  0.17429584  0.20990755 -0.540966    0.22240676]
[ 0.46119785  0.13872936 -0.6445401  -0.19119981 -0.20977186  0.2236864
 -0.40623036  0.480916    0.19202122  0.09835732 -0.36510572 -0.14655377
 -0.02924954  0.49814236 -0.00871143 -0.14651832 -0.12350671  0.34323213
 -0.02646341 -0.8006423   0.01532763  0.16984332  0.39605597 -0.00619467
 -0.32983097  0.17799784 -0.11977156  0.1050717   0.29235327  0.47051
  0.47559932  0.4399269   0.23533295  0.10498155  0.03207682 -0.27638736
 -0.5483842  -0.29411915  0.22661415 -0.13972883]
[-0.04901239 -0.04069194  0.01344151 -0.31974632  0.25201884  0.05736348
 -0.20975947  0.38626394  0.29946107 -0.4126685  -0.05326657 -0.17625314
 -0.4532408  -0.40127718 -0.567453   -0.06065516  0.2786515   0.10326292
  0.01137801  0.50267667  0.2286268  -0.60388213  0.22840483 -0.12321842
 -0.38044715  0.0336353  -0.2776369   0.36363167  0.46001995 -0.6500514
  0.3127823   0.32668853 -0.07011229 -0.08708174  0.5065718   0.13099386
  0.34225336  0.17529777  0.1039087  -0.03144842]
[-0.26074448  0.10033764 -0.12737787 -0.38631943  0.06745246 -0.21203099
 -0.08322392 -0.15893789 -0.09260523 -0.5247771  -0.04970256 -0.0995383
 -0.68523455  0.06639683 -0.6141674   0.35570955 -0.05965696 -0.430944
 -0.43526557 -0.04648096 -0.01039411 -0.20599972 -0.35683888 -0.05115373
 -0.17747495  0.00325437 -0.37408516  0.35923043 -0.3558353  -0.5088549
 -0.21080771 -0.41420823 -0.17275335 -0.4045838   0.22085916  0.30373305
 -0.54670084  0.25528398  0.13402443  0.3061712 ]
[-0.03716207  0.18282348  0.08977989  0.43471956  0.28653413  0.13746554
  0.32296968 -0.11231592  0.23307069  0.28121567 -0.13650686  0.22780368
 -0.0785083  -0.39885458  0.76045674  0.21198756  0.3374041   0.31087217
  0.07132398  0.40790367  0.28939602 -0.4362901  -0.4751819   0.19173403
  0.28830183 -0.14087987 -0.41973966 -0.5365516  -0.30481616 -0.4382263
 -0.22303252 -0.5577643  -0.16094562  0.09128086  0.30591136 -0.09055798
  0.33847898 -0.16795029 -0.347549   -0.40182227]
[-0.38107285 -0.24600357 -0.06080536  0.5128716   0.16224058 -0.29650524
  0.5867195  -0.48730513  0.6929127   0.11821977  0.31909007  0.06188772
  0.05536579 -0.1583531   0.571808   -0.03672747  0.43132868 -0.20881802
 -0.47607687 -0.01565261  0.58436626 -0.34984505  0.2319097   0.368518
 -0.14307006  0.28186476  0.21832614  0.13236523  0.312644   -0.17742543
  0.27541944 -0.26319188  0.4643361  -0.02857789 -0.00945766  0.54597753
 -0.15854698 -0.42300308  0.01883859  0.02678833]
[ 0.11784916 -0.0901844  -0.11315867 -0.26669952  0.20830761 -0.2252344
  0.00417183 -0.1966083   0.40402335 -0.01909269  0.11673714  0.21494353
 -0.14166392  0.53332174 -0.30331692  0.04547516 -0.04515411 -0.5514575
 -0.11491383 -0.44646993  0.24038482 -0.23798558 -0.04276974 -0.46676582
 -0.2592229   0.58009344  0.37965578  0.2780192  -0.1816293  -0.57059777
  0.39792207 -0.22177756  0.4291914  -0.5088612   0.17389049  0.09917021
 -0.21371032  0.17344224  0.0519867   0.0347876 ]
[-0.3531565  -0.07719529 -0.18605308  0.02214364  0.10961166  0.00294889
  0.49946892 -0.02120824  0.09024124  0.23800224  0.41201702 -0.18200575
  0.415979   -0.00268698  0.10640027  0.46810216 -0.22036275 -0.43567735
 -0.14369328 -0.29351506  0.5311595  -0.18552372  0.33753416 -0.06738617
 -0.26872212  0.41281655 -0.22277498  0.06079224  0.41132066 -0.23199001
 -0.01678806 -0.2282093   0.5800578   0.06103612  0.05963367  0.31181324
 -0.20914976  0.04450265  0.28865072 -0.28385955]
[-0.07789949 -0.34510088 -0.3553907  -0.06434374 -0.08436419 -0.33539033
  0.14539728  0.04256264  0.3315456   0.2544401   0.46462408 -0.2560233
  0.18258454 -0.17210701  0.24709429  0.5399774   0.24988931 -0.41241
 -0.3210431  -0.30196977  0.42048886 -0.42342457  0.40659404 -0.26129955
 -0.19902124  0.75071526 -0.07404177 -0.20587845  0.18366238  0.16120413
  0.47401127 -0.32512197  0.55820656 -0.38159338 -0.15804644  0.43933123
  0.05026858 -0.3595734   0.39280716 -0.45070028]
[-0.14315462  0.2725939   0.37120083 -0.20521565 -0.1442591   0.13207959
 -0.37630677  0.5736704   0.2464359  -0.5454673  -0.1280356  -0.23905352
 -1.3110472   0.21976605 -0.24440862  0.4474632  -0.6214756  -0.3547409
  0.2889565  -0.11442475  0.12345459 -0.3279037  -0.8576298  -0.08724995
  0.38148326 -0.30407277  0.01027649 -0.03296941 -0.7482766  -0.19799621
  0.02567133 -0.0592656  -0.10434186 -0.3175906  -0.08774029 -0.39869273
 -0.14129257  0.47657838  0.3130853   0.46451366]
[ 0.25452816  0.77672935  0.07854768 -0.07446369 -0.57395875  0.43001416
 -0.31463945  0.49984637 -0.06129174  0.25642958 -0.6764001  -0.28838602
 -0.30297005 -0.1020125   0.26874474 -0.4749303  -0.31091812  0.2671586
  0.2756605  -0.19850509 -0.00367896  0.09108502 -0.23887947  0.06123941
  0.2990601  -0.15293774  0.1998212  -0.05160145 -0.0399388   0.02029352
 -0.1601901   0.55627143 -0.4464319  -0.08273298 -0.03348473 -0.3056216
  0.08707212  0.22604011 -0.11106361  0.14935943]
[-2.8361851e-01  8.5133259e-05 -9.1036223e-02  3.9166626e-02
  4.3972564e-01 -4.5609996e-01  4.2924035e-01 -2.1333425e-01
  5.1632669e-02 -4.0011264e-02  5.4728848e-01 -2.6374850e-02
  1.4486860e-01  4.6611080e-01  3.8277011e-02 -3.3394907e-02
  1.5617405e-01  2.1556185e-01 -4.9806833e-01 -4.8434573e-01
 -6.6866793e-02  3.4079540e-01 -5.8270734e-02 -8.4429458e-02
 -4.2057306e-01  1.4876752e-01  1.0097774e-01  2.5141948e-01
 -3.0545533e-02  2.8534463e-01  4.6072966e-01 -2.2950701e-01
  5.0655317e-01 -1.1360879e-01  2.3605688e-01  4.3890271e-01
 -8.2405791e-02 -2.0891418e-01  2.3812982e-01 -4.8713991e-01]
[ 0.05367    -0.09019773 -0.3829093   0.20737879 -0.13679595  0.16173509
 -0.07728212 -0.07628547  0.2433848   0.27932927 -0.04985682  0.2580143
  0.40836608  0.2041175  -0.05946983 -0.00867682 -0.24302539 -0.2863046
 -0.05688997  0.24577305 -0.24140832 -0.4271756   0.2791454  -0.10544849
 -0.25634295 -0.16250053  0.17366639 -0.233236    0.08962247  0.14616491
 -0.27777854  0.23678227 -0.00486365 -0.29083002 -0.38109177  0.3883891
  0.03735515  0.11742233  0.19373408 -0.2691643 ]
[ 0.07203372  0.56792337 -0.37864622 -0.22196753 -0.46765497  0.26203573
 -0.23169607  0.1399291   0.23400345  0.19563042 -0.2972143  -0.16038162
  0.09465201  0.19819233 -0.19541518 -0.34497204 -0.3317179   0.3394823
 -0.00962096 -0.37947467 -0.05796614  0.45427606  0.22791839 -0.51269627
 -0.03651933 -0.24855284 -0.18983155  0.14506175  0.0769062   0.2678095
  0.4331699   0.12692226 -0.08364379  0.19944727 -0.05715898  0.11533723
 -0.49389386 -0.0909958   0.30035308  0.3660633 ]
[-0.18622564 -0.36302084 -0.15456776  0.2587599   0.0731174  -0.2746863
  0.31557193 -0.2854442   0.3245298   0.19149157  0.24532253 -0.01911883
  0.15169865  0.0824917   0.33834583  0.2741188   0.17225139 -0.17941827
 -0.37501514 -0.03835685  0.3164935  -0.21672556  0.03920362  0.18032856
 -0.35611376  0.301488   -0.00350763 -0.15658906  0.0336071  -0.04617699
  0.22102787 -0.21265176  0.437618   -0.06384552  0.006991    0.40180215
 -0.05653924 -0.24968286  0.22944495 -0.22167678]
layer 3 Activation
tanh
layer 4 Dense
40 20
[ 0.26439005 -0.4866271  -0.0747409  -0.25541943  0.1688944  -0.08418639
 -0.04174909 -0.26794267 -0.2087702  -0.20481122  0.1655543   0.35914233
  0.1333891   0.3728292   0.08436345 -0.1382814  -0.01017387  0.3147862
  0.30211544 -0.10509951]
[ 0.20301397 -0.20949613 -0.2158445  -0.51796293  0.18226212  0.19458981
  0.17025483 -0.31883535  0.6507117   0.17041746  0.21389191 -0.11213551
  0.2650165   0.4749823  -0.32218862  0.19134721  0.14757627  0.2177841
  0.58382666  0.18122216]
[ 0.012344    0.27803364 -0.19901119 -0.46676856 -0.17036039 -0.53930885
  0.22221687  0.2427703  -0.11692072  0.0481628   0.01769966 -0.13569583
 -0.1255896   0.25042567  0.41907534  0.21430914  0.27584103 -0.56202656
 -0.49362478  0.53032374]
[-0.503098   -0.33268484 -0.12336935 -0.27775136 -0.38349572  0.3229665
 -0.3733502   0.63020617 -0.5049856  -0.34626424 -0.29308915  0.02767042
 -0.1725389  -0.16280828  0.18614943  0.13966314 -0.12583536 -0.38977462
 -0.5053405   0.5909637 ]
[-0.15287745  0.15719526  0.43219757 -0.03796278 -0.23892061 -0.04671147
 -0.5555058   0.03308066 -0.38143998 -0.23796636 -0.4186379   0.0292252
 -0.12692481 -0.5522703  -0.3468916  -0.01778163 -0.13199496 -0.1942723
 -0.11925689 -0.11512537]
[ 0.22194947  0.01843609  0.17052765  0.05718202 -0.29136837 -0.31393805
 -0.22233215 -0.16523382  0.39723322  0.16861354  0.40449584  0.06329068
  0.19641015  0.3913158   0.17870323 -0.1843519  -0.13481203 -0.05994236
  0.59793377 -0.29914743]
[-0.07958166 -0.40440777 -0.21100572  0.33821085 -0.04665055 -0.09779971
 -0.3730582   0.5148855   0.05447719 -0.18050656 -0.33474696  0.14657633
  0.04029769 -0.48063365  0.00202422 -0.11538135 -0.00219791 -0.20476453
 -0.05674677  0.36427587]
[ 0.5615482   0.3788787   0.30359355 -0.30673105 -0.1610157   0.04796391
  0.30440316 -0.4576508   0.09800185  0.23909442  0.1533225  -0.63352203
  0.34512126  0.39119166  0.3056145  -0.29827708  0.2729306   0.4956279
  0.19821818 -0.08082364]
[ 0.11196885 -0.26351017  0.34606546  0.46465677 -0.21779062  0.33104044
 -0.49545357  0.4954697   0.102148    0.1282984  -0.94111025  0.25758192
 -0.14660648 -0.5094882  -0.32640252 -0.2348162  -0.07883002 -0.12874462
 -0.01613814  0.49018696]
[ 0.08860448 -0.6445143   0.21875745  0.14810954  0.22685279  0.48747668
 -0.08247627  0.3665168  -0.23987666 -0.4289956  -0.0105002   0.6215674
  0.20247653 -0.1641025   0.02653818 -0.55480903  0.08814568 -0.4883542
 -0.3086942   0.63963795]
[-0.00126716  0.11251096  0.15513894  0.40765002  0.12500264  0.08137275
 -0.41291744  0.3762385  -0.25210765  0.13933243 -0.4237125  -0.04291296
 -0.21983692 -0.5663698  -0.00466335  0.27870482 -0.62268597 -0.16573809
  0.03465714  0.16022128]
[ 0.03080005 -0.19636731 -0.3289612  -0.03178542 -0.23272754 -0.02181916
 -0.13806775 -0.07816011 -0.12572493  0.05617189  0.12707943  0.07451852
  0.08396931  0.06526607  0.25537303 -0.03075808  0.00228482  0.03474335
 -0.19689776 -0.04076524]
[ 0.46286765 -0.4558039   0.49261138  0.39122176 -0.2581896  -0.33018613
 -0.09183381 -0.0683275  -0.6412151  -0.6029993   0.14998631  0.53617245
  0.48531199 -0.27629867 -0.13069315 -0.21977986 -0.25160447 -0.24154963
 -0.11073203  0.23506469]
[-0.49714145  0.14076878  0.0454834   0.20672104  0.6142788   0.18802992
 -0.12627941  0.27212358 -0.26356485  0.36816683 -0.3999253   0.14780469
 -0.08667465 -0.15166007 -0.36968124 -0.25549996 -0.2966725   0.2753026
  0.14766762 -0.52941334]
[ 0.02252606 -0.58330286  0.1607789  -0.11600768  0.46053067  0.45324212
  0.27394265  0.14141908 -0.06016904 -0.58772004 -0.04018603  0.28430054
  0.18189082 -0.02449936 -0.38912407 -0.06103949  0.00433176 -0.31910443
 -1.0175864   0.49776903]
[-0.27098766  0.22715257 -0.4057556   0.3319935  -0.39428148 -0.10186759
  0.08176983 -0.04667892 -0.02726071  0.12922606 -0.40372932 -0.02752375
  0.05934123 -0.6350797   0.2455512   0.17231089 -0.0584053  -0.37088305
 -0.20661215  0.09458961]
[-0.04352524  0.1270401   0.35528347  0.13064478  0.00136904  0.19485646
 -0.19232853  0.21921311  0.03244222 -0.49537304 -0.12114944  0.20087917
  0.05986684  0.15672728  0.1513762  -0.21012808 -0.21948403  0.2291094
 -0.20158774  0.18128023]
[ 0.5829526  -0.3061708  -0.5100767   0.07738794 -0.33578706  0.0262599
  0.48947117 -0.18716586 -0.3415931  -0.1425629   0.30937928  0.03946003
  0.39786017  0.06408156  0.3613586  -0.01349584  0.7601426   0.10694534
 -0.43836915  0.58283913]
[ 0.15128343 -0.0608823  -0.06433199 -0.4562063  -0.22447427 -0.34450155
 -0.06198677 -0.04671425  0.07761884  0.34088823  0.32689312 -0.05561744
 -0.09293029  0.1081726   0.29302493 -0.01590509  0.01526554 -0.09926036
  0.7889777  -0.04702935]
[ 0.4265518   0.12845404 -0.5123986  -0.16830455 -0.47874632 -0.39063245
  0.42298317  0.5565102   0.07136885 -0.22424547 -0.16684438 -0.1143371
  0.20568338  0.12196133  0.34752566  0.5034257   0.3683404  -0.57261586
 -0.26283562  0.59049946]
[-0.29367083  0.10655244 -0.09170404 -0.2164537   0.20536347  0.5326686
  0.01744586  0.34960768  0.348984   -0.09186862 -0.20996512 -0.14020802
 -0.0740705  -0.34903497 -0.29194105 -0.15316772 -0.19397461 -0.03468675
  0.04424365  0.17030717]
[ 0.6494228  -0.34148914 -0.15138644 -0.17378448  0.02677301 -0.32968858
  0.401494   -0.20897847  0.16875997 -0.5861916  -0.21876214  0.42670617
  0.46160442 -0.24095212 -0.00524579  0.36032555  0.37299687  0.34187147
 -0.56396145  0.12842768]
[-0.06343769 -0.02896766  0.08397578  0.339569    0.5710712   0.57503635
 -0.06524634 -0.34429905 -0.36764222  0.05683519  0.1778279  -0.32279563
 -0.14804782 -0.4499158  -0.2953812  -0.2700754  -0.3616523  -0.06768247
  0.1562926   0.11772254]
[-0.48745826 -0.30712995  0.34167644 -0.04903249  0.457106    0.06636842
 -0.01004056  0.22415225 -0.04289464 -0.6981144   0.16741489  0.30159256
 -0.21693854  0.11396949 -0.26452318  0.00435055 -0.15114738 -0.34143198
 -0.38705647  0.54975796]
[ 0.27067244  0.12327111 -0.31283075 -0.2960004  -0.5770121  -0.26794627
  0.12871183  0.00490868  0.40911344  0.1385144   0.50671357 -0.21590681
 -0.15511383  0.06379759  0.24666943  0.39001283  0.12194239 -0.16503553
  0.12335558 -0.18547261]
[-0.13005942  0.0035946   0.44545004  0.58510727  0.31888568  0.31935424
 -0.24319905 -0.41781276 -0.3156651  -0.7269435  -0.5805948   0.30326405
 -0.36780724 -0.6346245  -0.27617654 -0.15498388 -0.29471287  0.2564893
  0.21948825 -0.09267146]
[ 0.10049726 -0.25394705 -0.11049102  0.18584947  0.13321465 -0.15740384
  0.27744696  0.08131899 -0.3969252   0.04689089  0.00205104  0.36876673
  0.19533062  0.51305574 -0.1325407  -0.03850032  0.06767307 -0.25244963
 -0.17209761  0.05613203]
[ 0.48031306  0.17785627 -0.00710008  0.13152808 -0.28265727  0.11470429
 -0.20516744 -0.1726135  -0.20091012  0.5640715  -0.10214125 -0.39659408
  0.40161738 -0.09444606  0.26236084  0.12383066 -0.07386522  0.30683443
  0.45509303 -0.35777175]
[-0.20723493 -0.04504886  0.51749766  0.09144262  0.2849035   0.01651357
 -0.06071793 -0.4481279  -0.09381206  0.31523743  0.01237024 -0.20334284
 -0.41515818 -0.22811605 -0.31469136 -0.5491659  -0.39183417 -0.13854226
  0.26025152 -0.18442558]
[ 0.36905915 -0.3969016  -0.3035572   0.06564801 -0.3085521  -0.28762776
  0.12505701  0.0236666  -0.3583854  -0.23414375  0.11505945  0.08337141
  0.67807555  0.54483616  0.27066848  0.28034148  0.55211633 -0.05872258
 -0.13191189  0.36542478]
[-0.5436633  -0.35282013  0.39302164  0.2907934   0.3571837   0.69786227
 -0.3942115  -0.39941406  0.11340018 -0.00204428 -0.5540132   0.3778952
 -0.28094566 -0.01866938 -0.551975   -0.18972212 -0.23724823  0.4670408
 -0.0206453   0.03814768]
[ 0.271112    0.00202662  0.3842016  -0.18295676  0.2802      0.3220566
 -0.27389497 -0.5482501   0.3756025   0.35695237 -0.04668552 -0.22481586
  0.29100782  0.21087973  0.01626478 -0.41119823  0.02136905  0.07490735
  0.2375493  -0.5572379 ]
[-0.41734076  0.23543064  0.56300837  0.6572323   0.19948259  0.24623619
 -0.23114003 -0.32156876  0.01250869 -0.31998202 -0.06825811  0.31738696
 -0.05233289 -0.57237333 -0.46227667 -0.05635133 -0.4717261  -0.26477578
 -0.04746518  0.16665722]
[ 0.27598974  0.0460989  -0.0637183  -0.32405367 -0.11483268 -0.16799611
  0.19594993 -0.08734513  0.05737553 -0.33886132  0.1494334   0.31440195
 -0.1173577   0.00289773 -0.08595273 -0.2506284   0.4161875   0.0210859
 -0.62740016  0.5505955 ]
[-0.06299216  0.17281358  0.2786411   0.18270527 -0.4463316  -0.18830456
 -0.37384078 -0.12395135  0.266296    0.05041002 -0.12269814 -0.16450211
  0.25414857 -0.2546203   0.24304304 -0.32367396  0.00421906  0.29403183
  0.70887756 -0.0499845 ]
[ 0.1835271  -0.23327759  0.31211424  0.24071242  0.01435233  0.72392815
 -0.3014725   0.18200526 -0.01020164 -0.1409359  -0.5250869   0.18468836
  0.05047143 -0.26410824 -0.5902898  -0.31998023 -0.30944434 -0.08901148
 -0.02735134 -0.18711142]
[ 0.15257837 -0.06329723  0.20738551  0.10235212 -0.22139168 -0.18618494
  0.01616651  0.06088898 -0.01019675 -0.3558373   0.39740372  0.20256361
 -0.02354809  0.04240857  0.17711559  0.14115322 -0.13043126 -0.28097466
 -0.5258145   0.250977  ]
[ 0.14231902  0.20067681 -0.37087232 -0.02975491 -0.18169154 -0.71672326
 -0.23438592 -0.41366974  0.66574883  0.39037028  0.20437531 -0.32720518
 -0.39389318 -0.11879507  0.4974758  -0.11674631  0.23313996 -0.17261736
  0.11837218 -0.23672205]
[ 0.19052778 -0.16273141 -0.01074954  0.17620768  0.4131517   0.43486565
  0.22961298  0.00469873 -0.09233857  0.20472436 -0.03784648  0.10594517
 -0.10341015  0.08653673 -0.19869947  0.22450717  0.11606148  0.24856152
 -0.26884237 -0.12052922]
[-0.21366459  0.2725476  -0.10314793 -0.1871565  -0.25237855  0.00412262
  0.37508744 -0.3865372   0.6960205   0.5319451   0.2753171  -0.37561208
 -0.12813525  0.5519314  -0.10562495 -0.2711557   0.32607815  0.2065618
  0.12458579 -0.42106855]
[-0.09460224 -0.01694022  0.19689223  0.1904709   0.05083416  0.37911466
 -0.16873012  0.16589057 -0.04731883  0.14448911 -0.23343594 -0.04154423
 -0.16752335 -0.40462735 -0.16574927 -0.02376154 -0.23291579 -0.13483652
  0.01937676  0.2389704 ]
layer 5 Activation
tanh
layer 6 Dense
20 1
[-1.180649]
[1.464608]
[1.1621649]
[-0.5431671]
[0.8870533]
[0.90724486]
[-0.975771]
[-1.3431346]
[0.9776463]
[1.2450671]
[0.32881093]
[-1.4316419]
[-1.1364138]
[0.22652659]
[-1.3623217]
[-1.254753]
[-1.3591057]
[1.1829524]
[0.73766524]
[-1.5075139]
[0.7215124]
