layers 7
layer 0 Dense
20 20
[ -0.8159415824085884 0.17099113405732694 -0.06369797830231375 -0.08115276261863963 -0.22544481925322862 0.090929347933522 0.08707464153112807 0.10008708475695047 -0.4587275692225133 0.11972711633248892 0.816249548766287 0.1055617309616175 0.022890180982626337 0.7979703466313204 0.69485983449223 -0.3521875424181197 -0.17897739972049242 0.49250365548788033 -0.052950484577562275 -0.10435342734151658 ]
[ 0.29644132042151533 -0.15115760072692508 0.025947229453030934 0.3392530542082238 0.07069149292035373 0.2877194932859634 0.2826087049319687 -0.14778449274817312 -0.3707472350475773 -0.017111181373959637 0.22861196431340117 0.0005408526642005387 -0.2692980958449634 -0.16687770495798382 -0.37368016083090666 0.24134199923274807 -0.36299878160160426 0.2804494924385649 -0.18084888100932706 0.30986407483331996 ]
[ -0.13746084727559446 -0.26630829710713844 0.2441869178152828 0.09831713994967352 -0.3045770217842434 -0.029299382021892192 -0.07406980828549888 0.3189185086631969 0.3823845956603115 -0.25279694175801254 0.36564500828575414 0.08919790885432131 0.11082808100449776 0.3828380215360897 -0.2120845082561064 0.32524174050796106 -0.209479967259116 -0.18977879815549248 -0.2334907083505289 0.11312038531706692 ]
[ 0.01842069397146329 -0.39778998816572314 0.36973100236282636 0.19398901282183245 -0.3722120916415218 -0.22081081186441878 0.2992784778112287 -0.49726810580715725 0.2636499881070571 0.10370539778440437 -0.2556182276197989 0.48983605575040035 0.04227899385862271 -0.016001535342237395 0.6649704130359382 -0.389530549482131 -0.14472193881803594 0.4807354428760012 -0.20151085037979252 -0.1042869816139132 ]
[ -0.3199713729886419 -0.07010286995848376 0.21843235679134068 -1.0266581324806525 0.17718151496583354 -0.6345623824821742 0.2588040409061529 -0.6801780764101204 -0.12662817503287477 -0.2535305332527776 0.5546126035572613 0.5668579175178329 0.033097633677039016 -0.14705513920056792 0.2559844292786962 0.1237681809720084 -0.0646278977713432 -0.17407614012780795 0.17731327584625117 -1.1870764741460005 ]
[ 0.0028238456078234623 0.006683926508320225 -0.3832560016409722 0.36634219535188817 0.12181514416506442 -0.15504638919368186 -0.19196208478671073 0.3150654053053141 0.11411139038144624 0.16745876738847235 -0.17720677471674115 -0.07300146441837023 -0.10274092020505075 -0.3349033261883446 0.2318413673051618 -0.07202877217029076 0.37474244458177175 -0.0011644350002664025 -0.14416706718408057 -0.17770559142211972 ]
[ -0.3163880410086727 -0.24146050040735245 -0.2838280347764662 0.10615583382220496 -0.32464433784551244 0.22475048551755422 0.04276688797796564 -0.22746580542322978 0.13872608959221697 -0.06356699653618565 -0.20560070290346766 -0.3460745888214832 0.1832522660876535 -0.099391838158818 0.21487271094488433 0.10811520162354948 0.1721969802857418 -0.06536212744958923 0.2989783434831996 -0.11635841198792796 ]
[ -0.7327705273550805 0.5296819698086973 -0.0029082327827299518 0.6127655417090391 0.39246714225281926 0.3946355633197001 -0.23447130375582906 0.6416143238791878 0.22845601155912446 0.2083156223132313 0.23543092418569658 -1.1087171066256436 -0.00916671649791159 -0.5401019690408893 -0.62345846225997 0.04902259900454511 -0.16841415960863862 0.27187147210545565 0.18314469824028198 0.9987392309503611 ]
[ -0.791784482737403 0.41354146115681334 -0.17201424125965442 0.2965312311138966 -0.7074178904778589 0.4624271474855908 0.4166948101709254 -0.11431217978677555 -0.30459934838504443 -0.02396913889600318 0.9200515250173202 -0.06327832295350672 0.3571613234129917 -1.0909107691615094 -1.034239592245073 1.6698225471312562 -1.5180881316656514 2.0874866959185643 0.7690456342271366 0.10418973889752037 ]
[ -0.46417332588500865 -0.04294325713351678 -0.14876131626130085 -0.17696978916409276 0.5986487153827065 0.3976150713166716 -0.1654400495394219 0.07604155109235494 0.32962522424884444 -0.12787114895439994 -0.39754906042313876 0.4846633281716815 -0.03516824441897479 -0.24174345684927318 -0.08825448903059553 -0.18838048980909072 -0.24484765972850306 -0.08707518764094631 0.0851764449432831 0.8124675750675274 ]
[ 0.1353701079469498 -0.6817916855438553 0.3438668681533168 -0.1660631592552706 -0.20295047035392266 -0.46656576509675374 -0.3055735965146975 0.22174784442431825 -0.16202188953276128 0.09735205213525217 0.0783391620008505 -0.36338274631490447 -0.05534869604821398 0.08791222956395175 -0.28079133315965976 -0.30916303722819144 -0.2404993810442687 -0.11651018293026402 -0.3008171911711637 -0.5159316421434784 ]
[ -0.9357229887544339 0.07224436877260322 -0.031843139115920766 -0.1700757575172506 0.1233617213426778 -0.19896635446824668 -0.5514483848540758 0.9409244825983739 -0.3506626515254691 -0.05446801912407364 0.08215000082198944 0.39354863368581194 -0.9989782869884716 0.5876450808720437 -0.8293166748890896 -0.8256157394762297 0.10975637563693515 0.12346599005817245 0.09389506407119944 0.8413528033447458 ]
[ -1.1024005853089234 0.2780340426121071 0.2953733029750005 -0.37791890022106905 0.17450704559630503 0.06058865167769501 -0.6372757839416721 -0.5093227220323414 -0.30358643591921636 0.05994472957182945 0.9558514296814131 0.03320031660564015 -0.4349960514853903 0.6965945055817984 0.6974359376857462 -0.526282697091611 0.5255735394883031 -0.49032973977113775 0.1319366510280375 -0.02620695907951412 ]
[ 0.31122591697813373 -0.7480105344470147 -0.5503808595344217 -0.4209391442288814 -1.9321827039644135 0.7211925046072762 -1.2746749270509816 -1.193824333825828 1.1154705243615815 -0.2045576890293686 0.7204931827458996 0.5205724397220671 0.769481917637423 0.5615556950678483 -0.5723287532313067 -0.16797500638179447 0.43590589725634304 0.7254405012054455 0.6350381622637746 -0.5496448679784305 ]
[ -0.36105462727185456 -1.0546833513009248 0.17353481205693047 0.18725346291792996 0.30060308089392673 0.8972710657415222 -0.3966799776426466 0.14219823423892267 0.02020669400445542 -0.8433580843363814 1.2594495190544273 -0.1311348809588129 -0.5800590263830855 -0.07827055168608436 -0.43279309902313534 -0.1431711474544393 -0.21072303551870036 -0.42925634888178704 0.8092249871734231 1.6574493761093896 ]
[ -1.5150262767827785 0.24357427183353858 1.26619811019491 -0.9513141082094194 -0.94945101402841 0.442922154530326 1.8019545664957202 0.41750647337047636 0.19115475424589798 0.19537339025049502 0.947291710951463 -1.4193940173447328 1.0241151108284354 -0.04498397612149344 2.052469025572923 0.5905682264928923 -0.09657356899316613 0.06064454633344091 0.38464313868543365 -0.13224258156609606 ]
[ -0.38266215032936884 -0.01387017741076475 -0.1645006888456376 -0.7295902813369013 0.3496570159870588 -0.2715035140447929 -0.7331799730390923 0.29169482930174057 -0.4830221300228778 -0.3089557263862066 0.38481935249081756 0.5071744736467872 -0.986930904622487 0.614608888836329 0.3493660460702898 -0.8080563179108082 0.12386801211910382 -0.3094173010786637 -0.5597003533265682 -0.4768283475300151 ]
[ 0.2462614555505819 0.6983908789229117 0.517169667707061 0.6839293818490937 1.2949258590404529 -1.008054060722895 1.354594491911318 0.9252002597935716 -1.264213742712441 -0.10325567856857852 -0.2692622720630908 -1.3044462666335637 -1.386245248217845 0.18481690290874095 0.1851567251177913 0.0583010390132633 -0.9986141065292796 -0.9122764071968882 -0.5451066658976429 -0.847708965156391 ]
[ 0.004439895561403078 2.950071151653131 -0.10893434105007867 0.46918017386028205 -0.4733822641669953 -0.494321829103229 0.02838107693945277 0.21451837803628382 0.20363918274556375 0.6527851156898674 -0.9462100745610619 0.9319333579480944 1.0813270309422922 0.028593284745566133 1.1234394512343742 -0.4130182028005728 0.2669918061323709 0.5632787801896947 -0.39718035992901085 -0.6548723387794559 ]
[ 0.7019522341363711 0.9860377027904339 -0.11359971922096718 2.538846511253897 0.6922399121944703 1.0260987813298945 -1.2203765342286834 -0.4495029450041228 0.3487933823006334 -0.0036752278431347544 0.4070261109902157 -1.5164785622530261 1.541561939979227 -0.5982230838462766 0.2655975334908425 0.7916278807750525 -1.3889306770668972 0.28059651238088434 -0.3082989402338048 0.800754625329915 ]
[ 0.3689800261234014 -0.20125569581997518 0.061970055971839855 -0.1591895062444494 -0.041333766194600004 -0.25034337525415307 0.1663729461990208 -0.1163712148308596 -0.04644714077699715 0.06371559056320533 -0.18041772181531823 0.10507730072938545 0.12413811169989576 0.1476785555234269 0.19637491382135158 -0.059795672919908074 0.04650010086728354 -0.022958712597072106 0.022313301589760148 0.08005602228958772 ]
layer 1 Activation
tanh
layer 2 Dense
20 40
[ -0.0861182878354892 0.24097402473282853 0.0839464482545934 0.18891381333021032 0.12144680474553371 0.4188049408070388 -0.02579148358625898 0.13928794180300577 -0.22166921092683603 0.39642563177692247 0.12201786804546327 1.20358536531629 0.397855253879633 -0.09990109750430366 -0.06428099600057971 -0.12913918240654373 0.26921403777917113 -0.38299546487822367 0.05273397652800856 -0.1546224996501134 0.16716159756983112 -0.05119862584893718 0.21833106288577722 0.13989812671542026 -0.20706923691583135 -0.3239325389369405 -0.2066385816758407 0.5202708366225156 0.6818124322974143 -0.34928931036258276 -0.5539286004209819 -0.02046781896437644 0.14876355965887417 0.07083699153969789 0.06439071732177845 -0.12857512760198522 0.2636683927633657 0.010939154290843113 -0.5552676430419461 -0.45576687524199144 ]
[ -0.0019343262514280768 -1.3019487813273078 -0.30962408468467384 -0.436768358541281 0.16591496368735892 0.12132135131784867 0.048532103292563085 -0.4024624577324931 -0.14223647745098694 0.16824790561051461 -0.6450809948841063 -0.26803366887342694 0.2763083202453797 -0.7055228083336905 -0.29393504874755794 -0.3105941503437095 -0.35383669922418437 -0.07195162072356572 0.564684178790359 -0.39343543184019175 0.5140860143664918 -0.31738318171098573 1.0651250992746282 -0.8804454742151833 0.2674115281944193 0.3588492070106436 0.13452505737992154 1.1511117602626413 1.1242734467711928 -0.18088167986197637 -0.38928434672693724 -0.3109028186499128 -0.34270076430533125 0.45281460512139665 -0.21520147007945042 0.20222104930314355 0.4186098480126036 -0.2964485485839761 -0.5948599346668533 -0.3148838386879504 ]
[ 0.24466478205229528 -0.16072895319300165 -0.18229750241409415 -0.19426819902548345 -0.0950863442540117 -0.17782481109502915 0.1445397856712782 0.1665379748650735 -0.16741403359815873 -0.2931078380049405 0.07466654021919696 -0.2127853122774235 -0.17675553382329 0.0406285944209715 0.08677739607252581 0.1814538866189466 0.15688519255879327 -0.2894458078405985 0.004294869713172431 -0.25170080307474496 0.2690313144705732 -0.18288797747405403 0.009283830039892391 -0.06164604087915667 0.3796242780089468 -0.09309063767291761 -0.21866081784400776 0.18214009093850983 -0.05236066674585426 0.26848908690190554 0.023668730369706056 0.09808665143773974 -0.6728920962368283 -0.43248594875462093 0.4134362251988245 -0.45582417577551343 0.0736493730210986 0.01199087025984721 -0.11766696442927681 0.13171269385971004 ]
[ 0.30223136210364987 -0.04494923407256599 -0.1826259109229464 0.05411599767349663 -0.2876216132522034 -0.4715419501325354 0.2621977528877619 -0.20077992235402942 -0.2976110809311141 0.07842407491145283 -0.4573330494073448 0.18729373780481445 0.15664699371499044 0.7431067138490247 0.46086930500110596 0.009477864293922843 -0.08187641833040545 0.3497950853403922 -0.06026035649463528 -0.2772003660967298 0.47549562404325246 0.10581077793401486 -0.07179847300633245 -0.26954280429966326 -0.04559789821975472 -0.21515364597510975 0.2326169259784342 0.170237918980996 0.41762324669097634 -0.2406255448348104 -0.20703141510330428 0.3924460383643109 0.13397174708266904 0.4578789732586652 0.43135287178312093 0.09234937291904552 0.1340683632932261 -0.2429586228274323 -0.14630536793028973 0.500458918509356 ]
[ -0.1475058156261084 -0.242661331011794 -0.08708870726487708 -0.27221472521706896 -0.20724061266431415 0.04698166542595813 0.4292393024096967 -0.23258258234867948 -0.3779849770680727 -0.45721397811259507 0.12840246074595718 -0.5482655284818675 0.22468001293255144 -0.29010606792391913 -0.19636341746419023 0.15330971183401468 -0.09187953781833814 0.22455640058541124 0.16168063896274926 -0.2122018652065165 0.07459104799786764 -0.40890169588314157 -0.45910553213689675 -1.0295901786051138 0.09962609053552032 -0.019915963828491437 -0.42130258256733705 -0.35390845028690254 -0.6749434143994923 0.457216604458156 -0.3031958479601726 0.2882190029791213 -0.9066769411462738 0.0737449879332406 0.0026210882266664544 1.053185916901329 0.5384803896705822 -0.47485705198034717 0.1752063380024225 0.03800324943516442 ]
[ 0.14536780497435203 0.07864475562408205 -0.30991888064295386 0.04357609898411155 -0.019375594250824506 -0.08391729410023703 -0.1931514978291082 -0.33716426782019204 -0.20873411454721708 0.10007939912140706 0.28273479175508826 -0.0048258429383005235 -0.07629624317100346 0.3469108810202926 1.216846361494974 -0.03524066505350065 0.03511561112896538 -0.3620203087837342 -0.4618185661926486 0.729212858728318 0.42056517426211637 0.09644176268436176 -0.4719362653157858 0.05881516351981403 -0.25673686440255933 -0.03365805441898563 0.1876572153950928 -0.4522470650389404 -0.6400645644254579 0.12194741553178799 0.8976235727417408 0.10739109688163836 0.4927071857839375 0.3255668926473118 0.06197910968927776 0.059791598641854946 0.2697280649560638 0.4616784228387253 0.46593136867426477 0.024245161036380525 ]
[ -0.10312946666785354 -0.17406343549466036 -0.21251147930720482 -0.6419081084971602 -0.19751414359912609 0.33653963464155656 0.6128797726389431 -0.27135755383312715 -0.177386942558115 -0.3691615039580157 -0.3684250616496738 -0.45779710797419465 -0.283589034072758 0.8640851358000408 -0.05411025208005058 0.15113290740056648 0.12050337993064462 0.6151499750425006 0.7262133021204601 -1.1527343951756848 -0.9766019022723734 -0.3733809646719358 0.6107470481517224 0.41268361699907113 0.07990411685527025 0.3319240882465514 0.2223271898833178 0.5559249796652225 0.5337729005909434 -0.178352285606783 -0.8026693495021733 -0.01906595067672131 -0.8191563692972531 -0.3937058755913054 0.35673748795323895 0.09313255140945094 0.33325918436607205 -0.3972864211711753 0.24487506768874942 0.26430630497876334 ]
[ 0.18919298919970118 0.0185664699817248 -0.4156287406575085 -0.42334162571045253 0.14365776239310554 0.2972177212906804 0.5642880761650283 -0.1866369871728346 0.10953282837602964 0.08209302250684974 0.8824206645901146 -0.7483709675737087 0.26334603642668225 0.23940940006241404 -0.049283204443604976 0.32830583351661907 -0.23253244332944825 -0.03206762751404964 0.08663704246425664 -0.9297580280031842 0.11148433039446784 -0.48743374390835953 0.2864878532062773 -0.2360936503316395 -0.5635574525858108 0.5229724686666845 0.020930400978003583 0.38480226193983247 -0.5513450160021243 -0.08478123326724644 -0.6890791919463402 -0.35722341137735913 -0.43420399935006954 -0.5836978732168254 -0.1602174142443875 0.7293573675661186 -0.057758957395636544 -0.24673316364787581 -0.3763212798064772 -0.0556787222713709 ]
[ -0.07735395708412561 -0.09967055115925666 0.040387914832014156 0.36214060926705605 -0.2528549039429874 -0.050889653161488115 -0.47584811004345967 -0.1552307012053496 0.02123362970540362 0.5001597046738648 0.2548408114058855 0.5162007721522232 0.08851939051798967 -0.20869790449294745 0.26360312550093673 -0.0015726507287808747 -0.053096211977903325 -0.06601620607839395 0.010529737896136558 -0.05286058943375663 0.3328991506282036 -0.038484465975229115 -0.1419854366565883 0.4448826866984684 -0.15465441497443436 -0.11673967302557055 0.2423630541822783 -0.04345152010336347 0.12079638656530609 -0.47407530040677914 0.08134970893640334 -0.18150575023384094 0.6313244047824177 0.18354757170101754 0.14879840335923225 -0.16190333966988307 -0.23914325617280358 0.3619220577232342 0.009844194945460126 0.2514268561465339 ]
[ 0.1863728043982082 -0.37851732703479957 0.167636432096649 -0.013447197823496489 0.15307061365551425 -0.06437650612407594 0.1275240228945614 -0.20944210691583104 0.15013370089683611 0.14317770929247137 0.12919047422446558 0.2563392887504714 0.20849702265388 -0.5105301892017906 -0.09471635570537616 -0.3250759617308722 0.2005033462645106 -0.21845528113795737 -0.12869589847924323 -0.6976920451496594 0.09254655774314713 -0.150101840909888 -0.5249395153364862 0.12813967190443804 -0.09840789863637005 -0.020318882647713733 0.07991224951587113 0.11023916326942529 0.3665420777376153 -0.10102325166151216 -0.5935264083834447 0.04256468252613316 0.0427237496143021 -0.26797624281988325 0.2554165324962191 -0.2943067142582678 0.0567356936362516 -0.20611970013908834 -0.07542295300879293 0.27048483945056717 ]
[ -0.046948349543856606 -0.2679600046307693 0.12935035742772524 -0.021184830015849584 -0.0935717772759957 -0.04097085271663107 -0.2589491675760083 0.25322756877377445 -0.035240093649388606 0.09483632262968551 -0.712738697192766 -0.1636356559890364 -0.07422352550088696 0.02776610574341445 -0.16416950492817076 0.43114691427149576 -0.11284153635658704 -0.1456830223658637 -0.25643341497968813 0.5440766802447021 0.11245748240958792 0.19098654450044664 0.1316617749890262 0.19293049333412413 0.19501839011815372 0.405232730613649 0.13699511297519515 -0.6864192724504485 -0.7252311218517384 0.6213462431777935 0.32634006456227255 0.3182851982286947 0.2211654643012283 -0.40046557671629607 -0.3585392420113834 0.13425597752794152 -0.4311026148840616 0.3164419100074349 0.21902882440508104 0.2532324475942446 ]
[ 0.06572729436567779 -0.8559477849165277 0.0492446329415116 0.0004852521938345353 0.06077933332748717 -0.21659536193518736 -0.3767389444759006 0.19068477176927884 0.20162403389973413 0.4363749330407085 0.6736237408353372 -0.22338376072213317 0.1695329090267508 -0.7880479901040719 -0.06463188953952477 -0.08069152924186582 -0.8489858238843667 -0.16072530132083185 0.23881319791952535 0.05595379978530288 -0.45945094375319695 -0.005203941178203939 1.1808990983410745 0.9317380730257137 0.6047100796024594 -0.09016229711561152 -0.5169223990923761 0.5819378290075878 0.27121205231087275 -0.27551801333410836 0.09823780266187739 0.339907919873783 -0.2465729287740477 0.3526598267490087 -0.4064471359394205 0.07141284958362647 -0.21767947765873677 0.2217468718343906 -0.39640985280393853 -0.7348169899606847 ]
[ 0.05909849791205046 -0.035367109227487904 -0.013497729912001459 0.366305992357407 -0.2405805277590185 0.3240726265100439 -0.6562650929424694 -0.9524695326258575 0.27693668968095675 0.15808559948845616 0.03788288325517482 1.1798593420616608 0.01598801152010791 -0.43287281876717865 0.4886492392173725 0.017523272850997022 0.9430433545257381 -0.5530139596556022 -0.14214185689387845 0.11027904162607355 0.25158426799886896 0.6070578061490218 -0.854590666245341 0.09197430050802984 0.35164155158086646 -1.4367268626329655 -0.004384892512517009 0.7070563042301357 1.1818270778708242 -1.0046049122470544 -0.0915261954896565 -0.05581830604381215 0.03900477403002318 0.2957258399060059 0.7555191926303061 -0.4415295155288535 -0.049087009448710174 0.05183556066507327 0.2801494235663629 0.3344346128108877 ]
[ -0.31514291649968207 0.500137728777076 0.21511667802664405 0.07621593864238288 0.19627288048662467 -0.3176074379505124 -0.32516557266054835 0.6738831497269444 0.2843173394954226 0.2974163861740001 0.19444681821249651 -0.4230282706936885 0.24966138165044763 0.3264763456117297 -0.6172968753430441 0.30237804814495345 -0.5707084602486217 -0.23550684447090187 0.1756066142389456 -0.38758081945008666 0.2443859215999143 0.2261861586248304 0.5162339863485852 0.06917276247699614 0.46397098160174477 0.2222485324185897 -0.4250753926105053 -0.1285401261147514 0.16757971638864178 0.7782965437275338 0.23707074796213978 0.026772769407088885 0.010887619309709823 -0.17528456854408964 -0.382170358157393 -0.7315114403531182 0.017910064865947692 -0.13233797211461024 -0.2994835316124022 -0.19422815905102253 ]
[ -0.02557313976356355 -0.9840603311143624 -0.008300776049764296 -0.23816344387032318 0.447344756515397 0.018532264378011185 -0.4866369509529919 0.02351602749818175 -0.45985335440790925 -0.08769945346850168 0.752949413611977 -0.05053698423527458 0.11211752093185033 0.08645895077595026 -0.5407840977943634 -0.08870949219166671 -0.23811863506960362 -0.12843923318774206 0.010671719467908656 -0.5599010324263254 0.4163975009922556 -0.3695921237337811 0.13649852942271784 -0.04897323143892511 0.6897586893035398 0.06859883228484581 -0.5161881635872044 0.29350197356999597 -0.06386186428762938 0.15475440597231166 -0.77739807649551 0.4105026193579039 -0.4096010514347347 -0.10630695045887402 0.6531182223273997 0.14191678855013082 0.15946455687573077 -0.1960256403431377 -0.37685849411149014 -0.45321920911914837 ]
[ 0.061324507429343034 -0.24620118527246526 -0.5226745123279662 0.1818728283098856 -0.4745382455756996 0.7643341972769117 0.009176431242407652 -1.4088838724451844 0.04038862771882986 -0.12067566560187667 -1.4281534721821951 0.6015798205623784 -0.04434304275272573 0.48446152817964294 0.25099544244698463 -0.012397186803054254 1.3894390486773778 0.5392466323292172 -0.1562545411967807 0.29828716197017197 -1.0797653761737918 0.05712440047181154 0.23268556643296381 0.001583244058638663 -0.07076778037168038 -0.588937966680396 0.6952436490287163 -0.1330741882782408 -0.526989142298252 -0.38283818497479377 0.6876560538903451 -0.7024214524530209 0.29557479851008345 -0.37539809513267064 0.0622067292382788 0.1962841237297564 0.3688174246040379 0.39115163591451163 0.7824326432674233 0.5430134258927171 ]
[ -0.12850232771492498 0.0511436096168326 0.2963029411472249 0.46951922856330996 0.0679610733120696 -0.10373689465787486 -0.3668756494667321 0.4667200101724117 0.17023384386047968 0.567701975365718 -0.17620500055194388 0.6910532543268508 0.15397100517438353 0.10672803825253287 -0.5177697686300863 0.059424694595383826 -0.6745809916010915 -0.31457549401867535 0.004592657380763344 -0.33057145138473 0.6365993526086133 0.4157289217637236 0.3239807979245185 0.09005902539415553 -0.028831605744681212 -0.6500480978193661 0.07139423423995296 -0.15195738995738 -0.3335467492680144 -0.22859080216462893 -0.10796620385085216 0.11411013260131399 0.10012368593517529 -0.11249224183480051 0.05009574396436048 0.020247003664846143 -0.5553832057886948 0.28697261663606516 -0.7200030874453687 -0.22673611988332923 ]
[ -0.28105890082081164 0.09872925243487418 0.3007822405004543 0.25600442759916625 -0.2552540466254896 0.3283454500282253 -0.13329167939160116 -0.7454415103809817 -0.29535129702226104 0.30063110905447754 -0.011132683993887386 -0.2664643417813784 -0.2556077391154541 -0.5165843940318502 0.317472148180089 0.2745060404203471 0.5780633119571472 -0.5539493434465513 -0.09344571603388849 0.044697058053789054 -0.3805638108661726 0.45449894468957874 -0.049432747997830456 0.8008510207496117 0.6556700178162022 -0.517781631109198 0.22935212324195045 0.543233786929332 0.9933481362740559 -0.6125885206826523 0.01625797794514242 -0.04872996697191559 0.24452203821501975 0.44322773947119276 -0.12968436653682167 -0.8938088023773141 -0.213997240433067 0.05528547098686801 0.31149614212196847 0.29914749775441374 ]
[ 0.07312988015883413 0.056220382561686814 0.3078864633940554 -0.13861364241116722 0.18765269971284443 -0.17203978846675558 -0.19940245487707683 -0.2892678963818869 0.3085121812202352 0.11755203328293552 -0.08078616020177547 -0.46735201673497495 -0.055259916985111984 0.23542283927649016 0.3232460675540935 0.05421267532526838 -0.049008847761258474 0.11916315997092422 -0.3631082166004264 0.661099125917387 -0.3632315112244638 0.25424879187856614 0.15304693648560805 0.382799866966845 -0.09748998193682584 -0.1949263169148473 0.14110457211266694 -0.3037003582836304 -0.6637652183492095 -0.27552288457500357 0.639733182708786 -0.23028415190330748 0.3794737388366368 -0.2636559524601369 -0.630552013395474 -0.36462423312744013 -0.4524968460864463 0.005035608626011137 0.02379064931888925 0.1596304025654245 ]
[ -0.2210233520426038 0.3283592231664754 0.1336850909882694 0.41709566046524876 0.1583724405229634 0.010864167500565887 0.014116029016155057 -0.6785421097150595 0.060688406030693344 -0.34637139658469096 1.1833460533950926 -0.6125202013332688 0.2652706881524816 0.403178508206231 1.595382239013437 0.28921647233849934 -0.002251221511296396 -0.3307686939737169 0.15938368066350683 0.4636994097743568 0.48270281644827273 -0.11527234631219575 -0.4574149406543344 0.10329536023637967 -0.4253571969812505 -0.1447030954690207 -0.4798444602987586 -0.24837134433295294 -0.8941438624587118 -0.144102168768786 0.06461733947056478 0.2512963962910415 -0.04650475710730096 0.9970735549110639 -0.9094834447706941 0.22364959555646213 -0.05860315851367402 0.1572032605038378 -0.05400895453732922 0.05245093092209938 ]
[ 0.0821647605950379 0.08743551778484887 -0.12219886203679525 -0.013398146863420548 0.28479828091795384 -0.24229372428033044 -0.12075840856904799 0.49613233255342193 0.05805457848656912 0.13990829699323937 0.5541404906833234 0.04843549376593324 -0.01026618050352454 0.22168265111727176 0.00797762494209728 0.10014805996079243 -0.41407223469145943 -0.053769524676678664 0.14853003474634507 -0.5186803350117163 -0.0006279209899111016 -0.03767441610122176 0.2921077251118505 0.5446590331467925 0.0946393096517103 0.0758939135261235 -0.18915941887883808 0.22810403275001662 0.29097779439037574 0.09648791235043315 -0.14956734942193997 0.22240769373989885 -0.07897251479082304 -0.01655143860515657 -0.19622517653644198 -0.29648562599401473 -0.09056537272273799 -0.21285483922569284 -0.21292491588241494 -0.24262962123405388 ]
layer 3 Activation
tanh
layer 4 Dense
40 20
[ -0.07673261154256585 0.04449079920000685 -0.0417399201256203 -0.027235952271279326 0.11445491537175832 0.16209048437309082 -0.11231047094245829 0.0721838060192686 0.026583786618525278 -0.03039162503366284 0.011100867960742715 -0.07183726215947962 0.14514958244459866 0.013296295126441772 -0.06079483882894985 -0.09445364397798788 -0.015497882756100622 0.0360032076532811 0.08947610049740828 0.3047740612306217 ]
[ -0.01748812307073475 0.15299859571047483 0.6720610932647971 -0.6470605022552769 -0.1931363044902004 -0.30672442698966607 -0.12698866448668242 0.1949634376412444 -0.6930373179497943 0.5735247336063006 -0.3561665447089997 0.4065422249178885 0.04885122225482871 0.3812959656334516 0.02420250934743229 0.6439074649231954 0.1184451440236265 -0.016559370325476313 0.09245473419605103 0.5894070565505605 ]
[ -0.10929211448861026 -0.18163465241316218 0.14028788639336184 0.023257810937014272 -0.15055651770444428 0.05624614406764157 -0.275336551878912 -0.1463746464717922 0.03254728400333254 0.036264038000333024 0.025817815357886492 -0.07640364283964807 0.27735482422660535 0.009341958048367509 0.19553587371800824 -0.035722477073197936 0.17079001337807384 0.04059142084211678 0.0007906027741575438 -0.17691816931646476 ]
[ -0.011870133364606092 -0.3175448332726544 0.2642953617897273 -0.24427551097484615 -0.12658222248438114 -0.24395486674021832 -0.34054214225589813 -0.010082074555805898 0.1452297950590073 -0.4906441627317714 0.17516607376535986 0.1631659158818279 0.03220345621197662 0.43647395725352167 0.5094792945765307 0.2015436758037862 0.009584028998598282 0.020620771264145226 0.19900450776376535 0.046360770959158935 ]
[ -0.10144458662541833 0.12404014105474889 0.04333584779020743 0.15749077113508544 0.003233710510891691 0.07138436416242404 0.06987487423832384 -0.056365213046759 -0.12079979218219632 0.311770656960377 0.0018573402948171389 0.14318262041444674 -0.1046549499905244 -0.303654344161568 0.08161073136619827 -0.003762888828742098 -0.09931942864851312 0.16693916986804982 0.09898609001633675 -0.1499575849739309 ]
[ -0.14309942871457773 0.06354496855516534 -0.037790809143447866 0.1765415219452287 -0.13567220581207587 -0.045804565628733356 0.3819319049825053 0.09187462102111062 0.026562239212259097 -0.21396443597441558 0.07213757472610588 0.015294104582068778 0.12189778234545566 -0.13257195241086034 0.07884113581042362 0.12020131156283442 -0.18195045815471772 -0.2773603830687529 -0.3770739839970559 0.12752047679288134 ]
[ 0.1950373940543365 0.31077032479840616 -0.0005146418981351459 0.02041505317879752 0.273190755222537 0.09114730977983715 -0.10490545423201014 -0.04931502807268081 -0.5155643438921796 0.10140711875679936 -0.3346253867366805 0.4194922375025121 0.22173957425276786 -0.3268035286621249 -0.015225815792102582 -0.3600046824120272 0.10890382787599787 -0.2788969176414769 -0.15521832545477113 -0.25206082803043417 ]
[ -0.11412979910777935 -0.1695075850642873 -0.045420822604903335 -0.2380221663573911 0.04317203574550232 0.2935010917881346 0.2581327092676781 -0.02619891676911214 -0.6332469453667653 0.5518946001655244 0.30545596648722734 0.7462288477476826 0.015474329851505738 0.24311605413292148 0.2287295346740298 -0.10992334115448095 -0.0921103961683601 0.5987089023632935 0.13165603463722172 -0.034323736367571446 ]
[ -0.0918077902470249 -0.48644961938385933 0.04802744079984377 -0.023193086681855803 -0.0772829935544465 -0.2103032537934363 -0.18505187530650294 -0.39131048161722376 -0.10742204312788452 -0.04215543268538099 0.029426064833902234 -0.35583248329313705 0.013041046567743617 0.009737422112485326 0.6136403615438839 -0.03985008545373833 0.15344996608717648 0.21631292569545071 0.15819556479994634 0.11611820682664312 ]
[ 0.016024333422913865 -0.24915157487862127 -0.1514472203231634 0.006797524680323023 -0.1958347912573091 -0.06279054743741816 0.03144480620943057 -0.09031399600859666 -0.1510528721480573 -0.18001475365672767 0.11404874510994273 0.18814146271816168 0.1617204637998188 0.15644846828001044 0.4034089206934422 0.12825531109410462 -0.08519750761544045 0.04758932937982085 -0.23990268052915692 -0.21532761710205067 ]
[ -0.22237750116692392 0.2814332257617768 -0.402651590059452 -0.16350608649485207 -0.12637150380839712 0.10373336521250082 -0.015852958831144764 0.02615348326475026 0.31411104520132827 -0.06478712491119698 -0.12014442626719135 0.9312128505164443 -0.025251266799975854 -0.449704021047241 0.06753248455512058 0.2883792874308393 -0.2645093858122852 0.7573842416213586 0.11600947003388488 -0.2312071026308727 ]
[ 0.22173601383358424 -0.20768137752965213 0.5325624957463324 0.3629138737730205 -0.007760680426326795 -0.012947988036775038 -0.04627729214281669 -0.16366425454089992 0.2265539063728207 -0.49596154086916544 0.2035026168520242 0.29298392040203175 0.19229921003063083 0.4982859037520633 0.5077194665843149 0.152714869978988 -0.051495547224788774 -0.2593319110477366 0.10956656251318404 0.36128657880819043 ]
[ -0.2679850054377942 -0.03240645996584437 0.09615857508755414 0.17976561681792425 -0.02522281344612995 0.14691601910802243 0.06838369188352675 -0.006841745902323847 0.016219945929250964 -0.16091174682164147 -0.2093510370074735 0.3178860245718744 -0.062202687753451606 0.07691298653274002 -0.14803470734383326 0.21250023444205227 0.04745132701927368 0.14988370473732324 -0.07625571171487971 0.05908992597600632 ]
[ -0.0940604696317189 0.07156241499190916 -0.1776190515356767 -0.4811036645188546 -0.153804654483659 -0.11617618181637376 -0.317880630438543 -0.09206581230620448 -0.48132554800108324 0.19827240725387388 -0.4077930988528874 0.3399633726151943 0.28367179052244385 -0.3943027241373139 0.1125961509730421 -0.10846087593832492 -0.06476133685263431 -0.764924983133061 0.2947008647095786 0.03872303331217723 ]
[ 0.07160702997489791 -0.03633369134653423 0.2021355864172723 -0.5250652253435947 -0.3124747915318989 0.06913312253869332 0.1279970550228423 -0.06819149492261545 0.6051742324504242 0.3754933926504277 -0.9341977876280688 -0.12772083000303536 0.24811548745179943 -0.28374480830185994 -0.41506800762067836 0.8432658264874069 -0.20777343891315636 -0.6899151976385494 -0.11158246041174957 -0.0392339185978504 ]
[ 0.12071270331735837 0.023912258505129385 -0.06956085001783753 0.09179764352405098 -0.11661361548349153 0.24975071705113172 -0.000281620764476872 0.32652613158532773 -0.17133002301608324 0.11317883588870599 -0.07376433473959411 0.07497523135088699 0.07705163938786451 0.1825346068672792 -0.22688212453742262 -0.13377621056382977 0.031425197568799496 -0.12002795416393774 0.10515373576791427 0.0567848128056847 ]
[ 0.11280104440537211 -0.017926354152310437 0.03508508726481128 -0.07957948294049652 -0.0485891729273636 -0.29383057667940593 0.05214921468053214 0.18983481999683655 -0.19257022670201984 -0.599273567138369 0.08211924774888717 -0.3723829141353626 -0.28937971061604967 0.09973686405765994 0.11470304818032985 0.18628175173980716 0.0614736806563479 -0.518938121690622 -0.12001264212279797 0.16535358049271343 ]
[ -0.15831242232042686 0.12870406729922587 0.17450644471766255 -0.08009213477133487 0.14649274674752621 0.08507108212607195 0.1604245777181143 0.16610847593217812 -0.2322232667473897 -0.053783854311641406 -0.08749183407612622 0.08760714678051 0.05973174403256875 0.0711415368857031 -0.1998744100345289 -0.10964647694130823 -0.02641846869171764 -0.09059023064607509 -0.11511914007752612 -0.1854119067238206 ]
[ 0.01712192115217475 0.1611432756705486 -0.4668867197702837 0.3137591295623928 -0.041553607475919394 0.15509339169282002 0.32940820285073324 0.020134524017632556 0.012049820617417122 -0.1845554499798485 -0.21273462848354102 0.19151539250547756 -0.23509621312751652 -0.3084470743943878 -0.3165182101124112 0.050739178761081846 0.2046720449584772 -0.09050499998849339 -0.1851081928852383 -0.49139800631901154 ]
[ -0.16937813372905003 -0.05683429865619627 0.5059140457027537 -0.34752548884320217 0.39831542611892196 -0.1555284086496785 -0.04210672328740164 0.12986548135276332 0.44355602960093843 0.370277168601436 0.2787354674447132 -1.004294058643451 0.14070259105259408 0.44329931769072983 -0.11517201672707518 0.25277116070069955 -0.20474437219405528 0.20018980179315063 0.26560293624173426 0.3315604604061654 ]
[ 0.04460714790425774 -0.5851866005212396 0.11392067118320484 -0.14627264142286173 0.40482213009886286 0.28130675926754395 -0.4882548175907833 -0.33307099197840356 0.33680238273889423 -0.508850686548095 -0.01939729125717117 0.9115925964696292 0.19133984356958522 -0.4737236331960464 0.020715586579350204 0.5009731399055914 0.033494805401986655 0.6587866760129992 0.021341346260160966 0.4476455071559047 ]
[ -0.11612973506489392 -0.22705834379959286 0.05798313580133762 -0.41188993468639495 -0.22700257448014816 -0.21899276033752024 -0.028213172754069683 -0.07781606252374496 -0.19231872935533284 -0.19602894268717375 0.2840800055571804 0.022630028176922536 -0.01227741741303941 0.5018755794453367 0.14866289855922338 0.17144194256357326 0.20297012595717348 0.01031722984772876 0.09395442152376539 0.23250089817058128 ]
[ 0.09520138402670975 -0.0063946529116284566 -0.5783669805889299 0.33386908093182727 -0.10369884781247259 -0.03851325283553773 0.12073393821091621 0.10682789205851753 -0.2611635666790307 0.2964902275989366 0.20086385338525153 0.23724029888613268 0.005563868127964827 -0.464524388189764 0.06328649149603904 -0.10694674183223703 -0.02023161887975216 0.30436102837874085 -0.04181555638379192 0.06992649913790379 ]
[ 0.21305350720778243 -0.3008375716961323 -0.3997865461671269 0.06447796176177464 -0.7951531519724436 -0.24573089969653228 -0.2658360171573854 0.21507862571425837 0.15943720374611245 0.22458219742441532 0.3038271173746802 0.5316433174472381 0.03860456554775581 0.2437764917741573 0.1277729139305504 0.08551129693736662 0.16371264652635462 -0.5397628464492208 -0.00746832083443502 -0.17900866486318176 ]
[ 0.15851445319467544 -0.20128257298418764 -0.2948467112341499 0.29228286811904874 -0.26630708315782936 0.018641011810345883 -0.08730075737265743 0.2796568444358265 0.2531816446150522 0.10356866427604505 0.3246099012788619 0.34414269443173373 0.07807685921460661 -0.24917483789658346 -0.12041606963994325 -0.2352227304976562 0.07088230549572815 -0.01520224007753628 0.13165928410493274 0.14762587806444266 ]
[ 0.09133298602178697 0.24574475593090822 -0.15016656824174887 0.07856384672538025 0.3923054100459047 0.14712797447835937 0.08162624606474563 0.1528124370679176 -0.5017967454467986 0.5422999092226809 -0.024284832499201048 0.0010402176008720472 0.20077801058933806 -0.3958492492994699 -0.15416418311190086 -0.17741315789731685 0.0578044811233266 0.2428629252117644 -0.1548441944522085 -0.32045418936123854 ]
[ 0.10799088127063114 -0.29691072213365094 -0.183026727403559 -0.32552575858559557 0.18811847318873837 -0.14567068895397814 -0.08791796153348382 0.2589968927162777 -0.4916393042347432 0.05752945224028488 0.19026451741673026 -0.3768073170745729 -0.35198328979773225 0.20848524757667933 0.24698143988283447 -0.056934493835157446 -0.11532597004540864 -0.3933946893414302 0.008870787633062878 0.2343272254303936 ]
[ -0.2161946765242251 0.17666548982765878 -0.49527702099533866 0.18646412428122575 -0.3766977269449657 0.18191220309919792 -0.20675020853051393 -0.027293399712105343 -0.3095430700455132 -0.07724363425056555 -0.6375055873119799 -0.2840045611840349 -0.15076304532081616 -0.41329900206800513 -0.444207604019743 0.5108619876445567 -0.08974549312987488 -0.5962018388506098 0.1717338504510208 0.14653927154351856 ]
[ 0.03341025383738541 0.29395831119958465 -0.5792435617135367 -0.07646822860660853 -0.4150084927545312 -0.049181249055362856 -0.06741553260769259 0.2596302326998637 -0.3599762262239008 0.44516986110014756 -0.3773028506218142 0.2545242314255723 0.18929157854780262 -0.37945540513585235 0.24319521082077103 0.7608086497293254 -0.07784862845130609 -0.8813489747584252 0.16890166843926852 -0.06207392247503734 ]
[ 0.13374744511183226 0.07757754870297671 0.18008891096709426 -0.2511717959334672 0.4926726969814871 0.17745988646652655 0.23709414490993805 0.15639550583553516 -0.6420272696606805 0.08667713374091734 0.04319922126599689 0.176516054228932 0.11182533804794048 0.28728362946236896 -0.20285440914966477 -0.0918869500052857 -0.09545948164242772 0.31558502796110477 0.026433615358085857 -0.08956818442680747 ]
[ -0.022063468929792322 -0.27903014286236927 0.28932003001362544 -0.44058929080155756 0.2124569499696292 -0.5464226428374217 -0.24309433894073246 0.16953790408028419 0.1722468253595898 0.15647721161987665 0.13242501064824952 -0.7439039673516049 0.10200485285698532 0.5822846966000719 -0.1970807768601273 0.27812135336050403 0.011860902499034754 0.26919434027546923 0.2204745521666094 0.03340522845160225 ]
[ 0.11118191701693642 0.022362988879192882 0.2273197468068446 -0.0735110268019496 -0.1793523087554228 0.5645968748352463 -0.1730355155323075 0.030841713580101186 0.35172523668326666 0.3598951712195805 -0.1085799369186273 0.36901829897896193 -0.1576789496154905 0.14194734692538577 -0.32894640394616004 -0.2294142949169376 -0.024270320871498156 0.14872797551926878 0.04440531799549712 -0.06725962250361935 ]
[ -0.19655159210812104 -0.2625682699921956 0.020716834600361164 -0.31183456325515174 -0.02140095259347845 -0.24932427315114072 -0.1705662033804753 0.3343815620983165 -0.29220485491610665 -0.02908719353531033 0.3795500736392443 0.10516596524296966 -0.19176150519217142 0.22292024214571896 0.32010684016619734 0.11987041040224107 -0.18010425506456776 0.024498755625296055 0.025962034899097194 0.15127918673742446 ]
[ 0.12928738866728798 0.07361001733149374 0.0798640467951186 -0.23652698696240831 -0.20318245694560194 -0.19621790013901902 -0.007184594843994889 0.02907396739975339 0.6549421421632111 -0.4969770454984803 -0.35813207344121617 -0.03541859616572725 -0.2914086154432414 -0.3857083159580209 -0.15345309639912758 0.18736141397511163 0.050477275742412835 -0.1432256926161833 -0.14275695169785632 0.21485296349934713 ]
[ 0.14037634579170694 -0.025237345082541926 -0.1418003576739027 0.02416877627161553 0.09808139932408065 0.11227738881607788 0.205593780443282 0.05774790963700686 -0.3205720591694042 -0.06882740880485862 0.31314165452017506 0.26895017522259107 0.029786616355840723 0.25894643886430113 -0.0590800218783987 -0.36986579180726936 -0.21184978151548384 -0.28707350202941406 0.027073414504394017 -0.2358248744751582 ]
[ 0.09908013719438505 0.09589764699194767 0.19466567398237783 0.40253802435660035 0.2626489977785804 0.12409313188318581 0.3003678587972497 -0.3924534625194881 -0.15599889978202683 -0.38943817739908254 -0.5991234655977081 0.07924607494031101 0.2655714402771213 0.020336713336847317 -0.3544703399210883 -0.4635506652759544 0.1847078994223857 0.07860975391143132 0.076436258037123 -0.020290323133956328 ]
[ -0.13544157402958343 0.17476262354867614 -0.10296373692481646 0.2401483425868985 0.47367061509903124 -0.022893159915674772 0.11869707586230428 -0.188458814394079 0.0050683852717412796 -0.18682377771890063 -0.2804709635745879 0.17255168917144278 0.19479832962616578 -0.2354640024570935 -0.41360156946133386 0.15466486883398822 -0.004583687268666778 -0.18541670650374256 0.13774732939687648 0.012834106708184346 ]
[ -0.1577967506700466 -0.26037837555626137 0.21034641271443927 -0.2655443428311792 0.241572018505234 -0.4047877304098487 -0.07371820457138804 0.0038181003161611576 0.09452326385768085 -0.17113088921121228 0.10767487735844511 -0.21505251930197394 -0.21274130971105723 0.19238355785391983 0.053902030730490345 0.24560198843902323 0.2108707617316139 0.2342415643871235 0.027298512904239253 0.12147353201112444 ]
[ 0.04591398686860406 0.10261004995832401 0.317593263222462 -0.24380149923548472 0.2271934742612979 0.01448716551422769 0.04374684261236798 0.15417496426366323 0.21042979913386398 0.40453981868989564 -0.22232290519793652 -0.48797265973727294 0.12943637964890065 0.3265523152522473 0.0032567309480267615 -0.24711552064604542 -0.04554046771925116 -0.261005338207577 -0.03924798745417255 -0.04425578143887001 ]
[ 0.12479850953741546 -0.14742642581123871 0.0995402883578163 -0.43285806372363167 0.21876285313355393 -0.21663510449375165 0.012143802413905556 0.1558275789533803 -0.20328239838349532 -0.0846096865689977 -0.3072037575999446 -0.47584783731693425 -0.08625171025533321 0.21959042389125244 0.16929515900006123 -0.11996069955786437 -0.24835049271509768 -0.4380578236693499 0.0263185210232945 0.304245078157019 ]
[ 0.042479287341221535 0.07142782575486635 -0.26519862856585297 -0.06909070255746275 -0.19369831564434611 0.027784434027101894 -0.10644552985364991 0.22434567370139477 -0.05834672656617905 0.16536543146698351 -0.03698530728822588 0.3682407512922907 -0.07057058288123816 -0.12344509159286202 -0.021318062817220755 -0.05816112852266563 -0.044044641078561424 0.12778379613729546 0.01827614543056107 0.019754973671556066 ]
layer 5 Activation
tanh
layer 6 Dense
20 1
[ -0.009051129899877596 ]
[ -0.007475207085913022 ]
[ -0.056701073952969944 ]
[ -0.07311830082942775 ]
[ -0.08838818667110891 ]
[ 0.0021647432137588928 ]
[ -0.0019068563395186694 ]
[ -0.013326291734176585 ]
[ -0.09187140031432628 ]
[ 0.028600372257400593 ]
[ -0.06926677116995864 ]
[ -0.09676901963687842 ]
[ 0.005958474592664213 ]
[ -0.057022793644045736 ]
[ 0.0067678784504309145 ]
[ 0.1094762717019468 ]
[ -0.0031745084766288 ]
[ -0.2549888076315075 ]
[ 0.007964016635721858 ]
[ 0.0058001100065258795 ]
[ 0.11791514394726116 ]
