layers 7
layer 0 Dense
20 20
[ 0.02237191  0.24958958 -0.16923952  0.04411103  0.17984721 -0.064652
 -0.00332445 -0.0399478  -0.06711812 -0.11066552  0.11914018 -0.28877753
 -0.14327303 -0.30282822  0.3347159   0.21020177  0.17928734  0.19417872
  0.21009734  0.13010234]
[-0.23724034 -0.38410297 -0.13518357 -0.08726867  0.4934444   0.12549002
 -0.01788352 -0.03159126 -0.5614526   0.15155071 -0.34032118  0.02947267
  0.05429064 -0.1884832   0.05171466  0.36156052  0.08615804  0.03609738
 -0.3690051  -0.8500833 ]
[ 0.17180774 -0.48292133 -0.13230045 -0.22698577  0.2561244   0.14987478
 -0.40728003 -0.13416664 -0.3116823  -0.2909875   0.05968736  0.17559503
  0.6976867  -0.36900735  0.17019862 -0.15365565 -0.15584232  0.34616792
 -0.21328413 -0.45993266]
[ 0.01854546  0.17925015 -0.04742322 -0.3503189   0.25629124  0.09707739
 -0.02543979  0.05865252 -0.34820032 -0.00778025  0.34556836 -0.04599518
 -0.05470282 -0.20947762  0.23282029  0.53837144 -0.27966216 -0.23014434
 -0.21174495  0.18136814]
[-0.16207029 -0.45127526 -0.29145294  0.03648946 -0.465946    0.2492711
 -0.0196146   0.20839012  0.20730998 -0.23020506 -0.361744   -0.26989552
 -0.27009022  0.40149695 -0.25339544  0.10409157  0.05112822  0.20412114
 -0.24914625  0.5055966 ]
[-0.25949484  0.04908083 -0.36418673  0.03278738 -0.19269966  0.2809032
  0.2757444   0.21293294  0.48955262  0.3318993  -0.23060495 -0.35509643
 -0.28052408 -0.11357563 -0.00592564  0.24210122  0.04712894  0.18610568
 -0.28989992  0.5786688 ]
[ 0.18548407 -0.17643027  0.05116379 -0.07585408 -0.70981973  0.11660765
 -0.2664594  -0.11136568 -0.09467516 -0.16324182  0.06344331  0.31215826
 -0.11103307 -0.24381319  0.17044388 -0.08753061  0.27083635  0.30065206
 -0.2698371   0.31705138]
[-0.03177978  0.04683092 -0.12967429 -0.23704061  0.06266992  0.11576836
  0.10059614  0.13644038  0.27458426 -0.16633292  0.21492288  0.25014007
 -0.3111231  -0.20603509  0.2923199  -0.58887935  0.1372461   0.28281045
 -0.02625012 -0.1379763 ]
[ 0.17944795  0.18653016  0.21240693 -0.11428853 -0.1343203   0.13367406
 -0.19034901 -0.16257374  0.14201781  0.353701   -0.61601007 -0.01919007
 -0.16061965  0.36894095  0.17053707  0.02550166  0.14764786 -0.08511026
 -0.21630324  0.02130828]
[-0.17732164 -0.09027066  0.5015233   0.11245404 -0.07440079  0.41800013
  0.19912025 -0.61350465  0.01024345  0.21827582 -0.03162114 -0.12033492
  0.15291052 -0.11337569 -0.35165083 -0.18847603  0.00096424 -0.15821166
 -0.55464846 -0.3231745 ]
[-0.19258815 -0.23897415 -0.17057988 -0.01828894 -0.15438111  0.02729235
  0.4361102   0.05082544 -0.03628357 -0.15629281 -0.0741586  -0.16634999
 -0.403298    0.3823488  -0.24004352 -0.16551627 -0.552277   -0.14950472
 -0.09612227 -0.08441854]
[ 0.2386508   0.39998904 -0.02067545 -0.17777364 -0.1078561  -0.06473559
  0.17271546  0.01657692  0.38604918  0.01828333 -0.44952807  0.1848392
  0.47907543  0.2366914   0.38662368 -0.46441787  0.47376946 -0.07256238
 -0.4436093  -0.42220467]
[-0.03761816  0.2023777  -0.351102    0.24086054 -0.43664813 -0.16377772
  0.33202618  0.1892402  -0.04167631 -0.00385698 -0.00489047  0.6463614
 -0.37680498  0.3838512  -0.22929442 -0.25760922 -0.45876735  0.15074171
 -0.1294601   0.07719245]
[-0.45082852  0.29275155  0.15307787  0.6197888   0.1093912   0.23309407
  0.41105464 -0.38311943 -0.38032913 -0.05456658 -0.26742595  0.12935865
  0.04275027  0.16423655 -0.16002935 -0.06093725  0.19292435  0.3986948
 -0.28067937  0.4061014 ]
[ 0.0027275  -0.08398137  0.1576742   0.31792772  0.07782771 -0.02585123
  0.03917749 -0.11571836 -0.10177024 -0.33440682  0.05675592  0.33302578
 -0.24651106  0.3826765  -0.1002197  -0.34956664 -0.14502034 -0.53058034
  0.0636221   0.36227494]
[ 0.13404064  0.41882843  0.00543528  0.04993277 -0.34780616 -0.1130836
 -0.28027928 -0.07915302  0.43410322 -0.43634436 -0.19612764 -0.263347
  0.12923887  0.28887776 -0.32136434  0.13133897  0.4379182  -0.31086895
  0.02705101 -0.4865149 ]
[-0.43746972 -0.14028971  0.36186078 -0.2691087   0.29928762  0.17543037
 -0.13275959  0.6288831  -0.32898402 -0.35837847 -0.18732871 -0.09609339
  0.30686492 -0.5651135  -0.0532785  -0.01811052 -0.3199515   0.34505185
  0.20733504  0.02763005]
[ 0.5006214  -0.12049296 -0.3224886  -0.8507372  -0.48246136 -0.90310895
 -0.8018382   1.0604392   0.50149137 -0.48666164  0.15394434  0.20034042
  0.42968512  0.19977227  1.0601726   0.02799393  0.31507638 -0.50506526
  1.1708893  -0.19402039]
[-0.08153183  0.65080833 -0.6530578  -0.46050572 -0.46368074  0.14115833
  0.1672464   0.21074265 -0.24381024  0.8681665  -0.3572195  -0.5612852
  1.1327016  -0.4265098  -0.5085787  -0.00727901  0.76230216  0.13379458
 -0.07929607  0.17152119]
[ 2.1705495e-01 -4.3972009e-01 -1.9852930e-01  8.1692915e-04
  7.2894090e-01 -1.3006464e-01 -4.4603387e-01  5.4074615e-01
 -3.2770288e-01  8.6518347e-01  3.3226714e-01 -5.1359057e-01
 -4.2531562e-01 -4.5020303e-01 -2.0454437e-01  8.8643320e-02
 -4.8216307e-01 -2.4973707e-01  4.2815414e-01 -3.3911794e-02]
[ 3.7476767e-02 -3.3521939e-02 -7.3677309e-02 -8.8161081e-03
  8.5840307e-02 -1.0553965e-01 -1.0534866e-01 -1.0264872e-01
 -7.9232641e-03  8.6495697e-02  2.3263663e-02 -1.5596043e-01
  4.9668472e-02 -9.8804615e-02  1.2787111e-01  1.7312768e-01
  3.2943472e-02 -9.3122479e-05  2.7986025e-02 -5.7169933e-02]
layer 1 Activation
tanh
layer 2 Dense
20 40
[-0.20302205  0.07457763  0.01654974  0.07900277  0.07771668  0.06088188
 -0.22107764  0.13908519 -0.07005205 -0.17601585  0.19974953 -0.09248184
 -0.00042588  0.20455927  0.24225517 -0.14372848  0.17085975  0.24979801
  0.06626241  0.16279589 -0.06241675  0.08062594 -0.03978193 -0.07125116
 -0.02284529  0.14895703 -0.19596076  0.16766766 -0.1961589  -0.12243205
 -0.24044217  0.06483318  0.12550086  0.15849325  0.16700311  0.12940897
  0.02151913  0.25475585 -0.00147368  0.38174   ]
[ 2.05084696e-01 -1.75349250e-01  1.25568688e-01 -1.08361050e-01
  2.10568860e-01 -1.20580196e-01 -2.89703697e-01 -1.03791885e-01
  1.95517316e-01  1.63017407e-01  3.16706687e-01 -2.16044560e-01
  2.21403882e-01  1.56368706e-02 -8.03356525e-05 -1.55342937e-01
  2.57868409e-01 -6.54657856e-02 -2.45514870e-01 -2.95442343e-01
  2.32195497e-01 -3.40086333e-02 -7.85110593e-02 -1.63106859e-01
 -3.34717959e-01 -2.29982123e-01 -8.08451325e-02  8.65259115e-03
 -3.88586079e-03 -1.33842956e-02  2.41760865e-01  2.82364100e-01
 -2.88297117e-01  2.98452049e-01  4.14112657e-01 -3.59809101e-02
 -1.79182440e-01  1.92617074e-01 -1.50857776e-01 -1.41990244e-01]
[ 0.06740636  0.5275376   0.16172029 -0.25588113  0.1745728  -0.13048403
  0.2665964  -0.12817815  0.10576678 -0.12592414  0.24407467  0.03712403
 -0.00121123 -0.24049057 -0.25720772 -0.27022249  0.30598244  0.2353658
  0.03072888 -0.30602452 -0.23882505  0.04390216 -0.07610174  0.20862916
 -0.23395446  0.1978954   0.2655429  -0.02740119  0.2206481  -0.28550845
 -0.10767213 -0.12261232  0.02950662 -0.16753246 -0.10406154 -0.11646669
  0.21078132  0.08493657 -0.16839431 -0.38317192]
[ 1.1644298e-01  3.0873775e-01  2.6210037e-01 -1.9277073e-01
  2.1054056e-02 -3.2231009e-01  3.1484384e-02 -1.0677335e-02
  5.3744126e-02  2.0867026e-01  7.2510421e-02 -1.7258570e-01
  1.2559149e-01 -1.2402278e-01 -1.7043851e-02 -1.3716885e-01
  1.6109201e-01 -4.0486157e-01 -6.3358396e-02  3.0936313e-01
 -6.5763392e-02  2.6044878e-01  4.5892823e-01  6.2928729e-02
 -4.2297620e-01  8.0606073e-02 -8.7666884e-02  2.5695342e-01
  2.6984364e-01  8.6718414e-05 -3.8728010e-04 -4.7684577e-01
  2.7636245e-01 -1.0965448e-01 -1.9441314e-01  5.4431118e-02
 -5.7658650e-02 -1.7548625e-01 -3.8721440e-03 -3.0357438e-01]
[ 0.01728129 -0.11584299  0.10995866  0.03031843 -0.09093481  0.20065567
  0.13635133 -0.43135846 -0.0499192   0.14720267 -0.10505108 -0.06672516
 -0.459019    0.09164891 -0.6506103  -0.14363545 -0.12997858 -0.15643196
  0.1553711   0.14947897 -0.23627159  0.21947402 -0.0535672  -0.04686062
  0.415863   -0.06144197 -0.27282438 -0.05051163 -0.1593027   0.13226992
 -0.33750752 -0.24576078  0.40486047 -0.00670562  0.12638362 -0.17578104
 -0.07986327 -0.31474409  0.06953944  0.10709609]
[-0.00784362  0.02233585 -0.06311717  0.11740049  0.27268356  0.21569988
 -0.21482027 -0.16858356  0.026138    0.04217594 -0.07154875 -0.12162491
  0.26922247 -0.27608386 -0.29865813 -0.06930977  0.23008652  0.00593685
 -0.02313082 -0.04199698 -0.01739614 -0.14128232 -0.01560183  0.05754117
 -0.13795014 -0.11454625  0.32731372 -0.13206744  0.20819661 -0.13199766
  0.3591138  -0.05248794 -0.04848093 -0.20900838 -0.12521611  0.18972558
 -0.34923312 -0.29550406  0.0114785  -0.00607366]
[ 0.31154513 -0.4541849   0.04311652 -0.16166721  0.059028    0.22847992
 -0.02387636 -0.29407156  0.19568087 -0.30066565 -0.16298331 -0.3749896
  0.4132874   0.02910478 -0.03632153  0.20649718  0.119043   -0.4042111
 -0.22136582 -0.11990299  0.1922258  -0.01487806 -0.14991543  0.02050215
 -0.27360696  0.05095413  0.5794538  -0.06148215  0.2061663  -0.14768259
 -0.07246668 -0.2619122   0.04544237  0.0247051  -0.18104996  0.04914886
 -0.0356033  -0.15999664 -0.01025613 -0.20984532]
[-0.10409642 -0.2814253  -0.43231285  0.27484313  0.0495473  -0.18252344
  0.0745499   0.11065754 -0.11826715  0.08465765 -0.33968455  0.06019517
  0.15886499  0.10076778 -0.00653218 -0.25647753 -0.05689383  0.3362011
  0.21337733 -0.3023139  -0.07746422 -0.19827934  0.13477653 -0.00503009
  0.47997573 -0.09978399 -0.64856064  0.08009233 -0.06588872 -0.07679086
  0.19217727  0.13295032  0.35277164 -0.37083894  0.13828012 -0.11614084
  0.30641195  0.29218447  0.15852603 -0.05184533]
[-0.01654808 -0.23453984 -0.05014167 -0.09956093 -0.07124179  0.01656924
  0.07875086  0.0792958  -0.08827069  0.12537505 -0.34690395 -0.02766735
 -0.10523131  0.02928493  0.2800392   0.03089528  0.19937444  0.0149061
 -0.31399962 -0.09463317  0.24821019  0.03355148  0.1573548  -0.13407142
 -0.1138588   0.04452405 -0.18165939 -0.20562766 -0.38235816  0.3126717
  0.17251623  0.07153305  0.12389942 -0.11297045 -0.19537538  0.09239222
 -0.01142966  0.50849515  0.19482298  0.06512669]
[ 0.24116346 -0.28601626 -0.356462   -0.22285156 -0.09210048  0.04339815
 -0.17548434 -0.38338536  0.04398957  0.08214217  0.45028883 -0.11670074
 -0.06836667  0.08957863 -0.46375042 -0.0247756  -0.40146562 -0.00236068
 -0.34096974  0.23521902  0.35114613  0.10301912 -0.49859536  0.4213748
  0.09107486 -0.07657669  0.1046689   0.26083636  0.16462956  0.02700999
  0.10987107 -0.14938192  0.24082133 -0.3255755   0.01372829 -0.08937109
  0.01194772  0.12080246  0.05606261 -0.10567479]
[-0.24582858 -0.0694155   0.23703137 -0.26752096  0.12534675  0.13254413
  0.10346384  0.18269897  0.11069454 -0.12624724  0.30096832  0.12579332
 -0.09449482  0.03433036 -0.2957905   0.14256379  0.18839456 -0.05004456
  0.16054033  0.06348392  0.01272978  0.21555145 -0.04707896  0.23440821
  0.23711435 -0.19329584 -0.26810476 -0.17115678 -0.00468158 -0.18666624
 -0.3881577   0.04038026 -0.04213229 -0.13946661 -0.23502208 -0.12005188
 -0.01151649  0.2829389  -0.20739798  0.12042968]
[ 0.3020964   0.36408275  0.37989357  0.38475215 -0.13770278  0.04968662
  0.10953474  0.07561852 -0.01455232 -0.20049307 -0.5370369  -0.33975634
 -0.30087367  0.08419414  0.10554191  0.00881553  0.5573218   0.18932605
 -0.40994257  0.14830232 -0.06583787  0.11909204  0.30019665 -0.2817529
  0.05697805  0.14096707 -0.02845565 -0.12032548  0.21100791 -0.14363796
 -0.5568319   0.17075388 -0.25093028 -0.05537958 -0.2556014   0.25948793
 -0.44784945 -0.09259508 -0.14345251  0.14319094]
[ 0.33720914 -0.13078439 -0.2105691   0.03513843  0.04355853 -0.16394453
 -0.19115055  0.2645313   0.23112318 -0.17892615  0.843294   -0.18481085
  0.16359015  0.07316484  0.13960771  0.23033114 -0.29509747  0.23520832
  0.02023319 -0.8101109  -0.08806061 -0.22818427  0.25311175 -0.10334563
  0.11425218 -0.22088279  0.14814703  0.1310838  -0.36711845 -0.22824359
  0.5485654   0.45531884  0.08282866 -0.13422759  0.04391566  0.1815239
  0.26647925  0.1497527   0.20406206  0.09536666]
[ 0.16509801  0.13413277  0.33513802 -0.16503213 -0.21830152 -0.5223262
  0.26820797  0.18553713  0.08199956 -0.26642954 -0.37684876 -0.31559348
  0.14252456  0.10762075  0.5140745   0.0673521   0.367921    0.18740022
  0.07078502  0.17774653 -0.06130391  0.16920051  0.52300894 -0.61490154
 -0.3052106   0.3245474   0.24350502  0.39579895  0.29912156  0.07602678
 -0.22255331  0.21792696 -0.19879773 -0.18757498 -0.4061089   0.09974033
 -0.3073221   0.28652507  0.27755064  0.10507942]
[-0.19536114 -0.35510302 -0.09660786  0.18779245 -0.23814733 -0.28415063
 -0.36346862  0.42688826 -0.21336223 -0.12032063 -0.28492722  0.1567638
 -0.14992596  0.03285459  0.11227025 -0.01347483 -0.00863924  0.35404882
 -0.19538684  0.23986784 -0.0008825  -0.18172997  0.34242934 -0.21152604
 -0.05590078  0.345288   -0.40754122 -0.3299148  -0.24814472  0.11462539
 -0.19276576  0.23181893 -0.11477921 -0.08422125  0.01115465  0.18674152
  0.21831211  0.2107486   0.09910687  0.263263  ]
[-0.31409675 -0.25806743 -0.07710822 -0.20649824  0.37281704  0.2490875
 -0.15723172  0.3357443  -0.20984933  0.40243942  0.5469247  -0.03480353
  0.0077389  -0.19764352 -0.08806475 -0.25140014 -0.4039354  -0.07884433
  0.27766496  0.0250949   0.07611439 -0.05585542  0.04537313  0.16306974
  0.26928392  0.35682368 -0.3140379  -0.10493831 -0.27949467 -0.0593065
  0.27675185  0.21101454  0.27515498  0.09632543  0.3901342  -0.02563886
  0.04648269 -0.05800095  0.02963675 -0.06456546]
[ 0.24960412 -0.147738   -0.06702367  0.00572231 -0.4051958  -0.05993101
  0.1472436   0.10308094  0.02152761 -0.3298559   0.5123798   0.27629688
  0.28230026  0.04079955  0.3145174   0.34481508  0.14320323  0.23816812
 -0.05714663 -0.29220864  0.19459233 -0.16206872 -0.25988087 -0.35161215
 -0.12532152 -0.0417442   0.49868125  0.13509761  0.1392119   0.08083194
  0.35068053  0.22931786 -0.14953281 -0.15266535 -0.09785156 -0.28493494
  0.2082303   0.01644837  0.07199812 -0.01207434]
[ 0.12281671 -0.27591804 -0.15397198  0.34200338  0.00338688 -0.10195274
  0.07624963 -0.07551631 -0.1776773   0.067076   -0.12290271 -0.17180786
  0.28720894 -0.26599205 -0.19938588 -0.11007043 -0.14033927 -0.41516653
  0.16874655 -0.22881296  0.07096114  0.19315124 -0.23471272  0.10696623
 -0.19342771 -0.3038035   0.01211136  0.16527727  0.21151356 -0.2523556
  0.05785697 -0.06658886 -0.11009048 -0.42171836 -0.07547895 -0.33921972
 -0.21530454 -0.36668584  0.30867964 -0.18530533]
[ 0.02620257 -0.0897678  -0.04798948  0.43150628 -0.39583433  0.18892059
  0.04500528  0.224757   -0.06628685  0.26739526  0.22042434  0.0826396
 -0.6406204   0.18497543  0.08581103 -0.23401731 -0.31115744  0.29827946
  0.20491172  0.41789055 -0.28179666  0.1441002   0.07016303 -0.31162068
  0.7412341   0.16510932 -0.46732154  0.07600679  0.10709395 -0.00368826
  0.03342246  0.08139624  0.30551547  0.30559418 -0.18240684  0.43517944
  0.0610939   0.12048534  0.04908369  0.52672553]
[-0.15691777 -0.03755299  0.05310786 -0.10891073  0.02175766 -0.0703902
  0.28914538  0.00686478  0.12047666  0.09984592 -0.19321266 -0.15417846
  0.03505983 -0.25134277  0.07091051 -0.12724653  0.23177157 -0.22855173
 -0.16234238 -0.22497724  0.0113875  -0.05125893  0.00314659  0.06098513
  0.2275343  -0.10776887  0.0881888   0.25813293  0.23770168 -0.12114062
 -0.14672762 -0.2724097   0.26491898 -0.21904999  0.12285297  0.06736983
 -0.20360734 -0.18911399 -0.16189632 -0.20568894]
[-0.10705748 -0.03813876 -0.04769621 -0.09203427  0.0384427   0.02897886
 -0.07905327  0.02356566  0.01731707  0.13616948  0.2461087   0.0670032
 -0.01014948  0.05866904 -0.04085166 -0.10970402 -0.213111   -0.04444094
  0.07636694 -0.08304603 -0.10941484 -0.00452933 -0.01544688 -0.01138179
  0.05503543  0.01891894  0.02146094 -0.06353253 -0.01753407 -0.04158127
  0.05394854  0.08932692  0.07156935  0.06320093  0.18265237 -0.09221946
  0.05595073 -0.09532771 -0.02402727  0.01799158]
layer 3 Activation
tanh
layer 4 Dense
40 20
[-0.20930189 -0.20243865 -0.2162795  -0.07115915  0.19502538  0.1073833
 -0.250318   -0.2899475  -0.26973802  0.12634224  0.04655945  0.36685586
 -0.03620118  0.20482391 -0.08951121 -0.3625058   0.2709342  -0.11869126
 -0.29306602 -0.16590695]
[ 0.1573952  -0.0205558   0.07829574  0.02228818  0.2141203   0.03484087
  0.16497658 -0.50784487  0.26998577  0.28394303 -0.23528247  0.35710537
 -0.19442266  0.20260419  0.3300188  -0.0583692  -0.00775373 -0.33250356
 -0.31253958 -0.17649508]
[ 0.2818574  -0.0575696   0.05171965 -0.19874081  0.23360096  0.05986443
 -0.19064762 -0.34668234  0.29674327  0.27111116 -0.09218445  0.26424104
 -0.29556918  0.23335135  0.35588425 -0.07634188 -0.20812209  0.29809853
  0.02150008 -0.02435254]
[ 0.06125363  0.17408086 -0.12792943  0.2863971  -0.40578213 -0.11822095
 -0.09205558  0.21086463 -0.33992165  0.09847911 -0.0704474   0.32226154
 -0.1502245   0.10475231  0.10913514 -0.19772312 -0.21850401 -0.2152458
 -0.18106954 -0.21630314]
[-0.15884164 -0.3162091   0.11932026 -0.22959769  0.03140736 -0.2157932
 -0.0963607  -0.04152801  0.29913566 -0.33793524 -0.09679527  0.06246089
 -0.16846684 -0.02744693 -0.19622363  0.32080713  0.20520537  0.00409812
  0.24385     0.07100612]
[ 0.02713299 -0.00572394  0.17748643 -0.19565064 -0.10774188 -0.20604318
 -0.18593998  0.20658672 -0.22568642 -0.4136477  -0.22780995  0.08422234
  0.13608897 -0.25590536  0.2096946   0.09951352 -0.26654795  0.06611058
  0.1247113  -0.27350667]
[ 0.00269806  0.33294383 -0.21350151  0.0066888  -0.08563247 -0.03249929
 -0.06882931 -0.347476   -0.13065067  0.36922958 -0.1858544   0.30946565
 -0.41153097 -0.06243908  0.02395767 -0.13604173  0.38012937 -0.208194
 -0.21560876  0.24318422]
[-0.3350446   0.06382474  0.12872033 -0.08925417 -0.33707598 -0.2766708
  0.2781536  -0.23863295  0.02947663  0.01498667 -0.14990422 -0.3013265
  0.28087062 -0.23659182 -0.18596357 -0.13879772 -0.12418313  0.22009568
  0.03986906 -0.1874834 ]
[ 0.14062181  0.04563528 -0.15762137 -0.14305396  0.04994509 -0.18369563
 -0.1088278   0.08022429  0.04107606  0.02215691 -0.03130545  0.09599776
 -0.31825778 -0.23713233  0.05521892  0.02148061  0.18372276  0.05787253
 -0.20674087 -0.06642386]
[ 0.047542   -0.15778406  0.1965589  -0.0675981  -0.04303179 -0.05789786
  0.02803927  0.05552715 -0.06612834 -0.05279284 -0.2448952  -0.01025871
  0.01146455 -0.21661185 -0.05873928  0.38850516 -0.14520401  0.18520828
  0.10826732  0.1286243 ]
[ 0.1242301  -0.39356253 -0.10811339  0.12636848  0.14006403  0.18966955
  0.2902737   0.1249603   0.03051577 -0.2616498  -0.01426023 -0.20072462
 -0.14096223  0.00711224  0.2550074  -0.04665805  0.01088958  0.13019839
 -0.29014713 -0.15168555]
[-0.22203046 -0.04575706 -0.2664328  -0.01650158 -0.2698751  -0.00984945
  0.22854635  0.13006441 -0.08309817 -0.32681698  0.14171454 -0.10853431
  0.05881676 -0.25401214 -0.02341776  0.07592403  0.28052327 -0.22734001
 -0.20273249  0.2514384 ]
[-0.24378748 -0.26105598  0.2091853  -0.27532026  0.1211656  -0.04146121
 -0.08254892  0.24340029 -0.14617896 -0.23700234  0.06566046 -0.09150602
 -0.38808995  0.05741202 -0.3759775  -0.10791793 -0.11775789 -0.24787216
  0.0644258   0.30772993]
[-0.28462964  0.21268703 -0.01899477 -0.21258155 -0.30625644 -0.02903581
  0.14560463  0.08836222 -0.13280836 -0.22561504 -0.24156886  0.22313567
  0.15452088 -0.12365393  0.19697085 -0.11132642 -0.05648072  0.17741753
 -0.08742911 -0.03454985]
[ 0.3144918  -0.26261538  0.31176335 -0.20424592 -0.19088754 -0.23251176
  0.25594622 -0.52477205  0.02684904 -0.20980948  0.06081003  0.18108262
 -0.2990746   0.07451289 -0.15611836  0.01835573  0.02285552  0.51135075
 -0.26472837 -0.15407681]
[ 0.24480915  0.08102658 -0.21950556 -0.11419345  0.02010807  0.0174101
 -0.06424724  0.12553023  0.06490982 -0.16726425 -0.177073    0.02085164
 -0.16630758  0.03890309  0.08303741 -0.351066    0.02329743 -0.03873125
 -0.01129556 -0.16397038]
[-0.17456381  0.16385281  0.26409918  0.22702426  0.13972172  0.1613008
 -0.02637357 -0.34712005  0.00962011  0.40548953  0.30461487 -0.00733612
  0.22485164  0.12130534  0.07655571 -0.31221423  0.29172206 -0.27766365
 -0.25286117 -0.02871338]
[ 0.24875328  0.0544758  -0.330965   -0.20549628 -0.2946383  -0.12158965
  0.31122938 -0.02788223  0.12977406 -0.05872138 -0.29087582  0.14521526
  0.3747602   0.30498433 -0.04833867 -0.28539282 -0.16098157 -0.21498345
  0.18598196  0.26297557]
[-0.16514474 -0.30361715 -0.07089762  0.18419443 -0.10935834 -0.28498897
  0.1349819  -0.15475889 -0.17205302  0.15652703 -0.12585512 -0.29554522
  0.3164621  -0.08833924 -0.1805633   0.280951    0.2248457  -0.09668802
 -0.24741495 -0.20728292]
[ 0.2787561  -0.21362673 -0.11762692 -0.23038055 -0.3103132   0.12973069
 -0.27406535 -0.14685282  0.28917584  0.3539849   0.24435501 -0.09732711
  0.27426878 -0.05008982  0.09180609  0.17529163 -0.1701294   0.09972806
  0.24820282  0.24411538]
[-0.2172391  -0.09832593  0.33488798 -0.09350383 -0.08710477  0.14138308
 -0.12268907  0.20352882 -0.24795343 -0.2773295  -0.17381608  0.1774445
  0.14754209 -0.28722626 -0.14728871 -0.15661648  0.18529187 -0.04177161
 -0.27283573  0.30200717]
[-0.26712623  0.22487105  0.19979608 -0.2564948  -0.17217255 -0.10968389
 -0.30675542  0.10799369 -0.04448662  0.1763729  -0.08446492  0.10967015
  0.18206869  0.20051934  0.30024123  0.04974329 -0.16801773  0.28910375
 -0.20716763 -0.18475397]
[-0.2350478   0.25621587  0.32794836 -0.06642386  0.01300804  0.17658153
  0.3328383  -0.4325191   0.2708293   0.18428886 -0.15234055 -0.10589089
 -0.22804199 -0.25612706  0.20490514  0.00133424  0.11319843  0.00192444
  0.00710078 -0.04185519]
[-0.13567704 -0.34800714 -0.00484311 -0.15841477  0.18850464 -0.1745629
 -0.17479287  0.16768059 -0.04615434  0.0682843  -0.13868141 -0.10295551
  0.01838852  0.31961307  0.26439127  0.03487476 -0.00122239 -0.225937
 -0.01896673 -0.07113055]
[ 0.15710828  0.1920803  -0.20666881 -0.25446108 -0.43620276  0.14947629
  0.28468126  0.18585627  0.01891183 -0.1507396  -0.12642802 -0.43960157
  0.19485481 -0.12716576  0.3612219   0.24411827  0.14601476 -0.03789493
  0.2147249   0.1982545 ]
[ 0.10783076  0.05856825  0.30582955 -0.13251692 -0.13911945  0.05033654
  0.2705485  -0.03967795  0.32753     0.3102483   0.08221078 -0.04258493
  0.08719792 -0.04630645  0.21068488 -0.23499547  0.22553702  0.05145563
 -0.12594312  0.02889135]
[-0.05026712  0.01414179 -0.0574401   0.25718343  0.46455815  0.14703937
 -0.33318657 -0.25941783 -0.19499192 -0.26647338 -0.07298817 -0.06447773
 -0.48421293 -0.29947495 -0.22895758 -0.18697895 -0.03887437  0.09913006
 -0.27187705 -0.06333189]
[ 0.02829162  0.2029906  -0.10084442 -0.12046577  0.06989056 -0.03364917
 -0.21862996  0.20340894 -0.2273716   0.08425275 -0.18023364 -0.00616367
 -0.28549668  0.13335368 -0.15301232 -0.23643163  0.06323035  0.19292769
  0.14520864 -0.09089186]
[-0.22646251  0.17343263  0.27894977 -0.04453115  0.30199113  0.22232327
  0.00729229 -0.31627268 -0.3184607   0.29624552 -0.22624078  0.34735513
 -0.07494563  0.08579701 -0.01721177  0.01160366 -0.10532998 -0.30006406
 -0.15086281  0.2807267 ]
[-0.29937634  0.20800842  0.01566314  0.02632901 -0.20972867 -0.14303106
  0.00882431  0.05574896 -0.06984385 -0.12264159  0.19539574 -0.09582091
  0.08374222  0.27778652 -0.11985583 -0.05142478 -0.061233    0.10620489
 -0.0043402   0.24472055]
[-0.14827159 -0.23783155  0.08453927 -0.1920487   0.31179237  0.15984145
  0.32913613  0.11739252 -0.36540908 -0.4058319  -0.07771671  0.12945658
 -0.28812468 -0.10994202 -0.36472335  0.02994888 -0.12917183 -0.09380513
  0.26225138 -0.16978551]
[-0.22752604 -0.1678121  -0.35141835  0.18899429 -0.23397423 -0.25628754
 -0.07232842  0.2025803   0.26240972 -0.3157934  -0.02174433 -0.01497562
  0.32799935  0.19195315 -0.31909993 -0.28274095  0.16215372  0.2766666
  0.18903148  0.19066924]
[-0.19449249 -0.03962301 -0.18242359  0.11644992  0.11527634  0.05540557
 -0.02884027 -0.09721508 -0.3439717   0.21490511 -0.24455853  0.08054178
  0.16012056  0.19680598  0.28902346  0.3687599   0.2503182   0.21395142
  0.09184365 -0.25253993]
[-0.31658584 -0.14899988  0.11573084 -0.16251968 -0.03194702  0.01861489
  0.06899954 -0.01560481  0.20856906 -0.25539315 -0.15394776 -0.04244358
  0.29121405  0.10612145  0.39832634 -0.04501629  0.0909399   0.10950116
  0.1286291  -0.12992117]
[-0.27062696 -0.28561103  0.11856838  0.30637756  0.2139537   0.11352527
  0.086169    0.14634266 -0.22901179 -0.21331969  0.27497786  0.02152317
  0.2160796   0.31561986 -0.12733233  0.11409434  0.03988076  0.09908304
  0.17864597 -0.07119322]
[ 0.01490361  0.3135233  -0.19752447  0.18648575 -0.12974498 -0.16769594
  0.07578043 -0.16280188  0.13324493 -0.12929228  0.07109194 -0.06232363
 -0.10970955 -0.00204427 -0.01528097  0.07191667 -0.21607861  0.11357645
 -0.01220244 -0.01916984]
[-3.24223394e-04  1.34895399e-01 -6.32447153e-02 -7.50825182e-02
  2.34267395e-02  1.52076215e-01  1.22885644e-01  1.87704057e-01
 -2.74235625e-02 -3.56364876e-01  1.07087284e-01 -2.15911344e-01
  9.45896059e-02  1.47585154e-01 -2.96815693e-01  1.00193955e-01
 -1.56362206e-01  2.84698308e-02 -2.30067387e-01 -1.96045145e-01]
[-0.108405   -0.14117171 -0.05579404  0.23744017 -0.2798298   0.30293715
  0.24131136  0.0914619  -0.12353332  0.05807679  0.06170842  0.08937724
  0.1981197  -0.01132501  0.12193713 -0.25015742  0.06137135  0.04317497
  0.1424645   0.29598245]
[ 0.19131346  0.14973538 -0.329127   -0.27461305  0.19057415 -0.13462146
  0.1309024   0.13542446 -0.24883972  0.01555139 -0.09813707 -0.02544448
  0.00896322  0.23031743  0.08460362 -0.19962087  0.02264533 -0.10203778
 -0.19329962 -0.12506394]
[ 0.07271965  0.05023315 -0.25924453 -0.29181263 -0.15217678 -0.1430326
  0.20098698  0.12867185  0.04204238  0.13508405 -0.19882181  0.08446389
  0.51163703  0.00768418  0.12168163 -0.06555555  0.14076963  0.24765664
 -0.2807468  -0.2829605 ]
[-0.008417   -0.06982736  0.04820625  0.04897724  0.06282878 -0.01682441
  0.06590096 -0.01206352  0.02600583 -0.08205558  0.00070726 -0.17261028
 -0.0301417   0.0211144   0.08561058  0.11051989  0.04475152  0.02267624
  0.01234229 -0.00919157]
layer 5 Activation
tanh
layer 6 Dense
20 1
[-0.01295671]
[-0.11002897]
[0.11010255]
[-0.0078288]
[0.16990697]
[-0.05464088]
[0.29114124]
[-0.14143674]
[0.10823135]
[-0.10630198]
[0.0213014]
[-0.00044561]
[-0.09791057]
[-0.00679825]
[-0.11716284]
[-0.19544172]
[0.0160069]
[0.10180556]
[-0.01920625]
[0.01880964]
[0.02363219]
