layers 7
layer 0 Dense
20 20
[-0.12319974  0.32443905  0.29381257 -0.18609291  0.05253018  0.33618945
  0.1561676  -0.20031202 -0.31569707  0.09447921  0.27803728 -0.15482171
 -0.4531392  -0.14306663 -0.23982249 -0.06699307 -0.04156126  0.21054037
 -0.29791254 -0.1040935 ]
[ 0.1380301   0.4583838  -0.3883448   0.49537498 -0.5015819  -0.7090926
  0.12027948 -0.1875566   0.0302863  -0.5552659   0.19084805 -0.47815737
 -0.05097286 -0.6115147   0.2964718   0.21170126 -0.19189306  0.09342644
 -0.21816577 -0.00907555]
[-0.533797   -0.14369734 -0.59452635  0.4566565   0.00709372 -0.42524472
  0.12904799 -0.07614358 -0.32335806 -0.31291074 -0.22571483  0.21745652
 -0.41669038 -0.02659704  0.03519471 -0.33630455 -0.2418529   0.26791844
  0.34590808  0.01558755]
[-0.19649687 -0.2425413  -0.11259802  0.35596794 -0.30516285  0.3262077
  0.10208125  0.28906983  0.13115717 -0.42108628 -0.12165023  0.12854533
  0.08558804  0.13102475  0.06132391  0.12700789 -0.24357003 -0.08349971
  0.1867047   0.06767739]
[ 0.10793278  0.31396583  0.03289727 -0.37983504 -0.06470714  0.06390519
 -0.18003683  0.5376256  -0.36184502 -0.07637393  0.04551648  0.18257084
  0.3142579  -0.3596397  -0.07478806 -0.13948104  0.25633305 -0.3100887
  0.3238879  -0.14723635]
[-0.17006537  0.17816384  0.43200797  0.18101229  0.77607745  0.5933391
  0.3696525  -0.14804031 -0.09202858  0.28028584 -0.32859772 -0.1825372
  0.43209866  0.09966476 -0.6437111  -0.30544075 -0.07750458  0.26787475
  0.2397873  -0.6284932 ]
[ 0.5384407   0.02017237  0.04482561 -0.4129486   0.19264273  0.438332
  0.20792758 -0.41577044  0.0946942   0.37352726 -0.00495641  0.1012634
 -0.14461426  0.25011384 -0.53838956 -0.33099446  0.36519295  0.07027944
  0.14988439 -0.5455028 ]
[-0.13131002 -0.01558496  0.10369098 -0.03344247  0.12772183  0.3364476
 -0.10845119 -0.17639017  0.11815782 -0.07980641 -0.28955388 -0.15322286
  0.3086609  -0.06447415  0.284521   -0.08511043  0.31522682  0.05262117
  0.3725665  -0.37473172]
[ 0.04181094 -0.01667658 -0.43064374  0.01545757  0.10230733  0.0127832
  0.09183539  0.2723068   0.0964331   0.11102867  0.26799646  0.06202893
 -0.13933577  0.11443433 -0.32080284  0.17000517  0.31268153 -0.5318249
 -0.55685437 -0.2130699 ]
[-0.23395321  0.22957008 -0.2250806  -0.00523611  0.12167257  0.14089802
  0.21968812 -0.02553486 -0.14101005  0.17887424 -0.14068794  0.11718064
 -0.30298755 -0.26737845  0.06433561 -0.15122557  0.29419827 -0.73866093
  0.25275213  0.22067262]
[-0.33095968 -0.67794466 -0.30585495 -0.37403455 -0.04212168  0.20973843
 -0.38184088 -0.19793202 -0.05545295  0.40073845  0.18344796 -0.07982522
  0.1412117   0.42285547 -0.34636146 -0.25461084  0.10312387 -0.4166391
 -0.13179731  0.05095035]
[-0.4148445   0.5389935   0.928879    0.36214203 -0.2770912  -1.0556871
 -0.45153302 -0.1664058  -0.31120643  0.01351344  0.24809296 -0.01759959
  0.12118965  0.4202156   0.498137   -0.5488668   0.41701826 -0.00667137
  0.09489577  0.9655187 ]
[-0.5705721  -0.68208367  0.4918751   0.26663616 -0.266507    0.15875153
  0.36510935 -0.0035908  -0.29437843  0.19930898  0.02773937  0.18485653
 -0.07746238 -0.23101087 -0.21759887 -0.33551025 -0.5226426   0.5121086
  0.668738    0.34428838]
[-0.3961947   0.21524109  0.3012383  -0.67574424  0.10867722  0.49733284
  1.132492   -0.27136546  0.6050964  -0.51579434 -0.13644221 -0.6897437
  1.2541203   0.77222776  0.19070287  0.19890915  0.15835288  0.9938073
 -0.43906638 -0.5327295 ]
[-0.42512423  0.75670284  0.7132722  -0.39191356  0.03721821 -0.47247258
  0.38460153  0.02970184 -0.44588894 -0.36031187  0.34561345 -0.45683163
 -0.5242751   0.06651309  1.061541    0.31408548  0.3213794   0.05877673
  0.8028373   0.08915691]
[ 0.5837631   0.31877536 -0.32860634  0.50871754  0.22348695  0.37654236
 -0.12509018  0.29228088  0.5034522  -0.76572967 -0.44509518 -0.01415005
 -0.78417826 -0.7184026   0.09573214 -0.32903552 -0.41886604  0.0032313
 -0.15604812 -0.6215991 ]
[ 0.39272434  0.31319267 -0.2643102   0.08660045 -0.271625    0.14113727
  0.03143099  0.31842288  0.07342988 -0.04100522 -0.23937938 -0.18113792
  0.23871905  0.04170595 -0.07899103 -0.41886634  0.3039915  -0.00442693
  0.33952138  0.02895826]
[ 0.15500137 -0.20983662 -0.5347389   0.03392508 -0.31759658  0.05114264
 -0.9890186  -0.42126766  0.07647172  0.03214169 -0.26149246 -0.18674451
 -0.31728688 -0.2218518  -0.1803951   0.29345542 -0.13102895  0.10421921
  0.77157366  0.09642886]
[ 0.2819851   0.18996987 -0.02215054  0.2506666  -0.14301969  0.30098227
 -0.19535239  0.33963594  0.20856814  0.5816753  -0.08152564  0.24920337
  0.1786845   0.16998307 -0.0720777  -0.0561071  -0.10512293  0.2770679
 -0.08028749  0.2909531 ]
[ 0.19048932 -0.4320268   0.5399185   0.3814242   0.30614224 -0.45877436
 -0.21884614 -0.45917872  0.22511083  0.44790575  0.41438597  0.20730133
  0.37928233  0.5352814   0.1435068   0.34040323 -0.45631233 -0.02439457
  0.00349422  0.5331056 ]
[-0.06827481  0.14872074 -0.17635645  0.00989258  0.02372388  0.0328218
  0.08205362 -0.01127415  0.04005362 -0.04715363  0.0058127   0.00227104
 -0.02278766 -0.02682973  0.01431737 -0.00437216  0.06289981  0.09130652
 -0.00376737 -0.0815584 ]
layer 1 Activation
tanh
layer 2 Dense
20 40
[ 0.298021    0.24161059 -0.19165519 -0.1420038   0.18892401  0.02442881
  0.0272401  -0.23657793  0.09683364  0.37844324 -0.10849342  0.0708713
  0.00234763  0.11357035 -0.0987796   0.16670692 -0.05264404  0.3014047
 -0.02845985  0.00080936 -0.04814087 -0.06945933 -0.13245438  0.05099506
 -0.07024714  0.27654493  0.45407325  0.17025973 -0.12341425 -0.02444248
  0.0171881   0.28806785 -0.15906383  0.5452293  -0.10447476 -0.01285143
 -0.03861131  0.13127834 -0.14308077  0.07505663]
[ 0.01046455 -0.17965803  0.31959978  0.42892772 -0.08928776  0.5075101
 -0.10368706 -0.40243727  0.04277033 -0.02798941  0.27719176 -0.20869951
 -0.20622495 -0.20247267  0.17198509 -0.51402354 -0.50438017  0.22259139
 -0.0374286   0.3790954  -0.15372793 -0.3288353   0.3275623  -0.01616021
 -0.09095162  0.07032113 -0.39937216 -0.08727472  0.25605458  0.18750346
 -0.22641852 -0.42402908 -0.15843622  0.08912092  0.43039116  0.05456973
  0.08685543  0.17313749 -0.35718775 -0.06590927]
[ 0.33842796 -0.10388001 -0.2641298   0.07575051  0.06503875  0.05132094
 -0.5014558  -0.12528124  0.31607628 -0.19832261 -0.19291252 -0.04568607
 -0.12299927 -0.10712356 -0.12589476  0.28839934 -0.15037471 -0.1374766
 -0.11716127  0.29076877 -0.37860304  0.28304833  0.15119769 -0.13003947
  0.3222233   0.07927922 -0.29627755 -0.18112658  0.20274277  0.34271857
  0.25083017  0.04188048 -0.06241812 -0.08373758  0.15297827 -0.01446886
  0.19984993 -0.16176137  0.02870674 -0.03826829]
[ 0.2872658   0.36404228 -0.50527203 -0.2009403   0.10227273  0.16699786
  0.5626281  -0.0239589   0.22302677 -0.03942936  0.3219844  -0.08099699
 -0.33136404 -0.0180489  -0.06253812 -0.32209796 -0.1170729  -0.02667777
 -0.0370476  -0.3415007  -0.08497045  0.17784296  0.00288167 -0.37155154
 -0.02562679  0.07206571  0.15926495 -0.0533142  -0.06571397 -0.09762443
  0.02876901  0.2305999   0.3281298  -0.29079643 -0.16671136 -0.04632851
 -0.27980494 -0.0060282   0.39611635 -0.1231951 ]
[-0.17934829 -0.01106408 -0.1831921  -0.27835697 -0.09518175 -0.21002248
 -0.22134441 -0.11808971  0.0709963   0.11388162 -0.23077132 -0.1883442
 -0.12042398 -0.03254746  0.14966065  0.15438637 -0.2788507  -0.14524002
  0.18566132  0.09297056  0.1580817  -0.18062125 -0.00458884  0.35626405
  0.2530446  -0.21570659 -0.04089395 -0.22430012 -0.0102239   0.23763105
  0.01784349  0.1917621   0.11431232  0.18033153 -0.01462071 -0.11517863
  0.07015522  0.17200318 -0.15303133 -0.29271075]
[-0.5179499  -0.2860872  -0.49552295  0.12048072  0.02662625 -0.07737356
  0.3545479   0.19600366 -0.40225017  0.14153714 -0.00503062 -0.3458752
 -0.09428265 -0.1872783  -0.2675618   0.07427822 -0.1406296   0.24172635
 -0.33333787  0.29336545  0.22656912 -0.21913789 -0.3000154  -0.0949998
 -0.19141746 -0.15989666 -0.19688152 -0.14820135 -0.21532778 -0.2307095
 -0.00315893 -0.17009446 -0.20085986  0.08660898  0.2638536   0.1021468
  0.04872257  0.09895428  0.12782173 -0.37485498]
[-0.24686226  0.2745778  -0.16384746  0.46193823  0.47531143 -0.12441911
 -0.59000945 -0.1276798  -0.17632538 -0.2724221   0.11800756 -0.31090435
  0.20653218 -0.389702    0.06084426  0.12391892 -0.16904    -0.3309265
 -0.24162121 -0.0977899  -0.29441506  0.20715998 -0.2768451   0.29228887
  0.34441605  0.24337909  0.03722821  0.06004895 -0.08087782  0.48955736
  0.2102703  -0.6193563   0.24309498  0.33709878  0.08853839 -0.6969235
 -0.1908652  -0.30700707  0.17348552 -0.07480526]
[ 0.02512274  0.1371496   0.21009187  0.2398006   0.26633275 -0.12838902
  0.02457621 -0.2667303  -0.43260658  0.02263819  0.16225131 -0.08839568
  0.22366051  0.2065129  -0.13680872  0.27860805 -0.09243667 -0.2045509
 -0.00123231  0.2090533   0.07577045  0.06396718  0.05137395  0.12539914
  0.06104279 -0.23234373 -0.00150496 -0.17840543 -0.17004248 -0.15063658
  0.20294781  0.15731326  0.15127578  0.01261865 -0.0227888  -0.15799348
  0.2839958   0.18567902 -0.1405134   0.07631116]
[-0.33442995 -0.07883651 -0.06510257  0.20027792  0.08714341 -0.18322831
  0.13593711 -0.04746483  0.10343716 -0.14023845 -0.02820643  0.08958124
  0.0837986   0.07165577 -0.17080018  0.01313403 -0.01652466  0.21894604
 -0.05099767  0.46997872  0.2665902  -0.16038641  0.04036791 -0.19581997
  0.19466656  0.16579545  0.01049997 -0.10091496 -0.03353478 -0.32418355
  0.01429527 -0.17218225  0.0543303  -0.13944477  0.31816632 -0.3257132
 -0.19158013 -0.23526506  0.24674684  0.02868529]
[ 0.14062715  0.33506706  0.29097515 -0.5835118  -0.12423991 -0.32719025
  0.26927394  0.51916426  0.4080798   0.19466932 -0.33691868 -0.01255105
  0.11731499 -0.27389467  0.04048425 -0.23678912  0.39024183  0.18689606
 -0.16627622 -0.01687467  0.05203261  0.3377855  -0.5196732   0.20328933
 -0.1236021   0.11414043 -0.0577906   0.33206597  0.19265    -0.11116718
  0.15783215  0.16644533 -0.25047916  0.06651209 -0.3183801  -0.36713812
  0.1788374   0.0169001   0.32700062  0.21761882]
[-0.36934307  0.2469262  -0.12334135 -0.13618702  0.16526382  0.20401973
 -0.20456271 -0.04318799  0.13311192  0.05780772  0.08313368 -0.15661532
  0.18091074  0.18669409  0.21259446  0.32239828  0.03955425 -0.05270797
  0.08341016  0.09680494 -0.04627874 -0.0727883  -0.12413341  0.00395919
  0.40691826 -0.3404795   0.10386954  0.18711331 -0.2686525   0.16024305
  0.16577366  0.1930779   0.07473355  0.07638065 -0.13702661  0.10231499
  0.21867953 -0.08699468 -0.17830637 -0.29614955]
[-0.14127772  0.03920994  0.04914267 -0.5228885  -0.01542549 -0.3707122
  0.6669334   0.29143345  0.23266016 -0.14922534 -0.02433864 -0.24592137
 -0.13352    -0.21515366  0.06892926  0.04133258  0.07253752  0.15678737
  0.2102276  -0.3809264   0.03796574  0.41668648 -0.28117743 -0.34885952
 -0.3483266  -0.22983633  0.15630008  0.14489877 -0.15162256  0.07258918
 -0.25547302  0.33096     0.16873804  0.23647648 -0.13885461 -0.31958324
  0.27567622  0.1257987   0.28391236  0.14262778]
[-0.01724934 -0.14624156  0.3291608  -0.33717257  0.05041832 -0.29821217
 -0.33818132  0.39215797 -0.12919702 -0.46550566 -0.12493212  0.1309627
 -0.30496284 -0.01351033 -0.29363337  0.34428012 -0.00402918 -0.3029217
 -0.51667833 -0.25467053 -0.45160782 -0.05590629 -0.02210207  0.25794294
  0.4154577  -0.05061438 -0.4870846  -0.00464243 -0.01999958 -0.3411189
 -0.2701556  -0.30959803  0.29626888 -0.10601512 -0.13392529 -0.13701133
 -0.14525293 -0.34857824 -0.09428022  0.30403537]
[ 0.02051288 -0.09516074 -0.00926577  0.19728248  0.08309118 -0.2118396
 -0.20092243 -0.01306794 -0.22343446 -0.1394403   0.03423692 -0.157388
 -0.17627527 -0.23080409 -0.31725752  0.40280437 -0.15972286 -0.25050253
 -0.44643277  0.2269466  -0.11016261 -0.1480599   0.19715941  0.05336555
  0.15558375  0.12914757 -0.17263813  0.2354573   0.01867243 -0.19687624
  0.00475797  0.07506447 -0.03420661 -0.09016369  0.2471473  -0.01479002
 -0.22340676  0.45734414  0.3097906  -0.00590366]
[-0.15401949  0.0475978   0.2630277  -0.01120844  0.00741373  0.41197407
 -0.5398199  -0.5252586   0.02588989 -0.04916734  0.1668418   0.08283645
  0.13133521  0.32478347 -0.00744425  0.08507033 -0.18365401 -0.28131995
 -0.00929283  0.31376255 -0.26607215  0.06089646 -0.0888174  -0.01229888
  0.04640752  0.1377735  -0.08557508 -0.2195169  -0.15835567  0.57437307
 -0.04467242  0.06743377  0.1027772  -0.19169812  0.01663718  0.22752863
  0.3675409   0.3357702  -0.05217973  0.0651137 ]
[-0.17472418  0.21996874 -0.07086498  0.16141091  0.06038103 -0.08990337
 -0.27659205  0.11975899  0.1157022  -0.08013939 -0.08624394 -0.22017457
  0.00872014 -0.32587186  0.21739207 -0.2686329   0.0571163  -0.17545325
  0.12984681 -0.147491    0.08904552  0.40867424 -0.21046832  0.24963608
 -0.24998307 -0.07759367 -0.1460272  -0.29919124 -0.15181099  0.00652871
 -0.01260124  0.11136121 -0.18058175 -0.25996748 -0.18323335 -0.0299247
  0.12807943 -0.09676824 -0.13754766 -0.20518114]
[ 0.38434935 -0.21055698  0.4995046  -0.10242434  0.22971182 -0.229238
 -0.3908596   0.22193028 -0.26623493  0.18771975  0.04396536  0.2881878
  0.14710777 -0.1218706  -0.08050608 -0.33304992  0.03448533  0.30309403
  0.2561176  -0.08705468  0.14641234 -0.25420824  0.08212578  0.0226376
 -0.21533981  0.20799755  0.37956718 -0.18803242  0.21351816 -0.13184237
  0.26899412 -0.3177945   0.1239975   0.5648339  -0.1993751  -0.12452558
  0.06723498 -0.13705719 -0.20665455 -0.01735449]
[-0.72227687 -0.1937853  -0.37639105 -0.19259721 -0.23015836 -0.2126968
 -0.18814896  0.4107932  -0.02086126 -0.6578303  -0.36860687 -0.09327565
  0.0116658  -0.3570476   0.16339205 -0.03833576 -0.11737939 -0.05010885
 -0.7719576  -0.05250329 -0.10983153  0.20666431 -0.3978713   0.06117005
  0.06745369  0.06147831 -0.33505982  0.3833774   0.16601285 -0.48481765
  0.09511257 -0.49282047  0.39471665 -0.62864965 -0.06013449  0.01184894
 -0.29081023 -0.12899996 -0.17150548 -0.306909  ]
[ 0.32892817  0.24157341  0.06238984 -0.23227786  0.16035111  0.41431144
 -0.46821204 -0.16797087  0.4146871  -0.28518564  0.1312067  -0.19874312
 -0.07238864  0.12479166 -0.08183083  0.24583897  0.00524667  0.09634301
 -0.08306001 -0.10492779  0.06208171  0.10059913  0.68969655 -0.13780743
  0.04871786 -0.07785012  0.08132123  0.19670919 -0.17683029  0.3861833
 -0.07301135  0.2243107  -0.3714639   0.04576341  0.19267836  0.5187931
  0.346107    0.31349832  0.17370398 -0.13675676]
[ 0.6646035   0.3453278   0.22051004 -0.647775   -0.07510713 -0.26355976
 -0.00079698 -0.2020117   0.373407   -0.07110939  0.27303916  0.30891275
  0.1068589   0.02650705 -0.0962402   0.01086262  0.33544046  0.05031553
  0.5739247  -0.18423702 -0.3871261   0.23874813 -0.31288132 -0.2545387
 -0.26699895 -0.34291807  0.18757524 -0.1500357   0.21224724  0.38539192
  0.1284041   0.18713547  0.11966576  0.045402    0.06084962  0.19273175
  0.5145112  -0.11582471  0.5155381   0.0664339 ]
[ 4.06334586e-02  3.32204662e-02 -6.20506778e-02 -8.21396634e-02
  2.01720446e-01 -7.57173672e-02  7.18717203e-02 -2.32991278e-02
 -9.71031561e-02 -4.38182205e-02  1.35125883e-04 -2.18662936e-02
 -7.09032118e-02 -1.05620734e-01 -3.45519073e-02 -2.97729508e-03
 -1.54752284e-02  6.71920031e-02 -3.94243002e-03 -2.15467736e-02
  3.17740217e-02  1.20266356e-01 -3.17208166e-03 -5.04783429e-02
 -9.25790332e-03  2.75111925e-02  7.63301626e-02  1.58472378e-02
  3.62030305e-02 -4.82892655e-02  1.76908404e-01  1.68034118e-02
 -1.88601222e-02 -4.37308699e-02 -7.30880350e-03 -1.63214672e-02
  1.31149650e-01 -6.75458834e-02 -5.02210446e-02 -5.47513776e-02]
layer 3 Activation
tanh
layer 4 Dense
40 20
[-0.0133999  -0.05695847 -0.16588697 -0.21193475  0.31301257  0.36607513
 -0.11816761  0.4036941  -0.00843312  0.07089563 -0.22715698  0.34762937
  0.14618081  0.03007339  0.03983555 -0.03198894  0.5002221  -0.03161031
  0.27687347 -0.08087532]
[ 0.09515005 -0.14363451 -0.17488275 -0.4213406   0.2712955   0.24396235
  0.15406059  0.15718788  0.00414645 -0.01872619  0.25124705 -0.03634546
 -0.2155846  -0.17486562 -0.14289334  0.3811749  -0.0370216  -0.05629437
  0.16070902 -0.17618455]
[ 0.13817309  0.30458093 -0.20133685  0.07091284  0.00293648  0.22209167
 -0.13043043  0.15942883 -0.21805134 -0.25603655 -0.2295855  -0.1630615
 -0.23844701  0.30018783  0.0142444   0.07809123  0.36796096  0.1377596
 -0.30527103  0.009742  ]
[ 0.12726715  0.04830704  0.30188286  0.00640342 -0.257912    0.06098425
  0.4393337  -0.17519131 -0.27648205  0.21670331 -0.30520508 -0.20655587
  0.02554192  0.13705498  0.19225079  0.14287286  0.18537962  0.06494194
 -0.15355739  0.0058404 ]
[-0.07591679 -0.10897132 -0.39174825 -0.23883507  0.08678662 -0.04178695
 -0.10047338 -0.20279786  0.07948821  0.17363122 -0.04960384  0.18408702
  0.2574624  -0.24239367 -0.16148919 -0.1666156  -0.15975095 -0.04093417
 -0.01298568  0.24806668]
[-0.223407   -0.23071142 -0.12289625  0.34409654 -0.20050438  0.27677974
 -0.06557273  0.21873496 -0.11345173  0.53986806  0.05499064 -0.0248494
 -0.03837009  0.2746158  -0.08375684 -0.17817713  0.13770285 -0.23316328
  0.35251573 -0.30736637]
[-0.08033709  0.05175462  0.16001049  0.2693788   0.11271365 -0.28363052
 -0.2033008  -0.1299613   0.11496887 -0.03537265 -0.19418563  0.02894451
 -0.36071587  0.1611358  -0.14501677 -0.21118629 -0.06589519 -0.01742851
  0.50957656 -0.48887146]
[-0.13921985  0.01056176  0.12622719 -0.00307395  0.29214206 -0.27469364
 -0.41632915 -0.29989317 -0.21466829 -0.10989343  0.3753821  -0.20808738
 -0.18330818 -0.26440665  0.22028852  0.29242212  0.2576187  -0.00246556
 -0.2792467   0.01867188]
[ 0.09052091 -0.3706722   0.1582756   0.04170442  0.39873075  0.34852967
  0.12094896  0.1344582  -0.12616934 -0.24343671  0.1063312  -0.15874785
  0.20566352 -0.02871479 -0.12582275  0.1587925  -0.11284488 -0.22711428
  0.10741786  0.09970886]
[ 0.14247489  0.14609778 -0.13091116 -0.27782854  0.1461985  -0.10451912
 -0.04937495  0.3238414  -0.3939694  -0.04528673 -0.21486658  0.13692985
 -0.38787046 -0.12488007  0.40858912 -0.29492044  0.33524358 -0.0917499
  0.18577473  0.2760245 ]
[ 0.1219551   0.08133522 -0.25426888 -0.0446883   0.12963922 -0.10097087
 -0.2147316   0.03639846 -0.17702924  0.07961597 -0.14626954  0.23601718
 -0.20659636 -0.30580232 -0.14800383  0.23589115 -0.19957568  0.31681997
  0.07107278 -0.22566071]
[-0.25002807  0.14990166  0.2641403  -0.01232762  0.04311327 -0.13310102
 -0.09394306  0.30406952  0.05242398 -0.07993407 -0.09066147 -0.08433498
  0.3242468   0.12794022 -0.3529793  -0.17870355  0.02066096 -0.08999576
  0.25763726  0.25345302]
[-0.1400027   0.0727109   0.12007845 -0.39154068  0.2569119   0.11166079
  0.18404332 -0.15175226  0.27282792  0.14143227  0.00476608  0.02624035
 -0.05296659  0.22747937 -0.09305028 -0.08233172  0.08662295  0.17064673
 -0.19069128  0.2974043 ]
[ 0.22715566 -0.01489339  0.33047736  0.12114026  0.21270455  0.05099352
  0.09219578  0.18768263 -0.25578874  0.31182656 -0.09059408  0.11833734
  0.12315734  0.01204297  0.02540722 -0.30687213  0.3158917  -0.05481449
  0.1960878   0.13434549]
[ 0.11432915  0.19890486  0.07162347 -0.05983165  0.17135268 -0.09398918
 -0.01159193  0.310586   -0.18626973  0.09452751  0.03290721  0.12726529
 -0.0958954  -0.04530005 -0.07214296  0.28725708 -0.32783124 -0.01506041
 -0.15549059 -0.16592406]
[ 0.1322251  -0.13027018  0.31208438 -0.23656473 -0.03831308  0.351692
 -0.27552417 -0.15111661 -0.1374562  -0.09715576  0.23795164 -0.1228504
 -0.23567717  0.13855192 -0.17898078 -0.12764716  0.10174341 -0.42556047
 -0.26147002  0.1251942 ]
[ 0.27121073  0.37243012  0.30035928 -0.2537843   0.3785305  -0.07473077
 -0.33285588  0.18757811 -0.14145203 -0.12592405 -0.16615996  0.05640039
  0.1568684  -0.04930329 -0.17996392  0.23626843  0.20959768  0.1262211
 -0.02211957 -0.21992968]
[ 0.05832178 -0.27527648 -0.11176591 -0.03612875  0.2462274  -0.23700565
  0.0360759  -0.13687748 -0.2599193  -0.18738392  0.01517869 -0.09143726
 -0.31299093 -0.23882681 -0.09232415 -0.2737322   0.30279315 -0.00778873
  0.17597337  0.06427065]
[-0.14720021  0.13075751  0.10602853 -0.3800519   0.43111312  0.21824665
  0.25877696  0.39468163  0.08256985  0.10314017  0.07387433 -0.07496119
  0.03514769 -0.28873858  0.20030077 -0.27946723  0.32490718 -0.04012613
  0.25210893 -0.13448012]
[ 0.15809517 -0.40534878 -0.06887134  0.10144756 -0.37611744  0.05407367
  0.34579796  0.25727847 -0.03004393  0.00942938 -0.11044002  0.28621507
  0.21586     0.30762574 -0.00346117 -0.30880216  0.01657338  0.13910209
 -0.07476142  0.01760967]
[ 0.0255723   0.13885269  0.28699884  0.36464545 -0.07708363 -0.3592683
  0.11195208 -0.14174578  0.18745048 -0.13454258 -0.24134973  0.21837151
 -0.2819119  -0.26323298 -0.10742809 -0.3127675   0.1755075  -0.05077197
  0.1674806  -0.05102801]
[ 0.04808088 -0.22818154 -0.34074    -0.18856908  0.32618654  0.10946595
 -0.22213294 -0.07431821  0.05775293 -0.11042242  0.31707817 -0.08032446
 -0.06143654  0.08807595 -0.01266118  0.09069336 -0.21323185  0.15573128
  0.05301873 -0.2612716 ]
[-6.9726080e-02  1.9942397e-01  3.4451079e-01  2.4654360e-01
  2.4786739e-01  3.0113050e-01  6.7072466e-02 -8.3012450e-03
  4.5254215e-05  3.1116644e-01 -2.6434585e-01 -1.1981977e-01
  3.2049757e-01 -2.1601923e-01  6.3102610e-02 -3.5234717e-01
 -1.3660619e-01 -1.4085951e-01  6.1113443e-02  9.2437938e-02]
[ 0.07302984 -0.0432988   0.30525476 -0.1898942  -0.26236147  0.22078022
  0.24238014  0.19097535  0.23811968 -0.24295242  0.1464518   0.09324485
  0.09983087 -0.26786998 -0.09640006 -0.32554638 -0.24473445  0.01166452
 -0.22916077  0.21761093]
[-0.13434963  0.32038322  0.32030478 -0.06618484 -0.43781638  0.22494607
  0.29338253 -0.00831984 -0.14815526  0.08375314  0.16984403 -0.01223926
  0.3615171  -0.2724518   0.08006614  0.08804787  0.1291217   0.08061017
 -0.23164514 -0.1381288 ]
[-0.10533748 -0.1797173  -0.23922804 -0.22436273  0.05391638 -0.00270271
 -0.19261806 -0.13588068 -0.2905762  -0.09588837 -0.22644298 -0.18180484
  0.09311603  0.00666021 -0.05169056 -0.235027   -0.15317208  0.11233688
 -0.3713669  -0.14604653]
[ 0.40467912  0.03096338 -0.05634727 -0.22397302  0.2381245  -0.11989325
 -0.24705389  0.11050701  0.05203002  0.07266741 -0.10907942 -0.24360001
  0.21721265  0.23744187  0.15178809 -0.18364838  0.2100679  -0.27396333
  0.13397913  0.0396422 ]
[-0.17778926 -0.24210331  0.11700969  0.23449302  0.13084434 -0.32031605
 -0.3178947  -0.02469961 -0.06349851 -0.05016516  0.14734647 -0.20649838
  0.17354396  0.19038637 -0.08986549  0.10913914 -0.0304226  -0.00146495
 -0.12591176 -0.04013915]
[-0.43975353  0.03988609 -0.10863464  0.11924399  0.1266772  -0.05640501
 -0.18121289  0.24892777 -0.19174673 -0.11288907 -0.01840227 -0.0840432
  0.16753116  0.30411136 -0.2063447  -0.0063608  -0.41898376  0.30684742
 -0.12932767 -0.30923283]
[ 0.3674687  -0.23789011 -0.27364212 -0.33270073  0.3176395   0.44967046
  0.35399    -0.00169203  0.13040186  0.4213983   0.32333896  0.01881852
 -0.04075778 -0.08696465 -0.09212451 -0.1896996  -0.1335184  -0.2160509
 -0.03188846 -0.2723145 ]
[ 0.02712049  0.18854822 -0.09124041 -0.18920876 -0.16474728  0.01834464
  0.15412378 -0.19899973  0.02273556  0.15295066  0.07398108 -0.07296886
  0.15016091  0.16780931 -0.14399977  0.0872028   0.19126716 -0.02392559
  0.13564296  0.16268282]
[ 0.2822396   0.25999618  0.09874163  0.07115301  0.21380317 -0.25434318
 -0.22844838  0.41766733 -0.02064108 -0.07075544  0.1638875  -0.23452197
 -0.05180321  0.34926048  0.24169107  0.30945775  0.3351785   0.04589229
  0.27020833  0.12882733]
[ 0.01585388  0.2951511  -0.22656405 -0.11571012 -0.11570477 -0.2790897
 -0.12267135 -0.09164558  0.15384755 -0.16061291  0.01524939 -0.10460675
  0.34341833 -0.14258376  0.15055859  0.06552175 -0.16539755 -0.16970384
 -0.17509107 -0.2625851 ]
[ 0.02077106  0.08758418 -0.31220064 -0.1327942  -0.28297952 -0.05570575
 -0.29230836  0.26970404  0.01499719  0.02303685 -0.35069966 -0.04773007
  0.19708113 -0.01259056  0.0636746  -0.2393964   0.03175246  0.15454364
  0.21190603  0.2254104 ]
[-0.2521243  -0.10952926 -0.18119766  0.27254584  0.05207595  0.08250455
  0.36437654 -0.21158096 -0.18956885  0.18496653 -0.0076006  -0.15547228
  0.25186506  0.00617895  0.15253723 -0.33375886 -0.19211033  0.203533
 -0.08646289 -0.14543292]
[ 0.22033097 -0.00815592  0.28097102  0.35379234  0.11452784  0.4416317
 -0.08721242  0.37791592  0.20786868  0.29066208 -0.03396275  0.01713724
 -0.03429165 -0.02289615  0.2615597  -0.19729419  0.04804827  0.19378352
  0.26802188 -0.17546037]
[-0.04940972 -0.06422427 -0.07748102 -0.26180175  0.2603269   0.21898657
 -0.01377519  0.3511084  -0.08614279  0.18608561 -0.16694403 -0.11999502
 -0.07741892 -0.08117783  0.23587552  0.24288371 -0.16716664 -0.10313235
  0.15906323  0.15265204]
[-0.2072001  -0.3119677   0.1880767   0.0774107  -0.05425381  0.2400146
 -0.23627158  0.28901017  0.21221408  0.35205993  0.08065565 -0.16839193
 -0.30688816 -0.17955138  0.0197342   0.16271567 -0.10758504  0.39709255
  0.16699417 -0.09884667]
[-0.03605882  0.19256526 -0.07388312 -0.03092937 -0.16060498  0.23487367
 -0.2783846   0.07577472 -0.22855952 -0.28339016  0.16377462  0.21663515
  0.27276948  0.17445198  0.03579214  0.15705913  0.17923363 -0.04293742
 -0.00167655 -0.35719505]
[ 0.0930682  -0.11948287  0.20599858 -0.0890427  -0.06155974  0.05044438
 -0.2551144   0.23876455  0.37638855 -0.40574974 -0.22815841  0.17054491
 -0.21161976  0.0885203   0.14081338  0.08898081  0.41803136  0.42820087
  0.08015776  0.07906222]
[-0.01778412  0.0377848  -0.11390895  0.06111904 -0.02318594 -0.07142605
  0.04025872 -0.0413486  -0.04267514  0.00595101  0.0321598  -0.0624444
  0.00938634 -0.02043583  0.054699    0.08378418  0.00513463  0.02732504
  0.02608901  0.02936634]
layer 5 Activation
tanh
layer 6 Dense
20 1
[0.02663882]
[-0.02912723]
[0.17802842]
[-0.20700166]
[-0.23663191]
[-0.36008498]
[0.11700646]
[-0.2056273]
[0.00242636]
[0.27448782]
[-0.17109074]
[-0.01624692]
[-0.15247446]
[-0.00217986]
[-0.00370232]
[-0.10513149]
[-0.1735852]
[-0.02521153]
[0.33513469]
[-0.17566296]
[-0.06826574]
