layers 7
layer 0 Dense
20 20
[-0.1738312  -0.17313606  0.36671445  0.07720371  0.15842794 -0.53678757
 -0.2302505  -0.24040549 -0.10517155  0.16764104  0.23163189  0.24021615
  0.27539074 -0.04031525  0.14687315  0.36462906  0.2417222  -0.25270456
  0.09677191  0.32968304]
[ 0.47829252  0.07518859 -0.24633846  0.7085363   0.42164582 -0.51591754
  0.10153914  0.39593473  0.6146153  -0.4407347  -0.91305155  0.10203109
 -0.56075406  0.4895882  -0.32501498 -0.625655    0.0949085  -0.3833476
 -0.51271445 -0.70985925]
[ 0.21465516  0.26303416 -0.7341202   0.7578806   0.4942154  -0.22691621
  0.713654    0.62451446  0.2782961  -0.1778207  -0.4772917   0.07749313
 -0.07051107  0.49596     0.33840963 -0.54115206 -0.06334522  0.17407474
 -0.48311862 -0.65000325]
[ 0.07269449  0.32357815  0.19377929  0.11316393  0.24115768 -0.25942892
 -0.55566883 -0.23719524  0.252727   -0.1676599   0.02207746  0.012853
  0.15990525 -0.31789392  0.13442689 -0.02117179 -0.08519882 -0.2914819
 -0.123957   -0.11661693]
[-4.0435234e-01 -2.0715028e-01 -3.6870146e-01  1.9605091e-01
  1.6646735e-01 -2.0490238e-01  2.7703816e-01 -5.2049398e-01
 -8.8117480e-02  6.5879178e-01 -6.7225672e-02 -1.9236222e-02
  2.4475931e-01  1.4684524e-01 -8.0462627e-02 -2.1313974e-01
  2.8206155e-01 -7.2970754e-05  1.4202239e-01  7.4266948e-02]
[-1.18929893e-05 -1.07437998e-01  6.25536680e-01 -4.98260528e-01
 -7.11681008e-01  8.52250829e-02 -6.20122910e-01 -5.34485161e-01
 -3.61354232e-01  4.63844001e-01  9.16542947e-01 -2.82927543e-01
  5.16397774e-01 -5.44542849e-01 -1.35275811e-01  3.50857973e-01
 -3.96669596e-01 -1.22573294e-01 -1.60330422e-02  6.37565315e-01]
[-0.29565236 -0.2561379   0.7485999  -0.5962635  -0.23473169  0.3429621
 -0.35841024 -0.84731764 -0.56375456  0.6225947   0.79008716  0.00481917
  0.30258852 -0.7146008   0.00186451  0.14406027 -0.32592386 -0.13397202
  0.08572631  0.42558968]
[-0.37552327 -0.28761557  0.20981047  0.27122533 -0.11020011  0.417696
 -0.16953744  0.5709644   0.24071574  0.05612379  0.24794269  0.03757505
  0.09219452 -0.39171943 -0.06562052  0.10253227 -0.0470081  -0.18532144
 -0.00825842 -0.38442484]
[ 0.2217752   0.6931738  -0.08826993 -0.09464552  0.57219607  0.16010682
  0.5203571   0.23078856  0.10100918  0.00656354  0.5243429  -0.22487332
 -0.4380047  -0.30796283  0.33425483  0.07267044  0.2360305  -0.25313163
 -0.1467157   0.34027845]
[-0.6242538   0.08864515 -0.37330148  0.77964383  0.11436338  0.08728722
 -1.070542   -0.3896411  -0.51276904  0.7684574   0.22418004  0.5934349
 -0.5324826  -0.08615238 -0.09326047 -0.7969801  -0.45814657  0.7466976
  0.1771971  -0.1844301 ]
[ 0.77642316 -0.08770542 -1.0518898   0.6130278   0.1896991  -0.03960996
 -0.2782238   0.90644795  0.18260533 -0.38229865 -0.69516397 -0.17426199
  0.66880345  1.1600683  -0.6919779  -0.3226666   0.06384083  0.49312925
 -0.22494791 -0.38020545]
[ 0.9017022  -0.48576075  0.63090485 -0.6482639  -1.1559403   0.42588502
 -0.8275263  -0.2502812   0.5930553   0.10693749 -0.97187364  0.2465732
  0.97016656 -0.45571247  0.45671338  0.10791033 -0.9079047   0.13128999
  0.79607785 -0.30897224]
[ 0.23335405  0.10688224  0.49832812  0.13683906 -0.07389487 -0.14358674
 -0.10430392 -0.214888   -0.1864888  -0.04133871 -0.09941463  0.62029237
  0.10688004 -0.1985061  -0.28730974  0.0350465  -0.41505456  0.36272836
  0.10354856 -0.06976158]
[ 0.16935238  0.5624254   0.39568022  0.23025593 -0.13769692 -0.23269089
  0.33621708  0.19360891  0.51375955 -0.2547456   0.3912948  -0.09010674
  0.7524303   0.06943665  0.01100811  0.29454225  0.34973913 -0.289762
  0.13829829 -0.13847934]
[-0.64692646 -0.02017521  0.21585213 -0.16887997  0.09760128 -0.3824636
  0.07979286 -0.4392161  -0.39505267  0.5555608   0.6222626  -0.11900041
 -0.2939074  -0.6749012  -0.38399708 -0.24402109  0.03920157  0.5068206
  0.2842467   0.20508969]
[-0.2257862   0.3777084  -0.80506825  0.06658856  1.4886307  -0.77085996
  0.2874309   0.7230141  -1.3839763  -0.28934735  0.47808295 -0.27488723
 -0.90954226  0.72514623 -0.26988038  0.1652865   0.20891729 -0.07139085
  0.1257477   0.21958607]
[-0.00456227  0.07474409  0.617782   -0.00922827 -0.45739442 -0.06821875
 -0.36890495 -0.6329724   0.10764942 -0.2710429   0.10325184  0.3068089
 -0.07085153  0.46546915 -0.38867804 -0.00922414 -0.0848205  -0.29030052
  0.00822697  0.36038125]
[ 0.34539118 -0.65465677  0.0578282  -0.818842    0.34412515  0.2257621
  0.37861004 -0.01356652  0.1911704  -0.7386614   0.39488363 -0.0510704
  0.5497049   0.31975043 -0.49964648  0.4752904   0.32547364 -0.22845039
 -0.01106855 -0.33818424]
[-0.23991093  0.12462399  0.6798954  -0.24903268  0.07504897  0.44679326
  0.23499542 -0.19177201  0.30721444 -0.15250024  0.27989048  0.45821914
 -0.64600646 -0.28007373  0.69906926  0.20104091  0.22308967 -0.6069174
  0.24489294 -0.19562124]
[-0.7925605  -0.08934087 -0.22127406 -0.07994941  0.39435077 -0.0634914
  0.28622577  0.97852     0.9938829  -0.19653395  0.3675887  -0.08475266
 -0.37932366  0.17741075  0.13073105  0.64146346  0.5458366  -0.6319139
 -0.12327874  0.04111203]
[ 0.00247984 -0.03610546  0.03067851 -0.07110041 -0.09489164 -0.23900828
 -0.07868268 -0.06300496 -0.2729197   0.025311   -0.03587556  0.01666864
  0.02510191  0.00383439  0.04875347 -0.20324044 -0.03914577 -0.00072527
 -0.00836215  0.1256514 ]
layer 1 Activation
tanh
layer 2 Dense
20 40
[-0.19637057  0.4502998   0.24494785 -0.39297253  0.16378473 -0.3244604
 -0.15110287 -0.17435563  0.3811106  -0.21286799  0.32645637 -0.3352541
  0.16874672 -0.2688172  -0.34636378  0.32564378  0.03050939 -0.2099174
 -0.00115713  0.2865289  -0.16085677 -0.6192104  -0.25569376 -0.03982752
 -0.10206429  0.17593718  0.09861449 -0.35853255 -0.12761319 -0.07667374
 -0.01715658 -0.13217507 -0.29643843  0.19085994  0.20746468  0.32334936
  0.27457544  0.02661068  0.00325196 -0.30898634]
[-0.40593725 -0.18008567  0.27493206 -0.01857974  0.20087898 -0.11432512
  0.00759914  0.07053068 -0.29619765  0.20080386  0.01551143  0.19114181
 -0.09987496 -0.20225403  0.05019514  0.07944234  0.01803415 -0.28052014
  0.03872648  0.04036156  0.16843453  0.21529253  0.14130926  0.11332154
 -0.24591027 -0.03772621  0.08433127  0.08499687  0.06755947  0.20303285
 -0.10142753 -0.19819638  0.2671999  -0.00332944 -0.23028232 -0.1618132
  0.02649696 -0.13639289  0.2183638   0.21149263]
[ 0.20050374  0.57379985 -0.10067043  0.26935655  0.07317834  0.4218182
 -0.38683453  0.13429086 -0.44970006 -0.08679274  0.1449306   0.06323067
  0.237082   -0.0139804   0.2563274  -0.1344684  -0.10937764 -0.09220743
 -0.2036342   0.37257946 -0.21743222  0.5506312  -0.00134519  0.09385233
  0.1498117   0.45302445  0.8227548   0.07029158 -0.06486616  0.06686653
 -0.27310488  0.08281805  0.46817932  0.19757158  0.44434312 -0.14904414
 -0.09903566 -0.34666544 -0.22976127  0.13737686]
[ 0.02834963  0.10984036 -0.32713884 -0.11158247  0.48197275 -0.14429101
  0.32873473 -0.06157859  0.5340359  -0.34864977  0.03672389 -0.04603026
 -0.06096686  0.13453427 -0.6183525   0.03261319  0.00181682 -0.4665373
 -0.0774032  -0.35767072  0.15653081 -0.06344885 -0.05429385  0.06538837
  0.01139686  0.05372507 -0.17237607 -0.13291131 -0.13732915 -0.03565418
  0.18652615 -0.06065041 -0.40960672 -0.31637245 -0.20059547  0.3899424
  0.05707385 -0.05587181  0.10200488  0.06843022]
[-0.15624826  0.216587    0.34140906  0.10695799 -0.02089125 -0.23861231
  0.2862677  -0.39227304 -0.26368517 -0.24646366  0.01385418  0.03393716
  0.03445789  0.11689658  0.11505246  0.12485462  0.15101978 -0.19102913
 -0.13221309 -0.2413247   0.38022804 -0.17880276 -0.16914383 -0.21081573
 -0.22740582 -0.17011355 -0.19958748  0.06862755  0.37441713 -0.12784377
 -0.0986913   0.17548753  0.19614328 -0.06076577 -0.2368414  -0.13683927
 -0.09472501 -0.0059411  -0.06610268  0.02402748]
[-0.01967509 -0.00065332 -0.18247414  0.09094429 -0.32250628 -0.12294458
 -0.01133946 -0.28552794  0.2017807  -0.03200839 -0.11345764 -0.09018273
 -0.24035035 -0.29411405 -0.19566034  0.05091565 -0.00818693  0.26707265
 -0.05668599 -0.28096202 -0.42743343 -0.21396515 -0.10636777 -0.09295187
  0.18423504  0.33002934 -0.17247313 -0.02995557  0.09257222  0.10309887
 -0.09477496  0.01023083  0.27598947  0.23938589 -0.01238058  0.3393932
  0.0247485   0.13125655  0.26597163 -0.24819052]
[ 0.11732975 -0.01205052 -0.09665331 -0.06623963  0.03028051 -0.20832463
  0.25032347 -0.41335455 -0.79199916  0.02859333 -0.0533424  -0.08059595
 -0.05009489  0.21790281  0.7021071  -0.03693229  0.1483447  -0.1667438
 -0.2240493  -0.22636536  0.05191476  0.59670347  0.09660051  0.37858796
 -0.2281011   0.26904002 -0.11673218  0.26209635 -0.2460816  -0.10819445
  0.17584996  0.32483062 -0.11395309 -0.05655686 -0.31410846 -0.34713537
  0.06148161  0.10718494  0.168296    0.16577896]
[ 0.07092522 -0.27118665  0.29783073 -0.22669251 -0.18195264  0.3936344
  0.09997156 -0.0011816  -0.59378564 -0.28338176 -0.04091204 -0.00080349
  0.17240109 -0.06741615  0.20521215 -0.3875653  -0.06496833 -0.41779336
 -0.03015413  0.01568781  0.31930813 -0.10398306 -0.12645513 -0.10866356
 -0.14825225 -0.3073827  -0.45446518 -0.13384295  0.11496221  0.15778518
 -0.19054374  0.11027523 -0.26312283 -0.18218209 -0.66485524 -0.40218642
  0.15734269  0.38314068  0.08432038 -0.28508815]
[-0.03816296  0.8069823   0.11540713 -0.07047348  0.05635269 -0.21318817
  0.25296474 -0.09150375 -0.02170154  0.0373989  -0.25649488 -0.04085429
  0.14256757 -0.16667861 -0.0837822  -0.28695035 -0.22220953  0.08416615
  0.15266018 -0.05311318  0.26845622 -0.3533999   0.2522405  -0.11225081
 -0.04495285 -0.27952367  0.3990274   0.0902977  -0.15521452 -0.13894807
 -0.0722067   0.1406087   0.31312656  0.11307141  0.11113274  0.10344869
 -0.21012956 -0.5952601  -0.11688545 -0.340104  ]
[ 0.2852474  -0.22634724 -0.2593352   0.07934256 -0.2778704  -0.24684651
 -0.10062713  0.61938435  0.17995805 -0.01363191 -0.03628224 -0.10753327
 -0.16600491  0.20621088  0.01358301  0.3011685   0.24377045 -0.0371522
 -0.15260819 -0.29983506 -0.08217799  0.11772565  0.09881826 -0.05304134
  0.10276906 -0.21393101  0.13135932  0.08658991  0.26452908  0.10354572
 -0.25700343 -0.02313016 -0.06908488  0.07496649  0.31931573  0.13166443
  0.12000805 -0.17023295  0.10209281  0.08935696]
[-0.13476862  0.4481243  -0.16975304 -0.14585635 -0.23920512 -0.02922471
  0.19227837 -0.11333494 -0.4940288   0.0887801  -0.14439434 -0.05783366
 -0.29330254 -0.26652035  0.24825229 -0.52930444  0.03673261  0.11828885
  0.06468466 -0.15166609 -0.05108575  0.69484764 -0.16710208 -0.20777887
 -0.68286926  0.063451    0.2957139  -0.01378643 -0.15712641 -0.20241623
  0.016732    0.3403467   0.29359165 -0.2328923  -0.3025535   0.04804682
 -0.5138424  -0.5094105  -0.3312892   0.04116729]
[-0.00494028 -0.1300973   0.15720485 -0.13374366 -0.14332943 -0.14484008
 -0.00104547  0.10335843 -0.11937998 -0.1809389  -0.07879028 -0.32018006
  0.16993608  0.05501683 -0.03157118  0.27265397  0.14184543 -0.08754849
  0.20013176 -0.14757803  0.10507024 -0.10785335  0.21250127  0.16775726
  0.12312869 -0.1979681  -0.05481387  0.09216198 -0.22958432 -0.00607271
  0.03119035 -0.10506651  0.21185566  0.25546426  0.506683    0.14120449
  0.12982796 -0.07038719  0.15112011 -0.11306183]
[ 0.0774366   0.35166535  0.43188617 -0.16306579  0.66209453  0.25286132
 -0.09791959 -0.23653525  0.58456683 -0.05695653  0.2909316  -0.07816211
 -0.15349708  0.07050241 -0.20692247  0.17681992 -0.53939587  0.16649632
 -0.15678212  0.52951616  0.05009222 -0.2667124  -0.06078336  0.22981833
 -0.25694093  0.22306162  0.5424814   0.04786783 -0.39917627  0.1086362
 -0.02043589  0.3863279   0.13109484  0.34381747 -0.3305133   0.07916901
  0.03244361 -0.15034188  0.06998637 -0.1387369 ]
[-0.0887645  -0.21741593  0.8430412   0.2887288   0.4627188  -0.12390612
 -0.08404551 -0.38593057 -0.12542501 -0.02879221 -0.13085957 -0.06035557
 -0.09001155  0.11809893 -0.02240585 -0.4011879   0.22250892  0.11909734
  0.06750977 -0.3123283  -0.11565236 -0.03246065  0.14286433 -0.07704163
  0.536969   -0.04749927 -0.496128   -0.2682519   0.19749892 -0.04934458
  0.03978594 -0.1442666   0.02279627 -0.17115273 -0.73732734  0.01840345
 -0.06753156  0.84018457 -0.09352557  0.12373361]
[ 0.18191342  0.42073357  0.10458715  0.05131568 -0.12958404 -0.16919553
  0.1660559   0.11180259 -0.4618378  -0.14139293 -0.02886854 -0.19556567
 -0.1570998  -0.08541544  0.07492044  0.35729662  0.00077432 -0.16047782
  0.11556249 -0.03531362 -0.02266682  0.34011725 -0.16469169 -0.1650771
  0.27682978 -0.3048344  -0.34707952 -0.12092674 -0.00887206  0.18979846
  0.0903636   0.03034195  0.35154742  0.14199914  0.43694335 -0.16366845
 -0.18772466  0.11700456 -0.24710944 -0.04292677]
[ 0.33594403  0.5240376   0.27732283  0.23916455  0.17003903 -0.15029126
  0.09122343 -0.35382417  0.05796519  0.20037459  0.0570689   0.16232356
 -0.06957672  0.15643851  0.5735088  -0.26926744 -0.18387571 -0.20742872
  0.11801337  0.3538221  -0.28753623 -0.15522274  0.13246073 -0.00347524
 -0.06388342 -0.19812079  0.3991508   0.10275302  0.316072    0.00208294
  0.08494607 -0.18916398 -0.19264713 -0.4005662  -0.230194    0.01954561
  0.01570003 -0.17885219  0.01142056 -0.17646609]
[ 0.15911037  0.39590737  0.2973662  -0.19371977  0.03502226 -0.2446161
 -0.11350866 -0.07202826 -0.09765357 -0.15859397  0.11328064 -0.14791796
 -0.03687504  0.21862175 -0.02530076 -0.40075365  0.05025104 -0.34020516
 -0.20657508 -0.07364535  0.20848936  0.00489198  0.08769758  0.03488782
  0.03066388 -0.0541342   0.37893796 -0.15557772 -0.06810652 -0.24331532
  0.23095931  0.29723406  0.24738003 -0.12790161 -0.550285   -0.07482531
  0.08079599 -0.5402925   0.1127187  -0.05903847]
[-0.07140629 -0.6659892  -0.28495148  0.06101168  0.22136867 -0.28441033
  0.17202285  0.38801008  0.49853787  0.27803025 -0.14736928 -0.17364693
 -0.08312749 -0.32842752 -0.3978996   0.5103561   0.19796188 -0.29395586
  0.19142453 -0.3833436  -0.21823102 -0.21453063 -0.02376795 -0.38628012
  0.08395199  0.04133953 -0.50561243  0.07423417 -0.11226934 -0.17292334
  0.32124817  0.0279418   0.20234632  0.32194462  0.32012472  0.18875615
 -0.19653766  0.5079406  -0.22392364 -0.1582364 ]
[-0.17583421 -0.15733708 -0.2272667  -0.03495146 -0.10635328 -0.13374478
 -0.18952277  0.44207597 -0.23885411  0.07161944 -0.25248826  0.15970916
  0.259048    0.1334909   0.15471959  0.16370083 -0.25415206  0.13719173
 -0.17322555  0.07633512 -0.12753549  0.0299216  -0.10996775 -0.01843414
 -0.33709216  0.08549712 -0.13457575 -0.21126874 -0.2502594  -0.039439
  0.1781975   0.17036247 -0.08416361  0.18501581  0.03032183 -0.04191893
 -0.18259753  0.09494019  0.10666436  0.06941326]
[ 0.05897586 -0.13543418  0.01631591 -0.10309933 -0.2790707   0.14296468
  0.00457101 -0.22781819  0.0485448   0.35332745 -0.14218722 -0.18204772
  0.01418461 -0.06195231  0.02553642  0.04140976 -0.24797663 -0.12422281
  0.16097799 -0.06609353 -0.08056681 -0.02778306  0.05040295  0.10103228
 -0.02194031 -0.00841493  0.07700998  0.00925655 -0.02280306 -0.13245092
 -0.20736057 -0.036665    0.11223287  0.12674643 -0.03814356 -0.245099
 -0.3292415  -0.0420862   0.1296642   0.15228704]
[-0.05034033  0.03645457  0.02976576  0.07527868  0.07464949 -0.04818847
  0.13951942 -0.01680186  0.14155136 -0.18980607 -0.01212615  0.03191108
 -0.01462603  0.03020915  0.01007946 -0.07653156  0.05680164 -0.09382185
  0.09815904  0.02292363  0.2285025   0.00962794 -0.03682648  0.02056274
  0.0901823  -0.0633935   0.04595437 -0.06361963  0.06339002  0.10058586
  0.00394053 -0.14673847  0.06198359 -0.21318173  0.09763166 -0.06737463
  0.09489437  0.13483192 -0.05380131  0.06624976]
layer 3 Activation
tanh
layer 4 Dense
40 20
[-0.18210018 -0.00865884  0.10623667  0.0390872   0.01130923 -0.08449169
 -0.10118344  0.2127499  -0.05076788 -0.01000731 -0.0341698   0.00875875
 -0.06825569  0.2562232  -0.01555717  0.18093918 -0.07868033  0.31794873
  0.14398539 -0.07331026]
[-0.14537154  0.07233246  0.0617088   0.16751838  0.07238671 -0.39869615
  0.26373622  0.48922354 -0.27739295 -0.08109213  0.14113915  0.11684237
 -0.3043923   0.31734958  0.2627173  -0.1385446  -0.0158679  -0.07259241
  0.20411079 -0.17677294]
[-0.21475717  0.35316673  0.01298264  0.12667559  0.207737   -0.06787985
  0.27588493  0.31515428 -0.00576202 -0.05016671  0.00185584 -0.14897044
  0.11723824  0.32833898 -0.17018436 -0.37804416  0.18590681  0.04464936
 -0.08205674 -0.04751059]
[ 0.08142851  0.10071555 -0.13960186  0.11923937 -0.09435433  0.00652527
 -0.04985766 -0.18993422  0.12818606 -0.16747108 -0.02218424  0.06607469
 -0.10529066  0.20110528  0.11006441  0.04351201 -0.27031207 -0.05953391
  0.03513062  0.08923482]
[ 0.18342581  0.30778188 -0.11204297  0.09156717  0.23510888  0.2643837
  0.29918125  0.38219598  0.02124894 -0.10655435 -0.25416636  0.14332592
 -0.14774144 -0.22215965 -0.02970962 -0.15176666  0.01753281  0.12813856
 -0.11204099  0.07994184]
[ 0.01966794 -0.49572    -0.03770542  0.1217205  -0.04471596 -0.20716889
  0.07867328 -0.15738258 -0.07582874  0.09661096 -0.14259711 -0.313445
 -0.13663208  0.01278315 -0.02707156 -0.22561286 -0.29221442 -0.12611222
 -0.41645786  0.25531042]
[ 0.19464342  0.171763    0.22519837  0.11228809 -0.2457657   0.07391508
 -0.19514063  0.3615406  -0.21472755 -0.04495995  0.05981012 -0.15368551
  0.25309983 -0.08667181 -0.18294623 -0.29063538 -0.10050695  0.2267358
 -0.01839137  0.18857408]
[ 0.16544877 -0.2863697  -0.19489162  0.20124765  0.18918431 -0.08173373
 -0.34805688 -0.33387378 -0.23539196  0.18747309  0.08075292 -0.2476474
  0.06699006  0.2815031   0.158378    0.23645878  0.2819246   0.319042
 -0.35281172 -0.18114044]
[ 0.18297008  0.08539735  0.03110517  0.42866486 -0.1377346   0.3247864
  0.27096543 -0.0071539  -0.04322381 -0.03371401  0.19340363 -0.21144095
  0.34121424 -0.1108628   0.08546696  0.41478825  0.58095753 -0.04664019
 -0.09494016  0.10763335]
[-0.26083368  0.028295   -0.09179781  0.11445339  0.1879857  -0.2115774
 -0.02658425 -0.06848193  0.01459197  0.08548607  0.11183922 -0.04950698
 -0.10713611  0.28055617  0.21730836 -0.06151856  0.19200604 -0.2798057
 -0.02816746  0.2169303 ]
[-0.19395012 -0.32285678  0.01171404 -0.21164878  0.1696212  -0.05097667
  0.12607424  0.12690932  0.18035462  0.26261544 -0.14821023  0.20349899
 -0.05137994  0.24357156 -0.15126398 -0.20227082  0.23650883 -0.20494872
  0.13495956 -0.11420678]
[-0.16551603 -0.11900166  0.15088204  0.10389296  0.0406566  -0.08173297
 -0.00272718 -0.1593831  -0.02523941  0.09241534  0.08851226 -0.09585182
 -0.08996923 -0.12953556 -0.14325811  0.04560519 -0.11060965 -0.02922448
  0.12715952 -0.14228043]
[-0.04107967 -0.09733813 -0.10290989 -0.15513326 -0.28971228 -0.06044415
  0.20217395 -0.09967105  0.20291466  0.02771282 -0.00727539 -0.18909937
 -0.03037862  0.21594954  0.00308667 -0.24477915 -0.19629478 -0.09355827
 -0.11880858  0.00989869]
[ 5.9744533e-02  4.1392393e-02 -2.6730919e-02 -1.4251488e-02
 -1.1743568e-01 -1.3046913e-01  1.8364787e-01 -2.0850287e-01
  8.6031832e-02  2.7915972e-01 -1.5357281e-01 -1.1517756e-01
 -1.9837319e-04  1.2089860e-01  1.9239372e-01 -2.7512163e-01
 -8.4928222e-02 -3.6889616e-01  2.8694987e-01  2.4013944e-01]
[-0.27939206 -0.08751681  0.01989796 -0.22480458  0.08030458 -0.3097313
 -0.24233599  0.15388931  0.17543593  0.0280984  -0.1230923  -0.14004697
 -0.21368046  0.22030792 -0.26762357 -0.48904917 -0.11785755 -0.24537474
 -0.13835134 -0.08410963]
[ 0.17272653 -0.16985667 -0.05176563 -0.17336968  0.13632941  0.23350205
 -0.29689214 -0.03761826 -0.322709   -0.04517329 -0.04329897 -0.14396584
 -0.15912692  0.16645409 -0.09873923  0.3583406   0.38973364  0.05542097
  0.19782504  0.2071092 ]
[ 0.13420288  0.00809579 -0.19100428  0.05463425 -0.08590169  0.07071121
 -0.2864845  -0.28950492 -0.18748643 -0.13450092 -0.04030268 -0.11555903
  0.0745542  -0.1357635  -0.0305926   0.11517889  0.03063028 -0.2138439
 -0.1840696  -0.04049549]
[ 0.12785704 -0.05996104 -0.16247483  0.13562132  0.18071662 -0.22751579
 -0.03761845 -0.1937978   0.36423233 -0.02175738  0.16874449 -0.3272979
 -0.19048321  0.26560658  0.12714921  0.03595337  0.07445396 -0.08391301
 -0.17891517  0.0719734 ]
[ 0.08802214 -0.15028693 -0.22665027 -0.09889496  0.05829183  0.14611146
  0.02209874  0.00675565  0.2624095   0.07503665  0.36561492  0.032996
  0.0343933  -0.02640191 -0.08569782  0.01874343 -0.09929203 -0.091466
 -0.0019197   0.09916549]
[-0.03581355  0.01356034 -0.2206795  -0.15932691 -0.1917329   0.1416771
  0.2948462   0.41270587  0.05373048  0.21905178  0.03213401 -0.1079242
 -0.37956962 -0.08456997 -0.00592737 -0.02452448  0.0169294   0.3281631
 -0.21111134  0.24117653]
[ 0.21555315 -0.08172427  0.15902561  0.12263574 -0.09247985  0.15195695
  0.11334561  0.32692915 -0.16924948 -0.34405228 -0.00091683  0.19575219
  0.1302944  -0.18327126  0.0870272  -0.1827633  -0.34696764  0.28464752
  0.22971174 -0.04459957]
[-0.35482472 -0.3217882  -0.14809297 -0.08975904  0.1066037  -0.39067015
 -0.33767828  0.07887335  0.19637147  0.2206014   0.10533317  0.19770636
  0.0027608   0.21414356 -0.10821103  0.19644548 -0.36078945  0.2696819
  0.23707752 -0.00783054]
[ 0.02573944  0.4215358   0.05124022  0.12442533 -0.0343897  -0.09252887
  0.27994895 -0.12971982 -0.16727966 -0.13612552  0.20932993 -0.23509222
  0.03160436  0.16824332 -0.05373237 -0.09881228  0.01006093 -0.06398179
  0.07114451  0.24839795]
[ 0.07888032 -0.10390632  0.20234048 -0.11505011 -0.02890839 -0.09051339
 -0.03412918 -0.13269337 -0.0598453   0.18147512 -0.13678429  0.03185733
 -0.03454221 -0.25693595  0.307541    0.03275114  0.08151183  0.08334967
  0.25492668 -0.18432714]
[ 0.32240713  0.11964215 -0.12799776 -0.21234699  0.04062177  0.0419785
 -0.05909052 -0.22818576  0.35290003 -0.09931041  0.07092932 -0.02611077
  0.10996179  0.33374357  0.170925    0.11792114 -0.0949032  -0.07474408
 -0.0745391   0.17188153]
[-0.13132417 -0.08493771  0.11606418 -0.33558914 -0.00554356 -0.13251105
  0.01625475 -0.2586848  -0.00311338 -0.2167458  -0.17005068 -0.13553019
 -0.19310606  0.101328    0.2688109  -0.23485419  0.11273798 -0.03912802
  0.16532148  0.14820279]
[-0.21417047  0.20369478  0.24904959  0.01476532 -0.11624951 -0.16525412
  0.38041574  0.24263579 -0.2199183  -0.07887058 -0.02231567 -0.24467266
 -0.2672027  -0.13186768 -0.08315276  0.10328517 -0.24418132 -0.09142879
 -0.08622486  0.10001872]
[-0.2715758   0.04965278 -0.09741341  0.15660514 -0.03361937 -0.08943374
 -0.0347856  -0.06558993  0.3209256  -0.1376533   0.01389262  0.09517336
 -0.0948183  -0.3813388  -0.02691396  0.01877801  0.2527618   0.03873623
  0.17440042 -0.05349563]
[-0.19920307  0.17284529  0.0222935   0.20866522 -0.15245391  0.15453622
 -0.1010879  -0.0831362  -0.09542023 -0.01802307  0.0908961  -0.05759544
  0.08605897  0.14271985 -0.1869308  -0.11010985 -0.39438045 -0.05202464
  0.01255301  0.0039361 ]
[ 0.14717557 -0.22810997 -0.07187942 -0.14248818 -0.06816441  0.02613616
 -0.03593965  0.02153544  0.23212107 -0.02796672  0.07812241  0.23118687
 -0.06002898 -0.20772712 -0.24869479 -0.10230218  0.10387289  0.126622
 -0.19927976  0.03485338]
[ 0.02123484 -0.04449939  0.06478287 -0.18399501  0.2382847   0.18981954
 -0.10245758  0.0228717  -0.0371685  -0.20467573  0.14402504 -0.13319227
  0.07183003 -0.00270896  0.15275283  0.02508579 -0.27156168  0.10126333
  0.29429352 -0.04807061]
[-0.15306738  0.20789826  0.3591599  -0.20347321 -0.03871321 -0.07012494
  0.01821041  0.10656367 -0.24922583  0.18571806 -0.3075311  -0.21231884
 -0.05070658 -0.06712349 -0.1120649  -0.12115119 -0.00625749  0.02841736
  0.13762732 -0.05050508]
[ 2.6036078e-01 -2.1418333e-02  3.1883421e-05 -7.9051100e-02
 -1.5164718e-01 -6.4663067e-02 -2.2219191e-01  4.4898555e-02
 -7.5182743e-02  1.3313974e-01 -9.9724405e-02  2.9141137e-01
 -2.8012511e-01  2.5103110e-01 -2.0130934e-01  3.5591739e-01
 -3.5307430e-02  2.8607950e-02 -1.9723772e-01 -5.8443453e-02]
[ 0.05216252 -0.1372619  -0.04477102 -0.21844527 -0.17695232 -0.07318923
  0.01553895 -0.18921848  0.01951852 -0.09417538 -0.08513325 -0.29486796
 -0.186048    0.29137865 -0.19068968 -0.04345275  0.18253642  0.06383072
  0.10427553 -0.04731107]
[ 0.38837928 -0.3049341   0.22807702  0.22656836 -0.02749672  0.33840203
 -0.4980362  -0.37211883  0.25972387 -0.2467865   0.04218087 -0.08272868
 -0.49576476 -0.18306911  0.14611977  0.67039955  0.03808849 -0.08680553
 -0.06677007  0.1325848 ]
[ 0.05677408  0.17531177 -0.25970566  0.10238679  0.07825737  0.2563958
  0.09258389  0.0915656   0.00660505  0.05930606  0.38786647 -0.06065375
  0.01059817 -0.19592966 -0.13368632  0.3186083   0.16487403 -0.17181051
 -0.27631506  0.07928703]
[-0.22283374 -0.34609225 -0.19606681 -0.07705113 -0.04563712  0.07991234
  0.01839202 -0.09863409 -0.19259952 -0.04719734 -0.10444757  0.13874678
  0.01331715 -0.03419977  0.26494712 -0.09019793 -0.16283576 -0.0933196
 -0.15050772 -0.13448818]
[ 0.06839006 -0.08538455  0.13402627  0.2814256  -0.18165474  0.15383892
  0.06488984 -0.24440563 -0.0729333   0.10417238  0.09926476  0.37434727
  0.18916583  0.21509084 -0.23442881 -0.3930341   0.20932746 -0.05725809
 -0.22360381 -0.10290362]
[ 0.1547493   0.19965625  0.08423212 -0.06891435  0.12434234  0.01819727
 -0.08299755 -0.10699188 -0.04730888  0.10728633 -0.14590807 -0.08748578
  0.08681585 -0.22348468  0.1488569   0.05492389  0.19322959 -0.05703538
  0.07443598 -0.21577574]
[ 0.09281105 -0.19182907  0.33316052  0.17393439 -0.29997116 -0.24102122
 -0.03415356 -0.4812765  -0.02256847 -0.10692494 -0.22673747  0.04621651
  0.01625737  0.17851186 -0.04142217  0.17331596  0.21058089 -0.29537648
 -0.09227261 -0.22259088]
[ 0.02799425  0.05235806 -0.00442727 -0.0346488  -0.03749265  0.07159679
  0.02478593  0.03261905 -0.07157195  0.11104595  0.11821879  0.12553504
 -0.00184457 -0.02457777 -0.06588794  0.03407275  0.01589767  0.06211881
  0.1577395  -0.1225692 ]
layer 5 Activation
tanh
layer 6 Dense
20 1
[0.02510794]
[-0.04248563]
[0.00806075]
[-0.00368343]
[0.00782134]
[0.14063965]
[0.10352562]
[0.06337673]
[-0.00105312]
[-0.00349766]
[-0.02676859]
[-0.02956668]
[-0.19177784]
[0.00378352]
[0.00302022]
[0.09358989]
[0.05208277]
[-0.03818789]
[-0.00223818]
[0.01507184]
[-0.02341434]
