layers 7
layer 0 Dense
20 20
[-0.2631735  -0.17880073 -0.06474806 -0.12613453 -0.02209948 -0.08972782
 -0.25401637  0.19907218 -0.33863243  0.3057514  -0.22173461 -0.5164026
 -0.29777834 -0.2721072  -0.21457271  0.5622065  -0.17519756 -0.05719218
  0.1797122   0.2821957 ]
[-0.07900897 -0.23485717  0.3287072  -0.37396756  0.2349184   0.20756787
  0.74328595  0.48839933  0.49484318  0.00712715 -0.19804674  0.12093961
  0.04697387 -0.24038689 -0.8845742  -0.06553205  0.62681323 -0.15280266
  0.34691706  0.31629062]
[-0.28225783 -0.34068757  0.09631862  0.08871742  0.15800068 -0.07231177
  0.38575837  0.06497847  0.334925    0.54585695  0.353976    0.18362677
  0.19295116  0.18981992 -0.83175164 -0.2572684   0.5624741   0.12781113
  0.4242499   0.21722046]
[-0.58638614  0.33400062 -0.11439344 -0.18303525 -0.14328243  0.19441573
  0.26940122  0.14467013  0.01754013  0.1478635  -0.39608252  0.02845358
 -0.07974846 -0.2959137  -0.21079297  0.13254319 -0.01396641 -0.50188196
  0.6720839   0.56594   ]
[-0.11081358  0.04399801  0.25310284  0.11465891 -0.34148148 -0.05033117
 -0.22282986 -1.0118468   0.28210348  0.21771379  0.30836284 -0.11134587
 -0.32462913  0.08821278  0.02584886 -0.6199275   0.03604189 -0.42212346
 -0.06101902  0.43120158]
[ 0.21395358  0.36774734  0.07004993  0.5253561   0.32950905 -0.18889993
 -0.34404868 -0.4083236  -0.82044053 -0.16625148 -0.3779469  -0.33035362
 -0.022978   -0.08511403  0.69676644  0.11970371 -0.6875019   0.01686155
 -0.04719091 -0.24174453]
[ 0.09386902  0.29896012  0.46781462 -0.17992358  0.17163745 -0.18035348
 -0.41617486 -0.30210236 -0.42741513 -0.06591996 -0.00414275 -0.31381568
  0.26272625 -0.6192334   0.5531991   0.13817444 -0.10872006 -0.04419345
 -0.3543349   0.02908766]
[ 0.7867867   0.11394338 -0.42574087  0.30341947 -0.09568262  0.13739717
 -0.07442521  0.0437761  -0.05534957 -0.63699603 -0.18821354 -0.38290524
  0.29914168  0.20634927  0.7623192   0.34015033 -0.00578008 -0.19453217
 -0.42062628 -0.57010394]
[ 0.1540465   0.1240203  -0.01870985 -0.20655997 -0.55299234 -0.37717968
 -0.44850773 -0.75009596  0.3501438  -0.61573356 -0.60699034 -0.3759566
  0.28767252 -0.41020173  0.77594733 -0.31224132 -0.45881206 -0.2511743
  0.03037422  0.2737012 ]
[-0.16360812 -0.20104733 -0.14373206 -0.49705702  0.3300584  -0.49773082
  0.36294368 -0.62452155 -0.5494918   0.15445527  0.6865462   0.38332862
  0.00414478 -0.55103576  0.5012819   0.3018563   0.28636894 -0.48640546
  0.14336064 -0.3510483 ]
[ 0.03444284  0.7567046   0.8376438   0.5281629  -0.05646752  1.2375149
 -0.7022478  -1.4410207   0.09846098  0.04815878  0.19553733  0.38346356
 -0.30108863  0.91639435  0.66507375  0.09472429 -0.43703946 -0.322479
 -0.04024696  0.15377487]
[-0.7868906  -0.41308254  0.5133036  -0.13403957  0.42105222  0.10354187
  0.27661845  0.2745279   0.681965    0.38988099  0.5439556   0.3090899
  0.65439427  0.7360644   0.00296944  0.6535042  -0.40419942 -0.3400726
  0.04348953  1.1204181 ]
[ 0.3139174   0.02854336  0.21051219 -0.26190835 -0.7674811  -0.3005157
 -0.5022841  -0.65252393 -0.5837494  -0.28030422  0.26461983  0.11995953
 -0.02510823 -0.28337726  0.5055744  -0.49794576  0.2138944  -0.20966095
  0.08500832  0.31262672]
[ 0.11747718  0.20190355 -0.42338037  0.02814249  0.03496739 -0.06525203
 -0.09365455  0.3453739  -0.14426322 -0.05489485  0.458566    0.43707877
 -0.29131067 -0.34910086 -0.6392944  -0.25098965  0.15833522  0.3258999
 -0.3006186   0.26186723]
[-2.2890830e-01  4.6817550e-01  1.4663294e-01 -4.3187063e-02
 -8.0598956e-01 -7.7030271e-01 -1.2599261e-01  7.3917723e-01
 -6.3638306e-01 -5.2589938e-02  5.8605945e-01  7.2661895e-01
 -1.1455104e+00 -1.8589060e-01 -8.0073774e-01  2.5031799e-01
 -2.8307000e-01 -6.8226564e-01  1.3694794e-01 -5.0839788e-04]
[-0.19977078 -0.658295    0.2580887  -0.0494476  -0.08531222 -0.05624717
 -0.5675845   0.9233807  -0.26801348  0.072025    1.0996584   0.88444066
  0.1596941   0.745762   -0.8947172  -0.37223163 -0.24851176 -0.4354369
 -0.32317993  0.46734563]
[-0.00499133 -0.5513506   0.32274684 -0.20834427  0.02520024  0.52938604
  0.08390774  0.24974927  0.23584168  0.53960633 -0.01718549 -0.2771238
 -0.46904162  0.62539804 -1.1379821   0.41369554 -0.30842173 -0.20752446
  0.2999981   0.6267031 ]
[-0.06117575 -0.14063728 -0.32515484  1.3967578  -0.9556465   0.4455123
 -0.5856565   0.27227452  1.5006572   0.03925529 -1.976806   -0.6989814
  0.5711644   1.277246    0.1906829  -0.59385    -0.53649735 -0.31179848
  0.02526668 -0.16772193]
[ 0.02393092 -0.95528156 -1.2544475  -0.45104134  1.243877   -0.81609637
  0.573496    1.1883545   0.445143    0.11459059 -1.0163121  -0.92172366
  1.8337588  -1.187141    0.10471351 -0.22411552  0.55483353  1.0342758
 -0.05821608 -0.38488975]
[ 0.4427695   1.1598939  -0.9331437   0.9556818  -0.269691   -0.48542213
 -0.46064067 -0.13843691 -1.2859799  -0.73466945 -1.4762918  -1.9825673
 -1.5139819  -0.79006153  1.0951072   0.8940654  -0.94165707  0.07765785
 -0.4789317  -0.5876204 ]
[-0.33445007  0.01149984  0.14401215 -0.16269225  0.20670936  0.2533731
  0.12748793  0.34065682 -0.11383805  0.23819305  0.10307737  0.17446277
 -0.02098336 -0.29549232 -0.23893407  0.3378393  -0.0439296   0.02679653
  0.24978042  0.06413244]
layer 1 Activation
tanh
layer 2 Dense
20 40
[ 0.07137298  0.12710257 -0.34469992  0.39735335  0.15907001  0.13571121
  0.3242501  -0.02286729 -0.05031649  0.07804075  0.03214968 -0.50074196
  0.14072396  0.32061574 -0.20212904  0.13635746 -0.03079264 -0.37107587
 -0.04709692 -0.03707844  0.61061895  0.26516664 -0.6692962   0.20439063
 -0.15114687  0.44496816  0.71434045 -0.03640886 -0.47635838  0.4331705
 -0.3181111  -0.5055822   0.18841407  0.6891521  -0.4246414   0.06709345
 -0.2162252  -0.84666234  0.27694032 -0.06241914]
[ 0.5097856   0.04002075  0.4990398   0.34321645  0.33442762 -0.53849053
  0.00928242  0.1175658   0.26121187 -0.63720113 -0.56354296  0.2597193
 -0.15429892  0.32049805  0.09580435 -0.435677    0.041685    0.3365172
  0.2909567  -0.02509689  0.54087734 -0.17095737  0.15434186  0.01374895
 -0.4973545   0.2372202  -0.09564335  0.2479426   0.00418831  0.12437145
  0.1481752   0.33325046 -0.51418674 -0.1688692  -0.10853933  0.30950657
  0.12202262  0.26158535  0.06836814 -0.06736642]
[ 0.16409953  0.25755602 -0.08359374  0.22076985  0.5428979   0.04397662
 -0.23629238  0.260947   -0.06207937  0.03740225 -0.53845274 -0.1636254
  0.06883817 -0.24417207  0.32239878 -0.6049176   0.21593559  0.17077123
 -0.13384612  0.10318532  0.1329647   0.04257303  0.3038943  -0.17577793
  0.34898835 -0.78900355 -0.19268581  0.3975692   0.07270663  0.373144
  0.14983706  0.06936856 -0.15838763  0.20164804  0.01332962 -0.48089698
 -0.17161395 -0.04577282  0.26423275  0.08456701]
[ 0.58072674 -0.09872195  0.09995521  0.11241976  0.4632279   0.16087388
  0.49890375 -0.11780111  0.29137254 -0.27367875  0.11523263  0.25281677
  0.09995256  0.20111986  0.05933856 -0.07656873  0.30476132 -0.228217
 -0.44234622  0.03842552  0.2497671   0.07552638 -0.08473651  0.23034956
 -0.5310736   0.28436685  0.28890386  0.1884944  -0.14945059  0.11266911
 -0.06604684  0.29883334  0.18603614 -0.10886449 -0.2658354   0.54608834
 -0.30862436 -0.03555235  0.03494205  0.08112667]
[-0.7656689  -0.4245824  -0.3403024   0.24508193 -0.22256786 -0.23120043
 -0.29989922 -0.05370423 -0.24474284  0.0380576  -0.53883886 -0.07868606
 -0.28094333  0.25104877 -0.3266183   0.00970967 -0.05564346  0.12834658
  0.229712   -0.56984895  0.15954834 -0.09740863 -0.15095547 -0.33799782
 -0.17983411  0.18570092 -0.14611512 -0.45038494  0.25841004 -0.4127913
 -0.17508255 -0.13117036 -0.16281961  0.08886516  0.41121462  0.17014664
  0.02106901  0.1467173  -0.35010403 -0.25844994]
[ 0.23951913  0.1765176   0.3371848  -0.07835881  0.37649196 -0.34097368
 -0.18554367 -0.1919326   0.08140893 -0.36966428 -0.48132175 -0.17751296
 -0.01590139  0.05441371  0.3758492  -0.11432442  0.02990558  0.5803413
  0.16763349  0.1872757   0.4015605  -0.04378915 -0.05436501 -0.26881534
  0.2741353   0.07197556 -0.07970776  0.549272    0.2033329   0.06563772
  0.25509444 -0.42240444 -0.16153853  0.16103444  0.00095074  0.10001007
 -0.02525513 -0.11613639  0.22785343  0.44083074]
[-0.38998166 -0.11621579 -0.07566208  0.12036645 -0.21912204  0.29726422
  0.30433866  0.12372984 -0.06801025 -0.47178534 -0.0357034   0.1308067
  0.21553132 -0.19083449 -0.41467747  0.2940465   0.3810828  -0.12459661
  0.31600052 -0.03353966 -0.25155824 -0.1037256   0.23420078  0.01204769
 -0.03867482  0.3356412  -0.26275006 -0.12091645  0.05087131 -0.08090387
  0.00726637  0.23121603  0.05935365 -0.21004596  0.19904193  0.15766773
  0.15447348 -0.16713862  0.07661385 -0.06741876]
[-0.29931983  0.10109616 -0.04091582  0.09554113 -0.65097946 -0.4979561
 -0.24035192 -0.33757916 -0.13947563  0.46043012 -0.32450032 -0.27776825
 -0.30854478 -0.49670425  0.6255653   1.3233302  -0.27111307  0.38811415
  0.47250202  0.28983477  0.304914   -0.0758111  -0.27156526 -0.23573832
 -0.2407906   0.18784608 -0.7393374  -0.30099562  0.3630731   0.35879946
  0.5395758  -0.2592745  -0.46425098  0.3594693   0.82657826  0.2694908
  0.29487917  0.18365008  0.09660173  0.27097002]
[-0.21429569 -0.19429874  0.05294482 -0.06118747  0.1579224  -0.16316892
  0.06606713 -0.6368309   0.37680492  0.4528524   0.52790475 -0.10339601
 -0.13110101 -0.42196375  0.7227439   0.67762667 -0.07543925  0.24065101
 -0.42951575  0.03478425 -0.2715335  -0.13108407 -0.25449935 -0.13672209
  0.34088758  0.02881333 -0.41327706  0.6320461   0.01592752 -0.20308343
  0.11663038  0.22591914  0.34150255  0.0836025  -0.05664308  0.10045778
  0.20930476 -0.16779302  0.25634888  1.0147954 ]
[-0.0479007  -0.19331795 -0.16194773 -0.25121865 -0.28978774  0.01310087
 -0.05014213  0.13299309  0.05054304  0.10681434  0.02158551  0.38456112
 -0.17486875 -0.21474478  0.27533808  0.26337802 -0.40033132  0.32925418
  0.15586478  0.1807301  -0.5647698  -0.16783836  0.15735994 -0.3423758
  0.1908755  -0.11448434 -0.5341835  -0.15342264  0.02495186 -0.18404831
 -0.05663958  0.37100163  0.42764768 -0.80639315  0.5829718   0.3010572
  0.16177584  0.5574336  -0.04742913  0.3950792 ]
[-0.47148272 -0.0530642   0.14804979 -0.53034776 -0.842905    0.5870112
 -0.11008415  0.49959826  0.60017776  0.06090376 -0.6079648   0.0830283
  0.17916475 -0.30581853 -0.02349949 -0.18460211 -0.06664322  0.20453675
 -0.04854177  0.7416873  -0.13575755 -0.14935797 -0.41793925 -0.38874367
  0.43985903 -1.0153217  -0.3798181   0.7074216   0.2309062  -0.0942383
  0.51523566 -0.1489475   0.44857207  0.49974698  0.37401187 -0.09247541
  0.20472299  0.121677    0.4149321   0.29250273]
[-0.2868112  -0.12358654  0.38671687 -0.27701062 -0.39407304  0.02046596
  0.00756175  0.2652047   0.423702   -0.03951987 -0.26688567 -0.1355739
 -0.00184008  0.1346603  -0.33998734 -0.5702152   0.31146184  0.30590743
 -0.00719277  0.52395314  0.06271297  0.17784363  0.07245501 -0.21528813
  0.08868929 -1.1201329  -0.05313409  0.9327419   0.08911611 -0.42041627
  0.24523786  0.10717165  0.5128279   0.08852209  0.6104926   0.0739402
 -0.29572165 -0.09496775  0.2807669   0.5227135 ]
[-0.6926609  -0.00444154 -0.10125465 -0.6637089  -0.23916082 -0.21418011
 -0.06212081 -0.47978526 -0.08724091 -0.13682236  0.08920795 -0.10761591
 -0.1505955  -0.02886975  0.52832067  0.9900048  -0.19542563 -0.00275102
 -0.14669433  0.34289905 -0.1547256  -0.23608458 -0.13661982 -0.25659633
  0.43292943 -0.3458287  -0.20753925 -0.06029039  0.21721493 -0.11580914
 -0.55342233  0.19534625  0.44176066  0.38789698  0.511079    0.09681797
  0.33746493 -0.30661106 -0.01757509  0.49602368]
[ 0.16022958  0.24825501 -0.15916318 -0.25041497  0.8088517   0.13272804
  0.00288372 -0.5504803   0.39045858  0.13003805  0.19318423 -0.11447106
 -0.10963424 -0.15716262  0.26518083  0.10258037 -0.27464652 -0.10105915
 -0.10283309  0.2132451   0.00309142 -0.04103984 -0.2809182  -0.11670707
 -0.0107867  -0.9072364  -0.10959339  0.59920925  0.20450556  0.12732993
  0.00674355 -0.31911814  0.2695761   0.09953488 -0.14618814 -0.19518434
  0.2081463  -0.31585217  0.33872303  0.64476097]
[-0.12511328  0.1876347  -0.28214067  0.4487843   0.45950365  0.00803636
  0.21281712  0.36048767 -0.28073287 -0.34532675  0.05944047 -0.28412914
  0.05897203  0.41258132 -0.10240605 -0.48229155  0.27801454 -0.22808482
 -0.34129667 -0.34685796  0.26017752  0.08585703 -0.2860478   0.52926075
 -0.12201326  0.14434561  0.5801922  -0.27673894 -0.13281424 -0.0201207
 -0.46379372 -0.22185129 -0.10673966  0.32353088 -0.46058762  0.20942229
 -0.16852954 -0.18570672  0.0130664  -0.2702975 ]
[-0.14805461 -0.0112204  -0.09075823 -0.23581304 -0.10864417 -0.35371977
  0.09440776 -0.21725689 -0.00369683 -0.08311538  0.07046453 -0.63005805
 -0.3612121  -0.01774062  0.38527992  0.25408614 -0.13399422  0.00886263
  0.2304657   0.0358794   0.09701819  0.15686971 -0.4814851  -0.11242143
 -0.21842803  0.02507756 -0.10378783  0.10092293  0.13810916 -0.02348262
  0.39458242 -0.4129901  -0.5761908   0.7752809   0.2694014  -0.16660562
  0.09744046 -0.46810478  0.21582945 -0.12254604]
[-0.42415226 -0.09424651  0.25393552  0.08712032 -0.38092452  0.32844177
 -0.25779498  0.37537357  0.07971182  0.17741884 -0.33719432  0.01787157
  0.15648097 -0.07200058 -0.29650575  0.11830107  0.19569933  0.14905314
 -0.10351177 -0.18537395  0.30744243  0.26555258 -0.07061052  0.14914103
  0.3039795  -0.01587261  0.23268148  0.01135765 -0.11391252 -0.21122538
 -0.22239584 -0.22563411  0.3125365  -0.40016243  0.035841    0.1286021
 -0.14354905 -0.13221596  0.29598963  0.00259323]
[-0.18485402 -0.1170603   0.06335479  0.39743912 -0.21152952 -0.41094783
 -0.06725517  0.00731823 -0.2662215  -0.35281554 -0.29396665 -0.01122987
 -0.04819134  0.11870433 -0.09029798  0.22885199 -0.00978799  0.15723194
 -0.02351096 -0.40996546  0.63846624 -0.09325439  0.40282848 -0.02926219
 -0.00646656  0.7035598   0.15050195 -0.23966616  0.07932244 -0.10251725
 -0.35035613 -0.32469472  0.18792863 -0.11798403  0.00390746 -0.23749617
 -0.41300693  0.08584172 -0.10109701 -0.32853004]
[-0.05969176  0.00374443 -0.19977878 -0.33857217 -0.04051103 -0.257236
 -0.1440742   0.04872363 -0.06389603  0.22645238 -0.2729313   0.8018556
  0.10799067 -0.34582248 -0.0935747   0.10968223 -0.5095245   0.35617924
  0.13592428  0.29633847 -0.488783    0.01075184  0.7421936  -0.5830931
  0.14130194 -0.09425908 -0.32393682  0.23353244  0.37836123  0.08775444
  0.34739855  0.47990423  0.35977063 -0.88331044  0.10915989  0.20673205
  0.59409064  0.64438206  0.04965774 -0.07341453]
[ 0.3733996   0.403522   -0.14808035 -0.17621142 -0.04166345 -0.27565855
 -0.38987863 -0.26133686  0.25848803  0.2940535   0.00861776 -0.08955792
 -0.00779992  0.03544904  0.78266096 -0.19886783  0.08173754  0.28195786
 -0.01180067  0.25612843 -0.20387645 -0.00314398  0.25778043 -0.362215
  0.12500082 -0.29422474 -0.05928873  0.33607143  0.18755683  0.14065087
  0.17308483  0.27458674  0.05541522 -0.26384723  0.09960097 -0.19004357
  0.17610434  0.0740502   0.14875905  0.2970565 ]
[ 0.05693902 -0.11201628  0.06728874 -0.08805173 -0.10242522 -0.31252372
 -0.12303988 -0.05380667 -0.00277158  0.13527738 -0.08290793  0.56927484
 -0.1051934  -0.17114092 -0.14812303 -0.08320852 -0.18524636  0.30870363
  0.0240953   0.04344682 -0.3371809  -0.03927902  0.45678207 -0.46946755
 -0.06586172 -0.13374804 -0.4722269   0.17067635  0.30244255 -0.16471376
  0.11378159  0.22763094  0.09351303 -0.8124356   0.24961236  0.0710043
  0.22552918  0.49667102  0.02027842  0.12259329]
layer 3 Activation
tanh
layer 4 Dense
40 20
[ 0.0271834   0.30470008  0.4764174  -0.51699543  0.2810907   0.24050578
 -0.1501389   0.24301864 -0.3965621  -0.04138993  0.0438318   0.13160586
 -0.35096878 -0.71463734  0.235535    0.15240932  0.40254173 -0.0535055
 -0.02315634  0.24033119]
[ 0.02255805  0.23170063  0.45981073  0.17449927 -0.204096   -0.367497
 -0.2270611   0.29430228 -0.14693543  0.23427674 -0.1404979   0.00871013
 -0.7151253  -0.29036027 -0.05681188 -0.0946531  -0.2688033  -0.14719081
  0.01538191 -0.2624257 ]
[-0.03565068  0.37502602 -0.0242482  -0.00518486 -0.05689919  0.05667904
 -0.4217949  -0.06311871  0.04148739  0.02822436  0.08548886 -0.01813726
 -0.3170335   0.00119443  0.22994505 -0.5287674   0.06370763 -0.04293679
 -0.18624792 -0.26073748]
[ 0.20249158 -0.02849469 -0.31763858 -0.22227201  0.2213168   0.51766837
  0.00622867  0.35372198 -0.25948423  0.5557923  -0.13710685  0.10957463
 -0.17939281  0.11522719 -0.06665514 -0.05250558  0.30615655  0.4434574
 -0.07791089  0.35139385]
[-0.06889232  0.08590306  0.6211107  -0.44747326  0.02584607 -0.02458828
  0.09364399  0.16117853 -0.28738678 -0.01076503  0.22924192  0.1866163
  0.09762687 -0.7228554   0.08040339 -0.10283393  0.2817627   0.44796965
  0.04411153  0.52689224]
[ 0.18772206 -0.02244582  0.08767365 -0.2898507   0.11194149 -0.02105783
 -0.4079921  -0.17915796  0.15290408 -0.42441216 -0.23991556  0.47462168
  0.2646014   0.05744378 -0.07991275 -0.00260955  0.24007235  0.177323
  0.2764618   0.5599265 ]
[-2.6581630e-01 -2.7712002e-01  2.0768227e-01 -1.4260146e-01
 -2.8680202e-01 -1.7240204e-01  6.7592889e-02 -8.2324281e-02
  8.6703449e-03  3.6962095e-01  1.8880320e-01 -1.2181475e-02
 -9.9026049e-03  5.3083513e-02 -1.5920897e-01  4.9538660e-01
  1.2683070e-01  2.8342104e-01  1.9350919e-01  1.3244446e-04]
[ 0.25522068  0.13717896 -0.2823838  -0.16191229 -0.10477872  0.07981989
 -0.44949433 -0.12428939  0.02045434 -0.23352651  0.14554767  0.00364357
  0.10131179 -0.19662432 -0.01793181  0.01706822 -0.063357   -0.07064584
 -0.3130849   0.22801536]
[ 0.08770487  0.37176424  0.08148783  0.12356208 -0.29361036 -0.43137747
 -0.3628763   0.17068182  0.10098168 -0.4657166  -0.00706069  0.09131032
 -0.19177513 -0.26059547 -0.08110342 -0.28356117  0.03732727 -0.15793976
 -0.03944216  0.1374358 ]
[ 0.22908874 -0.35455436  0.2971488   0.1711966   0.34002474  0.40463212
 -0.06319615 -0.026175    0.04742187 -0.1763628  -0.42127433  0.14747642
  0.08189386 -0.19221742  0.12747851 -0.22816071 -0.05454701 -0.15565673
 -0.01683306 -0.10370358]
[ 0.14724664 -0.38297322  0.47458765 -0.14690992 -0.04346028 -0.25095642
  0.29927164  0.02695898  0.10659094 -0.07842661 -0.10001869 -0.00814343
 -0.3947013  -0.17788307 -0.06862991  0.4796392  -0.19828591  0.05987132
  0.02076025  0.48350486]
[ 0.4730228   0.39194265  0.06610367  0.09516966  0.22367531  0.5860281
 -0.17660278  0.25898173  0.36022955 -0.08229866 -0.1590723  -0.21162523
  0.39959362  0.13291626  0.12574753 -0.57384235 -0.3771696  -0.31425074
  0.2359401  -0.36328086]
[ 0.0378021   0.24484222  0.06077642 -0.0510808  -0.03280303 -0.23271495
 -0.4430517  -0.01615831 -0.01789604 -0.19315583 -0.07302077  0.10066348
  0.08481867 -0.01874767 -0.16781335  0.451443    0.07442365  0.0107481
  0.18966013  0.10846028]
[-0.45779568  0.07119795  0.24999708  0.03126189 -0.26624984 -0.19441175
  0.32129425  0.11933717 -0.16337325  0.07768121 -0.25985223  0.22401509
  0.02046271  0.25395992 -0.33093223  0.03314197  0.3370303   0.30559304
  0.10762691  0.24135296]
[ 0.03659618 -0.2920806   0.27675483  0.4560747   0.01095813 -0.34213203
  0.1622965   0.2755075  -0.19187456 -0.12030965  0.24133365  0.02898291
  0.08763138 -0.10642877 -0.20919377 -0.1198571  -0.37496874 -0.20279798
  0.10446502  0.21979824]
[-0.19391854 -0.3706333   0.16456902  0.28549618 -0.14174762 -0.04922305
  0.08229384  0.09787869  0.08278301  0.03230765 -0.17441994 -0.44036597
 -0.17763303  0.10738841 -0.09780926 -0.2875567  -0.16327435 -0.05386348
  0.4539402  -0.2252111 ]
[ 0.10810696  0.14651357  0.27809685  0.02432384  0.0039314   0.01300652
 -0.04572912 -0.06061646 -0.17433682  0.40112233 -0.13341883  0.22641534
 -0.48200408 -0.17204578 -0.09635878  0.26540357 -0.01106783  0.20070828
  0.04978513  0.44704205]
[ 0.03750568  0.42357096  0.18440442  0.41314822  0.11889955  0.26523575
  0.21089385  0.11586764  0.025828   -0.07600757  0.1774858  -0.3135595
  0.3914028  -0.32471892  0.34347326 -0.5203841  -0.33372852  0.29392427
 -0.21275154 -0.39656064]
[-0.05054756 -0.06291332 -0.33255893 -0.0127458   0.02115372  0.00395595
  0.15632038 -0.02336993 -0.16098341  0.05634468 -0.14127052 -0.47504938
 -0.26201698  0.6743671  -0.04494355  0.05628753  0.08608469 -0.27110037
  0.05896554 -0.17593724]
[-0.21861903  0.22529534  0.31475565  0.1646248   0.3151639  -0.29347187
 -0.26827297 -0.21248932  0.14890455 -0.61072725  0.1143743  -0.27008358
  0.14619355 -0.19661848 -0.18345661 -0.1147095  -0.42659897 -0.08283431
  0.15313426 -0.1588151 ]
[-0.2607418  -0.15332061  0.24915443  0.12749502 -0.41317755 -0.25077233
  0.01876459 -0.01315349 -0.41352013  0.18852407  0.09903446  0.16779266
 -0.49245617 -0.25245497 -0.27528316  0.39080968  0.1345309   0.2574789
 -0.43785885  0.2542639 ]
[ 0.0783276   0.04062613  0.05968648 -0.0752328   0.0850796  -0.09523936
 -0.06857711 -0.02730078 -0.0039288   0.3092334  -0.09413551  0.1020878
 -0.24056207  0.19275191 -0.27241752  0.16589755  0.00845515  0.08670916
 -0.20976305  0.17443082]
[ 0.15350175  0.34326774  0.21434139  0.334199    0.38914272  0.5536322
  0.2260723   0.14270145 -0.10577965 -0.0076823  -0.0221118  -0.22016671
  0.33089325  0.25534374  0.49579874 -0.3667332  -0.04268956 -0.36455145
 -0.22935615  0.06081529]
[-0.32377473 -0.28803387  0.07191163 -0.25912428 -0.25028142 -0.22898367
  0.2228032   0.12083423 -0.03906664  0.05070685 -0.08827005  0.31034616
 -0.57616645 -0.1861545  -0.26904464  0.24477693  0.19635293  0.5260927
 -0.28408432  0.2721196 ]
[-0.08240524  0.05888765 -0.02473562  0.1474795  -0.02797806  0.24633141
 -0.2669428  -0.28240955  0.02250573 -0.5772502   0.07205167  0.04480945
 -0.04893617  0.12050384 -0.01379788  0.2720728  -0.12986049 -0.29845577
  0.16526398 -0.05340074]
[-0.26477432 -0.37819374 -0.50065845 -0.7078588  -0.11853709  0.22688991
  0.02017729  0.34466314 -0.19578439  1.0595902   0.2939052   0.43846846
 -0.35933575  0.4258506  -0.0297801   0.158213    0.44682086  0.0829955
 -0.3759411   0.25325865]
[-0.44591653  0.41261044 -0.20422402 -0.52650887 -0.20898654 -0.29318964
 -0.33308613  0.06418648 -0.16704234  0.31951693 -0.0292207   0.70601565
  0.0341628  -0.16559832 -0.33149827 -0.0018855   0.35504207  0.1779692
 -0.12770249  0.68374896]
[ 0.0586918   0.2215782   0.3320418   0.3122319  -0.1321821  -0.48798293
 -0.2537382  -0.12472867  0.3088232  -0.60165524  0.14052428 -0.48182938
  0.11086763 -0.16277212 -0.04314733  0.24988304 -0.17225216 -0.03896846
 -0.15094097 -0.08109917]
[ 0.09395703  0.08371346 -0.46831056  0.15572947  0.30707148  0.19230889
 -0.05424721  0.1885934  -0.0056522  -0.27906927  0.20006979 -0.18742764
  0.60307944 -0.06358965  0.10835567 -0.4490907  -0.44334847 -0.38687998
  0.12342756 -0.5679235 ]
[-0.29869482  0.02515432  0.20750687  0.08389544 -0.14965647 -0.44268227
 -0.00171702  0.1256889  -0.10899401  0.23857415 -0.25044066 -0.09458612
 -0.3660334  -0.20056394 -0.28214732  0.02732981 -0.06684916  0.00571576
  0.11197112 -0.12959279]
[ 0.08991811  0.3182569   0.16502947  0.3619315  -0.06463949 -0.08205537
 -0.26393545 -0.16268142 -0.10825628 -0.30594376  0.00465521 -0.5805237
 -0.39158583  0.22833936 -0.18731664 -0.25723624 -0.29786423 -0.08839207
 -0.14431305 -0.22634181]
[ 0.28528726  0.29004923  0.18737827  0.34194517  0.28295603  0.51671946
 -0.04796115 -0.22905442 -0.11760327  0.064229   -0.12585838 -0.10808483
  0.42463508 -0.22981267  0.23900224 -0.07654992 -0.17004028  0.07609726
  0.20875247 -0.33706084]
[-0.22307989  0.18774799 -0.16647106  0.02554569  0.26182032  0.08610596
 -0.5258873  -0.16098523  0.2075401  -0.67391557  0.17138042  0.30395508
  0.47249624 -0.18864048  0.2168357  -0.39620185 -0.10601716  0.05286808
  0.17901456  0.23708163]
[-0.49987784 -0.17521274  0.36081672 -0.31592956 -0.28588328 -0.7542058
 -0.14140262 -0.26841584 -0.18358001 -0.17325142 -0.0442806   0.30417323
 -0.50707066 -0.07741961 -0.5131238   0.3666117   0.38614765 -0.02752216
 -0.05905468 -0.06950484]
[-0.1542543  -0.09553105 -0.30955863  0.34151244 -0.24509491  0.10971975
  0.20620139 -0.22102942  0.20923752  0.12034609 -0.29123676 -0.3909001
  0.06486511  0.5366761   0.23218372 -0.1712517  -0.08857024  0.09226151
  0.20532648 -0.6263325 ]
[ 0.21671543  0.05089884 -0.04591893 -0.00144979 -0.12433451  0.13580051
  0.5997297   0.06260224  0.14295483 -0.13904959 -0.12298499 -0.06421857
  0.16304445 -0.30970025  0.08951202 -0.39907244 -0.1436413  -0.09233574
 -0.17807935  0.2202447 ]
[ 0.1132041  -0.27797583  0.22786835  0.24693786  0.09642076  0.12825952
  0.31402105  0.3003921   0.15779187  0.10510045  0.04172526 -0.2734787
 -0.03560106  0.07552837  0.03480119 -0.17680705 -0.35801503 -0.3795892
  0.16594727 -0.4303586 ]
[ 0.39110258  0.40122116 -0.39881426  0.26677865  0.13146026  0.64626104
 -0.43180588  0.3127372   0.03711535  0.1785828   0.0976546  -0.1506926
  0.12950055  0.14626892 -0.05352005 -0.26728263 -0.02950142 -0.26356485
 -0.19889098 -0.16549776]
[-0.3391719   0.13179263  0.20691895 -0.02147805 -0.17548224 -0.22456789
 -0.12086201 -0.22002666  0.04729009 -0.06028544  0.00878615 -0.03588988
 -0.3058506  -0.11132624  0.07696678  0.07974686 -0.13375361 -0.00175431
 -0.04498755 -0.33660018]
[ 0.01039053 -0.2442299   0.23132448  0.40351325 -0.08736049 -0.00264902
 -0.22542201 -0.03062953  0.61175627 -0.7048355  -0.11197484 -0.44182712
  0.00419884 -0.04934893 -0.23962991  0.0326749  -0.07568792 -0.36123696
  0.05696939 -0.36851704]
[ 0.20915656  0.12750576 -0.03742519  0.09437583  0.10109453  0.39999574
 -0.0432832   0.05521208  0.059653    0.08679531 -0.02426831 -0.0824713
  0.16857795 -0.00985742  0.18912739 -0.2337827  -0.09835853 -0.07499398
  0.07112997 -0.218384  ]
layer 5 Activation
tanh
layer 6 Dense
20 1
[-0.26381522]
[0.06037773]
[-0.03567942]
[-0.23592578]
[-0.30471283]
[0.5125691]
[0.0143359]
[0.02569665]
[-0.12540911]
[0.03439482]
[-0.00244249]
[0.17101827]
[-0.00707069]
[-0.01668367]
[0.41244474]
[-0.09016341]
[0.03156794]
[0.02948531]
[-0.01341313]
[0.00664579]
[0.11311326]
