layers 7
layer 0 Dense
20 20
[-0.50702363 -0.28478962 -0.4520976   0.75930667  0.55149406  0.00284065
 -0.32258385 -0.22663485 -0.04534311 -0.70747125 -0.5893915   0.6799399
  0.671039    1.0479131   1.3292046   0.748236    1.0955975   0.73720163
  0.37505206 -1.3427438 ]
[-0.80272466  0.7523715   0.5668236   1.0385821   0.44830686  0.8815758
 -1.38833     0.5236728  -0.10209697  0.44739386  1.1691401   1.1892997
  0.14429906  0.61014056  0.53931177 -0.84429985  0.47086594 -1.1553959
  0.86707467 -0.13117634]
[-0.50588465  0.10715984  0.42210215  0.7189971   0.08219158  0.8531775
 -1.9784396   0.6722782  -0.18594216  0.24308586  0.88503903  1.2769792
  0.63145214  0.39370695  0.52265847 -0.19631109  0.5262211  -1.3824977
  0.78737354  0.05241529]
[ 0.10198907 -1.2288164  -0.7547678   0.7566877   0.7157881   0.40646902
 -0.8100909   0.19272439  0.13715889 -0.89740044 -0.5434529   0.29766315
  0.33826336  2.136582    1.1529256   0.7830032   0.6445145   0.873405
  1.0325913  -1.619237  ]
[-0.07949325  0.01705294  1.009181    0.6346425  -0.6666587  -0.21775049
  1.3949713   0.358556    0.9976468   1.4522843   0.85399795  0.9236119
 -0.5442438   0.0848745  -0.8193996  -0.5510719  -0.09994932  0.35237736
 -0.97767055  1.6239983 ]
[ 1.0827434  -1.4199207  -0.8649807  -0.11857975 -0.04400768 -0.67854017
  1.3148816  -0.3246104  -0.72299117 -0.7698826  -0.8845861  -0.4082771
  0.40082985  0.01967549 -0.4878588   0.94083124 -0.05556529  0.8937048
 -0.16504548 -0.20370945]
[ 1.0216079  -1.3333464  -0.6451324  -0.22134198 -0.31916764 -0.74974483
  1.4112953  -0.52068305 -0.15526408 -1.0725703  -0.7591269  -0.09041222
 -0.09925629  0.13834138 -0.6816807   1.302023   -0.1841582   1.3462657
 -0.07353558 -0.417368  ]
[-1.3988043   0.7430771  -0.00585986 -1.4704807  -1.3398974  -1.3823327
  1.5193386   0.65378934 -0.24191682  0.72558564 -0.11660994 -1.5518472
 -0.07726706 -1.1107638  -0.13287954 -1.1321881  -0.66322374 -1.2903637
 -1.1694081   0.32823455]
[-1.3438544  -0.16641499  0.4295217  -0.02349733 -0.03652032 -0.6259608
  1.116072    0.4503547  -0.21650879 -0.2002346  -0.7780556   0.1423907
  0.31769064  0.24235325  0.79775196 -0.50526625  1.019489   -0.45721495
 -0.24615824  0.5022055 ]
[ 0.80939853  0.22252795 -1.0898014  -1.1103562  -0.07491388  0.00977514
  1.462643   -0.1590469  -0.14794804 -0.82704526 -0.3432762  -0.70763266
 -0.1846151  -0.45646375  0.23439506  0.24080583  0.5289288   0.17639162
  0.18601003 -0.7536523 ]
[ 1.7146515  -0.03894718 -0.14354485 -1.5423372   0.21756181 -1.5736116
  0.09596857  1.9220258  -1.2975608  -0.22126426 -0.9101559   3.3557014
  1.2804227  -0.04676936  0.7126229   0.14563344  0.7231994  -0.2913627
 -0.13358492  0.05186206]
[-0.5865245  -0.49746075 -0.12127543  1.305252   -0.41095462  0.5451137
 -0.4089367   0.14962795 -0.5333454  -2.245971   -1.0343125  -0.25387684
  0.7621727   0.16517517  0.22136235 -0.4675939   0.35363415  0.08986441
  0.01137751 -0.83345443]
[ 0.85137784  0.06995901 -0.06825975  0.22522357 -0.30610183 -1.113382
  0.32675326 -0.7362064   0.9736577   1.0715806   0.27020773  1.6502415
 -0.18326065  0.12172771  0.6440563  -0.3533616   0.6963542   0.19274157
 -0.19682312  0.22091267]
[ 0.8007071   0.24032709  0.3098224   0.57506096 -0.40637866  1.1685228
 -0.8035736  -0.90470916  0.41508606 -0.19405252 -0.09567701  0.6898659
 -1.2276095  -0.8424337  -0.897275   -0.34331602 -0.73758537 -0.3504348
 -0.10206044  1.8325702 ]
[ 0.27456564 -0.43099552 -0.25433078  1.1800231  -0.00313036  1.842294
  1.5336131   0.617712    2.2740564   0.10298695  1.4742981  -2.492198
 -0.2959102   0.3734103   0.0074313   0.10533052 -0.5457607  -0.04167895
 -0.13651317 -0.04064909]
[ 0.5682002  -0.03203472  0.67679423  0.16348608 -0.23052132 -0.563377
 -0.9890721  -0.9898768   1.0576293   0.62288684 -0.03670838  0.91904217
 -0.40404204 -0.19960834  0.37013453 -0.2750005   0.7828337   0.29283375
  0.0047928   0.50006574]
[-7.5915611e-01  4.2225894e-01  6.3016140e-01  5.0916653e+00
 -5.0625545e-01  7.3767060e-01  1.9849296e+00  3.6637774e+00
  4.5745125e+00  2.9860747e-01 -6.9000262e-01  7.3181623e-01
  2.1606493e-01  2.5032106e-01 -3.4681731e-03 -4.9535292e-01
  3.5814160e-01 -4.8128787e-01 -3.8591936e-01  1.2106465e+00]
[-4.0772886  -0.40266767  0.3558391   1.1134704  -0.04469631 -3.8656714
 -2.987197    2.822985   -3.0275152   0.84775794 -0.15351738  0.99064785
  0.89775217  0.93726045  0.587711    0.10969841  0.30095425  0.1444524
  0.23805013 -0.37264407]
[-1.8546424  -0.8680667  -0.6180577   0.753013   -0.01043669  1.1711732
 -0.6886759  -2.4232285   0.8666132  -0.6504752  -0.06711403 -2.1113346
 -1.1435467  -0.27351242 -1.098808   -0.23993053 -0.10821943  0.5380478
 -0.09324352 -0.20693555]
[-1.6248151   0.16277562 -1.0096822  -1.0808505  -0.3286152  -0.20847127
  2.2976837   1.3442562  -0.83601826 -0.4887161  -0.34927577 -1.3229272
  0.27645656  0.13089092  0.6770305  -0.46766922 -0.11603902 -0.21417536
 -0.22293451 -0.5317197 ]
[ 0.67501605 -0.83404136 -0.618932    0.6474107   0.9420267   0.74780196
 -1.4177192  -0.60494757 -0.2688498  -1.175168   -0.23860659  0.6193186
  0.43976703  0.7023225   0.14851484  0.9835898   0.38590914  0.8733551
  0.8535179  -1.6529144 ]
layer 1 Activation
tanh
layer 2 Dense
20 40
[ 0.91400605  0.60788584  1.3755398  -1.2580457   1.379159    1.7030789
  0.7575609   1.0306469   0.38650972 -0.72249943 -0.9003015  -0.67514586
  0.37246534  1.0060757  -0.31798702  1.139875   -0.21822049  0.6051842
 -1.3585168  -0.93806654  1.0676622   1.308508    0.7711659   0.40607426
 -1.3380197   0.39453346 -0.39510056 -0.07715926 -0.19560345  0.8892069
 -0.36362886  0.83252275  0.2221633  -1.4884323  -0.80826473 -0.3004829
  1.3686022   0.38279355  0.09443487  0.9266698 ]
[ 5.66877961e-01 -3.16346049e-01 -1.11770585e-01  2.93537855e-01
 -8.01674500e-02 -4.81884718e-01 -3.22075337e-01  2.18107194e-01
 -6.07455671e-01  6.22896373e-01  3.11142385e-01  3.01573813e-01
 -5.40940464e-01 -5.80240130e-01 -4.68643934e-01  2.94689778e-02
 -1.02096938e-01 -1.07690740e+00  1.10044968e+00  3.39927495e-01
 -8.60132203e-02 -6.57895803e-01 -6.89479649e-01 -1.70818388e-01
  2.51893491e-01  5.91936111e-01  3.16662848e-01 -6.23434067e-01
 -4.28815663e-01 -3.95659022e-02  3.15793246e-01 -2.03341052e-01
  2.11007748e-04  3.28745991e-01 -7.19969153e-01  3.84034365e-01
 -3.67440313e-01  6.87403858e-01  2.36489072e-01 -3.30388397e-01]
[ 0.25433877 -0.7570608  -0.81291157  0.41709557 -0.24372643 -0.20813663
 -0.9258561   0.18471158 -0.29542175  0.18022646  0.6311305   0.5800388
 -0.69516903 -0.34223253 -0.61377406  0.43347898  0.04911465  0.07621136
  0.23895812 -0.5220805  -0.44171283 -0.6021651  -0.6967996   0.18446235
  0.17781383  0.6642103   0.21109091  0.1570212  -0.8638108   0.10309919
 -0.01824467 -0.0377231  -0.11675973  0.06485859 -0.24333857 -0.22166231
 -0.73811847  0.21308286  0.24375339 -0.15627891]
[ 1.2109134   0.1954177   1.1826556  -1.7461547   1.4293216   1.6573557
  0.38804454  1.665704    0.0443246  -1.1666387  -1.0995872  -0.84194046
  0.12454338 -0.39785278  0.71807545  1.3331431   0.16258863 -0.05599522
 -1.1756972  -0.5890099   1.5906371   1.6567386   0.48951772 -0.35442373
 -0.6973862  -0.3939433   0.18946469  0.60031164 -0.41536403  1.1128278
 -0.51048315  1.0810539   0.11735377 -1.7244314  -0.8857704  -0.03110301
  0.6085706  -1.251636   -0.49422622  1.3460287 ]
[ 0.1080723   0.79102397  0.11647611 -0.5281401   0.6973296   0.5456765
  0.12417077  0.45012847 -0.10134202 -0.53978    -0.80599564 -0.40602657
  0.7354876   0.4358672   0.35171226  0.68067056  0.97599864  0.47242337
 -0.5034353  -0.8190817   0.76345783  0.7603022   0.53040344  0.67720896
 -0.2968684  -0.6682483  -1.0004238   0.6670549   0.6194376   0.7273907
 -0.9186522   0.26289338  0.80043966 -0.73590004  0.08402044 -0.3421524
  0.7485364  -0.7005061  -0.526247    0.60763365]
[ 0.5378803   0.20276529  1.3512176  -0.5385483   0.40667483  0.44073406
  0.10462855  1.3785183   0.2545337   0.39138737 -0.92466444  0.60008216
 -0.07092896 -0.6582398  -0.46464577  0.96764636  0.12534949  0.22590676
 -0.25985217 -0.5540756   0.34517983  0.39171234  0.2746271   0.4597272
  0.14832753 -1.1867021  -0.11490332 -0.0130631  -0.31720293  0.87492406
 -0.11939463  0.42107055  0.25623578 -0.28752622 -0.98114514 -0.4201412
  1.2105322  -0.11314398 -0.11986845  0.85313016]
[ 0.4871593   0.00482084 -0.250166    2.0800774  -1.9202842  -2.162949
 -0.4975789  -1.2201321  -0.50250995  1.2701333   1.902381    1.9898951
 -0.06240255  0.2536001  -0.9367066  -1.4000069  -0.39574426  0.19605142
  1.7178916   0.7743484  -1.7384343  -1.6705093  -0.86294156 -0.6612426
  1.7838734  -0.3135556   0.06380311 -0.7102012   0.12295471 -1.4814634
  0.16893208 -1.6711049  -0.2909742   1.4950035   1.1184977   0.4083443
 -1.9463704  -0.10790104  0.57822365 -1.6558636 ]
[-1.0596001   0.26740712 -1.920976    1.560581   -1.7070493  -1.9786974
 -1.0153965   0.39125744 -0.26499376  0.76391655  1.0264847  -0.17508313
  0.14210111  0.28247783 -0.19574122 -0.6635925   0.27611104  0.6158058
  0.7374029  -0.0767305  -1.2354704  -0.9667711  -0.6753643  -0.4257927
  0.08836754  0.6934331  -0.2512798   0.08240736  0.38576367 -0.80883044
  0.3447481  -0.72849786  0.515585    0.44756955  0.41991675  0.6646657
 -1.4923478   1.3255012   0.22035284 -0.7555601 ]
[ 2.2433116   0.29204792  2.1026103  -0.67287153  0.7529036   0.7177262
  0.6037702   0.7615968   0.10964867 -0.43703684 -0.5360335   1.0878075
 -0.09207929  0.19699022 -0.01944149  0.7276917  -0.02669274  0.5357842
 -0.23792183 -0.24755724  0.5845285   0.75138164  0.1582397   0.14871116
 -1.3425713   0.27492166  0.22774656  0.08392534 -0.4780858  -0.05981166
  0.20278026 -0.05378482 -0.36963743 -0.8598369   0.29187793 -0.32214585
 -0.05618962 -0.84813505 -0.206372    0.8767131 ]
[-0.10256052  0.92587674 -0.79152536  0.4779665  -0.1327091   0.13373849
 -0.04431148  0.10306501 -0.2733424  -0.02588414 -0.23284729  0.99194294
 -0.10921242  0.9306695   0.25451487 -0.1901917  -0.45613432 -0.44099075
  0.09671669  0.18569149 -0.5546913  -0.3864061  -0.20269196 -0.25461608
  0.12926634  1.0652946   0.91636837 -0.2331615  -0.30426252 -0.21112731
  0.6634507  -0.4665467  -0.5210857   0.7556195  -0.17288385 -0.03905369
 -1.0108949  -0.18142293  0.3483462  -0.26462498]
[ 0.29744977  0.03008368 -0.1282966   0.09740981 -0.20517595 -0.25762206
  0.03189596  0.12571056 -0.21616468  0.5359182  -0.9348688   0.31657487
 -0.51782733 -0.4294944  -0.23066758 -0.02489491 -0.13829881 -1.014299
  0.1417152  -0.75210965 -0.19910605 -0.69352823 -0.23677956 -0.41481078
  0.3395218  -0.09278337  0.02646293  0.12068436 -0.42676285  0.7054691
  0.36825547 -0.28943074 -0.02761922  0.28896916 -0.35009283 -1.2523718
 -0.21280444  0.28094852  0.44701555 -0.19973747]
[-0.4234487   1.6353062   0.05706787 -1.546393    1.5722636   1.647669
 -0.4044399   0.17586532  0.80288035 -0.98206353 -0.7182034  -1.8756502
 -1.202957    1.8550007   0.57205546  1.7753304  -0.15136181 -1.0434287
 -0.67157805 -1.2606848   1.5298738   1.5603962   0.29730865  0.6462417
 -1.0386103   1.4547518   0.4114394   0.25545537 -0.29482144  0.17764232
  0.35303393  1.0594085   0.07017794 -1.330873    0.33086953  0.27473205
  1.8584435  -0.65445733 -0.24749869  1.5457321 ]
[-0.5099733   0.9067286  -0.02681691 -0.29095086  0.15593632  0.6130229
 -0.9188809  -0.6442914   0.8472259  -0.60049945 -0.301785   -0.54650396
 -0.40137127  0.17782678 -0.01832985  0.14735234 -0.08295836  0.5821146
 -0.04387196 -0.04191076  0.30519813  0.44185686  0.7545671   1.0584078
 -0.73913294 -0.83019    -0.31429458 -0.22503911  0.21856748  0.0478305
 -0.23442581  0.6059778   0.22714683 -0.271677   -0.5761382  -0.9358353
  0.28770715  0.0423512  -0.82645     0.68428195]
[-0.5654951   0.4838835   0.67678857 -0.53907126  0.4849984   0.58670443
  0.7619611  -0.0722105   0.43732846 -0.7642201  -0.10924282 -0.0993501
  0.37387717  0.66137177  0.3495909   0.46956286  0.38221014  0.64261115
 -0.7737401  -0.05394292  0.67237633  0.9626801   0.7073538   0.36997318
 -1.0759115   0.20577309  0.04382663  0.7917528   0.08116783  0.27105772
  0.01124665  0.47407818  0.43564847 -0.10487302  0.14252543 -0.23815483
  0.1312036  -0.8236906  -0.4191377   0.5429832 ]
[-0.22084284  0.85754615  0.1368366  -0.26325345  0.11186031  0.7510062
  0.15153956 -0.2581272   0.35014567 -0.6331581  -0.09530652 -0.59085673
 -0.5030894   0.5826422   0.28896773  0.25414053  0.08741093  0.28902018
 -0.35746118 -0.04198132  0.47071582  0.77425414  0.57195485  0.5861041
 -0.8552412   0.06573779  0.1370358   0.39893565 -0.06998214  0.04521893
 -0.32718328  0.4334535   0.14532498 -0.33926636  0.19005227 -0.5615223
  0.15425767 -0.5120458  -0.24572095  0.3674175 ]
[-0.16485263  0.49039376  0.06258019 -0.59988576  0.3631918   0.8025955
  0.38238898  0.6286829   0.04745223 -0.51741993 -0.832843   -0.3325657
  1.0908346   0.10615097  0.15440665  0.44032565  0.5022532   0.5613535
 -0.5920963  -0.7993428   0.8285302   0.7215371   0.72243506  0.6906253
 -0.37857458 -0.48726454 -1.6419847   0.5816142   1.1139083   0.6614715
 -0.56610996  0.47440127  0.60534024 -0.42191222  0.48733783 -0.8278225
  0.12909372 -0.6389449  -0.44453523  0.7696406 ]
[-0.7212235   1.0030917  -0.3626904  -0.5173232   0.12732163  0.65571404
  0.12948516 -0.3200859   0.7446807  -0.90648    -0.3064478  -0.5524189
  0.10450774  0.84649616 -0.0480159  -0.16701548  0.4571025   0.20258422
  0.03517585  0.11184876  0.37740967  0.8356684   0.76810694  0.69368917
 -0.77648264 -0.23478018 -0.07984349 -0.21128944  0.22637214  0.13449648
 -0.3208857   0.288436   -0.15588114 -0.38338825  0.45631483 -0.6399383
  0.2936731  -0.7815756  -0.9757388   0.5789396 ]
[-0.3400072   0.33622345  0.49986812 -0.53544843  0.29477105  0.06857964
  1.0010046  -0.05544757  0.87053627 -0.39391002 -0.72458625 -0.45706925
  1.0345095  -0.15973358  0.54999876  0.77060145  0.21390083  0.26557183
 -0.44092813 -0.52824575  0.30743027  0.36378926  0.7448536   0.34852037
 -0.20125546 -0.5201185  -1.4192619   0.03376995  0.68519205  0.33245066
 -0.35168034  0.66359264  0.30687916 -0.36486536 -0.10640757 -0.7016719
  0.652717   -0.7673997  -0.6740071   0.445821  ]
[-0.33259356  0.66637784  0.04595587 -0.35507488  0.8539728   0.7825413
  0.13123433  0.82011396  0.38157526 -0.56697935 -0.98195666 -0.25104624
  0.7251184  -0.13376515 -0.03577004  0.7543599   1.6245198   0.34521338
 -0.77874506 -0.973997    0.760752    0.5595666   1.0141426   0.88615006
 -0.47745845 -0.610087   -1.2430681   0.78396726  0.60924375  0.9421829
 -0.5222733   0.47065723  1.1007184  -0.84228796 -0.16489124 -0.8068373
  0.38085982 -0.54320025 -0.5734595   0.41290608]
[ 0.01367996  0.23969643 -0.85083216  1.370479   -1.0768905  -0.9096981
 -1.3521994   0.2510062  -0.40224186  1.1881752   0.9008077   1.8135692
  0.7338971   0.40795162 -1.1020116  -0.44323647 -0.02364479 -1.090992
  1.3341746   0.49928394 -1.5238321  -1.417569   -1.4645708  -0.39785105
  2.2004461   0.2960037  -0.43531132 -1.0199792  -0.04761845 -0.04410188
  0.8936459  -0.85937697 -0.15444858  1.422548    0.38179788  0.7717814
 -1.884708    0.29400173  0.57199866 -1.044413  ]
[-0.17718437  0.5844841   0.13317917 -0.5374634   0.69315135  0.6073325
  0.33664107  0.5436345   0.08902532 -0.7240557  -0.94461465 -0.2677135
  0.78016645  0.15219136  0.13929868  0.51304525  1.1607548   0.34259608
 -0.5642213  -0.70652527  0.5999443   0.69988734  0.8203672   0.5930382
 -0.44709644 -0.5808861  -1.0688956   0.75108385  0.6194971   0.8132836
 -0.69766974  0.5102748   0.7345992  -0.7700847  -0.01979879 -0.6846168
  0.38452777 -0.5457488  -0.56870884  0.6608429 ]
layer 3 Activation
tanh
layer 4 Dense
40 20
[ 0.58768666  0.23011649  0.32414937  0.52745014 -0.3921819   0.67485934
 -0.29564598 -0.41800785  0.40306553  0.31952837  0.17011923  0.8240399
 -0.35357472 -0.40390378  0.18160802  0.5064103   0.33748457 -0.467523
  0.1630134   0.2648462 ]
[ 6.0354270e-02  5.3607649e-01 -2.7070859e-01 -1.2798675e-03
  2.6552171e-01  5.1579404e-01 -3.1349328e-01  1.4712507e-01
  4.0986109e-01  8.2277637e-03 -3.5163358e-01 -1.8405962e-01
 -2.4903659e-02  1.7989124e-01 -5.5343556e-01 -5.0978556e-02
 -7.3666915e-02  4.5171750e-01 -1.4319762e+00  2.1182369e-01]
[ 0.25759286  0.63165176 -0.2666626   0.0073405  -0.56721985 -0.91080534
 -0.6543194  -0.09945358  0.4102426   0.9965009   0.0663664   0.34706968
 -0.44553792  0.1420069   0.5996221   0.16847736  2.221394   -0.46428242
  0.74397534  0.44617286]
[ 0.48060712 -2.5026066   1.6703593   0.8913032   0.1921966   0.3924457
  2.0435612   0.00565238 -1.552083   -2.0130758   0.4211126   0.6735239
 -0.06926195 -0.6133086  -2.1206703  -1.2397151  -1.4728638  -0.49751675
  0.52097267  0.07739936]
[-0.14341038  1.2581683  -1.0256228   0.05676455  0.07995109 -0.34080252
 -2.3263884   0.30924675  1.6939963   1.3892452  -0.4565868  -0.6740221
  0.12657768  0.12743787  1.1979829   0.6884931   0.8226379   0.23571336
 -0.7408572   0.00933329]
[-0.4210157   1.8471146  -1.8545188  -0.8311804   0.14615999  0.17497334
 -1.3329104   0.14277425  1.9908841   2.5110247  -0.9833194  -1.0022897
  0.2137597   0.37911057  2.0799472   1.4817549   1.2764084   0.22164091
 -0.6230254   0.00470964]
[-0.17085746  0.12568286 -0.3848857  -0.7329969   0.3812333  -0.9348431
  0.08072109  0.2825093  -0.27032784  0.45891744 -0.23900203 -1.003654
  0.09682546  0.6938526   0.26572603  0.13622238  0.3216347   0.45982277
 -0.11175535 -0.08337986]
[-0.69316477 -0.3894757   0.7565303  -1.0030755   0.65051967 -0.32678893
 -0.18396151  0.32896557 -0.15702172  0.14518619  0.03440274 -0.06470895
  0.79726404  0.15639797  1.0053245  -0.08811449  0.39807382  0.57005274
  0.51909    -0.930236  ]
[-0.28450254  0.24784033 -0.13313162  0.3621229   0.04253956 -0.8250876
  0.9052019  -0.01398453 -0.68490714  0.17822678 -0.8283344  -0.19271722
 -0.02123256 -0.17496265 -0.39581466  0.794666   -0.05058943 -0.05905411
 -0.12245663 -0.5602502 ]
[ 0.8590429  -0.6626565   0.9699159   0.9294294  -0.24443713  0.43526277
  0.16948459 -0.3914332  -0.35761598  0.00571227  0.9910548   0.43980476
 -0.1465919  -0.09679229 -0.18832232 -1.3356094  -0.0501099   0.0016171
  1.409781    0.34204677]
[ 0.6236346   0.39275333 -0.7646112   0.10357636  0.04138464  0.3667597
  0.5469315  -0.07515036 -0.82921183 -0.5831112   1.1229488   0.9888734
 -0.31401616 -0.10868622 -1.1087534  -1.0007516  -0.59473795 -0.6550055
 -0.278485   -0.02765878]
[ 0.53290534 -1.5617176   1.6180079   0.9797725   0.5636226   0.06407356
  1.1063035  -0.15757841 -1.1772422  -0.8362443   0.57683307  0.13994166
  0.26630256  0.5574905  -0.83060604 -0.7030024  -0.7974773   0.25823843
  0.26075628 -0.01480711]
[-1.0292807  -0.3344266  -0.7356067  -1.1633897   1.4180104   0.01066522
 -0.03751841  0.3238104   0.08754471 -0.33493766  0.04793986 -0.4441007
  0.79031795  1.276833    0.21446776  0.5719896  -0.11625148  1.3216997
 -0.41443542 -0.8722789 ]
[ 0.01493908  0.6466922  -0.47812134 -0.10377245 -0.0147529   0.51676375
 -0.9024641  -0.0803638   0.00839669 -0.34400168 -0.6819424  -0.4335009
 -0.2939249  -1.1290424   0.3746153  -0.2987658   0.9179739  -0.5500517
 -0.7015716  -0.02342125]
[-0.14658922 -0.26295146 -0.26015478 -0.09129308  0.38452715 -0.02114924
 -0.3877234   0.34243053 -0.48193118  0.49801043 -0.9974008  -0.73671114
 -0.26120606 -0.07679709  0.00825893  0.15284988 -0.13878098  0.389998
 -0.14573845 -0.21959679]
[ 0.19114147 -0.19636975  0.06372707  0.3176178   0.12929738 -0.4259792
 -1.05127     0.19994266  1.4978014   0.5400723  -0.6121238  -0.14021678
  0.14243564 -0.07503575  0.303646    0.01902467  0.73622197  0.5530861
 -0.7760047  -0.36732888]
[-1.1839972  -0.24733415 -0.77578574 -0.9179415   1.2886401  -0.37322864
 -0.30098468  0.6400492  -0.09552915  0.12149401 -0.3624578  -0.58492184
  1.138347    0.7641335   0.02536971  0.34333238 -0.10400014  1.0948404
 -0.47852686 -0.7585005 ]
[-0.7027675   0.13778935 -1.4237205  -0.261878    0.14519683 -1.6498992
  0.6259388   0.32233864 -0.29671067 -0.12338739 -0.46850535 -0.6440916
 -0.01528588  0.9491968   0.39757273  0.681815    0.28981617  0.06080092
  0.26012644  0.06638852]
[ 0.49691918 -0.24832596  0.10028156  1.173406   -0.15833627  1.0191959
  0.02031708 -0.46796343 -0.06083758  0.08204862  0.5321538  -0.03539506
 -0.08172616 -0.03123155 -0.19549192 -0.50050104 -1.1136713  -0.02350478
 -0.44694483  0.53232014]
[ 0.28681746  0.25937536 -0.62550133  0.532088    0.23343466 -0.10266544
  0.72219014 -0.17916414 -0.84867877 -0.07381795 -0.19671725 -0.12454681
 -0.11487895  0.0753859  -0.9338631   0.9769241  -0.64827496 -0.4660306
  0.12796572  0.18686543]
[-0.56166226  1.4983461  -1.7917804   0.06192768  0.01329301 -0.47152922
 -2.0549107  -0.07647324  1.6441338   1.2452246  -0.38564602 -0.7340512
  0.05864869 -0.09092674  1.3602954   1.2551585   1.1229942   0.481729
 -0.7272328  -0.3203858 ]
[-0.34352455  0.6617304  -1.5601116  -0.5822995   0.5306342  -0.596962
 -0.84223056  0.15667532  1.446855    1.220737   -0.5194381  -0.13004288
  0.02341158 -0.142582    0.81912464  0.9581685   0.8565363  -0.05128054
 -0.57030964 -0.33703646]
[-0.23209213  0.23608543 -0.61818206 -0.2825687   0.38950607 -0.13350235
  0.36736324  0.08369766  0.26721883  0.789429   -0.69221205 -0.20045364
  0.2701934  -0.00181856 -0.41814658  0.7647349   0.42739648  0.33746564
 -0.9979986  -0.26431313]
[-1.3016349   0.27736315 -1.0880442  -0.23387389  1.0245188  -0.19904587
  0.0285479   0.37633294 -0.4938202  -0.33180356 -0.5802684  -0.16510817
  0.44209504  0.37651086 -0.7580459   0.84392905 -0.8165967   0.5622052
 -0.5999548  -0.37849638]
[ 0.31231126 -1.3299063   1.6589762   0.8383989  -0.06753509  0.26619494
  0.59005344 -0.489488   -1.4936153  -1.0642542   1.365325    0.70202327
 -0.15910204 -0.04191064 -0.21719421 -0.8500204  -2.4638233  -0.26437032
  1.2089024   0.23567805]
[-0.09380853 -0.7813834   0.68076724 -0.29764715  0.15445988 -0.45399216
  0.7434535   0.05708496  0.3066444  -0.09425077 -0.10259779  0.05442473
  0.13805777 -1.0419531   1.0977714   0.10384249  0.3300137  -0.08533868
  0.98018277 -0.43688074]
[ 0.9123766   0.15122013  0.9435251   0.8282578  -0.7161525   0.28811523
 -0.22476734 -0.26820502 -0.07645128  0.21451637 -0.0667582   0.8198311
 -0.7584569  -1.3686541  -0.17025226 -0.13710514  0.03613174 -0.9399891
  0.29065165  0.80926704]
[-0.8695899   0.15604386 -1.170052   -0.7998096   0.6266927  -0.88811284
 -0.5203415   0.5364357   0.21502404  0.5116683  -0.6172464  -1.32719
  0.75545746  0.5359982   0.5414017   0.41488105  0.14021726  0.54101753
  0.05809427 -0.6857224 ]
[-0.7276847  -0.41289073 -0.17385863 -0.66653895  0.8966079  -0.6805024
 -0.25335544  0.5948325  -0.2572109  -0.16123356 -0.3509944  -0.8618097
  0.8844383   1.1206404   0.11510735  0.33064076 -0.03049537  0.99743384
 -0.2861503  -0.6655178 ]
[-0.6031767  -0.20769162  0.43418708 -0.6357078   0.72094554 -0.37341285
  0.47432545  0.26569575  0.2921838  -0.07031532 -0.30250293 -0.8469151
  0.76175356 -0.03562036 -0.02613825  0.13409004 -0.0502673   0.8446286
 -0.08146057 -1.1324152 ]
[ 0.32698756  0.00203069  1.3508961   0.3126447  -0.3004033   1.1736838
 -0.37799904 -0.6464551   0.2313467  -0.14543594  0.5949219   0.48865893
 -0.4642951  -0.24571295 -0.43062156 -0.93244106  0.40933436 -0.48051772
  0.14227496  0.14500095]
[-0.02201374  0.4555208  -0.4858844  -0.4422815   0.21782802 -0.7670079
 -0.70971155  0.4948976   0.26242462  0.01350635 -0.05963791 -0.41785678
  0.43444264  0.12645245 -0.39692244  0.8392997  -0.37857005  0.2345323
 -1.2356237  -0.15962592]
[-5.6661814e-01  1.7586635e-01 -7.1948236e-01 -8.3355623e-01
  4.1669127e-01 -7.7381182e-01  6.2141503e-04  6.1040109e-01
 -6.7338115e-01 -4.2189524e-02 -1.4681990e-01 -9.3699038e-01
  5.9077018e-01  3.4369397e-01  1.9476594e-01  6.4429384e-01
 -4.8447180e-01  4.6391481e-01  6.5953769e-02 -5.9604561e-01]
[ 0.5414208  -1.0290885   1.6127173   0.3026119   0.15769032  0.16361615
  0.96237695  0.01013096 -1.3784596  -0.7816695   0.06846286  0.03319115
  0.07710746  0.04143406 -0.5981032  -0.83933425 -1.168948   -0.40434203
  0.7457259   0.05771525]
[-0.17872602 -0.26849556 -0.06383343 -0.75949115  0.30572787 -0.6435985
  0.49152514  0.15983073  0.04352789 -0.18479568 -0.02341239 -1.0131708
  0.3523998   0.5859838   0.53404933  0.52001476  0.35362846  0.5782026
 -0.28985593 -0.36577988]
[ 0.65388644 -0.34046715 -0.86787075  0.29901937 -0.336829    0.3792493
 -0.511988   -0.23886818  0.57284546 -0.04138081  1.0447327   0.15826118
 -0.897232   -0.35583526  0.6085962  -0.84414756  0.0581961  -0.3440324
  0.17077877 -0.11794242]
[-0.49428177  0.8296762  -1.699573   -0.46899426 -0.05885776 -0.45055482
 -1.3337114   0.18083131  0.8038781   1.4666233  -0.38899228 -0.6058893
 -0.08772863 -0.03149594  0.73937595  1.1914473   0.83598834  0.20609021
 -0.03289602 -0.1980046 ]
[ 0.45769396 -0.519623    0.04503243 -0.06093393 -0.64438975 -0.11070916
 -0.20365739 -0.15645435  0.6787409  -0.7675851   1.1278849   0.29021028
 -0.36277506 -0.23292308  0.36070994 -1.3097862   0.85398436  0.1366878
 -0.04148968  0.0751422 ]
[ 0.71692586 -0.2427943   0.81292903  0.7036214  -0.40515724  1.2699679
 -0.50970656 -0.14282562 -0.2790125   0.18018222 -0.256885    0.29146788
 -0.3380206   0.11313222  0.33225125 -1.0271785   0.49346972 -0.54634845
 -0.04311956  0.18363117]
[ 0.04673762  0.69322014  0.42824933 -0.01633957 -0.00884794 -0.1888397
 -0.5890376   0.12078803  1.8596114   0.5144324  -0.35985094  0.4412361
  0.00270891 -0.2173655  -0.2422407   0.53583175  0.8395935   0.15515168
 -0.81798595 -0.07822452]
[-0.97409546 -0.18335079 -0.5151976  -0.7988012   1.1165812  -0.22492857
 -0.10887656  0.46219176 -0.0714748  -0.18790227 -0.10677701 -0.66690344
  0.79317284  0.47252467  0.19737723  0.23349474  0.06077126  0.8915757
 -0.18817508 -0.8066469 ]
layer 5 Activation
tanh
layer 6 Dense
20 1
[-0.12637071]
[-0.8161836]
[0.6892444]
[-0.42145276]
[0.7419998]
[-0.00248028]
[0.31137726]
[0.34823355]
[-0.53506154]
[-1.0210989]
[-0.10981605]
[0.14013004]
[0.76762605]
[0.0916241]
[-0.43402776]
[-0.21815446]
[-0.5292182]
[0.81884164]
[-0.21115257]
[-0.4627057]
[0.5862208]
