layers 7
layer 0 Dense
20 20
[ 0.06214866  0.31214288 -0.23548672 -0.21268949  0.30487928  0.19431306
  0.14173615  0.2491288  -0.09763188  0.06117658  0.1762851  -0.5426771
  0.23977374 -0.10090762 -0.38195637  0.14413795 -0.03474385  0.13600907
  0.18953292 -0.15575589]
[ 0.12901391 -0.3216339  -0.09049297 -0.07388069 -0.2831225   0.08290786
 -0.26091433 -0.3448942   0.04665912 -0.35843062 -0.5704156   0.02836375
 -0.13777511  0.00410171  0.14816406 -0.14870626  0.59462017 -0.1497074
 -0.19354975  0.00624677]
[-0.2422352  -0.03470578 -0.16019782  0.46004418 -0.23809895  0.17361431
 -0.4142644  -0.15616328 -0.16092566 -0.07831198 -0.51783705 -0.32851064
  0.09748285 -0.05053201  0.4492092  -0.2792676  -0.02949928 -0.0756596
 -0.19097286 -0.24213672]
[-0.38237774 -0.09090973 -0.07957172 -0.27792317 -0.28512773  0.05627767
 -0.46534327 -0.2128663  -0.30840135  0.18670133 -0.26775575 -0.16316764
  0.09460249 -0.31003565 -0.09705873  0.29139832  0.25343597 -0.2605779
 -0.08210088  0.12688382]
[-0.5271987   0.14353247 -0.25209942  0.26379555  0.3032116  -0.03078461
 -0.06647153 -0.18182184  0.35521564  0.05096378  0.16174309  0.04331519
  0.5228127   0.36337477 -0.48462573 -0.0252064   0.08757018  0.24308628
  0.14477797 -0.07881042]
[ 0.44434723  0.13855399  0.24409167 -0.30020106 -0.25975922  0.28552628
  0.22165512 -0.06211793 -0.3030792   0.3648114  -0.09268112 -0.07691347
 -0.10468037 -0.03765561 -0.0437081   0.20335642 -0.22027083  0.5049524
 -0.00937041  0.15183695]
[ 0.3176838   0.27474314 -0.07102504  0.02723028 -0.03126055  0.35943848
 -0.15015157 -0.08985034  0.25480434  0.04207107 -0.01084836  0.02569829
  0.0495027   0.07883532 -0.3967813   0.531523   -0.06253984  0.18434444
  0.44819158 -0.1789596 ]
[ 0.09513111  0.1520129   0.29268765 -0.15102449 -0.27988127 -0.06926946
 -0.20935641 -0.14109743  0.21575508  0.0579129  -0.01055386 -0.02249578
 -0.09906551 -0.2692945  -0.11719476  0.10241058  0.19971639 -0.45969284
  0.23306136  0.3308773 ]
[-0.3401216   0.399569   -0.20092028 -0.1736099  -0.17778896 -0.06699794
  0.13615642  0.18577358 -0.07184475  0.01571669 -0.31712985  0.1674784
  0.17494497  0.1926253   0.20558517 -0.28898183  0.10005216  0.2259874
  0.06813547  0.18401684]
[ 0.41238526  0.23533845 -0.17095087 -0.43045652  0.03076858 -0.36510646
  0.02229096  0.33158675 -0.15157747 -0.10272392  0.3364139  -0.29031754
 -0.00379414  0.24972142 -0.22253418 -0.01171148  0.40563405  0.37141666
  0.22570899 -0.42913598]
[ 0.3482837  -0.23718053  0.61625105  0.33180332 -0.09477323 -0.25646558
 -0.2816171  -0.13197306  0.265023   -0.14489308  0.03287067 -0.42259985
  0.20097299 -0.21474282 -0.2599469  -0.36752394 -0.42232352 -0.1231527
 -0.04377797  0.17822397]
[-0.41383126  0.30693543  0.01360226 -0.6204453  -0.24131484 -0.10795363
  0.54880196 -0.34947526  0.31527594  0.17158303  0.11903156  0.09387485
  0.16502582  0.16938728  0.21052526 -0.47203365 -0.27183115 -0.23427203
 -0.3077296  -0.23894145]
[-0.01349233 -0.19214843 -0.08655867  0.32597235  0.34484172  0.24034715
 -0.01554067  0.24851045  0.00305825  0.0865176   0.19264704 -0.5743144
  0.06220185  0.14153895  0.23756452  0.05528748 -0.14079416  0.06990665
 -0.199498    0.08412404]
[-0.20223849  0.32428262 -0.13715705 -0.01778099 -0.02372995 -0.35534775
 -0.02139392  0.22119504  0.04417001 -0.14288834  0.35737684 -0.23346126
  0.07618874 -0.21799973 -0.2854842   0.23079976  0.28205097 -0.25373232
  0.5559386  -0.27462772]
[ 0.59111005 -0.16103135  0.14247534 -0.06919879 -0.01623819  0.53179926
 -0.12860186  0.06740509  0.07186662  0.05181022 -0.4485465  -0.06033773
  0.13471709  0.09707125 -0.00144158  0.05563952 -0.4006378   0.00567202
  0.243597   -0.04605494]
[ 0.0444036  -0.410014   -0.08224736 -0.2414473  -0.3985896   0.20321284
  0.08201583  0.19537182  0.09208696 -0.06905424 -0.35345438  0.4516583
  0.37109563  0.2060915   0.61734337  0.04853186 -0.05650616  0.06235508
 -0.28701118  0.02187564]
[ 0.08798759 -0.129295    0.33067784 -0.3684051  -0.16118562  0.31644583
 -0.06645439 -0.08183488  0.01793628 -0.1498785  -0.01398697  0.2688473
  0.44243613  0.3234604   0.10951399 -0.25700352  0.02086486 -0.20945385
  0.16605388  0.1650543 ]
[-0.01282945 -0.57011026 -0.6682354   0.10341807  0.0910501   0.06242112
  0.4099412  -0.1905358  -0.9615951   0.78476375 -0.57066506  0.5082487
 -0.10388736 -0.6788778   0.9668041   0.33196172 -0.34756178  0.16163813
 -0.5871154   0.7596308 ]
[-0.19656904 -0.4442161  -0.5975294   0.11730283 -0.3257329  -0.04109963
 -0.2705465   0.1904661  -0.12824059 -0.02489957  0.12287808  0.8004737
  0.39695674 -0.06782717  0.01825796  0.2817077   1.0908458  -0.27848148
 -0.79694015 -0.6049907 ]
[ 0.34456208  0.00460167  0.2736324   0.4292926   0.07994834 -0.44766325
 -0.48246425 -0.3089799  -0.27452227  0.47546226 -0.5833466  -0.5760552
  0.22939411  0.28356528 -0.40174788  0.26261783  0.50599885 -0.49398655
  0.36299253 -0.17874464]
[ 0.06776968  0.03287673  0.00323431  0.02088451  0.03907221 -0.05520236
 -0.13591786  0.04559287 -0.04705768  0.12591414 -0.06797233  0.01243003
 -0.0589177  -0.07083288 -0.00736229  0.13769121  0.08265856  0.02821813
  0.02541643 -0.04855917]
layer 1 Activation
tanh
layer 2 Dense
20 40
[ 0.03721266 -0.16018727  0.3350679  -0.15280193 -0.2779965   0.25000906
  0.2007525  -0.25085017 -0.25416258 -0.2224183  -0.21758911  0.21146427
  0.10284447  0.18269895 -0.4155516  -0.17691588  0.0359687  -0.44560316
 -0.16992891 -0.1709921  -0.09510589 -0.12336833 -0.14549388  0.19716543
  0.22708486 -0.22906354  0.09233563 -0.28381932 -0.12846686 -0.17874064
  0.19749887  0.12506823 -0.13957497 -0.14480555  0.19923915  0.25774327
 -0.03867577 -0.21678674 -0.25341034 -0.21695994]
[ 0.21058783 -0.1320652   0.29214823  0.28546554 -0.31393105  0.09739663
  0.47637516 -0.06514502 -0.54642975  0.27811098 -0.13891965 -0.15444808
  0.05574824 -0.09034289  0.11576101 -0.04958498 -0.36631584  0.05061846
  0.23815435  0.14448333 -0.21964382 -0.16262105  0.11725667  0.14150968
 -0.22860284  0.04783354  0.15106839 -0.27953368 -0.1250685  -0.31363863
 -0.5094318  -0.03006753 -0.04468771  0.02863458 -0.04754338 -0.0154436
  0.50188667  0.02823674 -0.18370442  0.00127506]
[ 2.4518514e-01 -3.4571677e-02 -2.8246956e-02 -1.7941654e-01
  2.9479153e-05 -9.5864989e-02  1.0870557e-02 -1.1474540e-01
  1.6218752e-01  2.9927030e-01 -1.3458107e-02  5.7804558e-02
  9.2196070e-02  3.2712740e-01 -2.8107002e-01  2.2716533e-01
 -1.5877396e-01 -1.4566034e-01 -1.4893156e-01  1.6162695e-02
 -2.4146061e-01 -5.7825197e-02  2.0740320e-01  2.1921822e-01
 -5.5031996e-02  2.1235693e-01  1.4061511e-01 -1.0265846e-02
 -4.2569959e-03 -1.8399031e-01 -1.0333873e-01  1.9424990e-01
 -2.0472591e-01 -1.7078146e-02 -6.4481810e-02  1.0261052e-01
  1.8507734e-01 -9.1638602e-03 -2.2905296e-01 -2.8749812e-01]
[ 0.15772322  0.2947149  -0.1837723  -0.16955769  0.0321532  -0.21733148
 -0.14599015  0.04528436 -0.27205172  0.0084869  -0.2447858   0.20369683
  0.24524994 -0.24922888 -0.3037156   0.14381158  0.1655161  -0.27723175
  0.00798637 -0.13658747  0.3251628  -0.3386377   0.33464214  0.01786454
 -0.142797    0.28608093  0.0035819   0.12757023 -0.12583724  0.16478483
  0.18645315 -0.10451814 -0.2064878  -0.14751065  0.13334735  0.00056638
  0.11671063  0.06027002  0.09842471  0.04474189]
[ 0.03503906  0.23171833 -0.00046408  0.14998993  0.11078676  0.2461854
 -0.09173619  0.12085008 -0.23345098  0.1492346   0.23142025  0.03854531
  0.01101119 -0.11912367 -0.34686664 -0.02040314 -0.15948269 -0.2306998
  0.03748059 -0.17889422  0.20396243  0.11093773  0.3284739  -0.04235388
 -0.04874233 -0.07001589  0.32954642 -0.2915302   0.01179848  0.04215319
 -0.20385568  0.17003667  0.20529497 -0.2806338  -0.11795086  0.07532609
  0.321752   -0.08692294 -0.19932172 -0.01592982]
[-0.2975638  -0.04776578 -0.05395916  0.15159     0.1729517   0.31677097
 -0.1861983  -0.18149811  0.3799516  -0.38827023 -0.19410358  0.27621925
 -0.20334502 -0.23586184 -0.29215172  0.5956875  -0.11631303  0.08157588
  0.09749327  0.20406884  0.12064468  0.2574621  -0.06733222 -0.09296736
 -0.02296185  0.07859105 -0.16895059 -0.1163523  -0.4006887   0.28341803
  0.29304558 -0.29318553  0.28129074  0.20140602  0.27402118  0.09523641
 -0.3270993  -0.2596629  -0.16672592  0.01144944]
[ 0.15753801 -0.14160462  0.14233097  0.07676429  0.1357761   0.04188777
  0.07666045  0.07760378 -0.14589097 -0.20738702  0.01744292 -0.21432044
 -0.00503581 -0.06637619 -0.07818469  0.16926275  0.24791695  0.2367492
  0.00645113 -0.07143901  0.30397582  0.37108395  0.05824424 -0.12745126
 -0.07489748 -0.22391756 -0.00457251  0.29193678 -0.12277298 -0.09151829
  0.47891948  0.19268814  0.30120808 -0.00275803  0.07076044  0.31909278
 -0.11761452 -0.03350906  0.11052998  0.09528796]
[ 0.07073567 -0.05068701  0.21086615 -0.22985528 -0.06821093  0.13144542
  0.06597123  0.06118964  0.3441539  -0.36911428  0.12358687  0.17765273
 -0.19527039  0.21181366 -0.19666716  0.25423637  0.11843261  0.36073846
 -0.28073642 -0.08489221  0.21695115 -0.3032376  -0.26093033  0.10035886
  0.05277584 -0.0959054   0.11531186 -0.04365506 -0.13524275 -0.0340878
 -0.1747122   0.30086344 -0.10995979 -0.37681645 -0.2986055   0.04669681
  0.18931262  0.1044929   0.11460371 -0.3379526 ]
[ 0.21912093  0.25983286  0.30298683 -0.00344382 -0.14684972  0.13012262
  0.3558414   0.12037919  0.14361173  0.28348866 -0.1839183  -0.13178372
  0.23748316 -0.2368646  -0.03686891  0.3378722   0.10970962  0.4039524
 -0.00389089 -0.2877273  -0.22428255  0.0755849   0.21277447 -0.05623789
  0.21187636 -0.02045562 -0.00983517 -0.0360053  -0.17580289  0.2423123
 -0.23325631  0.29233757 -0.31304917  0.25193107  0.1353121   0.38972273
 -0.15688932 -0.14895603 -0.07442946  0.07589571]
[-0.14252079 -0.30058047  0.05189895  0.18461098  0.36060905 -0.14315099
  0.07009959  0.15229575 -0.11491488 -0.31713936  0.27351716 -0.21088046
 -0.10213558 -0.2576633  -0.09274984  0.05405488 -0.23088406 -0.4811837
 -0.2271198   0.01780797  0.11863479 -0.27180275 -0.18842573  0.12882575
  0.02467629 -0.30732566 -0.12711394  0.2637093   0.1810898  -0.07843121
  0.3942922   0.26198357  0.36836678 -0.20228648 -0.20664246  0.13943316
 -0.2620586   0.03785814 -0.08800131  0.04760184]
[ 0.34463573  0.07456851  0.16009061  0.21979672  0.01226083  0.2127173
  0.52828354 -0.29116794 -0.28400767 -0.11309163  0.23669887  0.07486358
 -0.23215966 -0.04360873  0.3251595  -0.09447273 -0.34762827  0.5602416
  0.19689111 -0.12027756 -0.09111211  0.17648208  0.09148102  0.39323634
  0.03769255  0.04192153  0.05753667 -0.06769323  0.19149978 -0.15622412
 -0.04142998  0.16321248 -0.23161764  0.18217786  0.23494318  0.38872743
 -0.35108802  0.1065075  -0.03442541 -0.25051272]
[-0.07050968  0.12284769 -0.38277587 -0.1177215   0.35607988  0.07555628
 -0.02427913 -0.077632    0.59706974 -0.29222935  0.08526147  0.13417584
  0.38354635  0.04237912  0.41425586 -0.08382954 -0.05681133  0.45892248
 -0.09494489  0.23415199  0.09702067 -0.2063656  -0.23470381  0.14673327
 -0.14809169  0.19199447 -0.1002931   0.18647762 -0.28256673  0.03402857
  0.21767035 -0.2788961  -0.17896657 -0.09136382 -0.01348598 -0.36880308
 -0.23266661  0.06340112  0.24267238  0.09746043]
[-0.0547047   0.09069236 -0.0874455  -0.13479613 -0.06888252 -0.16664432
  0.02601731 -0.03196237 -0.02304481 -0.20703763  0.25232884 -0.07635343
 -0.26827747 -0.24134026  0.25909516  0.40316567  0.10822113  0.12024266
  0.17568707  0.21637852 -0.03249215  0.00227049  0.17846899  0.28822273
 -0.020316   -0.2863719   0.27719122  0.334596   -0.312424   -0.10360597
  0.16143079  0.2683488   0.11236891 -0.00541374  0.00301383 -0.03612516
  0.10429466 -0.02118801  0.07730795 -0.2797956 ]
[ 0.03428526  0.18558872 -0.06701188  0.10545847  0.13348882  0.27674153
  0.24912576  0.2629287  -0.35643318  0.14327833 -0.15094174  0.14144449
  0.11376576  0.16177705 -0.19263977  0.06733811  0.06438206  0.13644148
 -0.20100877  0.01031235 -0.13934039 -0.16001223 -0.09598424  0.05026914
  0.07596694 -0.31884664 -0.11747559  0.16078955 -0.07400551  0.06849377
 -0.36964375 -0.24326426 -0.41057497  0.20231992  0.00882365 -0.21468969
 -0.12654531  0.12274075  0.29376137  0.0315001 ]
[-0.24634004 -0.05471352 -0.19618991 -0.17947929  0.24169312  0.153631
 -0.38507858 -0.20321617  0.5888805  -0.65672815  0.31129056  0.29498667
  0.2067185  -0.11314616 -0.08695934 -0.01860281  0.3588031  -0.22547166
  0.03178111 -0.5251972  -0.2760268   0.26098856  0.09741598 -0.31997073
 -0.06780279 -0.20412369 -0.1150841   0.19491588 -0.7277263  -0.25938153
  0.5618857  -0.3273392   0.4188304  -0.41223538  0.10381749  0.30367926
 -0.49148974 -0.10369912  0.04774258 -0.0268338 ]
[-0.12790193 -0.05103355 -0.06990277 -0.01074327  0.01902907 -0.15316077
 -0.31520933 -0.05751254  0.08309165 -0.4346205   0.17076123  0.38342208
  0.03728197 -0.3033277   0.02170604 -0.2646921   0.14415914 -0.3738141
 -0.3292668   0.05760161  0.12616894  0.02132757 -0.07617307  0.15855256
 -0.00172658  0.42225    -0.31374797 -0.1879738  -0.16038615 -0.06242863
  0.09503187  0.09315162 -0.04324498 -0.30346015 -0.14359991  0.03238992
 -0.11496126 -0.11812683 -0.16155444 -0.08169387]
[-2.66335845e-01 -6.33819997e-02  2.05896363e-01 -1.36343569e-01
  5.03552845e-04 -1.72306687e-01 -2.32862145e-01  3.19710910e-01
  3.61766443e-02 -1.62507787e-01 -3.08722645e-01  3.13523039e-02
 -2.99533010e-01  2.16283202e-01  4.09982234e-01 -2.66675651e-01
 -2.89487451e-01  1.15357436e-01 -3.44236970e-01  7.79089257e-02
  9.56448913e-03  1.37992293e-01 -1.26351625e-01 -2.45204449e-01
 -6.01359596e-03 -1.67169392e-01 -2.41452932e-01  2.75071412e-01
  4.35913235e-01 -2.25413471e-01 -3.29347819e-01 -2.47846870e-03
 -5.94072282e-01  2.93047965e-01  2.92624742e-01 -1.08373441e-01
  1.41003609e-01  1.64662525e-01  2.45438442e-01 -2.36307487e-01]
[-0.07336011 -0.29231212  0.06900292 -0.27072352  0.12283468  0.00511577
  0.06521611 -0.08376301 -0.01052736  0.0497494  -0.20812161 -0.25815663
  0.06952389 -0.21681418 -0.52358276 -0.20941049 -0.11786099  0.2601923
  0.22178708 -0.22633058 -0.2059643   0.246852   -0.16393317 -0.09492823
 -0.07290196 -0.290218   -0.03177854  0.12561448  0.19139305 -0.20167944
  0.10653834 -0.03918333  0.34147146  0.2525836   0.00769688  0.05422169
  0.22244613  0.25293705 -0.1460276   0.05908914]
[ 0.10907221  0.09463686  0.33422396 -0.13252658 -0.25973362 -0.03548107
  0.25729296  0.21352448 -0.42475888  0.2902501   0.01905653 -0.19279554
 -0.15961011  0.32804528 -0.16101561  0.00111232 -0.33705437 -0.04795279
  0.12734692 -0.13090427 -0.01790639  0.11649934  0.06727511  0.2115345
  0.16636573  0.2750104   0.12768634 -0.31842643 -0.2825894  -0.2684903
 -0.05614066  0.07859112 -0.39201078  0.41641474 -0.21880993  0.18595988
 -0.21050978 -0.0956392  -0.4738246  -0.34983715]
[-0.22711845  0.07483846  0.20814052 -0.1449784   0.10953617  0.12168549
 -0.19100574  0.23544243 -0.03271098  0.02278191  0.00975927 -0.21772927
  0.21194763  0.33322942 -0.19147919  0.4058152   0.04505777 -0.28293556
  0.33060104 -0.52591264 -0.25505283 -0.23751993 -0.10777643 -0.37604445
 -0.03465686 -0.14025195  0.4527523  -0.24405152 -0.01669341 -0.02443488
  0.19294728  0.03401342  0.32518515  0.09414665 -0.14023647  0.23153982
 -0.03492039 -0.18438189  0.42151007  0.1537326 ]
[-0.03479317 -0.00984638 -0.09839538 -0.02271729 -0.02456264 -0.03387329
  0.00276497  0.02472296  0.04131117 -0.03029317  0.01707303  0.02371322
 -0.03241473 -0.05003156  0.06487201 -0.14452285  0.0519236   0.0353767
 -0.0473439   0.07524033 -0.03927747  0.02004638 -0.04019479  0.0516955
  0.01469473  0.17320366 -0.11908279 -0.05092824 -0.01344788  0.00426554
 -0.0620111   0.00289289  0.05923242 -0.09389543  0.00600191 -0.16452646
  0.00780779  0.02857634 -0.08794711 -0.03244209]
layer 3 Activation
tanh
layer 4 Dense
40 20
[-0.17127794  0.02398578  0.16045864 -0.12277032  0.13331942  0.10103345
  0.02307015  0.34723514  0.02230053 -0.15796164 -0.05724835  0.1278486
  0.12292305 -0.11613747 -0.01964059 -0.0238058   0.27857387  0.23254162
 -0.02733497 -0.28134945]
[ 0.12485998  0.06411012 -0.03348938 -0.06753461  0.13297173 -0.16406885
  0.17013493  0.23016754  0.04838488 -0.00310309 -0.06390186 -0.07691554
 -0.12625948  0.07265627 -0.37582654  0.3404549   0.05515406 -0.15247881
 -0.03583955 -0.09010675]
[-0.04343583  0.3344417  -0.18453749  0.04350266  0.20075458  0.25422004
  0.20374523  0.1198761  -0.2570968  -0.14493552  0.25545418  0.21513486
  0.06994515  0.04856445 -0.1839412   0.03877932 -0.11358006  0.06591457
  0.20990266  0.3761409 ]
[ 0.20755406 -0.17809315  0.1442593  -0.20493735  0.00511182  0.1883982
 -0.03658014 -0.11058085 -0.16918084  0.23914082  0.2678378   0.27614993
 -0.06816499  0.07808608  0.2220186   0.15350236  0.19395651 -0.35666856
 -0.10086902 -0.01935229]
[ 0.4427816   0.19003142  0.11993384  0.15917762 -0.04038039 -0.20763013
  0.05473261 -0.41660887  0.12001897  0.1423283  -0.1307674  -0.0574452
 -0.19454646 -0.05622809  0.08061923  0.18193175 -0.05812578 -0.2379294
 -0.28187582 -0.24318378]
[ 0.08100736  0.05033772 -0.07688434 -0.01723497  0.1315546   0.04221529
 -0.32899934  0.00170387  0.27287441  0.09622801  0.25786102  0.25230667
 -0.04005555 -0.00354146 -0.35559455  0.00224629  0.36581695 -0.12393173
  0.30883342 -0.17956328]
[ 0.11451013 -0.24258918 -0.04898635  0.11006746  0.08292277  0.2744849
  0.0700694   0.1613576  -0.21338537  0.02689639  0.11658612  0.13822465
  0.26758608 -0.35769302 -0.51806444 -0.25113842  0.03554938  0.18610673
 -0.2988159   0.24880283]
[-0.17991166  0.27265468  0.28354147 -0.1638017   0.16832185  0.07233828
  0.1510019   0.18090825 -0.32366604  0.23331632  0.10877765 -0.1664572
 -0.156484    0.00385865  0.03553849 -0.13809657  0.06347664 -0.24498579
 -0.2640143   0.19500849]
[ 0.37828502 -0.28443423 -0.4023417   0.04517659 -0.2083548  -0.04648452
  0.09780961 -0.29860732  0.3200861  -0.22833733 -0.31043196  0.21805426
 -0.13437586 -0.25176975  0.296766   -0.2273773   0.14327836 -0.27724153
 -0.00153761  0.04608858]
[-0.20731561  0.04168066  0.35950217 -0.21985856 -0.28237653  0.03163044
 -0.16993117  0.33464336 -0.26008633  0.30334982 -0.07849596 -0.21089728
  0.07212121 -0.06338007 -0.2091661  -0.11937228  0.21889009 -0.2615768
  0.01958092  0.33748868]
[ 0.29746416 -0.019396    0.25509405  0.23553981 -0.19451697  0.24860157
 -0.1773487  -0.144086    0.27987367  0.12575062  0.17730258  0.21307266
  0.20620616 -0.12411223  0.10724349  0.14653082  0.02030767  0.01668438
 -0.16136986  0.08965506]
[ 0.10423805  0.09634048 -0.43692634 -0.14088023  0.36002916  0.15989764
 -0.0531487   0.15797357  0.02515256 -0.19171104 -0.11340825  0.1910336
  0.21298848  0.24721055  0.39586976  0.01697458 -0.08259392 -0.13975808
  0.1518272  -0.1557594 ]
[ 0.26374415  0.18746936  0.05881146  0.2051045   0.06306251  0.1286198
  0.25740623 -0.28239346 -0.1997903  -0.2082141  -0.09848527  0.053943
 -0.17500423 -0.00954827 -0.12883244  0.00052388  0.11417684 -0.24979892
  0.14037123 -0.14896886]
[ 0.02564894  0.3751359   0.14487806  0.33800477  0.16356522  0.19618194
 -0.21808249  0.27259734 -0.22539432  0.05822562 -0.23325048 -0.00331101
 -0.36545056  0.24007955  0.16807917 -0.06325851 -0.03352198 -0.07105868
  0.06438232  0.06238201]
[ 0.23062116 -0.2910687  -0.08967294  0.266991   -0.00832015  0.00699453
 -0.21561861 -0.01696228 -0.17996879  0.2872893   0.12599137 -0.2334049
  0.04793759 -0.11028358 -0.24764474 -0.23285854 -0.17647113 -0.36959213
  0.30866706 -0.23501109]
[ 0.10653567  0.32571065 -0.2086187  -0.1911284  -0.10304262 -0.2610474
  0.17244071  0.2574405   0.09369316 -0.02184274  0.26438105  0.1560318
 -0.29779357  0.37330052 -0.32145825  0.2109614   0.32856524  0.2658847
  0.13473001 -0.14506815]
[ 0.09003087 -0.19928063 -0.05487671 -0.2935421   0.25505823 -0.35464478
 -0.15293308 -0.10951471  0.16921581 -0.14748544 -0.04541936  0.00200568
  0.02837681 -0.15681548  0.192534   -0.27389717  0.16503324  0.19375068
  0.1497974   0.11668876]
[ 0.27715036 -0.21293075 -0.2071828   0.04394486 -0.03827209  0.4243848
 -0.07820464 -0.37229854 -0.22264493  0.01395715  0.03212832 -0.01227738
  0.4234974  -0.18285933 -0.580699   -0.05618057  0.25201625  0.3774577
  0.02701464 -0.04675771]
[ 0.30220816  0.233203    0.08851226  0.23014134  0.27453658 -0.09768858
 -0.16268823 -0.14736551 -0.15141684  0.29730105 -0.26511467 -0.07516476
 -0.02095004 -0.05890778 -0.28800067 -0.00718445  0.08990742  0.30113152
  0.26284426  0.28025198]
[-0.02936333 -0.23804064 -0.32404655 -0.15564224 -0.13372076  0.09619576
  0.26650026 -0.00498977 -0.1647965  -0.20788956  0.11962813  0.14977054
  0.17419899 -0.17089245 -0.10153033  0.12967874 -0.28971186 -0.20882861
 -0.12172677 -0.1188016 ]
[-0.30916902 -0.16505994  0.07874715 -0.12018293  0.05551321 -0.2678854
  0.01134369 -0.14721583  0.19469035 -0.2997893  -0.10178764 -0.11691322
  0.2508684   0.2562748   0.10123309 -0.12231725  0.20483044 -0.28849658
 -0.18968815  0.2799597 ]
[ 0.22054106 -0.12804963 -0.10902623 -0.07731614  0.21682158  0.09489243
 -0.2850958  -0.16101089  0.25383374 -0.06931317 -0.2901885  -0.2865539
 -0.3268832  -0.3475704  -0.08844183 -0.046181    0.13883317  0.2528354
  0.130471   -0.20470005]
[-0.11465179  0.26586908 -0.02725777 -0.23861176  0.2642275   0.0569099
  0.10450326  0.22962968 -0.18358177  0.02321228 -0.00106633 -0.06932997
  0.11418833  0.05292888 -0.27027845 -0.10336126 -0.17769702  0.0836006
  0.28852776  0.22637707]
[-0.2534427  -0.11512847  0.01984479 -0.25398073 -0.23997034  0.15097615
  0.24219972 -0.08719219  0.16294645  0.23919219  0.10809721 -0.13278353
  0.38983107  0.1525494  -0.4773011   0.37380862  0.01877315 -0.23947126
 -0.11411025  0.00139265]
[-0.20316884  0.20321095 -0.22287007 -0.41364118 -0.26318228 -0.12531368
  0.05278298  0.01454057 -0.2986811   0.02255105 -0.05456647 -0.04059761
 -0.16896522 -0.12419001 -0.0292975   0.293322   -0.01849263  0.21247761
  0.33773243  0.07498027]
[-0.27824816  0.03723093 -0.26948702 -0.05141158 -0.19484577 -0.04339888
 -0.1695483  -0.25484395  0.04136755  0.04826815 -0.39852658 -0.15930733
  0.30146274 -0.12670562  0.05357405  0.37516806 -0.01609593  0.10945204
  0.3938303  -0.2619338 ]
[ 0.0568627   0.21867691  0.01279764  0.07887671 -0.30241227 -0.09139881
 -0.04059724  0.134062   -0.21634099  0.00159172  0.07767297 -0.02479848
 -0.09379777  0.24308737 -0.0904484   0.28494227  0.05771228  0.2649596
 -0.17546678  0.2838419 ]
[ 0.11661087 -0.01404091  0.12010879 -0.18676437 -0.09873205 -0.26227027
 -0.18427749  0.2713235  -0.0994518  -0.12414616 -0.13209416 -0.18507683
 -0.27081168  0.05114063  0.46656364  0.08484841 -0.09913284 -0.35427067
 -0.36277032 -0.3114474 ]
[-0.32485986 -0.04244991  0.24121268  0.03665903  0.01772401 -0.0464514
  0.25058365 -0.19831191 -0.18225971  0.20554975  0.31904748  0.23644364
  0.30845264  0.11170834  0.24197493 -0.03305117 -0.23035043  0.19366366
  0.2396273  -0.16836391]
[ 0.25666046 -0.18948616  0.11410658  0.01540158  0.06539329  0.05592996
 -0.08509668 -0.01721863  0.26155412  0.06543047 -0.06878477 -0.24957839
 -0.15840185  0.11997661 -0.21589047  0.01586618 -0.18534034 -0.06701074
  0.06404059  0.08553098]
[ 0.28991744  0.2129915   0.07517029 -0.1564856  -0.12859638 -0.21161677
  0.16173612 -0.31155798  0.13333116  0.19463578 -0.36505485  0.08427355
 -0.3368652  -0.00281045 -0.02856472 -0.19520941  0.12436637 -0.03317083
 -0.14065634 -0.04956434]
[-0.06417886 -0.11520521  0.08480362  0.17953235  0.13031483  0.3137075
 -0.2669392   0.3198445   0.10334056 -0.15934794 -0.0509772   0.3353698
 -0.03050007  0.26196355  0.04086474  0.1932077   0.00926407 -0.29510093
 -0.23487173 -0.1805371 ]
[ 0.17141905 -0.08145323 -0.00824223  0.11686224  0.21399026  0.03526824
  0.02636656 -0.21135025 -0.14688596 -0.22839184 -0.28316593  0.15097484
  0.2661166  -0.17537619  0.16415194 -0.02742953  0.30792716  0.21818285
 -0.14735971 -0.13898726]
[ 0.2731388  -0.22910699  0.22568399  0.15702432  0.22109169 -0.03077644
  0.1737026   0.40430805  0.01602756  0.38987508  0.48887646 -0.28642416
 -0.3683061   0.1794153  -0.6488008   0.16122517  0.2703955   0.27658975
 -0.20146269 -0.07639197]
[ 2.1337233e-01  9.6068189e-02 -2.9744204e-02  1.7828260e-01
 -1.1609500e-01 -8.9421608e-02  1.9778714e-02  2.7261055e-01
 -7.3628686e-02 -7.8747049e-03  2.6247604e-04  2.1218640e-01
  3.6115691e-01 -1.5971586e-01  1.0702083e-01  1.4104414e-01
  1.7386930e-01 -2.2595264e-01  1.2036026e-01 -1.2104682e-01]
[-0.14817715  0.20500556 -0.1106329  -0.23247567 -0.2589905  -0.17311274
 -0.01491333  0.25493866 -0.20141457 -0.2672619  -0.03540028 -0.31096447
 -0.27704537 -0.11947349 -0.0995939   0.02767667  0.30156326 -0.13033406
  0.23126858 -0.34251687]
[-0.2327509  -0.04667625  0.40403548  0.0727156   0.30129617 -0.03326845
  0.12254513 -0.05002777 -0.07268405  0.09324757  0.11503487  0.07129359
  0.05504408  0.1008012  -0.05539066 -0.01436385 -0.2348906  -0.06182048
  0.23181596  0.01994909]
[ 0.13773724 -0.3006545   0.3114462  -0.02545666  0.20303075  0.23734385
 -0.1535376   0.11952685 -0.07364695  0.24850267  0.29023242  0.08087511
 -0.05944796 -0.23407893  0.24027473  0.05355234 -0.26872924 -0.23360877
  0.17939648  0.14670356]
[ 0.25274387 -0.02084029 -0.02314586  0.00108493  0.11430593 -0.28547147
 -0.11585045 -0.23526402 -0.11581461  0.09365895  0.19777733 -0.26267758
 -0.21708293  0.24730286  0.17618045 -0.20593993 -0.22243191  0.17098288
 -0.14300004  0.13602236]
[ 0.30527434  0.20919266  0.3622812   0.305133   -0.11048134 -0.02333867
  0.12846963  0.17242987  0.03750067  0.03043348 -0.25772938  0.10666473
  0.22764182 -0.30188376  0.05658897 -0.14950705  0.13738774  0.09765454
 -0.02373232 -0.32395273]
[-0.00404969 -0.04017799 -0.05164756  0.02947289  0.01430731  0.03568668
 -0.02133424 -0.03912567 -0.00292071  0.01838746 -0.03707684 -0.00855855
 -0.00694727 -0.10113656 -0.02145224  0.01892681 -0.02075833 -0.00939301
 -0.00491375 -0.02984218]
layer 5 Activation
tanh
layer 6 Dense
20 1
[0.32954916]
[-0.3852384]
[0.24284214]
[-0.13376226]
[0.00067744]
[0.3258342]
[-0.01948304]
[-0.4627673]
[-0.30415115]
[-0.21266663]
[-0.16394733]
[0.00774491]
[0.08567464]
[0.29113403]
[-0.16330016]
[0.0691941]
[0.25680938]
[0.08753352]
[0.10023193]
[-0.05707066]
[0.00654607]
