layers 7
layer 0 Dense
20 20
[ 0.3022771  -0.3587705   0.10980402 -0.20880412  0.4499588   0.4041005
  0.04274978  0.6049251   0.09998894 -0.24721721  0.56162024  0.16628866
  0.26531202 -0.14075917  0.16610219  0.42385596  0.2354378  -0.45642203
  0.09084395 -0.3853832 ]
[ 0.12977406 -0.27567157  0.32813993 -0.11986307 -0.28505456  0.3096591
 -0.12480471 -0.32919362  0.16562271  0.28553173 -0.33074507 -0.7583556
  0.2630359  -0.24699222  0.37024137  0.23976181  0.00783643 -0.02007832
 -0.21839537 -0.14121498]
[ 0.6399996  -0.17729194  0.27616194 -0.4090175  -0.2639403   0.1700676
  0.25460815  0.1449339   0.14304726 -0.20132254  0.2841526  -0.7045173
 -0.30201015  0.25180313  0.30471095  0.22103524  0.21469493  0.01001173
  0.05793367 -0.3129369 ]
[ 0.22075923 -0.11839943  0.05540746 -0.47044593 -0.2873992   0.34442672
 -0.16134928  0.45649254 -0.13702619  0.17339064 -0.03589087 -0.21773916
 -0.24181977  0.14454028 -0.21986222 -0.01093603  0.1485786  -0.06364763
 -0.1445793  -0.12135734]
[ 0.037468    0.33593452 -0.2619769   0.36000228  0.20011134 -0.0339021
 -0.20316324  0.35959622 -0.13444684  0.35092902  0.2683218  -0.02564817
  0.00397591  0.24344902  0.21185084  0.39791834 -0.21471477  0.0246917
 -0.06008054 -0.02095833]
[-0.27721164 -0.35669905  0.11424379 -0.257996   -0.06027564  0.03989952
  0.29310802 -0.0993361   0.07818215 -0.2693497  -0.1340563   0.08742923
 -0.33132958 -0.10006663 -0.1299483   0.04851234 -0.35793388 -0.33974618
 -0.11754902 -0.0744645 ]
[-0.34636396 -0.45488524 -0.29381666  0.37390032 -0.39771533 -0.09587415
 -0.1828376  -0.03677336  0.06109043  0.4008926  -0.32358918  0.48733106
 -0.07778058 -0.27326778  0.06384455 -0.01660475 -0.20551161 -0.08767279
  0.44488156  0.30453482]
[ 0.15257786 -0.1271187   0.04715042 -0.04185716  0.13184698 -0.28449214
  0.23507692 -0.43720454 -0.09932896  0.16083914  0.12140859 -0.28992444
 -0.06941974 -0.18570837  0.17551972 -0.28485155 -0.6834321  -0.49544477
  0.28330892 -0.31595987]
[-0.19933216  0.2646137  -0.01295679 -0.14888299 -0.32052746  0.15017977
  0.27453297 -0.24227284  0.26762754 -0.24657369  0.65737224 -0.27339038
 -0.4452066   0.295126    0.02850111 -0.04950333  0.18798198 -0.30548647
  0.0844093   0.15339237]
[-0.68701994  0.51482475 -0.69828725  0.22430636 -0.2498782  -0.26103207
 -0.5791045  -0.86576545 -0.57318354  0.25950786 -0.19196893  0.49195388
  0.1498235   0.01535945  0.7145023   0.1468643  -0.74764425 -0.31900415
  0.7384743  -0.05031429]
[ 0.33342183 -0.16954282  1.2999454   0.16197559  0.81738746  0.11572752
 -0.17171063 -0.3908708   0.60718316 -0.17815393 -0.55442095 -0.34883884
  0.7450487  -0.5687243   0.14970958  0.43196273  0.16551833 -0.49881122
  1.0051293  -0.19986607]
[ 0.27721462 -0.40209043 -0.39766684  0.10035449  0.25802267  0.21215083
 -0.07506208 -0.12310531 -0.52220404 -0.03189956  0.19239548  0.11781285
 -0.08460836 -0.17084558  0.082877   -0.45494816 -0.2593005  -0.19414839
 -0.18455455 -0.40762222]
[-0.00267131  0.48735103  0.02202911  0.06168205 -0.15794542 -0.36925915
 -0.37338513 -0.4072172  -0.3610704  -0.15098733  0.46067393 -0.39139965
  0.02883432 -0.3056612  -0.09821662 -0.43254036 -0.00841792 -0.2988181
 -0.3553703  -0.09911208]
[ 0.4442656  -0.16044113  0.2279622   0.35404503 -0.00817544 -0.26311034
  1.1024038   1.0433517   0.6171456  -0.5418765  -0.6710478  -1.3737205
 -0.8769474  -0.30298322 -0.97921836 -1.6211677  -0.71719474  0.56747437
 -0.40982857  0.62342346]
[ 0.0083848   0.25335526 -0.71779513 -0.10607747 -0.48825783  0.28526548
  0.8891563   0.2612638  -0.63008565  1.2009859   0.43896177  0.22245276
 -0.6888328   0.5154608   0.38377053  0.5265073   0.17569041  0.7256632
 -0.82010853  0.35547656]
[-0.28741068  0.28115827  0.2971726  -0.08429033  0.12075707 -0.5046182
 -0.6339917  -0.08854638 -0.45780367  0.37617314  0.9620989  -0.5355784
  0.27110726  0.2564865   0.39975187  0.5433211   0.39524654 -0.21665129
  0.07233033 -0.35143566]
[ 0.3970956  -0.2412989   0.13291493  0.61811805  0.13223696  0.56644124
 -0.33903185  0.90480703 -0.17400488  0.26575798  0.5816049   0.61773944
  0.3147588  -0.47794673  0.5367556   0.51337904 -0.3355232   0.14392503
  0.3557571  -0.4902763 ]
[-0.11146031 -0.38518178  0.15044737 -0.33333355 -0.02464668  0.17998935
 -0.23883104 -0.06333619 -0.50061566 -0.46154168 -0.08111522  0.05652966
  0.35669476 -0.33405757  0.37805378 -0.13246816  0.68093675 -0.26179647
 -0.4118031   0.04102148]
[-0.27068183 -0.4278959  -0.5662195  -0.22525343  0.02614322  0.47395852
 -0.25059998 -0.01477163 -0.05004354 -0.29656354 -0.0093501  -0.31352705
  0.30947107 -0.4308303   0.16946651 -0.5454775   0.07513603 -0.3417127
 -0.4509917  -0.20474552]
[-0.49515337 -0.4255034  -0.10811944 -0.3046963  -0.41474298  0.2967611
 -0.24881722 -0.20508812  0.19271962  0.00313933  0.00651911 -0.24064925
  0.21927299  0.44698548 -0.09075623 -0.5945199  -0.61595273 -0.40587363
 -0.32000095 -0.38699606]
[ 0.11975075 -0.01542774  0.1899395  -0.27595016  0.049677   -0.03038296
  0.06448907  0.00073476 -0.14332461 -0.02848976 -0.09403393 -0.03612596
  0.0090968  -0.04730974  0.18768765  0.10321545  0.3547132   0.0304427
  0.01215935  0.05329755]
layer 1 Activation
tanh
layer 2 Dense
20 40
[ 0.2037477  -0.28211886  0.06085973 -0.5610518  -0.34482497 -0.35862967
 -0.12801148 -0.17958009  0.021444    0.18085743  0.1504473  -0.1389698
 -0.32964024  0.13674577 -0.12538457  0.11786085 -0.0585705   0.05334498
 -0.00604733 -0.0924521  -0.27399784  0.09512781  0.0733361  -0.23757428
  0.10189086  0.31584147 -0.04259164 -0.03772526  0.17185548 -0.24612105
  0.2277626  -0.07787036 -0.23650838  0.37463233  0.3881416  -0.32579723
  0.15529229 -0.07758042 -0.01220527 -0.31308547]
[ 0.3653402  -0.22262216 -0.15353942  0.05464129  0.4190853   0.5183553
  0.43510973 -0.1274394  -0.2968553  -0.4323591  -0.18845674 -0.19331692
 -0.21022299  0.17551741 -0.24493852  0.07611505  0.48653948 -0.19008206
  0.11978249 -0.15241125 -0.43224177  0.15150501  0.184007    0.24906957
 -0.28893742 -0.41777804 -0.37773907  0.56632394 -0.31661975  0.00263569
  0.24817201 -0.11656948  0.13710317 -0.00938163 -0.61423653  0.19244742
  0.19210927 -0.31887603  0.65979517  0.3959519 ]
[ 0.28113484 -0.21172853 -0.30753782 -0.16395798 -0.5724024  -0.11680416
 -0.02241984 -0.2023239  -0.33231822  0.35987997 -0.1443479  -0.054673
 -0.46614608  0.5346274  -0.29232094 -0.17911956 -0.4152069  -0.2002064
  0.21497473  0.20418507  0.09825038  0.32108262  0.38882822  0.36058265
  0.5706222   0.19162802 -0.07763428  0.0203108  -0.12505567 -0.2646233
  0.37092108 -0.40703842  0.6307017   0.02110296  0.10042745 -0.02665284
  0.46044376  0.4399738   0.66051984 -0.47726637]
[ 0.23542337 -0.15921041  0.07406168 -0.28253594 -0.3438677   0.13696451
  0.0924871   0.22472101 -0.14215502 -0.02862909  0.0759703   0.03031165
  0.28569517 -0.01429026 -0.07583597  0.28620565  0.26921415  0.18859452
  0.34550497 -0.14706287 -0.33119115  0.19114459  0.4851831   0.22808924
  0.08404433 -0.03388529 -0.08582764  0.2156156   0.31322244  0.4074986
  0.15121908  0.17884175 -0.2164729   0.19564463 -0.03066858 -0.20769587
 -0.18486851 -0.00395391  0.28527445 -0.44589   ]
[-0.21831658 -0.2535368  -0.15074106 -0.13715333 -0.4639661   0.20726408
  0.14154448  0.13797252 -0.3600229  -0.01198078  0.10713102 -0.38111076
  0.18286335  0.16041262  0.20033638  0.18224062  0.173684   -0.22209628
 -0.0406925   0.14058676  0.01147858  0.11407304  0.24778734  0.0062243
  0.4875032  -0.22419058  0.23123665 -0.1480102  -0.01728866 -0.023502
  0.2651216  -0.14106515  0.5895312   0.15067236 -0.08449338  0.20515591
 -0.0736215   0.18403156  0.5501839   0.14714804]
[-0.24976856 -0.03703278 -0.19572079 -0.19063556 -0.0678768  -0.4017192
  0.09412134  0.09848164 -0.15440516  0.1994431  -0.18789801  0.02433501
  0.09652644  0.06592234 -0.23243694  0.1426607   0.18203905  0.15179245
 -0.14804135 -0.293063    0.29687503  0.17862928 -0.03304937  0.26256165
  0.19683258 -0.0837526   0.14221208 -0.30423933  0.16877958 -0.31309995
 -0.1281771   0.25212896 -0.06809354 -0.2097181   0.11620821 -0.04353901
 -0.21390498 -0.23643874  0.03622437 -0.22314084]
[ 0.06977843  0.39468983 -0.28461975  0.26338974 -0.41249907 -0.2041121
  0.07832218 -0.10962068 -0.610023   -0.34682405 -0.15112492  0.01688826
 -0.35083783  0.13103339 -0.2832633   0.05688297  0.21372761  0.17251384
 -0.34223053  0.2407488   0.05855311 -0.04664946  0.24682842 -0.5583164
 -0.55365443 -0.04900175 -0.5484528  -0.2711056   0.29135078 -0.15914787
  0.3142074   0.3942588  -0.5872828   0.19454181  0.07445903 -0.18292706
  0.307714    0.18295532 -0.01006947 -0.589575  ]
[ 0.3497651   0.07007611 -0.25432113  0.34062487 -0.3069561  -0.6445545
  0.22184    -0.3354976  -0.28681654 -0.15828346 -0.33905154 -0.36362827
  0.16316053 -0.06031893 -0.17559889  0.19527629 -0.10883818 -0.04873522
 -0.7300528  -0.49851167  0.49733114  0.06770997 -0.30083573  0.17991365
  0.46703088 -0.02033706 -0.39818522  0.3003036   0.23662415 -0.24003384
  0.26672944  0.45265737  0.00689093 -0.28854933 -0.04423974 -0.08855961
 -0.30414855 -0.12765676  0.05701138 -0.27794608]
[ 0.19447225  0.07156801  0.13661249 -0.20864509 -0.49346    -0.17781678
  0.05724576 -0.26385346 -0.14378043  0.2408202  -0.30708787  0.18502705
 -0.4293585  -0.04589281  0.01563163  0.20406795  0.10019297  0.21725902
 -0.10909037 -0.44964308 -0.04172902  0.20714526  0.41940612  0.22927886
  0.2449227   0.07177081  0.19831197 -0.22139089 -0.11375485 -0.08277363
  0.04176492 -0.29052815  0.32664293  0.40882078  0.19152345 -0.05113908
  0.24210092 -0.10449412  0.06995339 -0.598742  ]
[-1.9583327e-01  5.6450423e-02  5.4533225e-02  3.0265683e-01
  3.3318186e-01  1.3271843e-01  5.6107803e-03 -1.7509125e-02
 -2.2946636e-01 -5.8778435e-01 -1.3565584e-01 -2.8266612e-01
 -2.1685241e-01  2.4071203e-01  7.0252605e-02  6.7098230e-02
 -5.9889212e-02 -3.5034406e-01  1.3957247e-01 -2.3733115e-02
 -7.8652635e-02  1.5325496e-02 -1.7477742e-01 -4.4510560e-04
 -1.1868256e-01  7.4099652e-02 -3.9932892e-01 -2.8508797e-01
  3.9918658e-01 -3.4376469e-01 -1.3657358e-01  9.7224802e-02
 -3.6803946e-01 -4.3767799e-02  2.7989396e-01 -9.4747715e-02
 -2.9898733e-01  1.1915211e-01 -3.9496428e-01  9.3217060e-02]
[-0.19525681  0.27537793 -0.03151425 -0.06626694  0.70702773 -0.18480687
 -0.25102064  0.02883273  0.19696572 -0.31221518  0.27410436 -0.3590302
  0.12267469  0.01781131  0.04718436 -0.24638905 -0.20990847  0.2817728
  0.21801697 -0.1729026  -0.06327152  0.07086647 -0.26946196 -0.35836706
 -0.609114   -0.11813422  0.06321551  0.13676666  0.3493942  -0.19257794
 -0.0794185  -0.33455515 -0.11307622 -0.04360517  0.31557274  0.1438053
 -0.28674132  0.05012134 -0.03502497  0.3942373 ]
[-0.13414921  0.20260373  0.44634515  0.14147666  0.40241802 -0.05000351
 -0.14995174 -0.13458948  0.18889658 -0.17695831  0.3011029  -0.38152036
  0.22356768  0.27671573 -0.08862164 -0.46538347 -0.18052281 -0.14907157
 -0.22099115  0.2726873  -0.33587763 -0.22463007 -0.63418484 -0.09401143
  0.359991    0.13617945 -0.23300377  0.08101235 -0.20082515 -0.2435438
  0.14242558  0.44046202  0.00123392 -0.21918142 -0.4186591  -0.03332778
 -0.41263008  0.40322092 -0.294476    0.3940928 ]
[ 0.26954743  0.01631354  0.07429157 -0.23053966  0.31540975  0.1427354
  0.20005828 -0.43073657  0.2723624  -0.05365829  0.13029207 -0.03157056
  0.13411205  0.03243977 -0.03423192 -0.57351416 -0.30444103  0.10331073
  0.32126185 -0.05586041 -0.0859858   0.2822327   0.0129914   0.2564825
  0.68755865  0.2523447   0.1886374  -0.3746837  -0.31019607 -0.27291963
  0.04113043 -0.35139716  0.508471   -0.06789635  0.21102113 -0.01663976
  0.18123282  0.03186191 -0.00755946  0.28164053]
[-0.22518328 -0.11263581  0.16622676 -0.08713934 -0.00376503  0.28857547
 -0.27674946 -0.26734275 -0.07652238 -0.4046645  -0.3380628  -0.18535317
  0.04322024  0.04311561  0.14955796 -0.09112647  0.11898997 -0.17909865
 -0.01285033  0.2355007  -0.3202934  -0.10080991 -0.35687822  0.10230995
 -0.49887964 -0.16788736 -0.19461143 -0.14512122 -0.10356518 -0.23406391
  0.18349765  0.34059563 -0.30378452 -0.37974295 -0.2948235   0.10422584
  0.00769912 -0.24487038 -0.34148806  0.10999247]
[ 0.02112462  0.07172126  0.07386333  0.05992356  0.3569514   0.02782462
 -0.07057171  0.09715812  0.18908611 -0.34601957  0.00661529 -0.02003979
 -0.2573581  -0.19542366 -0.09791331 -0.38560727 -0.00438883 -0.17335065
 -0.1469414   0.2149082  -0.24292938 -0.24374762 -0.06538179  0.04239779
 -0.03576718  0.04469678  0.29351035  0.00677966  0.22665031 -0.11893396
 -0.00567209 -0.1556695  -0.04857481 -0.42589912 -0.18623044 -0.18063216
 -0.27036706 -0.07949159 -0.15985842  0.36007896]
[ 0.28107846  0.1287227   0.06742173  0.02174958  0.17455445  0.5659767
 -0.04766827  0.34907684 -0.0036657  -0.24208707  0.12383559 -0.15769826
 -0.17259681 -0.12039608 -0.11308347 -0.39250126  0.23567216  0.13839874
  0.36163595  0.03938272 -0.4129378  -0.10635906 -0.36289582 -0.22429484
 -0.03756457  0.02523318  0.1454491   0.10299329  0.43248373 -0.59366745
 -0.42714858 -0.28298056 -0.7887046  -0.12171219  0.03927769 -0.02788017
  0.01771218  0.39787078  0.23489943  0.3530852 ]
[ 0.02809664  0.04955265 -0.09895512 -0.04812881  0.08740716  0.16758041
  0.08251067  0.3126125  -0.10756557  0.03632863 -0.11668772  0.23631991
  0.3124624  -0.1280462   0.39219406  0.3893597   0.06807118  0.06726257
  0.11377209 -0.17361154 -0.09756893  0.03885986  0.40309808 -0.21325919
 -0.21446794  0.05643243  0.3728678   0.09988163  0.3307881  -0.45721927
 -0.08419658  0.24503651  0.3409565   0.4291889  -0.04271214 -0.1678583
 -0.05771823 -0.01831876  0.40419987  0.15794554]
[ 0.09086049  0.01132244  0.1928276   0.16158153 -0.14014493  0.10730923
  0.02702237 -0.09799062 -0.4746244  -0.2626372   0.06706859  0.04176889
 -0.0138902  -0.08091632 -0.39798826  0.0521779  -0.19675583 -0.13894883
 -0.34215716 -0.10312654  0.34556863  0.2238772   0.01091052 -0.03583007
  0.023966   -0.08985723 -0.35128435  0.02930301  0.36711806 -0.30321062
  0.11556362  0.30681524 -0.19925824  0.26097214  0.3455821   0.24359815
 -0.19802673 -0.05770342 -0.19052598 -0.54760695]
[ 0.06153222 -0.61613506  0.34459278  0.25555518 -0.51923174  0.5278437
 -0.36157882  0.14814724  0.5708331  -0.11369404 -0.02917766  0.3115272
 -0.17872204  0.39992952  0.21237063 -0.3098274   0.11966372 -0.2651908
  0.92377204  0.03658877 -0.38327008 -0.15384105 -0.2476139   0.4781664
  0.66318476 -0.27635166  0.48621464  0.0489324  -0.400547    0.24301139
 -0.01815524 -0.6046957  -0.02067157  0.26708925  0.05506026  0.10313094
  0.16938838  0.4579887   0.21578638 -0.41581112]
[-0.29550645 -0.00739818 -0.27486953  0.11773875  0.27768072  0.45871222
 -0.13343285 -0.01508511 -0.03842049 -0.02828838  0.00070298 -0.07278173
  0.01142727 -0.15086065 -0.19884205  0.13971011 -0.11460148  0.29790035
 -0.29700074  0.05926819 -0.29126242  0.03038585  0.2765757  -0.29827127
 -0.01717827 -0.34889594  0.01306669  0.12305219 -0.30197325 -0.09326588
 -0.05250834  0.22276013 -0.4275233   0.4220744  -0.1774126   0.11209437
 -0.07031379 -0.00407831 -0.25257644 -0.38657996]
[ 0.01885324 -0.1155996  -0.01536397  0.06048647  0.01178251 -0.18303554
  0.01977198 -0.04202636 -0.04859141 -0.01148167 -0.28659025  0.00348787
  0.13794938 -0.06816725 -0.06940667  0.08651957  0.16172622  0.0179555
 -0.33232704 -0.23702917  0.03785448  0.0206383  -0.11138483 -0.05246087
  0.11645564 -0.00205844 -0.08968525  0.00468455 -0.10084106 -0.12025443
 -0.019441    0.13512531  0.11018442 -0.02302255  0.01500248 -0.04192811
 -0.010888   -0.22214448 -0.05231613 -0.10184865]
layer 3 Activation
tanh
layer 4 Dense
40 20
[-0.00501907  0.03946971 -0.025889    0.12598662  0.10825267 -0.122808
 -0.04798487  0.09970479  0.20885605  0.30167937  0.17103118 -0.17347561
  0.33404103 -0.17607619 -0.12419223 -0.3268728   0.26175722 -0.19714728
 -0.173961    0.02970861]
[ 0.19436708 -0.3344682  -0.12866351  0.13995804  0.01064006  0.23340358
  0.14182879 -0.3058603  -0.18896918 -0.5390418  -0.231052    0.07526867
 -0.1288341  -0.01751926  0.1437884   0.26966742  0.16860059 -0.04105617
 -0.0235671   0.16394971]
[ 0.39799273  0.15469204 -0.09005604 -0.09555714 -0.3097342  -0.21368283
  0.14981066 -0.17541721 -0.18473896  0.11619059 -0.14935452  0.09854699
 -0.55529207  0.3630758  -0.01439677  0.35836697 -0.08505555 -0.05939427
  0.02372496 -0.3118562 ]
[-0.00052571  0.16627373 -0.25529006 -0.04811356 -0.07635464 -0.15765649
  0.02135732 -0.37337673 -0.16748418  0.00980329 -0.19263949 -0.05223702
 -0.10953129  0.06776462  0.10347776  0.11650193 -0.28101113  0.0777766
 -0.16316839  0.20050772]
[ 0.16376986 -0.12023589 -0.14232238 -0.138588   -0.5079262   0.2201524
  0.30293548 -0.3376562   0.40944752 -0.09550716 -0.38454965  0.21205798
 -0.01348148  0.14755735  0.05766545  0.4212942   0.39393228 -0.00276425
  0.18955107  0.02476419]
[ 0.04005777  0.30029076  0.347121   -0.00285666 -0.33194023 -0.18334253
 -0.0856829   0.13031353  0.12172685  0.34974104  0.0852257  -0.04334158
 -0.32531962  0.04654679 -0.16940084  0.3369144   0.3994604  -0.06535195
 -0.17799021  0.43645087]
[ 0.00899603  0.08999012  0.06839132 -0.24742779  0.17465429  0.07573721
 -0.14971748  0.01974197  0.17942114 -0.0145841   0.17786384 -0.01236077
  0.36622256 -0.05132882 -0.00630292 -0.10078196 -0.02502101  0.25960165
  0.25001165  0.17042802]
[-0.03424793 -0.26740757 -0.26199973 -0.23372053 -0.02124103  0.06225408
  0.3831078   0.02884056 -0.05306823 -0.04857935 -0.21329936  0.27158663
 -0.22058906  0.21127966 -0.45391992  0.21133849  0.11315231  0.03748901
 -0.02913009  0.1225609 ]
[-0.11527196  0.03741164  0.32141206 -0.1130498  -0.16847911 -0.22466308
  0.21322699 -0.40539965  0.05021733 -0.11638931 -0.09829163  0.10040648
 -0.07278786  0.3193317   0.04103512  0.23679452 -0.3930925  -0.21228568
 -0.19478671 -0.27364373]
[ 0.06975804 -0.38171455  0.28522044  0.22315046  0.13448022  0.10463606
 -0.01071474  0.25443673 -0.1482004   0.32876012  0.31922048  0.3608645
  0.12081838 -0.15867682  0.2644596  -0.11496585 -0.17325772 -0.05405563
 -0.15359807 -0.32890075]
[ 0.15987119 -0.09165822 -0.01948605  0.26655543 -0.10070623 -0.13155395
  0.25454062 -0.02156683  0.25273186 -0.02775932  0.03592263  0.01871144
 -0.1360516  -0.15709943 -0.11220716  0.14382091  0.22849266 -0.16704823
  0.28096598  0.01758664]
[ 0.06998376 -0.01105869  0.25237226 -0.12384479 -0.07108045 -0.19244964
  0.00449299  0.08436253 -0.20580262  0.3381653  -0.10168812 -0.06134753
  0.03221341 -0.23574162  0.23737213  0.13837841 -0.10807554 -0.03703266
  0.17361277  0.33261174]
[-0.18136208  0.03479794  0.0249481   0.11457077  0.09006731 -0.06846074
  0.39736542 -0.20211108  0.26792452 -0.06166731 -0.2850465   0.29855177
  0.07549493  0.04566    -0.16803136 -0.00330086 -0.48432937 -0.05097105
  0.08686046  0.03315441]
[-0.0100646   0.38488775  0.14161493  0.09618215 -0.04091559 -0.2323181
 -0.2760714   0.29084393 -0.07057326  0.0622159   0.30121332 -0.39634433
  0.10457651 -0.5398981  -0.06296802 -0.22993554  0.24165678  0.36437252
 -0.28243893 -0.32286692]
[-0.00731033  0.07149579 -0.06765247  0.28624025 -0.3242171   0.09836987
  0.04984397  0.02373668 -0.02462038  0.09265365 -0.0242031   0.3985448
  0.15242663  0.16843265 -0.2505547   0.31594163 -0.12248893 -0.08846772
  0.21329561  0.06995124]
[-0.176365   -0.12885419 -0.08114804 -0.27195802  0.11158084  0.06234831
 -0.55539984  0.1379497  -0.17974122 -0.24206728  0.18646307  0.33824742
 -0.01783866 -0.22982284  0.07617594 -0.01009711 -0.1253603  -0.22438146
 -0.18253867  0.29508132]
[-0.11586082  0.2594386  -0.1130318  -0.1001928   0.06652661 -0.0568019
  0.17655215 -0.06314912 -0.00524662  0.40761444  0.26802105  0.33789173
 -0.27977604 -0.04370707 -0.04776413 -0.03391168 -0.1379155   0.12556559
 -0.30265072  0.2687812 ]
[ 0.2731962  -0.22378264 -0.09406044  0.18372484  0.07470499  0.09989586
  0.11760219  0.21124169 -0.32211858  0.05924925  0.03407657  0.21326298
  0.1329779   0.08382861 -0.20410208  0.22829942 -0.26159376  0.09158128
  0.3329034   0.1251662 ]
[-0.20361377 -0.04143117  0.28189346  0.26552352 -0.47435805 -0.16165006
  0.20957649  0.10696302  0.1178147  -0.0081553  -0.19274706  0.11340984
  0.11964051 -0.35263184 -0.42120558  0.12027984  0.30821362  0.01693464
 -0.00540996 -0.16298643]
[ 0.04719855  0.10120165  0.27470654  0.13591836 -0.04118448  0.02331422
  0.18955944 -0.12530866 -0.17455676 -0.11428884 -0.1226696   0.01523952
 -0.14024165  0.13522859 -0.28719854  0.14514917  0.42646644  0.08810466
  0.14200875  0.13677861]
[-0.07466515 -0.31828773 -0.20033982  0.11465886  0.28723055  0.34199756
 -0.26888034  0.09643267 -0.11597043 -0.38911498 -0.07218883  0.2535647
  0.19931051 -0.03324561  0.38495514  0.13889109 -0.11524804  0.19774203
  0.18324865 -0.32259685]
[-0.12499004  0.1033723   0.19531888  0.15236655  0.10001724  0.01190158
 -0.23059629  0.057155    0.09691641  0.065286    0.16590084 -0.24134319
  0.2892819  -0.15954581  0.00362012 -0.2612756  -0.07970397  0.13150385
  0.11282375  0.09844661]
[ 0.09370247 -0.22235316  0.34057176  0.12713234 -0.03731794  0.403786
 -0.00358524  0.27174723 -0.1424252   0.08272702  0.22405382  0.01459467
  0.21190502 -0.21122776 -0.34758946  0.17268921 -0.08523986  0.17181414
 -0.11939877 -0.00931261]
[ 0.1398268   0.22731213  0.15713015 -0.27552608 -0.04474587 -0.40653527
  0.17570868  0.10932752  0.03384347  0.3501367   0.0107524   0.0396788
  0.2670029  -0.35755748 -0.07509996 -0.01120054 -0.38930413 -0.07362092
 -0.01245691 -0.41705015]
[ 0.25623184  0.29717922  0.049816   -0.1550893  -0.04117256 -0.5398727
  0.0969063  -0.3647326  -0.6901819   0.34609365 -0.32937077 -0.05133143
  0.05095756 -0.18607163 -0.2526066  -0.59772235 -0.20802839 -0.07907723
  0.36404032 -0.6226102 ]
[ 0.1731251  -0.21212822  0.04600359 -0.18898118  0.00670989  0.15606391
  0.17521043 -0.24635112  0.26261652 -0.22559157 -0.19754611 -0.21817876
  0.352989   -0.12245645 -0.08874884 -0.15802024  0.22275329  0.3162887
 -0.0142844  -0.21649417]
[-0.12155421 -0.41548368  0.35816583  0.02873021  0.1131018  -0.02563306
  0.04630471 -0.19965385 -0.15093786  0.17135625  0.2705419   0.20453824
  0.16024345  0.20146933 -0.4242936   0.25641006 -0.13193555  0.03333281
 -0.01711199 -0.35243028]
[-0.12668236  0.12713045 -0.1281229   0.1280247  -0.16375864 -0.08492383
  0.00428526  0.12136278  0.1591494  -0.02508743  0.13869219  0.2959627
 -0.3361073   0.22890326 -0.11219244 -0.13239454 -0.21540752 -0.14095205
  0.19394544  0.267866  ]
[ 0.08797056 -0.0852756   0.17391782  0.01424413  0.30253363 -0.09930147
  0.3875484   0.09019344  0.21019413 -0.6398866  -0.15124583 -0.36166286
 -0.06511119 -0.10050939 -0.05863033  0.20601086  0.5334164  -0.14204703
 -0.03144605 -0.01658483]
[-0.19993673  0.08441729  0.06741602 -0.09097087  0.19005924  0.17366965
 -0.28097168 -0.04669848 -0.37810883  0.14000408 -0.37040433  0.39129776
 -0.05212828 -0.4323514  -0.02487597 -0.2962645  -0.07709203  0.15183973
  0.3455945   0.01482615]
[-0.17238992  0.2101474  -0.02854088 -0.22349602  0.38750136 -0.1546133
 -0.56614405  0.38178596 -0.0025649   0.13526168  0.00124811 -0.28861633
 -0.06027944 -0.21769533 -0.044214   -0.1172603  -0.10265312 -0.08161274
 -0.02849263  0.04726547]
[-0.06838354  0.16805582 -0.30963084  0.27044934  0.42798978 -0.08434133
  0.08533441 -0.15421863 -0.10428175  0.03287509 -0.03088637  0.12043046
  0.10652282 -0.03227443  0.39193004  0.17899998 -0.430918    0.05961152
  0.11281943  0.21994892]
[ 0.07143918 -0.1740269   0.37669942 -0.22345795 -0.10120631  0.2615752
 -0.1579822   0.2836401   0.10398886  0.16138151 -0.2562354   0.27690196
  0.15176341 -0.2252768   0.06575154 -0.32635722  0.0213128   0.07592462
  0.29270005 -0.15464723]
[ 0.03483751 -0.13360296  0.00278379 -0.20880523 -0.08924966  0.22086735
 -0.3795549   0.16438372  0.00151053  0.09099946  0.07833109  0.08891717
 -0.0765152  -0.227518   -0.22645943 -0.07559486  0.37031633  0.01916043
  0.04651837  0.3475388 ]
[-0.11563371  0.0425325   0.09535955 -0.24599144  0.0411056   0.23569924
  0.01822149 -0.2444643  -0.12065344 -0.18504311 -0.13249712 -0.17058776
 -0.08503402 -0.15396109 -0.10529985 -0.15767309  0.11402695  0.10859688
 -0.12904407 -0.02708649]
[ 0.20754671  0.04789205 -0.0119105  -0.20433691 -0.2241185  -0.00851693
  0.03404373 -0.13912545 -0.08331964  0.22585016  0.2820811   0.11012456
 -0.17421906 -0.26242423  0.05908325 -0.00915212 -0.06930911  0.17814684
  0.15008697  0.16204424]
[-0.02778174 -0.04299609  0.3346126  -0.16193072 -0.21457236  0.23605867
 -0.32226995  0.35015044 -0.277322    0.12514754 -0.07299174 -0.06942295
  0.35724238 -0.2576702  -0.10982794  0.11966942  0.43199766 -0.12563778
 -0.34921873  0.34339663]
[-0.24263272 -0.31984133 -0.00299975  0.2544347  -0.05076097 -0.3299744
 -0.0017616   0.14244491 -0.4659834   0.12435587 -0.11810905 -0.41122296
  0.01143083 -0.15680943 -0.31390706  0.08632269  0.28177634 -0.00251045
 -0.03595144 -0.32500374]
[-0.29127234  0.00584463  0.1562297   0.00290727  0.3401778  -0.17515418
 -0.2867462   0.46053693 -0.10858437  0.14693554  0.28825963  0.32897142
 -0.04555817 -0.44185117 -0.3687741  -0.16604835  0.25457084  0.05932325
 -0.18246418  0.03336006]
[-0.31335193 -0.05672973  0.1522393  -0.02444454 -0.23777659  0.10956965
  0.15438633 -0.35512003  0.48701945 -0.24368836  0.01149869  0.22204755
  0.01667271  0.05913961 -0.22281128  0.39635995  0.12322755 -0.12657236
  0.22306706 -0.24130704]
[-0.02281783 -0.09822347 -0.11251397  0.02024402  0.12273262  0.00459427
 -0.00595225 -0.0404304  -0.09721157  0.1004215   0.00443917 -0.06058937
  0.02602398 -0.00364221  0.05834526 -0.10440816 -0.23842587  0.07687984
 -0.11678414 -0.03851639]
layer 5 Activation
tanh
layer 6 Dense
20 1
[0.0086999]
[0.08968738]
[-0.20557424]
[-0.01051316]
[0.20184658]
[-0.19424163]
[0.01569976]
[-0.17720434]
[-0.10765505]
[-0.03002352]
[-0.01891194]
[0.09464239]
[0.00031215]
[0.00261502]
[0.17998348]
[-0.28260258]
[0.15130925]
[0.01591453]
[0.11397327]
[-0.20112514]
[-0.00995151]
