layers 7
layer 0 Dense
20 20
[-0.03011056  0.09053121 -0.21103118  0.27278882  0.09789691  0.08011162
 -0.25544766 -0.17114995 -0.49123934 -0.07304781  0.07003733  0.14255542
 -0.22187106  0.3605793   0.01883851  0.07411881  0.3684559  -0.3623036
  0.31088254 -0.16965468]
[-0.32368073  0.05766195 -0.01889919  0.35535097 -0.21116951 -0.450922
 -0.1634951   0.42183414  0.31110287 -0.7059173  -0.270651    0.06240381
  0.2413224   0.2729388   0.12171439 -0.02568582  0.17474698 -0.24835572
 -0.19357249 -0.10224762]
[-0.45483926  0.21725675 -0.36912     0.8057462  -0.24267831 -0.31411546
 -0.4371533   0.3514913  -0.06061745 -0.663087   -0.46443376 -0.10188306
  0.23105809  0.05403274 -0.4133041  -0.3334139  -0.01547373  0.26716813
  0.3667536   0.12789944]
[ 0.1618323  -0.23410305 -0.36840823  0.05446094 -0.08256954 -0.01319989
  0.17311324  0.2513219   0.12949467 -0.21925363 -0.26544654  0.00276067
  0.46321353  0.15500009  0.08016099 -0.05209333  0.04719687 -0.26726365
  0.33515477 -0.13505515]
[-0.03281919 -0.50679064 -0.41427892  0.14248106 -0.02034766  0.00706596
  0.46044162  0.28970388  0.04973006 -0.09645791 -0.31026942 -0.05347579
  0.32561898 -0.47036904 -0.366017    0.11471493  0.40738815  0.71101993
 -0.14691223 -0.30858177]
[ 0.24643616  0.19826093 -0.18407702 -0.19810623  0.10481331 -0.262933
  0.34682858 -0.08846498 -0.3994118  -0.04831756 -0.14722697  0.23380798
 -0.08075952 -0.5856165   0.38545546 -0.06857671 -0.37905267  0.02907557
  0.3123975  -0.3615956 ]
[ 0.11508002  0.20585081  0.24874039 -0.16618991  0.48957676 -0.10254463
 -0.2074134   0.15837507 -0.43333566 -0.21519022 -0.07542805 -0.03436057
 -0.3795202  -0.39257118  0.0891129   0.44511232  0.00477073  0.13947316
  0.08507419 -0.3627981 ]
[ 0.5638189   0.26114216  0.5530377  -0.5557787   1.1121866   0.5643677
  0.10016181 -0.9730147   0.32507378  0.96360844  1.33425     0.70967704
  0.42105946 -0.3293936   1.062499   -0.00740612 -0.7362048  -0.68207353
 -0.52240086  0.18233413]
[ 0.3286245   0.64567846  0.29541698 -0.9149536   0.555119    0.16007441
  0.37219682 -0.01461989 -0.19274214  0.33781257  0.8059183   0.01987504
 -0.09178558  0.15514754  0.388432    0.17567869 -0.83592486 -0.55355084
 -0.26497212  1.0583798 ]
[ 0.2787993   0.31120113  0.18402812  0.02677936  0.24273486  0.04967298
  0.3003013  -0.08151177 -0.07983788  0.15123129  0.27833292  0.1709974
  0.08937461  0.39263114  0.09942321  0.10135272 -0.56243044 -0.07813347
 -0.12540053  0.59653956]
[ 0.13790034 -0.02405982 -0.1569241  -0.5350084  -0.38649008  0.08483227
 -0.17243959  0.08233829  0.11073893  0.07128933 -0.03467333 -0.08198057
  0.0331379  -0.11684541 -0.20527647 -0.09911427 -0.02444286  0.14828022
  0.03979455  0.09991217]
[ 0.64934975  0.37100446  0.7339659  -0.1274497   0.07904293  0.08843327
  0.14988218 -0.13994691  0.22641353  0.24778259  0.35157546 -0.2949433
  0.02934933 -0.18367217  0.01678975  0.31172183 -0.6634371  -0.439304
 -0.32518616  0.59759355]
[-0.396526   -0.5576378  -0.51526695  0.43530184 -0.4584927  -0.09917003
 -0.12438062  0.14095627 -0.17549069 -0.11181627 -0.29550698  0.29233995
  0.4789139   0.16598754 -0.43512663 -0.25358373  0.65200734  0.62735295
 -0.23420711 -0.23103786]
[-0.19804342  0.00342068  0.07238571  0.04970831  0.16961786 -0.6142423
 -0.0122317  -0.16394947  0.03044961  0.01191914  0.04002343  0.12458394
  0.17184578 -0.18167868 -0.19268331 -0.09692403  0.55396724 -0.30466193
 -0.11176516 -0.46900252]
[-0.6285604  -0.02240863  0.17694364 -0.5810014   0.0086808   0.17647263
 -0.00373499  0.01326319  0.05153742 -0.02890736  0.01461412  0.06821753
  0.5364956   0.23250547 -0.42696443 -0.09599955  0.35578337 -0.03844752
  0.03685546 -0.03709461]
[-1.0858281  -1.1057464  -0.96710926  0.898379   -0.8758362  -0.39899826
 -0.5249708   0.58518535  0.01592497 -0.42587718 -0.48433715 -0.33456424
  0.10915762  0.6842208  -0.75164056 -0.8491619   0.5278411   0.31121632
 -0.38633186 -0.6287429 ]
[ 0.01759801 -0.06609626 -0.11594121 -0.5029344  -0.22299203  0.10296149
 -0.07618871 -0.2736122  -0.31067014  0.02572245  0.07261293  0.23027667
  0.39253488 -0.36069417  1.0500166   0.16969688 -0.10036084 -0.028265
  0.24039285  0.34326014]
[-4.85227823e-01  4.69495426e-04 -3.59827653e-02 -2.54421383e-01
  5.89590445e-02  2.08028153e-01  2.21168295e-01 -3.60269785e-01
  3.11143428e-01  1.16444334e-01  7.25883916e-02 -1.70060396e-01
 -8.26403424e-02 -2.22829595e-01  2.99576581e-01 -5.02681322e-02
  1.54080063e-01  1.12506643e-01 -2.23918725e-02 -7.20479131e-01]
[-0.35801208  0.08554479  0.04858371  0.7360088  -0.11993995  0.03163543
  0.4496957  -0.26310188  0.05597619 -0.03340413 -0.21577193  0.15358382
  0.30542773 -0.12770239  0.17866763 -0.2371125   0.59822834 -0.3674712
  0.06329217 -0.3757872 ]
[-0.15412231  0.45764902  0.7475683  -0.7888103   0.34574988  0.54982185
  0.10304721 -0.21632929 -0.6424068   0.5377389   0.58028036  0.10115999
 -0.39178708 -0.44155654  1.3679645   1.2175598   0.07831758 -0.24237268
 -0.16770756  0.29755643]
[-0.1177896  -0.06240783 -0.23630257  0.34730914 -0.40860477 -0.24509175
 -0.20673615  0.46545547 -0.07213148 -0.41651213 -0.5759594  -0.17409326
 -0.08945823  0.1837354  -0.30870613 -0.05214661  0.15426855 -0.00160557
  0.06664515 -0.22963987]
layer 1 Activation
tanh
layer 2 Dense
20 40
[ 3.2465705e-01 -1.8496154e-01  8.3945431e-02  3.9935461e-01
 -3.6051676e-01  5.1193863e-01  2.5334245e-01  4.7905892e-02
  3.6163792e-01  5.1977769e-03 -8.9224212e-02 -1.5394984e-01
  3.3702859e-01  4.9296764e-01  2.2594473e-01  4.4287972e-02
  6.9364525e-02  3.3286339e-01  2.2871876e-02  1.1899736e-01
 -9.1574110e-02 -1.1073700e-01  2.3676597e-01 -2.8928837e-01
  2.8372243e-01 -8.8813633e-02 -1.1589859e-01 -2.6006839e-01
 -5.0430900e-01 -1.1397526e-01 -1.5192175e-01  3.0049428e-01
 -2.6611321e-02  1.5820816e-01  2.9236099e-01 -1.7402034e-01
  8.1176914e-02  1.3938171e-04 -4.6926966e-01  3.0034107e-01]
[ 0.05355936  0.366922    0.12873352 -0.17796636 -0.18092652  0.08020743
  0.0874868   0.06678768  0.03579156 -0.02013211  0.20514806 -0.11215866
  0.20267114  0.14502849  0.27341238  0.1294739   0.11607036 -0.0192002
  0.22181335  0.02221848  0.06880092  0.44335532  0.09380551 -0.27340606
  0.22521228 -0.24204284  0.28883794 -0.07034279  0.01750043 -0.00582614
 -0.19152454 -0.06954618  0.1407938  -0.01328172 -0.01560855 -0.12587184
  0.08381549  0.19849722 -0.06791887  0.1505147 ]
[-0.07757286  0.2285388  -0.05915059  0.175632    0.07825004  0.14850393
  0.16881225 -0.17371033  0.08747687  0.10583319  0.22566254  0.10012
 -0.21212897 -0.25521672  0.3338624  -0.00983032  0.3209464   0.09927379
  0.4103519   0.17002219  0.30881748  0.02492163  0.2082109  -0.07127798
  0.19890822 -0.18679246  0.19583437 -0.11238734 -0.21858887 -0.09603645
 -0.08919217  0.19136117 -0.06086104 -0.1970345   0.43011078  0.08458988
 -0.21168713  0.09490936 -0.309151    0.14788656]
[-0.14511241  0.05698802  0.04065065 -0.42665818  0.33994687 -0.06148846
 -0.444512    0.4545107  -0.5576963   0.14147675 -0.34491652  0.12926513
 -0.00887208 -0.5489497  -0.664428    0.08647264 -0.29698312 -0.53894454
 -0.31823313 -0.71178883 -0.3018929   0.10717478 -0.07434223  0.3427925
 -0.05038109  0.62371105 -0.16631904 -0.13257532  0.24738841  0.385377
  0.27969673 -0.30920878 -0.3854326  -0.4048018  -0.56951946  0.2478342
  0.49643114 -0.20664893  0.38007468 -0.4249244 ]
[ 0.34336933  0.0915942  -0.10804171  0.45484844 -0.37074637  0.06520391
  0.3616328  -0.09176844  0.18182053  0.4736205   0.33069488 -0.40067798
  0.17132472  0.00932902  0.35061342 -0.4141896   0.26066384  0.11201875
  0.42609838  0.35931456  0.14652988 -0.53556967  0.08512449 -0.4148237
  0.49678215  0.08312498 -0.04578036  0.35672516 -0.13346283 -0.23178424
 -0.26550412  0.3424061  -0.29537058 -0.13427745  0.3670137  -0.29562205
 -0.16708238  0.38685596 -0.15323071  0.4726363 ]
[ 0.00125663  0.05711874 -0.16331895  0.20571464  0.32140294  0.34214216
  0.00433977 -0.01903937  0.3214936   0.40450287  0.02294132 -0.38763458
  0.21835002  0.00508262  0.37301344 -0.28963083 -0.25004387 -0.01792436
  0.3829941   0.09651782  0.37355238 -0.06819923 -0.17959303  0.26272526
  0.1770178   0.00984765 -0.05979254  0.0114553  -0.15760931  0.05718477
 -0.18256308  0.11246801 -0.21971701 -0.09274574  0.29175118 -0.09187448
  0.1756678   0.29440433 -0.16076387  0.08771091]
[-0.37597913  0.08706389 -0.00668656  0.03358177  0.24610765  0.01048199
  0.27185482 -0.486946    0.0533414  -0.18667144  0.29299164 -0.30436134
 -0.00681366  0.45871052  0.1431303   0.04551483  0.12354263 -0.10238085
  0.39547008  0.3613621  -0.01207522  0.09550398 -0.19171277 -0.00617119
  0.4578782  -0.18089522  0.2112815  -0.14560075 -0.14565846 -0.03941303
  0.01243024  0.13533954  0.28587562 -0.00953804  0.3583367  -0.03025459
  0.08221377  0.29696134 -0.12599732  0.01446718]
[-0.0850438  -0.2712111   0.2041308  -0.3165116   0.1123881  -0.30603442
  0.40253362  0.1526523   0.00455459 -0.6210749  -0.39694574 -0.36916006
  0.25816253  0.24771321 -0.14899434  0.33048454 -0.18342812 -0.14109086
  0.27703914 -0.15705003 -0.10573053  0.34681076 -0.18571083  0.1973248
 -0.09487668  0.00782595  0.02964788  0.06214415 -0.12290524  0.03821038
 -0.09731386 -0.14889757 -0.21063764  0.11629026 -0.14677154  0.4557284
 -0.06707203 -0.27715167  0.23051155  0.11133313]
[-0.1796075   0.23123653 -0.19710736  0.11229039 -0.06405152 -0.1258019
  0.04966042 -0.23536608  0.1285222  -0.4110678   0.04302907  0.33589888
  0.15529658  0.27973527  0.14592302 -0.11796393  0.32418883 -0.04053079
 -0.05264246  0.30878246  0.0098705   0.17835824  0.19769734 -0.06683443
  0.00212527  0.10733368  0.33156666 -0.16446978  0.03200739 -0.17721787
 -0.28076783 -0.07273547  0.11210317  0.35122555 -0.16103101  0.04160075
 -0.05181689  0.09773925 -0.29922637 -0.05583758]
[ 0.25403255  0.1841372  -0.22946092  0.34364644 -0.2564577   0.08374478
  0.04024839 -0.09507253  0.21578364 -0.01327229  0.34724253 -0.5876761
  0.23174086 -0.06032297  0.23062424 -0.2669386   0.18521766 -0.00146955
  0.5120967   0.2461364   0.27368605 -0.43932745  0.32502332 -0.35205206
  0.14858861  0.0274723   0.28173298  0.4084622  -0.29990917 -0.19398864
 -0.1959416  -0.12125709  0.24708305 -0.01291167  0.52067804  0.19977002
 -0.30272263  0.66174865 -0.16292799  0.2672072 ]
[ 0.11403628 -0.24694593 -0.0870647   0.23042195 -0.60455674  0.38901532
  0.06794168 -0.08904183  0.3126104   0.44301853  0.54726124 -0.02473005
  0.00390298 -0.09912411  0.32331878 -0.82917196  0.24282354  0.2985624
 -0.04438827  0.18988004  0.22251879 -0.41033065  0.07296347 -0.52580637
 -0.10289441 -0.03549561  0.3256769   0.38140687 -0.29027915 -0.34454325
 -0.23266144  0.08006273  0.18016486 -0.04809932  0.45875433 -0.4320976
 -0.514819   -0.20406868 -0.07331423  0.2314914 ]
[-0.17938188  0.18407299  0.14311045  0.15540136 -0.24421173  0.24081667
  0.63992697 -0.07167905 -0.00538181  0.02444045  0.0463435  -0.07253966
 -0.07694297  0.38529158  0.15182446 -0.3460488   0.05549409 -0.05334358
  0.3103614   0.19395953  0.18481284 -0.221581    0.01922873 -0.03697769
 -0.01449782 -0.16479883 -0.71251345  0.3724831  -0.07756247 -0.28553542
 -0.19015355  0.16865012 -0.02124369  0.10195395  0.09041186 -0.0764786
 -0.1026861   0.75048435  0.18274407 -0.0639407 ]
[-0.14230151 -0.13915573 -0.356773    0.02517402 -0.0627761   0.0747081
 -0.18373142 -0.05302289 -0.04430597  0.08664567 -0.06071362 -0.08457959
  0.08143591  0.060016    0.16905719 -0.02837047  0.321081   -0.14187478
 -0.21237622 -0.20418619  0.30144972 -0.16686925  0.32858458 -0.11311591
 -0.25746304  0.17164718 -0.19966727 -0.0872717  -0.04311157  0.01417245
 -0.05881846 -0.01959881  0.02018963  0.42001292  0.10514418 -0.02147763
 -0.16095757  0.30570138  0.00392073 -0.05076998]
[ 0.14445268 -0.07383139  0.06574593 -0.06773759 -0.05335192 -0.1505544
 -0.06027593  0.06652903  0.07617792 -0.10307436 -0.20594566 -0.15548754
  0.08710872  0.2042641  -0.0682678   0.13384548 -0.1595537  -0.2963396
 -0.05685029 -0.21948068  0.02679503 -0.04125286 -0.3023269  -0.13508204
 -0.11865292 -0.21464829 -0.09850531 -0.247894   -0.29880854  0.219905
  0.14109506 -0.17362428 -0.26766428  0.30151448 -0.08155198  0.00798721
  0.12559019 -0.02155878 -0.09550514  0.00038696]
[ 0.21312611  0.22608554 -0.34170613  0.42345327 -0.23516896  0.31223172
  0.28642532 -0.6973143   0.6847437  -0.0363698   0.36936933 -0.5268368
 -0.03227766  0.4305368   0.37792712 -0.48665294  0.36828136  0.27695516
  0.30026016  0.6724775   0.17395408 -0.51670474  0.17418149 -0.48115692
  0.01574719 -0.36291718  0.01814554  0.45513153 -0.52365816 -0.51769334
 -0.11694317  0.25704297  0.33490166  0.12233848  0.546977   -0.22886513
 -0.51944005  0.25417757 -0.42621246  0.5765373 ]
[ 0.1347552   0.19455507 -0.10841867 -0.06284171  0.13316351 -0.07032983
  0.00481547  0.1275228   0.16714187 -0.29121304 -0.14570928 -0.34063667
 -0.15275025 -0.16017383  0.11890595  0.14987496  0.18771565  0.24663286
  0.30614218  0.03437463 -0.04673745  0.37388712  0.10369617 -0.18217503
  0.24169487  0.0893615   0.07686572  0.12479308  0.08522342  0.07246704
  0.18493225  0.00521128  0.15275256  0.06114207  0.05382488 -0.07196584
  0.09259329  0.49229392  0.10796329 -0.10922959]
[-0.20018665 -0.03991267 -0.39162087 -0.24899143 -0.16480257 -0.41022706
 -0.08048064  0.11626916 -0.42146105 -0.16167033  0.14998478  0.28509736
 -0.41444102 -0.70256644 -0.1652926  -0.05936717  0.0187178  -0.12686276
 -0.16347873 -0.42544398  0.08105657  0.17442016 -0.30255195 -0.16096602
 -0.2420366   0.2990858  -0.04926699  0.40312502 -0.05130138  0.53718936
  0.29235214 -0.08194588 -0.30840185 -0.2691478  -0.47199675 -0.088661
  0.34439695  0.1930407  -0.02370049 -0.08826485]
[-0.12454138 -0.47204745 -0.23786685 -0.20512152 -0.2828828  -0.1181152
 -0.18967076  0.30547357 -0.36074612  0.15508835  0.23229909 -0.11137919
 -0.41291955  0.04188514 -0.27996638 -0.02805794 -0.00127863 -0.2737564
 -0.4174126  -0.35217366 -0.13602608  0.27924109 -0.10594989  0.01823924
 -0.15014184  0.22601925 -0.12381443  0.25782833  0.3079338   0.03479498
 -0.128469    0.24362002 -0.40398568 -0.13495757 -0.18290824 -0.06212953
  0.00643974  0.16863601  0.11475994  0.06919434]
[ 0.24844277  0.29928848  0.3835223  -0.03927309  0.1338695  -0.26374105
 -0.15552238  0.30263332 -0.26531222  0.01346931 -0.1947908   0.13109137
  0.34096012  0.27038285 -0.00598101  0.27563566  0.36605898  0.21179213
 -0.05064737 -0.26869142 -0.23787223  0.19022672  0.03323638 -0.14152665
 -0.15205434  0.153134    0.2267529  -0.13478875  0.1764861   0.02199652
  0.07829802 -0.02674618 -0.02077008  0.1991763  -0.1424605   0.08224738
 -0.05660602 -0.26842445 -0.00874714 -0.12778161]
[ 0.3147215   0.37998852 -0.00735923  0.3511034  -0.14074185  0.23833448
 -0.13185774 -0.0383559   0.43812862  0.27075127  0.05616252 -0.16508047
  0.14018074  0.32673046  0.48464692 -0.16216795 -0.06565556 -0.03335568
  0.05995524  0.36947298  0.33008283 -0.2618381   0.32093638 -0.2595882
 -0.04184331 -0.11581908  0.10409433 -0.37477094 -0.36332625 -0.30744874
 -0.01949825 -0.01451746  0.17152716  0.22443163  0.03918938 -0.09525526
 -0.00125055 -0.43340838 -0.09528419  0.17833291]
[-0.02172623  0.09879612  0.118448   -0.18245511  0.14668801 -0.16946411
 -0.04080693  0.01534644  0.02364881 -0.12563924 -0.09640297  0.05456215
  0.08296011 -0.02274703 -0.13133876  0.07439715 -0.0135161   0.05948223
 -0.07026813 -0.18453899 -0.0388426   0.21124569 -0.04937453  0.07629602
 -0.12190034  0.01812665  0.20216234 -0.03751119  0.01062291  0.01446026
  0.04251733 -0.00754818  0.04509285 -0.08541651 -0.28625974  0.19058754
  0.21115729 -0.29662114 -0.05434155 -0.11363607]
layer 3 Activation
tanh
layer 4 Dense
40 20
[ 0.08568145 -0.47210437  0.0348968   0.28331462  0.27787867  0.11311179
  0.22954257 -0.22198617 -0.04153748 -0.17286085  0.2004726  -0.04209535
 -0.04017585 -0.10516462 -0.15770687  0.15866375 -0.00807761  0.04096143
 -0.16022013  0.01765517]
[ 0.06061612 -0.10245506 -0.00194508 -0.20565036 -0.12415823  0.01752961
 -0.02717638 -0.13895091 -0.16058238 -0.02072941  0.29201865  0.10013571
 -0.0264748  -0.28211403 -0.05838703  0.04641236 -0.1542188   0.0550256
  0.04469183 -0.28334516]
[ 2.5572151e-01 -3.4758368e-01 -6.3465655e-02  1.9325919e-01
  1.6783009e-01 -3.2027057e-01  4.6303663e-02  4.3678593e-02
 -2.7244863e-01  1.2997022e-01 -1.0475030e-01 -2.3436454e-01
 -4.2646449e-02  1.3613161e-02  1.8179797e-01  5.1325534e-02
 -1.9266032e-01 -3.4102666e-01 -3.1285727e-01  3.1749267e-04]
[-0.03978815  0.08773623  0.05238212 -0.19394648  0.1450528   0.2851899
 -0.00509288 -0.1906108   0.12068766 -0.29777023  0.11066036 -0.25468698
  0.32927322 -0.02668829  0.10322596 -0.24358426  0.23675731  0.23367254
  0.15856667  0.02497177]
[-0.25176215 -0.17142141 -0.10899509 -0.22972442 -0.1986403   0.05489642
 -0.4229263  -0.12582165 -0.30046088  0.45481336 -0.03243368  0.45743167
 -0.16115041 -0.0321916   0.21096842 -0.07273202 -0.2985764  -0.47968936
 -0.15639235 -0.11920192]
[-0.27471572  0.13131057 -0.17049895 -0.94112957  0.00541151  0.04248296
  0.06291208 -0.21714553  0.13673659 -0.25785393  0.3778455   0.14104843
  0.14163667 -0.32193562  0.33216465  0.3909248  -0.00415648 -0.08199122
 -0.09403159 -0.2776671 ]
[-0.14723088 -0.18502948 -0.12707938  0.11619103  0.17667611 -0.14858358
  0.19450863 -0.07817698  0.22789691 -0.05695258 -0.10544784 -0.10840572
  0.23114173 -0.07678191 -0.12830184  0.04041304  0.05489061  0.28865996
 -0.25047106 -0.24306135]
[ 0.10980221 -0.03040043  0.06677229  0.5546541   0.24669546 -0.10177806
 -0.27784085  0.21954717  0.23809668  0.1202214  -0.37134352 -0.2278606
 -0.15726289  0.24535146  0.10793361  0.00074198 -0.07192818 -0.37279785
 -0.21889445 -0.1125014 ]
[ 0.15154423  0.03145498 -0.13513027 -0.59942055 -0.00927909  0.02551728
 -0.10624969 -0.43204153  0.2592109  -0.3835349   0.19613725 -0.08828621
  0.6381089  -0.02197756 -0.05381695  0.2106127  -0.29841918  0.16460986
 -0.01697944 -0.15350184]
[-0.02086585  0.08576933 -0.17224285 -0.90691847  0.39222878 -0.07297562
 -0.00648467  0.17671564  0.2646001  -0.16066206  0.2646285   0.07844771
 -0.03252098 -0.23265368  0.26251572  0.1109569   0.23161826  0.17912489
 -0.0101979   0.03102032]
[ 0.15621684  0.2317746   0.06688576  0.21729949  0.1110102   0.25122187
  0.11893076 -0.16581854  0.40776646 -0.23467624  0.16547365  0.15261577
  0.23086241  0.21103357 -0.1598408   0.24199803  0.3315336   0.04297864
  0.36498088  0.09264434]
[ 0.2915845   0.10574388  0.13889612  0.2137631   0.28884837 -0.20242229
  0.20053534  0.2280396  -0.0723739  -0.15506884 -0.39691672  0.2420746
 -0.1559027   0.21772107  0.18008205 -0.07838088 -0.04249766 -0.08855487
 -0.22577615 -0.14107463]
[ 0.06605651 -0.06968771  0.11413321 -0.40702173  0.16361675 -0.11014221
 -0.12285488 -0.18673079 -0.15011363 -0.09483092 -0.12010475 -0.2626335
  0.15430209  0.01258773 -0.13822177  0.04580963 -0.2226969   0.23266825
  0.19651105  0.11797591]
[-0.04999578 -0.12072031 -0.31192926 -0.3234704  -0.04186617 -0.14121827
 -0.0200814  -0.57716626  0.16844957  0.11677708  0.19072002 -0.48419595
  0.33020034  0.01424512 -0.12062538  0.03813849 -0.08998817 -0.1409511
 -0.06623313 -0.06574912]
[ 0.16410641  0.23067702 -0.27486366 -0.84017503 -0.06450078  0.33451176
 -0.20783134 -0.1186319   0.17425807  0.09514315  0.3608051  -0.14392297
  0.30627382 -0.0895578   0.41196954  0.10142867  0.14722005  0.12252279
 -0.01821399 -0.1026134 ]
[-0.12251435 -0.04675145 -0.1174038   0.35684574 -0.10267843 -0.02964818
  0.02754284  0.08615355 -0.10184783 -0.01463146  0.12882936  0.23514935
  0.00115826 -0.08221551 -0.03579995  0.00431561 -0.35129356 -0.17508732
 -0.33263153 -0.01895784]
[ 0.17706825  0.16591695  0.00260253 -0.12385716 -0.02114747  0.00502871
  0.3786289  -0.09665765  0.01014887 -0.11808401  0.08702487 -0.08572879
  0.05599509  0.04354836 -0.35394874  0.01352084  0.31388238  0.1940746
  0.08472044 -0.04397903]
[ 0.39775297 -0.20687227 -0.20353055  0.23154017  0.0552365   0.10125273
  0.21129991 -0.316608   -0.09307391  0.01789374  0.05873786  0.09917422
  0.34777984  0.20428877  0.17800348 -0.28189617 -0.23638245  0.2537448
  0.1077749  -0.40671828]
[ 0.07888214  0.23849757 -0.0802554  -0.38554505  0.06221336  0.01178386
  0.17919055 -0.13001296  0.05094918  0.24168684  0.07691468 -0.45901364
  0.26994205 -0.07858379 -0.32183388 -0.28465953  0.14431028 -0.01575971
  0.14626946  0.11213896]
[ 0.06159991  0.11692704  0.12384807 -0.42837209  0.36464813  0.04803886
  0.28248972 -0.3478648  -0.02474809 -0.26249254  0.05521012  0.05285075
  0.51191986 -0.11818063 -0.11505809  0.15629898  0.2298991   0.2597196
  0.29352236 -0.11510441]
[-0.28755495  0.33793455 -0.31202483  0.18127064 -0.06826136 -0.09393029
  0.37041244 -0.12113345 -0.01976479 -0.09961101  0.10357624 -0.19117138
  0.16408655  0.18008597  0.21702895  0.05497597  0.20031951 -0.03490904
  0.05409295 -0.15343525]
[ 0.19299845 -0.07306644  0.19351405  0.52022785 -0.12817757 -0.42696998
 -0.22297765 -0.04432679  0.15284665  0.20915703  0.2059856   0.12575671
 -0.11693156  0.02977162  0.04267576 -0.35597086 -0.14346988 -0.26778743
 -0.01581356  0.17348102]
[-0.02300464 -0.04680108 -0.16298735  0.08916901  0.08376247  0.30120018
  0.17367886 -0.40711868  0.23725913  0.07568501  0.33909062  0.298093
  0.0928126  -0.22653511  0.10058737  0.23690434  0.01213     0.08985252
 -0.02826283 -0.22501521]
[-0.03853809  0.20492606  0.2359991   0.11411898 -0.1611322  -0.14404121
  0.04002341  0.01159749 -0.03713991  0.15000919 -0.08361301  0.25536177
 -0.12470835 -0.12157346  0.16980655 -0.19711617 -0.15398084 -0.5302307
 -0.19034302  0.33584633]
[ 0.03114358 -0.17485824 -0.35734832 -0.55576754 -0.06127562  0.34769875
  0.35146955 -0.03549158  0.1481715   0.1982642   0.14866136  0.02923541
  0.04551371 -0.18334903 -0.07485729  0.20269912 -0.1582569  -0.06389023
  0.40662515 -0.22609195]
[-0.02871421 -0.01500379  0.007775    0.17555492 -0.00567813 -0.24914293
 -0.4740639   0.3116606   0.05787524 -0.0223573   0.05981392  0.25963867
 -0.47181806  0.2558519   0.1687547   0.22866523 -0.06351727 -0.24860692
 -0.1084825   0.27488968]
[ 0.28667575 -0.26354492  0.1490826   0.1582094   0.00472226 -0.19239852
 -0.14186966 -0.21209325  0.1584145  -0.19810528  0.14973678 -0.04119589
 -0.00148619  0.14378957 -0.14430326 -0.15340497 -0.05408492  0.2981273
 -0.21006867 -0.12702402]
[ 0.07199596  0.3752143  -0.12181452 -0.18628468 -0.26113456  0.15068483
  0.27596197  0.16338943  0.19448122  0.24512151  0.31080782 -0.07922811
 -0.2395379   0.12726279 -0.5193255   0.1186641   0.32566732 -0.09540097
  0.35714266  0.12858514]
[-0.3373246   0.13338119  0.06457568  0.4010616  -0.42815742 -0.151418
 -0.17612278  0.07266372  0.01223395 -0.06093151 -0.33052042  0.3714241
 -0.20182844 -0.18850791 -0.07740574  0.09046695 -0.18237537  0.06770061
  0.18758415 -0.10844211]
[-0.00795412 -0.06469388  0.25377905  0.6549592   0.0042098  -0.34792385
 -0.04679456  0.32343057 -0.03576707  0.3256884  -0.18204851  0.05925186
 -0.478661   -0.08202058 -0.16407034  0.19100879 -0.02211192 -0.26994288
 -0.21636164  0.14936547]
[ 1.0187675e-01 -1.1305428e-01  2.3064476e-01  7.3734105e-01
 -2.0913696e-01 -4.4883716e-01 -4.8798817e-01  2.3373508e-01
 -1.7699918e-01 -3.2482557e-02 -2.1289370e-04 -9.6490487e-02
 -5.4881074e-02 -9.0599500e-02  9.0893276e-02 -1.9752505e-01
  9.2833139e-02 -2.3459597e-01 -9.9443339e-02  1.0961457e-01]
[ 0.18217629  0.32797784 -0.05477471  0.15386844  0.31575406 -0.11739331
  0.48900393  0.18096668  0.3089536   0.06594636  0.15054946 -0.16290967
  0.17247587  0.16967955 -0.03377058 -0.18923852  0.04010512  0.20089267
 -0.02214677  0.0913928 ]
[ 0.03967133 -0.16748866 -0.2605407   0.06009734 -0.14945221 -0.06620658
  0.24272847 -0.4116909  -0.22431035  0.0822871   0.2718091  -0.03459376
 -0.01657491 -0.03915285 -0.08520155  0.07398828  0.14532194 -0.300042
 -0.13484     0.19655333]
[-0.14529863  0.05681142  0.12151843 -0.34590793 -0.19134678  0.3192752
  0.02134202 -0.26091683  0.03368624 -0.16634981 -0.01779616 -0.17690472
  0.32559526 -0.00081652 -0.03565884  0.19901103 -0.06017412 -0.04028922
 -0.2834168  -0.19046937]
[-0.18644772  0.09416003 -0.35306358 -0.5096783  -0.08524261  0.21301797
  0.42254397 -0.19486825  0.21410732  0.03682404  0.123304   -0.15174049
  0.261074   -0.11217392  0.1111892   0.29824126  0.24451403  0.1551593
  0.32301676  0.08184378]
[-0.25720787 -0.09175177  0.0615697   0.08903698 -0.24875663  0.08472939
 -0.05328558 -0.00238362  0.17788361  0.3389764  -0.22012848  0.17203295
 -0.06324067  0.08112974  0.00281262  0.02992523 -0.25634822 -0.39761704
 -0.2714267   0.06253171]
[-0.06292292 -0.12748984  0.09374173 -0.24836385  0.15818764  0.13949606
 -0.4971129   0.42171466 -0.24625859  0.05235184 -0.24817216  0.07443343
 -0.30274987 -0.14128928  0.02180908 -0.00264046 -0.16616133  0.10681001
 -0.18594441 -0.2616797 ]
[-0.1823756   0.39799958 -0.19016394 -0.49340987 -0.1847251   0.48457345
  0.11864812 -0.10707556 -0.03435808  0.13342714  0.17689033 -0.16120861
  0.11175681  0.1802541  -0.19798549  0.06279178  0.15744764  0.48192742
  0.20409586 -0.02032248]
[-0.35110494  0.15754466  0.23560415  0.5300054   0.045777   -0.29440644
 -0.09105003  0.48734787  0.06467774  0.27343997 -0.18546389  0.22332314
 -0.3486375  -0.15228552  0.15300912 -0.03870316  0.12769495 -0.4354458
 -0.04231468 -0.25590423]
[-0.04846876  0.1690121  -0.07002643 -0.7505144  -0.05370737  0.39450806
 -0.08683908 -0.13177277  0.00143214 -0.0899276   0.04101266 -0.32081848
  0.0985689  -0.14094792  0.16324383  0.06635481 -0.01507266  0.11293853
  0.03511651  0.24948543]
[ 0.1622099  -0.17866322 -0.10106728  0.24968943  0.09244458 -0.22059563
 -0.12256514 -0.15511924  0.03613358 -0.17440136  0.02871037 -0.20258173
  0.13150835  0.13841093 -0.07313757 -0.12561579 -0.17257169 -0.11814565
 -0.2128238   0.08113884]
layer 5 Activation
tanh
layer 6 Dense
20 1
[0.05748083]
[0.07662041]
[-0.01502761]
[-0.00964731]
[-0.00545643]
[-0.00983547]
[-0.00854148]
[-0.02215491]
[0.01004547]
[-0.0384694]
[-0.03598945]
[0.07654004]
[0.07147285]
[-0.0022156]
[-0.02615455]
[-0.00084016]
[-0.00014092]
[-0.02573278]
[0.0246098]
[-0.0227666]
[0.15982318]
