layers 7
layer 0 Dense
20 20
[-0.15770927 -0.16108686  0.1450715  -0.2968248  -0.09318966  0.20157194
 -0.04894695 -0.02062524  0.37725562  0.11995027  0.21717417  0.20310752
 -0.05734046 -0.18616371  0.18668354 -0.21143456 -0.11435626  0.1769397
  0.00410153  0.20626573]
[-0.6089889   0.2012931  -0.04670594  0.11916233  0.6173476  -0.12451255
  0.17814434 -0.18221723  0.18887092 -0.13889273 -0.18420656 -0.00438384
 -0.1707339  -0.1930663   0.40556642  0.40279195 -0.09336624  0.02092565
 -0.8371325   0.58043516]
[-0.6154377   0.34700274 -0.1835414   0.6915592   0.3533434  -0.11962824
  0.34354505  0.13419709  0.11302043 -0.21066454  0.03323484 -0.14084953
 -0.58761513  0.08468881  0.1435714   0.3417601   0.27236295  0.15470709
 -0.6332177   0.14533176]
[ 4.09110457e-01 -1.53571665e-01  1.12257876e-04  1.24292642e-01
 -8.36009458e-02  2.99660623e-01  1.89736128e-01 -1.22518362e-02
 -9.66381878e-02 -2.34345213e-01 -1.29475400e-01 -7.74500743e-02
 -1.09959744e-01 -1.22407377e-01 -1.86748832e-01  3.03378552e-02
  1.40084876e-02 -2.32759774e-01 -2.83256799e-01  1.69109970e-01]
[ 0.15416762 -0.2734908  -0.02324996  0.15530793  0.3493837   0.5850876
  0.11159206  0.12753075  0.08528767  0.13025379 -0.24367355  0.41985843
  0.23878814 -0.44167155 -0.41460654 -0.20058665  0.19621384  0.04449826
  0.15416853  0.04627419]
[ 0.6775514  -0.33964944  0.08601645 -0.3838375  -0.68679035  0.5325955
  0.16492309 -0.42793578 -0.33938003 -0.399907    0.29708943  0.42653492
  0.08084102  0.33108708 -0.41448566 -0.45445624 -0.2669018  -0.55686027
  0.24430206 -0.40340814]
[ 0.52879554 -0.06362939  0.47227177 -0.40903223 -0.47763893  0.7311105
 -0.04017582 -0.4388225  -0.31793892 -0.3279111   0.26617786  0.45633477
  0.28574592  0.2236771  -0.6050949  -0.12574768 -0.19238219 -0.25620908
  0.21497047 -0.68011945]
[ 0.07490468 -0.1887513   0.5214542   0.13233173 -0.05619252  0.02870128
  0.22183615 -0.01038921  0.23312508  0.01787036  0.23750688  0.20243889
 -0.03378667 -0.0260148   0.22182514 -0.18803382 -0.17625113 -0.23703665
  0.02081048  0.18079789]
[ 0.51847726 -0.24191466  0.0154333  -0.0767817  -0.25402728  0.44285703
  0.22407573  0.3403674   0.18538581 -0.25245452 -0.07407813  0.33611307
  0.33904585  0.09320662  0.08572291  0.37041464  0.2122415  -0.02653314
  0.04342776 -0.32748342]
[-0.08423648 -0.19855428 -0.28175303  0.0342503   0.16488665  0.59487146
 -0.18120949  0.13278612 -0.10778546 -0.05313814 -0.25594088 -0.18351828
 -0.25966018 -0.07846854  0.35805297 -0.23428723 -0.00474387 -0.07030489
  0.17479116 -0.03192764]
[ 0.44588536 -0.05030849  0.07973763 -0.10525651  0.01659309 -0.2508229
 -0.09800618  0.2142882   0.04741754  0.00752278  0.03443234 -0.09758543
 -0.15438765  0.00387616 -0.3751912   0.12862863  0.23503503 -0.3219672
  0.02585665 -0.13988554]
[ 0.26587236  0.24576722 -0.04183296 -0.41115052 -0.15191822 -0.39236888
  0.0027355  -0.3100146  -0.35140452 -0.03259889  0.09006519 -0.14426135
  0.33153507  0.00952242 -0.03005912 -0.07725525 -0.20633923 -0.27473912
  0.08112901 -0.05908468]
[-0.1442349   0.3503883  -0.1274673   0.03556808  0.24695644  0.34244418
  0.28530085 -0.2901549  -0.23308633 -0.18841848  0.16635334 -0.3268891
 -0.10239916 -0.31470945  0.25643057  0.29592443  0.03735828  0.2917037
 -0.5045976   0.1491849 ]
[ 0.22843578 -0.10403618 -0.08959352 -0.2421875  -0.34410617  0.0777474
 -0.00245434  0.23377216 -0.1549206   0.0060245  -0.23159868 -0.26826522
 -0.01662614 -0.19297394  0.14670499  0.09560885 -0.100894   -0.30477986
  0.12015901  0.5411092 ]
[ 0.11593499 -0.19331497  0.26086906  0.29720438  0.14614774 -0.5168641
  0.12891893  0.23035976 -0.11110099  0.05820666  0.2544277   0.16020134
  0.26487902 -0.04383059  0.19847146 -0.26922017 -0.24263611 -0.27082106
  0.29905403  0.34110957]
[-0.09427959  0.55812055 -0.26277763  0.03098424 -0.27637196  0.03277439
 -0.05708942 -0.17378959 -0.16495045 -0.6530347   0.21806116  0.34082508
  0.4994315   0.00953542 -0.03629005 -0.05335877  0.23761353  0.31779495
 -0.17965512 -0.18625943]
[ 0.17222194  0.19007863  0.48183936 -0.10474044 -0.17590335  0.18762982
  0.34558252 -0.20895338  0.14870742 -0.32845503 -0.20029028  0.10890368
 -0.25178477 -0.43082625 -0.09986548 -0.32989678 -0.15785481  0.3823848
  0.17804055  0.0853834 ]
[-0.21033339 -0.13431774  0.17500877 -0.25605664  0.4512088  -0.42631418
 -0.16037792  0.23960984  0.10490799  0.13521902 -0.2633289   0.0892618
 -0.06339989  0.1981405  -0.11327317  0.21848758 -0.03225016 -0.01250023
  0.16869701 -0.45559558]
[ 0.222932   -0.4052948  -0.52271664 -0.11269135  0.05447038  0.49724334
 -0.01414605  0.28873894  0.36246955 -0.08316352 -0.15991133  0.07042197
 -0.36213258 -0.14762078 -0.16969886 -0.11794999  0.5313885   0.31305754
 -0.33232692 -0.08223116]
[-0.35471413 -0.04647136 -0.01322612  0.37738678  0.16274585 -0.01575223
 -0.46661285  0.22648063 -0.36053243  0.14187714  0.03155479 -0.32890025
  0.20518485  0.22598393 -0.10101384  0.1461746   0.34875792  0.15771256
  0.11942445  0.149162  ]
[ 0.04455089  0.04152001 -0.18559851  0.09419326 -0.15271617 -0.16103557
 -0.1335103  -0.1897915   0.05402803 -0.16867007  0.01895643  0.02535348
  0.02995745  0.03485743  0.1206921   0.01743624 -0.02075714 -0.05743386
 -0.09689882  0.1825942 ]
layer 1 Activation
tanh
layer 2 Dense
20 40
[-0.01233429  0.16099808  0.08324451 -0.10341509 -0.35718465 -0.17591505
 -0.02855529 -0.07017076  0.26604933 -0.15415154 -0.06435838 -0.17769715
  0.01679474 -0.13764772  0.07248811  0.18861742 -0.12687886 -0.02926376
 -0.05613088  0.12100986  0.20789729 -0.11606136  0.14823867  0.05148757
 -0.1022866   0.0591768   0.097972   -0.03080428  0.00534132 -0.20962068
  0.10619361 -0.07724731  0.04977484  0.0604347  -0.0147081  -0.14043854
 -0.11767016  0.1014697  -0.14323795  0.23086822]
[-0.192417    0.08253326  0.1906597   0.23573466 -0.04955861  0.19329229
  0.14016409  0.22302693  0.10351805 -0.08146814  0.02790559  0.11117071
 -0.1712605   0.23144293  0.17254616 -0.3291839   0.05054523 -0.06201143
 -0.02882596 -0.0054604   0.13986379  0.20060013  0.16929157 -0.12036828
 -0.02567039 -0.2465927   0.27830562  0.12662403 -0.04592023  0.24748431
 -0.24602446 -0.1817498  -0.06613445  0.24877863 -0.08550376 -0.09378072
  0.19363794 -0.11032139 -0.16047227 -0.1830966 ]
[-0.06874892  0.08181738  0.2981253   0.05026487  0.02171051 -0.05351016
  0.03721724 -0.21987636 -0.1384255   0.22665206  0.11437243 -0.23216666
  0.06632337 -0.00556671  0.0463194   0.06689388 -0.04551506  0.18469492
  0.23629165 -0.07251472  0.10396527 -0.00648566 -0.23533233 -0.06622609
  0.07864252  0.18794401  0.16187504  0.06351739 -0.16283014 -0.23812093
 -0.36777315  0.20024206 -0.09789334 -0.10097077 -0.12237024 -0.00468083
 -0.14161167  0.24557014  0.06871537  0.00899255]
[ 0.05675296  0.14428408  0.03136033  0.21437643  0.12039041  0.0992825
  0.19712804  0.08066661 -0.10463032 -0.05560423 -0.08917259  0.22718069
 -0.15620206 -0.01040689 -0.12372615 -0.2527838  -0.10908804 -0.11494399
 -0.07366323 -0.16377774 -0.18741983  0.19533856  0.05445144 -0.09769911
  0.10384889  0.02005846  0.0426209   0.04770796  0.20071036  0.18667834
  0.15036827  0.07197857  0.05275422  0.18950732  0.0416269   0.09362065
  0.02372643 -0.22480363 -0.1232212  -0.01885052]
[ 0.05280052 -0.1093221  -0.16907416 -0.2533516  -0.18897286 -0.02338124
 -0.1869956   0.22971356  0.04599158  0.17302606 -0.01432658  0.067078
 -0.15737489 -0.16377506  0.15457638 -0.14274     0.09596973  0.0108853
  0.00068909  0.1634079   0.02789854 -0.29678118  0.12511171  0.0147712
  0.01993355  0.14012752  0.1122174   0.08807441  0.09015574 -0.09087085
 -0.20888998 -0.12259448  0.12551501  0.03359051 -0.1075572  -0.12140595
 -0.09872537 -0.11949968  0.30435535  0.16807465]
[-0.23175701 -0.12115695  0.2884094  -0.12013938 -0.01430507 -0.00660007
  0.01644913 -0.15519051 -0.14085175  0.08610386 -0.12944731 -0.16341606
  0.19675648  0.03389956 -0.07344522  0.14806537  0.1819054  -0.0448899
  0.28097847 -0.30581328  0.00437769  0.08247693 -0.01566153  0.03642042
  0.1918096  -0.01597476  0.07934802 -0.07960268 -0.08133502 -0.3067756
 -0.15483427  0.1924074  -0.06423474  0.0105945   0.01423281 -0.00342891
 -0.1330017   0.20762669 -0.22187594 -0.04006476]
[ 0.04674788  0.26665026 -0.11803981  0.16061905 -0.35582998 -0.02842631
  0.21049292  0.05064141  0.03077394 -0.29912844 -0.09392918  0.03085697
  0.06631374  0.02460391 -0.15102611  0.07878835 -0.20210855 -0.19502361
  0.02982896  0.1507673  -0.30129835  0.04125633  0.08797156 -0.0876032
  0.06523024 -0.03248515 -0.03770812 -0.04709985  0.06980371 -0.08050302
  0.13453399 -0.00246176  0.24246645  0.3068089   0.19253811 -0.13860397
 -0.04066875  0.21498983 -0.04373899 -0.08339874]
[ 0.11897887 -0.10533654  0.08623859  0.13147525  0.13797744 -0.12093589
  0.22418249 -0.05946836 -0.12319458  0.05958055 -0.03028589  0.03670714
 -0.13470575  0.0359759  -0.22544499  0.12530118  0.0772847  -0.14772256
  0.27221182  0.04318526  0.05188527 -0.088811   -0.18312116  0.10983155
 -0.07561181  0.0535896   0.04305854 -0.32460982 -0.00865086  0.25914335
 -0.14168848 -0.13488789 -0.21636195  0.12358591 -0.1031142   0.04320792
 -0.00812803 -0.02964599 -0.16437684  0.06842154]
[-0.12976305  0.19498162 -0.17087533  0.00685047  0.16192514  0.1172789
  0.04128354  0.15290312 -0.1224689  -0.26597106 -0.03608863 -0.2244538
 -0.06757244 -0.14228751 -0.15230986  0.03137513  0.13870372  0.19634323
  0.23558497  0.11115245 -0.06491312  0.07796506 -0.24098492  0.16188827
  0.0560918  -0.20736545 -0.15540357 -0.20483112 -0.21710306  0.16793182
  0.11608381 -0.13121034  0.19521005  0.12831697  0.086335   -0.15806392
 -0.3005696  -0.00432396  0.06891171 -0.03718013]
[-0.06028008 -0.02399444 -0.02769857 -0.2033072   0.07832512  0.07150169
  0.00329747  0.04828749 -0.14279886  0.01356969 -0.0796745   0.00552545
 -0.14838672  0.19836707 -0.09250889 -0.0367811   0.00255224  0.02439375
  0.17100374 -0.20605735  0.11595067  0.14173923 -0.16202407 -0.12183738
 -0.17079252 -0.14361167  0.05198337  0.2820466   0.14574346 -0.19893791
  0.12978365 -0.00339295 -0.23170312  0.07445589  0.03707522 -0.19577494
 -0.09113004 -0.06560295 -0.18163611 -0.06369061]
[ 0.04294977  0.02708008 -0.03761218  0.07548702  0.11084342 -0.12895736
 -0.06969875 -0.12615193 -0.02300942 -0.05632611 -0.11631101 -0.12607321
  0.28981245 -0.11748841  0.04275472 -0.20628282  0.06256013 -0.20807768
 -0.0865015   0.07335511  0.07375997  0.14310111  0.09496672  0.18506193
  0.01006545  0.18227841  0.19991912 -0.22993729 -0.07667027 -0.00257624
 -0.18035851 -0.05797388  0.07416487  0.00851566 -0.01131126  0.03426007
  0.11191571 -0.07555614 -0.10032089  0.06703074]
[ 0.03832204  0.12479771 -0.12749635  0.06460769 -0.20037946  0.07603133
  0.02567702  0.01842435  0.01788888 -0.04607093 -0.13530272 -0.1065378
 -0.03881587  0.09756272 -0.10372405  0.0496391   0.04143314 -0.13952671
 -0.11259885 -0.17670897 -0.02997423 -0.04940903  0.05300095  0.07607172
 -0.05483526 -0.1125018   0.09128196 -0.29915908  0.05088996 -0.15151082
 -0.10157833 -0.13269189 -0.24215887  0.04225415  0.00383104  0.08070057
  0.00207505 -0.10621189 -0.24020132  0.3618752 ]
[ 0.14966027 -0.20044352  0.11921763 -0.14303458  0.20431556 -0.01786407
 -0.13514528  0.11918114  0.07167123  0.07264696  0.03543796 -0.17674159
  0.24249704  0.04557814  0.04710475  0.0417821  -0.05586353 -0.2098071
 -0.0862866  -0.06045746 -0.00327151  0.15707669  0.1001985   0.03465216
  0.0984648  -0.07852474  0.04701537  0.02720862  0.17150444 -0.15186228
 -0.20619857 -0.08919723 -0.07694604 -0.01408872  0.03020801 -0.0871797
  0.19236133  0.2499573   0.1297939   0.14284515]
[-0.15387917  0.16613032  0.21610007  0.10187788 -0.27968127 -0.29779583
  0.19018394 -0.27261317  0.04635668  0.07500656 -0.01995164  0.04048634
  0.34629434  0.00646671  0.2756667  -0.11851162 -0.07046974  0.1344441
  0.15118381 -0.03362421 -0.19988067  0.10765754 -0.12436025 -0.06309944
  0.07734958  0.25000894 -0.05929293  0.04215871 -0.08259501 -0.26309583
 -0.0262235   0.19967441 -0.11302628  0.04926648  0.20817202  0.0698991
 -0.13482648  0.09799518 -0.01693076  0.26151127]
[ 0.11977689 -0.16373304 -0.00087331 -0.15090685 -0.08333933 -0.17362565
 -0.07997361 -0.00178769  0.03114845 -0.1945113  -0.06759234  0.02391653
 -0.11326372  0.10352064  0.15663469 -0.03803436 -0.13404754  0.16470324
 -0.08217378 -0.16405411 -0.03852691 -0.25025883  0.24135669 -0.25460613
 -0.06385702 -0.0142041   0.00137976 -0.2623607   0.07853983 -0.24792281
 -0.11817639 -0.05911028 -0.13170159 -0.11438417 -0.14908732 -0.14784336
 -0.23008612 -0.09210806 -0.07230395  0.22816412]
[-0.04093163 -0.13153794 -0.03525814  0.03042229 -0.00829981  0.21695568
  0.19004335  0.04529382 -0.27531028 -0.08877606 -0.07899539 -0.03903451
 -0.05736856  0.01448482  0.0420593   0.11411266  0.07735731  0.1683818
  0.18686695 -0.19086911 -0.07709932 -0.16349341  0.13489242 -0.12890948
  0.07685559  0.06636401  0.18132645 -0.00309688  0.06797416  0.03036054
  0.05339176 -0.0741626  -0.11276549  0.00604519 -0.11652688 -0.11292642
  0.06879676  0.04787108  0.12334787 -0.08763437]
[ 0.2180544   0.13736351 -0.03089417  0.01800734  0.07726267 -0.24124789
  0.01497115  0.06768192  0.17015015 -0.01478434  0.10634413  0.04011488
 -0.06475585  0.04814795  0.17106655 -0.19430883 -0.03079048  0.1472734
  0.13218075  0.13097706 -0.02128937 -0.1516998   0.0324311  -0.1012584
 -0.17803773  0.02936093 -0.03719769  0.01370317 -0.0913609   0.14568305
 -0.15219374  0.19317706  0.02970174  0.15907411 -0.09092008  0.05100701
 -0.03548035 -0.13982703  0.16351311  0.2539923 ]
[-0.06958235  0.02089801  0.14024056 -0.09760808 -0.12737471 -0.03366271
  0.02882148 -0.09667396 -0.02036158  0.06201977  0.00343904 -0.05433642
  0.1988316  -0.16274393  0.00467217 -0.23370555 -0.18227807  0.25743788
 -0.0186639   0.16559769 -0.01510556  0.10657533  0.19093871 -0.16425842
 -0.02574218 -0.01308018 -0.08565227  0.02797429 -0.08409204 -0.03028593
  0.03943073 -0.19555572 -0.08728544  0.07694387 -0.16161303  0.09874862
  0.14727972 -0.02408367  0.09517754 -0.11594402]
[-0.07179763 -0.01658283 -0.08342306 -0.19703355 -0.06696634 -0.00230167
  0.00242987 -0.10708836  0.17189488 -0.02428488  0.16891545 -0.26802707
  0.20661244 -0.3427341   0.02692913 -0.24251574  0.04475044 -0.06105972
 -0.15839969 -0.23795885 -0.19700131 -0.10512068  0.08628036 -0.21483882
 -0.30607587 -0.10886007  0.23414846  0.11732092  0.12834358  0.20455849
  0.06924502  0.11313143  0.08862506  0.06225615  0.03347623 -0.08679118
 -0.20755808  0.08821354 -0.22081016 -0.00293035]
[-0.02755358  0.06611041 -0.19288868 -0.16504903 -0.15550159  0.19346201
  0.0230932  -0.13911493  0.09925934  0.01052353 -0.03379952 -0.09428319
 -0.10621691 -0.16109063 -0.18435574 -0.02302026  0.08150102  0.11289094
 -0.25983578  0.1537792  -0.08580941 -0.00619874 -0.16196762  0.05134134
 -0.09218511 -0.06359734 -0.23928027  0.10051772 -0.22476007 -0.20168959
  0.16531485 -0.2806234  -0.11331305  0.1238656  -0.00521731  0.0658737
  0.171181    0.09348134  0.2959908   0.05307276]
[ 0.07019079  0.131608   -0.15048744 -0.02719698  0.08065151  0.0296342
  0.04465006 -0.07058009  0.06350303 -0.0632092  -0.02532456  0.0139674
  0.01087548 -0.05230898 -0.13101847  0.0751527   0.01205586  0.02359713
 -0.0483399  -0.018651   -0.02505919 -0.00242719  0.05129252 -0.00092063
  0.0045222   0.03770065 -0.06092735  0.0141818  -0.02086424 -0.01069347
 -0.00164324 -0.05227617 -0.01516202 -0.02105393  0.02214568  0.01146385
  0.10064062 -0.07534526  0.05744277  0.02518641]
layer 3 Activation
tanh
layer 4 Dense
40 20
[-0.23507863  0.03244017 -0.2117406  -0.03734299 -0.24271134  0.19258592
 -0.1836956   0.12408695 -0.14427122 -0.07815579 -0.29372096 -0.01939777
 -0.20902486 -0.19131792 -0.10196771 -0.02700205  0.28244534 -0.02078132
  0.20500715 -0.20948605]
[ 0.24251723  0.06552301  0.12891147 -0.07666905 -0.10550618  0.1312826
 -0.14474691  0.2651068   0.04618932  0.13083921 -0.04062636  0.06501259
  0.29597476 -0.0969455   0.13459569  0.11265761 -0.17797656 -0.09645373
  0.08517586  0.10626511]
[-0.11681836 -0.12981984  0.04313975  0.10822017  0.11832961  0.14505719
  0.02027047 -0.17384513  0.20196167  0.06593409 -0.23673934 -0.05179513
 -0.25207534  0.11034855 -0.18150522  0.02330389  0.0507547   0.14231583
  0.08812776 -0.03895242]
[ 0.23378283  0.08385824 -0.11761042 -0.05231288  0.06682654 -0.10545447
  0.02609152 -0.24031605  0.10809691  0.14031844  0.13635106 -0.04924487
  0.05726344 -0.1922937  -0.16444536  0.06477844  0.16692564 -0.17801064
  0.05629632 -0.0141128 ]
[ 0.08707166  0.17631713 -0.17180455 -0.0898077   0.1358225  -0.11374905
 -0.29386327 -0.0156464  -0.16646436  0.21994653 -0.23494308 -0.14177388
  0.05536048  0.13198155  0.12105089 -0.06041764 -0.25451797 -0.20481376
  0.0176735   0.05191596]
[ 0.0377428  -0.08515259 -0.08830483 -0.01904006  0.06798423  0.19718081
 -0.15820256  0.03192098 -0.02074481  0.06005551 -0.06603223 -0.0768096
 -0.12316798 -0.08873196  0.07981224 -0.0096316   0.19748953 -0.01983507
 -0.20785181 -0.26654813]
[-0.11435449  0.09539401  0.17640029 -0.06053412 -0.02480275 -0.06021215
  0.10974262 -0.14772654  0.2598549  -0.13894637 -0.11478455 -0.10384139
  0.09818753 -0.16477375  0.1326885  -0.08956371 -0.18365867 -0.13706446
 -0.07240648  0.01624692]
[-0.15103625  0.17697151 -0.16644964 -0.04834357  0.05316105  0.02878241
 -0.11540781 -0.04027168 -0.02606124 -0.11269619  0.25813055  0.2289564
 -0.04320395  0.16618468  0.13117951 -0.18160114  0.12359057 -0.25847408
 -0.16431126 -0.1340068 ]
[ 0.09111112 -0.08262724  0.1082366   0.10347016  0.2226823   0.17058234
  0.0250676   0.274677    0.18206596 -0.12375025 -0.05970023  0.26846868
 -0.19332354 -0.2815733   0.22897285  0.11418604  0.20585975  0.12510844
  0.24702902 -0.1493016 ]
[ 0.06483215  0.09693594  0.05200511  0.00047594 -0.05950044  0.1777344
  0.08272111 -0.16259813  0.1255574   0.05140183  0.13977791 -0.02144853
 -0.02034562 -0.19121034  0.29377493 -0.14851582 -0.10624301 -0.0994608
 -0.0132649   0.08815488]
[-0.28231594  0.11875558 -0.09284626 -0.00298784  0.15809253 -0.11134812
  0.09673026  0.12185998  0.15264407 -0.10084333  0.01351287 -0.12559053
  0.00149731 -0.09803592  0.2115091  -0.12523657 -0.0355583  -0.16362306
 -0.15583733  0.17230074]
[-0.07077203  0.28995395 -0.21313983 -0.0946675   0.01757621  0.31817326
 -0.13717124  0.22789283 -0.20478888  0.28841618 -0.0320145  -0.0546641
 -0.11542701 -0.00273872 -0.0843857   0.01305974  0.13563122 -0.35870013
  0.23037343 -0.20777139]
[-0.22933297  0.05935743  0.16890132 -0.04976599 -0.05439775  0.18533637
  0.23838772  0.12459539  0.08960941 -0.11547936 -0.10361356  0.07312835
 -0.03253837 -0.13263069 -0.03950394 -0.24541086 -0.05367761  0.11423042
  0.30803046  0.32920277]
[ 0.12897627 -0.05502623 -0.16428727  0.00302469  0.01546601  0.10831251
  0.02554325 -0.20870489  0.13948673 -0.0280278  -0.06860097 -0.01444124
  0.18961018 -0.05219674 -0.1893575  -0.03417027  0.04730719 -0.07335005
 -0.1875039   0.17735651]
[ 0.18539569  0.16041169  0.10472968 -0.11213553 -0.12771805 -0.17860368
  0.18877678 -0.26666534  0.2155084   0.00161635  0.04486298  0.2845134
 -0.28983036  0.14560127 -0.10757154  0.00342968 -0.14157867 -0.180057
 -0.02205173 -0.01638227]
[ 0.11873937 -0.25241214  0.20041189 -0.06616465  0.21206145  0.09963661
  0.11463401  0.1619904   0.11593836 -0.17435941  0.23407564  0.02186646
  0.15648039  0.10187261  0.30237994  0.08928402 -0.11245549  0.36219415
  0.09602841 -0.08963573]
[-0.00647623  0.10530149  0.10181255 -0.08178318  0.15313311  0.15954678
 -0.13745758  0.04138101  0.11058708 -0.1442323   0.1593861  -0.09206398
  0.16688293  0.03775806 -0.02989321 -0.02038902 -0.24624996 -0.06386705
 -0.05342864 -0.22997299]
[-0.10888977  0.30294532 -0.01819877  0.03393922  0.23051837  0.00074522
 -0.02580388 -0.07058208  0.03932502 -0.02939822 -0.14044613 -0.05599996
  0.08740041 -0.03590789 -0.00669641 -0.03943887  0.11948583 -0.32196027
  0.25747436 -0.09124266]
[-0.1501108   0.00599555  0.07621263 -0.02547705  0.12011301 -0.01899821
  0.1914358   0.10493071  0.11039874 -0.02644615 -0.19538862 -0.04748455
 -0.25893617 -0.01717919 -0.07003134  0.14974855 -0.30735326  0.20837279
  0.25215092  0.07143579]
[ 0.1306749  -0.01380344  0.09015487  0.03061586  0.19738139  0.05887908
  0.14208266 -0.17187275 -0.36128324 -0.25977498  0.12577884 -0.08119489
  0.34706658 -0.01255038  0.15332156 -0.08952677 -0.09385969 -0.08280998
 -0.18662514 -0.3448626 ]
[-0.12188791  0.20862529  0.17572579 -0.01134243  0.15985249 -0.02378714
  0.18465686  0.05876093 -0.01732164  0.10577762  0.21476203 -0.03841748
  0.06068336 -0.12299873 -0.09952343  0.08218529  0.20086183 -0.27682802
  0.13239658  0.20459221]
[ 0.04646046  0.24218106 -0.21791139  0.07383451  0.16676185  0.06757989
 -0.09062904 -0.20630428 -0.00537092 -0.08848489  0.15647541  0.21537633
  0.15545559 -0.20403583 -0.04033588  0.03353487 -0.16798544 -0.23445363
 -0.08766899 -0.26718923]
[ 0.16504848 -0.08617609 -0.11599212  0.02644254  0.26100445 -0.0441913
 -0.21325669  0.31530204  0.18076771  0.19189468 -0.08728458 -0.11165234
  0.14692368 -0.12383906 -0.14313476  0.02732046  0.12353697 -0.02155719
 -0.1696557   0.09639759]
[-0.23859401  0.19671628  0.0954928   0.01926102  0.02951044  0.00644038
  0.21714579  0.07016456  0.09992027 -0.2058451  -0.19445595 -0.06047855
 -0.20572989  0.0387725  -0.0863132  -0.11948372  0.14080065 -0.23468462
 -0.01495177  0.29918724]
[ 0.11142633  0.10230983  0.20371945 -0.08002006 -0.24343522 -0.13009138
 -0.03961252  0.08797742 -0.00220997  0.08645011  0.21716188 -0.15359977
  0.00336929 -0.09632099  0.04246328 -0.12435102  0.21769808 -0.1740426
  0.18825285  0.2508397 ]
[-0.18275806  0.0601344   0.1010254   0.02841879 -0.04572181  0.12665647
  0.23278461 -0.24794587  0.08172245 -0.1745748  -0.15892956 -0.00082063
  0.10905468 -0.14312696 -0.00736069 -0.19076829 -0.06125455  0.00607135
  0.02403405  0.2529598 ]
[ 0.07913449 -0.05500641 -0.19759473  0.00425698 -0.22855306 -0.0830723
 -0.18430695 -0.2612979  -0.07576213  0.04839679 -0.11560426  0.10409337
 -0.0306781  -0.25939247 -0.09737275 -0.13792014 -0.06125167  0.1260437
  0.00737086  0.2291017 ]
[-0.23076528  0.14520398 -0.10504261 -0.12565763 -0.13038532  0.02082443
  0.16498147 -0.21942645 -0.22263378  0.03505661 -0.07663193 -0.17122318
  0.17093354  0.06857274 -0.09187228 -0.06119292 -0.17877606 -0.23140879
 -0.00841775 -0.0146181 ]
[-0.16789903 -0.21554686 -0.01522866  0.16633175 -0.2071763   0.21246006
  0.1427593   0.06157745  0.06945336 -0.07080223  0.08500359  0.09247272
  0.01833364  0.05642238 -0.03262625 -0.01738532 -0.06354301  0.23033088
 -0.13714251  0.05609216]
[ 0.00404024 -0.00089487 -0.07174025  0.20467435 -0.3315466   0.07719711
  0.27058434 -0.02037265 -0.08421002 -0.0426872  -0.05482581  0.1761976
 -0.02622579 -0.02533025  0.09680472  0.06415837 -0.09265296 -0.18732385
 -0.14334512  0.08591371]
[-0.100315    0.19118315 -0.00568796  0.04341701  0.23954695 -0.07395703
  0.26501366 -0.04362931  0.1157803   0.16948481 -0.23764893  0.06834368
  0.20606619 -0.01467979 -0.07703216  0.01409778  0.0004173  -0.23798627
  0.08566508  0.192516  ]
[-0.23100065  0.11623807 -0.29474524  0.07244787  0.21402377  0.02879647
  0.00754908 -0.15384632  0.02100569 -0.00708913  0.07529691  0.08163047
 -0.00782313 -0.14386871  0.16528836  0.00298485 -0.1401759  -0.03103588
  0.15758298  0.13694037]
[ 0.01250411 -0.00471269 -0.04126123  0.1847183   0.19014156  0.12222349
 -0.21850884  0.02850599  0.21676812  0.002058   -0.01951023 -0.03666097
  0.12395781  0.03642514  0.04293979 -0.06195597  0.12903081 -0.08973211
 -0.15135913 -0.20878515]
[ 0.23332646 -0.24967271 -0.03899614  0.03528635 -0.12155315 -0.24067757
 -0.13223128  0.16880952 -0.18024507  0.05731132  0.1058014  -0.11599441
 -0.01385677  0.09910975 -0.21352896  0.10120205 -0.04939619  0.2485639
 -0.18501136  0.09085645]
[ 2.5517151e-01  5.4033408e-03  9.2061177e-02 -1.5639016e-04
  1.4956416e-02  2.6044837e-01  3.1124231e-01 -1.5926600e-01
  1.9114584e-01 -8.5953183e-02  6.6085514e-03  1.1052106e-02
 -1.9124019e-01  3.3544898e-01  6.9883741e-02  1.1028398e-01
  9.9300265e-02 -8.2849488e-02  1.0477526e-01  2.1290018e-01]
[ 0.10114355 -0.03953552  0.0362593   0.18616377  0.06120903 -0.10246253
 -0.21963538  0.081775    0.32304084  0.07436986 -0.14804205  0.05104296
 -0.01653245  0.08037378 -0.08917569 -0.13318919 -0.11418594  0.10555854
 -0.03086739 -0.17822357]
[-0.14431503 -0.13465367 -0.06464633  0.1405121  -0.26038808 -0.16532892
  0.01223345  0.24833648 -0.01214575  0.08025669 -0.31416714 -0.07548776
 -0.10015744  0.25366235  0.19096015 -0.03149842 -0.15791743  0.0797855
 -0.07627401 -0.18089765]
[ 0.08750368 -0.35821304 -0.12551579  0.2524163   0.13291013  0.03583412
 -0.24469152 -0.2266543  -0.18118805 -0.10756481  0.23779677 -0.14266042
  0.25702074  0.26583114 -0.13614903  0.18288967 -0.04945819  0.3979582
 -0.1886909  -0.14803748]
[-0.17232186  0.10580407  0.04844207  0.00581244 -0.04172302 -0.18000703
  0.23071781  0.16726758  0.16146904 -0.04152681  0.03528916  0.08034103
  0.07258548 -0.2460428  -0.21762739 -0.0041971   0.11231171 -0.15390831
 -0.27724695  0.21828201]
[ 0.1591315  -0.14148988 -0.17816949  0.17438477  0.17795047  0.1898791
 -0.1573103   0.02263626  0.00774673  0.05522697  0.26042384 -0.19404195
  0.15345718  0.00346538  0.04965158  0.1167971   0.12824307  0.08929482
 -0.18228537  0.19402266]
[-0.00358254  0.03883262 -0.00230358 -0.00848589 -0.00795311  0.00982057
  0.01291732 -0.00267148 -0.00465556 -0.01298754 -0.03499549 -0.05071413
  0.04361318  0.02522536 -0.00521476  0.03934851  0.00799573  0.05790151
  0.02719705 -0.01606102]
layer 5 Activation
tanh
layer 6 Dense
20 1
[-0.01074066]
[-0.09125423]
[0.00599991]
[-0.00035729]
[-0.00194105]
[0.01300305]
[-0.03531422]
[-0.0257914]
[0.00448074]
[-0.00355681]
[0.00239763]
[-0.00360691]
[-0.00733922]
[-0.00558639]
[-0.01611347]
[0.01613951]
[-0.01709664]
[-0.09488792]
[0.01232852]
[0.00659719]
[0.00804655]
