layers 7
layer 0 Dense
20 20
[-0.10744532  0.01916065 -0.3906115  -0.02427362 -0.25145274 -0.12607668
 -0.19836365 -0.04161509 -0.03750921  0.03149601 -0.09424948  0.04822923
  0.33397746  0.24191248  0.00404403  0.12535554 -0.04242718  0.07886738
  0.04219482 -0.07820545]
[ 0.15089725 -0.13173074 -0.38130897 -0.11991165  0.10232211  0.14899437
  0.21911184  0.43945736  0.28289422 -0.49691227  0.34096     0.0174599
 -0.31779483 -0.0322414   0.10523633 -0.13005415  0.08681116 -0.3719302
  0.24463812  0.28397393]
[-0.00284767 -0.23919031 -0.31389204 -0.11739476 -0.1976728  -0.2480616
 -0.23469009 -0.07574438  0.22811067  0.01099438 -0.1694866  -0.40131834
  0.0065142  -0.08735897 -0.58601975  0.35518155  0.10885993  0.23754273
 -0.0524942   0.2955577 ]
[-0.01950078 -0.61373514 -0.59789264  0.41615963 -0.28028625 -0.0554502
 -0.01813488  0.4683533   0.07877036  0.09151469  0.13467886  0.09830537
  0.22884114 -0.41047952  0.33294383  0.12045573 -0.02940182 -0.26829612
 -0.14652817 -0.10044579]
[-0.2777319  -0.08754073 -0.10486408  0.1187432  -0.26942372  0.31613177
 -0.28888056 -0.33089784 -0.41761833  0.2355491   0.34812137 -0.33145517
  0.02494744 -0.06086506 -0.10226779  0.14057475  0.01953832 -0.28216115
 -0.03809135 -0.09503718]
[ 0.33690035 -0.05318266  0.01086052 -0.4607069   0.11567505 -0.29409325
  0.19660275  0.1256285  -0.33941498 -0.15047167 -0.30351883  0.26662377
  0.07753751  0.04656912  0.04381165 -0.23977926 -0.06233932  0.08599671
  0.2369536  -0.12289121]
[-0.04665013  0.03127095 -0.30342516 -0.27675468  0.3686941   0.26220867
 -0.25427568 -0.313392    0.26997092 -0.0087819  -0.41938886  0.00884233
  0.5166699  -0.11512274 -0.04881241 -0.13803826 -0.05879168  0.12293848
 -0.31326675 -0.27378035]
[ 0.2654749   0.30066115  0.03119286 -0.4992052   0.4332782  -0.04330967
  0.37210253  0.418104   -0.106668    0.19976525 -0.33601677  0.13148434
 -0.34877437 -0.345099   -0.6711772  -0.09268999  0.55583686 -0.3646275
  0.07202584 -0.55263114]
[ 0.6347665   0.26464644  0.35915512  0.04008716  0.01895309 -0.15211631
 -0.3135945  -0.13460398 -0.5842319   0.05401294 -0.19759637  0.3211477
 -0.48939916  0.1174734   0.16116586 -0.09253132 -0.24840516  0.00721383
 -0.21059462  0.11332924]
[-0.14550377  0.45817837  0.03558411 -0.13537313 -0.0972588   0.6101617
 -0.0269027  -0.36006767  0.01593197 -0.29523262  0.12331165  0.40040815
 -0.28494847  0.11685245 -0.18030354  0.07529741  0.29525533 -0.29217547
  0.47991404 -0.36921737]
[-0.09187619  0.01143273 -0.42601895  0.0042467   0.02673778  0.5350126
  0.26183215  0.04788333 -0.29414693  0.12185995 -0.04845821 -0.3219343
  0.1577278   0.37942973  0.2960941  -0.28369755  0.20636855 -0.12207839
  0.11484856  0.04507216]
[-0.41909584 -0.36815193 -0.06901505  0.3459064   0.3500609  -0.6638698
  0.56186783 -0.32827684 -0.1639478  -0.04101795 -0.20764695  0.05521997
  0.15905191  0.02180232  0.45533586  0.32376203  0.12206765 -0.01599654
 -0.24539118  0.15239593]
[-0.04751453 -0.02439488 -0.3902923  -0.11333912  0.16929665 -0.19264477
  0.09249774  0.31804052  0.50804067 -0.39393678  0.01570315  0.24645904
  0.21049112 -0.00332608  0.14599794  0.24361235 -0.00185539  0.16246861
  0.0338592   0.25566524]
[ 0.05853473  0.14568472  0.24881294 -0.30416292  0.02557943 -0.3883513
  0.20098305  0.4494216   0.2442599   0.48568374 -0.15887715  0.47654092
  0.5859637   0.26097214 -0.39084274  0.37341967  0.09426068 -0.03842027
  0.08719756 -0.00947414]
[-0.47264108  0.00423725  0.43076512  0.15454409  0.21875288 -0.9776817
  0.22238897 -0.05096089  0.43534738 -0.6698861   0.42806107 -0.22489934
 -0.57429326  0.1823703  -0.00559208  0.10062387 -0.02810092 -0.32358673
  0.37590158 -0.23770207]
[ 0.17675905  0.95255864 -0.02410314  0.5155631   0.02343981  0.08510636
 -0.4540977  -0.03932635  0.4944219   0.52471113  0.11595863 -0.17837001
 -0.6169772   0.35604033 -0.49694645 -0.01855565  0.45954913 -0.29572988
  0.39728802 -0.03092959]
[-0.42969713 -0.12822892 -0.13020371 -0.30610204  0.25442588  0.14197129
  0.05018872 -0.43098056 -0.11409897 -0.28376824  0.4027797  -0.21859261
  0.38098118  0.02492434  0.46285126 -0.03838703 -0.31945732  0.24378017
  0.32835427  0.04196982]
[-0.30864272 -0.6818838   0.34669116 -0.05935132 -0.37630612 -0.013278
  0.11585865  0.07117158 -0.15589176 -0.15694444  0.13197134  0.12522358
 -0.19242144 -0.3845628  -0.05563368 -0.04622334 -0.20790146 -0.09195244
 -0.25099984  0.08023836]
[ 0.7089162  -0.32817778 -0.23083378  0.12583248  0.01232189  1.0828437
 -1.1520021  -0.32366312 -0.06721453  0.55186665 -0.572285   -0.43904427
  0.18749036 -0.06094434 -0.20280263  0.8040565   0.17513147  0.9857435
 -1.0415251   0.07216449]
[ 0.086846    0.1883372   0.48868966 -0.10972186 -0.0544949  -0.38343886
  0.6447127   0.3355319   0.3844592  -0.6184373  -0.42497495  0.27708513
 -0.3601573  -0.46674672 -0.62473667 -1.2564676   0.21860963  0.19936593
  0.2552109  -0.52144915]
[-0.08373947 -0.01803221 -0.04919365  0.06594381 -0.00235013 -0.17715415
 -0.13040805 -0.00625007 -0.14823544  0.06291416  0.03711542 -0.01655313
  0.21808146  0.00126896  0.09178123  0.15916617 -0.15632172  0.15354307
  0.02962806  0.13134637]
layer 1 Activation
tanh
layer 2 Dense
20 40
[ 0.21443656  0.6074316   0.68341786  0.25777885 -0.37615082 -0.01941592
 -0.21497068 -0.353418    0.12199561  0.24416414 -0.19576469 -0.15577686
 -0.05208699  0.04137624 -0.6037968  -0.2698076   0.024328   -0.12581773
 -0.2022356   0.1830906  -0.27221444 -0.42873132 -0.19549473  0.11113753
 -0.10371602 -0.23020612  0.573376   -0.22806548 -0.04939966  0.3436997
  0.17218801 -0.04313154  0.49054614 -0.05096877  0.0399235  -0.44987255
  0.50181687 -0.12659748 -0.02537636 -0.14153981]
[-0.12998767  0.33965832  0.7701849   0.14559372  0.02453455  0.2138106
  0.18478163 -0.34336028  0.18831982  0.31427693 -0.4953683   0.0369106
  0.19960971 -0.29448912 -0.02029277 -0.35675368  0.11167528  0.2169557
 -0.4806499   0.28825796 -0.01804781  0.43317565  0.25534043  0.24380194
 -0.04845619  0.22873591  0.42518076 -0.04903127 -0.23208997 -0.19383611
 -0.44597107 -0.39178106 -0.1457038   0.03137558 -0.48152596 -0.00333948
  0.365663    0.33273444  0.18396543 -0.32640007]
[ 0.17237592 -0.13426384  0.25722554  0.04504251  0.140014    0.26532543
 -0.1890318   0.1978351  -0.19931717 -0.23715515 -0.26282835  0.23413095
  0.02288373 -0.16499488  0.04424325 -0.43697876 -0.0808209   0.34113348
 -0.4474575   0.2991315   0.13635473  0.06320002  0.13146032 -0.33584008
 -0.11329712 -0.13754937  0.12568942 -0.09706316 -0.31562808  0.20805323
  0.09374729  0.10314454  0.5922939   0.19045115  0.15714975  0.00584397
  0.5526767   0.01440866 -0.20776136 -0.12166839]
[-0.18222997  0.30780002 -0.12443112  0.26312843 -0.09161027 -0.29864198
  0.01263173 -0.00255808  0.16736692  0.2753196   0.10389362  0.11482993
 -0.16882174 -0.2684913   0.09864856  0.16090995  0.02811849  0.18104395
 -0.15516436  0.05937833  0.24928902 -0.31182358  0.10235647 -0.25433424
 -0.3479046  -0.05252526  0.08645777  0.08310274  0.09577511 -0.11677378
  0.26933834 -0.03984918 -0.0707334  -0.19627209  0.05940299  0.17641772
 -0.21197258 -0.23608829  0.21566014  0.08868018]
[-0.32187185  0.24970229  0.30623728  0.009463   -0.08672665  0.24259742
 -0.0490793   0.18739091 -0.05598267 -0.01456682 -0.1998158  -0.15897955
 -0.01136911  0.3433574   0.27407014 -0.00084828  0.06059837 -0.16665338
 -0.37667236 -0.20873736 -0.16640212  0.0673984  -0.02405735  0.45629117
 -0.09077958  0.22032556  0.42227986 -0.253297   -0.15213391  0.05229563
  0.10813313  0.14614573  0.24624695  0.14763965 -0.17287296  0.12588525
 -0.20568715  0.03256863 -0.12219734 -0.39902335]
[-0.10843624  0.53301775  0.25318077  0.01485106  0.21723956 -0.21239243
  0.05261695  0.09022027 -0.15324871 -0.04679446 -0.33745345 -0.37086186
 -0.16099092  0.5170069  -0.47377178 -0.14195998 -0.29191256 -0.40864265
 -0.03721894 -0.24636059 -0.09580413  0.00383847 -0.39791936 -0.07517372
 -0.11219229  0.12425396 -0.13598448  0.1747179   0.1435324  -0.07518485
 -0.19460718  0.02754928 -0.45201457  0.00592869 -0.39417368 -0.2887733
 -0.12677643  0.3585425   0.29480574  0.14840502]
[ 0.24238291 -0.53239805  0.20030548 -0.2363477   0.4681928   0.02334681
 -0.08467565  0.2922155   0.29626998  0.01903016  0.2244025   0.08515161
 -0.15234444  0.06054824  0.41497663 -0.071545    0.11600313 -0.27931508
  0.05680971  0.05186091  0.27504548  0.46169537  0.11090294  0.24377641
 -0.34318382 -0.21790962  0.19470349 -0.04403801 -0.2446404   0.19949746
  0.0538318   0.21934164  0.19182035  0.04124784 -0.24661757 -0.09595758
 -0.36761716  0.09812443  0.05762773 -0.31984073]
[ 0.28015572 -0.44811913  0.26598313 -0.25100017 -0.2357588  -0.15223415
  0.09410488  0.367465    0.24582112 -0.26222345 -0.28529057  0.25666666
  0.06304202 -0.32658586 -0.00140428 -0.33277     0.24385564 -0.1261366
 -0.3156767   0.09993416 -0.2744373   0.00505616 -0.10089584 -0.19743581
 -0.0867148  -0.03774031 -0.36855656 -0.24048229 -0.16516417  0.24721971
 -0.06356213  0.2642917   0.01434213  0.23346965  0.15143871  0.26667446
  0.13069056 -0.09752749 -0.2510151   0.13348868]
[-0.44121793 -0.09317283  0.35911682  0.23269847 -0.06596471 -0.09184541
  0.35887456  0.21178234  0.05178437 -0.06117272  0.2662288   0.11330218
  0.13427854  0.15398481 -0.1033487   0.14183864 -0.1343551   0.1484055
 -0.27812064  0.16813883  0.12607771  0.05562044  0.08588129  0.26355007
  0.20067936  0.07938609  0.28562984  0.06369329 -0.14923671  0.1979935
 -0.07621709  0.13893111  0.18852852 -0.03124066  0.1719382  -0.12492421
 -0.3173128   0.31088918 -0.22844301 -0.21703056]
[ 0.06626528 -0.20558946  0.37670678  0.24807553  0.10375205 -0.05421207
  0.06394334  0.0397433   0.00326725  0.22178033  0.11074507 -0.14078839
  0.04509175 -0.451185   -0.25353983  0.15907785 -0.15489595 -0.19103286
 -0.16496946 -0.14159325 -0.23474558 -0.13108794  0.22852667  0.16150314
  0.07191282  0.22786704 -0.24432907  0.08359993  0.0675915  -0.15968561
 -0.01276088  0.20254262 -0.05815724  0.26263884  0.14967273  0.2784416
  0.2062426   0.22138555  0.04770628 -0.03346894]
[-0.4276625  -0.10082715 -0.28940794 -0.02860735  0.1749265   0.17033854
 -0.2714851  -0.14434661 -0.19599272 -0.22324848  0.25063446 -0.11733781
 -0.10664294 -0.17530689  0.364454    0.15740712  0.10461336  0.16294456
 -0.05601492 -0.28505898  0.25626394  0.6014683  -0.17457478  0.18154867
 -0.319353    0.20269053  0.10306505  0.2676503   0.2774802  -0.29273003
 -0.19013438 -0.30812147 -0.3828104   0.19796184  0.02881562  0.00804501
  0.01427612  0.04402781  0.05437108  0.06529679]
[ 0.15087466 -0.10018136  0.4571484   0.04836499  0.11785517  0.42180267
 -0.32739606  0.06758621 -0.22686408  0.19133843 -0.02696503 -0.13545354
  0.16667673 -0.18434857  0.13872582 -0.15294316 -0.24656554  0.07485773
 -0.32604912 -0.07447387  0.2700518  -0.09851696  0.2541045  -0.02095671
 -0.02034242 -0.16074058 -0.05182331 -0.19627848  0.22268577  0.21197931
  0.1533656  -0.16818304 -0.00870919 -0.07242147  0.14651638  0.1083586
 -0.00685522  0.00677985  0.00987687  0.15886715]
[-0.14923799 -0.04206464  0.19186395  0.19019203 -0.11130598 -0.22494082
 -0.00878078 -0.1569317   0.28530207  0.2278277   0.40387273 -0.14251615
  0.22578427  0.14654194  0.20815584  0.08280441 -0.08155013 -0.24152926
  0.17790772 -0.23288684 -0.17274569 -0.03484301 -0.18823823  0.19191888
  0.06271017 -0.26847333 -0.5473161   0.26118755  0.3651461   0.28455934
  0.37776795  0.3152737  -0.21760438 -0.04569246  0.44603747  0.3565545
 -0.40704674  0.03750837  0.11776859 -0.0250105 ]
[-0.37796083  0.09327444  0.15018262 -0.07533635  0.3162996   0.15764497
 -0.207649   -0.07020211 -0.09903437  0.09109064  0.02432087 -0.0629055
  0.01675059 -0.65029186 -0.23883583 -0.12346118 -0.08486205  0.08467791
  0.05817754  0.19978121  0.21467726  0.17548886 -0.0916265   0.39859042
 -0.28726193 -0.07391705 -0.3518093  -0.11713884  0.342246    0.0127635
 -0.1460572  -0.09981646 -0.05394769 -0.07180193 -0.08343849  0.11308365
 -0.28255218  0.3160143   0.3488897  -0.3678721 ]
[ 0.3536485   0.19054286 -0.33675078  0.21352488  0.28390503  0.07268208
 -0.29040402  0.18346469  0.17300849 -0.2426254   0.28663045  0.26047137
 -0.24858557 -0.08924258  0.10602298 -0.23597655  0.30837694 -0.02533832
  0.57664376 -0.24474968 -0.1251729   0.00555811 -0.10597903  0.21620913
 -0.27029184  0.02303132 -0.10587987  0.2327089  -0.00406877  0.1641603
  0.18627493  0.4659739  -0.46168715  0.11789878  0.11334959  0.41619912
 -0.32464427 -0.13581759 -0.27564973  0.17813806]
[-0.09945641 -0.02106073 -0.39556175  0.3050556  -0.29117873  0.03672072
 -0.0330758  -0.36499408 -0.0469228   0.10820603  0.3170913  -0.43533942
 -0.26467648 -0.42139995 -0.40571794  0.48105296 -0.09770071  0.17203638
  0.37522587 -0.1107661  -0.33701226 -0.23406306 -0.10879525  0.48804948
 -0.14386086 -0.19316913  0.10307591  0.25532272  0.13915832 -0.1443437
 -0.2284055  -0.39940277  0.01908074  0.22047359 -0.15117405  0.13276851
  0.06212211 -0.23725139  0.23906644 -0.221869  ]
[ 0.03864077 -0.01599325  0.45764694 -0.20879279 -0.19682199  0.01533164
  0.33664334 -0.25082287 -0.14955263 -0.11213914 -0.29132864  0.09953405
 -0.03626534 -0.04852701 -0.01260567  0.20710088 -0.3411481  -0.06339423
  0.0063848  -0.2087628  -0.16400635 -0.25017226 -0.26063246 -0.04116512
 -0.23957253 -0.19746923 -0.00241431  0.11879754 -0.08874462 -0.24572389
 -0.00197985 -0.04013313 -0.04353293 -0.0243121  -0.07181957  0.22602732
  0.06817169  0.12725657  0.23607938 -0.03807994]
[ 0.2411529   0.26740852 -0.20018515  0.25020984 -0.4294453   0.00656676
  0.01182295 -0.34132195  0.24492477  0.20602389  0.2166263   0.00474385
 -0.15186785  0.11215835 -0.45536274  0.38563308 -0.07599843 -0.3324949
  0.35872075 -0.2508474   0.10191527  0.14386304  0.34064743  0.14495045
  0.4460016  -0.12853977  0.07949206 -0.09291697 -0.04852343 -0.11627703
  0.0526656   0.2536029   0.05188444 -0.1178387  -0.18001328 -0.14640023
 -0.07272726 -0.0482263  -0.18816909 -0.25125343]
[-0.32864872 -0.2982616   0.34949568 -0.4259479   0.45146886  0.13167964
 -0.04928157  0.17516562  0.17855017  0.04770837  0.19410922 -0.14018483
 -0.13504703 -0.378402    0.64401764 -0.34508583 -0.18354832  0.03774257
  0.0269845   0.39488977  0.04075023  0.72362    -0.06358486 -0.07352773
  0.00779612 -0.01707146  0.12000448  0.39307994  0.03056446 -0.12878343
 -0.32981062 -0.13029039 -0.04149254 -0.3470709  -0.30766696  0.20613016
 -0.17643183  0.3970431  -0.06300136 -0.24729364]
[-0.16459765  0.15164573 -0.246809    0.15588623  0.18277097 -0.27014646
  0.12490937  0.24248677 -0.25169474 -0.11946215  0.3550217  -0.01372053
 -0.26634142  0.05403448 -0.29867068  0.33140552 -0.07610325  0.12200169
 -0.2937712  -0.03637269  0.21214573 -0.16083883 -0.25139225  0.3176861
 -0.23023173 -0.07737277 -0.16136028 -0.20777208 -0.10645025  0.1934542
 -0.17022033 -0.15724547 -0.07548648 -0.18586169  0.38294578  0.17017128
 -0.18667985 -0.09245907 -0.2644285   0.45217514]
[-0.07818291  0.05746312  0.02365329  0.14896265 -0.12504822 -0.12289282
  0.0228167   0.09548136 -0.03460966  0.05265021  0.08571537  0.0123836
 -0.09346338 -0.22190218  0.01852741  0.06417385 -0.04547587  0.0261174
  0.12135433 -0.05369058  0.02336994 -0.2746302  -0.04210159 -0.10806542
 -0.07776351 -0.02148102 -0.1660448   0.07535812  0.09246106  0.12054519
  0.01198911  0.08263452 -0.09177208 -0.12211762 -0.06221719  0.05426101
 -0.01999041 -0.00422609 -0.03076407  0.20856224]
layer 3 Activation
tanh
layer 4 Dense
40 20
[ 0.2288692   0.01109708  0.30164334 -0.04422922 -0.46400967 -0.2504402
 -0.18675502  0.0244726  -0.0826243  -0.02331399  0.02243278  0.1651523
 -0.36174324 -0.34805772  0.16679168 -0.04664434  0.24217586  0.19347145
 -0.06018544  0.18134221]
[ 0.01185579  0.15538949  0.07561682 -0.09556933  0.04336344  0.00381564
  0.25284672  0.26432765 -0.11467167 -0.46047738 -0.07720043  0.35341442
 -0.18837039 -0.2242549   0.08092437  0.04515414 -0.05857244 -0.14418459
 -0.40637663 -0.04179323]
[ 0.06807874 -0.03522122  0.10109816 -0.02808641  0.3932846   0.36274195
 -0.09798329 -0.05265816  0.10164067 -0.10267643 -0.04548005  0.4082404
 -0.18509018  0.22998431  0.06644699  0.08279005  0.12074654  0.17847551
  0.31650245  0.259407  ]
[-0.11560073  0.17722854 -0.03847774  0.17112567 -0.1492343   0.18012695
 -0.03977169  0.23874345  0.07263374 -0.3297988  -0.07347125 -0.08840272
  0.07263242  0.08387303 -0.23041843 -0.01095232  0.11201429 -0.1841936
  0.26623625 -0.20185803]
[-0.19457754  0.1952543  -0.1171432   0.28919443  0.40234888 -0.39084268
  0.01600686 -0.1877152   0.04791715  0.14069122  0.0250613   0.15517367
 -0.3519613   0.03528395 -0.266778    0.16351132  0.30381405  0.22188184
 -0.21891342  0.12031487]
[-0.37248102 -0.23148002 -0.29398844 -0.1231981   0.2163723  -0.13947532
  0.18226397  0.180131    0.11080332  0.3112808   0.07397395  0.35621852
  0.01199186  0.22555798 -0.01613626  0.19600415 -0.35372502 -0.01430864
  0.08850507  0.09656071]
[-0.31422308  0.19987854  0.11734785  0.10228322 -0.14073691  0.6470776
  0.35593212  0.03883598 -0.25727108  0.00068003 -0.07273789 -0.10796549
  0.25850418 -0.2758124   0.1184653  -0.04729937  0.07665192  0.1543229
  0.25073624  0.07477865]
[ 0.07389508 -0.14588977  0.02721657  0.12235737 -0.11801203  0.19561635
 -0.2229508   0.03516619 -0.13957651 -0.11096736  0.20547916 -0.02477163
 -0.27365986  0.03123013 -0.11632195  0.11650165  0.23130955  0.30527475
 -0.00343799 -0.17838153]
[-0.11316133 -0.20520505 -0.02967888  0.02670874 -0.13909408 -0.06152234
  0.11868352  0.08560265  0.0088951   0.15952034 -0.23365128 -0.24933378
 -0.1592304  -0.1796598   0.11544851 -0.21305814  0.11099106  0.13595434
  0.33797455 -0.02796758]
[-0.37637395  0.16436104  0.03081974  0.01515766  0.13756293 -0.12316845
  0.08673757  0.01537367  0.22811864 -0.29081467  0.03529596  0.06454753
  0.04207867  0.08910825 -0.01129983 -0.01850584 -0.11277061 -0.13147676
  0.04943611 -0.08766092]
[-2.5400978e-01  2.9235810e-01 -9.2859298e-02 -3.2190344e-04
 -1.1274149e-02 -3.4647670e-01  1.8301117e-01 -2.4971316e-02
  2.1733363e-01  1.5696017e-01 -9.9056967e-02 -2.8874549e-01
  7.7679299e-02  7.7243201e-02  1.2333498e-01 -2.4218851e-01
  3.3554247e-01 -2.9164401e-01  2.0383419e-01  3.3665158e-02]
[ 0.14476973  0.22425945  0.30363426 -0.11332723 -0.14644979  0.19897734
 -0.06695174  0.26407686 -0.08355583  0.2963709  -0.06582486 -0.13808042
 -0.09276268 -0.17020853  0.07395908 -0.1748385   0.10188647  0.3221039
  0.15419923 -0.11142248]
[ 0.03856811  0.2791676   0.01454701 -0.20015733  0.23366308 -0.1325921
 -0.22270189 -0.14660731 -0.30105424  0.2172057  -0.15858397  0.03884743
 -0.07355759  0.20942545  0.03591962 -0.07622577  0.02674452 -0.14226577
  0.23464607 -0.0469536 ]
[-8.8283263e-02  3.4868395e-01  1.1127018e-01 -2.7220038e-01
  2.0940717e-02 -8.5244626e-02  2.2912741e-01  8.3135985e-02
  1.5859489e-04  3.2001340e-01 -3.0405542e-01  2.4359059e-01
  2.0087610e-01 -1.7861111e-01 -2.2977350e-02 -1.2102699e-01
  7.3678456e-02 -2.3481096e-01 -5.1929653e-01  1.0628323e-01]
[-0.10102921  0.04901499 -0.10590533 -0.12034632  0.00477311  0.07924479
  0.17814034  0.04503865  0.04198145  0.25041756 -0.06874314 -0.28553125
  0.10680687 -0.08452658 -0.1466641  -0.12371583  0.0922244   0.30052808
  0.03041185  0.1856081 ]
[-0.01802834 -0.07877292 -0.0764178  -0.22455433 -0.27556202  0.23267606
 -0.01088668 -0.11070968 -0.11581685 -0.07175581 -0.10867393 -0.28595823
 -0.05635123  0.07044391  0.04295498  0.03219207 -0.2974569  -0.277032
 -0.11522897  0.3065226 ]
[ 0.13522373  0.08542018 -0.11704166  0.12439639 -0.00517562 -0.32545257
  0.01108251 -0.10408521  0.30858624  0.107605    0.15254417 -0.02102176
 -0.09851381  0.11368623 -0.13653423 -0.11928408 -0.01737897 -0.06165126
 -0.11911494  0.04554178]
[-0.05271644 -0.13288386 -0.13522623 -0.2082806  -0.03035253  0.13919146
  0.05805654  0.05512137  0.07645518 -0.00762249  0.17589127 -0.09051541
  0.28863165  0.02085234 -0.05165417  0.11657588 -0.3122172   0.13037671
  0.24411118  0.0195713 ]
[-0.16816759  0.22931287 -0.19218764  0.10444278 -0.01849923 -0.47363392
  0.3229402  -0.24394315  0.03304712 -0.12531058 -0.25069746 -0.33851653
  0.16796131 -0.00388794 -0.02684797 -0.30835223  0.18007983 -0.24824475
 -0.38253683  0.2213338 ]
[ 0.09284724  0.04703452 -0.1494303   0.14176902  0.277969    0.31127977
 -0.3589865  -0.04452293  0.14199777  0.08583982 -0.17597222  0.19944064
  0.29519722  0.22818531 -0.1252957  -0.16936265  0.08204617 -0.06151696
  0.26422757  0.14591958]
[ 0.08686575  0.29669493 -0.26887828 -0.3480165   0.18066967 -0.10385396
  0.1934824  -0.20585713 -0.1581162   0.04288696  0.328769    0.04564019
  0.14695063  0.11420077 -0.04527789  0.12489255 -0.04644203  0.30386946
 -0.11409218  0.14419612]
[ 0.06854092  0.09666619 -0.1998489  -0.05552161  0.07101667 -0.18117833
  0.01075868  0.07070906  0.12788333  0.38502225  0.05182222  0.09835298
  0.32196313 -0.07309927  0.20960549 -0.29040128 -0.2785333   0.13447842
 -0.31584346 -0.19417475]
[ 0.00191683 -0.17865488  0.14511108 -0.03306041 -0.3091291   0.00387325
  0.19197741  0.10780264  0.24878652  0.1266038   0.18384382 -0.15055203
 -0.21341617 -0.32146364 -0.0678688   0.2701086  -0.33518273  0.1757037
  0.17593658 -0.16832194]
[-0.18626894 -0.27320904 -0.37560478  0.14629878 -0.04525087 -0.19381353
 -0.04476989  0.3242964  -0.28617406  0.05000122 -0.3697797  -0.0970947
  0.20501022 -0.03316459 -0.10107033 -0.07913844  0.04583649 -0.3787347
  0.16184817 -0.17580266]
[ 0.23892196  0.02966949  0.22207357  0.23778753 -0.21963976 -0.1762472
 -0.28195333 -0.065327    0.324471    0.1285236  -0.15448204 -0.00330083
 -0.1413234   0.14548814 -0.02023911  0.17892604 -0.34594893 -0.34606242
 -0.13920163  0.40389287]
[ 0.14228128  0.08340336 -0.20479123  0.26114777  0.18548809  0.2827301
  0.19264172  0.00676701  0.06387855  0.04227221  0.22904459  0.31419757
  0.17133902 -0.02276316 -0.05702062 -0.15845273  0.11252018 -0.06908906
 -0.08872516  0.21996409]
[-0.04578853 -0.19036916 -0.05920007  0.16425906 -0.10899531  0.39569226
 -0.0494166  -0.14521153  0.06132604  0.01697715  0.25323007  0.25302392
  0.3613765   0.23313013 -0.18820746  0.30535036 -0.4231445   0.11660267
 -0.13399273  0.18657918]
[ 0.01792641  0.04045388 -0.04843616  0.2550436   0.40728837  0.05181724
  0.05445606  0.11813402  0.24110746 -0.13575883  0.39545184 -0.19368088
  0.1754416  -0.08588628  0.13690199  0.05818214  0.18146695 -0.2324464
 -0.06060432  0.24127884]
[ 0.39543483 -0.1298885  -0.10104883 -0.08364124  0.17953661 -0.2133961
  0.00757932 -0.01145488  0.01708749 -0.26490918  0.11682172 -0.22434123
 -0.29571536 -0.16555499 -0.10468668 -0.00718514  0.18509233 -0.24806336
 -0.00324765  0.20694195]
[-0.2844536  -0.04278499  0.17396532  0.2935956  -0.24956977 -0.2230139
  0.25463808  0.3011454   0.00082428 -0.1498072   0.10425729 -0.04142915
 -0.08374602 -0.22601645 -0.20919874  0.3202841   0.13790433  0.22149393
 -0.04278161  0.1372706 ]
[ 0.02982691 -0.19274536  0.31389767 -0.23327559 -0.23657696 -0.14339912
  0.09203717  0.04036001 -0.16452765 -0.01910035  0.28648695 -0.0239013
  0.12642226 -0.22182083 -0.09606996 -0.18806882  0.3853219  -0.13880765
 -0.09973669  0.14009902]
[ 0.02684468 -0.21278736  0.049701   -0.18776384 -0.13490702 -0.395832
 -0.16770172  0.00687177 -0.14273496  0.03321164  0.27446    -0.2848017
 -0.12479372  0.25414062  0.2837777  -0.10178483  0.49104786  0.17692257
  0.3135261   0.06311747]
[-0.19992277  0.26635042 -0.09925651  0.17498538 -0.31284657  0.08589666
  0.12732941 -0.19998787 -0.08203571  0.09770796  0.09580322  0.2784163
  0.34907064 -0.21317738  0.03027644 -0.134686   -0.3475848   0.01634933
  0.2926176   0.05164819]
[ 0.39124417 -0.18584931  0.06176002  0.23736176 -0.26767972 -0.27997038
 -0.01618896 -0.1642834  -0.12196598  0.15789789 -0.00638674  0.1935018
  0.11358661  0.23411897  0.20780207 -0.00057686 -0.14981385 -0.20100787
  0.13484219  0.18837294]
[ 0.07931347  0.2493065   0.08039521  0.35651752 -0.30054843 -0.2809015
 -0.314951   -0.07728737  0.07046661  0.0990558  -0.115399   -0.26329604
 -0.12119442  0.20452759 -0.3253733  -0.15677044 -0.01467832 -0.00701613
  0.04066964  0.1896607 ]
[-0.15365434 -0.00382888 -0.24352528  0.19336772  0.00249884 -0.30562466
  0.07046518  0.07629404 -0.11383303  0.00942787  0.12463401 -0.43364522
 -0.2410408   0.08400262 -0.36494493  0.11954355  0.20670818  0.36676726
  0.031419    0.22940989]
[ 0.28847998  0.24536997  0.04328205  0.1267296  -0.05471566  0.39539218
 -0.25238338 -0.0530821   0.14595044 -0.18602644  0.13012628  0.03039205
 -0.12024617 -0.28439763 -0.02732534  0.04585354 -0.5316696   0.20260772
 -0.12091363 -0.02191192]
[ 0.16621597  0.03410365 -0.01224202  0.21391116  0.3246551   0.09687835
 -0.08671079  0.32610875 -0.01385125  0.0188063   0.02431169  0.0406092
 -0.2282651  -0.25218803  0.16737051 -0.12502441  0.0751975   0.2049129
 -0.07727996  0.12352982]
[-0.19942233  0.1190691   0.11597297 -0.05528847  0.12912965  0.10140127
  0.15516965 -0.02528263 -0.030743    0.07115035 -0.15217811  0.22376272
 -0.25477052 -0.10987107 -0.33494505  0.02198398  0.16387983 -0.05279372
  0.03357633 -0.00177788]
[-0.2522474  -0.06843681  0.3029435  -0.09112315 -0.06056869 -0.13072531
  0.11532613 -0.18297267  0.02067562 -0.11998088  0.31117147 -0.30612716
 -0.3632951   0.10955221  0.04956941 -0.21521738  0.26641202 -0.07553106
  0.29685998  0.25953975]
[-0.08147471  0.00535682  0.07424658  0.016668    0.06728604  0.08039832
 -0.02922585 -0.02304652  0.02480589 -0.1097545   0.08050076 -0.0907966
  0.01871847  0.0193027  -0.02605356 -0.03063604  0.02833182  0.07210815
  0.06112716  0.00997829]
layer 5 Activation
tanh
layer 6 Dense
20 1
[0.00426234]
[0.00469318]
[0.21327148]
[0.00481553]
[0.18337177]
[-0.19400372]
[-0.01549127]
[-0.01730553]
[0.00941627]
[-0.34768522]
[0.05742937]
[0.20346844]
[0.05075761]
[-0.00254551]
[-0.01191407]
[-0.11582222]
[-0.265281]
[0.26651913]
[0.09345033]
[0.01011452]
[0.11809385]
