layers 7
layer 0 Dense
24 20
[-1.6234093  -0.82595307  0.5559639   1.1491039  -0.13800493  0.7474884
 -1.4183246  -0.45582825 -0.93755376 -0.7158944  -0.31503445  0.8006216
 -0.75858015  0.88115066  1.7927251   0.4421272  -0.46629602 -0.5915949
  0.36345977 -2.0215194 ]
[-0.85726625 -0.08052345 -0.25330237 -0.2785901   0.27954447 -0.00753776
 -0.88288105  0.01011583 -0.13087529 -0.7814422   0.03285961  0.48085514
 -0.17004974  0.10265671 -0.07479778  0.151839    0.22949219 -0.2526948
  0.44132125 -0.59276974]
[-0.25939927 -0.37743518 -0.1479552  -0.5499201   0.0716984  -0.26473975
 -0.8539607   0.37707382 -0.10996404 -0.25394526  0.27301106  0.6088154
 -0.5503737   0.43543452 -0.07405593  0.22786035  0.39849764 -0.13321158
  0.2264999  -0.37589377]
[-0.9587436  -0.78210825  0.7851473   0.6923876  -0.03589536  0.29331878
 -0.6049679  -0.37201118 -0.54285437 -0.41404784 -0.0030084   0.73525965
 -0.19847672  0.7869024   0.7858372   0.9810838  -0.3846471  -0.71127427
  0.5197909  -1.2402259 ]
[-0.7309144  -0.72670263 -0.5205324   1.1719646  -0.77883416  0.6999582
 -0.38108438 -1.055924    0.15746789  0.36771616  0.4021155   0.5195943
  0.35400617 -0.01960751  1.0934907   0.01347527  0.31670034 -0.28855622
  1.2932482  -1.2976574 ]
[ 0.80167204  0.19807942  0.3184384   0.4020673  -0.00747773  0.2952289
 -0.3168561  -0.18830965  0.01642591  0.13132195  0.4959113   0.02366976
 -0.05306213  0.46132138 -0.28690127 -0.0895234  -0.09718694 -0.55022395
  0.4968311   0.01692461]
[ 0.1648431   0.3592084   0.12276772  0.12345622 -0.12542707 -0.12491333
 -0.16448982  0.09955611  0.00603455  0.1465809   0.61797136  0.12097502
  0.02170157 -0.02008363 -0.00899799 -0.33821782 -0.4598596  -0.27882296
 -0.135606   -0.27842778]
[ 0.82849914  0.47391325 -0.4067384  -0.48215172  0.34282145 -0.8340984
  0.9366186   0.2757606   0.90989643  0.61174405 -0.8747664  -1.0747945
  0.8005077  -1.0600291  -1.0511371  -0.51212007  0.14242168  0.9184381
 -1.2202116   1.7736315 ]
[-0.6365     -0.6800869  -0.278031    0.7408922  -0.71781844  0.22754443
  0.24222499 -0.6754322   0.28671083  0.30297452  0.11779723  0.8515833
  0.24606586 -0.15370288  0.688318   -0.1034154   0.04195995  0.20962602
 -0.11262416 -0.4841609 ]
[-3.1619303   1.5835264   0.09758735 -2.2909906  -0.5749199  -1.3730791
  0.23731299 -2.18279     0.42369118  0.05261161 -0.65530586 -0.8966872
  0.02454892 -0.3053746  -0.5011842  -0.59813035  0.02084643  0.2945308
  1.7120231   0.15793352]
[-0.73094004  0.5589017  -0.21378347  0.9662986  -0.6610017   0.94887465
  0.27302223  0.46269563  0.14494981  0.32612795  0.2252253   0.14790948
 -0.09023787 -0.08064448  0.3851483  -0.01054346  0.45001784  0.11606296
  0.61181897 -0.5339525 ]
[ 0.13241738  0.6500055  -0.583711   -0.65128124 -0.15572213 -0.93479407
  1.2621663  -0.50167894  0.913144    0.7080815  -4.1000705  -1.7333992
  0.5866722  -1.1821214   0.02628009  0.17370436  0.29276636  0.27853447
 -3.5617187   2.316952  ]
[-0.75584584 -0.51307535 -0.2936166   0.4280037  -0.32603937  0.26166242
  0.6418869  -0.2480403   0.34865445  0.05750218 -0.5300261   0.2897262
  0.33908194 -0.03569898  0.79418826 -0.10683967  0.2839874   0.12983708
  0.05188711 -0.13732858]
[ 0.6615548   0.12843901  0.39962292  0.7204176   0.20127204  0.43673632
  0.19084327  0.9802187   0.00625326 -0.20122273  0.14876014  0.01947789
 -0.14725028  0.08119983  0.23640537  0.71882975 -0.3908409  -0.32734588
 -0.7931696   0.44473517]
[ 2.9955988e+00 -5.1233320e+00 -1.0840257e-01 -6.0914073e+00
  4.0514791e-01 -7.1589122e+00 -3.8773435e-01 -1.8578085e+00
  8.1953675e-02  2.2634584e-01  3.3056002e+00  5.1683893e+00
 -2.3504493e-01 -6.1615924e-03 -3.5388768e+00  6.9788717e-02
  2.1503647e-01 -4.3333995e-01  3.2114656e+00 -4.4130176e-01]
[-0.1715225   1.7224721  -0.22153822 -1.8172486   1.0696583  -2.0924423
  1.0849409   1.5233704   0.65160555  0.4411508  -4.4076443  -1.9965564
  0.36983684 -0.95153755 -0.5344634   0.24426214 -0.0930349   0.30781457
 -2.8603559   2.2844615 ]
[-0.8960008  -0.03076632 -0.12200361  0.5471043  -0.7440276   0.36459365
  1.0570669  -0.40175015  0.7337592   0.41848683 -1.2744215  -0.3571066
  0.36608326 -1.0026463   0.28797576 -0.6874919   0.40966752  0.2652328
 -0.34771675 -0.07970832]
[-0.06529375 -0.86126906  0.05393498  0.53156245 -0.8402072   0.5022167
 -0.16273934  0.15802431  0.23938064  0.24894613  0.27027604  0.4394756
  0.03078108 -0.07658371  0.31036368 -0.03725002  0.12424216 -0.11811285
  0.01460805 -0.42672092]
[-0.22501782  0.7515771   0.08387445 -0.52857167  0.8503196  -0.31312165
  0.2249961   0.1043026   0.0383977  -0.01479038 -1.3118515  -1.7428294
 -0.21722227  0.23628329 -0.22816938  0.24678233 -0.68791497  0.23139553
 -0.89056     0.8853998 ]
[ 0.8989835   1.2350626  -1.0573226  -0.2439452  -0.32618624  0.4016052
  1.4236099   0.3646764   0.9754309   0.9272016  -3.3853056  -0.96784717
  0.74791235 -0.894339    0.43538556 -0.39735726  0.598428    0.85463023
 -3.7869737   1.8093884 ]
[-0.32172346 -0.4212984  -0.31712258  0.17292617 -0.20004962  0.2888122
  0.05386234 -0.15176602  0.07504133  0.4202048   0.26956946  0.29499158
  0.5150411  -0.13688013  0.47712564 -0.64502484  0.6895405   0.45268208
 -0.156573   -0.5639193 ]
[-0.4433431  -1.790242   -0.03238728  1.2311156  -0.6547589   0.42002136
 -0.08070601 -0.40857425 -0.0097374   0.02246491  0.45787987  0.71607906
  0.1335862   0.23771057  0.89400005 -0.35655522  0.27882445  0.31406468
  0.01426051 -0.85630137]
[-0.40429375 -0.4417582  -0.41880238  1.5343127  -0.4923821   1.3760018
 -0.21223791 -1.1259972  -0.09798625  0.1813713   1.6091945   0.39069638
 -0.03751907  0.25651234  1.0970377  -0.02390418  0.44277567  0.26853713
  0.04296743 -1.0579315 ]
[ 0.09363358 -0.24351415 -0.28202233 -0.06408202 -0.5024797   0.08756664
  0.35028785 -0.267832    0.64071846  0.3287155   0.10732342  0.20605567
  0.6472554  -0.4280046  -0.17553484 -0.7117156   0.4322751   0.4397404
 -0.36906636  0.01416644]
[-0.25825924 -0.18261951  0.47250304  0.01569922  0.052376    0.15787409
 -0.69670165 -0.07638267 -0.5558938  -0.43351012  0.4598778   0.2429833
 -0.46799183  0.6597922   0.14677998  0.5551428  -0.38542023 -0.4149759
  0.55360687 -0.4779212 ]
layer 1 Activation
tanh
layer 2 Dense
20 40
[ 0.7476753  -0.46627104 -0.08537697  0.62420744 -0.21068993  0.4921738
  0.6781846   0.42784026 -0.29153302 -0.20942472  0.9325205   0.61415464
 -0.5422113  -0.8163992   0.53352165 -0.2311653   0.25472936  1.0208514
 -0.58876574  0.7191162  -0.23438446  0.8158543   0.22417767  0.8591828
  0.7980507   0.65247095 -0.02840522 -0.25407302 -0.8500688   0.684552
  0.50033206 -0.6868525   0.53027606  0.37077996 -0.34668627 -0.45855737
 -0.8000125   0.6420931   0.8175724   0.03254038]
[-0.29883784 -0.40938872 -0.03659917  0.4265619   0.37086993  0.8137606
  1.178078    1.0739793  -1.2894784  -0.76884973 -0.5361803   0.6097999
 -0.9012071  -1.0831544   0.7856239  -0.13704705  0.2568686   0.7198865
 -0.7598636   0.78244793 -0.01230542  0.625889   -0.2665395   0.51100445
  0.96307796  0.8495393   0.40154746 -0.1737147  -0.90349543  1.1847723
  0.335622   -0.97495514  0.9127999   0.36744273 -1.1250567  -1.052136
 -0.7727167   0.71290857  0.5916902  -0.1551684 ]
[ 0.01496574  0.24715845 -0.32182437  0.473855   -0.650651   -0.19467664
 -0.6228114   0.09152462  0.1193173   0.14469488 -0.15077709 -0.3104325
  0.37295556 -0.05327053 -0.18269373  0.30204675  0.21769919  0.12459809
  0.08153409 -0.75725955 -0.4943942  -0.13117091  0.46625477 -0.36096695
 -0.21944214 -0.4019435  -0.5567555  -0.22650303  0.07438646 -0.05956904
  0.19197552  0.23948203 -0.1396316   0.42496085  0.4678876   0.48855397
  0.62246066 -0.354074   -0.18808793  0.54290885]
[-1.0534978e+00  2.0131917e+00  7.1425706e-01  1.9226442e-01
  3.1285126e-02 -8.3063519e-01 -1.0880805e+00 -7.0392555e-01
  3.8689813e-01  7.2830105e-01 -1.2051553e+00 -9.0443838e-01
  1.0953211e+00  4.2128548e-01 -1.0923721e+00 -1.3957010e-01
 -2.4731083e-01 -1.5334593e-01 -1.5782121e-01 -1.3137441e+00
 -2.0952684e-01 -1.4405109e+00 -1.5806369e-03 -5.7421404e-01
 -1.3169311e+00 -9.0920681e-01 -4.7923309e-01  7.6086796e-03
  6.7893261e-01 -3.8151291e-01 -7.0684922e-01  7.1931982e-01
 -1.7667529e-01 -8.0043785e-02  1.1453403e+00  1.1170397e+00
  1.2266302e+00 -1.0719395e+00 -1.2660424e+00 -2.3473300e-01]
[ 0.02695896 -0.69368184  0.42249176 -0.5417405  -0.538369    0.06167581
 -0.29235643 -0.49797556  0.28957003  0.87855923 -0.02251188 -0.4556674
  0.3004666   0.21296667  0.17191266  0.6402633  -0.145125   -0.24760959
  0.05729298  0.22365527  0.6573608   0.23889063  0.0565478  -0.26302865
 -0.05486188  0.11238208 -0.07235497 -0.1556837  -0.00439508 -0.29091865
 -0.8003654   0.4335374  -0.16808434 -0.01686982  0.5317222   0.53528816
 -0.04778644 -0.37257576 -0.09727947  0.23322688]
[-0.9323604   1.8081895   0.5412207  -0.10676747 -0.16902849 -1.1565167
 -0.95705736 -0.12735848 -0.02926513  0.5908145  -1.5046773  -1.0735325
  0.800525    0.3776861  -0.6706157  -0.09502944 -0.3128129   0.09977193
 -0.08834061 -0.94642925 -0.2612617  -0.7208956   0.15982278 -0.32416636
 -0.6029828  -1.0487709  -0.03726785  0.0929981   0.90252995 -0.25730568
 -0.59363806  0.9129627  -0.26692346 -0.21027595  1.3460824   0.59849995
  1.1463691  -0.8844982  -0.77675754  0.26850012]
[-0.163411    0.10791598 -0.03680682  0.25451866  0.5342442   0.11594752
  0.660655    0.7066323  -0.8946232  -0.08566296 -0.26527813  0.03163492
 -0.696197   -0.496974    0.5025269  -0.36091387  0.08256349  0.4372498
 -0.6568276   0.22617185  0.08477739  0.36206114 -0.44834983  0.46808863
  0.30321735  0.49205646 -0.1265924   0.30540928 -0.49566054  0.63777274
  0.15756066  0.08504905  0.41376996  0.08600178 -0.814248   -0.42979726
 -0.28358105  0.66696054  0.7857642  -0.8834052 ]
[ 0.00203612  0.21036799 -0.21343035  0.10356566 -0.2428032  -0.16232745
  0.1293559   0.41937044 -0.5626284  -0.26714438  0.13787158  0.17671017
  0.23466145 -0.11043472 -0.3258477   0.26668912  0.1717965   0.35924196
 -0.806005    0.24224067 -0.44988555  0.40369123  0.44963437  0.5053877
  0.305253   -0.2954603   0.0129071  -0.02416467 -0.20722239  0.15718754
  0.16118889 -0.49345455  0.3734408  -0.16603419 -0.20886247 -0.24293636
 -0.3049118  -0.4292105   0.17105782  0.4628079 ]
[ 0.31753594  0.2507336  -0.00250444 -0.6683816   0.6335744   0.08568732
  0.17912619  0.08482612 -0.20191148 -0.07983453  0.02828708  0.00338424
 -0.47441784 -0.18694851  0.666433   -0.3021008  -0.39267033  0.15698272
 -0.2533852   0.81155086  0.65444815  0.5580836  -0.42357853 -0.21900325
  0.30053976  0.42949405  0.74538165  0.06589775 -0.5125515   0.3774993
  0.5681674  -0.39654362  0.5197718  -0.27562824 -0.42200518 -0.098341
 -0.42845812  0.45359385  0.41019046 -0.33241525]
[ 0.02722667  0.13430053 -0.00264568 -0.43790996  0.51286656 -0.01141455
  0.12096616  0.43027928  0.02720532 -0.7252141  -0.25710896  0.38524312
 -0.30470842 -0.12704423  0.551892    0.02228607 -0.14736304 -0.04216415
  0.16363952  0.629584    0.6422296   0.62053776 -0.44338813 -0.15288341
  0.19456254  0.33574972  0.5263862   0.32842976 -0.652325    0.27487627
  0.07428139 -0.88561386  0.2578076  -0.15785024 -0.21289009 -0.15889257
 -0.49349627  0.23311877  0.28899926 -0.14510256]
[-0.75198084  0.3407846   0.2169792   0.10795232  0.24296589 -0.19880664
 -0.6080613  -0.7096241   0.91023266  0.13260129  0.20924748 -0.54204184
  0.9441168   0.9138607  -0.74014574  0.05644683 -0.05834851 -0.6847575
  0.7834616  -0.7139805   0.03371897 -1.1184493  -0.26849592 -0.88972473
 -0.81619215 -0.7663669   0.00997712 -0.33003187  1.08166    -0.88498294
 -0.67968947  0.60723597 -0.76107734  0.07388662  0.5159869   0.7300305
  0.9183037  -0.58354336 -0.91313833  0.42367837]
[ 2.14459505e-02 -5.82328364e-02  6.06981814e-01 -6.14675954e-02
  1.22813389e-01 -1.88667104e-01 -1.04118204e+00 -9.33484554e-01
  8.12051117e-01  3.74805003e-01  5.62107682e-01 -6.84135675e-01
  4.41907048e-01  7.09791005e-01 -7.23606825e-01  1.48782089e-01
 -2.45201379e-01 -6.93545878e-01  4.11842428e-02 -9.93734360e-01
  4.81011122e-01 -1.17624760e+00 -3.57509196e-01 -7.36900330e-01
 -1.17085552e+00 -1.14942849e+00  2.13060360e-02  3.08914304e-01
  9.07099068e-01 -1.08909070e+00 -5.57597220e-01  9.24587369e-01
 -7.49555409e-01 -2.63330370e-01  8.11141253e-01  7.12840855e-01
  9.17853296e-01 -8.14990461e-01  7.76037981e-04 -1.16277784e-01]
[ 0.797177   -0.08586207  0.22546035  0.10152157  0.28201228  0.23681274
  0.6577868   0.6081798  -0.21789467 -0.23401397  0.3856098   0.05996001
 -0.16953534 -0.26653838  0.45078984 -0.08841239 -0.43002486  0.06681468
 -0.42744008  0.5597051   0.11371622  0.5044916  -0.2372349  -0.00235973
  0.37704244  0.3431251   0.37412295  0.51462036 -0.15979758  0.7421709
 -0.12321134 -0.7109587   0.07590477 -0.625592   -0.45685712 -0.3870867
 -0.4573      0.07140151  0.6500773  -0.16066708]
[-0.35791218 -0.48242486  0.09164419  0.32843965 -0.8703234  -0.25671583
 -0.17566577 -0.46889633  0.10814449  0.1815872   0.14637436 -0.45631486
  0.41332182  0.25441927 -0.63723785  0.12487847  0.22325452 -0.19764104
  0.47409293 -0.7158724  -0.4407047  -0.13177699  0.8437161   0.02413415
 -0.50112015 -0.49742422 -0.8475335  -0.4720279   1.0360893  -0.23127551
 -0.68676764  0.10592517 -0.4016237   0.04706842  0.32687297  0.423295
  0.5669716  -0.48555082 -0.43446958  0.43471956]
[-0.8712029   1.0213321   0.25894412  0.0131151  -0.21313822 -0.91947657
 -0.82837737 -0.17887823 -0.03059308  0.15154661 -0.9958229  -0.11010609
  0.8796919  -0.10153656 -0.72873795  0.01089125  0.06296014 -0.03383129
  0.12848951 -0.7556385  -0.32698852 -0.52807176 -0.17873815 -0.7590192
 -0.5985497  -0.852864   -0.37445846 -0.14832404  0.35527095 -0.08204882
 -0.44421405  0.4365942   0.14510214  0.0164092   0.30387557  0.21981597
  0.4552983  -0.61571246 -0.91788715  0.12176251]
[-0.20475516  0.75303537  0.5266444   0.7557702  -0.43224624 -0.43355548
 -0.4566898  -0.4571581   0.15889479  0.06433184 -0.6912818  -0.44567218
  0.50038564  0.54572856 -0.5193779   0.2519385   0.31214872 -0.28610414
  0.06275246 -0.7330122  -0.52049863 -0.51704836  0.55715376 -0.45623878
 -0.51432574 -0.8476853  -0.05099021 -0.56909424  0.7883331  -0.10583966
 -0.16090056  0.43518326 -0.39123157  0.21309634  0.72858137  0.8437401
  0.5582816  -0.6567855  -0.69588894  0.2311207 ]
[ 0.31369513 -0.43542802  0.32780674 -0.369122    0.49349976  0.1344367
  0.65005785  0.45291856 -0.04603275 -0.2947445   0.04213914  0.1502682
 -0.660204   -0.29901344  0.22173183 -0.38477123 -0.40782216  0.01696353
 -0.2733336   0.9093913   0.4545701   0.12436523 -0.21781968 -0.22611926
  0.23702979  0.35995185  0.5685382   0.37124494 -0.43124512  0.38832384
 -0.18151788 -0.4358396   0.2029995  -0.41112196 -0.3809957  -0.4167555
 -0.25182754 -0.04639922  0.66446966 -0.33793545]
[ 0.14523634  0.17605467 -0.20668975 -0.28176832  0.14547929  0.06362189
  0.66498643  0.07762849  0.00559697  0.01736511  0.06382741 -0.47555068
 -0.42712206 -0.164709    0.0627431  -0.26640043  0.3536331   0.19127561
  0.00715631  0.28088364  0.34034428  0.0602326  -0.34891567 -0.32138297
  0.02563952  0.22083476 -0.01785585 -0.09826078  0.07106896  0.0375953
 -0.5151772  -0.56539476  0.38089475 -0.3913461  -0.13019565 -0.34931353
 -0.12720177  0.3723286   0.32402277 -0.8728997 ]
[-1.0303285  -0.1408304   0.41182396 -0.25082478 -0.03594474 -0.27497286
 -0.5835834  -0.793521    0.9655373   0.5528885  -0.5727172  -0.5950347
  0.9174235   1.1134156  -0.54568917  0.13077357 -0.26802143 -1.0715785
  0.6098314  -0.9707801   0.21346746 -0.94629204  0.02614809 -0.8848479
 -0.52993655 -0.9702407   0.03716867 -0.04500626  0.78466344 -0.9977122
 -0.68579847  0.94313896 -0.6407267   0.1774896   0.89913684  0.42132008
  0.87215436 -0.83600646 -0.7819266   0.24712615]
[ 1.7729756  -1.1400819  -1.397253   -0.05822589  0.8808194   1.1188476
  2.0954018   2.677836   -1.5769483  -1.4832644   1.7055678   1.212289
 -2.4720266  -2.036756    2.3570702   0.12070179  0.7367587   1.4867485
 -0.66174823  1.970333   -0.3120521   2.148085   -0.69750416  1.1380571
  1.8145609   1.8965008   0.18069448 -0.04470094 -2.5332093   2.111137
  1.4687489  -2.7187285   1.5359962  -0.6434874  -2.0669048  -1.5652775
 -1.8874707   2.272827    2.2800992  -0.71013457]
[-0.05552457 -0.24862623 -0.01834826  0.21487401 -0.08140486  0.04327327
 -0.29726517 -0.17630534  0.07115866  0.11662363 -0.07033736  0.11710634
  0.19780181  0.19098526 -0.18988782  0.315197    0.12684074 -0.19383514
 -0.11625725 -0.24256818 -0.296823   -0.02264259  0.35354328  0.05154768
 -0.19630778 -0.23129344  0.20812084 -0.04227626  0.3695606  -0.16593826
  0.08813031  0.47198486 -0.11608315  0.23012458  0.20000872  0.10758792
  0.24153593 -0.15339704  0.03022016  0.38774684]
layer 3 Activation
tanh
layer 4 Dense
40 20
[ 0.13529494  0.0020417   0.0143857  -0.07760808  0.6444     -0.4601391
 -0.268632   -0.09203032  0.18930729 -0.10658614 -0.5599051  -0.19573836
  0.1386587  -0.5252948   0.39828777 -0.5026083   0.52280533 -0.6594826
 -0.3039892   0.35773015]
[-0.25977844 -1.5202984   0.07441816 -0.6585808  -0.46822008 -0.29612178
  0.5568619   0.62112516  0.70972246  0.08455428  0.6277739   0.48658144
 -0.1909239   0.7211953  -0.18398958 -0.31846854 -0.26672804  0.88043827
  0.26304433 -0.3656638 ]
[-0.38583967 -0.23168114 -0.10811935 -0.18808383  0.18582745  1.1731348
  0.12248175  0.17457747  0.21110456  0.18076073 -0.16139463 -0.07268777
 -0.20605955 -0.10712616  0.41496256  0.28055286  0.00347438  0.40763393
  0.43629187  0.31861234]
[ 0.85243064 -0.38294312  0.12955761  0.08317813 -0.08265949 -0.7384599
 -0.24028921  0.1802368  -0.10427587 -0.15526581  0.28248146 -0.2219385
  0.72565055  0.0351808  -0.04586373 -0.9470994   0.24967308 -0.7601402
 -0.37905094 -0.24361318]
[-1.1240356   0.08042005 -0.37031803  0.27067327  0.25906304  0.5254446
  0.23642063 -0.27710274  0.09545948 -0.02722045 -0.7587074  -0.14595407
 -0.19452748 -0.00866516  0.2805419   0.9166307   0.08147848 -0.1008488
  0.37376475  0.35937315]
[ 0.02179646  0.694925    0.23886566  0.25614208  0.31725234 -0.5559142
 -0.45909372 -0.7368165  -0.5205441  -0.12274984  0.4978897   0.13532792
  0.25368413 -0.6806886   0.7022986  -0.04710386  0.09559637 -0.07602721
 -0.06850042  0.47199237]
[-0.08643652  1.4120357   0.9571302   1.0422128   0.4957639   0.16821098
 -0.3769403  -0.44707236 -0.70115787 -0.77551055  0.14655793  0.0251241
  0.48565006 -0.3842364   0.08423811  0.22737849  0.0609225  -0.45186767
 -0.8568139   0.27348962]
[-0.23644361  0.53909     0.820531    0.29007563  0.5484347   0.28799984
 -0.6134119  -0.35148355 -0.6133204   0.09247609 -0.8980382  -0.39253274
  1.0057902  -0.20942591 -0.03415203  0.1771293   0.6260319  -0.38647702
 -0.74920833  0.32571435]
[-0.43431625  0.11032647 -0.8212748  -0.04062625 -0.57202125  0.17860076
 -0.24510232  0.30559024  0.72523594  0.3251871   0.7030352   0.02692311
 -0.5907796   0.69028986 -0.51859874 -0.04065281 -0.18695274  0.08639732
  0.13368322 -0.15543458]
[ 0.7897996  -0.11663394 -0.46794882 -0.06476082 -0.06163379  0.41980687
 -0.0224358  -0.30924115 -0.14513925  0.44573238  1.5802312   0.40544587
 -0.42044657 -0.07376286 -0.21696149  0.41648766 -0.85003334  0.37109488
  0.33954147  0.04655052]
[ 0.15071945  0.9886264   0.28615835  0.3772659   0.3784259  -0.4774163
 -0.45223817 -0.4172684  -0.7706749  -0.3033289  -0.3505126  -0.4662015
  0.10350238 -0.29566702  0.3983919   0.0631329   0.2408546  -0.4634759
 -0.00892868  0.40159628]
[-0.977538    0.06006081 -0.07814302 -0.04305225  0.25486282  0.31987032
  0.3784065  -0.354194    0.05814172  0.21844594 -1.5549073  -0.5134413
 -0.465297   -0.2380406   0.44810754  0.44953954 -0.0171843  -0.04181204
  0.07972594  0.29981354]
[-0.09717964 -1.012082   -0.47757506 -1.737138   -0.76512545  0.20827541
  0.33817953  1.3643585   1.3325188   0.93613786  0.77304804  0.7919455
 -0.66943324  1.0565736  -0.95501065 -0.14923124 -0.18099391  1.0706755
  0.26547617 -0.8063739 ]
[-0.10051152 -0.46781582 -0.77959365 -0.0668202  -0.6853415  -0.41938996
  0.21365751  0.4319991   0.56621706  0.6718061  -0.33878082  0.30562764
 -0.35011396 -0.1050711  -0.5931969  -0.1909662  -0.28324693  0.42405042
  0.53794694 -0.13851891]
[ 0.5221822   0.8139091   0.6286263   0.6177906   0.3690732  -0.71725154
 -0.5175971  -0.30928284 -0.10326573 -0.8469237  -0.19265167 -0.39832333
  0.39862543 -0.87427557  0.7015017   0.06739717  0.9341719  -0.6469675
 -0.3030777   0.51624054]
[ 0.22730589 -0.38664725 -0.0752451  -0.88836324 -0.01468704 -0.30247486
 -0.56843257  0.32254174  0.15058552 -0.09595887 -0.33898914 -0.39022878
  0.22722654  0.2474139  -0.36005998 -0.56963426  0.3965324   0.06739791
 -0.07715009 -0.35181785]
[-0.06551228  0.06165813 -0.1127784   0.17761713 -0.48337287 -1.2137786
  0.06214048  0.24469471  0.22049417 -0.13097043  0.45983192  0.12677777
  0.10403655  0.53548396 -0.25266436 -0.4270137   0.04300698  0.04864186
 -0.77523756 -0.409372  ]
[ 0.146974    0.21748368  0.36872596 -0.18039727  0.13745324 -0.2565256
 -0.19966877 -0.09302738 -0.1804078  -0.42724067 -0.12818225 -0.03063389
  0.10226658 -0.38676754  0.3446151  -0.6237895   0.0795928  -0.61110413
 -0.07533308  0.291261  ]
[ 0.02624405 -0.131198   -0.40362257 -0.10261092 -0.1586506   0.11699291
 -0.12770766  0.00239086  0.468135    0.479704   -0.11806398  0.16906783
 -0.29138795  0.05683881 -0.6564867   0.23072723  0.11917207  0.37754607
  0.15384682 -0.28016   ]
[ 0.00159148  0.8341569   0.56293046  1.0289462   0.5974814   1.3768865
 -0.11740454 -0.9435871  -0.57032764  0.05870602 -0.97996765 -0.6429344
  0.48414367 -0.87688667  1.0142157   0.9132827   0.5486188  -0.57625324
 -0.889406    0.6087409 ]
[ 0.27017978  0.8837112  -0.19610672  0.53467333  0.16741262  0.72657174
 -0.25993922 -0.76128167 -0.4312895  -0.02700398  0.9191814  -0.08712309
 -0.3596591  -0.5543913   0.45860502  0.8477935  -0.6247899   0.06102289
  0.14917138  0.7178787 ]
[-0.03021441  1.163362    0.71141434  0.43122888  0.6999831   1.248147
 -0.4365921  -0.603065   -0.89738256 -0.23742585 -0.88172203 -0.6072141
  0.659408    0.04587505  0.48238808  0.5518806   0.63296115 -0.57471853
 -1.1620227   0.4629633 ]
[ 1.1486644  -0.609491    0.09164123 -0.47238424 -0.17094748 -0.1680859
 -0.27510315  0.02172343  0.15127304  0.2583536   0.4357162   0.1650365
  0.5179994   0.07816315 -0.53448755 -1.0351223   0.15176865 -0.40471488
  0.11910299 -0.31014797]
[ 0.163383    0.35120183  0.56718034 -0.29374897  0.18244079 -0.7626335
 -0.4534346   0.16606075  0.4312645  -0.40620267  0.1450339  -0.44003522
  0.47475573 -0.3644688   0.10775366 -0.8228454   0.14789814 -0.46815196
 -0.42100054 -0.08578793]
[-3.0470643e-02  9.0734375e-01  7.8321356e-01  3.5606009e-01
  2.0817439e-01  4.7533968e-01 -4.9032044e-01 -5.9245294e-01
 -5.9380996e-01 -4.5361635e-01 -2.8409407e-01 -4.8761639e-01
  9.2465782e-01 -7.0646644e-04  1.9402812e-01  5.5563133e-02
  3.3386126e-01 -4.4972411e-01 -1.0767136e+00  4.8834887e-01]
[ 0.2812439   0.8995359   0.43142635  0.8716624   0.5139181  -0.03186296
 -0.5107897  -1.2614917  -1.2412757  -0.56197214 -0.3639486  -0.4798302
  0.57113194 -1.4883631   0.77727795  0.59417415  0.22677512 -0.8741391
 -0.24754281  0.28283837]
[-0.6664178   0.717027   -0.15680097 -0.04507859  0.16625385  0.77576035
  0.02417102 -0.09747641 -0.16981786  0.14517519 -0.04128338 -0.05445843
 -0.5394296   0.10889027  0.18677786  0.6330066  -0.23421025 -0.09266291
  0.453448    0.14250967]
[ 0.00667402 -0.34399223 -0.14902118 -0.23166665  0.37672192  0.74846
  0.26558805 -0.29943475 -0.29050943 -0.05833044 -0.48139226  0.08977066
 -0.34705824 -0.37876987  0.3739978   0.7298126  -0.03215616 -0.11349285
  1.0200932   0.28998286]
[-0.03972437 -0.4689821  -0.7015117  -0.05066506 -1.373988   -0.8202695
  0.87493706  0.13173555  1.0973947   0.5647576   1.6029779   0.9652164
 -0.8892369   0.85730815 -1.0859168  -0.5665277  -1.0899818   0.774347
  0.50463784 -1.0518935 ]
[ 0.26671198  0.35048118  0.8127034   0.10389823  0.4268885   0.00791444
 -0.35959488 -0.11630234 -0.28607345 -0.64384997 -0.37678796 -0.18064009
  0.27057824 -0.9496517   0.37048078 -0.2572324   0.7387318  -0.92559755
 -0.4989602   0.23710893]
[-0.89376324 -0.3459241   0.09971578 -0.55958503  0.09315458 -0.2372493
 -0.01591428 -0.32512674 -0.29560193 -0.16627689 -0.37792554 -0.2429558
 -0.07479821 -0.21687928  0.00270461  0.06647284  0.1223437  -0.09215324
 -0.41918305 -0.0375093 ]
[ 0.18696254 -1.1110902  -0.8000175  -0.7695912  -0.4902147  -0.926096
  0.468376    0.291454    0.6847705   0.7607618   0.32046667  0.15691055
 -0.84211624  0.26978773 -0.40306804 -0.10173459 -0.27633035  0.7934154
  0.6806269  -0.45772377]
[-0.16007523  0.37674794 -0.25677803 -0.0685504   0.04105045  0.21231142
 -0.16720027 -0.45345312 -0.22460525  0.22746895 -0.81727475 -0.24373367
  0.1706163  -0.38634485  0.2658106   0.3251862   0.46321714 -0.3174358
 -0.630299    0.01885731]
[ 0.8723515   0.46282429  0.17366037  0.13315965 -0.09823246 -0.5588638
 -0.05985432 -0.0030939   0.09004375 -0.13948958  0.22316875 -0.06882778
  0.29809093  0.08863551 -0.06272569 -0.8136431  -0.09223669 -0.24743398
 -0.44416332 -0.41306186]
[ 0.08359139 -0.92076516 -0.12939951 -0.5304076  -0.6591771  -0.0068957
  0.6022095   0.66896236  0.51466054 -0.02868395  0.9086292   0.7154156
 -1.0253564   0.6283826  -0.46511924 -0.79544365 -0.5113283   0.47180393
  0.75712967 -0.39904276]
[ 0.03846674 -1.2686174  -0.17716797 -0.7464311  -0.17433608 -0.8694325
 -0.09855865  0.85764956  0.6821541   0.10183322 -0.02759005  0.19094585
 -0.09860649  0.44846842 -0.4943156  -0.46828842  0.16253015  0.44373536
  0.4685962  -0.32495394]
[-0.1403127  -0.90948176 -0.5019872  -0.47484615 -0.7024855  -1.2118503
  0.56401575  0.5128425   0.5391882   0.15079473  0.7742524   0.76786315
 -0.54059315  0.7507614  -1.2332631  -0.45601323 -0.44839382  0.77543044
  0.64832366 -0.74286056]
[ 0.24290238  0.48261002  0.8751461   0.2671039   0.69660586 -0.7458039
 -0.3729912  -0.47380584 -0.6997417  -0.78161347 -0.34559935 -0.7420055
  0.87020504 -0.8549679   0.35595772  0.37757957  0.45739362 -0.6430308
 -0.381442    0.2216991 ]
[ 0.40379056  1.0099052   0.3098127   1.0463239   0.59376985 -0.6957835
 -0.46514234 -1.0177531  -0.93119    -0.28182083 -0.63550484 -0.47817647
  0.20451576 -0.7980657   1.0516796   0.03060624  0.39814952 -0.8888733
 -0.24664746  0.5292737 ]
[ 0.22330861 -1.3749926   0.02785061 -1.0701352  -0.17231147 -0.38676506
  0.13459508  0.34015372  0.06072059 -0.00712612 -0.7721787  -0.12404265
  0.27230334  0.01674503 -0.42474136 -0.79202473  0.5718404   0.17586742
  0.25108254 -0.14345245]
[ 0.702664    0.7708867   0.06930804 -0.11626016  0.22067316 -0.4310602
 -0.18555856 -0.09301011 -0.06613539  0.06572387  0.00517694 -0.08365574
  0.44142815 -0.12749039  0.13871083 -0.38998446  0.07993579 -0.34099194
 -0.30381745  0.03315514]
layer 5 Activation
tanh
layer 6 Dense
20 1
[2.8428862]
[0.6046872]
[0.5137546]
[0.58688426]
[0.53397936]
[-1.3991234]
[-0.38537192]
[-0.67082024]
[-0.74508584]
[-0.42185593]
[-0.4341006]
[-0.39898857]
[0.48210487]
[-0.70755833]
[0.5289389]
[-1.3907977]
[0.51522434]
[-0.5612199]
[-0.49500972]
[0.4797775]
[3.4285376]
