layers 7
layer 0 Dense
20 20
[-0.01172954  0.55588573 -0.09270686  0.1766472  -0.43209055 -0.1359534
  0.07234317 -0.46778646 -0.11798318 -0.12195418 -0.13287139  0.0032632
 -0.5276015  -0.0022256   0.47399804  0.6103516   0.00495318 -0.00836367
 -0.2110757  -0.24107969]
[ 0.3051776  -0.11655741 -0.24514118  0.01193956  0.09282537 -0.38787574
 -0.0321719  -0.2997857   0.30641454  0.2279422  -0.08520517  0.45444837
 -0.43771455  0.06160228 -0.15206343  0.01929382  0.06556194  0.36524788
  0.5077251   0.6081777 ]
[ 0.15990676 -0.5372963  -0.59166574 -0.27671042 -0.12451203  0.06686632
 -0.22387563 -0.08102082  0.6511964   0.07212362  0.30089635  0.30881092
 -0.634559   -0.33534503 -0.16048916  0.20652069  0.21648733  0.08203837
  0.5647882   0.6579872 ]
[ 0.38629344  0.16733429  0.18938375 -0.16875425  0.28848633 -0.48228386
  0.55453223  0.01736009  0.04920557 -0.19996327 -0.37854967 -0.01843412
 -0.1387642  -0.01005272  0.3711974   0.40688872 -0.24687865  0.4695432
  0.45219758  0.13823362]
[-0.04901972 -0.5852942  -0.32975087  0.18061782  0.01351656 -0.03951752
 -0.0237835  -0.37060764 -0.08026572 -0.23580466  0.0033933   0.01121995
  0.19968559 -0.09631003 -0.3901695   0.26553953  0.1327019   0.35313934
 -0.08314169 -0.6315774 ]
[-0.27183235  0.5803374  -0.11333518  0.35925236  0.18943265 -0.09895293
 -0.06797124 -0.03451536 -0.49417928 -0.13784106 -0.07465522 -0.03764839
  0.48209277  0.3656912  -0.1967215  -0.10895198 -0.54820603  0.2783495
 -0.1264894  -0.625743  ]
[-0.30212325  0.01578447  0.07579728  0.26341403 -0.20451908  0.16025227
 -0.01271483  0.4183159  -0.5269024   0.12629884  0.21794519 -0.08740365
  0.6577244  -0.05612213 -0.30357575  0.33077216 -0.54972005  0.22759157
 -0.28103092 -0.23642772]
[-0.59252393 -0.23999894 -0.27636287  0.3236488   0.36257967  0.2532643
 -0.09996869  0.64347047  0.379639    0.12782903 -0.20138703  0.2406448
  0.40661165 -0.26383176 -0.22389393 -0.39986724 -0.47254103 -0.34744915
 -0.33824366  0.11496812]
[-0.18902023  0.4825841  -0.21522559  0.77823895 -0.31432787  0.16025873
  0.0374506   0.05367775 -0.21214457 -0.07593842 -0.29542696 -0.47010827
 -0.04338501 -0.34114507  0.307877   -0.3505493   0.14085266  0.2929116
 -0.707275   -0.6280742 ]
[-0.3549775  -0.30871415  0.03346832  0.26655844  0.9824295   0.76826
 -0.6107654   0.7122878  -0.562429   -0.15343761 -0.67602533  0.36601436
 -0.21597044  0.78913075  0.6722118   0.05120221  0.5223635  -0.4368808
 -0.5384721  -0.87884575]
[ 0.20303857 -0.05146926 -0.71677756 -0.07719404  0.3819763  -0.14434013
 -1.2613668   0.05753191  0.5363645  -0.8166433  -0.53464025  1.0218049
 -0.29875043  0.12649365 -0.71305966 -0.08394464 -0.30084136  0.90874845
  0.38707578  0.35779   ]
[-0.5483752   0.0813143   0.11975823  1.1714408  -0.57128966 -0.49546695
  0.65692234 -0.42734316 -0.07126608  0.49508548 -0.03821294  0.04130934
 -0.4213894   0.22438978 -0.10972407 -0.09928364 -0.2178584  -0.5963871
 -0.46599627 -0.47052407]
[ 3.2618552e-01  3.6924057e-02 -2.6524502e-01  1.3914371e-01
  1.8166199e-01  3.5351110e-01 -5.6702286e-02  5.5271417e-01
 -1.6551900e-01  3.6139035e-04 -1.8598354e-01  1.9964579e-01
  2.6439714e-01 -6.2201303e-01  1.1890055e-01 -6.9470340e-03
  2.3709746e-01  2.3041639e-01  6.2952027e-02 -1.2769461e-01]
[-0.629702    0.01492552 -0.73378724 -0.6353957  -0.50056    -0.2370808
 -0.11328245  0.54826635  0.1937016   0.5922579   0.57032865 -0.8691245
 -0.29228672 -0.8059163  -0.16384515 -0.26684493 -0.21325248  0.03412746
  0.65951276 -0.0294552 ]
[-0.25040033 -0.44200695  0.92435795  0.5610494  -0.20355815  0.45791426
  0.49831393 -0.07143287 -0.41026452  1.4415808   0.99009335 -0.6986747
  0.0784374   0.31869942  0.07800531 -0.17591137  0.08555677 -0.7528304
 -0.40566957 -0.1395638 ]
[ 0.30126306  0.18414263  0.0696905  -0.09823318  0.70490366  0.3613559
 -0.22947626  0.37072033 -0.18023889 -0.2831013  -0.14710113  0.59438366
  0.47271782 -0.43844277 -0.3386185  -0.36245343 -0.64782315 -0.11706555
  0.38994917  0.6562643 ]
[ 0.02378581 -0.8485492  -0.25054568  0.15098244 -0.29462153 -0.5571869
  0.08043773  0.42531732 -0.06994059 -0.17051767  0.00830198 -0.17032482
  0.15502071  0.6584429  -0.4957978   0.33503133 -0.17908591  0.45616567
  0.44773555 -0.5603091 ]
[ 0.6935089  -0.01096852  0.17142281  0.36485335 -0.49473876 -0.16553237
  0.35188794 -0.90774184 -0.36813712 -0.07409774 -0.14936808  0.1941195
 -0.31975758  0.24019505 -0.53740084 -0.0844676  -0.16945156 -0.3759437
  0.07274284  0.3931205 ]
[-0.24733791  0.3824181  -0.15091272 -0.4041623  -0.16617613 -0.3786689
  0.31838584 -0.3127834  -0.20114993 -0.57679886 -0.3390089  -0.20129316
  0.8334565   0.23303455  0.49584323 -0.1200828   0.39297658 -0.29545414
  0.1789714   0.12714928]
[-9.30810645e-02  2.57219374e-01  3.95867765e-01  2.98473030e-01
  1.35151684e-01 -5.41730702e-01 -2.19754219e-01  1.19375512e-02
  5.57931840e-01 -4.18376997e-02  2.54898489e-01  2.43984371e-01
  1.02308325e-01 -4.45971638e-01  4.59464820e-04 -1.93267643e-01
 -6.68745115e-02  9.92461890e-02 -4.13011432e-01 -5.37617683e-01]
[ 0.05798205  0.2360249   0.05442042 -0.25955692 -0.02003135 -0.02058482
  0.18239918 -0.19828571 -0.03272616 -0.19508673  0.01648849 -0.06826576
 -0.03688173  0.02233125  0.06998908 -0.00737731  0.10887383  0.08745687
  0.15586492  0.12450709]
layer 1 Activation
tanh
layer 2 Dense
20 40
[-0.18372963  0.18444262 -0.240178   -0.18046291 -0.35277835 -0.32826892
 -0.13350032 -0.16148384  0.09857243  0.14904621 -0.0407363  -0.06687326
  0.20430106  0.31041262  0.12061033  0.1268087  -0.469655    0.38601494
 -0.05859575 -0.01339545  0.17800407 -0.06980502 -0.04106748 -0.25616723
  0.00885003 -0.29024515  0.07938185  0.09288027 -0.04653096  0.12733118
 -0.03651131  0.294206   -0.02276126 -0.24452265 -0.4018936  -0.09348061
 -0.28304636 -0.15111968  0.10116536  0.27762696]
[ 0.117257    0.08347644 -0.8098646  -0.44340396 -0.3643896  -0.46939972
 -0.5058696   0.13535507  0.03503866 -0.12310766 -0.3117482  -0.19312042
  0.06094383 -0.28831807 -0.2408084  -0.20132297  0.25033623  0.11927641
  0.23873612 -0.20620827 -0.13306035  0.20597266  0.12312497  0.12693018
  0.15496814 -0.2999502   0.10492649  0.2139128   0.03463262  0.30239636
 -0.17510194 -0.2837327   0.03292204 -0.42220408 -0.32258934  0.06059572
  0.01390905 -0.09283794 -0.44296658 -0.10831159]
[ 0.11560564  0.12822872 -0.04717987 -0.15788205  0.134833    0.15617056
  0.41556627  0.05695246  0.10126411  0.19044936 -0.18486013  0.31088567
 -0.06867116  0.3875743  -0.11778758  0.15885694  0.51545197 -0.1632452
 -0.04934836 -0.23281492  0.28010964  0.3440868   0.3177689   0.1806848
 -0.27396485 -0.32707205 -0.2710282  -0.34422612  0.19260657 -0.05373118
 -0.14476399 -0.19653262 -0.17335483  0.08274958  0.28442603  0.11779469
 -0.2634089   0.04963487  0.21528919 -0.24418457]
[-0.00459121  0.16718516  0.26716426  0.2765563  -0.13184826  0.10734422
 -0.07795554 -0.24533807  0.25030547  0.07285962  0.35861447  0.15328574
 -0.06955945 -0.16156742 -0.15439159 -0.01767564  0.15382633 -0.22730072
  0.164616   -0.1841137   0.03547826  0.27316013  0.03663538  0.23584431
 -0.13628562 -0.1757263  -0.18039475  0.35637644  0.24193358 -0.00224808
 -0.21846165  0.30550277  0.20859756  0.25360456 -0.04956803  0.22070305
  0.21934606  0.19736023  0.6184224  -0.13712242]
[ 0.08124793 -0.06086329 -0.04088486 -0.15854003 -0.22123039 -0.06014668
 -0.15233101 -0.24318655  0.00196422 -0.16052003 -0.22413962  0.23014301
  0.05014495 -0.12383454 -0.05746934  0.02684223  0.22786176  0.3514246
  0.21348654  0.31153983  0.6542875   0.2365808  -0.17320724  0.3113054
  0.6018385  -0.40337488 -0.18190956 -0.8916192  -0.28362653  0.23887435
 -0.4158905   0.28615722 -0.4094936  -0.20166707 -0.02259794 -0.35427848
 -0.3514775   0.17341495  0.17905237 -0.276016  ]
[ 0.26691738 -0.06959466 -0.01533461 -0.45895138 -0.36356774 -0.03950407
 -0.40848577 -0.30372152 -0.27286676 -0.36622006 -0.13264798 -0.141746
  0.50093085 -0.21006395  0.00605224  0.13737775 -0.2165506   0.04771964
 -0.07945983  0.36556506  0.63518596 -0.09631519  0.19617595 -0.04733042
 -0.34977707 -0.09786036 -0.07043774 -0.1984191  -0.00589099  0.28043324
 -0.19800606  0.72438294 -0.0020507  -0.22325741 -0.1490834  -0.10998928
  0.06122281 -0.08798335  0.36752412 -0.01675427]
[ 0.05082896 -0.49150053 -0.25023672 -0.03197664 -0.27311847 -0.4439872
 -0.13355668  0.18105769 -0.03808507 -0.12672013  0.36067337 -0.44206533
 -0.1574729   0.29638886  0.36090797  0.10863519  0.5788168  -0.42315292
  0.505298   -0.22763208 -0.45030737  0.24563824 -0.05576989 -0.12651415
 -0.25669667  0.2083978   0.28470442  0.683769    0.3891526   0.38121217
  0.01757892 -0.56466967 -0.09642561  0.3801635   0.24928841 -0.01470413
  0.08316085 -0.14129883  0.19284019  0.02947592]
[-0.23416181  0.16379412 -0.26345855 -0.30084422  0.09012955  0.30564305
  0.54761755 -0.36083263 -0.1324005   0.3421495   0.16128558  0.35163411
 -0.3269398   0.2848028   0.09292279 -0.3444528   0.3316708  -0.23217295
  0.2721918  -0.12382447  0.40200132  0.14407381 -0.2465049   0.18517962
  0.16860813  0.00470247  0.44794285 -0.32727557  0.08059455  0.23660173
 -0.20884073 -0.08377557 -0.04423009 -0.00571014 -0.01215365 -0.27436656
  0.19287838 -0.13529967 -0.08125797 -0.41047978]
[-0.05505666 -0.23535994  0.08256388  0.417661   -0.04800963  0.18873312
 -0.3063275   0.1325059  -0.16212252 -0.18547378 -0.26965383  0.32386142
 -0.02959361 -0.21928684  0.3086958   0.06458406 -0.05147024 -0.15787217
 -0.17585327 -0.06619407 -0.16670616  0.14927642  0.02885472 -0.21106257
  0.23870406  0.33039725  0.18936856  0.00970835 -0.19105798  0.09297915
  0.0127414   0.07760429 -0.29889005  0.12311507  0.32668275  0.01993173
 -0.02116773 -0.02425817 -0.22165547  0.37497094]
[ 3.0912206e-01 -2.3117121e-01  2.6341918e-01  1.9244044e-01
  2.0233867e-01  1.8788566e-01 -1.6880089e-02  1.7254953e-01
  1.9410455e-01  6.9633126e-02 -4.7954980e-01  2.9871173e-02
 -1.9075234e-01 -2.4062879e-01  4.8743904e-02 -4.2867346e-04
  5.3972971e-01 -5.9442014e-01  4.0178689e-01 -2.2119875e-01
 -1.5027080e-01  1.6473022e-01 -7.0343584e-02 -5.8586866e-02
 -7.3385990e-01 -2.4700906e-02 -3.7186418e-02  3.4132358e-01
 -8.4554985e-02 -2.9001433e-02 -1.9627491e-01 -3.5348300e-02
 -5.2998427e-02  6.8250281e-01  5.1723778e-01  1.6261798e-01
  1.7522016e-01 -1.9042593e-01  3.1311342e-01 -5.5739112e-02]
[-0.17154397 -0.3600496   0.06981313  0.6213171  -0.00428016  0.42804834
 -0.10773907  0.05839306  0.14983132 -0.39184958 -0.16742335  0.15837276
 -0.2993895  -0.24730913 -0.0639959   0.2823318   0.5353416  -0.43712062
  0.03253204 -0.05627687 -0.37464416  0.23474976  0.21529141  0.02530614
 -0.28027442 -0.11185662 -0.04118015  0.34663665  0.26915616 -0.06150558
 -0.27885294 -0.51869226 -0.00280534  0.1313839   0.35692048  0.17670213
 -0.12639801  0.08732126  0.14732681  0.2496256 ]
[-0.02805513  0.01971757  0.14718184 -0.5520723  -0.04697961  0.15462382
  0.18011066 -0.88310444  0.05589845  0.0029414   0.11846287  0.44607055
  0.5758245   0.07569961 -0.10434679 -0.17701997 -0.35769638  0.5996414
 -0.43213978  0.25281352  0.70473784  0.09719056  0.2355649  -0.06924353
  0.6284565  -0.30743697 -0.29435828 -0.07366984 -0.03336241  0.25229213
 -0.4170956   0.6512733  -0.29265794 -0.4022154  -0.51016676 -0.56842023
  0.14002565  0.3823811   0.05438241 -0.4212153 ]
[ 0.14915548 -0.17504044  0.27038848 -0.07315732  0.2370158   0.12917218
 -0.07523072 -0.13115771 -0.04812463 -0.09806529  0.09076633  0.28371537
 -0.234612   -0.11664727 -0.20494162 -0.15181449  0.20767218  0.20677328
  0.33199763 -0.38814017 -0.06465887  0.32735863  0.2284432   0.15639777
 -0.25363722  0.11043181 -0.00304766 -0.23023939 -0.07543018 -0.25101736
 -0.12544046  0.15327914 -0.10488934  0.16351654  0.17331436  0.19764893
  0.04213861 -0.28714696 -0.26296794 -0.12214102]
[-1.8229681e-01  1.1615109e-01 -1.6894439e-01 -3.7658033e-01
 -1.6724315e-02  3.4695461e-01  9.7811073e-01 -4.4804510e-01
 -9.1650113e-02  1.9936728e-01  2.1959007e-01  2.8325111e-01
 -1.1833783e-01  2.9671443e-01 -3.1492969e-01  8.7247483e-02
  3.6179745e-01  1.3705853e-03 -3.8884934e-02  4.2855710e-02
  5.5793017e-01  4.9784577e-01 -1.6359231e-01  1.1313774e-01
  3.4483463e-01 -3.8503805e-01  1.8324290e-01 -3.7594482e-01
 -1.6348764e-01  3.2138284e-02  2.2631051e-02  2.3507099e-01
  3.9327562e-01  1.0199368e-01 -1.3183135e-01 -4.2075765e-01
  2.8620026e-01 -6.7675434e-02 -6.7122281e-05 -3.4504107e-01]
[ 0.21343695 -0.06457651 -0.604482   -0.47834188 -0.21634507 -0.446002
  0.1360379  -0.02912037 -0.20260249 -0.20779425 -0.2706256  -0.41151658
  0.1642782   0.14898516  0.0448935   0.27923664  0.40822822 -0.05677321
  0.37041962  0.25336832  0.47734424  0.28093037 -0.14493264 -0.18481746
 -0.2659365   0.23736481 -0.29880136 -0.4557331  -0.21643707  0.07319645
  0.1554525   0.2701671  -0.22647588 -0.06120557  0.20259723  0.08986651
  0.20152603  0.03744123 -0.08400489  0.02242406]
[-0.01110637 -0.25014964 -0.17901117 -0.18980151  0.2508542  -0.27523738
 -0.02550111  0.31612748 -0.03621159 -0.05994263  0.31499782 -0.15191473
  0.0537722   0.65762055  0.1604006  -0.29288447 -0.10268706 -0.19264208
  0.19680776 -0.29016382  0.19241586  0.25696015 -0.03481236 -0.02073156
 -0.0823697   0.40727517 -0.15018027 -0.05364654 -0.03139932 -0.09543072
  0.07143895 -0.19664866  0.31580657  0.21472348  0.01466621 -0.1023568
  0.05716098 -0.15964742 -0.10115217 -0.19222465]
[-0.2018511   0.2554207  -0.09787127 -0.40150273 -0.17405711 -0.1813541
  0.45952958  0.00505189  0.370815    0.22264107  0.098754   -0.27176264
  0.08040729  0.15477641  0.33673936 -0.21514967 -0.11282989 -0.2511997
  0.46334162 -0.11211989  0.0274118  -0.07883894  0.17596324  0.2096507
 -0.07187639 -0.00291341 -0.44398004 -0.3106461   0.0473425   0.19888455
 -0.00582328  0.02893191  0.25578594 -0.13365309 -0.3770235   0.04030046
 -0.28205246  0.3296347   0.04801517  0.07252327]
[-0.06105512 -0.00459665 -0.08279978  0.40431416  0.01496055  0.15534161
 -0.2199577  -0.17848672 -0.27252024  0.18082157 -0.40045926  0.10204634
 -0.05464669  0.34148443  0.19283275 -0.22166243 -0.09874787 -0.01018518
 -0.29031044  0.07976267  0.392793   -0.37517044  0.10873707  0.31302956
  0.42301705  0.10270901 -0.28845924  0.01755069 -0.37667233  0.01210412
  0.1727811  -0.33165532  0.16792607 -0.10932504  0.00239067  0.00297288
 -0.1773024  -0.20233281 -0.10671016  0.01990065]
[-3.41009527e-01  1.29052415e-01 -1.01814404e-01  3.59987408e-01
  4.50143367e-02  2.21447408e-01 -2.76154041e-01 -2.72582293e-01
 -5.32062948e-02  1.01448409e-01 -1.58139855e-01  2.83099294e-01
 -3.63517731e-01  1.90851316e-01  5.09121493e-02  5.29045425e-02
 -3.31247691e-04  1.51476949e-01 -3.74450713e-01  1.21593110e-01
 -4.78080571e-01  1.19121663e-01 -2.29082182e-02  2.03894421e-01
  5.36818326e-01  1.37514889e-01  2.88771689e-01 -3.86260599e-01
 -2.65190769e-02 -2.26671025e-02 -3.64993815e-03 -4.34348643e-01
  1.28578186e-01 -1.33472785e-01 -2.99440593e-01 -3.29099327e-01
  3.08987230e-01 -1.95312724e-01 -3.05773020e-01 -7.98663124e-02]
[ 0.10900598  0.2996508   0.13457882  0.10772516  0.10444161  0.02191654
 -0.01342111 -0.15945648 -0.1464277   0.09223849 -0.12358173  0.11531773
 -0.36426082 -0.4024785  -0.03891335 -0.35091814  0.29339874 -0.00990057
 -0.20801869 -0.11513582 -0.23879847  0.25306892 -0.22675544 -0.26724833
  0.75673926 -0.10022987  0.00547639  0.27679446  0.01046751 -0.39553437
 -0.08097251 -0.7635323  -0.12686321 -0.09152593 -0.08210242  0.06484462
  0.37321016  0.11112437 -0.61476624 -0.18745744]
[-0.03201647  0.00299749 -0.17901628 -0.08087608 -0.05674394 -0.13654298
  0.05164279  0.1949424  -0.1152868  -0.03061884  0.10475349 -0.10757189
 -0.09400681  0.364297   -0.02475731 -0.10769038  0.17526023  0.0457576
  0.03877579 -0.02707894 -0.10036457 -0.0312951  -0.02461631 -0.01562515
  0.13490231  0.07463172  0.04370361 -0.05426702  0.04013365  0.08667212
  0.10936675 -0.2553142   0.0286356  -0.0362296  -0.10924026  0.00220191
 -0.01945628 -0.07695124 -0.1149516  -0.01733014]
layer 3 Activation
tanh
layer 4 Dense
40 20
[-0.17136943  0.06928737  0.20750642  0.1626941  -0.18903303  0.10154834
  0.29914388 -0.06399437 -0.24063158  0.30187085 -0.08482273  0.16521002
 -0.14881596 -0.24084394  0.22297975 -0.4219717  -0.42318586 -0.25151488
  0.3754738  -0.01452866]
[ 0.02039756  0.22114925  0.17760809  0.3291485  -0.10200161 -0.15547164
  0.236783    0.35546616 -0.06261117 -0.29991004 -0.11144216  0.10651189
  0.01304426  0.34374774 -0.24278699 -0.01275347 -0.15521054  0.18626067
 -0.03168739  0.02763614]
[ 0.12859875 -0.08343714  0.20528303  0.22473527  0.1028467   0.10212975
 -0.19297186  0.00569462  0.03935453  0.1405878   0.2906554   0.03663171
 -0.38874528 -0.13729621  0.15741889  0.16108182  0.17642991 -0.14497384
 -0.26193085  0.14762677]
[-0.11082662  0.16176032 -0.21357878 -0.03460201 -0.05517807  0.11228167
  0.2134696   0.06096012  0.21780978  0.16983208  0.08118523  0.01212884
 -0.44366476  0.03648112  0.30012527 -0.02812244  0.20956086 -0.00119647
 -0.37896824  0.3875749 ]
[ 0.00129441  0.17427972 -0.24660237 -0.17417984  0.06775121 -0.03313001
 -0.31380323  0.04816921  0.0698395   0.16971867 -0.22798029 -0.14100252
 -0.35401702  0.03068368  0.00423983  0.31528953 -0.13724427 -0.02862809
 -0.2887303   0.03085725]
[-0.28739434 -0.07593162  0.12203989  0.04342762  0.14300448 -0.16931014
  0.06497325  0.14871384 -0.2577997  -0.22511548  0.2235891   0.21957669
 -0.21723057 -0.14469014  0.20988213  0.04842003 -0.01428168  0.16751575
 -0.05675138  0.08221082]
[ 0.14464127 -0.03320541 -0.29545447  0.20922132 -0.07941419  0.11826792
  0.05644846  0.36744276 -0.04946937 -0.3041907   0.02513888 -0.20717086
  0.03458289  0.16325828  0.19014807 -0.36613032  0.08942552  0.04699621
 -0.08789375 -0.30795676]
[ 0.04085629 -0.16318817 -0.21612532 -0.09874143 -0.13746849  0.09599014
  0.22851905 -0.28124648  0.17809638 -0.03373523 -0.1436238  -0.04177087
  0.3820251   0.02485207  0.24336654 -0.2882389   0.22559598  0.20779155
 -0.08933438 -0.10080724]
[ 0.12884971 -0.05271525  0.18959358 -0.07420042  0.04366241 -0.0499019
  0.1706383   0.00170586  0.11044939  0.20250885  0.03029588 -0.04139457
 -0.16479832 -0.29594025  0.16003871 -0.2936718  -0.0086636   0.12037385
  0.1532581  -0.01463658]
[ 0.2556075  -0.06786205 -0.24962793 -0.06334544 -0.17081381  0.14900272
  0.13050331  0.11586319 -0.16470583  0.03397223 -0.21823813  0.34305966
 -0.24335478 -0.23406753 -0.00458031 -0.27263036 -0.05141353 -0.02591802
 -0.1843112  -0.155672  ]
[-0.02728054 -0.1643841   0.24502395  0.0681407  -0.01568276  0.15315667
 -0.17761348  0.05333445  0.02543503  0.03531502  0.32975656  0.0359155
  0.21682335 -0.25396153  0.02512894  0.24741462 -0.11168856  0.15453166
 -0.02238454 -0.05952195]
[ 0.05718677  0.06112486  0.05921657 -0.22619197 -0.22018774 -0.17473717
  0.17550093  0.335449   -0.06701209 -0.30488926 -0.07561407 -0.11426427
 -0.5947685   0.257186    0.13096686 -0.03249009 -0.33888787  0.06796657
  0.06366369 -0.01324086]
[ 0.24652281  0.32186538  0.225448    0.13642853 -0.14151812 -0.19150245
 -0.00637999  0.1915592   0.11878809  0.07143492 -0.10439765  0.08149999
 -0.19526803 -0.11113331 -0.27208227 -0.21359581  0.09766166 -0.00388381
  0.3660144  -0.02074119]
[ 0.06204889  0.17454897 -0.32644987 -0.2500977  -0.04260228  0.05692785
 -0.07128235  0.3366249  -0.00878511 -0.34049994  0.11127714 -0.13036463
  0.45765844 -0.1118156  -0.01062665 -0.1305984  -0.0062981  -0.04132893
 -0.2240179  -0.245882  ]
[ 0.07388885 -0.20651035  0.01252946 -0.02233481  0.13635227  0.06111483
  0.11271346 -0.07702333 -0.1853868  -0.01674134  0.0195173  -0.13156718
  0.0600015   0.16377604 -0.12365497 -0.00574095  0.20496437  0.1924132
 -0.2570376   0.15907298]
[-0.0827871   0.22710726 -0.06191688 -0.03084608 -0.1198922   0.18461095
 -0.04434352 -0.1338544  -0.06566107  0.13973047 -0.14040792  0.17758411
 -0.17647953 -0.34596542  0.1167356  -0.37606433 -0.04524743  0.19470562
  0.22700654  0.15987316]
[-0.05270225  0.24455315 -0.15221006 -0.2839494  -0.02750777  0.11793789
  0.15663889  0.09546907 -0.05984839  0.18526258  0.04012575  0.1490206
  0.13201721  0.05743069  0.429749    0.00914015 -0.03271354  0.07332707
 -0.02233038 -0.4194151 ]
[-0.01536594 -0.15833406  0.01298897 -0.00784858 -0.09646904 -0.1328845
 -0.22253169  0.17670679 -0.17910513 -0.154732   -0.08663935 -0.06094931
  0.04054955  0.02908544 -0.26387945  0.11782627 -0.20156874  0.09640429
  0.26289487  0.18169169]
[-0.20120238  0.08287903 -0.06339391  0.03683979  0.09277411  0.4219441
  0.26113582  0.11788534  0.08787019  0.34237203 -0.00190053 -0.06432326
  0.39111695  0.16103932  0.2963326  -0.33589524 -0.05505126  0.28150263
  0.2301725  -0.31303623]
[ 0.19363138  0.06092463 -0.20822571  0.35178673  0.09974731 -0.13790871
  0.15696779 -0.00793934  0.17731111 -0.17256738 -0.3000615  -0.18553875
 -0.19460061  0.16941445 -0.2858918  -0.09771068 -0.07471527 -0.32224667
 -0.13646127 -0.12960172]
[-0.24575078 -0.07125661 -0.23139466  0.12296099  0.01757682 -0.22617763
  0.13375817  0.368266   -0.00351088 -0.06830911  0.17327106 -0.02004998
 -0.32510298 -0.17459604 -0.3348541  -0.14456046  0.342354   -0.13400482
  0.23032981 -0.20403768]
[ 0.30516443 -0.11807562  0.22111005 -0.21141584  0.15205993  0.33940908
 -0.05277323  0.1255734  -0.16769958 -0.04953225  0.16894354  0.11566514
 -0.20303285  0.05421007  0.29643762 -0.03529849  0.1832447   0.03481976
  0.31220037 -0.24026024]
[ 0.16956547  0.21504408  0.01234537 -0.30175924  0.25589886 -0.17363538
  0.10939205 -0.03506067  0.19217151  0.03810394 -0.04607506 -0.02770191
 -0.20672393  0.21593198 -0.16906327 -0.14286368 -0.13816972 -0.09754366
  0.24989145 -0.05302533]
[-0.16241896  0.11316333 -0.28717536  0.0112516   0.21863034  0.2343854
  0.13452525 -0.10649236 -0.32825166 -0.13771777 -0.04639632 -0.00532427
 -0.15285257 -0.15376416 -0.01920057 -0.23629878  0.11542669 -0.26819748
 -0.1421455  -0.0841116 ]
[-0.15545632 -0.20358694  0.0958278   0.02627852  0.00218203 -0.40322095
  0.0537686   0.21750785  0.18851976 -0.2938654   0.06996065 -0.09855974
  0.13195616  0.0482109  -0.4234848   0.4446517   0.31162962  0.24449383
 -0.2836653  -0.12153158]
[ 0.04763239  0.2173795  -0.11027952 -0.17529373 -0.18528754  0.17952588
  0.06389673 -0.1424283  -0.19814323  0.1163707  -0.10207341  0.12412011
  0.0961814  -0.03981613 -0.1027713   0.04077494  0.10064233  0.13231513
 -0.48155555  0.343938  ]
[ 0.03635458  0.3777507  -0.09244335 -0.15162607 -0.03760037 -0.3590942
 -0.08498339  0.00530802  0.05096048  0.01373881  0.1955932  -0.19686633
  0.12713301 -0.15447654  0.01201676 -0.08499206  0.0813674  -0.19853018
 -0.3620468  -0.12906738]
[ 0.27441975  0.01997858  0.30233386 -0.3876027   0.2517344   0.21698976
  0.13924101 -0.5244855  -0.06209413  0.40888917  0.27830705 -0.12910311
 -0.20728676  0.06885386  0.12798259 -0.01985529 -0.12640464 -0.03881776
 -0.23111907  0.13093486]
[ 0.18080688 -0.04654311  0.430367   -0.25580963 -0.04418822 -0.15765014
  0.02339972 -0.2718193  -0.16490006  0.23437034  0.11787113 -0.04309291
 -0.02033354  0.17999266  0.21676277 -0.20185755  0.10191503 -0.10664698
  0.20694514 -0.16352785]
[-0.3152044   0.14603648 -0.13391995  0.0417798   0.10615344  0.09153293
 -0.22445531  0.13144138 -0.12958966  0.10916947  0.2755104   0.01386313
  0.19859213 -0.18125638 -0.17414996  0.15964569 -0.14918377  0.18090744
  0.21048756 -0.1709067 ]
[-0.06776047  0.2481248   0.19212134 -0.05737583  0.31089908  0.24528587
  0.1105609  -0.05415    -0.18182477  0.00318008 -0.12484483  0.20730738
  0.37181678  0.04239609  0.08449801 -0.12941377  0.08880282 -0.09874932
  0.04337893  0.01187129]
[-0.12019921  0.22500102  0.2871757   0.5043894  -0.05009113 -0.28674045
  0.03491688  0.14680699  0.02848361  0.27942902 -0.24733563 -0.14973979
 -0.3774104   0.06133417  0.10624305 -0.35048935  0.04196749  0.14499973
  0.3935824   0.06510985]
[ 0.14766411 -0.04870311  0.26877522 -0.22086391  0.13419679  0.22018047
 -0.01340645 -0.28346193 -0.28976303 -0.26969767 -0.17802249 -0.14186798
  0.22804023  0.18263365  0.1038394   0.09253284 -0.00198456 -0.06133582
  0.01112307 -0.2825566 ]
[ 0.1279845   0.21948    -0.2113217  -0.32670373 -0.23135567  0.23070481
 -0.20087393 -0.23670453  0.00867895  0.27311292  0.24304663 -0.01160818
 -0.3766497  -0.05978225  0.30483997 -0.19804007  0.13625787 -0.07799967
 -0.2606923  -0.16040827]
[-0.35811856 -0.12922445 -0.3442727  -0.33713758 -0.27815953 -0.05288445
 -0.23547885 -0.22002897 -0.1461044   0.32170945  0.14014961  0.00495649
 -0.36754906  0.08829177  0.32436514 -0.25111145 -0.10466448  0.07695387
  0.12377258  0.14882089]
[-0.27730858  0.32312015 -0.01217904 -0.2727854   0.21186462 -0.16814181
 -0.11488136 -0.06750491  0.05431565  0.33362693 -0.04717213 -0.2872687
  0.2511377   0.19950862  0.30544934 -0.00139137 -0.18040608 -0.27435857
  0.24740073  0.27429006]
[ 0.0951824  -0.3381099   0.23966989 -0.05458137 -0.17048505  0.11318377
  0.27875236  0.07568152  0.06279188 -0.01141765 -0.07975484  0.06506705
 -0.13137092 -0.17337288  0.17544346 -0.02118934 -0.19192103  0.053963
 -0.20043696  0.21045016]
[ 0.23534973  0.10492789  0.03430967  0.11507738  0.18495353 -0.07009257
  0.01697357  0.18182553 -0.20867842  0.066756    0.20195635 -0.03860028
 -0.19372821  0.18448617 -0.16285682  0.00651281  0.05125515  0.06761799
  0.18051298 -0.10229215]
[ 0.16497676 -0.05363511 -0.05460018  0.25699735  0.06167283  0.46543026
  0.25865716  0.12044996  0.1545968   0.24903482  0.36393696  0.10769118
 -0.39837024  0.21189578  0.28035563 -0.20643064  0.09403823  0.1339753
  0.03652085 -0.18722336]
[ 0.03803283  0.18030304  0.05314029 -0.22763042 -0.08069947 -0.33566356
  0.0195895  -0.45992345 -0.28529173 -0.02976973 -0.17138352  0.03949044
  0.02628812 -0.11023657 -0.05360287 -0.36317074  0.14357364  0.07257616
 -0.18532412  0.41317728]
[ 0.0129109  -0.04458652 -0.04092249 -0.05805559 -0.02051612  0.07555168
  0.07160728  0.02167831  0.00363347 -0.08872222  0.00801722  0.05918491
  0.25370672 -0.03758899  0.03817312  0.02463645  0.04038268  0.01890834
 -0.02104148 -0.10022897]
layer 5 Activation
tanh
layer 6 Dense
20 1
[-0.04098985]
[0.00794956]
[0.03136405]
[-0.15186912]
[-0.00258006]
[0.09529603]
[-0.00087217]
[0.12291554]
[-0.0045243]
[-0.16242856]
[-0.03627116]
[0.00848209]
[-0.18821414]
[-0.02025578]
[0.11681727]
[0.04700773]
[0.01000649]
[-0.00314935]
[-0.12181623]
[-0.13929532]
[0.08337253]
