layers 7
layer 0 Dense
20 20
[ 0.3493286  -0.17487243 -0.3409979  -0.20512651  0.26623014 -0.301192
 -0.46740258 -0.44257447 -0.26184526  0.29413673  0.04527407 -0.13300243
 -0.14280784  0.25648332  0.09047821 -0.01460641 -0.08657972 -0.17392077
  0.28191206  0.01598087]
[-0.11131208  0.23475075  0.06194777  0.10631107 -0.52205205  0.01882755
  0.18621896  0.11261903 -0.15058133  0.03027897 -0.40427727 -0.00251232
  0.01113824 -0.5612576   0.06716453 -0.24911214 -0.26432213  0.46564856
  0.5831557   0.29347748]
[ 0.11510658 -0.25452608  0.3836918   0.12462655 -0.30757332 -0.17942567
  0.3554633   0.2059301   0.20230328  0.25968015 -0.417991   -0.13081542
 -0.11345722 -0.0948832   0.06253763  0.22545093  0.371483    0.35410163
  0.33026618  0.28576604]
[ 0.04621016  0.07942209  0.08845185  0.19645664 -0.31138337 -0.28542352
  0.12056797  0.14359201 -0.08645289  0.40687776 -0.12218829 -0.13095014
  0.03493595 -0.37078017  0.4117602   0.11620621 -0.28765622  0.3204217
 -0.33252618 -0.06727411]
[-0.04012148  0.15329535  0.21330224 -0.29875407  0.22836527 -0.03916544
 -0.30745983  0.19790167  0.32408088  0.6549609   0.19393791 -0.20632808
  0.34478998 -0.3889789   0.2817907   0.34813458 -0.30499938 -0.21079597
  0.09821815 -0.04404619]
[ 0.31864274  0.16703492 -0.18514922 -0.10364059  0.5876024   0.29682535
 -0.19682023 -0.18745935 -0.2611653  -0.4297242   0.6252728   0.3043164
  0.21684577  0.45891622  0.05545124 -0.07654878  0.08854019 -0.5931551
 -0.29376173 -0.22620177]
[-0.38159785  0.16376045 -0.5338987  -0.11106404  0.39000687  0.31808755
 -0.26277775  0.08823843 -0.2677107  -0.12546703  0.55605024  0.11403941
 -0.03376259  0.5597499   0.02851785  0.2729265  -0.31410986 -0.22162224
 -0.391084   -0.5558931 ]
[ 0.1281701   0.03140601  0.09320647  0.24606176  0.29364097  0.02936037
 -0.19282852  0.6055087  -0.13001414 -0.4684993  -0.62621945  0.40956607
  0.35473973  0.12136443 -0.65217996 -0.44215426  0.5618568  -0.52505565
  0.1642338  -0.46742296]
[ 0.03901039  0.8149939  -0.24819441 -0.29866087 -0.5046721  -0.46211395
  0.07610101 -0.9112892   0.1888131   0.5523675  -0.04433548 -0.38639992
 -0.3630411  -0.4666469   0.1971623  -0.13545357 -0.5580086   0.66843015
 -0.19988896 -0.13132428]
[-0.32552874  0.02139236 -0.16516726 -0.39182714  0.03812655 -0.10947889
  0.24721622 -0.07682236  0.01362389 -0.51274526 -0.5664546   0.23727494
  0.10121214  0.11475425 -0.13211922  0.26854807  0.0662612  -0.05669701
 -0.18868205  0.2623687 ]
[ 0.28414395  0.2068815  -0.02990402 -0.30410853 -0.11203314  0.07277893
 -0.4585261   0.03451651 -0.0875968  -0.51902986 -0.2434226  -0.04448385
 -0.3373415  -0.30205855 -0.21385397  0.23174502 -0.29633707  0.49630833
 -0.1702567  -0.37116978]
[-0.4411496   0.77109134  0.27277973 -0.60444283 -0.71734214 -0.3818692
 -0.01692739 -1.5965391   0.10380591  0.35445204  0.63570094 -0.28857186
 -1.1075009  -0.59948516  1.0243088   0.3571195  -1.3272783   1.2068655
  0.10874932  0.01764286]
[ 0.05591814  0.15967143 -0.00684345  0.79076755  0.37478453  0.7327744
  0.28463084  0.39210165  0.2506263   0.62022054 -0.17804506  0.44532856
  0.78865314  0.01143179 -0.1758683   0.5238405   0.27232084 -0.45210654
 -0.35720313 -0.11808072]
[ 0.0460491  -0.0197119  -0.21199049  0.20387048 -0.012794    0.12571697
  0.19611678 -0.27277458 -0.06746009  0.11303933  0.4060049   0.0318977
  0.26736212 -0.01398594  0.08603705  0.320694    0.06818739 -0.2466357
  0.18058026  0.3022681 ]
[-1.0030302e+00  5.1920710e-05 -2.9480481e-01  2.2644916e-01
 -1.5210620e-01  4.5121737e-02 -7.6193981e-02  4.2908769e-02
  9.8732673e-02 -1.8926682e-01  3.7675923e-01  1.2852323e-01
  2.9051575e-01 -6.6035706e-01 -4.5760757e-01 -9.7392909e-02
 -6.4523719e-02 -4.2479198e-02 -3.0362833e-01 -2.3764439e-02]
[-0.18328717 -0.08493225  0.33515307 -0.06326924  0.09233087  0.6777053
 -0.07618546  0.68437546 -0.00920368  0.3567629  -0.08958799  0.4095492
  0.15673643  0.12517828 -0.22075815  0.5531835   0.44236097 -0.4054293
 -0.11470333  0.4694009 ]
[ 0.80434006 -0.4769897  -0.05616107  0.1888908   0.2917377  -0.05112479
 -0.92206264  0.24970293 -0.16248138  0.38174328  0.03682078  0.27272332
 -0.10849837  0.25563288 -0.14665401 -0.26135316  0.33785447 -0.17982921
 -0.15373807 -0.0573175 ]
[ 0.51452535 -0.06800335 -0.33408827  0.02406046  0.4348447   0.13264523
 -0.6012228   0.14670521 -0.28359374  0.42248952  0.52701306 -0.5472168
 -0.1149581  -0.21906635  0.13663529  0.25389308  0.11606236  0.1296049
  0.3777586  -0.3763189 ]
[ 0.13205495 -0.312088   -0.01274535 -0.20123547 -0.70085293  0.26933566
  0.54732215 -0.03208407 -0.00952866  0.5330235   0.13041016  0.11266562
 -0.35221758  0.1210511  -0.20126158 -0.6293106  -0.20553043  0.22875264
  0.12753077 -0.0219792 ]
[ 0.826309   -0.67459863  0.24994992 -0.04092227  0.7612038   0.42276657
 -0.22069867 -0.03060622  0.03819567 -0.46364218 -0.45784563  0.4250592
  0.5022455   0.43803144 -0.04848066 -0.70097435  0.17244585 -0.19876845
 -0.5740202  -0.2643428 ]
[-0.1153178  -0.13798575 -0.11951029 -0.12492641 -0.21236162 -0.0547538
  0.11727566 -0.05970961 -0.06839968 -0.10991742  0.08636532 -0.02314132
 -0.14067338 -0.12935622  0.19687292  0.12307815 -0.13544236  0.10218383
  0.0331296   0.41955453]
layer 1 Activation
tanh
layer 2 Dense
20 40
[ 0.11256511 -0.02665185 -0.18787546 -0.4437939  -0.09172817  0.28043494
 -0.35065883 -0.3189731   0.11226332  0.13150014  0.18455897 -0.03924923
 -0.18996996 -0.06907767  0.15805142  0.01665151  0.01027907  0.35374522
  0.22914459  0.125454    0.32097623 -0.03798779  0.26689377  0.09414984
 -0.14884473  0.23607533 -0.37215614 -0.07618873  0.17818065  0.19302736
 -0.14559588  0.3924534  -0.06065388 -0.17877364  0.448918    0.13817826
  0.0043313   0.0117822   0.05650693  0.00132691]
[-0.22152087 -0.11951314 -0.1997065   0.21447712  0.0722374  -0.17697376
  0.02769198  0.3018252  -0.0887766  -0.23856956  0.30759993 -0.17381456
  0.32154873  0.33915383 -0.13158199 -0.08728295 -0.0921272  -0.14315824
  0.29850838  0.00335433  0.33921182 -0.02166834  0.10720937 -0.20740837
 -0.09197688  0.00178559 -0.26160568  0.05618154  0.11474803 -0.05789707
 -0.04309963  0.00098889  0.02872488  0.16406539 -0.03914307 -0.12854917
  0.07821706 -0.1890504   0.02398286  0.19463165]
[ 0.39287794 -0.13967131 -0.09831714 -0.03959877 -0.3338922   0.1380524
  0.03820447  0.01511887 -0.20375904  0.09208223  0.10647123  0.00668583
  0.0672038   0.00673502 -0.05958626 -0.05473559 -0.12772562  0.02564085
  0.02218234  0.07301748  0.08169302 -0.05299912  0.00377745  0.03377812
 -0.11153508  0.03608344 -0.25568306 -0.00446847 -0.29462498  0.0472947
 -0.15731269 -0.18740487 -0.09819005 -0.00153486  0.12232244 -0.23387285
 -0.0170764   0.07205855  0.299729    0.10185324]
[ 0.08821099 -0.07436011  0.0929223   0.1149136  -0.20204431 -0.03078167
  0.11888995  0.11820395  0.02858199  0.14577502  0.25139046  0.07873101
 -0.28025928 -0.25111166  0.07983265 -0.09915802  0.05536028 -0.1374955
  0.08889081  0.13250603 -0.03911536 -0.00054022 -0.07658552  0.07917383
  0.00259515 -0.14056422 -0.2593906  -0.00547774 -0.2331966  -0.04314083
 -0.47417197 -0.10936233 -0.21642163 -0.18436101  0.14806913  0.27920774
  0.2060495   0.01391077  0.08115161 -0.28698707]
[ 0.49787048 -0.16082543  0.31200063 -0.23680958  0.05276411  0.20222512
  0.17910248 -0.1095734  -0.30872253  0.01873891  0.44193798  0.10465235
 -0.22982438 -0.08561709 -0.17565596 -0.14243847 -0.02036447  0.24104755
  0.10535173  0.13823989 -0.04425962 -0.09269246  0.10728792  0.18906426
 -0.2596009   0.07316933 -0.14950302  0.11560004 -0.0920323  -0.19369066
 -0.40785152 -0.17322649 -0.2246429  -0.0427956   0.01630625  0.05226631
 -0.11789063 -0.17710543 -0.02103453 -0.41047025]
[-0.11521363  0.03856895  0.02355643  0.02874756 -0.09143765 -0.03453021
 -0.09715801  0.1804218   0.25228816  0.23268598  0.4232856   0.27438343
 -0.17843592  0.06109022 -0.09243891 -0.14704427  0.02298114  0.2542404
 -0.02596281 -0.19528651  0.2782348  -0.08268464 -0.09571271  0.28025916
 -0.00993755  0.03727473 -0.08889956  0.2931885   0.0273237   0.10646551
 -0.22266091 -0.03654768 -0.23246746 -0.18276954  0.33818918  0.16477439
  0.20924142 -0.02587603 -0.22906733  0.10849958]
[-0.20404033  0.06559646  0.20503324  0.3330851   0.4094706  -0.4465274
 -0.03711798 -0.21905623 -0.21991381  0.01835084 -0.27742556  0.13779928
  0.28667334 -0.02290325 -0.11290281  0.03323062  0.01206432 -0.4032886
  0.22584671 -0.3460725  -0.10790984  0.2553164   0.1989831  -0.27817073
 -0.11610838 -0.08879655  0.05801043  0.1205705   0.133265   -0.1744768
 -0.00448508  0.29325688 -0.0635316   0.07639603  0.00300614  0.05889751
 -0.11265887  0.01078828 -0.08192147  0.02646661]
[ 0.38238543  0.01639056 -0.15937279 -0.19495915 -0.15956303  0.0053899
 -0.01002012 -0.1842954  -0.13799948  0.15484521  0.17330886  0.05294326
 -0.16750845 -0.21498504 -0.1206644   0.05421507  0.12800123  0.25240466
  0.25558975  0.22203538  0.27965298 -0.4308762   0.09387892  0.4237082
  0.02382413 -0.04935855 -0.2676305   0.03264943 -0.24187388  0.01642062
 -0.4546545   0.30965897  0.18430363 -0.29908654  0.33617663  0.34273198
 -0.0192903  -0.10169779 -0.07738645 -0.25929713]
[ 0.36874536 -0.19919378 -0.20760679 -0.14580747  0.0707654  -0.06978998
  0.04737186  0.08958075  0.05402101  0.05259014  0.02536976  0.02015307
  0.24304006  0.2107704   0.20912376  0.11423852 -0.11008057  0.06054284
  0.103454    0.11112896  0.02151491 -0.1939154  -0.06425131  0.08369686
 -0.00079639 -0.01975428 -0.12742956 -0.05597469  0.23543014  0.18563356
 -0.3126203  -0.01980097  0.1351286   0.14489867  0.00429764 -0.08804122
  0.08319875 -0.01967483 -0.11229751  0.29551694]
[-0.23658554  0.218737    0.32660326  0.2171824   0.06975547 -0.13856685
  0.04815999 -0.06792132 -0.08342379  0.02373781 -0.30680728  0.14401375
  0.17577513 -0.10463465  0.02036636  0.12521455  0.02025632 -0.26024643
 -0.15235078 -0.10498942 -0.18398248  0.40407184 -0.01465498 -0.29109925
  0.13823436  0.01392562  0.1459101  -0.05804948 -0.01825564 -0.15800035
  0.00357127 -0.04929259  0.17855918  0.01109707 -0.11072493 -0.13135017
  0.10577513 -0.00293357 -0.18582651  0.18916413]
[-0.2029774   0.00196126 -0.18235195  0.34872237  0.09468593 -0.05985149
 -0.08266377 -0.18152837  0.03504563 -0.2196916  -0.29764107 -0.25315994
  0.0723476   0.2724044  -0.18830524 -0.06073529 -0.14814073 -0.24767765
 -0.04593482 -0.20346662 -0.37813067 -0.16188586 -0.04684779 -0.00266818
 -0.14265382 -0.32442337  0.26774067 -0.22653945 -0.06968128 -0.05980429
  0.08470604  0.07549394 -0.00506434 -0.18150702 -0.43253753  0.07758317
 -0.2244434  -0.12008331  0.20256616  0.13262005]
[ 0.0149318   0.1559922   0.08013937 -0.3352551   0.00506981  0.08406129
 -0.07601471 -0.2976246  -0.01986591  0.01418126  0.24793233  0.08823024
 -0.20898023 -0.2335437  -0.2045045   0.06308702 -0.19086953 -0.09621343
  0.08358426 -0.05788177  0.04361162 -0.2243684   0.11362237  0.12240385
 -0.06656192  0.19880456 -0.10891123 -0.22016855  0.15134159  0.11840486
 -0.47822237  0.15367617 -0.09791417 -0.1475623  -0.11181878  0.10779319
 -0.18459682 -0.1494581   0.1215823   0.22631003]
[ 0.24933697  0.05183455 -0.16565599 -0.2107178  -0.16217181  0.20643494
 -0.21705729 -0.30989593  0.17313617 -0.06600001  0.31672746 -0.2761675
  0.05518313 -0.22762388  0.07703067  0.04759216  0.02688548  0.12791935
  0.06511389  0.25139242  0.25947937 -0.20620964  0.10049357  0.00630025
  0.06621651  0.23770095 -0.36683184 -0.10495123 -0.06607762  0.14574844
 -0.67341787  0.25942993  0.21774761 -0.04314465  0.20588194  0.19106378
  0.10631295  0.23462754 -0.04063099 -0.03751401]
[ 0.12144843 -0.21668634 -0.21033828 -0.27268633  0.02591566  0.11730821
 -0.17715918 -0.2609144   0.22243959  0.08592009  0.3879571  -0.19862288
 -0.12698056 -0.1893461   0.05671078 -0.2052692  -0.13919152 -0.22211711
 -0.07862809 -0.08288083  0.28290102 -0.09934473 -0.04970495  0.16428119
  0.17564908  0.05889814 -0.15004349 -0.24506684 -0.09080409 -0.04495183
 -0.23354429  0.02118887 -0.04345122 -0.30341154  0.37464476  0.20684725
  0.22418413  0.19375414  0.24121527 -0.0830596 ]
[-0.51419526 -0.06264873  0.09655959  0.29595563 -0.05241909 -0.36139005
 -0.11401682 -0.19223411 -0.02244829  0.07871685 -0.55934584  0.04396439
  0.04667501 -0.03028274 -0.13599825  0.04934134  0.1959863  -0.319118
 -0.13915263 -0.20259844  0.11181194  0.04719765  0.02894281 -0.09130954
 -0.07919075 -0.1281479  -0.05090523 -0.16130316 -0.13194533  0.07136746
  0.43118656 -0.3012705  -0.05659211  0.24756418 -0.16820137 -0.08663695
 -0.16204818 -0.26624873  0.25647673 -0.08704824]
[-0.2924257   0.17880689  0.10446241 -0.16462027  0.19041798 -0.02640875
 -0.13159159  0.07624999  0.0725387  -0.01444717 -0.49825016 -0.30954784
  0.21509796  0.00864885 -0.03590369  0.19389959 -0.15855084 -0.55572706
 -0.12560858 -0.33452183 -0.14528914  0.25137037 -0.05240842  0.11724269
  0.1997808  -0.083417    0.3781463  -0.18140714  0.06314882 -0.02981156
 -0.13298036  0.01060861 -0.02116054  0.01619104  0.14665467 -0.0015979
 -0.13721776  0.21480119  0.0926391   0.16790177]
[ 1.1190252e-01  1.3461779e-01  1.6681798e-01  9.5078237e-02
 -1.4034100e-01 -1.3688330e-01 -1.5678360e-01 -6.3958041e-02
 -1.8452777e-02 -1.2334795e-02  2.4514212e-01 -5.0236546e-03
 -1.9161251e-01 -3.0756962e-01  2.1110028e-01 -5.3122681e-02
 -1.0932509e-01  3.0879831e-01  4.2729072e-02 -1.8301040e-02
  1.7882878e-01 -1.4548695e-01  1.2637633e-01 -6.6244833e-02
  2.4364062e-01  1.7914718e-01 -3.5148722e-01 -1.9242397e-01
 -2.0429988e-01  2.7617475e-01 -3.4691712e-01  2.3272604e-04
  1.7296240e-01  2.2301847e-02  2.9302817e-02 -1.1028132e-01
  2.3665914e-01 -4.6012886e-02 -2.3186262e-01  6.5167323e-02]
[-0.65468764  0.30556712  0.14574572 -0.00310258  0.35638088 -0.10825041
 -0.1266887   0.04388751 -0.06941851  0.11967196 -0.47078156  0.21989846
  0.0195854  -0.02273107 -0.14489032 -0.12345096 -0.10703845 -0.2386127
 -0.30327946 -0.3395467  -0.18230847  0.14441738 -0.13812599 -0.23815164
  0.2909036  -0.03027643  0.51604486  0.05276552  0.32323045 -0.2165018
  0.67059463 -0.07535984 -0.09538358 -0.08563025 -0.238761   -0.36085153
 -0.24510464 -0.06187424  0.04872219 -0.18776459]
[ 1.38349738e-02 -6.99673146e-02 -2.01657280e-01  1.79971941e-02
 -1.17130466e-01  2.69446284e-01 -3.92716900e-02 -5.53290844e-02
 -2.19318122e-02 -2.49800142e-02  1.75868422e-01  2.32412264e-01
  1.61129445e-01  4.76050004e-02  1.31678343e-01 -6.77197576e-02
  1.63690988e-02 -5.07042110e-02 -2.03581735e-01  2.18875185e-02
 -9.69164521e-02 -2.89492697e-01  1.54752389e-01 -4.52330569e-05
  9.90559980e-02 -2.13138908e-01  1.89248770e-02 -1.17151588e-01
 -3.71145383e-02  1.38389438e-01  1.30459547e-01  1.24715127e-01
  3.01781178e-01  9.88628790e-02  1.88390821e-01  1.11392722e-01
 -9.14492160e-02  2.86398172e-01  1.18335225e-01  2.24130780e-01]
[-0.24160777 -0.08273859 -0.10288611 -0.02041163  0.16714504 -0.15801963
 -0.08839335 -0.10105809  0.02399596  0.22730257  0.08227329  0.01391978
  0.06430321 -0.07075237  0.35580572 -0.03813836  0.2818945  -0.16784066
 -0.09745075 -0.04998408 -0.23252118  0.13599746 -0.1285116   0.07490108
  0.07146142 -0.08026241 -0.10992381  0.00929647 -0.10761658 -0.20762376
 -0.10557517 -0.13332197  0.09840037  0.13509741  0.00694774  0.17459428
 -0.21498528  0.19651853  0.17198093 -0.08161379]
[-0.41000533 -0.15277717  0.25197053  0.0767845  -0.02866741 -0.0779461
 -0.02022154  0.06939177  0.05305969 -0.00345275 -0.5399202  -0.12881467
 -0.07964191 -0.12927946  0.01487557 -0.16190077  0.03855729 -0.1626772
  0.00818082 -0.20918445 -0.15841696  0.13709751 -0.02246348  0.00074836
 -0.03774489 -0.11503001  0.30575886 -0.05154193 -0.0696336  -0.09385473
  0.13638933  0.11964282  0.00482893 -0.06757002  0.0173638  -0.03150754
 -0.07067906  0.20221055  0.03681199  0.07147145]
layer 3 Activation
tanh
layer 4 Dense
40 20
[ 0.10850064  0.19025499  0.1718792   0.06888676  0.3802436   0.03746464
  0.26343843 -0.0505898  -0.19620374  0.04642802 -0.05682756 -0.13015375
  0.16292746 -0.24937032  0.04391163 -0.068557    0.26556012  0.22442581
 -0.24404246  0.45963863]
[-0.18001592  0.02205398  0.10770929 -0.12534526 -0.13240857  0.17286013
 -0.02596676 -0.07131604 -0.13712518  0.19556767 -0.12697807  0.01714526
 -0.11308121  0.09417214 -0.13409606  0.26040795 -0.10360943 -0.02072457
  0.01095441 -0.10983274]
[ 0.05107912 -0.10122134 -0.06793336  0.17442507 -0.14972743  0.03513456
  0.12479662 -0.00864253  0.05392496 -0.15262115  0.27538276  0.03233552
 -0.17616591 -0.00179402 -0.15528351 -0.42425984  0.008292   -0.0802918
  0.1542948  -0.26885167]
[ 0.23279095  0.13155544 -0.11345929  0.18169127 -0.22856954 -0.20631424
  0.06530859 -0.11388247 -0.0722063  -0.13929386 -0.25304443 -0.13408238
 -0.16927156  0.02955361  0.18383855 -0.03344809 -0.2045976   0.09052839
  0.13070291 -0.3818528 ]
[ 0.08724656  0.17621198 -0.02389475 -0.11486072 -0.26013094 -0.05189893
  0.09806034  0.15847433 -0.11109934  0.02257793 -0.00414281  0.09231379
 -0.05148422  0.15582415 -0.00891643 -0.07534299 -0.05818908 -0.06910923
 -0.16564316 -0.11739456]
[ 0.08931504 -0.15250881  0.1930649  -0.12079053  0.2383611   0.11477784
  0.14428298 -0.0878324  -0.22553489 -0.24582393  0.24315007 -0.15174544
 -0.00116498 -0.00586426 -0.18187404  0.0514839  -0.10313258  0.14008361
  0.11172003  0.14591415]
[-0.0696535   0.08289662  0.04414221  0.01297708  0.02469169 -0.13687752
  0.06916784 -0.31374326 -0.01353143 -0.00354272  0.08579925  0.0070563
  0.22587278 -0.20230937 -0.17315003  0.14946866  0.14392827  0.04921608
 -0.11449139  0.03202191]
[ 0.0474632  -0.05727332  0.00074385  0.314776   -0.08515916  0.20874381
 -0.08921036  0.2535443  -0.17226397  0.20159121 -0.20585372 -0.08763459
  0.08390073  0.10160625 -0.06250439  0.03969385 -0.25964662 -0.03714542
 -0.23237151 -0.16886014]
[-0.14702952 -0.06275474 -0.06316039 -0.13844013 -0.09385958 -0.18869744
 -0.03017522  0.12306312  0.03780373  0.13362469 -0.14967607 -0.12284881
 -0.00277833  0.0299823  -0.10352942  0.00087911  0.12999687 -0.06950016
  0.06730354 -0.01519464]
[-0.00412344 -0.03800919 -0.09127647  0.0539416  -0.05958878 -0.18368945
 -0.23228791 -0.1142141  -0.13426453  0.03119729  0.3102226  -0.01463161
 -0.08894899  0.22319365  0.1271958  -0.03788023 -0.1264364   0.1556284
  0.19060336 -0.02722113]
[ 0.15766406  0.1292705   0.3507413  -0.12909108  0.41191635  0.21450824
 -0.12567487 -0.01247693 -0.05139782 -0.08925143  0.16196088 -0.01966001
  0.11569036  0.00431219 -0.04932579  0.16165826  0.23082247  0.05935892
 -0.06647345  0.37884304]
[ 7.7438697e-02 -2.0425685e-01  3.2676008e-04  3.0881619e-01
 -5.1518166e-03  7.2425336e-02  6.6761203e-02  1.9470507e-01
 -1.4819784e-01 -5.0935410e-03 -1.7912464e-01 -5.6835871e-02
 -2.0802493e-01 -1.3439523e-01  6.4985859e-03  4.2899716e-01
 -1.2380039e-01 -9.1618933e-02 -7.2519399e-02  1.6389519e-02]
[ 0.07003166  0.13082395  0.08163203  0.0022945  -0.29887247  0.04930571
  0.17498037  0.04841995 -0.12009239 -0.08982573  0.05801504  0.04743862
  0.03667901 -0.13697602  0.24771138  0.09109957  0.05856262 -0.01695455
 -0.12922435 -0.05645484]
[ 0.08983489  0.13998172  0.21593232  0.19193308 -0.19268064 -0.22980423
 -0.07555611 -0.11193521  0.13968547 -0.01798541  0.14562497 -0.26184472
 -0.25185573  0.14218484  0.03990466  0.05853367  0.07568154 -0.15164852
 -0.26798403 -0.1379412 ]
[ 0.02189561 -0.01959324 -0.01038272  0.13995104  0.10327145 -0.09599801
  0.15164584  0.02273057  0.03929222  0.10131484 -0.09948891 -0.00706601
 -0.03964333  0.2345716   0.16848834 -0.03145941 -0.1303418  -0.17413367
 -0.01376608  0.08349219]
[ 0.10095754  0.05641082  0.12356783 -0.16221562 -0.15199052  0.23211145
  0.03036782 -0.20337972  0.00366623  0.08097602 -0.01882606  0.07089386
 -0.18606456  0.1364331  -0.0567417   0.07978113 -0.00719047 -0.05978864
 -0.03567719  0.0160212 ]
[-0.15897243  0.00075368 -0.06564243  0.3985278  -0.13795123  0.10845992
  0.08945743  0.10675082 -0.10808764  0.13138859  0.08231925  0.03108984
  0.11171824  0.07217631  0.14277661 -0.29023522 -0.02088207 -0.22632796
  0.08356956 -0.10836202]
[ 0.00515414 -0.28645056  0.20220232  0.09051183  0.31426987  0.21970811
 -0.03055263 -0.14538948  0.2443591  -0.03430446  0.11988793 -0.2348316
  0.02723782 -0.13253577 -0.09807306  0.2813594  -0.01145048 -0.19165337
 -0.17575753  0.3616781 ]
[ 0.07614829  0.22689523  0.03308645 -0.18452938  0.25675076 -0.1128722
  0.10682213 -0.00750586 -0.09913059 -0.18379273 -0.01849318  0.34907103
  0.24540198  0.21748917  0.14599828  0.08438204  0.27867016 -0.13435191
  0.08738869  0.16094804]
[ 0.00278521 -0.09276807  0.26322794  0.26852188  0.2133951   0.09551791
 -0.05551599 -0.00856721  0.0856963   0.14555195  0.01051022 -0.09315398
 -0.03013106  0.22842234 -0.01446303  0.03005354 -0.16828981 -0.04259156
  0.06147421  0.19075312]
[ 2.0225196e-01 -3.0897379e-01 -3.5853079e-03 -2.8678311e-02
  1.4963369e-01 -2.5258201e-01  3.1657349e-02 -1.3231562e-01
  2.0125236e-01  1.6853206e-01  1.0504182e-01  3.1809154e-01
 -2.8524393e-01  1.0372350e-02  4.4687986e-02  2.0940706e-01
 -2.2407684e-01  1.5073287e-01  1.9564363e-04  1.3896932e-01]
[-0.00537969  0.32540664 -0.33223796 -0.01627718 -0.24287543  0.11212244
 -0.20694448 -0.23345977  0.03597448 -0.1332577  -0.01284534 -0.269453
 -0.16180517 -0.19869544 -0.00085536  0.00291593  0.01548739  0.3115674
  0.08382259 -0.4531475 ]
[-0.08738733  0.04399877  0.03580949 -0.22229175  0.3042045   0.1300956
 -0.13160047  0.12351244  0.19638042  0.12701972 -0.04102136  0.06777063
  0.01617622 -0.11652061 -0.02186307  0.12947972 -0.09296662 -0.02031185
 -0.04556742  0.18914177]
[-0.25779468  0.03963824  0.15953948  0.18424547  0.22058119 -0.12526089
 -0.02459996  0.12015582 -0.04295028  0.03941384  0.09436698  0.08228202
  0.08051603  0.04603448  0.08099695  0.05745261  0.31944463 -0.07578681
  0.10315216  0.17394961]
[ 0.03058349 -0.02326858 -0.0787392  -0.07751239 -0.06188824  0.11637565
 -0.11549783  0.11720505  0.26854837 -0.17568108 -0.0879764   0.08473948
 -0.18556222 -0.1023636  -0.0569059   0.23407023  0.12117896 -0.00728475
 -0.02779974  0.02957352]
[-0.05419843  0.23924746  0.19166994  0.11298554  0.34278017 -0.24832664
 -0.2236224  -0.15535446 -0.15491751 -0.0822136   0.14418389  0.18271756
  0.10620154  0.15511431  0.20902304 -0.24957627  0.24009794 -0.12083776
 -0.13251184  0.2612413 ]
[ 0.20688552 -0.09413313 -0.2062119  -0.17709841 -0.19096833 -0.03088854
  0.1792213  -0.23801255 -0.0103007   0.18072939  0.13664566 -0.17008877
  0.16215554 -0.01872265  0.16914065 -0.33381656 -0.01723536  0.15952203
 -0.23311916 -0.35505196]
[-0.03647307 -0.08458488  0.155       0.05278325 -0.24884173  0.12218286
 -0.04604651  0.07949817 -0.05659107 -0.23279798 -0.08455947  0.03648617
  0.16812494 -0.12499207 -0.01350762  0.25416127  0.11726183 -0.0598717
  0.07082088 -0.18257949]
[ 0.10338633  0.0910738   0.1645576   0.14303103 -0.03965718  0.05103103
  0.0261084   0.2624555  -0.0400275   0.07784142 -0.0096067  -0.2407121
 -0.06336579  0.15285711  0.09876601 -0.29597557 -0.08237388  0.17053102
  0.06986693 -0.02703619]
[ 0.05681605 -0.20279704  0.1275065  -0.06368423  0.08941752 -0.18313843
  0.0386438   0.0889705  -0.3227263   0.12271612 -0.21457815 -0.10131325
  0.10352042 -0.02956817  0.17265534  0.18292609 -0.1569764  -0.11796442
  0.11832131  0.18543854]
[ 0.0573254  -0.18061586  0.0881042  -0.09776873 -0.20998168  0.24200025
 -0.1906493   0.17920911 -0.23133425  0.04017849  0.15024108 -0.32170615
  0.21185504 -0.11662501 -0.10337821 -0.41596106  0.2344367   0.02450221
 -0.11119361 -0.38426405]
[ 0.02465858  0.06890758 -0.11584888  0.26815692  0.09703384 -0.07923382
 -0.20960353 -0.1956638   0.17288147 -0.07736711  0.23091309  0.12594332
 -0.03560993 -0.24365613  0.15576456  0.00089814 -0.05880209  0.05300765
  0.07397643  0.0836209 ]
[ 0.11259888 -0.03824388  0.09940542  0.32769227 -0.00677265  0.02277463
  0.12408283 -0.02761466 -0.08949363 -0.18098311  0.00620602  0.03608296
  0.03013897 -0.1611745   0.05033166  0.23490192 -0.05228662 -0.03455275
  0.09809333  0.06340383]
[-0.08905939  0.23572193  0.27577004  0.37978014 -0.23007926 -0.08751402
 -0.09534784 -0.04674228  0.10547555 -0.13673335 -0.3434265   0.02201094
  0.05441692 -0.09354606 -0.09192463 -0.10896043  0.14311445 -0.04235245
 -0.06743196 -0.07889065]
[-0.06092359 -0.10348317  0.04607094  0.04581245  0.45576516 -0.24057694
  0.11849885  0.04712315 -0.13944241 -0.1906015  -0.0888887   0.0756319
  0.00461076  0.17617303 -0.11564291  0.2492978  -0.191731    0.00134007
  0.06168744  0.3645763 ]
[-0.03057876 -0.05357587  0.17463678 -0.23868807  0.09417713  0.17758437
  0.08236102 -0.15403344  0.21444754  0.02048772 -0.10518623  0.20839395
  0.03953484  0.05017737  0.23745432 -0.07723109 -0.24822009  0.11735359
  0.07814381  0.0849835 ]
[-0.05933245  0.17581098  0.18227983  0.23741108  0.30432704  0.11642743
 -0.14594957  0.20465556 -0.01011408  0.13841677  0.1144789   0.11690229
 -0.16847016  0.15922725 -0.18673086  0.20263435  0.08270978  0.06824732
  0.18528797  0.22466853]
[-0.11536813  0.15983538 -0.31418136  0.21671566  0.12103976 -0.07009357
 -0.2353261   0.12447025  0.10215177  0.2057658  -0.03961061  0.21765433
  0.11051003 -0.00541394  0.25922945 -0.03755937 -0.00640827  0.16820844
  0.05237264  0.04166337]
[-0.00975981  0.09934497 -0.31041282 -0.32334426 -0.0315582   0.018113
 -0.08970137  0.02471259 -0.16713184 -0.20039912  0.01416447 -0.01749405
 -0.19830072  0.0754414  -0.07679589 -0.0184352   0.10602359 -0.04044411
 -0.01070487  0.12742543]
[ 0.06257586  0.23549153 -0.17681986  0.10537858  0.17561406  0.08286738
  0.02759378  0.1745695  -0.1372475   0.11028466 -0.04175038  0.19589603
 -0.19935758 -0.04376567 -0.03164754 -0.0909688   0.03007757 -0.22846273
 -0.17535114  0.0701364 ]
[ 0.05099914 -0.09360565 -0.18138465  0.01388807 -0.00829508 -0.01891184
  0.09656247 -0.08416618  0.02639276  0.07759151 -0.0846946   0.05318692
  0.01546173  0.01443307 -0.03237204  0.07475285  0.07779844 -0.1380871
  0.08023729 -0.16196415]
layer 5 Activation
tanh
layer 6 Dense
20 1
[-0.00380233]
[-0.08111154]
[0.09388369]
[-0.00313568]
[-0.07515883]
[0.00371973]
[0.01323739]
[-0.00643065]
[-0.00327413]
[0.01520958]
[0.0033619]
[0.07732196]
[-0.00150054]
[-0.00099679]
[0.00493294]
[-0.01103063]
[0.00899277]
[0.00815951]
[0.01524381]
[0.16898169]
[0.26798183]
