layers 7
layer 0 Dense
20 20
[ 0.24837813 -0.22467811  1.1957115   0.5628288   0.44168323  0.4042219
  0.04528612  1.0497547   0.01069122 -0.03582101  0.6007297   0.13757634
 -0.52446103 -0.9698039   0.03344433 -0.30058298 -0.04163677 -0.6616518
  0.16046293 -0.8841631 ]
[-0.16219635  0.9086883   0.8252681   0.3168876  -0.2485095  -0.10477661
  0.20756556 -0.3582816  -0.17066355  0.0032351   0.04884758  1.4904151
 -0.09726074  0.00341779 -0.00157545  0.3694693   0.09039959 -0.27670592
  0.85785794 -0.3402328 ]
[-0.31765926  0.56647134  0.80886155  0.41151735  0.16022041  0.12202247
  0.39911437 -0.88832    -0.6930168  -0.32166365  0.09485891  1.1632038
 -0.16410755 -0.13807783 -0.37258047  0.48907527  0.727854   -0.12927079
  0.9043423  -0.35010424]
[-0.35065252 -0.47101915  0.04037107  0.1487332   0.1587784   0.6498958
  0.17825688  0.5601308   0.03563432  0.12618372  0.6605408  -0.00285376
 -0.44076246 -0.57958865  0.1655443   0.02093017 -0.06924967 -0.24609573
  0.04715513 -0.38328466]
[ 0.4119939  -0.2350876  -0.13850233  0.0229164   0.09367161 -0.43667382
  0.5843137   0.45108613 -0.20890258  0.52946264 -0.6135935  -0.19889265
 -0.9812875   0.12424456  0.39312947  0.3619713   0.18525733  0.07497796
  0.08863483 -0.7275187 ]
[-0.01197999 -1.284439   -0.5531599  -0.22049053 -0.4097727  -0.10875016
 -0.67695     0.64405185  0.11093003  0.4928121  -0.44205955 -1.3733357
  0.26332727  0.13447154 -0.3175425  -0.8069944  -0.45636606  0.40642083
 -0.6077106   0.22960365]
[ 0.51935244 -1.1805949  -0.6969724  -0.61101085  0.2902744   0.00265956
 -0.68516195  0.4442572   0.23659016  0.2851958   0.1463796  -1.428186
  0.1845383   0.550681   -0.01746892 -0.74628395 -0.18343899  0.21975851
 -0.86093324 -0.07729895]
[-0.04894519  0.1271413   0.50506556 -0.3310394   0.11001531 -0.49164075
  0.04148764 -0.12537463  0.15681767 -0.44122827 -0.19675545  0.6795922
  0.59865445 -0.4590668  -0.5621976   0.2347009  -0.81934536 -0.03191379
 -0.18095009  0.61533487]
[ 0.63816303  0.61606354  1.0926951  -0.253571    0.15452816  0.5132453
  0.10945521 -0.7070298   0.46834335  0.17289782  0.22917414 -0.34520203
 -1.1163282  -0.35638806  0.32761276  0.9180353  -0.37651294 -0.39750773
  0.5020532  -1.0130821 ]
[ 0.8751183   1.4356432  -0.14776729 -0.49477485 -0.87390316  0.1158125
 -1.0362756   0.92664623  0.0972719  -0.46533564 -1.666756   -0.51847416
  0.95609784 -0.53096575 -0.44056296 -0.76366866 -1.3251754   0.7507199
  0.1606225   0.06024037]
[ 0.41199815  0.65655345 -1.5318561   1.6749682  -1.2188326  -0.04026138
 -0.2928704  -0.889902    1.7878184  -1.1583405  -0.14404449 -0.42730692
 -0.40782765 -0.4178104   1.540723    0.2875732   0.764986    1.0779195
 -0.9627238  -1.1255682 ]
[ 1.7023929  -0.5994618   0.5925274  -1.6287326  -0.03881453  0.09029514
 -1.1528021  -0.22620136  0.07933198 -0.6556659   0.73808247 -0.7946967
 -0.40527228 -0.5948584  -0.81292844  0.48211825 -1.5409743  -2.330021
 -0.3060889  -0.33037418]
[ 7.8065664e-02  4.6271992e-01  1.6538423e+00  7.2104055e-01
 -6.7744374e-02  6.3970709e-01  4.0931252e-01  4.7841638e-01
 -5.7506204e-02  3.0947444e-01 -4.8324645e-01  2.5977540e-01
  3.6464173e-02 -1.5504907e-01 -3.6001239e-02 -5.4280099e-05
 -9.1830999e-02  1.9965900e-02 -7.7778995e-01 -1.1182151e-01]
[ 0.4230306  -1.897799   -1.1540794   1.1114683  -0.45414063  0.06375322
  1.3073162  -0.41408932  0.00786104  1.5087839   0.61753684  1.8658423
 -0.8853221   1.0937092  -0.03190821  3.5316162   1.1976238  -1.8533411
 -0.23762573  0.39324853]
[ 0.5743041  -0.08391005  0.7238511  -0.82554674  0.6494676  -0.9031033
 -0.1691883   0.92633075 -1.1380543   1.7576605   0.42057544  0.28297883
 -0.2954099   1.5126998  -1.0420787  -0.3008347  -0.79757684 -0.41953263
  2.1204383  -0.07494433]
[-0.700609    1.6754063   1.634645    1.0071726  -1.0402014   0.09266479
 -0.68313324 -0.0478189  -0.11023214 -1.2227116  -1.330306    0.92700416
  0.9386786  -0.38291302  0.47573873 -0.62808895  0.42167905  0.7382918
 -0.8831906  -1.0059363 ]
[ 1.7270353  -0.21012469 -0.66056967 -0.10497297 -0.6379555  -1.0631237
  0.26822856  2.0791917   0.14298919 -0.35458216 -1.1217966   0.050228
  0.41474277 -1.218234    0.51364857  0.02434649  0.02159064  0.6946023
 -0.39913335 -0.64402187]
[-0.7587455  -0.14354867 -0.02911325 -0.12179952  1.2721087  -0.11716618
  0.47754905 -0.168137   -0.4761203  -0.71825534  0.844675   -0.38490847
 -0.46728215 -0.62140083  0.06529342 -0.29387558  0.6199463  -0.08969542
 -0.3281519  -0.0596451 ]
[ 0.16857468 -0.6617185   0.0635637  -0.3685383   0.2686522   0.3382739
  0.27619416 -0.03539264 -0.72781986 -0.5733576  -0.47190735  0.14300783
  0.20641465 -0.45878637 -0.06597684  0.23285471 -0.04584803 -0.45292512
 -0.56201696  0.5019004 ]
[ 0.32065642 -0.14874215  0.56906265  0.05919344  0.16462973  0.41958937
  0.49609584  0.18724157  0.3250138   0.188166    0.3198532   0.745371
  0.10617914 -1.1401397  -0.1724813  -0.12089604 -0.24157366 -0.06876929
  0.09023482 -0.05422658]
[-0.36742547 -0.27124256 -0.20469514  0.1932512   0.04712593  0.31554163
 -0.06645112 -0.19099313  0.04027746  0.06462244  0.66514593 -0.20190884
  0.01537909  0.3332996   0.01671374 -0.2678433   0.384832   -0.18516034
  0.20898438 -0.01943225]
layer 1 Activation
tanh
layer 2 Dense
20 40
[ 0.13378471 -0.3493243  -0.86977226  0.20888914 -0.68495864  0.25894666
 -0.18282962  0.09769906  0.50365525  0.21014409 -0.6890056  -0.18366458
 -0.5390817  -0.23137861 -0.398198   -0.03796767 -0.3800697  -0.10685219
 -0.23726746  0.09545197 -0.25977555 -0.40993458  0.09890963 -0.31272897
  0.1867157   0.8003287  -0.33145526 -0.19336857 -0.46762803 -0.3741118
  0.62097585  0.03571893 -0.09434624  0.42517006 -0.80315965 -0.05553962
 -0.8342276  -0.07640168 -0.34912792 -0.13117217]
[-0.53626615 -0.09870537  0.09807667  0.14147441 -0.4321795   0.15621337
  0.6208721   0.724068    0.4695124  -0.2960133  -0.97670734  0.37810773
  0.11794934  0.7540586   0.35048458 -0.58023626 -0.22996727 -0.08431371
  0.19047569 -0.5962621   1.2405903  -0.98126817  0.04985851  1.027507
  1.1767384   0.18175526  0.9379702   1.1889844  -0.15073846 -0.14090429
  0.77895766  0.5088272  -0.08947471 -0.7659538  -0.37992907  0.16085161
 -0.8277827   1.0197202  -0.12357657  0.7098154 ]
[ 0.2988496   0.78275496 -0.7058489  -0.03631031 -0.2443601  -0.26120186
 -0.28557834  0.0448106   0.11788811 -0.9676922  -0.41874918 -0.63123244
 -0.49263784 -1.6894507   0.6990605  -0.08143809  0.7571028  -0.4915881
 -0.3410522  -0.10471777  0.08833206  0.30218    -0.04594614  0.45417237
 -0.8800654  -0.03063035  0.15587983  1.208703    0.06673409 -0.21288663
 -0.03797681 -0.52209103 -0.14078867 -0.9843838   0.763069   -0.3507152
 -0.21941294  0.24845846  0.23226213  1.2772393 ]
[ 0.4743684  -0.13036008  0.27238837  0.1661679  -0.69720745  0.7902574
 -0.55963814 -0.28659958 -0.8621921  -0.8084865   0.2780755   0.4827841
 -0.9824772  -0.1370222   0.094191    0.5078169  -0.05308769  0.4722421
  0.8375177  -0.18273732 -0.831767   -0.21384259 -0.3670962   1.2597265
 -0.08639256 -0.25907013  0.5920135  -0.3637562   0.01926856  1.1354481
 -0.02076187  0.28112265  0.4036115   0.35046765 -0.63334054  1.4386321
  0.05434868 -1.1975964  -0.4538251  -0.5092991 ]
[-0.20794693 -0.34321374 -0.63031507  0.02769673  1.1788652  -0.32759845
 -0.15534195  0.10154081 -0.32037687 -0.41681525  0.08251804 -0.4579177
  0.22536649 -0.54354435 -0.05248233 -0.09036127  0.64163905 -0.09844523
 -0.5904383   0.2175228  -0.23139125 -0.3034116   0.47312105 -0.8165989
 -0.38035437 -0.2904756  -0.45437035  0.49379334  0.0319277  -0.07978365
 -0.61002576 -0.49036035 -0.35110798 -0.25617063  0.39059305 -0.04792313
  0.53514445  0.8441565   0.10986762  0.9674147 ]
[ 0.92754585 -0.2279566  -0.2857819  -0.6423714  -0.08529015  0.34630892
 -1.0998914  -0.57763135  0.0340603  -1.0480297  -0.04579846 -0.23241171
 -0.63925385 -0.18107796 -0.5187801   0.14148636  0.5074715   0.20573677
 -0.49350476  0.69336337 -0.11233663 -0.1889996  -0.00978513 -0.8333193
 -0.60794574  0.00383395 -0.19495012  0.0272526   0.9293005  -0.03048016
  0.6004361  -0.37127885  0.03197863 -0.70148045 -0.5190878   0.01090405
 -0.14734495 -0.11881881 -0.20553827 -0.47347072]
[-0.10747723  0.43813547 -0.3654311   0.0118025  -0.22214158  0.2526744
 -0.14413138  0.13450256 -0.59427756 -0.32271042 -0.04082996  0.10305107
 -0.18808447 -0.24163072  0.90192384 -0.13429223  0.32317236 -0.38137546
  0.23359144 -0.29330477 -0.16884108  0.5936622  -0.18259417 -0.3660697
  0.16271442 -0.07182349 -0.16028392 -0.45187908  0.2475583   0.47091603
 -0.13813491  0.2608711   0.11088377  0.47786662  0.25951234  0.09779467
  0.10451379  0.00584447 -0.15754041 -0.17334205]
[-0.7771494  -0.404636    0.352088   -0.4886464   0.74376595  0.04074876
  0.36708477  0.6531536   0.591149    0.6198615  -0.13127898 -0.25458923
 -0.33398804  1.0591958  -0.30226326 -0.4023927   0.33195725 -0.29821536
 -0.6369602   0.33826604 -0.623469   -0.3873166  -0.75563735 -0.8712061
  0.7162056  -0.53292096  0.39544922 -0.09486476  0.4805355  -0.13890313
 -0.37183535 -0.86834294 -0.75418836  0.7952242   0.0364529  -0.7961171
 -0.28840715 -0.11837022 -0.11053697 -0.2803967 ]
[ 0.15108436  0.14228716 -0.09788778  0.5659398  -1.5429808   0.3159068
  0.16018924  0.29516616 -0.08701591 -0.6240442   0.8640955   0.444762
 -0.22927672 -0.5511654   0.16100179  0.4475607  -0.82148814  0.17609574
  0.3583046  -0.68361485 -0.18612199 -0.10340396 -0.42697254  1.8602179
  0.08688292  0.51745313  0.28536096  0.22149825 -0.11271957  0.6300363
  0.02528449  0.57570857  0.346219   -0.33107382 -0.38882217  0.7048409
 -0.5116045  -0.18239515 -0.12617074 -0.5810923 ]
[ 0.5541316  -0.72748286 -1.1331019   0.0541142  -0.22714491 -1.1209098
 -1.2430367   0.4091469   0.12805103  0.9375865  -1.2017993   0.07338881
 -0.7227075   0.04612076 -0.18485275 -0.46621767  0.22462665 -0.32113788
 -0.59776974 -0.6128468  -0.30467814 -0.05570668  0.49985582  0.2137657
 -0.27370715  1.0647589   1.1144812  -0.4855856  -0.42323977 -0.31241357
 -0.6848022  -0.3053082   0.5646534   1.224921    1.0309      0.46828553
  0.8219956   0.05472749  0.8565721   0.27591372]
[-0.27710155 -0.306596    0.73575824 -0.51139104  0.2839148  -0.4693893
 -0.4991969  -0.70984054 -0.325202   -0.04132348  0.5471169  -0.04650459
 -0.40822053 -1.107526   -0.4333416  -0.46215954  0.5180352  -0.25329992
 -0.49604985  0.9178104  -0.8488925   0.6109794   0.28089485  0.27928934
 -0.45007294 -0.3818127   0.43592402 -0.26412463 -0.05858769 -0.19577917
 -0.64206296 -0.01088866  0.31498548  0.5338969   0.11880549  0.27322572
  0.44099432 -0.73111165  0.36636245 -0.14670938]
[ 0.7836795  -0.61383456 -0.4435589   0.05211944 -0.4125896  -0.6089378
 -0.6926014  -0.31956133  0.08212559 -0.08492144 -0.681257   -0.3971724
 -0.07511719 -0.15357798  0.66428494  0.71232903  0.30904603  0.11085696
  1.2184063  -0.17813832 -0.12604012  0.0162807  -0.32849485 -0.08612149
 -0.05325902  0.8922106  -0.01700297 -0.5666786  -0.47942382 -0.05073937
 -0.5116086  -0.11242737 -0.04804899 -0.48920012  0.12241092 -0.00258282
  0.30630848  0.11694402  0.4889094  -0.41524342]
[-0.5831     -0.5153588   0.02488152  0.44184    -0.19194141 -0.18660861
  0.49729308  0.47883594  0.5349275  -0.13379838 -0.00878347  0.14748743
  0.4745658   0.42704767  0.6607211   0.35874054  0.12849951  0.02891514
 -0.3486423  -0.07253225  1.1830114  -0.19960852  0.1998763   0.50589585
  0.18151087  0.83198386  0.16563831 -0.4448262  -0.66400844  0.17465754
  0.10380466 -0.10549231 -0.37384802 -0.52751803  0.05904321 -0.74855393
 -0.13064113  0.56326675 -0.06383734 -0.27187446]
[ 0.7923511  -0.27673373 -0.9656037   0.30896652 -0.30538562 -0.19324934
 -0.26349834 -0.52838457  0.30474213  0.5116624   0.03078004  0.36495015
  0.18483992 -0.49866462  0.05470226  0.25506312 -0.07713007 -0.6064551
  0.3402242  -0.5029927   0.67256284  0.7435717   1.1372324  -0.11556447
 -0.89541906 -0.10637857  0.635331    0.3525916   0.20392996 -0.53812957
  0.21566404  1.1314098   0.32476306  0.43215203  0.00137782  0.7620265
 -0.04004507  0.91152686  0.4778531   0.45730802]
[ 0.74907607  0.87571865 -0.4580694  -0.3849331  -0.26954022  0.77371466
  0.6494457  -0.37298265 -0.8428693   0.31097415  0.7247876   0.19022042
 -0.28650156  0.01953137 -0.8723215   0.70934546 -0.46796522  0.20585491
  0.03244485  0.31022793 -0.31714123  0.800594    0.27393433  0.5146545
 -0.42540857 -0.22277334  0.07133903  0.29260877  0.0102906   0.30730575
  0.7066856   1.0790954   0.23500979 -0.26335356 -0.61406106 -0.02893282
 -0.37876213 -0.809136   -0.86821884 -0.61465937]
[ 1.19779062e+00 -8.00686479e-01 -1.05725670e+00  4.75980312e-01
  5.43902040e-01  5.63500106e-01 -1.32696724e+00 -1.43173477e-03
 -8.05168331e-01  4.56830859e-01 -9.21276033e-01  3.50824604e-03
 -4.29493785e-02 -6.05251312e-01 -5.37416041e-01  7.27315918e-02
 -4.12181944e-01  2.53941029e-01  2.24231720e+00 -2.10702151e-01
 -1.53547049e+00 -4.99770790e-01 -4.05679584e-01 -1.53495371e-01
 -1.04900944e+00  7.00965226e-01 -9.18648362e-01 -1.49403369e+00
 -2.04696402e-01 -4.92818177e-01 -2.90660948e-01 -3.75983566e-02
  4.86341685e-01  3.45813572e-01 -6.07029833e-02  1.24655634e-01
  1.27232626e-01 -1.06397212e+00 -4.95251656e-01 -1.04232907e+00]
[ 6.78477049e-01  9.23211575e-01  3.88077915e-01 -2.01371104e-01
 -1.79578856e-01  5.05704917e-02  1.62858167e-04 -3.33689034e-01
 -1.20084178e+00 -3.63549143e-01  1.09617329e+00  6.33011401e-01
 -4.14606512e-01 -1.78375930e-01  4.69000131e-01 -3.68670851e-01
  1.84327394e-01 -1.85851455e-01  3.16634506e-01  3.82502750e-02
 -2.06499994e-01  3.65713239e-01  9.81810987e-02  4.59563702e-01
 -4.95909005e-01 -2.69169450e-01 -8.24512392e-02  9.10406038e-02
  3.16172183e-01  2.52696633e-01 -4.82071787e-01  9.18356061e-01
  6.39724970e-01  6.12648904e-01  1.11450866e-01  5.68632960e-01
  3.33367079e-01 -5.63584268e-01  1.61597520e-01  1.48311153e-01]
[-0.61699504  0.25352734  0.51813483  0.03990821 -0.5016642   0.4461842
  1.0025419   0.5609464  -0.05865284 -0.02855705  0.6075586   0.62211275
 -0.20278342  0.9631329   0.1652342   0.508628   -0.6748139  -0.12785631
 -0.33601794 -0.53293836  1.0529686  -0.2646879   0.03205002  0.8058219
  1.0296371   0.06056191  1.2034878   0.365378   -0.42396763  0.36267656
  0.38197783 -0.5070504  -0.6671536  -0.9329799  -0.4432404   0.05853063
 -0.23053107  0.38606092 -0.37397683 -0.07417813]
[-0.3632983  -1.1000316  -0.86511415  0.03674409  0.39945918 -1.5714546
 -0.6983834   0.23004852  0.09266223  0.9482414  -0.90002966  0.21485984
 -0.7479417   0.10503272 -0.16350262 -0.89671534  1.2386522  -0.694822
 -1.1293321  -0.200466    0.34925738 -0.40504974  0.624221   -0.4357148
 -0.47752464 -0.47396937  1.0236477   0.3368275   0.5806798  -0.41604814
 -0.584568   -0.27257618 -0.15412216 -0.03641158  1.1879543   0.62266254
  0.7289948   0.57143366  1.3633437   1.3753583 ]
[-4.9755450e-02 -6.8124376e-02 -3.0802584e-01  1.6662534e-01
 -7.1398921e-02 -2.9693624e-01  2.1437812e-01  2.0403244e-01
  2.3054861e-01  2.8268918e-01 -8.5729128e-01 -7.4775420e-02
  5.8201247e-01  4.5654261e-01  2.4740276e-01 -6.3035804e-01
  4.1071993e-01 -2.7445558e-01  3.0154940e-01 -9.0508878e-02
  2.7172461e-01 -3.4571940e-01  3.8524273e-01 -7.5911242e-01
  1.2384353e-01  2.9675722e-01 -3.2489109e-01 -6.0154653e-01
  6.8237700e-02 -6.2249881e-01  1.8534571e-01  1.8704693e-01
 -5.6385124e-01  6.7106023e-02 -3.2357565e-01 -7.2792017e-01
 -9.4558217e-02 -6.7319289e-02  2.0426653e-01 -2.4089136e-04]
[ 0.04709284  0.13294308  0.13063473 -1.2556409   0.5383467   0.18198499
 -0.2458506  -0.13725019  0.3041728  -0.13541089  0.42437527  0.33385432
 -1.3234118   0.54958546 -1.319216    0.2972591   0.23342094  0.13673472
 -0.47050557  0.6965197  -0.6986284   0.09568335 -0.39701843 -0.40158865
 -0.32203624 -1.4678627   0.7553079   0.3815873   1.161686    0.1534863
  0.2243123  -0.79227734 -0.25924173  0.5539101  -0.11508862  0.61816204
  0.26751387 -0.51616496  0.23390596  0.15120046]
layer 3 Activation
tanh
layer 4 Dense
40 20
[-0.00840425 -0.26570514  0.97801024 -0.21174596 -0.154756   -0.3463281
  0.2624669  -0.11158833 -0.22172317  0.09641463 -0.256664    0.07559212
  0.2653175   0.20566592 -0.30857405  0.15398924  0.6564565   0.44785985
  0.17047577 -0.39227554]
[ 7.0400119e-01  1.7996043e-02 -5.8159232e-01 -3.6919424e-01
  2.4384817e-01 -2.2082058e-01  5.4582882e-01  5.0721663e-01
  9.2704254e-01  5.3836054e-01  1.7624795e-02 -2.1245738e-04
 -5.0281003e-02 -4.7176430e-01 -2.2265850e-01  7.3674418e-02
 -7.5752866e-01 -2.1266076e-01  2.8282791e-01  1.2719868e-01]
[ 1.1337001e-01  7.0261073e-01 -7.0923227e-01  2.3511292e-01
  4.4616303e-01 -1.1928484e-01  5.6051838e-01 -2.4182425e-01
  3.7714040e-01  3.3636329e-01  7.7183312e-01  4.3230417e-01
  1.8585434e-04 -1.5820700e-01  1.5532742e-01 -8.3515519e-01
 -7.1995622e-01 -9.1724330e-01 -2.4539812e-01 -4.7526231e-01]
[-0.17725736 -0.7749507  -0.22567925 -0.37510228 -0.14448951 -0.0042854
 -0.00185405 -0.2644304   0.04241968 -0.53759974  0.12754558  0.07255101
 -0.6243015   0.04421802  0.59894335 -0.05098719 -0.00374633  0.19340175
  0.6558197   0.36715737]
[-0.3263953  -0.15570042  0.44022596  0.7923562  -0.082712    0.15420496
 -0.20885679 -0.9534698  -0.41804165 -0.05573323 -0.30660784  0.41453925
  0.06818894  0.24936028 -0.33617377 -0.328278    0.5398998  -0.30634657
 -0.83650994 -0.16216809]
[ 0.34277073 -0.21827126  0.1558934  -0.37123913 -0.19985257 -0.4611646
  0.3834159   0.8007792   0.16291529  0.6823754   0.5005121  -0.41233006
 -0.05803206 -0.61419547  0.09459953  0.28331652 -0.34195873 -0.99709547
  0.37063077 -0.64768386]
[ 0.37586793  0.17437866 -0.25124836 -0.5235599  -0.2230809   0.23578204
 -0.31013852  0.20807193  0.6283986   0.01345194  0.18769951 -0.6380067
 -0.49219683  0.06739756 -0.68862206  0.3324275  -0.41781312 -0.38499826
  0.65872574  0.19644687]
[-0.4194185   0.02210611 -0.89510655 -0.34619096  0.55017984 -0.07908072
 -0.18761617  0.03838305  0.1594977   0.1531339  -0.07885299 -0.5346968
 -0.18466271  0.24766015  0.09808883 -0.47364342  0.08875737  0.47276458
  0.4052521  -0.07550202]
[ 0.12023053  0.51010317 -0.1018748  -0.26020408  0.3250285  -0.13365361
 -1.4246238  -0.39416546  0.07068417 -0.29249144 -0.00624503 -0.21635771
  0.00883115 -0.00710482  0.6492341  -0.7705291   0.22194532  0.23987147
  0.28419545  0.38905555]
[-0.12716687  0.20124152  0.2256012   0.02098359  0.31750682  0.43974835
 -0.159697   -0.7404939  -0.25556415 -0.54956347  0.26927894  0.10388748
 -0.15537123  1.005126    0.88017064 -0.32166782 -0.00343621  0.18159609
  0.404351   -0.0299737 ]
[ 1.2181085   0.66418874 -0.04231937 -0.1945346  -0.01088929 -0.68941885
  0.30978978  1.0406564   0.42179787  0.78200203 -0.19593866 -0.46566707
  0.7516667  -0.65405566 -1.0147792  -0.09433064 -0.38583097 -0.3913863
  0.37836018 -0.3527496 ]
[-0.29537824 -0.16703914 -0.36769363  0.1565068   0.09505801  0.02514844
  0.744161    0.29793784  0.05949512  0.18140961  0.18784502 -0.06622537
  0.20997345  0.27067986 -0.07971904 -0.02548228  0.12905559 -0.26032543
  0.38141108 -0.1632003 ]
[-0.09466841  0.33874145 -0.4495913  -0.47304037 -0.01253833  0.11083267
 -0.2588641  -0.53670985 -0.1260279   0.03352645  0.40945753 -0.00807445
 -0.9089902   0.2910875   0.30650368 -0.7084259  -0.39859447  0.01278025
  0.10697523  0.06955899]
[-0.50313455  0.96114385 -0.2825207  -0.36614433  0.036312    0.59739256
 -0.09827092 -0.40349492  0.51192296 -0.24159308  1.2866995  -0.00997516
 -0.3992649   0.50910413  0.42500237 -1.2489462  -0.22342601  0.31483397
  0.7036345  -0.6185572 ]
[ 0.3333424  -0.51390904 -0.25798994 -0.21723089 -0.26833957 -0.44248256
  0.01368444  0.23305017  0.17946947 -0.70826864 -0.49653557 -0.44230518
 -0.696312   -0.17928377  0.48694736 -0.00257376  0.6567142   0.44854537
  0.6254327   0.4860545 ]
[ 0.2315619  -0.14972347 -0.04279484 -0.51902205 -0.39259118 -0.12121294
  0.0698254   0.31115267  0.524437    0.42604688  0.41782653  0.1962888
  0.20994774 -0.53398174 -0.08742286  0.15453482 -0.40538454 -0.3632197
  0.11626591 -0.39415625]
[-0.29393467 -0.1307824   0.09633943  0.4076731   0.36691374  0.28423464
  0.21313325 -0.7712885  -0.32220837 -0.2825005  -0.554365    0.0120892
  0.51159567  0.19924943 -0.10155052 -0.11706753  0.26433042 -0.07399261
 -1.0205718   0.34245196]
[-0.03031914 -0.14078325  0.07925756 -0.26070058 -0.18345596 -0.0348077
  0.32204798  0.39116153  0.55989635  0.23026074  0.01691419  0.03630495
 -0.02044017 -0.48043662  0.0361978  -0.06096826 -0.02007041 -0.36614907
 -0.1104833  -0.29402366]
[-0.45238513 -0.99811375  0.25171772 -0.01762788 -0.49085382 -0.5614588
  0.5594874   0.21497183 -0.3749684  -0.06000493  0.0424595   0.49283552
 -0.6682404   0.58310133  0.28707665  0.57233995  0.0615522  -0.07688751
 -0.08087761 -0.9299661 ]
[-0.1698929   0.33836588  0.29101515  0.6130771   0.01396601  0.13288403
  0.21733794 -0.15818503 -0.26749426  0.1493013   0.06450974  0.24832638
  0.42336786  0.02348143 -0.2522264  -0.12870294  0.06298561 -0.25701803
 -0.66214556 -0.12911932]
[ 0.7270178  -0.42639798 -0.48593146 -0.24026205  0.3763766  -0.08523178
 -0.9385288   0.41055053  0.31803885 -0.12357256 -0.33165756 -0.6579546
 -0.23171808  0.1865781  -0.75792456 -0.20752962  0.7605883   0.02196518
  0.7629696   0.85075265]
[ 0.13951975  0.24684034  0.6663785  -0.15592737 -0.2746945   0.20210053
  0.35358736 -0.04742423  0.06784027 -0.01926775  0.06590988  0.23222497
  0.05204183 -0.41083091 -0.2988624   0.01013088 -0.46252108 -0.3589533
 -0.08780287  0.0231399 ]
[ 0.28776976  0.18306233  0.25388917 -0.19666962  0.2078485   0.16777617
 -0.50742906  0.05999937  0.56067127  0.04254059 -0.60373205  0.18153441
  0.10586249  0.55036396  0.08002622  0.17850745  0.26424727  0.4559044
  0.1454603   0.3777029 ]
[ 0.6465316  -0.554929   -0.35484055 -0.21180369 -0.12288539 -0.23501968
  0.3245923   0.66153467  0.16691297  0.34855324  0.77368546  0.19598539
  0.33293456 -0.46466228  0.29682398  0.2506961  -0.8263139   0.00214374
  0.65677553 -0.3488027 ]
[-0.3595479   0.51030344 -0.5887438  -0.7210265  -0.14324398 -0.15876673
 -0.47357848 -0.24154192 -0.02554333  0.11515666  0.9475043  -0.5237331
 -0.6262542  -0.00575202 -0.13769026 -0.7379736  -0.34106234 -0.16200271
  0.46428117 -0.20919976]
[ 0.25837636 -0.44327587  0.16326876 -0.2694336  -0.04801041 -0.22084288
 -0.25264883 -0.03714038  0.50224507 -0.5824953  -0.00931335  0.04526147
 -0.8696538  -0.36992735  0.69501907 -0.35005033  0.15419804  0.608052
  0.51273286  0.41728547]
[ 0.22376108  0.09025341 -0.06851669  0.21200496  0.19169894  0.15772788
 -0.1296995   0.34976396 -0.2893976  -0.39931345  0.18741821  0.1426741
  0.87512434  0.34047386 -0.18566531 -0.06654505  0.5576165   0.4303397
  0.46210808  0.11133429]
[ 0.4109642   0.20827454  0.19075939 -0.1593326  -0.0086669  -0.079317
 -0.16470462 -0.11415984  0.19473404  0.4558805  -0.6357657  -0.486831
  0.4432473  -0.55971575 -0.5488604  -0.27364793  0.00115849 -0.4727778
  0.15776557  0.69538814]
[-0.25055486  0.15564053  0.3915788   0.57741326 -0.12125124  0.3539629
  0.1780441  -0.4154782  -0.15068491  0.27806434  0.1699186   0.28835642
  0.51981235  0.3884023  -0.6050699   0.03736319  0.06286825 -0.47143131
 -0.16885263 -0.13825151]
[-0.11383981 -0.10789888 -0.27846268 -0.2187153   0.08392584 -0.22905892
  0.45458758  0.80811805  0.4080183   0.496537    0.2876819   0.26526988
 -0.03294788 -0.34163177 -0.0303874   0.25791928 -0.01458248 -0.11354329
  0.1006284  -0.13849154]
[ 0.3919018   0.14029394 -0.3125952  -0.581297   -0.22859745 -0.23303357
 -0.37207696  0.454842    0.40420148  0.20290123  0.6269686  -0.5474251
  0.09617017 -0.49410492  0.10334443  0.17813602  0.3352473   0.16113734
 -0.02392125  0.07177418]
[ 0.7473526  -0.0615143   0.24678947  0.40431547 -0.10790515 -0.05374243
  0.32988974  0.2269079   0.5476926   0.14015621 -0.04681471 -0.10070821
 -0.21702324  0.10475252 -0.25357732  0.46687594  0.03685741 -0.3224335
  0.7899776  -0.10559557]
[ 0.5291434  -0.16738915  0.5000475   0.07507767 -0.35879385  0.09987569
  0.6836471   0.03759344 -0.23609316 -0.41905785 -0.20449254 -0.18562566
 -0.0295596   0.16300288  0.04074211  0.18846983  0.16863419  0.10678489
  0.11000943 -0.17388326]
[-0.39592326 -0.24977906  0.00671521  0.7442065  -0.1139427   0.31419167
  0.9550144  -0.36388665 -0.6660663  -0.2077091   0.68431675  0.55147654
  0.3052215   0.6420966   0.18140502  0.3831929  -0.4216482  -0.3116704
  0.03441581 -0.44322917]
[-0.5424465  -0.02184536  0.3328736   0.5436488  -0.20459859  0.26372576
  0.08497769 -0.73987365 -1.3031778  -0.8155497  -0.5703321   0.03189465
  0.19107468  0.19526856 -0.12477501 -0.3921243  -0.00415848  0.18482748
 -0.042898    0.06773781]
[ 0.08543677 -0.49129695 -0.2005661   0.14841606 -0.34861052 -0.36834028
  0.8903119   0.5770481   0.10377238 -0.11828953  0.04589945  0.01252824
  0.52866787  0.14553525 -0.03366719  0.7078613   0.19261207  0.2406908
  0.03982189 -0.42713618]
[-0.16191965 -0.17928499  0.7972365   0.4395386   0.23120838  0.23217054
  0.5310731  -0.71438503 -0.22209658 -0.12394852 -0.141447    0.6499153
  0.08653089  0.56274205 -0.07975386 -0.18044823  0.04559603 -0.00590424
  0.18809813  0.08819165]
[ 0.16257809 -0.15112515  0.25117067 -0.44303298 -0.01980627  0.14982359
 -0.6399777   0.13530256 -0.27499053 -0.712837   -0.37297523 -0.32047802
 -0.06123793  0.23231661 -0.4306411  -0.7123168   0.0896548   0.15719417
  0.31540987  0.5630814 ]
[-0.32308692 -0.0234061   0.15938768  0.41812876 -0.08111034  0.33903393
  0.09117162 -0.41671214 -0.56040823 -0.5868417  -0.44074765 -0.03422397
  0.3542369   0.4287536  -0.05190743 -0.17516701  0.1600845   0.7977141
 -0.23081692  0.151249  ]
[-0.03006394  0.24754812  0.01629095 -0.2032268   0.3760892   0.6605705
 -0.2383234  -0.09459023  0.05029437 -0.4144168  -0.7357436   0.17760679
  0.12628746 -0.03906981 -0.8227085  -0.5954829   0.31785756  0.4953857
 -0.04493232  0.58774084]
[-0.21592686  0.4345225   0.18197316  0.23604378  0.00965605  0.14631604
  0.08921441 -0.01301841 -0.15214565  0.27488762  0.31130207  0.14179583
  0.8353046   0.0644164  -0.43564624 -0.03918744 -0.39673826 -0.22636926
 -0.27389297 -0.49323142]
layer 5 Activation
tanh
layer 6 Dense
20 1
[-0.06582694]
[0.12560777]
[-0.05789931]
[0.08709185]
[0.02049438]
[0.12873669]
[0.08598685]
[-0.08612093]
[-0.01149733]
[0.00142847]
[0.10271252]
[0.07853094]
[-0.32360893]
[0.03342573]
[0.2269036]
[-0.07012051]
[-0.23414588]
[-0.02724795]
[-0.02873964]
[-0.0965142]
[0.3582884]
