layers 7
layer 0 Dense
20 20
[-0.29459348  0.34481937  0.16963872  0.025651   -0.13432889 -0.33726996
  0.05279628 -0.124882   -0.0490353   0.3960841  -0.00793748 -0.09134945
  0.07963914  0.22387408  0.08236053 -0.05519633 -0.31629387  0.0580023
  0.01983246  0.12751144]
[-0.08035496 -0.06404227  0.29388303  0.26990578 -0.39644313  0.06933461
 -0.47760746 -0.47444868 -0.04014873  0.25286844  0.5619552   0.71151143
  0.06214482  0.62777746  0.3636669  -0.3183093   0.32956892  0.27084592
 -0.36920598 -0.2449055 ]
[-0.05157701 -0.22630835  0.21847829  0.07505485 -0.11439054  0.05468011
 -0.5581955  -0.5555426   0.4253099   0.16187651  0.31241348  0.4142749
  0.71855503  0.11233977  0.7534417  -0.55653393  0.6301703   0.16849822
  0.14083856 -0.17427924]
[ 0.05324576  0.04928036 -0.15553463  0.16550365  0.0211875   0.09966498
  0.05776562  0.11475434  0.1595903   0.61598325  0.32418987  0.14635381
 -0.33876002  0.02930946  0.2512759   0.21661282  0.46315438  0.00374977
  0.39291063  0.07345111]
[ 0.05944836 -0.24934547  0.3690578   0.30564144  0.39455545  0.46749684
 -0.12173501  0.30123222  0.3177778   0.12330106  0.45193213 -0.18848585
 -0.23345153 -0.33951643 -0.3299692  -0.05888379 -0.12423223  0.2019761
  0.22231737 -0.20730466]
[-0.21966477  0.54242337 -0.3475281  -0.5264946  -0.27658203 -0.0199338
 -0.05346369  0.2386585  -0.6213852  -0.3959443   0.13669193 -0.55865175
 -0.5431479  -0.08089898 -0.44693023  0.42425334  0.06449116  0.06392862
  0.45632     0.01347651]
[ 0.0679034   0.06366984 -0.07221615 -0.650585    0.16006315  0.0336159
  0.3616376   0.32480717 -0.647525   -0.15148805 -0.19831103 -0.12151205
 -0.32043844 -0.5384797  -0.7458509   0.56682676 -0.5704314   0.11664478
  0.05058387 -0.15780643]
[-0.4430585  -0.2081053  -0.04295665  0.14759558 -0.3311996  -0.06608723
  0.3579649  -0.06131706 -0.14827827 -0.120024   -0.41154197  0.32720712
  0.21048893 -0.09489112 -0.08094114 -0.4153076  -0.29609206 -0.02059154
 -0.34925207 -0.39666623]
[-0.6944521   0.16664259  0.13766555 -0.51972216 -0.35777378 -0.17762066
  0.15781166 -0.1609783   0.9441613  -0.7561364  -0.12169757  0.5956313
  0.5797399  -0.38784906 -0.82971144  0.6253854   0.31260562  0.67036146
  0.62381816  0.01873919]
[ 0.17905849 -0.1144749   0.539776    0.13051248 -0.37616715 -0.16343646
  0.5567264   0.01591837 -0.3542915   0.1537599   0.2824307   0.07138161
  0.3582202  -0.02509919 -0.6253964  -0.16873027  0.13573368  0.10639784
  0.08896668 -0.19021377]
[-0.2838831  -0.5669996  -0.2605239   0.36602312 -0.6274078  -0.07335973
  0.49094665 -0.23506995  0.19691916  0.81217825 -0.09383702  0.04865637
 -0.42631778 -0.34608632 -0.08867299  0.23981392  0.28451464  0.06310212
  0.19825281  0.11129323]
[ 0.43634763 -0.1480985   0.24045473  0.45747623 -0.27841026 -0.21417262
 -0.91361487  0.26273426 -0.75084543  0.5351043  -0.08525749 -0.07343599
 -0.12074089  0.04764337 -0.0074491  -0.9352341   0.24583115 -0.16651097
 -0.47646368 -0.1511001 ]
[ 0.2744627  -0.31823272  0.1680259   0.30029982  0.26008528  0.1451052
  0.1663225   0.29605836 -0.52983326  0.39608878  0.09219024 -0.04074792
  0.4006266   0.320865   -0.08534407 -0.16219805  0.40400708 -0.14840606
 -0.5514216  -0.03618976]
[-0.06286182  0.48193425  0.34824052  1.0129263  -0.68430626 -0.60281944
 -0.0742929  -0.7584831  -0.18301438 -0.33771238  0.09351266  0.38249108
 -0.3921262  -0.4467818   0.21378143 -0.45789358  0.07247422  0.23118457
  0.8108521   0.77544063]
[ 0.22063315 -0.18917784 -0.61459845  0.3097101   1.4161311   1.0073959
  0.8430657  -0.41161048  0.73530096  0.00148644 -0.1657876  -0.9881203
  0.6552146  -0.00582306  0.4827737  -0.66312987  0.39113805 -0.7115082
  0.76936835 -0.27345118]
[ 0.2660056  -0.3935802  -0.35705882  0.00170916  0.02032918  0.38891238
  0.6246982   0.11471514 -0.02903408 -0.05806484 -0.8042364  -0.10068126
 -0.04248936 -0.0511106  -0.54795796 -0.66963536  0.8901466   0.5783095
 -0.00305081  0.08447115]
[ 0.16890089  0.02600127 -0.27062452  0.57388055  0.03380129 -0.05389747
 -0.08001896 -0.24149576 -0.54618055  0.57101196  0.15065703  0.00176878
 -0.37094635  0.42068556  0.13007738 -0.49432912 -0.72656727 -0.98239684
  0.32518202  0.25294363]
[-0.3925263  -0.28035966 -0.657149   -1.0808086   1.1884792   0.76333237
 -1.392333    1.2685074  -0.19449565  0.03774873 -0.24117795 -0.75121415
 -0.02227633  0.65955925  0.53045136  0.6758958   0.27095595  0.08372097
 -0.53900695 -0.39526254]
[ 0.09252377  0.43785575  1.0697639  -0.10393136 -0.96864104 -0.8040064
 -0.9166435   0.15580256 -0.37358388 -0.2308702   0.13935037  0.11085748
  0.11934949 -0.06419108 -0.27048746  0.883122    0.17131568  0.5903279
 -0.6611779   0.05531345]
[ 0.12337036  0.28516573 -0.02950342 -0.79870045 -0.08335748 -0.07285418
  0.95890844 -0.00857745  0.8766802  -0.49513066 -0.4231014   0.3125672
  0.6450087  -0.4304147  -0.83706135  0.68842924 -0.7830381  -0.15043977
  0.5848404  -0.137039  ]
[ 0.10955164  0.02114593  0.05139567  0.00943079 -0.00383961 -0.0064978
 -0.23034652 -0.14294143 -0.13868153  0.23143692  0.13889141 -0.0149909
 -0.17224753  0.01824694  0.13607574  0.04877035  0.09492166  0.17845865
  0.08680622  0.23483938]
layer 1 Activation
tanh
layer 2 Dense
20 40
[-0.17920433  0.21736242  0.00304352 -0.25779623 -0.05720719  0.07187907
  0.02358645 -0.05638329  0.05200369  0.06090253 -0.19140397 -0.03436475
 -0.00784495 -0.00794073  0.30131128  0.01784925 -0.34647182 -0.0659937
 -0.30775464  0.15737359  0.07408933 -0.3144749   0.129464    0.13508758
 -0.09598286 -0.13540049  0.06809649 -0.10785177  0.28958815 -0.03406572
  0.19662638  0.00740275  0.2616145  -0.11721051 -0.20700277  0.3221364
  0.13498378 -0.24102491  0.15257588 -0.12513578]
[-0.01352099  0.07954174 -0.3858722   0.11928961 -0.18252024  0.07026578
  0.08385054  0.18089442  0.05433802 -0.06143983 -0.02523583  0.1739709
  0.03775103  0.05635007 -0.21958466  0.00279148 -0.3933203   0.15820481
 -0.21935348  0.15919505 -0.19336195 -0.01859248  0.13522875  0.08179682
  0.09354533  0.15168415  0.16312036  0.02120769 -0.21584678  0.2343817
  0.21885803 -0.3583376   0.00849529  0.09753535  0.02995636  0.25690153
  0.21859616  0.21389613 -0.35805443 -0.1915735 ]
[-0.11726701 -0.36107713 -0.07166526 -0.32752514  0.0650399   0.33482328
 -0.37744105  0.29129732 -0.30505514 -0.16481425 -0.01654636  0.3039826
 -0.2222651   0.34270522  0.26251858 -0.10038748 -0.11986886  0.01689473
 -0.32541826  0.0495217  -0.0177018  -0.02153669  0.01603456  0.444334
 -0.14788817  0.10188606 -0.03275884 -0.2080797   0.00931478 -0.3491033
 -0.02517161  0.06701049  0.00846349 -0.29438677 -0.21078223 -0.07352215
  0.4012163   0.23362663 -0.32572442 -0.05150161]
[-0.22998148 -0.36690402 -0.5497967  -0.06926281  0.03683228 -0.04483092
 -0.03386669  0.03630306 -0.27043927  0.14989622 -0.17595975 -0.17295906
  0.21015766 -0.0500395  -0.30278832  0.11442433 -0.01471283  0.13950105
  0.23078069 -0.10396264  0.16173105 -0.16939336 -0.27969787  0.5414597
 -0.32828116  0.02151212 -0.3518006   0.1772514  -0.02683955  0.14503351
  0.7207826  -0.47465894 -0.569153   -0.3128443   0.02096588  0.260134
 -0.50292134 -0.04715631 -0.06263953 -0.26131526]
[ 0.03109878  0.10225847  0.5886715   0.3279889   0.09864294  0.0389944
  0.11297012 -0.32196823 -0.02007049  0.1967152  -0.2928103  -0.25058264
 -0.04669664 -0.17137174  0.03070505 -0.26637772 -0.1320025  -0.2131054
  0.06492406 -0.2798767  -0.10063727 -0.35667366 -0.7516601   0.04092905
  0.23762864 -0.03635069 -0.04305824 -0.00130444  0.30087763  0.07542177
  0.13031995  0.45992857  0.46239892  0.22299428  0.18039799 -0.05340257
 -0.1264427  -0.14529337  0.77234685  0.18216659]
[-0.10447893  0.00122888  0.3464463   0.27528316 -0.18986279 -0.02322384
 -0.14436208 -0.05702951 -0.05581739  0.17112692 -0.02143345 -0.07357306
 -0.19047628 -0.05336054  0.4355529  -0.12217792  0.23426045 -0.06861535
 -0.08905634  0.10040531 -0.0624938  -0.13806583 -0.8918535  -0.4732043
  0.2456848   0.0400759   0.37277073  0.03785635  0.07847425  0.3495987
 -0.16848397  0.67587024  0.62439567 -0.02199215 -0.02604434 -0.04881403
 -0.22301055 -0.3816676   0.60658133  0.00208994]
[-0.20174454 -0.17323051 -0.64468884  0.19041121  0.02436629 -0.18513967
 -0.05719692  0.15644263 -0.17280859  0.13776913 -0.15484896 -0.08082227
 -0.16248037 -0.23916177  0.37627643 -0.2921478  -0.31079814  0.12546508
  0.3125399  -0.19507591 -0.20504591  0.04456411 -0.11655715 -0.52887833
 -0.17435437  0.13096304 -0.02894931  0.13400425 -0.21672295  0.06419205
  0.02718104  0.22689876 -0.15476139  0.4424925   0.23954132 -0.07029648
 -0.36531925 -0.02598546  0.42591912  0.35046396]
[-0.2189807  -0.16382447  0.4185969   0.2310644   0.13621108  0.2211664
  0.28640082  0.13040821 -0.33187446  0.16817293 -0.15403667  0.15695713
  0.29347482 -0.11611137  0.28315693 -0.08518471  0.14281385  0.06307765
  0.00796554 -0.07212844 -0.12383258 -0.2257013  -0.4224072  -0.01524956
 -0.14005952  0.08611611  0.14809598 -0.20763668  0.13902676 -0.08231416
 -0.42583317  0.15714867 -0.17184089 -0.16157153 -0.11674911 -0.15472715
  0.1061293   0.26149493  0.22695482 -0.14266463]
[ 0.01709412  0.00660888 -0.24745736 -0.06015244 -0.08187561  0.00096705
  0.2957737   0.07727706 -0.30355105 -0.01917527 -0.13656272  0.18859312
 -0.37191978 -0.3230131   0.00612365  0.16627169 -0.20642067 -0.11268561
  0.13089016 -0.14440843 -0.02647796 -0.11537512 -0.3155596  -0.45872808
 -0.15063809  0.06556998 -0.18329605  0.14355348 -0.26900813  0.50517577
 -0.20998685  0.24062477  0.09518653  0.5205325   0.52051836 -0.39002642
  0.47172147  0.23253272  0.06481174  0.20600778]
[-0.32102445 -0.13970813  0.3205777  -0.00127447  0.30382174 -0.19601868
 -0.38277045  0.10561237  0.40685436  0.15203017  0.35102016 -0.08390268
  0.23819162  0.17178242 -0.38690898 -0.25357994  0.10509248 -0.2559951
 -0.35253808 -0.17990649 -0.12860759 -0.5662036   0.03932684 -0.15826622
  0.10254315  0.27048966  0.19742167  0.01019048  0.26398167 -0.09173949
 -0.09049745  0.09453045  0.14013082  0.26577905 -0.18671371  0.24702445
 -0.44772097 -0.49365574 -0.2859128   0.00830032]
[-0.07639402  0.10422786 -0.05801302 -0.14393117  0.18364727 -0.18255086
 -0.06779701 -0.0109332   0.26250064 -0.12155866  0.22475255  0.05435618
  0.29927     0.02077019  0.21907619 -0.11580592 -0.25737602  0.14831997
  0.18885005 -0.14180116 -0.03970235 -0.37976387  0.080123    0.30009747
 -0.32779813 -0.0928148   0.1905909  -0.17623603  0.09831529 -0.20624584
 -0.09656549  0.0117194   0.20627658  0.04552255 -0.02633984 -0.1405513
  0.13078842 -0.07797583 -0.05058159  0.1132215 ]
[ 1.6376090e-01  2.4122085e-01 -8.9789480e-02  2.9496655e-02
  6.4263090e-02 -4.2125996e-02  6.0645994e-02  2.0795156e-01
 -1.5022273e-01  6.1249793e-02  3.2403761e-01  1.9560444e-01
 -2.0672539e-01 -6.9121189e-02  3.9858181e-02  3.6819607e-02
  1.8781298e-01 -2.3436740e-01  3.3091963e-04  2.9365018e-01
  1.4962909e-01  6.0072578e-02  2.0380849e-01 -1.1581919e-01
  9.8582000e-02 -2.2310579e-01  6.1234839e-02  1.6834264e-01
 -2.5335529e-01 -3.7205331e-02  8.7417968e-02 -6.8026549e-01
 -2.6654422e-01 -3.7573077e-02 -2.0752832e-01 -1.7963761e-01
 -2.2306425e-02  3.0184606e-01 -2.2476870e-01 -6.3768037e-02]
[ 0.12324964 -0.09936657 -0.22157781  0.0791075   0.2136841   0.21236697
  0.13507193 -0.02257217 -0.28012493  0.2583424   0.26101768  0.20473246
  0.01676282 -0.24754277  0.7540632   0.01949234  0.17611717 -0.06642829
 -0.14044513  0.14323127  0.15637535 -0.01363528  0.01320228 -0.20716962
 -0.15862165  0.1055368  -0.10567241  0.28807983  0.08334885 -0.07296636
 -0.02056707  0.19958347  0.17849039 -0.0890708  -0.319734   -0.22188227
  0.31004393 -0.22083598 -0.06940165 -0.25472194]
[-0.1485764   0.12834689  0.47091222  0.18726937 -0.26621372  0.11488993
 -0.2359841   0.1042059  -0.1783387   0.02255232 -0.3854612  -0.24045552
 -0.08778986 -0.02408586  0.10973159 -0.3072699   0.2914094  -0.24089931
 -0.02074662  0.08908421 -0.01009963 -0.14115515 -0.06764702 -0.09569995
 -0.14604332 -0.05182911  0.33482584  0.27200893 -0.13445991 -0.11529341
  0.03305023  0.29985166  0.04879052  0.2095104  -0.11394595  0.17489557
 -0.12987944  0.10619834  0.41639194  0.01884444]
[-0.02524113 -0.10258912 -0.0449248  -0.02817015  0.19578668  0.1220428
 -0.35203165  0.05907501  0.37036285 -0.07073745  0.08720383 -0.01428683
 -0.04270557  0.01344943 -0.36523682 -0.18507433  0.15015942  0.02191448
 -0.17524648 -0.07723641  0.2507791  -0.1365235  -0.33687407  0.21167241
 -0.15185453  0.02143085  0.20135632  0.0288425   0.24544938 -0.17737612
  0.00587713  0.37592345  0.3004842   0.16476095 -0.26324365 -0.01965788
 -0.5087011  -0.19554329  0.3462517   0.11676592]
[ 0.2517852  -0.06163089 -0.01908143 -0.20849672  0.03353938  0.245175
  0.04925488 -0.2427566   0.07885528 -0.0991661  -0.34884247  0.2537862
 -0.34538    -0.31314623  0.42854506  0.19046132 -0.29471934  0.16641948
 -0.10052914 -0.07703876 -0.12826578 -0.17271467 -0.06042802 -0.20493077
 -0.00293452  0.03577599 -0.28202966  0.23054127  0.07781003 -0.3149222
 -0.6431602  -0.17223568 -0.14952846  0.20548251 -0.16038544  0.08826938
  0.20184633  0.03835545 -0.2834868  -0.2784772 ]
[-0.25553578 -0.04245212 -0.28152522  0.14552902 -0.17279872  0.0100073
  0.09271633 -0.19970112  0.21915616 -0.34133276  0.16256271 -0.01406908
  0.2059269   0.23057114  0.09411708 -0.10004538  0.0909927  -0.23939316
 -0.1563543   0.27652583 -0.12011443 -0.16246372  0.04326091 -0.47321275
 -0.14308232 -0.05293904 -0.11201447 -0.00644411  0.02923465  0.21839377
 -0.528533   -0.20733032  0.11289866 -0.1253554   0.1235759  -0.22382705
 -0.00498194  0.27785653  0.19874145 -0.15569218]
[ 0.00700626 -0.14028378 -0.27510577 -0.31328654  0.1022975   0.0651366
  0.13773224  0.12979794  0.16046141  0.14722691 -0.00880806  0.00218745
 -0.09618538 -0.11125018  0.24066904 -0.15574922  0.01557795  0.23197657
 -0.1370869   0.06569939  0.00569746  0.19444168 -0.15503511 -0.11980468
 -0.09110434  0.17194551  0.00983684  0.18889016 -0.05698874 -0.20256221
 -0.17420393 -0.34167162 -0.10164185 -0.10747829  0.08138156 -0.02904473
  0.10497054  0.15741064 -0.27200592  0.01956489]
[ 0.26300454  0.09267116 -0.4872437   0.12779793 -0.04124876 -0.11977693
  0.41106305 -0.23680943  0.0868068  -0.33773535 -0.06567262  0.15019207
 -0.19807813  0.00121111  0.11743551  0.2446299  -0.5763024  -0.16283926
 -0.40195107 -0.12336198  0.3234975   0.05278815 -0.1271671   0.1479092
  0.06075631 -0.03474144  0.44049138 -0.06828817 -0.06504132  0.28700206
  0.4464175  -0.0952057  -0.04170841  0.46884885 -0.01780556  0.08170444
 -0.19771263 -0.25528553  0.3522854   0.03487944]
[ 0.07517693  0.01609605 -0.2653558   0.14517872  0.2220236  -0.04365546
  0.14861183  0.08033191  0.21304397 -0.15261883  0.02748984  0.34507498
  0.24891222 -0.23115337 -0.41933855 -0.13511953 -0.2644333   0.23957121
 -0.06153666  0.06885509 -0.18966094 -0.07747793 -0.10847085 -0.08875749
 -0.3421498  -0.16093837 -0.13160704 -0.03970115 -0.09694857  0.1082501
  0.28082678 -0.1982776   0.11508861  0.11731376  0.30115777  0.11196022
 -0.03787197  0.36095932 -0.03384403  0.09846208]
[-0.07155848  0.12175772 -0.14046992  0.07183673 -0.00738873  0.19786593
 -0.06653994  0.00555371  0.27675736 -0.17277858  0.041391    0.02968339
  0.00679948  0.0875283  -0.02295115 -0.1055846  -0.14050405  0.00586606
 -0.29210666 -0.03107121 -0.01233302 -0.06312322  0.13011251 -0.00564109
 -0.01795056 -0.00843864  0.0229376  -0.03887737  0.13547698  0.10825681
 -0.0994645   0.12885292  0.13140109 -0.01532519  0.03348797 -0.03086641
  0.00713574  0.00402043  0.05641587  0.03419417]
layer 3 Activation
tanh
layer 4 Dense
40 20
[-0.05059072 -0.17766488  0.22626254  0.11470795 -0.15595101 -0.04077546
  0.29806232 -0.05081106 -0.1374813   0.10750062 -0.2344614   0.2071949
  0.00686377 -0.16807243 -0.08127932  0.03981623  0.20661478 -0.18106379
 -0.14582163  0.03555904]
[-0.16883858 -0.11988976  0.13635644 -0.14554785  0.07908419 -0.08087945
  0.06181541 -0.11432476  0.0032623  -0.05394666  0.21977472 -0.06804407
  0.10623499 -0.04068179  0.10015851 -0.21483378  0.11462232  0.08001515
 -0.26326463 -0.01168218]
[-0.4929993   0.42552742 -0.07583058 -0.01049023  0.24894573  0.0200455
 -0.4509556   0.00579128 -0.07982097  0.25071305 -0.02806645 -0.08520528
  0.44359818  0.05635791 -0.26488316 -0.24678257 -0.19569503 -0.2150478
 -0.5050126   0.36785832]
[ 0.09048554  0.07056163  0.14683016  0.15503213 -0.03415794 -0.08787264
  0.06467298 -0.03063495 -0.07060653 -0.35897595 -0.27843148 -0.14181663
  0.09967397  0.05447384  0.15881363 -0.21807973 -0.02295035 -0.01169025
 -0.39481664 -0.25640452]
[-0.04245232  0.17703158 -0.1998933   0.10808491  0.0344593   0.04183505
 -0.02355595 -0.15348148 -0.27982068 -0.01876609  0.14222768 -0.08627585
  0.12995842  0.07554545 -0.14773926 -0.01984045 -0.20800391  0.07905886
  0.05018282  0.01553881]
[ 0.00629028  0.11868378  0.20353541 -0.23225866  0.13239926 -0.12543313
  0.00194299 -0.08115378  0.06777561  0.34299564  0.10253842 -0.18361431
  0.01918054  0.12147079  0.0944779  -0.13817796  0.08044481 -0.367011
 -0.04913093  0.06586866]
[ 0.03522646  0.00885871 -0.14722735 -0.19032694 -0.2728613  -0.20850973
 -0.0847559  -0.30964336  0.00939393  0.15675558  0.15625905  0.09269925
  0.07624868 -0.1467441   0.05486352 -0.12239406  0.25038847 -0.02475383
 -0.30760574 -0.24234383]
[ 4.2526603e-02 -3.7909556e-02 -1.0174085e-01  2.4357533e-01
 -4.6325933e-02 -7.2731107e-02  5.1862807e-03 -1.3431741e-01
 -2.0293221e-01 -2.7153540e-01 -6.7276612e-02 -1.1893027e-02
 -2.5180611e-04 -1.4388062e-01 -5.0716002e-02 -2.1438484e-01
 -9.7069085e-02  1.1545162e-01  2.1353777e-01  3.2841375e-01]
[-0.0660385  -0.313451   -0.15608191 -0.16565585  0.47507632 -0.05153764
  0.26497373 -0.02076386 -0.02876044  0.17895423 -0.19002761 -0.0445863
 -0.03015282 -0.08792251  0.03974831 -0.18827601 -0.07967194  0.28537005
  0.0866185   0.14753686]
[ 0.17340803  0.14507599 -0.09317262 -0.04714637 -0.25970295  0.03548239
 -0.2676022   0.22420518  0.016827   -0.11104969 -0.0704855  -0.07513066
  0.00109409 -0.12351035  0.21652934 -0.00347165  0.00623283  0.2134161
  0.20492874  0.34115002]
[ 0.03245351 -0.25377375  0.04976287  0.14812902  0.19979352  0.16142976
  0.04361113  0.07757609 -0.00811751 -0.2036939  -0.1557096  -0.24458605
 -0.2556321   0.08275232 -0.20124175  0.27237007 -0.139241    0.3499914
  0.10182069  0.09182922]
[-0.05671905 -0.35893208 -0.04649946 -0.10519944  0.19565253  0.00325313
  0.14373982  0.14380585  0.2677428   0.23191734  0.18777078  0.25615427
 -0.05311165 -0.16113146  0.11766164 -0.13788901 -0.15940012 -0.16413927
  0.14473675  0.15319057]
[-0.00636057 -0.07130858  0.16148779 -0.04046179  0.1714226  -0.360339
 -0.23820502  0.11260305 -0.25882745  0.391698   -0.17213805  0.08673842
  0.07915661 -0.06976008  0.09041752  0.11549539 -0.24438454  0.06109963
 -0.17039488  0.18722877]
[-0.06031391  0.04497011  0.00576691  0.29785776  0.28522703 -0.00131555
 -0.03981125 -0.06008067  0.13606091  0.24313147 -0.13316315 -0.20979856
 -0.06401952 -0.15927623 -0.2377484  -0.02189139  0.10304435  0.21798556
 -0.03518216 -0.10297459]
[ 0.21492822  0.11078893 -0.07966317  0.04413539 -0.23217875 -0.04803226
 -0.31726685  0.07850256 -0.02187526  0.3411894  -0.01691766 -0.48975495
  0.53030807  0.07818109  0.18441176  0.27242377  0.05161738 -0.3235806
  0.37481466 -0.12657088]
[ 0.18799727  0.10282741 -0.25005338  0.08324338 -0.23215282  0.19355887
  0.25418308 -0.20669673  0.23690282 -0.18322419  0.08419645  0.11434992
  0.04180209 -0.18336163 -0.18999337  0.02811712 -0.14839453  0.04889357
  0.01769817  0.09829704]
[ 0.2019093   0.2761775  -0.11843368 -0.24728218 -0.1645095   0.1148533
 -0.06076012  0.34364626 -0.08088867  0.00194242  0.2185308  -0.0892181
  0.14989278  0.05468754  0.08747213 -0.11434393  0.02270117  0.23499973
 -0.26251027  0.24031352]
[-0.18434538 -0.12129828 -0.09476522 -0.08217433 -0.04580369  0.08451777
  0.16003677 -0.28540263  0.15526287 -0.05263397 -0.08774731  0.23826759
  0.16147462 -0.3316268  -0.16355734 -0.05281328 -0.1433795  -0.11368916
  0.16390952  0.1892517 ]
[ 0.11865164 -0.24001233 -0.0602957   0.03240173 -0.3127349   0.0754005
 -0.08722825  0.2420448   0.19364747 -0.2536122   0.08698669  0.23155533
 -0.02072485  0.22330715 -0.00220325  0.08709021 -0.10990849 -0.01211799
  0.02221896  0.19172713]
[ 0.2693064  -0.05624469  0.08029915  0.11414156 -0.02103572 -0.07299251
  0.1860164  -0.00388971 -0.10314825  0.16588739  0.2304635   0.1723948
 -0.03728336 -0.05413988 -0.08350307  0.05393661 -0.09820205  0.12011276
  0.09496041  0.16254377]
[ 0.19216615 -0.15899833 -0.21562509 -0.21446751 -0.03020781  0.06005207
  0.14112535 -0.10001654 -0.24962455 -0.18842871 -0.24463908  0.0324883
  0.0913228  -0.16051161 -0.080901    0.1528062   0.1587129   0.264738
 -0.2027974   0.07355455]
[ 0.07572558 -0.17290084  0.09683339 -0.08717374 -0.17231046 -0.1178117
  0.07497306 -0.09849226 -0.03476502 -0.09742108 -0.00389397  0.1603612
 -0.01431772  0.16282462 -0.01874805  0.07532724 -0.17189892 -0.11448126
  0.01926638  0.21702597]
[-0.12805633  0.00606544  0.04134646 -0.21999517  0.214563   -0.00660769
  0.28295913  0.14610998 -0.10769795  0.06939334  0.22231503  0.16258195
  0.10657938 -0.12237251 -0.27501798  0.03318388  0.01000432 -0.16279377
  0.29984543 -0.06343744]
[ 0.1155086   0.25241682 -0.02051914  0.23197888  0.3009488   0.09369186
  0.22010261 -0.20390628  0.00697416 -0.07438113  0.16657403  0.2230181
  0.05373052 -0.17116271 -0.09905005  0.17292552  0.11277155  0.06823666
 -0.03298299  0.28699854]
[ 0.12965332  0.15508114  0.09188946 -0.16438642 -0.06832007  0.06823964
  0.1294614  -0.06981909 -0.28444633 -0.10669151 -0.18278137 -0.2992985
  0.09690582  0.03163036 -0.03569768  0.08867403  0.23754962 -0.31689855
 -0.19607936  0.11042128]
[ 0.24377324  0.15350354 -0.11096807 -0.14046635 -0.00354395 -0.17922817
 -0.23067737 -0.25084195 -0.10762859 -0.0522755   0.0763354  -0.21979156
  0.05091419 -0.09139276 -0.12995309  0.13186443  0.05482765  0.09761406
  0.2006839  -0.13111499]
[-0.06540051  0.06149154 -0.19960028  0.05091327  0.11804502  0.09388622
 -0.01996262 -0.04586919 -0.27863145  0.1422713   0.15607795 -0.19062272
 -0.0610677   0.14947797  0.07975096  0.08609791  0.16869514 -0.04022202
 -0.3392963  -0.18411092]
[-0.11454722 -0.0655877   0.13821407  0.15843695 -0.29426426  0.11840425
  0.09966458  0.3335938  -0.2604322  -0.02556076  0.04044609 -0.01424433
  0.03092647  0.1942726   0.09663891 -0.20478995 -0.16772848 -0.02242419
  0.09384777 -0.11332478]
[-0.2226018  -0.02340224  0.08862594 -0.05848183  0.38691422  0.03160201
  0.04315671  0.33632714 -0.05757746  0.11723968  0.09482029 -0.315976
  0.08893166  0.08894177  0.15484494  0.13498968  0.1030156  -0.21044275
 -0.2536912  -0.05637277]
[ 0.24983837 -0.17686921  0.06327984 -0.09930041 -0.03461058  0.16948196
  0.04050039 -0.27420124 -0.04307936 -0.17496106 -0.08792078 -0.22771986
 -0.0192125  -0.17279974  0.19944991  0.04786102 -0.22661985  0.35015222
 -0.26831886  0.16146953]
[ 0.03599796  0.06276628  0.02534282 -0.22103105  0.4101357  -0.01824467
 -0.31876135  0.13089018 -0.29070175 -0.05559608  0.23725942  0.36606455
 -0.2490433   0.18828781 -0.37522995 -0.19883801  0.11634295 -0.05130113
 -0.38208827  0.2475299 ]
[ 0.37118497  0.06150837  0.01872133 -0.27576852  0.35919976  0.28471327
  0.06394242  0.36965847  0.16039295  0.19943039 -0.17089427 -0.3632719
  0.08032551 -0.14102697  0.331568   -0.04491588  0.02350914 -0.22232313
 -0.34800616 -0.0417463 ]
[ 0.08984218 -0.1803965  -0.30009347  0.17528589  0.40263748 -0.0794981
 -0.22115698  0.20814878  0.07054993  0.13584684  0.21516937 -0.09779936
 -0.16128172 -0.02646445  0.25326908  0.07936811  0.19148323 -0.03521783
 -0.25613734 -0.1980027 ]
[-0.21394981  0.01547135 -0.01271766  0.17940047 -0.18510003 -0.03813256
 -0.12431995  0.05591367  0.20481317 -0.45042208  0.06071465 -0.13546057
  0.00806095  0.24677919  0.11727298  0.14680715  0.09718657  0.21030843
 -0.160333   -0.46093917]
[ 0.01166842 -0.31585392 -0.1970448   0.09619126 -0.09969008  0.09187742
  0.05000909 -0.18011124 -0.05256085 -0.2619568   0.20624386  0.18261458
  0.06124257  0.00137724  0.09840194 -0.1505193  -0.12548453  0.10967153
 -0.27245057 -0.00127955]
[-0.08967732  0.18175411 -0.13609749  0.14660777 -0.01510723 -0.16530792
 -0.06711397  0.11748243  0.32762432 -0.0153404   0.08839072  0.19994444
  0.03514766  0.11519839 -0.11333399  0.03629417 -0.28195137  0.09304658
 -0.16771361  0.1363606 ]
[-0.05108865  0.06193085 -0.09024212 -0.05467866 -0.10496131  0.20225593
  0.2700003   0.1302265  -0.09934057  0.31285968 -0.04901524 -0.18294087
  0.00752369 -0.0831331  -0.22901805 -0.04766297 -0.12478834 -0.04190917
  0.12038892  0.08818521]
[ 0.01094741 -0.06696747 -0.02407405  0.16532405 -0.2542241  -0.13596103
  0.28038234 -0.3055386  -0.0483495   0.39645827 -0.18169251  0.3397082
  0.26747262  0.06984285 -0.2783912   0.18032955  0.21793826  0.23442651
  0.22620732  0.13395846]
[-0.12163474 -0.21282549  0.22643453 -0.034833    0.10191206 -0.01539375
 -0.21585219  0.10562442 -0.20833637 -0.23608775  0.13459256  0.07594939
  0.36537138  0.17255041  0.3207899   0.17229557 -0.27172467 -0.32969922
 -0.28594577 -0.3203439 ]
[ 0.05454524 -0.35126248  0.08239419 -0.0806412   0.03730926 -0.07263775
 -0.11160333  0.15210506  0.06418167 -0.4874652   0.02279683  0.17656562
  0.15205817 -0.05411439 -0.0150379  -0.15508743 -0.01545515 -0.00921097
  0.01623084 -0.1611886 ]
[-0.08372316 -0.09732334 -0.02286088 -0.00810955  0.19416188 -0.05006265
  0.0574519  -0.07915048 -0.00399958  0.13900822  0.07182627 -0.13712841
 -0.01832285  0.04298049  0.13153276  0.03083762 -0.05461295 -0.06439458
  0.04724073 -0.1240886 ]
layer 5 Activation
tanh
layer 6 Dense
20 1
[0.02629512]
[-0.06828582]
[0.01754175]
[-0.02037726]
[-0.17488568]
[0.03308235]
[0.09061341]
[-0.07813292]
[0.00907894]
[0.05062819]
[-0.0154096]
[-0.09670581]
[0.00998948]
[-0.01570873]
[0.1159343]
[0.00534979]
[-0.02026447]
[-0.00081549]
[0.12709115]
[-0.10998821]
[0.07669328]
