layers 7
layer 0 Dense
20 20
[ 0.29927585 -0.21036327 -0.5114521   0.2113908  -0.29560608 -0.04691668
  0.03986159 -0.42528254 -0.29746076  0.10558841 -0.14688164  0.10599939
  0.10526837 -0.28711283  0.18646419 -0.04213809 -0.21372357 -0.01345782
  0.3234851   0.10385054]
[ 0.17392439 -0.32349357 -0.12051833 -0.13981538 -0.5706741  -0.32620335
 -0.25485122 -0.1842275  -0.45102352 -0.26283196  0.3008524  -0.43426374
  0.0690164  -0.01928398 -0.09191627 -0.06121061 -0.12113296  0.17499442
 -0.15176153  0.07245503]
[ 0.24601385 -0.8313325  -0.5418547  -0.13056143 -0.46186757 -0.27673662
  0.35800943 -0.27746594 -0.1139739  -0.16318019  0.49052623  0.09980925
 -0.39381123 -0.3413373  -0.01712638  0.26723346  0.33184022 -0.43968558
 -0.45336762  0.37231252]
[-0.27492422 -0.14224724 -0.38452733  0.02762713  0.26292226  0.17649631
 -0.3852702  -0.1399518   0.21882966  0.18604761  0.27317134 -0.16237544
 -0.28016725  0.17415628 -0.03125029 -0.08764079 -0.23374474 -0.27321303
 -0.24201144  0.20768219]
[-0.17669894 -0.11846901 -0.22892042  0.45817515 -0.29201993 -0.07864886
 -0.30501407 -0.32549083 -0.22067152  0.09880575 -0.11156686 -0.2470956
 -0.40199202  0.13499223 -0.09649935 -0.31403068 -0.0316715   0.34825888
  0.10776998 -0.0719002 ]
[-0.30041638  0.44853777 -0.02339748  0.10925999 -0.07550049  0.57873666
 -0.12365688  0.31218717  0.593251   -0.16402838  0.057788   -0.19443542
  0.13276133  0.3813571   0.04184906 -0.5198068  -0.6074874  -0.11223168
  0.19934091 -0.63778883]
[-0.37838653  0.288519   -0.04225741  0.22011606  0.32427803  0.0659584
  0.32307118  0.07458884  0.17643209 -0.02284019 -0.23829268 -0.23172177
  0.48518476  0.02888745 -0.0323148  -0.29296592 -0.34399542  0.31072846
  0.1647672  -0.5574369 ]
[ 0.23786983  0.5133294  -0.09007425 -0.24748755  0.55286443 -0.10005189
 -0.3906689   0.06694202  0.05455213  0.12080336 -0.23057353  0.23021932
  0.4053757  -0.35647768  0.05939585  0.17522632  0.04372429  0.06946767
  0.20978498 -0.1736259 ]
[-0.16067596  0.73183036  0.56955177 -0.1644889   0.06920287  0.7314352
  0.1772335  -0.28065023  0.7310504   0.7058662  -0.44739452 -0.4428863
  0.12272915  0.57436985  0.29297554  0.02725022 -0.308513    0.7470257
  0.88133    -0.3330898 ]
[-0.22885673  0.3244302   0.05731367 -0.07884425 -0.11789465 -0.03690928
  0.19795631 -0.08123624 -0.00324711 -0.02893795  0.13661727 -0.04109957
 -0.0538722   0.28482068 -0.13097589 -0.04825601  0.12924092  0.20070532
 -0.21996616 -0.19155484]
[-0.06351795  0.03277647 -0.1805818  -0.3018365   0.15991646 -0.24104357
 -0.21301615 -0.00530839 -0.36666694 -0.20589522 -0.25322938  0.1664222
  0.41580546 -0.02215923 -0.22368206 -0.13162811  0.07561226  0.26748645
  0.10114226 -0.33239907]
[ 0.11027367 -0.46833503  0.06952886 -0.3694041  -0.29258424 -0.73268926
 -0.10713652  0.4736563  -0.7040795  -0.32405177 -0.17823799  0.45168668
 -0.07380301 -0.49143726  0.1511988   0.05988786  0.9389178  -0.09495773
 -0.48397973 -0.61340475]
[-0.29862052 -0.2997396  -0.27138942 -0.26894182  0.10931011 -0.10501225
  0.10271636 -0.28009716 -0.12261759 -0.541243    0.1341746  -0.17288904
  0.03707021 -0.02527078  0.28655022 -0.15764655  0.39282736 -0.3419037
 -0.38616255 -0.10795397]
[-0.2700463  -0.33298755  0.31397197  0.09303452 -0.11134019  0.2506635
  0.17822821  0.4394133  -0.31910008  0.82504004  0.6760278  -0.12726977
  0.0694652   0.79868317 -0.6091202  -0.01966104  1.2181163  -0.18671347
 -0.22055064  0.5309941 ]
[ 9.8040658e-01 -1.0296408e-01  1.7829846e-01 -6.6789919e-01
  3.2457617e-01  1.3892615e-01 -1.9249785e-01  2.6009791e-02
 -3.6254746e-01 -4.2989391e-01  4.5003515e-01 -6.5268284e-01
  8.0427825e-01  3.2754801e-02  8.4100330e-01  6.1159962e-01
 -3.3352494e-01 -6.5923309e-01  3.4994808e-01  8.0638297e-04]
[ 0.03656765  0.49293807 -0.73719317  0.21397841  0.1821716  -0.06944358
 -0.08788701 -0.23713835 -0.18765013 -0.04419221  0.21055685 -0.29381573
 -0.21404609  0.26150692 -0.08778986  0.00368918  0.44626123  0.09217037
 -0.03403674  0.03961213]
[-0.14789069 -0.2302166  -0.23635893 -0.05543344  0.04196633 -0.3350533
 -0.01825174  0.55196    -0.43414107 -0.5181153   0.4019703   0.2273901
  0.00766189 -0.20852654 -0.17095007  0.05721155  0.62540334 -0.64675444
 -0.51585853  0.23621167]
[-3.3855289e-01 -4.8344767e-01  1.5109304e-01  2.0212033e-01
 -3.0229989e-01 -2.7361584e-01 -1.3669525e-01 -3.0310261e-01
  2.3714781e-01 -7.9888052e-01 -3.6048284e-01 -8.4520679e-04
 -6.4522403e-01 -8.1391476e-02  2.9998772e-02 -1.9839551e-01
 -1.3707832e+00  1.4725944e-01 -1.1638532e-02 -3.0335566e-01]
[-0.09752379 -0.4072613  -0.02543131  0.97745544 -0.60569775 -0.3646828
  0.25818706  0.02250425  0.24188465 -0.27287668 -0.43654314  0.34379673
 -0.9631162  -0.07933277 -0.63716674 -0.9192079   0.3128504   0.51292735
 -0.30674243  0.38779566]
[ 0.07895026  1.0165389   0.6211299  -0.34755465  0.510889    0.56573105
  0.05031936 -0.05328105  0.74267095  0.11227969  0.12771799 -0.05193409
  0.6519891  -0.05421482  0.3971671   0.19102196 -0.41613036  0.53130484
  0.10440894 -0.11021121]
[-0.04079545 -0.21610126 -0.11636093  0.02039678 -0.16122329 -0.00848403
  0.06247583 -0.04703425 -0.0480272   0.00138182  0.00170881 -0.03767789
 -0.02409616  0.01815699  0.06688783 -0.06768935 -0.11344394 -0.02030433
 -0.00648916  0.09089717]
layer 1 Activation
tanh
layer 2 Dense
20 40
[ 0.18159425 -0.21936491 -0.1320021   0.25826767 -0.07816295 -0.28294834
  0.34115693 -0.17655    -0.11414024  0.12083609 -0.14589685  0.0716956
 -0.18415801  0.01928617  0.04056195  0.15689592 -0.02317285  0.31579396
  0.02370756 -0.18342935 -0.22133707 -0.00078549  0.02030569 -0.0268859
 -0.10902243  0.17072295  0.10738622 -0.01526832  0.00583353 -0.14400522
 -0.0763105  -0.15339859 -0.17659494  0.20103335 -0.25574473  0.06970169
 -0.02859538  0.14379612  0.14845544 -0.1602481 ]
[ 0.16763993  0.32640854  0.18157937  0.22483803  0.24825487 -0.20879994
 -0.10521868 -0.11227101 -0.20627294 -0.49143115 -0.23834987 -0.25603586
 -0.09428154  0.09162618  0.08638643 -0.11431409  0.30141667 -0.07644793
  0.23431632  0.09354427  0.08450954 -0.33479548 -0.04749188 -0.00734551
  0.25995928  0.07676439 -0.00400727 -0.03083273  0.35926798 -0.029556
 -0.16290657 -0.00973587  0.09975145 -0.21327507 -0.1713112   0.37757048
  0.3606404   0.05169088  0.12436868  0.06299107]
[ 0.11261674  0.27220386 -0.06471509  0.39114696  0.06048092 -0.2479996
 -0.18929051  0.08219014 -0.616298   -0.19565256 -0.13728017  0.23428039
  0.1986345  -0.00803994  0.05661168 -0.03023503 -0.16557992 -0.09767427
  0.13841788  0.3005804  -0.16199696 -0.33161458  0.22431016  0.27208677
 -0.1538621  -0.15613043 -0.16980569 -0.3388842   0.2356274   0.23875822
 -0.05426478  0.3158439  -0.04135815 -0.50935507  0.19526012  0.42490458
  0.29637626 -0.09228668 -0.21834277  0.25392643]
[-0.08356272 -0.27187407 -0.30308223 -0.01253549 -0.11071741  0.09834044
 -0.29699823 -0.04050116  0.23804338 -0.30662814 -0.07043038  0.22067732
  0.39684173 -0.30129325 -0.17864557  0.09471434 -0.11001981  0.15917125
 -0.07056291 -0.06078757 -0.28691477  0.29992646 -0.2650231  -0.20512466
  0.27780986  0.28986436 -0.40610492  0.13346224 -0.04998086  0.27675143
  0.17160597  0.01244995  0.2174619   0.05206421  0.20113131 -0.2461314
  0.10205813 -0.1962356  -0.15529391  0.01710587]
[ 0.05183174  0.15213507  0.10086194  0.09454864  0.09554195 -0.22461177
  0.13923357 -0.14044052 -0.25095755 -0.15442571 -0.11184228 -0.04449082
  0.1162551  -0.10621825 -0.01048109  0.06875286  0.19264743 -0.2456669
 -0.01121479  0.15110992 -0.22709641  0.05795662 -0.22320333  0.24814753
  0.02104538 -0.04719368 -0.05748412  0.05155345  0.15748529 -0.17784414
 -0.15723558  0.06493278 -0.13619    -0.05272346 -0.10749134  0.28723335
 -0.01149101  0.25602978  0.13013658 -0.10476747]
[ 0.19586794  0.22190668 -0.16218205  0.36951393 -0.19879206 -0.11346213
  0.04358396  0.34081072  0.17672317  0.05669274 -0.47310415 -0.10784777
 -0.29040247  0.16821344  0.10850213 -0.2989165   0.31831765 -0.19908476
  0.25289705 -0.5828334  -0.17586376 -0.23705694 -0.1512524  -0.11692085
 -0.24108076 -0.05710359  0.10206983  0.20416196  0.47523457 -0.01068096
 -0.06149795  0.28951925 -0.3106871  -0.29189643 -0.27477363 -0.00860509
  0.30394712 -0.04166259  0.09873416 -0.02481459]
[-0.13697828  0.12320894  0.00079876  0.09863382 -0.14805809 -0.02337724
  0.06555384 -0.02644276 -0.1144895   0.06500858  0.14242263  0.20746464
  0.11622132  0.00209399 -0.07120444  0.22704424  0.2544309  -0.28084925
  0.17191838  0.11763939 -0.11096527 -0.12551977  0.12917337 -0.09449854
 -0.06726544 -0.19495147 -0.09120252  0.1645227   0.17022665  0.15058382
  0.08099916  0.06857598  0.22937368 -0.19283648  0.251916   -0.03824164
  0.2206167   0.01218672 -0.19048692  0.23773426]
[-0.07159171  0.17603157 -0.07005855  0.17313105 -0.13012645 -0.30798486
  0.17091928 -0.13654706  0.00942845  0.10183112 -0.13805026 -0.3113487
  0.22411902 -0.47585982  0.01147085  0.23617728  0.14031352  0.2596368
  0.07204963  0.22947262 -0.15928474  0.07451651 -0.09370381 -0.11600674
 -0.27940235 -0.19079305 -0.03379507  0.05861378  0.3953045  -0.2874946
  0.03524706  0.13963367  0.2392607  -0.1387798   0.06671526  0.215434
  0.17170489  0.08024241  0.00683682 -0.1411502 ]
[ 0.27691543  0.19227268 -0.11508542  0.34412858 -0.02090275 -0.05405258
 -0.23951618  0.00149207 -0.14756274  0.05687006 -0.16675444  0.02138223
  0.12166325  0.423165   -0.23994929 -0.10007633 -0.05493397 -0.19393387
  0.2577696   0.4668734   0.22493078 -0.2621711  -0.23056865 -0.29887527
  0.2890614   0.3351614   0.11633594  0.25659502 -0.06778403 -0.01050451
 -0.08968696 -0.10908782  0.12383635  0.13586926 -0.34021077 -0.21077034
  0.23109218  0.18293022 -0.22321817  0.1733421 ]
[ 0.13100412  0.5142443  -0.01106855  0.01094918  0.08557527 -0.02941859
 -0.07073976  0.03004919  0.40560067 -0.17135473 -0.43987393  0.11666257
 -0.09360005 -0.08659361  0.345505    0.12061598  0.35253847 -0.12995182
  0.26728404 -0.7401824   0.21336538 -0.32949197 -0.25075367 -0.22351497
  0.01414608  0.24305125  0.06453353  0.20591886  0.2767515  -0.00248704
  0.00672154  0.19764337 -0.03696057 -0.37131077 -0.29926008  0.36881116
  0.14076243  0.25388682 -0.2541359   0.22987758]
[ 0.18796486  0.16466923 -0.06970928 -0.02155854 -0.08834515 -0.11841275
  0.26143134  0.02186484  0.25874275 -0.06039783  0.13446477  0.03598508
 -0.00083514 -0.2268149   0.06680316 -0.19417895  0.24331558  0.13907622
 -0.15288585 -0.35455224 -0.36908513 -0.14766021 -0.09459715  0.15542562
  0.09454971 -0.2581716   0.08491571 -0.24551027 -0.01533959  0.00548499
 -0.27586192  0.1406755  -0.12571728 -0.03470128 -0.09880623  0.09067898
 -0.12592778  0.23387082 -0.18850914  0.23298557]
[-0.20615327 -0.15397532 -0.10388487 -0.10925834 -0.05606494  0.02987125
 -0.13853411  0.11096857 -0.2682392  -0.10461675 -0.06611896  0.04894343
 -0.01046018 -0.2100824  -0.05081075  0.0701675  -0.1842623  -0.22087881
 -0.28624833  0.31855282 -0.18499064  0.22195014  0.24330112  0.16115832
 -0.05404304 -0.09317804  0.04714242  0.00434825  0.01311822 -0.32249308
 -0.05709891  0.02933361  0.19992012  0.05221815  0.24756739 -0.05664994
 -0.19347072  0.12357797  0.24965377  0.00449886]
[ 0.23794466  0.3853546   0.33086532 -0.00729181 -0.20770723 -0.05872606
  0.04008428 -0.14626144 -0.2183022   0.00966057 -0.32790813 -0.41860402
  0.17774819 -0.16449277  0.13817373 -0.00626634 -0.01776073  0.07606771
  0.15795521 -0.20161484  0.00387115  0.03506702 -0.08558458  0.19259347
 -0.21138045 -0.2656831   0.25242403 -0.07107538  0.3745019  -0.18527754
 -0.24173555  0.04053561 -0.05770512 -0.00638233 -0.26993385  0.13386543
  0.33187163  0.03571115 -0.20254491 -0.04170956]
[-0.04283316  0.21750599  0.19021969  0.09909922  0.09982076 -0.28457174
 -0.22586355 -0.20948364  0.33229053 -0.1743707  -0.1268318  -0.16276848
  0.27982098 -0.23222578 -0.05568549  0.12378471  0.05056946  0.00118533
 -0.13192512 -0.46098813 -0.12544172 -0.21134111  0.01474334  0.07238656
  0.07855775 -0.2807422  -0.15650068  0.2625022   0.35569757  0.01704192
  0.04666396  0.05669114 -0.20979556  0.1108221  -0.07588167 -0.31698143
  0.19611473  0.41041702 -0.04801161 -0.15399416]
[ 0.195497   -0.165162    0.3131922   0.7806852  -0.09729631 -0.06516962
  0.0914431   0.2094065  -0.21067233 -0.20592113  0.0279802  -0.2289671
 -0.35487577  0.26007628  0.02769748  0.01296356  0.00344345 -0.09635608
  0.07607791  0.23308025 -0.00284812 -0.14043877  0.1829464   0.04450598
 -0.10419573 -0.23720972  0.07288481 -0.11480974 -0.3479242  -0.47068593
 -0.20592485 -0.27313626 -0.14809087 -0.08600227  0.02746805  0.17626643
  0.11512817  0.15942705  0.13018438 -0.1504695 ]
[ 0.04447483  0.07843012  0.05061223  0.46604213 -0.00227395 -0.06655677
  0.17670178  0.19963981 -0.30568948 -0.16589384 -0.15752673 -0.20702484
  0.19306837 -0.23152132  0.2608354   0.10230197 -0.19964597 -0.02122807
 -0.18962057  0.0744866   0.13222764  0.00725041 -0.19047086  0.3369282
 -0.3273318   0.03375736 -0.15746564 -0.19487892  0.23439218  0.05622844
 -0.13963118 -0.14256728 -0.01607762 -0.17832896 -0.2578725   0.07628209
  0.18977866  0.05212466 -0.18894963 -0.10219035]
[-0.13356578 -0.34772822  0.09111036 -0.2277588  -0.4221735   0.16706522
  0.49015245 -0.09921325 -0.2519188   0.2742651  -0.08633076  0.17849866
  0.13421628 -0.6042711   0.16454163 -0.1697347  -0.03161464 -0.09391376
 -0.34163654  0.2810144  -0.20695539  0.09469394 -0.08973902 -0.18675862
 -0.482916    0.11376494 -0.14047158 -0.03686217 -0.0670421   0.48389295
  0.15878777  0.16655909  0.08787491  0.48567715  0.26555794 -0.2329348
 -0.44471568 -0.15109147 -0.34841532  0.02345601]
[-0.17208764 -0.06923018 -0.47700125 -0.11490397  0.4156199   0.0987213
 -0.4963973   0.0893746  -0.04010941 -0.30621237 -0.28157035  0.24085848
 -0.0039757   0.5570288   0.00794994 -0.00480805  0.03803276  0.05172849
 -0.19486305 -0.12869917  0.18501583 -0.04994224 -0.12472259 -0.2180007
  0.443397    0.43083167 -0.14333072  0.21907414  0.13889734  0.08541445
 -0.09490661 -0.08898838  0.2540497  -0.3102909  -0.08061266 -0.04401695
 -0.3072597   0.05564086  0.36714947 -0.21998909]
[ 0.43325427 -0.0252583   0.1274162   0.34108377 -0.15933454  0.08239426
 -0.2702295   0.0607134  -0.10648126 -0.2444873  -0.4069146  -0.27869508
  0.00200146  0.14011183 -0.18207885 -0.09942816  0.33677283  0.14454973
  0.1291404  -0.14208627  0.1424764  -0.19721907  0.07584626  0.29458648
 -0.00079671  0.28503898  0.20001176 -0.05126851 -0.07299489 -0.27404127
 -0.21107203  0.12034822 -0.12970097 -0.10883422 -0.18085939  0.13014694
 -0.06339011 -0.14474963 -0.05538598  0.09435037]
[-0.24974167 -0.2196858  -0.2611844   0.21519116  0.00261831 -0.08598488
  0.02310698 -0.08620773 -0.02072569  0.1815139   0.14967279 -0.04190177
 -0.18169081  0.0889674   0.33386952 -0.18039346  0.31596476 -0.16271214
 -0.16978043 -0.313298   -0.19306698 -0.11259127  0.09950678 -0.074861
 -0.2263232  -0.1594958  -0.2737992  -0.13821028  0.43111256  0.3849582
  0.07214358  0.1782393  -0.2035614   0.22828753 -0.01224628  0.00172198
 -0.07690118 -0.13331503  0.18489712 -0.13081704]
[ 0.13559677 -0.13246268 -0.07109583 -0.08942485  0.00740915  0.06542331
  0.00810895 -0.05436704  0.4848671   0.05374013 -0.02268048  0.00175105
 -0.05475494  0.15922853 -0.11531534 -0.16610308  0.02265357 -0.18561548
 -0.12348493 -0.19201143 -0.05392099  0.10687364 -0.1650975  -0.09061122
  0.1278203  -0.02115727 -0.02588261  0.01755388  0.14217243  0.05796235
 -0.00210477 -0.00978493 -0.0010758   0.11829447 -0.04671736 -0.32847938
 -0.01499402 -0.03678155  0.05435676 -0.04869709]
layer 3 Activation
tanh
layer 4 Dense
40 20
[ 0.04090174 -0.23689651 -0.13159317  0.3532185  -0.24409717 -0.03446403
  0.02414846 -0.1177085  -0.29605108 -0.12827855 -0.0680055  -0.13006407
 -0.12411975 -0.18935664 -0.11920829 -0.16508208  0.06988621 -0.14153829
 -0.15412284 -0.29068008]
[ 0.22036529  0.09394293  0.14937899  0.07054578 -0.22059855 -0.17024425
  0.23531193 -0.01801679 -0.14060347 -0.08109857 -0.01453073  0.05445334
  0.20109068  0.20041367 -0.04918205 -0.10820852  0.22055462 -0.27921587
  0.1156297   0.3165673 ]
[ 0.20684278  0.28156686  0.23635411 -0.01748103 -0.03584603 -0.19853078
  0.27488953 -0.09823209  0.03526524 -0.09786872  0.12485378 -0.35278195
 -0.0085576  -0.11099907  0.34694013  0.08643815  0.13288987 -0.04242647
 -0.05405264 -0.00592455]
[-0.27969083 -0.21807629  0.2727666   0.48967388 -0.16435175 -0.15159975
  0.29049796  0.10058275  0.25487855 -0.04139827 -0.33492425 -0.18534185
  0.1340327  -0.03965697 -0.18029557  0.13021572  0.27946484  0.14281195
 -0.1070247   0.2316894 ]
[ 0.03443387  0.14941135 -0.1022123  -0.24871834 -0.10695855  0.20819212
  0.10582279  0.33769995 -0.05381525  0.06604593  0.13097958  0.28022274
  0.14961621  0.02963389  0.1771249   0.30085328 -0.03287259 -0.02864943
 -0.07376863 -0.1316869 ]
[ 0.1389248  -0.1024427  -0.24940097 -0.3670695  -0.057907   -0.07182218
 -0.06960499  0.1269401   0.17614721 -0.07660589  0.1283252  -0.06777089
 -0.23353061 -0.1754941   0.35059914  0.02405576 -0.4622085  -0.15654683
 -0.5335778   0.19616534]
[-0.03946956 -0.2710841   0.48153183  0.13490158 -0.15281877  0.31350413
  0.0714496  -0.4115667  -0.3342006  -0.3035761   0.38362834 -0.3836444
  0.21845351 -0.6276994  -0.0674213  -0.10400149  0.35581416 -0.24115857
 -0.19193648 -0.29326817]
[-0.2924884   0.05674201  0.00912437  0.10950638 -0.13480842 -0.01784853
  0.00749316 -0.17719737 -0.10139176  0.0879225   0.04410335  0.0720177
  0.24803923  0.18793593 -0.11639257 -0.03872416 -0.13882245  0.16309969
 -0.12437583 -0.31127024]
[ 0.05971129 -0.3314245  -0.41498697 -0.10964961 -0.24003886  0.32681084
  0.11573303 -0.1413145   0.00226893 -0.2596513   0.24197361  0.3385273
 -0.15958464 -0.07445364  0.06170527  0.02229754  0.12359916  0.01558903
  0.2965424   0.25840628]
[-0.0383618   0.00221831  0.01816884 -0.00635921 -0.05706038  0.02643542
 -0.09034173  0.00200002  0.01095281  0.15715079  0.1290104   0.13456589
  0.16445684 -0.16402772  0.02853503 -0.12085327 -0.20931356  0.01387719
 -0.11884023 -0.09285349]
[ 2.2201426e-04 -1.7147623e-01 -2.7318615e-01  8.0719315e-02
  2.4936409e-01  2.3595820e-01  9.7373081e-03  2.5552517e-01
 -1.0506266e-01  1.4166376e-01  1.5263920e-01 -2.0159383e-01
  3.1016150e-02 -1.4777165e-02 -3.3931956e-02  1.8757939e-02
 -3.3169019e-01 -2.5603729e-01 -3.6928898e-01  3.6690775e-02]
[ 0.38572803 -0.27795318  0.03581465 -0.13919146  0.34167027  0.08921923
  0.25488245  0.19269003  0.07034014  0.32075712 -0.18705139  0.29692775
 -0.15103006  0.11810682  0.03997935  0.06221561 -0.13532197  0.05439137
 -0.1598148   0.0567805 ]
[ 0.3487766   0.03374943  0.23947503 -0.09051346  0.09480453 -0.39167482
  0.15262184  0.03942446  0.20043164 -0.10837046  0.20651956  0.03393295
  0.2635373  -0.04407128 -0.03334049 -0.18434112  0.02447262 -0.17690364
 -0.08769698 -0.0839733 ]
[ 0.18870752 -0.23893355 -0.1563783  -0.10091153 -0.2987687  -0.00199871
  0.05643421  0.3052836   0.13502547 -0.0079177  -0.2581784   0.01726889
 -0.10989636  0.01310624  0.01401438  0.49344474  0.22539641 -0.09429595
 -0.2514765  -0.13178454]
[ 0.36907923  0.2544301   0.06042983  0.08255423  0.11373565  0.20161758
  0.03384759 -0.03055087 -0.15614316  0.14474627 -0.17487769  0.01296225
  0.16844486 -0.05452398  0.00863351 -0.05282178  0.29965782 -0.13573916
  0.1481845  -0.05447578]
[-0.19463399  0.13401534  0.11629777  0.25882646  0.11413942 -0.07505144
 -0.15411179  0.04659751 -0.04552873  0.20572817 -0.17257947  0.0819337
 -0.02939015  0.12878618  0.05428326 -0.1769683  -0.05839944  0.19234584
 -0.18440852  0.16094944]
[ 0.07791574  0.10907117 -0.03691393 -0.06977073 -0.14951691 -0.11975091
 -0.1661613  -0.01159851 -0.04036093  0.02598009 -0.23480566  0.06649635
  0.3125401  -0.10790224 -0.14630179  0.03940294  0.22265042  0.15511265
 -0.0271226  -0.05027236]
[ 0.15336138  0.10394365 -0.02589151  0.14230551  0.069338    0.00338635
  0.10412185 -0.04429947  0.05472034  0.00306831  0.07108939 -0.11603244
 -0.04669926  0.06779485 -0.06858042  0.35506552  0.02811748 -0.0399429
  0.04928228 -0.1204996 ]
[-0.00067317 -0.20407847  0.03711886  0.30129957 -0.09828895 -0.17529923
 -0.18811116 -0.11590412  0.02125659  0.13191886 -0.11587491 -0.18656534
 -0.14750911 -0.02057654 -0.46651924  0.17881349  0.3422625  -0.11680194
  0.08249136 -0.15499283]
[-0.14375234  0.18244855  0.23783335  0.18079206  0.36832097 -0.22191086
  0.02528374  0.02289522 -0.1808857  -0.13999254  0.25999248 -0.15152793
 -0.15339649 -0.06119886 -0.09816899 -0.24210054  0.01248231 -0.12026196
 -0.28351662  0.08239942]
[-0.16841951  0.2919544   0.13243066 -0.11938211 -0.13574004 -0.14276792
  0.01306595  0.04126359 -0.31679848  0.19780572 -0.07496645  0.20315677
 -0.3273828  -0.08009803 -0.01002584  0.15607649 -0.14472987 -0.08750073
 -0.25923532 -0.20809019]
[ 0.03785793  0.11424243 -0.12694547 -0.1811305   0.14655471  0.22974117
  0.07574683  0.07168601 -0.24591288  0.15842083  0.08491055  0.04727926
  0.20720068  0.11947207  0.10300539  0.25561324 -0.2627715   0.18001801
 -0.1969107  -0.02312806]
[-0.4967833   0.16926956  0.26755783 -0.00256454  0.12708303 -0.24096654
 -0.1839028  -0.08338111 -0.07562923 -0.1262676  -0.14259839  0.04130088
  0.13291351  0.01287293  0.13959706  0.02320123  0.09592824  0.17156811
 -0.3063305  -0.04692486]
[-0.35707775  0.0991788  -0.03397734  0.31390908 -0.15438539  0.23300275
 -0.18715356  0.00672494  0.08307917  0.15117465 -0.21094432 -0.15240683
  0.04029078  0.03742361 -0.07617027 -0.26469776  0.17966515  0.24939734
 -0.15850942  0.29289493]
[-0.03356662  0.00453318 -0.39838538 -0.25079262 -0.2613698   0.121154
 -0.24200724  0.21218476 -0.24870457 -0.11286879  0.09764761  0.15004066
 -0.18765742  0.15160082 -0.15019749  0.01322812 -0.19036369 -0.11519549
  0.04338161 -0.2657238 ]
[ 0.15574811  0.28420162 -0.2538596  -0.1639425   0.12249982 -0.16948508
  0.29867068  0.14022103 -0.07472176 -0.14555751  0.0416913   0.14300092
 -0.08090571  0.13044986  0.20863435  0.21311662 -0.11350345  0.1326648
 -0.3547684   0.29626215]
[-0.18343194  0.3125636  -0.02916143 -0.06946854  0.11490588  0.20203121
 -0.1071578   0.1901263   0.21209979 -0.26541176 -0.34549782 -0.3101081
  0.07138052 -0.01291662 -0.09419467  0.22945115  0.16321138 -0.25733352
  0.0208488   0.23006243]
[ 0.04526417 -0.16927119 -0.2610568  -0.5677456   0.21330479 -0.13787153
  0.1010028   0.29487097  0.1290194   0.24447355 -0.18659434 -0.1370533
 -0.08072332 -0.05739443  0.029484    0.00183118 -0.14174727  0.11940068
  0.01403457 -0.26113924]
[ 0.25948215  0.15733168 -0.05069287  0.10310972 -0.0687631   0.1694518
  0.18062542  0.06243375 -0.1622526   0.0085888  -0.2070891   0.16087702
 -0.17918032 -0.05299138  0.20451747 -0.2034817   0.4550529   0.20978633
  0.09284405  0.12152461]
[ 0.38700968  0.1361095  -0.13423595  0.12686312  0.2547328   0.09681255
 -0.18304048  0.07358448 -0.13056438 -0.3090054   0.28734308  0.18319388
  0.08668788  0.23719412 -0.1326519  -0.19983566  0.08109124 -0.09379209
  0.32726422 -0.09081733]
[-0.00795915 -0.06129711 -0.112976   -0.2607656   0.1777017  -0.11256018
  0.02939253  0.06738524 -0.09333029  0.11618243  0.10149224  0.31654933
  0.01616753 -0.07081918 -0.0295434  -0.16382982 -0.3188481  -0.1427056
  0.0575767   0.1515356 ]
[ 0.4244179   0.22096045  0.07929441  0.11109757 -0.13553524 -0.20145985
 -0.12236709 -0.0259192   0.2442893   0.07869584  0.11164821 -0.09753393
  0.11198732 -0.09171338 -0.08916412 -0.39702344  0.0702168  -0.18450354
 -0.01068688 -0.15483186]
[ 0.09360363  0.26832962  0.06149218 -0.26442406  0.18540528  0.07579399
 -0.17061475  0.16081692  0.03435853 -0.2168052  -0.06761682  0.17109573
 -0.45089403  0.23267904 -0.31354514 -0.00881763 -0.42130718 -0.26710713
 -0.15955928 -0.2359787 ]
[ 0.07462551 -0.30526376 -0.1346253  -0.38260102  0.03167     0.28272587
  0.182409    0.14965788 -0.06812528  0.0764179   0.1829488   0.03801527
  0.22571017 -0.26853245  0.16448466 -0.05381225 -0.6074427   0.08133328
 -0.24865054  0.02862272]
[-0.35003358  0.06761391  0.03358334 -0.02527171  0.21862131 -0.27457118
  0.13861004  0.06114709 -0.28635556 -0.03278417  0.20124304  0.26059228
 -0.09416164  0.07331154  0.02996036 -0.17732108 -0.19112834  0.16661023
  0.06263936  0.14584132]
[-0.22110848  0.28666353  0.3245928   0.02669813  0.10571555 -0.15661554
  0.03644974  0.2493898   0.09302308  0.1754632  -0.35818592  0.02160017
 -0.26775873  0.19331872 -0.07937752 -0.26803046  0.12582725  0.26405838
 -0.02484296 -0.2808615 ]
[ 0.17284681 -0.19141793  0.31332183  0.06224544 -0.28065807 -0.02819587
 -0.10352775 -0.22641915 -0.2189161   0.25333437 -0.13119243 -0.03597904
 -0.1753651  -0.13434461  0.03781564  0.1217592   0.07161442  0.19998454
  0.21468726  0.21808994]
[ 0.12417091 -0.1180816   0.10640078  0.20567246  0.11644778 -0.10039223
 -0.18235715  0.15225047 -0.25067052  0.14766873 -0.16889001  0.10805026
  0.09536488 -0.15957624  0.12035883  0.06664324  0.34724465 -0.05230485
  0.20566289 -0.12422281]
[ 0.25956735  0.14199392 -0.1041627  -0.12492389 -0.17759658  0.31747
  0.11800996  0.46262988 -0.16983491  0.24610035  0.14408521  0.02155227
 -0.06374138  0.1565445  -0.2265819   0.24120933 -0.10460123 -0.27385756
 -0.10350534  0.0958671 ]
[ 0.21714199 -0.09003729  0.1583599   0.12777239 -0.01149648 -0.18566702
  0.02573835 -0.1381545  -0.2912171   0.0462445   0.06228029  0.18702638
 -0.20363973 -0.06066396  0.17433196 -0.07735981  0.0420301   0.1207196
  0.01826195  0.19166893]
[ 0.0748865  -0.16370079 -0.23083611 -0.03888553 -0.11337139  0.07145944
 -0.02220667  0.02745335  0.01110791  0.00224241 -0.08339359  0.1244987
  0.08417112 -0.01840371  0.00532352  0.04981661 -0.02186836 -0.0168471
  0.01624148 -0.03948601]
layer 5 Activation
tanh
layer 6 Dense
20 1
[0.04574121]
[0.07380097]
[-0.11540782]
[-0.00018343]
[-0.12712133]
[-0.07158101]
[-0.00294316]
[0.00165862]
[-0.00609116]
[0.00148116]
[-0.09809981]
[0.09148418]
[-0.00022268]
[-0.00505261]
[-0.01782361]
[0.0592283]
[-0.01269525]
[-0.01571832]
[0.0562471]
[-0.00857261]
[0.00287178]
