layers 7
layer 0 Dense
20 20
[-0.01293522  0.3658893  -0.18517314  0.01061661  0.0339516  -0.22514895
 -0.21656823 -0.17637467 -0.3072058  -0.04171483  0.42468008  0.25337845
 -0.12206945 -0.10666361 -0.25689882  0.15060581 -0.3783311  -0.2411822
  0.24455489 -0.00477377]
[ 0.00933862 -0.12845339 -0.01074784 -0.3944917   0.03427644  0.14278616
  0.11786067 -0.33063152 -0.3752154  -0.31717968  0.31139204  0.35547277
  0.13689947  0.4105962  -0.31391567 -0.38568544  0.13509536 -0.1579385
  0.16246508 -0.19755407]
[ 0.01840576  0.22716099 -0.46692246  0.13168597 -0.04963054 -0.41584718
  0.53391874  0.02848723 -0.44729677 -0.21348868  0.40729153 -0.09215643
  0.40959337  0.09021487  0.34799626  0.14891635  0.16987088 -0.48050946
 -0.09676785 -0.23933575]
[ 0.11653368  0.34254763 -0.04240608 -0.25104216 -0.2438016   0.21717781
  0.24481066 -0.16082746  0.0814222   0.01140165  0.02284103  0.25714195
  0.04229803  0.09445487 -0.2213305  -0.2061441   0.17378016 -0.08646541
  0.08160382 -0.26570034]
[-0.2994589  -0.22733405  0.10822903 -0.23774871  0.00760752  0.32975963
 -0.02567555  0.20305799  0.08969278 -0.2293079  -0.12866603 -0.05012412
 -0.07085688  0.24829237  0.02184352  0.11290813 -0.01216155  0.3186427
 -0.36301774 -0.12277196]
[ 0.1984758  -0.0893861  -0.12606078  0.50013316  0.2764374   0.310279
 -0.16667096  0.23494713  0.25392014  0.00943516 -0.30152753 -0.24306786
  0.39186063 -0.02478567 -0.17483325  0.2744411  -0.11692733  0.50475425
  0.19154207  0.03733194]
[-0.04484148 -0.50641364 -0.15201421  0.01160925 -0.3037928   0.3527972
 -0.012825    0.01097428  0.32120645  0.29161617 -0.13593891  0.0536178
  0.41765684  0.2000286  -0.11455193  0.04174956 -0.12931314  0.12001411
  0.26164737  0.20327905]
[-0.34977233 -0.366031   -0.13518041  0.09421311 -0.23976023 -0.15424044
 -0.19898967 -0.25065178 -0.13284895 -0.23536666 -0.07902755  0.244463
  0.01269805  0.04042058  0.25732666 -0.17393331  0.12964366 -0.2538519
 -0.12405956  0.2536054 ]
[-0.12671606 -0.34453234  0.10562778  0.3864147   0.14169122 -0.25612247
 -0.3295642   0.15269804  0.37594676 -0.00119951 -0.30116153  0.00205534
  0.0725049  -0.24123712  0.23055106 -0.18909325  0.3037064   0.1932588
 -0.05080042 -0.05236597]
[-0.06844062  0.22287582  0.40050414 -0.24851704  0.1844992  -0.00947825
  0.3582088   0.21587217  0.23306128 -0.45663205 -0.13533726  0.00111727
 -0.22999808 -0.33376035  0.10574651  0.591439    0.14163743 -0.1620158
 -0.32317206  0.22357075]
[ 0.17613858 -0.26364186 -0.05925931 -0.28318283 -0.1538396   0.02836918
  0.13706127  0.01305114  0.34684783  0.17504087 -0.2046584   0.4796707
  0.11260045  0.1106559  -0.31834182  0.03510073  0.09263066 -0.0589208
 -0.25242665  0.25221074]
[-0.04708843 -0.3915657  -0.1639431   0.02519478 -0.03078139  0.48472962
  0.05034457  0.10863288 -0.0101145   0.22957255 -0.01241173 -0.34806162
  0.300539    0.07618445  0.48590302 -0.11617231  0.38228473  0.13107964
  0.35305688 -0.04195281]
[ 0.35158017 -0.22975427  0.04932476  0.2843137  -0.03614929 -0.14939937
 -0.03785919 -0.1521224   0.11383098 -0.20631707 -0.53135055  0.39242345
  0.22524142 -0.2065134   0.18134396 -0.1766789   0.03587211  0.31929827
 -0.41337442  0.21557662]
[ 0.18864186  0.03804454  0.3881666   0.09924093  0.16469716 -0.17372155
 -0.0127077   0.16093972  0.08786629 -0.28736764  0.05395506 -0.03800574
 -0.1767804  -0.15577014 -0.31233785  0.17991947  0.19473344  0.00157747
 -0.15545732  0.02356068]
[ 0.31112033  0.25496915 -0.14214279 -0.04795839 -0.01216864 -0.15152065
  0.02969668  0.01052986  0.02743375  0.2899285  -0.17213804  0.42262387
  0.19945762 -0.05036118 -0.34866536 -0.15298285  0.07254338 -0.04499156
 -0.01964352  0.00984585]
[ 0.42568243 -0.29780564  0.18320082 -0.2795341   0.09487028  0.25083247
 -0.1560279   0.19659387 -0.09978786 -0.06753007 -0.2157083  -0.45102283
  0.25633985  0.09302539 -0.05268345  0.1548812   0.32238528  0.02588475
  0.04904411  0.14689752]
[-0.0918299   0.2508183  -0.1792881  -0.19630645  0.1055875   0.2967259
  0.2780726   0.2794399  -0.10799949  0.18323193  0.4595175  -0.20117152
 -0.15616405  0.43821484 -0.34132466  0.08405849 -0.03716172 -0.3889567
  0.13206403  0.06105023]
[-0.44810832  0.11643875 -0.4003316   0.00703326  0.25782707  0.19549702
 -0.27151042 -0.8874443  -0.693748    0.04667492 -0.12554045  0.2641391
  0.62017566  0.21049632  0.51742715  0.14284185 -0.3111439   0.63595945
 -0.09072076 -0.13628143]
[-0.3346192  -0.21124771  0.18764056  0.05062329 -0.24957845 -0.07981541
 -0.17874685 -0.06287178 -0.2275184  -0.13531584  0.23932151 -0.9046936
 -0.52064663 -0.11462875 -0.30033317  0.1524376  -0.24352828 -0.2508108
  0.4335816   0.3737347 ]
[ 0.07619911  0.42055315  0.08983688 -0.38906774 -0.21286163 -0.6070427
  0.52191335 -0.21052423 -0.14093292  0.7952168   0.6828085   0.5246282
 -0.47373095  0.20380147 -0.2315504   0.20094742 -0.6044047  -0.18990642
 -0.2881701   0.08035935]
[ 0.01299368  0.0811028  -0.03144299 -0.01397956  0.05678749  0.06844116
 -0.02493111 -0.00277356  0.01365428 -0.05947225  0.07997967 -0.0039107
  0.05012209  0.00918137  0.06780759 -0.00566752 -0.1323106   0.00811411
  0.01939685 -0.02594069]
layer 1 Activation
tanh
layer 2 Dense
20 40
[-0.06597283  0.10116246  0.04194625  0.00556866 -0.19662462 -0.13993186
  0.2573979   0.09277562 -0.30570158  0.04329884 -0.04533217 -0.0162364
 -0.24827904  0.1427701   0.23327447 -0.05156953  0.1007175  -0.05701261
 -0.09534242 -0.23101507 -0.07336369  0.20737886 -0.1269241   0.15773033
  0.14207354  0.30677     0.12018956 -0.05444054 -0.08250534  0.2550695
  0.21425177  0.25974032 -0.01328781 -0.11153049 -0.34565842 -0.06608132
 -0.12192045 -0.15493755 -0.07401776  0.0282949 ]
[-0.07477377  0.00596     0.23868702  0.18401155 -0.12954758 -0.11213634
  0.11169301 -0.06450059 -0.17210004  0.21563031 -0.1658578   0.00348677
  0.1566931   0.06972148  0.2092748   0.13016921 -0.12294193  0.08593883
  0.13887623 -0.28738162  0.28465533 -0.11578779  0.07930809 -0.26111898
 -0.18388958  0.08787972  0.14320745  0.20107384  0.1882755  -0.42085204
 -0.0390039   0.2046414   0.23701946 -0.27308485  0.24851589 -0.14782737
  0.1580562   0.01232865  0.2433974  -0.2525346 ]
[ 0.05082649  0.08368735  0.00647402 -0.37259367  0.08307274  0.400106
  0.01648914 -0.02319387  0.06022295 -0.02754404 -0.27378988 -0.1088682
  0.2480068  -0.28462872 -0.25366434 -0.07961511  0.11169611 -0.0128619
 -0.19357708  0.2815241   0.18384886  0.44593605  0.26082766 -0.1565184
 -0.08014491  0.15051833  0.22984481 -0.05629149  0.22377211  0.43832895
 -0.08260202  0.02816381  0.27354088 -0.02217041 -0.06361217 -0.09395746
  0.20599966 -0.17921537  0.0709147  -0.13762043]
[ 0.10636979  0.29400954 -0.03520428  0.10022325  0.00106328  0.3355987
 -0.04886947  0.13186458 -0.13796468  0.17767364  0.16086493  0.25185943
 -0.16333891 -0.33766893 -0.23655397  0.2316584   0.37638924  0.10498764
 -0.08151574  0.17174612 -0.20308492  0.14492832  0.28829446  0.23427205
  0.14250895 -0.18203297  0.11462546 -0.10210481 -0.09816115  0.37796903
 -0.07704733  0.21288326 -0.18465656 -0.03082884  0.10652982  0.02636786
 -0.21424174 -0.05165485 -0.26477244  0.09691349]
[-0.159503    0.19942425  0.16072153 -0.00149566  0.1502771  -0.01324765
 -0.13910164 -0.2535934  -0.21656813  0.18953243 -0.03807902  0.1075435
 -0.22422396 -0.26804262 -0.00494638 -0.26098222 -0.21535681 -0.2358468
  0.29052842  0.26688784 -0.14250821 -0.0260435  -0.02088614 -0.2214257
  0.15928553  0.01963993  0.00910364  0.23563656 -0.07335673 -0.08014604
 -0.17242382  0.03327998 -0.00441211  0.00474734  0.06878632 -0.20623389
  0.32223895  0.30097076  0.04112229  0.11037312]
[-0.07348169  0.13696615 -0.05976255  0.01778849 -0.28310752 -0.16920602
  0.2126353   0.10859414 -0.25075617  0.12355876 -0.0183921   0.05290202
 -0.2691916  -0.32914403  0.15512428 -0.20509847 -0.16883999  0.0683256
 -0.06201557 -0.08283285  0.04868124 -0.02288246  0.25192815 -0.21898732
 -0.0648323   0.02464285 -0.31042212  0.26781744 -0.22300066 -0.0373841
  0.2626499  -0.0463142  -0.24009174 -0.20243572 -0.08897626 -0.20644356
 -0.21373226 -0.22221747 -0.28151834 -0.02002872]
[ 0.28870946  0.21604642  0.05428283 -0.43673688  0.1845708  -0.11734106
 -0.2697307   0.06646622 -0.08270177  0.31386733 -0.2035519   0.0405136
  0.09853851 -0.03859473 -0.14032793  0.244552   -0.38876736 -0.02020773
 -0.0568366  -0.03487217  0.32531914 -0.15788218 -0.41963595 -0.3543341
 -0.23228016 -0.11596771  0.49197355 -0.16588022  0.20947988  0.07888194
 -0.041534   -0.01798103  0.11953386 -0.23737234 -0.07026905 -0.05946119
  0.19981596 -0.21649936  0.06045004  0.03682495]
[-0.08191455 -0.07886958 -0.324237   -0.11651682 -0.2638408   0.4299102
 -0.00643636 -0.27555746  0.20436922 -0.2220056   0.02659152 -0.21153864
 -0.10732473  0.339268    0.01752421 -0.11414839  0.22847034  0.07092245
  0.09392726  0.33419687  0.35657528 -0.13922752 -0.33999842  0.31718576
  0.2689155   0.34189346  0.14546104 -0.21711823  0.25712708  0.31635788
  0.1875807  -0.04969981  0.13172095  0.06148335  0.05344576  0.24140179
  0.04212761 -0.34577772  0.03417276 -0.02095796]
[ 0.10258652  0.03063688  0.07857305 -0.13993417  0.16137257  0.43211636
 -0.2841325  -0.00930871 -0.31673384  0.07638014 -0.10816385  0.16377999
 -0.16480808  0.14948843  0.23554836 -0.37106872 -0.19046076 -0.1602885
  0.18165867  0.4495655   0.4395541  -0.25806776  0.0453954   0.03943869
  0.13368677 -0.05974879  0.45200837 -0.23665658  0.07711131  0.32512087
 -0.02953265 -0.2402776  -0.12664324 -0.14540735 -0.234543    0.28796357
  0.1116792   0.03329467 -0.00719554  0.16780269]
[ 0.21164872 -0.00062147  0.18908003 -0.22158156  0.15760498 -0.01216397
 -0.04299035  0.03229715  0.03800679 -0.02364996 -0.01927055 -0.0981902
  0.11424715 -0.18002635  0.23862347 -0.11407307  0.22106464  0.12499727
 -0.24834704  0.12997179 -0.34723347 -0.21696445 -0.19686946 -0.27419004
 -0.06042553  0.01036311 -0.07322913 -0.05810518  0.12685429 -0.15133293
  0.29809883  0.2330542  -0.00735733 -0.14828412  0.06724238 -0.14492162
  0.33311534 -0.2609224  -0.06655151 -0.20807384]
[-0.14952712 -0.08355208  0.19466265 -0.2627666   0.00172292  0.30211368
  0.15635853  0.3299207   0.12011722  0.08590408 -0.03689718 -0.0116254
  0.37785983  0.18321237 -0.3994908   0.08803216 -0.26569268 -0.15523322
 -0.17371476  0.18360695 -0.41568124 -0.12049819  0.21542902 -0.1966596
 -0.29921678  0.04364707  0.02216679  0.09789523  0.10289446 -0.46986482
  0.28272957  0.260716    0.10826436 -0.11732038  0.06971955 -0.39165318
 -0.01191445 -0.11780779 -0.15773049  0.156438  ]
[ 0.5103211  -0.26105967  0.22839963  0.24100329  0.19559692  0.02733396
 -0.37551716 -0.02860638  0.16779628 -0.00626924 -0.35508552  0.05150152
  0.08490293  0.04496312  0.17396143  0.31425142  0.0726496  -0.04770285
  0.07358076  0.30277038  0.26249075 -0.50865525 -0.08801106  0.15831429
 -0.04912448 -0.04790925  0.42119023  0.39151835  0.31859845 -0.5252783
 -0.0231193   0.11246716  0.0819961  -0.26026225  0.23140222 -0.43711534
  0.3376736   0.22866441 -0.06876539 -0.00655774]
[ 0.13356254 -0.19624873  0.07322142  0.28013963 -0.27893072 -0.59240586
  0.04940007 -0.24949016  0.11741221  0.14999148  0.41627017 -0.22868882
 -0.19606036  0.05392292  0.54144764 -0.1408867  -0.14318535 -0.02568134
  0.4573527  -0.22190306 -0.11490353  0.306356    0.32714406 -0.3340284
  0.17791724 -0.11840285 -0.08695524  0.20549862 -0.17586914  0.34722382
 -0.36250243 -0.36781162  0.106235   -0.03885875  0.01864079  0.27603263
  0.05852588  0.15342486 -0.12597828  0.18838504]
[ 0.30229133 -0.32632098 -0.30137557 -0.07996123 -0.06613856 -0.32105896
 -0.21069287 -0.1684549  -0.1742196   0.1817199  -0.18935235 -0.24902236
 -0.3179242   0.07887862 -0.09194458 -0.12028098 -0.09089264  0.12803842
  0.11248289 -0.16273627 -0.10972831 -0.01853552  0.23467533 -0.19638543
  0.13439542 -0.1163917   0.01451642  0.37396082  0.06223812 -0.13652815
 -0.05280902 -0.18630376 -0.38775015 -0.22589196 -0.17506658 -0.07621884
  0.28388593 -0.06465659  0.34624156 -0.05621192]
[-0.06883929 -0.20250764  0.12729824 -0.13574775 -0.28628457 -0.0199408
 -0.1280092  -0.05228964  0.26348835 -0.26426026  0.2916768  -0.03517734
 -0.02113148 -0.08263875  0.19465424  0.15532129 -0.19573526  0.3001478
 -0.08339535 -0.27698267 -0.2617326   0.02670572  0.28051013  0.22305565
 -0.09710773  0.00127818  0.25288963 -0.13891831 -0.12140867  0.3616018
 -0.03741727  0.17907284 -0.07940264  0.2560443  -0.16214108 -0.20409451
  0.21901034  0.21110956 -0.00199491 -0.02695982]
[-0.2806518   0.22799978  0.09855958  0.00238765  0.02879123  0.21425763
  0.17750499 -0.2393932   0.06539688 -0.12213834  0.21297275 -0.06790738
  0.04101284 -0.19343017 -0.23538029 -0.15928185 -0.15545942  0.17379867
 -0.05287276  0.12546718 -0.05466403  0.16352794  0.2070018   0.06655569
 -0.30010208  0.21376535  0.2629717  -0.20093781 -0.18942624 -0.06018528
  0.24702217 -0.06206619 -0.2642771   0.14228897  0.22185303  0.04143279
 -0.10663094 -0.29550454  0.07769926  0.01738201]
[ 0.02007828 -0.04021104  0.25584564  0.17404205 -0.25775093  0.1031836
 -0.14264531 -0.2164741   0.10629185 -0.12923098  0.2841489   0.10815349
 -0.3362494  -0.14523567 -0.04712761 -0.1331699   0.1358267  -0.19880512
 -0.04731822  0.32194158  0.2694369  -0.0483189   0.03483531  0.21199052
  0.26191616  0.01594188 -0.06621945 -0.04544504  0.13337095  0.32216206
 -0.25906345 -0.05754166  0.12423261 -0.2719336   0.21903025  0.02631801
  0.06025191 -0.00302867 -0.27354816 -0.08545802]
[ 0.18896249 -0.42004734  0.178077    0.5773004  -0.05024718 -0.42104295
 -0.11099236 -0.10940608 -0.04743961 -0.33465028  0.0290199  -0.14505853
 -0.40500197 -0.27119875  0.36271232  0.06007809  0.19392164  0.26304224
  0.02740384 -0.20384724  0.1787547  -0.12795173 -0.21091962  0.17555693
  0.16497757  0.03593624 -0.1100425   0.12037574  0.01037521  0.04222455
 -0.23780578 -0.07899211  0.1860007   0.08041493  0.25422302  0.09648664
 -0.00955267  0.2820437  -0.17644615  0.2471204 ]
[-0.34861234 -0.16028939 -0.03069684 -0.17638297  0.22262867 -0.3209415
  0.34087107 -0.12155486 -0.14423306 -0.05371232 -0.01972495  0.07607792
 -0.05069932  0.25993344 -0.09676452  0.01831027 -0.170041    0.05590632
 -0.0746296   0.08193744  0.09532898  0.3472889  -0.17781267  0.09310552
  0.22506124 -0.16735815 -0.06904259  0.00534486  0.0313874   0.00834648
 -0.11858889 -0.16393031  0.09315947 -0.1882274  -0.17049421 -0.21942519
  0.06317059  0.17799343 -0.21710111  0.23213834]
[-7.35176355e-02  3.08844864e-01 -5.18868528e-02 -2.88792312e-01
 -2.20247619e-02  1.72984809e-01  2.09255144e-01  3.94347422e-02
 -2.78518558e-01 -1.03767402e-01  2.36196909e-04  8.02425444e-02
 -1.91179901e-01 -1.59126356e-01 -2.32233927e-01  2.50029713e-01
 -2.76997507e-01 -2.19216794e-01 -3.26027423e-01  2.56565899e-01
 -3.34275723e-01  2.65300959e-01  7.97362700e-02 -9.66104642e-02
  1.36090130e-01  2.03564182e-01  1.40292585e-01  1.83880016e-01
  1.18786894e-01  1.91086128e-01 -2.14301169e-01  1.65156990e-01
 -2.58786958e-02  1.39575288e-01 -9.99999344e-02  2.44167283e-01
 -1.53339673e-02  4.70772088e-02  2.15783611e-01 -5.10420054e-02]
[-0.04797253 -0.04440305 -0.02725585 -0.07632302  0.03427535 -0.202917
  0.03145723  0.05618437  0.01244263  0.03979851  0.02955086 -0.01710431
  0.00519667  0.00467019  0.03141009 -0.05312433 -0.01172769 -0.02328617
  0.09550719 -0.04418869  0.0195152   0.06133255 -0.00478626 -0.06823904
 -0.13424824  0.03318115  0.12558858  0.12328245  0.02963599 -0.13555813
  0.03730641  0.12048579  0.00587965 -0.05696675 -0.04837331 -0.04119347
  0.00424808  0.034119    0.00359021  0.01781141]
layer 3 Activation
tanh
layer 4 Dense
40 20
[-0.24946022  0.09745804  0.1875775   0.11615402 -0.1819346  -0.2895965
 -0.3218598   0.01985684 -0.32421187  0.24997576  0.19937438 -0.13488288
  0.18561879  0.19817305 -0.1336533  -0.31121126  0.22129174 -0.22932403
  0.14607036 -0.2430192 ]
[-0.01673928  0.13019405  0.04523049  0.04363414  0.3805453  -0.27471384
 -0.25086918  0.30102888  0.21213064  0.08305088 -0.14930929  0.10110657
  0.1737059   0.00392761  0.32640475  0.11667659 -0.16102555  0.13383555
 -0.0296867   0.19336978]
[ 0.24664056 -0.11507323  0.093522   -0.12494963 -0.05041487 -0.1100306
 -0.06145176 -0.21785298 -0.36662176  0.05372788 -0.24142022  0.15343493
 -0.2077472  -0.06942326 -0.20745724 -0.1063586  -0.06071578 -0.2012209
 -0.09399545 -0.1541762 ]
[ 0.21048276 -0.17614524  0.0585932   0.2829121  -0.22228487  0.05621404
  0.20215897 -0.11525585 -0.0694887  -0.10986575  0.14520057  0.03647146
  0.02250447  0.21697322  0.18622093 -0.17570056  0.05320096 -0.14765218
  0.32107228  0.06014735]
[-0.10364717  0.05123327 -0.04214187 -0.24462758  0.0431738  -0.10219757
 -0.18827966  0.16534758  0.01886494  0.05521034  0.0136666  -0.2431646
  0.07103148 -0.00884828 -0.0305925   0.10228693 -0.2298488   0.28891295
  0.17824224 -0.31306487]
[ 0.23182271 -0.17992386  0.20653193  0.2401011   0.32937413 -0.43941227
 -0.26954508  0.06227915  0.37581757  0.24384645 -0.13653305  0.1420034
  0.27539018 -0.10832258  0.14119326  0.02734015 -0.00615122  0.01131635
 -0.16456234  0.11826815]
[-0.25539306 -0.16450587 -0.00813964 -0.23595674  0.11128055  0.15193364
 -0.00784203 -0.29260063  0.1903953   0.10736966 -0.33622643 -0.21408887
 -0.1715128   0.01830713 -0.00401285  0.1471867   0.0048088  -0.11725765
  0.1678334   0.04919344]
[-0.03887117 -0.17682512  0.25981486 -0.19834892 -0.12045954 -0.12739429
  0.10749736 -0.10660335  0.19905448 -0.0287926  -0.28540936  0.02631115
 -0.10163427 -0.08850704 -0.22252691 -0.13600917 -0.14680812  0.30786243
  0.16593695 -0.24876337]
[-0.13210313  0.13548128  0.27618855  0.05289689 -0.13079603 -0.02241247
 -0.12495957 -0.23941442 -0.073298    0.14639242  0.21842104  0.15809765
 -0.24223705  0.01833486  0.18592359 -0.04609138 -0.24033083 -0.19296923
 -0.27659956 -0.2849194 ]
[ 0.19766441 -0.16878404 -0.00636347 -0.3336736  -0.10196793 -0.03606667
 -0.04451653  0.07145789 -0.37945187 -0.01925128  0.02166007 -0.21908677
  0.14958212 -0.09697214 -0.26927558 -0.08032741  0.01813115  0.06047359
  0.16984907  0.3043159 ]
[-0.27629903  0.02581182  0.24300505 -0.2933733   0.05867027  0.29120547
 -0.19432217  0.05208791  0.03868959 -0.11451498  0.01078881  0.19984388
  0.22917451  0.03604299 -0.15018499  0.17810325  0.06602861 -0.16839996
  0.14672618 -0.1040641 ]
[ 1.3317434e-04 -2.0227918e-01 -1.6147489e-02 -3.1624794e-01
  1.4235061e-01 -4.7596153e-02  2.1401185e-01 -1.7617625e-01
  6.3846752e-02 -1.5102562e-01 -2.6378347e-02  2.0736375e-01
 -8.3642825e-02  6.2696807e-02 -8.8611089e-02  4.4975709e-02
 -1.3654774e-01 -8.6827189e-02 -2.4805906e-01  1.7097443e-01]
[ 0.2279947  -0.21442111 -0.05581071 -0.1173149   0.16473965 -0.15196523
 -0.18619514 -0.10655214  0.10993295  0.032852   -0.30084184 -0.09888504
 -0.11409536  0.22532822  0.00536493  0.07434429 -0.30090737 -0.08953693
 -0.19786899 -0.32612953]
[ 0.13883193  0.26313916 -0.14381208 -0.12743379 -0.14799157 -0.07980774
 -0.04485472  0.10643966  0.24405369 -0.21741982  0.08494335 -0.19488864
  0.16785736 -0.11604556 -0.16613074 -0.1250326  -0.1577065   0.33381408
 -0.00610177  0.33534336]
[-0.08019295  0.1286218   0.07818323  0.01933107 -0.05353224  0.15621668
 -0.04420617  0.08971041 -0.3472677   0.22958359 -0.22530703 -0.00191491
 -0.1831838  -0.16136566  0.21192592 -0.33745632  0.28680718  0.22894451
  0.1660997  -0.05918756]
[ 0.21412812 -0.04511391  0.23458908 -0.19409685  0.14221215  0.21772467
 -0.231162   -0.06731328  0.3119709  -0.2030158  -0.078175   -0.05412032
  0.14339735  0.18587032 -0.2616868  -0.16776678  0.02307816 -0.20817775
  0.11547048 -0.17111658]
[ 0.14713705  0.09836401  0.04203909 -0.16724683 -0.26696992 -0.16948763
  0.23108827 -0.13347448  0.13646051 -0.00952652  0.17375132  0.09800643
 -0.01096021  0.20882381 -0.08262688 -0.12673128  0.36818227 -0.07823911
  0.10151258 -0.18705763]
[-0.25789964 -0.28798422 -0.03010392  0.16896401 -0.05723614  0.04961236
 -0.22288159  0.23689942  0.26186112 -0.24123204  0.03324885  0.05920987
  0.07586487 -0.30405548  0.27054185  0.00717721 -0.04120411  0.23195498
  0.25493014 -0.15959264]
[ 0.21449597  0.24226947 -0.02305273  0.04734521 -0.2693427   0.07941972
  0.16227995  0.03303928 -0.26471096  0.11316588 -0.18511875 -0.07518034
  0.2544679  -0.0232596   0.23059247 -0.1250938   0.14175227 -0.28014022
  0.19720264  0.24951325]
[-0.24664803 -0.24808027 -0.05048311  0.21760494  0.13549815 -0.21236077
 -0.04349561  0.08585589  0.02560793  0.08596456 -0.01183803  0.12439221
 -0.15291332 -0.30220112  0.00124105  0.25231302  0.05890515 -0.19607444
 -0.32241642  0.16724709]
[-0.02741652 -0.15154096 -0.00472291 -0.26326215 -0.05282715 -0.23901121
 -0.20042636 -0.07951862 -0.3069916  -0.15172926  0.01835926  0.04387917
  0.24885519  0.14463264  0.09733725  0.28966975 -0.00160353 -0.05132386
 -0.06552295  0.22021376]
[ 0.14487386  0.11799067 -0.01172894 -0.06929882  0.23631942  0.23744434
  0.07467416  0.01067678  0.23394497 -0.02193841  0.13880965  0.2828628
  0.07446403 -0.01076811  0.10672622  0.12397183  0.10776588 -0.05283074
 -0.09884446  0.09328187]
[ 0.21979085  0.03495287 -0.07718515  0.29653886 -0.18405434  0.12203794
 -0.23000176  0.28538582  0.0118429  -0.03790872 -0.11400641 -0.07307876
  0.21915743  0.0328621   0.01077052 -0.23444158  0.19029225  0.2539976
  0.1452763  -0.28806219]
[ 0.20530687  0.2534209  -0.33996445  0.29707283 -0.09678512 -0.32711756
 -0.2478618   0.10738494  0.36795196 -0.0833898   0.04714456  0.04671133
  0.00798431  0.23178145  0.13699853 -0.06015931  0.21736802 -0.10297209
 -0.28739056  0.23686907]
[ 0.2216891  -0.16810514 -0.14671843  0.04701027 -0.19601965 -0.23496948
  0.2969175  -0.06480062 -0.05138576  0.01068239  0.00828542  0.3367244
 -0.03399636 -0.0441266   0.09250262  0.06011851  0.24338214  0.03773152
  0.2708538  -0.12167048]
[ 0.015624   -0.0514223  -0.11312466 -0.1762292   0.25504    -0.22238319
  0.12413367 -0.13820805  0.2546858   0.1320522  -0.21726672  0.12479626
  0.10472023 -0.11971618 -0.0980621   0.11716857  0.05868745  0.15280633
  0.01456332  0.26249585]
[ 0.22432889  0.04436408  0.11470997  0.1466516   0.02774625 -0.21822906
  0.1659344   0.21471068 -0.3438792  -0.10610473 -0.12760875 -0.18344323
 -0.31272432 -0.04498522  0.13526995 -0.2315464  -0.17146887  0.12212835
  0.29209036  0.33005455]
[-0.08204541  0.25044334  0.1307639   0.32809067 -0.10733849  0.06926682
 -0.16809624  0.09751796 -0.25014886 -0.03950365 -0.09594462 -0.19787021
 -0.00202161 -0.16383474  0.20728225 -0.06893589  0.13829738 -0.2652941
  0.1221207  -0.1452135 ]
[ 0.29704002  0.20551114  0.29047838 -0.1663369   0.11650535 -0.247792
 -0.04543043 -0.05004737 -0.29943073 -0.23217905 -0.05385573 -0.09560119
 -0.04050979 -0.24522085 -0.24722482  0.02438492 -0.05683301  0.12752365
 -0.17597954  0.2692982 ]
[-1.4276938e-01  1.2040330e-04  3.7293395e-01 -8.1815779e-02
  2.2950575e-01  6.2176324e-02  2.5645727e-01 -1.0080954e-01
 -1.6876128e-01 -8.0970712e-02  7.2030589e-02  2.7714276e-01
 -2.8086147e-01  6.8888336e-02 -1.5781203e-05  3.6522612e-01
  4.1723287e-01  1.4102779e-04 -1.9842917e-01  2.6646417e-01]
[-0.03028922  0.35212156  0.23502538  0.06291395  0.23445174  0.27710375
  0.21272917 -0.10312434 -0.12663813 -0.26190656  0.05629543 -0.27689826
  0.07936472 -0.05846528 -0.25405866  0.26625675 -0.24389216  0.23396462
 -0.09751373  0.00155626]
[-0.17479578  0.0670688   0.22924134 -0.29825163 -0.15909958 -0.27726418
  0.06968219 -0.05444048  0.3085976  -0.21397997 -0.35451624 -0.03550602
 -0.01169846 -0.06281062 -0.20139179  0.02096894 -0.10617843 -0.08842362
 -0.19235171 -0.09023586]
[-0.18167455  0.09908323 -0.20123464 -0.27253363 -0.19616736 -0.29415655
 -0.22233392  0.1331671  -0.0281754  -0.21408758 -0.27767113 -0.33242595
 -0.01843397  0.24263847 -0.07540245 -0.10513427  0.12948291 -0.08434964
 -0.04198585  0.10805948]
[-0.0505941   0.17890751 -0.01634902  0.10540241  0.2194404  -0.13997689
  0.00744606 -0.23651858  0.15812446 -0.07473014  0.2250067  -0.23986608
 -0.3415697   0.08944242  0.30845138 -0.20783705  0.3940473  -0.06044367
 -0.02700284  0.02827849]
[ 0.01055221 -0.15908046 -0.23815612  0.20584089 -0.11402733  0.00954004
 -0.13492395  0.20900278 -0.00415228 -0.28417364  0.09613414 -0.05066751
 -0.16023314 -0.00860702  0.21372022 -0.21789984  0.00789882  0.05609279
 -0.20552866 -0.16615537]
[-0.31198412  0.18944585 -0.20493837  0.08273591  0.22741404 -0.00454618
 -0.01260326 -0.05201155 -0.20134139 -0.13594037  0.1773653   0.08806357
 -0.08109655 -0.11695766  0.31310883  0.24485506  0.06949748 -0.00967093
 -0.1807777   0.02839992]
[ 0.18782906  0.1270429  -0.16579486 -0.03445212  0.15393619  0.04003531
 -0.26060796  0.15279317  0.00597918 -0.05102371  0.22839506 -0.08253094
 -0.03439858  0.2090164  -0.2633048   0.02145009  0.00800348 -0.20429093
  0.34001642  0.01627047]
[-0.07051223  0.08224162 -0.11293594  0.10672698 -0.26038623  0.17027555
  0.14925382 -0.21714988  0.18182166  0.14662173  0.01948358  0.26949537
  0.09144349 -0.09535294 -0.16438532 -0.28279614  0.17302333  0.17267434
  0.02999509  0.03230258]
[ 0.19976252  0.06329611  0.02167408  0.21422204  0.2763691  -0.03321862
 -0.13618806 -0.18988371 -0.06499069 -0.1873082   0.20066033 -0.24071465
 -0.21505484 -0.00044119  0.2351941   0.07880773  0.04736721 -0.12163381
  0.2826874  -0.16248028]
[-0.09109323  0.25267154 -0.15916836 -0.15074536 -0.27964908 -0.16829945
  0.02822591  0.05449908 -0.19350494 -0.01722922 -0.11704902  0.10653953
  0.05637508 -0.17419744  0.04056817  0.18821593  0.04563771 -0.06776364
  0.24732783 -0.25350308]
[-0.0045272   0.0360912   0.01029511 -0.0266891  -0.04957547  0.02662261
  0.01919475  0.00775211 -0.07030729  0.037233   -0.01075221 -0.02660161
  0.01781017 -0.01279283 -0.03255217  0.0174261  -0.04040143 -0.00617809
  0.04071315  0.04776314]
layer 5 Activation
tanh
layer 6 Dense
20 1
[-0.0163131]
[0.00705881]
[0.00690396]
[-0.05124393]
[-0.12553495]
[0.17151897]
[-0.0732608]
[0.00461107]
[-0.06442195]
[-0.00366372]
[-0.06072694]
[0.08137895]
[-0.04286744]
[0.07191978]
[0.07691164]
[0.17627355]
[0.11937732]
[0.05999222]
[0.02090666]
[0.15523003]
[-0.01400869]
