layers 7
layer 0 Dense
20 20
[ 0.20672412  0.05387032  0.32062003 -0.36550418 -0.2533579  -0.19625093
  0.14805436 -0.11263037  0.11354227  0.03159839  0.05656055 -0.3007811
 -0.18282719  0.3094526   0.08547436 -0.22402924  0.13046503  0.3242733
  0.00326236  0.17299874]
[-0.08896565  0.37761864  0.24532698 -0.03778392 -0.51751536  0.8177383
  0.5661162   0.42167073  0.11318927  0.59377575 -0.33415484 -0.2622104
  0.24011771  0.90167606 -0.36064288 -0.4515917  -0.2465369   0.24664205
  0.08917054  0.10624087]
[ 0.20879185  0.09794238  0.22406174  0.0611545  -0.45209125  0.39263102
 -0.05255361 -0.25973862 -0.02772553  0.47069326 -0.39443997 -0.53593314
  0.81202185  0.54335576 -0.16201712 -0.3858704   0.0199654  -0.04077791
 -0.01642316  0.1394514 ]
[ 0.35012633  0.33671921  0.22835241  0.17614044  0.23641604  0.30615708
  0.20912361 -0.08587305  0.5650071   0.14031269  0.25950426 -0.2516759
 -0.2523293   0.06678515 -0.33181787 -0.1002473  -0.28421685 -0.26460844
 -0.10709588  0.07337049]
[ 0.00408111  0.31304306 -0.60670507  0.01023907  0.34291726  0.14449492
 -0.16782068  0.35461164 -0.03450495 -0.00622966 -0.31329784  0.04081444
  0.12547612  0.30327266 -0.01400801  0.03975677 -0.23323572  0.16529955
 -0.21541953  0.04883506]
[-0.31791574 -0.09087815 -0.21307287 -0.03219366  0.2243299  -0.12701528
 -0.1527508  -0.1394052   0.39370435 -0.36620992  0.2026749  -0.18785176
 -0.24909079 -0.578263    0.6117723   0.74200195  0.1670302  -0.43426904
 -0.11500487 -0.02899094]
[-0.12859023 -0.6583538   0.25182107 -0.38902956  0.0350234  -0.6358322
 -0.5994443   0.24798788  0.16601263 -0.05564753 -0.2799437   0.48480245
 -0.6390421  -0.038561    0.2074004   0.3088926   0.39146712 -0.36515388
 -0.4194655   0.490538  ]
[-0.10694399 -0.20679834  0.300123   -0.27607852 -0.17413054  0.3026471
 -0.12214784 -0.08661442  0.25205556  0.13111371 -0.01365849  0.29089686
  0.22628956 -0.20406774  0.07891064  0.04632493  0.4128835  -0.22369207
 -0.23737738  0.17968813]
[ 0.05278458 -0.06893363 -0.14556827 -0.3602478   0.18587928 -0.0255874
 -0.10826131 -0.03357007  0.2954347  -0.08799957  0.11293793 -0.35306096
 -0.1736527   0.23421769  0.23726946 -0.42954177  0.01813215 -0.20341402
 -0.25995275  0.21258068]
[-0.15742902  0.12671629  0.22322436  0.24222167  0.28364542 -0.21928576
 -0.42369738  0.05625677  0.2525195   0.0618229  -0.20089827  0.4283957
 -0.4189882   0.17463395 -0.3681781   0.00785623  0.34722465  0.03008647
  0.96344393 -0.3919885 ]
[ 0.50238854 -0.4780101   0.0199576   0.5186346  -0.6277656   0.04301864
 -0.27678132 -0.27661946  0.23256749  0.2266906  -0.10613449  0.05858369
  0.14716543 -0.14262593 -0.48545578  0.56998163 -0.2664631  -0.28457737
 -0.34144416  0.00545221]
[-0.9542571  -0.12166595 -0.04811455 -0.21692584 -0.13504957  0.3774174
 -0.3664259  -0.41931567 -0.3457751  -0.48978364 -0.9255215  -0.29702136
 -0.1073264   0.15204312 -0.8881      0.61267567  0.35414264 -0.10625185
 -0.06433342 -0.55824137]
[-0.2675109   0.2923494  -0.01425389  0.21383385  0.379799    0.13072087
 -0.24545269  0.03880537  0.32592705 -0.29546636 -0.04972529  0.28667387
 -0.3160489  -0.1737471  -0.25358737  0.64167666 -0.33412144  0.11798182
 -0.06022363 -0.6521755 ]
[ 0.13853814  0.40967405  0.1971102   0.5055874  -0.6809309   0.34010997
  0.41593534  0.19163288  0.44043782 -0.82877684  0.2449846  -0.20174097
  0.37586248 -0.10814287 -0.0660444  -0.02163075 -0.7118174   0.4012165
 -0.85446185  0.6718466 ]
[-1.1043515  -0.10135806 -0.26961792 -0.5086015  -0.03460103  0.70984304
 -0.3699366   0.75378156  0.394309    0.29353786  0.13670018 -0.34706724
  0.637505    0.9078548  -0.46469617 -0.72301483 -0.5814802  -0.16959685
  0.7897939  -0.00366222]
[ 0.10297502  0.07578518  0.1439186  -0.16593796 -0.04166084 -0.7986173
 -0.77031106  0.7081657   1.0428678   0.3290427  -0.34155285  0.31029457
  0.21654569 -0.7679341   0.5381123  -0.15016985 -0.5901181  -0.17598094
 -0.16764733  0.11652455]
[-0.07219364 -0.37891468 -0.43916976 -0.01141767 -0.31637496 -0.29069793
  0.50559837  0.21103497 -0.61547726  0.24975103  0.3401249  -0.5011738
 -0.380516    0.10546071  0.22687711  0.4159128   0.03295516 -0.15642667
  0.05481599  0.2270477 ]
[-0.24835214 -0.42854425  0.189677   -0.4370765   0.10606477 -0.03919293
 -0.14632462  0.08062217 -0.0305372   0.10004252 -0.10542042  0.31681153
 -0.30507466 -0.23290181 -0.44996998  0.05253639  0.29098433 -0.09627409
 -0.27807826 -0.21813656]
[ 0.66159844  0.06686219  0.2595631   0.34197992  0.53918093 -0.22949824
  0.1711192  -0.39106828 -0.16187225 -0.14679179  0.20892775 -0.09437218
 -0.12118263 -0.47440258  0.4575977   0.31773737 -0.16606827  0.01136583
 -0.31089425 -0.00812891]
[-0.35883176  0.36325788  0.12488268  0.39949426  0.08565608  0.3121476
  0.5710642  -0.5527538  -0.08521192 -0.19058473  0.7320969   0.4364985
  0.22856629  0.42339718  0.28790373  0.01583819  0.40726203  0.37670898
 -0.15432054 -0.38182184]
[-0.02170167 -0.10522699  0.10097483 -0.03540766 -0.1519806   0.01611576
  0.0027276  -0.01559324  0.1977766  -0.03263496 -0.0822432  -0.03656856
 -0.02280404  0.1243163  -0.07936067 -0.07795371 -0.06105097  0.00081867
  0.01984026  0.06083868]
layer 1 Activation
tanh
layer 2 Dense
20 40
[-3.8233742e-01  2.0599662e-01  2.7091625e-01  4.9047165e-02
 -2.8316548e-02  2.4453409e-01 -8.7513342e-02 -2.0633072e-01
  9.3826294e-02  2.2948487e-02 -1.5954446e-04  2.3957914e-01
  1.2665911e-01 -7.3244281e-02  3.6126444e-01 -2.9262772e-01
 -3.0094033e-01  9.0944342e-02  2.0199186e-01  2.7084377e-01
 -7.9373072e-04  2.3621309e-01 -2.5349134e-01  1.9179110e-01
  2.2339553e-01 -3.4622037e-01 -2.4163921e-01  3.2826345e-03
  2.1457495e-01  1.2237800e-01  1.2712131e-01  9.1278397e-02
 -2.2221158e-01  5.2367147e-02 -2.4142484e-01  1.2742676e-01
  1.8534155e-01 -4.3446410e-02  4.1842517e-01 -5.1009125e-01]
[-0.02720246  0.2702173   0.2714276   0.01979296 -0.1923288  -0.00368232
 -0.05782007 -0.08169874 -0.03396835  0.08165181  0.23726583  0.13926771
 -0.09842661  0.14203396  0.04821287 -0.21263483 -0.18171738  0.21969336
  0.02819778 -0.17005764 -0.09361249 -0.23745634 -0.18353975  0.09099752
 -0.16275404 -0.06217894  0.16422726  0.42354175 -0.34768155 -0.35260317
 -0.10726897  0.35131928  0.23450111 -0.04484261  0.20928133  0.1974041
 -0.31525773 -0.22314602 -0.43402448  0.31010535]
[-0.21259776  0.01459396 -0.0125596  -0.293147   -0.04070029  0.11753154
  0.16603924 -0.16750999  0.11987872 -0.18223445  0.18261907  0.15208203
  0.24010286  0.17363855 -0.05694371 -0.21976002  0.08805551  0.07145581
  0.13517614 -0.25284767  0.25917986 -0.05881502 -0.129616    0.02115547
 -0.14596045 -0.35805067  0.15501994 -0.46657902 -0.43771455 -0.31641892
  0.3327653  -0.29778445 -0.02081812 -0.08979897 -0.13470158  0.01110198
  0.3108064  -0.10657632  0.13456084  0.21607824]
[-0.43049467 -0.14168786  0.2262994   0.07990003  0.05004867  0.17965853
  0.28721905  0.18736355 -0.05579836  0.08866774 -0.19164895  0.20947585
 -0.23472968  0.01736181  0.304944   -0.03477928 -0.34128618  0.16421837
 -0.12432484 -0.2959038  -0.4186367   0.09925799  0.15753168 -0.24397624
 -0.1965472   0.06452956 -0.27325436 -0.08201019 -0.26382607 -0.01753409
  0.02034603 -0.06187848 -0.06117698 -0.07239478 -0.16406898  0.2625431
 -0.1664582   0.00265949  0.26136935 -0.1330754 ]
[ 0.11407273 -0.03709409 -0.05403369  0.10185248  0.21601732 -0.19117652
 -0.02314002 -0.08344743 -0.67782784  0.10117619  0.06908105 -0.08647093
  0.0097995   0.3999321  -0.1926221   0.47771642 -0.03126592  0.39235768
 -0.09913282  0.13444264  0.0118344   0.10200799 -0.25885358  0.23869054
  0.10278329  0.02601945 -0.03954178 -0.10430077  0.07131259  0.5536323
 -0.2235023  -0.49596137  0.33230183  0.06043172  0.16860677 -0.18776128
  0.5561266   0.11002749  0.2554036  -0.22789963]
[ 0.3399572  -0.3038432   0.28056312 -0.1139309  -0.12159313 -0.35611516
  0.07496426  0.31430176  0.13825694 -0.39329782 -0.51393795  0.09074849
  0.2277283   0.21080336 -0.00134703 -0.17818654 -0.34225103 -0.11516175
  0.15810245  0.04471381  0.4608629   0.02225398 -0.21662498  0.20010236
  0.3241601   0.6385065  -0.08822235  0.41816786  0.2113522  -0.33148286
  0.09085707  0.2009359   0.1730729  -0.5493953   0.12557293  0.24353856
 -0.30509448 -0.25288492 -0.48917705  0.36452022]
[ 0.23095982  0.1798668  -0.09808309  0.18076296 -0.54135454  0.11539422
 -0.7650798  -0.08108676  0.10434662 -0.30646256 -0.38358188  0.06225341
 -0.39481524 -0.5325874   0.08208878 -0.31534615 -0.14082628  0.4545494
  0.2262932  -0.0609721   0.00126047 -0.40359396 -0.20427166  0.22199613
 -0.08908176  0.68739414  0.31314752  0.13742162 -0.14690381 -0.03938231
  0.40905392  0.18281405 -0.37344033 -0.14512776  0.17802699  0.39143652
 -0.3232001   0.33875662  0.04845126 -0.22701894]
[-0.10972959  0.18299198  0.48824742  0.22582297  0.0297741  -0.33434477
 -0.26599973 -0.01047006 -0.03022526 -0.36804596 -0.09344289  0.43673444
  0.14121284 -0.20263602  0.17610879 -0.04990193 -0.329905   -0.07166658
  0.05388693  0.24172379  0.23126185  0.07269978 -0.07653777  0.23869136
  0.03151155  0.1509616   0.25317305  0.23707321  0.50928503  0.334404
  0.18457177 -0.30708843  0.17983319 -0.28467834  0.33621314 -0.4332243
  0.24915418 -0.12113753  0.31555864 -0.18818147]
[-0.29524624  0.42415312  0.44241995  0.21321848 -0.31969172 -0.36989293
  0.15744537  0.13105264  0.02893407  0.08816062  0.31603998  0.24886458
  0.10830213 -0.26592436  0.15483432 -0.181253   -0.19680716  0.06749768
  0.08386491 -0.19695456  0.21063441 -0.18543136  0.05237086  0.03694956
 -0.21252431  0.1643411  -0.10318106  0.21691968  0.54949933  0.09028722
  0.26882145 -0.33749345  0.4092898  -0.3551466   0.14045894 -0.3760754
  0.32172057 -0.43304285 -0.05746924 -0.10272385]
[ 0.22258595  0.20191687  0.2560538   0.27109814  0.04678986  0.29448545
  0.07334597  0.06774753 -0.09165304  0.06552066  0.09502138 -0.29579714
 -0.16709907 -0.0032048  -0.05205354  0.30861098  0.3873271   0.34465143
 -0.03423998  0.01661091 -0.18381792 -0.05906915 -0.08326707  0.35345268
 -0.06672855  0.07265469 -0.30815858 -0.1657048   0.38530216  0.25630575
 -0.06127961 -0.0463214   0.6139474  -0.18841122  0.2309673  -0.41755274
  0.5026315  -0.33431393  0.16150182  0.37291735]
[ 0.04942088  0.5241896  -0.23952909 -0.5481194  -0.2902576  -0.06399915
 -0.3104699   0.23002517  0.16551226 -0.23948672  0.09286071  0.21769333
 -0.07791991 -0.41299465 -0.04031114 -0.08398232 -0.02736988 -0.29282
 -0.1499343  -0.28014687  0.20598848 -0.19869366  0.31289613  0.28939515
 -0.0709579   0.08956317  0.08334587 -0.14246143 -0.11083565  0.04166077
  0.45870435  0.25825003  0.1105902   0.23919597  0.10575271  0.06272388
 -0.22208609 -0.35867265 -0.22477855  0.0068889 ]
[-0.06465922  0.2494954  -0.14662778 -0.10093829  0.2386966   0.3686539
 -0.05408235  0.43755972 -0.2547464  -0.23021789  0.3228136   0.00373289
 -0.25460228  0.05142533 -0.18121557  0.4035422   0.16327281 -0.16963525
  0.07000811  0.0516011  -0.21657187 -0.107127   -0.00976811  0.28682908
 -0.01284097 -0.00681684 -0.08456881 -0.32496342  0.03492247 -0.03651538
 -0.35114953 -0.05622812  0.13601281  0.02183679 -0.20540707  0.03802001
  0.03324733  0.03136651 -0.3055211   0.32392976]
[-0.07502703 -0.00121701 -0.06742593  0.00451659 -0.3681925  -0.08970972
 -0.15662047  0.00627483 -0.10857912 -0.14082137  0.08754443 -0.01145066
  0.17802326  0.07713278  0.04216256 -0.00770268 -0.49724048  0.15280706
 -0.01285945  0.01636906  0.03074876  0.11076904  0.13306482 -0.1919196
  0.21585874  0.58190155  0.43914172  0.1516846  -0.13254185  0.01983624
  0.44271353  0.5026     -0.09317273 -0.02694786  0.37995    -0.1049985
 -0.13661088  0.17288905 -0.23663229 -0.22560786]
[ 0.45162782  0.18024632  0.11159347 -0.5124158   0.06534384  0.03654226
  0.24224436 -0.103425   -0.66555893 -0.36325467 -0.0366585   0.28970382
 -0.16367716  0.10388563 -0.21590361 -0.04472512  0.1066863   0.10033313
 -0.37498263  0.35653412  0.02678402 -0.49874774 -0.16156763 -0.32443014
 -0.3739754   0.15763678 -0.04951427  0.21854655  0.10577987 -0.23549536
 -0.32386163  0.23598182  0.08531989 -0.34360212  0.24110639  0.00457375
 -0.03235887 -0.06567962  0.09269365  0.12389429]
[-0.13666064  0.02735524 -0.15707333  0.34833008 -0.36389613 -0.3235408
 -0.4472512  -0.19977032  0.16483381  0.06753595  0.3763829   0.0018347
 -0.1188171  -0.31077462 -0.03042567 -0.33264843  0.0545639  -0.29138207
  0.08921675 -0.20432714  0.17012052  0.27825248  0.13021061  0.0387971
 -0.04057649  0.20142059  0.12386527 -0.12027411  0.11119677 -0.24367072
  0.09532155  0.05957248  0.12964761 -0.08431098  0.2348393   0.1996655
  0.23097065 -0.16116603  0.28083426 -0.14655855]
[-0.0669978  -0.29024124 -0.40291405 -0.01327393  0.3160711   0.40545735
  0.11920091 -0.04332295  0.22691314  0.17636988 -0.23184678 -0.6509444
 -0.06266164 -0.14500423  0.04160238  0.28103983  0.19480379 -0.18510224
  0.2083629   0.07096194 -0.51296526 -0.292015   -0.37018672  0.09022383
 -0.2740447  -0.12789057 -0.41912866  0.00129469 -0.13215517 -0.22656783
 -0.35629463 -0.18510403 -0.47409984 -0.21892811 -0.36247292  0.37486723
 -0.209533   -0.17399135  0.10357521  0.15624723]
[ 0.33806905  0.12775873 -0.47354648 -0.6299165   0.20111111  0.23707901
  0.19420667 -0.2778978   0.04589017  0.10284068 -0.27148625 -0.09709264
  0.21573856  0.31522357  0.2571369   0.39381972  0.3388063  -0.52111673
 -0.03443906 -0.12181062 -0.04329559  0.1514226  -0.2527777   0.18674938
  0.148224   -0.4589163  -0.38631874 -0.04654022 -0.17872179 -0.06622013
 -0.21944585  0.01623815  0.02361177  0.2224886  -0.26435447  0.16595642
  0.18670315  0.11051878 -0.13496883  0.4299521 ]
[ 0.1789682  -0.01255338 -0.04856422  0.19837289 -0.20014788  0.13675886
 -0.32814652  0.3710626   0.04473604 -0.13067643 -0.35511002 -0.11209469
  0.06605066 -0.28197056  0.08969555 -0.32512686  0.11832796  0.01276628
 -0.22179529  0.00427787 -0.20058808  0.18480587 -0.03394255 -0.14520448
  0.07841414  0.06810226 -0.03554745  0.5209653  -0.2155183   0.09466239
  0.49670026  0.22482647  0.14335547 -0.3300105  -0.03442972 -0.20370308
  0.18575948 -0.09386747 -0.2699363   0.21746647]
[ 0.40944475  0.6043947   0.3305791   0.01176342  0.2271286  -0.39493966
  0.4949434  -0.2519673  -0.32004273  0.01189696  0.1580248  -0.26367
  0.16762738  0.23641169 -0.03155835  0.3191769   0.01601833  0.01916049
 -0.13973622  0.3029239   0.00982907  0.25061363 -0.06950859 -0.10146433
  0.19337896  0.14187872  0.3051347   0.49271137  0.08343897 -0.05188754
 -0.44676974  0.36396953  0.35568807  0.00663513  0.35487574  0.00979142
  0.09379873 -0.42326778 -0.16874056  0.30097085]
[ 0.04638681 -0.02329045 -0.19573696  0.39731225 -0.16526641  0.1045052
 -0.42353183 -0.17440096  0.09396472 -0.18099983 -0.34605718  0.24686888
 -0.17533532  0.03103192  0.13359557 -0.02268491 -0.3290388  -0.24984859
  0.04774066  0.10287555 -0.24366072  0.17725433  0.29624346 -0.28989506
  0.11841043  0.32634547  0.19256401 -0.01166236  0.16303329  0.06170917
  0.1173353   0.20072682 -0.50244325 -0.40886497 -0.16707855  0.02994727
 -0.1598906   0.42969957 -0.01162934 -0.49208522]
[ 0.01081958 -0.00234327  0.10043529  0.07942748  0.0153012  -0.01240525
 -0.00784387  0.22058472 -0.24121417  0.05527003 -0.18684326  0.27812415
 -0.00309248  0.0896486   0.01109018 -0.02770668  0.04578698  0.35572183
  0.01626828 -0.00293038 -0.01533237 -0.06016952  0.00506763 -0.05545397
 -0.02612501  0.14912055 -0.01055492  0.27223355  0.10633695  0.22378382
 -0.02389714 -0.09208313  0.09517214 -0.2400698   0.02081206 -0.05249685
 -0.10552676  0.00941372  0.02976395  0.01896385]
layer 3 Activation
tanh
layer 4 Dense
40 20
[-0.19400236 -0.16958265  0.24689588 -0.01947379  0.30086794 -0.02432516
  0.14773221  0.17981732 -0.30096963 -0.11247219  0.02061939 -0.16728209
  0.16615993 -0.03493065  0.22957756 -0.1864287   0.01052924 -0.04758983
 -0.32584935 -0.3415592 ]
[-0.17781788 -0.30458996 -0.02503485  0.35232136  0.08333657 -0.04738809
  0.05234497 -0.0952815   0.08721344  0.16562244 -0.02619498  0.01513524
 -0.26260227  0.00050801 -0.21435212 -0.10544828 -0.01237935  0.16334657
 -0.054995    0.2572319 ]
[-0.04099485  0.29539993 -0.02777078  0.3418937  -0.26401755  0.07908404
 -0.3262886  -0.22426176 -0.06351546 -0.040061   -0.2965644   0.16942333
 -0.2361404   0.0574637  -0.21996407  0.22129586  0.31467143 -0.13491233
  0.1580486  -0.09179264]
[-0.13704939 -0.27792004 -0.40554884  0.2446239  -0.10329436  0.1397841
 -0.39634705 -0.14196295  0.3300525   0.08160846  0.05633746  0.2090526
 -0.01972164  0.05216314 -0.37612507  0.15182877 -0.09502251 -0.11181027
  0.31403553  0.13299298]
[-0.14618614 -0.16831642  0.06896261 -0.2159463   0.19573748  0.08077291
  0.03276754  0.20428832  0.01299854  0.12639074  0.00131214  0.12160318
 -0.03329841  0.2144626   0.14700866 -0.20088953  0.22730963 -0.04005072
 -0.33894172  0.0853133 ]
[ 0.10592413  0.1734281   0.4250411  -0.06268813  0.3474505  -0.05820381
  0.24102503 -0.11218266  0.30209163 -0.06080073  0.35114938 -0.1840055
 -0.01141047 -0.16857481  0.13583703 -0.09526334 -0.3629716   0.315214
 -0.23309214  0.20478548]
[-0.16049552 -0.20965919 -0.06607217 -0.15112564 -0.2384035  -0.19702019
  0.24121557  0.09227476 -0.3178823   0.29654062 -0.25192147 -0.24943635
  0.13191184  0.07371055  0.3938808  -0.33792353  0.3875886  -0.03073057
 -0.3339389   0.17325355]
[-0.12136961  0.3135409  -0.2185357  -0.0413245   0.13792636  0.2688401
 -0.15541202  0.06690872  0.15250434  0.14102398  0.01235484  0.04498224
  0.12995511 -0.23591243  0.07262165 -0.02948014  0.11606054  0.34256387
 -0.08489013  0.16687648]
[ 0.21902192  0.08601785 -0.06857716 -0.4369778   0.02243692  0.32193342
 -0.17556016 -0.18545604  0.34591293 -0.26897624 -0.08241782 -0.2711574
  0.031806    0.01507997  0.15810207  0.08542708 -0.18252592  0.09901431
  0.12069715 -0.1493761 ]
[ 0.10709146 -0.13718314 -0.04527368 -0.11075877 -0.23862553  0.19830015
 -0.03384675 -0.07308528 -0.02335247  0.16598359  0.1095235   0.01937414
 -0.05548105  0.3018044  -0.32243463 -0.23960745 -0.12856078  0.08950967
 -0.26583895  0.29904318]
[-0.1347357  -0.05533611 -0.23287825 -0.06173105 -0.196196   -0.27399957
  0.06012722  0.17389072  0.15292402  0.0106552  -0.20255393 -0.13753158
 -0.12972434  0.41627163 -0.18783918  0.11237411  0.3327141  -0.01868846
  0.2792921  -0.1350175 ]
[ 0.09754084 -0.13629188 -0.24492231  0.00718745  0.23339137 -0.0717677
 -0.21641117 -0.29082894  0.16806816  0.251608   -0.04553695  0.15668814
  0.1172343   0.15576126 -0.34182563  0.10979643 -0.14266002 -0.08743075
  0.4369951  -0.07565971]
[ 0.06880323 -0.27828225 -0.24650967 -0.05405647  0.23052046 -0.12468357
  0.31598148  0.16895911 -0.28261012  0.07490315 -0.07085352  0.01515257
 -0.4350957   0.05296259 -0.2397917   0.11528943  0.22622643 -0.27794012
  0.33094415  0.00208498]
[ 0.08927     0.13901411  0.0450834  -0.14318588 -0.26777658 -0.06526018
  0.08357325  0.15832229 -0.16557196  0.10625587  0.16591762  0.22871485
  0.32927153  0.15219292 -0.20695731 -0.423479    0.31513065  0.08222339
 -0.41332436 -0.03952792]
[-0.05655987 -0.2115304  -0.28585777 -0.12715071  0.20400204 -0.22026993
 -0.19179432 -0.10924729  0.2604609   0.21502978  0.21024819 -0.18295664
  0.18831626  0.24979138  0.00290615 -0.34490362 -0.39692497 -0.10063275
  0.28491497  0.03323755]
[-0.1600471  -0.01827674 -0.14235091 -0.32664043  0.01016155 -0.18240853
  0.11516599  0.32662264 -0.17360549 -0.04285191 -0.01367901 -0.17336671
  0.07713128  0.32255542  0.17686109  0.01259853 -0.21410845 -0.16178352
 -0.3939387   0.16182116]
[-0.02025023 -0.10740647  0.2736373  -0.24403542 -0.02610839 -0.08783918
  0.00083431  0.17671192 -0.14136538 -0.40330517 -0.07801211  0.03260542
  0.19243723  0.00873211 -0.13006206 -0.04845406  0.05563578 -0.29907912
 -0.3608585  -0.0630696 ]
[ 0.05975699 -0.0505     -0.3466926   0.07151073  0.06112384  0.02639203
 -0.3822823  -0.19279283 -0.1314839   0.19385587  0.03635714 -0.10521942
 -0.02201737  0.02594569 -0.06015575  0.09893335 -0.07135648 -0.23910357
 -0.22830392 -0.12095781]
[-0.14662515  0.23290183 -0.12314221 -0.033183    0.36266217  0.28479236
 -0.13762277 -0.08547662  0.1372016  -0.23957413  0.02236205 -0.07783874
  0.04862648 -0.11756772 -0.16967769  0.22705683 -0.11035534  0.11789311
  0.07501045  0.17454651]
[ 0.19867703  0.2069892   0.2806479   0.07020281 -0.0504363  -0.07570027
  0.13387842  0.22830696 -0.06489763  0.06043568 -0.11132532  0.2463988
 -0.11744106  0.06421401  0.29873043  0.20855336 -0.04759456 -0.23567304
  0.24669306 -0.14060868]
[-4.50894004e-06 -1.63798586e-01  8.74336343e-03  1.42381370e-01
  1.03043355e-01 -2.16599554e-01 -3.94714624e-01  2.17330277e-01
  8.93859565e-02 -3.62993479e-01  1.11522945e-02 -4.36890386e-02
  1.26658052e-01 -1.98222622e-01 -1.20047620e-02  1.80656970e-01
  4.60736185e-01  1.27976164e-01 -1.56319603e-01 -7.28547499e-02]
[-0.17692055  0.29872218 -0.13672034  0.04032609  0.08167938 -0.12103107
  0.2636088   0.17390746  0.01778862 -0.23205978  0.09281366 -0.17973803
 -0.10384212 -0.08038508 -0.3886543  -0.18038623  0.21528226  0.06606149
 -0.27938676  0.28487515]
[ 0.18563382 -0.31448478 -0.2623395   0.05539725  0.12101649  0.10792551
  0.05862143 -0.24005392  0.0132732  -0.03434052 -0.15849814  0.10455336
  0.16031115 -0.13554886 -0.27544454 -0.13252972  0.14414477  0.20397566
 -0.14369321 -0.17613587]
[-0.04012856 -0.04431998 -0.01278009 -0.16387595 -0.22042803 -0.16906166
 -0.01107383  0.17329024 -0.13769473 -0.08420198  0.15303692 -0.07921084
 -0.19990842  0.30551052  0.11612388  0.513876    0.00780265  0.06176399
  0.02060035  0.36448622]
[ 0.02858823 -0.29683676 -0.3383862  -0.07230099 -0.2562481   0.10742838
  0.04412089  0.21498598  0.14352445  0.12822807 -0.36768368  0.42425928
 -0.12801056  0.22265807  0.12666222  0.10535256 -0.30414915 -0.26297817
 -0.00853456 -0.16204943]
[ 0.03050279 -0.03837664 -0.24389656  0.29858366 -0.13639738  0.32448345
 -0.06730548  0.02582431 -0.31075752  0.21695198 -0.23456423 -0.15090199
 -0.08054421  0.14823918  0.25322753 -0.01031531 -0.10287293  0.05238137
  0.31863564 -0.48367184]
[-0.03621364  0.25589865 -0.29963097  0.45166332  0.12310745  0.20420562
  0.02968079  0.30692363  0.00537647 -0.1168494  -0.2842233  -0.13975625
  0.0962344  -0.22788326 -0.29437676  0.35260907  0.22727096  0.22361033
  0.35126954 -0.1577804 ]
[ 0.3520378   0.4081832  -0.14458181  0.22124715  0.05762194  0.28025886
 -0.20031826  0.23890291 -0.10227652  0.1625281  -0.2308167   0.01357745
  0.13834544 -0.11123756 -0.01437962 -0.26650882  0.07427671 -0.07516433
  0.14754342 -0.21346405]
[-0.16309045  0.21256655 -0.05527721  0.31426904  0.16276912 -0.22986022
 -0.13393116  0.08560015 -0.20932306 -0.06737878 -0.23916043 -0.0405277
 -0.11616366  0.31877676 -0.11383247 -0.14260925  0.08574689 -0.1321006
 -0.07172598  0.14579423]
[ 0.27106637  0.18810208  0.21150601  0.09108084  0.20198283 -0.26002207
 -0.30524588  0.18620068  0.06028457  0.02119175 -0.16452593 -0.28067806
 -0.20293817  0.0750095  -0.56360334  0.30948916  0.19960791 -0.37135124
  0.24613832  0.13524851]
[ 0.12780224 -0.2954634  -0.38678992  0.08781523  0.21774274 -0.18583067
 -0.27488312 -0.30267483  0.14538458 -0.2868288  -0.19403    -0.15933509
  0.29819843 -0.19517642 -0.21767682  0.4517308  -0.1216807  -0.0977435
  0.2492533   0.13718794]
[-0.31780207  0.14168948 -0.24788417  0.42513916  0.29430377  0.37844297
  0.16327035 -0.19456375  0.10955786  0.13162774 -0.11565571 -0.21379037
 -0.05836061 -0.39845592  0.23151699 -0.36697766 -0.4149917   0.19401813
  0.21008006 -0.41533768]
[-0.21772742  0.02487648 -0.21572092  0.26189914  0.14809103 -0.40099725
  0.15072066  0.152618   -0.09332938  0.3312978  -0.39286947  0.19223072
 -0.04257011  0.36783302 -0.16365957  0.22313276  0.19016817 -0.1965701
  0.02444157  0.11885931]
[-0.07505655  0.12932529  0.08198814  0.05887749  0.04255926  0.22139531
  0.1336621   0.1806726   0.19206056 -0.21238278  0.18091762  0.26199773
 -0.06390495 -0.14465062 -0.17671333 -0.01745979  0.22842608 -0.29066142
 -0.3430844   0.12436374]
[ 0.17909437  0.02462802 -0.05229899  0.35381112 -0.04143696 -0.0560368
 -0.19813487  0.11429583 -0.21369122 -0.04386321 -0.22569801 -0.25187895
  0.28828588  0.19731137 -0.03157207  0.2249434   0.3785651  -0.21228768
 -0.13801377 -0.27784708]
[-0.16911498 -0.07138843 -0.01718863 -0.12769483  0.06867258  0.29466286
  0.11688878  0.28786072  0.09650137  0.0704594   0.3990815   0.17292328
 -0.26225385 -0.0524732   0.32634246 -0.27285507 -0.43873906  0.06763742
  0.08625092 -0.03624518]
[-0.3452271  -0.15344857 -0.10909789 -0.2374874  -0.12248724 -0.19991992
 -0.11945615  0.25004324  0.06932198 -0.03916162 -0.42576027  0.23813578
  0.1922065   0.2472225  -0.44356412 -0.209831    0.34591553 -0.26284695
 -0.24339205  0.26513565]
[ 0.45906687  0.20498788  0.17604023 -0.09897276 -0.05285611  0.03938936
  0.09771506 -0.18908273 -0.04752996 -0.21451697  0.33173165 -0.04544786
 -0.04870031  0.04172999 -0.01876849  0.04337616 -0.42730263 -0.06688176
 -0.15238075 -0.01620461]
[-0.34941113  0.04999884  0.2459213   0.06680101 -0.0521904  -0.36610222
 -0.26703483  0.07229576  0.28916377 -0.3445276  -0.01812839 -0.13796191
  0.19468619 -0.03996878 -0.13574816  0.18677835 -0.0477798  -0.02302378
  0.22038898  0.36305037]
[ 0.2694777  -0.16367225 -0.01378612 -0.29763818  0.36772752 -0.12304679
  0.22683153  0.46548763  0.10564812  0.16951637 -0.23344325 -0.27228984
 -0.12471886 -0.09219273  0.27304426  0.13926725  0.12914203  0.284118
 -0.06029369  0.0385754 ]
[ 0.00617727 -0.01010847 -0.00303119  0.12074313  0.02074184 -0.03489074
 -0.13724697 -0.02679788 -0.01637687  0.11386846 -0.00771559 -0.03638283
 -0.05537264  0.01949368 -0.14652744  0.06029392 -0.04493259 -0.00931449
  0.10188992  0.07989587]
layer 5 Activation
tanh
layer 6 Dense
20 1
[-0.01326962]
[-0.00784585]
[-0.10317311]
[0.2578897]
[-0.01104702]
[-0.1286758]
[0.16992357]
[-0.2784903]
[0.22770609]
[-0.1890003]
[-0.1252423]
[-0.00663912]
[-0.00175404]
[0.10719643]
[0.09816009]
[-0.11499103]
[0.16527617]
[-0.11180218]
[0.15143915]
[0.2348816]
[-0.00839537]
