layers 7
layer 0 Dense
20 20
[-0.26026616  0.10237071 -0.11386997  0.01299091  0.25968203  0.44337428
 -0.08218278 -0.15286651 -0.10789309  0.14390846  0.2473667  -0.00095571
  0.36644647  0.42872638 -0.27226108 -0.28231105 -0.08755079 -0.00721978
 -0.23517041  0.0671268 ]
[-0.14804327  0.25280675  0.29322252  0.0764387   0.3493545  -0.4311224
 -0.19034952  0.03588859 -0.27808538 -0.3191438  -0.2942364   0.15963918
  0.20252852 -0.48152667  0.18458475  0.39509824 -0.12765439  0.29691124
  0.06610423 -0.3027665 ]
[ 0.21904068  0.09063153  0.09041165  0.2321744   0.15109771 -0.37506792
  0.05975886  0.19000167 -0.25305828 -0.55754584 -0.27717543 -0.32523364
 -0.35541826 -0.28687376  0.04070491 -0.12677583  0.39509746 -0.06808371
  0.00542366 -0.03998898]
[ 0.3444667  -0.06045682  0.14820527 -0.21189097  0.13743725  0.20725442
  0.31191048 -0.08605258 -0.27415124  0.2892605  -0.2590811   0.02290621
 -0.34089714  0.12304272  0.09918522  0.31628686  0.25194672 -0.07444273
 -0.29870105 -0.22268341]
[ 0.00980371 -0.21336363 -0.2333405   0.11726788  0.26454318  0.28322992
 -0.05840136 -0.07360801  0.1143913  -0.10830598  0.2453644   0.23334335
  0.0526021   0.17472316 -0.19958462  0.07322185  0.25807175 -0.20975953
 -0.01475602  0.01343514]
[-0.12270707 -0.2567491   0.1692846  -0.3075924  -0.10317003 -0.27549055
  0.3451932   0.04575227 -0.02075843 -0.04243051 -0.071775    0.28989133
 -0.12825058  0.01600632 -0.3584638   0.09035667 -0.2639002   0.02687425
  0.20730023  0.4069923 ]
[-0.0839711  -0.24345541 -0.20969914 -0.46626014  0.2063816   0.00629286
  0.30267245 -0.3830071  -0.30739456 -0.105576    0.41349941  0.33277458
 -0.01092772  0.46631548  0.11440846 -0.24540572 -0.03878235  0.08572604
 -0.07101634  0.10181432]
[ 0.19747534 -0.26464596  0.40821892 -0.2155312  -0.18868324 -0.3215575
  0.13754621 -0.21038295 -0.22412966  0.0008619  -0.19029729  0.21600494
 -0.21970132 -0.0879312  -0.3090652   0.27909207  0.10451669  0.17471117
 -0.31550115  0.43692484]
[-0.2674192  -0.29727975  0.24066502 -0.1937614  -0.4780005   0.08328863
 -0.13504368  0.34081936  0.21243812 -0.13025273 -0.0488901  -0.09601551
  0.09673174 -0.18590555  0.16742454  0.22559223 -0.1501054  -0.24817012
  0.13398208 -0.05591071]
[-0.1390081   0.18677591  0.19792907 -0.27530682  0.30097246 -0.34930363
 -0.13437809  0.35238278 -0.18995832  0.46798515  0.1136542   0.0509749
  0.1084951  -0.42710763 -0.14832751 -0.20602728  0.03509089 -0.07526688
 -0.21041538  0.04873888]
[-0.21923117 -0.165609    0.03542654  0.03317799  0.07136708  0.12461828
  0.06403116 -0.17661832 -0.12739986  0.00368853  0.26350716 -0.4940093
 -0.07963128  0.06171007 -0.17447901 -0.11623081 -0.36700097 -0.01105915
  0.10668378 -0.25379598]
[ 0.06997938  0.03596892  0.3075327   0.37992838 -0.18522944 -0.3423647
  0.3175059   0.14221357  0.02996007  0.0594381  -0.26790553  0.37576842
  0.33293852 -0.7906204   0.13366045  0.05736123 -0.13155882 -0.0654372
 -0.25210154 -0.01934522]
[ 0.07914431  0.1694438  -0.10472158 -0.07621273  0.36014834 -0.0892961
 -0.09973914 -0.23696306  0.407274    0.24582335 -0.4275187   0.03065408
 -0.20803355 -0.08002311 -0.1075969   0.31522793  0.16782509  0.20554079
 -0.12578918 -0.2418015 ]
[-0.64130807 -0.40813124  0.11110956  0.5047625   0.27177426 -0.47868487
 -0.16822952  0.18167724 -0.39648992 -0.15558743  0.28852558  0.45482287
 -0.21836439  0.7958059   0.20429812  0.36143485 -0.23384203  0.45235944
  0.2775393   0.47873086]
[ 0.6834779   0.26571834  0.58110946  0.3478767  -0.10981659  0.31006253
  0.40247166  0.11616658 -0.4640125   0.3242736  -0.06657408  0.50233877
  0.5715525   0.21685658  0.37683776 -0.58032185  0.74188244  0.08139738
  0.15528145 -0.5504268 ]
[ 0.4618883  -0.4955284   0.04795425 -0.62414616 -0.57596344 -0.15668297
  0.43537867  0.29588515  0.4532239  -0.22925366 -0.22834843 -0.5384972
 -0.26046315  0.3824144   0.2520359  -0.55919    -0.11560148  0.07010699
  0.18107872 -0.14694896]
[ 0.33237812  0.06141917 -0.29053432 -0.05982951 -0.18209925 -0.3835966
 -0.10922346 -0.09949973 -0.42310384 -0.00524808  0.14419267 -0.07723795
 -0.2233059  -0.349038    0.06645695  0.03221112  0.02794439  0.24167266
  0.14133899 -0.07369115]
[-0.02838339 -0.2521474   0.34966865 -0.19528598  0.09453406  0.6594297
 -0.47716233  0.12080982  0.3716505   0.20580402  0.25490177 -0.04450614
 -0.08560912 -0.3505509   0.28105572 -0.03166644  0.09452226  0.22495002
  0.0684637  -0.03799184]
[ 0.12615049 -0.05311271 -0.2291541  -0.31141204 -0.14520814 -0.31204686
 -0.1939496  -0.04117845  0.12481967 -0.1996298  -0.53683525 -0.3547284
 -0.39056805  0.00500837 -0.23398863  0.02823753 -0.50157803 -0.2902339
 -0.06011583 -0.15306531]
[ 0.14801069  0.3017622   0.45248    -0.09808773  0.27300265  0.16929756
 -0.34458154  0.03449156  0.21180329  0.05560442 -0.5318487   0.37461463
 -0.36974016 -0.00720762 -0.1378223  -0.19729067 -0.46048793 -0.06804607
  0.08461343 -0.1887445 ]
[ 0.06574284 -0.00595457 -0.01258409 -0.09206315  0.0682786   0.03767515
  0.00403928  0.00491109  0.04294312 -0.02929812 -0.02103011 -0.01106294
  0.00634858 -0.0096723  -0.02021311 -0.03318074  0.00269696  0.00789952
 -0.05172065 -0.03423572]
layer 1 Activation
tanh
layer 2 Dense
20 40
[-0.32463756 -0.03285448 -0.39923838  0.19929455 -0.16117015 -0.01909826
 -0.2786587  -0.1854861  -0.24803117 -0.19583891  0.08565244 -0.1914704
 -0.01140664  0.07718287  0.02732781  0.00669213  0.06326628  0.24982676
 -0.00368687 -0.22142404 -0.01279749 -0.13271086 -0.17515065 -0.12779991
  0.18314622 -0.02813531  0.3062914  -0.07563948 -0.02115603 -0.10950372
 -0.30237487 -0.33163786 -0.17142336  0.3142475   0.20847167  0.05834609
 -0.04143349 -0.01274443 -0.10885198  0.21648535]
[ 0.16731815 -0.03622817  0.11435726 -0.31001237 -0.25712356  0.1093216
 -0.21514928  0.2900366  -0.03502699 -0.01524794 -0.00313293  0.12510927
 -0.3400721  -0.20360737  0.24102475  0.02397154  0.26178542  0.09126016
  0.25260442  0.0858758  -0.29444906  0.05551884 -0.20958677  0.19327293
 -0.26211464  0.1555803   0.30072108 -0.26897767 -0.01303093  0.26080716
 -0.01579883 -0.11634637 -0.18587206  0.05460026 -0.13811897  0.20138438
  0.4153818  -0.00711242 -0.01979642 -0.07368775]
[-0.06599352 -0.01770044 -0.01079602  0.21013498  0.23319504 -0.03354872
 -0.2154012  -0.10176955 -0.05626121 -0.35403195 -0.3256778   0.10466656
 -0.12562144  0.12871647  0.28512788 -0.02485638 -0.04091668 -0.09472238
  0.225559   -0.3012161  -0.03340176 -0.17031138 -0.21991144 -0.06105297
  0.10165    -0.17764473  0.18162987  0.28996634  0.09712382  0.05069439
  0.01577688  0.06662785  0.01741842  0.03736952 -0.32915762 -0.00410818
  0.02837195 -0.06155935  0.41069144  0.00756985]
[-0.11937886 -0.13549088 -0.06150771 -0.01977702  0.18458518 -0.2573709
  0.10626053 -0.15294705  0.2259477  -0.0796209   0.31768173 -0.14677358
 -0.38296375 -0.2300729   0.31806606 -0.25418797 -0.00604093 -0.00943935
 -0.07659359 -0.40232354  0.29646724 -0.21736155  0.5582983   0.10004033
  0.25776008  0.1297817   0.02940555 -0.13362281  0.18999244  0.24689247
 -0.26271254  0.0549408   0.22576186 -0.40378594 -0.51351905  0.24634103
 -0.06128498  0.14645524 -0.23155662 -0.14115477]
[-0.11918569 -0.15453194  0.23598295  0.11208554 -0.11027688  0.02258538
  0.24558838 -0.00478988  0.23042502 -0.2345149   0.09830836 -0.08985001
 -0.11495887 -0.05407379  0.14982814 -0.24873476  0.3142524   0.17344145
 -0.02279273 -0.05705059 -0.07556592  0.10953178 -0.11307878  0.04181228
 -0.28912824 -0.14857414  0.13130814 -0.29137453  0.12608638  0.08647989
 -0.00422988  0.04150939  0.29482532 -0.21060559  0.1623699   0.04643093
  0.13597731 -0.25896806 -0.12035826 -0.15720773]
[ 0.17459159 -0.28641963 -0.2767062   0.2670933   0.264199    0.27353725
 -0.07277259  0.0565358  -0.11168857  0.15931815 -0.1579261   0.18704724
  0.17381476 -0.08273607  0.08666188 -0.09024838  0.07633906  0.02914716
 -0.2999184  -0.07587317  0.21014838  0.03843021  0.14646786 -0.3954486
  0.20461832  0.33368614  0.04432119 -0.303127    0.11512175  0.09774905
 -0.2934322  -0.3568408   0.13108385 -0.31567013  0.2098094   0.14107095
  0.24522412  0.0877827  -0.13216281  0.332224  ]
[ 0.18045343  0.06133251 -0.28909656  0.10783919  0.1512712  -0.23344408
  0.13464673 -0.23921281 -0.23121691  0.35032868  0.12651874  0.06873198
 -0.19102225  0.2755094  -0.2030573  -0.20421575 -0.00501027 -0.22385462
  0.1340514  -0.26382685 -0.2404633  -0.21795139  0.16146137  0.18892854
 -0.14998554  0.18667898 -0.08349198 -0.07226591  0.01801976 -0.08904691
  0.29735366  0.35516804 -0.05328948 -0.39328775  0.16829881  0.04504595
  0.09481309  0.1506983   0.275291    0.13494423]
[-0.10012642 -0.15906097  0.19214779 -0.06598438 -0.06531303  0.09282092
 -0.10846984  0.08205252 -0.10695841  0.14642617 -0.04013301  0.17249064
 -0.12314735 -0.3082556  -0.1671912  -0.06203667 -0.33300325 -0.11476841
 -0.08990512  0.03019397 -0.14532258  0.20268518  0.2943035  -0.04955232
 -0.2409164  -0.17808874 -0.1289219  -0.15771633 -0.23092839 -0.07392873
 -0.02840055  0.03056351 -0.28315192 -0.1838177   0.2501381  -0.02811228
 -0.23760347  0.00539162 -0.28249604  0.2863001 ]
[-0.18559158 -0.10566899  0.2790067   0.2640846   0.25615934  0.02785992
  0.15631916 -0.06010306 -0.08622138  0.03366674  0.07136367 -0.2837014
 -0.15380901  0.21643588 -0.22635184 -0.1425239  -0.07121991 -0.06474774
 -0.15303779 -0.07942146  0.18498288  0.13357456 -0.2713232   0.06648434
 -0.2451779  -0.19134723  0.30652848  0.10499831 -0.25747883 -0.12876718
 -0.02460404  0.22974363 -0.14270608  0.10628095  0.37216055 -0.11424948
 -0.02778729 -0.21583652 -0.05033898 -0.27791157]
[ 0.02340111 -0.0486712   0.11979387  0.09724814  0.15862958 -0.16430648
 -0.19795509 -0.13897182 -0.14952275 -0.16426201 -0.3299679  -0.03442302
 -0.2599819   0.04591395 -0.00871552 -0.13513151 -0.1354824  -0.03676628
 -0.00295064 -0.06089995 -0.17075887  0.14367871 -0.04725306 -0.2310891
  0.3258915  -0.20589305  0.1299662  -0.22267865  0.13596328  0.06350293
 -0.07058384  0.19608518 -0.00997131 -0.30322343  0.29826143 -0.0650144
 -0.12906732 -0.05692405  0.37624112 -0.14467442]
[ 0.25183377  0.08649925 -0.10388792 -0.21469268 -0.12215311 -0.37256673
  0.04340511 -0.18715122  0.10016124  0.35209128  0.39032745  0.08072612
 -0.22120099 -0.10613658  0.25298023  0.33389655 -0.02483285  0.15903568
  0.28597745 -0.10216224 -0.13042562  0.14331822  0.2134436  -0.19837558
  0.34994745 -0.2539498  -0.15038405 -0.04893139 -0.35316762  0.30231827
  0.14673658  0.00087147 -0.22637387 -0.38498712 -0.11960148 -0.08037589
 -0.18245564 -0.19556056 -0.18833497  0.19128092]
[-0.31335703 -0.2083519   0.05099536  0.18224327  0.12592499 -0.0465762
 -0.01379114  0.22965586 -0.10547207 -0.20821431  0.18720631  0.38776398
 -0.3879648  -0.22029287  0.20461233 -0.12848972 -0.14740168 -0.24744532
  0.24062866 -0.23330396 -0.05221776 -0.19159241  0.1819936   0.11157216
 -0.19193377  0.12041178  0.16581665  0.20654507  0.28879926 -0.10669667
 -0.0065143  -0.09979419 -0.09298936  0.28916645 -0.5961908  -0.08753258
  0.07429114  0.09983241 -0.23795386  0.17376737]
[-0.16849221  0.01010725 -0.06945156 -0.32824677  0.12486604  0.34861046
 -0.23624778 -0.14981906 -0.21544603  0.181246   -0.02116212 -0.03387329
 -0.00764222 -0.07274013  0.11666419  0.21552809 -0.30755478 -0.07690103
 -0.00276262 -0.10568966 -0.19373631  0.11620338  0.13332024 -0.40163717
 -0.24129225 -0.00928264 -0.12903364  0.32344833 -0.00455942  0.26630232
 -0.00040903 -0.02987626 -0.05329141 -0.30406487 -0.01606194  0.30431876
 -0.23439479 -0.17908446  0.14688084  0.21636309]
[-0.14188112  0.06923787  0.2696115   0.29795957 -0.07760634 -0.3614183
  0.51913434  0.07937043 -0.28915024 -0.15022066  0.61180574 -0.46120828
  0.18985431  0.47643766  0.2290549   0.06147698 -0.435176    0.03006289
 -0.00922746 -0.10584199  0.19249442 -0.5974677  -0.35750476  0.33623502
  0.30768308 -0.337862   -0.19846313  0.15517668 -0.21892685  0.10753945
  0.33572862  0.23045422 -0.04355017 -0.17117694 -0.34168205  0.15112014
 -0.22994201  0.07984281 -0.1897544  -0.31343806]
[-0.01607292  0.01958038 -0.31265864  0.05344981 -0.14746304  0.15161425
 -0.13082266 -0.22322607 -0.17306907 -0.01213215  0.05631161  0.06746323
  0.07550832 -0.04599798 -0.23132761 -0.10479447 -0.30127627  0.16873226
  0.1383651  -0.17692079 -0.03438902 -0.08564924 -0.26528254 -0.09419221
  0.05595545  0.03115811 -0.25046948  0.0333096   0.12201825  0.21228993
 -0.16166008 -0.2319983  -0.26096475  0.27860186 -0.23776218  0.00228019
  0.24779914 -0.18587118 -0.16026697  0.11089815]
[-0.3641941   0.14531069  0.17592119  0.27764422 -0.04779514 -0.26487207
  0.03940879 -0.33044115  0.15489739  0.31813198 -0.04126962 -0.2369802
  0.14709431  0.05646532  0.18214844  0.06575344  0.25362605  0.1336078
 -0.19358161 -0.01160228  0.04348059  0.32522458 -0.13703088  0.4745017
 -0.33106112 -0.13942705  0.16673803  0.22904578  0.29311043  0.24523832
 -0.0702396   0.08154454 -0.07213105 -0.04171536 -0.33254644  0.2839181
  0.22951722  0.05965381 -0.31111383 -0.2598058 ]
[-0.18689206  0.03120603 -0.24601154 -0.11576421 -0.13979143  0.22444387
 -0.13994074 -0.298787    0.14742799  0.39774328 -0.08008761  0.04786317
 -0.3638154  -0.20559563  0.38390988  0.09447943  0.04037264  0.00881452
  0.13070914  0.31733686  0.05084204 -0.34593165  0.16203816 -0.37036335
  0.12573966 -0.20911387 -0.1640801  -0.13041878  0.33997798  0.3556172
  0.13338898  0.02178462 -0.31928596 -0.26829377 -0.20021743  0.22835013
  0.27981678 -0.05005176  0.2007248   0.11286984]
[-0.27564606  0.11548565  0.14612778 -0.13483347 -0.10898547  0.20023362
  0.10744818  0.33895606 -0.11596432 -0.01708973  0.37818977 -0.05127315
 -0.27403742 -0.07865662 -0.2965438  -0.2172812  -0.04910173  0.14508417
 -0.3416566  -0.17431192 -0.1770446  -0.03928687 -0.23942108  0.00297438
 -0.23750775 -0.07785647 -0.19483654  0.15799665 -0.09328893  0.20489608
 -0.0389684   0.0948795  -0.12920958 -0.06786851 -0.24539603 -0.33008915
 -0.31036237  0.17680357 -0.1313359  -0.26279074]
[-0.07347528  0.24747105  0.19032598  0.2320441  -0.24053438 -0.05703734
 -0.20236383  0.07173645 -0.1475079   0.303996    0.31181595 -0.03228905
 -0.26804826 -0.09319124 -0.06165506  0.05622605 -0.00978202  0.12031887
  0.08007333 -0.22668739  0.08983184  0.15384194  0.16936702  0.07471303
  0.20860285 -0.3157976  -0.17886089  0.27432245 -0.15952554 -0.01377123
  0.34500334  0.08427162 -0.01582575  0.26390246 -0.06515292 -0.06868096
  0.16368185  0.14871068  0.2170294   0.10973021]
[-0.17521001 -0.1858216   0.33165187 -0.01543103 -0.24737    -0.04791427
 -0.24412736 -0.20729765 -0.2779576   0.32346794 -0.04055803 -0.32543558
  0.1282605   0.29150167 -0.2954727  -0.02554511  0.26840484 -0.24447651
  0.01206951  0.24840307  0.12118058  0.12186215 -0.09232613  0.08534
 -0.05178908 -0.19816619 -0.3367084  -0.08981515  0.15601835  0.14180396
  0.01683626  0.10437714  0.21498638  0.18762408 -0.27763     0.18668285
  0.0346325  -0.10566047 -0.10617112  0.22258909]
[ 0.01948007 -0.02228519 -0.00349196 -0.00753481  0.01376435 -0.00125849
  0.0250493  -0.02165465 -0.01989881 -0.04648041 -0.08729512 -0.01930349
 -0.0056861  -0.00019859  0.01678002 -0.05999088 -0.00059618  0.03569126
 -0.00768507 -0.02362123 -0.00908843 -0.05437236 -0.08902869  0.00134947
 -0.03323959 -0.02087272  0.06714362 -0.01519271 -0.08961153 -0.04727688
 -0.05176176 -0.07544104  0.03375017 -0.0455209   0.03601095 -0.02700615
  0.04783686 -0.06149625 -0.09044708  0.04556615]
layer 3 Activation
tanh
layer 4 Dense
40 20
[-0.26240578  0.06808361  0.04568257  0.21948242 -0.26831746 -0.23490855
 -0.01637719  0.22713833 -0.33756498  0.05356964 -0.20342813  0.36435893
 -0.19997956 -0.20049633  0.11782891  0.11588822  0.00819032  0.27244586
  0.1298993  -0.1045007 ]
[-0.10660933 -0.02257727  0.20478965  0.2097215  -0.11321037 -0.14716534
 -0.09709828  0.14987016  0.21104074  0.1315454   0.06169212  0.27816835
 -0.05329436 -0.15071842  0.14765143 -0.03759731 -0.22477329  0.2822019
 -0.01397345 -0.22618872]
[ 0.24679217 -0.04494831  0.02745983 -0.02377713 -0.1773875   0.13753514
 -0.04534725 -0.09909914  0.23040693  0.15805657 -0.24206145 -0.14182357
 -0.10443728 -0.3558634  -0.30441734  0.1510889   0.18622532  0.21845981
 -0.16852754 -0.04671886]
[ 0.28782853 -0.01928579  0.04699092  0.10923179 -0.02908289  0.38416764
 -0.10327226  0.27499497 -0.14511572 -0.10266957  0.30426556  0.07687958
  0.12596607 -0.13871084  0.16187434 -0.00662841 -0.30611452  0.15707894
 -0.16976632  0.06349754]
[ 0.09963586  0.21338567 -0.01958855  0.13183579 -0.22817796  0.06633205
 -0.2144624   0.06300813  0.05594661 -0.24708371 -0.32482654  0.16135044
  0.090389   -0.21616292  0.26955137 -0.10342359 -0.10723782  0.16861792
 -0.02559311 -0.07128326]
[-0.23971055 -0.21728313 -0.1636781   0.26926354  0.00205656  0.23268905
 -0.00780334 -0.24483301  0.17402919  0.03877844 -0.10365305  0.21303752
  0.16826826  0.1802435  -0.2336455  -0.3576579   0.0531887  -0.04439825
  0.19433087  0.280201  ]
[ 0.10466199 -0.21257272  0.29731667  0.29348898  0.14281315 -0.23704806
  0.33244035  0.26711777  0.20008807 -0.07733238  0.18172501  0.27201244
  0.04868625  0.01450351  0.01129728  0.17326611  0.1336876  -0.03047551
 -0.09874142 -0.30757725]
[ 0.18460442 -0.00357232 -0.32039925  0.20884272 -0.099438   -0.14856006
 -0.09702471 -0.31625408 -0.15359282 -0.2759467   0.11380342  0.03675858
  0.12266489 -0.21303695 -0.05644314 -0.3233092  -0.26312765  0.14393309
 -0.10536537  0.07327294]
[ 0.29409546  0.2764609  -0.00196554  0.07316194 -0.09152543  0.20502679
  0.14615326 -0.07196148  0.1584299  -0.11395788  0.15454209  0.04493541
  0.00653979 -0.23928212 -0.024914    0.10159994  0.04478763  0.33718184
 -0.13662155  0.22761302]
[ 0.01131276 -0.23616804  0.16729297  0.19064441  0.24839498  0.05873442
 -0.12258922  0.0925459   0.02043989  0.21340878 -0.13202372  0.3654485
 -0.02706122  0.13957518 -0.09309597  0.11140631 -0.12439094  0.18358305
  0.10364652 -0.13629542]
[ 0.23076375  0.13998604  0.367088   -0.20863795  0.09200127  0.21672258
  0.12795796  0.33257815 -0.08231753  0.21072793 -0.09711582 -0.22742184
 -0.11403602  0.26923937  0.25230023  0.43210873  0.00283289 -0.02404471
  0.2809623  -0.2662806 ]
[-0.08113163  0.08211794 -0.07115313 -0.12873755  0.28457722 -0.21518679
 -0.23419613 -0.21631357  0.1582812   0.01768025 -0.1816528  -0.0155873
 -0.15999301  0.22765717  0.22390941 -0.26186076  0.17664292 -0.01464258
  0.24157487  0.18524832]
[-0.16425928  0.29204488 -0.2095358  -0.28365532  0.18744244  0.1852973
  0.33201414 -0.15731677 -0.18974708  0.06113943 -0.09318458  0.17529958
  0.06328721 -0.29347208 -0.16979969 -0.1120676   0.08230692  0.2873466
 -0.04321445 -0.32316515]
[ 0.13280486 -0.09016082 -0.21957804 -0.28966138  0.03004168 -0.04723134
  0.10835404  0.33502018  0.09118938 -0.28103274 -0.02944784  0.24082059
 -0.18007062  0.00945937 -0.33066767  0.04797861  0.12158903 -0.08683729
  0.09050786 -0.24638623]
[ 0.01530615  0.04931569  0.28737685 -0.23913684 -0.07059872  0.14150468
 -0.19208522 -0.11392821  0.21913883 -0.25840107 -0.24816242 -0.20977291
  0.24695748  0.1665624  -0.02255299  0.0421984   0.16322075 -0.04057408
 -0.02505525  0.25250933]
[ 0.01757744 -0.16660886  0.09098773 -0.14345396 -0.00380717 -0.014136
  0.0864985  -0.1330527   0.10693277  0.02203482 -0.13943554  0.25362763
 -0.21559569 -0.0154643  -0.21645829  0.04303382  0.24987881  0.24663778
 -0.25683257  0.1655376 ]
[ 0.15087661 -0.16139065 -0.2986934   0.05864     0.09054876 -0.1755673
  0.13522725 -0.02029344  0.282381    0.30633602  0.03455746  0.06173081
 -0.31551903 -0.16961114 -0.3107389   0.0935359  -0.20265938  0.33010426
  0.30940092  0.3241568 ]
[ 0.00663134  0.09356759  0.22546712 -0.27131474 -0.22638589 -0.05924838
  0.18106054  0.4103621  -0.2639864  -0.19997571  0.00136716 -0.3086117
 -0.07943695  0.05799756 -0.1182166   0.17711066  0.02199302 -0.0195478
  0.03116038 -0.00659406]
[-0.08175286 -0.02069236  0.13150625 -0.14804977 -0.14666416 -0.13889775
 -0.03923653 -0.20101477 -0.05080296  0.2257638   0.26783976  0.01988313
  0.18078342  0.03022208 -0.31659698  0.01958995  0.27538347 -0.29727548
 -0.15498182  0.16887082]
[-0.19217123  0.20946464  0.03693465 -0.22951958 -0.33274445  0.04307538
  0.23450908 -0.27338907 -0.08413351 -0.24718292  0.20763314  0.10240179
 -0.04790187  0.00338106  0.20125356  0.22196859  0.40353155  0.34084925
 -0.00549076  0.0655318 ]
[ 0.16873875 -0.31837624 -0.13002655  0.06519659 -0.09855561  0.12751988
 -0.22342278  0.22875546 -0.13903017 -0.11138044  0.41629598 -0.24354275
  0.07397847 -0.00884261 -0.22156218  0.06378924 -0.34628686  0.15333746
  0.05727092 -0.12707402]
[-0.15514566  0.30023786 -0.30484998  0.12649032  0.20886269  0.11636852
  0.10500341 -0.12752679  0.00249319  0.25882205 -0.00650165  0.17741811
  0.07492153 -0.0845567  -0.17416278 -0.09535557 -0.22464256  0.4082048
 -0.11715643  0.05891067]
[ 0.01874915 -0.0072278   0.10235556  0.08892398  0.26839665  0.20719454
 -0.13101643 -0.23493841 -0.23536026  0.38486564 -0.17282169 -0.01543132
  0.1406603   0.04273194 -0.06810023  0.27175337 -0.04184689 -0.0614533
  0.24251246  0.14359783]
[ 0.34352523 -0.00174209 -0.01115352 -0.0170119   0.11591704  0.17601176
 -0.04092331 -0.02034357 -0.03357806 -0.07263939  0.30040383  0.01278143
  0.3086085  -0.26204985  0.16142553  0.17644395  0.07446629  0.21673833
  0.17245531 -0.4262761 ]
[-0.19067267  0.19915234  0.1752165  -0.07284129  0.23701352 -0.17311168
  0.257088    0.08962562 -0.0126761  -0.00469351 -0.10504226 -0.09800132
 -0.00382842  0.08596233  0.07161812 -0.16129242 -0.00870439  0.06437916
 -0.17631707 -0.24775268]
[-0.13677257 -0.30444863 -0.27306116 -0.17349716 -0.27586782 -0.1379615
  0.09797082 -0.15826988  0.18821606  0.1683662  -0.03143777 -0.07690816
  0.04351069 -0.08561043  0.30184212  0.05760838 -0.23175445 -0.23108669
 -0.044077    0.34567976]
[-0.08861545  0.02867832 -0.08029648 -0.2216185   0.1581554   0.13247412
 -0.15982093  0.09490837  0.03906205 -0.3094909  -0.18119359  0.01967431
 -0.02661321 -0.13380833 -0.2980723  -0.16987623  0.23316462  0.11164428
 -0.18147889  0.05965135]
[ 0.20904249  0.20046973  0.2768147  -0.33405307 -0.2719163   0.16918452
 -0.26093072 -0.07963557  0.16210453  0.1953246  -0.04024288  0.16589929
  0.07568507  0.2531745   0.05786639 -0.23215298 -0.04083974  0.03765471
  0.2667354  -0.251901  ]
[ 0.26611778  0.16053325 -0.16376223  0.22559579  0.19261263 -0.28115705
 -0.07887271 -0.33002973 -0.14206983 -0.15158902  0.20035823 -0.36966467
  0.00864379  0.2546229  -0.21863791 -0.3427366   0.06213906 -0.01059793
  0.07516555 -0.06065171]
[ 0.05800612  0.01624199  0.30406556 -0.243735   -0.27527222  0.11125366
  0.12057005  0.05505564  0.06827803  0.27908286 -0.3287207   0.05115347
 -0.15667725  0.1254381  -0.21953732 -0.09683125 -0.12771419 -0.09381067
  0.03045734 -0.02377643]
[ 0.21940601  0.30180097  0.24824303  0.15684678 -0.2306062  -0.30459395
  0.01256195 -0.08220773  0.14887704 -0.149156   -0.22747634 -0.21070622
 -0.26514748 -0.07257362 -0.1114003   0.17548737  0.2931127  -0.04280567
  0.19969441 -0.3322605 ]
[ 0.26149157 -0.06965297 -0.2065157   0.33819497  0.03831508 -0.19689861
  0.0164536  -0.2659177  -0.24164017  0.09536627 -0.04812934  0.16827777
 -0.14733806 -0.26689    -0.0187198   0.07917749 -0.08247329 -0.21209645
  0.02775212 -0.23154347]
[ 0.14522928 -0.32467642  0.00834486  0.03858218 -0.2637704   0.12433279
  0.22049548 -0.04913968 -0.31973574  0.18864875  0.0854162  -0.0921902
  0.24346459  0.02755864  0.14518684 -0.01527938  0.15660621  0.109294
  0.20069477 -0.1961981 ]
[ 0.05715038  0.04643095  0.06814403 -0.03163674 -0.11676334 -0.17735621
  0.2280655  -0.07625147 -0.07434069  0.0464576   0.27151942  0.07287419
 -0.12135956 -0.09642959 -0.17572485 -0.31984195  0.14520548 -0.08960711
 -0.07623782 -0.04097964]
[-0.35358995  0.11340936 -0.19024119  0.22117737  0.01729835 -0.3024822
  0.314869   -0.31034192  0.04778982 -0.23299128  0.10787454  0.26860842
  0.3118837   0.29450795  0.12469319 -0.09126069  0.2698992  -0.07845083
  0.11280087 -0.02761242]
[-0.21917374  0.3162151   0.0494175  -0.06009945  0.25841853 -0.1643656
 -0.25293913 -0.0396235   0.37264282  0.16648747 -0.0505126   0.13333328
  0.15964198  0.20770778 -0.15012676 -0.02384738  0.2682506  -0.23591511
 -0.14371896 -0.22797391]
[-0.24890637 -0.15385939  0.09156096  0.18439166 -0.24331087  0.29453254
 -0.18793078  0.04284663 -0.19744448 -0.05029868  0.11290108 -0.08989962
  0.07655511  0.05043048 -0.02527665 -0.36592245  0.3117257   0.064942
 -0.20205593 -0.19952288]
[ 0.15212095 -0.20510955  0.15828602  0.2486006  -0.18122979 -0.13457146
 -0.17532474 -0.19471157  0.0010498   0.0252428   0.18509777  0.17802706
  0.27097112 -0.24335708 -0.07408982 -0.24455902  0.01552545 -0.29352492
  0.19504616 -0.03190034]
[-0.16890274 -0.30773774 -0.3053363  -0.1892769  -0.17389682 -0.3379191
 -0.21480161 -0.21781856  0.04772337 -0.22856456  0.0013991   0.11293137
 -0.08747831 -0.02154553 -0.23965974 -0.29104942 -0.25975275  0.12110274
  0.20651901  0.10876029]
[-0.30367282  0.08173615  0.03940831  0.05445749  0.2059188  -0.02382275
 -0.35849512  0.0670509  -0.10834409  0.09276182 -0.17735504 -0.08793081
 -0.2541399   0.08934878 -0.2016471   0.31128657  0.05285187 -0.26390755
  0.19057333  0.31255487]
[-0.02413933 -0.00815715 -0.02502737  0.00425825 -0.02222213 -0.01447026
  0.00402982  0.07830671  0.09227389 -0.01370947 -0.02888408 -0.0053929
  0.02987999 -0.00087602  0.01321663  0.02985496  0.03863696 -0.02941048
 -0.00151286  0.00632274]
layer 5 Activation
tanh
layer 6 Dense
20 1
[-0.36073193]
[0.00481071]
[0.3251841]
[0.00992544]
[0.00965948]
[0.08106434]
[0.29184568]
[-0.31606248]
[-0.02119765]
[-0.26462334]
[0.23659103]
[0.15577455]
[-0.0897344]
[0.2489455]
[-0.01011916]
[0.15155466]
[-0.15986049]
[-0.20371161]
[0.00568378]
[-0.26369673]
[-0.03145595]
