layers 7
layer 0 Dense
20 20
[-0.54457885  0.01389188 -0.18654853  0.08976857  0.12301908 -0.07668221
  0.04461895 -0.27261955 -0.09542993  0.24424803 -0.21700768  0.12563981
 -0.04704098  0.24381536  0.3805164  -0.10548716  0.33137372  0.20099257
 -0.19165574 -0.29284406]
[ 0.27208656 -0.3822964   0.08252385  0.11902529  0.29529744  0.32578248
 -0.08166638  0.27677053 -0.15618627 -0.2764778   0.02126867 -0.08147553
  0.37142903  0.344894   -0.20266257 -0.08613718 -0.1291503   0.31677043
 -0.27362168  0.22840136]
[ 0.01584741 -0.24894433  0.29249388 -0.04425961 -0.21859431  0.21794665
  0.23859084  0.32999456  0.3525774   0.17117816  0.07293019 -0.3138734
 -0.3752056   0.37916374 -0.26681462 -0.08281249 -0.17186166 -0.22771585
  0.21614778 -0.0468151 ]
[-0.17834291  0.34015122  0.1012525  -0.32777533  0.14379495  0.16575108
  0.5009348  -0.39435387  0.11106341 -0.08222707 -0.42411485 -0.20543005
 -0.5056519  -0.26014253  0.39545694  0.00997621  0.2888394   0.11886282
 -0.35887134 -0.24795471]
[ 0.09223163 -0.24685277  0.02036481  0.3949223   0.49187613 -0.47378424
  0.41045094  0.02920697 -0.3384366   0.19081022  0.04377501  0.2347474
 -0.22108644  0.07339841 -0.34850815  0.05116727 -0.1653969   0.01501998
 -0.34200138 -0.14144567]
[ 0.32032156  0.30729562 -0.33571577  0.34926093  0.03264427  0.37846655
  0.30864406  0.17316622  0.00857711 -0.13553277  0.16771686  0.02917638
 -0.30063927 -0.11127067 -0.38302305 -0.33286119  0.04576844  0.10965168
 -0.22471972 -0.15037823]
[-0.08986562 -0.2448286  -0.18731453  0.12547559  0.08643311  0.1501211
 -0.13728371  0.06666395  0.26399165 -0.3203283  -0.24572049  0.02988103
  0.15813613 -0.212111   -0.35189608 -0.1740777   0.21109128 -0.08636239
  0.32807904 -0.08927706]
[ 0.20750824  0.31094033 -0.29286727 -0.21664108 -0.75000405 -0.07061612
 -0.41537607  0.0127885   0.34142548  0.08296912 -0.30557114  0.3464509
 -0.11965192  0.07687035  0.16452602  0.34706685 -0.13825533 -0.38640425
  0.743363    0.40018922]
[ 0.0736117  -0.04933874  0.10361987  0.16682842 -0.30400997  0.18450695
  0.05342507 -0.01199178  0.3730843  -0.4046801   0.44941592  0.00976233
 -0.04350516 -0.15485351  0.01196172  0.15274733  0.02790821  0.14556688
 -0.1506955   0.46045613]
[-0.17663023  0.35063958 -0.28505594 -0.37280124 -0.11205906 -0.48405015
  0.25598383  0.27695188 -0.07032677  0.33564803 -1.0082481   0.33510688
  0.4038487  -0.12776071 -0.2932851  -0.14280325  0.4058085  -0.08744082
 -0.23885393 -0.19311526]
[ 0.00212908  0.46909377 -0.01493305 -0.01776831  0.26667824 -0.5983119
  0.08012869  0.12371255  0.09064855  0.07690716 -0.37642288 -0.9299033
  0.1792174   0.22233321  0.61890113 -0.74496084 -0.9830232   0.25484845
 -0.1893681   0.0140527 ]
[ 0.9562145  -0.316261    0.11209653 -0.47988144 -0.16707359  0.08354357
 -0.5186475   0.15390255  0.5741435   0.15629858 -0.33025908 -0.52252114
  0.19430126  0.36515364  0.22318266 -0.05828954  0.24449088 -0.51230055
 -1.8629588   0.6714561 ]
[-0.31827068  0.05957932  0.5819844   0.6227578  -0.06724614 -0.32048172
  0.3616067  -0.5297776  -0.4173966  -0.08509391  0.672566    0.16746548
  0.02255923 -0.49144724  0.2591133   0.36455315 -0.31207532  0.6914587
  0.3495002  -0.4233793 ]
[ 0.21617886 -0.00616161 -0.5606469   0.39424127  0.26734924 -0.09651935
  0.15844414  0.34920758  0.32707983  0.10902447 -0.2687119  -0.11232065
 -0.2099895  -0.68196607  0.10895713 -0.28463852  0.0773751  -0.08622184
  0.03584993 -0.1890338 ]
[ 0.13702652 -0.1655293   0.32311416 -0.6671645   0.20988609 -0.4809382
  0.00524006  0.00557264 -0.02188287  0.53106934  0.06500983 -0.26614612
 -0.33331034 -0.03779446 -0.1944367  -0.704179   -0.25771704  0.06742875
 -0.474084   -0.15422422]
[ 1.0963864  -0.4255379  -0.5477411  -0.5921007   0.33208683 -0.10364369
 -1.0367483  -1.0820587   0.55996484 -0.15514697  0.29019856 -0.31877542
  0.58985776  1.0199261  -0.13366021  0.07104737  0.20463723  0.6457494
 -2.0690525  -1.8337643 ]
[-0.52405196 -0.00719238 -0.40157428 -0.36923665  0.718018    0.3823868
 -0.37868845  0.5462909  -0.2905316   0.38503984 -0.3928499   0.28690082
 -0.24955115 -0.03775937  0.3535092  -0.28643548 -0.12534642 -0.74255
  0.69433874  0.24042939]
[ 0.19535935 -0.42321986  0.57856774 -0.25494975 -0.02306905  0.60966086
  0.25658032  0.18110682 -0.3279197  -0.33474332  0.8943489  -0.7563084
  0.27506587  1.2370949   0.33179042  0.08998534 -0.4592196  -0.19691539
  0.06022429 -0.10911342]
[-0.3346729  -0.8834863  -0.67640364  0.24660636  0.05853062  0.46238816
  0.11831079 -0.11512369 -0.03053498 -0.41367882  0.43864146  1.1055745
  0.73927134 -0.0262292  -0.637884    1.1578406   0.9051761  -0.54283994
 -0.3359677  -0.06713857]
[-0.16398945  0.68386006  0.3047804   0.09664836 -0.59826946 -0.3242525
  0.5525096  -0.20978329 -0.4455217  -0.7565794   0.3432206  -0.17581272
 -0.8431837  -0.18716523 -0.1793625   0.04553038 -0.05557044 -0.01648729
  1.2397028  -0.01089709]
[-0.26442713  0.0115472  -0.02770907 -0.11061563  0.12302789 -0.01149375
  0.18169482 -0.22156206 -0.16211644  0.03808179 -0.06263308  0.00205193
 -0.01538795 -0.04806363  0.16533549 -0.03638074  0.07057751  0.0353711
 -0.3820579  -0.31605563]
layer 1 Activation
tanh
layer 2 Dense
20 40
[ 0.21541382  0.15242828  0.18857488  0.28489813 -0.17552668  0.29831815
 -0.21806124  0.21560027  0.9773765   0.49684396 -0.15137923 -0.20329209
 -0.0191925  -0.03730598 -0.05345363 -0.68903613  0.12414894  0.26599324
 -0.011333   -0.06193179 -0.24077305  0.07391684 -0.41328996  0.34540233
  0.15161817 -0.49087122  0.4143631   0.16116904 -0.21529011  0.5316982
  0.32212716 -0.3254392   0.82944876 -0.5932422   0.27635995 -0.14807527
 -0.5095173  -0.019835    0.25603065 -0.3428869 ]
[ 0.47485453  0.45793533  0.06244465 -0.09326481 -0.6825982   0.02596673
 -0.03733246  0.07789844  0.34167492  0.4031858   0.34421337  0.43951216
  0.31199166  0.341688   -0.04916706  0.3262106   0.08286779 -0.14439508
 -0.3159271   0.20498829  0.56566536 -0.12330417 -0.3742851   0.05049214
 -0.42894837  0.20032874 -0.25012812 -0.4132725  -0.19846822 -0.48111334
 -0.24124318 -0.52481043  0.01463431  0.33949563 -0.2264283   0.09043637
  0.4211866  -0.25652307 -0.3642902   0.03866521]
[ 0.02628374  0.717385    0.01558373 -0.25748652 -0.11171799  0.12695009
 -0.24815406  0.32290795 -0.11949927 -0.19995715 -0.4279283   0.289575
 -0.3492152   0.32715172  0.05886023 -0.2936293   0.21462998  0.6123818
  0.15269135 -0.74615586 -0.2600029   0.3144582  -1.0493027   0.16976523
 -0.17641528 -0.05117744  0.08100533  0.1175103   0.23431379  0.69663215
 -0.190064    0.27025157  0.29624406 -0.33073732 -0.18362464  0.11239538
 -0.21808302  0.1862052   0.32065475  0.4020404 ]
[ 0.10621218 -0.26270232  0.2879567  -0.1683836   0.36917648  0.28454876
  0.18104807 -0.20276602  0.02811587 -0.23218435 -0.2300363   0.06291608
 -0.09420556  0.09830858 -0.3877117   0.2579237  -0.22352669 -0.50667334
  0.504571    0.28615603  0.23624335 -0.12667163  0.1617497  -0.13478288
 -0.5498038   0.20806721 -0.28594756 -0.2771012  -0.13261624  0.30873525
 -0.32672226  0.04251925 -0.02384215  0.00619959  0.09125865 -0.4263295
  0.8883435  -0.25024733  0.00662765  0.17617054]
[-0.17056131  0.13236411  0.05950598  0.22758384  0.17315124 -0.20328866
 -0.20118533 -0.31940323 -0.3447073  -0.41633716  0.28890643  0.28936777
  0.19898446 -0.08650333  0.40510976  0.6673704   0.30780607  0.1287559
  0.3756166  -0.62185717 -0.14358822  0.5110842   0.530061    0.38809884
  0.35113278  0.3281942  -0.18102966 -0.06060052  0.00895056  0.59014297
  0.05255914 -0.15159401 -0.27385655  0.12732686  0.1628479   0.12511276
 -0.20384607 -0.13549423  0.15870713 -0.23804307]
[-0.23267671 -0.6213161   0.26384    -0.03000339 -0.12139412 -0.36484846
 -0.14845434  0.24819373 -0.4163285   0.38667166 -0.11604273 -0.14687169
 -0.6158952   0.43137965 -0.21896705 -0.21899411 -0.4661996   0.13463818
 -0.4492608   0.07562805 -0.6306469  -0.01480026 -0.18715468  0.1116176
  0.35809886 -0.44199026  0.04544426 -0.41776818 -0.1370689   0.56019366
  0.33938795 -0.02577642  0.40214247 -0.07245105  0.4292487  -0.00075408
  0.5644252   0.16212094 -0.53651065 -0.36397898]
[ 0.33012897 -0.09598905 -0.14060743 -0.72726953  0.18085626  0.43617046
  0.9462949  -0.88864714 -0.8538678  -0.24934624 -1.2576618   0.96724194
 -0.35651815  0.44511998  0.07654709  1.0569735  -0.4281607  -0.47634807
  0.4734976  -0.3398937   0.39689133 -0.562325    0.37343168  0.7766882
  0.35903704 -0.16702446 -0.24216117 -0.773323    0.62359536 -0.04209122
 -1.453651    0.6147351  -0.5069574   1.1277633  -0.47624913 -0.0415001
  0.08980739 -0.9111064  -0.24915627  0.78658193]
[-0.00444915  0.0012327   0.10946058  0.15899603 -0.10955107 -0.74335104
 -0.8382174  -0.09214515  0.29666615  0.37097877 -0.01522947  0.02321256
  0.55298555  0.13198037  0.02413408  0.44682637 -0.10803931 -0.06434444
  0.09010787  0.03851911 -0.255549   -0.21361656  0.2892361  -0.1399186
  0.21164757  0.20188458 -0.11955339  0.14163777  0.5731171  -0.25347316
  0.0560643   0.6229228  -0.1847548  -0.66877943 -0.39383405  0.24948497
  0.33655205  0.04244987 -0.19135638 -0.0938523 ]
[-0.04423118 -0.28702757  0.26784497 -0.03649366  0.13193132  0.06543776
  0.15816167 -0.60411024  0.19494803  0.31054848  0.07566012 -0.5049027
 -0.05261294 -0.25140357 -0.16359243  0.30246928  0.5948506  -0.33503094
 -0.3547199   0.43247458  0.01107443 -0.16109727  0.18091927  0.21222636
 -0.19544192  0.06838708 -0.04484743  0.00384546 -0.69878924 -0.20128696
  0.04775624 -0.15987156 -0.12498891  0.08644798 -0.20899604  0.37120694
 -0.37006286  0.30509815 -0.1026572  -0.36554363]
[ 0.02703376 -0.23077852  0.3127013   0.26623583  0.09638952  0.2877361
  0.57948977  0.03981083 -0.05651192 -0.58757395  0.15004303  0.26102853
  0.15700307 -0.25070924 -0.2030746  -0.16224918  0.35441267 -0.12291645
  0.00748157  0.01302018 -0.14264445  0.36410284  0.68189776 -0.32567564
 -0.23358773  0.26628473 -0.0983628  -0.23992668 -0.37157565  0.00218439
  0.32050928  0.39844784 -0.45386222  0.00342769 -0.37317532  0.24428548
 -0.28268468 -0.10221782  0.48436588 -0.12617303]
[ 0.6117655   0.5429257   0.09414899 -0.40069586 -0.33055913  0.54817504
  0.20870212 -0.3640308   0.1783185  -0.11256143 -0.745795   -0.28008547
  0.01660836 -0.3100816  -0.0143964   0.3852325  -0.2076764   0.09814099
  0.18382952 -0.13050112 -0.33606482  0.27533346 -0.42490485  0.11720881
 -0.16249822 -0.77279687 -0.13451621 -0.563489    0.0548889   0.00995276
 -0.16916423  0.12112003  0.20613815  0.09189447  0.18878086 -0.20231836
  0.20732479 -0.22255468  0.6894728   0.08155787]
[-0.22906756 -0.25447413  0.02052916 -0.47233903  0.17659087 -0.02905837
 -0.20100541 -0.11911106 -0.14588737  0.29105502 -0.01280662 -0.02927363
 -0.38917616  0.13230206  0.650005   -0.07841851  0.12727252 -0.20673482
  0.23536684  0.3370945   0.3014764   0.20070362  0.04292541 -0.00312314
 -0.46313584 -0.6796544  -0.4177005  -0.37241197 -0.1694853  -0.32682073
 -0.07649419  0.6245347  -0.03202341 -0.23006336 -0.46979588  0.09888089
 -0.19683614 -0.28251237  0.04749275  0.14329714]
[ 0.21845274 -0.55039364  0.13040666  0.16385199  0.20476408  0.46022758
 -0.45417497 -0.10206345  0.7320513  -0.07711452  0.37247527 -0.6214716
 -0.33563593 -0.14695862  0.2670774  -0.37858373  0.05014879 -0.21626146
  0.17187588  0.2780421  -0.08507281 -0.18033841  0.37230125 -0.4670006
 -0.06746759  0.49519435 -0.5028564   0.3587742  -0.42247292 -0.1484763
  0.14066944  0.12273992  0.02398542 -0.13853857  0.32694387  0.36583707
  0.10670009  0.41641486 -0.18121421 -0.36504853]
[ 2.6936051e-01 -2.2741772e-01  1.9291905e-01 -3.4838209e-01
 -6.7000806e-01  3.8564673e-01 -5.8214009e-02  2.1925814e-01
 -2.9582992e-01 -7.8737378e-02 -3.6122650e-01 -2.8989688e-01
 -4.9060854e-01  7.1745253e-01  4.5238683e-01  2.3298912e-01
  3.4658454e-02  5.0035661e-01 -2.1536542e-01 -4.7146574e-01
 -7.8754473e-01  1.8759127e-01 -1.2181045e+00  7.0048887e-01
  1.1990997e+00  1.8412547e-01  1.3775666e-01  3.2812849e-02
  4.6937662e-01  7.6231086e-01  4.3819326e-01 -1.4338806e-01
  2.0996751e-01  3.0453888e-01  6.8220550e-01 -4.8624790e-01
 -9.7940871e-03  2.0048831e-04 -3.5522220e-01  2.1636370e-01]
[ 0.2649774  -0.05063464  0.32182327  0.01284116  0.27496293  0.02314284
  0.4304125  -0.2878369  -0.24881978 -0.11431557  0.20679563  0.11041891
 -0.05251407 -0.33298877  0.23122625 -0.33410403 -0.03560898  0.14884706
  0.09421113 -0.23553526 -0.38125798  0.10541073 -0.11889712 -0.29642227
  0.1887908   0.2347766  -0.31041992  0.18107016 -0.06871449  0.00946331
  0.1712206  -0.36602315 -0.39773512  0.5248467  -0.06274005 -0.09284195
  0.14116564  0.25191715  0.3198625   0.02594675]
[-0.28270265 -0.44639593 -0.07703218 -0.26236913  0.2681415   0.6271903
  0.14593282 -0.2915906   0.3566301   0.06562532 -0.11262916 -0.64562905
 -0.07498993  0.1280624  -0.12751512 -0.05697997 -0.26659796 -0.58679485
  0.26803902  0.7168789   0.10151873 -0.02622643 -0.038151    0.3268762
 -0.25221148 -0.44193923  0.26297212 -0.12199587  0.17206198 -0.37536603
 -0.11123453 -0.19058296 -0.2617849  -0.03322869 -0.15962905 -0.08647051
  0.01638275  0.13842142 -0.6612993   0.40686685]
[-0.5659191   0.07721774  0.08555435  0.12060397 -0.07379609 -0.6647614
  1.0941889   0.15828368  0.04079644 -0.08137213  0.3603854  -0.40655753
  0.0395582  -0.10685962  0.43668208  0.43751806  0.2579168   0.27576
 -0.26378763 -0.11718522 -0.1396825  -0.39526013  0.27515715 -0.3404892
  0.03684598 -0.4700084  -0.23088415  0.6249795  -0.08399297 -0.22831045
  0.21954875  0.09449726 -0.3292067   0.691459    0.01266124  0.46698084
  0.4217175   0.02414883  0.60752046 -0.05267136]
[ 0.6503875   0.34004775  0.1151743  -0.35662976  0.6381847   0.72643375
  0.6345035  -0.46705192 -0.09424929 -0.08946744 -0.77444685 -0.00907591
  0.4799903  -0.00114695 -0.30201644 -0.11006882  0.48687717  0.30128467
  0.06468011 -0.89797646  0.12658718  0.6347164  -0.06803861 -0.12994662
 -0.14119345  0.41403723  0.00303494  0.45869428 -0.3436972   0.1412111
 -0.33813882  0.04649854  0.02462206  0.16511373 -0.44972637 -0.15645622
 -0.08270434 -0.09373239  0.11064085 -0.02487886]
[-1.9108264e-01 -6.7913835e-04  1.4631580e-01  5.9758264e-01
 -2.7968468e-02 -6.9654620e-01 -3.8507384e-01  9.3563932e-01
  4.1042235e-01  2.6863995e-01  2.1141325e-01  1.9656262e-01
 -3.5336635e-01  4.4527254e-01  6.5836415e-02 -8.2640231e-01
  2.0896640e-01 -2.8678844e-02 -8.1528611e-02  2.0224427e-01
 -1.7932130e-01 -6.0864109e-01  2.2436211e-02  1.3545415e-02
  1.0063341e-01  1.6340703e-01 -3.0351346e-02  3.8681328e-01
 -2.3008446e-01  5.2390568e-02  4.7064954e-01 -1.7632058e-01
  1.9675337e-02 -2.2160223e-01  4.7592226e-01  4.0255448e-01
 -2.4218367e-01  6.7562664e-01 -2.0332739e-01 -5.2228510e-01]
[-0.47223845  0.11226528 -0.23794061  0.5056645  -0.20937642 -0.95041525
 -0.35616213  0.27576464  0.40892866  0.1388561   0.37682357 -0.26015785
  0.01512478 -0.17897455 -0.44522205 -0.20106174  0.03745101  0.30732775
 -0.27547586 -0.0024001   0.21494842 -0.6247163   0.16505271 -0.0209663
  0.52741045  0.35680133 -0.01097982  0.38091353  0.32123992 -0.14354788
  0.20119955 -0.29426312 -0.05606084 -0.30370742  0.24906334  0.24828127
  0.31918055  0.2781705  -0.02491576  0.03085215]
[ 0.05917317 -0.02024513  0.01411754 -0.23634948  0.08936695  0.49057794
  0.48587134 -0.56759435 -0.26381606 -0.16539705 -0.40221086  0.24197848
  0.27459127 -0.08452937  0.11836804  0.4337308  -0.18599612 -0.03463425
  0.0033418  -0.02483619  0.08179649 -0.0818925   0.30215505  0.18385151
 -0.02406293 -0.01330402 -0.00103588 -0.56588775  0.12113158  0.19914408
 -0.5068328   0.31140637 -0.17183827  0.417727   -0.12219773 -0.08178227
  0.25029102 -0.35698667 -0.10913148  0.13681914]
layer 3 Activation
tanh
layer 4 Dense
40 20
[-0.12527509  0.29310343  0.03556579 -0.1982045   0.3270089   0.1813096
  0.03463752  0.20877181 -0.02912795  0.74229586 -0.13113086  0.44269302
 -0.3126076  -0.53376794  0.001431   -0.2797837   0.19153616  0.27940035
 -0.17492965  0.29998082]
[-0.10376189  0.14647038  0.30163682  0.148059    0.10819201  0.04335519
 -0.21819833  0.26225016 -0.12737493  0.09062798  0.12202519  0.08036037
 -0.76029754 -0.24495097  0.07119673 -0.03676627  0.08939279  0.17844486
  0.07200485  0.47830206]
[-0.19244705 -0.22147751  0.06461389 -0.26529053 -0.08382455  0.03881437
 -0.08268804  0.23197016 -0.31909212  0.26783818 -0.09006305  0.19864373
  0.19055916  0.1267211   0.00515804 -0.15233484  0.08713112 -0.02060355
  0.13920568  0.00907779]
[ 0.18439569  0.49431476  0.3535154   0.15292078 -0.5979617  -0.757203
 -0.11311616 -0.2610669   0.35384777 -1.206059   -0.6385917  -1.1635641
 -0.1530111   1.0250801  -0.00131863 -0.17732266 -0.19523995 -0.56190795
  0.4024733   0.29456115]
[-0.02673452 -0.01948029 -0.00628769 -0.00138876  0.29152226 -0.09928045
  0.5662654   0.15881482  0.23259273  0.40177387 -0.27463296  0.18449715
 -0.09628001 -0.41002682 -0.13036853 -0.24713913 -0.2228311  -0.3538075
  0.20718     0.2742988 ]
[ 0.23987016 -0.36034077 -0.33533624 -0.16941226  0.5397559   0.24160399
  0.03368396  0.2802052  -0.4742287   1.1152253   0.22099032  0.6547904
 -0.19377378 -0.69575274  0.0449845  -0.25928107 -0.46692315  0.3340811
 -0.25798768 -0.2754156 ]
[ 0.31896234 -0.311567    0.45838186 -0.44381964 -0.10688333 -0.3990225
  0.37841922 -0.17461438  0.49165583  0.27914512  0.25610745  0.4961164
 -0.15262267 -0.39868402  0.48029366  0.01879167 -0.06220445  0.26981258
  0.3273533  -0.0758503 ]
[ 0.07065958 -0.04864379 -0.25056997  0.43162537 -0.28234172 -0.17317979
 -0.20471792  0.11293077 -0.13097647 -1.2364693   0.03717337 -0.6724723
  0.40124086  0.7782777  -0.41556185  0.09931892 -0.17197448 -0.57650185
 -0.35717243 -0.00825689]
[-0.36306852  0.3628277  -0.06008375  0.43268248 -0.09304958  0.20132242
 -0.59384644  0.05456983 -0.19677764 -0.56152546  0.02016666 -0.04103785
  0.23394518  0.05778179 -0.39606377  0.25869623 -0.11793152 -0.34177712
  0.19194914  0.35004008]
[-0.33915153  0.38141537 -0.21093886  0.24199334 -0.2608129  -0.07507533
 -0.38883603  0.00466264  0.01836931 -0.07888545  0.3248794   0.27622604
 -0.00097088 -0.01633654  0.06936765 -0.08580299 -0.22498886  0.33217284
 -0.308518    0.2704281 ]
[-0.39057526  0.29322252  0.01592343  0.25929946 -0.37993452 -0.21446888
 -0.08850604 -0.3444678   0.2628214  -0.7668232  -0.45367718 -0.6075119
  0.22886965  0.526892   -0.03699604  0.227344   -0.15247242 -0.5118608
  0.3649585   0.10768279]
[ 0.01831652 -0.5901041  -0.04468681 -0.0262977   0.395347    0.11638413
  0.18012448 -0.11986092  0.15278506  0.01481841  0.00803521 -0.42097786
 -1.141296    0.18058652 -0.23335889 -0.00386999 -0.18751258  0.3699415
  0.13249269  0.31540507]
[ 0.2658807  -0.17289414  0.36274695  0.06793927  0.30592823  0.27449352
  0.18240778  0.3723432   0.41596195  0.49446675 -0.27076334 -0.2070808
 -0.50653785 -0.20203762  0.45289356  0.09436257 -0.18878123 -0.18083638
  0.07756147  0.33559242]
[ 0.04961061 -0.03790693 -0.27718553 -0.01207146 -0.07197789 -0.03178194
  0.17458072 -0.17627393 -0.30164894 -0.39483315 -0.11327917 -0.08793718
 -0.11233728  0.53863883  0.14919208  0.0291319   0.44686806  0.22436427
 -0.785154   -0.10954294]
[-0.22596088 -0.25806627 -0.07225222  0.03100517  0.44081396 -0.4648457
 -0.157749    0.06972701 -0.06802884  0.16628571 -0.03441238  0.69353145
  0.3135466   0.04067663  0.10697153 -0.05910362  0.26216188  0.04905541
 -0.01786974  0.13339247]
[ 0.6588335  -0.40399048  0.2928055  -0.10150667  0.296687   -0.22110221
  0.5958396  -0.2956606   0.06723681  0.6848456   0.27887484  0.17083158
 -0.3514694  -0.50091803  0.53591603 -0.2754814  -0.1646366   0.04248274
 -0.06797619 -0.3333986 ]
[-0.11102662  0.04479336  0.27083766  0.26073885  0.0223024  -0.14622407
  0.00280278  0.18143322 -0.18262802 -0.21919015  0.23863912  0.28971463
  0.14064005 -0.16313408  0.38677076 -0.1307031   0.15405938 -0.25728554
 -0.21311028  0.08797574]
[-0.1299949  -0.05121979 -0.10020263  0.07828182 -0.12348517 -0.10870102
  0.34417298  0.03364203  0.33516905 -0.5253592  -0.14605953 -0.12409917
  0.37124407 -0.11573557  0.3117796  -0.3769551   0.27207547 -0.00316533
 -0.2253311   0.253691  ]
[ 0.257669    0.26707414 -0.05107917  0.5167935   0.16405787  0.01926035
 -0.02694181  0.07138534  0.32074133  0.87103444  0.09293102 -0.01531518
 -0.27132857 -0.30414537 -0.5379377   0.01899816 -0.19704519  0.27912506
  0.07600188  0.11810368]
[-0.45543697  0.26922756 -0.06594425 -0.11749448 -0.01683861 -0.22373931
 -0.24833348 -0.01419737 -0.38787538 -0.07372402  0.42499128 -0.10636805
 -0.34067225 -0.1782033  -0.17776789 -0.07416248 -0.2051197  -0.25741208
  0.20372358  0.24676837]
[-0.30862874  0.4436722   0.4464801   0.3288614  -0.07619989 -0.00105097
  0.11989457  0.41090003  0.39669022  0.1730364   0.15201724  0.15827233
 -0.52814996 -0.37167814 -0.36601508  0.5149739  -0.21830828  0.5739125
  0.43259323  0.25454023]
[ 0.4666558  -0.66278464 -0.23455836 -0.00363122  0.18869875 -0.21355525
  0.05011376 -0.01211842 -0.31087306  0.91951233  0.1991884   0.18164995
 -0.01213563 -0.5623714  -0.10746145 -0.1886189  -0.12099012 -0.32302827
 -0.04967643  0.03135373]
[ 0.5062415  -0.13322665 -0.01014068 -0.243946   -0.3092194  -0.2572742
  0.27546382 -0.1825809   0.26904267 -0.20305188 -0.2545355  -0.04080566
  0.13649222 -0.24098803 -0.35630932 -0.2381309  -0.67221934  0.1762872
  0.68845946 -0.27561876]
[-0.01476586  0.205442   -0.04190593 -0.20066535  0.1887014   0.21676198
 -0.15620913  0.20758595 -0.08963783  0.13859832 -0.1283175   0.38996384
 -0.7257122   0.08844002  0.31196877 -0.13597983  0.34760115 -0.6255229
 -0.23592249 -0.02953998]
[-0.18060476 -0.12984015 -0.15241143 -0.29163924 -0.0905459  -0.23350078
  0.29562873 -0.17204545 -0.07285015 -0.09523772 -0.04610576 -0.5718245
 -0.33667287  0.06118101 -0.30076042 -0.1289928   0.24138467 -0.24145953
 -0.5218384   0.06240522]
[ 0.50207406 -0.24110995  0.20038028 -0.20127682  0.04362146  0.21982494
  0.76021403  0.30233786  0.07760008 -0.24553277 -0.29287046 -0.46493548
  0.54439247  0.4565824  -0.13654427 -0.33976048 -0.07833099 -0.53150845
  0.20460041  0.04752585]
[-0.37514198  0.09455436 -0.00078271 -0.13666818  0.07878196 -0.17705613
 -0.46690744  0.01727037  0.04245574 -0.05587683 -0.24869537  0.18814078
 -0.28264204  0.00494264  0.07538628  0.3571135  -0.15501048 -0.00955154
  0.06281133  0.00418791]
[-0.46921223  0.40152147  0.14336883  0.4682473  -0.13747616 -0.41833225
 -0.2747791   0.35969073  0.40383703 -0.5957054  -0.25246987 -0.23198406
  0.63155705  0.45305306 -0.11667389 -0.06505951 -0.2004954  -0.5677972
 -0.08234093  0.43422607]
[ 0.4359225   0.08078154 -0.1607833   0.20697263  0.03757178  0.03342338
  0.24292429 -0.13256277 -0.4241424   0.2364334  -0.14882495 -0.5206819
 -0.3256672   0.47145125 -0.21558936 -0.39640528  0.3330287   0.26783675
 -0.28391656 -0.01635127]
[ 0.6274444  -0.4497869  -0.00926938  0.3076528   0.00229786 -0.12772523
  0.01545462  0.09316261  0.01053245 -0.1282748  -0.33725616 -0.10512823
 -0.0120632  -0.12705192  0.05899904 -0.14153777  0.33603415  0.06854595
 -0.38609117  0.03024247]
[-0.5740874   0.01356185 -0.11593495  0.22574927 -0.37009934 -0.47081172
 -0.5284552  -0.2889759   0.26088092 -0.5364807  -0.32846484 -0.49665433
  1.0402237   0.39003018 -0.04648604 -0.00956301  0.4678423  -0.4962746
 -0.16338569  0.10913385]
[ 0.7591601  -0.11526854  0.21889055 -0.0692521  -0.18631339 -0.27620724
  0.25185695  0.14538378 -0.07977768  0.5645066   0.2000644  -0.28147414
  0.2591156  -0.23990959 -0.25832567 -0.12721676 -0.09388626  0.50025696
  0.3299003  -0.01464582]
[-0.16619444  0.30982926 -0.32058102  0.23891652 -0.15153545  0.04728484
 -0.4839714  -0.2733854   0.01862383  0.31652027 -0.0419035  -0.25486624
 -0.16180588  0.26480722 -0.09998608  0.00240299  0.37089267  0.25405818
 -0.2100971   0.28832135]
[ 0.42768347 -0.6331682   0.2940112  -0.4095305   0.07934122  0.01619366
  0.5177024  -0.33799618  0.08429763  0.4796689  -0.03786312  0.07800189
 -0.33691278 -0.26932484  0.50964403 -0.32013535  0.31898737  0.22391438
  0.04737684 -0.28201616]
[-0.06003901 -0.31563875 -0.10200737 -0.41906664 -0.10741093  0.03035189
 -0.5187351  -0.22238068 -0.07673938 -0.67467093 -0.35601678 -0.40541434
  0.65188867  0.5882709   0.13240701 -0.03229688 -0.16707079 -0.66450304
  0.12436108 -0.19280723]
[ 0.08396583 -0.13313387  0.22519283 -0.21440934  0.04995957 -0.2523908
 -0.3565372   0.23477642  0.35519746 -0.3962925   0.27844822 -0.40695825
  0.42213705  0.43937013 -0.23629439  0.24550188 -0.16996965  0.06795506
  0.249549   -0.04453889]
[-0.10580351 -0.3590997  -0.01634675 -0.08262148 -0.2816382   0.02697303
  0.41714913 -0.14223807  0.00110937 -0.48471156  0.11972846  0.0112112
 -0.05867544  0.08703548  0.28215313  0.10751501  0.09089898  0.76112837
  0.10425787  0.03987209]
[-0.5678812   0.4988138  -0.09110603  0.12283557 -0.09230587  0.06499804
 -0.36400104  0.11214203  0.08064238 -0.7465074  -0.15722628 -0.19095728
  0.7437264   0.7720645  -0.2430449   0.10966545  0.23763733 -0.74530524
 -0.09268274  0.23680797]
[ 0.36184764 -0.39957586  0.21139638  0.27081835 -0.09930109  0.16377588
  0.12339517  0.21410777  0.30584988  0.3337616   0.05797016  0.31439137
  0.44630504 -0.14259085 -0.04129171 -0.16298632 -0.0713748  -0.25941274
 -0.08055399  0.1535886 ]
[ 0.57885116 -0.6458939  -0.23743296 -0.02954591  0.28589672  0.12445631
  0.55787545  0.02769131 -0.0774261   0.5622335   0.18323684  0.58973885
 -0.51814604 -0.13533808 -0.0746277  -0.25828806 -0.0728316   0.58767873
 -0.16740784 -0.21823902]
[ 0.08917577 -0.2546355   0.13297032 -0.13349557  0.15715875 -0.0899486
  0.14986987 -0.0597428   0.01835984  0.3656665  -0.005705    0.2446892
 -0.20826663 -0.25545847  0.17975613 -0.22537912  0.07879924  0.22938977
  0.07130859 -0.15305541]
layer 5 Activation
tanh
layer 6 Dense
20 1
[1.3110054]
[-0.8129905]
[0.8485357]
[-1.2255017]
[-1.1580384]
[-0.5179993]
[0.8941385]
[-0.6992951]
[0.519161]
[-1.2408861]
[-0.8492687]
[-1.1547772]
[1.119239]
[1.4544947]
[1.152958]
[-1.1096148]
[1.4945937]
[-1.2573249]
[1.0612772]
[-1.1448733]
[0.6117235]
