layers 7
layer 0 Dense
20 20
[ 0.39662609 -0.526715    0.06789911  0.6069984   0.07569742 -0.28522253
 -0.10125734  0.28088373  0.22719769  0.45700863  0.44668904 -0.26031294
 -0.46506462  0.34565154  0.05709796 -0.31072697  0.4407594   0.14898276
  0.10593845  0.41271695]
[ 0.03965201  0.6193597   0.03028892  0.36979988 -0.21046409  0.40379536
  0.4575748   0.74213773 -0.07261033 -0.47858992 -0.5255311   0.14984064
  0.506012   -0.0320058   0.04376486  0.46670902  0.00323033 -0.43804222
  0.51842606 -0.1023561 ]
[-0.5091523   0.8646264   0.45169297  0.71869695 -0.15026903  0.7109036
  0.00990803  0.96148545  0.27752176 -0.15115093 -0.7323615   0.13614927
 -0.08481319  0.24014784 -0.36970407  0.37309536  0.4987908  -0.15917194
  0.5752629   0.41980147]
[ 0.00763805 -0.30546662 -0.37319922  0.45650002 -0.12113281  0.44614607
 -0.2993433  -0.2182227  -0.13288534  0.23583737 -0.33760953  0.08969243
  0.05335615 -0.1955952   0.1096357   0.29851893  0.42382827 -0.05263235
  0.19785872  0.36633435]
[ 0.02493316  0.20201579  0.407389   -0.26362014  0.03476712  0.16728713
 -0.06311317 -0.02260725  0.23507716 -0.35627148 -0.2684547   0.17245705
  0.01630755 -0.58746064 -0.32503682 -0.04416516  0.38745123  0.0137538
  0.13815176  0.01228454]
[-0.0837087  -0.5647943  -0.02919421 -0.78820336  0.73867506 -0.18286389
 -0.10877654 -0.4599965   0.14094965 -0.01111093  0.32758132 -0.40850312
 -0.38012588 -0.50739765  0.22392395 -0.30184615  0.05586267 -0.02245029
 -0.25329077 -0.06183114]
[ 0.3788761  -0.7422406  -0.48190022 -0.28298396  0.04922733 -0.7530339
 -0.59664696 -0.71586615  0.11457505  0.16804053  0.17671643 -0.5607809
 -0.22430691 -0.22261454 -0.11257168 -0.7026738  -0.24247685  0.3422552
 -0.20451596 -0.21157064]
[-0.03659233 -0.02408507 -0.45590347  0.25218108 -0.2974581   0.35817164
 -0.4325047  -0.05531366 -0.23258287  0.25814632 -0.07834343 -0.47347182
 -0.28160194  0.2359558  -0.3141396  -0.15387906 -0.52431446 -0.1370828
 -0.1763811  -0.47714362]
[-0.24213456 -0.42244354  0.24396987 -0.0344273  -0.12554856 -0.17620555
  0.206456    0.41714    -0.28555298 -0.17737193 -0.34044874 -0.17626949
 -0.01524227 -0.0366026   0.49815506  0.2627373   0.45152676 -0.17878272
  0.20313306  0.19098997]
[-0.07961904 -0.59073913  0.18827534 -0.27440104 -0.32135883 -0.100072
 -0.14431046 -0.2706293   0.56783456 -0.03022864  0.12277871 -0.18119465
 -0.06128657  0.39528665 -0.18543147 -0.01205939  0.2014557  -0.9582607
 -0.08489949 -0.6745306 ]
[ 0.11439075  0.0065258  -0.38885838  0.42713085  0.2218326  -0.15102188
  0.46231565  0.4786609   0.98028976  0.28241444 -0.33709845  0.0630599
  0.1273577   0.15830654  0.40429297 -0.43756056  0.67469007  0.02219242
  0.3143236   0.01324111]
[ 0.13269146  0.39509898 -0.19982223 -0.8769613  -0.9703705   1.2474009
  0.31362635 -0.46074015  0.36793548 -0.5425895  -0.20888856  0.16760856
 -0.18358502  0.48286337 -1.1770232   0.61531144 -0.0635367  -0.904922
 -0.6422987   0.7734332 ]
[ 0.3863796  -0.06884152 -0.50010705  0.26676643 -0.08570862  0.2853547
 -0.03446971 -0.880943    0.18734227  0.5160432   0.10094114  0.36212245
 -0.7233005  -0.24979916 -0.7328933   0.3353919   0.15519895 -0.08223637
 -0.54942113  0.4595312 ]
[ 0.6267211   1.0281869   0.32605696 -0.3349934   0.37278387  0.37323344
 -0.50679606  0.2287408  -0.77127075  0.63719165 -0.14388047  0.63192284
 -0.36673325 -0.2613774   0.86484724  0.08007361  0.13111588  0.81525636
  0.6743595   0.24492171]
[ 0.14531049  0.35582307  0.8593457  -0.25089288 -0.54612356  0.8366277
  0.6996003  -0.19173731 -0.4559658  -0.08750986  0.86367416  0.34241524
 -0.17018208 -0.82075393 -0.57283324 -0.4668928  -0.16147578 -0.4581196
 -0.6551773   0.15695994]
[ 0.06809092 -1.0221032   0.79179245  1.206368    0.31673837 -0.29369077
 -0.03551129  0.8025387  -0.5844227   0.76178384  1.7564943  -0.09355684
 -0.7256026  -0.09369279  0.3306806  -0.37771174  0.9992757   0.02602107
  0.29535767 -0.06420507]
[ 0.13530649  0.21673292  0.18568785 -0.03832192 -0.25123772 -0.18530923
  0.25728145  0.19169976 -0.04228717  0.18049982  0.06650059 -0.35009405
 -0.16556211  0.18952748  0.02942583 -0.4290127  -0.07001195 -0.67869085
  0.13239282 -0.0435099 ]
[-0.84774274 -0.48498827 -0.585014    0.21646011 -0.524931   -0.25541303
  0.5110201  -0.11859541  0.42953888 -0.3645843  -0.19537365 -0.15415628
  0.7306636  -0.22918807 -0.10035302 -0.36580363 -0.32823396  0.07148768
 -0.10865503  1.0913185 ]
[-0.41657746 -0.20762677  0.17036895  0.01974419  0.2688499  -0.40333575
 -1.1437209   0.34985965 -0.6104691   0.3267768  -0.43875676 -0.5127354
  0.44718733  0.52977395 -0.20597558  0.418462   -0.04460067  0.3823777
  0.6085013   0.22812347]
[ 0.460138    0.39275157 -0.47594896  0.4817937   0.2650909   0.01217947
 -0.36666015 -0.83594394 -0.22836392  0.07373898 -0.62767607  0.24828203
  0.22469491  0.08326297  0.04058887 -0.07252247 -0.8343021   0.16054186
 -0.6254911   0.04590349]
[-0.02056913  0.17879201  0.0494705  -0.1163767   0.03208344  0.06359567
 -0.02103172  0.12413725 -0.00793216  0.01209136 -0.01043537  0.03612035
  0.1688389   0.09708664  0.13530503  0.00109322  0.01700821  0.07784507
  0.15512764  0.04299757]
layer 1 Activation
tanh
layer 2 Dense
20 40
[ 0.23729593  0.39996967  0.00215737  0.14914808  0.0564222   0.19042988
 -0.4151985   0.08554412 -0.4210407   0.3324396   0.37606716 -0.11342394
 -0.09751466  0.11661155 -0.48990077  0.24284403 -0.44220483 -0.3085899
 -0.25762707  0.06552108  0.06652083  0.32902285 -0.01971894 -0.34147772
 -0.2269929  -0.20053159  0.21384284  0.07554454  0.20983082  0.28526184
  0.03740267  0.25101995 -0.15968198  0.11486537 -0.2452286   0.61144525
 -0.06610027 -0.05972952 -0.16163482  0.08053882]
[-0.13144355  0.20180407 -0.15219033 -0.15515526  0.13432644  0.56074846
 -0.42546114  0.12820701  0.29532057  0.34623832 -0.21954317  0.31699947
 -0.38890946 -0.56337184 -0.4211649   0.06847678 -0.14654009  0.05881088
  0.3041156   0.20888704 -0.02788832 -0.00680904 -0.2073862  -0.39238462
 -0.37136132  0.33080366 -0.1590272  -0.17923199  0.2358091  -0.19605698
 -0.2712662   0.16233654 -0.12785792 -0.14222184 -0.13004619  0.0873551
  0.20441692  0.35338563  0.10548208 -0.01899282]
[ 0.00258717  0.3611251   0.07066193  0.02985436  0.21620032  0.6207209
  0.12139336 -0.08716813 -0.29624262  0.37332785 -0.2104819   0.01698145
 -0.14930902 -0.45015946 -0.44739148  0.11151776 -0.04131484  0.5738697
 -0.01340117 -0.26786578  0.10146149 -0.23529081 -0.48551825 -0.05677301
 -0.03084757  0.4279072   0.31604767  0.03422356 -0.5338172  -0.00084076
 -0.12273405  0.20535943  0.50890476  0.18671131  0.03963184  0.7013788
  0.07270971  0.02411993 -0.47868684  0.10647134]
[ 0.11024451 -0.08640736 -0.21479133  0.2667914   0.10791603 -0.76208806
  0.05036542  0.2196952  -0.11918346 -0.44019216 -0.06415207 -0.2698136
 -0.00351878  0.2823274   0.07189693 -0.0851959  -0.10796784 -0.0529224
 -0.17689444 -0.36361265  0.10652616  0.6310864   0.63104856  0.10868635
 -0.2990377   0.2498947   0.11640789 -0.05167693  0.18034156 -0.01201495
  0.06551524  0.16934402 -0.13700894  0.01006396 -0.13411026  0.49255383
  0.27651915 -0.3497235   0.24360913  0.23718745]
[ 0.07869656 -0.10080423 -0.14214776  0.18101823 -0.05942866  0.02393657
 -0.29933542  0.3379659   0.10274848 -0.1782284  -0.23624831 -0.18272617
 -0.31596857 -0.06708329  0.4008343   0.15590116  0.05099808 -0.21292187
 -0.32546508 -0.24383168  0.12364333  0.72124     0.3092386   0.20035757
 -0.15150274  0.3075764   0.08897477  0.10645443  0.06422997  0.1850559
 -0.11898809  0.26024154 -0.27170095 -0.33587676 -0.49486184  0.27722842
  0.1312671  -0.1992014   0.07174665  0.06771794]
[ 0.18222862  0.01760277 -0.37523356 -0.22354035 -0.09333669  0.10614485
 -0.26506838  0.04690808 -0.04115356  0.34612644  0.1792328   0.42805648
  0.4021526   0.35019067 -0.18390374  0.2544511   0.26908624 -0.1128618
  0.2956228   0.27457118 -0.1535288   0.05884403 -0.5492425  -0.2061837
 -0.11197387 -0.02666421 -0.03909599 -0.2308253  -0.12976034  0.06219991
  0.25870678  0.06443749 -0.2122263   0.3291524  -0.03355397 -0.06576366
  0.09008779  0.21484815 -0.19847633  0.40602726]
[-0.29148483  0.27390334  0.24010769 -0.1266489   0.24724707  0.02706127
 -0.24039318  0.27852708  0.01841511 -0.10315488 -0.3273352   0.0607014
  0.72065043 -0.02795231  0.14617415 -0.06220059  0.2576615   0.8346319
  0.15085573  0.31721327 -0.16716696 -0.31785235 -0.48369443 -0.0082116
  0.14922601  0.05858324  0.11863805  0.28080508 -0.26111147 -0.15738964
  0.15193217 -0.08669348  0.07507921  0.30409598  0.45283887  0.01324115
  0.28558877 -0.18224344  0.27644455 -0.23358525]
[-0.35053593 -0.03687168 -0.01936405  0.1872155  -0.12385011  0.4951071
  0.21452405  0.2899752  -0.15852444 -0.18307906  0.11884747 -0.34103897
 -0.25222105  0.30472898  0.42632714 -0.02389313  0.16511887  0.31436613
 -0.03202716 -0.2572601  -0.11134513  0.14684097  0.04429314 -0.11935277
  0.19740066  0.04383378  0.00515375 -0.2748557  -0.36555988  0.11520755
 -0.19000266 -0.2589158  -0.2077642  -0.29135936 -0.2369765   0.42512074
 -0.32693452 -0.11530212 -0.06952939  0.31767568]
[ 0.36695334 -0.07078069 -0.12779666 -0.348782   -0.21833044 -0.29440123
  0.3982035  -0.28907704  0.01969719 -0.5870546   0.0009305   0.18447416
  0.4211959  -0.35062662 -0.21076217 -0.09437352  0.1776302   0.25759524
 -0.24275544 -0.25652742  0.10935033 -0.47879902  0.70436645  0.56769294
  0.03443749 -0.17760822  0.37984735 -0.02333197 -0.01990073 -0.26961845
 -0.14592758  0.14862518 -0.2602818   0.39456373 -0.32095337 -0.75037825
  0.16843785  0.2513234   0.73414344 -0.7525497 ]
[-0.13260746  0.19178452 -0.10381537  0.02116199 -0.05135762  0.02796463
 -0.02202567  0.21228698  0.26776916 -0.08214346  0.02671976 -0.25600645
  0.1339263   0.45077097  0.10335284 -0.2631013  -0.1370682  -0.36836573
  0.15529542  0.4219854  -0.16972457  0.8677725  -0.01295814  0.03054909
  0.22437856  0.1971483  -0.01922232 -0.14469942  0.3015754   0.27453846
 -0.26751548  0.10848464 -0.39614466 -0.22891502  0.14189892  0.61485827
 -0.05557448  0.02681619 -0.26933816 -0.28282624]
[-0.7623772  -0.04620729  0.5185528  -0.18650702  0.27909818 -0.48450127
  0.12449009  0.2136174   0.09909014  0.17635046 -0.33649495 -0.06103738
 -0.11835598  0.3966173  -0.05312959  0.19499534  0.38257015  0.6866606
  0.47483662  0.18689242  0.10030176  0.03656711 -0.03410478  0.02925125
 -0.0166547  -0.06641893  0.26556736 -0.38564578 -0.5217231  -0.17812698
 -0.22717476 -0.10532129  0.6378522  -0.04532333  0.17056292  0.8064039
 -0.25687099  0.29514715 -0.51208526  0.47960138]
[ 0.21724512  0.17809787 -0.01073289  0.27718842 -0.24904956 -0.29476395
 -0.2974402   0.28061572  0.04106548  0.33421147  0.07412149  0.40130165
  0.01442093 -0.18926825 -0.17826833 -0.14109042 -0.28400695  0.03508801
  0.08287372 -0.08301441 -0.14922623  0.15978839 -0.26408184 -0.13073373
  0.16807003  0.18540154  0.35966736  0.19532001  0.0494457   0.12501204
 -0.1454683  -0.04777541 -0.01197494 -0.388001    0.05447698  0.24714148
 -0.08150432  0.23890063 -0.14702088  0.2943022 ]
[-0.18259709 -0.40090555  0.16048466  0.02170456  0.08144512  0.35185593
  0.17309809  0.04999202  0.12305114 -0.12360419  0.22654931  0.24905892
 -0.18386844 -0.44072053  0.22429106 -0.01085586  0.32369485 -0.00796377
 -0.02808018 -0.13330165  0.18101943 -0.27717888  0.22602504  0.22134037
 -0.17286341  0.07840603  0.20861287 -0.40877643 -0.06047457  0.00624051
 -0.10151689  0.05419131  0.22540697 -0.14852385 -0.14421646 -0.6923948
 -0.07056287 -0.36177585  0.1394011  -0.0376876 ]
[ 0.21436825  0.3192109  -0.02997396 -0.20583382 -0.15008269  0.20919865
  0.19410633 -0.34387845 -0.35302958 -0.20673837 -0.01752334 -0.23559374
  0.16857609  0.41456267  0.6422364   0.25581953  0.13620676 -0.5814534
 -0.04684258 -0.00545208 -0.3310981   0.16841644  0.18517098 -0.11863679
  0.06838249  0.02141621 -0.02047057  0.05792141  0.3308897  -0.01619176
  0.16565646  0.03579435 -0.43364275 -0.08452401 -0.11498532 -0.40769896
 -0.15671378 -0.01043502  0.11416856  0.09636533]
[-0.17811948  0.05230451  0.16254927  0.04252676 -0.11597838  0.33625546
  0.06085174  0.56761086 -0.19666776 -0.07293478  0.00397367 -0.14133827
 -0.31571263  0.15315524  0.436286    0.01129243  0.03155947 -0.1829953
  0.28176463  0.18977892 -0.13972233  0.43358767  0.3933302  -0.15035255
  0.08870725 -0.15983021 -0.28751442  0.1279653  -0.09248912  0.19354308
  0.17940526 -0.05161798 -0.13708286 -0.16119993  0.21969534  0.514099
 -0.00944208 -0.28703675  0.02099207  0.5045158 ]
[ 0.16174349 -0.21617933  0.04372547  0.11076126 -0.18782203  0.07174368
  0.19393675 -0.04087492  0.38033584  0.21577482 -0.18081653  0.4050446
 -0.23433468  0.14173324 -0.11193579 -0.24274501 -0.22546427 -0.5523176
 -0.18853176 -0.03853654 -0.06849162  0.11488187  0.27903923  0.38466606
  0.09965916  0.337853   -0.09149639  0.25687212 -0.15683436 -0.23947705
  0.0894628   0.14533992  0.2653375  -0.07280073  0.12955602 -0.17330495
  0.30007347  0.0680844  -0.22262423  0.02537549]
[ 0.13799353 -0.22902285 -0.02914075  0.00804019 -0.26721454 -0.742299
 -0.0051468   0.00342517  0.11281529  0.17808402  0.18304327 -0.06459066
 -0.21786241  0.4444012   0.21421482 -0.00406417  0.14207393  0.3983435
  0.1840429  -0.21763745 -0.2774214   0.40257743  0.12760359 -0.22082454
 -0.3281153  -0.25990343 -0.26599592  0.21478315  0.05005289 -0.12281206
  0.18152855  0.04045402 -0.1951876  -0.12441567 -0.1949996   0.32979625
 -0.05157109  0.17154038  0.15198745  0.14913379]
[ 0.11066873  0.2980221   0.1287006  -0.10275839  0.16631825 -0.20513579
 -0.2861811   0.25888002 -0.12360043 -0.41553855 -0.12371411  0.11372914
 -0.47168905  0.05619502  0.39134458  0.2552094  -0.01631977 -0.20776427
  0.20723541  0.25665742  0.20619977  0.70877224  0.08701163  0.12449928
 -0.38551518  0.23000592 -0.06123761  0.33988136  0.0049368   0.24261338
  0.03280268 -0.04364122 -0.14377588 -0.40663624  0.3194877   0.27812448
  0.08570253 -0.12395666  0.04729892  0.548682  ]
[ 0.17133681  0.31203038 -0.01958305  0.26286647 -0.1741402   0.11312867
  0.14495204  0.2264809   0.07663191 -0.08104188  0.09516356 -0.24243332
 -0.11439636 -0.02221397  0.28074282 -0.03405764 -0.06084002  0.11582664
 -0.00836236 -0.26436475  0.10137291  0.3016954   0.39208475 -0.09992247
 -0.24479009  0.41926247 -0.00232317 -0.24510238 -0.35381898 -0.12907098
 -0.01597846 -0.19263202  0.25568414 -0.23116037 -0.2564472   0.14674953
 -0.0145078  -0.23975961 -0.3432398   0.3043563 ]
[ 0.38807005 -0.29785118 -0.1543281  -0.18183546  0.05625968 -0.31222674
 -0.37952623 -0.34373832 -0.03431511  0.07059906 -0.22467116  0.08779545
  0.05742277  0.34944415 -0.3745361  -0.01574579 -0.19109887  0.24531354
 -0.05612005  0.15221466 -0.04189784  0.18320252 -0.05029927  0.33756506
  0.25801408 -0.33848342 -0.12297065 -0.0794246   0.26819935 -0.0407722
  0.0403628   0.37068754 -0.4606281   0.2653456  -0.17002541  0.0980132
 -0.09611476  0.391856    0.45351866  0.10472261]
[ 0.07413376 -0.06131002 -0.08522515 -0.05825338 -0.03268074 -0.07535487
 -0.10005627 -0.01769441 -0.09569029 -0.01449537  0.10260588  0.06017982
 -0.07416101  0.01438934  0.05605134 -0.08064535 -0.00446745  0.02312239
 -0.03005726 -0.04583902  0.07811616  0.19925945  0.09115721  0.06673171
 -0.10449301  0.08302715 -0.15933977  0.12864095  0.02468282  0.03468528
 -0.05131479  0.05806421 -0.03861377 -0.17601717 -0.03485247  0.1034383
  0.05225138 -0.08046659  0.05325643 -0.01697443]
layer 3 Activation
tanh
layer 4 Dense
40 20
[-0.39847726 -0.40178743 -0.01544741 -0.09417336 -0.05394295  0.2248444
  0.22549756  0.3086543   0.02121801 -0.18018349  0.04320236 -0.07976507
 -0.00080589 -0.17031622 -0.20765977 -0.02077698 -0.13240145  0.16462132
 -0.02456646  0.05219469]
[-0.01167374 -0.06291981  0.13977599 -0.22376898  0.23819278 -0.06963198
 -0.35914922  0.04956699 -0.15516593  0.11884846  0.17299739 -0.11699158
  0.16371183 -0.0733972   0.0745991  -0.05462314  0.06779023 -0.02025273
  0.39839178  0.01979765]
[ 3.0376405e-01  4.2615613e-01  1.9206959e-01  1.4599319e-01
  2.4916226e-02  2.0630877e-01  2.5045518e-02 -2.3639585e-01
 -1.6318306e-01 -2.9488688e-02  5.8889639e-02  1.3908865e-01
 -1.7877114e-01 -1.8740925e-01  1.3214919e-01  2.4699976e-01
 -3.4634370e-02  2.4670325e-01  1.7816934e-04 -2.7135956e-01]
[ 0.02503074  0.03498356  0.1054363  -0.19773468  0.26101846 -0.12525716
  0.07811555 -0.19469948 -0.23656607 -0.08270326  0.23404913  0.188655
  0.15703279  0.04689781 -0.3124614  -0.11969419 -0.02791588  0.02848687
  0.21333124  0.14538586]
[ 0.10679318 -0.0308837   0.17660333  0.02382207  0.1647629   0.02814174
 -0.2876347  -0.19530167 -0.06130751  0.07198672 -0.1116353   0.00701912
  0.09890573 -0.15722935  0.36211112 -0.12485442  0.32505026  0.08621524
 -0.118774    0.25754243]
[-0.19753008 -0.21017618 -0.23127319 -0.28661448  0.00339818 -0.02740547
 -0.13130687  0.02107803 -0.1578598   0.1814896  -0.21571174 -0.45977035
  0.13436228  0.06862114 -0.13888592  0.11201702  0.24189843 -0.1079646
  0.20162062  0.04583976]
[ 0.13273533  0.13706556 -0.01876854  0.4536051   0.1267886   0.04318576
  0.0555457  -0.30210263 -0.3223832  -0.02981877  0.00473783  0.16026984
  0.18027797 -0.10078578 -0.39802346  0.16247801 -0.18276706 -0.29733697
 -0.02161675  0.13612632]
[-0.0334383   0.4082001  -0.00260749 -0.27115253  0.02506505 -0.19820146
 -0.4279556  -0.12245042  0.05478293 -0.12970552  0.33426127 -0.0995121
 -0.28998268 -0.09837662 -0.01035036 -0.00124975  0.11395914  0.14569421
  0.18815069 -0.22328582]
[ 0.03321605 -0.09020331  0.14052795 -0.06811719  0.08566649 -0.03401705
  0.11398159 -0.00880579 -0.05593283 -0.0641075   0.04632469  0.14603172
 -0.08121666 -0.24266174  0.20433484  0.19525851 -0.08451717 -0.09086885
 -0.00260452  0.1896368 ]
[ 0.17470458  0.2989713   0.26675406 -0.3513177  -0.17529647  0.06768058
 -0.22813167  0.02038053  0.0795892   0.32648975 -0.2552125  -0.1563441
  0.25080755 -0.07102841  0.18730524 -0.153651    0.4481193  -0.11180186
 -0.28926885 -0.19741109]
[-0.04023028 -0.1253688  -0.06198179 -0.0044546  -0.13073398 -0.10076263
  0.08579393  0.01050539  0.15453841  0.11331882  0.12951773 -0.02650337
 -0.07245877 -0.15337504 -0.17097819  0.09885602  0.04453066 -0.2755848
 -0.08488793 -0.11856093]
[ 0.00432761 -0.02912271 -0.19893551 -0.15794243  0.12837112 -0.188659
  0.2257481  -0.2356153   0.03336405  0.05978177 -0.03829176  0.14473298
 -0.26716453  0.05050786  0.4653059  -0.1190844  -0.13683864 -0.18661024
  0.19317135  0.05429086]
[ 0.13166836  0.06441099  0.37326783 -0.06857977  0.3233553   0.10225639
  0.21190132  0.21814606 -0.02639511  0.06164668 -0.29616177 -0.12153829
 -0.13591647 -0.16288452  0.01448783  0.18470241 -0.09329104  0.08496939
 -0.31001887 -0.01176133]
[ 0.32841435 -0.16821411 -0.14598869  0.38725278 -0.18644492  0.05751637
 -0.21059941  0.36120757 -0.28102908  0.06081555 -0.08860609  0.32041943
  0.05460021 -0.07800434 -0.4029145  -0.21745881 -0.14425725 -0.17854811
  0.09984475 -0.17306386]
[-0.06635357 -0.28377932  0.11544777  0.06539752 -0.08740539 -0.12843697
 -0.03013274 -0.33686745  0.016404    0.15372367  0.4336772   0.14602771
 -0.09473789  0.14511757 -0.4001338  -0.17285807 -0.23473008  0.06090006
  0.01419948 -0.03122908]
[-0.03075132 -0.18814388 -0.0896008  -0.12447787 -0.06886273  0.08142845
  0.03239024  0.02026817 -0.2570442  -0.14149028  0.11230474 -0.19021237
  0.2823394   0.10590729  0.09547447  0.2808815   0.19815922 -0.03370099
 -0.08014256 -0.00735136]
[ 0.1386206   0.1546059   0.18662077  0.23761818  0.13116837 -0.01377334
 -0.2267989  -0.16537315 -0.06160114 -0.22709756 -0.15289125 -0.05343337
 -0.30720577 -0.12672023 -0.12807338 -0.08383572 -0.16105506 -0.15504178
 -0.15753601 -0.0403256 ]
[ 0.46411997 -0.0466801   0.02180648  0.32431147 -0.01430239  0.18892922
 -0.42619303 -0.11116721  0.05854775 -0.11554416 -0.28871083  0.1628302
 -0.33918628 -0.08153048  0.18083984  0.2237717   0.00896015  0.08000642
 -0.46426266 -0.05338844]
[-0.03552013  0.07899231  0.1125018  -0.01863393 -0.06524534  0.1017846
 -0.16427305  0.05077359 -0.33235842  0.3127076  -0.05938968 -0.05442744
  0.03721767 -0.01344694  0.29612702  0.1563375   0.23201062  0.10329125
 -0.06007708 -0.03706234]
[-0.03910709  0.14651483 -0.014595   -0.27278715 -0.05347278  0.2917237
 -0.41498017 -0.0040714  -0.15081017  0.05220195 -0.13709342 -0.171603
 -0.13933103 -0.05639452  0.4249994   0.06171242  0.12847517  0.01014046
  0.1144012   0.06809759]
[ 0.11151842 -0.16245    -0.05440056 -0.02846142  0.02160743  0.04465198
  0.03690412 -0.23127773 -0.13534454 -0.12064367  0.0209722   0.22042704
  0.10047953  0.18887112  0.09258912  0.01730073 -0.21632242  0.03749266
  0.1325199  -0.1672296 ]
[ 0.03155071 -0.00926137 -0.24139982  0.1855398   0.12439834 -0.13750817
 -0.17916523  0.26836184 -0.27248678 -0.03397762  0.30114734  0.45441008
  0.24982204  0.19772331 -0.39047703  0.29739502 -0.05622756  0.00307285
  0.32629377  0.08566688]
[-0.33876535  0.02892143  0.11016026  0.09187055  0.12970833  0.03365662
  0.09451111  0.2696014   0.2616114   0.17143126  0.11714377  0.32515022
  0.13951851 -0.1961825  -0.2702403  -0.25146022 -0.27788058  0.14546943
 -0.1199289   0.09443355]
[-0.05757529 -0.06354036  0.10085222  0.40566373  0.32455635 -0.08430741
  0.21408118  0.13497378  0.12826921  0.01289893 -0.10758431  0.2556488
 -0.15768668  0.09598283 -0.06575925 -0.09953976 -0.21688476  0.15887415
 -0.20299363  0.16811611]
[ 0.09380818 -0.17824765 -0.08617272 -0.05244946  0.30174693  0.04775428
  0.14010963  0.2978438   0.26457235  0.16687031 -0.20237102 -0.18611883
 -0.01831945 -0.18592018  0.22738573 -0.04284265 -0.08636823  0.25644338
 -0.24391007  0.02240641]
[-0.19105227 -0.06588283 -0.02813768 -0.04454896 -0.10824116  0.13162725
 -0.26338837 -0.03006926  0.12916139 -0.23156561  0.04103134  0.29441974
  0.4518773  -0.0866357  -0.06928776 -0.1107109   0.08812876  0.2305959
  0.12937066 -0.10233875]
[ 0.26201224 -0.12081227  0.01002003  0.21810633  0.1051787   0.00875484
  0.071444    0.03970344  0.17123854 -0.06915694  0.00936925  0.00313189
  0.14572445 -0.05408121  0.20913906 -0.0084745   0.03310551 -0.03520082
  0.13431653 -0.20859899]
[-0.09659802 -0.33043858  0.17413962  0.1098522  -0.10136748  0.08271036
 -0.18256459  0.22163431 -0.16017094  0.01107842 -0.08563584 -0.09806392
 -0.20223938  0.10098697 -0.3101738   0.18797609 -0.00245011  0.12423395
  0.20582162 -0.07417178]
[-0.15988337 -0.35748842  0.11828388 -0.07324848 -0.0109942   0.1168448
  0.18326017 -0.11320617  0.34153232  0.0055031  -0.30296826 -0.44171908
 -0.18855077 -0.09372786 -0.23145571 -0.15065442  0.17474131  0.00460323
  0.07680179  0.0181936 ]
[ 0.01581743  0.10517074  0.10993288 -0.1829386   0.03836178 -0.13786647
 -0.01350853 -0.16559671 -0.18993391  0.15565608  0.22258353  0.14214854
 -0.27667904 -0.09272898 -0.32516205 -0.23379324  0.10267968  0.04603129
  0.10139428  0.24232925]
[ 0.02350454  0.2587039  -0.0367293  -0.09274526  0.01450609  0.308156
  0.21936093 -0.15619001 -0.1206878  -0.15960665 -0.02800381 -0.14554179
 -0.1798537  -0.15955974 -0.160404    0.21732022  0.0274673   0.145307
 -0.17708495 -0.19843447]
[ 0.2524568  -0.21191804  0.20496702  0.1023627   0.08929851  0.10522887
  0.22843264 -0.10631388 -0.02433402 -0.32749003  0.12067059  0.1677949
 -0.22590472  0.24601054 -0.04277425 -0.08930012  0.17267972  0.13653487
  0.27953222  0.26278386]
[ 0.5462701   0.22482403 -0.2783645  -0.17400832 -0.27421048 -0.16803795
 -0.4523571  -0.00175072 -0.2929857   0.10289644 -0.25321218  0.30084336
  0.20819053  0.19654544 -0.01268273 -0.11030941 -0.11546219 -0.13166927
 -0.38517824 -0.19432151]
[ 0.12257553 -0.12575248 -0.04583978  0.19308612 -0.06796861 -0.45780164
  0.29035786 -0.14911222 -0.19517507 -0.14185695 -0.10791631 -0.2576931
 -0.09965075  0.02959604  0.43747574 -0.2454159   0.17796148  0.21708083
 -0.14125408  0.18893938]
[ 0.19670571  0.28132892 -0.08693064 -0.09369915 -0.1667184  -0.04919013
  0.01212775 -0.24207716 -0.24005371  0.19578326  0.10197534  0.1814143
 -0.34220216 -0.06458882  0.31681445 -0.12335448  0.18975703  0.06122417
 -0.13969254  0.13734654]
[ 0.41717377  0.1197957  -0.10032275 -0.1582784  -0.03861462 -0.01177011
 -0.39076635  0.07591252 -0.30489898  0.14491779  0.44841838  0.36129123
 -0.16224247 -0.02511151  0.23784855 -0.08418937 -0.25967655 -0.08104903
 -0.19685587 -0.00487589]
[-0.18992347 -0.41456124 -0.04272141 -0.12211739  0.07269044  0.010938
 -0.21645738 -0.05034912  0.29426038  0.13650931 -0.19766545  0.14906994
  0.18104345  0.01371571  0.1019484  -0.02268645 -0.11177925 -0.12959316
 -0.13752344  0.29057488]
[-0.05929939 -0.14403096  0.08951353  0.14972548  0.13380677 -0.02740941
  0.08547057  0.11405163 -0.1848913  -0.1008729  -0.15975177 -0.25280926
  0.12700117  0.13035652  0.3963772  -0.25058863  0.19545181  0.05763395
 -0.11422197 -0.00186751]
[-0.14966421  0.16120055 -0.27448717  0.10510915 -0.07997828 -0.03131695
  0.22721806  0.18105948  0.20509833 -0.0127216  -0.07537461 -0.17216402
 -0.5088239   0.21908416 -0.22892444 -0.11390571 -0.46396196 -0.14763185
  0.02176604 -0.04280263]
[ 0.2977059  -0.07790074  0.24698855  0.11567437  0.1004182   0.18467072
 -0.22833462 -0.23307875 -0.16773057  0.0815268   0.29508233  0.11604639
 -0.17114775 -0.20252797 -0.28501412  0.15702981  0.271457   -0.13323553
  0.03700454 -0.2597031 ]
[ 0.04246535 -0.12185439 -0.05443295  0.15715136  0.0209372   0.02946603
 -0.01066     0.03448912  0.0468755   0.00544303 -0.00080238  0.32287183
 -0.07269512  0.09204667 -0.09153432  0.02990569 -0.01033506  0.07867628
 -0.0196081  -0.0393448 ]
layer 5 Activation
tanh
layer 6 Dense
20 1
[0.14207461]
[0.01628077]
[0.02769051]
[0.13107751]
[0.01339788]
[-0.01426324]
[-0.17094173]
[-0.01561176]
[-0.04576436]
[-0.00146582]
[0.22836983]
[-0.11577686]
[0.04955751]
[-0.00975999]
[-0.10181753]
[0.00734241]
[-0.17144305]
[0.01144839]
[-0.1551663]
[-0.01978605]
[-0.03613528]
