layers 7
layer 0 Dense
24 20
[-1.211697    0.6948154   0.6038385   1.0231113  -0.39830086  0.7979792
  1.107411   -0.08366773 -2.1186504   1.3990921  -0.84132296  0.54848903
 -0.6822439   1.1437633  -0.5300803  -0.11796355 -0.6348229  -0.09945998
 -0.64067173  1.2463807 ]
[-1.2507094   0.58985794  0.0678275  -0.75137436 -0.13902968  0.61068577
  0.20801577 -0.6579997  -0.19935758 -0.08073027  0.55446666  0.49966097
 -0.42076173  0.4246016  -0.3994743   0.8542246  -0.36708686 -0.2955119
 -0.12422082  0.34789827]
[-1.2574476   0.69161916  0.57451266 -0.33986837  0.21357574  0.76812524
 -0.3503646  -0.39132828 -0.5965354   0.15716895  0.7740973   0.5361583
 -0.5242221   0.38294926 -0.3086314   0.7017792   0.12225675 -0.35559702
 -0.24228668 -0.02592761]
[-1.3302323   0.3300874   0.4091465   0.8213449  -0.43923107  0.2243104
  0.58895767 -0.16025247 -1.3443362   0.9255536  -0.04138774  0.16208413
 -0.4296937   1.039647   -0.6398235  -0.10673171 -0.72458404  0.07687759
 -0.86214787  0.9327953 ]
[ 0.21044885 -0.03300945 -0.03563419 -0.15423405 -0.29961187 -0.15580714
  0.13826582 -0.14997762 -1.1021198  -0.12154189 -0.07653329  0.20298074
  0.03429704  0.78413236  0.24813701  0.38768315 -0.61096054  0.7684172
  0.7759882   1.0074105 ]
[-0.34155884  0.3554572  -0.13847141  1.2180785   0.14772297 -0.23022667
 -0.27181888  0.46889797 -0.32893685  0.35302582 -1.0181159   0.09770209
  0.19183946  0.72597617  0.20548037 -0.5563723  -0.3126567  -0.02551447
 -0.28380352  0.04962002]
[-0.10011043 -0.28550535  0.21611086  0.735948   -0.17933656 -0.31048727
 -0.30203417  0.26491144 -0.5846608   0.31150728 -0.6562949  -0.07006183
  0.10450239  0.3072092   0.08472094 -0.59996784 -0.37463492 -0.23913687
  0.02389107  0.07837567]
[ 0.915429   -0.64576083 -0.99810433 -0.8247676   0.39067456 -0.67932826
 -0.2712427   0.18818521  1.977334   -0.7868346   0.80484885 -0.89617836
  0.6202371  -1.4265231   0.8636874   0.20147994  0.40059406 -0.15484023
  0.42816496 -0.96575296]
[ 3.2420510e-01 -6.5765458e-01  6.4354151e-02  1.3018661e-04
 -9.2310116e-02 -4.8812518e-01  2.4096929e-01  4.0016270e-01
 -3.1385040e-01 -2.5046250e-01 -3.4736717e-01 -4.6719369e-01
  3.1756589e-01  4.3400001e-02  1.8720406e-01  1.3594566e-02
  1.1633529e-01  5.2888536e-01  3.8562238e-01  1.3922220e-01]
[ 1.1798165   0.35272005  0.18676004 -1.9168115  -0.66240233  0.01087338
  2.2164872  -1.0294783  -0.38357767  0.65645266  3.263238    0.5083618
 -1.2979816  -0.2956345   0.17431876  3.14906     3.938969    1.4604306
 -0.36275226  1.1988658 ]
[-0.09426697 -0.3429902  -0.41431585  0.3568796   0.22976668  0.32198733
  0.5237503  -0.01788989 -0.32469496 -0.06125762 -0.7856072  -0.37655938
  0.7834952   0.49922052 -0.06255554 -0.8208305  -0.9147553   0.09116776
  0.56066227  0.09244712]
[ 0.69121945 -0.2165132  -0.8894458  -0.22620879  0.9690937  -0.48135448
  1.3517888  -0.37199244  2.2941668   0.24938072  1.487035   -0.24096468
  0.35386574 -1.0907111   0.3248007   0.07877772  1.0160058   0.15706101
  0.34371302 -0.9803538 ]
[ 0.27098885 -0.64524275 -0.32759854  0.03807247  0.14640221 -0.17389439
  0.66439253 -0.40915716 -0.29173443  0.06672643 -0.89083076 -0.3526005
 -0.0654578   0.04869532  0.21881457 -0.5613391  -0.42508414  0.18031816
  0.79021424 -0.06395338]
[-0.4113209   0.48898253 -0.22913836  0.5930708  -0.38920587  0.6414385
 -0.78622895 -0.16592011  0.34849143 -0.35279664 -0.67173743  0.20952037
  0.32026958 -0.42917106 -0.40806633 -0.6379773  -0.58840173 -0.5744452
 -0.8765382  -0.34186396]
[ 0.43169564  0.36920226  0.11592399 -0.0955679  -0.06669839 -1.9090457
 -2.0963304   3.639993   -0.50606203  0.28738204 -0.86439985  0.33795887
 -1.2175064  -0.3191346  -0.12691627  1.0143424   1.7146053  -0.379863
 -1.143561    1.0119809 ]
[-0.0235795   0.2605588  -0.49409664 -0.15679705  0.85195327  0.6677503
  1.4906172  -2.050046    2.779124    0.59918356  0.53091484 -0.50431156
  0.6045838  -1.3767096  -0.49127877 -0.9970488   0.3003644  -0.73704
  0.13900119 -1.7583458 ]
[ 0.96715456 -0.27378133 -0.3630439  -1.1044765   0.04198511 -0.10092853
 -0.09403648 -0.53810525  0.2751247  -1.0840598   0.46453452 -0.26350403
 -0.10703314 -0.3512524   0.31123292  0.21259914  0.21497175  0.6552602
  0.9045385  -0.24591768]
[ 0.17804195 -0.3477717  -0.5912513   0.56261295  0.18806338 -0.80043495
  0.1216904   0.53256017 -0.3678779   0.20390297 -0.9835357  -0.34621263
  0.3707426   0.4103238  -0.21408927 -0.7915925  -0.87238866  0.04043818
  0.4709897   0.10680136]
[ 0.08610889  0.4484595   0.48669273 -0.50298786 -0.00428604  0.5098779
  0.10737829 -0.56851584  0.60537404 -0.42528617  0.52349126 -0.05440271
 -0.12255082 -0.3587767   0.04003946  0.4629193   0.22428569 -0.7007769
 -0.244044   -0.20802724]
[ 1.2823576  -0.85416555 -0.70577997 -1.6625739   0.579977   -0.2838042
  0.5256009  -1.1139761   1.7698681  -1.5219473   1.1450839  -0.70756793
  0.837892   -1.136553    0.8450305   0.0427999   0.36341012  0.21636279
  0.850486   -1.1667804 ]
[ 0.4501778  -0.43819094 -0.23973103 -0.27482906  0.31336862 -0.04055383
  0.4099229   0.1845441  -0.38599    -0.36978388 -0.2915297  -0.35494173
  0.41020685  0.12666325  0.47289026  0.13336393  0.11356842  0.50542396
  0.81660116 -0.06725336]
[ 1.1712959e-01 -8.1165493e-01 -8.4937817e-01  2.6604563e-01
  4.2525530e-01 -9.6272838e-01 -4.4029906e-01  5.6266481e-01
 -8.7511271e-01  2.0909093e-02 -1.1548556e+00  1.3999760e-04
 -2.9863106e-02  4.1458514e-01  3.3456020e-02 -6.3356268e-01
 -5.7418722e-01 -3.9032999e-01  8.7908202e-01  1.7160304e-01]
[ 0.42578182 -0.05825093  0.1076264  -0.26898664 -0.07431468 -0.10565958
  0.24363908 -0.0806504  -1.2544676  -0.03759473 -1.3202752  -0.38098055
 -0.5758371   0.9203799  -0.17287083  0.14811651 -0.31810609  0.3534986
  0.77642125  0.9255298 ]
[ 0.8504031  -0.9325189  -0.00575213 -0.27123553  0.3463624  -0.24331895
 -0.06799623  0.20878021  0.26236185 -0.35226232  0.23321494 -0.40762058
  0.16771512 -0.20416081  0.41859812  0.20755436 -0.2654022   0.03621225
  0.80026954  0.17047171]
[-0.81049955  0.43042293  0.39398646  0.5584382  -0.41882265  0.3356056
  0.15664127 -0.01970469 -0.645623    0.6363216  -0.19555667  0.39221436
 -0.35217318  0.43495014 -0.5524722   0.00635633 -0.19991904 -0.2129173
 -0.48172894  0.37778795]
layer 1 Activation
tanh
layer 2 Dense
20 40
[ 1.2092054   0.35417792 -0.35054943 -0.11279774  1.5460559   0.8306114
  0.2819274  -0.31358963  0.5770281   0.12544338  0.13957256  0.05544333
  0.5692268   1.9275861  -0.68532366 -0.3614963  -0.64811194 -0.15984938
  1.054243   -1.2169908  -0.65589887  0.7072855  -0.52021986  0.2990447
  0.64440316 -0.37270534  1.0343775   0.11343479 -0.03180267 -0.700846
  0.50782096 -0.8460099   0.9320705  -0.06013637  1.0251777   0.75967604
 -0.7118329  -0.45167324  0.4827664   1.6967899 ]
[-1.72945753e-01  3.27419758e-01 -3.71211380e-01 -1.56667188e-01
 -3.10765505e-01 -9.31129396e-01  3.49142909e-01 -1.51971027e-01
 -2.03158453e-01 -6.49848580e-01  6.34099901e-01  6.33339942e-01
  5.05899012e-01  4.51150596e-01  5.64196110e-01  6.14627123e-01
  3.77307206e-01 -1.10764384e-01 -6.84607446e-01  1.57772511e-01
  3.45272273e-01 -2.62307554e-01  1.26309350e-01 -2.81844199e-01
 -6.09075427e-01  4.82716590e-01 -1.70497537e-01 -7.30695426e-01
 -1.28219545e-01  3.75701010e-01  2.05207542e-01  8.66611540e-01
 -2.78286129e-01  2.42444441e-01 -7.08339572e-01 -3.04412425e-01
 -3.87858337e-04  4.24961507e-01 -3.27760547e-01 -6.24801219e-01]
[-0.06869217 -0.07888924 -0.02618822 -0.36764872 -0.3963905  -0.57651037
  0.5884063   0.34380037 -0.3318843  -0.21846026  0.09327725  0.7965681
 -0.42914754  0.9425655   0.42742586  0.23952161  0.37216634  0.44113436
 -0.31959984  0.12843409  0.0337797  -0.1999632   0.64719874  0.19793777
 -0.43784472  0.45390722 -0.5782332  -0.05480093 -0.09360646  0.38323632
  0.24720043  0.33635113 -0.22627975 -0.6129106  -0.22953139 -0.19341174
  0.5825168  -0.04118539 -0.5581742  -0.14594382]
[-0.88692504 -0.28896904  0.42942291  0.0274748  -0.8406277  -0.73390776
 -0.18720174  1.747466   -0.19102967  0.00297598 -0.26507056 -0.23931138
 -0.4760231  -0.16800599  0.19613586 -0.28174824  0.3477046   0.12548591
 -0.6241569   0.68836313  0.3723993  -0.09449228  0.2299142   0.62894714
  0.13561459 -0.2647454  -0.6451849  -0.63477814 -0.6394146   0.37126887
 -0.8219927   0.587183   -0.05412758 -0.1425932   0.04267455 -0.2529135
  0.5326598  -0.49061587 -0.47149834 -1.0390992 ]
[-0.02402826 -0.15542509  0.02788091 -0.21779622  0.07556362  0.62029785
 -0.73793197 -0.1806387   0.66466916  0.31513077 -0.28138915 -0.17273235
 -0.04859774 -0.6171847  -0.23548044  0.2648153  -0.25662753  0.11792842
 -0.11407392  0.01564819  0.38795346 -0.05320645  0.18854654 -0.04015322
  0.30175528 -0.4440321   0.4100021   0.27538574 -0.34269068 -0.3574306
  0.6108405  -0.7005909   0.43634778  0.1930259   0.14234434  0.16001157
 -0.5106762  -0.09195928  0.35170314 -0.3261304 ]
[ 0.47548637  0.0647371   0.02221504 -0.02003936  0.03566561 -0.13818361
  0.10014874  0.20724642 -0.11509944 -0.25045714  0.06551926  0.2893695
 -0.6117426  -0.19265157  0.12289438  0.1736021  -0.02868243  0.14771345
  0.18997319  0.30010378  0.38841406  0.38552108 -0.10074303  0.17932764
 -0.18686572 -0.41555917 -0.02561729 -0.10975955 -0.8213165   0.4390689
  0.24067988  0.14679475 -0.33918977 -0.02091263 -0.11073276 -0.44588962
  0.18402447  0.01784177  0.5196655  -0.37413937]
[-0.7554653  -0.3280833   0.3042819   0.00366725  0.02049963 -0.14458756
  0.05007022  0.1393381  -0.24264537 -0.4251636   0.0501199  -0.1372789
 -0.22635885 -0.2218358   0.45603552  0.01600718  0.5191677  -0.15305811
  0.6323447  -0.19064696  0.49706233  0.11679637 -0.36304948  0.08119431
 -0.22405717 -0.3575167  -0.03757423 -0.43336216  0.22163318  0.12463171
  0.4543515   0.47207657  0.2589269   0.2838898  -0.21340853 -0.15844816
 -0.3737269  -0.20474552  0.02087733  0.18493785]
[ 0.18073046 -0.07320373  0.40657368  0.12997161 -0.06458244 -0.16421992
  0.19015947  0.21777266  0.06440693 -0.12436523  0.07465021  0.12438525
 -0.09868955 -0.50186545  0.26063365 -0.00637693  0.12468288 -0.00460632
 -0.17590111  0.00562069  0.53673553  0.26566812 -0.1372433   0.14593051
 -0.24650575 -0.21038218 -0.16528675 -0.19791403  0.01120837  0.32063457
  0.79034704  0.6905066  -0.15303545  0.08897468 -0.50248545 -0.09707784
 -0.6198819  -0.10998292  0.06155924 -0.2798797 ]
[-0.68776214  2.1059792  -1.6507527   1.1867515   0.83994806 -0.4276662
 -1.7578597   0.2600795   2.4033318  -0.32221124  1.2839067  -1.3064069
  1.4477725   0.9353534  -2.8491044  -0.4130994  -2.325069    0.0363365
 -0.06831224  0.8662055  -1.3422     -1.063753   -1.1586623  -1.752767
  0.84018     0.17004588  0.8958232   2.7214398   0.19980691 -3.6144886
 -2.4828582  -1.1231616   2.7659492   1.9780537   0.35312343  2.9257467
 -0.54554963  1.2370771  -1.5472667   1.3353993 ]
[-0.68491024 -1.0654317   0.45101878 -1.2806907  -0.7360569  -0.17259222
 -0.34905955  0.99793327 -0.14237972  0.29850358 -1.2819595  -0.6893479
 -0.68954396  0.04936925  0.37333938 -0.763193    0.24155383  0.06864973
 -0.19870166  0.52797174  0.34375194  0.40088406  0.2736661   0.6577336
  0.1545646   0.5764862  -0.6089939  -0.14955802 -0.93642974  0.27543044
 -0.63417566  0.56057453 -0.33262837 -0.42332703 -0.03877264 -0.13042767
  0.6061759  -0.62534314  0.47829893 -0.5395689 ]
[ 0.58796495  0.7499044  -1.0935087  -0.08058947  0.36371958 -0.5731781
  0.61364454  0.00535072  0.05453026 -1.1474967   0.6127965   0.49227607
  0.7647595   1.5117164  -0.78689015  0.23362468 -0.20121789  1.1440407
 -0.25754485 -0.7514876  -0.27293137 -0.06682624  0.33329502 -0.3346246
  0.51927716 -0.2400573   0.01917679  0.25324756  0.55088323 -0.6680213
  0.00764564 -0.12656428  1.0356013   0.02733926  0.33022714  0.6082499
 -0.48328096  0.40711904 -0.48501614  0.34888893]
[-0.24610561 -0.94962263  0.64328456 -0.7951399  -0.69269913 -0.08106428
 -0.02220678 -0.02398228  0.00750391  0.05690882 -0.76287484 -0.14448796
 -0.39964762  0.66628057  0.3387392  -0.6104964   0.1142183   0.69320637
 -0.3059031   0.5062476   0.07213642 -0.6206562   0.57091284  0.49170765
 -0.38635635  1.2143856  -0.6624014  -0.53354204 -0.5683943   0.07402898
  0.03361968  0.4630936  -0.08903714 -0.17146483 -0.13608824  0.08041783
  0.53941846 -0.24011852  0.0198375  -0.60025936]
[-0.9481211   0.17009431 -0.73072904  0.18644322 -0.37210667 -0.2047068
 -1.4819543   1.1366988   0.9192997   0.26552105  0.25989962  0.03848358
  0.19740508 -0.39671227  0.01330403  0.1243328  -0.53200376  0.5368531
 -0.3088288   0.40667385  0.00546298  0.7411312   0.45020428 -0.31324103
 -0.24889466  0.17313325 -0.17775615  0.27052426  0.28343198  0.13156115
 -0.1570422  -0.4080497   0.23800835  0.21780796 -0.18494916  0.6201344
  0.00877601  0.17462161  0.0849622  -0.30310065]
[-0.27551398 -0.6606016   0.6314588   0.3645028  -0.31287897 -0.0498115
 -0.14787342  0.58447826 -0.45333025  0.45739022 -1.3516458   0.2749247
 -0.59288204 -0.1295058   0.5021039  -0.78794354  0.5995998   0.04837474
  0.0515566  -0.5208635  -0.0047555   0.11771119 -0.01568592  1.1967955
 -0.03570706 -0.26217374 -0.39434257 -0.51023203 -0.24717642  0.4477605
  0.04124634  1.0030693  -0.76144433 -0.42855588  0.3651142  -0.09686361
  0.49394935 -0.5492396   1.3390664   0.0709141 ]
[ 0.41001993 -0.15782635 -0.5643398   0.24524191  1.0187998   0.8575366
  0.35427085 -0.12163236  0.14909124 -0.08782714 -0.20910402 -0.15786254
  0.21000399  0.3172179  -0.73044443 -0.38248852 -0.58802605 -0.248736
  0.76083606 -0.7930066  -0.39415365 -0.33719432 -0.6556167   0.29094777
  0.6639277  -0.52048504  0.36261594 -0.10178313  0.19226134 -0.61308485
 -0.10364471 -0.7016976   0.57351863  0.24158166  0.34589887  0.86058027
 -0.63348264  0.15946645  0.15348998  1.0438617 ]
[ 1.1193788  -0.34439963 -0.41336182  0.5676037   0.7206412   0.3461719
  0.39741772 -1.536998   -0.00971675 -0.8134353  -0.66342324 -0.09924602
 -0.47335157  0.9830566  -0.02588393  0.11572959  0.00684012  0.74611455
  0.41625303 -0.7355887  -0.5475619  -0.44780126 -0.06740591 -0.1729874
 -0.07828134  0.26959357  0.22142237  0.24416977  0.8473001   0.09660622
  0.56967586 -0.49123836  0.04585179  0.9453171   0.28644535  0.11266534
 -0.26800174 -0.43889    -0.1608916   0.522962  ]
[ 0.58292466  0.9830373  -0.6224763   0.14966533  0.24133344 -0.14885083
  0.25831974 -0.2904541   0.2191257  -0.81139636  0.21116868  0.6859905
  0.6485655   1.765352   -0.7865484   0.28667897 -0.47422507  1.1914756
 -0.67685884 -0.3324488  -0.40484405 -0.9802374   0.3091818  -0.51488906
  0.23242685  0.60993    -0.08541176  0.9016264   0.13812535 -1.1180369
 -0.21859165  0.08066134  0.80006164  0.77588767  0.49935955  1.1623547
  0.0449231   0.29099286 -0.446027    0.5131418 ]
[-0.551479   -0.6143891   0.42841947 -0.34585464 -0.3712348  -0.10325584
  0.12553088  0.23294519 -0.05045824  0.5802818  -1.0984163  -0.63712245
 -0.49262354  0.35881615 -0.29189962 -0.46544018 -0.03115386  0.12316258
  0.5688878   0.29335055 -0.04007254  0.06518514 -0.15079214  0.4495019
  0.15985073  0.21282378 -0.11421233  0.2694738   0.47425628 -0.30236587
 -0.44237378  0.26041022  0.5077476   0.41593915  0.2395927   0.14643596
  0.6508403  -0.42155474  0.17724094  0.21231914]
[ 0.6109882  -0.28871652  0.30876836 -0.11012735  0.7139185   0.2308652
 -0.10560844 -0.2113964   0.3094942   0.5100051  -0.58178484 -0.7265192
 -0.20010713 -0.07719334 -0.37030172 -0.48407957 -0.7354097  -0.5444952
  0.51963913 -0.26902    -0.49501383  0.16021107 -0.2775545   0.29174632
  0.3318729  -0.2543154   0.50192     0.88763165 -0.23045662 -0.21195146
 -0.33683312 -0.4912228   0.37845218  0.1937415   0.45900282  0.28066513
  0.32613763 -0.5435145   0.82194865  0.4582349 ]
[ 0.3681516  -0.0782869   0.7268103  -0.34742075  0.16243356 -0.14668107
  1.1148797   0.47176847 -0.7334572   0.24123792 -0.13647418  0.30570558
 -0.43710834  0.40307236  0.20769037 -0.43086198  0.2523825   0.27043548
  0.35409337 -0.28058088  0.23147072  0.26187363 -0.31754285  0.40128314
  0.2042761  -0.39602253  0.05125751 -0.43362772 -0.24286523 -0.23441102
 -0.01734194  0.9893902  -0.42303512 -0.39776087  0.10346794 -0.29037237
  0.43098223 -0.32153141  0.5582105   0.40297496]
[-0.07039003 -0.51060635  0.2611986  -0.46752068 -0.26878148 -0.21636707
  0.04127917  0.03088683  0.01254589  0.30921474 -0.45923284  0.01696908
 -0.31839544  0.396142    0.11521742  0.11005612  0.0059341   0.15348224
 -0.5145693   0.5042674  -0.34512043 -0.01499119  0.3698256   0.29754665
  0.06817405  0.21285298 -0.2006615   0.27126577 -0.35188746  0.21547875
 -0.3717558   0.4614013  -0.11756878 -0.37214363  0.03133343 -0.33798006
  0.31906092  0.15067933  0.58603007  0.03520185]
layer 3 Activation
tanh
layer 4 Dense
40 20
[-8.9057446e-02  6.1864615e-03 -5.4591417e-01  2.6607841e-01
 -2.0346034e-02 -3.4128506e-02 -1.3400578e-01  4.5012537e-02
  5.0505286e-01 -4.3300876e-01  3.8019376e-04 -2.2657563e-01
 -2.2731535e-01  5.0863779e-01  4.0687576e-01  3.6142996e-01
 -4.4689646e-01  1.4282426e-01  3.3211565e-01 -1.9783844e-01]
[-0.53490126 -0.41607168 -0.24271698 -0.2767798   1.4518824  -0.93947715
  0.623864   -0.7165102   0.96079624  0.10993651  0.429196   -0.30501154
 -0.18147106  0.22086173  0.5179276   0.37693647 -0.14732006 -0.28493965
 -1.0441383   0.9651113 ]
[ 0.32176742  0.32763368 -0.01416085  0.0154266  -0.8873925   1.0773324
 -0.5438181   0.3759809  -0.58430225 -0.37595123 -0.60302585  0.3853889
 -0.0935436   0.11431733 -0.13608353 -0.10726443 -0.30693755 -0.3481419
  1.040898   -0.63655245]
[-0.12145656 -0.64571625 -0.1935769  -0.70547146  1.4165963  -0.12176988
  0.44858202 -1.2044951   1.4153148  -0.19892246  0.91588897 -0.26567078
 -0.35584268  0.3285621   0.4983527   0.781239    0.11452466  0.03852111
 -1.5689461   0.5198286 ]
[-0.06169533  0.22821514 -0.99572533 -0.03499191  0.72660273 -0.38221252
 -0.02745125  0.14719419  0.46398258 -0.83565533 -0.05553737  0.06467737
  0.63693845  0.7553188   0.37164158  0.447387   -0.5717688   0.5597276
  0.46297324  0.23057295]
[ 0.00338935  0.47817636 -0.24937214  0.41627482  0.16011427 -0.07966764
 -0.22155625  0.32587934  0.1176311  -0.5494176  -0.09958694  0.10926262
  0.04448878  0.3859575   0.42175543 -0.23538171 -0.03879833  0.18402736
  0.57166225 -0.3015135 ]
[ 0.22587864  0.427874    0.03865537  0.03491895  0.26132023 -0.00090168
 -0.14860544  0.44570547  0.51768476  0.12644775 -0.5310756  -0.19666706
 -0.45876905 -0.10471298  0.33983338  0.10520243 -0.6375993   0.5388027
  0.5612068   0.31055585]
[-0.42829612 -0.2052765   0.3270695  -0.08104107 -0.3537137  -0.09346855
 -0.29025957 -0.27471027 -0.5707502   0.8658595   0.0217081   0.07467855
  0.51367056  0.20262037 -0.10108311 -0.77402693  0.00499828  0.3503424
 -0.22515863  0.04267037]
[-0.51563877 -0.5026488  -0.10126472 -0.5861877   0.5895905   0.09512257
  0.6098107  -0.01113309  0.19018352  0.30268538  0.7324077  -0.77778864
  0.8782607  -0.1685852   0.39735043  0.58827794  0.96022683 -0.4758749
 -0.2448317   0.02888397]
[-0.11279178  0.1703327  -0.04233462  0.45985416 -0.37923     0.6551141
 -0.69174397  0.6632279  -0.13478275 -0.6366447  -1.2071193   0.61147034
 -0.0218484   0.09409248 -0.23628165 -0.12452558 -0.12656993  0.24597168
  0.6103118  -0.48859206]
[ 0.33623967 -0.25787404  0.22222903  0.8408232   0.87248254 -0.903695
  0.08513118 -0.8030729   0.26556817 -0.01449888  0.09499259 -0.5467606
 -0.41680676  0.200661    0.26388177  0.49681124  0.30648342 -0.23895799
 -0.4525661   1.353985  ]
[ 5.3088784e-01  1.4057642e-01  1.0833071e-01  5.2215677e-01
 -6.5399593e-01 -2.3862541e-01 -3.5443757e-02 -3.1525105e-01
  4.4883838e-01  3.4513894e-01  8.2934031e-04  1.3973449e-01
 -3.1058353e-01 -1.5957120e-01  5.7261205e-01 -1.3490306e-01
 -8.9022654e-01 -7.1117961e-01  4.6244744e-02  2.8610793e-01]
[-0.47107044 -0.33256346 -0.27236107 -0.24573277  1.292707   -0.4357411
  0.49187326 -0.6351517   0.37910855  0.4980666   0.8246418  -0.8365572
 -0.13292068 -0.25326246  0.4737509   0.45790547  0.13956006 -0.22853461
 -1.1420429   1.1222864 ]
[ 0.2246739  -0.24422029 -0.8000859  -0.5125229  -0.52131665 -0.22589612
  0.7427042  -0.47192568  0.18043755 -0.29358876  0.9385547  -0.11863912
  1.0824617   0.36523387  0.4770736   0.38552928 -0.40072948  0.4615549
  0.29507712  0.5475073 ]
[ 1.3196977   1.2117454  -0.0269803   1.0007732  -0.42570722  0.1116823
 -0.940313    0.57412136 -0.69572306 -0.1721059  -0.3116439   1.2302859
 -1.1561575  -0.3245206   0.09441651 -1.3222928  -1.3056295  -0.59787166
  1.250428   -1.0549545 ]
[ 0.16218677  0.23221488  0.18069181  0.37270868  0.11417327 -0.46197045
  0.08352974  0.02675621  0.8204585  -0.41462123 -0.0712655  -0.08144395
 -0.14190952 -0.7591994   0.5323152   0.07758463 -0.00527796 -1.2627374
 -0.06339702  0.5224342 ]
[ 0.8497431   0.51743835  0.43132636  1.2263392   0.02765704  0.06383366
 -0.5869911   0.41922775 -0.15105683 -0.06972283 -0.40784684  1.1372045
 -1.0959575  -0.07120418 -0.32751223 -0.13920622 -1.0812957  -0.02086014
  0.3939552  -0.62584656]
[ 0.17423993  0.03484582  0.08347853 -0.25469565 -0.6246697  -0.15874071
  0.1849828   0.04359626 -0.72577125  0.6776529   0.11786623 -0.07468105
  0.09094454 -0.28176695 -0.33444786 -0.20271313 -0.02790481 -0.51321864
  0.12574096 -0.1009237 ]
[-0.11559892 -0.42585486 -0.70754975 -0.37080988 -0.02370378  0.30361375
 -0.3741717  -0.12533942  0.55698407 -0.8217219  -0.35995522  0.3264433
 -0.03376655  1.0490279   0.3093731   0.08899213 -0.16096985  0.41959867
  0.2477812   0.07184609]
[ 0.30425474  0.2023842   0.34349197  0.1071251  -0.4593319  -0.19282804
 -0.15672268 -0.01731271 -1.0150859  -0.15141985 -0.29309526  0.23278812
  0.33788064 -0.10819437 -0.1821741  -0.51759595  0.16982196 -0.13654886
  0.6393768  -0.3013902 ]
[ 0.15221724  0.22694679  0.36063233  0.26141456 -0.1831471   0.45196116
 -0.5755251   0.2582064  -0.40756503  0.9498415  -0.05371574  0.3235793
  0.0651097  -0.53076714 -0.46896005 -0.45441735 -0.1637418   0.42040792
  0.2761533   0.00333784]
[-0.52106893 -0.04636622 -0.36379567  0.15499888 -0.14675888  0.12921728
 -0.75445336  0.71937597  0.5167716   0.06799147 -0.11400385 -0.09010432
 -0.08725621  0.17309459  0.02350569 -0.08457373 -0.42519674  0.59911656
  0.00080417  0.06529827]
[ 0.17639518  0.04716731  0.59814847  0.16424808 -0.34066078 -0.3852947
  0.55474    -0.0099361  -0.9045759   1.3010246   0.3313616  -0.2680961
 -0.32745796 -0.89712274 -0.45136216 -0.7710383   0.08039063 -0.44356155
  0.02787539 -0.22586775]
[-0.4243293   0.4745531   0.16882291 -0.7050547   0.48734158  0.70062304
  0.06005224  0.33585638  0.4762519   0.58963233 -0.03342007  0.2799352
 -0.05703833 -0.56518215 -0.38628843 -0.8194006   0.33936217  0.02489815
  0.8354726  -0.32848167]
[-1.0375515  -0.0771338  -0.17962062  0.02684834  0.1786036   0.08989286
 -0.22496308  0.69948685 -0.19122203 -0.6723313  -0.3355251  -0.3519561
  0.35903737  0.2835555   0.13518383  0.00785334 -0.26936862  1.0953525
  0.657905   -0.5769369 ]
[ 0.38079157 -0.64400786  0.04715066 -0.32373932 -0.77900004 -0.48437673
  0.6547923  -0.33566108 -0.25013068  0.00903227 -0.3914966  -0.5201712
 -0.11936314 -0.31858885 -0.2631778  -0.02655017 -0.07827482  0.05690501
 -0.15592156 -0.24464384]
[ 0.02232732  0.03734053 -0.6919619   0.01366736  0.6661621  -0.23280682
  0.22322895  0.37732163  0.6942876  -0.3420131   0.02615236 -0.23184374
  0.01967931  1.1671315   0.7327212   0.54909694 -0.09266954  0.3542785
  0.23148896 -0.00483267]
[-0.63496214 -1.0567693  -0.11297591 -0.815147   -0.02625859 -0.15186302
  0.5167774  -0.12592909  0.5801284  -0.4438942   0.60602885 -0.8994028
  0.2639285  -0.10142849 -0.16404368  0.79224205  0.6550754  -0.02568999
 -0.3962521   0.6139948 ]
[-0.04261098 -0.45711082  0.41999283 -0.13060799  0.3907518  -0.13891709
  0.17338629 -0.52207375  0.57885444 -0.12914021  0.7494629  -0.9803323
 -0.10362637 -0.12020107  0.22986232  0.3933635   0.07783914 -0.3056714
 -0.29948258  0.38733962]
[ 1.4861338   1.0592284   0.37917224  1.864302   -0.43921822  0.09153469
 -1.6371545   0.45608073 -1.3934395   0.03391628 -1.0715575   1.4106547
 -2.5444987   0.31096718 -0.48478892 -1.1884781  -1.0428864  -1.3542675
  0.6157769  -1.0416404 ]
[ 0.2417522   0.32104036  0.42933282  0.17727783  0.25928253  0.0347857
 -0.148016    0.17102763  0.8239988   0.6217193  -0.1757673   0.21453321
 -0.6659031  -0.19927944  0.5798981  -0.07002727 -0.30032167 -0.6090225
  0.44623438  0.30195802]
[ 0.3085785  -0.14240044  0.6397234   0.1542717  -0.15701036  0.9055194
 -0.2456082   0.21510115 -0.38307473  0.7179529  -0.17913322  0.21772099
  0.35145858 -0.5438422  -0.6074542  -0.761965    0.07985643  0.6084351
  0.6355927  -0.24041344]
[-1.6080062  -1.0988289  -0.3595104  -1.4515665   0.7610022  -0.33250776
  1.3029482  -0.42563036  1.0072471   0.27941123  0.9307005  -0.85432476
  0.9372944   0.65187776  0.37452373  0.06831514  0.15990527  0.5668558
 -0.7466502   1.0117787 ]
[-0.36345804 -1.1396792  -0.45865896 -0.31910032  0.8080733   0.16780046
  0.16103548 -0.29984537 -0.47133273 -0.94587934  0.16010864 -1.0864226
  0.12763825  0.3688893  -0.01650668  0.28575787  0.76644313  1.0255051
  0.02239931  0.232834  ]
[-0.18238586  0.04425985 -0.7566939   0.02942225 -0.22539388  0.21498188
 -0.09310654  0.69320065  0.19390252 -0.45755723 -0.05478648 -0.10659681
  0.26229963  0.16771647  0.10940051  0.13366887 -0.00531     1.1414789
  0.71495676 -0.3659689 ]
[-1.0781554  -1.3191983  -0.5958072  -1.0163473   0.6917302  -0.5029123
  1.0355265  -0.39510116  0.06577674 -0.23098513  0.6531733  -1.0611506
  0.61075807  0.44732797  0.14579289  0.43486312  0.33434626  1.4445599
 -0.29015395  0.24547213]
[ 0.85804063 -0.27360827  0.02875781 -0.11394792 -1.2425579  -0.17915921
 -0.26037607  0.25651562 -0.6021747   0.03981743 -0.06282543 -0.1228181
  0.43059808 -0.4153582  -0.9019492  -0.4101014  -0.0063292   0.47883287
  0.57749826 -0.28559324]
[ 0.587121    0.0779667   0.3287775   0.67809576  0.51670665 -0.3097033
 -0.06973375 -0.58400387  0.29440966 -0.3079366   0.28037074 -0.3191062
  0.20088135 -0.53222686  0.44685128  0.11140075  0.18831596 -0.25657645
 -0.51481616  0.72905934]
[-0.14666544  1.0033624  -0.27217352 -0.15087464 -0.20393795  0.68683183
 -0.25494218  0.14483453 -0.37722614  0.03451689  0.1405751   0.38077906
 -0.04939372  0.04582759 -0.2764523  -0.03759658  0.13829398 -0.2549273
  0.25480285 -0.63905406]
[-0.18520243  0.41530606 -0.8002596   0.08102422  0.5339002  -0.3910235
 -0.22913566  0.2004055   0.6331319  -1.0750484   0.07089773  0.09793579
  0.7113509   0.78451157  0.8074828   0.42469588 -0.62332296  0.45707867
  0.4851701   0.13707851]
[ 1.0341365   0.25409722 -0.15909022  0.02204695 -1.0473022   0.12734325
 -0.03674203  0.12902227 -0.69916195 -0.10697425 -0.0976538   0.34065494
  0.18258344 -0.22856157  0.09645427 -0.0644318   0.23513632 -0.75961876
  0.5892844  -0.09596622]
layer 5 Activation
tanh
layer 6 Dense
20 1
[0.00909826]
[-0.39883283]
[0.25236803]
[-0.4743948]
[-0.24111733]
[-0.17351207]
[0.38268167]
[-0.26718107]
[-0.15224831]
[0.8465757]
[0.39187863]
[-0.38613033]
[0.83294946]
[-0.36322087]
[-0.25565308]
[-0.17815226]
[0.31337595]
[-0.21530476]
[-0.28660107]
[0.23610125]
[1.6254846]
