layers 7
layer 0 Dense
20 20
[ 0.00809956  0.32809725 -0.01210186 -0.29847202  0.06419855 -0.2115943
  0.13444228  0.2393073   0.3193047   0.08749183 -0.02108107  0.03709293
  0.26805872 -0.3765554   0.10774837  0.41494262  0.10596771 -0.17018142
  0.03711392  0.00563706]
[ 0.06413254 -0.28151873 -0.3934212   0.31413797 -0.49123403  0.00379507
 -0.0778564  -0.53165364 -0.13386971 -0.32293576  0.616987    0.44245672
 -0.0713812   0.2592938  -0.29431716 -0.38377464 -0.38101354 -0.19911464
  0.09499541  0.14706585]
[-0.23197381  0.29603732 -0.4223665  -0.22641385  0.1299123   0.10603271
 -0.15084241 -0.4665053   0.22923571  0.0382825   0.43707007  0.37901565
 -0.27243185 -0.39846534  0.07830199 -0.4427981   0.14873919  0.22834541
  0.15265359  0.5606866 ]
[-0.2620816  -0.01276915 -0.3712885   0.21934812  0.36932677 -0.00187471
 -0.2557149   0.07880762 -0.18344748 -0.14155902  0.2613952  -0.05035535
 -0.06686439  0.03849087  0.07362347 -0.2582668   0.1084212  -0.09833066
  0.14129317  0.2661593 ]
[-0.01502155  0.0089372  -0.16909999 -0.16233729  0.17970525  0.22815265
  0.13280827  0.05278516  0.00374125 -0.37437505 -0.39794165 -0.12915716
 -0.3939083   0.42676535  0.10964358 -0.33530954  0.05125534  0.11924624
 -0.33245572 -0.3583548 ]
[-0.16106774 -0.19632109 -0.11402707  0.16482595  0.4732428  -0.01185499
  0.4045013   0.24701138 -0.2012493   0.06656943 -0.39892855 -0.2837655
 -0.23173659 -0.125544   -0.00277663  0.15500681  0.22883311 -0.31823346
 -0.17989898  0.12385383]
[ 0.17139912  0.14171949 -0.1590335   0.12976217 -0.24193174  0.2127774
  0.28578433  0.73426926  0.14964715  0.24195406 -0.45557174 -0.6237173
  0.02049515  0.09140763 -0.08458596  0.31622893 -0.23214982 -0.18198173
  0.3046879  -0.17413507]
[ 0.40093455 -0.11772293  0.25015038 -0.41170016  0.06785879  0.02704301
 -0.37494457 -0.4260283  -0.07084957  0.13505296  0.41961855 -0.46890265
 -0.11630303  0.2328124   0.5290103  -0.06414998 -0.18402463 -0.07689377
  0.2705128  -0.02039485]
[-0.2479671   0.10808114 -0.23164126 -0.01637836 -0.00146418  0.12900761
 -0.24617568 -0.36735994 -0.14868926  0.40290517 -0.21986504 -0.55302566
  0.16001602 -0.23914064 -0.11497966  0.01354274  0.33235267  0.02405996
 -0.07929778  0.16673487]
[ 0.36156285 -0.3546441  -0.22042416  0.14517757 -0.24753945  0.06906275
 -0.24854419  0.2939481  -0.37109712  0.18887514 -0.16948241  0.14490354
  0.12424193  0.16432041  0.14066897 -0.06660978  0.29884273 -0.07819474
 -0.16987528 -0.4837398 ]
[-0.63187057 -0.48432282  0.1461723   0.21417028  0.13490829  0.06641158
 -0.072401   -0.09754699 -0.43563455 -0.3929772  -0.3491809   0.15159307
 -0.29257888  0.52564096 -0.6820148   0.22843668 -0.47658664 -0.21297598
 -0.20603134 -0.05127782]
[ 0.31674102 -0.04526486  0.74675626  0.1254364   0.06543989 -0.52827644
 -0.48261127 -0.670052    0.36633274 -0.1719712   0.0776566   0.48910937
  0.3736211   0.3660833  -0.05225431 -0.37716612 -0.27278388 -0.09753104
  0.1893905   0.16446817]
[-0.01138739 -0.16762191 -0.27511275  0.36475685 -0.06179583  0.03938103
  0.40444547  0.0067599  -0.02874976 -0.06429275  0.05651566 -0.01647587
 -0.2914445   0.39725748 -0.3673091   0.29399198 -0.29034802  0.15924329
  0.10401959 -0.57715714]
[ 0.17771512 -0.34856465 -0.18398671  0.1787788  -0.30864456 -0.00746482
 -0.15896708  0.2556791   0.00107609  0.00104206  0.10374827  0.24357389
  0.37980205  0.00963517  0.13998616  0.04145447  0.08119496  0.03143758
 -0.09675644 -0.3141967 ]
[-0.43075997 -0.08606718 -0.35897195  0.281199    0.46434897  0.35233787
  0.14688513  0.17896102  0.20362772 -0.65730256  0.22072107  0.4091278
 -0.30288476  0.3168119  -0.28647327  0.28025657 -0.84323424 -0.07591865
 -0.2695519  -0.39612845]
[ 0.2258929  -0.05952614  0.36078972  0.18496615  0.07055005  0.16203392
  0.5393963  -0.316284    0.29327863 -0.8086349   0.13173454  0.5503089
  0.28719175  0.27973467 -0.3998791  -0.50507414 -0.45909268  0.04246218
 -0.46208623 -0.21602774]
[-0.13787048  0.10999117  0.5611588   0.41114217 -0.28998142 -0.32468095
 -0.28808874  0.6271054   0.5140094   0.1532654   0.29399756  0.2654601
  0.33307984 -0.2673108  -0.06818203  0.16183712 -0.28947866 -0.3437516
  0.12172528  0.26864153]
[-0.9080423   0.07145581  1.1147048  -0.15919544  0.48189163 -0.17527924
 -0.55733013 -0.95822114  0.10565535 -0.05831803  0.50083137  0.02815933
  0.20142265 -0.5943852  -0.7613827   0.6016188  -0.69397503 -0.11831335
  0.6156351   0.61638093]
[ 0.54214287  0.43124905  0.31394875  0.15347517 -0.4028404   0.01234496
 -0.11142985 -0.7576494   0.14260659  0.6462678   0.27737242  0.08011369
  0.7845741  -1.4212339   0.832913   -0.44942355  0.368858   -0.2446115
  0.20935452  0.7462588 ]
[-0.5146424   0.4082359  -0.5611078  -0.47499606 -0.32550335  0.08329509
 -0.3468004   0.752014    0.17764331  0.48511365 -0.01162262 -1.4275893
  0.02133392 -0.63619953 -0.20156346  0.5073294   0.10704135  0.10749483
  0.3449305   0.39408022]
[-0.03020919  0.12743962 -0.09169415 -0.0452346   0.03055848 -0.06366272
  0.06002126 -0.03013505 -0.02681056  0.02701736 -0.05188294  0.04957819
 -0.10288373 -0.0621772  -0.22682412  0.05956187  0.01714043 -0.04933304
  0.10465423  0.20217863]
layer 1 Activation
tanh
layer 2 Dense
20 40
[-0.03538639 -0.17961997  0.09112114 -0.0848279   0.18079515 -0.09616721
 -0.42120627 -0.10209983 -0.16976313  0.0924499   0.09864355  0.36510524
  0.4470742  -0.05273492  0.22030213  0.04012172 -0.00785056  0.08227327
  0.43634105 -0.20870456 -0.20598286 -0.1497657   0.02274181  0.06638492
 -0.12018517  0.03784469 -0.26057926 -0.22015813  0.24295993 -0.43713167
 -0.42986494 -0.2499294  -0.11570738  0.21539615  0.33097848  0.18635297
  0.4421364   0.57263666  0.02564922 -0.23890793]
[-0.11801054  0.05310966 -0.09685285  0.02961554 -0.00511247  0.14331247
 -0.1737645   0.21612522 -0.0512386   0.07937057 -0.11907021 -0.24368776
  0.28695095  0.06992292  0.02823143  0.20644835  0.03913867 -0.07577963
 -0.01491438 -0.1742864   0.13087517  0.08636223  0.02928988  0.1354524
 -0.2979626  -0.24567975 -0.43822426 -0.19525504 -0.08024415  0.34306303
 -0.33472002 -0.22018386 -0.1940098   0.03074636  0.23818313  0.03479008
  0.12603945  0.32487023 -0.15703739 -0.1124744 ]
[ 0.05539024  0.1881755  -0.13426845  0.05793895  0.10780336 -0.04971145
 -0.12988994 -0.07750974 -0.06042336  0.10151375  0.00896397 -0.33467874
  0.16403481 -0.12313265  0.11788924  0.10121857 -0.19143535  0.18936619
 -0.05877104 -0.06050216 -0.5409969   0.0895648   0.18447058  0.01125522
 -0.16935816  0.14994755 -0.20042063 -0.20567     0.18426494  0.1112705
 -0.07266703 -0.05711994  0.23306195 -0.14986388 -0.17974663  0.40643528
  0.03999068 -0.11614943  0.0150208  -0.3476223 ]
[-0.01956555  0.12998585 -0.21260568 -0.16022228 -0.25108257  0.2801913
 -0.13325845 -0.06565163  0.0231442  -0.09962985  0.17872246  0.01937322
 -0.20393674 -0.12542419  0.34736758 -0.03480377  0.21928236  0.26855272
  0.1838585   0.10732339  0.05362686  0.11663041 -0.22516468 -0.26506713
  0.27811986  0.07157172 -0.00955382  0.17778641  0.013715    0.10387912
 -0.03223163 -0.025422    0.11606631 -0.02753615  0.02764609 -0.10425875
  0.26194188 -0.11314248  0.15164411  0.1544265 ]
[-0.07573441  0.19941948 -0.18063752 -0.04834021 -0.06590757 -0.15297806
  0.28978685 -0.22100902 -0.22705269 -0.21402095 -0.03036465  0.13584732
 -0.2936476  -0.11406647  0.17895435  0.00222893 -0.10744052  0.16575803
  0.00120527 -0.17898318 -0.16775715 -0.1981944  -0.02425169  0.09112571
 -0.16862841 -0.23372427  0.1971541  -0.08497707 -0.07581101  0.18274575
  0.10561477 -0.13666074  0.1489299  -0.17848593  0.01249614  0.00623299
 -0.07618182 -0.16025406  0.09495633 -0.21467109]
[-0.2418742   0.18121979  0.21731971 -0.22666962  0.08959917  0.10182148
  0.33087128 -0.42586777 -0.01110958 -0.02624828 -0.22427145  0.14532931
 -0.15195568 -0.31851006 -0.13058272 -0.24798587  0.15694205 -0.2234783
 -0.30673242 -0.18839583  0.12960486  0.03055201  0.27698457  0.11802018
  0.19066921 -0.26929063 -0.13427088  0.09762236  0.0219386   0.03574472
  0.48841375  0.05556999  0.00487481  0.07647105  0.13325053 -0.19282895
  0.15102474  0.12593459  0.27594987  0.11003067]
[-2.0650212e-01 -7.1331412e-02  2.1211512e-02 -1.4415789e-02
  7.6893434e-02 -1.6900498e-01 -1.3806006e-02 -2.6242679e-01
 -1.7243709e-01 -2.0077479e-01 -3.7538373e-01  3.1140602e-01
 -2.6517043e-01  5.5551242e-02  8.5115340e-03 -3.4608820e-01
  7.9640239e-02  1.1431365e-01  3.1928389e-04 -1.8229660e-01
  7.5332731e-02  1.7351995e-01 -7.8226790e-02 -2.0494510e-01
  3.0432722e-01 -4.7797229e-02 -7.7761136e-02  1.3484281e-01
 -1.4418960e-01  2.3733607e-01  3.1226704e-01 -1.0231600e-01
  2.9190136e-02 -1.8512964e-01  9.3278334e-02 -5.3352743e-01
  1.1327430e-01  9.0200916e-02  5.3809322e-02 -5.0507005e-02]
[-0.22922522 -0.2308216   0.10554644  0.21626586  0.22749765 -0.10415918
 -0.16890523  0.28425398  0.19190952 -0.12667744 -0.0460776  -0.33041102
 -0.22837347 -0.04222167  0.1825802  -0.43400213 -0.03191296  0.03498964
  0.13043915 -0.19922532  0.51909703 -0.2289968  -0.17136237 -0.19877683
  0.43953815 -0.1614658   0.27025357  0.08179203 -0.38715276 -0.21127246
  0.02804586  0.08315558 -0.25933382 -0.2972266   0.29995716 -0.56411004
  0.12815093 -0.28774428  0.05669034 -0.28218406]
[ 0.23890881  0.00785301 -0.151662   -0.19958995 -0.05190982  0.09817415
  0.04711698 -0.2277833   0.28010166  0.005816    0.05019428 -0.23308846
 -0.01683031  0.02429049  0.02745879  0.05824243  0.0393287  -0.00177498
 -0.04690025  0.18921779 -0.1720188  -0.13110048  0.18935296  0.03144915
 -0.14940208 -0.11525731 -0.3081015  -0.01813346  0.00728896 -0.03025752
 -0.20843324  0.18254495  0.24369664 -0.16778032  0.00835983  0.31095195
 -0.06400652  0.27197066 -0.00802907  0.01705499]
[-0.2862751  -0.00188157  0.09835265  0.00611464  0.00128369 -0.16123666
 -0.1879655   0.07998157 -0.02472537  0.09229154  0.1594327  -0.44540563
  0.12475312 -0.04570172 -0.04670564  0.1527157  -0.00359544 -0.1567383
  0.23326993 -0.10664128 -0.05019732 -0.24655528 -0.25913596 -0.15541074
  0.16952896  0.06182073 -0.1335078  -0.34244668  0.33215892 -0.13878092
 -0.31266508 -0.08808872  0.01077573  0.25787574  0.3253393   0.15274717
 -0.02167947  0.37309578  0.20931242  0.07399307]
[-0.185369    0.18893176 -0.03434326 -0.0160652   0.0255724   0.10659035
  0.2036567   0.15158002 -0.19371223 -0.16809808 -0.07433467 -0.29918316
 -0.1865038   0.257096    0.17939597  0.0083178  -0.03176846  0.10152952
  0.09646586  0.07766636  0.01005442  0.02024489  0.01264686  0.04934836
 -0.22764999  0.10018233 -0.04388799 -0.08510426 -0.13807116 -0.09438434
 -0.24116236 -0.15343472  0.2181528   0.19486117 -0.1180505   0.11732282
  0.11540523  0.03163513 -0.05452272  0.07821201]
[-0.04030349  0.05163907  0.01735738 -0.09290177  0.07213064  0.05544544
 -0.09106743 -0.08319658  0.12429461  0.08349349  0.24393111  0.3468446
  0.05282135 -0.11413574  0.22577004 -0.3365864   0.09185121  0.161716
 -0.34223217 -0.09688657 -0.36293393  0.07927458  0.00631072  0.14861874
 -0.20458433  0.02001511 -0.19778952 -0.10667416  0.00582351 -0.01591508
  0.22557105 -0.16672914 -0.30953658 -0.14418782  0.05125504 -0.39770103
  0.11014845  0.03349543 -0.21360426 -0.00900871]
[ 0.11137251 -0.2543374   0.22217293  0.28486833  0.04603703 -0.15942864
 -0.03162689  0.11899135 -0.07956003  0.06123157  0.03886092 -0.2887728
 -0.02691911  0.1920321   0.19464695  0.2781335  -0.10762485  0.22779268
  0.25392547 -0.04524983 -0.04656512  0.04549776 -0.38358033 -0.01223683
 -0.13428769 -0.04167182 -0.12556776 -0.2340775  -0.00603434 -0.05062821
 -0.4623867   0.13087693  0.05373718  0.26818824  0.20377201  0.09711025
 -0.00943882  0.1955499  -0.12795003 -0.22936326]
[ 0.44666198 -0.05762988 -0.06288753 -0.38067725 -0.13284306  0.25286907
  0.2657337  -0.14279504  0.26276332 -0.3347636  -0.13060267  0.5972364
 -0.02464645  0.20461002  0.38325405 -0.4554015   0.0411319  -0.02890536
 -0.2905872  -0.14435197  0.01303925 -0.22858964  0.17473175 -0.17863114
  0.21949156  0.2883636   0.273693    0.38620374 -0.02417542 -0.07773074
  0.13862833 -0.35368654 -0.26058286 -0.17609227 -0.5142091  -0.19715331
  0.150037    0.03629972 -0.06218757 -0.00948703]
[ 0.08764727 -0.02639318  0.35734782 -0.10595734  0.00638333  0.337987
  0.02884165 -0.19308226  0.05785563  0.17283753 -0.11765755 -0.25894207
  0.401946    0.12802032 -0.16747832 -0.16811784  0.16140729 -0.07991815
  0.17211883  0.15255897  0.04541313  0.12859738 -0.13258389  0.17808747
  0.09114118 -0.24454021 -0.24388297 -0.09389551  0.25014797 -0.3302215
 -0.4486918   0.06008142 -0.26977232  0.10218255  0.51299065  0.04830079
  0.12130154  0.19635172  0.35226226  0.0876594 ]
[ 0.01796128  0.15355821 -0.26576054  0.06853121 -0.04456829  0.07156456
 -0.10382089 -0.04333778  0.12965362  0.14051908 -0.22077015 -0.03111967
 -0.11902864 -0.19640662  0.07202851  0.32406288  0.09190024  0.01495449
 -0.04678052  0.11106731  0.16523227 -0.2568932   0.25521323 -0.12853307
 -0.07110871  0.10813719  0.03562889  0.2540621  -0.3732934   0.18464549
  0.13486761  0.04287357  0.13277516 -0.16193597  0.17755762 -0.01119891
 -0.09560805 -0.35352024 -0.1651851   0.29154167]
[ 0.08462892  0.02581067  0.19345126 -0.10584006 -0.01497229  0.18011732
 -0.2619785   0.33841208 -0.19150665 -0.19321151 -0.32120305 -0.16595341
  0.04687408  0.4098508  -0.07255864  0.15841748 -0.12847044 -0.21337254
  0.41288313  0.01441713  0.17019288 -0.06157791 -0.13472119 -0.03496597
  0.19709384 -0.09150559  0.34071785 -0.17717546  0.35651085  0.16305669
 -0.20500374 -0.29685473 -0.10750211  0.26212576  0.49172273  0.34141704
  0.07121754 -0.01637507  0.05723097 -0.09516357]
[-0.10199851  0.14309561  0.04625575  0.1355932   0.04642175 -0.22890063
 -0.05609427 -0.23308526 -0.13954316 -0.1332026  -0.23156573  0.00812938
  0.18241271  0.00283926 -0.11297752 -0.36193922  0.09404394  0.18223596
  0.10187487  0.23573792  0.14409658  0.36046252  0.1291238  -0.22688489
 -0.03786023  0.10044359  0.19680947  0.09794472  0.23662293 -0.19978023
 -0.06977717 -0.14153461  0.15513101 -0.1178385   0.05349715 -0.28884283
 -0.2487712   0.25537297 -0.11030918 -0.18379605]
[ 0.0574031   0.05836897 -0.13006788  0.06991771  0.11308783 -0.268854
  0.20614669  0.24254821 -0.0280372  -0.08554675 -0.03299162 -0.06451492
  0.11623485 -0.03841115  0.16012597  0.18216777 -0.0417613  -0.10554791
  0.07996582 -0.13079853 -0.14926325  0.21956101 -0.2591708  -0.07053322
  0.05137225 -0.06806329 -0.17353794 -0.03413406  0.08904848  0.17628802
 -0.11602209 -0.22370718  0.19125701 -0.03009531  0.06550474 -0.00195116
 -0.04138391 -0.1264795   0.06552803  0.0909435 ]
[-0.22611575 -0.197644   -0.14669     0.13748199  0.12959112  0.11201888
 -0.15437497  0.08719052  0.08096702  0.22084504  0.10788113 -0.24653728
  0.02403361 -0.00042131 -0.2440498   0.39422008  0.18668726  0.0760242
 -0.1904389  -0.12581404 -0.36536866 -0.10559218 -0.16358843  0.08375259
 -0.23576048 -0.06805228 -0.2617867  -0.06537721  0.21433833  0.14414617
 -0.14185138  0.22082478  0.0908389   0.11351609  0.20359024  0.32660136
  0.216853   -0.22204597  0.18031281  0.0524412 ]
[ 0.00569698 -0.15284976 -0.07891614 -0.07102484 -0.03368381 -0.00597637
  0.05350589 -0.00960274 -0.05331119  0.01598591  0.0905422  -0.08866426
  0.03630649  0.06296225 -0.06533711 -0.10235681 -0.0228688   0.02367831
 -0.12087766 -0.10647985 -0.01253024 -0.01198608 -0.09149384  0.10112251
  0.03908658  0.06399849  0.01719377 -0.06501953 -0.06684629  0.05419574
  0.0747187  -0.05896974 -0.00545865  0.0019559   0.10327924 -0.12422056
 -0.0126013  -0.04567787  0.03532812 -0.02434739]
layer 3 Activation
tanh
layer 4 Dense
40 20
[ 0.16690908 -0.3864144   0.0048141  -0.22927995 -0.00627479  0.1634494
  0.06106905 -0.07420111  0.25480613  0.08377402 -0.02865694 -0.1172497
 -0.11765096 -0.07239185  0.34765014 -0.21287647  0.22148691 -0.03291517
  0.14951493 -0.12895587]
[-0.17889956 -0.59252876 -0.04014273 -0.17326678  0.11144526 -0.05127457
  0.04632251 -0.17792435  0.11696268 -0.04530664 -0.04852223  0.17414352
  0.11149462 -0.05567482 -0.11951672  0.06290579 -0.18797192 -0.22530897
  0.166287   -0.10126372]
[-0.08219932  0.09500506 -0.05620902 -0.07704226  0.03215194  0.26273888
 -0.13294193  0.22829793 -0.322844   -0.24264884 -0.36968738 -0.12590732
 -0.2430273   0.0600234  -0.15957266 -0.22795711  0.0012335   0.18979195
  0.32703957 -0.18995963]
[-0.09372027  0.20110713 -0.08870299  0.16853467 -0.01140746 -0.24690464
  0.09810116 -0.19687472 -0.09276474 -0.15909591  0.44700825  0.02310833
 -0.30641457  0.16546722  0.11827137  0.09069737  0.20501636  0.14975779
  0.29073364  0.0088112 ]
[-0.14612849  0.18419152  0.22707672 -0.09957234 -0.02456936  0.19984037
  0.1631643  -0.09342756  0.05230325 -0.22978541 -0.01953021 -0.09200129
  0.17757301 -0.09949058 -0.03283431 -0.22839513 -0.04933044 -0.23289561
  0.1344827   0.13501859]
[ 0.21528025 -0.23079085 -0.06100741  0.06918602 -0.03039992  0.08788335
 -0.01257681 -0.02807689 -0.04071505 -0.22091162 -0.11430998 -0.31655517
 -0.2008948   0.14738083  0.02278264  0.0355744  -0.06564783  0.02187946
  0.14205898  0.05600862]
[-0.26587537  0.01406171 -0.09455731 -0.12325336 -0.14715607  0.01119967
 -0.09875559 -0.21103616  0.3051298   0.37488577 -0.18080005  0.1417464
 -0.06961814  0.09349614  0.286077    0.25569072  0.02473986 -0.06610829
  0.00125954 -0.11379243]
[ 0.1923228   0.2007707  -0.13322535 -0.11276633 -0.10397169 -0.1461966
  0.17743093 -0.2554336  -0.23047814 -0.15755111  0.30548552 -0.16226397
 -0.08951943 -0.1974588  -0.13773069 -0.03596225  0.04888641  0.04728945
  0.17138359 -0.1270657 ]
[ 0.03484897 -0.47579163  0.01257473 -0.28415948  0.0018608  -0.18912362
  0.00561109 -0.09875336  0.00504562  0.01046546  0.0253587   0.00866265
 -0.1901649   0.05723826  0.00603384  0.09363677  0.05265849  0.06455439
  0.08307873  0.14417294]
[ 0.28817657  0.07403928  0.04018746  0.18741383  0.17906605  0.0151605
  0.11777313 -0.25890684 -0.16521993 -0.08097661  0.2455494  -0.03078554
  0.01948585 -0.11835579  0.09412954  0.07999983  0.06175794 -0.21870215
  0.08523308  0.21972124]
[ 0.14129542 -0.0207548  -0.1273036   0.18821412  0.09931568  0.2549541
 -0.21832919 -0.25208977 -0.08631135  0.15256274 -0.03999682 -0.09989217
  0.22309093  0.1662484  -0.15153554  0.06951441 -0.03301427 -0.32660568
  0.11256095 -0.13772215]
[ 0.09689111 -0.2504463   0.07757755  0.3803321   0.18255405 -0.03739052
 -0.08528955 -0.0715243   0.03637907  0.00634001 -0.08963478 -0.49582994
  0.03774058 -0.19397518  0.21834919 -0.45667726 -0.1587165  -0.18123691
 -0.10443126 -0.02135604]
[ 0.01415688  0.22993428  0.13006264  0.1613742   0.19787543 -0.11198534
 -0.22299418 -0.22356153 -0.31357986  0.11593308 -0.04564054 -0.19075792
  0.11033779 -0.26274827 -0.24947307 -0.03246101 -0.21192858 -0.3435916
  0.23863867  0.23634362]
[-0.01572583  0.25319275  0.2368384  -0.05046742 -0.12484191  0.08445489
  0.27007303  0.08690418 -0.0679644   0.04873676  0.03853359  0.03716765
 -0.15324496  0.06289473  0.07634368 -0.23590784 -0.00370497  0.21421726
  0.127201   -0.12049378]
[ 0.11174459 -0.22436352  0.17783362 -0.23993875  0.04528284 -0.06457081
 -0.13892388  0.12046006  0.18625598  0.23957227 -0.15485805 -0.19628815
  0.18672061 -0.18783253 -0.10705281 -0.00914461  0.24193464  0.09695703
  0.17854695 -0.2818577 ]
[ 0.24382478  0.2479353  -0.2855583  -0.18825528  0.20716232  0.16739103
  0.15795946 -0.32321265  0.1462419   0.07285007  0.3911759   0.2886215
 -0.03724917 -0.15142056  0.04018663 -0.08231317 -0.21705626 -0.2667594
 -0.2528349  -0.12364812]
[ 0.05083489 -0.27479178 -0.21575016 -0.24543746 -0.01058427  0.21598345
  0.08369399  0.27199727  0.00757882 -0.07285564 -0.22774206 -0.08555073
 -0.10446008  0.14457119  0.23729457 -0.09751445  0.30141976  0.2249434
  0.1355383  -0.2449115 ]
[ 0.01028126  0.12855841 -0.00498733  0.31057656 -0.05035731 -0.04762421
  0.15625176 -0.08468204 -0.12836026  0.23339322 -0.03272015  0.00937407
 -0.09676705  0.06661121 -0.22254017  0.17979662  0.04105833  0.26064032
 -0.00881968 -0.19169903]
[-0.01589734 -0.09742808  0.02844419 -0.06262237  0.07483568  0.13243121
 -0.15168668  0.14194788 -0.25557464 -0.31457654 -0.02710868 -0.2335447
 -0.06132828 -0.22958025 -0.10528377 -0.25743786  0.07167421 -0.19208908
  0.08976241  0.07014578]
[-0.07966135  0.2945046  -0.09325626  0.11384152 -0.11897174  0.12421889
  0.27600285  0.03927078  0.0472604  -0.28576538 -0.08100806 -0.16370656
  0.13116324  0.19086522 -0.09213901  0.08515608 -0.17004313  0.01008736
 -0.19101986  0.10797418]
[-0.14274924  0.12718615  0.03032809  0.00431586 -0.18717179 -0.19301155
 -0.11893868  0.141496   -0.17843845  0.01050243 -0.15251745 -0.1900498
  0.3014717  -0.08359471  0.00847809  0.2523099  -0.22023357 -0.06345694
 -0.14368582 -0.09369507]
[-0.22191988 -0.02507325  0.09557803  0.0815128   0.14410451 -0.08440846
 -0.25975555  0.07121751  0.08365322 -0.12590893 -0.11113513  0.00369469
  0.09025519 -0.04201762  0.30402434  0.02190745  0.20229378 -0.25116897
 -0.18902546  0.10233498]
[-0.05925678 -0.41838455  0.2097463  -0.21958138  0.06805372 -0.09337696
  0.00608251  0.13220832  0.21080399 -0.22809078 -0.14684424 -0.18227956
  0.18059646  0.08038896  0.06959298  0.14387502  0.00713721  0.00638855
  0.02621305 -0.13225386]
[ 0.15147948  0.20287485 -0.13759542  0.23780687  0.06438486  0.19861795
 -0.05163508 -0.17109221 -0.10125861  0.18853635 -0.02670565 -0.02726404
  0.2571168  -0.03721229  0.01570603  0.11620137 -0.08424997 -0.26639178
 -0.27267182 -0.04170714]
[ 0.25206527  0.10483225 -0.03532755 -0.25927424 -0.176695    0.28874996
 -0.05683102  0.31565323 -0.08818586 -0.05405072 -0.3989253  -0.03814506
 -0.13838214  0.00619747 -0.20315862 -0.1702357  -0.10328614  0.02781922
 -0.17406297  0.16127613]
[-0.00490407 -0.23049974  0.18509313  0.16079079 -0.0166312   0.0701944
 -0.04435222 -0.1268725   0.11310801  0.14584273  0.11645483 -0.03633865
  0.19543259 -0.03191867 -0.0628159  -0.08370966  0.09370489  0.01617793
  0.07892762  0.19098741]
[ 0.02813597 -0.25119328 -0.09944406 -0.10401665 -0.3485498   0.17774154
 -0.10113039  0.23039015 -0.09433749  0.13333012 -0.3003906   0.22902444
  0.24933349 -0.24851446  0.1302798   0.0452909   0.2061942   0.26691842
  0.20854618 -0.16628884]
[-0.1480158  -0.07313951 -0.19815479  0.19477488 -0.20742488 -0.15531941
  0.2632312   0.1767338   0.3101435   0.02094528 -0.14018537 -0.18424186
 -0.15075876 -0.15973046 -0.0530691   0.24579513 -0.2861911   0.21288696
  0.19628267 -0.23291498]
[ 0.20090319 -0.03081272 -0.09871035 -0.21106733  0.26638484 -0.30295664
  0.14331175 -0.16672677 -0.17904747  0.05794246 -0.06524683  0.13603394
 -0.0039991  -0.05052565  0.25847483 -0.19035383  0.02346921  0.11016995
  0.27084428 -0.24178396]
[-0.33685943 -0.12903582 -0.14557898 -0.2383977  -0.12121068  0.08283334
  0.21677616 -0.18741748  0.15220523  0.08946478  0.33547917  0.15526427
 -0.31181434 -0.14950351 -0.25373098 -0.01773302 -0.24475397 -0.22513722
  0.08665188  0.02436763]
[ 0.05123699  0.1755705   0.09273271 -0.23998694 -0.03233112  0.16043709
  0.15339851  0.2231038   0.01762198  0.25384012 -0.34451112  0.2073093
 -0.09714722 -0.14517963 -0.1163067   0.4343646  -0.04119547  0.28135598
  0.25032586  0.2578244 ]
[-0.21739714  0.13233265  0.00183401  0.23241188 -0.02420007 -0.0538925
  0.15321186 -0.13319364 -0.10134062 -0.06352489  0.1958943  -0.0526552
  0.22419028 -0.05969988  0.00511126  0.2998925   0.05594678  0.20612101
 -0.22565055 -0.21783078]
[ 0.22645235 -0.03158198 -0.02911269  0.12349572  0.24235801 -0.1106372
  0.14910959 -0.13249744  0.19376011  0.22293013  0.38969052  0.1338143
 -0.05870761 -0.35614005  0.08416635  0.23855291 -0.2691182  -0.03471439
  0.17283018 -0.24735887]
[-0.17824832 -0.12801804  0.12804268  0.07277204  0.15545487 -0.08068251
 -0.03287501 -0.13544849 -0.13987482 -0.28784096 -0.12723473  0.19451393
  0.2519229  -0.21303414 -0.28763843 -0.28809765 -0.2762003  -0.36416247
 -0.01562949 -0.06393195]
[-0.01089081  0.22942421  0.17556474 -0.05646595 -0.33030033 -0.28326792
  0.06869244  0.09868667 -0.3601215  -0.35207513  0.00255523  0.10825406
 -0.11942542  0.04292977 -0.07344399 -0.19135651  0.18185791 -0.2827685
  0.30139548 -0.24308726]
[-0.26758298 -0.12758595  0.05543124 -0.25558597  0.19193262  0.13874435
 -0.30132824 -0.3359797   0.03129972  0.08550623  0.4954265   0.11594252
  0.07820352  0.04344204 -0.15108402 -0.40975848  0.133701   -0.2398374
 -0.00510363  0.2757111 ]
[-0.38449588 -0.33443856  0.04984316  0.00512729  0.02498019 -0.0901555
  0.07057195  0.13025673 -0.24327032  0.13584866  0.07308857 -0.05933293
 -0.01385836  0.03346599 -0.14307612 -0.23304051 -0.20483212  0.25383678
 -0.47164306 -0.18183646]
[ 0.15551703 -0.05346699 -0.19850244  0.09999353  0.13382843  0.04757376
 -0.02087281  0.1324384  -0.20156272  0.0322957  -0.34738436  0.0706808
  0.12143679 -0.12364563  0.10702168 -0.13107297  0.09469502  0.20023796
  0.13324168 -0.09093241]
[ 0.03300855 -0.11791956  0.11049403  0.32394567  0.03489464  0.03103458
  0.03822569 -0.07952078  0.08055294 -0.2095846   0.10179597 -0.20466834
  0.05106447 -0.07813855 -0.06591158  0.0244846   0.03009447 -0.3654495
 -0.2509505  -0.0020753 ]
[ 0.12970075 -0.16650003 -0.15606625 -0.37626642  0.00403255  0.20074528
 -0.07071542 -0.07515858  0.17601383  0.06006146  0.13258079  0.11741374
  0.3042879   0.03688454  0.07297103  0.06026498  0.21735798  0.10348282
  0.08658954  0.15000291]
[ 0.05244018  0.17715691  0.03459492  0.05580141 -0.11892771  0.00655697
 -0.04235468  0.08736097 -0.09003626 -0.01603193  0.01366007  0.06148459
 -0.03892564  0.02208928  0.00512588  0.05239401 -0.00019484 -0.05570987
 -0.00071763 -0.0302175 ]
layer 5 Activation
tanh
layer 6 Dense
20 1
[-0.01169416]
[-0.02179809]
[-0.00347192]
[-0.02793696]
[-0.11457808]
[0.01086998]
[0.0103935]
[0.19597341]
[-0.13443998]
[-0.05633081]
[0.16637425]
[0.08772058]
[0.02120377]
[-0.00017031]
[0.01098052]
[0.13622496]
[0.0009684]
[-0.09210527]
[0.0011764]
[0.01277592]
[-0.03366864]
