layers 7
layer 0 Dense
20 20
[-0.34579176  0.5743984  -0.02284481 -0.170447    0.08474334  0.06813058
  0.27893832 -0.16686356  0.17676927  0.16983412 -0.12545452 -0.07973734
 -0.35529414  0.17788257 -0.2762295  -0.10911122  0.30794936 -0.00411977
  0.3128944   0.04244956]
[ 0.02422727 -0.02003978  0.02369375  0.12504536  0.06244556 -0.31149083
  0.45599774  0.29353243  0.03013521  0.39669243 -0.16016202  0.7783974
  0.20859928  0.39480987 -0.1438989   0.2194551  -0.10458156  0.44884083
  0.5620238  -0.44061613]
[ 0.4735278  -0.0803706  -0.5201964   0.73302203 -0.07589526 -0.43902126
  0.40525946  0.4163011   0.22362109  0.4372495  -0.36472994  0.77882963
  0.1551662   0.04704561  0.39856863  0.35756442 -0.0201365  -0.08986699
  0.18036538 -0.66153055]
[-0.01506392  0.5853092  -0.26415733  0.08586535  0.04708138 -0.18801343
 -0.27212372  0.36993128 -0.41615617 -0.1056131   0.218114    0.3584704
  0.06865651 -0.00760681 -0.09837127  0.00563143  0.02359731  0.12417056
  0.13799956  0.40853828]
[ 0.11082793  0.0699648  -0.14577907  0.0268128  -0.08980276 -0.12044023
  0.17775184  0.23501092 -0.34544975 -0.36172983  0.31682956  0.0635219
 -0.21607748 -0.01815973 -0.13555214  0.15595567  0.4091412   0.07232382
 -0.09009666 -0.31927785]
[-0.4259422  -0.143158    0.5351263  -0.5588352   0.4770097   0.68316394
 -0.44909665 -0.41126868  0.01930796 -0.2934947   0.20163444 -0.37118298
 -0.32875    -0.37745714  0.07354637  0.12825829 -0.1704396  -0.60024375
 -0.31189442  0.42716712]
[-0.41465792  0.06925833 -0.03972926 -0.610397    0.4990103   0.11949752
 -0.15482804  0.06234982  0.00457212 -0.05635311  0.76190704 -0.14922075
 -0.15417047 -0.13933027 -0.10288908 -0.44974628 -0.06387417 -0.56423277
 -0.3510825   0.39421076]
[-0.06650798 -0.56232417  0.17630967  0.01490372 -0.37788904  0.64953595
 -0.05845954  0.12532641 -0.15172213 -0.31804624  0.0705495   0.10334422
  0.31609404 -0.23724599  0.04552097 -0.40831977 -0.37953046 -0.16978802
 -0.07615686 -0.2894008 ]
[ 4.4772857e-01  2.5402620e-01 -4.1601503e-01  6.8964079e-02
 -2.6685983e-02 -1.2757683e-01  1.3647019e-04 -2.1271710e-01
  1.5280327e-01  2.8979218e-01 -4.3008029e-01  2.0109218e-01
  3.3110389e-01 -1.6750459e-01  6.8200701e-01 -1.3251786e-02
  1.2430519e-01  1.9084823e-01 -9.5621005e-02 -1.2607397e-01]
[ 0.19303726  0.21813427 -0.17512989  0.01557636  0.20186315  0.1021833
  0.00907508  0.21462473 -0.0189922   0.23670012 -0.42816016 -0.11290641
  0.13739505  0.22466804  0.5087108   0.0350146  -0.04549174  0.00633904
  0.06963507  1.448818  ]
[-0.4168761  -0.12241585  0.09038881  0.7207253  -0.5769775  -0.71543217
  0.80961305  0.47001204  0.41025916  0.04647592  0.7541612   0.55394644
  0.63077337 -0.8159698   0.1885326   0.04499511  0.50029474 -0.2210712
 -0.4391421  -0.0590491 ]
[ 0.1016711   0.9566679  -0.03548938  0.16970675  0.7045679  -0.68575364
  0.6459085   0.07970598 -0.06605181 -0.16595152 -0.5349755  -0.04336761
  0.21715866  0.4104094   1.043053    0.34191683  0.5028937   0.21441495
 -0.14994188  0.29619113]
[-0.11952368 -0.5027079   0.27816764 -0.6445837   0.47466376 -0.9374785
  0.17027146 -0.176939   -0.20666963 -0.19832642  0.19518948 -0.4717195
 -0.7572048   0.02183962 -0.60939896  0.17878592  0.1526203  -0.6159245
 -0.8426126   0.16584101]
[ 0.02520747  0.04707247  0.37400496 -0.07845948  0.22660474 -0.08701425
  0.33380842  0.25615636  0.06503768  0.23439138  0.24123593 -0.02269086
 -0.1941231  -0.27186722  0.13836357  0.06894622 -0.14720432 -0.15224941
  0.5272058   0.13910258]
[-0.26332527  0.0561775  -0.27066368  0.1837857   0.10150325 -0.01796356
  0.18618977  0.05283    -0.23584996 -0.16164154  0.1848359   0.23197211
  0.06953699  0.27146107 -0.04778871  0.03497462 -0.04529828 -0.09340779
  0.2256114   0.02927864]
[ 0.43480542  0.37004796 -0.49719766  0.6547372   0.11093809  0.72898257
 -0.19171017  0.30056393  0.37254778  0.20720051 -0.5594795   0.43107548
  0.46904257  0.06442459  0.47755897  0.4177086  -0.12604414  0.5339765
  0.57312787 -0.49998397]
[-0.10669579  0.43608838  0.00386753  0.51975507 -0.29487503  0.42393693
 -0.41480574  0.31571808  0.10011856  0.6298308  -0.1457624   0.26009125
  0.555446    0.30051413  0.06175614  0.2670908   0.1760011   0.03072699
  0.2046061  -0.48610803]
[ 0.15792537 -0.13514219 -0.1217586  -0.18922059 -0.3976244  -0.6579241
  0.11931843 -0.49176332 -0.33385274  0.3576505  -0.15755549 -0.08030325
 -0.68166     0.10087149 -0.09712902 -0.5681442  -0.22757299 -0.45941493
 -0.09556154 -1.1414888 ]
[ 0.7868136   0.34013736  0.03974673 -0.8310285   0.25998816  0.69494873
 -0.8781848  -0.38435325 -0.3957544  -0.17591803 -0.3901725  -0.3345145
 -0.3404138   0.48967826 -0.36401     0.17039734 -0.82902896 -0.25502467
 -0.12892002  0.39061737]
[-0.81049544 -0.4321588   0.34395677 -0.7757826  -0.85811144  0.8008801
 -0.269475   -0.7427652   0.04675603 -0.9556703   0.9237138  -0.64078325
 -0.07454251 -0.9297661  -1.4144167  -1.0554711  -1.1712319  -0.21902473
 -0.81018084  0.6219954 ]
[-0.22758204  0.15575391 -0.02300627 -0.08994265  0.06059631  0.00942045
 -0.06333272  0.12512311 -0.15175538  0.09480657 -0.04350967  0.05379687
 -0.0097749   0.17665075 -0.04115022  0.12921397 -0.02343214  0.08303086
  0.38878268  0.13980035]
layer 1 Activation
tanh
layer 2 Dense
20 40
[ 0.03957181  0.26340017 -0.32451308 -0.27791956 -0.3207613   0.32437062
 -0.1697842   0.29892582 -0.04616732  0.27023193  0.32018954  0.31662944
 -0.10746167  0.05491671  0.22437383 -0.02483427 -0.27370048  0.05989184
  0.2102262  -0.2967543   0.06632321  0.37067753  0.3403894   0.21614538
  0.02859897  0.06186283 -0.22053763  0.00093672  0.00374319 -0.21845739
 -0.24517496 -0.22883657  0.09647891 -0.13964282 -0.23581724  0.14365225
  0.28327635  0.34069952 -0.27949342  0.03581207]
[-0.15120089  0.10014319 -0.24304135 -0.12324654  0.32918724 -0.02041517
 -0.24468297  0.2733984   0.04025125  0.00163578 -0.2862043   0.27468508
 -0.17570372 -0.2975879   0.0430758   0.12874569 -0.1930527   0.25648186
 -0.11328521 -0.17565736  0.16729663  0.07527423 -0.08273993  0.05915047
  0.05279315  0.22529206  0.1074324   0.06380969  0.20654574  0.15415674
 -0.2668199   0.19992629  0.13357402  0.05711848 -0.3958392   0.14420146
 -0.11834227  0.20545818 -0.17117135  0.22605875]
[-0.2435348   0.5200729  -0.10568725  0.10804944 -0.129983    0.297164
 -0.16071527 -0.2657347   0.17535517 -0.12201797 -0.13263062  0.15870038
  0.16689433  0.06285501  0.1190032  -0.05604404 -0.04332051 -0.4029094
 -0.26946014  0.0594954  -0.22286093 -0.10543486 -0.20377871 -0.26671687
 -0.25632662 -0.25005203  0.28162464 -0.2725079   0.08847549  0.11510101
 -0.02429909 -0.16172266  0.13655837  0.0751803  -0.01493619  0.03535253
 -0.09570867 -0.41359428  0.07047008  0.01754215]
[ 0.0351024  -0.34126633 -0.16046685 -0.01021172  0.41990873  0.17588288
 -0.11093203  0.2477278  -0.14679734 -0.23083697  0.1911018   0.26434833
 -0.14006396  0.47165364 -0.16185771 -0.11488114 -0.16092415  0.37397993
 -0.03520957  0.19017535 -0.01452248 -0.08076549 -0.14807443  0.24625325
  0.11165568  0.18938129  0.17225416  0.29368168 -0.14024052  0.42330405
 -0.2705552  -0.01476982  0.24893042  0.02040812  0.36980832  0.17359443
 -0.00550425  0.2487256  -0.20029067 -0.04758308]
[ 4.1762882e-01 -5.6439001e-02 -2.4508087e-01  1.3101472e-01
 -1.4039381e-01  2.4986376e-01 -3.1670234e-01 -1.9309521e-02
  1.4424217e-01  2.1007808e-01  3.3307227e-04  3.6505803e-02
  1.0127295e-02  4.4541216e-01  1.8708467e-01  2.4083556e-01
  1.9371392e-01  8.1664085e-02 -1.8352707e-01  1.4980583e-01
 -3.0729091e-02 -2.3695087e-01  2.6608956e-01  1.5218161e-01
  9.4753057e-02 -2.4098032e-03 -1.9475394e-01 -1.4796638e-01
  1.5056378e-01 -7.7392496e-02  1.8415436e-01  2.0973513e-01
  3.5875100e-01 -3.0711239e-02  5.7037514e-02 -2.5987092e-01
  2.7118385e-01 -9.4685271e-02 -7.4778169e-02  1.8994793e-01]
[ 7.6800376e-02  4.4375226e-01 -2.2954759e-01 -2.5420597e-01
 -5.8421391e-01  6.1996873e-02  9.4242476e-02 -1.5308042e-01
  2.2988753e-01 -2.4539703e-01 -4.6213117e-01  1.6384304e-04
  5.2379653e-02 -9.0457343e-02 -2.9823390e-01  5.9406649e-02
  2.3634242e-01 -2.9667163e-01  3.0406828e-03 -5.3970885e-02
  8.8923119e-02 -2.0175026e-01 -1.1409370e-01  4.3088868e-01
 -5.4062720e-02 -2.2711705e-01 -1.6954452e-01  1.7672703e-01
  5.4861657e-02 -1.1145832e-02 -1.6956393e-01 -3.3633795e-01
 -4.3874261e-01 -2.1619883e-01 -2.5723067e-01  4.1295442e-01
 -1.6814476e-01  6.7303553e-02  3.5893318e-01  3.0727205e-01]
[-0.10533436 -0.12163989  0.05274347 -0.2509297   0.14417286 -0.34649602
  0.26253778 -0.03911936  0.1995601   0.01416057  0.14267483 -0.07509177
  0.19665064  0.5362966   0.01773364 -0.1480138  -0.22913226  0.12119852
 -0.08847521  0.14616981 -0.20160371  0.21773198 -0.27114436 -0.481922
 -0.13285796  0.11554617 -0.15858759 -0.01491324  0.23098978  0.01173587
  0.29473403  0.23336622  0.19480315 -0.02943241  0.19807002 -0.35180816
  0.09502703  0.16247275  0.02202157 -0.29418832]
[-0.18495138 -0.4860515   0.23748556 -0.13396423 -0.1744811  -0.42881098
  0.02809858 -0.35850498  0.18240887  0.22741447 -0.13893595 -0.22868097
  0.03607444  0.49157065 -0.10105513  0.02267513  0.20809612  0.20639415
 -0.19303057  0.334756    0.2579302   0.07926374 -0.1322369   0.11583055
  0.24316409  0.32150707 -0.01582213  0.12052253 -0.03705831  0.6271024
 -0.23496787 -0.23579822  0.02394319 -0.2912739  -0.02501343 -0.38554662
  0.44092244  0.04632355 -0.18777034 -0.35322404]
[-0.04253466  0.14842498  0.18186504 -0.09670796 -0.14106722  0.04028657
  0.3061873   0.22494896  0.00260613  0.08557151 -0.22711226  0.01472032
  0.27594694  0.29991361 -0.19525822 -0.09066561 -0.2169252   0.0595362
 -0.06593437  0.03578781  0.11257467  0.2679106  -0.199163   -0.05902158
 -0.04825656  0.00244401  0.0558838   0.14280838 -0.10036973 -0.12094258
  0.00960207 -0.11938996  0.30615705 -0.05691655  0.2285135  -0.00121597
  0.17640975  0.10454238  0.12856145  0.22838284]
[-1.23930804e-01  2.11737096e-01  1.39805079e-01 -2.93847501e-01
 -1.45167252e-02 -3.02808255e-01  8.61887820e-05  1.27185911e-01
 -3.72209966e-01 -1.63442582e-01  5.05419850e-01 -2.02011123e-01
  5.92519455e-02 -3.93021628e-02 -1.38939083e-01 -3.35442908e-02
  4.59706783e-02  3.41869354e-01  7.37446398e-02  1.62753224e-01
  4.10598367e-01 -4.80129495e-02 -3.10224220e-02 -1.14343584e-01
  1.77520633e-01  2.83577025e-01  1.40100285e-01 -5.29819820e-03
  1.35888413e-01 -1.15956040e-02 -1.74709499e-01 -2.39077017e-01
  1.47043005e-01  1.08892009e-01  7.84794241e-02 -7.77022764e-02
  1.11785762e-01  2.71578074e-01  3.90597805e-02  1.25510454e-01]
[-0.10847782 -0.08688731  0.33638895  0.10152475 -0.14300707  0.01550459
  0.05805722  0.0074514   0.17246875 -0.453163   -0.49161267 -0.12535079
  0.26524025  0.18508294 -0.26888797  0.0027335   0.00992315 -0.34348685
  0.16360202  0.18464737 -0.3600052  -0.01480824 -0.13167639 -0.4077003
  0.12701997  0.05527067  0.15586229  0.18540631  0.050673    0.36392844
 -0.13963892  0.02876762 -0.07542163 -0.01911717  0.14768437  0.15694751
 -0.187738   -0.21625368 -0.22936758  0.16497508]
[ 0.0101547  -0.3776639   0.10388565  0.194446    0.3031709  -0.28947908
 -0.20159923  0.2007478  -0.0126895  -0.22553128  0.18445627 -0.09985592
  0.24839741  0.39326534  0.12283611 -0.19004864  0.06214915  0.11014467
  0.0019308  -0.01455802  0.28704515 -0.18514791  0.09879559 -0.19614583
 -0.00263487  0.09155811  0.15963851  0.1179719  -0.2016337   0.16422221
  0.24010552 -0.21181957  0.00369454 -0.31791726  0.07496389  0.14763102
  0.01604691  0.19087385 -0.16169427  0.05807792]
[-0.18908519 -0.0897401  -0.26952773  0.17003894 -0.0386323   0.15092249
  0.44405082  0.24309154 -0.3897849  -0.3052021  -0.16132507  0.29447347
  0.34168366  0.29147598 -0.4309277   0.01603273 -0.15485807  0.14693962
 -0.35682565  0.19840701 -0.09358152  0.06645022 -0.17951083  0.11599162
 -0.2865521   0.1882668  -0.07615483 -0.060697    0.09611525  0.12462406
 -0.28721833  0.16560583  0.04356554  0.10274988  0.01648083  0.17063363
  0.14146328 -0.04222136 -0.01441758  0.15833467]
[ 0.01024314 -0.10488754 -0.16809715  0.12292779  0.11855593 -0.3285481
 -0.3808178  -0.00180757  0.18050788  0.21840125  0.299827    0.01294828
 -0.161757   -0.1577426  -0.02717726 -0.02437321  0.2691893   0.3193588
  0.23243359 -0.23082264  0.02491468 -0.09575821  0.56533116  0.5600377
  0.15016153  0.35414094 -0.22836629 -0.27484578 -0.01631477 -0.30823693
  0.12263885  0.06779485  0.20524411 -0.15764463 -0.05181643  0.02436776
 -0.14386731  0.2754135   0.13251665 -0.0041074 ]
[ 0.18402143 -0.24449445 -0.29003727  0.01614965 -0.12244908 -0.00753986
 -0.17616616  0.12015548 -0.23142205 -0.05540806  0.15348421  0.16557944
  0.06577786  0.40881544  0.07776226  0.32159588 -0.14717497  0.44073355
 -0.37325102  0.3880149   0.13452174  0.14029424 -0.05236775 -0.09731612
 -0.42272976  0.25467277  0.04331312  0.07467732  0.04808702  0.20757209
  0.03825021  0.2877921   0.26651782 -0.02389432 -0.04090919 -0.26848906
  0.33343333  0.6149553   0.07475772  0.08388273]
[-7.0270546e-02  1.0808281e-01  2.6217830e-01  7.2797276e-03
 -2.6728981e-04  1.4582476e-01 -3.8081813e-01  2.5126034e-02
 -6.4432688e-02 -1.2579112e-01 -1.3625468e-02  8.8958830e-02
 -1.3433006e-01 -1.3482362e-01 -7.2253749e-02 -1.2989615e-01
 -1.3417774e-01  2.7227223e-01 -9.6277714e-02 -6.8875223e-02
  3.3469677e-01  2.8253549e-01  1.8667065e-01 -1.5352835e-01
  1.9415621e-01  3.2529908e-01 -6.1124645e-02  2.4112643e-01
 -2.6316956e-01  2.1164632e-01  6.4541519e-02  2.8830001e-01
  2.8681341e-01  1.1728252e-01 -1.4591876e-01 -2.4800894e-01
  1.3730870e-01  1.9842751e-01 -1.7123397e-01  2.2091676e-01]
[ 0.08686069 -0.429453   -0.24245384  0.11184382  0.23523358 -0.06746769
 -0.08723462 -0.07927466 -0.03770705  0.2289423   0.21462958 -0.1064763
  0.11522314  0.2800044  -0.14150198  0.1241003  -0.2536305   0.16527465
  0.08714838  0.3895915   0.21167305 -0.15027492  0.02260394 -0.19715321
 -0.05570197  0.2605718  -0.02492827  0.05055316 -0.11685303  0.11571793
  0.2705687   0.26483738  0.18472019 -0.13247468  0.08062185 -0.09577875
  0.20494409  0.01820493 -0.01006639 -0.3174109 ]
[ 0.2194434  -0.40546504  0.06471635  0.07483267 -0.16751492 -0.056379
 -0.09695705  0.198769    0.19726111  0.0663795  -0.03993776  0.07914093
  0.0042357   0.1959595  -0.18583433 -0.05316027  0.23741831  0.02528239
 -0.29248676  0.13122404  0.09839828 -0.17853856  0.36636162  0.1141438
 -0.23086722  0.13642867 -0.08856125  0.04941357  0.04409333  0.02437324
 -0.0296549   0.08678563  0.29078132  0.00936241  0.13769823 -0.07354381
 -0.1876637  -0.1330239  -0.09854664 -0.0569699 ]
[ 0.33217394  0.10203698 -0.06912863  0.23867811  0.07093479 -0.48701212
  0.19917275  0.2792522  -0.2414922   0.11207166 -0.29280663  0.23741682
 -0.03756852  0.3007682   0.10235905 -0.00701969  0.29207435 -0.10057718
  0.13026316 -0.08083639  0.5046159  -0.05519261  0.01602201  0.2811175
 -0.0421405   0.3578702  -0.03728293  0.09716745 -0.06419285  0.18645868
 -0.28754243 -0.11973723  0.09225854  0.06054803  0.1922547   0.14345357
  0.15434396  0.02156805  0.00690643  0.09121387]
[ 0.1033887  -0.00153493  0.11443694  0.11052489 -0.27520484  0.27292517
 -0.5675551   0.24265903  0.13583747  0.18696044  0.25220498  0.27388516
  0.16615677 -0.00480732 -0.21219562  0.02059395  0.14559776  0.00456773
 -0.00071123 -0.06793779 -0.15771155  0.163387    0.39632818 -0.3382862
  0.45915174 -0.45830035  0.04199799 -0.2807284  -0.15850691 -0.40829983
 -0.22298385 -0.12742615  0.2093528   0.21254519  0.4151417  -0.47502947
  0.1089174  -0.70425063  0.09609193 -0.09415706]
[-0.0176774  -0.08794789 -0.11567697  0.10020463  0.1822263  -0.15292448
 -0.05664845  0.02349083 -0.18549111  0.11465701  0.12059438  0.01155858
 -0.04048232  0.05025463  0.03969621  0.08232407  0.00198186  0.04176061
  0.08445834  0.07164285  0.01212908 -0.09864755  0.04101085 -0.02385993
  0.10539786  0.00465407 -0.13300009 -0.01586725  0.01495148  0.1326085
  0.04763194  0.0052299  -0.03385694 -0.0048126   0.00540041  0.03403732
  0.00211291 -0.05252562  0.00816508  0.04455213]
layer 3 Activation
tanh
layer 4 Dense
40 20
[-0.0218471   0.06621373 -0.20872144  0.07801808 -0.29687393  0.00446749
 -0.21543925 -0.15277138  0.13566414 -0.00156861  0.06275918  0.05071156
  0.16655543  0.13438149 -0.0076638  -0.12018542 -0.22448938 -0.20825276
  0.38596514 -0.14999309]
[-0.04345481  0.03999306 -0.14020811  0.06307101 -0.12445779 -0.26980492
  0.28623524 -0.09666654 -0.02553187  0.1040041  -0.09691004  0.26427507
 -0.183062   -0.17385995  0.20347224  0.2246257   0.41568035  0.25993177
  0.1590214   0.0909691 ]
[ 0.23933598 -0.03501417 -0.13079773  0.12081671 -0.04698577 -0.12606812
  0.16128513 -0.2026522   0.22138059 -0.33634287 -0.12257688  0.43388125
  0.02343329  0.3589592   0.00735813  0.3657069   0.08195072  0.3461298
 -0.10333311  0.16183247]
[ 0.27185628  0.00955789  0.15539141 -0.17825267  0.23750366  0.06304193
 -0.13836113 -0.27462593  0.11530853 -0.16586562  0.29173568 -0.02857857
  0.00677293  0.27568397  0.18071254 -0.33083066 -0.32123718  0.01256407
  0.17095321 -0.12269389]
[ 0.08350734 -0.27885547 -0.10901471 -0.0823433   0.30512005  0.2177664
  0.08378626 -0.08045523  0.00400299 -0.24950908  0.20153531 -0.16004977
 -0.2974903   0.1922983  -0.16872852 -0.11019495 -0.25800335  0.12481323
 -0.16337864  0.01999826]
[ 0.1369061   0.23425381  0.30481812 -0.09525902 -0.24803458 -0.08473448
 -0.09465035  0.07992311 -0.32576945 -0.17888525  0.06410224  0.06531852
  0.20795234 -0.04556827 -0.12428215  0.4425169   0.10686134  0.14580324
  0.00406005 -0.17406155]
[ 0.11787295 -0.146322   -0.06957109 -0.1975327   0.01778585 -0.27287316
 -0.11307673  0.04445762  0.33444372 -0.17677845 -0.02143777 -0.10886426
 -0.080226    0.20287035 -0.31465402  0.09134258  0.06143521 -0.12599452
 -0.23917615  0.31960815]
[ 0.18628463 -0.0259231  -0.16071907 -0.20081712 -0.17571045  0.14329533
  0.01334342 -0.08717738 -0.23742768  0.10961183  0.11741624 -0.3529876
 -0.03136081  0.05648263  0.05197403 -0.37464887 -0.35346678  0.04424006
  0.09504067 -0.28524023]
[-0.02061885 -0.064059    0.12563862 -0.21351968  0.11656294 -0.07301752
  0.16573124  0.05826204  0.13541985 -0.08783991 -0.20334093  0.16270296
 -0.0182032  -0.10820337  0.14380446  0.3388648  -0.14873347 -0.18715076
 -0.40847823 -0.19066036]
[-0.16125742  0.19664964 -0.1068619   0.23052117  0.12625119 -0.01781255
 -0.21776985  0.31054354 -0.09031743 -0.07512202  0.10462982 -0.03847244
 -0.07739351  0.1566761   0.20109749 -0.07683064 -0.22980131  0.21592489
  0.3394889  -0.32983595]
[ 0.14382069 -0.16170289  0.2826686   0.23428461 -0.21752074  0.11783221
  0.11924256  0.18281649 -0.31593055  0.06276864  0.05458464 -0.01609126
 -0.07098705  0.25155964 -0.18715578 -0.01280921 -0.21070592  0.11405987
  0.55192286 -0.11757926]
[ 0.07943086 -0.15491971  0.28953928  0.13627778  0.00607074  0.10930551
 -0.2804755  -0.0719403  -0.07643601  0.27364486 -0.030558   -0.38215414
 -0.26264492  0.1213596  -0.0548127  -0.13881224 -0.06143104  0.04521371
  0.18271492 -0.11361761]
[-0.03552651  0.1747461   0.40870214 -0.17751428  0.1643929  -0.01345355
 -0.13088341 -0.29058093 -0.10667814 -0.01608991 -0.08414192  0.29982343
 -0.16598955  0.33942413 -0.11812995 -0.1460194   0.22466478  0.19230099
 -0.10979188  0.15615436]
[ 0.09787761  0.16356975 -0.06364612 -0.07391279 -0.09603852  0.29738596
 -0.31981128 -0.35362318  0.09902187  0.05200954  0.27351344 -0.17099924
 -0.07280765  0.26136586 -0.35054505  0.03501437  0.0448951  -0.06745378
  0.02094841 -0.08300083]
[-0.33442694 -0.30762446 -0.1716102   0.11638212  0.298739    0.02841334
  0.03377222  0.24130328 -0.1827394  -0.20777962  0.14553897 -0.03446856
  0.04915411 -0.08985469 -0.19960509  0.01669871  0.17549245  0.05969436
  0.21073517 -0.15346478]
[-0.23354755  0.10977677  0.20793645 -0.24127857  0.06056272  0.04967364
 -0.14764875  0.21864526  0.00228079  0.07708185 -0.06309613 -0.49776348
  0.11404175 -0.16726148 -0.15779984 -0.06800332 -0.07330769  0.17897531
 -0.00962096 -0.09695894]
[ 0.10465805  0.2796154  -0.12369317  0.27271196 -0.06637604 -0.21529005
 -0.18674114  0.41031548  0.37105605 -0.19848417 -0.03895455  0.2784874
  0.08829311 -0.21154456  0.26480392 -0.04159327 -0.2409691  -0.21253571
 -0.03597505 -0.27504122]
[-0.058688   -0.01047546 -0.0174166   0.07121933 -0.08866032  0.3688153
  0.26980487 -0.14692011 -0.07914428  0.25744948  0.40299937 -0.27299264
  0.0794459  -0.09151955 -0.3951526   0.15832862 -0.12767212 -0.08216253
  0.2949161  -0.24251221]
[-0.22444507 -0.1639914   0.19438575  0.18191028  0.03054573  0.17584555
 -0.27381548  0.2444779  -0.38619092 -0.3054404  -0.22076944  0.13888028
 -0.2197915  -0.1900213   0.26096666 -0.00585286 -0.21321432 -0.1120817
 -0.20213272 -0.06689081]
[ 0.04753982 -0.06786458  0.17788407  0.2380684   0.10737704  0.2082667
 -0.09092182 -0.38861266 -0.10045412 -0.00956872  0.32161316  0.14053842
 -0.2417454   0.30919442 -0.20613521  0.18788849 -0.2219011   0.31057227
 -0.07380784  0.1276142 ]
[ 0.25839818 -0.26560175 -0.15658304 -0.09254262  0.17322537 -0.16179885
  0.2254052   0.18653132 -0.02879239  0.28564999 -0.13148339  0.14610146
 -0.10521878  0.19726844 -0.12207861 -0.12721314 -0.07153757  0.2919812
 -0.00303459 -0.2867934 ]
[ 0.15598702  0.2072499  -0.06224169 -0.27655187 -0.16595607  0.14561628
 -0.2213742  -0.08937643 -0.29580772  0.17244221  0.04541659 -0.39824954
 -0.18002401  0.12188298  0.07593917  0.02395258  0.3066527  -0.31421724
  0.10379476 -0.21247782]
[-4.4558516e-01  1.5878552e-01 -2.3420505e-01 -1.7449924e-01
 -1.0073998e-01  1.2584177e-01 -2.4417114e-02  2.1274416e-01
 -1.3610376e-01  1.8717502e-01  1.2649226e-01 -1.0446176e-01
 -1.5980825e-01 -7.2771989e-02  1.8708043e-01 -9.0344727e-02
  3.7359766e-04 -2.1163954e-01  3.5131246e-01 -2.8035158e-01]
[-0.30874616 -0.16946042 -0.3344851  -0.07959947  0.03167423 -0.23804334
 -0.08723116  0.13287573  0.25948337  0.3007764  -0.1253653  -0.02977503
 -0.02395583 -0.35248187 -0.06694979 -0.17011468  0.00994556  0.2661256
  0.2827186   0.0087947 ]
[-0.26557606  0.1390406  -0.24708292 -0.23536845 -0.09943128  0.21279477
  0.28916985 -0.17867342 -0.2708094  -0.3194865   0.17290583 -0.069596
  0.23272143  0.2848876   0.04336393 -0.31618217 -0.419066   -0.02283749
 -0.176892   -0.16719507]
[ 0.28008494  0.296032    0.23015787  0.01677114  0.271891   -0.10538861
 -0.00672046  0.12805092  0.12406311  0.17873937  0.14608884 -0.25849792
  0.1486198  -0.20833978 -0.40796006 -0.07371204 -0.04867128  0.301052
  0.20712557  0.11558443]
[ 0.26142728  0.11109098  0.04996557  0.12873405 -0.2226552   0.06356804
  0.0251623  -0.09812252 -0.06442037 -0.04636133  0.20382567  0.1316642
  0.20595494  0.14170146 -0.00394514 -0.19112782  0.19187808 -0.21562047
 -0.3209622   0.20467266]
[ 0.26418337 -0.18483138  0.08519328 -0.22656989  0.19239406  0.10345936
  0.10230069 -0.15678416  0.12433108  0.18173793  0.17509288  0.27318567
  0.13573208 -0.23615187  0.02974807 -0.27866593  0.16639617  0.20175605
  0.20093746  0.17490563]
[ 0.28626478  0.26050204 -0.08727229 -0.06083514 -0.16342354 -0.05424968
  0.17752632  0.21274814  0.18469515 -0.03639869  0.01543171  0.15127733
 -0.04236972  0.03862266 -0.07383812 -0.12323672 -0.05693528 -0.41995218
 -0.25855097 -0.00517253]
[ 0.15637918 -0.23832093 -0.32006407  0.2847427   0.40133715  0.07783341
 -0.2770239   0.02743291  0.15956053  0.00098082  0.05021842 -0.22166677
 -0.09374242  0.04162964  0.03085855 -0.00255653  0.06429157  0.20862006
 -0.1271848   0.21509399]
[-0.0765002  -0.20832236 -0.17825915 -0.19751781 -0.10084783  0.12248413
  0.22299877  0.1243869   0.0158088  -0.18475476  0.06107974 -0.4280123
 -0.13244781 -0.12584932 -0.04198917  0.18593536 -0.1860205   0.10148633
  0.04624263 -0.11832041]
[ 0.00045513 -0.2045876  -0.04948702 -0.07686771  0.07351398  0.21707374
  0.3110484  -0.18869644  0.1722216  -0.01684176 -0.01682842 -0.17958891
  0.16277288 -0.15749986 -0.3561153  -0.06536447 -0.22819605  0.25178006
  0.0425653  -0.15459473]
[ 0.07194572  0.30840367  0.25574395  0.04592163  0.24399059  0.25106123
  0.15414387 -0.21595088  0.07405297  0.07748123  0.06241619 -0.27388054
  0.08543844 -0.06262621 -0.19279382  0.03901309  0.08354035  0.07442733
 -0.04885784 -0.21622254]
[ 0.15719028 -0.2607137  -0.04415046  0.08184583  0.16707045  0.03425429
 -0.05951491  0.22565174 -0.27594543 -0.06251524 -0.19793758  0.19377369
  0.21202816  0.16518171  0.3093774  -0.17653115 -0.13105084  0.37545544
 -0.01046452  0.02377952]
[ 0.2895955   0.10206188  0.10934912  0.07354715 -0.07066811  0.30307844
 -0.3432074  -0.26635787 -0.06064866 -0.23884    -0.2377023  -0.30425543
  0.25222152  0.2766437   0.16834995  0.02251806 -0.09384123 -0.2077702
 -0.10942801  0.03206031]
[ 0.07195883  0.07164565  0.0355429  -0.0456831   0.04767673 -0.16681376
  0.08958145  0.18037611 -0.21644185  0.16763376  0.21814266  0.4180816
  0.15456177 -0.33969608  0.16362283  0.09954152 -0.09450772 -0.1695859
 -0.274551    0.37275517]
[-0.0151531  -0.34717938 -0.14619234 -0.18446778  0.2275443   0.20782794
 -0.11177224  0.14352436 -0.11731955  0.21685752  0.01189544 -0.31271267
  0.21757582  0.06545991 -0.35155284  0.35186884  0.19588768  0.23442467
  0.01072723 -0.35646018]
[ 2.9011154e-01  6.4211845e-02 -2.5922266e-01 -8.7581687e-02
  1.4039659e-04  4.8945315e-02  8.5760832e-02 -2.5348800e-01
  1.3804953e-01  3.3167201e-01 -8.0815732e-02  2.4425640e-04
 -1.8929322e-01 -2.6279107e-01 -3.5079744e-01 -3.4444448e-01
  1.5142903e-01 -3.6214587e-01  1.3807370e-01  2.2500280e-01]
[-0.14242242 -0.20850205  0.17512533  0.17058738 -0.28062782 -0.21449582
  0.02721367  0.0970504   0.17504327  0.35751775 -0.2274349  -0.18316421
 -0.04990356  0.03265559  0.14045824  0.04414086 -0.0342618   0.1575948
  0.11096965  0.17656673]
[-0.13474156  0.24912708 -0.23003803  0.20748179  0.2724143  -0.33531326
 -0.14305541  0.05415163 -0.00177749  0.04774674 -0.22440253  0.07991043
 -0.00401507 -0.07282305  0.2793587   0.22507234  0.19042896  0.10020464
  0.30988026  0.09479775]
[-0.05483219  0.06357534  0.01609635 -0.04506721  0.03910856  0.1340075
 -0.02235118  0.01141454 -0.17018668 -0.05721622  0.01300605 -0.06025759
 -0.02352592  0.06756677  0.01399196 -0.18086617 -0.17833084  0.0347474
  0.14545071 -0.04969516]
layer 5 Activation
tanh
layer 6 Dense
20 1
[-0.07411094]
[0.00390169]
[0.03683518]
[0.0049062]
[-0.03620299]
[0.17992622]
[0.03781315]
[0.04546012]
[0.05750124]
[-0.10371512]
[-0.01832336]
[0.00095844]
[0.00029042]
[0.11273337]
[0.12308023]
[-0.01918551]
[0.13689357]
[0.00027332]
[-0.0037986]
[-0.14792323]
[0.01821884]
