layers 7
layer 0 Dense
24 20
[-0.28861478  1.387095   -0.7319322  -0.8281262  -0.21837018 -1.1160986
  1.5502126  -0.7959801  -0.13260314  0.23929456 -0.48148593 -0.862056
 -0.26760954 -0.3242737   0.96462786  1.1636457  -1.1988802  -1.6525685
  1.6808301  -0.86890835]
[-0.14867663  0.7033484  -0.5228453   0.12448104 -0.2609081  -0.53372747
  0.3477819   0.19772758 -0.24810828 -0.01728122  0.59242535 -0.2470328
 -0.2885456   0.12487672  0.41631904  0.05633641 -0.04059137 -0.6054643
  0.10050473  0.15779015]
[ 0.1244626   0.14016297 -0.11473659  0.34576324 -0.33149388 -0.04528407
  0.9262794  -0.11625335 -0.77156377  0.2563293   0.49037    -0.10129154
 -0.5621639   0.03734978  0.34310523  0.00443143 -0.45976058 -0.5103709
  0.6660785   0.1498635 ]
[ 0.09634965  1.4190812  -0.96885073 -0.9092478  -0.31122005 -0.7895117
  1.196996   -0.83962953 -0.5213489   0.6517503  -0.25020555 -0.9795028
 -0.5728605  -0.8619823   0.66318     0.5950336  -1.3431951  -1.1405091
  1.2731682  -0.45635608]
[-0.82242465  0.6971084   0.3528313  -0.44633606 -0.93002826 -0.320034
  0.86449474 -0.43604344  0.45808187 -0.5223714  -0.6314748  -0.3223778
  0.40514338  0.6201467   0.64840204 -0.08437793 -0.30959663 -0.79061246
  0.48711714 -0.837574  ]
[-0.2978504   0.25332063 -0.18311992  0.06001172  0.5677628   0.44415206
  0.23643818  0.03300342  0.6492849   0.6277424   0.21792606  0.11110208
  0.19675705  0.16634142  0.27092513 -0.21888064 -0.11160521  0.20523907
  0.3712     -0.15841092]
[ 0.26809987  0.02122619 -0.33353606  0.0510564   0.4566238   0.03244947
  0.25384066 -0.12415029  0.04952278  0.40255052  0.3245291   0.33652782
 -0.05709111  0.06104507 -0.16486879  0.1292568  -0.09970617 -0.44199452
  0.05076625  0.26895162]
[ 0.5837584  -1.4684734   1.1573291   0.7765158   0.88072747  0.5641402
 -1.7436978   0.8506405   0.6169658  -0.61229587  0.3648433   1.1175368
  0.38328558  0.8434776  -0.9302904  -1.0115856   1.5296711   1.430143
 -1.4660789   0.4725481 ]
[-0.28806084  0.45984268  0.03882636 -0.40041995 -0.19965483  0.22025432
 -0.0934948   0.00300314  0.32454878 -0.09562346 -0.17897552  0.15857814
  0.42184815  0.16412872 -0.00846301 -0.56756896 -0.27772692 -0.29802153
 -0.02229735 -0.3239956 ]
[ 1.7447127  -0.49948335 -0.36427706  0.7717374   3.0900745   0.36927387
 -0.30705553 -2.018157    0.228123   -0.01108844  2.73324    -2.7938042
  0.5016712   0.07707558 -1.344578   -0.07711677  0.29972813  0.41210395
 -0.4016363  -2.6456766 ]
[-0.33131343  0.02455686 -0.04901068 -0.25376716 -0.9128861   0.24593002
  0.3044748  -0.38347462  0.3927653  -0.20223244 -0.47066215 -0.1042691
  0.13417988  0.51205754 -0.35857767 -0.31882262 -0.12690158 -0.26269573
  0.06986538 -0.13252851]
[ 0.3033506  -1.560468    0.03034408  0.48470223  0.37213024  1.1067644
 -1.0413774   1.1092027  -0.07073562 -0.7080627   0.25184265  0.38128886
 -0.28221074  0.31155577  0.08398481  0.03318588  1.1107969   1.4213028
 -1.4126318   0.4976232 ]
[-0.34223995 -0.16806796  0.6994485   0.1649935  -0.3907261   0.0825536
  0.1720613   0.3321713   0.44246665 -0.6013827  -0.5962545   0.25621152
  0.1816615   0.29580906  0.04584965 -0.50539523 -0.1586947  -0.20532925
 -0.02336893  0.09065404]
[-0.14618452 -0.19160183 -0.06771544  0.5717939  -0.55659544 -0.19644699
 -0.33573338  0.42875344 -0.26961023  0.55416006 -0.40605575  0.53835684
 -0.27147573 -0.54945314 -0.11759795  0.00829797  0.22891597 -0.0982244
 -0.16360545  0.9692319 ]
[-1.9123523e+00 -2.7436906e-01  6.6721511e-01  5.7780361e-01
  2.0361056e+00  9.3354237e-01 -2.6926163e-03  3.8501468e+00
  1.7617138e-01  1.9660439e-01 -1.0690000e+00 -4.6080774e-01
 -1.4090557e-01  2.1853989e-01  3.1717205e+00  8.3853848e-02
  6.0846269e-01 -5.3940412e-02 -3.8127750e-01 -2.4063854e+00]
[ 0.9170727  -2.0775468   0.5814985   1.3936204   0.8552429   2.078927
 -1.8819668   1.1183442  -0.22362196  0.42849046  1.153885    1.5618218
 -0.1558211   0.29304436 -1.7320223  -0.7481081   2.143169    2.2536056
 -2.377411    1.2228327 ]
[ 0.17559524 -0.5446676   0.62500805  0.4540572  -0.16586374  0.5503311
 -0.5631669  -0.03311368  0.402337   -0.43098518 -0.05598671 -0.28729278
  0.25937912  0.5048675  -0.04294332 -0.24218124  0.23753247  0.4162715
 -0.16892803 -0.31758103]
[-0.7306664  -0.0311668  -0.11734816 -0.6961109  -0.6134982   0.17259105
  0.09835501  0.6878759   0.27865455 -0.5170496  -0.8467821   0.594188
  0.48013598  0.20326898  0.7534572  -0.27594024  0.09904012 -0.18087375
 -0.08494138 -0.08530685]
[ 0.88524646 -0.40687847 -0.21360627  0.29200825  0.7614025   0.10782171
 -0.22335103 -0.71289545 -0.2522803   0.29816055  1.1024958  -0.11098532
 -0.3849455  -0.14006984 -0.9632903  -0.04017964  0.24470618  0.21670178
 -0.4155086   0.4901149 ]
[ 0.6164999  -0.7896716   0.48248357  0.46403033  0.29049224  0.23523934
 -0.87013614  0.02861146  0.34430897 -0.44509465  0.5669599  -0.20907013
  0.4661654   0.29938528 -0.75389284 -0.6271099   0.66055703  0.7827687
 -1.0666713   0.37405428]
[-0.36007118 -0.10304671  0.09845717  0.24223104 -0.50050706  0.22321738
 -0.25200793  0.3662559   0.58627146 -0.12309939 -0.20795307  0.12818928
  0.3477497   0.12953652  0.10564981 -0.28306755  0.00140739  0.23036246
  0.00731825 -0.42471078]
[-0.13173495  0.8746653   0.49108857  0.07268544 -0.3353653  -1.0693167
  0.82390255 -0.43459207  0.1253061  -0.33028316 -0.25244346 -0.46657053
  0.1361605  -0.14105542  0.7222455   0.02718714 -0.617041   -0.8849252
  0.8898722  -0.17381601]
[-0.87136865  0.8379507  -0.64210397 -0.40015247 -0.73738706 -0.6730609
  1.0249853   0.05324534  0.33825317 -0.6362244  -0.8904713  -0.963613
  0.02423754  0.1715036   0.9688706   0.19018249 -0.79076904 -1.0221962
  0.83233607 -0.80263144]
[-0.3161299  -0.12153368  0.27445835  0.00246235 -0.2609824   0.12396498
 -0.04725847  0.0385958   0.48547566 -0.75627524 -0.28659788  0.05113495
  0.13555416  0.41043732  0.2607944  -0.63746125  0.6616232   0.44267866
 -0.4074133   0.01982434]
[ 0.08698104  0.6907148  -0.5519171  -0.45789602 -0.11698737 -0.48317555
  0.8215617  -0.29263067 -0.51882523  0.48868698  0.02989605 -0.4234591
 -0.47866103 -0.511711    0.28066656  0.7018513  -0.6680558  -0.56964976
  0.5883389  -0.23184524]
layer 1 Activation
tanh
layer 2 Dense
20 40
[-0.13096134 -0.4141658   0.03574845 -0.23977685  0.48418632  0.06077237
 -0.50697887 -0.06225752 -0.3188777   0.03612433 -0.03640692 -0.04747278
 -0.49780196 -0.21278267 -0.20915356  0.70773137  0.08515938 -0.5443632
 -0.04931777 -0.4145846   0.0121715  -0.0521684   0.3889616  -0.5140666
  0.3566813   0.32180077 -0.4149763  -0.57820284  0.05388525  0.52619827
  0.03152225  0.1312239  -0.51850665  0.5813146   0.27303728  0.14619088
 -0.00792041  0.6127445   0.40527347 -0.3311872 ]
[-2.033029    0.06222066  0.58832264 -1.384301   -0.8342059   0.60472316
  0.53986424 -0.8427926  -0.9812267   1.11045     0.6786151   1.1865635
 -1.359057   -1.0777787  -0.817565    1.0543988  -0.5390932   0.35796285
 -0.8157715  -1.5654018  -0.9570116   0.26905558 -0.70368683  1.2070191
  0.8137734  -0.0832269  -1.5158464   0.3117149   1.2041041  -0.1437893
  0.6118969  -1.9533054   0.4178321  -0.12719674 -0.10440998 -0.8917033
  1.0078963  -0.3262324  -0.6957149  -1.5244865 ]
[ 0.365257    0.38096458 -0.7503647   0.46545517  0.19907553 -0.20479457
 -0.09062442  0.7056309   0.26910448 -0.31242585 -0.54916894 -0.42181295
  0.5014861   0.6796038   0.26856065 -0.86505     0.21086356  0.03216625
  0.23578657  0.77633727  0.68251556  0.13920443  0.0573867   0.11794434
 -0.85541934 -0.89160824  0.4778294  -0.33883026 -0.48369676 -0.20858963
 -0.46108547  0.48774993 -0.22616954 -0.18657999  0.18777819  0.25233498
 -1.0361657   0.4139469  -0.06916077  0.2579427 ]
[ 0.34799123 -0.5107531   0.30966768 -0.09973709  0.34256932  0.05916696
  0.23474559 -0.72403586 -0.14335923 -0.3682416   0.20407346  0.00906145
  0.27388054 -0.32525793  0.06058414 -0.0767887  -0.33475265 -0.25761354
  0.4510028  -0.20040762 -0.10112847 -0.34876886  0.26845345 -0.5156314
  0.3474352   0.3876791   0.20563509 -0.42310262 -0.15417662  0.06443273
  0.5986526   0.47051093 -0.16170816  0.0380955  -0.01707524 -0.0083806
  0.44345337  0.35703525 -0.04000417  0.11612963]
[-0.04159359 -0.0841798  -0.4693307   0.43191117  1.0598788  -0.45919022
 -0.72364545  0.55382985  0.21873264 -0.16487178 -0.89236623 -0.79017985
  0.36935905 -0.16491759 -0.07499442 -0.3977417   0.64729    -1.3049737
  0.07900535 -0.7168049   0.22704767  0.7609686   1.109295   -0.8148276
 -0.5450636  -0.00783171  0.39442724 -0.9452001  -0.42381787  0.98618525
 -0.05599812  0.36763826 -0.69847727  0.4510896   0.75316375  0.75709116
 -0.34732997  1.0965905   1.0391095   0.1918247 ]
[ 0.34847525 -0.13769355  0.1800248   0.36328745 -0.06264486 -0.06711418
  0.07174388  0.12750652  0.22985992 -0.7675127  -0.27716243 -0.39382777
  0.6445022   0.4328365   0.496136   -0.7027833   0.11012883  0.03027857
  0.32182455 -0.12224074  0.23757245 -0.4557869   0.18615796 -0.17092237
 -0.2051432   0.349503    0.3402407   0.09513645 -0.5175276  -0.06237538
 -0.32315317  0.46637374  0.06474393 -0.08089078  0.05160142 -0.06644711
  0.13682449 -0.40175238 -0.11988897  0.3931416 ]
[-0.6522904   0.3934018   0.3723164  -1.1423594  -0.69030786  1.0064034
  0.9023152  -0.69792354 -0.87872976  0.7839207   0.699251    0.6676094
 -1.6893139  -0.99805874 -0.8685941   1.2972203  -0.601399    0.78552175
 -1.0331814  -1.2403381  -0.9204192  -0.33766332 -0.8410048   0.71395504
  0.74768263  0.50049984 -1.2312473   0.61047643  0.7310464  -0.5077751
  0.9805155  -0.8794447   0.47654402 -0.1186064  -0.07612971 -0.69242024
  0.9257446  -0.5246006  -0.69737285 -0.6945073 ]
[-0.12307853 -0.53561455  0.49047375  0.23827338  0.61486846 -0.12560658
 -0.30322957 -0.2386648   0.2603223  -0.21413368 -0.10450469 -0.48009557
  0.27276918  0.07252306  0.17753501 -0.50690114  0.08167009 -0.4593952
  0.21890149  0.355521    0.2946836   0.20039989  0.3100817  -0.2760529
 -0.17436539  0.35983267  0.3847172  -0.21670097 -0.09169352  0.09643356
 -0.31495744  0.0207669  -0.19211106  0.2912296   0.16467191  0.48152494
 -0.01542096  0.02893777  0.31246415 -0.00111719]
[ 1.0041336e+00  8.6076856e-02 -5.2762145e-01  1.0760902e+00
  4.8929089e-01 -1.0710268e-01 -2.6293814e-01  4.6695924e-01
  4.7619611e-01 -7.2743827e-01 -5.2159554e-01 -7.8152543e-01
  9.8952061e-01  9.3191469e-01  7.6546764e-01 -6.4466953e-01
  1.8194328e-01 -1.6152239e-01  9.4776410e-01  6.4681941e-01
  7.1792865e-01 -4.5498143e-04 -1.9267984e-01 -1.1352758e-01
 -8.9185780e-01  2.9611698e-01  7.1109605e-01  4.2379379e-02
 -7.9837292e-01 -3.9805278e-02 -5.6303447e-01  9.3005937e-01
  1.7628533e-01 -4.6255326e-01 -1.5354395e-01  3.0274314e-01
 -6.8938106e-01 -8.8217333e-02  1.7490464e-01  8.8170016e-01]
[-1.2218804  -0.26174673  0.99834657 -1.2720933  -0.7579417   0.71982944
  0.6904688  -1.1674582  -1.5198436   1.6028783   1.076231    1.336676
 -1.2118375  -1.2692441  -1.1449448   1.321751   -0.9953956   0.64058757
 -0.72935426 -1.1493708  -1.059003    0.18048759 -0.53486305  0.29348892
  1.4024035   0.51534265 -1.2810738   0.30317965  1.1141616  -0.21073622
  1.366746   -0.9787031   0.36030886  0.01528778  0.04294109 -0.92414147
  1.3068916  -0.5117763  -0.5252734  -0.993124  ]
[ 4.3138799e-01 -5.1908904e-01 -3.0312586e-01  2.4600866e-01
  7.3408663e-01  5.6805301e-02 -6.7291659e-01 -2.3860462e-02
 -1.0722161e-01 -3.3915737e-01 -7.5871154e-04 -7.5810349e-01
 -2.9838052e-02  2.6598027e-02  1.7354038e-02  3.4823522e-01
  2.6261282e-01 -6.9503444e-01  3.3797160e-01 -3.8098192e-01
 -4.8107628e-02  2.4006236e-01  7.3015016e-01 -7.8525084e-01
 -2.8639191e-01  5.2555507e-01 -4.5433262e-01 -1.0084002e+00
  5.6337222e-02  4.8241782e-01  3.3737668e-01  3.2268334e-02
 -7.0511538e-01  5.6722397e-01  1.0462450e-01  2.8846905e-01
 -9.0061896e-02  5.9564173e-01  5.8503294e-01  6.3720830e-02]
[ 0.24624664 -0.24444105  0.621919   -0.02979953  0.37040666 -0.11192182
 -0.19945566  0.07181583  0.13548186 -0.24323505 -0.20137884 -0.31467775
  0.09868211  0.31676602  0.05489527 -0.11367369  0.15601432 -0.26863784
 -0.05342649  0.57676375  0.07994365 -0.10724264  0.16741876 -0.43542668
  0.02694137  0.10935801  0.19620396 -0.28355086 -0.09435131 -0.07416929
  0.03336557  0.2630892  -0.131304    0.26759553  0.5847826   0.1578245
 -0.01512854  0.2953612   0.06058956 -0.04653428]
[ 0.7135817   0.19224264 -0.8323969   0.83858335  0.05809717 -0.7600166
 -0.13141754  0.7207819   0.7767498  -0.5246987  -0.43045747 -0.6601777
  0.3855994   0.70042205  0.5826884  -0.77856433  0.16367595 -0.52092445
  0.2538582   0.4898439   1.1107837   0.09034363  0.27701476 -0.48038048
 -0.25821692 -0.31886268  0.53295195 -0.04416423 -0.7073574   0.255616
 -0.78005034  0.95030546 -0.3888795   0.47499403  0.12414879  0.10343803
 -0.63421607  0.18416357  0.1711242   0.46409485]
[ 0.9118165   0.27828956 -0.8735779   0.9292014  -0.01605424 -0.32280952
 -0.06117348  0.46326083  0.4327498  -0.658296   -0.45059183 -1.4514593
  0.7018141   0.59010845  0.6790222  -0.76191473  0.18120939 -0.31953073
  0.74930096  0.4915999   0.34034416 -0.2895552  -0.00615347  0.09244268
 -0.6229323   0.01134585  0.7938125  -0.10568678 -0.7400357  -0.13185333
 -0.5662037   0.7570448  -0.02163532 -0.22508518 -0.19364974  0.23391247
 -0.65930736  0.06556775 -0.09406526  0.8856442 ]
[-0.4986077   0.25281334  0.26400146 -0.3299289  -0.7629488   0.5554389
  1.1196628  -0.42885    -0.01571434 -0.20647903  0.4968204  -0.13618664
 -0.15601763 -0.67574525 -0.3376264   0.34629658 -0.8362901   1.1800367
 -0.3274751  -0.7064083  -0.3092904  -0.7065598  -0.8653319   0.7807379
  0.6029666  -0.16621466  0.12702933  1.3917085   0.33013684 -0.6054231
  0.6531956  -0.18167306  1.0276878  -0.7916907  -0.6975848  -0.82775235
  0.60577524 -0.83783466 -0.8843489  -0.26257232]
[-0.49192938  0.24716108 -0.11300702 -0.2514394  -0.11551987  0.46191618
  0.1039134  -0.46421617 -0.67748815  0.6847732   0.31850284  0.8488965
 -0.75993216 -0.43386403 -0.26750293  0.39849815 -0.17595518 -0.00454248
 -0.47179762 -0.7044169  -0.29593807 -0.19870557 -0.11891097 -0.13107546
  0.6192959   0.18450336 -0.13356563 -0.02518461  0.4549799  -0.3343045
  0.51326394 -0.7959943  -0.08524069 -0.07926898  0.01104235 -0.02652403
 -0.00490825  0.10712244  0.08007316 -0.43407485]
[ 0.61080074 -0.10344476 -0.3815079   0.3281356   0.53948057 -0.67799795
 -0.3634013   0.42989743  0.775685   -0.93312865 -0.5350468  -0.9018036
  0.89395076  0.7586153   0.82410276 -0.93985647  0.17970906 -0.22286224
  0.82422876  0.9185724   0.5786193   0.01462253  0.25258732 -0.29073894
 -0.62740064  0.1668223   0.4897116  -0.21062833 -1.0261613   0.23730479
 -1.0939308   0.7154127  -0.27315608 -0.23012766  0.17506616  0.21516973
 -0.8114247   0.06776357  0.40372247  0.7424631 ]
[ 1.0455416  -0.23826253 -0.6756805   1.2688005   0.35431698 -0.713914
 -0.42993852  0.6389798   0.6619573  -0.98244625 -0.7142116  -0.8599426
  1.2982501   0.6700298   0.89868677 -1.4644362   0.38792145 -0.623819
  0.67796695  0.924781    0.59361166 -0.1997221   0.7369944  -0.7769123
 -1.200943    0.02419559  0.98466104 -0.13635072 -0.69072723  0.32826623
 -1.0021044   1.22504    -0.36248785  0.23205495 -0.06115887  0.5602743
 -1.1957078   0.6309108   0.9844185   0.6932827 ]
[-1.0043827   0.36805868  0.6209951  -1.1424787  -0.3481414   0.48396426
  0.36133644 -0.77780026 -0.589076    0.8968849   0.64280015  0.84327024
 -0.8444787  -0.8131452  -0.9880405   1.2054331  -0.47352162  0.55908
 -0.73690027 -1.1610497  -0.9216644   0.13910687 -0.68006533  0.6374305
  1.1695154  -0.2092903  -0.9691809   0.15525441  0.6928476   0.07678046
  1.1162627  -1.1327668   0.05048015  0.07745405 -0.02552861 -0.5888518
  1.3283253  -0.3285615  -0.44719282 -0.5948953 ]
[ 0.2232663  -0.4014053   0.48761988  0.29498348  0.6395666  -0.54838586
 -0.7854202   0.00167646  0.04796509 -0.15768945 -0.5597569   0.22055338
  0.48177078  0.4727614  -0.0557376  -0.6692437   0.47770888 -0.44368842
 -0.01904697  0.6902936  -0.2684186   0.11379406  1.1339508  -0.8248795
 -0.37952018  0.16449827  0.34788948 -0.6535236   0.16300498  0.41380924
 -0.45804992  0.17695798 -0.66455424  0.33517814  0.47406545  0.797834
 -0.28527498  0.45388016  0.90725446  0.06559192]
[-0.80153894 -0.03486734  0.47734037 -0.51230276  0.02501468  0.16376637
 -0.03768134 -0.40576246 -0.20549656  0.66595393  0.14597721  0.39013666
 -0.45713112 -0.41607773 -0.70332086  0.32737708 -0.16752961 -0.08757004
 -0.4092758  -0.48582125 -0.3964898   0.2075657  -0.12273677  0.01519391
  0.5154864   0.04224197 -0.52824664 -0.15930721  0.614197    0.09379387
  0.41157043 -0.6694039  -0.07823141  0.3320178   0.1651905  -0.09520525
  0.71427983 -0.06284469 -0.20781626 -0.5430308 ]
layer 3 Activation
tanh
layer 4 Dense
40 20
[ 0.3814618   0.5715183   1.0292101   0.20936278 -0.5007885  -0.95410085
  0.8295308  -0.7014108  -0.54773253 -0.75453794  0.49123988 -0.80920064
 -0.68539095 -0.86890566  0.7862485  -0.6144649  -0.6786752   0.75276554
 -0.7579573  -0.36269373]
[ 0.2111425   0.7077502   0.39434963  0.05804532  0.24651846  0.14016068
  0.55422515 -0.03233933 -0.00674477 -0.16638717  0.46248326  0.09995671
  0.370362   -0.49913734  0.26628876 -0.17819437 -0.63150036  0.05954516
 -0.22842136 -0.12543699]
[-0.1255938  -0.6291666  -0.57509166 -0.78633684  0.3273384   0.30498955
 -0.57379293  0.85763365  0.5767512   0.6643115  -0.6661436   0.21368335
 -0.12189773 -0.14927058 -0.42319733  0.51668024  0.8313549  -0.16445142
  0.28652006  0.41981348]
[ 0.8893931   1.0497621   0.6421058   1.1994091  -0.7981268  -0.79518706
  0.8196364  -1.5055634  -1.1189576  -0.63273066  1.0181353  -0.63892436
 -0.65901977 -0.83397686  0.6842938  -1.0219829  -0.9960331   1.0516778
 -0.668869   -1.0424807 ]
[ 0.06454015 -0.18897818 -0.03071109 -0.28827998  0.15139179 -0.18359323
 -0.24128497 -0.05837173 -0.03266913  0.3001471   0.3395537  -0.37812185
 -0.02884686 -0.38594085 -0.05237734 -0.06077582 -0.01719042 -0.09072509
  0.26256362 -0.33694413]
[-0.05013462  0.28243124 -0.13164201 -0.07769508 -0.00741205  0.01749006
 -0.04790786  0.08765422 -0.37027234  0.19330615 -0.17384195  0.17019011
 -0.02750161  0.520095    0.18079983 -0.3323263  -0.4822644   0.07785729
  0.08447197  0.24382192]
[-0.01841259 -0.0892974  -0.07926082 -0.16120046  0.33970407  0.39066046
  0.09010459 -0.07599263  0.05833882 -0.42336878 -0.06376422  0.10212933
 -0.06354038  0.21203889 -0.11068905  0.19381061  0.134122    0.0042307
 -0.2674116   0.10758358]
[ 0.1191877   0.36071667  1.0106281   0.19379486 -0.09744441 -0.1403806
  0.5869197  -0.79035914 -0.3910326  -0.85584366  0.72723395 -0.32842645
 -0.14161652 -0.4906696   0.26813236 -0.22675888 -0.42840073  0.4761272
 -0.52022225 -0.20754507]
[ 0.23420323  0.82343876  0.8173894   0.26237944 -0.5791722  -0.18377078
  0.6758655  -0.47713366 -0.4044625  -1.0037409   0.5124729  -0.61308986
 -0.63931656 -0.14402068  0.29589054 -0.92180973 -0.2148025   0.48656106
 -0.5465106  -0.10826983]
[-0.7875478  -0.3419279  -0.36452034 -0.70186454  0.80448323  0.83450437
 -0.25548816  0.5220935   0.8019491   0.83490574 -0.6721902   0.46159735
  0.8174517   0.7253696  -0.5859246   0.7745993   0.58167833 -0.7001638
  0.7549143   0.73042095]
[-0.2974069   0.06510165  0.19650534  0.02903943  0.35205054  0.00534819
 -0.11295871 -0.18396711  0.69575965 -0.07871237 -0.33077455  0.19634977
  0.3307686  -0.0528536  -0.05697743 -0.24430239  0.10651067  0.16296463
  0.33835512  0.0106453 ]
[-0.5469063  -0.5231016  -0.62427396 -0.3373879   0.64891374  0.48570955
 -0.43267018 -0.12916853  0.91545355  0.36264655 -0.6675034   0.83930415
  0.655938    0.06724535 -0.27651724  0.10609163  0.98725754 -0.2790433
  0.603215    0.8581643 ]
[ 0.40027484  0.46268994  0.6460149   0.7556755  -0.6174234  -0.6627315
  0.5167922  -0.82567465 -0.6618     -0.6940326   0.39059198 -0.4418101
 -1.0761449  -1.0337173   0.6973494  -0.67194307 -0.24393332  0.65934443
 -0.45007053 -0.71835536]
[ 0.479274    0.508579    0.73783547  0.6244173  -0.23606767 -0.52220696
  0.7789766  -0.54331    -0.7306972  -0.6121378   0.3970498  -0.42814043
 -0.29568207 -0.82491577  0.28521258 -0.3020185  -0.3358984   0.7201276
 -0.28169888 -0.26476127]
[ 0.42256078  0.69323975  0.43427718  0.7457282  -0.03724324 -0.23184755
  0.5289269  -0.46902856 -0.13744734 -1.1088938   0.32413328 -0.5886764
 -0.26079196 -0.22297311  0.3704748  -1.4972494  -0.4046649   0.73131573
 -0.9095421  -0.49605936]
[-0.9864927  -0.8508668  -0.70452696 -0.9810766   0.8608411   0.5885442
 -0.80692625  0.87551636  1.1248785   0.6926051  -0.33399224  0.39436945
  0.79503196  1.0273297  -0.9547048   0.71605927  0.59768015 -0.9488664
  0.985717    0.8432586 ]
[ 0.27675363 -0.11707567 -0.1697357  -0.0283122   0.06719665 -0.13870582
  0.02176764 -0.55923855  0.06227633  0.1398062  -0.2771266  -0.28690597
  0.03459226  0.12814797  0.18590765 -0.2710187  -0.41020966  0.24619335
 -0.0976055   0.07471402]
[-0.4951977  -0.30548033  0.20736794 -0.05321768  0.03903642  0.16531207
 -0.3625712   0.02390855  0.11251932  0.13289751  0.04274276  0.39422652
  0.18864676 -0.06654416 -0.3184699  -0.01228477  0.29322314 -0.00297873
 -0.18012345  0.45117632]
[ 0.28376248  0.244108   -0.04742976  0.534951   -0.2505149  -1.0352639
 -0.11908034 -0.48108515 -0.15833136 -0.06829856  0.11430945 -0.64953184
 -1.1934049   0.30779853  0.39676264 -0.5177405  -0.10256328  0.2799698
 -0.26403978 -0.41491747]
[ 0.38312352  0.8195695   0.71140176  0.73246104 -0.49490514 -0.31076592
  0.75494903 -1.0106652  -0.7593216  -0.75766474  0.7372884  -0.48858106
 -0.5945853  -0.7297313   0.7242984  -0.48344105 -0.36518636  0.8117161
 -0.5587025  -0.22000776]
[ 0.13560012  0.8114567   0.6796981   0.3356008  -0.33832455 -0.09181593
  0.52592206 -0.49402848 -0.7520604  -0.9814538   0.43711576 -0.14950109
 -0.38602528 -0.5279282   0.66068786 -0.38783923 -0.3085373   0.7142101
 -0.7180969  -0.20621458]
[ 0.03821728 -0.38393047 -0.06440692 -0.24059367 -0.2949904  -0.04566982
 -0.0595035   0.05796085  0.1205328   0.11956486 -0.16007648  0.29891828
  0.2731587   0.1645653  -0.09521831  0.22724886  0.34004143 -0.5041574
  0.18634176  0.03480529]
[ 0.20118721  0.08247308  0.04686032 -0.14285702 -0.28488043  0.1732807
  0.04053644 -0.00332047  0.16016625  0.1799477   0.00063167 -0.14404926
 -0.23625742 -0.1384468   0.14293823  0.21550275 -0.08168472 -0.13982102
  0.24341242 -0.19596933]
[-0.17670727  0.18164061  0.2016146  -0.23160611  0.11820473 -0.13551924
  0.29716137  0.48812848 -0.1653893   0.17680246  0.33837518  0.2620174
  0.1804365   0.17508268  0.29265764 -0.11766496 -0.00853135  0.05336701
  0.05143816  0.1617919 ]
[-0.3072595  -0.7742752  -0.4866948  -0.8885553   0.35548168  0.19117936
 -0.5650301   0.87660253  1.0057756   0.53173906 -0.6629321   0.4269968
  0.3963582   0.24437366 -0.5361446   0.91843045  0.40641937 -0.7732828
  0.72438955  0.2547704 ]
[ 0.06153794  0.01531718 -0.27644652 -0.38561296  0.36864167 -0.5290844
 -0.32607618  0.8202631   0.43648764  0.48972112 -0.7452668   0.35384777
 -0.12545042  0.4606034  -0.10847148  0.5342638  -0.09337085 -0.13669854
  0.53357387 -0.11381329]
[ 0.39839944  0.792293    0.619815    0.46059245 -0.46847117 -0.35970807
  0.6568601  -0.22660372 -0.45856997 -0.88960654  0.40300322 -0.6497352
 -0.8570441  -0.6952899   0.60260063 -0.9650055  -0.51068556  0.49984428
 -0.512819   -0.6280817 ]
[ 0.01500062 -0.18157944  0.0762669  -0.25616786  0.11328438 -0.21640468
 -0.08203766 -0.15175153  0.20150805 -0.01360336 -0.45776156 -0.17389786
 -0.0756237  -0.32987294 -0.12575026 -0.16678435  0.06843106 -0.00356943
 -0.341655    0.19306818]
[-0.6521887  -0.5584021  -0.6519817  -0.73418057  0.9854744   0.71145034
 -0.36202493  0.72088635  0.6547167   0.7745927  -1.042783    0.60249466
  0.87910825  0.41257995 -0.45597744  0.9026469   1.4585012  -0.56562847
  0.65796864  1.0553049 ]
[ 0.11254893 -0.15635116 -0.05242171 -0.16983151 -0.04970127 -0.13976124
 -0.10329061 -0.05469216 -0.23739493  0.07779001 -0.09275576  0.17743638
 -0.0386574   0.13984871  0.05462364 -0.00905357 -0.01729929 -0.19707254
  0.19695258  0.03027429]
[-0.55616707 -0.7711387  -0.6329364  -0.59501487  0.4066774   0.3095616
 -0.67530876  0.28047448  0.7127739   0.3390947  -0.74079     0.58134717
  0.21331736  0.8399143  -0.3194161   0.5414883   0.23447537 -0.5488418
  0.52179813  0.3765453 ]
[ 0.611199    0.8099734   0.9597108   0.13129686 -0.8477131  -0.58790755
  0.8051037  -0.55397195 -0.3311884  -0.6081801   0.5857555  -0.4412921
 -0.60962266 -1.0369242   0.5075902  -0.41968605 -0.956035    0.9821095
 -0.49421453 -0.83904094]
[ 0.09046041  0.3153652  -0.21978086  0.08184317  0.10806597 -0.00300727
 -0.1488063   0.45552152 -0.33145785  0.05673964 -0.14125882  0.14308825
 -0.16471888  0.0566585   0.29523724 -0.19045946 -0.1215487   0.21587676
  0.00786553  0.17092478]
[-0.29634675 -0.23685041 -0.29062706  0.01008881 -0.17594716 -0.1094548
 -0.2911992   0.1785068   0.5460179   0.39600748 -0.40399697 -0.07954543
  0.3143057   0.47785744 -0.41714883  0.10140646  0.12876529 -0.15715028
  0.0846506   0.26522592]
[-0.09692216 -0.08997225 -0.5268302  -0.14712942 -0.00384057  0.25302967
 -0.32533854  0.30734596  0.11953758  0.32607937 -0.35010794  0.14472808
  0.04310128  0.50672495 -0.39423686 -0.01907634  0.16566513 -0.27026832
  0.02807478  0.52488524]
[ 0.4746258   0.13112305 -0.09973993 -0.06280209 -0.14624596 -0.24241449
 -0.05936869  0.08837032 -0.1116386   0.11292068  0.16385363 -0.2460324
 -0.19055648 -0.18332191  0.12712348  0.3061475   0.1111009   0.16491027
  0.07824158 -0.09799998]
[-0.41917115 -0.8718225  -0.74178004 -0.7384961   0.5367082   0.3514774
 -0.73502827  0.844038    0.63752365  0.7399992  -0.7537119   0.27139705
  0.5645675   1.0307163  -0.8516057   0.6261541   0.5075772  -0.80934596
  0.71555513  0.53899413]
[-0.04091215  0.02392635 -0.09307123 -0.00698271 -0.03483295 -0.35656357
 -0.25592336  0.18964949 -0.03355899  0.16651617  0.00871688 -0.21378565
  0.16937344  0.09220814 -0.10546435 -0.3207392  -0.19618429 -0.11078773
  0.00721965 -0.10836773]
[ 0.10973625 -0.32113335 -0.09734376  0.17556031 -0.24802104 -0.18011904
 -0.29196388  0.01396477  0.08341987 -0.01363017 -0.3908541  -0.26089886
 -0.13947928  0.22063781  0.17664713  0.31391317 -0.1336106  -0.42108038
  0.03690593 -0.34201452]
[ 0.25311413  0.5853372   0.54445076  0.12083309 -0.55655205 -0.6026303
  0.5259371  -0.5093824  -0.21700524 -0.53704184  0.5972466  -0.33935878
 -0.64258844 -0.82528657  0.50751233 -0.4019457  -0.9506633   0.34544772
 -0.43920538 -0.26363325]
[ 0.09221165 -0.13006179  0.03183069 -0.27689534  0.05034214  0.24413407
 -0.02002283  0.35560733 -0.04541037 -0.14966415 -0.25281748  0.2932804
  0.19087271  0.5549339  -0.03726847  0.07002143  0.2731827  -0.26331496
  0.07013254  0.10999544]
layer 5 Activation
tanh
layer 6 Dense
20 1
[0.9782652]
[0.8313151]
[0.7755204]
[0.9236198]
[-0.94844764]
[-0.9428553]
[0.8381136]
[-0.8593442]
[-0.8711491]
[-0.7652648]
[0.82986265]
[-1.0324073]
[-1.0352342]
[-0.9337018]
[0.92935807]
[-0.8124531]
[-0.80876046]
[0.8718614]
[-0.7560844]
[-1.07967]
[17.818514]
