layers 7
layer 0 Dense
20 20
[-0.01975867 -0.05600971 -0.3631596  -0.00621992  0.00104375 -0.16015269
 -0.3448707   0.12648247 -0.18850724 -0.24229906  0.05251288 -0.14503947
  0.04042354  0.03411872  0.17794897 -0.22105286 -0.4714055   0.12361585
 -0.28841573 -0.13987115]
[-0.27218592  0.15035208 -0.20698914 -0.10413428  0.09427893  0.17856972
 -0.30118892 -0.14595515 -0.30588773 -0.4316108  -0.37300274  0.24138044
 -0.40417844 -0.02209137 -0.27265862 -0.31011605 -0.18493818  0.01067965
  0.32265446 -0.28956696]
[ 0.06986897 -0.21887386  0.4585033   0.06212698 -0.3804183  -0.17501637
  0.24857451 -0.16125157 -0.15257172 -0.4742623   0.22908852  0.24680689
 -0.26500922 -0.11344624 -0.48591     0.2741795  -0.04384117  0.12972265
 -0.17763    -0.43115053]
[ 0.20479782 -0.26106197 -0.18398048  0.18518072 -0.27717018 -0.3580612
 -0.3140388   0.46024624 -0.1674953  -0.4203746  -0.08409437 -0.25978255
 -0.2010411  -0.26053536 -0.38352212  0.06395572 -0.02514755 -0.34719193
  0.37016404 -0.2305074 ]
[-0.41041374 -0.16251193  0.31140307 -0.29447722 -0.3139042  -0.10971551
  0.39184862  0.38362265  0.07784887 -0.11331391 -0.31751302  0.00177896
 -0.3174901   0.06141052 -0.02484459  0.00618956 -0.12134483  0.13395958
  0.2331576   0.3269804 ]
[ 0.6355995   0.0645436  -0.3678549   0.24902838 -0.03291456 -0.13841164
  0.14831665 -0.28275537  0.04630186 -0.18992454  0.01291349 -0.07906914
  0.27695507  0.32584617  0.03639426  0.24865746 -0.1900009  -0.27478603
 -0.2720224   0.19422516]
[ 0.22607991  0.06040749  0.12839957 -0.24279426  0.07400427 -0.03506769
  0.3600267  -0.31975937  0.03241265  0.41089684  0.43422258  0.03681289
 -0.06782362 -0.27216256  0.37088904  0.13497002  0.08722695  0.19908398
 -0.50545746 -0.08269282]
[-0.02028954 -0.22833245  0.19540894  0.25366706  0.3874723  -0.10544977
  0.09060095 -0.4385731   0.3553105   0.5146886   0.07250643  0.40827864
 -0.08253852  0.21718118 -0.01817598 -0.17318992  0.3002433   0.28885552
  0.12614025 -0.27724668]
[-0.03334549  0.28089637 -0.07687966  0.11079322 -0.07907172  0.16897567
  0.1453909  -0.28142896  0.2244056   0.16189368 -0.41978353  0.07959176
  0.07940973  0.23723607 -0.123775   -0.13781811  0.08787491 -0.17014945
  0.10808227  0.3490296 ]
[-0.05508342  0.3043202   0.2561838   0.03268301  0.35194886 -0.00653732
  0.2452143  -0.10696412 -0.2508887   0.02530797 -0.41483864 -0.03009371
  0.20525998  0.1605496   0.24939935 -0.20189273  0.18019941  0.19485636
 -0.1131677   0.17662618]
[-0.45687464 -0.19371226 -0.0543905   0.06873059  0.18443866 -0.09094046
 -0.32343176  0.23287533 -0.20448418  0.20929134 -0.19976042  0.03198911
  0.13309772  0.3046521   0.31791425 -0.07605552 -0.33686528 -0.21226935
 -0.17190555 -0.0939811 ]
[-0.05447487 -0.15023625  0.7232385  -0.13573003  0.12014176  0.15027244
  0.12770839  0.04350903  0.32089958  0.369916    0.3110466  -0.05619228
 -0.03979324 -0.00277755 -0.21348688  0.14759979 -0.37533134  0.07152215
 -0.02926669 -0.70645565]
[ 0.23985872  0.10205985 -0.05420498 -0.2006339   0.12466908  0.2840857
  0.23017997 -0.2496059  -0.00710666  0.15473603 -0.11081541  0.25820062
 -0.2323651  -0.3126159   0.16616789  0.05650095  0.12512116 -0.14510013
  0.02259701 -0.1519078 ]
[ 1.0366567e-01  2.0234664e-01  1.5956588e-01 -4.6314627e-02
  1.0321995e-01 -2.2620869e-01  2.5602259e-02  2.9983121e-01
 -2.7955806e-01  4.2032561e-04 -6.1953496e-02  1.1661307e-01
 -9.2647925e-02 -2.5992623e-01  4.8954615e-01 -8.9350954e-02
  2.6176944e-01  1.4136180e-01  1.9640854e-01  3.2236022e-01]
[-0.27414864  0.10009748 -0.13675718  0.02976074 -0.01693131  0.31320494
  0.4135659   0.2690848  -0.27469212 -0.22901535  0.29324982 -0.12277602
  0.18786561  0.0359279   0.07872259 -0.01326446  0.40759385  0.17998138
  0.22231989 -0.18894301]
[ 0.17152704 -0.05027713  0.60629964 -0.2818726  -0.28155908 -0.16003552
  0.11972456  0.24332981  0.43379495 -0.14656675  0.06718377 -0.20188977
  0.29977414  0.12947716 -0.0621816   0.52547055  0.11799973  0.15633106
  0.48104522 -0.26982287]
[ 0.3077894   0.16472234  0.05741126  0.34569165 -0.03327578 -0.25045857
 -0.10428364 -0.36482292  0.081092    0.2028495  -0.22800942 -0.11099849
 -0.15340249 -0.31667423 -0.23460592  0.17970823  0.28723618 -0.22754261
  0.1658831  -0.18675964]
[ 0.13451594 -0.18320498 -0.38366693  0.15109938  0.40841767 -0.2923893
 -0.2784714   0.19876418  0.16280822 -0.25262538  0.2789599   0.3235856
  0.08679645  0.05121864 -0.296318   -0.63444763 -0.1941447  -0.28675365
  0.29179376 -0.36048508]
[-0.01323121 -0.2340716   0.7662837   0.57457244 -0.1460948  -0.15261321
 -0.06559682  0.20695667 -0.20763697 -0.1696665  -0.07414167 -0.39687464
  0.33044276  0.09075756 -0.1425664  -0.02742208 -0.26941186 -0.08714648
  0.30010793 -0.04530104]
[ 0.38618922  0.44979215  0.26377773  0.22627239  0.00659649 -0.36965382
  0.02770671  0.02824757  0.11906498  0.36347038 -0.41978738 -0.18434165
  0.52088404  0.07262655  0.19519648 -0.6141939   0.2501906  -0.38998282
 -0.39109695  0.37960255]
[-0.00613598  0.00358506 -0.10144536 -0.01475163 -0.07620125 -0.0164226
 -0.00620236  0.06260251  0.02833737 -0.10572705  0.02364536 -0.04689489
 -0.06945813 -0.01566597 -0.06677551 -0.02289693 -0.10172692 -0.04802489
  0.03500583 -0.13441414]
layer 1 Activation
tanh
layer 2 Dense
20 40
[-0.09015009  0.09041671 -0.3098089   0.09672362  0.33693594 -0.07079632
  0.16531846  0.00270139  0.35738543  0.14359757  0.35375056  0.1308796
  0.14936836  0.13288513  0.19612488 -0.23963392  0.15864873  0.06428015
 -0.2295191   0.14049515  0.08777726 -0.14419976 -0.1386475   0.13384882
 -0.2630061  -0.22713399 -0.18805018  0.07442656 -0.19303447 -0.2500692
  0.16478123  0.19409324  0.02494415  0.23454864 -0.19105968  0.00940068
 -0.20709176  0.15605891  0.19414346  0.22943358]
[ 0.08368551  0.196354   -0.28357574  0.42270023 -0.16893938  0.01487758
 -0.10380869  0.13285267  0.21398331  0.21713117  0.08467968  0.26927638
  0.30958176 -0.16994159  0.06605321 -0.19191913 -0.2512467   0.29594156
 -0.14372656  0.19410485 -0.21647048 -0.09812855  0.12662932 -0.2819869
  0.3628903   0.14229101 -0.19703434  0.1834965   0.10101729 -0.13500257
  0.09045255 -0.31279218  0.0053379   0.13599832 -0.18849286 -0.2770239
 -0.06679551  0.16884719  0.23813541  0.06936029]
[-0.03972387  0.39090785 -0.08807465  0.08494947 -0.0789533  -0.15484877
 -0.14000115 -0.35034117 -0.05633977 -0.13359949  0.17038223 -0.00790217
  0.28964734 -0.10340176  0.15570241 -0.17159711 -0.1670343   0.35572994
 -0.19880204  0.09877303  0.17432559 -0.02445165 -0.08034209 -0.20839255
  0.05919459 -0.34422243 -0.24643418 -0.25800467  0.29201505 -0.12173898
 -0.11462814 -0.13552903 -0.3027059  -0.20055845  0.26552495  0.00516165
 -0.19090858 -0.26796946  0.13746083 -0.07206808]
[ 0.341413   -0.03072827 -0.24095412 -0.3744799   0.03576259 -0.19360162
 -0.27860013  0.05120098  0.22288717  0.1404808   0.24423137 -0.15446857
 -0.01109194 -0.00940893  0.11830462  0.0213305  -0.13068555 -0.21847518
  0.29970062 -0.12606522  0.30726388 -0.14243282 -0.04493122  0.306891
 -0.1662813   0.287013    0.00647579 -0.07827532  0.05898051 -0.04791931
  0.24188116 -0.2588393   0.03578013  0.22110668  0.15591124  0.19679779
 -0.11754414 -0.21523312 -0.0555081  -0.37870717]
[ 0.21787857 -0.12259223  0.10750445  0.27888072  0.12898615 -0.24888985
 -0.15990795  0.18289812 -0.13713148 -0.11806011  0.02636857 -0.16044499
 -0.17379856 -0.00347284  0.16245364 -0.10705754 -0.11704088  0.12643227
 -0.02137254 -0.05995834  0.03005997  0.19132824 -0.19023292  0.25407487
 -0.16432792  0.25843552 -0.12242807  0.09279574 -0.22174607 -0.09811071
  0.14813848 -0.08324782  0.04186694 -0.16530274  0.07098424 -0.14190337
 -0.08215573  0.11704528  0.15476137  0.1615878 ]
[-0.04455951  0.10888121 -0.30016935 -0.05439701  0.13831508 -0.18027556
  0.01104954 -0.17399481  0.20413455  0.09585823 -0.06886003  0.18325955
  0.14220695 -0.0985987  -0.07284655  0.20728771  0.18413818 -0.2646323
 -0.32700938  0.21958084  0.02199511 -0.15911435 -0.18296276 -0.05378098
 -0.01270224 -0.16134913 -0.22604644  0.00755201 -0.25785357  0.10296461
 -0.01434868  0.00560759 -0.25243822 -0.41680878 -0.26750675 -0.14029782
  0.24488425 -0.0785133   0.07418613  0.15507865]
[ 0.19862017 -0.1981721   0.11658151 -0.07426591 -0.3821258  -0.09191068
 -0.15508348 -0.05533705  0.03236955  0.22925553 -0.28016993  0.20347193
  0.19758375 -0.11153883 -0.14159606 -0.2524737   0.27856433  0.23753494
 -0.01360912 -0.02534254  0.14871928  0.21456599 -0.19574563  0.18005848
  0.00974518  0.05629569 -0.32237595  0.06258465 -0.04211962 -0.06100342
 -0.17443444  0.26193714 -0.15119699  0.19693373  0.03254165 -0.18998443
 -0.10092492 -0.13105147 -0.15834723  0.02265368]
[-0.3800086  -0.0087611  -0.01554956 -0.22065055 -0.01133197 -0.00917625
  0.24098599  0.163583    0.08128829 -0.2597779   0.21766791 -0.09152836
  0.04986993 -0.04406969 -0.18416257 -0.02085423 -0.05786631 -0.2876947
 -0.14026427 -0.23576187  0.00749799 -0.12742762  0.24340251 -0.1781347
 -0.24276748  0.2822334   0.29734322 -0.20679426 -0.21991943 -0.32340956
  0.15692855  0.23667169 -0.03020689 -0.08268213  0.18005796  0.03799772
  0.30569884 -0.18718962 -0.16620325  0.14684723]
[ 1.6312519e-01 -7.7454083e-02 -1.7015125e-01 -5.1661547e-02
 -4.7888193e-02 -5.3672768e-02 -1.1238993e-01  2.3043039e-01
  2.4097419e-01  7.8849733e-02 -5.2210002e-05  7.4692182e-02
 -1.9981028e-01 -3.3663625e-01  3.6128876e-01  8.0739424e-02
 -9.5995046e-02  2.1040750e-01 -1.3736558e-01 -1.2410808e-01
 -8.4296636e-02 -2.0303153e-01 -2.1276178e-02  1.9981986e-01
 -1.0942620e-01 -1.7899343e-01 -1.9981536e-01  2.0307353e-01
 -2.2537553e-01 -1.4211664e-01 -1.4792496e-01 -6.0428102e-03
  2.4252895e-01  1.5221803e-01  1.9580142e-01 -3.5830338e-02
 -8.4828995e-02 -2.4123771e-01  1.6096553e-02  1.8827955e-01]
[ 0.16781083 -0.03817334  0.3196834  -0.11865955 -0.26260886 -0.01289838
 -0.07705078  0.05832125  0.2707594  -0.04131202 -0.2359354  -0.12589175
 -0.05472078 -0.09091537 -0.23166329 -0.03186412 -0.07468949  0.02365295
  0.14423744 -0.15516539  0.16985504  0.11547033 -0.05052919  0.14634153
  0.23689228 -0.30750594 -0.12048475 -0.28883353 -0.08299828 -0.07447357
 -0.08073124  0.08251316 -0.14937297 -0.23669402  0.13849293  0.02404561
 -0.17934668 -0.13496172  0.21727727 -0.24647556]
[ 0.17275737 -0.01627786  0.31473988  0.07308641 -0.21262422  0.13142946
  0.13383095  0.12539236 -0.22519408 -0.06819748  0.35268253 -0.19783933
  0.05274541  0.30341747 -0.23482722  0.26296794 -0.11279164  0.18493369
 -0.26890767  0.05980915  0.06456982 -0.20567031  0.16106187 -0.03354106
  0.12766881 -0.2778019  -0.34898424  0.14222758  0.01242364 -0.37161675
 -0.22782835  0.1000739   0.16369127  0.07006854  0.07905461  0.03375255
 -0.15329577  0.14982997  0.14360204 -0.09290342]
[ 0.13712482  0.2822253   0.3471796  -0.18717587 -0.4228693  -0.23537469
 -0.24882838 -0.1626859   0.04801443  0.15230745  0.02551354  0.08215519
  0.19227664 -0.33815196  0.10567395 -0.05893032 -0.02337831  0.12436317
  0.18529187 -0.12104357 -0.2896278   0.04190257 -0.20402093  0.30797905
 -0.304336   -0.08649784 -0.1870758   0.18147488  0.06836315  0.07352602
 -0.11261423  0.18926425  0.11930481  0.06524887  0.29865652  0.0985053
 -0.29469436  0.01501519  0.25284362 -0.01981251]
[ 0.3975346  -0.04018407  0.11262761 -0.12005807  0.05519355 -0.06077956
  0.11269163 -0.04533841  0.11524524 -0.1693078   0.1229687   0.02417703
 -0.08357197 -0.06252265  0.31747237 -0.19877476 -0.018877    0.03236165
 -0.18259473 -0.02990137  0.02391734 -0.02873652 -0.18010393 -0.04057157
 -0.02432283 -0.03344375 -0.19034569 -0.16799417 -0.04405589  0.30298582
  0.21694529 -0.12089659 -0.06058262  0.08044057  0.18715622  0.05191747
 -0.15571418 -0.05036532  0.16639367 -0.13309091]
[ 0.1495051   0.13324532  0.01641461 -0.0827281   0.24097711  0.02928144
 -0.1425786   0.30815735 -0.20247562  0.13585137  0.27708647  0.20084868
 -0.21071973 -0.16041157  0.33842167  0.2446622  -0.01719175  0.00734201
 -0.22919038  0.17206463  0.11340541 -0.00870915  0.18785295 -0.08817326
 -0.03571174  0.15057784 -0.17634033  0.01325209  0.17066401 -0.15546942
  0.3069029  -0.1578079   0.24477361 -0.0583377  -0.21883368  0.16925722
 -0.34885204 -0.15367799 -0.00319015 -0.20780392]
[ 0.04985737 -0.12667927 -0.10648935  0.21986239 -0.07894938  0.2786544
  0.1982073   0.270419    0.2095835  -0.09689773  0.12530218  0.18925856
  0.00421725  0.12044862  0.1098652  -0.15050709 -0.24521439  0.394281
 -0.02398117  0.12097649 -0.18072934  0.14173305 -0.04454045 -0.40935802
 -0.05233959 -0.18996225 -0.19398011 -0.26008084 -0.26308802  0.13956906
  0.25360608 -0.05205802 -0.18092562 -0.14914452 -0.07359591 -0.2796083
 -0.0096117  -0.00414827 -0.2420419  -0.21562865]
[ 0.14904386 -0.04263692 -0.24639149  0.20173249  0.05150766  0.10739901
 -0.23103663 -0.28772965  0.19538438  0.04904842  0.12805578 -0.11168262
 -0.18922846  0.31890708 -0.1549892   0.29029083 -0.18689139  0.21704096
 -0.23409973  0.01488233 -0.3686318   0.06834905  0.19007686 -0.3095573
 -0.21894062 -0.05627619 -0.15898697 -0.04036713  0.13465267  0.16252969
 -0.12230763  0.11113544 -0.13198683  0.07839321 -0.06653252  0.1880148
 -0.03744368 -0.25638425  0.03805793  0.2765169 ]
[-0.16911358 -0.18572746  0.26505086  0.31521434 -0.31557196  0.24927533
 -0.07914916 -0.02824911 -0.18436682 -0.2865352  -0.29864883  0.31194234
  0.10629033  0.15061264 -0.14098553 -0.1975934  -0.12735294  0.17087783
  0.09482897  0.27596995 -0.08699638 -0.24598321  0.06313856 -0.13112552
 -0.13301675 -0.17911334  0.06151533  0.23916045 -0.25826922  0.0793241
  0.04197638 -0.12439369 -0.10560971  0.17714316 -0.23955373  0.22457454
 -0.350889   -0.27541018 -0.07112908 -0.17648536]
[ 0.05206309  0.39673194  0.11136755  0.02990857 -0.22144392  0.04756903
 -0.2644196  -0.06704667 -0.12200706 -0.1056907  -0.10557755  0.24454108
  0.1531864  -0.29028228  0.11848389  0.20569682  0.07455627  0.11621845
  0.06598096 -0.1113053  -0.2189764   0.21450067 -0.08929862  0.00535685
 -0.25871453 -0.37887627 -0.05217863 -0.21269698 -0.0766491   0.06521069
  0.09970427  0.00296775  0.2045345   0.04028019  0.17179146  0.11349618
 -0.11500732 -0.10515031  0.16255745 -0.07145245]
[ 1.20050497e-01 -1.09637424e-01  1.09198473e-01  7.54726008e-02
  8.47999752e-02 -2.60070801e-01  1.95003316e-01  1.47344008e-01
 -1.87982187e-01 -2.58099269e-02  2.58135140e-01 -1.30826728e-02
 -2.64654644e-02  7.89752305e-02  1.29580274e-01  2.79586107e-01
 -8.55042338e-02 -1.56065166e-01  1.94591537e-01  7.86028355e-02
  8.21521655e-02 -3.14306132e-02  6.37016892e-02 -2.36392558e-01
 -4.39056009e-02  5.36946617e-02 -6.89499751e-02  1.16028851e-02
 -2.31785670e-01  3.94099541e-02 -2.86514670e-01  1.57247297e-04
  2.60566056e-01  3.17726910e-01 -1.36880338e-01 -1.12715401e-01
 -1.22160306e-02 -2.00460985e-01 -2.28970394e-01 -1.71873853e-01]
[-0.28837413  0.02995514 -0.19550468  0.14578252 -0.13886091 -0.01856266
 -0.12210249 -0.00822432  0.06511182  0.03083413 -0.3220496   0.20244825
  0.16188683  0.03126741 -0.18691869 -0.30835596 -0.09935148 -0.25970265
  0.07617778  0.16276236 -0.07942036  0.10220219 -0.20148058  0.06187281
  0.15498286  0.00166113  0.23420975  0.11585374  0.06096189  0.17607528
  0.18326883  0.28001365 -0.0514802  -0.18733338  0.02715992 -0.25719932
  0.08170579 -0.31384847 -0.08084452 -0.23784421]
[-0.15016489 -0.05088647 -0.06215354 -0.04707223  0.14861155  0.03841111
 -0.00746453  0.08647628 -0.01244702  0.01628712  0.05570165 -0.08993283
 -0.01763153  0.02649504 -0.08028613 -0.03771153  0.07457494 -0.14672013
 -0.06286546 -0.04179945 -0.07575969 -0.01575484  0.0936881  -0.0020201
 -0.04604318  0.06292663  0.07506118 -0.01421151  0.0047653  -0.05438465
  0.01750998  0.0366191   0.01386589  0.02577183 -0.05492527  0.0357834
  0.01117658  0.05174638 -0.03680825  0.00037476]
layer 3 Activation
tanh
layer 4 Dense
40 20
[ 0.22589612 -0.03638005  0.02361861  0.13371876  0.12682788 -0.05970603
 -0.2886121  -0.21812932  0.3000988   0.295316   -0.14346555 -0.17058991
  0.19967441  0.02938227 -0.22622788 -0.26566118  0.15856634  0.27879354
 -0.3082134   0.17870346]
[ 0.1834806   0.13588935 -0.27764574  0.23726286  0.22370648  0.13330351
  0.0856123  -0.03240978  0.02167969  0.0093352  -0.15524231 -0.08983459
 -0.21235214  0.07081068 -0.2607341  -0.09738195 -0.21386012 -0.02883695
 -0.19473235  0.27210876]
[ 0.08550973  0.272461    0.24021411  0.21202828  0.34998533 -0.17124929
 -0.3089728  -0.22183977 -0.03300022  0.07293222  0.29128432 -0.2821586
 -0.2540079   0.21699248  0.1270626  -0.12542957  0.22418173  0.13745885
 -0.1839177  -0.15292254]
[ 0.0422109   0.13505113  0.1765934  -0.1946791   0.2724276   0.32403687
 -0.24391913 -0.26817954 -0.00755249 -0.10578637  0.21908653  0.18347748
 -0.22101465 -0.2066426  -0.0173412  -0.25645363 -0.24853393 -0.19803405
 -0.068977   -0.16678898]
[ 0.02312185  0.08611443 -0.1536243   0.10294224 -0.2621219  -0.24934323
  0.26502684  0.21194343 -0.2040688  -0.15254511  0.1330567   0.13008328
 -0.1027826  -0.15674713  0.07564259  0.19896515  0.0642721   0.14552513
 -0.13880323 -0.262896  ]
[-0.10576098  0.01328806 -0.13966359 -0.25753006 -0.3585065  -0.00466344
 -0.11016303  0.1080506  -0.10952187  0.23772745 -0.13665654 -0.01636625
 -0.294346    0.15095067  0.19443452  0.27602762  0.06019238 -0.19653082
  0.15991843 -0.09974854]
[-0.06746193  0.20974466  0.30624348 -0.06177498 -0.19668373  0.18885294
 -0.19170226 -0.2874208  -0.16434933 -0.07182683 -0.04210304  0.03977261
  0.2814644  -0.2354365   0.28690457  0.0746308   0.1685158   0.3022139
 -0.03316675 -0.1109471 ]
[ 0.026558   -0.1594495  -0.20180061 -0.12908901  0.09325559 -0.15053892
 -0.15027131  0.27009314 -0.12265971 -0.02582026 -0.0309947  -0.13239628
 -0.07636101  0.0900233  -0.04881913  0.17456374  0.2783665   0.23205107
 -0.21654314 -0.00325597]
[ 0.10085183  0.19039692  0.04038633  0.08725151 -0.16339068 -0.24269913
 -0.22314423 -0.07463428 -0.14387123  0.29633906 -0.34877977  0.01120825
 -0.06122719  0.000915   -0.20615198 -0.08064391  0.09054498 -0.01076907
 -0.182519    0.38467643]
[-1.29763260e-01  1.05152756e-01 -2.20495716e-01 -1.35728970e-01
  4.90023047e-02  1.01017846e-04  1.14803739e-01  1.96343169e-01
  1.36795137e-02  2.06342161e-01  1.50734093e-02 -2.92391400e-03
  8.31372738e-02 -2.91178465e-01 -3.10236782e-01 -8.09998587e-02
 -1.63271010e-01 -5.80085106e-02 -1.28428936e-01  6.08111992e-02]
[ 0.18625963 -0.14595805 -0.28222176  0.3011867   0.2658415  -0.31584662
 -0.08028076  0.15579523 -0.2813203   0.24599624 -0.13792574  0.00609799
  0.03605958 -0.11533722 -0.03551264 -0.20594017  0.15596353  0.23056254
  0.3063776  -0.14663063]
[-0.00163755 -0.16295864  0.01263925 -0.3340105   0.32654908 -0.08452155
 -0.17968014 -0.2669097   0.05285418 -0.06907799  0.21206489 -0.07867539
 -0.19846255 -0.2027913  -0.1036811  -0.03109652 -0.283479    0.06277967
 -0.2542914  -0.23319659]
[ 0.01449135 -0.20002797 -0.21163958 -0.23152544  0.05807658  0.10827195
  0.21701677 -0.00306555 -0.16311045  0.05638347 -0.23643792 -0.18032932
 -0.16152173 -0.0471308  -0.06359564 -0.04949126  0.05408935 -0.22969906
  0.17091891 -0.23958045]
[ 0.13275583 -0.12852201  0.16116235 -0.18846896 -0.16220279 -0.01133448
  0.14323744  0.10404134 -0.4309849   0.01181535 -0.00524863  0.07591654
  0.1902605   0.35609034 -0.09159715  0.07550526 -0.05221668  0.00274266
  0.24074906 -0.15775584]
[ 0.24930774  0.17576484 -0.27259573  0.2505121  -0.07984447  0.28206372
  0.06372119  0.0386051   0.17823847  0.18454169 -0.12177827 -0.17070012
  0.16628778 -0.14136149 -0.03071914 -0.33132902  0.21330152 -0.09157593
 -0.3456199   0.01632943]
[ 0.02944497 -0.1783831   0.06158977 -0.16154145  0.00950739 -0.311781
 -0.21612906  0.09849103 -0.11056191 -0.27040797 -0.19543737 -0.06329674
  0.18078893  0.00412999 -0.08485935 -0.18225978 -0.05654356  0.26000118
  0.24699298  0.05911566]
[ 0.26603848  0.06645149 -0.29536396  0.23660736 -0.18317379 -0.21987364
 -0.02067547  0.08210497  0.16678229 -0.12515397  0.16783689  0.03184824
 -0.07389914 -0.11458881  0.14073093  0.28839326  0.04925893 -0.21626101
 -0.0137016  -0.29999417]
[-0.08202972 -0.21077263  0.29621103  0.02612522  0.33681604  0.21270263
 -0.31482002 -0.1599729   0.2532257   0.02573277 -0.13697456 -0.2631055
 -0.15897426  0.2215574   0.28093937 -0.27362514  0.0332091   0.04098281
 -0.03046884  0.2832726 ]
[ 0.19361657  0.234925   -0.08961727 -0.29716423 -0.15140328 -0.27476135
  0.07381367  0.27345422  0.05584636  0.32365343  0.10381333 -0.24144879
 -0.17392284 -0.16219623 -0.00913303 -0.13851015  0.11594225  0.09364665
 -0.12480775  0.24904428]
[ 0.31653917  0.04103712 -0.00538    -0.3406153  -0.11112081  0.2650549
 -0.15516531  0.02521193  0.10104812 -0.03925298  0.10849851 -0.10468327
 -0.07006401 -0.06858788  0.00782931  0.06182935  0.24737513 -0.2422693
 -0.00225561 -0.11616048]
[ 0.07600515 -0.05931478  0.054941    0.04027552  0.27318594 -0.26579458
  0.26960728  0.07671365  0.0583228   0.0096245  -0.20917654  0.02142972
 -0.13337356 -0.1292014  -0.05711715 -0.23101585 -0.04255441  0.18398876
 -0.31306523 -0.16808495]
[ 0.12843016 -0.13759421  0.02549691  0.22009358  0.1282414  -0.13847107
 -0.19070095  0.35399303  0.17337725  0.14991894  0.30254683  0.17210685
 -0.14869426 -0.08659941  0.13993868 -0.05552513 -0.17673853 -0.06912512
 -0.20351906  0.0126132 ]
[ 0.11796847  0.06193741  0.02321077 -0.0498508  -0.20341118 -0.03854825
 -0.04900054  0.04252106  0.13720575  0.30189288  0.12932795  0.33923435
 -0.21739474  0.06271937  0.25925186  0.12752584  0.23192877  0.01457556
  0.23339584 -0.17727025]
[ 0.04120256 -0.27920985  0.00222844  0.340449    0.1890422  -0.25036415
 -0.1415993   0.00342695  0.20170307 -0.08244766  0.05459867  0.2268026
  0.14776647  0.08165069 -0.18187734 -0.26106328  0.30053565 -0.12285153
 -0.15315314  0.20154516]
[-0.05491879 -0.12901865 -0.08500563  0.00138305 -0.06340373  0.27488557
  0.18987294 -0.22651432 -0.12785253  0.08619303  0.32082874 -0.34786296
  0.0338091  -0.14212666  0.01381848 -0.22240488 -0.36688313 -0.24326165
  0.15891306  0.07253329]
[ 0.01447038 -0.24964404 -0.270044   -0.01590622 -0.33086792 -0.05492728
  0.08709884  0.21881157  0.02782854 -0.23168813 -0.17490675  0.3073435
  0.30979493  0.01524855  0.1918381   0.28347707  0.04678003  0.3245034
 -0.28563768 -0.29558802]
[-0.15887597 -0.28689516  0.27980494  0.13138221  0.18038808 -0.1698722
  0.08657329 -0.23471826 -0.2539997   0.28490278  0.00060857  0.14550582
 -0.04930398 -0.1840217  -0.30559322  0.2995792   0.287487    0.02482945
  0.04953396 -0.2014692 ]
[-0.02187411  0.14268228 -0.18891247 -0.12797558 -0.25712514  0.12798743
 -0.2113983  -0.17673066  0.22056872 -0.23262647 -0.26793998  0.13313773
  0.09838545  0.07057647 -0.13597356 -0.06877774  0.19544938 -0.17438367
 -0.11534181  0.15509671]
[-0.19118991 -0.21154219  0.21996588  0.26246643  0.10846963 -0.06055373
  0.28541046  0.19821449  0.00472062 -0.23822923 -0.16412698 -0.2296371
 -0.12175655 -0.20758626 -0.13954815  0.19372123  0.25131473 -0.30136997
  0.20854305 -0.00995661]
[-0.30981317 -0.18844557 -0.25831658 -0.18225616 -0.13272107  0.01672423
 -0.05045254  0.03542372  0.0820798   0.19841203  0.11039127 -0.2608872
 -0.11810049 -0.05085695 -0.23283663  0.22978075 -0.2577122  -0.15632555
 -0.22928335 -0.2893541 ]
[ 0.02230646 -0.20736942  0.25148657 -0.3369012  -0.24436644  0.07107066
  0.2849904   0.17488302 -0.01544301 -0.2370298  -0.18359414  0.12333094
 -0.28887752  0.16851582  0.03366332  0.3190471   0.18890019 -0.09548674
 -0.34503812 -0.25554985]
[ 0.08279997 -0.03147858  0.12349287 -0.07804945 -0.18070175  0.259358
 -0.26348734  0.20023033 -0.15051426 -0.01458373  0.00140395  0.38907275
  0.25265974  0.18738852 -0.19728696  0.45859292 -0.15692852 -0.29590347
  0.01839582 -0.07999881]
[-0.14171515  0.2839804   0.123598    0.27589467 -0.17791997 -0.34839326
 -0.08134874  0.23161587  0.26112533  0.11573266 -0.05028306  0.24863903
  0.21861258 -0.04471262  0.0022377  -0.12506592 -0.09759778 -0.25494513
  0.22888392  0.16401345]
[-0.1409726  -0.16795044  0.08143625 -0.06876317 -0.04316563  0.27774704
  0.21421464 -0.12722524 -0.05041201 -0.21999088  0.03668244 -0.24683477
  0.30955434 -0.12907106 -0.04120823 -0.04027729  0.01478441  0.1431529
 -0.0651791  -0.07252471]
[-0.07307217  0.07774328  0.12767771  0.16694203  0.21931076 -0.08527771
  0.27292335  0.32557404  0.26098847  0.2528326   0.1404242  -0.12333403
 -0.10341181  0.25313914  0.22763172 -0.27793235 -0.16129844 -0.2627464
  0.07532557 -0.22034866]
[-0.12622054  0.22928467  0.08795754 -0.18731382 -0.06192469 -0.2138323
  0.06310746  0.1361642  -0.2270767  -0.21793611  0.16858141  0.28964406
  0.07035745 -0.10658271 -0.32298338  0.09607837  0.10753799  0.00825882
 -0.16380867 -0.0478088 ]
[ 0.31132615  0.13446674  0.13122438 -0.12477088 -0.2723137   0.2206399
 -0.22683057  0.09682729 -0.09696964  0.3142863   0.17662525  0.3408125
  0.25045294 -0.16973062 -0.03685117 -0.02552225 -0.23498327  0.08748252
  0.18535568 -0.28874445]
[-0.04290975  0.139304    0.1456286   0.20087735  0.13090871  0.05448345
  0.09874173 -0.20716712 -0.29704005  0.11854696  0.18132252  0.24550743
  0.26816913 -0.30000424  0.0566151   0.03808925  0.2552144   0.15345554
 -0.09051865 -0.4014567 ]
[-0.07193939  0.06659393  0.02379243 -0.22995748 -0.23089355  0.13478115
  0.13730675  0.27362093 -0.14386252  0.10040266  0.293163   -0.127359
 -0.07038186  0.1733703  -0.03559629 -0.23244445  0.27221447 -0.08976071
 -0.2468212   0.24685198]
[-0.18699425 -0.06723466 -0.27081767  0.07914989 -0.1563114   0.22428824
 -0.21280287 -0.16426452  0.11038139 -0.05907414 -0.24761829  0.36811155
  0.02824787  0.08976664  0.16698554 -0.06112076  0.13094288  0.23080374
  0.17068368 -0.00749372]
[ 2.50878353e-02 -1.73167158e-02 -1.94688123e-02 -1.83589384e-02
 -2.90251337e-02 -3.53520662e-02  4.97324839e-02 -2.39528082e-02
 -1.24607556e-01  3.60107832e-02 -3.62678133e-02  1.05156779e-01
  2.46053450e-02  4.95877862e-02  3.09695192e-02  1.07614227e-01
  3.73323373e-02 -8.49288335e-05  1.60272047e-02 -2.55110543e-02]
layer 5 Activation
tanh
layer 6 Dense
20 1
[-0.00503226]
[-0.02216195]
[-0.03581989]
[-0.17678599]
[0.36663267]
[-0.22452071]
[0.11317202]
[-0.11991722]
[-0.13906361]
[0.06178808]
[0.01554164]
[0.30161658]
[0.21352465]
[0.01210396]
[0.132728]
[0.37360802]
[0.10759176]
[-0.29247484]
[-0.25114903]
[0.3989821]
[0.04014894]
