layers 7
layer 0 Dense
20 20
[ 0.27764633  0.18750069  0.54989785  0.05725259 -0.09036925 -0.1265811
  0.34784478 -0.06486857  0.29221812 -0.19717383  0.25697175 -0.03540053
  0.03061587 -0.10597052  0.3487742   0.19334662  0.20325427  0.16124569
 -0.17234099  0.29312673]
[-0.02548173  0.20785147  0.38417757 -0.10172677 -0.36583847 -0.25612026
  0.20576721 -0.37361276  0.26546156 -0.02812722  0.14296359 -0.35808215
  0.30444872  0.15438879 -0.27667016 -0.07065576  0.23970121  0.07048216
  0.27059442  0.35565346]
[ 2.30484724e-01 -3.67464721e-01  3.04312825e-01  1.99802399e-01
 -2.13687420e-02 -3.55204493e-01  9.27716494e-04  2.10144997e-01
  3.12924385e-06  3.48401427e-01  3.55466187e-01 -2.08550394e-01
 -2.61813164e-01 -7.52426386e-02 -1.28491640e-01  1.97872221e-01
  2.17887163e-02 -1.22707695e-01 -3.14655542e-01 -2.26503611e-01]
[ 0.3258374   0.17476787  0.47468284  0.00842888  0.2669062  -0.2921369
  0.03356076  0.27421433  0.3528844  -0.3150987  -0.21813451 -0.0762996
 -0.6160883   0.07621837 -0.13839713  0.33884072  0.03266189  0.47452596
  0.07415488  0.27723372]
[ 0.2870312  -0.08790003 -0.21134464  0.05982013 -0.28050143  0.00215313
 -0.21612857  0.0876682   0.24363944 -0.2819311  -0.24924776 -0.10995209
  0.15983132  0.04160627  0.3288863   0.15326162  0.08179545  0.5603309
  0.24322721 -0.27533546]
[ 0.3311867   0.04170728  0.36677092  0.33275187  0.05531833 -0.3729351
  0.01066628 -0.19510342 -0.17266086 -0.29745293 -0.02715084  0.05039343
  0.35891706  0.1276508   0.381819   -0.13665009  0.28782314  0.05322501
  0.04745066  0.16627645]
[-0.12701347  0.1613447   0.24804163 -0.25883836 -0.35853112  0.15280712
  0.19682556  0.0674383  -0.03976852 -0.00603262 -0.3348803   0.18785971
  0.30353326  0.19064611 -0.12367818 -0.14233623  0.09326759  0.30837297
  0.32824516 -0.02822244]
[-0.49839568 -0.12271046 -0.54732984  0.45695227  0.37067795  0.08521703
  0.15677015 -0.51244915  0.3041893   0.05111624  0.29923707 -0.08334794
  0.74523383  0.33584824  0.15892841 -0.67520624 -0.0448412  -0.577713
  0.2830053  -0.3365999 ]
[-0.4379871  -0.02375392  0.16675621 -0.45205334 -0.15678939 -0.6836504
 -0.04350891 -0.04407343  0.20308553 -0.08650517  0.28785828  0.05977368
  0.05232198 -0.497813   -0.00178363 -0.3944381   0.12161708  0.06990116
 -0.5996622  -0.12041396]
[ 0.5936088  -0.2380084  -0.10824924  0.01612001 -0.33840936  0.39496148
  0.40111083 -0.07878356 -0.38906062 -0.03787009 -0.04822749 -0.35294205
 -0.06407288  0.8866128  -0.4908405  -0.23218255 -0.59853     0.02895593
 -0.02600697  0.39366063]
[-0.4715586   0.01435454 -0.11265197  0.41436717  0.02147137 -0.031555
 -0.2973915  -0.30077732  0.4431144  -0.18732196 -0.5765967  -0.15805304
 -0.28268346  0.48598847 -0.08506145  0.01279102 -0.07983865 -0.01703002
  0.41596922 -0.31729844]
[ 0.48238215  0.6931909   0.99233556  0.05066945 -0.5227469  -0.22921894
 -1.0845385  -0.06113748 -1.058771    0.7662279  -0.28344476 -0.5193844
 -1.1061493  -0.56338453 -0.7421725   0.3175352   0.990839   -0.48644766
 -0.69777465 -0.12685145]
[ 0.17746721 -0.09052975  0.0643111  -0.4192828  -0.30969822 -0.08701257
  0.1206165  -0.41038582 -0.10901783  0.20199975  0.1931962   0.14938895
 -0.15217727 -0.37344655 -0.12796886 -0.48350132  0.0468289   0.13286248
  0.19914792 -0.24284565]
[ 7.7826482e-01 -4.1619587e-01  2.2498198e-01 -1.0491145e-01
 -8.4421533e-01  3.4708214e-01  7.5706410e-01  4.3502133e-02
 -4.5103931e-01  1.5232375e-02  1.9731435e-01 -1.0533544e-01
  2.9114389e-01  1.9216292e-01 -7.7670395e-01 -3.5524541e-01
 -7.1431357e-01  1.0810794e-01 -2.9840216e-04  4.9455658e-01]
[-0.00078232 -0.08581018 -0.15157028  0.23684503 -0.05948601  0.01221505
 -0.14571409 -0.5203708   0.26324487  0.38883987 -0.45067713  0.20152193
  0.21602997  0.26817808 -0.23579223 -0.16568135 -0.14262019  0.0434474
  0.6704875  -0.21492918]
[ 0.9606368   0.4664007  -0.14421113 -0.03234674  0.2772382  -0.29631472
 -0.74488586 -0.05687904 -0.8795759   0.46277082 -0.01881585 -0.4463533
 -0.5402834  -0.5512338  -0.55685234  0.32041273  0.6111873  -0.5544071
 -0.37395784  0.04221108]
[-0.65367186 -0.10363781 -0.06423466  0.30069298 -0.23356214  0.65123594
  0.53105766  0.22408599 -0.16347295 -0.14233539  0.56203127  0.26295286
  0.22485338  0.3972005   0.27513126 -0.43044192 -0.43777296  0.21165338
  0.02083149  0.08858604]
[-1.2795951   0.6243199  -0.07352089  0.43319285  1.4298927  -1.4594207
 -0.7705694   0.44115394  0.34580845 -0.38945672  0.05481644  0.9499866
 -0.19324808 -1.3754084   1.5489324   0.5437825   0.68624866  0.25431246
 -0.41746327 -0.47620103]
[ 0.37174293 -0.11395334 -0.34949198 -0.38507992 -0.05025524  0.50205874
  1.0588636   1.4625477  -1.5432708  -0.29775673  1.3067994  -0.9660968
 -0.05159964 -0.02979166  0.4882115   0.02790784 -0.44375476  0.01695241
 -0.9955964   1.1141266 ]
[-0.45931086 -0.31737155 -0.6249477  -0.27052215  0.23289451  0.48950624
  0.975781    0.05981082  0.9278087  -0.5929297   0.26908457  0.3339629
  0.632196    0.03282893  0.6874703  -0.28139934 -0.21459398 -1.0297571
  0.6936551  -0.11207405]
[ 1.5205418e-01  1.4566943e-01  2.5175127e-01 -6.1883543e-02
 -4.9624905e-02 -9.7562835e-02  5.9830630e-03  3.5306934e-02
 -4.7416475e-02  2.0217156e-04 -4.6985298e-02 -1.2675539e-01
 -2.1804522e-01  1.9701304e-02  1.5386099e-02  2.2064924e-01
  6.0563229e-02  2.7342364e-01 -2.5396137e-03  2.7446976e-02]
layer 1 Activation
tanh
layer 2 Dense
20 40
[-0.15903151  0.09270331 -0.20497836 -0.099392   -0.16346647  0.22118543
 -0.3599081   0.12388586 -0.36846492 -0.19177617  0.17611596  0.05334168
 -0.40372768 -0.2298113   0.20704894 -0.15979058  0.27685392  0.12518679
 -0.29075417  0.12199756 -1.0099329  -0.22679688 -0.23765348  0.56714773
  0.03284508 -0.5262654  -0.45339963  0.82619977 -0.20757599 -0.6148839
  0.1526399  -0.33653817 -0.28294155 -0.6638598   0.26872885 -0.07776743
  0.14437672 -0.36142984  0.15469792  0.7197377 ]
[ 0.05103748  0.5937534   0.05266001  0.33881763  0.21038978 -0.29112047
  0.00442708 -0.5187436  -0.07211665  0.4437159   0.47235703 -0.16837361
 -0.17221308  0.13587904  0.09069303 -0.08441233 -0.38023362  0.04370073
 -0.08238781 -0.67619574 -0.33947855  0.5329399   0.18248112  0.5122651
  0.11025295 -0.38046944 -0.49904904  0.0172579   0.48117465  0.393897
 -0.17217375  0.40425128 -0.16796847  0.02717518  0.32706678 -0.0572359
  0.372611   -0.45427936 -0.42999467  0.04994742]
[ 0.20329775  0.22106324 -0.2529826   0.02522298  0.08529828 -0.5318301
  0.00118825 -0.5629697  -0.08443201 -0.34749985  0.15825109 -0.0628903
 -0.03144115 -0.35578886 -0.25037104 -0.2817688  -0.00981552  0.14530677
  0.19363877 -0.00910719 -0.1778752   0.20192444  0.2635103   0.05663792
  0.03634683 -0.6893732  -0.4172732   0.50266033  0.22451144  0.03656625
 -0.3661684   0.05128891  0.04721858 -0.39834997 -0.28812438 -0.10894918
 -0.23920766 -0.69858325  0.20486513 -0.31897038]
[-0.18864115  0.33152965 -0.41743746  0.1877179   0.30223832  0.05752118
 -0.09040438  0.0148813   0.06592301  0.05123543  0.31138763 -0.61665845
 -0.5523078   0.15271065  0.2995574  -0.05082875 -0.42156082  0.52025026
  0.23513113 -0.08753987  0.02605967  0.18726307  0.25888038  0.0086809
  0.12058616 -0.04604142  0.38647074 -0.09727666 -0.04398151  0.5782788
 -0.5509678   0.38230225  0.35364735  0.11064099 -0.07602244  0.23548019
  0.44215086 -0.2650183   0.3035956  -0.3152258 ]
[-0.01825202 -0.2591043   0.30751657  0.04529985  0.3488741  -0.11054182
  0.2634294  -0.09032518  0.03796586  0.64380765  0.37610427 -0.0530924
  0.31058267  0.14664975  0.04923547  0.61211056 -0.18184954  0.17917523
 -0.22072825 -0.64527744  0.22108763  0.6505595   0.1564     -0.00792147
  0.09576676  0.2576065  -0.49350002 -0.3431203   0.06379195  0.5755077
  0.22711225  0.02182112 -0.16314375 -0.1140952   0.03869384 -0.1917102
  0.0199663  -0.46080098 -0.33400118 -0.36241582]
[-5.4463458e-01 -1.7200625e-01  1.3079196e-03 -9.9598169e-02
 -1.1206858e-01  1.5211091e+00 -6.1773133e-01  5.1317912e-01
 -4.1811964e-01  4.0525269e-02 -6.1577404e-01  6.4580297e-01
 -2.3397255e-01 -3.9073217e-01  2.5740758e-01 -3.0380863e-01
  1.5998098e-01  3.3022738e-01 -4.6520907e-02  5.3040445e-01
  4.1610464e-01 -6.1839628e-01 -3.8251472e-01 -4.1987309e-01
  2.1628977e-01  5.3148222e-01  3.1511375e-01 -6.7753220e-01
 -5.5149472e-03 -2.3542689e-01 -3.4488365e-02 -3.6473629e-01
  2.5901869e-01  3.5601667e-01 -3.3579138e-01  1.2763430e-01
 -1.6132422e-01  3.3150432e-01  5.8094937e-01  8.0461180e-01]
[-0.39292723 -0.80517083  0.14658126 -0.1595361  -0.43001792  0.9563693
 -0.36644417  0.24060912  0.01391893  0.22537635 -0.29178104  0.77673966
 -0.4170954  -0.67350495  0.2905767   0.14172803  0.1398626   0.12265865
  0.18448025  0.42454296  0.35932302 -0.84790117 -0.37567458 -0.44480172
 -0.36026955  0.4602361   0.43730488  0.10823075  0.01555254 -0.22000638
 -0.1916531  -0.4026619   0.20949262 -0.00551922 -0.1736329  -0.31743142
  0.21755376 -0.11360865  0.49051908  0.53278625]
[-0.00574857  0.4820479   0.31321576  0.40676042  0.3368092   0.20338115
 -0.13423902 -0.41605693 -0.42924777  0.51391876 -0.01714339  0.70819706
  0.347367   -0.14734283 -0.09822536  0.07045549 -0.22011222 -0.16182637
 -0.2836696  -0.5694242  -0.17052962  0.13974106  0.12228817 -0.270605
 -0.20137176  0.516164   -0.30140188 -0.38442734 -0.13953614  0.45211834
  0.57561195 -0.25514132  0.28785643  0.40218616 -0.49393463 -0.06142821
  0.3286185  -0.22885565  0.29223052 -0.07000384]
[ 0.20502959 -0.14599788 -0.7088549  -0.12990767 -0.15666483  0.47076416
 -0.2962508   0.25618768  0.23442303 -0.7053898   0.35475945 -0.20693983
  0.40493745 -0.95836973 -0.15532742 -0.21830124 -0.4321447  -0.07641432
  0.5493448  -0.17414075  0.2721235  -0.62796783  0.05180708 -0.04704527
  0.19820778  0.15012152  0.25364497 -0.5303083   0.34897807  0.6652841
 -0.7681767   0.18187414 -0.24858047  0.12718755  0.23200685  0.44426346
  0.0334924   0.13673945  0.36176878 -0.6242235 ]
[-0.03948681  0.21469486  0.06661907 -0.00322627  0.11032247 -0.22773519
 -0.31210527  0.19674717 -0.1794503   0.01152585  0.10264265  0.10544822
 -0.05172639  0.02970149 -0.05148498 -0.04335614  0.2513108  -0.48131132
  0.14592558  0.17417729 -0.142032   -0.08672526  0.05483612  0.13066979
 -0.2530114   0.06116102 -0.0864394  -0.52199394  0.3156881   0.0367602
 -0.19143666 -0.16992609  0.07089689  0.41026703 -0.39285526  0.03970528
  0.11046409  0.21607348 -0.03582262  0.4160101 ]
[-1.28103673e-01 -2.38895386e-01  5.36654770e-01  4.29810882e-01
 -2.29688644e-01  1.02406725e-01 -1.60860345e-01 -2.86503553e-01
 -3.28082480e-02  3.56733650e-02  3.09358925e-01  5.86145163e-01
  2.40935143e-02  1.04755282e-01 -2.34836549e-01  2.87387133e-01
  8.92653987e-02 -1.95808083e-01 -5.53665638e-01 -3.44509259e-04
 -5.25102437e-01 -2.93468773e-01 -9.10052285e-02 -1.08497977e-01
 -2.19667494e-01  5.91567516e-01  4.45993751e-01 -5.51274642e-02
  3.38838369e-01  6.00987561e-02  3.93797785e-01 -7.26782456e-02
 -5.35751358e-02  1.31048728e-02 -1.97830603e-01 -9.92847085e-02
  1.27431273e-01  9.12377536e-02 -1.46500319e-01  9.70281959e-02]
[ 0.25417417  0.05201109 -0.21979678  0.203499   -0.07782131  0.2107985
  0.34621814  0.146987    0.27404574  0.15770012  0.04920993 -0.13617231
  0.4173188  -0.01959335  0.13784164  0.13856606 -0.3254051  -0.26685354
 -0.02213327 -0.29427704  0.5089459   0.24698094  0.19918717  0.08600403
 -0.0447932   0.5413045   0.83674175 -0.1801997   0.04868836  0.19035563
  0.0549271   0.38483402  0.0262358   0.29208887  0.46436852  0.32263446
 -0.05607299 -0.07131643 -0.21095005 -0.23886526]
[-0.6025652  -0.19822024 -0.1503058  -0.13931611  0.04073261  0.3725343
 -0.17720892  0.473848    0.10359723  0.17957312 -0.33273727 -0.02877797
  0.04359749 -0.16739675  0.18517846  0.13014251 -0.4838452  -0.08544555
 -0.11019377  0.77771336  0.37120166 -0.3304304  -0.05519965 -0.10246205
  0.21475297  0.7233037   0.66387224 -0.33551747 -0.10945438 -0.02825149
  0.2474714   0.07999098  0.26552212  0.5148329   0.11136822  0.31320697
  0.4368698   0.3395363   0.24304377 -0.11991634]
[-0.47485328 -0.15884939 -0.02197955 -0.3779193  -0.26203123  0.6755696
 -0.52899456  0.06807733 -0.4810338  -0.4088942  -0.09140004  0.0929857
 -0.20280921 -0.3159585  -0.3691637  -0.25760755  0.40828907  0.08341216
  0.07035451  0.3568254   0.590617   -0.6702913  -0.29771957 -0.11486002
 -0.33660293 -0.23110491  0.24671547 -0.2103598  -0.23204982 -0.64826435
 -0.35825545 -0.16802633  0.33247247  0.07936279 -0.1282813   0.16896011
  0.00206011  0.01315152  0.40505254  0.54670775]
[-0.16680615  0.4669105  -0.28475192  0.36736745  0.6214517  -0.52595663
  0.43303934 -0.08499887  0.04954699  0.13816135 -0.25388396  0.5411178
  0.6067454   0.16104421 -0.15006237  0.10035994 -0.34039232 -0.22045346
 -0.19010942  0.04646164  0.64762723  0.0528235   0.05974044 -0.4194592
  0.11228888  0.4001884  -0.25691566 -0.5946159  -0.22151263  0.87567717
 -0.2551916  -0.15693174 -0.06286173  0.48216593 -0.28613803 -0.16728278
 -0.09599429 -0.10812229 -0.06244604 -0.41216746]
[ 0.22010982  0.6192013  -0.12153117  0.10280701  0.2479148  -0.5715663
  0.1661834  -0.55543715  0.08111066  0.35737324  0.2610804   0.14468814
 -0.11596876  0.05398389  0.26467144 -0.47108668  0.25766754  0.17084277
  0.21761134 -0.8788756  -0.48191434  0.00811629  0.40430382  0.44073513
  0.26721117  0.00572773 -0.39146987  0.2931417  -0.11338849  0.4479463
  0.2619761   0.41527987 -0.19727764 -0.1223451  -0.18724151  0.04740758
 -0.01926946 -0.1001544   0.09273591  0.09513696]
[-0.14990626  0.37393498  0.00439537  0.11023471  0.29502362 -0.6946083
  0.00524987  0.0513425   0.50276357 -0.37428796  0.9673056  -0.21566626
 -0.04723256  0.54838544  0.04385533  0.49564472 -0.17129876  0.04209436
  0.1662098  -0.44610697 -0.3749528   0.8398753  -0.17442337  0.70428765
 -0.08690865 -0.44588953 -0.15667109  0.24027185  0.20346844  0.46266675
 -0.15593009  0.15421073  0.02865855  0.23971495  0.11868635  0.03482004
  0.4218939  -0.29765967 -0.7844597  -0.5530814 ]
[-0.22027498  0.31358787  0.01940433  0.15719683  0.42122644 -0.4760217
 -0.21010548 -0.22395319 -0.3159016   0.20085748  0.14168124  0.208438
 -0.04186971 -0.11378    -0.2334134  -0.69607395 -0.22910646  0.18930747
  0.20998994 -0.04080606 -0.64019006  0.28172052 -0.19048308  0.30542293
  0.15972547 -0.1842517   0.10351368  0.6114676   0.05457415  0.3837689
 -0.12927896  0.14088951 -0.28666744 -0.3297253  -0.03468464  0.00692187
  0.02725926 -0.17097846 -0.09921388 -0.10734307]
[-0.5112121   0.04992019 -0.6158828  -0.51857936  0.13620226  0.29767802
 -0.4122292   0.05410084 -0.41157356 -0.4810688   0.0564973  -0.22992691
 -0.09489679 -0.5653627  -0.2668706  -0.2589146  -0.26701805  0.36262435
  0.2623491   0.38314915  0.603336   -0.55500007 -0.19658063  0.17628147
 -0.36463845  0.34560066  0.8983401  -0.13019875 -0.21581     0.3490935
 -0.6663643   0.04719519 -0.10912497  0.161059    0.03739787  0.48040122
 -0.14456749  0.3431217   0.5145192  -0.63438255]
[-0.01606877  0.3231828  -0.33107895  0.2843437   0.04179513  0.15988989
 -0.5818988  -0.11284776 -0.7379205   0.5951241   0.39274818  0.5815196
  0.43133342 -0.07893343  0.01861038 -0.38309684  0.30507717  0.49820367
  0.3119079  -0.12772907 -0.31305823 -0.50777346  0.13222511 -0.57756186
 -0.100269    0.10775401  0.1073398  -0.21774943  0.3194084   0.23435551
 -0.2013491  -0.13490875  0.08688638  0.17099129 -0.51379395  0.26028377
  0.04898489 -0.2611491   0.26789272  0.19027041]
[ 0.14402254  0.2930885  -0.28026402  0.00558878 -0.06148991 -0.21464889
 -0.03239749 -0.27772588 -0.18674421  0.1012186   0.1816025   0.05674889
  0.04273435 -0.09030212 -0.02829991 -0.22568193  0.04664799  0.27666566
  0.14195654 -0.5056114  -0.33340716  0.1224218   0.18719     0.09097838
  0.01769987 -0.39006373 -0.26759315  0.59671617  0.04594452 -0.05120823
 -0.10648927  0.0523475  -0.05890786 -0.3213283  -0.06254205 -0.00093191
 -0.08558556 -0.3074314   0.07270031  0.20888878]
layer 3 Activation
tanh
layer 4 Dense
40 20
[ 0.1150874  -0.0426528  -0.22693351 -0.14686641 -0.31711987 -0.5481282
  0.2528872   0.3710565   0.26736066 -0.04543392 -0.3927603   0.37488273
 -0.38162488 -0.27341825 -0.41093722  0.28114316 -0.37667456  0.04866983
 -0.05597302 -0.25498304]
[ 0.4584278  -0.1022503  -0.3741299   0.39623156  0.12130304 -0.10453276
  0.3019123   0.35207883 -0.25525475 -0.15163715 -0.2868249  -0.1661716
 -0.08965319 -0.7446642  -0.48114848  0.01057668 -0.4768651  -0.12133157
 -0.02624889  0.01969449]
[ 0.06595102  0.33929014  0.07179151  0.08462658  0.13784362  0.14949657
  0.15308963 -0.24573736 -0.09178077  0.43934068  0.02254594  0.6246886
 -0.1357774  -0.01841354  0.26322272  0.4966768   0.4930902   0.20453775
 -0.21754973 -0.27130666]
[ 0.4831522   0.2654586   0.00530291  0.42628983  0.11782748  0.24953455
  0.17919506  0.21023501 -0.44778147  0.09320576  0.01549397 -0.5416753
  0.05898068 -0.34298256  0.0079904   0.00174761 -0.07620853 -0.20822169
 -0.3839711  -0.04728837]
[ 0.26010078  0.31683043 -0.56168884  0.12347031  0.3520738   0.23305008
 -0.3523343   0.4281652  -0.26139405 -0.08614073 -0.0394283  -0.48778355
 -0.6448607  -0.12274881 -0.11239936  0.18967204 -0.18854146 -0.02829304
 -0.07612531  0.3603509 ]
[-0.38285777  0.23998182  0.50131243 -0.38252193 -0.30671746  0.4494681
 -0.48666626 -0.42594522  0.00848134 -0.30786037  0.42861238  0.05600038
  0.3796286   0.6429433   0.5826661  -0.04242765  0.31940392  0.36934173
 -0.21139231 -0.18471965]
[ 0.5345662  -0.2618984  -0.01889887 -0.1800713   0.27419916 -0.38335198
  0.3283272  -0.14759463  0.38333824  0.3156667  -0.53201866  0.51350385
 -0.42734426  0.34055266 -0.09987361  0.32932568  0.08736863 -0.2732704
  0.12856932  0.49900025]
[ 0.11395168 -0.13242202  0.40677464 -0.40145418  0.2553383   0.5975653
 -0.22330958 -0.53359866  0.15438499  0.20538242  0.5877317   0.17043121
  0.23478006  0.14027192  0.5713639  -0.03701157  0.40729672  0.2540476
 -0.21999876 -0.1425063 ]
[ 0.05127847 -0.14547977 -0.30460474 -0.47575352  0.14017911 -0.07676926
  0.20462069 -0.13091965  0.35142654  0.45562643 -0.30939934  0.3002914
 -0.4114038   0.23619755  0.48273546  0.28368944 -0.02481938  0.28130394
 -0.01227967  0.680165  ]
[ 0.46254522  0.2931618  -0.2232198   0.38219908 -0.03338949 -0.15101361
 -0.26384634  0.27045086 -0.43425635 -0.28862047  0.39191917 -0.5394011
 -0.14019045 -0.08274978 -0.00914313 -0.10333359 -0.14423625 -0.15601647
 -0.40601167  0.2126786 ]
[ 0.50758755 -0.28889787 -0.13912669  0.32633817 -0.41101173 -0.01477806
  0.3059323   0.15907547 -0.30735242 -0.13471882 -0.23886044  0.08549524
 -0.15855475 -0.2173588  -0.4715709   0.1846369  -0.30589062 -0.38199618
  0.03151772  0.33071548]
[-0.05496561  0.32442346  0.3270824  -0.1850264   0.41638392  0.06314313
 -0.20182747 -0.19051988 -0.3935019   0.11828672  0.22877155 -0.9835337
  0.30554426 -0.27049786 -0.03035713 -0.45620483  0.3608856   0.05872288
 -0.08251774 -0.0817657 ]
[ 0.09481305 -0.18397166 -0.24464251  0.04835122  0.22745888  0.30066073
  0.12109865  0.47031856  0.30708587 -0.05150007  0.20378397 -0.7010111
  0.18885416  0.00861638  0.05952705 -0.18170589 -0.20619135 -0.33161473
 -0.2600797   0.30000642]
[ 0.32464588 -0.02955628 -0.13177714 -0.4572241   0.26244557 -0.07760534
  0.03275537  0.3991511   0.4867985  -0.00623877 -0.07527068 -0.04045422
 -0.28353193 -0.4347579  -0.05564461  0.34807384 -0.03427307 -0.48092586
 -0.04801344  0.05496494]
[-0.2039702   0.14297263 -0.05191605 -0.23642235  0.02098615  0.18773732
  0.05828575 -0.03284211  0.2186497   0.2944218   0.02890172  0.8459656
  0.06521942  0.03352209 -0.06383415 -0.03142939  0.08274221  0.06289215
  0.14684975  0.26397833]
[ 0.10127094  0.23894376 -0.37861297 -0.69957507  0.329194    0.62475866
 -0.32975078 -0.27041683  0.30225497  0.35113183 -0.10595182  0.23381475
 -0.40405378  0.42521942  0.543945    0.48089445  0.12355697 -0.10314558
 -0.35824147  0.21924253]
[-0.20367129 -0.12547444 -0.23243432  0.16913003  0.16982877 -0.06462114
  0.04200274 -0.04942036 -0.48709863 -0.18519156  0.03208163  0.39436445
 -0.24752733  0.24671648  0.18803902 -0.14252527  0.16888878  0.23999096
  0.05620851 -0.15754293]
[-0.12805912  0.04274281  0.11445045  0.05628565 -0.00895602 -0.67413497
 -0.04024649  0.12560663 -0.18284373  0.04715949 -0.04219906 -0.4885419
 -0.03698574  0.14713135 -0.09856141 -0.28827143 -0.10567994 -0.12242526
  0.7431929  -0.06360538]
[ 0.2832293  -0.26681504  0.17545936 -0.16380167 -0.20741197 -0.25380513
 -0.278259   -0.06752067  0.10796139 -0.04680803 -0.40180248 -0.5139952
  0.2902721   0.00802539 -0.31815514  0.02000264  0.1976791   0.0494923
  0.04484187  0.1539307 ]
[-0.03811856  0.1616664   0.3955067  -0.55332035  0.31064844  0.24803485
 -0.17870311 -0.42495975 -0.08127173  0.33457002  0.26263794  0.3386194
  0.25489628  0.54126525  0.22525394 -0.20286492  0.18651995  0.3285597
 -0.15296291 -0.19589747]
[ 0.16497369  0.13204403  0.15240361 -0.10454783 -0.05628256  0.46968782
 -0.5237256  -0.03006295  0.17768084 -0.18264236 -0.01692839 -0.12939532
 -0.0435054   0.10211054 -0.17616978 -0.08037407 -0.08749493 -0.07499427
 -0.6673113   0.42981893]
[ 0.45770493 -0.26348972 -0.590284   -0.5401451   0.4302786  -0.25930446
  0.12394986  0.5644718   0.4104377   0.41816777 -0.14321506  0.26496792
 -0.15064026 -0.22127484  0.07980555  0.49644402 -0.08351658 -0.31897086
  0.3783765   0.06891384]
[ 0.07698646  0.01213455 -0.22614898 -0.11591489 -0.23487222 -0.09867253
 -0.14440714  0.41170558  0.23886704 -0.29183137 -0.36963475 -0.2931479
 -0.49536562 -0.39294097 -0.03397483  0.03791266 -0.02697437 -0.18160819
 -0.11315384 -0.04539007]
[-0.00975308 -0.04203437 -0.17515363  0.2338682   0.00663829 -0.35713384
  0.43044502 -0.2186327  -0.00526855 -0.18225439 -0.360635    0.43801793
 -0.26945662  0.11252081 -0.51925325  0.26102343 -0.49066615 -0.03437473
  0.08726544  0.15638606]
[-0.00969458 -0.05908274 -0.20770183  0.18101835 -0.0671927  -0.14634754
 -0.04822838 -0.04926104  0.08666364 -0.23214827 -0.13656998  0.23810597
 -0.25848496 -0.5346342   0.04029024 -0.0893288  -0.17409946 -0.02422024
  0.13323043  0.23825556]
[ 0.509563    0.11267011  0.48326474 -0.31586757  0.23842719  0.29492396
 -0.1522598   0.05219491 -0.09737646  0.487752    0.31408152 -0.2992674
  0.38394928 -0.42049754  0.3621038  -0.3162741   0.14251915 -0.50779504
 -0.26947775  0.33696705]
[ 2.6186499e-01 -1.3957575e-01  4.8557672e-01 -3.7102304e-02
 -2.7273235e-01  9.8445058e-01 -8.5205063e-02 -2.8577945e-01
  2.0200950e-01  1.5738861e-03  4.2539820e-01 -9.9936547e-03
  1.2693474e-01  3.3713749e-01  2.0479913e-01  5.1129516e-04
  1.1015734e-01 -3.4543537e-02 -4.9068892e-01  4.3649888e-01]
[ 0.06128059 -0.23838027 -0.19006994  0.21433166  0.0321594  -1.2244589
  0.8788774  -0.08843458  0.11944216 -0.13961452 -0.32925102  0.34286585
 -0.27699956  0.4590347  -0.33313927 -0.0513419   0.18056303  0.3487718
  0.36554176 -0.2591364 ]
[ 0.30962896  0.22310358 -0.02038749 -0.05384895 -0.11183053 -0.2249557
  0.01004058 -0.07497597  0.00811115  0.18251467 -0.34819743 -0.9348771
 -0.03098579 -0.08784356 -0.07574054  0.21321681 -0.3168572   0.16966179
  0.1007681   0.21653941]
[ 0.00403446  0.60930455 -0.03690895 -0.04804839  0.11249253  0.44889542
 -0.510594    0.28165224  0.4668736  -0.03559875  0.30263907  0.03894078
 -0.06696668  0.01774111 -0.2633583   0.32608062 -0.22916132 -0.16308331
 -0.22080038  0.32730564]
[-0.33415547  0.15375029 -0.26548788  0.04224634  0.3623482  -0.20228606
  0.56840307 -0.0978747   0.36279818 -0.28195238 -0.07411883  0.5531735
 -0.0294548  -0.27134976  0.42739338  0.5095039   0.6172707   0.43124083
 -0.24616696 -0.26042023]
[ 0.21683092  0.10731282  0.0789577   0.01044368 -0.30961794  0.10516631
  0.04058925  0.3574765   0.27209848 -0.14793815 -0.32244048 -0.5958867
 -0.08352311 -0.36355066 -0.24005137  0.43610224 -0.11815852 -0.06395695
 -0.4547146   0.36887217]
[ 0.03865144  0.0116033   0.06827431 -0.18216325 -0.1189703   0.44337592
 -0.07193865  0.12411596 -0.01767452  0.49428204  0.19904259 -0.1063667
  0.18134059 -0.11255413  0.4686983  -0.1322364   0.35707003  0.3783516
 -0.30017576 -0.03582273]
[ 0.08859893  0.3053822   0.5448987   0.10148712  0.3288159   0.51929986
 -0.34546655  0.08391173 -0.00160403  0.6452281   0.52136344 -0.32782584
  0.08742268 -0.09775289 -0.33421424  0.00335827  0.27628392  0.15058987
 -0.633991    0.48695418]
[-0.05023567 -0.3517212   0.07246733 -0.14576308 -0.28057277 -0.0077537
  0.28892225 -0.2975335   0.24870469  0.4304239  -0.19509037  0.1749986
 -0.01651479  0.48909688  0.07624017  0.32023782  0.21021645  0.17806669
 -0.04015487  0.19743587]
[ 0.30857828 -0.14796913  0.30767447 -0.29369017 -0.00613464  0.64866734
 -0.3573992   0.2224507  -0.00574442  0.18145211 -0.09727901 -0.80471325
  0.23107906 -0.16995446  0.03786117 -0.2812261  -0.27676716 -0.10344299
 -0.42862153  0.18796383]
[ 0.36365074  0.08675935 -0.25269723 -0.37496388  0.10008904  0.18001318
  0.28071678 -0.25189874 -0.07515246  0.18309139  0.24008547 -0.33593464
  0.13819394  0.23608305 -0.0635095  -0.02976112  0.3697012   0.20387217
 -0.3543568   0.02120239]
[-0.2151143  -0.2969163   0.40870485 -0.19383241  0.3269146   0.43773487
 -0.14838167 -0.11896053  0.26509425  0.36447588  0.17211893  0.4092664
  0.25071576  0.2586039   0.21690759 -0.02402405  0.34280327  0.4089955
 -0.3883005  -0.02122995]
[-0.4335759   0.00170535  0.01851304  0.23732454 -0.3873147  -0.46215582
  0.10065775 -0.18093334 -0.288896   -0.40998098  0.3523853  -0.29393622
  0.38251474 -0.17595282  0.04998961 -0.17840277  0.1352497   0.14492573
 -0.12237214 -0.28395972]
[-0.4043026   0.1034271  -0.10132055 -0.23243797  0.09421065 -0.47807014
  0.28713197 -0.23704016 -0.6540176   0.41170615 -0.2699894   0.3788786
  0.01389432 -0.2825342   0.48277807  0.06077231  0.52940184  0.16193378
  0.4858101  -0.7390181 ]
[ 0.05973132  0.11954416  0.02015775  0.24945644 -0.11615413 -0.4027825
  0.14785308  0.12079309 -0.11623849 -0.31597608  0.01657671 -0.09995205
  0.04123946 -0.07988644 -0.13960017 -0.09384062 -0.18194024 -0.12503946
  0.20912515 -0.02974759]
layer 5 Activation
tanh
layer 6 Dense
20 1
[1.8334361]
[1.7225502]
[1.6207712]
[1.112416]
[-1.8642436]
[1.516006]
[-1.7877862]
[1.4340286]
[-1.7192204]
[-1.3565899]
[1.5370263]
[-0.00523121]
[1.9720358]
[-1.2035171]
[-1.5927099]
[-2.0464437]
[-1.2009732]
[-1.43008]
[-1.5262365]
[1.5756961]
[0.79534847]
