layers 7
layer 0 Dense
24 20
[ 1.3653516   1.0640413   0.7884899   1.4172688  -0.7284026  -1.0601832
  2.4635541  -0.06394582 -0.22598042  0.512745    0.52861995  1.1688548
 -0.93140763  2.5771945   1.1781299   0.23488826 -1.9741974  -2.3180916
 -0.552017    0.7505253 ]
[ 0.47070172  0.7108323  -0.18690987  0.12638608 -0.26328325 -0.13237348
  0.6970237  -0.43739977  0.35875908  0.20541699  0.41341332 -0.42018288
 -0.1624964   0.626126    0.25267515 -0.5508264   0.04606216 -0.29915544
 -0.707947    0.10344918]
[ 0.6583566   0.7886033   0.15441841  0.45507863  0.14153719 -0.70607424
  0.3709144  -0.47589165  0.3179206   0.22969726  0.39546463 -0.2857871
 -0.54431486  0.37974563 -0.28257662 -0.12880638 -0.00444399 -0.3559989
 -0.40814632  0.01713299]
[ 0.36939588  0.2710774   0.25866008  0.8969468  -1.141992   -0.83666915
  1.4851371   0.3728086  -0.38128856  0.86543995  0.5297914   0.73769516
 -0.96333945  1.0222809   0.88920885 -0.34573478 -1.097014   -1.6614101
 -0.889456    0.737363  ]
[ 1.4815912   0.8388681  -0.5014038   0.11792756  0.40631574 -0.09672653
  1.29534     0.9076492   0.22076057 -0.44803935 -0.5729623   1.1085382
 -0.5483263   1.3546834   0.8585717   0.7651676  -1.1566453  -1.6542509
  0.07228811 -0.15472479]
[ 0.20410034 -0.32501113 -0.02430007  0.1434004   0.10479413  0.48991096
  0.9563038  -0.16252507 -0.43538475 -0.29333055  0.27538526 -0.03015815
 -0.19506115  0.3773312   0.01677701 -0.34180573  0.5502023  -0.04718085
 -0.5258307   0.07388598]
[ 2.7942148e-01  6.3810885e-02  3.6163285e-01  2.6733798e-01
  6.4036638e-02 -4.5192880e-03  9.9665159e-01 -5.9888899e-01
 -7.1837056e-01 -3.6080666e-02 -8.7679774e-02  2.1155439e-02
 -4.7143631e-02  3.4226966e-01 -1.5166658e-01 -3.6147609e-01
 -1.3481219e-01 -4.8380753e-01  6.0373085e-04 -7.9508804e-02]
[-1.3328851  -1.2863377  -0.94271374 -1.5404717   1.1171379   0.5667221
 -1.3637149  -0.48196995  0.79828924 -0.7863524  -0.7536451  -0.7281316
  1.1203145  -1.8295261  -0.86586714  0.3457387   1.5597669   2.1089423
  0.7798505  -0.75891185]
[-0.01799221 -0.38004217 -0.6298202  -0.47896782  0.26043198  0.68682915
  0.00327239  0.27750748  0.37885848 -0.7743054  -0.13889311 -0.00223534
 -0.16591267 -0.41063583  0.38138604  0.65911     0.04065602  0.1732889
  0.3878174  -0.35171378]
[-0.6833217  -0.7672236   0.18045853 -0.1591797  -0.4008563  -0.43676892
 -0.66649383 -1.0388666  -0.5173809   0.00604549  0.7054094  -1.6667191
  0.03878842 -0.68294966 -0.18177305 -0.67798096  1.0312579   0.99695885
 -0.20930927  0.02985422]
[ 0.95828515  0.7357964  -0.31265542  0.02749614  0.13510327  0.4200576
  0.52878535  0.5207094   0.178477   -0.4434033  -0.33944613 -0.5029585
 -0.73692757  0.5292377   0.14881991  0.9445582  -0.40677628 -0.47961402
  0.36710864 -0.3647292 ]
[-0.22381437 -0.06821625 -0.3922799  -0.856377    0.46792552  0.59762496
 -0.6060445   0.37867758  0.3162459  -0.6482572  -0.08905582  0.3946172
 -0.2937152  -0.23989578 -0.17714189  0.95710355  0.21092701  0.55258983
  0.47742265 -0.6864997 ]
[-0.47401565 -0.8306104  -0.56315935 -0.5541458   0.40921164  0.8519149
 -0.9044077  -0.11067913  0.35143986 -0.38986558 -0.3513407  -0.17255749
  0.4242325  -0.39692292 -0.69168836  0.981402    0.6486042   0.8800678
  0.7607326  -0.55523974]
[-6.8353472e+00  5.6659088e+00  4.3968484e-02  5.9726695e-03
 -2.7551687e-01  3.6784843e-01 -1.9334006e-01 -4.9041867e-01
 -1.5067489e-01 -1.5225510e-01 -1.0485994e-01  1.1366104e+01
  8.7140694e+00 -1.1852630e+00 -1.1336348e+01 -3.5921592e-01
 -1.3584544e-01 -1.2751015e+00  8.0845490e-02  4.6754591e-03]
[-7.8846389e-01 -4.0822700e-01  2.6859480e-01 -4.2597455e-01
 -4.7674024e-01  9.3159257e-03 -8.5086673e-01 -6.8179375e-01
 -2.3082073e-01  5.1957673e-01  1.0346958e-03 -2.2656864e-01
  6.9375223e-01 -9.1599274e-01 -6.1007488e-01 -1.1762780e+00
  5.7004577e-01  7.1375543e-01 -2.1908917e-01  6.8935744e-02]
[-2.2030253  -1.9028878  -0.5031028  -1.2251817   0.4491625   0.47760195
 -1.4083022  -0.45434457 -0.22729227 -0.89723676 -0.5434643  -0.79036117
  1.0193572  -1.9055814  -2.071424   -0.07318518  0.833939    1.6804597
  0.5231775  -0.32475993]
[ 0.26389343  0.3004528  -0.73131317  0.12634759  0.61692446 -0.06885771
  0.71149856  0.6137905   0.27206028 -0.09862236 -0.44939238  1.0821705
 -0.7925094   0.48010284  0.9477327   0.56514716 -0.9053259  -0.6914659
 -0.07939575 -0.33450505]
[11.55236    -7.943257   -0.13947046 -0.03274374  0.37807488 -0.5485068
  0.26542836 -0.3981792  -0.3253525  -0.3920254  -0.04411956 -2.6062896
  6.0995746   0.15074548  0.06303471  0.1849208   0.07665104  0.85243016
  0.1739796  -0.31672588]
[-0.2707747   0.98015636 -0.20133787  0.27706313  0.12652461 -0.0188683
  0.89182657  0.4259484   0.12522458 -0.2423738  -0.5257269   1.6013497
  0.66554576  0.70697063  0.23258238  0.35717767 -0.9574826  -0.8883302
  0.05648996 -0.00590475]
[-0.16983306 -0.14332677 -0.6663972  -0.596436    1.1104957   0.5972755
 -0.5976418   0.5680632   0.3482332  -0.3891176  -0.5695939   0.40163922
  0.2826855  -0.53069687 -0.27010095 -0.01925246 -0.09646112 -0.06033845
  0.6545523  -1.0559448 ]
[-0.07461487  0.16550986 -0.52011424 -0.45979553  0.2414484   0.9026973
 -0.1865203   0.55630654  0.68308187 -0.7200437  -0.4989581   0.06423991
  0.32127523 -0.44075105  0.08259133  0.4807836  -0.08587337  0.1254267
  0.4489979  -0.72010005]
[ 0.41184452  0.84422123 -0.09501194  0.36484218  0.41462985  0.06226183
  1.095171    0.6687208   0.03033611 -0.2372692  -0.11098761  0.4884318
 -1.1777122   0.81956285  1.0618558   0.87556076 -0.8708351  -0.8587306
  0.19622195 -0.32325223]
[ 0.6973692  -0.02056639 -0.26274893 -0.00766493 -0.24887697 -0.01459723
  0.25413257  0.47555158  0.27670145 -0.3038701  -0.24209012  1.1585698
 -0.21831033  0.43508902  1.1286756   0.87565905 -0.27411488 -0.42972404
  0.18206143 -0.26351312]
[-1.7807091  -0.96235013 -0.6130922  -1.3061638   0.89416903  1.0941075
 -2.2333477   0.04315463  0.4233664  -0.48323542 -0.9285062  -0.8853083
  1.2973833  -1.778937   -1.1598415  -0.04382154  1.6060281   1.7047143
  1.022566   -1.1056398 ]
[ 0.44097582  0.30667698  0.62981904  0.6835849  -0.7897593  -0.6261336
  0.67158425 -0.14717592 -0.45632932  0.5692229   0.44816035  0.00659558
 -0.33608198  0.6306005   0.21387689 -0.54096437 -0.43031064 -0.6760045
 -0.48079407  0.7473103 ]
layer 1 Activation
tanh
layer 2 Dense
20 40
[-0.5843234   1.167669    1.2196203  -1.5624686   0.03678146 -0.05206902
  0.42760035  1.6139913   2.059602   -0.19246341 -1.808282   -0.03407022
  0.4065026   0.03748935 -0.11167     1.3464645   1.8263454  -1.0985228
 -1.1858635   1.1966462  -0.2601407   1.6128204   0.5537818   0.17102553
 -0.6226196   1.908927   -0.42280754 -0.14039026 -1.4320174   0.7212744
  1.2713128   1.8153908  -2.0163693  -0.36076748  0.622526   -0.28852078
  0.26977754  1.1780242  -0.18651426 -1.8779253 ]
[-0.2889163   1.1495734  -0.53390974 -0.17716761 -0.04414742 -0.3952403
 -0.09928715  0.9324314   0.67811906 -0.10815109 -0.97342575  0.16221273
 -0.01305651 -0.25198075 -0.2221347   0.8539616   1.1254282  -0.94842696
 -0.20876873  1.0571196   1.128994    0.8471509   0.29551297 -0.01251024
 -0.7197739   0.93495256  0.3101957   0.03240103 -1.1783912   0.05234185
  0.97930723  1.128121   -1.52739    -0.5920346  -0.33495247 -0.70346105
  0.03386979  0.70343643  0.03305563 -0.3185293 ]
[ 0.23974071  0.86779505  0.5372844  -0.51254886  0.540783   -0.08632986
 -0.5904889   0.03319766  1.0609412  -0.4051086  -0.9382093   0.25880122
  0.8576967  -0.37032577  0.16224226  0.35383075  0.57742065  0.09799828
 -0.3938671   0.67099595 -0.9200965   0.58446264 -0.9548077   1.4598228
 -0.14523323  0.52424514 -0.3746988   0.55256736 -0.5018881   0.89706063
  0.34341168  0.34764934 -0.8407577   0.01641198  0.39755222  0.02852357
  0.8487294   0.45847255  0.51234853 -0.02154253]
[ 0.3778431   0.50342333 -0.18225342 -0.27438042  0.6444384   0.3406478
 -0.55625725  0.46696913  0.2157531   0.964377   -0.6856846   0.8692988
 -0.07782294 -0.53300524  0.5566455   1.0003392   0.33820975 -0.6306502
  0.2534138   0.6522971  -0.96136576  0.37693292 -0.38603184  0.41482085
  0.08233227  0.20082138 -1.0093582   0.15921313 -0.5139566   0.3054534
  0.43991345  0.92807525 -0.38291618  0.4344928   0.59147346  0.3562534
  0.78399867 -0.03124958  0.1041854  -0.34008643]
[-1.0339429  -0.19036274  0.6710844   0.18416175 -0.9264399  -0.9087807
  0.60021955 -0.47429514  0.00974172 -0.9592414   0.93818146 -0.95767903
 -0.0761445   1.275331   -1.1895224  -1.0250602  -0.6308351   0.6177181
 -0.5089615  -0.49543917  1.2847368  -0.6403844  -0.27454665 -0.624211
  0.2623703  -0.19159132  1.3013033   0.5714969   0.13671596 -0.44432315
 -0.23867288 -0.63683844  0.88061357 -1.0975652  -0.5405417  -0.98258823
 -0.68338317 -0.8428157   0.3307183   0.21124716]
[-0.38233787  0.43881717 -0.42189065  0.6145795  -0.58976024  0.11228438
  1.017799   -0.1805934  -0.75889564 -0.01964352  0.14811583  0.03387935
 -0.70323896  0.14898601 -0.18717238  0.4101718  -1.060179    0.470651
 -0.02311008 -0.43007413  0.39911336  0.10025312  0.6291265  -0.09851677
  0.27537683 -0.4149556  -0.01879172 -0.6703901   0.1894251  -0.9078331
 -0.43030372 -0.4151434   0.5892872  -0.04303008 -1.2507567  -0.2024012
 -1.3264962  -0.49439073 -1.0130197   0.68701386]
[-0.3447956   0.7575983  -0.8121564  -0.90137804  0.42988655  0.268909
 -0.24505956  1.0491642   0.95860773 -0.14196685 -0.5579738  -0.2555971
 -0.14812733  0.19961745  0.3771955  -0.47600237  0.19342957 -0.87176776
 -0.290148    0.713543   -0.04263229  0.9385666  -0.0227368   0.01363647
 -1.8130779   0.56458294 -0.30988345 -0.15210587 -1.3093343  -0.17859302
  1.0326263   0.34172297 -0.88379556  0.03872678  0.06263179  0.04176781
  0.92002183  0.28670418 -1.6072425  -0.7052181 ]
[ 0.3885262   0.16600034 -0.37808782 -0.12795539 -0.09604365  0.07971044
 -0.26916227 -0.6261639   0.22881944 -0.19045925  0.768742   -0.38328156
 -1.9875486  -0.18940458 -0.20376724 -0.6145073  -0.5928779  -0.51966083
  0.07161033 -0.00850411  0.486468   -0.1809055   0.69872016 -0.52812976
 -1.6113153  -0.26913625  0.2002481  -0.7926349  -0.12073208 -0.8911068
 -0.18777913 -0.18161966  0.2823905   0.04938244 -0.13396728  0.05923834
  0.35456222 -0.5039363  -0.7620769   0.35334206]
[-0.57754743 -0.718097   -0.13910021  0.30133292 -0.89136493 -0.4943181
  0.6108375  -0.03612392 -0.8149714  -0.5443741   0.7045188  -0.5306806
 -0.39626983  0.36558604 -0.97159415 -0.28938314  0.2376455   0.15296754
 -0.3983069  -0.5023285   1.0479856  -0.6284188   0.88956106 -1.4364055
 -0.36551544 -0.00536567  0.5638174  -0.27582338  0.2409014  -0.45326546
 -0.19598694  0.01857032 -0.10698661 -0.30484504  0.10995205 -0.32437333
 -0.6991066  -0.30692652 -0.46893457  0.39650083]
[ 0.70347816  0.37094566 -0.5384595  -0.46875423  0.4208242   0.8115229
 -0.32466137  0.09868419  0.5046318   0.79863816 -0.3707741   0.58878744
  0.01827705 -1.0242307   1.0937644   0.88891256 -0.0609914  -0.7214775
  1.0653218   0.14291611 -0.9386241   0.78793246  0.06802712  0.39294666
  0.29417732  0.3513171  -1.1674136  -0.21499652 -0.3614889   0.1257204
  0.4870789   0.36612242 -0.39543462  0.78496057  0.04482964  0.845307
  0.58950907  0.2589413   0.14235614 -0.773409  ]
[ 0.2492954  -0.35569367 -0.08262521 -0.6476665   0.081571    0.2500078
 -0.31364602  0.30659565 -0.3423581   0.09425205  0.1520652   0.5662372
  0.9344457  -0.23560704  0.5884927  -0.06587666  0.5495048  -0.469351
  0.3934091   0.5829494  -0.55862194  0.31781873  0.12597182  0.0385052
  0.4710931   0.33549127 -0.46774843  0.43654647 -0.31073356  0.92286086
  0.22189148  0.8169978  -0.21821676  0.385946    1.8622012   0.195709
  0.22427781  0.45081592  0.3754493  -0.612398  ]
[-0.10780834  1.0566913  -0.58915013 -1.5844265   0.14955722 -0.30620894
 -0.15044092  1.2131323   0.06961767 -0.3311103  -1.3705003  -0.01546928
 -0.35954568 -0.1110609  -0.1604666   1.3358158   1.2656852  -0.6969391
 -0.15852952  1.2932236   0.8220202   0.97640824  0.02209631 -0.20275399
 -1.093178    1.8621213  -0.26684725 -0.22876732 -1.4826761   0.3615034
  1.0904666   1.6715248  -1.4753672  -0.97844917 -0.6648124  -0.5965743
  0.4219436   1.3236116  -0.279796   -1.6684679 ]
[ 0.8076075  -1.0116432  -0.8862148   0.96785134  0.41568187 -0.00415919
  0.10489319 -1.2935662  -1.8789027   0.22412097  1.3830106   0.34367117
 -0.5826291  -0.400273   -0.03653262 -0.8701514  -1.3199323   1.3143436
  0.89978176 -1.2644064  -0.00704145 -1.2348094  -0.24251784 -0.14561129
  0.33078676 -1.7723898   0.42658836  0.25633848  0.87591195 -0.6237838
 -0.8344469  -1.1885237   0.9519572  -0.11683801 -0.53064823  0.55771977
 -0.12241574 -1.2795753  -0.5458979   1.0841707 ]
[-0.32549223 -0.2401032  -1.2434893  -0.30006054 -0.10161198  0.3788704
 -0.09437397  0.6893048   0.50758046  0.27124348 -0.29740635  0.02445409
  0.05191816  0.37088847  0.23804751  0.93477666  0.55171627  0.06947547
  0.22771882  1.2084513  -0.4184493   0.53134316  0.47619376  0.5507556
 -0.7010893   0.8353636  -0.54077107  0.855765   -1.1452347   0.62994444
 -0.10287144  0.66067094 -0.22322868  0.23899221  0.42283216 -0.3178451
  0.30804428  0.2311787  -1.1410749  -0.54987323]
[-0.25706172  0.9144564   0.9067006  -0.56427795  0.4260147  -0.17316392
  0.06258225  0.6894363   1.5320665   0.11282134 -1.3468446   0.02435075
  0.21337584  0.14669338 -0.16507265  1.0570208   1.363092   -1.1818827
 -0.84750396  0.60919255 -0.32254943  1.2670715   0.8716896   0.5999696
 -0.25279075  1.1364543   0.0888015   0.23763841 -1.201271    0.5160369
  0.5793787   1.3823057  -1.2390507   0.8758899   0.3947121  -0.18925376
  0.24097864  1.1515282  -0.49058264 -0.58354455]
[ 0.42516348  0.5240889  -0.5764978   0.2261533   0.32017678  0.5024029
  0.01023195 -0.02242446  0.27254888  0.10587996  0.24322964 -0.06482939
 -0.9877219   0.18687491 -0.2292865  -0.13864227 -0.3605629  -0.3618064
  0.35894385 -0.5597223   0.10750972 -0.3783734   0.8185659   0.5724415
 -0.00556803 -0.47465256 -0.54383343 -1.3933612   0.36504436 -1.6237357
 -0.5131507  -0.7969212   0.5546883   0.40265933 -1.1431808   0.43618912
  0.1437647  -0.4986103  -0.8972714   0.49553767]
[ 0.01442878 -0.3154854   1.0709926   0.01042795 -0.02916287 -0.1329051
  0.11948372  0.3367242  -1.0127584   0.16830494 -0.17193657  0.32649127
  0.31438676  0.25785246 -0.63811356  0.12520853 -0.26988918  1.0597088
 -0.518107   -0.49028727  0.06084199  0.21796502  0.4038422   0.25759012
  2.0589068  -0.12418137  0.3025166   0.9301276   0.8580269   1.0865625
 -0.17636648  0.11745593  0.39025882  0.36617732 -0.3077036  -0.11687601
 -0.8073765   0.73607725  1.2958057   0.30051416]
[-0.06992456 -2.0448442   2.07779     2.3555148  -0.78340983 -0.40277037
  0.5223884  -1.5705253  -1.2273836  -0.27592358  2.1202955  -0.46330938
  0.40032586  0.18607943 -0.9799479  -1.7062263  -1.1245527   1.8020304
 -0.16121666 -2.0726895   0.1356016  -1.796329   -0.25035357 -0.86276424
  1.955808   -1.569437    0.29985368  0.6105965   1.9187887   0.8438752
 -2.7367675  -2.1089144   1.8253498  -0.28736094  0.11290979 -0.06743661
 -0.38891456 -1.5958424   0.6371063   2.007519  ]
[-0.61698985 -0.4339664   0.3596335   0.515844   -0.48091033 -0.851454
  0.3665235  -0.33283472  0.08693775 -0.5851408   0.40808475 -0.8920453
  0.14248425  0.52177525 -1.0772971  -0.7854956  -0.18971935  0.6231674
 -0.339614   -0.47955793  1.2130207  -0.29801628  0.20983475 -0.51884437
 -0.42843673 -0.15063907  1.2819488  -0.15390395  0.3991483  -0.3179871
 -0.11639725 -0.7243749   0.3738905  -0.81696355 -0.5367402  -0.62683123
 -0.6853809   0.1240911   0.08975036  0.49628192]
[ 0.44396728  0.08103131 -0.5982824  -0.8571623   1.3180615   0.9013423
 -1.1408699   0.250489    0.24783729  1.0535756  -0.20929159  0.5992548
 -0.10996076 -0.00302018  0.9203121   0.02740977  0.34567866 -1.1667469
  0.9471789   0.34054586 -1.0517384   0.5279197   0.01181317  0.21701884
 -0.24352148  0.67461866 -1.2534938   0.08839671 -0.23650275  0.30342796
  0.23358469  0.721868   -0.6496787   0.5318389   1.0214696   0.4645102
  0.92230374  0.53281873 -0.02414533 -0.97028863]
[ 0.89610195  0.14985658 -0.65093964 -0.216572    0.5822006   0.8326075
 -0.4361632  -0.01246904  0.04674445  0.59949934 -0.58128077  0.34735605
 -0.18312213 -0.9319529   1.2242012   0.34499738 -0.10676736 -0.40114474
  0.88585     0.18950304 -1.3087189   0.27495906 -0.08946766  0.5490146
 -0.01854649 -0.2519264  -1.4271404  -0.12352322  0.08474059 -0.21983308
  0.11907686  0.03822937 -0.42043972  0.9922993   0.6713083   0.80109257
  0.5789597   0.16969375  0.16695182 -0.08235517]
layer 3 Activation
tanh
layer 4 Dense
40 20
[ 0.34483474  0.04649556 -0.86952096 -0.17382956  0.737425   -0.94994557
  0.51064354  0.42333052 -0.9377257  -1.0559604   0.24647173  0.7312903
 -0.9123129   0.96901685 -1.2185223  -0.46409023 -0.5110749  -0.5526855
 -0.1319749  -0.4733303 ]
[ 0.4494219  -0.04520202  0.07490742  0.46527204  0.6927379  -1.8341789
  0.1722437   0.47153214 -0.64618677 -0.80458236  0.5455741   0.32082585
 -0.86089987  0.10866362 -0.5677988   0.20767711  0.26590845 -0.5558153
 -0.64146906  0.07064173]
[-0.48758227 -0.7392892  -0.09084761 -0.5743154   0.01477774  0.23718683
 -0.17640825 -0.28445086  0.13968636 -0.5433841   0.9319872   0.30662045
 -0.6679772   0.22489765 -0.30470136 -0.16808578 -0.9344438  -0.07964965
  0.7664437   0.15916093]
[-1.3697056   0.73959714  0.1065834  -0.30467036  0.13651854  0.41721025
  0.40779978 -1.2333208  -0.19577861  0.44644126  0.3453541  -0.14029334
 -0.344695    0.5384953  -0.12677903 -1.1533836  -1.1191257   1.3673991
  0.61077017  0.17800668]
[-0.26091504 -0.79134697 -0.7154199   0.6636037   1.042208    0.17578207
  0.1543355  -0.0037875  -0.6113737  -0.21141495  0.2742684   0.42093337
 -0.9627226   0.6463199  -0.84279597  1.3000998  -0.86406785  0.00649975
  0.14415188 -0.1192029 ]
[ 0.13019758 -0.04721748 -1.1587126   0.07392474  0.2705416  -0.92866665
  0.6288821   0.32951424 -0.42733848 -0.9214491   0.05445118  0.8389392
 -0.6798084   0.57337916 -0.25483805 -0.39714414  0.23365177 -0.07258608
 -0.9228794  -0.4767798 ]
[-0.14688243  0.5279557   0.48272413 -0.67620444 -0.60984063 -0.23531789
 -0.01819711 -0.27528027  0.51315814  1.0924003  -0.02494315 -0.5099108
  1.1200905  -0.77399856  0.8649246  -0.7194485   0.60310376  0.16126977
 -0.48308283 -0.19768383]
[ 0.8723606  -0.07994184  0.33756506  0.26034257 -0.08664041 -1.0746001
  0.04441965  1.0012448   0.45954928  0.2816897  -0.5292439  -0.19546959
  0.5695896   0.08645367  0.7283891   0.6677134   1.3137568  -0.68390036
 -1.182961    0.01583115]
[ 0.32018366 -0.4367917   0.02590546  0.917561   -0.2335606  -1.0591416
 -0.11524522  1.0316247   0.43463022  0.86416864 -0.28704274 -0.3133594
  0.5526343   0.19968596  0.08311296  1.5340945   0.5881989  -0.75665843
 -0.87934256 -0.06019889]
[ 0.43652305  0.02521384 -1.0078427   0.22815013  0.813231   -0.36049667
  0.17564271  0.3911346  -0.751123   -1.044013   -0.07404058  0.68874806
 -0.6477435   0.84971184 -1.1050936  -0.5247531  -0.34059536 -0.38757294
  0.09119241 -0.6488471 ]
[-1.2273942   1.6311941  -0.693837   -0.02333022  0.20394944  1.6331999
 -0.03056925 -1.0693139  -0.35544825  0.6732313   1.0667944   0.29531443
 -0.6358152  -0.21018283 -0.88564515 -2.3869796  -1.4128636   2.7722182
  1.9762777   0.3903928 ]
[ 0.14283952 -0.03729415 -0.8301666   0.234302    0.8272729  -0.9890952
  0.51940703  0.24706347 -1.4647717  -0.95949847  0.27650982  0.792627
 -0.8018015   0.7564991  -1.2585236  -0.6918001  -0.5995887  -0.36760896
 -0.03912475 -0.40261146]
[ 0.10468684 -0.46424696 -0.51440156 -0.7396004  -0.00245056  1.0145171
 -0.36633706 -0.1901137  -0.3106939  -0.00309639  0.21546431 -0.01335839
 -0.8846295   0.38904127 -0.2525855   0.18170945 -1.085401    0.02847026
  0.60306525  0.08919389]
[-0.8189105  -0.01376591  0.44600043  0.49370444 -0.8785638   1.117689
 -0.41288117 -0.43904564  0.92091024  0.7889604   0.02706972 -0.8817002
  0.98514867 -0.99514985  0.8636939   0.54395217  0.22842918  0.31536165
  0.23058891  0.538075  ]
[ 0.08730102  0.15489028 -0.3087462   0.50908273  0.32000387 -1.3063207
  0.93837494  0.31834316 -0.45498368 -1.4894279  -0.6521697   0.18731646
  0.23472342  0.44965833 -0.10827435 -0.42146498 -0.16095392  0.23345318
  0.2864822  -1.757788  ]
[ 0.2109543  -0.0472206  -0.7140265   0.99371755  0.70086765 -2.1049178
  0.35177052  0.4098464  -0.48621094 -0.16062777 -0.4938427   0.5405777
 -0.49085918  0.30906776  0.18578891  1.2417833   0.07325353 -0.58650154
  0.32611    -1.3740172 ]
[-0.3752428  -0.11017784 -0.21637239  0.98787415 -0.17385265 -1.3534213
 -0.50163215  0.45350152 -0.06619117  0.38071057 -0.32474762 -0.27484146
  0.22011067  0.07085711 -0.24139978  1.2782186   0.06210007 -0.18578483
  0.2873378  -0.56198174]
[-0.21203455  0.47059378  0.1483551  -1.7386048   0.05327171  0.36933583
 -0.96255964 -1.1894879   0.19787773  0.69295156  0.02285867 -0.3499525
  0.3054428  -0.3973207   0.11985205 -0.04069289 -0.37237316  0.34396172
  1.6306578   0.6656991 ]
[ 0.29446557  0.469598   -0.9062636   0.53866005  0.40880352 -0.2857271
  0.91328794  0.11209271 -0.27868    -0.732303   -0.36693966  1.1341113
 -0.68202347  0.7273635  -0.4957227  -0.12210125 -0.97001255  0.31085727
  0.7361733  -0.9434305 ]
[ 0.8267413  -0.8164968  -0.02851253  0.7628543  -0.7274001  -0.12881616
 -0.05137454 -0.04254043 -0.12166502  0.6861537  -0.4234589  -0.5908186
 -0.39380512 -0.32571137 -0.44337428  0.11131512  0.92591155 -0.3457887
 -0.47550282  0.15782994]
[-0.17191188 -0.59847134  0.10128687 -0.5943782  -0.14960925  1.0185819
 -0.54691744 -0.04248676  0.28585792  0.6803651   1.2315745  -0.17403
 -0.29424933 -0.6436027   0.2842964   0.5887047   0.19682962 -0.0927453
  0.00904256  1.4314497 ]
[ 1.4574252  -0.7260125   0.45377484  0.20965928 -0.0638427  -0.6719793
  0.4190307   1.5072442  -0.19956839  0.4282945  -1.3880383   0.43982777
 -0.2653562   0.15638894  0.22931102  0.49534923  1.0795134  -0.54751396
 -0.82916635 -0.461142  ]
[ 1.1714519   0.13007227 -0.5081937   0.27705258  0.3663338  -0.5588692
  0.34314498  0.5667746  -0.35306028  0.57541114  0.4504195   0.5365168
 -0.5565786  -0.01950266 -0.32573518  0.15599845  0.9128588   0.12676948
 -0.59991825  0.82636887]
[-0.15864822 -0.16454694 -0.54409766  0.29894057  0.6523053  -0.37568808
 -0.03441323 -0.01003159 -0.20078622 -0.04761093  0.37568027  0.5286192
 -0.86315453  0.65852404 -0.02054643  0.40481448 -0.51318735 -0.55875534
  0.26006806  0.14165129]
[-0.30074397  0.3386819  -0.53364426 -1.11572     0.2663223  -0.02020342
  0.66751146 -0.53382003 -0.4516063  -0.66826195  0.738792    0.47317556
 -0.15464893  0.6051019  -0.1739181  -1.0776634  -0.25655827 -0.88042015
  0.09909564 -0.10766832]
[ 0.3412193  -1.3958201   0.48339438  0.73966473 -0.13044387 -0.9834006
 -0.1742901   1.4571302  -0.23215139 -0.68008786 -1.3159143  -0.09502245
  0.15690395  0.02549586  0.1647747   1.3847966   0.34829944 -1.7303138
 -0.90487504 -0.3083112 ]
[-0.2835348  -0.6618757   0.51853275 -0.5688887   0.00241408  1.0469406
 -0.44348782 -0.11308199  0.24041493  1.1521928   0.6625953  -0.5353455
 -0.63639665 -0.44891107  0.48110384  0.38624883 -0.09651131  0.23905261
  0.11304915  1.133969  ]
[-0.7178474  -0.7185367   0.20867585 -0.3838299  -0.11787722  1.3899232
 -1.0290986  -0.5820329   0.34235734  1.0363983  -0.58665276 -0.9982909
  0.5762263  -0.30823955  0.24692774  0.13824841 -0.33228755  0.17882562
  1.2066125   0.58126676]
[-0.9351287   0.40916508  0.11593381 -0.19497332 -0.1375402   0.5257437
 -0.01639335 -0.21541359 -0.0117947  -0.22334722  1.2918307  -0.478694
  0.4734361   0.46550083 -0.2556436  -0.592516   -1.2598888   1.2345102
  0.33319667  0.27124587]
[-0.9649021  -0.69559765  0.315207   -0.2923398  -0.13643318  0.91845894
 -0.8166203  -0.3126534   0.49647847  0.9285892  -0.6623335  -0.82584125
  0.3649286   0.07775688  0.39571822  0.48705813  0.15983088  0.18532898
  0.9274523   0.585961  ]
[ 0.9723438  -0.8984191   0.45573875  0.0854037  -0.42893672 -0.60317135
  0.2005656   0.3360153   0.4058154   0.03235153 -0.2900165  -0.00354823
 -0.00844305  0.13968323  0.17586137  0.6734315   1.1244103  -0.5789921
 -0.8776354   0.04000539]
[-0.03888843 -2.5485587  -0.27122203  1.7273113  -0.40291098 -1.2228961
 -0.40369624  0.36283064  0.37053284 -0.5906349  -1.8271457   0.14180294
 -0.60665476 -0.0557223   0.29430246  2.6109667   1.2794354  -2.3973355
 -0.9884006  -0.35640275]
[-0.7423536   1.5537096  -0.44046998 -0.9670071  -0.14596921  0.88556784
  0.3690343  -1.0582175   0.2654058   0.19587795  2.4430125   0.3815744
 -0.07338355  0.20540342  0.32291356 -1.4271936  -1.0946267   1.6828665
  0.6171906   0.45825592]
[-0.1678793  -0.25245622 -0.7865801   0.11001761  0.10261209 -0.09822668
  0.5435348   0.42312092 -0.6895048   0.48072135 -0.38580474  0.78728443
 -0.99505967  0.75036925 -0.26976076  0.24731624  1.1032065   0.74511987
 -0.12354688  0.1401417 ]
[-0.39690512 -0.71617705 -0.07268722 -1.2679796  -0.3598309  -0.29901055
  0.33806035  0.30550605 -0.26222926 -0.5490483  -0.68043655  0.23405999
  0.05078313  0.45625913 -0.27312487  0.08791402  0.29717064  0.13466
  0.08761421 -1.1034487 ]
[ 0.563814    0.36130014 -0.6494778  -0.37076804  0.42024174 -0.6141153
  1.2969518   0.55245394 -0.94479805 -0.92296505  0.03697282  0.8000552
 -0.9578117   0.722043   -1.0007545  -0.62869227 -0.18534602  0.39200607
 -0.4655355  -0.72326547]
[-0.8524875   0.45176747  0.02100639 -0.8788075   0.04466383 -0.86218256
  0.19553837  1.3403074   0.2431114   1.4273444  -0.2734522   0.54943126
  1.020026    0.4210397   0.16806778  1.2103559   0.5100965   0.04300578
 -0.2805896   0.23125955]
[ 0.9645377  -0.9026691   0.5653052   0.08615585 -0.63537943 -0.7910461
 -0.44979706  1.0301774   0.17887542 -0.00606328 -0.61513925 -0.02022802
 -0.04438874 -0.10196465  0.09170647  1.104038    0.44379267 -0.68518144
 -0.8221988   0.17178352]
[-0.7438744  -0.21703985  0.21275893 -0.8902543  -0.44107124  0.9598236
 -0.3185909   0.20005956  0.7811316   0.963261   -0.81695175 -0.93381685
  0.8799609  -0.11271892  0.6739565   0.7104068   0.06470929  0.7324856
  0.53599393  0.15487851]
[-1.5173885   1.3530686  -0.07910033 -0.8216311   0.07596748  0.81195015
 -0.02437638 -1.3884002  -0.12654099  0.35242787  0.8639852   0.02879526
 -0.24249373  0.28489318  0.10078339 -1.1911823  -0.64274645  1.628816
  1.0140457   0.11623225]
[ 0.91730684  0.58889097 -0.38400826 -0.45863882  0.42796996 -0.33397838
  0.61567444  0.23537052 -0.7202647  -0.82872343  0.00715177  0.6551432
 -0.5223153   0.754973   -0.4920809  -0.71301687 -0.06659476  0.33634022
 -0.3166866  -0.45115885]
layer 5 Activation
tanh
layer 6 Dense
20 1
[-0.4942474]
[2.0199509]
[-0.80162835]
[-0.03895058]
[1.1191292]
[0.3029347]
[1.280785]
[-0.39819032]
[-1.0073514]
[-0.47191224]
[1.5406619]
[0.80912113]
[-0.6841183]
[1.183881]
[-1.0472844]
[-1.8153744]
[-0.9571604]
[2.0614061]
[0.7323643]
[-0.5018317]
[1.4496905]
