layers 7
layer 0 Dense
20 20
[-0.21028422  0.8572006   0.5847249  -0.17174284  1.9046876   0.48916578
  0.3160428   0.28742722  0.16265436 -0.4289081   0.35170457 -1.2570041
 -1.7872587  -0.7901366   0.32628056 -1.6245391   0.04535037 -1.7979199
 -0.05263868 -0.25044915]
[ 0.25168192  0.37587947 -0.04993566 -0.08241245  0.3213982   0.25065553
 -0.04853884  0.44770676  0.59314615  0.43815193  0.08238433 -0.58544517
 -0.1353882  -0.11383867  0.27552715 -0.2945012   0.2805171   0.21513641
  0.17729627  0.14259095]
[ 0.5491957   0.2121962  -0.5789412  -0.83414984  0.27902043  0.57314783
  0.37977874  0.5106701   0.43232733  0.5072878   0.28473508 -0.14201385
  0.51678956 -0.24271667  0.01533375 -0.5378665   0.5159407  -0.13315812
  0.30948454 -0.01883754]
[ 0.26002192 -0.02124513 -0.31968066 -0.5140771   1.0672796   0.7607973
  0.27677435  0.9027505   0.5655612   0.12903869 -0.1277812  -0.8433218
 -0.6250089  -0.2756622   0.32612336 -1.2923297   0.90441686 -1.2257471
  0.7798408   0.31359404]
[ 0.4009979  -1.7434074   0.56327665  0.89992017  0.6546618  -0.18479651
  0.8479735   0.21702987  0.8455634   0.56893134  0.47848094 -0.21952038
 -1.6381278  -0.19146854 -1.2104216   1.2981131  -0.54143435  1.8384751
 -0.2786804  -0.44446328]
[ 0.18367893 -0.21484232 -0.50187415 -0.6610523  -0.04998225  0.03152338
 -0.05681621  0.4707954   0.14730915  0.1766644   0.27550226 -0.1330233
  0.46782035 -0.2683052   0.5725754  -0.43168417  0.32139233 -0.211604
 -0.01970627  0.1444898 ]
[ 0.36761138 -0.08913781  0.09323541 -0.367961    0.02544072  0.6570204
  0.40047714  0.7759288   0.35525912  0.2320299  -0.20380475 -0.42221665
  0.5559946  -0.67882293  0.5062388  -0.19461791  0.59862775 -0.43222606
  0.03890312  0.02031792]
[-0.7279014   1.4230007   0.55857515  0.21692917 -1.2218208  -0.5430897
 -1.0688765  -1.6140041  -1.9822785  -1.6630157  -0.5911435   1.043213
  0.45393607  1.7164967   0.5073497   0.82987565 -0.95293033  0.00227012
 -0.44996378  0.51289135]
[ 0.04448773 -0.30505776  0.62708443  1.5423868   1.0432773   0.07522646
 -0.880511    0.19901381  3.261034   -7.637783    2.458407   -1.2810215
 -0.2905715   1.1727275  -0.32293278  2.381107   -0.90967953  3.2196279
  0.50171393  0.87093544]
[ 0.45945105  1.2416096  -0.8099077   0.2952307   0.87214684  0.53251815
  0.1942892  -0.20798968 -0.02293889 -0.23828112 -0.8968327  -0.5118949
  0.87932765 -2.128135    0.37477452  0.55374557  0.57506996  0.6018993
 -0.43617672  0.7037013 ]
[ 0.12742332 -0.321922   -0.4935343   1.1357853   0.4345826   1.0262699
 -0.7701733  -0.07759387 -0.2707332   0.58245873 -0.33605388 -0.26922494
  0.291559   -0.5768837  -0.03418592  0.87249607 -0.26236266 -1.5693234
  0.19155768  0.6963376 ]
[-1.3511252e+00  3.9653857e+00  1.3538381e-03  4.7479922e-01
  4.6844009e-01  1.9028327e+00 -6.0871798e-01 -1.6041861e-01
  6.0584974e-01 -2.3044596e+00  2.1458565e-01  3.6999428e-01
  1.3581829e+00  2.2102304e-01 -1.9664464e+00 -1.5760641e+00
 -6.4655519e-01 -9.4296724e-01  3.7459442e-01  6.8946958e-01]
[-0.19732462 -0.74643886  0.8566978   0.8652567   1.1423957  -1.0177134
  1.296216   -1.1570891  -1.0712394   0.0788769   0.22422431  0.9646503
 -3.0196989   0.2998766  -1.2229494  -0.8893932  -0.9208991   0.27230886
  0.3077845  -0.9693208 ]
[ 1.4788474  -2.820669    1.7871659  -0.20917307 -0.33538765 -1.5203968
  0.9883384  -1.1009057  -1.1928327  -0.3420022   1.7222337   0.40844184
 -1.5877575   0.66015065  0.75358915 -0.6766049  -2.211391   -2.8332455
  0.7385939  -1.5139811 ]
[ 1.2325988  -0.13333361  0.01526628 -3.4566817  -0.8714261  -1.3402649
  0.12190153 -0.6321201   1.1095822  -0.9498871  -0.77825165  0.04500148
 -1.4056078   0.22810343 -1.0978799   0.53614455 -1.0779514   1.1041985
 -1.9486183   2.038197  ]
[ 0.49672785 -1.7852051   0.54802096  3.0250528   0.9090459   0.6579746
  2.3236034   0.6776653  -3.9610372   0.46277875 -0.00903472 -0.59132844
 -2.396318    0.597444   -2.0925837  -0.3775263   1.0768961  -1.7886465
  0.94581324  0.76668215]
[-0.9775738   0.29612872  0.6555182   0.48646     1.1600796   0.45809388
  0.42503098  0.02391309  0.9811483   1.8391596   0.41827568  0.0122454
 -1.479443   -0.33639383 -1.0650079   0.6693529  -0.2383165   0.39440802
 -0.78295124 -0.64616257]
[-4.326846    1.8457013  -1.9589968   0.675194   -0.82126755  1.3195037
 -1.7471137   1.7159945   1.6529065   1.5577714   0.07558455 -0.9592341
  1.835423    6.7651744  -1.8625227  -0.41110516  1.5401652   0.68135476
  0.23573276  1.2965426 ]
[-1.6784278e+00  2.8685656e-01  9.0014893e-01  1.5896327e+00
 -5.4199976e-01  3.4399759e-02  6.7634398e-01  2.2942781e+00
  4.5349237e-02  6.6728544e-01  2.5339308e+00 -1.0592743e-01
  2.9714179e-01  3.8611097e-03  1.3653244e+00 -7.9173726e-01
  1.7070645e+00  1.7809656e+00  2.4652789e+00 -3.9625247e+00]
[-0.9838856   1.8742338   1.1326723  -2.4188912   0.0285963  -3.5999126
 -2.8923986  -2.0314417  -0.90549356 -2.261205   -3.5686924   1.4034046
 -1.4750856   2.1259828   6.021774    0.08583258 -1.4918814  -0.74244446
 -2.8054583   0.65379107]
[ 0.39362654 -0.0391339  -0.33948886 -0.68788475  0.14768495  0.44507682
  0.1873796   0.96288806  0.6193693   0.43752992 -0.01821187 -0.73323005
  0.20366111 -0.83337635  0.2615608  -0.789715    0.6933393  -0.5482245
  0.563424   -0.07510816]
layer 1 Activation
tanh
layer 2 Dense
20 40
[-1.0318956  -0.05416501 -0.33182293 -1.195104   -0.48689237  1.3366452
 -0.44191244 -0.3556325   0.5082849  -0.19787687  1.2486745  -1.4862857
  1.0091847   1.7221266  -0.7050853   0.12668023 -2.0633035  -0.38256037
  1.9219615   1.2124097   0.23324092  1.7872605   0.8572394  -1.7824774
  0.1800468   0.97574025  1.557985    0.25156775  0.7526373  -0.34793594
 -0.09113485  0.01178719 -0.39635298 -0.85645735  0.76118803  0.35927302
  1.9794217   0.18234235 -0.45476657 -1.3355392 ]
[-0.16427892  0.6985763  -0.38743064 -0.5585129   0.47236976  1.0103796
  1.5626131   0.18646504  0.6295993  -0.5278842  -0.5624554   1.4612932
 -0.5186741  -0.52540517 -0.3526684  -0.03493372  0.8533637   0.18334039
 -1.0494787   0.17602421 -0.6482064  -1.0561361   1.3385757   0.4412918
 -0.01554939 -0.58743805 -2.439929   -0.288845   -0.7388977  -1.8721937
  0.53464985  1.7550534   0.7673641   3.2111032   0.24926844 -1.2143903
  0.13549475  0.6778715   1.0332795  -0.78999853]
[-0.6100827  -0.1025243  -1.3637584   0.29461268 -0.82471365 -1.3468207
  0.38086542  0.0092435  -0.9332096   0.62315696  0.4084249  -1.6106383
  0.8243262   1.7098173  -0.20767845  0.5868835  -0.20928271  0.16688952
  1.1270556   0.2720114  -0.05302288  1.0569474   1.2872546   0.2664065
  0.12754121  0.9933278   0.08109433 -0.46390387  0.5224443   0.6741845
 -0.08661781 -0.8798084   0.0651053   0.2610038   0.8531386   0.41325933
 -0.2971144   0.9531184   0.34663412  1.0697817 ]
[ 0.47275943 -0.8718521   1.6431441  -0.30649394 -1.1953154  -0.356875
 -0.9520904   0.34704834 -0.5658784   1.2870969  -0.44577065  0.5216199
 -0.6440177  -0.15752897  0.34755048 -0.12977158  2.2890828  -0.11034017
  1.1804018   0.78252345 -0.34471297  0.09331185 -1.0147182  -0.98925877
 -0.22538735 -0.66355306 -0.8579242   0.5356045  -0.2964969   1.0593787
 -1.2159007   0.91971195 -0.7796019   0.402858   -0.8139983   1.8447173
 -1.5487479   0.33737385 -0.8343288  -0.26902714]
[-0.5968571   0.16358052  0.45685744 -1.17181    -0.44874838 -0.3052388
 -0.09685033 -0.44695625  0.86342525 -0.983816   -0.5046559   0.17888428
  0.3229809  -0.21060754  0.40558806  0.719886   -0.5496481  -0.68937075
  1.0687997  -0.41589206  0.6119351   0.20756786  1.0380902  -0.47636744
 -0.60966706  0.48983088  0.29365715  0.29638317  0.17302363  0.24692948
 -0.07671537  0.6019758   0.8843044  -0.5701598   0.63585776  0.04272887
 -0.38016498 -1.4434421   0.43283293 -0.34320453]
[-0.47575283  0.1556869   1.3904771  -0.62756836  0.15345858 -0.23445262
  0.44120434 -0.20543586  0.6302411   1.143681   -0.26653427  0.4951407
  0.38667983 -1.2560515  -0.40412512  0.84481174 -0.16826466  0.2889384
 -0.4196082   0.8707589   0.11233189 -1.2782574  -0.6160593   0.33543408
 -0.7752491  -1.0807363  -0.6061468  -0.11047464 -1.3867061  -1.2874179
 -0.21903546  0.21828264  0.4502893  -0.07582328 -1.0701879  -0.7062282
 -0.5235509   0.05894727  0.38217142 -0.06378481]
[ 8.4706575e-02  5.9108257e-01 -5.9112370e-01 -1.2401567e+00
 -3.1558294e-02  1.9826154e-01  1.6041251e-01  4.6358384e-02
  1.4293028e-01  9.9279697e-04  9.7343266e-01 -1.4610057e-01
  1.1678479e+00  9.4804190e-02  1.2955576e-01  3.1575242e-01
 -5.8949131e-01 -5.2899462e-01  4.6717215e-01  2.1190100e+00
 -8.7159872e-02 -1.0877868e+00  1.7970753e-01  3.1354615e-01
 -1.1520153e+00 -4.7419372e-01  1.6889174e+00 -3.1192377e-01
 -6.9541341e-01  7.1742129e-01  2.0109725e-01 -2.7943763e-01
 -2.4819180e-01  2.8713556e-02  4.2611885e-01  7.4899513e-01
  4.6777332e-01  1.2435583e+00  3.5866749e-01  4.2228094e-01]
[-0.05611882  0.473525    1.507075   -1.0940909  -0.47282007 -1.3146678
  0.76894647  0.19246925  0.13832043  0.46316406  0.62633306  0.44807974
  0.41065997 -2.4640524  -1.7549428   0.34102562  0.43038228 -0.6337597
  0.57391524  0.57346636 -0.02394133 -2.286733   -1.2609385   1.5380425
 -1.6217494  -0.9335514   0.09203961 -0.47542426 -2.1488235  -0.5524524
  0.7868428  -0.27755752  0.13330975  0.583019   -0.3829764   0.4287373
 -0.14758311  0.5719137   0.44582373  2.8008132 ]
[-1.100652    1.5214461  -0.36027968 -0.32963926  0.12075649  0.37128603
  1.0332595  -1.4314598   0.5420037   0.42766815 -0.9678082  -1.0334337
  1.3994875  -0.3941757  -0.9555536   1.1591992   0.1925289  -0.46976832
  0.42031673 -1.2915761   1.2916954  -0.4345252  -0.01879252 -0.03307629
 -1.1802467  -0.35029736 -0.19579563 -2.128495   -0.70695806 -1.5511786
  1.3936744  -0.8079949   1.1692531   0.63428307  0.39523372 -2.3164823
 -0.14536744  0.5380357   1.496612    0.75910777]
[-0.26304224  1.2210728   0.7239184   0.53946674 -0.14631104 -1.2114406
  1.7569547  -0.6022571  -0.09482925 -0.15054898 -0.07268374  0.730092
 -0.52379394 -0.89877146 -0.4743199   0.6903241  -0.19012226  0.4417472
 -0.01025002  1.1323426   0.5394783  -0.87198806 -1.567459    1.0260003
 -0.60398597  0.17744915  1.069767   -0.83491415 -0.8016726  -2.1295452
  1.0580983  -1.9960035   1.8977642  -0.94495857  0.04020829 -1.4537646
  1.6047587   0.47399342  0.8287923   0.5780726 ]
[ 0.52454984  0.42709905 -0.64578235 -0.48820314 -0.801959   -0.7883361
  0.31075928  0.06233184 -0.96469903  0.36384365  0.99567735 -0.35704276
 -1.0015485  -0.7206317   0.2996655  -0.25093564  0.40080482 -0.02129812
 -0.44186795  0.77892786 -0.09589626 -0.74527246  0.61456954  1.5749192
 -0.49709058 -0.69870853 -0.4846845  -0.65882015 -0.27352738  0.80259466
 -0.30044994 -0.3853798   0.11451465 -0.7226263  -0.318339    1.6271697
 -1.865188    2.4470842   0.4443642   0.9319775 ]
[ 1.1096927  -1.1404537  -0.25356707  1.0571585   0.6800065  -0.3576339
 -0.58733636  1.2193084  -0.10894304 -1.268708    0.3440432   0.48251897
 -0.82323575  0.5644129   1.6077099  -1.3515849   0.659524    1.5069687
 -0.51345676  1.9163474  -0.99005646  1.0449696  -0.5688234  -0.07854009
  1.022962    1.1864008  -0.2910333   0.8596508   1.1990536   1.2398926
 -0.8481599   0.17049207 -0.3683767   0.7376972  -0.13974094  0.91689366
 -0.62804526  0.25540623 -0.6792567  -0.19219363]
[ 0.03950083 -1.1864538   0.5370389  -0.60369533 -0.44194177  0.10297747
  0.3793691  -0.10161912  1.0491251   0.84013236  1.1965249   1.059814
  0.22556537 -1.1835666  -0.5469377  -0.229717    1.8834705   0.19822618
  0.43569422  0.1990513   0.26717195 -0.8489112  -0.48540124 -0.5775051
 -0.03561617 -0.54694027 -1.9006152   0.6998143  -1.4364052  -0.6310671
 -0.648275    1.5838224  -1.290535    1.1608243  -2.2321923   1.241766
 -0.946616   -0.38457888 -1.2172257  -0.18872415]
[ 0.5933771  -1.6602727   0.66384494 -0.69250286  0.34232044 -2.3691685
 -1.695237    0.3595762   0.07063864  1.1214203  -0.18256003  0.8245998
 -0.22193684 -0.95655876 -0.03514927 -0.542206   -0.9856663   0.06955446
 -0.97484344 -0.7803134  -0.16729748 -0.49188086  0.3723482   1.4200975
  0.17281035 -0.2481048  -2.171587    0.3095078  -1.4635433   0.09206579
 -0.76167774  0.9298962  -1.2527944   0.32843214 -1.4801486   1.627423
 -1.9568737  -1.8335834  -1.3570384   0.80332017]
[ 2.5669730e-01 -2.9013345e-01  1.4682351e+00 -1.1568142e+00
 -1.5041294e+00  5.7665855e-01  2.9976568e-01 -1.8734304e-02
 -6.2516409e-01 -1.1432674e+00  1.0648509e+00 -1.0101118e+00
  6.1966705e-01  2.8813374e-01  1.8838245e-01 -3.0614302e-01
  1.0076551e+00 -5.9459382e-01  1.5495910e-02 -2.3659868e+00
  6.6230398e-01 -9.2659134e-04  1.5629685e+00 -1.3380003e-01
 -2.4429755e-01 -3.9833868e-01 -1.2884454e+00  1.6004692e+00
 -3.8276601e-01  1.1349059e+00 -7.5077370e-02 -3.4283802e-01
 -4.5107746e-01 -6.7619580e-01 -2.0161559e-01  8.1382036e-01
  4.9485296e-01 -1.0753574e+00 -1.0184420e+00 -1.2266754e+00]
[ 1.9316881  -1.5400876  -0.09048545  0.9153165  -0.1946738   0.49018085
 -0.92852473  0.98408127  0.03654881 -0.7365821  -0.6485738   0.24922276
 -1.3956386   0.8857068   0.7461895  -1.4076653   1.0262891   1.242339
 -0.44214693  0.97720677 -1.3851755  -0.39488074 -0.5419926  -0.1007389
  0.4389645   0.37097633 -1.3123759   1.0417584   0.2146173  -0.63919896
 -1.4604908   0.54460007 -1.1712475   0.21180129 -1.2263453  -0.55305225
  0.02567513 -0.31178352 -1.4935411  -1.1828111 ]
[-0.16678584  0.3429343   0.56567067 -1.5032904   0.13970737 -0.3509409
  0.70402175  0.04584393  1.0379342  -0.37369037 -0.7970738   0.03107391
  0.31962433 -2.5739846  -1.1022751   0.20659295  0.888483   -0.60910565
  0.56767124  0.67584497  0.18751042 -1.7360259  -1.024352    1.2620616
 -0.5282288  -2.27117     0.34857774  0.39166585 -1.6701492  -0.23657149
  0.1651356   0.28275844  0.09788097  0.08665372 -0.94915324 -0.03967199
  0.5071631   0.45111504 -0.1591984   0.77851886]
[ 0.69337064 -1.6986407  -1.2069463   0.2243627   0.0185675   0.12290983
 -1.6550027   1.018869    1.1884753  -1.431724   -0.45476946  1.1560445
 -0.60335386 -0.21364082  0.65151393 -1.047331    0.04116853  0.6133382
  0.41890207  0.28685173 -0.83501345  0.4142542   0.12116194 -0.26432115
  0.15673874 -0.14833418  0.2784939   1.6957906  -0.32649752  0.95154667
 -1.2687585   1.6300367  -2.0937166   1.0840232  -0.77140725  0.88501513
 -0.66244274  0.6981811  -1.8637367  -0.31353953]
[ 0.16839892 -0.3314039   0.69208604 -0.32505798 -1.3597186   0.08124811
  0.37585747  0.09326234 -1.3177085   0.18785892  2.0698965  -0.15153705
 -0.9300813  -0.97560066 -0.05925913  0.08791184  0.43858406  0.57581145
  0.36285353  0.6444857   0.14512229 -0.5487835  -0.37095654  0.70699155
 -0.15020977 -0.64885557  0.5091889  -0.6399871  -0.30832052 -0.12089657
 -0.06765539  0.02451954  0.23414049 -0.38851044  0.76886773  1.144587
 -0.64782524  0.97616124  0.35888788  1.2324363 ]
[ 0.06025668 -0.5452661   0.52542996 -0.66399556  1.3148608   0.9879776
 -0.5257882  -0.00686201  1.5845939  -0.6508516   0.372318   -1.0169278
  0.2999842  -0.44904503 -0.67962325 -0.14775272 -1.3900228  -0.26340866
  0.6598651   0.06023107  0.31181782 -0.29941556  0.15088025 -1.5230588
 -0.70949334 -0.5016822  -0.66554374  0.5825061  -0.33435467 -1.6924804
 -0.38481823  0.46854514 -0.6415933  -0.8064676   0.51706785 -1.2270658
  0.63590837 -0.96837974 -0.8252682  -1.1659223 ]
[-1.8102605   2.4042807  -0.18140979 -0.93593884 -0.97533405  0.21747087
  1.2965517  -1.8904617  -0.5229949   1.0314139   0.05252257 -0.8731972
  0.8137251  -1.1885422  -1.4871159   1.7196093  -2.029208   -1.2881999
  0.6870361  -1.9582336   1.9122093  -0.28733724  0.8277283   0.29710668
 -1.3744501  -0.91776174  1.3233464  -1.8648541  -0.52928257 -0.78676003
  1.9510626  -1.6065786   1.7920351  -1.2111921   0.49746084 -0.65879023
  1.3616003   0.44899064  1.8071696   0.67776   ]
layer 3 Activation
tanh
layer 4 Dense
40 20
[-0.6224406   0.35655886 -1.0372351   0.76625466  0.4002743  -1.2739896
  1.038821    1.3435338   1.1770476  -0.7524323  -1.2800474   0.67904264
  0.00315872 -0.06699172  0.0199455   1.3494563   0.62883514  1.3963662
  0.42389753  1.7054064 ]
[ 0.6658101  -1.7136092   2.3431816  -1.902407   -0.6129595   0.77216667
 -1.5367811  -2.1379852  -1.5502908   1.1319498   2.7825258  -1.4455044
 -0.29920608 -0.15912868 -0.57009095 -2.6891646  -0.81706244 -3.1560311
  0.32507086 -1.8840885 ]
[-1.181429    0.56839615  0.44755405 -0.96323514 -0.52811736 -0.5763409
  0.47191522  0.9356078   0.7875066   0.213715    0.16730693 -0.24325813
  0.3168851   0.7975089  -0.66877425 -0.07860309  0.3271749   0.05867211
  0.16137224  0.1227769 ]
[ 0.5440422  -0.5241538  -0.19510387  0.41660753  0.4044351  -0.21507505
  0.07779419 -0.04668267  0.49024728  0.04215582 -0.54039013  0.5120156
 -0.04303953 -0.16441463  0.63666713  0.36831346  0.03850609  0.5330731
  0.09626084  0.9712677 ]
[-0.7378961  -0.3831908  -0.28742996  0.39421523  1.0596216  -1.0872078
  0.40885156  0.07091429 -0.07285699 -0.7782936   0.29224816  0.4935992
  2.0061285   0.7214385  -0.2552591   0.45167872  0.69567925 -0.15508029
 -1.6038321   0.13648206]
[ 0.02522863  0.12533335  0.02305446 -0.18942763  0.25336042 -0.01859439
  0.04436516  0.48657677 -0.7133214   0.28905916  0.03067725  0.18129574
  0.17173101  0.00669481 -0.23477964 -0.8335041   0.05031378 -0.55340576
  0.4480298   0.0727662 ]
[-0.22791499 -1.5368193   1.4574707  -1.4573541  -0.79238003  0.7452409
 -1.1530476  -0.86853904 -1.959862    0.240975    2.998734   -0.45007566
  0.28276426 -0.14768413 -0.15355869 -2.1574936  -0.58253384 -1.7761923
  0.08723512 -1.098012  ]
[ 0.0883304   0.5570063  -0.39583617  1.0927931   1.0317608  -0.95423204
  1.1245427   0.4105461   1.199699   -0.93578744 -0.7022073   1.0921828
  0.11136225  0.3045547   0.4367226   1.09141     1.793471    0.38651472
 -1.5676682   0.80358315]
[-0.02701156  0.48101926 -0.07648385  0.03910742 -0.8296498   0.5694879
  0.02708809 -0.3111823  -0.47472364  0.21033798  0.25798053 -0.54856044
 -0.43696076 -0.44567224  0.21035983 -0.01907815 -0.2945564   0.3081333
  0.27564573  0.08856212]
[-0.06571114 -0.47589305  0.5376452  -0.95631146  0.08798941  0.06022405
 -0.03496861  0.3547114   0.07665067  0.22712423  0.40128914  0.81835806
  0.21075565 -0.00328781 -0.08065313 -0.25687534  0.66258913 -0.00185556
 -0.42938828 -0.43409446]
[-0.10704922 -1.054568    0.54827535  0.33132604 -0.42167848 -0.29796925
  1.0344658   0.02221018  0.04330519  0.95281875 -0.24314994  1.0112829
 -0.4272921   0.00509419  0.07710957  0.62318426  0.9335863   0.11942319
 -0.87309664 -0.03391623]
[-0.58718365 -0.69936657 -0.37649566 -0.9962434   0.5057816  -0.5178103
  0.9239776   0.5984326   0.16795914 -0.16459711 -1.4071584   1.0093676
  0.6964542   0.39582565 -0.8799736   0.5568621   0.55603087 -0.07199246
 -0.44768408  0.2695341 ]
[ 0.32485402  0.93839335  0.16664876  0.8652734  -0.6499094   0.43676576
 -0.67109674 -0.878475    0.19771987  0.21950297  0.7307399  -0.59953177
 -0.2384472  -0.1322878   0.5907959  -0.20342532  0.11786199 -0.5650362
 -0.68569034 -0.7315019 ]
[ 2.3892052  -0.45128658  0.2177242   0.3977667   0.77005845 -0.00359115
  0.82908255 -0.23839086  0.17394058  0.36258897  0.3673732   0.4480642
 -1.7924359  -2.2142777   2.3916392  -0.6322028   0.1456784  -0.60766953
 -0.91229177 -0.25405452]
[ 1.5049133   0.682922   -0.44378442  0.83877635  1.0542972  -0.33540374
  0.54612356 -0.16169128  0.11151211 -0.33948058 -0.5992567   0.08134183
 -0.89601207 -0.08358876 -0.30745623  0.6320166   0.62557054  0.21475554
 -0.04833202  0.10005566]
[-0.22359446 -0.18661961  0.31718823 -0.7352194  -0.6845039   0.5574358
 -0.6628875  -0.5240267  -1.6109188   1.365475    0.9762021  -0.38694727
 -0.3107663   0.09303533  0.21585006 -0.95853686 -0.09789569 -0.3127022
  0.5407081  -0.15437484]
[-0.19732115  0.3512651  -0.8989089   0.8396841   0.8492493  -1.0023385
  0.88111544  0.68020123  0.38186553 -1.119483   -0.86938506  1.0761243
  1.0168438   1.1868364   0.01300491  0.81447357  1.2537819   0.6302473
 -1.1878098   0.08409904]
[ 0.01176139  0.16645971 -0.29789323  0.53535336  0.5918242  -0.19068214
  0.26703978  0.16890658  0.79353994 -0.4563003  -0.8270912   0.68926215
  0.01739398  0.121183    0.00743013  0.01572335  0.7201086   0.30361462
 -0.23672803  0.43600926]
[-0.0122118  -0.26130196  0.81347394 -0.4836677   0.09418724 -0.04963702
 -0.13602762 -0.7040721  -0.5482118  -0.24255593 -0.7547966  -0.31777722
  0.38085535 -0.18881299  0.31771737 -0.15302226 -0.02168711 -0.37123173
  0.49789602 -0.8682341 ]
[-1.0417519  -1.0696718  -0.6883342  -0.35901657  0.20209697  0.12063891
  0.5195042  -0.04968295  0.46341634  0.579612   -0.40980962  0.76605046
  1.4789749   0.9475878  -1.0106918   0.8281787  -0.184882    0.24715814
 -0.6449534   0.6806839 ]
[-0.0838158  -0.9700016   0.57853466 -1.4996241  -0.92383116  1.0871068
 -1.169733   -0.46709427 -1.1441609   0.8043575   0.16817859 -0.88374424
 -0.16737455 -0.31729424 -1.0124724  -1.0260196  -1.4005946  -0.33510998
  1.5468329  -0.936522  ]
[ 0.9270686   0.6770293  -0.09345919 -0.03924646 -0.27356032  0.21192318
 -0.49387923  0.8227625  -0.9733183  -1.0754285   0.47436273 -0.09972057
 -0.1506674  -0.7318373   0.46023688 -0.9498575  -0.85350734 -0.86650544
  0.2654128   0.98572165]
[ 0.42667383  0.6724874   0.08270121 -0.14476867 -0.3841809  -0.04435766
 -0.74509615  0.5996903  -0.4535735  -0.40996224  1.4446912  -0.50402
 -0.1216586  -0.25194985  0.10428929 -0.39049363 -0.89394516 -0.828253
  0.38979468  0.4323315 ]
[-0.46453214 -0.3900923  -0.01554851 -0.50507665 -0.24359249 -0.26002377
 -0.15522248 -0.18445128  0.918431   -0.49605986  0.5638811   0.46238124
  0.26187146  0.1280611  -0.31578007  0.6971231   0.6622322  -0.5731812
 -0.5001306  -0.58454335]
[ 0.3193078   0.17833495 -0.74401677  0.98137695  0.49126667 -1.0434076
  0.5068891   0.20355636  0.7701028  -1.1885018  -0.45770437  0.09171519
 -0.01611219  0.03665814  1.1706939   0.06606622  0.95236915  0.3733722
 -0.440246   -0.12123956]
[ 0.8955128  -0.16966881 -0.5813077   0.36806586  0.9043689   0.03272853
 -0.3290671  -0.22777154  0.35690978  0.14040199 -0.31716046  0.2950383
 -0.37691996 -0.49189994  0.39363423 -0.27614442  0.18528853  0.316591
 -0.43184465  0.3274112 ]
[-0.415624   -0.6964135   1.4643766   0.6940779   0.93983614 -0.9835342
 -0.539779   -1.3329799  -0.25541058 -0.84367496  0.9553658   0.31672102
  0.10473508  0.5677166  -0.05730196 -1.7116663   0.7519946  -1.5771251
 -0.76430184 -1.6877487 ]
[ 0.5442122   2.0639539  -0.6593151   0.5924786   0.66814595 -0.12093883
  0.11487878  0.42899162  1.3031276   0.02213046 -1.6776099   0.06742093
 -0.64555454  0.01962244 -1.6175733   1.4598395   0.60129     0.5565967
 -0.03233516  0.61390865]
[ 0.9178468   0.46551862 -0.41137066 -0.42040303  0.34982592 -0.17454597
  0.5394022   0.2016996   0.2855313  -0.07026658 -0.07030423  0.49879703
  0.20619233 -0.9120579   0.80250835 -0.2934424   0.27775276 -0.31970188
 -0.2881897   0.3283558 ]
[ 0.04667735  0.68732244 -1.2248621  -0.04403623 -0.6307927  -0.20793042
  0.76887786  0.5628094   1.004805    0.26881105 -0.48684686  0.2747733
  0.53663784  0.3143134   0.0329934   1.53875    -0.4368888   1.0605707
  0.17848907  1.3132647 ]
[ 0.00665714 -0.5173364   0.26418057 -1.3124989  -0.37395713  1.5879266
 -1.1545588  -0.5266301  -0.72873205  1.1453534   0.7221949  -0.67343074
  0.27580982 -0.12258216 -0.61421347 -1.0203923  -1.7599922  -0.30829102
  0.9347163  -0.31217742]
[ 0.6253047   1.8423371  -0.83084285 -0.26868865 -0.1095747   0.7333006
  0.72775     1.7859224   1.2998755   0.18809772 -2.0011437   0.2722987
 -0.168479   -1.1282523  -0.2411481   1.5574927  -0.14704588  0.8467504
  0.46983147  1.4061506 ]
[ 0.6282023  -3.065005    0.953663   -1.0136553  -0.38989043  0.80432653
 -0.5858502  -1.6242269  -0.7740077   1.4021406   0.27727854 -0.2552049
  0.09866811  0.9385592  -0.11748005 -1.8142058  -0.5766772  -0.9022816
  0.5384317  -1.3192223 ]
[-0.9398938  -0.20563513 -0.07460763  0.9827897   0.58740985 -0.1340792
  1.0588894  -0.43452433  1.0405374  -0.42340586  0.15289906  0.5250033
  0.13259175  0.9712333  -0.4878197  -0.49889576  0.81194687 -0.3330189
 -1.0610564   0.21953413]
[-0.13945368 -0.8739488  -0.11527216  0.99266195  0.4095951   0.09708556
  0.4858532  -0.8382645  -0.49466735 -0.63631076 -0.03212308  0.76236373
  0.6384341   1.1279908   0.04572316 -0.2363429   0.5314481   0.20411728
 -0.52531064 -0.54633176]
[ 1.4287671   1.5119543  -1.2936822  -0.03247282  0.08665028  0.46396306
  0.17839186  0.57149345  0.32327837  0.6420731  -0.8110649   0.2049389
  0.10813648 -1.2420884   0.59684324  1.0540475  -0.5954366   1.4127717
  0.79123056  1.6847281 ]
[-0.40250462 -1.1689957   0.9769751   0.10715014  0.3051025   0.12625153
  0.37982243 -0.7587452  -0.391169   -0.25524527 -0.22108348  0.54358304
  0.1591641   0.47207716 -0.08198641 -0.9302948   0.9474799  -0.7951856
  0.05165408 -1.1546829 ]
[-1.51892349e-01 -6.15015149e-01  1.08452821e+00  1.79600731e-01
  3.45038176e-01 -1.29459396e-01 -9.35539789e-03 -2.85211354e-01
 -1.14321971e+00 -3.63260448e-01  4.71701175e-01  1.97794378e-01
  7.14397430e-02  2.89194107e-01 -1.42590687e-01  1.55777176e-04
  5.54237425e-01 -1.17512174e-01  5.72930813e-01 -6.00419760e-01]
[ 0.03440611 -2.4801354   1.2213507  -1.425066   -0.9729579   0.76034814
 -0.4389706  -1.8019737  -1.3599641   0.6192396   0.8837583  -0.17183845
 -0.06893386  0.12354399  0.50313985 -0.9915428  -0.5947306  -0.8408311
  0.7835106  -1.6692902 ]
[-0.7851221  -0.26037925  0.13575964  0.5416461   0.05835116 -0.37321496
 -0.3961467  -1.0668266   0.09653161 -0.47730154  0.09320021  0.19802666
  0.51230127  0.2596649  -0.25916636 -0.39089873 -0.20917046  0.27918786
  0.5467984  -0.2919539 ]
[-0.16440335 -0.04420037  1.056113   -0.67002946 -0.51879233  0.5523024
 -0.986507   -0.5728911  -0.5193598   1.0475492   0.8511562  -0.7976053
 -0.22721022 -0.14024213 -0.53292316 -0.6642396  -1.1941963  -0.8862111
  0.9862627  -0.22591412]
layer 5 Activation
tanh
layer 6 Dense
20 1
[-0.99708676]
[1.0995942]
[-1.3386823]
[-0.95118403]
[-1.0958908]
[0.9318923]
[-0.20289947]
[0.8841202]
[0.63939697]
[0.69886523]
[-0.7541672]
[-0.7379524]
[-0.15172577]
[-1.8770192]
[-1.003013]
[1.1984929]
[-0.7709356]
[1.2586691]
[1.005217]
[1.2846205]
[1.9778795]
