layers 7
layer 0 Dense
20 20
[ -0.381564581903164 -0.29881767677558463 0.2285758075871718 0.02512251480672785 -0.08501091033486756 -0.5419518995852055 -0.0687953806257265 0.10770087522228797 -0.24324826286693915 0.05339829160467306 -0.07400244155425703 0.3661977768368031 -0.012100968568916487 0.10696603227798032 0.12013124722630891 0.31339453076189855 -0.36598120529935735 0.25771749248019077 0.2360351393093954 0.2942587412636353 ]
[ -0.13173372975521525 -0.34133001385927225 -0.020553506979866718 -0.11115113983116379 0.13528872786367951 0.11891148573415365 0.12038964439638737 0.00051858983001841 0.3493039954989813 -0.07215419018037848 0.38423502067315024 0.354617155918175 -0.25965339379375596 -0.34456546496785284 -0.26523324026452066 -0.3353177479955956 -0.35356324294217584 -0.07801351126247043 -0.1790358760485398 0.3218596649213684 ]
[ 0.13928019729309124 -0.3369870076919766 0.3137275521778755 0.2740942850933773 0.22443071333044434 0.20705628538362528 -0.09097618667697382 -0.22818131558388655 0.05211025935591686 0.25624728810124237 -0.13445109698954236 -0.3431310898959628 -0.07181421832336689 0.3028221612125518 0.3007503016718537 0.2803439017511892 0.2022768949673868 -0.0013608597060544509 0.36392547364667055 -0.1876280886130132 ]
[ -0.1582188252826941 0.12704564621438438 -0.03137659443825316 -0.1190155165088903 -0.37026325012113126 -0.2231498203250987 -0.5094676694868038 0.3366760129056151 0.4295420852859827 0.06867502318350764 0.39308308935033015 0.042325328662616866 -0.09707660849881203 -0.5608422031040986 0.10726061164101024 -0.22782324939021678 0.2405336517095531 0.31861453064229034 -0.2049821285489766 -0.24134304356491815 ]
[ -0.010364475932139188 -0.3160320144185663 -0.15389944387648574 -0.3177162361947465 0.0006606893522151236 -0.36589003334037257 -0.11978866185164294 -0.20859006692264098 0.2589870107223186 0.10858596503870852 0.2202314935290519 -0.13277186994455875 -0.27121179115600397 0.5319097706704278 -0.09244169418905594 -0.8827229019795121 -0.9716342359153203 0.1739796860569296 -0.3241587863008016 -0.057585011220034156 ]
[ -0.26242140152948756 0.010172595087881528 0.18722723899898888 -0.3449628952896444 -0.1052381057165119 -0.033950081442315184 0.019272709764745745 0.15205637422126114 0.0052435681072195315 -0.22655884400588694 0.2200949721935786 -0.2653064299844311 -0.09571707828361178 -0.06637068237566397 0.07853857156029684 -0.1651057633450009 0.002170108987777746 -0.13350299044175554 0.07830700667455638 0.01696343198629106 ]
[ 0.24671679782041675 -0.203194661398122 0.15877254338550492 0.04694399522306741 -0.12733746864115325 -0.1306901345325561 -0.3119500571614531 -0.2988532621599419 -0.28347290483503146 -0.2904765460172782 0.12911254907382932 0.2675400751046143 -0.20878668006281523 0.053308768719858866 0.3776367227939402 0.3850113643264377 0.02094497240262137 0.3200082543933045 0.0771516673390295 0.0025823193716364035 ]
[ -0.21407716213259997 0.3175933860149261 -0.3318561067491142 -0.4926120072540404 -0.020765848582600485 0.14882343418802457 -0.24986956998170112 -0.20323463593013127 -0.3632990625984174 -0.24451028536870917 -0.14287993126511306 -0.2101908609554147 0.006486237256900294 0.44114061259309273 -0.16873002816961327 0.04373130531670736 0.5996132085371313 -0.09277641384113751 -0.1307212512144406 0.08777133547035043 ]
[ -0.6668835432290018 -0.13042547655211678 -0.3600511179351073 -0.2786228463710521 0.04258611699681436 0.5541432751884995 0.43987904347976947 -0.20582767196028087 0.45042535883056384 -0.17840984259034243 0.470205527213342 0.05214506513405407 -0.588266350120831 0.3683031288140666 0.2573697577464364 -0.4319446587251733 0.08174176735050653 0.7091579634505553 -0.2738935613055627 -0.5168750177746985 ]
[ -0.2666496852368118 -0.3220524630427536 0.24276970133464357 0.2166515460702502 0.11706340205854401 0.19753769115654685 -0.1939344282139572 0.3725019524487643 -0.30351037247887674 -0.20438887775372352 -0.5167887180219589 0.17583243941444418 0.356079267726729 0.018101626070639143 0.01512168288538193 -0.2130019568267196 -0.31578844928774996 0.0513313860638532 0.22040573651766127 0.3478462597746156 ]
[ 0.4063155736944665 0.3110340176884187 -0.11497203065223792 -0.42889881772625316 -0.1843190740448943 0.2652398956664664 -0.10233225969527568 0.44870289347294035 0.12805086406386038 0.10287727433625513 0.09183501135927455 0.42646893633571553 0.23110196506210295 -0.40575508631115653 -0.2629591145848412 -0.3311181775714024 0.1492607704137253 0.14274622269979087 -0.405394833606646 0.13334206496788478 ]
[ 0.1985601438098476 0.3727158128391951 -0.22082192348104945 0.12498155574772181 -0.29541722679258126 -0.3215561378604728 0.26142538264901843 -0.0013032900272988565 -0.09889627889054217 0.6655817698991159 -0.17265923544761502 -0.2881958892944497 0.4108117180028278 0.11995291828876889 0.20712797124656293 0.06272881170929225 -0.8757689879584852 -0.18135800992878176 -0.14361114833452923 0.07618550375280432 ]
[ -0.15759783494264135 -0.6234013591990828 -0.4934588488846618 0.16034895375947222 0.19943091688742023 -0.7355386279167738 -0.5388077267681388 -0.18948727664305223 0.2003257174968655 0.06718094009061754 0.040968803611152314 -0.10707827407191174 -0.510394849191164 -0.1453382905564431 -0.3032984851321368 -0.35972035009275255 0.3794907909226896 0.16310851024864875 -0.2872351498895951 -0.1265834541159177 ]
[ 1.118013757585016 -0.21781981165617642 -0.6963479385193153 0.5421084868459306 -0.4163209335431933 0.33991521680310977 0.019682877148539498 -0.7955194242490347 0.46678637023712855 -0.19187567315724338 0.8363131240784705 0.634184150325457 0.3326100430781586 0.3145468911678127 -0.5348881965853661 0.8570591398127744 -0.20906726800150657 0.08750178931587324 0.28344064989600415 -0.7021137946160263 ]
[ 0.07833261536137709 0.328748401602551 0.0808720309627845 0.8737560908170248 0.8294489935978296 -0.7310279174794226 -0.13775752665171712 -0.45582254176787446 0.58742296600571 0.43817813187147286 -0.5030017131873193 -0.6254873772811373 0.7068616044128819 0.29393520788530997 0.4895183448963736 -0.301103519009245 0.37106664360537445 0.8267333739112569 0.47984633617829336 -0.3275091480985579 ]
[ 0.5652166916718209 0.15603109002009372 -0.1822124341165905 0.42437058825967117 0.46341475176034896 -0.5920141557432483 -1.6460188134258766 0.53533249315863 -0.154728151277456 -0.15944290865070695 -0.7038694416421833 -0.7815646373447332 -0.18532090895215966 0.6029141326364327 -0.9310233607464179 0.6566842329104426 -0.02863004620433418 -0.31439551098869944 0.07265816718156068 -0.11421863778679862 ]
[ 0.05379795100223304 0.23663146085629172 -0.3616988093109499 0.1585704850592195 -0.26503273868320754 -0.5181141864395362 -0.35021028096600554 0.04425291042304068 0.6981612166096944 0.39538601492148684 0.23703195844690653 0.050664221775667276 -0.3511051446856557 0.13168063660640986 -0.22534228526994401 -0.26020372660385693 -0.4178777751164228 -0.013220781611520651 0.04349639636378729 -0.46441028930678757 ]
[ -0.5213964965703731 0.5074317786819992 0.3277671905396337 -0.005246065753471454 -0.01559361386519608 -0.5113868770734592 -0.06343908188834528 0.5483347585463105 -0.09962233895233055 0.1654303378526423 -0.5301216602146218 0.1458242903084476 -0.7524416725274523 -0.07074577073293921 0.2589338891856022 -0.3917868963110099 -0.10428546092863114 0.24848382867718988 -0.27746690376799543 0.4738362736493136 ]
[ 0.13202801770930944 0.096135721646439 -0.5169171389437844 -0.27759834377409104 -0.12863577188634615 0.2339290721030222 0.3097849626970391 0.6533290288959218 -0.14017365447640362 -0.5139070429781291 0.584632586687718 0.44053434612298337 -0.4473654825664683 -0.09443901199785082 -0.4586707398441795 0.268964020488789 -0.07303050082398005 -0.3386837013542047 -0.7375095779358387 0.35853564696063317 ]
[ -0.24934512617131668 -0.5044191774717374 0.35644710337282964 0.027338874736144436 -0.40197043517981806 0.5843652045320006 0.0939952819176239 -0.09594022409861953 0.5166499582103118 -0.374150749574772 0.43130412271448804 0.43271347846505887 -0.4635909539631417 0.05181786755064831 0.5664260710828927 -0.137356035647781 1.2078162598485245 0.09833434638835288 -0.11012009082938741 0.26913086285121596 ]
[ -0.08920943385716755 -0.011156241617158313 0.16295659027356685 0.11302150726581137 -0.10192488638514774 0.12727802333485186 -0.06832790926917563 -0.038742082798355275 -0.06785090949876996 0.028579185415619865 0.06104749878196439 0.031785734396758705 0.11025163550854097 -0.24342326250910537 0.04157212994190725 -0.07441268488015902 -0.06524588422496191 0.012154927356615122 0.17397883398614591 0.03387221689561934 ]
layer 1 Activation
tanh
layer 2 Dense
20 40
[ -0.18340248598884495 -0.2675400699783128 -0.011315708478085065 0.060620371804467485 0.06768061105537168 0.1908168520771112 0.17622699893414184 -0.02900203759052307 0.22541439564912943 0.06572403960891272 0.4394791644332163 -0.5729961358462241 0.25470025345040215 -0.23395682273436813 -0.31325364866020244 0.1676521321592391 -0.32567624392751665 0.25152878734349426 -0.22919306652831223 -0.35803191607315604 0.00518567950268832 0.23321120888526164 -0.12630682951621625 -0.14455672838122305 0.40821804662559735 -0.2494079498464041 0.1508279318349983 -0.19061313655380685 0.6576827376271938 0.147477641662528 0.24108554849865402 0.42606788803396867 0.05756556106225358 0.29240993499872325 -0.16107702918133102 -0.014372174219719664 0.35207117963669293 0.12199094641714996 0.14692798253297276 -0.5779838971984503 ]
[ 0.03969765715668165 -0.10255788042292481 -0.2689121223486999 0.006665262299923876 -0.05985777590122746 -0.3256996023367082 0.23218438655862308 -0.02343123200887328 -0.31223938061921935 0.24167560320102213 0.0004803087130648188 -0.1384478126116709 0.30247859928896476 0.13273849497197682 0.017542358421459656 0.1971890112344101 -0.10544868817245567 0.23602714568017072 0.07621996581872387 0.08837963363064935 0.11241696621327583 0.14300040457994415 0.011034455599890875 -0.3895457864794206 0.4293259093301322 0.2655879124996195 -0.1290444420895945 -0.11459726533334297 0.022181596504700928 -0.05115537056277247 -0.15549545137992882 0.18153948062410777 0.04902016400530408 -0.21552519994498054 0.570214488321294 0.03165336951547226 -0.2405508758328119 -0.23753278439018952 0.13045634820038415 -0.047787327169167775 ]
[ 0.17418449932049873 0.21562891966235143 -0.12489081711152887 0.3384292716122743 -0.526349479841691 -0.34869006298053545 0.2011031914485087 0.36697083533758973 0.09095892233599091 0.39695002455236367 -0.13114466238837955 0.28658704802015933 -0.11177188563337416 0.3329602954786431 0.27868090583055133 0.35851684834792574 0.06612256471406251 -0.32375854037089846 -0.11386481033914404 0.08446681750668558 -0.12211578744772258 -0.2737890448255082 0.12208159847328529 0.26451523773364494 -0.4115427085724769 -0.29747346757428117 -0.005953099132237992 -0.03186836286084741 -0.41113310742795217 -0.30223296318909637 -0.45470937623211205 -0.18079985859861208 -0.014806283908337166 -0.07709594905124739 -0.04562081084339423 0.11627274913788721 -0.07316895872315862 0.13916663877622643 -0.459985148211659 -0.1644387287320344 ]
[ -0.3980588493169714 0.26335232402354763 0.23079943484552265 -0.3552022147389848 -0.1502868316396074 -0.3517097557132251 0.023751179824204084 0.0006165596332496231 0.07252079612851799 -0.393694161989866 0.24585086346253426 -0.2131977010612892 0.3567908678556981 -0.16746677509570837 0.031264306766909916 -0.020213154175671776 0.5208697493059544 0.050016148559611256 0.021736637269327137 0.03050585440560108 -0.19116844944027278 -0.06641891845175266 -0.29406313730030864 0.308727643616114 -0.09506995163614425 -0.5169821863106184 -0.17084646843565998 -0.614606194806572 0.6564416641175262 -0.45390779695133093 -0.3707203220677089 -0.3178848220174481 -0.3942619951336805 -0.5244901417513629 0.2774824565541731 0.3330820017297228 0.1611927416167306 0.749256635911116 0.005099665033249309 -0.3792366905082374 ]
[ -0.41059255514122256 -0.024172355489162356 0.13718148289843413 -0.09770776449106336 0.12146806994746394 -0.21250544671518598 0.033562223367516075 0.093471224728549 0.15161496681352166 0.1547170759263776 0.1929240521483027 -0.06520323469027604 0.4088696991827569 -0.05233240283253805 0.021726072634927165 -0.05815616825017217 0.04623291696603002 -0.3030635838979501 -0.008600188540920053 -0.09613976144940185 0.22038177665351283 -0.09738844891922879 -0.21158515782302387 0.6131259150437806 -0.37707075054338707 0.2479372497660438 0.21225479410512998 -0.014170659237281513 0.07876239338135028 -0.2154732326937306 -0.463052203226719 -0.3034968518656689 -0.3916078769100227 -0.2885409364824943 0.3796635370321995 -0.10821903861820202 0.24042695024250957 0.12275492386387464 -0.045025321658505806 -0.07059006334227211 ]
[ 0.13709390102353558 -0.2734297923761491 0.06459643608584059 -0.16946724541269612 0.3016003573786298 -0.06865313655954453 -0.11945795096860155 -0.2887350492210766 0.18058034622461885 0.3048502927763895 -0.2799031243747107 0.02378994700020527 -0.3912536679109308 -0.24854246297227264 0.2838353297604417 -0.20328882030627735 -0.005882461451891753 -0.22801238976935911 -0.23794079097552753 0.08591657184229703 0.3953002453591012 -0.11660138680095945 0.14946424529119556 -0.15471137776778793 -0.38411816498220896 -0.1622642231403414 0.21977264008022976 0.32487300143090686 -0.335509810195631 -0.31755539459083243 0.44225778093709955 -0.02837263545315534 0.7799761545588719 0.08567798123675092 -0.2440724268737105 -0.15466924330720952 -0.023264368936007543 0.19697818764418012 0.25032795477837094 0.1464861963218921 ]
[ 0.15384027850897403 0.19868963846055376 0.4486008984566425 -0.2433983767673681 0.22133732195808803 0.12404578792099308 -0.22670355971071046 0.18930440487886366 0.16473111782760017 0.2399190605547041 -0.28559156287985793 -0.07629607863701249 -0.18038088775259856 -0.040885417212881615 0.0029695253935809593 -0.2137923042113033 0.39344449759393063 -0.09135235943395208 -0.16811880436172594 0.29360657998348383 0.13904184821535737 -0.269376240430739 0.12814115297098724 0.3714517087413274 -0.12651113582083762 0.15265392628018049 0.21963310693306207 0.1609275288700511 -0.5775867069811672 0.15214571493493648 0.6005941613086813 -0.42713458398155374 0.263613292560008 0.3492517077608838 -0.40234146900546947 0.12728029258355666 -0.0837269566177545 0.3216070289692736 -0.38039648833772854 0.043363517023989426 ]
[ 0.05997149170498399 -0.3388873814805134 -0.59661810780161 0.18541362164401165 -0.8101397602833127 -0.29634267534585607 0.08792877277498676 0.45411260633441486 -0.41228004019928965 0.2815120714716876 0.09530550324375558 -0.3163265331761172 -0.4055874597363133 0.6641566830987188 0.0027810928277510307 -0.20728980984180953 -0.24591146811297365 -0.04854288794526396 -0.4498169249516533 0.3497875904864057 0.04107453687635317 0.08771707913637317 -0.48856527082087614 -0.4528959165323464 0.2914944233446944 0.11794727406631367 -0.1461327065159772 0.033078058187527584 0.015417251050649117 0.07380026464577712 -0.06101978248092274 0.5865616554441746 0.19474626009111456 0.12487725442880986 0.31205847087326927 0.29719892636802736 0.2583847657526725 -0.6492054564422646 -0.45913986269341545 0.3040242000467477 ]
[ -0.19009601345907823 -0.2116203110058541 0.36343585008750084 -0.3404182335244203 0.21549742622062656 -0.30594999118628546 0.08236519367414175 -0.09676896249088379 -0.11505679671675395 -0.08356216282682975 -0.11868404642402969 -0.04206756848849579 -0.2157066121609515 -0.3364181559305911 0.24229039716233217 -0.2224884791881977 0.22172553897224284 -0.006673839033714831 0.11083192816055194 0.06179378731853244 -0.3501904714741852 -0.21426832841557178 0.12919488629185794 -0.04356021796448855 -0.21180938493849194 -0.4781962646289166 0.009426587965941603 -0.13243270788737335 0.4185130187271561 -0.14420947302431397 0.2897426736994127 -0.09779833651069535 0.1749674942849748 -0.03214287825218577 -0.17740037204200548 -0.17434478360937106 0.1844694083264963 0.6705415724012334 -0.021590650950717126 -0.09441235006696402 ]
[ 0.010244678113133754 0.24064040991242086 -0.059476660923773336 0.11486518907045173 -0.0408165851985142 -0.3608946189612671 0.13148020934509216 0.11112632666643646 -0.239008688938828 -0.2903555014681729 0.07306399025935098 -0.22025723292440627 0.09052878640333595 -0.03416284633283859 0.14509588716727473 0.35585114473305285 -0.23440374602620154 -0.153426167942894 -0.08659800257311247 -0.31966989854615835 -0.1409964557776197 -0.11260527323363033 0.22028379640177645 -0.22402826668713285 0.052559822610711064 -0.13339812323516548 -0.07217206333242066 0.014317574933042867 -0.08040947684238095 -0.011297905862617794 0.004074841212368972 -0.00611378721855413 0.02096593259105276 0.03518383948127814 0.18586182474488797 0.0981533656397524 -0.008510707842148635 0.41018435885773336 -0.2831612624242286 -0.1146427857260021 ]
[ -0.07986511126879701 -0.011914671356937221 -0.08174576647591059 0.17576430774228244 0.3026389675143534 0.3609257332163954 -0.6231829372283605 0.7750931344403378 0.3044457131908258 0.20554448929775618 0.37661031333562384 -0.3744757757108914 -0.30072268972092114 -0.20139778239559702 -0.2707292739605317 -0.6516493850394474 0.21935870222729972 0.2531700414266708 0.03769793985406223 0.1663061332211331 -0.11119196521454938 0.008997192142305313 0.5573868053007077 -0.3147719644803739 -0.09141848988366151 -0.4131660129768402 -0.031533296386066396 -0.6205871135537115 -0.16913749662878938 0.08693308515395594 0.5741278782335292 0.5024778402562187 0.9055722558457701 0.6960389944605524 -0.8048427189027451 -0.34983125556200995 -0.40125682196820256 0.7803113439744617 -0.010024127618079417 -0.6139664509138029 ]
[ 0.33150200402236835 0.0719870665152568 -0.0005538440918684963 0.26546336561823514 0.023617394662930998 0.15740790065311971 -0.5322780840474299 0.5185189924914307 -0.10293822544834562 0.14110478460252673 -0.28740654446200653 0.009797570220013218 -0.6267194104990282 0.36835954396795223 0.17047669856891157 -0.042367274530703714 -0.4343703270039919 -0.21301411835510914 -0.16086654677832332 0.41109538078993674 -0.2668622801636988 0.23143990030381478 0.3643927035530125 -0.4303559769992827 0.3841345668784277 -0.31581881204120854 -0.05594494826928933 -0.10693357220726116 -0.4248849244778249 0.10226254482204632 0.6369702792887695 0.37294420846664095 0.2678473737520404 0.3038076877132346 -0.6399775995566427 -0.3187370981160225 0.03703670380484372 0.0917546653550574 0.058634076649410734 0.0317332621917575 ]
[ -0.4065020600356898 -0.04970808806756779 0.2759063623229656 -0.17112732653800924 0.11828262073238444 -0.41444419834623103 0.011841495950791389 0.08297117964833083 -0.25285511239300884 -0.330376809712355 0.2331669940722237 -0.05406322778266561 0.6238560886652492 -0.258608301781819 -0.22140486252846245 0.273461886274604 -0.10721174545728897 0.2731350174958389 0.2305552213101651 -0.12531606357458236 -0.29610437869769424 -0.06956743606598634 -0.025442088289265617 -0.08459763452537496 0.0008377494126404622 0.306570812067855 -0.41556201128563086 -0.24728984560478276 0.23463417815515497 0.06338895998465774 -0.25930189715887997 0.03381704708609459 -0.24580529423492914 -0.15263433406025206 -0.014912902965588056 -0.1413364733357631 0.009742729830193355 0.20942724296626392 -0.10239870353645533 -0.3267546651374744 ]
[ -0.30533696818765754 0.012314972604423467 -0.22976849731794333 -0.22585264568427274 0.5207763230109987 0.2731808309420365 0.05058210440292505 -0.1538925610137291 -0.31390394958436346 0.11259906081319301 0.25687095222365314 -0.07000218107047938 0.3719346329743318 -0.28368297279540655 0.029931743051190958 -0.0619117740400459 0.0672183846420889 -0.11177422532589096 0.25526493374661774 -0.42994685151425177 -0.22154816829503596 0.11957754360778139 -0.1796609835502637 0.04965523182840046 -0.2575334851313515 -0.2071239515714189 -0.04266180778583335 -0.09871937266509812 0.1788814535981325 -0.4049731786310514 -0.018014376699443335 0.025529789033294035 -0.07532847475320245 -0.05738204020087192 0.47972227367403714 0.08760066282264783 -0.006545268394657123 0.3613268872513709 0.0018705229756979113 -0.2684952745937115 ]
[ 0.4280478051126002 -0.02286922935417236 0.30879357263401064 0.16412427260576792 -0.4041387220187028 0.15285113792220228 0.10375685884390236 -0.12864454664600866 -0.031137087084411524 -0.28378323551948653 0.0021144064862281863 0.36330603063835326 -0.0360637643451426 -0.21439152822070173 0.31697085199197467 0.4083700341629555 0.7181279433929847 -0.5016931893647857 0.08483021474858096 0.4244901675137561 0.0795623087150317 -0.11572337817589459 -0.15452366148775434 0.43439230551991187 -0.4106862993390024 -0.36139120076398273 -0.3605707530530275 0.30684818689588444 -0.2857449500775674 -0.10118491627258343 -0.1590734273179641 -0.3412875882637173 -0.2938508542413313 -0.1348774709671152 -0.6805716154184667 0.16511119480173275 0.41954944138782196 0.01761631787422112 0.01374764675222903 0.4927593638244761 ]
[ 0.053702415630744224 0.03608768796904454 -0.014837904518925001 0.0015883390910611055 0.08239571247590499 0.26475552808741626 -0.48891070006335535 0.681991110564641 0.0049089891153419754 0.02865793628521014 0.02198776000604885 -0.31203636228417986 0.5702057074791139 0.38405372152651085 0.31616861402740537 0.2666652681200282 -0.31573776118479563 0.25489189906062204 -0.1616087732487539 -0.04207357054882661 -0.3866929918559428 0.2923898808560627 0.04420902790035225 -0.42169580350938685 0.3247107236621394 0.4823048051502791 -0.5788794116257586 -0.49337263078023935 0.039238695029367214 -0.18292283777901902 0.13977249069810943 0.2900979191597531 -0.38320169016105726 -0.4733012033261099 -0.3107795229169946 -0.16774865675626732 0.2337651966746381 -0.4493114807762358 -0.013127293373087125 -0.4251366735470674 ]
[ -0.14356290211183095 -0.2948548765359496 0.12934704431597494 -0.7291279465234476 -0.08760389558284426 0.0581616454037502 -0.6945728870197336 -0.3269522151345417 0.2838371699875139 0.14229685182403473 -0.2819816575022092 0.5790470807803257 -0.31441537160440536 -0.1888576877740968 0.18175634330238213 -0.08878008567195969 0.255819003447796 -0.3806712698222327 -0.21010737189402126 0.02879793308655911 0.48098529825625874 -0.2871874405134583 0.1748894673779071 0.4629689696180669 -0.5090493811774576 -0.21132303986669063 -0.007357869754896542 0.0077841079411395805 -0.3674658377324453 0.06699880618994006 0.12010640087585789 -0.34615588880696413 0.34041921511291173 0.4501225139651801 -0.5364228690598114 0.2694380879532402 -0.3294652400143471 0.2593736385346291 0.390056504412313 0.517943144319019 ]
[ 0.0831198486504759 -0.047302635796849464 0.4278315937235324 -0.45693217265189096 -0.10810994729087615 -0.15395633047211532 -0.12422014405406893 -0.1424217706125978 0.2363984399974078 -0.006600874235647652 0.030238535009877776 0.56954024612061 0.1526816303263084 0.016930411491181827 -0.2464230924166182 0.3569111650391364 0.6172489581970374 -0.17568894299526006 -0.09089375208365587 -0.27055620118691104 -0.33958163616386483 -0.11309617491816149 0.07267844548039715 0.5212888823113628 -0.2287196985355467 -0.10343743538248687 -0.20348394925369245 -0.041153356544318724 0.12397484937062016 -0.10317588911128624 0.006727322504936613 -0.47820992280447133 0.0760631865907032 -0.1969068899208501 -0.22359844266275508 -0.0710843066144392 0.2962343422069552 0.4140592446232039 0.4513762509575029 0.31629886285241354 ]
[ -0.049010433484193844 -0.049535554083693416 0.2576310298588458 0.20261616368248161 0.14026877965810164 -0.02689018683150781 0.037739034408135204 0.22120460349028545 -0.07891966999740731 0.034908125482991686 0.18497869825888216 0.19017077049680364 0.09268690080772052 -0.19596213545331603 -0.21916486185830591 0.3732883716303876 0.5624781797426835 -0.02555687429376637 0.14013330178176062 0.0001185724431135522 -0.17059989221852676 -0.11155894745913501 0.02451932552718862 -0.08429012438467931 -0.24141960468200752 -0.1905142539009435 -0.7161833488225253 -0.5100210998504954 0.3849169422546067 -0.10188665597487594 -0.35280576181340567 0.14439752317775778 -0.5918427858738216 -0.130765193659028 -0.11250246180145498 0.2304812098355949 0.3873106435122122 0.11340266795767148 -0.2652408538597212 -0.06905359801667965 ]
[ 0.43051733328417213 -0.17953833350394266 0.10074907211286489 -0.07683830605873293 -0.454968989158162 -0.08383306391185473 0.36554159489673943 0.08868475879207656 -0.16496989792932615 0.10289707597620966 -0.35364212867983974 0.35822086447568524 -0.4129820655660568 0.3157577202851131 0.28600828717235666 0.1653058385129618 -0.27174570369865797 -0.4205559848192533 -0.04133927836360306 0.25464358388674757 0.20222211696771417 -0.35542028374670953 -0.17484154944258432 -0.051620520260036926 0.15350025479914728 0.45469255990567264 -0.30744980167156527 0.21491130417235235 -0.3379927562671267 -0.04007421031457193 -0.2785521082819708 0.2905410853380447 -0.27514165319705597 -0.05378498886156025 0.06621277945204312 -0.07728028795850463 0.07623310015987475 -0.511934672905894 -0.3046735508328391 0.2949003572628952 ]
[ 0.10531214386962347 0.02104033758799578 0.10192282134770082 0.07448205376445662 -0.26553785369758043 -0.013438377258267053 0.08931878834944704 0.40776104890653087 0.21650468298957573 -0.11148817143912824 -0.03587628763578081 -0.005841529048253861 -0.12881062455295447 0.19978650828863093 0.15552251703610812 0.12381054994690391 0.08507722898341762 -0.0038348465378472913 0.06890389755809821 0.17926729295183713 -0.06016676654455924 -0.05435617218337485 0.08508384027331396 0.07739632085052693 -0.11616309224776314 -0.03317805653191678 -0.15893990313892592 -0.058203758399038984 -0.1516757882778913 0.12400181970105512 -0.012846231404829503 -0.1294381468868978 -0.034723242519180866 -0.14457828643608497 -0.3117040120435907 -0.08275999102543254 0.04038119159449576 -0.0002779325094903448 -0.03003080067434913 0.0009431385202651649 ]
layer 3 Activation
tanh
layer 4 Dense
40 20
[ 0.4249508756227283 -0.38405228796298857 0.14962590032698167 -0.3381159588902122 -0.021236272421018453 -0.19900165431669978 -0.09234477222540854 -0.12216654213542005 0.03617508446119561 -0.011710395537032044 0.23535525768273155 0.11643149636485667 0.051281454440960536 -0.35300148716228347 -0.028554595913556267 -0.0688055352462895 -0.22516991039139136 -0.25556261953931986 0.0650266785178583 -0.26217596544834365 ]
[ -0.05075851806184716 -0.06976676648914208 -0.06364528162997592 -0.07517211268213565 -0.09171767298590747 0.17624693275133346 -0.23975452263633876 -0.18718720079769763 0.31985663328061553 -0.11012805889137575 0.2339571240984014 -0.1459978385594603 0.06439334258353335 0.056203153949777235 -0.1599961606558274 -0.21961184487617316 -0.2112803608551895 -0.14221946063453308 0.0298756250033026 -0.03325911578020808 ]
[ -0.06602369195218903 -0.1705182114084841 -0.16537888431186062 0.17345917634532448 -0.331861920427194 -0.3432117404277437 -0.3665203423986072 -0.1761012139163634 0.16710817074099096 0.24492125308682655 0.03793642895665917 0.04913665844430925 0.35576762436434783 0.08173147407994162 0.01598163442801011 0.2061757105419958 -0.126863319593477 0.34924570466925636 0.2527864292285373 0.37390031273038243 ]
[ 0.2332475314976804 0.28070933887399424 -0.45985355912078246 0.21138294660521487 0.3444415629391088 -0.049421925321624566 0.3296221980613867 0.07702718866546257 -0.034249671192763634 0.14211172564280625 -0.10753186951477664 -0.09383883638807954 -0.0917887585826531 -0.44632372429758355 -0.46660413125938954 0.038503505919972245 -0.1726544978469472 -0.39649955276508936 -0.020268705070399805 0.20109775430569826 ]
[ -0.4369975851625668 -0.011565754294938179 0.05736686845978395 -0.08729319050708646 -0.11424911487623648 0.42907959352227376 -0.08793340471634184 -0.287965825087932 -0.12890142294117532 0.03958774247676455 0.40861934791581045 -0.12404837275512619 -0.33934933659964284 -0.1904872455855041 0.328062575686101 -0.023959882091364664 -0.04969098402218343 -0.20058693331165556 0.34122002937648926 0.22899300301648096 ]
[ 0.1474491446863882 0.0024857524531341456 0.06748864108253154 -0.14930970604537044 -0.2993988429231362 -0.3246427257283482 0.16843631121653158 -0.21671319524627086 -0.19816778327886664 0.16640498876130827 -0.024286300173754362 -0.23228614231412714 -0.2171823470417921 0.18117789396897713 0.05674989156375626 -0.13050980837154885 0.20384245669663553 -0.13095840101546438 0.22743663919210044 -0.21539034886213115 ]
[ -0.1313123238208514 0.00676021665944249 -0.3830847779946252 0.3810568536991695 0.30155649292022724 0.06969935931482132 0.13036417659559446 0.11562284327408438 0.23306555401506707 -0.5103549325549571 0.10257891229090632 -0.2907727176289893 0.09954296397127949 0.237628243259132 -0.12017920894019887 -0.3450472743705807 0.056432584083840415 -0.4341723121191567 -0.002924768271005316 0.01439262876973646 ]
[ 0.27052912057857154 0.41565215732613114 -0.09867499004418306 -0.21386790953484003 0.21755611678680753 -0.1827576592149506 -0.11203499013747512 0.22718808739335117 -0.1832368259526521 0.04461270279537148 -0.020885583205238905 0.13431328249927615 0.04815525733724331 0.34992162582663267 -0.5170145834609944 -0.22597731118606335 0.022289575242540657 -0.1424700604479628 0.08802268388791654 0.3460870026400803 ]
[ -0.17351065647803177 0.09175104095742524 -0.10902520424588458 -0.01716599366776657 0.03445778385936507 -0.3438282333057744 -0.1295452082730946 0.31631589044022107 -0.1813419729727658 -0.028548467333979522 -0.14455754224178188 -0.10272003675523274 0.14478369441657174 0.0765280858035141 -0.04269072024084268 0.33523936152855593 0.257205066542183 0.3937866645334807 0.22256814926023322 0.13784838806756586 ]
[ 0.2610777482926732 0.0257783403451087 0.23642242037600594 -0.15692126201677686 -0.015396239141245821 0.05055542557507213 0.3067268211664387 0.046721175756513335 0.013261752527278159 0.10893913172342758 0.1662964558475342 0.33489435758198016 -0.17507102670500954 -0.3052454969197965 -0.1663825610193062 -0.2795141294722892 0.05919184462611801 0.22332963813410572 0.07823161840918187 -0.39208123088816055 ]
[ -0.10816750810654426 0.2911442388444291 -0.1687270665255614 0.01890252546661488 0.20300496014091038 0.1857391404617111 -0.23403502223386774 -0.2906823785097951 0.32521560603440575 -0.360040463233309 -0.09875112034092924 0.11525769170784876 0.011913426795266508 -0.04796869788067878 0.0888426115436084 0.3519911463299922 -0.04494297824647235 -0.29202399839593013 -0.07649901497176759 0.40561379500987094 ]
[ -0.149119436817511 -0.3735094811117956 0.3348237243329859 0.2025896844441204 -0.1810896709615404 -0.32970678937190345 -0.002270830718401546 -0.01137460041166585 0.30275682852554037 0.2971956962992673 -0.23593152632732597 0.06161954143534722 -0.008494976538398048 0.07942412448843192 0.291690597949906 -0.08016451831195473 -0.204733479469258 0.36423803822477585 0.09023866212711873 -0.09463590096030343 ]
[ -0.23603207268330703 -0.0091023284043067 -0.3830163081375944 0.13733004066058518 -0.16414281185167104 0.5473071227789379 -0.4084229824705192 -0.28340741324222063 0.1883234844267305 -0.6027341839665528 -0.3645707839500789 -0.05076894330327818 0.4777402371306001 0.19275616358838624 0.5352781598909625 -0.23553774282222514 0.022901177856353407 -0.5869058459844754 0.3336753563866756 0.0985032608130518 ]
[ 0.3575953532207766 0.3116623890693235 -0.1339946128198374 0.24600566972741844 0.24622237806343392 -0.3919435274423717 0.010348751895444281 0.08532169756618747 -0.31160445925684205 0.27462032529624564 0.1497119420784102 0.024611300680254453 -0.044499540861145145 -0.04007369078460379 -0.41828596298667114 -0.47546052061142874 0.19483321075537016 -0.3747547635635256 -0.16553572267443786 -0.15829683557381624 ]
[ 0.38881292423347497 -0.06903103079252464 -0.026079258773321037 0.09236208172560112 -0.023337521805548222 -0.5126371712786243 -0.015743582957340924 0.29544745078624257 -0.04796813214990623 0.033815537488084114 0.022401015238476138 -0.379595137893239 0.10122554469246828 -0.3373193303407454 0.1434276737338879 -0.21514321862735386 0.04789774671995325 -0.08673445994661859 -0.3499253485192678 -0.06967020489122726 ]
[ 0.29316137304794515 -0.15061320196580896 -0.25309834178389146 0.18669284180911566 -0.23212586602129262 -0.2907410251835157 -0.2634318004833996 0.10998975720823881 0.24188539901930986 -0.44347773969781484 -0.404625071892741 -0.18108931613055027 0.007727653965691106 -0.13270207814198695 0.12670645302849246 0.1777768181632497 -0.3618362406885484 -0.4524115478707578 -0.21771165784783095 0.36355594604965025 ]
[ -0.05753485226301958 -0.27129610195244336 0.1655093236771181 -0.03870896422809739 -0.28462925704689296 -0.30438644838174284 -0.2033550067318962 0.27269219438768777 -0.03257909024888733 -0.22492396305297685 0.17391172819112258 -0.04587246924116658 0.47536307530349453 0.12971174673327548 0.07506927293021769 0.3366242278172374 -0.16391956917045053 0.3517763346970253 -0.2715037754025655 -0.07410247320684551 ]
[ -0.08934138125774137 0.06435554974286586 -0.3094388140484415 -0.35663324675164115 -0.02387828206686203 0.30125573164646047 0.14351460561555227 -0.3148234640165885 -0.10842066418451508 -0.1804402972983896 0.06666007156533757 0.16349183238748516 0.13191590745808984 0.08876646637658693 -0.1570151294579242 0.1469148768762411 0.1624217919732546 0.04478212104866544 0.20301484208422652 0.16966999907443814 ]
[ -0.3397208863545806 -0.1039327228266191 -0.06784337326851167 0.006131802219261922 0.0541047032947985 0.15759436870731974 -0.0781588759840011 -0.02732913965412612 -0.04790906335389796 -0.2909842749760992 0.11164320519732673 -0.1377705240341198 0.027715372578739864 -0.07412848988399276 0.02938579168107428 -0.23920146687748794 -0.27564944250972273 0.0967187183229301 0.028230609606599497 0.36608864805159996 ]
[ 0.5773282683011965 0.04650444115531886 0.01420279398361448 -0.23501802296429253 -0.2409155972387094 -0.33317730509153476 -0.16838766374994327 -0.051346960528412276 -0.12839041428332354 0.28740813314405983 0.05708611401545425 -0.029716254649540818 -0.060619369225830944 -0.13337186557235847 0.002239542403662546 0.18219900256234628 0.13488875423071617 0.047170411297776896 -0.2790554936957361 -0.20944770637792012 ]
[ 0.0068140225996571975 -0.1585709216085432 0.28309023469058425 -0.02225093552279477 0.33631688174755764 0.1821298454721716 -0.14694328598288128 0.23686021995112352 0.1495150340352831 0.28995789930224597 -0.2719738373536379 -0.19854991050415194 -0.26602573798996576 0.2360410640183987 0.11618165149072532 0.18983462718035535 -0.0002876303319908806 0.03464941635732789 0.31157401756940123 -0.37463408711988677 ]
[ 0.11205458986688795 -0.07256962908658202 -0.16953264863946463 -0.26282179275732914 0.10175142080702126 0.23214439691734484 0.3879879170794961 -0.19136940055860144 -0.2856343137833475 -0.14569135576216305 -0.07906483539311951 -0.14119290303547422 0.018581915134584452 -0.04232125568149867 0.1612508126577242 -0.11724151202068381 -0.2043893575822067 -0.294156539961767 0.08700473307528357 -0.0702388029610469 ]
[ 0.2148923930430649 0.29678151153877835 0.0850094419861141 -0.1568002877724553 -0.35836597543804194 0.07108599604374571 -0.007947110579670277 0.25541926057818354 -0.2776486087479075 0.2131268651948186 0.13658474407063095 0.18909901872515192 -0.23788026722659078 0.19517416082721548 -0.14800665099086016 0.13702873808706767 -0.25358043030013844 0.06038522378850017 0.20815696103301495 0.5023239041103015 ]
[ -0.2710719971792512 -0.2752223954602215 0.21782599299801436 0.2568792355272002 0.255714288571509 0.189748482419876 -0.5003973886366334 0.18478449786749468 -0.15799184198204366 0.0696026744965829 -0.15320784889650935 0.08434408321768706 0.282925113743626 0.3079984614464707 0.3749212042796571 -0.25726583756734744 0.048852190008004996 0.03436156081319574 -0.06264974801979499 -0.1409602051426724 ]
[ -0.1433742457200352 0.17563853903721405 -0.17143945715880082 -0.2718751837144813 0.2971125073492783 -0.027873356188430332 0.22740881509522295 -0.3120050639264009 -0.1339771512370263 0.04294035741735772 0.08174942094293333 -0.09533153365052974 -0.24069319213635365 -0.2875243621631621 -0.24933715145457078 -0.04343736615042833 -0.16765229110768065 -0.2552674731773389 0.14409620040392276 -0.020261830256875318 ]
[ 0.1796810302483059 -0.17453900325078456 -0.43506612653068394 0.06405396729423755 0.44596151480044666 -0.13968318913474248 0.408064871439054 -0.4345473011617362 -0.28542824715024784 0.09092525819511951 0.16676457827323565 0.11068743660526754 0.11588755486986613 0.23876433905941238 -0.31558776268448663 -0.44467965939295795 -0.08299003261942636 -0.46099250643646 -0.1271187518993213 -0.26806718889057835 ]
[ -0.06086000550667218 -0.19624522291828625 0.26656965553867107 -0.2557132521362487 0.1692987665821043 0.11219696343067995 0.15270255508773153 0.3208361336146826 -0.003779365989744955 -0.19623436684879678 -0.019875349530204547 -0.11139840516005473 -0.1432817951214113 0.06434397082696888 0.18398274610182863 0.1912427914001656 -0.005428925236862315 0.3034538190956389 -0.017957672694090855 -0.19185206202236382 ]
[ -0.2749567665257471 -0.12646030847218245 0.11524807051687058 0.040679942111271385 0.11074075027168101 -0.12822064721157223 0.23670981714773864 -0.04472665548599661 -0.03495629368929932 0.1860925637441518 0.05982891170329355 0.15184941517588593 -0.5038204203963252 -0.3330983341247054 0.12428921423212355 0.20630795635588026 -0.28888449616627043 -0.0028425586642696634 0.11273775044602352 -0.41373434683160354 ]
[ -0.26758957052789767 0.19508428603881256 -0.369201737381979 0.22348904274771644 -0.05563067880992229 0.3180015721553866 -0.052146906320169654 -0.28269473022087704 -0.2477415791832113 -0.2735448803143312 0.18180535476308815 0.08436986026805188 0.06479318290389621 -0.1552908902584271 0.2178873148726048 0.33454000437255416 0.049791975200014625 -0.2619369908505347 -0.05839927710800401 -0.037818097973393174 ]
[ -0.08605175389707063 0.0202004361490591 -0.39430793626282035 -0.13817842029410016 -0.08272140850586261 -0.17144242029420878 0.071164350611444 -0.02321884179319266 0.17224714039963662 0.17933538783713943 -0.12227655085753256 0.016717800476794484 0.03708636178653584 -0.16578353048033614 -0.35637636542933204 -0.06183401881226172 0.2666206934210274 -0.06531302151752592 -0.02959938535005522 0.04995808450866313 ]
[ -0.0300645401158836 0.1842644171575645 0.2627537314809757 -0.20352846774219097 -0.051003882323883455 -0.34112731243789507 -0.15208861621602993 -0.35108168974715404 0.04649212453654129 0.2794251817421639 0.18462046092391435 -0.06139171610466325 -0.26101791959486664 -0.011459595762742605 -0.3156719458522687 -0.12261663453355998 0.10075482956072723 0.06517425326381693 0.16610966606509783 -0.19579840770807172 ]
[ 0.1656358092714436 0.1483557486157293 -0.16537635084882948 -0.06197145287301577 0.09703154288170447 -0.06421086380670563 0.5273646881739413 -0.26944273627167714 0.10861866350038339 0.18386222809460825 -0.026003197491905657 0.1745236477730984 -0.13423879509253123 0.13662511505989383 -0.5344626012413242 0.02772151274758053 -0.011098929037863327 -0.2547478581527288 0.22519854617386664 0.3147320682571585 ]
[ 0.20934697157607074 0.39661092604679643 0.5441689209825507 -0.3723895879592439 -0.08854870746578018 -0.12605041476260112 0.3893389035917665 -0.12111190363821368 0.28636753620457533 0.14951870131583558 -0.18754485615123828 0.07845054305912591 -0.3243648806823947 0.06774104155617663 -0.023880150226183686 0.1441471708225754 -0.0004570093770046703 0.291624657753044 0.15318852617094153 -0.10975702640307472 ]
[ -0.09666956588513925 0.2462956192744439 0.001419931194910397 -0.3340660907936567 -0.24250708413618507 -0.36098669355976903 0.3325732042577415 -0.33085686373067275 0.11597717817003554 0.19165486152580574 -0.0038024217312106253 -0.12433654783783334 -0.23178620054415874 -0.2947835727459309 0.08153178728662146 -0.0807234654951776 -0.017295438316700707 0.33871477934776406 0.12259516394223614 -0.11223038109636455 ]
[ 0.12036488634670456 0.015750908135052644 -0.3060934407590065 0.42640320539329696 0.5270719801454149 0.37492679210102436 0.4350274114980962 -0.3393083040950975 -0.12272931768763806 -0.5956884879497688 -0.3544392273074104 -0.03021411593724809 -0.1830078401952411 0.36406403560219996 -0.05392776213601709 -0.0186949694218467 -0.0688544527311832 -0.2928705898050269 -0.36582442533115345 -0.0798365155331832 ]
[ -0.027342673137066304 -0.1502097271473078 -0.08373694327477037 0.12078303829178934 -0.11175205199651493 0.08559053340789412 -0.19823062392343224 -0.0372508587442877 -0.12764375795909375 0.1316292239528786 -0.1797902956358695 -0.08579020210207608 0.09473206700732689 0.15276007041780298 0.018663723665343062 0.08481662370652904 -0.2220581401857839 0.16079920372413908 -0.16025162056855863 -0.32951527366896494 ]
[ 0.0898915002868933 -0.09436720498858617 -0.2165701910388354 -0.015835586673455106 -0.00022811498081438735 -0.04807358389925179 -0.27632522457638553 -0.06842888209882013 0.15902394305261372 0.05604666647209328 -0.07434795219087537 -0.38366882629941085 0.20108748961040873 0.20208533248963398 -0.08242268505615372 0.04145833987005357 -0.0593278873249181 0.036714837616561635 -0.1764171649609844 0.14069282443623185 ]
[ -0.2659425328767955 -0.08128872272768012 0.46070523384732126 -0.28241288876252313 -0.32682359643310777 0.25444078434354056 -0.33642792033184266 0.0654072373254831 0.1421553452569265 -0.34831538730438477 -0.08464343208983897 0.045059628470116485 0.2713040434675036 -0.22541535620279937 0.32387935773280346 0.223441215385544 -0.1608721051230237 0.3075617841969568 0.03704977988303485 0.48208450392382174 ]
[ -0.16892181735561948 0.0941559319637063 0.2194716471149678 -0.08071933699223695 -0.27901180910963996 0.006077696321670999 -0.21736988912955257 0.0066841393748443825 -0.3676530977252932 -0.27605269561256385 0.2995214478148128 0.2906562101248482 -0.20776415066661463 0.18682528717788605 0.23335774902253942 -0.08247639222430948 -0.0228482042491785 0.3757208129361082 0.249858171640686 0.08268978861579496 ]
[ -0.24655576810294016 -0.5637816286691127 0.010653069344606005 -0.0502604355538468 0.3378306627981566 -0.4644422030962821 -0.2991215519200616 0.37293355456995453 0.39399354013451005 0.14614758169944955 0.05163825449627693 0.21167356723492914 -0.16520787860540903 -0.47981734518437713 0.00486357106129362 0.04710410198773644 -0.07487051082811577 0.22304212657043465 0.07510267479179752 -0.3408711779857596 ]
[ 0.09029978495339509 0.09731605631843174 -0.23584273862226668 0.03982252323514498 0.01540592483381289 -0.178768161791067 -0.11531885952372627 0.15564016698846891 0.05811774168784365 0.05007349750569493 0.015891678988466617 -0.010720839033242533 0.011169799702439403 -0.06715332148480958 -0.13413027639169883 -0.023835224590355083 0.025159287602666204 -0.18809362400910234 -0.029494415878857583 -0.0204181434521906 ]
layer 5 Activation
tanh
layer 6 Dense
20 1
[ 0.2222341378643737 ]
[ 0.381040279625175 ]
[ 0.19457740561149284 ]
[ 0.3474438743667107 ]
[ 0.23625251094498023 ]
[ 0.240032386439082 ]
[ 0.4078572394083274 ]
[ -0.3243501926533332 ]
[ 0.0002798274658302384 ]
[ -0.19244734917147485 ]
[ -0.06075659373098571 ]
[ -0.006500716584026403 ]
[ 0.4055143906418423 ]
[ 0.017023166764856205 ]
[ -0.1835254393050293 ]
[ -0.0979811630817729 ]
[ -0.0014740225504039932 ]
[ 0.1317846154424951 ]
[ -0.3067052124293287 ]
[ 0.19119162020441244 ]
[ 0.03968817895343317 ]
