layers 7
layer 0 Dense
20 20
[ 0.34952384 -0.06385591 -0.0841005  -0.3660086  -0.27454725  0.12247892
 -0.22324623  0.40982613 -0.09176058  0.14951012 -0.06401729  0.05946531
 -0.01375743 -0.2480123   0.36140332  0.3096522  -0.27006605 -0.18012044
  0.04467051  0.10246964]
[ 0.22904658  0.00576269  0.04997137  0.19749396 -0.3032699   0.1983873
 -0.3132417  -0.40990034  0.13405146 -0.21768944  0.11518025 -0.10620466
  0.14222018  0.29095247 -0.15261692  0.02686492  0.46133363  0.09189001
 -0.10104515 -0.17720555]
[ 0.38187104 -0.3448705   0.3251215  -0.34102443 -0.09201697  0.45478427
 -0.09811022 -0.32502222 -0.16669981 -0.1400836   0.34410855  0.07444866
  0.0893253  -0.01785895 -0.12770298  0.45390922  0.3017044  -0.29059735
  0.27651283 -0.53243876]
[ 0.08831423  0.14235295  0.51510483 -0.15643983  0.27783337 -0.11803319
  0.2712437  -0.07467441  0.2595161   0.25442204  0.36850008 -0.00321795
  0.32871446 -0.03107741  0.08707162 -0.17984335 -0.29233074  0.10921633
  0.34754547  0.08263766]
[-0.00951425  0.06111109  0.01027489 -0.044389   -0.13822111 -0.2560571
 -0.10626421  0.10527239  0.16131029  0.1249401  -0.26764932 -0.13080965
  0.31036627 -0.17885818  0.18202968  0.00033818 -0.04273239  0.19564055
  0.1378896  -0.05478622]
[-0.23215267 -0.02181457 -0.2542488   0.3288718   0.07792317 -0.45921364
 -0.01064435  0.47768402 -0.03066879  0.29214513 -0.25424817 -0.48347598
  0.12104234 -0.25994384  0.34958586 -0.59703386 -0.15529084 -0.0158851
 -0.28854457  0.81837195]
[ 0.08418868 -0.13604018 -0.08750381 -0.2573399   0.22039469 -0.16871203
  0.36795294  0.06238984  0.34880665  0.33910394 -0.13460559 -0.33069333
 -0.45461628 -0.24153835 -0.27546793 -0.10893805 -0.3957521   0.3659563
 -0.20671405  0.43020615]
[-0.29784322 -0.05062813  0.00142825  0.4356887   0.31816608  0.03423224
 -0.17740797  0.17981137 -0.0603408  -0.12586527 -0.47197995 -0.08353798
  0.35289437 -0.34903827  0.08952656  0.06800497  0.18517141  0.3699047
 -0.1142771  -0.18674938]
[ 0.03147946 -0.16763951 -0.29008782 -0.3698819  -0.11143252  0.11654247
 -0.0648727  -0.00128163  0.15666221 -0.20421052 -0.11411396 -0.16039312
  0.2767362  -0.10308132 -0.44725174 -0.08879405 -0.2782911   0.00559611
 -0.27929434  0.21874021]
[-0.32280594 -0.06702174  0.23794012  0.11304193  0.17508055  0.3256077
 -0.29151127 -0.30458462  0.05349551 -0.39387566  0.1918577   0.18437749
  0.07999039 -0.01844205 -0.32817554 -0.02066075 -0.36850202  0.1768076
  0.2798212  -0.22220059]
[ 0.2822726  -0.36247498  0.1805435  -0.09425579  0.29973903 -0.15971586
  0.18156068  0.12784608  0.12239622  0.34675595 -0.03812086  0.00237699
 -0.33279034 -0.20008712 -0.16286792  0.11438585 -0.11763467  0.03339805
  0.14472364  0.14531808]
[-0.18302546 -0.7981729  -0.09622047  0.06000794  0.07377151 -0.01289662
  0.67150646 -1.1153435  -0.25084025 -0.22794539 -0.00323534  0.4592608
  0.00216181 -0.27855855  0.59814143  0.52637315  0.2579706  -0.1883087
  0.529829   -0.30491635]
[-0.44771445  0.18745252  0.4085559  -0.20828846  0.6239134   0.07336313
  0.05946509  0.29084313  0.01458878  0.11913974 -0.02037952  0.00548286
  0.08231196 -0.13396086  0.00093408 -0.06559054 -0.09003437 -0.1820094
 -0.46149418  0.22956666]
[-0.34011802 -0.14562093  0.06789693 -0.01265062  0.03974665  0.10733888
 -0.11513597 -0.3359005   0.09830424 -0.1561917   0.18013541 -0.18274085
  0.02685831 -0.00221925 -0.15760669  0.0105988  -0.19053099  0.18659163
  0.16084617  0.10164858]
[-0.15181655 -0.4054848   0.26861826 -0.01116238  0.09958227  0.02203478
  0.33387685 -0.09143379  0.25199747  0.32753772 -0.00815984  0.03628917
 -0.3424988   0.03056019  0.0292974   0.41941315 -0.40359393 -0.03608191
  0.25491074  0.21540123]
[-0.13227601 -0.64108044  0.287118    0.06869302  0.06355206 -0.12292024
  0.2836095  -0.5152699  -0.2450927   0.08681802 -0.4835478  -0.05637026
  0.21206287  0.25736153  0.38075894  0.12326005  0.77931744  0.17418624
  0.09264839 -0.49833173]
[-0.12268429 -0.09654412  0.17327611 -0.1607015  -0.15683106 -0.2031376
 -0.11103792  0.32003492  0.07297792  0.24220458 -0.47553843 -0.20420532
  0.27636364  0.05170475  0.32248306 -0.42607772  0.21319845  0.29053533
  0.51935464 -0.17568251]
[ 0.61076385 -0.64655626 -0.22316223  0.42848003 -0.23260702 -0.31367216
  0.43756318  0.34114605  0.39198425  0.5455927  -0.02733878 -0.4453021
 -0.45549014 -0.37499255  0.43193996 -0.40804148  1.1494559   0.09736244
  0.12198678  0.9025639 ]
[ 0.19121742  0.8390658  -0.16336177  0.4700184   0.05550802 -0.11676867
 -0.11005324 -0.16114382 -0.67549443 -0.24632302 -0.48887974 -0.27786946
  0.02979571  0.47104478 -0.09031852 -0.92038786  0.78844166  0.7328863
  0.3343316  -0.41437232]
[-0.16762729  0.28024974  0.1317996   0.42740953 -0.40258524  0.08831504
 -0.31525344  1.3506501  -0.08171941 -0.4159753  -0.07749966  0.02632407
 -0.1775591   0.40022656 -0.40637895 -0.94199145 -0.65898603  0.2736429
 -0.5399576   0.00468845]
[ 0.02348658  0.00090243  0.15022296 -0.08199845 -0.10311025 -0.01496027
  0.03423481 -0.00412679  0.07299174  0.10399501  0.07347163 -0.04436383
  0.02772448 -0.00998292  0.11270263  0.16396105 -0.01055784 -0.00222347
 -0.01538021  0.01530843]
layer 1 Activation
tanh
layer 2 Dense
20 40
[-0.08519439 -0.07498485 -0.18333751 -0.0767048  -0.09313963 -0.061983
  0.17000154 -0.02186989  0.1501696  -0.02583002  0.33128545  0.26760018
 -0.06661768  0.16494274  0.22864881 -0.16753227 -0.24032177 -0.03162755
  0.06083412  0.33175495 -0.24319474  0.29616147  0.23205838 -0.02685204
  0.23407763 -0.3783286   0.12496641  0.0847304  -0.20744918  0.03870675
 -0.04390951  0.24799266 -0.05503764 -0.11769279  0.16244398  0.1969104
  0.07717834 -0.39217654 -0.13280542 -0.23291723]
[-0.328177    0.05612294 -0.19651432  0.01349972  0.28473392 -0.11865229
  0.00448512  0.24451584  0.24429181 -0.22286318  0.16997615  0.06322502
  0.11537907  0.17713095 -0.1635386   0.21940586 -0.09004267  0.22614542
 -0.17484607  0.00546933  0.17004319 -0.06125848 -0.05167028  0.1254422
  0.28668317  0.37060615  0.20417841 -0.43438706 -0.02001452  0.0261164
  0.0676139  -0.24530835  0.02540614  0.26722327  0.19316243 -0.16622443
  0.36370325  0.27150404 -0.12972994  0.04293551]
[ 0.0640476   0.01983248 -0.07039916  0.15560655 -0.28813717  0.02784783
  0.3296105   0.22759409  0.10263245  0.25482967  0.06222794  0.26356107
  0.11510947  0.32281694 -0.23620968 -0.03887901 -0.15173881 -0.11270946
  0.08120109 -0.31344655 -0.15108003  0.27314535  0.06003912  0.15132502
  0.3103337   0.01652762 -0.14354905  0.02216928 -0.01747468 -0.02450618
 -0.01760073 -0.07055336 -0.25037953  0.02976541  0.08047579  0.13570617
 -0.16336182 -0.12872736  0.02754136  0.08755219]
[-0.1574418  -0.07170843 -0.1419554  -0.09538323  0.01290278 -0.22292486
 -0.11866693 -0.05314136 -0.09636638 -0.16384865  0.32738206  0.00415765
 -0.17063484 -0.26602173  0.00552058 -0.13502932  0.13746223 -0.02112846
  0.01545441  0.1355125   0.18028387  0.07410125 -0.08305919  0.18033525
 -0.11816572 -0.02127996 -0.2421609   0.12170992 -0.00783853 -0.23871703
  0.01056029  0.21133983 -0.02746475 -0.281126    0.09080902 -0.12424315
  0.08551013  0.22264144 -0.20751326  0.19640677]
[ 0.14989729  0.04028968 -0.20442738 -0.01394892  0.18040057  0.21770948
 -0.47446567 -0.1176939   0.16936424 -0.13601594 -0.27641386  0.08004697
 -0.35258847 -0.09729765 -0.43313244 -0.04902782 -0.04928478 -0.03718617
  0.31505433 -0.07634731  0.08320283  0.10198259  0.05368609 -0.14833446
 -0.18826717  0.40429804  0.01242581 -0.08297174 -0.30192453  0.03156436
  0.05219732 -0.1009831   0.07583132 -0.04569696 -0.02565586 -0.16966297
 -0.15236491 -0.33012488 -0.12403248 -0.07177783]
[ 0.15954168  0.21560615 -0.07606202  0.0716457  -0.07328738  0.08278767
 -0.0116553   0.03802655 -0.23567487  0.10204192  0.16673765  0.16442545
 -0.2647651  -0.05257922 -0.05043342 -0.2527143  -0.1280863  -0.20083068
  0.03402334 -0.01929132  0.11204027  0.02163872 -0.339965    0.18425018
 -0.15910405  0.02686821  0.10390148  0.0487337   0.17531912 -0.14440033
  0.08722834  0.06901476  0.1384587  -0.00483893  0.14511715  0.20342709
 -0.07373383  0.04741301 -0.1631218  -0.03248053]
[-0.05648103 -0.17941862 -0.01799092  0.01650401 -0.23495723  0.11750925
  0.2563956  -0.18799247  0.1158836  -0.10770518 -0.31523386 -0.03766914
  0.16967845 -0.3005934   0.06042227  0.05922934  0.15108384 -0.24643435
 -0.03380535  0.21585338 -0.312136    0.19878681 -0.09634289  0.24121477
  0.20048895 -0.07471729  0.20397379  0.44649038 -0.22626461  0.08448407
 -0.05392793  0.1734138  -0.01549597  0.00648175 -0.07431532  0.0237953
 -0.1812198  -0.1977258  -0.22502963  0.27360952]
[-0.20712152  0.44248164 -0.1104148  -0.23498596 -0.0016245   0.19345656
 -0.4461211  -0.21381372  0.3664275  -0.15896358  0.01936199  0.27746966
  0.18058467 -0.2479427  -0.06489871  0.13040273 -0.02434405 -0.07067195
  0.11879874  0.00880317  0.24162129 -0.13434683 -0.26345354  0.11877755
  0.23474397 -0.2230503  -0.04431283 -0.23336017 -0.19236642 -0.2539152
 -0.13462661 -0.05260187 -0.41158316 -0.07866507 -0.28777504 -0.00990621
  0.02264548 -0.38524547 -0.03890587  0.09956881]
[ 0.24251515 -0.18729036 -0.2506145  -0.17941992 -0.23832712 -0.24265103
 -0.36852044  0.05670878 -0.17112221 -0.12062916 -0.22734636 -0.03085717
  0.2557638  -0.13880672 -0.07585607 -0.01569035 -0.14155376 -0.05799746
 -0.04391195  0.11914448  0.15182078  0.04477829  0.08676858  0.27220866
  0.279836   -0.11706702  0.0684312   0.00187727 -0.31944314  0.18517731
  0.2812613  -0.13648348 -0.41363785 -0.2729016  -0.06319997  0.1079046
 -0.0027079  -0.07967538  0.0708874  -0.1835478 ]
[ 0.10429788  0.00358249 -0.07967545 -0.26875603 -0.49312744  0.01226806
  0.23990537 -0.14223346 -0.12541667 -0.24250288  0.13424712 -0.22173315
  0.07232208  0.06243614  0.18117608  0.11916307 -0.27268898  0.13211645
  0.2806419   0.05826627 -0.18760517  0.1830023   0.4097247   0.19437502
  0.22044384 -0.38748583  0.01928535  0.33633488  0.22647202 -0.05979976
  0.15800014  0.16573638 -0.5729458   0.08200847 -0.25207064 -0.14167474
  0.11943646 -0.2710121  -0.09473819  0.08610493]
[ 0.23335911  0.2997021  -0.21568905 -0.1087435  -0.08046412  0.22907087
 -0.05605431  0.18299566 -0.19035074 -0.21104059 -0.10857943  0.02283762
  0.2880303   0.10989402 -0.07485893  0.13461776  0.06495842  0.20635442
 -0.08387142  0.21896566 -0.09605071 -0.05610508 -0.15993798  0.00186857
 -0.06220375  0.0348864  -0.2010829   0.00199871  0.29542038 -0.21156216
 -0.11879966 -0.11965957 -0.28435057 -0.06925654 -0.23097669  0.24355231
 -0.09026092  0.12300566  0.17856064 -0.18422696]
[ 0.29000247  0.3206013   0.31782117  0.1869574   0.21472842 -0.21100919
  0.07604822  0.219191   -0.23049127  0.01331513 -0.2556479  -0.11312942
 -0.25075194 -0.09332107 -0.22990362  0.04989333 -0.2604007   0.242825
 -0.2038634   0.00072438  0.29818514 -0.00663183 -0.00897058 -0.00817152
  0.2923153   0.10035264 -0.01296735 -0.09528484  0.1368936   0.16807407
 -0.29790443  0.25347963 -0.04365035  0.01326662  0.00745801 -0.07714067
  0.07825926  0.09548692  0.16081621  0.22264378]
[-0.02214946  0.24053487 -0.18287855  0.04793958 -0.05064143 -0.1851707
  0.24330032  0.14213668  0.03882686 -0.05657185 -0.21553318  0.02457851
 -0.23588827  0.21516395  0.06018674  0.09507236  0.33292943  0.21145529
  0.10676418 -0.4093604  -0.17256522 -0.1165344   0.24317569 -0.06221893
  0.05748117 -0.03712195 -0.30310506 -0.07758785 -0.12685157  0.12775277
  0.03155581 -0.03090359  0.06685132 -0.20054448  0.24137668 -0.03002932
 -0.18778649  0.22081527  0.14840864 -0.05276223]
[-0.3054212   0.3256251   0.08053378  0.23684219  0.21605578 -0.22876939
  0.09758967 -0.07648953  0.13719194 -0.20157903 -0.05789158  0.08675072
 -0.08156195  0.19758882  0.17014237  0.38779557  0.08944468  0.2553096
  0.05902904 -0.05991877  0.23973498  0.3003812  -0.20762093 -0.16459084
  0.0936979  -0.06982021  0.0940178  -0.09390277  0.15011904  0.21762013
  0.11350778  0.15436038  0.13298383 -0.05449172  0.12481909 -0.09892654
  0.4187786   0.01322374 -0.14329723 -0.33941433]
[ 0.09712006  0.06519325 -0.2398742   0.20245157  0.17716172 -0.03038244
  0.121769   -0.27079308 -0.13478704 -0.05625492  0.19989859  0.22792669
  0.15044047 -0.15827578 -0.22719297  0.04033187 -0.1115224  -0.28438565
 -0.1392212   0.09646813 -0.1036758   0.31847414  0.08589377 -0.0136251
  0.07233495 -0.13750444  0.16875423  0.2483844   0.2164838   0.29507318
  0.01927938  0.05198594 -0.31147903 -0.13553867  0.03536105 -0.05953995
 -0.2504491  -0.01884918 -0.27146184  0.02919053]
[ 0.376891   -0.23655368 -0.282155    0.12377701 -0.28062022  0.2666665
 -0.14727642  0.16017784 -0.30056757  0.05613076 -0.23580411  0.06505638
 -0.34200922  0.02536862 -0.12754889  0.31441468  0.01962428  0.26543534
 -0.16810738 -0.3521521  -0.14445312  0.32739124  0.1080692   0.03875719
  0.06745439  0.16993581 -0.14079213  0.17565928 -0.12614912  0.06207293
 -0.30807385 -0.21790859 -0.31345358  0.331547    0.30313045 -0.12152775
 -0.42328656  0.1099915   0.02668767  0.01274407]
[ 0.05712541 -0.2645668  -0.2595538  -0.20478246  0.3581531   0.14705132
  0.22543676 -0.51009744  0.04834281 -0.07208896  0.00293867 -0.0858617
  0.17607397  0.2887447  -0.27671883 -0.29557514 -0.03538971  0.04658062
 -0.16121022 -0.27143618  0.08508306  0.40083143  0.6511302   0.26765165
 -0.07818677 -0.07806808  0.11966143  0.26090127  0.35341457 -0.223443
 -0.06996202  0.2979849   0.14920233  0.01206037 -0.20994699  0.13342935
 -0.11449039 -0.04175005  0.16241634 -0.23541853]
[-0.2258499   0.06320617 -0.04270026 -0.07664599  0.32024863  0.19843875
 -0.1464363  -0.04458723 -0.02455512  0.15762436  0.10011334  0.15416534
  0.2033708   0.3162721   0.35521036  0.08244382  0.16380925 -0.25322345
  0.12525228 -0.1266043  -0.20498247  0.08067358 -0.00919027  0.06971622
 -0.22456494  0.06140274 -0.02437158 -0.18663038 -0.05478956  0.12147038
 -0.01334047  0.12073511  0.05261186  0.11464129 -0.06383795  0.3330342
  0.2792983   0.089104   -0.11742748 -0.24839456]
[ 2.1435176e-01  5.3436164e-02  2.0351388e-01  1.8630536e-02
  7.7798188e-02  9.1484651e-02  3.5779497e-01  1.9902739e-01
  1.5349169e-01 -1.1630677e-01  4.8457116e-02 -2.8762715e-02
  1.8955262e-01  1.4608070e-01 -1.6845120e-01  8.3034493e-02
 -2.1808140e-01 -2.3336521e-01  3.0256283e-01 -2.5267401e-01
 -5.5248532e-02  2.5014138e-01 -2.0183776e-01  1.6030149e-01
  2.6033613e-01 -1.3439012e-01  2.6004463e-01  2.8905389e-01
  3.3565047e-01  9.8454148e-02 -2.7815089e-02  1.9452482e-01
  1.8418644e-01 -9.8685384e-02 -6.3974969e-02 -1.2872778e-01
  7.0655253e-05 -2.1634859e-01 -1.2169890e-01 -1.9217794e-01]
[ 0.00304791 -0.3198649   0.074946   -0.11974223  0.07915089  0.08585715
  0.21759191 -0.16596168  0.06538454 -0.14248003  0.15374137 -0.27522033
 -0.12913077  0.0739371  -0.30618915  0.03974057  0.08333921  0.04863999
  0.16994584  0.40443683  0.11420945 -0.12595792  0.3193568  -0.07645661
  0.35218173 -0.32305962 -0.02051875  0.01110357 -0.176836   -0.13043185
  0.00580728 -0.02164728 -0.5460947   0.08569169  0.15893298 -0.00995701
 -0.1309635  -0.150317    0.20691152  0.11814059]
[-0.00192491  0.01048787  0.01958316 -0.03200239 -0.09605616 -0.0358839
  0.06526685  0.04744011 -0.04193287  0.00170568  0.00923641  0.03616498
  0.0322369   0.02334508 -0.00806952  0.08232974 -0.02128773 -0.00585669
  0.06355643  0.04694938  0.00262239  0.03385562 -0.00444702  0.00973217
  0.04966284 -0.13288946  0.0726598   0.03519453  0.02614476  0.02702289
 -0.03774653  0.02359183 -0.19418415  0.07351804 -0.03221525  0.03835329
  0.01131294 -0.07517271  0.02112311 -0.05578734]
layer 3 Activation
tanh
layer 4 Dense
40 20
[ 0.00893969 -0.09690119 -0.1323896  -0.18815781  0.14260052  0.12381613
 -0.21004556  0.31105706  0.16404419  0.09318522 -0.12157311 -0.02921616
  0.07507638  0.11003584 -0.04990653  0.2970298   0.04979194  0.26404336
  0.15081008  0.18607983]
[ 0.32888138 -0.06535032 -0.03671778  0.08053832  0.15572412  0.3320043
  0.06184176  0.14405589  0.10086094 -0.23046365  0.19311455  0.08388054
 -0.1578608   0.11658958  0.285484   -0.0931716   0.02038396  0.26284286
  0.03155258 -0.13115181]
[ 0.09163849 -0.11136976 -0.04329629 -0.14995708 -0.10280568  0.02608726
 -0.09430856  0.04348572 -0.25842836  0.01901952  0.07481361 -0.28169835
  0.13745694 -0.221151    0.15492794  0.13604364 -0.17705801 -0.00128531
 -0.00524511 -0.17639199]
[ 0.27000967  0.3731825   0.10907938  0.28451714 -0.17589477 -0.22367848
 -0.24012752 -0.01609356 -0.16576701 -0.0080861   0.25276667 -0.31247932
 -0.2982573  -0.22506961  0.01742285 -0.26709902  0.3041252   0.2065734
  0.17287548  0.02874799]
[-0.17536718 -0.02113541 -0.00339829  0.3068821   0.2523608   0.13033757
  0.29745635 -0.30689675  0.12306669  0.20387688  0.13762909 -0.1798381
  0.13157013  0.19741254 -0.13625908  0.22942273 -0.19753444 -0.28214526
 -0.15196855 -0.25327206]
[-0.1894359  -0.04285345  0.13960329 -0.19021155 -0.31968048 -0.00426972
  0.0920084  -0.03403129 -0.25632274  0.21659085 -0.1438299   0.04141145
 -0.21794808 -0.16615085 -0.35138404 -0.00570787  0.02329145 -0.00658198
  0.22703634 -0.05148085]
[ 0.23383525  0.14877832  0.2463816   0.03743797 -0.02473412 -0.3776371
 -0.46214646  0.01668776 -0.15653324 -0.2051445   0.08384676 -0.00876406
 -0.11061259  0.06118849 -0.36362043  0.01520578  0.25583872 -0.2386738
 -0.1943142   0.20243289]
[ 0.26242977  0.11644257 -0.02870777  0.28405356 -0.15288611  0.12934744
  0.02387272  0.24144003  0.12595661  0.28567612  0.31430292 -0.18105242
  0.16148826  0.10970186  0.00075581 -0.28876126  0.10005864  0.03114813
  0.25184023 -0.28128138]
[-0.22315633  0.15383981  0.1006027  -0.2326514   0.03504958  0.05467961
  0.18166415 -0.16791737 -0.24665278 -0.31990018  0.05445501  0.295172
  0.31619573  0.20364873  0.04502735  0.13351405 -0.23221296  0.03590618
 -0.30368626 -0.06683224]
[ 0.14445427 -0.18264784  0.11712175 -0.06995016  0.02310364  0.01065197
  0.16613954  0.03786806 -0.36431566  0.16993476 -0.14861444  0.09621022
  0.32068428  0.17086208  0.08724198  0.17618753 -0.05960161  0.15439971
  0.24082796 -0.24334197]
[-0.1194271  -0.44147134  0.12497038 -0.24673332 -0.06791135 -0.12386294
  0.17948444 -0.26100734 -0.30638242  0.211665    0.15957654  0.17440557
 -0.19776283 -0.13216986  0.02520515  0.06724606 -0.2558625  -0.35736665
 -0.23200661 -0.03345419]
[-0.15332992 -0.12006372 -0.43034256 -0.16800298 -0.03805549 -0.02817682
 -0.03713718 -0.04989962  0.04689414  0.0367847   0.22975829 -0.09036277
 -0.15685306  0.03190478  0.37386432 -0.12865095  0.31180635  0.19764553
 -0.02241474  0.23841247]
[-0.11957755  0.15321921 -0.0138089  -0.2474758  -0.19936575 -0.32380304
 -0.05074868  0.01385694  0.21776326 -0.28484502  0.23995112  0.27120933
 -0.0046532  -0.05149934  0.18816406  0.39521548 -0.03683493 -0.37693927
 -0.24414735 -0.0281467 ]
[ 0.02029464 -0.06077278  0.00261178  0.15006913 -0.07943566 -0.29189846
 -0.14657329 -0.12955272  0.13638681  0.13751225  0.05148295 -0.08176474
 -0.09199277 -0.28017992  0.13473001  0.23228276  0.17981198  0.27481493
 -0.23957752  0.23549214]
[ 0.05595851  0.14401208  0.11873057  0.11039633 -0.28127003 -0.09521846
  0.09046366 -0.0173336   0.08365451 -0.04784956  0.21561798  0.03572557
  0.05856946  0.00732545  0.17681602  0.07781136 -0.02614852 -0.24080531
 -0.08749504  0.13889739]
[ 0.21361673  0.08262917  0.03632357  0.2103581  -0.01992166 -0.13406451
 -0.28713164  0.19783632  0.15386279 -0.1421071  -0.06016082  0.19151913
  0.2650552  -0.01189349  0.0335227  -0.17231695  0.1851124   0.15430066
 -0.05632904 -0.15451655]
[ 0.28004968 -0.18042253  0.19064216  0.18733345  0.0901431  -0.23675314
  0.07074071 -0.09114329  0.00620425 -0.1255329   0.10690911  0.17297035
 -0.2469432   0.06485309 -0.23694928 -0.095919   -0.06050025 -0.13915993
  0.0591362   0.1603685 ]
[-0.10241454 -0.07213241 -0.1236976   0.14174306 -0.2535946   0.10521123
 -0.02018507 -0.23045003 -0.01949106 -0.14786278 -0.00474524 -0.08193398
  0.06830045  0.06340906  0.3235     -0.38988993 -0.17317577  0.33135363
  0.16812325  0.09532151]
[ 0.2269606   0.05746342 -0.20515221 -0.20625672  0.33568573  0.04536459
 -0.06008678 -0.08029258 -0.20751807  0.19189425  0.04629653  0.2893349
  0.02053483  0.38678285 -0.02303249 -0.01437833  0.12466849 -0.07518134
  0.11768     0.15321478]
[ 0.28609478 -0.34219357 -0.23563263 -0.3619373   0.33561522 -0.12586792
  0.26110557  0.3274107  -0.26675522 -0.23999625  0.30269805  0.18947032
 -0.00463386 -0.24549323 -0.19196197  0.19823207  0.01712655  0.19104908
 -0.11383873  0.00885386]
[ 0.19733325 -0.15880938 -0.36169633 -0.01693533  0.3612602   0.26308143
  0.12427825 -0.0814865  -0.07547025 -0.11477249  0.0807475  -0.05897192
 -0.14624321  0.14921336  0.37938088  0.17349912 -0.21500728  0.20675482
 -0.15156692 -0.12405427]
[-0.24703403  0.20315318  0.2786319   0.09572573 -0.12984179  0.2711388
 -0.45988432 -0.20288989  0.13666998  0.32246292  0.07473059  0.3270963
  0.07880016  0.1737848  -0.17981912  0.1462667   0.03329027 -0.08651451
  0.12324549  0.0088669 ]
[-0.2004149   0.19079344  0.30453327 -0.00189279 -0.3515885  -0.13493977
  0.01833336 -0.06661023  0.07278019 -0.03360051 -0.26922187  0.04905963
 -0.16172898 -0.17604844 -0.5099108  -0.02532157 -0.02638391 -0.23780726
 -0.08032292  0.38153338]
[ 0.18394744  0.01682217  0.06332424  0.24467447 -0.13537982 -0.05222622
  0.07126369  0.08954301  0.15841557 -0.01938654 -0.12270776  0.34039292
  0.16378675  0.2056205  -0.1664583  -0.15016739 -0.27212155 -0.3176912
  0.10509215  0.11795668]
[ 0.16937366 -0.27327213 -0.20685612 -0.20594563 -0.06184975 -0.16522363
 -0.14041011  0.10139047 -0.05993258 -0.06979711  0.06056251  0.0069474
  0.03197777  0.03291807  0.09428044  0.03323867 -0.07563005  0.22976668
 -0.1910096  -0.08704062]
[ 0.19281399  0.04300309 -0.04328568  0.32903716 -0.20521255  0.2711246
  0.26302192 -0.08650829  0.2065385   0.07985688 -0.01038438 -0.10919879
 -0.03237487 -0.21665813  0.30100304 -0.07871056  0.13061015  0.20160688
  0.29237673 -0.17704244]
[-0.14215775  0.18131934 -0.22499624  0.19808467 -0.11627109 -0.17480019
 -0.25840807  0.19701093  0.19277361 -0.054393   -0.05537866  0.17946258
 -0.00134145  0.27991617  0.03242417 -0.08258282 -0.12915988 -0.01554674
 -0.21977112  0.05819181]
[ 0.20124578  0.37365946  0.35401827 -0.0931547  -0.22107449  0.03117414
 -0.21910152 -0.01016052 -0.03506754  0.0827128  -0.17764431 -0.09411099
  0.07118714  0.12931468 -0.2761082  -0.10235625 -0.30261493 -0.26886877
  0.16919903  0.06830973]
[ 0.08363519  0.09237805 -0.21540685  0.16539341 -0.22292328 -0.2026847
 -0.24813807 -0.27603507 -0.02127887  0.19992384  0.06735193  0.14208876
 -0.04135516  0.04148296  0.06594746  0.3502336   0.08342063  0.04890414
 -0.09568361 -0.23438874]
[ 0.21637361  0.32120556  0.17793272 -0.19878066 -0.14163946 -0.01304931
 -0.21942554 -0.15233915 -0.16021436  0.14276338  0.16096446  0.17504375
 -0.28553703 -0.10814816 -0.27243665  0.18983968  0.02362834 -0.09866109
  0.24172294  0.22328267]
[ 0.34165666  0.24394336 -0.05451578 -0.07312049  0.34622002 -0.2638896
  0.30521685 -0.19696389  0.17092133 -0.123949    0.09028891 -0.18644798
 -0.33488983 -0.11864675 -0.0322726   0.24226023  0.12722087 -0.11984958
 -0.3133369  -0.19777502]
[-0.22762185  0.21605231 -0.15679061  0.21544257  0.07287835  0.27229995
 -0.33437756 -0.03069346 -0.3443834  -0.03246545 -0.18994254  0.16478713
  0.07829403  0.05792472  0.21379085 -0.0479055  -0.0560433  -0.29475844
 -0.30738813 -0.08628312]
[ 0.30037248 -0.09715413 -0.23782279  0.24751413 -0.13720053  0.11782029
  0.126574   -0.30671582  0.02555908 -0.23212059  0.2921024  -0.18822686
 -0.08926953  0.17113572  0.08423042  0.25318325 -0.14992929  0.03788209
  0.0167447  -0.21162976]
[-0.08950279  0.06901674 -0.04912329  0.2170317  -0.1401423  -0.17772073
 -0.12283041  0.06366469  0.15992577 -0.07296603  0.11466616  0.15933262
 -0.17168692  0.20717601  0.01153162 -0.21248123  0.06965068  0.07084755
  0.10355107  0.13510521]
[-0.11841883 -0.0471552   0.06247534  0.02597855 -0.05377654 -0.12042383
 -0.02637613 -0.19094193 -0.10579887 -0.14420152  0.1513549  -0.06605258
 -0.00731393  0.14749241  0.15748413 -0.16836536  0.20399153  0.42564738
  0.10563679 -0.2625329 ]
[-0.28533226 -0.18026552 -0.08757015  0.06066231  0.12553443 -0.25567904
 -0.15399687  0.15370548 -0.03540537 -0.15733089  0.06598415 -0.16259736
  0.1703707   0.09853937  0.0387036   0.13290307  0.08434716  0.08975103
 -0.22424887 -0.09949248]
[ 0.19101414  0.04900892 -0.09321161  0.18008322 -0.04925831  0.11002515
  0.0073821  -0.04751602  0.03970352  0.03501831  0.19867581  0.30260655
  0.23897353 -0.03601849  0.39993918  0.06465951  0.09762046 -0.13518928
 -0.22491905  0.21762331]
[-0.32314143  0.21577351  0.2321472   0.3611014  -0.14532627 -0.11984105
 -0.03619404 -0.21642828 -0.21318254  0.0715157   0.18010117 -0.20582761
 -0.1971336   0.11639293 -0.10769833 -0.18369748  0.17097321 -0.14388977
  0.27207854  0.14088117]
[-0.19203538 -0.1110007   0.22997081 -0.18111381  0.22983055 -0.14401437
  0.12823913 -0.00864256 -0.077786   -0.06420977 -0.10293369  0.11404171
 -0.02009651  0.15269008 -0.11831567  0.02505484  0.22330624 -0.03733978
  0.09836167  0.3672389 ]
[-0.13437137 -0.07624369  0.19584125  0.01336036 -0.13982332 -0.18109857
  0.42292187  0.0091214   0.05978189  0.33526507 -0.21515033  0.3252454
  0.07146183  0.25777337 -0.01010951 -0.2194727   0.20137486 -0.0163538
  0.14099084  0.14630672]
[ 0.02627966 -0.00989065 -0.04610879 -0.08093838 -0.05064686  0.03251432
 -0.07346801  0.04725946  0.01238862  0.01034113  0.05859747  0.068261
 -0.01887814  0.0158518   0.04012497 -0.02444025  0.01754849  0.04080652
 -0.09116983 -0.02413118]
layer 5 Activation
tanh
layer 6 Dense
20 1
[-0.01807955]
[-0.02220194]
[0.07259669]
[-0.11825752]
[0.01156567]
[0.04723763]
[0.14883742]
[0.13346297]
[0.00945413]
[0.04003438]
[0.2457083]
[0.06039822]
[-0.01044782]
[-0.00507871]
[0.020121]
[-0.14455287]
[-0.00904584]
[0.10735565]
[-0.22809531]
[0.01205027]
[0.0678265]
