layers 7
layer 0 Dense
20 20
[-0.4846886  -0.39417064 -0.5082741  -0.71075016  0.0167606   0.08101385
 -1.0223116   0.19308683 -0.14825127 -0.23218273  0.1697601  -0.2663456
  0.35658056  0.42928135  0.07260178 -0.8644915   0.41446656  0.6008709
  0.47047433  0.2842052 ]
[-0.05286492  0.13995907  0.05715932 -0.40823987 -1.1504803  -0.46837398
  1.173662    0.83196276  0.72378093 -0.7459608   0.21359244 -0.6507384
  0.5605163   0.91127557  0.21371289 -0.04100509  0.47182116 -0.33195186
  0.3380222  -0.66384274]
[-0.08219854 -0.42490438  0.10877361 -0.6440483  -0.68809557 -0.04879808
  1.2506387   0.68862003  0.22851601 -0.7879427  -0.07308697 -0.688192
  0.09854627  0.29789388  0.58091515 -0.24942492  0.8114438  -0.22279622
  0.68438107 -0.9228926 ]
[ 0.20993584  0.20606929 -0.5571813  -0.44126564  0.26565662 -0.03353342
 -0.4509987   0.23458917 -0.23842727 -0.48519546  0.43106085 -0.12958379
 -0.00871224  0.5135836  -0.1333691  -0.10643725 -0.10415959  0.69887984
  0.41036382  0.3163697 ]
[-0.4470823   0.18594389 -0.11834839 -0.17236711  0.04683475 -0.55039054
  0.02101186 -0.11575706 -0.06762463  0.5915848  -0.33767608 -0.10483611
  0.71843994  0.22551638 -0.00350882 -0.71375513 -0.27660602 -0.14909461
  0.4262835   0.07825749]
[ 0.75813633  0.13478386  0.15911242  0.1441386   1.1580693   0.19675015
 -0.7367041  -1.2103533  -0.5744465   0.66715795  0.12317988  0.7174745
 -0.3226589  -0.4626009  -0.6869737  -0.00775716 -0.6995402  -0.09865138
 -0.05814631  0.59633756]
[ 0.16779095  0.35563695 -0.08904752  0.12307905  0.8054408   0.10959736
 -0.77548844 -0.9440727  -0.36974344  1.0819037   0.2497695   0.48393083
 -0.19174342 -0.11968243 -0.5730827   0.07565539 -0.5151301   0.24420996
 -0.03620043  0.6295603 ]
[-0.5504996   0.10434293  0.36684862 -0.55764323  0.3291729   0.8425166
  0.05238161  0.36178097 -0.02602751 -0.7811209  -0.37306458  0.3152879
 -0.45844883 -1.1144613  -0.56600326  0.09546485 -0.14809483 -0.01209038
 -1.4301459   0.5724892 ]
[ 0.12751055 -0.49813464  0.6308127  -0.1439621   0.4480679  -0.43607956
 -0.67002887  0.3025809  -0.6910108  -0.16246437  0.5846838  -0.24512812
  0.4753849   1.0776953   0.04073041 -0.5927807  -1.0403819   1.1097697
  0.983451   -0.0371045 ]
[-0.48146918 -0.6934415   0.3225211  -0.79663444 -0.21249591  0.5902683
  0.68210256 -0.3863572  -1.6610361   0.77624345 -1.1990259   0.19615005
  0.03430104 -0.27100986 -1.1588356   0.7847459  -0.31673822  0.09545151
  0.33071998  0.08906259]
[-0.30264232 -0.40165836  0.5623912   2.0360053   0.49948674 -0.0477372
  0.5207463   0.26323542  0.06613305  0.41230088  0.09321779  0.3957226
 -0.06011117 -0.2845081  -1.0973366   0.34335408  0.02766899  0.0745557
 -0.29550764  0.57878107]
[ 1.325461   -0.4323069   0.43616083  0.3784545  -0.26362494 -0.3605734
 -0.30621538 -0.26994616 -0.55530846 -0.23261903  1.5919019  -0.17293744
  0.25347635  2.781797    0.82536656 -0.17247543 -0.67781544  2.3509269
  2.1475704   0.08693662]
[-0.9053592   0.35851544 -0.39572093 -0.26807353 -0.3887663  -1.0439296
 -1.3062191   0.38547692  0.10309223 -1.0011427  -1.0284998   0.62134075
  0.11444389 -0.7299119   0.23471779 -1.7976015   0.23161073 -0.95366985
 -0.592882    0.8948057 ]
[ 0.40400976 -0.54396355 -0.47977445 -0.08777913 -0.5360097  -0.18441646
 -0.04834419  0.06247762  0.24942133 -0.31822687  0.11966764 -0.3812477
 -0.15082605  0.42093462  0.44549203 -0.37579355  0.0374076   0.50104296
 -0.93972737 -0.6976142 ]
[ 7.3820257e-01  4.6515125e-01  3.6842498e-01 -1.5868276e+00
  5.6187075e-01 -2.6838061e-01  5.4486674e-01 -1.2183092e+00
  5.4285575e-02  5.8640426e-01 -6.8113208e-01  4.2441255e-01
 -2.7185276e-01 -1.3084962e-03  8.3478796e-01 -1.1337091e-01
 -5.4028207e-01  2.7040401e-01  3.0350262e-01 -1.0434434e+00]
[-1.1888894   0.3542587   0.03126893 -0.16512953  0.2731394  -1.1057909
 -1.7093327   0.57068056  0.73269385 -1.422056   -1.0874372  -0.3167187
 -0.7002771  -0.8985186   0.37294498 -1.2056991   0.7729075  -0.8590995
 -0.7636511   0.96475685]
[-1.0081394  -0.38984573 -0.36628118 -0.8661036   1.6672821   0.17750022
 -0.14325278  0.8174122  -1.1313702  -0.17983487 -0.32050902  0.9710056
  0.00474661  0.758624   -1.5398098  -2.0329113   0.9506352   0.16744296
 -0.7662008  -0.46765047]
[-0.2765948   1.7331735  -0.3840502   1.0776148   1.9875387  -0.23881546
 -0.49619207  0.66826767 -0.00342547 -0.08484093  0.53106654  0.7588752
  0.51136166 -0.6130715   0.4524099   0.06894655  0.04076261 -0.5651199
  0.35668096 -0.07987121]
[ 0.104074    0.03982134 -0.04211976 -0.44374824 -0.9135935   1.0583
 -0.3612032   0.8586994  -0.10018119 -0.23854664  0.5428541  -0.4058966
  0.3665059   0.20719503 -0.08741574 -0.5325407   0.6801436  -0.12829395
  0.24276507  0.6706099 ]
[-0.95728725  0.24713767 -0.28044778 -0.9944232   1.1916943   1.6180593
 -0.05365359 -0.2845487  -1.0364609  -0.70499444 -0.8213673   0.8407301
 -0.6584119  -0.80814755 -2.9814482  -0.24906147  0.26726213 -0.60908765
 -0.20598044  0.2689603 ]
[ 0.30067626  0.07178889 -0.14952818  0.20010859 -0.23819526 -0.27858496
  0.04544038 -0.06040171  0.10621096  0.251331    0.3016559  -0.37807262
  0.12458516  0.32527605  0.46271613  0.11292456  0.14929584  0.17851968
  0.48717478 -0.23251647]
layer 1 Activation
tanh
layer 2 Dense
20 40
[ 0.31956333 -0.0278653   0.1691413   0.2616745   0.6366434   0.4221412
 -0.10054184  0.16365667  0.21236244 -0.33843648 -0.47460383 -0.16257358
  0.6945853  -0.8239344  -1.0865397   0.01564486  0.46942443  0.23513542
  0.37320802 -0.08603903  0.5251071  -0.52116346  0.37994364 -0.01775777
 -0.32651168 -0.2201656   0.0911382   0.7653126   0.00543386 -0.02944493
  0.03069848 -0.30735168 -0.17615816  0.56207204  0.03405725 -0.01162882
 -0.08870424  0.3585339  -0.48185453  0.04613198]
[-0.00384308  0.3702809  -0.2155959  -0.08940392  0.3179304   0.07302497
  0.01426896  0.04575642 -0.08085835  0.551035   -0.25290418  0.15520212
  0.31786612 -0.04131584 -0.14768572 -0.04150592  0.2543171   0.03739954
 -0.20415269 -0.48729214 -0.07932404 -1.5288863  -0.15428348  0.27380493
 -0.0620454  -0.70821035 -0.35634562 -0.30665803  0.2805073   0.09725869
  0.36831757  0.2294548   0.28683573  0.06636108  0.4075379  -0.5856977
 -0.22419822 -0.06067751  0.3643311  -0.03571378]
[ 0.00295783 -0.14443456 -0.00075462 -0.44903255 -0.19118983 -0.3507697
 -0.26092163  0.08374118 -0.17395148  0.3464371   0.0179237   0.04313695
 -0.3330831  -0.02085774  0.06831122 -0.55353755  0.362717   -0.10235649
  0.38536978 -0.05170535  0.46120873 -0.1090052   0.22619614  0.06401201
  0.15054506  0.1618686   0.26845992 -0.06329624  0.09189357 -0.2586435
  0.03556066 -0.21146059 -0.08387606 -0.6022933  -0.01432928 -0.03282822
 -0.12818363 -0.10005774  0.09079603  0.6370199 ]
[ 0.3759864  -1.1496408  -0.26308873 -0.0077345   0.40642858 -0.3403209
  0.40510193 -0.49774268  0.01937391 -0.18247831 -0.14614937 -0.6227408
  0.48938283 -0.5134276  -1.005413    0.11669405 -0.27844515 -0.13047574
  0.39294124  0.43029043 -0.24342799 -0.76363343 -0.4388842  -0.12565102
  0.145461   -0.29305148 -0.68195754 -0.32346255  0.5282224  -0.35098264
  0.1191605   0.14915371  0.35336623  0.17060706 -0.1390428   0.6033382
 -0.49713898  0.03864785  0.00592588  0.12444014]
[-0.1655268   0.04781292 -0.90954965 -0.37255526 -0.06285094  0.5362624
 -0.2860678   0.1851157   0.05024223  0.2936031  -0.05527017  0.3117982
 -0.35965225  1.2443442   0.79694724 -0.51983804  0.30209085  0.05050137
 -1.0656799  -0.24226741  0.5874138  -0.5274347   0.40465754 -0.59890276
  0.13926217  0.4323888   0.91583896  0.10444515  0.48423007  0.17471792
  0.38723847 -0.5729732  -0.08594579 -0.10705693  0.08043055 -0.42082873
 -0.22303112  0.21648835  0.17331918  0.26592863]
[-0.0115394  -0.7061396   0.438019   -1.0081964  -0.5026495  -0.06006472
 -0.06200701  0.29415825  0.08821356 -0.08016524 -0.20478508  0.26286012
 -0.5212203   0.74351466  0.27703926  0.21535715 -0.03414204 -0.20476252
 -0.6165551   0.27848879  0.40363446  0.7080504  -0.05295346 -0.19603303
  0.36045507 -0.06010049 -0.06624603  0.34088343 -0.37809426  0.35297686
  0.45169148 -0.25124645 -0.47802007 -0.27351275 -0.13824625  0.08594222
  0.62470365 -0.30771732  0.16277008 -0.19710107]
[ 0.28360063 -0.23407069  0.2275156  -0.4681378  -0.08317287  0.2084243
  0.08479156 -0.24745671  0.12111959 -0.28388152 -0.19255689  0.3839116
  0.28593278 -0.29943854 -1.3424864  -0.07053908 -0.15496181 -0.17394252
  0.3180536   0.321886   -0.10326836  0.25542998  0.1599279   0.19373727
  0.12279747 -0.15180665 -0.23698413 -0.10734403 -0.5942228  -0.17894866
  0.37478843  0.29996732 -0.35134158  0.37808344 -0.17981811  0.07474737
  0.11487444 -0.09509291  0.17262866  0.13003835]
[-0.2791189  -0.2598146  -0.20602949  0.0701943   0.04541329 -0.5599393
 -0.0917066  -0.01093837  0.23749289 -0.29976392 -0.03349176  0.1829004
 -0.26374063  0.9305954   0.30647314  0.08790812  0.4064326   0.03365744
 -0.7694631  -0.23944992 -0.17831066 -0.1467897   0.08025183  0.09177008
  0.1061295  -0.14483482 -0.00358729 -0.50477105  0.28147182 -0.05627359
  0.17090118  0.02574467 -0.0300305   0.10237816  0.12867987 -0.5314593
  0.24510098  0.23963593  0.0391512   0.44641793]
[ 0.08546245  0.5800342  -0.37281546  0.22539465 -0.02996382 -0.03343488
 -0.10625707  0.24281207  0.1208448  -0.17870069 -0.06587204  0.0210556
  0.24872716 -0.28230685 -0.28474477  0.20131615  0.14822702  0.10450616
 -0.03492644  0.5020384  -0.11253539 -0.64721775 -0.0959093  -0.29973525
 -1.0719471   0.14876032 -0.03692929  0.10777312 -0.29690823  0.548749
  0.2931773  -0.00590222  0.19673629  0.39313295  0.02099893 -0.53127384
 -0.21783048  0.50663173 -0.11956239  0.331083  ]
[ 6.1921567e-01 -8.5919619e-02 -7.1674399e-04 -2.0545857e-01
  4.4029018e-01 -2.2343959e-01 -2.8517011e-01  3.6196824e-02
 -4.3649045e-01  6.5880321e-02  3.6698860e-01 -2.0222691e-01
  3.6590055e-01 -4.7109115e-01 -1.0030205e+00 -6.1585629e-01
  1.0067781e-02  2.5704911e-01  4.5925155e-01 -6.9176063e-02
  4.4427544e-02  2.6254222e-01  8.3093114e-02 -1.9933023e-02
 -7.4087515e-02  6.7902136e-01 -2.5996866e-02  4.3682453e-01
 -5.1327342e-01  3.4391500e-02  2.8342000e-01  3.1528067e-02
  8.6952716e-02 -4.8381478e-02 -1.3457306e-01  6.0460258e-01
  2.1027505e-02 -3.0250695e-01  1.6348280e-01  1.6775981e-01]
[ 6.6847575e-01 -8.2605547e-01 -4.8144728e-02  8.0512032e-02
  2.2996290e-01  4.2453870e-01 -2.8091285e-01 -4.3620944e-02
  2.5893623e-01  2.3131277e-02 -3.0460013e-02 -1.6051632e-01
 -2.7936569e-01  6.9452643e-02 -8.9100581e-01  1.6046092e-01
 -2.5283736e-01 -4.5335224e-01 -8.7990999e-01 -1.0846056e-01
  7.2582406e-01 -4.5913744e-01  3.6259122e-02 -2.9721427e-01
 -3.4828830e-01 -3.3337739e-01 -4.8195776e-02  8.9281304e-03
  6.1677629e-01 -3.6105391e-01  2.5870094e-01  1.0806056e-01
 -1.7103921e-01 -4.1486556e-04 -2.4936852e-01  6.2313193e-01
 -6.5031537e-04 -3.1016991e-01  2.2010686e-01  2.8814062e-01]
[-0.30654022  0.0015473  -0.19654672 -0.5278863  -0.20641614  0.02362212
  0.03165654 -0.3785473  -0.3529125   0.09603952 -0.12787655  0.10873627
 -0.31226936  0.6518045   0.12809825 -0.1918072   0.08638377  0.39473268
 -0.2622989   0.03581391 -0.1846134   0.15271004 -0.22429782 -0.09791499
  0.93524855  0.1263063   0.44766346 -0.2128933   0.02241064 -0.226868
 -0.0463369   0.07667414  0.02916402 -0.40741035  0.2661279  -0.06881215
 -0.01228111 -0.4419191   0.00791507  0.18303445]
[-4.4193840e-01  1.4828628e-01 -3.4342128e-01  2.7433792e-01
  6.5752167e-01 -6.9238132e-01  6.0208510e-03 -2.1512985e-01
  5.4123304e-03 -1.7020606e-02  8.0437429e-02 -1.4805481e-01
  4.1469571e-01  4.8634905e-01  1.9415773e-01 -4.8939332e-01
  1.6013482e-01  5.2793950e-01 -3.6536756e-01 -6.6192019e-01
  2.8756098e-04 -8.2531258e-02 -1.5777142e-01  1.6325173e-01
 -5.8396369e-01  1.2641046e-02  2.1367542e-02 -3.3160258e-02
  1.4574349e-01 -2.2942746e-02 -2.8283349e-01  5.0244242e-01
  6.1877888e-02  3.8430825e-01 -2.6227656e-01 -4.4546433e-02
  8.5601985e-02 -1.3254653e-02 -1.6991611e-01 -6.0899157e-02]
[ 0.7494017  -1.0592793   0.5859151   1.6173731   0.12228065  0.0035132
 -0.1434986  -0.27528805 -0.0358553   0.19009888  0.02912362 -0.26439908
 -0.2808212  -0.13289681 -0.28648657  0.22737336 -0.52835625 -0.6850512
 -0.29093152  0.10658129 -0.95091385 -0.28857598  0.16977702 -0.14691095
  0.01601422 -0.2528658   0.17069188 -0.5189556   1.1865658   0.01328002
 -0.11711771 -0.01188726  0.28140637 -0.03321495 -0.26188913  1.2680187
 -0.40670642 -0.29914123  0.5632382  -0.00856972]
[ 0.46848395  0.7762144   0.09327292  0.90733844  0.60343987  0.12750039
  0.15333961 -0.27917653  0.01270862 -0.5546821   0.02958595 -0.11267425
  0.85129523 -1.8582072  -0.8590907   0.467688   -0.41529113  0.201676
  0.8795302   0.18993832 -0.62716293 -1.7583766  -0.22460535  0.08892228
 -1.1048274  -0.5071901  -0.4317911  -0.5377208   0.79391944  0.24674918
 -0.11631861 -0.04744194  0.07252272  0.8635431   0.28933984 -0.03749764
 -0.07118838 -0.24145402 -0.39180183 -0.43988279]
[-0.1475975   0.59501326 -0.2132287  -1.1512097   0.4646006  -0.19712834
 -0.00610941 -0.01939408  0.15148583  0.17854878 -0.1332539   0.1892415
  0.42546013 -0.18462929 -0.8430613  -0.5894155   0.05101001  0.46234414
  0.10642994 -0.568553    0.9389678   0.13670115 -0.49969536 -0.22961214
 -0.13539478  0.19185196 -0.3107897   0.72320366 -1.0433098   0.3977452
  0.11019724  0.17825879 -0.25393027  0.43436787 -0.0106113  -0.62703246
  0.07343873  0.62235177 -0.2976298  -0.4267017 ]
[-0.18476686 -0.10780516 -0.04612339 -0.09390667 -0.48138154  0.534613
  0.40400076  0.09358519  0.39416265 -0.20977843  0.03386274 -0.19555883
 -0.07710233  0.4119999  -0.42931578  0.40201035 -0.4746945   0.18736866
 -0.15757173 -0.13313228 -0.22500767 -0.46497145 -0.4552886   0.25966686
  0.03366591 -0.28373095 -0.33639777 -0.25887844  0.10584266  0.2115261
 -0.01383553  0.10760766  0.35949963 -0.39229074  0.20407669 -0.05999755
  0.0725008  -0.28001136 -0.02714705 -0.28108907]
[ 0.6554127  -0.9623512   0.49133134  0.41298872 -0.3991443  -0.48293367
 -0.04850235  0.08571528  0.1178961   0.5253866  -0.15450025 -0.3336491
  0.15550004 -0.39103946 -0.0035373   0.23849711  0.12910166 -0.13839042
  0.44854754 -0.2600677  -0.48377892  0.20749693  0.04039357  0.3652141
  0.02614954 -0.14695533 -0.39190826 -0.20871297  0.46351358 -0.47896504
 -0.44993594  0.14066231 -0.15906972 -0.2978473   0.09714741  0.67109954
 -0.15382874 -0.04928113 -0.39610583 -0.12363049]
[ 0.87644744 -0.883524    0.4957568   0.945024    0.7623119   0.42881393
  0.35336748 -0.57113934  0.05304522 -0.3577689  -0.02823839 -0.511762
  0.13415827 -0.57607394 -0.69030124  0.49429184 -0.9756433  -0.52606165
  0.4292331   0.51689225 -0.40676183 -0.52996206  0.09134267  0.20352349
 -0.1786812  -0.24737883 -0.14562468 -0.31343222  1.3812755  -0.8133434
 -0.43893722  0.12409976  0.1635831   0.11324823  0.06720701  0.98744714
 -0.36545822 -1.129348    0.49194717 -0.6163769 ]
[ 0.16050722 -0.24509473 -0.5755499  -0.15131257  0.1306367   0.3873057
 -0.19684082  0.02311672  0.08628449  0.3356037  -0.06117686  0.07508667
  0.30534124  0.26966447  0.46366882 -0.15224677 -0.13404639  0.35501182
 -0.53491753  0.3121622   0.36001843  0.2612062  -0.08083823  0.10309921
  0.09368983 -0.05968885  0.12754945 -0.2813445   0.08979604  0.1299755
 -0.06903176  0.08874028  0.25149217  0.03872473 -0.03206171 -0.3720731
 -0.26602885 -0.02692112 -0.03029208 -0.20985684]
[ 0.55839664 -0.2874421  -0.26852554  0.44787437  0.76633227  0.55986595
  0.27264258 -0.44465834 -0.03630116 -0.32808885  0.02419475 -0.7006578
  0.742098   -0.5695456  -0.32261172  0.54841906 -1.070777   -0.1531185
  0.03038426  0.8542542  -0.29226154 -0.32449576 -0.05258838  0.04603735
 -0.80086267 -0.36271334 -0.4780119   0.03138561  0.5343247  -0.10020941
 -0.08510327  0.22639596  0.15303275  0.2350612   0.14297183  0.40705815
 -0.30720538 -0.39139476  0.04494575 -0.77099574]
layer 3 Activation
tanh
layer 4 Dense
40 20
[-0.1216683   0.17816384  0.021066   -0.05564665  0.29341736  0.23649777
 -0.17434347 -0.07204248 -0.11785971  0.00603807 -0.00483116 -0.17967631
 -0.13596375 -0.4286881  -0.03408034 -0.1042086   0.3161989   0.0984086
  0.02125931 -0.03852534]
[ 0.23056498 -0.880653    0.04887868 -0.07700267  0.32489324  0.34770837
 -0.04917556 -0.08711487  0.43716678  0.08239124 -0.9771846   0.23812266
 -0.38436508  0.9291958  -0.03158902  0.04665799 -0.75101405 -0.0573114
 -0.9463256   0.07642231]
[-0.32290798  0.01902975 -0.03863737 -0.0822      0.05308253 -0.27322683
 -0.0494977  -0.3382447  -0.11905198  0.00286005 -0.22629078  0.19617848
  0.37327987 -0.10564457 -0.31191224  0.02698102  0.35319218  0.06948595
  0.08414513  0.02665215]
[-0.15205751  0.650938   -0.1780287  -0.16834764 -0.06843581  0.12860878
  0.10017063  0.01279223 -0.15242013  0.04105112 -0.07634789 -0.15271023
  0.12805296 -0.58905923  0.08856347  0.34015238 -0.17276166 -0.11895528
  0.1720178   0.14277121]
[ 0.2689401   0.12460151 -0.01911617 -0.07670719  0.09743925  0.46943125
 -0.161394    0.36902818 -0.5148107   0.46100903 -0.19263306 -0.4337307
 -0.37497357 -0.04603833  0.0586228   0.08407449  0.4008966  -0.16800343
  0.0184087  -0.30071223]
[-0.16904724  0.22949451 -0.02005107 -0.04554614 -0.08155256  0.35308725
  0.14123386 -0.06016276  0.03523143 -0.30693832  0.09593496  0.07322413
 -0.14669938 -0.02484307  0.01999504  0.24828894 -0.09649658  0.12705345
  0.1913619  -0.00334855]
[-0.25276196  0.07633744  0.16914459 -0.07491109  0.0075793   0.14414126
  0.13638523  0.07060006 -0.31815982 -0.50727206 -0.2432851  -0.2808454
 -0.11819176  0.10541346  0.02151711  0.01328901  0.2617863   0.17981312
  0.27961195 -0.37756494]
[-0.11103686 -0.2608728   0.02772628 -0.02203785  0.17741401  0.02239673
  0.07369885 -0.2560231   0.31101143 -0.11168756  0.04141612  0.39316854
  0.24659866  0.18871808  0.14257072 -0.0254159  -0.09954987  0.16966821
 -0.13584414  0.23315997]
[-0.0008661   0.05861545  0.20727436 -0.02019333  0.07447625  0.02506803
  0.15683682  0.01500713 -0.3512656  -0.2412755  -0.0776817   0.35438097
  0.13781302  0.12636429 -0.07202267  0.04069687  0.33348212 -0.10299719
 -0.14257179 -0.30974865]
[ 0.14703265 -0.06516002 -0.10716505  0.06871302  0.00278167  0.0250373
 -0.05199441 -0.0470844   0.34183106  0.26703614 -0.01864397  0.30301893
  0.20375678 -0.1984203   0.28961518 -0.03904702 -0.28378636  0.12846035
  0.10639194  0.45827326]
[-0.0046715  -0.02044574  0.02874263  0.10790882  0.01519854 -0.16280049
  0.14490157  0.02027268 -0.10391081  0.06463345  0.09424145 -0.20272781
 -0.09637176 -0.07529531  0.00517053 -0.05459051 -0.18206204 -0.0198441
  0.29475063  0.18971747]
[ 0.04619343  0.00324148 -0.29847187  0.08945892 -0.10225727  0.04430465
 -0.1082476   0.1537754   0.23791747  0.0901535   0.08803486  0.32180932
  0.23057187  0.22760902  0.23286639 -0.12678088 -0.3146877   0.01372255
 -0.59610254  0.29430938]
[ 0.07593968 -0.01570257  0.05502361  0.18262084  0.16894104  0.36469316
  0.28424576  0.38794053 -0.5259957  -0.02863571 -0.35356924 -0.30322558
 -0.36580035  0.17973845  0.02002263  0.141644    0.25174797 -0.05845303
  0.13362771 -0.2759059 ]
[ 0.26909178 -0.6860229   0.26685563  0.01078387 -0.22226933  0.15371531
 -0.07923375 -0.59125984  0.2517417   0.0823778  -0.2576528   0.2674699
  0.13654052  0.11687756 -0.23121925 -0.13033365 -0.7254474  -0.03133156
 -0.66561747  0.02101308]
[ 0.29593056 -0.6677539  -0.04683479  0.2123774   0.02512794 -0.07836179
 -0.00975896 -0.3544774  -0.04919429 -0.06196288 -0.22663924  0.03673802
  0.20063101  0.27851257  0.11179209 -0.02034108 -0.50759387 -0.05187139
 -0.5415204  -0.30216542]
[-0.4259418   0.25731996  0.12607953  0.19987902 -0.01100736 -0.09557313
  0.3077946  -0.09315992 -0.33596122 -0.42943037 -0.26344344 -0.03460587
  0.06869276  0.26261047 -0.12629938  0.05749418  0.38107172  0.02700146
  0.20103018 -0.46198606]
[ 0.34616935 -0.7704147  -0.14578906  0.04994185 -0.09358603  0.21249638
 -0.11161678  0.27929544  0.5342529   0.21413498 -0.19191636  0.27334538
  0.3316719   0.06201852  0.25837228  0.0796847  -0.17168596 -0.04863322
 -0.5361103   0.3943862 ]
[ 0.07125206 -0.11742465 -0.04002084  0.00907269 -0.07147525 -0.03975468
  0.0908521   0.41621906 -0.1274535   0.0926656   0.10410082 -0.11136897
 -0.2580828   0.16838881  0.2723313   0.05193609  0.08650637  0.15529974
  0.05954828  0.1771363 ]
[-0.54103106  0.32686716 -0.25786114  0.21247917 -0.02599115 -0.4561192
  0.17593211  0.48968425  0.08436925 -0.16626844  0.20522039  0.04157566
 -0.24419661 -0.30201945 -0.11922707  0.02796732  0.74691826 -0.03797919
  0.42993858  0.23257184]
[-0.42482564  0.32641703  0.22668181 -0.04193507 -0.17186955  0.36074942
  0.17563415 -0.1780459  -0.40155417 -0.09939668 -0.03936234 -0.3444383
 -0.26198164  0.02713269 -0.08232836 -0.08697543 -0.11605866 -0.07268202
  0.1377326   0.10581178]
[ 0.33809438 -0.23830031 -0.19286175 -0.20281403 -0.18334496  0.47774553
 -0.01706449 -0.22772372  0.32698     0.10028724 -0.16557217  0.4634776
 -0.38754392  0.2610105  -0.01947922  0.09658144 -0.04801237 -0.06043499
 -0.88994944  0.2377527 ]
[ 0.4468307  -0.75605774 -0.02688236  0.11003525  0.34631413 -0.10948595
 -0.02270937 -0.6438768   0.18705457  0.34535947 -0.18015768  0.4783761
 -0.23967303  0.02573361  0.07392803  0.11572913 -1.2074673   0.10785748
 -0.55528593  0.11148864]
[ 0.113226    0.0646385  -0.20948048  0.1781693  -0.12464594 -0.17688935
 -0.06890264 -0.18812755  0.07504371  0.1511605  -0.04362677  0.09191204
  0.11281699 -0.15744281 -0.16013613  0.09356719 -0.1925088   0.08386333
 -0.2881776   0.12745516]
[-4.45588082e-01 -1.20135516e-01 -1.88638583e-01  6.96175322e-02
 -1.43443406e-01 -2.25711122e-01  1.54591482e-02  2.94282623e-02
 -1.87488690e-01 -9.45238397e-02 -2.25658645e-04 -8.11524913e-02
 -7.06967413e-02 -1.08135872e-01  7.02939183e-02  2.07740273e-02
  3.11940581e-01  3.12334523e-02  4.15590733e-01  3.16799939e-01]
[ 0.07043868  0.16957708 -0.10749383  0.17233561  0.00084509 -0.1893173
  0.02328275 -0.06014508  0.409062    0.01596774  0.0877978   0.20840435
  0.54206336 -0.2072928   0.07306635 -0.16902919 -0.27778828  0.05769837
  0.04034199  0.18703781]
[ 0.17860313 -0.03275906  0.09833456  0.03182042  0.10432738 -0.24475054
 -0.05302918  0.00739894  0.0634068   0.11953946 -0.09962121  0.08428019
 -0.03468     0.0736184   0.21732257  0.11489706 -0.24645834 -0.21481484
 -0.18656415  0.7251798 ]
[ 0.3662307   0.01995241 -0.15054972  0.13721314 -0.05133539  0.05988362
 -0.00805045 -0.18721935  0.4419654   0.09088396 -0.01649154  0.43217516
  0.22475971 -0.15313026 -0.09561119 -0.16421404 -0.28505173  0.03903331
 -0.30228952  0.28573176]
[ 0.24446285 -0.07037816  0.07690129  0.03095137 -0.04069768  0.17850463
  0.03783894  0.02284084 -0.1827128  -0.14739211  0.2615315   0.4413199
 -0.1318766   0.04632474  0.04711766  0.16140789  0.15064552  0.10764048
 -0.3267103   0.23332024]
[-0.01948871  0.9390385  -0.20785621  0.07192531  0.04973017 -0.25317
  0.42471942  0.4145433   0.17658502  0.19392538  0.3005009  -0.30025536
  0.1303518  -0.5156086  -0.46151382 -0.06325925 -0.04260736  0.14440642
  0.05707806 -0.33004606]
[-0.19937441 -0.26720428  0.1375759   0.04202786 -0.01532838  0.27986756
  0.12359034 -0.14665824  0.11409777 -0.07246937  0.27134222  0.32104024
 -0.37077597  0.70300037  0.15184614  0.03142386 -0.09730054  0.08230799
 -0.18027376  0.15722859]
[-0.15951191 -0.05868591  0.05205627 -0.28930473 -0.13791314  0.23458692
  0.05516285  0.03570045  0.26042935 -0.13176341  0.5247025  -0.234143
  0.01968002  0.1464087   0.16144581 -0.04170198  0.09163026 -0.10056943
 -0.47665456 -0.0007009 ]
[ 1.6026744e-01 -7.4377134e-02  2.1394061e-01 -1.0556201e-01
 -7.8399010e-02 -2.5423167e-02 -4.3010682e-02  9.0713471e-02
 -4.2406249e-01 -9.6907131e-02  6.0921196e-02 -2.4395049e-02
 -6.6157170e-02 -1.3939819e-01 -7.1944118e-02 -5.4124966e-02
  2.1585369e-01 -4.0286721e-04  4.0094167e-01 -9.7866580e-02]
[-0.25800607 -0.07607415 -0.07973615  0.16335228  0.07535486 -0.01374764
  0.36208156  0.07298502  0.0140516  -0.12251732  0.0967978  -0.2998659
 -0.29418722 -0.0710902  -0.09317216 -0.1508509  -0.16089661  0.16056836
  0.36515608 -0.12199301]
[ 0.03568773 -0.06988599  0.40358764  0.00954416 -0.28247792  0.1557164
  0.34029242  0.3771062  -0.3613618  -0.14177637 -0.11682566 -0.13190638
 -0.3434603   0.2594807  -0.35076973  0.20351325  0.24644676 -0.07661225
 -0.34895402 -0.37449637]
[-0.40801573  0.00577299 -0.3824604  -0.11350831  0.07131012  0.15286109
 -0.07545105  0.06512915 -0.05049394 -0.20441289 -0.43015334  0.33464074
 -0.31937522 -0.01440851  0.33313382 -0.01886739  0.04452346  0.00197564
 -0.01544182 -0.24442835]
[ 0.26367542  0.39104742 -0.13134213  0.09709798 -0.14702164  0.08111801
  0.14602335 -0.377812   -0.06040822  0.01437676  0.02292849 -0.24603023
  0.18546867 -0.7039621  -0.18333365 -0.006884    0.40872395 -0.15166138
  0.60239786 -0.21796948]
[-0.04886947 -0.06779476 -0.00302327  0.03146875  0.08944867  0.03373218
 -0.08860749 -0.22422619 -0.10278708  0.13600582  0.16622907 -0.01536568
  0.295415    0.27094954  0.3541724  -0.03313276  0.16022322 -0.10343082
 -0.04327145  0.1663502 ]
[-0.03779026 -0.40538508  0.15400992  0.1245927   0.05289641  0.2277691
  0.18873565  0.29382753  0.18531364 -0.07990474  0.1928102   0.18676177
 -0.03506156  0.17501944  0.09298999  0.27982655 -0.04832381  0.11771923
 -0.1497135   0.15564744]
[ 0.00161733  0.15575428 -0.0536329  -0.00401882 -0.01598842  0.06422949
  0.04592957 -0.13869375  0.06441604  0.01186689  0.03948116 -0.05571849
  0.18665412 -0.06260097  0.09986908 -0.24685979 -0.10911395  0.01059653
  0.20382918 -0.04181586]
[ 0.65254045 -0.35189602 -0.01128977  0.1229151   0.12316372 -0.32588866
 -0.38294232 -0.03715834  0.36082006  0.6719719   0.22228147 -0.06304961
  0.28983867  0.13350506  0.42074946 -0.26365712 -0.45019287  0.10145758
 -0.1548287   0.27202025]
[-0.40423453  0.81619275 -0.08002342  0.07493182  0.01531677  0.07131193
 -0.05431096 -0.27337065 -0.25775847 -0.32656297  0.20928635 -0.2836436
 -0.43103483 -0.1503899  -0.05489957  0.06382058  0.2552279   0.16795422
  0.3910691  -0.14763364]
layer 5 Activation
tanh
layer 6 Dense
20 1
[-0.02060436]
[-0.30357134]
[-0.00265143]
[0.02364682]
[0.02315936]
[0.02946671]
[0.01884265]
[-0.10782493]
[0.00360202]
[-0.04546577]
[-0.01556717]
[0.04534219]
[-0.07699063]
[0.0735733]
[0.04363825]
[0.00682002]
[-0.06656681]
[0.01740219]
[-0.12766746]
[-0.00123869]
[0.55728406]
