layers 7
layer 0 Dense
20 20
[ 0.22192566  0.51045847  0.23700203  0.02249216 -0.08293403  0.11443155
 -0.11897761 -0.05976437  0.02199635  0.00281333 -0.04159123  0.5066962
  0.31937584 -0.31012774  0.2747385   0.33594346 -0.22387378 -0.02959231
  0.02648557  0.44895658]
[ 0.4349452   0.25694424 -0.15227906  0.20712599 -0.2716389   0.10191245
 -0.37638864  0.23436016  0.12408531  0.13849936 -0.1245939  -0.17126948
  0.21184246 -0.22196689 -0.2609168  -0.4497932   0.07340722  0.3821464
 -0.18645698  0.13182153]
[-0.01312869  0.06936258  0.22239543  0.13651769 -0.04451492 -0.4692904
 -0.15436076  0.19796118 -0.09958644 -0.22830166 -0.03668274  0.27999333
  0.10557144 -0.1585156  -0.07645185 -0.39227533  0.03301763  0.1703339
 -0.08251265  0.06905607]
[-0.11631036  0.30085647 -0.21534492  0.03680883  0.09992879  0.08071912
  0.26624286 -0.0304742  -0.40719718 -0.14865118  0.06122079 -0.04247798
 -0.38690186  0.35230076  0.4006473   0.27036187 -0.13230427  0.2842325
 -0.06092504  0.02194684]
[ 0.06486353  0.0685816   0.27171752  0.42397428  0.20937862  0.23855273
  0.23534003 -0.13371633 -0.2310072   0.1043169   0.39607206 -0.16294791
  0.08043741  0.37908804  0.3038956  -0.27010772 -0.32508582  0.25264028
 -0.22804403  0.17849582]
[-0.05986737 -0.07691593  0.2514457  -0.15643854 -0.39170074 -0.21975699
  0.21956068  0.17478216  0.35708505  0.36022255 -0.1549181   0.2470067
  0.05307732 -0.2278715   0.47468445 -0.13371879  0.08973457 -0.04893105
  0.2853546  -0.04429289]
[-0.625346   -0.05234695  0.03780051 -0.22675918 -0.36625966 -0.31723386
  0.34358853  0.02021546  0.07826073  0.23423146  0.35156307  0.11386663
 -0.24159612 -0.3313338   0.4038857  -0.11741654  0.26970473 -0.00923856
  0.09361348  0.29014716]
[ 0.00376857  0.1396332   0.28407538 -0.478167   -0.15739688 -0.29799783
  0.03286863  0.385611   -0.13933076  0.17829055 -0.45327616 -0.39521798
  0.35834765  0.20292611  0.33443838 -0.14001414  0.29145038  0.09823713
 -0.2345162  -0.11019081]
[-0.40285024  0.19321813 -0.28900105 -0.13915211  0.2358226   0.09583551
 -0.34601203  0.07997406  0.30794236 -0.19923414  0.29103044  0.23160999
  0.25523388  0.01252052 -0.4338517  -0.16249019  0.21277584  0.04422387
 -0.05050943 -0.38900378]
[ 0.15161045 -0.1265873  -0.1821895  -0.33989346  0.48067424  0.38010645
  0.34572095  0.45739046  0.31864944 -0.19176844  0.18907535  0.31739023
  0.32211027  0.05866748 -0.3190715  -0.29275078 -0.39894396  0.00311119
  0.4137117  -0.42305776]
[-0.19081865 -0.44294667  0.30946672  0.01407936  0.8518286  -0.22335249
  0.2710009   0.05314478  0.24941102  0.22583069 -0.47732824 -0.12525782
  0.48143452 -0.21898624  0.03189451 -0.42632732 -0.29184347 -0.1249129
 -0.38431925  0.01658161]
[ 0.16232823  0.10220575  0.20888354 -0.4567465  -0.15555155  0.28272602
 -0.1700439  -0.03174093  0.16731414 -0.22909948 -0.34430575  0.6427166
  0.20397967 -0.07085582  0.2670706  -0.09079165 -0.38080537 -0.12848651
 -0.03974295  0.39510754]
[ 0.3252577   0.10574585  0.30678868 -0.06136562 -0.0480419   0.08144755
 -0.02970999 -0.1695342   0.00523864  0.25940785  0.28155974  0.15243265
  0.01440989  0.02801454 -0.170945   -0.14661731  0.01856031  0.17886744
  0.23240212  0.01925615]
[-0.43570808 -0.43768978  0.18960723 -0.06600022 -0.5452098  -0.3024543
 -0.32646832  0.12231468 -0.30354023  0.44610178  0.18190067  0.4579617
 -0.25544712 -0.10536063  0.2425513   0.54398185  0.78823537  0.40074846
 -0.32115594  0.12885171]
[-1.7457116e-01  4.7091952e-01 -6.2086022e-01  1.8854420e-01
 -3.6801577e-01 -3.8999373e-01 -1.8383951e-01  2.1459097e-01
 -3.1382623e-01 -1.8508968e-01  3.6933678e-01  2.8101453e-01
  3.7284335e-06  2.4171583e-01 -7.6377675e-02 -3.5294500e-01
 -2.9095235e-01 -1.4361611e-01  1.9239855e-01 -1.2262945e-01]
[-0.06856051  0.09737125  0.16116354  0.17723201  0.03795731 -0.2590615
 -0.10998329  0.11463483 -0.07463156  0.33688667  0.2782068   0.05540833
  0.61451095 -0.09773798 -0.04253542 -0.00284144 -0.1888108   0.30237564
 -0.23642129 -0.40147498]
[ 0.12428511 -0.461382   -0.16082023  0.45885462  0.04300791 -0.13567667
  0.43821603 -0.1265073  -0.43678677 -0.29351288  0.02455214  0.2358342
 -0.2769801   0.11943416  0.47134182  0.40997905  0.15701611 -0.10431504
  0.02594674  0.0186669 ]
[-0.18564099 -0.02144068 -0.12465454 -0.3447958   0.01916738  0.17605083
 -0.17526887  0.09141022  0.00130903 -0.44165018  0.38791904  0.08701613
  0.1437852  -0.46572787 -0.15771426  0.15864576  0.04594943  0.05335189
 -0.11947489 -0.21585312]
[ 0.16528395 -0.32621655 -0.1890736  -0.12165539 -0.36272556 -0.06346013
 -0.19376343 -0.29356208 -0.07003553 -0.36275798  0.01647083  0.20853281
  0.17885152  0.04179254 -0.0624555  -0.17251493 -0.16051851 -0.2340897
 -0.4498408  -0.03777104]
[-0.32960197 -0.20405573 -0.30600688  0.02720302  0.02596976  0.2552674
  0.02649581  0.02864397 -0.06113629 -0.37410298  0.26834136  0.00287254
 -0.13851182  0.17699143 -0.2361785  -0.41004333  0.10174591 -0.07484853
  0.02707826  0.0940048 ]
[ 0.00530426  0.15248296  0.05851058  0.04904739 -0.13970046 -0.05647027
  0.03283432 -0.06719907 -0.03218431  0.05198863  0.06196913  0.03167094
 -0.02243542  0.02892015  0.03236473  0.0457271  -0.03013515  0.03456672
  0.01890646  0.11428766]
layer 1 Activation
tanh
layer 2 Dense
20 40
[ 1.98762760e-01 -3.56615573e-01  2.83380151e-01 -1.35238901e-01
 -2.74739951e-01 -8.05223361e-02  2.03238577e-01 -2.22582802e-01
 -2.81332403e-01  1.93661094e-01  1.92761645e-01 -2.41560027e-01
  8.55917558e-02 -6.73349649e-02  2.92299628e-01  2.44447246e-01
 -1.63793355e-01  1.72467783e-01 -1.89491615e-01 -3.10807973e-01
  2.91733056e-01  2.47922610e-04  1.47627920e-01 -5.93669564e-02
 -2.27278888e-01 -6.62659854e-02  1.46903813e-01 -2.00939432e-01
  3.01626474e-01 -2.02866867e-01  1.24701075e-02  7.17832074e-02
  9.42868516e-02  2.52741635e-01  5.67887276e-02  3.41085829e-02
 -1.81462541e-02 -4.15148377e-01 -2.14418337e-01 -3.91134441e-01]
[ 2.25563064e-01  3.22477132e-01  2.67964959e-01 -1.68168187e-01
 -4.44133550e-01 -1.20207876e-01  2.95926630e-01  1.83324844e-01
  9.43108723e-02 -1.08933538e-01  1.71518505e-01  2.49650478e-01
 -3.40575933e-01 -1.05265230e-01 -1.05357163e-01 -1.21650800e-01
  1.62746146e-01  5.97207397e-02  1.77616566e-01  3.12669605e-01
  1.89961106e-01  3.00699715e-02  5.84219918e-02  4.66821752e-02
  2.21656356e-02  8.56899470e-02 -1.19692676e-01  3.73264283e-01
 -1.56116605e-01 -2.18942061e-01 -2.25323483e-01 -4.08023130e-04
  3.89688425e-02 -1.44624665e-01 -2.00438574e-01 -3.76106143e-01
  1.22989625e-01  8.27881694e-02  5.21217100e-02  1.69577345e-01]
[ 0.04466845 -0.04559916 -0.4430143  -0.11445516  0.36947277  0.39138243
 -0.0281173  -0.11493131  0.12665178  0.07486318  0.11751258  0.05762951
  0.28200608 -0.26368695 -0.03842851  0.22018299 -0.33203074  0.01380727
 -0.28994775  0.02683003  0.1834684  -0.21331649 -0.04223655  0.07455659
  0.05594061  0.4077153  -0.11574053 -0.01696411  0.19910441 -0.20137188
 -0.10354753  0.07744163  0.19743133  0.24212073  0.20524973  0.05410428
 -0.03541251 -0.19010907  0.00679177  0.3220112 ]
[-0.14335944 -0.03913062  0.298502    0.25740278 -0.09475839  0.12842521
 -0.04924593 -0.0367775   0.20064716 -0.05995205  0.06650923  0.05458174
  0.16618527  0.15922001 -0.1119922   0.14215812  0.0886179   0.16155219
  0.38492873  0.1507037   0.30959582  0.35369918 -0.02265965 -0.03521119
 -0.07688805  0.34232205  0.0441536  -0.18749735 -0.18375121  0.21455784
 -0.04752162 -0.05964129 -0.2227875   0.09226203  0.08958135 -0.15855475
  0.21086203  0.06069822  0.33843678 -0.06862041]
[ 0.06170295  0.13048008 -0.38080204  0.18414816 -0.11566749  0.14549391
 -0.21572207 -0.05628302 -0.15762943 -0.18074341 -0.12968446 -0.21761084
  0.00750632  0.05874357 -0.04160188 -0.08311689 -0.33247444 -0.04484562
 -0.00761304  0.48673826  0.2812505  -0.2751871  -0.16284756 -0.00585268
 -0.11767589  0.13204749 -0.08217559  0.25226158  0.17852795  0.07975388
 -0.08573326 -0.1904341   0.03382805  0.2615645  -0.08376557 -0.22538368
 -0.0409955   0.3064239   0.31905854  0.13540892]
[ 0.04715886  0.1034707   0.24349986  0.07236744  0.12152016 -0.08023635
  0.19799992 -0.12476622 -0.25278682 -0.03161217 -0.00162109 -0.23353124
  0.22220632 -0.0800228   0.06975794 -0.20473802  0.03815273 -0.21887843
  0.07326351  0.12820813  0.3459099   0.37091702 -0.09030376  0.10801397
  0.19506471 -0.36408454 -0.33320045  0.20550855  0.21578144  0.08175807
 -0.01847704  0.10133537 -0.08846673  0.16237643  0.11076638  0.27628365
  0.24150492  0.10940002 -0.06341118 -0.3761971 ]
[-0.31485975  0.2525477  -0.2704385   0.03908486 -0.07631893 -0.2476093
  0.2872675  -0.10235704  0.11343617 -0.03391226  0.27244428 -0.18728703
 -0.219404    0.11566982  0.17852885  0.0269024   0.24755986  0.10265617
  0.06108733  0.23673546  0.11692495 -0.08748491 -0.39574987 -0.1734753
  0.15832485  0.10523543 -0.32237312 -0.17425056  0.34950063  0.05377826
  0.03933739  0.2749645  -0.32075655  0.20928487  0.16229358  0.1324587
 -0.22021739 -0.15692975 -0.04241211  0.2315807 ]
[ 0.40343353  0.17468971  0.2991173  -0.20389459  0.13038713 -0.09046507
 -0.3274603  -0.16438672 -0.10610723 -0.37564307 -0.07323623 -0.22707248
 -0.2862846   0.07431869 -0.19764002  0.23052679  0.12232549  0.20504692
  0.00950222  0.05515     0.17168324 -0.1000719  -0.00747175 -0.13476618
 -0.02951013 -0.22591774  0.12914999  0.36798435  0.21698418 -0.00308508
 -0.09121714 -0.26589406 -0.19760182  0.24674053 -0.18409169  0.05885272
  0.1941798   0.25593838 -0.28928825 -0.19804999]
[-0.05102574  0.09759676 -0.06049664  0.15491231  0.20132236 -0.07178114
  0.24659523  0.26095474 -0.20724702  0.07918909 -0.291439    0.06717253
 -0.08872212 -0.04561422  0.15932304  0.17744836 -0.24238072  0.34273824
 -0.5087826   0.00435651 -0.23710951  0.03319496 -0.21715331  0.12951125
  0.23966357 -0.19750641 -0.04345791  0.25643066 -0.34122354 -0.11218437
 -0.22747055  0.3451564   0.2698868  -0.13557751 -0.08118956 -0.0866026
 -0.29176626  0.23607776  0.02439672 -0.23084483]
[ 0.29031786 -0.16978906 -0.4163754   0.09975808  0.2837549   0.08070241
  0.03981509 -0.07456876  0.14231212 -0.36823192  0.10169637 -0.19425918
  0.26156303  0.27181265  0.27546474  0.15518808  0.02182013  0.05106802
  0.27294356 -0.21676993  0.02779426 -0.18644898 -0.10376192 -0.05440801
  0.21234427  0.39980954  0.19576809 -0.03963912 -0.1783234   0.06844126
  0.17556892 -0.31426132 -0.02371197 -0.17082278  0.04651489  0.21967462
  0.2927204  -0.07397402  0.04431638  0.05923524]
[-0.1856965  -0.16681191  0.12436587 -0.30498102 -0.24970028  0.00779516
  0.04300816  0.28655657 -0.16826136  0.09265979 -0.09990703  0.20716313
  0.23687042  0.2998723  -0.28224564  0.22902651  0.09951458 -0.19908692
  0.34459808 -0.01967356  0.11115608 -0.02286902  0.09464002 -0.05115163
  0.24944313  0.03787583 -0.02557866  0.18716171 -0.07713293  0.02414732
  0.02639853 -0.2269843   0.02440734 -0.2029963   0.32934836 -0.01186125
 -0.21742155 -0.31228426  0.25074834 -0.24728689]
[-0.17257878 -0.34814176  0.22614872  0.3248627   0.28926438 -0.3058269
  0.26748887  0.08625712 -0.4075699  -0.14942624 -0.01744139 -0.03563962
  0.0464352   0.23809649 -0.14112157  0.20151973  0.18081649 -0.21306437
  0.16807555 -0.33454642 -0.060489   -0.11847213  0.30355832 -0.16477531
 -0.01645875 -0.30904362  0.02456337 -0.18530245  0.3889355   0.14158921
 -0.01937446 -0.15023161  0.11852957 -0.09460388 -0.1530327   0.0487539
 -0.09640448 -0.14032763  0.06613895 -0.07236796]
[ 0.20918825  0.19327772 -0.53975797 -0.04491489  0.09286994 -0.01146633
 -0.1260535   0.11297457 -0.28224644  0.23430674 -0.06666113 -0.31687868
  0.11439698 -0.17136799 -0.10699123  0.19688994 -0.11972596  0.11764622
 -0.2011259   0.3333305  -0.29572618  0.11301702 -0.20901501  0.15085317
 -0.03032708  0.02500672  0.17303537 -0.01080418 -0.20548879 -0.12236688
 -0.04379265  0.13553338 -0.25553602 -0.06921838 -0.04244404 -0.18217844
 -0.10207139 -0.05573137  0.0226429   0.0050871 ]
[-0.16249055  0.18446815  0.2703561  -0.01595435  0.20622444  0.16163291
  0.29236844  0.257238   -0.2818084  -0.2863216  -0.0689527   0.20558922
  0.02498074 -0.08359065  0.26590073 -0.16843691  0.25391635 -0.0187554
 -0.09610468 -0.2992614  -0.20739989  0.3524426  -0.11028218  0.15547936
 -0.3116596  -0.06788193 -0.04345923 -0.26729554  0.2719889   0.01788702
  0.12299934  0.22225694  0.01689128 -0.18032663 -0.25001845 -0.24612337
  0.05159738 -0.06025049  0.32968843 -0.3712966 ]
[-0.17527302 -0.30457646 -0.25459215  0.11395282 -0.02677301 -0.0707453
 -0.15662387 -0.17389607  0.2876498  -0.00398169  0.08872748  0.06495691
  0.17699143 -0.31307182 -0.08071275 -0.06832487  0.31301194  0.07165071
  0.12869084  0.14015777  0.17929594  0.32585642 -0.15826462 -0.04757822
 -0.1848577   0.34606645 -0.0811497  -0.488659    0.10106215 -0.21421504
 -0.0942564  -0.07378752 -0.30066586  0.11761976  0.06305327 -0.07620608
 -0.04463881  0.1831878   0.32549232  0.28655642]
[-0.10199783  0.10879054  0.28250226  0.26885808  0.07281268 -0.08970777
  0.09291605 -0.00428324  0.17665696 -0.06410901  0.14859088  0.19243827
  0.2908071   0.05490675 -0.24529561 -0.11576391 -0.28609836 -0.21567215
  0.1909043  -0.23798938 -0.13505328  0.0866399   0.09477987  0.07265425
  0.38021913  0.283484    0.00129943 -0.37709752  0.1395086  -0.32107446
 -0.19914119 -0.33941147  0.25282896  0.07398827 -0.16025713  0.30744684
 -0.11408515 -0.23191692  0.29230845 -0.01034752]
[ 0.07303973  0.03535765 -0.03106645 -0.40559697  0.4995321   0.01409988
 -0.07635028 -0.22160804 -0.0424231  -0.03982422  0.1935634  -0.05903304
  0.33249494  0.12666072  0.3522656   0.14667717 -0.2275854  -0.09670279
  0.3177379  -0.3612065  -0.04033447 -0.08798574  0.4921848   0.04753407
 -0.09218378  0.18391572 -0.12289359 -0.12291971  0.1903601   0.36469805
 -0.21696159  0.2645822  -0.0073648  -0.07478774  0.2767845   0.10848816
  0.07738092 -0.4092469  -0.15719949  0.2846533 ]
[ 0.00172977 -0.05879776 -0.01288582 -0.2656746   0.25057086  0.07624391
  0.22916155 -0.18369234 -0.04243693  0.1796603  -0.3294451  -0.07405532
  0.00152008 -0.11045038 -0.11731673  0.22778077 -0.27101526  0.04117852
  0.03210117 -0.2286372  -0.0978104   0.09112637  0.1143338   0.1826295
 -0.19591583  0.4848165   0.05051337 -0.13545549 -0.18524401 -0.06701066
 -0.02086494  0.18027562 -0.17210285 -0.1352409  -0.21449299 -0.06072026
  0.06670572 -0.0756568   0.18162823 -0.14640227]
[ 0.18502201 -0.16998982  0.32757357  0.44549006 -0.13396743 -0.33597577
 -0.1822298   0.09269767 -0.16746607 -0.21188436 -0.14067553 -0.0184096
  0.17835177  0.21379597  0.08883649  0.12957637  0.33842552 -0.07050595
  0.29866666  0.06572625 -0.28136024 -0.22777045 -0.07617513  0.2785794
 -0.04314751 -0.1792413   0.00255732  0.35994354  0.1058167   0.00415001
 -0.20360401  0.28062588 -0.07479481  0.02113955  0.2787791  -0.3177317
 -0.15821844 -0.04066309  0.02990384 -0.25156912]
[-0.22894709  0.09802158 -0.0908362  -0.08695933 -0.01160597 -0.2367795
  0.1352199   0.05410653 -0.24266781 -0.1287038  -0.03334638  0.18890293
  0.23869589  0.02914098  0.31475788  0.08455008 -0.07657468  0.22620256
 -0.02245559 -0.40593314  0.24173808  0.13458052 -0.02380359 -0.12627031
  0.16929363  0.32194299 -0.26569945  0.01982469 -0.15301816  0.02690665
  0.14986224 -0.37538484 -0.14241281  0.11451185  0.1463032   0.44853702
 -0.24501108  0.06902843  0.16669165 -0.13103577]
[-0.05317698 -0.02563713  0.1448042   0.08226032 -0.03693757 -0.15879521
  0.05872318  0.02435275  0.00452133  0.00798377  0.0622099   0.10603361
 -0.00290549 -0.02577238 -0.04790905 -0.00838027  0.01874135 -0.06347822
 -0.06008838  0.04849514  0.00361675  0.10631853  0.18913256  0.00633297
  0.06358872  0.02619042 -0.05430049  0.03381374  0.01191684 -0.10679968
  0.04053524  0.0490886   0.01971257  0.02105476 -0.00844867  0.04355872
 -0.00119195 -0.04579344  0.0421328  -0.00933348]
layer 3 Activation
tanh
layer 4 Dense
40 20
[ 2.68314242e-01  8.27777684e-02 -2.56816655e-01 -1.37925774e-01
  1.06934048e-01  2.37500980e-01 -1.05268694e-01 -2.48477206e-01
  1.67796642e-01  2.39337817e-01 -2.64837027e-01  1.13793775e-01
 -1.91092342e-01  3.53445202e-01 -1.66520566e-01  1.05425708e-01
  2.50706553e-01 -3.89075547e-01 -1.93377462e-04  9.51913744e-02]
[ 0.1894145   0.17317408  0.32274586 -0.16714886  0.00087542 -0.17455731
 -0.24765927 -0.22362022  0.24583702  0.2815144   0.19292647  0.0525376
  0.01733689  0.2266449  -0.21548721 -0.18158722  0.11247643 -0.19323575
  0.08930072  0.28788725]
[-0.43630654  0.11986661  0.2778211  -0.09378979  0.268756    0.26697397
  0.3796551   0.1869117  -0.226205   -0.0717547  -0.17694479 -0.11909366
 -0.23797822  0.02213324  0.19604771 -0.15970956  0.22402208  0.08662885
 -0.20511587 -0.02697195]
[-0.09991577  0.27920276  0.27336165 -0.14594425  0.24043389 -0.27459383
  0.04449995 -0.20128198 -0.35466543  0.2663262   0.23408063  0.15546134
 -0.21464571 -0.3148258  -0.06692353  0.00914199 -0.14773309  0.1774959
 -0.1998501  -0.10481653]
[ 0.40423238 -0.24469349 -0.21692999  0.26751497 -0.24163687 -0.08242612
 -0.13295472  0.14947505 -0.28814197 -0.3703981  -0.20578483  0.26602516
  0.06444578 -0.14025326 -0.2733215  -0.03704054  0.10755773  0.26703957
  0.17410173 -0.04976467]
[ 0.0814502   0.24584457 -0.25784382  0.3727956  -0.35842866 -0.18812427
 -0.30009368  0.28689733 -0.22139429  0.23147878 -0.09368718 -0.11104241
 -0.06511145  0.28827983 -0.0442959  -0.22106676 -0.0023973  -0.17641456
 -0.00180483 -0.06145117]
[-0.36314842 -0.10670382  0.08656674 -0.31072623 -0.00867137  0.23631482
  0.22990826  0.22359513 -0.09658919 -0.2858275  -0.24321392 -0.28817078
  0.24497862  0.01872303  0.03804727  0.2388284   0.08346247 -0.2743732
 -0.06004361  0.2844203 ]
[ 0.01173427  0.15721546 -0.14275353 -0.16447714  0.0980202  -0.0094547
 -0.10446528 -0.15341476 -0.28693494  0.1113617   0.09710046  0.13456202
  0.18690263 -0.03772768  0.12406355  0.00789249 -0.0588851  -0.04398124
 -0.03220649  0.10238914]
[-0.09888335 -0.03518901  0.0794668   0.21763279  0.02708797  0.20753226
 -0.0587124  -0.3366006   0.15084691  0.3281369   0.1658681   0.20713744
 -0.1978507   0.10373186  0.1929666  -0.30161557  0.10644554  0.21636616
 -0.01619531  0.19741188]
[ 0.13349667 -0.24027693  0.1826241   0.06955251  0.19809297  0.00586539
  0.2676827   0.3534451   0.04139467 -0.10583972  0.04461531 -0.01168968
 -0.12773442  0.05781439  0.22270302 -0.35059085  0.0039474  -0.08241029
  0.19311707 -0.40588075]
[-0.05517666 -0.2108001   0.04872    -0.0670778  -0.11495    -0.09428807
  0.26116738  0.009948    0.04899753 -0.35034314  0.00398509  0.251105
  0.16072938  0.00114975 -0.09097993 -0.27246124 -0.30173582  0.07511283
 -0.18072535 -0.1337229 ]
[-0.05866651 -0.18715042  0.24078143 -0.17726026  0.26452944 -0.22996758
  0.08810656  0.08036158 -0.02301783 -0.1564759  -0.0074905  -0.32602286
  0.3620185   0.1299212   0.13478045 -0.29276156 -0.0393092   0.27095482
  0.28888506  0.19819494]
[-0.0848425   0.1305621  -0.25498825  0.3074585  -0.08979733  0.20944725
  0.08119643  0.10363854  0.17011082 -0.36650497  0.02612295 -0.22995757
  0.30456546 -0.21404941 -0.08659797  0.01573978 -0.17740048  0.05009151
 -0.20063671 -0.21089989]
[-0.13214438 -0.07161223  0.25095022  0.12834905  0.02690799  0.1402262
 -0.30335048  0.02198933 -0.09460379  0.00530071  0.24259567  0.0193452
 -0.08235618  0.28892452  0.05784371  0.10108108  0.05477108  0.14769678
  0.02104855 -0.37841827]
[-0.08760262  0.17437592 -0.32752353 -0.04355545 -0.24327235  0.2727828
  0.21362986  0.03551072 -0.17492317 -0.11155015  0.14400674  0.12807854
 -0.06517379  0.30681664 -0.16760492 -0.16726007  0.07520015 -0.24134849
  0.20896876 -0.07050633]
[ 0.16068803  0.0785542  -0.40844527 -0.04306893 -0.00251567 -0.1648354
 -0.06223264  0.0232714  -0.18952122 -0.03891976 -0.03165661 -0.20051162
  0.02493583  0.25306106  0.11052454  0.07787737  0.06459178 -0.05237069
 -0.2795056  -0.00704265]
[-0.16572955 -0.26647386 -0.10266595 -0.09748437  0.29652712 -0.08945826
 -0.17415401 -0.29797462  0.12862162  0.10166813  0.02985429  0.2636004
 -0.19164406 -0.11908211  0.12844639  0.11223745  0.03906943  0.2642386
  0.15141745 -0.19705571]
[ 0.1978703  -0.17219557 -0.06619155  0.07402989 -0.275107   -0.25511107
  0.00166372  0.00141328 -0.10392145  0.34250632 -0.09993842 -0.23104754
 -0.28189087 -0.12163311 -0.23073891 -0.26898044  0.17176215 -0.10701063
 -0.17677955  0.06874845]
[ 0.02458609 -0.34519842  0.30738768 -0.17992508  0.07022496 -0.22928321
 -0.23908763 -0.15764393  0.15898202 -0.02916812  0.11300315 -0.16698886
  0.28700727  0.13864245 -0.13469231 -0.09078649 -0.21164478  0.30618754
  0.01089169  0.14909528]
[-0.2830638  -0.27134702  0.24935356 -0.07338291 -0.17325903  0.13760822
 -0.20683195 -0.17540258  0.20110682  0.16271527 -0.22548455 -0.07164807
 -0.14099437  0.11960479  0.12389368 -0.20441422  0.08354567 -0.2950251
 -0.05070949 -0.25084877]
[-0.3798274  -0.28521752  0.21307667  0.16982397 -0.23030768  0.01486727
  0.11522653  0.26703677  0.04432296 -0.13879243 -0.21695328 -0.27315003
  0.25778708 -0.41680273 -0.04991155 -0.28551695 -0.21818615 -0.22903374
  0.0209426  -0.19605654]
[-1.7068075e-01  2.4315645e-01 -2.1205249e-01  6.6530816e-02
 -1.2608430e-01 -2.8570616e-01  3.3814642e-01  6.2140442e-02
 -1.7578591e-01  8.8126427e-03 -2.3053159e-01 -1.7022176e-01
 -1.7005889e-02 -3.3662492e-01  2.7291776e-04  1.5389109e-01
  2.7880600e-01  2.7089965e-01 -4.9191959e-02  2.3649795e-01]
[ 0.33754662 -0.22447027  0.05922227  0.03667682  0.24755691  0.14465007
  0.09043791  0.11961892  0.01238178 -0.23239996  0.05187428  0.27995145
  0.12189734  0.18881531  0.26936284 -0.00553097 -0.13718978  0.2595568
 -0.30231372 -0.26281923]
[ 0.16554396 -0.2923849   0.08134223 -0.02397413  0.25942025 -0.20589125
 -0.14890762  0.14663883 -0.10325947 -0.04201393  0.2134344   0.08243287
 -0.04823255  0.2912305   0.0723407   0.123258    0.24428287 -0.14275232
 -0.04229733 -0.10942326]
[ 0.14048281 -0.12507047  0.30706862 -0.20710588 -0.01163216  0.24823545
  0.19034149  0.01566234  0.3290119   0.13422269 -0.18511216 -0.04233197
  0.030854   -0.207957    0.21610138 -0.03619491  0.1694689   0.02896423
  0.02873477  0.17867127]
[ 0.2483649   0.06998228  0.1519306   0.30136648 -0.28898168  0.21087852
 -0.39225963  0.0569335   0.30238813 -0.32117367  0.2225809  -0.30528495
  0.22838464  0.10271499 -0.10144641 -0.2754966  -0.21801925  0.20505664
 -0.21351461  0.12696089]
[ 0.07577302 -0.24338385 -0.20426843  0.23726323 -0.17022723  0.33642206
  0.00387665 -0.03099585  0.24765848  0.14100203  0.26509508  0.00721311
 -0.03400899  0.03925485 -0.23340376 -0.13982792 -0.0867838  -0.2562346
  0.23311836  0.12758291]
[ 0.33047587 -0.3710172   0.38484877 -0.18034115 -0.07871751  0.13329597
 -0.21601962 -0.02321465  0.06530757  0.47722113 -0.28421056 -0.1488285
 -0.20920345  0.3209486  -0.09435532 -0.07433965  0.24366798 -0.22097948
  0.1485813  -0.04137774]
[-0.21397509 -0.27845868 -0.23040244 -0.24003491  0.24901836  0.0740916
  0.25609913 -0.24087393 -0.2135712  -0.09860715  0.10353662  0.00546847
 -0.25584444  0.23475318  0.14924097 -0.00154939 -0.1757753   0.23910725
  0.27480987  0.2645034 ]
[ 0.2310548   0.26484954 -0.18156686  0.26636717 -0.25218362  0.14198627
 -0.08611044 -0.2874098   0.20195985  0.07709676 -0.16574198  0.23945367
 -0.2853839  -0.26982707 -0.18414028  0.0691548   0.04757673 -0.25102824
 -0.00368741  0.1186246 ]
[-0.14907405 -0.21531183  0.002612   -0.04936044 -0.05441884 -0.2832462
  0.3211685   0.09469324  0.09329318 -0.26693377 -0.3264308   0.21018985
  0.2032511   0.1512081   0.05598288 -0.1298458   0.20314392  0.21551867
  0.1350885  -0.07408141]
[-0.11182448 -0.07708441  0.02829386  0.11300631 -0.09010143  0.15124159
  0.07253585  0.15131219 -0.16558364  0.01942166  0.02975562  0.26827243
 -0.19749938  0.20312376  0.1991363   0.25113022  0.309457    0.23262636
  0.12941894 -0.09864987]
[ 0.1992561   0.31001115  0.01085659  0.3200869   0.14495605 -0.22894831
  0.18163234  0.16875273  0.06247801  0.08949705 -0.1662014  -0.0288327
 -0.07192883 -0.12670273 -0.31014028  0.1986182   0.09461623  0.08964414
  0.03591271  0.28736374]
[-0.21801966  0.01312844  0.03596125 -0.16298214 -0.05593234  0.00521422
  0.15986325 -0.07229282  0.16392449 -0.16349487 -0.24471141 -0.13187589
 -0.29441026 -0.14194681 -0.08837321 -0.29248792 -0.00331627 -0.11653266
  0.14370789 -0.2955846 ]
[-0.01997185  0.12051383  0.00295884  0.20041148 -0.2622594   0.11674645
  0.0500368  -0.05644131 -0.07922904 -0.03527215 -0.01910768  0.16390528
  0.21611373  0.08370744 -0.10782921 -0.1115963   0.10639895 -0.24854222
 -0.17854202  0.06076696]
[ 0.15070634  0.17528196 -0.11534064  0.02392741 -0.0702641  -0.32797548
  0.3762588   0.21402214 -0.32013378 -0.1387876  -0.3013848  -0.34088776
 -0.02738919 -0.02567209 -0.16450454 -0.09662782  0.0440816   0.32145697
 -0.0841934  -0.092825  ]
[-0.05250907  0.1991258   0.15756616  0.03961434 -0.20483525 -0.193975
 -0.00183677 -0.14032334  0.08326819 -0.08404208 -0.11463272 -0.06252728
 -0.06410602  0.20565648 -0.1457466  -0.09405561  0.24036527  0.05520508
 -0.3477556   0.09012512]
[ 0.2065366   0.15734848  0.18994786 -0.29529774 -0.14958332  0.07922839
 -0.22708938 -0.24280421  0.05742056 -0.12116086 -0.29197702  0.03814981
 -0.28528243  0.1269451   0.19314346  0.23397987  0.33608764  0.11242767
 -0.18356895  0.04271995]
[-0.18988618  0.18958364  0.2778755   0.070972   -0.14778295 -0.16421299
 -0.31854993  0.03006131 -0.20516926  0.04762075 -0.23795757 -0.1925037
  0.11287844 -0.27578923 -0.23018904  0.1796142  -0.14494964  0.25078186
  0.3403567  -0.21595134]
[ 0.24025366 -0.31218717  0.14863689  0.24442065  0.17685337  0.07898048
 -0.34590977 -0.19597957  0.08852526 -0.14110461 -0.35598797  0.14797316
 -0.19738483  0.18395737  0.04037869 -0.3427698  -0.3261091   0.02152781
  0.2645184  -0.0121806 ]
[-0.0385215  -0.00702256  0.06097862 -0.0422229   0.01937843  0.01482103
  0.07008202 -0.0135754  -0.05410046 -0.01183769  0.0095258  -0.01630015
  0.00023168 -0.03739218  0.01867575  0.01378989  0.015069    0.03868745
  0.00014014  0.03646578]
layer 5 Activation
tanh
layer 6 Dense
20 1
[-0.22408886]
[0.05028575]
[-0.3526997]
[-0.39312866]
[0.343654]
[0.04586976]
[-0.41579327]
[0.42050883]
[0.1643069]
[-0.09761488]
[-0.01045885]
[0.12897615]
[-0.3656823]
[-0.19620034]
[-0.17419581]
[-0.3355597]
[0.11805996]
[0.26811942]
[-0.03202684]
[-0.00210731]
[0.0185365]
