layers 7
layer 0 Dense
24 20
[-1.0162522   1.4541097  -0.33679357  0.69086015  0.61800724 -1.3624262
  0.84512126 -0.24624367 -0.42167208  0.6852665   0.16068235 -1.1234903
  0.09169106 -0.6263185  -0.62242633 -0.7067829   0.5309     -0.40790662
 -0.78368974  0.984235  ]
[-0.402767    0.3853695  -0.36912203  0.47279543  0.34983027 -0.09960359
  0.40969777 -0.9039413   0.50614417 -0.41198346  0.07174141 -0.13557263
 -0.44791853 -0.27262825 -0.52920973 -0.08389542  0.8848322  -0.59195554
  0.03789897  0.07298345]
[-0.7368815  -0.11612726 -0.40728942  0.0511783   0.47003236 -0.24670404
 -0.12084986 -0.90614235  0.4985991  -0.7596059   0.21289477 -0.585919
 -0.3278855  -0.64988184 -0.90408057 -0.3552452   0.36717212 -0.7646749
 -0.0688278   0.46281606]
[-0.2664691   1.0682144   0.01465866  0.98126996  0.59617865 -0.6591554
  0.77949405 -0.6294076  -0.08296433  0.5574492   0.40823108 -1.0549338
  0.14746788 -0.27068275 -0.6035324  -0.34655696  0.5218767  -0.86865634
 -0.5282467   0.69587255]
[-0.683929    1.0466876   0.25598815 -0.52064836 -0.21152896 -0.6263348
  0.18728144  0.6168291   0.01678776 -0.33007258  0.6233581  -1.1582063
  0.26313397 -0.26674947  0.17818227  0.6441147  -0.12664859  0.32907566
  0.44279963  0.62378395]
[ 0.17650935 -0.03761626  0.02367823 -0.1171274  -0.27774101  0.1091349
 -0.16311711  0.7867941  -0.2600056   0.50280106 -0.40739596  0.12508781
 -0.0043291  -0.18119049  0.10714256 -0.5490004  -0.41969383  0.200921
 -0.7435579  -0.17797212]
[-0.08814202  0.3018064   0.1329633  -0.24149808  0.05291867  0.13300867
 -0.16455697  0.52885044 -0.27173215  0.31821668 -0.3526938  -0.1999032
  0.19047353 -0.33468345  0.0263597  -0.35559264  0.06447849  0.12861405
 -0.36737663  0.01998467]
[ 1.1952477  -1.6997424   0.24920732 -0.8837775  -0.4800353   1.3771652
 -0.705502    0.4426416   0.10832311 -0.5563774  -0.76275635  1.4244732
 -0.3334615   0.5995418   0.99817914  0.19462858 -0.6948977   0.58783764
  0.76253027 -0.99463695]
[-0.11125951  0.64543796  0.32206675 -0.8870315  -0.00269009 -0.702186
 -0.45982718  0.1501723   0.2224134  -0.8420065   0.4948992  -0.25630614
  0.20673601  0.07679528  0.3871752   0.61940366 -0.49758974  0.4554078
 -0.02968785  0.7698483 ]
[ 1.4026364  -0.16247599 -0.6312104  -0.41375658  0.04993411 -0.8498572
 -0.34159407  0.23806298  0.02811671 -0.7163202   0.16303629 -0.10991133
 -0.13227649  0.24659835  0.33752847  0.6603739  -0.1134004   0.381718
  0.4859302  -0.20879553]
[-0.57878983  0.56769514  0.3054437  -0.4557644  -0.09972308 -0.23430988
 -0.37929726  0.6199448   0.8022     -0.577667    0.30593345 -0.63607675
  0.65243036  0.41401878  0.08904041  0.4510417  -0.14000423  0.11375755
 -0.39510134  0.4688627 ]
[ 1.2990564e+00 -1.9684085e+00  2.4738133e-01 -6.9766611e-01
 -6.8523914e-01  1.2194977e+00 -4.9030855e-01  1.2846266e-01
  2.2836637e-01 -1.5982727e+00 -5.0865746e-01  1.3348887e+00
  1.4057551e-01  6.2828416e-01  1.7207676e-01  2.3789267e-01
  1.1755667e-03  4.9161118e-01  4.6257356e-01 -4.3794453e-01]
[-0.46467817  0.36190453  0.05991395 -0.62021303 -0.40023527 -0.38930106
 -0.5231915   0.7153363   0.35587314 -0.35429102  0.6435702  -0.36747634
 -0.03478928  0.49740684  0.5085087   0.73283535 -0.49317285  0.29000315
  0.257679    0.02539783]
[ 0.5532392  -0.506763    0.04888119  0.08991233  0.5015803   0.66127336
 -0.01201027 -0.34548485 -0.7168935   0.5298804  -0.63639337  0.13572858
 -0.22722323  0.2478188  -0.12202945 -0.35907474  0.04047921 -0.13147575
  0.04708926 -0.40914592]
[-3.3064651   0.10751412 -0.2082738  -0.96542126  0.0072653  -2.111949
  0.297637   -0.14865674 -1.0489094   0.48083907 -0.19456454 -0.9675056
 -4.4679384  -0.666147   -0.35556468  0.07593868 -0.13027029  0.08269443
  2.765718   -5.0856094 ]
[ 1.7684364  -1.5073813  -0.233904   -0.51411515 -0.17726961  1.8176751
 -0.03772005 -0.63962704  0.5236185  -0.07392908 -1.0634427   1.3664131
 -1.2679235   0.33028394 -0.37476233 -0.32011405  0.1006726   0.02432077
  0.61864436 -1.6533707 ]
[ 0.7022902  -0.20180795  0.06798074 -0.44459918 -0.3931188  -0.10822719
 -0.691614    0.39649114  0.47566515 -0.861103    0.4614454   0.13195471
  0.26506856  0.6452159   0.48645446  0.33657587 -0.5148324   0.63329434
  0.5239108   0.31630626]
[-0.91700125  0.35758847  0.3979348  -0.5740886   0.02044368 -0.5500498
 -0.16897774 -0.07993005  0.3237127  -0.19410343  0.57738173 -0.21009114
  0.27083462  0.39714217  0.20745322 -0.0900597  -0.15303648  0.3204283
  0.87115544  0.10381569]
[ 1.2981492  -0.79122365 -0.39152893  0.6013627   0.2025935   0.41703737
 -0.03621872 -0.34153578  0.12816484  0.70266813 -0.74707925  0.6429051
 -0.28431824  0.05557384 -0.24628331 -0.8820307  -0.04991284 -0.4835059
 -0.35370237 -0.3796522 ]
[ 2.442283   -1.048452   -0.21647532 -0.46261752 -0.9384819   1.2697796
 -0.91067094  0.6736972   0.25581777 -0.8318451  -0.2980131   1.1311737
  0.5126734   0.6390066   0.6349988   1.0446637  -0.7206251   0.7629851
 -0.13040917  0.26106268]
[-0.55042845  0.20742644  0.2824891  -0.39747494 -0.3434222  -0.23174502
 -0.39002374  0.12653543 -0.05062081 -0.7486295   0.5947178  -0.5639666
  0.5504204   0.00223728  0.02316845  0.27993122 -0.324805    0.41121083
  0.55709314  0.14013225]
[ 0.08497094  0.52227366 -0.06951079  0.36254573 -0.22030358 -0.52362627
 -0.18415973  0.04120282  0.8586466  -0.85812676  0.47067168 -0.48514596
  1.4275715   0.5050816   0.33120093  0.3586535   0.05749547  0.56721556
 -1.1867105   0.9389526 ]
[-0.81215626  0.6851921   0.13784108  0.08148591 -0.3350102  -0.20271063
 -0.11731169  0.29873917  0.7904893  -0.8625999   0.6198918  -0.6919589
  1.2737414   0.22560753  0.00407128 -0.13538937 -0.17227761  0.40941346
 -0.8597636   2.1600375 ]
[ 0.13879053  0.14359114  0.42216066 -0.4579888   0.00691485 -0.30515012
 -0.24998884  0.16422264  0.29065102 -0.18123853  0.4515222  -0.17707361
  0.43617442  0.21804652  0.22654916  0.2947935  -0.49608567  0.6589167
  0.48758185  0.5460621 ]
[-0.41626656  0.48017433 -0.08618297  0.8072562   0.34593928 -0.42582878
  0.67110425 -0.40235844 -0.25861683  0.7293588   0.01361968 -0.36314952
 -0.11935253 -0.45134896 -0.497805   -0.50582695  0.6340403  -0.5333405
 -0.51310813  0.11889558]
layer 1 Activation
tanh
layer 2 Dense
20 40
[ 1.4783647   0.3284148  -0.33408973  0.6915629   1.6713241  -0.51180387
  1.2695771  -1.4006693  -0.40860277  1.0574206   0.0352614  -0.10352007
  0.80237067  0.09044276 -0.07039771 -1.5457172   0.49201903  1.5596837
  0.8343401  -0.7470618   0.78819984 -1.1948049   0.8137378   1.2912987
  1.0909438  -0.00200738 -0.64317423  1.2480398  -0.9587099   0.21792324
  1.4358203   0.43685704 -0.09444781  0.2957858   0.14000905 -1.5433996
  0.23001048 -0.07831208  1.0920109  -0.64633113]
[-1.7164191   0.35309783 -0.21395467 -0.2768157  -2.08519     0.11982267
 -1.3546991   2.0107832   0.7413604  -1.6366658   0.02289386  0.1632741
 -2.0426314  -0.07082213 -0.22834052  2.2053068  -0.6997547  -2.3885705
 -1.5055283   0.9584912  -1.1656755   0.5990162  -0.03567887 -1.3254616
 -1.8141547  -0.09662621  1.4265168  -2.229145    0.84734255 -0.53491646
 -2.0165129   0.15428473 -0.01047609  0.14659643 -0.21966219  2.6169858
 -0.6752941  -0.11637893 -1.3283631   0.6993552 ]
[ 0.06115947  0.26310876  0.3007454  -0.99518925 -0.1095612   0.02767602
 -0.4032845   0.34928235  0.5277957   0.19553292  0.14930844 -0.04441832
 -0.30573615 -0.31581596  0.18738137 -0.01355398 -0.3274908   0.01317948
 -0.3532138  -0.57569534  0.43547425  0.48454383  0.40236157 -0.22646748
 -0.04231216 -0.22075383 -0.18181081 -0.06214115 -0.31247342 -0.17206693
  0.3343755   0.54644704 -0.56543994  0.14490677 -0.8141642  -0.518227
 -0.22217385  0.07266405 -0.08760221 -0.40902802]
[-0.39642644  0.12715423  0.6769936  -0.85987276 -0.4098811  -0.75840086
 -0.1399465   0.3946675   0.27979264  0.19356857 -0.13357691 -0.14015462
 -0.750045    0.10584846  0.01769056  0.10806266 -0.2470013  -0.15732491
 -0.31841975  0.3915347  -0.15471373  0.39344522  0.32815892 -0.24233596
 -0.02396269  0.25047064  0.64919204  0.04550394  0.0700984   0.7509597
 -0.14235677  0.97101605 -0.27203315  0.27557525  0.2939842   0.40448442
 -0.03934931  0.04390792  0.05887235  0.06446686]
[-0.02681244  0.32945934  0.5593753  -0.60486865 -0.16638094 -0.42101952
 -0.32197937  0.61639225  0.65505546 -0.4224525   0.08368367 -0.09599105
 -0.14184229  0.19509745  0.27415982  0.290491   -0.53010833 -0.3391377
 -0.0453246   0.31667975 -0.01308593  0.7068558   0.04816958 -0.12994552
 -0.3041539   0.50614405 -0.32036507 -0.05253351  0.81525165  0.5055022
 -0.14432915  0.63252497 -0.08255202  0.05020243  0.2721147   0.27418628
  0.16040166 -0.21949422  0.16038045  0.26865712]
[ 1.0584733   0.12946944 -0.19402954  0.08313105  0.95188296 -0.48479632
  0.44584543 -0.8114912  -0.01529598  0.5780604   0.21433973  0.07277943
  0.26967698 -0.01885746  0.02074918 -0.53950375  0.00428948  0.86780244
  0.5943439  -0.6335169   0.66976964 -0.00504756  0.35443932  0.48703688
  0.25092736  0.01183458 -0.70111275  0.70736724 -0.7491184   0.36626557
  0.7634558   0.16824347  0.03967545  0.24480951 -0.09883215 -0.827629
 -0.17999823  0.26529709  0.44490632 -0.47013342]
[ 0.06659467  0.9620286  -0.01315107 -0.46706554 -0.17325129  0.42844427
  0.25890353  0.28359348  0.5618134  -0.5686132   1.0635529   0.6711437
 -0.3072539  -1.0459826  -1.4241867   0.08578048  0.01014391 -0.01530888
  0.50183094 -0.18535016  0.22300872  0.24805157  0.3757167  -0.444776
 -0.47000036 -0.2973833  -0.44766018 -0.0615828   0.4038563  -0.9117795
 -0.09529768  0.19447151 -0.37812644  1.1090486   0.06704012 -0.126245
 -1.0936627   0.9166531  -0.2626028   0.52274984]
[ 0.18961598 -0.21844366 -0.63253176  0.78833926  0.08320162  0.5671255
 -0.04383082 -0.07773814 -0.87837166  0.0382775  -0.07610675 -0.3084336
 -0.19835056  0.4335083   0.01663876 -0.16812031  0.81109196  0.08647615
  0.51556325  0.16492492  0.30575964 -0.70774055  0.31743023  0.5501209
  0.1772413  -0.5362469  -0.33274364  0.2778891  -0.48391503 -0.8919733
  0.41639292 -0.6173423   0.18092161 -0.27323964 -0.1524333   0.02019539
  0.05060402 -0.32257003 -0.19182743 -0.42486107]
[-0.1985062   0.29144153 -0.74955153  0.47234952  0.11390035  0.70301574
 -0.21006314 -0.45656776 -0.40952078 -0.44630772  0.26395804 -0.22881559
  0.3357409  -0.15061423 -0.42172396 -0.34708697  0.8183358   0.12371439
  0.11952256 -0.74125093  0.10015213 -0.6010194   0.22099897  0.2626645
  0.2798357  -0.07935669  0.04414837  0.10706048 -0.4105588  -0.90163517
  0.07935297 -0.5297126   0.03369048  0.4907609   0.03807155  0.21674044
  0.11397088 -0.03101934  0.14768423 -0.2988698 ]
[ 0.01339638 -0.16484463  0.82729214 -0.80475503 -0.14659898 -0.97632635
  0.03051398  0.23245001  0.6697336  -0.04389236 -0.37900275  0.07627172
 -0.5144043   0.3488268   0.18142924  0.49652788 -0.49614823 -0.2397665
 -0.6819746   0.39639494 -0.1413354   0.8397425  -0.23339449 -0.35263145
 -0.20411155  0.63773465  0.04283801 -0.52267605  0.19729397  1.0963436
 -0.28702903  0.67126673 -0.18287545 -0.31347838  0.37456763  0.23632215
  0.13752815 -0.3151036   0.12175486  0.13963495]
[ 0.27929837  0.0088426  -0.57826716  0.08049867  0.2786248   0.4445992
 -0.35723555 -0.10324063 -0.5295015  -0.14568488  0.4319328  -0.03079834
  0.4233702  -0.2961102  -0.22991335 -0.24584746  0.5401082   0.016836
  0.7026527  -0.01132123  0.22978263 -0.812098   -0.08104986  0.20027678
  0.14852202 -0.10604675 -0.6936194   0.21716566  0.03555148 -0.43599105
 -0.0884041  -0.5736762   0.08088239  0.36846638 -0.24270327 -0.20644625
  0.20967789  0.1787419  -0.04568787 -0.05214638]
[ 1.0513337  -0.11885584  0.1334183   0.5171268   1.0730412  -0.31347978
  1.0460548  -0.7434628  -0.29667807  0.61090076  0.2167034  -0.4228902
  1.2456818  -0.25507194 -0.13569318 -1.1843231   0.22656003  0.9438904
  0.7890244  -0.97805804  0.77490675 -0.11837921  0.15587932  0.71441984
  0.4048631   0.03540682 -0.6689334   1.0094644  -0.6642424   0.60323083
  0.96585417  0.09386016  0.08108727 -0.04911092 -0.01593258 -1.1833682
  0.26930547  0.19471979  0.26908413 -0.04627241]
[-0.54579043 -0.0215828  -0.27946034  0.04734049 -0.52881676 -0.59155583
 -0.60677266  0.12373184  0.05375266 -0.38706267 -0.4311473  -0.12858999
 -0.82192993  0.17909311  0.510535    0.19754097  0.07957274 -0.36407316
 -0.41451904  0.04014913 -0.7268388  -0.5136956   0.29546395 -0.41126388
 -0.03701835 -0.11655828  0.833621   -0.41802016  0.1705148   0.09903161
 -0.5002541   0.59596527  0.03163069 -0.3574642   0.90642154  0.32683015
  0.4666387  -0.4561692  -0.46014494  0.02596322]
[ 0.11043303 -0.06271946 -0.09036606 -0.47699356 -0.09729914 -0.09949408
 -0.49853364  0.50188756  0.83179915  0.20775585 -0.01798733 -0.06100986
 -0.28678182 -0.03463432 -0.19074976 -0.15347214 -0.72992355  0.12187932
 -0.10659862 -0.32733622 -0.06980832  0.27746618  0.02325647 -0.32811177
 -0.35980025 -0.32303604  0.04481946 -0.09360965 -0.5937744   0.00917882
  0.22297338  0.04806526 -0.15032722 -0.16434444 -0.61740136 -0.24888122
 -0.5582968   0.24342574 -0.48346463 -0.15947975]
[-0.10051174 -0.8427968   0.19214632  0.11699301  0.23783785  0.0811384
 -0.01407199 -0.21362823 -0.56799704  0.32105306 -0.7623851  -0.5771738
 -0.12008018  1.0947108   1.2944438   0.02738895  0.16670057 -0.05873413
 -0.26164085  0.02878255  0.09917885 -0.44641593 -0.56570303  0.42204553
  0.20517217  0.5096041   0.1623013  -0.25973958 -0.4755502   0.11507583
  0.01170548 -0.5689026   0.45536348 -0.9463113  -0.00593822  0.00813353
  0.7821102  -0.84025633  0.19092812 -0.75067294]
[ 0.27482715 -0.22985126 -0.16708769  0.39707202  0.35955295  0.18533367
  0.39211124 -0.04185795 -0.5132508   0.00405338 -0.5045294  -0.2825357
  0.2610594   0.37731713  0.51846814 -0.24422309  0.3897086   0.38745806
  0.71347064  0.25072244  0.15895307 -0.2221607  -0.27993256  0.5125798
  0.74009407 -0.08911703 -0.44047913  0.394203   -0.5347667   0.13861859
  0.19645897 -0.47792396  0.33477056 -0.3213578  -0.24182713 -0.2999095
  0.5404185  -0.50359493  0.30540824 -0.43036655]
[-0.12113895  0.2764498  -0.24305181 -0.9733353  -0.55453306 -0.14871135
 -0.68159777  0.7663274   0.7248362   0.3334811   0.46808714  0.5241255
 -0.3300573  -0.30853912 -0.7023146  -0.0359211  -0.5901742  -0.42805356
 -0.4748689  -0.19777462 -0.21060513  0.4633228  -0.02882793 -0.6760575
 -1.1132848  -0.25730222  0.02099429 -0.47682318  0.15760925  0.1988262
 -0.615096    0.32780293 -1.0161926   0.1889574  -0.19019753  0.55480903
 -0.70954305  0.6628929  -0.25258365  0.01279547]
[ 1.0817918  -0.34820428 -0.6379554   0.66451514  0.7675185   0.7824972
  0.31413427 -0.74109507 -0.69574064  1.2181827  -0.07931674 -0.5761336
  0.17042758  0.1827455  -0.11157539 -0.6668246   0.82377636  0.989182
  0.5849589   0.05031566  0.59658074 -0.4678356  -0.17076153  0.97006845
  1.0939182  -0.4468393  -0.39874953  0.75135493 -1.1672102  -0.4288344
  0.5321292  -1.2298487   0.41752058 -0.16806765 -0.8970235  -0.25287935
  0.51731926 -0.21682139  0.6709977  -0.63482314]
[ 0.48987207  0.16349445  0.33911023 -0.15536804  0.36167607  0.766902
 -0.23796469  0.30604142  0.0631619   0.15234363 -0.15322429  0.15965354
  0.21978684  0.01992042 -0.18802717  0.00110113 -0.35190836  0.32393506
  0.3068437  -0.42125446  0.36405155  0.4501998  -0.76321375 -0.17624862
  0.14925762 -0.59406096 -0.8786686   0.29815373 -0.14254294 -0.6102209
  0.48485675 -0.41248903  0.05627716  0.1389452  -1.0159032  -0.5325284
 -0.05457605  0.2694695   0.0233148   0.19550216]
[-0.96800274  0.01021842  0.11633991 -0.0100798  -1.1542821  -0.02434309
 -0.3201222   0.70286226  0.29403114 -0.5447934  -0.34958267  0.12924504
 -0.97662324  0.16061768  0.1739289   0.91962737 -0.433984   -1.022029
 -0.41866523  0.5757015  -1.1626238  -0.6073659   0.17643559 -0.748552
 -0.73678946  0.3558041   1.542057   -0.8766988   0.36840227  0.89198565
 -1.064805    0.6023153  -0.20773263 -0.18964987  0.9329183   0.9765316
  0.00455676 -0.26873228 -0.7583082   0.5309792 ]
[ 0.17462596  0.4194663  -0.09900768 -0.33498082 -0.05173322  0.22400802
  0.1590531   0.17473543  0.38530436 -0.22597566  0.6284677   0.189678
 -0.18545152 -0.5608645  -0.65845716 -0.00246685 -0.09925305 -0.02068636
  0.20652075 -0.32772344  0.17549752  0.25943667  0.33696833 -0.2999272
 -0.3292042  -0.14785048 -0.36917993  0.11401401  0.15351602 -0.11565961
  0.17161903  0.35310882 -0.18281959  0.5214478  -0.10123945  0.05116992
 -0.8004809   0.53158396 -0.05988212  0.3475923 ]
layer 3 Activation
tanh
layer 4 Dense
40 20
[-0.06148193  0.22046195 -0.16122763 -0.93329334  0.22150265  0.44261548
 -0.36123362  0.78273207 -0.12250952  0.43462476  0.3373679   1.5024948
  0.26798132  0.24160129  0.74348205  0.5975969   0.3627331   0.06236816
 -0.19115348 -0.8061368 ]
[ 0.36593914 -0.41572043  0.34338054  0.13194597  0.5236325   0.63907176
  0.08968776 -0.07894664 -0.4343584  -0.44219208 -0.46086413  0.27026924
  0.7266144   0.75966644 -0.02978871 -0.17028199  0.9413192  -0.6823015
 -0.39217177  0.02012225]
[-0.10057309  0.12674831 -0.13096213 -0.6483906  -0.08932494  0.21574576
  0.00229156  0.9235996  -0.05544138  0.01620248  0.15729848 -0.23353277
 -0.49033463  0.12958126  0.56259096  0.34692374 -0.05062944  0.27888018
  0.16705108 -0.43519184]
[ 0.10529908  0.8534154   0.08471908  0.8742123  -0.16099036 -0.10981119
  0.54000264 -0.8388819  -0.11270329  1.0157048   0.7852378  -0.01100023
 -0.15836127 -0.14918709 -0.20293586 -0.35160625 -0.23122846  0.36738774
 -0.34670705 -0.07867805]
[-0.32530883  0.5749343   0.02882885 -1.4320529   0.37201726  0.11269478
 -1.4635814   1.53754    -0.10094619 -0.18378942 -0.31015766  1.2844563
  0.15271379  0.19261539  0.88736004  0.42802492  0.20571999  0.00854937
 -0.01426873 -0.9999669 ]
[-0.19581003 -0.498325    0.18674506  0.2096943  -0.07812194  0.29239604
  0.02632818 -0.6561793  -0.23801558 -0.11861311 -0.11722335  0.33589795
  0.45206338  0.1833946  -0.31648424 -0.47496128  0.11816379 -0.46850938
  0.04405053  0.5651748 ]
[ 0.19808248  0.7432019  -0.09375449  0.04577306 -0.08731164 -0.07701056
  0.32257393  0.706725    0.02443895  0.4828571   0.5423289  -0.19422954
 -0.06875084 -0.20965269  0.20038183  0.24877298 -0.31697923 -0.26027235
 -0.01315502 -0.33890054]
[ 0.6253333  -0.9647804  -0.11872843  0.37253964 -0.08587543  0.09709045
  0.65180665 -1.1293666   0.15997118 -0.66943413 -0.7000742  -0.5569784
  0.3691333  -0.24833809 -0.39438906 -0.71450186  0.02748084 -0.42216793
  0.0277507   0.30470935]
[ 0.5244637  -1.3233775   0.52901405 -0.06922141 -0.13817944  0.17910746
 -0.20460376 -0.3727729   0.01780505 -0.95167434 -0.89388037 -0.10120571
  0.4182697   0.24559174  0.28399548  0.24542436  0.42675352 -0.5048901
 -0.04597655 -0.39122242]
[-0.08308879 -0.15628758 -0.49999228 -0.961258   -0.13411686 -0.37589982
 -1.0109813   0.46003184  0.11731893 -0.09807041  0.58767503  0.11725414
  0.16893364  0.10707348  0.49157265  0.5220319   0.50228745 -0.19583687
  0.35879424 -0.20984986]
[ 0.7428651  -0.35437515  0.68799907 -0.02043572  0.05089812  0.5612855
  0.13377403 -0.36624828 -0.63831663 -0.46164942 -0.23827869  0.49705428
  0.6546723   0.35438496  0.06606079 -0.40089616  0.64619875 -0.83122575
 -0.86103463 -0.09857837]
[ 0.5961632  -0.8066276   0.6725756   0.0065631   0.4261258   0.43090364
 -0.46946445 -0.4233387  -0.81575984 -0.9395807  -0.73429894  0.11342055
  0.6742658   1.0542377  -0.72067803 -0.26556316  0.31365988 -0.77507687
 -0.54090375  0.19076169]
[ 0.59413433  0.17165709 -0.36295906 -0.4799278  -0.33115757  0.46073446
 -0.12594296  0.6125856  -0.22359237  0.28739956  0.14218019  0.55714273
  0.24339479  0.11330774  0.8066818   0.45916006  0.1996401  -0.35467994
 -0.05900462 -0.41319627]
[-0.75149286  0.63525724 -0.38046682 -0.1006752  -0.39970565 -0.48401007
 -0.14172703  0.18235178  0.2825378   0.35412648  0.2505139  -0.11024961
 -0.8781708  -0.34169626  0.01473215  0.33424804 -0.6222822   0.40402532
  0.634418   -0.00288866]
[-0.347718    0.5315635  -0.27822503 -0.29019058 -0.5904661  -0.5864692
 -0.01401849  0.28086686  0.90367824  0.19286215  0.4310996  -0.5193494
 -0.54914606 -0.61224836  0.15757763  0.36754742 -0.08311123  0.45391795
  0.93501234 -0.00787577]
[ 0.55296147 -0.34657007  0.3569505   1.1098975  -0.40090334  0.2927911
  1.3772031  -0.7889378   0.31352702 -0.13501845  0.37661585 -1.2396654
  0.1367582  -0.1962919  -0.5757061  -0.5494329   0.24990368  0.21176372
 -0.13548602  0.717148  ]
[-0.36134422  1.384327   -0.40756905  0.36733022 -0.01935964  0.03460941
  0.18492976  0.31464672  0.03995394  1.147479    0.7106689   0.30500495
 -0.66058344  0.1945039  -0.4931353  -0.27846807 -0.45993933  0.6136324
 -0.05511678  0.09128658]
[-0.7995954   1.0631583   0.05520324 -1.62292     0.07331126 -0.08347316
 -1.6010683   1.2732494  -0.05154069 -0.04943137 -0.21300009  1.4892483
  0.13643241  0.2684213   0.8459138   0.92733395 -0.21754761 -0.02013784
 -0.21119292 -1.3033541 ]
[ 0.06360182  0.43432078 -0.2229921   0.10363378 -0.04265059  0.50040436
 -0.16410016  0.3612707  -0.23879701  0.3018117   0.7538989   0.3678913
 -0.13018453 -0.3290891   0.5424577   0.01564888  0.09224144 -0.03908295
 -0.10681164 -0.6094001 ]
[-0.00894001  0.86876625 -0.20717704  0.8458818  -0.10152327  0.04377568
  0.95510006 -0.2646502   0.107971   -0.21559751 -0.39032686 -0.02267932
 -0.27580553 -0.23323038 -0.35973123  0.1338563  -0.21390998  0.04318741
 -0.06384809  0.0756983 ]
[-3.4837046e-04 -4.8964188e-01  2.3478514e-02 -3.7087142e-01
  2.4277164e-01 -1.5299184e-02 -8.8730949e-01 -9.5895998e-02
 -5.8834579e-02 -6.1330024e-02 -3.3823836e-01  3.7087175e-01
  3.2371226e-01  2.1774298e-01  6.4817804e-01  5.7661468e-01
  2.4211226e-01 -1.9943199e-01 -3.7456614e-01 -5.0664210e-01]
[ 0.8813093  -0.64113027  0.5358609  -0.46585676  0.1964533   0.5386965
  0.48746765  0.23480251 -0.02675245  0.07506875  0.32306013 -0.48622423
  0.13304088 -0.07204708  0.75430185  0.57171106  0.5130887   0.03030123
  0.07744352 -0.55410904]
[ 0.7796381   0.74489444  0.5113519   0.3766173   0.1238756   0.48893306
  0.62578267  0.18849723 -0.01896666  0.3867504   0.25157955 -0.4729149
  0.05682142 -0.04851114  0.425919    0.26797208  0.03763272 -0.02121225
 -0.00958253 -0.12479176]
[ 0.23501326  1.5122238  -0.4445558  -0.34536797 -0.10667071 -0.12082816
  0.3508114   1.616848    0.31931868  0.8497941   0.55319685  0.56890213
 -0.464073   -0.09345617  0.19242144  0.21953914 -0.35289568  0.2133561
  0.12816265 -0.2476988 ]
[-0.15016231  1.0829223   0.03310423  0.35830152 -0.29541636  0.26081282
  0.4939481   1.2408254   0.17996837  1.1142776   0.51305056  0.4290299
 -0.00216417 -0.07243672  0.4811643   0.38918126 -0.19437455  0.30310106
  0.05047748 -0.7515296 ]
[-0.5731343   0.6277302  -0.54046774 -0.03167309  0.04504237 -0.33632156
 -0.3916407   0.20111075  0.40602076  0.22423472  0.10600302 -0.5984028
 -0.5580454  -0.35840797  0.07030331  0.43018013 -0.7761637   0.64727616
  0.28367767  0.1268515 ]
[-0.08071042  0.0375166  -0.32285866  0.75101286  0.08091313 -0.51762253
  0.67106706 -0.8102912  -0.02020366  0.30117428  0.35157067 -0.8225792
  0.04240281  0.12992905 -0.82316786 -0.33231845 -0.24085575  0.36107847
  0.05229459  0.34792688]
[-0.27013218  0.3818951  -0.33852676 -0.39396265  0.23431645  0.42602268
 -0.7790438   1.038758   -0.11626901  0.5296896   0.61935455  1.0114267
 -0.0988306  -0.19300345  0.7503939   0.5202854   0.14156064 -0.01297394
 -0.30218273 -0.5537558 ]
[ 0.6107908   0.19498265  0.4911215   0.22181584  0.20756464  0.7134953
  0.9602656  -0.6432607  -0.2492842  -0.47871622  0.24280806 -0.53499097
  0.1260774   0.32896215 -0.22009462 -0.05744109  0.11312259 -0.41274676
 -0.25521466 -0.07502259]
[ 0.21560493  0.18799223  0.07780542  0.07597231 -0.20476957 -0.41281646
  0.25482425  0.76335156  0.365445   -0.08625302  0.13624838 -0.17788154
 -0.35023683 -0.08783974  0.4301813   0.28233176  0.1296786   0.12923767
  0.6008217  -0.32430378]
[-0.584184    0.18030843  0.24082795 -1.6374016   0.13667637 -0.01781085
 -1.2031156   1.1763159  -0.28631043  0.49767497  0.49711382  1.0007715
  0.30793095 -0.06570397  0.6253891   0.57208264  0.05635537 -0.0806542
  0.07433636 -0.94501066]
[ 0.06505737  0.13766648 -0.03044766 -0.4203734   0.08621854  0.05324649
 -0.48204502  1.1056633  -0.17696731  0.3629818  -0.01705514 -0.69289696
 -0.2378439  -0.15446018  0.3323904   0.3372967  -0.18010217  0.25198936
 -0.07284116 -0.505403  ]
[-0.48213345  0.20930237 -0.46612626  0.4587664  -0.5643351   0.0632036
  0.58696806  0.5542628   0.08718039  0.8899625   0.6350388  -0.2808713
 -0.51566917 -0.64920634  0.463053    0.27025425 -0.54086185  0.74283475
  0.10070733 -0.09701125]
[ 0.4149601  -0.45128775  0.96748143  0.03502824  0.6114103   0.803694
 -0.2573135  -0.28610638 -0.74521977 -0.1993888  -0.74526113  0.29958275
  0.58813566  0.78553396 -0.4696183  -0.37207913  0.24803185 -0.5771167
 -0.66582566 -0.28828487]
[ 0.4486243   0.6506024   0.4847121   0.27350754  0.5407196   0.12457792
 -0.03867385  0.17117782 -0.28245506  0.3875439   0.30734843 -0.278761
 -0.14552133  0.00635686 -0.68106425  0.15033233 -0.2574366   0.25060493
 -0.34668884 -0.15552358]
[ 0.5922066  -0.37682545  0.3477931   1.219661   -0.15748747 -0.01485278
  1.7632636  -0.79494816 -0.03361362 -0.49554965  0.23494619 -1.6536422
  0.08132631 -0.31688422 -0.7801788  -0.5934261   0.15794612 -0.05391993
  0.11744728  0.72223574]
[-0.6268669   0.9677226  -0.395217   -0.16855621 -0.36516356 -0.08840609
  0.06061513  0.43239164  0.49638152  0.5241991   0.62030184  0.09913956
 -0.4096334  -0.43648455 -0.06072439  0.1687604  -0.86726916  0.37008014
  0.38761714 -0.2899072 ]
[ 0.52164096 -0.249353    0.42711782  0.01346597  0.41396993  0.64099765
 -0.04307096 -0.20701316 -0.48958397 -0.45248082 -0.13304856  0.44897774
  0.3480927   0.63027674  0.04984791  0.06689915  0.4449467  -0.36426148
 -0.7157837   0.05979542]
[ 0.4497809   0.33609772  0.2927187   0.54906654 -0.3549152   0.47427922
  0.51137316  0.7957235   0.15614833  0.60187805  0.40144747 -0.16159189
  0.23586439  0.10896259  0.11535949  0.48809892  0.03053312  0.0456963
 -0.27124703 -0.4793465 ]
[ 0.5194262  -0.96108496  0.6466293   0.05719574  0.49414405  0.8458707
 -0.14868027 -0.34262162 -0.8474681  -0.5898093  -0.78326845  0.0194677
  0.55736893  0.6813981  -0.1422525  -0.20632768  0.33402362 -0.36950272
 -0.49346387  0.30949792]
[ 0.32502928 -0.6092136   0.29767022 -0.05573468  0.24439016  0.51866436
 -0.00355445 -0.53320765 -0.36853695 -0.37521186 -0.6075001   0.45004955
  0.62072724  0.40914157 -0.23639476  0.07801323  0.1997533  -0.3631133
 -0.48033422 -0.1722035 ]
layer 5 Activation
tanh
layer 6 Dense
20 1
[2.4307816]
[-2.4461102]
[2.5494692]
[-5.2973266]
[2.802355]
[2.6691115]
[-5.3621054]
[5.39828]
[-3.0048418]
[-2.5116768]
[-2.5452135]
[5.924512]
[2.775513]
[2.8084433]
[5.5934587]
[4.8681984]
[2.6922677]
[-2.7487953]
[-3.0203187]
[-5.5144258]
[2.9521103]
