layers 7
layer 0 Dense
20 20
[-0.2218925  -0.3565853   0.35121706 -0.0013144   0.33676806 -0.10244182
 -0.3516109  -0.1817521   0.35939568  0.24501342  0.15741728  0.14888704
 -0.34547406 -0.49053022 -0.09538592  0.15986598 -0.07775901  0.10785418
 -0.4535069  -0.15992706]
[ 0.36533722  0.3151521   0.37070093 -0.32692894 -0.17129774 -0.01491329
  0.26983324  0.2599707   0.06336895 -0.2688736  -0.02377314 -0.29515082
 -0.303165   -0.4627695   0.39107612 -0.08855876  0.36823878 -0.09674483
  0.08923174 -0.41159067]
[ 0.00305748 -0.19877261 -0.35751492 -0.15877695  0.2964477  -0.29865977
 -0.02209502  0.1386883  -0.15991911  0.0831275  -0.03369508 -0.11398168
  0.07552427  0.11767655  0.16165781 -0.11085179  0.2874048   0.17174527
  0.37490878 -0.33992043]
[ 0.26467958 -0.20255688  0.35251522  0.42398492  0.16400413  0.18218409
  0.34808853 -0.11044586  0.22860384  0.01554624  0.13947695 -0.2747025
  0.26652429 -0.36447474  0.1397509  -0.21567303  0.0269612  -0.07656616
 -0.05898742 -0.33539927]
[-0.10340953 -0.12915184  0.0148072   0.11000936 -0.07704517 -0.39973575
  0.43465838  0.24725789 -0.00696602 -0.23105909 -0.13460132 -0.16486467
 -0.40307415 -0.22836314 -0.19591066 -0.42215323  0.02310181 -0.10183544
  0.34753397 -0.03135657]
[ 0.31176826 -0.12930414 -0.02181208 -0.17750636 -0.35520193 -0.21710624
  0.21459393 -0.09607609  0.34590527 -0.186594    0.06221157  0.06705746
  0.00862604  0.13903852  0.02388103  0.07064284 -0.12219088 -0.27914828
 -0.19920474  0.31992176]
[-0.17406346 -0.01644105 -0.30636042 -0.07669247 -0.10688642  0.17615405
  0.24129009  0.11324172  0.16740796 -0.09408274  0.4290916  -0.21550834
 -0.20484148 -0.17450604 -0.28491992 -0.17376697  0.3005437   0.4240157
 -0.3794107   0.10010315]
[ 0.23591742 -0.20816073  0.28030077  0.394385    0.27378666 -0.10566103
  0.00270357  0.14414093 -0.38762698 -0.14068247 -0.04467359  0.32658926
  0.06857929  0.04311707  0.15020217  0.33567291 -0.14954695 -0.4133454
  0.33649522 -0.21381055]
[ 0.3821282  -0.42868373  0.19623312  0.27172133  0.05260964  0.01245569
  0.14795986  0.18001166  0.61710954  0.08879229  0.2620139  -0.2590354
  0.14832811 -0.29718903 -0.12446012  0.21082428  0.3393024   0.10738534
 -0.01337197 -0.1391707 ]
[-0.22116476 -0.39612192 -0.25894883  0.5228378  -0.47790995 -0.2970519
  0.20452176 -0.19419557 -0.02848358 -0.40141433  0.9125031   0.13549425
  0.3005842   0.11962747 -0.3053884   0.40828004  0.6633433  -0.70378107
 -0.29962838  0.41687995]
[-0.35245752 -0.17696229 -0.1489314  -0.16414887  0.07098933 -0.2735345
  0.06147588  0.54017115  0.2766926   0.9862346   0.23760892  0.4467697
 -0.7102895   0.1648658  -0.42977837  0.66116065 -0.0842544   0.31680304
  0.5865444   0.13823992]
[ 0.46598393  0.18534257  0.9602574   1.0008917  -0.05722517  0.25584647
 -0.03065618 -0.5625852  -0.86362153  0.5895428   1.0699158   0.2577496
  0.22790708  0.4986374   0.2823087  -0.26947466 -0.7845334   0.889452
 -0.06002785  0.27617073]
[-0.35349163 -0.37908608 -0.24607456  0.01443365 -0.15594475 -0.11340886
  0.11757598 -0.04567326 -0.08256008 -0.41617936 -0.14006065  0.3168168
  0.03686281 -0.21264952 -0.22370553  0.08328599 -0.18942323  0.17166394
  0.39661404  0.3364568 ]
[ 0.09650744 -0.03617566  0.40407732  0.07498816  0.09053995  0.02046487
 -0.30523884  0.04084371  0.06589898 -0.01257097 -0.14989142 -0.41358873
  0.18525793  0.11200076  0.14403057  0.06520689 -0.24569802  0.218906
  0.0504756  -0.18063903]
[-0.12771593 -0.08825345  0.00338482  0.16553248  0.22754626  0.21018112
  0.29170975 -0.30358103  0.16225488 -0.34413517 -0.1433233   0.06987704
  0.1792583   0.13987482  0.08446606 -0.18345757  0.30188414 -0.0389509
 -0.01511676 -0.18057688]
[ 0.14326069 -0.01125507 -0.21842003  0.5169627  -0.5705449  -0.27586657
  0.02936193  0.18229435 -0.4434074  -0.05891812 -0.30590034  0.25661814
 -0.02498786  0.0759846  -0.25006083 -0.29268742 -0.090267    0.05532121
  0.18178347  0.27501187]
[ 0.18311462  0.31402355  0.5400338   0.12827413  0.100388    0.23226346
  0.28723866 -0.38931268 -0.00847706  0.18457912  0.0408192   0.02528304
 -0.1872829   0.24684356  0.12691644 -0.3792305   0.1484238  -0.1368515
 -0.1011954  -0.14569193]
[ 0.0629364   0.50745934  0.24177828 -0.06705342  0.44730824  0.2468604
  0.01654577  0.16597189 -0.14508002 -0.08722885 -0.06386171 -0.40899998
  0.23763105 -0.0204316   0.32081208  0.4486125  -0.17559427  0.40687963
 -0.18755504 -0.06879342]
[-0.1476618  -0.18731296  0.3309492   0.21598989  0.02709669  0.06795527
  0.3889453  -0.6322433   0.15155719 -0.6625097  -0.2616091   0.0973351
  0.24457176 -0.18962885 -0.06159838 -0.09354289  0.21577224 -0.1449776
 -0.34018785 -0.08311488]
[ 0.08518825  0.14990442 -0.32674176 -0.37230334  0.68623215  0.20419742
  0.3056524   0.10750206  0.47761226 -0.51415735 -0.35710415 -0.29604
 -0.4067096  -0.31852627 -0.03501937  0.50917035  0.43664816  0.005091
  0.01781361 -0.23043413]
[-0.03081441 -0.02594028  0.01151855  0.01237232  0.07443161  0.09688826
  0.04724892  0.01790696  0.09477    -0.06478369  0.07892862  0.01320487
  0.02022702 -0.11563081  0.07052654  0.00079566  0.01877186  0.14678435
 -0.00156498 -0.12081046]
layer 1 Activation
tanh
layer 2 Dense
20 40
[-0.09493499 -0.0892492   0.38073927 -0.12342563 -0.22981063  0.02375337
 -0.14287886 -0.19882226 -0.08170187 -0.17299473  0.3072697  -0.12686837
  0.1292848   0.05038795 -0.24340829  0.09505649 -0.1279969  -0.41434735
 -0.29719523  0.2117687   0.01601006  0.3611458  -0.2840019   0.09390403
  0.3121534   0.04652295 -0.01392406 -0.13335659  0.28221542 -0.05227709
 -0.0458078  -0.05138766 -0.00129421 -0.14817075  0.09932244 -0.22919354
 -0.08408216 -0.21890253  0.27361888  0.22898638]
[-0.06889314 -0.4925033   0.16018313  0.15049203  0.22820956  0.07826766
 -0.05025872 -0.2553387   0.17815548 -0.4528512   0.3725282   0.12614135
  0.01373401 -0.32668725  0.24453278 -0.46228778 -0.08301351 -0.25408694
  0.1320228   0.02400287 -0.17070206 -0.05264108  0.27114335  0.07373168
 -0.14689657 -0.0510201  -0.1204737   0.33513063  0.01649356  0.30958083
  0.28511876 -0.14155957 -0.15062463 -0.26866594  0.18874936  0.43112627
 -0.03345678  0.02908626  0.29025596  0.13457273]
[-0.11319394  0.03063174  0.1471098   0.08767398 -0.25323313 -0.06199178
  0.22340663  0.23789583  0.01985869 -0.3593587   0.52751404 -0.16565129
  0.35742226 -0.37086016 -0.02474761 -0.20043504 -0.08989234 -0.23728514
  0.24794756  0.06904843  0.1429102   0.46478173 -0.09198491  0.11443277
  0.01879723 -0.06331922  0.08124038  0.45483023  0.14768837 -0.16985469
  0.01810532 -0.05103     0.03248769 -0.01287885 -0.08107106  0.18429482
 -0.14605685 -0.33245015  0.27849743  0.03148459]
[ 0.01569568  0.33784232 -0.26122707 -0.28388336 -0.24238549 -0.00614356
 -0.07978097  0.22245547 -0.13121627 -0.26024246 -0.2869728  -0.20970052
  0.09236543  0.07724428  0.29874313 -0.15222996  0.06451921 -0.2341413
  0.20236324  0.16843882  0.29585588  0.12713172 -0.25985336 -0.04685073
  0.36784783  0.46982294  0.27562624 -0.0181263  -0.30478644 -0.25306356
 -0.07922349  0.2826776  -0.19968875 -0.33392933 -0.01266936 -0.28235766
  0.1931464  -0.36236024  0.19902733 -0.04156309]
[-3.63136470e-01 -3.17351609e-01  5.66576779e-01  1.00647330e-01
 -2.00367570e-01 -6.42779768e-02  1.84276357e-01 -3.37445557e-01
  1.09988995e-01 -6.94035515e-02  1.92973301e-01  1.16714627e-01
 -1.70849403e-03 -8.24202434e-05 -1.77281424e-02  7.15970099e-02
  2.21186355e-01  1.22389039e-02 -2.74114996e-01  6.42263144e-02
  1.30775422e-01 -3.47866789e-02  2.42168739e-01 -1.76586851e-01
 -2.93347269e-01 -4.05007541e-01 -1.51635394e-01  3.88429940e-01
  8.29742923e-02  1.38825059e-01 -4.11058590e-02  1.45596012e-01
  5.60604334e-02 -1.46791004e-02  9.60517973e-02 -3.85962814e-01
  6.63980097e-02 -2.68492401e-01  3.44737954e-02  2.00685456e-01]
[-0.32783392 -0.14107296 -0.07395892 -0.20298861 -0.09168129 -0.02366823
 -0.11266384 -0.12529518 -0.1168636  -0.42815804 -0.05602046 -0.28615734
 -0.1328062  -0.23584609  0.1175473  -0.13272743 -0.22114147 -0.09697413
 -0.16845584  0.02757312  0.13318318  0.17169318  0.05336536 -0.18671048
 -0.23949072 -0.04099211 -0.05648763  0.23090726 -0.01920696 -0.1858502
 -0.21200545  0.06319938  0.05023554 -0.17054766 -0.25715977 -0.26751253
 -0.0895092  -0.4584331   0.1519016  -0.18965533]
[ 0.17284472  0.00773402  0.32827532 -0.04245179 -0.01183807  0.29454222
 -0.32697558 -0.04235245  0.06757401  0.08852512 -0.2224099  -0.24791248
 -0.00591362 -0.10129773  0.18577696 -0.21428847 -0.14051324  0.01159666
 -0.05542892 -0.17524803 -0.08112554 -0.36073738 -0.14411096 -0.18242872
 -0.02547183 -0.20815292 -0.1644192  -0.0739408   0.15198301  0.15334365
 -0.09804495 -0.11768868 -0.23394069 -0.00504136  0.16436058  0.10737198
 -0.29663545 -0.11845676  0.01088998 -0.07117652]
[-0.29485047 -0.42338508  0.06362392  0.14071406  0.11101396  0.18520294
 -0.07746295 -0.35785314 -0.05313715  0.06676711 -0.12376912  0.19725062
 -0.39142528 -0.02893415 -0.348095    0.393421    0.04796229 -0.03010959
 -0.08433611 -0.42073834  0.09920187 -0.14649984 -0.18133351  0.21564229
  0.14604081  0.0234672   0.2315778   0.3328306   0.23961222  0.34920257
  0.60737693  0.0401946   0.29947248  0.4335649   0.01191941 -0.3602523
 -0.1434456   0.29142758  0.02570291 -0.24774571]
[-0.1379221   0.4025062   0.13648008  0.36906314 -0.13045254  0.49790025
 -0.5407837  -0.35643688 -0.19856817  0.56935763 -0.09250951  0.5971099
 -0.46084347  0.09781656 -0.6062087   0.1926817   0.03208248  0.19040619
 -0.44715288 -0.49676764 -0.0450806  -0.5655517   0.18993777 -0.30406898
 -0.86392486 -0.2891972  -0.49884653 -0.598549   -0.44372037 -0.55876213
 -0.14687277  0.15263331 -0.40739772  0.21351197  0.17744409 -0.27873784
 -0.64454114  0.46633708  0.11705103 -0.2576216 ]
[ 0.04982859 -0.42481816 -0.4535446   0.13604584 -0.37962097  0.12925653
  0.4267262   0.12333743  0.5162956  -0.28613102  0.44419158 -0.11632574
 -0.25093043  0.17841348 -0.2109518   0.3232874  -0.00975015  0.08880222
  0.3788793   0.0686682   0.1151595   0.1124755   0.2671047  -0.15400031
  0.3805315   0.36445653  0.17913468  0.31826544  0.16637649 -0.3612326
  0.08875261 -0.0171336   0.5173449   0.17693755  0.30313063  0.05409006
  0.28758916  0.19578253  0.6914838   0.15592518]
[ 0.51650864 -0.38681483 -0.30111128 -0.4937342  -0.31541297  0.16168354
 -0.00290491  0.6037777   0.21074428  0.2934301  -0.01148542 -0.16269228
  0.2707979   0.19694716  0.5584366  -0.15702267 -0.38261104 -0.13689516
 -0.06573684 -0.2349037   0.24529892 -0.11833497  0.25983644  0.10499282
  0.29544252  0.4770799   0.09641336 -0.07975501 -0.72673184 -0.2619014
 -0.06437858 -0.3561978   0.00142145  0.03722615  0.12472869  0.04597661
  0.3770222  -0.40346316  0.18971086 -0.1398989 ]
[ 0.11333145  0.02550404 -0.15303302  0.1837951   0.04129661  0.21061428
  0.32247674 -0.15241417 -0.10731103 -0.2548844   0.01972505 -0.24621814
  0.02389521 -0.16658044  0.44106954  0.38103762  0.18925574 -0.29696336
  0.2672161   0.1306789  -0.07814253  0.22961065  0.00897358  0.3721979
  0.00914148  0.2678771   0.38036555 -0.17463705  0.03745898 -0.05178984
 -0.18119478 -0.07514203 -0.18244497  0.223841    0.32829535 -0.1859048
  0.2476727   0.34300175 -0.2910064   0.35143688]
[-0.01840604  0.3279167   0.13301815  0.12256937  0.11374062  0.11933257
 -0.21369097 -0.08263446 -0.03613514 -0.33281207  0.14463668 -0.14452982
  0.16071106 -0.1667045  -0.08763116 -0.42065382 -0.15645634 -0.37086096
  0.14712776 -0.13323782 -0.06596166  0.2997736  -0.11983526 -0.10842582
  0.27394083 -0.27312773  0.05831118  0.23671299  0.01967166 -0.11087353
 -0.10924348 -0.1232731   0.03692201 -0.11041188 -0.1768537   0.32639584
 -0.06679364  0.07085107 -0.3240925   0.20757902]
[ 0.30801392 -0.3970914  -0.3541174  -0.16415875  0.44794342 -0.15711017
 -0.13350219  0.25774512 -0.00244351 -0.38034555 -0.2118363   0.06520627
  0.23790827  0.11334214 -0.18439966 -0.0415508  -0.34681576  0.06626285
 -0.07435367  0.09741426  0.3290902   0.2506468  -0.07023179 -0.05471985
  0.00845361  0.42442268  0.3078036   0.21606219  0.32956737  0.42539763
 -0.29532173 -0.28060314  0.3358018   0.0979591   0.10655809 -0.08735882
  0.28564712 -0.10275532  0.20514622 -0.02564143]
[ 0.02832874 -0.3100128  -0.01947761  0.25182244  0.30794603 -0.198909
 -0.05415349  0.0867605   0.09487052 -0.22149709  0.33207586  0.15251134
  0.2866172  -0.01244511 -0.06031208 -0.40075907 -0.17943391 -0.16007188
  0.03829593  0.23760669 -0.31752867  0.06691172 -0.26655543 -0.2091878
  0.07310376 -0.36461893 -0.16655466  0.17721161 -0.03285895  0.19086862
 -0.03998135  0.30935252 -0.1001509   0.05353826 -0.24678192 -0.01106407
  0.08805404 -0.3445585  -0.25114995 -0.16021915]
[-0.34259462  0.10106946 -0.02031848  0.32185963  0.04655217  0.29010898
  0.01676743  0.23987703  0.06636912  0.26032248  0.07082877  0.3912651
 -0.04899646  0.18917458  0.00490375  0.376532    0.2641483  -0.00698979
  0.07327599 -0.50913864 -0.2044207   0.17306842 -0.1338172  -0.12598391
  0.19687973  0.11560153 -0.15283917 -0.2501505   0.08174233  0.12435752
  0.30360144  0.21352896 -0.23885536  0.22161153 -0.1188195  -0.3742934
 -0.2695417  -0.018157    0.10198302  0.18567261]
[ 5.0282744e-03  3.2110193e-01  2.5063559e-01  1.6066001e-01
 -4.3722969e-02  2.3057066e-01 -2.6683426e-01 -6.0043503e-02
 -6.0578506e-02  4.0505019e-01 -5.7260406e-01 -2.4032821e-01
  1.5304768e-01 -3.6555226e-05  1.9989622e-01  2.0575604e-01
 -2.0335382e-01  4.3044120e-01 -1.4099964e-01 -9.5917396e-03
 -1.6177154e-01  8.5745618e-02  1.0739282e-01  1.7311974e-01
  1.1961070e-01 -1.4331171e-01  4.6464853e-02 -4.3498683e-01
  4.7304064e-02  5.8875751e-02  9.5325001e-02  2.4513514e-01
 -5.3415811e-01 -2.9344761e-01 -2.2769429e-01  5.5667952e-02
  2.2081982e-01  4.6465177e-02 -5.1622444e-01 -1.9631992e-01]
[ 0.10937408 -0.37258586 -0.26413506  0.32223007 -0.28986743 -0.11266721
 -0.2303078  -0.20211087  0.11070461 -0.2362605   0.29691875  0.095903
  0.00886182 -0.28892592 -0.01131943 -0.02233635  0.21412674 -0.20204854
 -0.1390818  -0.15336709 -0.24930622  0.11729598  0.20833498 -0.10343607
 -0.27122754  0.02333092  0.1302023   0.07871062  0.11724982 -0.2424351
  0.26358926 -0.12805101  0.33459255  0.23064433 -0.19192867 -0.33864516
  0.01525277 -0.35734272  0.40338463  0.19205998]
[ 0.03653421  0.00107692 -0.32852453  0.21731266  0.10631572 -0.2035394
 -0.04699687 -0.20348917  0.22372454  0.04876807 -0.02935947  0.36254227
 -0.2389301  -0.04930811  0.02897179  0.22146772  0.01175302 -0.01928218
  0.21798228  0.0007053   0.02028358 -0.04016108 -0.19691223 -0.01177541
  0.17754693 -0.11807496  0.05646939  0.25385815  0.25999045  0.48093733
  0.2783803  -0.27856985  0.16564038 -0.14183168  0.14557858 -0.20183511
  0.00348777  0.22373156  0.07685645 -0.17862383]
[ 0.34262532  0.0736938  -0.11082173 -0.00774944  0.05432197  0.0256293
 -0.0168507   0.30362272  0.04784331  0.05783351  0.07447319 -0.20916061
 -0.19301865  0.07171976 -0.04370213  0.12572818  0.12942606  0.0449764
 -0.01754125  0.02182285 -0.02084073 -0.1368449   0.03837536 -0.18362577
  0.26672515 -0.05146177  0.14834987  0.23195106  0.04288038  0.21480116
 -0.2097853  -0.07964499 -0.01727996 -0.02602483 -0.26648292 -0.0678303
  0.18377292  0.3475907  -0.2673523  -0.11024045]
[-0.09300506  0.01438147  0.09259593  0.03914602 -0.0185793   0.0253024
 -0.08999887 -0.08472464 -0.02410708  0.24470928 -0.03138283 -0.02682325
 -0.09866571  0.02210952 -0.14809762  0.0313561  -0.02963363  0.15945274
 -0.12362921 -0.02400003 -0.04311888 -0.16352995  0.18282017 -0.12527916
 -0.21558972 -0.01100786 -0.1580625  -0.12328121 -0.31927565 -0.35975382
 -0.23691499  0.11649204  0.00713776  0.04492956 -0.02718024 -0.05379609
 -0.22343782 -0.01559204 -0.02917691 -0.2322113 ]
layer 3 Activation
tanh
layer 4 Dense
40 20
[ 0.2632787   0.05727339 -0.14520928  0.07067401  0.03769032  0.30769604
 -0.06767373 -0.11470951 -0.03358793 -0.12704144  0.2678155   0.26222625
 -0.26409376 -0.31572637 -0.31955943  0.30191168  0.06125539 -0.16123235
 -0.02930975  0.05183109]
[-0.07280742 -0.15603574 -0.02913502 -0.14717695 -0.4050512  -0.37027994
  0.11697066 -0.19522275  0.17995849 -0.17424141 -0.35485363  0.1255235
 -0.16668709  0.34184843  0.12005284 -0.18277699 -0.3609776   0.05566569
 -0.16953257 -0.25341812]
[-0.03377084 -0.00803304  0.0753706  -0.16192083 -0.02428634 -0.25403476
 -0.3315035  -0.31370783  0.02613802  0.26962596  0.19812126 -0.01684708
  0.15404123 -0.21161701  0.12002181 -0.25896117 -0.06281231 -0.132588
 -0.07750402 -0.22255863]
[-0.13262144 -0.12551798 -0.02903168 -0.12748244  0.11225608  0.25169495
 -0.07322074  0.31976438 -0.07643896  0.18400131 -0.00971126 -0.16098258
 -0.10429674 -0.17068247  0.12721539 -0.33194304  0.20321687 -0.12635612
  0.00130418 -0.33142906]
[-0.26093185 -0.11497666  0.02732222 -0.14426376  0.01883303  0.10485502
  0.17376141  0.16067268  0.08193789  0.0892066  -0.26428705  0.16695778
 -0.07255161 -0.08600371 -0.03368945 -0.04138021 -0.02623106  0.10417598
  0.02255303 -0.28434023]
[ 0.3423102   0.27751508 -0.22195202  0.31853703  0.35033152  0.20638461
  0.15112297  0.09309252 -0.23074943 -0.01149065  0.17041495  0.2826043
 -0.2084058   0.16577035  0.15719436  0.02247267 -0.25438744  0.24460395
 -0.07295439 -0.17338496]
[ 0.25944975  0.05191974 -0.10427995 -0.0087467   0.2963822   0.1403053
 -0.14466596  0.21433508  0.12866193 -0.07171383  0.26984975 -0.34870082
 -0.1286381  -0.00497999 -0.31656557  0.03919611 -0.00405091  0.33385956
 -0.07490323  0.05547905]
[ 0.40116993 -0.22859468 -0.08341857 -0.18910822  0.14379446 -0.13383415
  0.2957672  -0.25704908  0.04828073  0.18578888  0.02319174  0.01918383
 -0.20128253 -0.2053266  -0.18301575  0.08094672 -0.0356024   0.23230858
 -0.04637459  0.06993635]
[ 0.05612128  0.1001839   0.30606425  0.22475292 -0.20102303  0.18736799
 -0.05867001  0.1770606  -0.16949572  0.10221525  0.25335276 -0.27508456
  0.11267619  0.21322185  0.0276998   0.28272456 -0.04061266 -0.16736907
 -0.11475765  0.13008459]
[ 0.39798605  0.1759339  -0.05757543  0.17722969  0.0271898  -0.14645468
  0.2639378   0.03293348 -0.15199871 -0.14287797 -0.2407962  -0.12695257
 -0.06136556  0.13865681  0.33745283  0.18405414  0.2054344   0.18029413
 -0.2341777   0.26109925]
[ 0.2568037  -0.15581627 -0.2246278   0.09090922  0.13745217  0.27553484
  0.03677412  0.19659865 -0.18639517 -0.01616081  0.31614193 -0.00572869
  0.10929991 -0.10690127 -0.10578462 -0.16499333 -0.25588238  0.22435202
  0.3490175  -0.2128402 ]
[ 0.2273928  -0.00263942 -0.15227488  0.08532368 -0.36790532  0.18808119
  0.05682938 -0.03150982  0.07166673  0.19470555  0.03940366 -0.05908032
  0.3848411   0.14544737  0.12055615 -0.17815925 -0.06449932 -0.0952381
 -0.03256626 -0.37237   ]
[-0.29131088 -0.01282746  0.09585625 -0.16136649  0.23735347 -0.27728355
 -0.37360302 -0.15489365 -0.1561633  -0.24267629  0.0427331   0.26063108
 -0.21705039 -0.06912795 -0.36924747 -0.24892895 -0.16303754  0.24432747
 -0.15511993 -0.02705168]
[ 0.10353192  0.21436307  0.11258954  0.08152238 -0.12242308 -0.16113807
  0.19175108  0.18883678  0.05426438  0.11864528 -0.04344795 -0.06915733
 -0.25623977 -0.17752069  0.04169314  0.12266354 -0.06867324  0.13690059
 -0.08175159  0.399553  ]
[-0.21865346 -0.10308932  0.15112016  0.07031719  0.21494631 -0.15714644
 -0.023938   -0.2976282   0.18213333 -0.14580734 -0.13458604  0.33892772
 -0.29121655 -0.24071348 -0.30911374  0.03553465  0.36551654 -0.2608543
 -0.19069502 -0.24579497]
[ 0.12075992 -0.14755109  0.11543544  0.11720947  0.21073863 -0.13504036
  0.3694905   0.4104922  -0.14157127  0.03665106 -0.21664944  0.24966668
  0.21982393 -0.19657534 -0.14706784  0.19767138  0.00115348  0.15596221
 -0.38913158 -0.32331517]
[ 0.31166366  0.15674478  0.25350967 -0.21775259  0.3006981   0.25428122
  0.19074452  0.26323572  0.25825754  0.00122653  0.21993524  0.1398261
  0.23123038  0.04248922  0.02644696  0.08454929  0.32312807 -0.11059
 -0.03606855  0.08207651]
[-0.21219952 -0.1871104   0.12002471  0.22061795  0.05666705  0.20331784
  0.0165803  -0.05490794  0.16622214 -0.25762495 -0.16519733  0.21986395
  0.16217527 -0.16245419  0.39457664  0.31020656  0.08645944  0.15236919
 -0.11702225  0.4193555 ]
[ 0.17564355  0.07716202 -0.11170412 -0.01350297  0.23001091  0.0855818
 -0.21529122  0.24065293  0.10449515  0.3407813  -0.3007086   0.21946591
 -0.24876538 -0.14229435 -0.3278213   0.2350439   0.18988852 -0.03663171
 -0.13589713  0.11134145]
[-0.04901707  0.11240255 -0.04080805 -0.18953921 -0.2777095  -0.19636099
 -0.12331758 -0.08731055 -0.34670615  0.12482131 -0.05889744 -0.26108006
  0.13510852  0.26425934 -0.1312077  -0.11004645 -0.15748563  0.22683877
  0.1506401   0.29377225]
[ 0.1741717   0.2620811   0.12376091 -0.01190698  0.2809657  -0.104527
  0.0968237  -0.23277104 -0.16652991 -0.01962763 -0.24859343 -0.1559635
 -0.00478349  0.24846463 -0.11996184 -0.06280581 -0.02884078 -0.18191719
  0.10819867 -0.07463165]
[-0.33207998  0.12256441  0.34384456  0.13926852 -0.04208868  0.10480805
 -0.1763801  -0.13524793  0.32243478  0.32795113  0.14415935 -0.11511918
  0.28551587 -0.11572731 -0.436082   -0.14428765  0.08924373  0.29956877
 -0.19961393 -0.31819195]
[ 0.03190745  0.27810264  0.17395368  0.24698417  0.11882604  0.13448694
 -0.08162577  0.04060594 -0.0342631   0.15839584  0.14140254 -0.23915258
 -0.14864926  0.15695857  0.4320305   0.26143146 -0.293594   -0.01514409
  0.1591185   0.0885848 ]
[ 0.07404567  0.07340514  0.19909655  0.181772    0.24742351  0.03117423
  0.23806675 -0.01870356  0.20000738 -0.07730138 -0.29840764  0.13940753
  0.16499831 -0.28404352 -0.2773228   0.11343212 -0.04551545  0.07828524
  0.01652483  0.25738797]
[ 2.3013245e-01  8.1294425e-02 -2.0772481e-01 -8.9932807e-02
  3.5286137e-01 -1.6666975e-04  2.8312162e-02 -9.4719768e-02
  3.4935549e-02  1.4605379e-01  3.9649542e-02  2.9217443e-01
 -2.0502469e-01  2.1033338e-01 -4.7689590e-01 -8.6626031e-02
 -9.8544247e-02  1.1433017e-01 -3.7863621e-01  3.3757663e-01]
[ 0.07327647 -0.14597258 -0.14693221  0.23544545  0.39891115  0.22623622
 -0.00385774 -0.23621091 -0.08568496  0.12907964  0.26831877 -0.16090992
  0.14277722  0.09580421 -0.32684717  0.29773653  0.06609114 -0.20107421
 -0.2869179   0.37294132]
[-0.11027762  0.03923585  0.07749916  0.07662876  0.15839572  0.18355271
 -0.21057156  0.20955351 -0.2836394  -0.00231327 -0.22584154  0.08712575
 -0.27758226 -0.28576037 -0.28777295 -0.11744945 -0.02287421 -0.09230827
 -0.32887542  0.18658055]
[-0.22897714  0.16106895 -0.02569995  0.33554807  0.11900476  0.2597127
 -0.37283105 -0.05932452 -0.25947267  0.02939566 -0.21050826 -0.43829668
  0.17237921  0.2356806  -0.4804591   0.06516195 -0.07027259  0.13630949
 -0.04137062 -0.22966167]
[-0.20849185 -0.08426684 -0.06023485  0.2774428   0.09446922  0.17839313
 -0.25880066  0.27385524 -0.23306409 -0.10144217 -0.14401183 -0.02268962
  0.28301364  0.17944968 -0.2832511  -0.25959426 -0.23543581  0.15757948
 -0.0404183  -0.10838405]
[-0.28033334  0.14279829  0.02643276  0.04346228  0.1905814  -0.2437116
  0.08734253  0.3393869   0.02633271  0.01416275  0.00098774 -0.14068444
  0.20846549 -0.02030263 -0.33896148 -0.24380377 -0.04946378 -0.02947806
 -0.05088202  0.20222369]
[-0.12470906  0.25590318 -0.19388652 -0.35001287  0.00343367  0.25996253
  0.24632463  0.04232277 -0.36385837 -0.08228125  0.01176938 -0.07422694
  0.15066586 -0.27326137 -0.16929397 -0.02718219 -0.12031678  0.14934973
 -0.06521661 -0.16718781]
[-0.16078097 -0.06928636 -0.17807469  0.22233215  0.11247311 -0.30313298
  0.2117178  -0.10041803  0.28565526 -0.20898923  0.24163045  0.01393791
 -0.09325064 -0.11076483  0.17084351 -0.07391944  0.00339397  0.10846215
  0.18240462 -0.29471233]
[ 0.09226938  0.1617187   0.17745356 -0.3054005   0.04293     0.20383349
  0.15841533  0.2333423  -0.21008724 -0.34463212  0.09348889 -0.13424373
  0.2856916   0.14102928 -0.13325186  0.3307173   0.19562292 -0.02086184
  0.16590756  0.06915249]
[ 0.24845882  0.08283574  0.11474159 -0.353213    0.2748329   0.2229668
  0.32833272  0.26132852 -0.24707778 -0.1406338   0.01671848 -0.15193185
 -0.12133794  0.24929447  0.1517901   0.16076371 -0.02653118 -0.18421654
 -0.01333716 -0.03089912]
[ 0.18466555 -0.29643577 -0.0473785  -0.00676232  0.00642565  0.10723668
  0.02017818  0.10745243 -0.14172377  0.28569508 -0.06067583 -0.1176711
 -0.1478684  -0.19847354 -0.085099    0.11035896 -0.20044488 -0.12039271
 -0.24772322 -0.09177516]
[-0.14738971  0.10914322 -0.15383108  0.19023897  0.26289365 -0.13373545
 -0.2022964  -0.3363873   0.22206336  0.07807708 -0.15014778 -0.31044048
 -0.15869837  0.03516844 -0.20225774  0.17522798  0.27977222  0.07417167
  0.1810671   0.34551233]
[ 0.02931811 -0.17026947 -0.11341016 -0.14852919  0.05336346  0.07690232
  0.22546853 -0.24594267 -0.1307247  -0.31384218 -0.06716638  0.21209379
  0.15193278  0.30233282 -0.4432488   0.18075518  0.00886943 -0.01040379
  0.23204249  0.05284563]
[-0.14359343 -0.28159988 -0.01371771 -0.00998442  0.12379476 -0.2785653
  0.4192354   0.1071105   0.20468205  0.1864913   0.20605983  0.35546187
  0.36975658  0.13316329  0.13954684  0.2503533   0.30435774 -0.06103803
 -0.26631847 -0.01824852]
[ 0.40945736 -0.22971995  0.06814665 -0.2247821  -0.04270112  0.09375293
  0.00660254  0.15058787 -0.07522206 -0.05896969  0.30146268 -0.06423248
 -0.05730982 -0.03743443 -0.05485948  0.30663106  0.07446487  0.10869025
  0.19111952 -0.26834956]
[-0.2195896  -0.12977666 -0.0348795   0.18873647  0.03805204 -0.10488981
 -0.09291138  0.07215059  0.2262754  -0.0857724   0.32457307 -0.03960189
  0.17622463  0.09185947 -0.20360914  0.0593488   0.11296623 -0.03336841
 -0.08538242  0.11339346]
[ 0.03584742 -0.0106734  -0.0128246  -0.01306497  0.00642408 -0.01538515
  0.01512562 -0.01017828 -0.02170626  0.06517486  0.02486039 -0.03821483
 -0.06646381 -0.01000061  0.25278306 -0.00446812 -0.06798319 -0.01252969
  0.02422674  0.04525596]
layer 5 Activation
tanh
layer 6 Dense
20 1
[0.11700298]
[0.01262818]
[0.01713216]
[-0.01804447]
[0.03827322]
[0.3686986]
[-0.295521]
[-0.40831953]
[-0.04156806]
[-0.00186022]
[0.12941365]
[-0.13493092]
[-0.2274058]
[-0.01288554]
[-0.44626716]
[0.3513709]
[-0.00829136]
[-0.04292099]
[0.261721]
[0.12450144]
[0.08723769]
