layers 7
layer 0 Dense
20 20
[-0.13910984 -0.00450823  0.39028716 -0.42378652 -0.25906676 -0.05329464
 -0.30015782  0.10577868 -0.11954913  0.29222244  0.27085263  0.28949213
  0.18110834  0.0365453  -0.20043655  0.18793194 -0.35713091 -0.2777681
 -0.3063457   0.16477238]
[ 0.30412254 -0.05777242  0.3892028   0.15644877 -0.3943643   0.34927207
 -0.01293349 -0.1478835  -0.09374477 -0.08142433 -0.1933776   0.0532769
 -0.15650587  0.25321758 -0.21091929 -0.3524981   0.12960511  0.21375807
  0.2938317   0.1133486 ]
[-0.27233374 -0.29350382 -0.13492554  0.4654966  -0.36002043 -0.27191448
 -0.37229815  0.01971547 -0.202561   -0.08070561 -0.26043507  0.16686285
  0.22818707 -0.43762353  0.03701122 -0.18722051  0.27086693  0.3770222
 -0.0748947   0.19276208]
[ 0.21424545 -0.09432428 -0.28960624 -0.42180866 -0.45191637 -0.3342766
  0.00984213 -0.27980608 -0.1755235  -0.17513965 -0.08048981  0.08967419
 -0.21484067  0.3295434  -0.0547386  -0.160577   -0.04083668  0.23857044
 -0.22112517 -0.40057775]
[ 0.1468189  -0.28542048  0.01766633  0.08813749 -0.02648093 -0.3324382
 -0.3079374  -0.29818034 -0.36826682 -0.09372234  0.0517193   0.32682034
 -0.03442578 -0.17571267  0.17881224  0.25949174  0.30239245 -0.27942574
  0.1126333  -0.31891373]
[ 0.3552917  -0.12406638 -0.16718481 -0.50762236 -0.23950867  0.26659405
 -0.11507779  0.05349074 -0.33389217  0.00105007 -0.33628985  0.30142868
  0.0020159  -0.11926991  0.05705916 -0.02140172  0.04428625  0.21199252
 -0.330513   -0.17063057]
[ 0.07303634 -0.12015309 -0.10168843 -0.00638908 -0.17630471  0.30756244
  0.06848625 -0.3709453  -0.40698364 -0.1579711   0.34326014 -0.24558432
  0.19077076  0.12822789  0.3319575   0.43786225 -0.20697914  0.03165317
  0.2819859   0.2569527 ]
[-0.00720077  0.00899266  0.21559212  0.14825843  0.38009045 -0.17680527
  0.06183042  0.410574   -0.12705848 -0.24662171 -0.07972232 -0.04898451
 -0.13735223  0.39651155 -0.04068755  0.26012847 -0.1276217   0.28745675
 -0.11903866  0.2056552 ]
[ 0.08185861  0.05324144 -0.11651693  0.16371746  0.21164285  0.17884493
  0.5102297   0.01891361  0.22498986  0.16645971 -0.22973397  0.22389352
 -0.20119606  0.29312587 -0.2666812   0.23060405  0.26631758 -0.0066774
  0.3098792  -0.37466377]
[-0.12312946 -0.32113084 -0.07547889 -0.22187066  0.10595512  0.11793672
  0.33733368  0.09926972 -0.1860853  -0.17095062  0.14260712  0.23510045
  0.31329358 -0.15649448 -0.18043545  0.01815183  0.10791066 -0.42200518
  0.25016105 -0.07893036]
[ 0.21561009  0.20329146 -0.1486762  -0.45867023  0.3136673   0.05169961
  0.29607072 -0.08234922  0.49217173 -0.08018909  0.36225247 -0.02215647
  0.05567342 -0.30805343 -0.03037966  0.10804825  0.5175145  -0.1687599
 -0.09260776 -0.44416347]
[-0.22632904  0.29304335 -0.331406    0.1328639  -0.251611    0.29810786
 -0.4031711  -0.14788277 -0.0597936   0.20232826  0.00998665 -0.3500567
 -0.2849897  -0.53858745  0.42054036  0.05879513  0.257208    0.22482815
 -0.01275516  0.23386756]
[-0.3384677  -0.02520708 -0.3586677   0.04108521  0.2960194   0.27045447
  0.23847787 -0.24620043  0.16699483 -0.41749823  0.3009029  -0.01839348
  0.30021918  0.05727999  0.18905978 -0.19322301 -0.25488526 -0.26077858
  0.02303404 -0.37931275]
[ 0.1701287   0.04620824  0.1760577   0.11512924 -0.24608845 -0.10120191
  0.31741756  0.35226867  0.12698993 -0.19128056  0.32936215 -0.11359999
  0.24568325 -0.29486778  0.16362205 -0.07506939 -0.14934917  0.39128622
 -0.0306195  -0.05645468]
[-0.23731355  0.43397996  0.21356209  0.12541275 -0.02632768  0.2787125
 -0.20561716 -0.2628542   0.12904598  0.10223708 -0.23031212 -0.18104744
  0.35981625  0.09031064 -0.38186085  0.30426416  0.13103402  0.24473141
 -0.0114229  -0.33340046]
[-0.00292788  0.42610642 -0.26653454 -0.3106219  -0.29444996 -0.3202849
  0.03173836  0.49545595 -0.07456578  0.10182624 -0.38873747 -0.32400727
 -0.398073   -0.3690036   0.09590121  0.18790077 -0.18565606  0.08062299
 -0.17256981 -0.2260698 ]
[ 0.27071512 -0.39085805 -0.11021945 -0.27905473 -0.13625926  0.40832877
 -0.18429944 -0.41118252  0.17384546  0.31529695  0.19809574  0.32783243
  0.17843446 -0.05799109 -0.2650242  -0.21826245  0.28900883 -0.0653595
 -0.19069916  0.35474986]
[ 0.22702177  0.34582394  0.37506422 -0.14279884 -0.15488918 -0.15302075
 -0.02644557 -0.29514417 -0.2545706  -0.07695942  0.2656941  -0.3087789
 -0.19594313  0.140454   -0.11230018  0.2044023  -0.01575946  0.37525055
 -0.16496482  0.2301383 ]
[ 0.3704889   0.19529831 -0.32708636  0.1818938  -0.1304636   0.27598953
  0.13428327 -0.10907205 -0.3832478  -0.32555205 -0.19942631  0.25679338
 -0.12934673 -0.26138192  0.31573477 -0.12577277 -0.61495966 -0.21892697
  0.2561593  -0.03983449]
[-0.25874323  0.3218151   0.08927003  0.26218614 -0.01892232  0.08933643
  0.10545167  0.15440638  0.4130829   0.3064099   0.23012462  0.12169527
 -0.45722803  0.43082753  0.2997746   0.27079526  0.00520431  0.37222543
  0.47388995 -0.14996484]
[ 0.03859299 -0.06889568 -0.01970088  0.00482862 -0.0862981   0.01460921
 -0.03888517 -0.07250778 -0.01590042  0.01202481  0.02601912 -0.00304947
  0.01780795 -0.00663207  0.02190392 -0.00326157  0.05042569 -0.0601181
 -0.02562558 -0.08139974]
layer 1 Activation
tanh
layer 2 Dense
20 40
[ 0.25195444  0.18943131  0.21935806 -0.21187416 -0.13144693  0.34537858
 -0.3362737   0.36433235 -0.10828014 -0.04269845 -0.15796864 -0.11803862
 -0.04896121 -0.04959385 -0.14557493  0.23504509 -0.18106112 -0.14330624
  0.19034775  0.03228136  0.24562456 -0.2263178  -0.15506971  0.18353236
  0.18993706  0.21671148 -0.25520542  0.2225331   0.19101615  0.05922432
  0.02241396  0.26645643  0.09054264 -0.27863228 -0.45522124  0.16006622
 -0.15656301 -0.03006611  0.07353682 -0.13434765]
[ 0.3652448  -0.16658053 -0.3196186   0.25933003 -0.35838234 -0.32154316
  0.06097429  0.24957825 -0.08662942 -0.26617688  0.26846766 -0.09998628
  0.18987457  0.13579647  0.00869027 -0.09232025  0.24397074 -0.06202488
 -0.31132728 -0.01015154 -0.03899936  0.29075307  0.03810448 -0.05676078
  0.21068186  0.01831162  0.00674624 -0.2727641  -0.26063657  0.14979687
  0.26807943  0.1406038   0.01232252 -0.2051603   0.18232872 -0.24494731
  0.31328276 -0.31706977 -0.19162568 -0.16892995]
[ 0.0780357   0.16793264 -0.28170523 -0.03489608 -0.09914957 -0.24415593
  0.24693924 -0.11673661  0.22286418 -0.13356087 -0.05209797  0.3687086
  0.17184529  0.3088392   0.18007092 -0.3900702   0.11951435  0.2875842
 -0.04846201  0.273641    0.17546855  0.04381996 -0.2591009   0.20608065
 -0.26785892 -0.09193859  0.11630102 -0.43091592 -0.11904951  0.20933023
  0.24174275 -0.11656921 -0.2624484   0.3276781   0.29963446 -0.1637514
  0.06399062  0.35031527  0.34068716  0.00579155]
[-0.14579631  0.08627988 -0.13834623  0.10541994  0.2113366   0.28092882
  0.05320594 -0.14967138 -0.2486094   0.02430815 -0.16620392  0.28294837
 -0.16014674  0.01758146  0.1954134  -0.1857639  -0.23190121 -0.10871299
 -0.2401087   0.08867997  0.29534513 -0.08584264  0.2566321   0.00392239
  0.00435483 -0.06572115 -0.07621052 -0.04656057  0.23248756  0.07107419
  0.04936623 -0.30079862 -0.13462105  0.23746414 -0.03947146 -0.15944876
 -0.13035735  0.2692018  -0.27366364  0.07393415]
[-0.06096063  0.30478626  0.20948859 -0.3035129  -0.074792   -0.21732445
  0.26363996 -0.07651595  0.12557256  0.26059884 -0.17499629 -0.1960946
  0.14697614  0.2724176  -0.07179683 -0.13802317  0.10210855  0.25693348
 -0.2847474   0.2674092   0.298687    0.24464728  0.1723232  -0.09642185
 -0.09131098  0.22539333  0.14498216 -0.31576324 -0.27395743  0.3469384
  0.13473596  0.23431326  0.05058737  0.17458336 -0.27430034 -0.26430213
 -0.23992516  0.13589762  0.00896098  0.04649457]
[ 0.07127812  0.32439896  0.07992309  0.0061294   0.07534697 -0.30535555
  0.24972235  0.06577947  0.12199241  0.16292907  0.00825438  0.05507217
  0.24203748 -0.09363699  0.06621072  0.2988275   0.35155824 -0.10673184
  0.13638441  0.12640314 -0.27096924  0.25271526 -0.12033182  0.30132496
 -0.28342456 -0.05686282 -0.16100855 -0.18145205  0.00263323 -0.08982234
  0.30254504  0.16455972  0.1727358   0.02784942  0.02461729  0.2519298
  0.06578734  0.31494576  0.05883075  0.28508332]
[ 0.12462398  0.21884796 -0.17219613  0.12558734  0.1519941  -0.05580302
  0.24460354  0.2635817  -0.06292248  0.03607039  0.22813232 -0.09315845
 -0.13411514 -0.19270733 -0.21930604  0.23380971 -0.05485531 -0.27360755
 -0.20458251  0.20960808  0.29853916  0.16246156  0.06087212 -0.25031793
  0.05180575  0.10984176 -0.24698474  0.18559566  0.2454237   0.1691607
 -0.2176046  -0.08354149  0.27949876  0.23717995  0.08436246 -0.26463136
 -0.03022301  0.19759704  0.17628734  0.1857581 ]
[ 0.06679452  0.01807412 -0.0612768  -0.01989202  0.08328912 -0.09386767
  0.0134961  -0.27113956 -0.21687376 -0.05664955 -0.26345837 -0.01652858
  0.15977035  0.03807781  0.03085308 -0.04100277  0.15944277 -0.12983954
 -0.373074   -0.01271258  0.25714907 -0.02165029 -0.12501386  0.11463787
 -0.05943715  0.20835793 -0.07795876 -0.16305374  0.21689124  0.10339666
  0.20829096 -0.00757698  0.2818665   0.24371602 -0.15773247 -0.04682276
 -0.21956992 -0.13291514 -0.24810763  0.10101736]
[ 2.15719774e-01  1.83220633e-04 -1.73252419e-01  8.15242715e-03
  1.27542540e-01 -1.15079153e-02 -1.69728532e-01  1.64158568e-01
 -1.12133816e-01 -5.66738062e-02  5.83635345e-02  2.30487734e-01
 -2.77275294e-01 -7.25946277e-02 -1.15841269e-01  1.96954325e-01
  1.52804246e-02  7.55774090e-03  4.57808338e-02  2.69078374e-01
  2.38698527e-01 -2.45127827e-01  1.30338669e-01  5.55892587e-02
 -6.77516162e-02  2.59334773e-01  1.62637100e-01 -2.28309743e-02
  5.31546324e-02 -1.83958143e-01 -2.76991338e-01 -2.88108680e-02
  5.59033155e-02  3.19534600e-01  2.28868023e-01 -1.15520135e-01
 -2.52857327e-01 -2.76454628e-01  4.17368524e-02  2.62916088e-01]
[ 0.15837906 -0.09104119 -0.05728652  0.09041305  0.33274102  0.07010624
  0.23167565 -0.02628769  0.15065093 -0.05271148 -0.25971165  0.25426373
  0.24687079  0.29581293 -0.21681586  0.12015077  0.29283005  0.11669569
  0.03822754  0.23659855  0.05209706 -0.05752736 -0.14434959 -0.26015246
  0.1231906   0.38121372  0.01824355  0.02146354  0.03949426 -0.15518427
  0.2908249   0.28689295  0.25604498  0.2193179   0.2842638  -0.11061838
  0.2601773  -0.23599817  0.2255045   0.00148124]
[ 0.23447907 -0.01047787  0.33132493  0.0031094   0.19397202  0.24381126
 -0.3067954   0.06560981  0.06770894  0.02321138  0.09001467 -0.09203322
  0.1200591   0.17027514  0.1245299   0.03613602 -0.32682496  0.24814302
  0.0068238   0.2016379   0.02091746 -0.18491681 -0.06054626  0.23928301
  0.29228714 -0.04110061 -0.20147806 -0.21559389  0.1763211  -0.09041687
  0.0913571  -0.11833528 -0.2647359   0.04513077 -0.03752603  0.25113913
  0.25962484 -0.21850485 -0.00479065  0.2424438 ]
[-0.0972736  -0.15233627 -0.06271837  0.15477316 -0.03616803  0.2413396
  0.10077767 -0.04533722 -0.01119869  0.19956082  0.04457471 -0.22144419
  0.20587277  0.08006034 -0.26723206  0.22548798 -0.18851693 -0.08367024
 -0.1640406   0.19827937 -0.10919977  0.07259877 -0.31591755  0.15629856
  0.2520624  -0.01378016 -0.0224094  -0.04368175  0.18538237  0.11750394
  0.1041117  -0.2065784   0.01141381 -0.21138208 -0.23724625 -0.24837078
 -0.24990298  0.10484503  0.06613868  0.07391502]
[ 0.16633748 -0.28492877 -0.00303424  0.28010172 -0.14496732 -0.18126793
  0.20376262 -0.14430276 -0.01172162  0.22689487  0.23478182 -0.2981784
  0.15762351  0.13182163 -0.3303634  -0.0218338  -0.18336418 -0.04380019
  0.29388806  0.02540876 -0.17060475 -0.09061551  0.11704074 -0.18831469
 -0.25015777  0.2827762  -0.293172   -0.07822485 -0.34497792 -0.1805673
  0.22794217  0.02075279  0.05462785 -0.28064936  0.32599086  0.28883186
  0.14851353 -0.05251221  0.24605411 -0.08028326]
[-0.06881557  0.15981941 -0.04597153  0.28540644  0.17225437  0.17893532
  0.13637976  0.1981214  -0.19434913  0.07975432 -0.02527225  0.13115734
 -0.03941953  0.15306462 -0.1960882   0.08101147 -0.04139909  0.17337066
  0.00983652 -0.20300965  0.22422045  0.14350872  0.04755745  0.34319392
 -0.32315296 -0.12758228 -0.01262786  0.07824293  0.14391777 -0.0217921
  0.00067532 -0.0311993  -0.21117096 -0.05989808  0.14501177 -0.17589577
  0.3330425   0.12512931  0.0063863   0.20906503]
[ 0.24904482 -0.28047532 -0.24640962 -0.2655813   0.21653157  0.2764388
  0.2094158   0.25756392 -0.1748202   0.03597191  0.1514479  -0.06428654
  0.21243165 -0.301394    0.11377823  0.18506059 -0.04174209  0.23676944
 -0.17071     0.27283666  0.17235722 -0.03700344 -0.3043388  -0.138989
 -0.15872866  0.1944643   0.23705392  0.1922063   0.28550214 -0.13109887
 -0.22738308 -0.01291102 -0.06846448 -0.17980038 -0.18848172 -0.15361911
 -0.15171608  0.11729481 -0.12441266  0.08166803]
[ 6.8628922e-02  5.2997146e-02  2.0965268e-01  2.2440360e-01
  8.5072607e-02  1.0838569e-04 -3.3719644e-02 -1.3984458e-01
 -1.6367393e-02 -2.8907202e-02  2.1227586e-01  8.6886480e-02
  5.5984341e-02  2.7431256e-01 -6.6708960e-02 -3.0696478e-01
  3.1001359e-01  1.0981843e-01 -8.4007792e-02  3.0928304e-02
  2.2452947e-01 -2.4772608e-01 -1.5703428e-01  2.0671687e-01
 -2.1635982e-01 -1.9319072e-01  1.4125082e-01  3.7443411e-02
  1.2082626e-01  1.9412209e-01  1.4764374e-01 -2.6967368e-01
  3.8825300e-02  2.0602600e-01 -1.7747501e-01  1.1731222e-01
  3.0280462e-01 -6.5427616e-02  3.5292279e-02  3.7705678e-02]
[-0.26626682 -0.30896488  0.27537993  0.22529665  0.36672837 -0.00220899
  0.08872937 -0.20280406  0.20762801 -0.12666464 -0.13402644  0.26228383
 -0.04487877 -0.10032365  0.03513701 -0.04549737 -0.02630034  0.25554278
  0.05126208  0.07939261  0.04150762 -0.1124738   0.00585023  0.28937927
  0.08170649  0.10941914 -0.08234087  0.15005222 -0.12282687  0.207337
  0.00664365 -0.09359594 -0.22710465  0.03189139  0.09430695 -0.10874482
 -0.01296549 -0.12651005 -0.05390501  0.09233871]
[ 0.13998112  0.11892918  0.03304659  0.23902433 -0.04993657  0.10974979
 -0.0755123   0.04849008  0.18799466  0.01120488 -0.06289504 -0.23191586
 -0.24421212  0.10899141  0.21980815 -0.26315096 -0.01100742 -0.02284056
 -0.09481144 -0.22186321 -0.30619168  0.05169939 -0.00519978  0.38342565
 -0.2969802  -0.06548821  0.12534356  0.18158306  0.28601187 -0.08779617
 -0.27188152  0.19849826 -0.07842351 -0.11477627 -0.00168183  0.18109626
 -0.10878257  0.08986159  0.00065082 -0.03873548]
[ 0.10810619  0.0735133   0.12543225 -0.26706094 -0.00363281  0.05677422
  0.04747836  0.17834905 -0.0893674  -0.11014579 -0.23586789 -0.11344166
 -0.23980509  0.3846744   0.12082879 -0.24839889  0.07753556 -0.2983138
 -0.08791745  0.15308778  0.20527454 -0.02870599 -0.15393746 -0.25552225
  0.13012525  0.12846859  0.03547728 -0.12319447 -0.06738237  0.33616954
 -0.02052199  0.26725355  0.27544737 -0.14852828  0.2996106   0.3694488
  0.21819519 -0.02558755 -0.3480879  -0.03974467]
[ 0.11124733 -0.17675965 -0.32750267 -0.12156634 -0.26642445  0.10671707
 -0.23814763  0.3355692  -0.2115627  -0.28827307  0.23800795  0.03920617
 -0.16210191  0.2088753   0.07984197  0.08287871  0.12198179  0.20117976
  0.32429823 -0.3396455   0.22187869  0.02166656 -0.00995721  0.28552443
 -0.09144453 -0.3137018  -0.25209263 -0.08172462 -0.01426276  0.1058019
 -0.32541758  0.05431572  0.3208532  -0.24465884 -0.22783604  0.17639881
 -0.02909265 -0.06434792 -0.09308448  0.02091398]
[ 0.00330671 -0.02108176  0.0208378   0.01333962  0.01110461  0.0017438
 -0.01585486 -0.02634759 -0.03161617  0.0075842  -0.03092902 -0.00165895
  0.10502769 -0.04227418  0.01553108  0.00014068 -0.08214207  0.00354119
 -0.01025405 -0.0125413   0.0087858   0.01537513 -0.03325524 -0.03515739
  0.02480385 -0.01280912 -0.00741055  0.0271178   0.01865335 -0.03737228
 -0.02132141  0.01474867 -0.01201873  0.00336536  0.04851194  0.01620961
  0.00622583  0.01576163  0.02063184  0.00107361]
layer 3 Activation
tanh
layer 4 Dense
40 20
[ 0.19820802 -0.21575299  0.13184677  0.19331327 -0.11780138  0.05004262
 -0.04499839 -0.11540522 -0.1273643  -0.00884076  0.0306289  -0.37067008
  0.17573862  0.12541911  0.20710763  0.25141928 -0.15359628 -0.16758023
 -0.15428801 -0.10538889]
[ 0.12376439 -0.12632947  0.17853166  0.01401202  0.04452549 -0.03967179
  0.11869287 -0.06527093  0.20510367  0.16101146  0.14418703  0.1091361
 -0.11256059 -0.04997941  0.21443406  0.07771335 -0.2615922  -0.15854819
 -0.21658154  0.15332548]
[ 0.259865    0.03183055 -0.03849345 -0.3122504  -0.12168603  0.20421831
 -0.23319848 -0.10104845 -0.18788521 -0.332633   -0.23167613  0.35947266
 -0.18630053 -0.06844398  0.10129292  0.28367805  0.04894719 -0.0086679
 -0.11405439  0.20294194]
[ 0.19724323  0.06658901 -0.23666562  0.30301714  0.09648378 -0.15685722
  0.27007967  0.29319996  0.21491484  0.29845744  0.04483818  0.21106116
  0.1773298   0.07506488  0.28140247 -0.23317032  0.06265628  0.06011928
  0.2823195  -0.20241806]
[ 0.29516533  0.10867758  0.01848155  0.20045355  0.13203523  0.24150471
 -0.15031922  0.02001755  0.2708603  -0.3378073   0.21397853  0.27228835
 -0.10335872 -0.1543857  -0.12987101  0.32385993  0.35828456 -0.02271698
  0.25920525 -0.23730418]
[ 0.2072718   0.1581795  -0.12045274 -0.00887332  0.2472066  -0.2596595
  0.17386612 -0.16950765 -0.13095336 -0.28011143 -0.22087102 -0.3003515
  0.27496275  0.1384909  -0.00324555  0.01160129 -0.04482919 -0.02996286
  0.08829707  0.26775682]
[-0.29400104  0.15119714 -0.15592286  0.27862564 -0.22227746  0.25334105
 -0.07970647  0.09635668  0.20963109 -0.15837234  0.02222626  0.21212035
 -0.02193255  0.0240677  -0.20502678 -0.05076963  0.19046116  0.12844697
 -0.1000251   0.34587395]
[ 0.22101058 -0.03078329 -0.27958778 -0.2221729  -0.25598204 -0.1378239
 -0.25404155  0.28775364  0.11138319  0.09857332  0.06277636  0.12126107
  0.15868367 -0.17724153  0.04484787  0.12838183  0.18897066  0.08090435
 -0.10947418 -0.06326455]
[ 0.23829436  0.14565857  0.2696854   0.11109219  0.11197795 -0.11089971
 -0.05772076  0.27851206 -0.21605894 -0.07094738 -0.03532074  0.20411089
  0.27318627 -0.09436844  0.00760322  0.21880081  0.09853499 -0.19748771
 -0.0922456   0.10837526]
[ 0.21709163  0.28104597 -0.09852955  0.05936589 -0.21761577  0.08709956
  0.22510855  0.12141421  0.05346192 -0.09942322 -0.24667943 -0.05406293
 -0.25073436 -0.00318917 -0.12307022  0.13195807  0.1206625  -0.13369316
 -0.1006446  -0.29181266]
[ 0.07943017 -0.15132008  0.11754578  0.02632393  0.10194041  0.32726577
  0.23535204  0.04277385  0.14919008 -0.12251027 -0.12491792 -0.01015706
  0.07713514  0.16902228  0.11395804  0.16509238 -0.20477553  0.18350518
 -0.09798796  0.01665075]
[ 0.13596916  0.24052346 -0.31241813 -0.20803426  0.26279634 -0.23554412
 -0.0228612   0.27366745  0.00303328 -0.14628461 -0.2681452   0.15277433
  0.10867848 -0.01935712 -0.17852657 -0.22822389  0.06003701 -0.18598697
  0.09328783  0.2481408 ]
[-0.162867    0.16496263  0.25102648  0.18936497  0.2810606   0.11022821
  0.24404795 -0.2586742  -0.20301381 -0.05259026  0.21908219  0.07502507
 -0.00125333  0.18676513  0.09401911 -0.27705756  0.19698338  0.15100993
  0.2623882   0.15955718]
[-0.10007974  0.1421352  -0.3377915  -0.17340676 -0.2770351  -0.15403722
  0.09475115 -0.00854878  0.16830993 -0.12618311  0.19712886  0.13625239
  0.13006371 -0.29474944  0.29263264 -0.16387933  0.1415339   0.00716993
 -0.0757127   0.28380603]
[-0.15047705 -0.22575948  0.09591983 -0.28313446  0.18137842  0.25042528
 -0.11285624 -0.27593705 -0.11575005  0.28492612  0.12539974 -0.01605909
  0.14249305  0.04905922 -0.20766643 -0.05419247 -0.01192588  0.14158139
 -0.07885662  0.08351467]
[-0.15060666  0.3558472  -0.23235154  0.25502715  0.14524701 -0.26147652
  0.07205148 -0.18055853  0.17747314 -0.14896543 -0.21597798 -0.14106475
 -0.15271328  0.2715614   0.23075065 -0.03470949  0.30095616 -0.1031974
 -0.08217774 -0.03781752]
[-0.04895424 -0.0008507  -0.10717002  0.27348912  0.09404273 -0.01125286
 -0.02549601 -0.26251212  0.32671994 -0.12416387 -0.02268055 -0.00890328
  0.15396275 -0.25290245  0.15100616 -0.2619726   0.28910846  0.12097627
 -0.29450262 -0.14223287]
[ 0.36561623  0.12737472 -0.20947981  0.10810708 -0.23843712  0.13320091
 -0.23343681  0.16976379  0.08133937 -0.1801104   0.24548045  0.14303377
  0.20526019  0.16873302 -0.2560576  -0.09586147  0.10549947 -0.11350467
  0.09656644 -0.01334117]
[-0.04288897 -0.22485742 -0.20137721  0.21983379 -0.10544757 -0.23781444
  0.00357319 -0.2617467  -0.27395606 -0.15742776 -0.35162976  0.25666183
  0.18362968  0.30130416 -0.21656342 -0.01026863 -0.22370967 -0.20652841
  0.00430719  0.2370801 ]
[ 0.18456791 -0.03414612  0.01701923 -0.26399243 -0.15574297  0.23104504
  0.18247914  0.21680026  0.0586542   0.00745052  0.1164628   0.03944746
 -0.0932367  -0.26678747 -0.16249973 -0.04498019 -0.15255727  0.2740589
 -0.03103388 -0.22953765]
[-0.0113146   0.30730382 -0.13632296 -0.28893214 -0.22783388 -0.18477972
 -0.22285588  0.2502011   0.18337068 -0.0112035  -0.29161173 -0.11223122
  0.25862563 -0.28919563 -0.27608562 -0.05754611  0.01857371 -0.00037036
 -0.22909077  0.16780804]
[ 0.08960526 -0.2984538  -0.2946778   0.05794724  0.16526514  0.22048393
 -0.27206802 -0.09796303  0.02078625  0.22850986  0.37077412 -0.24866979
 -0.13362789 -0.26483482 -0.2768323   0.10516191 -0.07388011  0.08813259
 -0.00356935  0.19839983]
[-0.04465373 -0.24460517 -0.1043091   0.166866   -0.29037458  0.02823304
  0.07436887  0.1597695  -0.03256966 -0.07027631 -0.24626549 -0.26372692
  0.1123994  -0.14650254  0.02647225 -0.05880729  0.09987228  0.23081478
 -0.22477515 -0.09973633]
[ 0.26562122  0.2892864  -0.09751859  0.06017843  0.21664913 -0.26962692
  0.13720709 -0.20075966  0.21720411  0.12329428  0.16465782  0.31426856
  0.11194161  0.06506763  0.04763082 -0.12749906  0.07735319  0.23604567
 -0.05226735  0.16302316]
[ 0.13740739  0.12958936  0.16101559 -0.00217523 -0.05659467 -0.04353912
  0.26152012  0.36745924  0.07314545  0.21831712 -0.2641178  -0.08255744
 -0.18961982  0.23123552  0.23041096 -0.17762266 -0.5267813  -0.06893125
 -0.0936956  -0.29015112]
[ 0.23758155  0.17533834 -0.16790545  0.24488905  0.03414551  0.23419026
  0.15177779  0.246065    0.12888427 -0.28393    -0.25521222  0.06604446
  0.11233883  0.0334725  -0.05215706  0.25484985 -0.08876958  0.07802261
 -0.00800992  0.08395882]
[-0.09665932 -0.00820177  0.2218503   0.42224938  0.20794503 -0.13761051
 -0.08393716  0.09029587  0.34025237  0.1785822   0.18531367 -0.30520922
 -0.01868627  0.12282497 -0.14861262 -0.03449993  0.260917    0.05806684
 -0.19908762 -0.01547456]
[ 0.09925103  0.14305939  0.34165567  0.11228485  0.1913977   0.1376826
  0.15804647  0.20331237  0.02481898 -0.02798223  0.24944231 -0.21400373
 -0.23793502  0.23258682  0.25204903  0.17916352  0.04457367 -0.01134045
  0.0453933   0.24350555]
[ 0.00398335 -0.22406723  0.19846606  0.10002367 -0.06922673 -0.25535566
 -0.14659567 -0.22166595  0.19576856 -0.21445727 -0.03169118 -0.4065592
  0.26420316  0.26767838  0.05102716 -0.06469923  0.18388312 -0.09801188
  0.15673462 -0.06369863]
[-0.1117631   0.0077859  -0.24615549 -0.01263437  0.25423032 -0.29524982
 -0.08784738 -0.09194814  0.24685371 -0.06220994 -0.00341943  0.2252862
 -0.04178833 -0.20100346  0.13507682 -0.30070385  0.13601352 -0.14693254
  0.11253854 -0.20087348]
[ 0.18774615 -0.18907762  0.20596826  0.25965062 -0.29381326  0.20003448
  0.21386884  0.07518021  0.03119134 -0.19622166 -0.28014332  0.31279105
 -0.19567198 -0.10114287 -0.00607809  0.03198854  0.01314605 -0.07338153
 -0.19864719 -0.06125362]
[-0.02600007  0.14362295  0.25092906 -0.14832619 -0.06316798 -0.09374588
 -0.29116017 -0.01119611 -0.32050127  0.1521678   0.10612421  0.03950595
  0.0542544  -0.10250286 -0.14133698 -0.06640071  0.02321729 -0.17757654
 -0.08187117 -0.16578427]
[-0.25984707 -0.14092061  0.1784037   0.26752752 -0.14763291 -0.2783279
 -0.26891026 -0.08830386  0.13704538  0.14134736 -0.00624941  0.09473288
  0.13747366 -0.1508576  -0.2601187  -0.05417367 -0.03543433  0.26884112
 -0.0444163   0.2582606 ]
[ 0.2568864   0.1379012  -0.1258101   0.00877635 -0.04419032 -0.10317779
  0.13856274 -0.13735196  0.2066349   0.291056   -0.03691448 -0.05718003
 -0.19567925 -0.18380639 -0.3332814   0.2765916   0.25761193  0.06798866
  0.04066862 -0.35447317]
[-0.20393157 -0.24952894 -0.0872567   0.21842775  0.13051133  0.03153735
  0.3007775   0.00634182  0.05717972  0.16066064 -0.22295916 -0.14699984
  0.20997931  0.2553096   0.3234774  -0.1318713   0.3987793  -0.06010707
  0.17366996  0.24372204]
[-0.28587994  0.00422754 -0.07992358  0.04097814 -0.2755546   0.16969569
 -0.15887241 -0.16079864 -0.21387357 -0.31130713  0.12056133  0.1290876
  0.11634782 -0.16728452  0.00730222 -0.20972931  0.08693646 -0.31186774
  0.06319103  0.29624283]
[ 0.05021808  0.18702254 -0.03111911 -0.23109789 -0.1456051  -0.0732578
 -0.03879432  0.07955372  0.16868222  0.27533257 -0.17173506  0.22008508
  0.3774914  -0.18581207 -0.0669401   0.33156207 -0.0247479  -0.00866301
  0.07594876 -0.11120887]
[-0.13465805  0.2708296  -0.06750492  0.25229135 -0.059165    0.10874995
 -0.23619409 -0.18117939 -0.06384218 -0.25552532 -0.20624895 -0.07471302
  0.12921418  0.0223179   0.0348682   0.2333934  -0.07982738  0.0141997
  0.15356623  0.13081914]
[ 0.22977018 -0.01225455 -0.2904468  -0.01787975  0.15293144 -0.09882209
  0.28582898 -0.23093392 -0.16159584  0.11806538 -0.15161344  0.08134262
  0.28123093  0.24115202  0.20604275  0.06685258 -0.16086762 -0.2676571
  0.2769226   0.09556391]
[ 0.03670158 -0.09004816 -0.18264994  0.1394201   0.31267017  0.22922237
  0.20650871  0.2230483   0.18375295 -0.22758156 -0.13823357  0.16304243
 -0.26195666 -0.2918632   0.1540666   0.29059887 -0.15178604  0.15138146
 -0.01091349  0.2240704 ]
[ 0.00732609  0.0142056   0.0349159   0.03315542 -0.02013991  0.02343186
 -0.03354736 -0.00771381  0.01490815  0.03390763 -0.02203323 -0.04572292
 -0.03385518 -0.00816374  0.03097468 -0.02481271 -0.00177492  0.01933714
  0.03226991  0.01847656]
layer 5 Activation
tanh
layer 6 Dense
20 1
[0.38631374]
[0.21383888]
[0.19999555]
[0.03921194]
[-0.09410383]
[0.14045924]
[-0.38072824]
[-0.11956569]
[0.13834201]
[0.46388263]
[-0.4072173]
[-0.22755824]
[-0.15151003]
[-0.42585015]
[0.2186641]
[-0.17391062]
[-0.00020222]
[0.00348675]
[0.38388154]
[0.2694364]
[0.02940521]
