layers 7
layer 0 Dense
20 20
[ 0.32332793  0.15150353 -0.20861809  0.04563222 -0.23068815 -0.07590451
 -0.04523501  0.00217658 -0.2696991  -0.31085134  0.27433115  0.2129766
  0.18715797  0.3377313   0.13086918  0.06898033  0.27078906 -0.2686084
 -0.3156155   0.3642105 ]
[-0.4045286  -0.20097087  0.3078445  -0.29047433  0.30562454 -0.15443946
  0.02598928  0.35330746 -0.11201835  0.16726899 -0.35156938 -0.36211145
 -0.13463119  0.3457153   0.3031843  -0.09622113  0.04838069 -0.27192536
 -0.16303827 -0.27843696]
[ 0.19160911 -0.197898    0.27674776 -0.25516242  0.27261797  0.28043246
 -0.22976753  0.12733221  0.04633334  0.08199126 -0.15549159  0.25369722
 -0.01894408  0.43358487 -0.2856868  -0.17788103  0.12620384  0.24387114
 -0.2682822  -0.26148242]
[ 0.04913981 -0.13519524  0.17037487 -0.3111447   0.39478925 -0.14813288
  0.18227181  0.09165432 -0.22997089  0.41265044 -0.35396674  0.12903357
  0.0276601  -0.2723067   0.10611971 -0.1939986  -0.33006927 -0.17136647
  0.12083868  0.42637548]
[ 0.13822886  0.11546787  0.30537456 -0.17110708  0.11606742  0.24063936
  0.1833644  -0.24009818 -0.39329907  0.23879679  0.22792721 -0.18801698
  0.36889085 -0.06244336  0.1364975  -0.08122536  0.16818714  0.13294536
  0.08203889 -0.25524232]
[ 0.04696443 -0.50466394  0.29522222  0.24080876 -0.4172962   0.48421025
 -0.14726678 -0.17035244 -0.13030645  0.37454137 -0.00572957 -0.11363497
 -0.47040188 -0.4803813   0.16677998 -0.3774241  -0.1556193  -0.2720875
  0.04749855 -0.43640894]
[ 0.23764643  0.00116869  0.32270312  0.4629356   0.12678955  0.28864464
 -0.12928548 -0.4185594  -0.37889808 -0.0692189  -0.15809608  0.32862923
 -0.05901673 -0.45282385  0.20400073 -0.16320972 -0.10596854 -0.20620947
  0.44043618  0.03942168]
[-0.17159103  0.00384529 -0.28102684 -0.23101    -0.24109052  0.27961275
  0.17315453  0.27179098 -0.02063184 -0.24556352  0.15239173 -0.13190548
  0.04796991  0.21481892  0.10207595  0.05726429 -0.28022194  0.14043397
  0.283991   -0.3136866 ]
[ 0.10427362  0.1542005   0.27307832  0.23534422  0.04107327 -0.09774184
 -0.3648371   0.01449935 -0.0128394  -0.20448516  0.16355214 -0.16027412
 -0.23382404 -0.09249356  0.1820795   0.21614228 -0.0835491  -0.17295021
  0.25181255 -0.38074592]
[-0.09629829 -0.18833299  0.25098547 -0.23736934 -0.33537892 -0.13477537
 -0.27780873  0.09344225 -0.25173986 -0.08670909  0.3033194  -0.01298418
 -0.26420578 -0.05348764  0.3168647  -0.46304682  0.24609844 -0.35283607
  0.28294525  0.11631262]
[ 0.31454656 -0.02428443 -0.20188424  0.0395315   0.36718822 -0.27161008
 -0.10326303 -0.2365318   0.05272821  0.15127212  0.29941323  0.02335613
 -0.11426061 -0.10072003  0.23918001 -0.15843093 -0.1289843   0.00252541
  0.18413731 -0.1430471 ]
[ 0.07024146 -0.4661401  -0.4584796  -0.46636954  0.3550512  -0.19592167
 -0.3176546   0.07337144 -0.03935558  0.07751432  0.21026532  0.12774478
  0.17366631  0.1449284   0.28878567  0.16700478  0.0200467  -0.2515072
  0.27697384 -0.22729836]
[-0.23904803  0.00533321  0.2755271  -0.27528787 -0.25628132  0.13439052
 -0.11207895  0.00850988 -0.01859971  0.24016157  0.19477536 -0.04565715
 -0.1417227  -0.06685716 -0.17166626 -0.2558264   0.27162555  0.01696917
 -0.1666272  -0.3424025 ]
[ 0.22167039  0.09301969 -0.373478   -0.3013013  -0.19690266 -0.38368514
  0.53663576  0.04508301  0.00665123  0.19351181  0.19553025  0.1819836
  0.12482616 -0.2425145  -0.2769906   0.37916878 -0.10098656 -0.27551115
 -0.45073977 -0.4176527 ]
[-0.22492795  0.5061626   0.2342917  -0.34007862  0.35282847  0.3573231
 -0.23827094 -0.35054708 -0.35245836 -0.10344917 -0.42011154  0.33589658
 -0.05599298  0.5983148  -0.18048276 -0.29861832 -0.10408333 -0.1353212
 -0.25639543 -0.57762885]
[ 0.537397    0.30238786  0.30895373  0.2124539  -0.33712214  0.34132195
  0.04465643 -0.3770038  -0.3405132  -0.2072127   0.07436009  0.20075023
 -0.32795033 -0.46469814 -0.12681715  0.17814942  0.10410251 -0.05208437
 -0.39221635 -0.08167538]
[ 0.0567157   0.10891317 -0.263307    0.23527342  0.2816018  -0.15869762
 -0.08837301  0.05632755  0.19277446 -0.01052137 -0.10320579  0.17227416
 -0.141102   -0.11128147  0.10144095  0.40472388  0.06442223  0.35737783
 -0.27479368  0.08469889]
[-0.05517985  0.18152793  0.2535631   0.08792912 -0.00760801 -0.18017027
  0.27478793 -0.15194991  0.41852143 -0.35847235  0.3275762   0.13947709
 -0.32042834  0.38039652 -0.08768273 -0.1603737   0.32875448 -0.17138126
  0.3528949   0.15449806]
[ 0.20937091 -0.23464286  0.02453297  0.17732023  0.03052705  0.08143871
  0.1137286   0.03791666  0.12828723  0.09906676  0.09678586 -0.32756338
 -0.00323223 -0.06149024 -0.238329    0.57333255 -0.35644412 -0.07484737
  0.22877917 -0.14428268]
[-0.02565494 -0.21912603 -0.04447254 -0.17312129  0.05984714  0.15599671
  0.18884686  0.18895103  0.40670994  0.05744815 -0.17048764 -0.3236188
 -0.05850366  0.4069666  -0.33654404  0.02726757 -0.04895932 -0.34827885
  0.4223806   0.12541778]
[ 0.07234168  0.0142049   0.01483128  0.02179486  0.06539357  0.0265922
 -0.01202401  0.00845057  0.0492124   0.00779817  0.02351458 -0.01748611
 -0.00926351 -0.01281784  0.05089517  0.14966378 -0.00067406  0.01535118
 -0.03435176  0.02181189]
layer 1 Activation
tanh
layer 2 Dense
20 40
[-0.23033501  0.12068772  0.24036013 -0.07503109 -0.27580184  0.30734622
  0.07028401  0.3564907   0.1519785   0.25039092  0.15856478 -0.08248792
 -0.12415275  0.09668513 -0.07841834  0.13095203  0.18167374 -0.1526148
  0.07339057  0.15058577 -0.14348571  0.0577889  -0.06068335 -0.21830875
 -0.22251947 -0.29256496 -0.25125206 -0.25271904  0.00639146  0.19562484
  0.22724777  0.09441914 -0.18191184  0.14476399 -0.10869494  0.15814838
 -0.1034255  -0.13965839 -0.14864506  0.03579497]
[ 0.37187248  0.20165104 -0.27763003 -0.1891817   0.08706055 -0.04568661
  0.30809718 -0.24990806  0.39215368  0.19909038  0.10214487  0.23392735
 -0.12197418 -0.10710928  0.17291948  0.08014444 -0.19624536 -0.23969845
  0.3614394  -0.05573245 -0.1344395   0.12244734  0.2218479  -0.027078
  0.25576022 -0.08600803 -0.22317584 -0.09701437 -0.22793716 -0.24857494
 -0.19645074 -0.03345348 -0.04807243  0.17590076  0.02936751  0.19485399
  0.00898816  0.10635308  0.287554    0.19029784]
[ 0.01138447  0.28391996 -0.30588508  0.07205468 -0.27991793  0.1685513
 -0.2868361   0.08734206 -0.19727983  0.25583577  0.27218553 -0.25133517
 -0.50291914  0.12287623  0.05795808  0.07990384 -0.2202834  -0.09487819
  0.15332372 -0.05064875 -0.2621974  -0.20156996 -0.13437049  0.10796206
 -0.02543546 -0.08346966 -0.2784269  -0.23779067 -0.02126662 -0.04032745
  0.26467437  0.04484857 -0.19060796 -0.18974748  0.13187563 -0.01740173
  0.12649888 -0.18563621  0.03228803  0.3056675 ]
[-0.50079536 -0.18750824  0.09449787  0.23493877 -0.3286332   0.00664121
 -0.26185045  0.30110124  0.10168446  0.2242367   0.16560236  0.3007451
 -0.06497272 -0.10532787 -0.01482433  0.10239471  0.00991347  0.23823681
 -0.23742409  0.27009648  0.02632634 -0.18738396 -0.07378673  0.08899434
  0.1826474  -0.3299219   0.11674415  0.09193115 -0.29603347  0.1442517
  0.2667268  -0.01956887 -0.01103927  0.29152036  0.03972396  0.00604955
 -0.09230161 -0.04799828 -0.27762693  0.31957424]
[ 0.27619725  0.01725929 -0.22990544  0.03233345 -0.16206127 -0.06426819
  0.25639677  0.0518469  -0.11037406 -0.2554197   0.27295098  0.1982435
  0.05304867 -0.00980721  0.21789607 -0.2594747  -0.18814257 -0.13432586
  0.09332496 -0.24020524  0.22257607  0.32671207  0.23779844 -0.2574719
 -0.21219762 -0.13278711 -0.24423642 -0.18643281 -0.2712164   0.20847894
 -0.0968617  -0.23363161 -0.31550407  0.03852427 -0.04587952  0.13156417
 -0.25579283  0.07634244  0.18784648  0.14798522]
[-0.10790236 -0.20551196  0.01811354  0.21640176 -0.2636178  -0.21078967
  0.0203505  -0.26106745  0.29472396 -0.17965363 -0.2682039  -0.2195447
  0.07069739 -0.1851408   0.06050904 -0.3147733  -0.14947554 -0.2596949
  0.11527714  0.34531036 -0.14464763 -0.11178946 -0.15341552  0.09424175
 -0.23378737 -0.16618416 -0.00849765 -0.04784698  0.15061747 -0.15144476
 -0.02319262 -0.24589364  0.21126363 -0.03109414 -0.18404466 -0.11078951
 -0.16289525 -0.04071887 -0.12498482  0.21026148]
[-0.2394287   0.3069165  -0.23536639  0.3373144   0.26113954 -0.01021703
 -0.3193149   0.15919362 -0.23409104 -0.04781873  0.15363559  0.24307767
  0.34202856 -0.05063769  0.09064381 -0.33285058  0.0466212   0.16074678
  0.17117703 -0.05592896 -0.2506227   0.29585308  0.35822144 -0.1098943
 -0.01946479  0.16034319 -0.06201766 -0.1961364   0.18116023  0.32602504
 -0.06588073 -0.06392007  0.23331417 -0.24637279 -0.25181317 -0.21166766
 -0.18908975  0.1174047  -0.12743284 -0.11033929]
[ 0.00243942  0.19094639 -0.21146546  0.3030632  -0.04093366 -0.26609376
  0.15893999  0.09487698  0.23423377  0.21482065 -0.11049284  0.17478296
  0.21147592 -0.26313537 -0.04898853  0.15387294  0.06541462 -0.04994945
 -0.301289    0.01613186 -0.10549284 -0.23063876  0.23722942 -0.16677892
 -0.34217826 -0.16525923 -0.06591822  0.09841836  0.06674442 -0.28413627
 -0.20748396 -0.1418251  -0.15937167 -0.07278334  0.27408907  0.0499891
 -0.16648492  0.00107958  0.04145702 -0.25069982]
[ 0.07311039  0.0864498   0.2825863   0.10324193 -0.29963163  0.01018051
 -0.23070647  0.07459475 -0.22070548  0.21987174  0.23127128 -0.2970732
  0.20515034  0.14879094  0.07485253 -0.10143474 -0.09746417  0.31356186
  0.09164917 -0.06940992  0.2993583  -0.1531739   0.29313806 -0.17977501
 -0.05769589  0.08037297  0.15642065  0.21757871 -0.03182261  0.05678047
 -0.00192883 -0.24506393  0.04210161  0.04025431  0.1470184  -0.0423183
  0.02710639 -0.07129516 -0.01416165 -0.0168211 ]
[-0.12332574 -0.06070545 -0.05575652  0.13950533  0.17354657  0.01454503
 -0.26780054  0.06676789 -0.14286174 -0.1708909  -0.10715823 -0.0204454
  0.21659969 -0.06387166  0.13736336 -0.04785454  0.1541596  -0.21088532
 -0.18219306 -0.44371083 -0.02142082 -0.18140467 -0.2514361  -0.2046485
  0.24001184 -0.04872629  0.20012438 -0.42055354 -0.14111918 -0.2697049
  0.20902362  0.2805672   0.08835147 -0.0695632   0.19320296 -0.27270165
  0.01425108  0.277556   -0.22517888 -0.1550212 ]
[-0.19724494 -0.14727643 -0.01860339  0.37404954 -0.28297538 -0.23385793
 -0.3281164   0.08347614 -0.23402286 -0.05799916  0.11762242 -0.05686872
 -0.06993435 -0.17840698 -0.32591864 -0.13887116 -0.16834259  0.27190614
 -0.17933117 -0.18885382  0.15980074  0.27360213 -0.2638423   0.08502469
 -0.06014059  0.01434849 -0.02366805 -0.2529007   0.03313704 -0.2790554
  0.07794748 -0.03810256  0.13362391  0.02487087  0.14472975  0.22322272
 -0.15278363  0.26052597 -0.25714985  0.19147046]
[ 0.01887932  0.2945882   0.13317074  0.1026931  -0.00372385  0.11580499
  0.23789564 -0.20018283  0.02266072 -0.20998682  0.21421938  0.10199159
 -0.26033357  0.09028815  0.02082248  0.14678656 -0.21332356 -0.12839204
 -0.21989377  0.09585325 -0.29181987  0.06332611 -0.22991963 -0.19884746
 -0.10113909 -0.20003426 -0.2598918   0.0063771   0.16454023 -0.16512345
  0.00116919  0.13739488 -0.08260383 -0.27952036  0.03035462 -0.10888679
 -0.2636566  -0.02912438  0.20274022  0.02762441]
[-0.19234197  0.18945819 -0.07186615 -0.00479613 -0.23562516  0.04978326
  0.26942    -0.09512234 -0.11015273 -0.29761466 -0.2512891  -0.28026053
  0.07737862 -0.03904874 -0.28912386  0.22722262  0.01963301  0.22253433
 -0.21564369  0.00092663 -0.23279728  0.00165727  0.30469725  0.06505174
  0.16165389 -0.06117305 -0.2479118  -0.22363214  0.07189163 -0.24174477
 -0.30711773  0.4112831  -0.07984308  0.02788625 -0.30848822 -0.06566945
 -0.13843255  0.17619707  0.10025975 -0.2846141 ]
[ 0.0446988   0.24796036  0.01929299 -0.15220919 -0.01984575 -0.07523037
  0.099886   -0.2779382   0.2746845  -0.36825952 -0.21149741  0.11800578
  0.15739065  0.2356156   0.36937493 -0.21550548 -0.12729502  0.24194832
  0.04691533  0.22259082  0.29490057  0.03601816  0.13294424 -0.09514602
  0.23664382 -0.11424845  0.11373115 -0.01886784 -0.21076247 -0.11199689
  0.09277277 -0.238158   -0.29162356 -0.06559003 -0.18265648 -0.14036441
 -0.2080014  -0.08948062  0.11854131 -0.04832545]
[ 0.1745249  -0.20394126 -0.03379603  0.08975799 -0.240589   -0.14794901
 -0.14478573  0.18423788 -0.19912615 -0.07398441 -0.30363166  0.13623096
  0.23076966 -0.27916902  0.03444135  0.1664642   0.20815052 -0.11780444
 -0.15341154  0.25213975  0.10231489 -0.1605405  -0.11108782 -0.05833931
  0.15942638 -0.25494596  0.03628073 -0.06464464  0.21025164  0.02820799
  0.23225935  0.04315165 -0.2948179   0.20846479 -0.04805886 -0.16319843
  0.30818984  0.02375777 -0.18344663  0.06786872]
[-0.22475493  0.10539415  0.11569    -0.01588759  0.1719966   0.28886178
  0.17305098  0.07697731 -0.01676932 -0.13968888  0.18648186  0.11040874
  0.06371671  0.07785489 -0.14921471 -0.05196387  0.21986765 -0.1084834
 -0.11201154  0.03033446  0.30818728 -0.18288836  0.03843761  0.14048696
 -0.23624241  0.2784959   0.30581945  0.06989764 -0.06453738  0.09317405
  0.13963488  0.23646954  0.35174873  0.0797062  -0.09119406  0.30442742
 -0.04716368  0.06591099  0.32839525 -0.12348627]
[ 0.19030368  0.07615845 -0.18249266 -0.16461419 -0.20621935  0.319548
 -0.15403262 -0.10810689  0.0767604   0.01717362 -0.02607907  0.24203421
  0.11977632  0.3282218   0.14323017  0.03060431 -0.01392336 -0.01800447
  0.13137363  0.18087818 -0.03617125  0.19384572 -0.23341684  0.06870984
  0.21488498  0.03532596  0.09474481 -0.1600169  -0.01195636  0.07055693
 -0.00585623 -0.09033962  0.04872975  0.0457343  -0.09801184 -0.21444476
 -0.12377011  0.08008802  0.21528454 -0.00455903]
[-0.02095121  0.15631409 -0.21820676 -0.22084299  0.12924609  0.05032612
  0.17413244  0.03023424  0.01429716 -0.00553265  0.22058843  0.00789065
  0.14130929  0.14327364  0.12636076 -0.04770358  0.21425112 -0.14759003
 -0.05245844 -0.12289815 -0.28285915 -0.2530553  -0.23368415 -0.17417175
 -0.26939237 -0.19270307  0.00288198  0.11702552  0.22579148  0.2546982
 -0.42322838  0.23211119 -0.14819108  0.22124842 -0.21881148  0.14372371
 -0.22897528 -0.10637172 -0.28332976 -0.06103572]
[-0.01664208  0.02432287  0.14565012  0.21236223 -0.11382688 -0.04446089
 -0.06540499  0.03917275  0.02552375 -0.06403232 -0.27462652 -0.25645015
  0.10803642  0.06273729 -0.28413758  0.15348597 -0.22895956 -0.3033357
 -0.33873788  0.13480335  0.40816623 -0.21589753 -0.21319221 -0.18422727
 -0.10401728 -0.01081229  0.35244617  0.2758341   0.18101835  0.01026004
 -0.26446256  0.13767037 -0.33828747  0.15094243 -0.16083376 -0.21598467
  0.04818076  0.13348867 -0.1872083   0.2384017 ]
[-0.29017675 -0.1746372   0.12182586  0.1097293  -0.10957006 -0.24607877
 -0.02808629  0.39760312 -0.01720007  0.22855014  0.1616954   0.11647408
  0.18037815  0.22789377 -0.10505831  0.14417212 -0.07011226  0.1116853
  0.11048769  0.20624411 -0.01318364  0.32420766 -0.30765414 -0.00841704
  0.05792958 -0.21160953 -0.2996381   0.13653784  0.05317418 -0.07202653
  0.49094868 -0.00363099 -0.00495653 -0.08514812 -0.18916337  0.25175047
 -0.19094855 -0.00364979 -0.07281489  0.27135545]
[ 0.01856871 -0.00867497  0.01845567  0.00781131 -0.01212715 -0.00955279
 -0.00442167  0.03865202 -0.00845365  0.04066357  0.02228126 -0.04225482
 -0.01412238  0.09006532  0.01451959  0.03629149  0.05649199 -0.01471543
 -0.00526579 -0.06740489 -0.0052565   0.03989679 -0.00471344 -0.06631718
 -0.02361875 -0.03155895 -0.02439327 -0.03771065  0.01555463 -0.00770381
  0.16342534  0.01759589  0.00344546 -0.00038422 -0.01527126 -0.01428005
 -0.03010729  0.08282563 -0.01177024  0.0062164 ]
layer 3 Activation
tanh
layer 4 Dense
40 20
[-0.17600526  0.13706976  0.22318605  0.06606062 -0.08045922 -0.16363893
 -0.1302051  -0.02150604 -0.15436094  0.26608765  0.16411339  0.01874144
 -0.36117646 -0.28614995  0.12231895 -0.08001287 -0.31866568  0.12695545
 -0.20294864 -0.25259858]
[ 0.28785485 -0.30004802  0.21786682 -0.29356125  0.08924972  0.24666253
 -0.08219067  0.10417756 -0.11422238 -0.00888397  0.17254247 -0.1420329
 -0.27266514  0.23881046 -0.25129658 -0.12361719  0.05622265 -0.01975294
  0.12363865  0.13942102]
[ 0.00904376 -0.12522534  0.06913938 -0.20591177  0.0314523   0.20057675
  0.30131316  0.10532307  0.03407116 -0.31732288  0.24352995 -0.15746069
 -0.10019321 -0.26953664  0.16877665  0.2243871   0.28839907 -0.24575464
  0.04332291 -0.01708429]
[ 0.24401346  0.16863972  0.2972125  -0.1462598  -0.11798423 -0.1946735
  0.25233346 -0.26754048  0.30556703  0.25691104  0.20719503 -0.07208987
  0.2375767  -0.00780898  0.16430964  0.10353881  0.30900824  0.03788757
 -0.09247111  0.21420673]
[-0.30324206 -0.1618793   0.24615596 -0.15165897  0.11473325 -0.24871135
  0.10445835  0.11856749 -0.2989347  -0.14319697  0.11809102 -0.13992059
 -0.11668516 -0.25884655  0.20788394 -0.25723764 -0.12645441 -0.30638123
  0.21500559 -0.27204365]
[ 0.30917382 -0.06691798 -0.32692423  0.21279301 -0.21551676  0.1592943
  0.23051551 -0.21391286  0.07040961 -0.03050511 -0.22979927 -0.02676427
 -0.00578072  0.00042226  0.12204617  0.20779766  0.12916061  0.23708697
 -0.07092962  0.09835412]
[ 0.0347441   0.13665365  0.14372817  0.11720528  0.1480179   0.15887284
 -0.04799045 -0.15457593 -0.27170402 -0.23350376 -0.2747863  -0.01375059
 -0.25805426 -0.09021316 -0.16376223  0.21127677 -0.09586799 -0.10971748
  0.05831235 -0.2438946 ]
[-0.21057375  0.1892202   0.16096506  0.2480629   0.00073803 -0.26477867
 -0.2590086   0.17129372  0.19263683 -0.13939984 -0.09637062 -0.07433241
  0.38843808 -0.07341375  0.11281093  0.22457618  0.15062888  0.20007999
  0.06216403 -0.08518646]
[ 0.24413866  0.10936628 -0.06559602 -0.05336259 -0.15640591  0.20335712
  0.15495886 -0.11793442 -0.04277244  0.3089335   0.2400664   0.05019156
 -0.07632797  0.34632948 -0.30655733  0.14766847 -0.03950241  0.08370897
 -0.13897003 -0.16552664]
[-0.05627991  0.2671836  -0.1284985   0.14181548  0.04298248 -0.21870527
 -0.02514458  0.25135255  0.30042323 -0.10289497 -0.2428396  -0.14646329
  0.1656066   0.00761374 -0.16581535  0.023827   -0.2495856  -0.18618055
  0.11690861  0.22448345]
[ 0.24639414 -0.10620248 -0.21553726 -0.05761081  0.19906531 -0.17826006
  0.14006323 -0.30890647  0.16662464 -0.15776537  0.14111313  0.0647852
  0.05414584 -0.20278403  0.30011153 -0.13129401 -0.01185461  0.39541772
  0.24894589  0.17285617]
[ 0.24399191  0.07213708  0.07269756 -0.10574209  0.11352541 -0.2376079
 -0.04381466  0.25762334  0.10327303 -0.10727524  0.29551372 -0.11564875
 -0.12963656  0.02205213 -0.30154988  0.15568212  0.26690927  0.19304462
 -0.18118088 -0.21268424]
[-0.0515627   0.01525161  0.2230958  -0.21569519 -0.03911929  0.32630828
  0.191803    0.03393999 -0.07063633 -0.17718129  0.15528199 -0.00815022
 -0.3307938  -0.16650286 -0.0605744   0.1682305   0.28852952 -0.20424056
 -0.29256284  0.28652203]
[-0.02163374  0.20183516  0.13086504  0.02869826 -0.00431365 -0.03210494
 -0.04629083  0.10424987  0.20671035  0.04501434 -0.3036842  -0.08230892
  0.24433306 -0.31339356 -0.24069425  0.2697268   0.17855678 -0.02848386
  0.02348568 -0.24608552]
[-0.18264578  0.11875746  0.05629547 -0.16367261 -0.21935192 -0.23484942
  0.03827072  0.02415821 -0.12333778  0.22486918 -0.17393279 -0.13269947
 -0.07525418 -0.11656045 -0.27003053 -0.04486702 -0.22939743  0.03905396
  0.2578608  -0.02311563]
[ 0.14402439  0.0093362   0.08883248  0.22009169  0.18042731  0.26263055
 -0.178555    0.19556433  0.12809612 -0.03328665 -0.12803446  0.00411691
  0.10524122 -0.20212166  0.27197027 -0.2496966  -0.24214178 -0.0597768
 -0.3198348  -0.16404065]
[ 0.08400872  0.16060162 -0.1565691  -0.07822127 -0.06784613  0.11291404
  0.26169083 -0.02320578 -0.17743026  0.05627676  0.20710386 -0.0106658
  0.27135155 -0.10769177  0.1283998  -0.31521875  0.22603051 -0.02864565
 -0.08277961 -0.1752368 ]
[ 0.08869343  0.11017331 -0.04510438  0.2781948   0.13114902 -0.3449349
  0.25156388  0.23349687 -0.07613448 -0.02397726  0.16064309 -0.32909805
  0.03487816 -0.04478348  0.31490973  0.10613214  0.03050631 -0.17662661
 -0.01787283 -0.03560873]
[ 0.15119158 -0.04078648 -0.03908831 -0.20309223  0.13569881 -0.3017824
 -0.08812791 -0.28440672  0.17859568  0.06028197  0.14575611 -0.29624134
 -0.32087874 -0.02846218  0.16259375 -0.09545218 -0.10188514  0.0433716
  0.2960027  -0.27724248]
[ 0.1921314  -0.17502697  0.06697083  0.22381447 -0.04425613  0.09180147
  0.2762623  -0.05933915  0.2451717   0.21801898 -0.3387999  -0.26270393
  0.14599262  0.24891533 -0.12029538 -0.11268745  0.27028763 -0.30157435
 -0.1548208  -0.08942433]
[-0.29451698 -0.23835556 -0.05511957  0.13675378  0.18718244 -0.33253372
 -0.29799047  0.02514828 -0.27052242  0.21667874  0.18767114 -0.32381308
  0.09602945  0.06462091 -0.26687038 -0.24658887  0.32250586  0.25234422
  0.12774304  0.30583277]
[ 0.0731616  -0.1956579  -0.00999432 -0.15890877  0.00932258  0.02410154
 -0.28427452 -0.12177958 -0.26706606 -0.12407996  0.06372298 -0.19974153
 -0.09307374 -0.32161456  0.15604827 -0.11729714  0.20382564 -0.11129714
  0.24802439 -0.20650083]
[ 0.09127638  0.02570081  0.01341373 -0.23363854 -0.05662678 -0.1880542
  0.2762338  -0.12841164 -0.36290848 -0.16043116  0.29080784 -0.28602216
 -0.02662028 -0.23655573  0.05092872  0.05910302  0.23584932 -0.06513945
 -0.0019355   0.04443025]
[-0.01796995  0.00358285 -0.02848199 -0.09877588 -0.247416   -0.0819241
 -0.17292623 -0.08008884  0.05598532  0.19104517  0.08675679 -0.13686936
 -0.07001892  0.30525655  0.13857692 -0.17994088 -0.27822882 -0.11847924
  0.00135059  0.17029834]
[-0.14527592 -0.19534047 -0.10744862 -0.03721369  0.3252671   0.35704613
  0.00380859 -0.1848754  -0.1103849  -0.08383018 -0.14658357  0.15998061
 -0.21575347  0.00529423  0.0139743  -0.10785905 -0.13017093 -0.21086131
 -0.25045308 -0.20336556]
[-0.04079801 -0.123414    0.07528251  0.00754996 -0.20288984 -0.01733121
  0.04648475 -0.27998576 -0.24302773 -0.07062016  0.28951406 -0.1879916
  0.13573447  0.20189372 -0.10803232 -0.3078204  -0.0212056  -0.21552719
  0.16155884  0.17363252]
[-0.00146949 -0.19546096 -0.06744131  0.24256976  0.2050176   0.17265806
  0.1976256  -0.14698564 -0.10936909  0.27409345 -0.27182668  0.11053876
 -0.15912262  0.29129517  0.01495762  0.10155175  0.22037153  0.05767861
  0.08508319  0.16363047]
[-0.17701124  0.14044692 -0.09958578 -0.16034117 -0.1547788   0.00222685
 -0.07264916 -0.0766972  -0.17709936  0.23993793 -0.14687413 -0.20189695
 -0.2786335   0.03734119 -0.25687626  0.1247915  -0.04752985 -0.1465008
 -0.11904117  0.11648893]
[-0.05080776  0.34408525 -0.19261563  0.21168783 -0.09184978  0.24311392
  0.20954669  0.0847963   0.31833425  0.051621   -0.11810078  0.15502092
  0.01670423 -0.24547844 -0.15020882 -0.23754689  0.16656864 -0.28388926
 -0.3325858  -0.26399672]
[-0.08889638  0.31413743 -0.07512018  0.12332643  0.16732349  0.13795878
 -0.17247844 -0.19431862  0.00791174 -0.2560586  -0.031286   -0.24862505
  0.19861786 -0.07930854  0.2289469  -0.12716879 -0.03701819  0.29510856
  0.04567866  0.18399629]
[ 0.0716503   0.10255264 -0.03786494 -0.07815864 -0.18718204  0.25129253
 -0.30179924  0.30108044  0.3957675  -0.10661519 -0.23406415 -0.08926276
  0.2540023  -0.22330515  0.03056486 -0.07488924 -0.29757863  0.17311735
  0.26855087 -0.07891019]
[-0.19806013  0.08830433  0.1249795   0.02476186  0.14177458  0.31617463
 -0.18956627 -0.25759554 -0.00559136 -0.31227374  0.00538307  0.16979134
 -0.10999053 -0.08330064 -0.02602126  0.00642461  0.25558516  0.08827616
  0.1635234  -0.15721352]
[ 0.03001011 -0.26412803  0.07713995 -0.2415003   0.14406252  0.20959406
 -0.10289668  0.11898318  0.21930675 -0.17753516  0.3997272   0.04862737
 -0.10603599  0.2454681  -0.08963056 -0.14657381  0.00786676 -0.0890456
 -0.13128085 -0.30773705]
[ 0.23027039 -0.14707845 -0.15275572  0.10595489 -0.06828737  0.20624101
  0.33996132  0.28212285  0.02071539  0.12437226  0.2826821  -0.18336979
  0.24460377  0.00522574  0.14663722 -0.06211264  0.17062703  0.10042361
 -0.15558465  0.2999401 ]
[-0.26274526 -0.30593652 -0.0774831   0.04166338 -0.03018672  0.05966751
  0.0185789   0.1290297  -0.04383575 -0.03979686 -0.07539482 -0.11015027
  0.20395657  0.16804439 -0.25763288 -0.1139636   0.29129025  0.06290481
  0.05163512  0.05544759]
[-0.00590873  0.17530058  0.10122833  0.03155916 -0.16707051  0.13982375
 -0.30018935 -0.11654275  0.07800647 -0.26011297 -0.1336037   0.01679244
 -0.27901906  0.284655   -0.05436841 -0.12138944 -0.22737768 -0.1716625
  0.2101245  -0.06124043]
[-0.29417062  0.22948408 -0.13326102  0.18005443 -0.01844784  0.0967899
 -0.0819902   0.268906    0.14656045 -0.04957491  0.00263365 -0.26186073
  0.03992597  0.02588935 -0.1964848  -0.17263807 -0.20905578 -0.21613236
 -0.03807176  0.11441918]
[-0.23027654  0.19760929  0.18588886 -0.06067666 -0.05372478  0.16613944
 -0.05319844  0.00600271  0.16838476 -0.03068577  0.29844415 -0.27280816
 -0.10873774 -0.12548316 -0.22866511  0.29289812  0.14160311  0.20265111
  0.11273155 -0.10901651]
[ 0.2614279   0.15325503 -0.1895468  -0.15152389  0.34979647  0.2005638
  0.23324022  0.31960064 -0.22367162  0.13010241 -0.22058885  0.0634039
 -0.28715545  0.22335327 -0.11880381 -0.1615167  -0.07923175  0.24113709
 -0.02702734 -0.15761822]
[-0.1002774  -0.18925288  0.12916501 -0.23976693  0.0095422  -0.21669519
  0.33609715 -0.17211144  0.31642213  0.2544555  -0.32739276 -0.04937369
 -0.00365232 -0.03348223  0.20876673 -0.20722635 -0.21526593 -0.10293493
  0.26984414  0.21063149]
[ 0.03384832 -0.01552887 -0.01336099 -0.00308772  0.01755151  0.02351948
 -0.0110887   0.005021    0.01218507  0.00209233  0.00507008  0.02663037
  0.0402506  -0.03942847 -0.01112125  0.01157907 -0.00706165 -0.00974058
  0.02514965 -0.02578152]
layer 5 Activation
tanh
layer 6 Dense
20 1
[-0.15351538]
[-0.00342298]
[-0.00626533]
[-0.25246045]
[-0.02895106]
[-0.06046918]
[0.1061711]
[-0.05648588]
[0.138747]
[-0.35272703]
[-0.19360025]
[-0.11113612]
[0.14929004]
[0.32546973]
[0.04022639]
[0.00205859]
[-0.12929618]
[0.18298073]
[-0.26255992]
[-0.19834207]
[-0.01013316]
