layers 7
layer 0 Dense
20 20
[ 0.42324852813830605 -0.18725279044827894 0.3359358632388773 0.17346356287224313 0.28967546205280614 0.23662170930084675 0.0953300844615088 -0.09398372661432139 0.36170048018218554 -0.3394356150689492 0.11558311474317998 -0.02907702684832944 0.36780669063632015 0.3863573836643924 -0.19110869407760864 -0.059345633416326635 -0.4345830865719987 0.7940240356986713 -0.04763274695689985 0.76047189104731 ]
[ -0.3100987484784347 0.19849908693742205 -0.11877065961045945 0.3159304208011615 -0.06775449718126289 0.2436322434003108 -0.138974609233582 0.15586904774463636 -0.35583133357968116 0.09764213409882869 -0.13976934071260164 -0.37201055886163004 -0.15580788065169565 -0.10253320324892666 -0.07870735369304019 -0.11035084872470077 -0.3654791328277502 0.3355686519397891 0.3435325885392624 -0.14661696802356816 ]
[ 0.24919028108190946 0.04614372027152791 -0.21510280718241176 -0.2024257097382805 0.12513602039742977 -0.08017899675610476 0.25117267835115276 0.2846585350422337 0.001857037360047038 -0.04566634753602053 -0.3575106288271168 0.039598475828841115 -0.3825557967693683 0.25707501185238474 0.0908465664774403 -0.03454334504075745 -0.36931597243451053 0.3732865457915867 -0.19338100662045948 -0.03748935450743158 ]
[ 0.10098878709129053 -0.1498478842984515 0.34462222437045026 0.327480278232323 -0.360522915758401 0.4915266603520936 0.598659710869286 -0.4434699098282238 -0.24093702231761202 -0.24885122398365592 -0.1818327165669021 0.12555673168297127 -0.07501735956342975 -0.026874308715642885 -0.4569095416586555 -0.0012280812823389743 0.24916556316890534 0.051859989627303114 0.1876098455819782 0.3699000911031722 ]
[ 0.5981570853577822 1.23030006937873 0.4798054977239286 0.26533308575422926 0.7243522070663593 -0.24153968980959675 0.5068564309767187 -0.0470481230356707 -0.3468818685329397 0.21050183810022066 0.5084011001764664 0.00041651565662948224 0.8201272552994131 0.3238107057076951 -0.014190813043096322 -0.3244867735682255 0.3043611801988497 0.17091107764197697 0.3062850506583637 -0.0889665670242058 ]
[ 0.23306777998932326 -0.16619392958809687 0.16066135650420083 -0.2625027937298176 -0.20451328502004412 0.34496589225566315 -0.048013604687159914 -0.0595762938155164 -0.2550868531114175 0.16809002037963955 0.1971802382873928 -0.12278863585007099 -0.1284546018428877 -0.3724978090186166 -0.1073568227897567 0.09927607301834565 0.21943382049743368 0.03014872708460893 -0.21391366201848905 0.160680502440487 ]
[ -0.24578979906717877 0.09302020846111181 -0.35886845154889596 0.2920150697899384 -0.13226835671516418 0.2834878561367708 -0.16044306283877469 -0.0010232750095905848 -0.12007961618087253 -0.3204060711506877 0.3380400951842966 -0.1248367575497416 -0.3548653747736234 -0.03316885328464507 -0.3633281620498173 0.30800553940643455 0.23890598929983628 0.040759154469037454 0.14571248871823028 0.10390225880064549 ]
[ -0.18471877155068214 -0.861030274886405 -0.3948388211504612 -0.5099434819785772 0.112226194623233 0.13448944971376117 -0.6719446374821438 0.6278234545951694 0.7604523151879542 0.7100326014315733 -0.024733892329132645 -0.2719022941529338 0.4279502270240612 -0.04134942726251429 0.039563305654649154 -0.42857882273223336 0.08712857457259295 0.11236571489303625 0.1680304554637088 -0.7001231434345143 ]
[ 0.5584984859423859 0.04940721981101519 0.042813418730434545 0.3752945765082171 0.3586805052138196 0.7827449520819608 0.7683050597529816 -0.5570160229277038 0.07088738880446219 -0.4120636244558558 0.9876404233264116 0.27469360765323314 0.11493821048850048 0.8180651768913101 0.24196236499806456 -0.20582029621108916 0.7192969926604292 -0.5912493407608034 0.907848360427279 -0.18308924863560125 ]
[ -0.7318606148418193 0.1052281140319842 0.1483603994430517 0.22900190708629328 -1.0008845221667213 -0.4338321445825327 -0.2062290570784524 -0.16610053764431135 0.3381878775190446 -0.32353291482401686 0.37260163157475085 0.3344518747819767 -0.31009802116915314 0.3870044520794584 -0.08523857614587767 -0.19877751199486038 -0.021703376642990775 -0.16783066250275003 -0.06940401238568407 0.04443264629477787 ]
[ 0.27702511968231 -0.08828883429788703 -0.1654692682164878 -0.030059942741922297 0.21387866921568163 0.07116136209131207 -0.1045157244696881 -0.0695029335583362 0.19061122619846405 0.05421444677376357 0.11965664639107498 -0.4670398966194245 -0.20440178899060749 -0.34698082626137083 -0.8974480971370821 0.7945873372799854 -0.055476420526132685 -0.5815579248633425 0.35972190188615677 -0.06410603213829304 ]
[ 0.0842846584655385 -0.5873597286725794 0.18669557801874714 0.37588436192512026 -0.042739233018386856 1.677781806250482 1.1227807064942745 -1.8173573277920736 -0.44230374104853276 1.5501642853643551 -0.05717414242355178 -0.9360386947667538 -0.11086898104988997 0.9971254470265868 0.5706942942490708 0.3568168137986253 0.5141245282524576 -0.5924946546108198 -0.2734026655949484 -0.4000300443718305 ]
[ 0.737572235488085 0.23171104700843415 -0.3469620816885879 -0.24884067316696123 -0.17246297121441356 -0.6976974506383711 0.4895407079054042 0.01606782639398354 0.4994553411594633 0.24943458476930924 0.8721277755208658 0.6519461375532073 0.25000889143811106 0.02422472023015342 -0.010426421648927101 0.20552577433983402 0.1642651441153112 0.6249013155394524 0.6666143093129477 -0.4030732268467315 ]
[ -0.37037092366749963 -0.1779359248781553 0.15872627308611842 -0.2695242663900627 0.9482855205609957 0.13717357039978623 0.02915814457928443 -0.4322118280144382 0.38444646178622727 -0.08462104323014538 0.618490669824753 0.13706534801015038 -0.3151713436803355 -0.3140920921196081 -0.697506476175114 0.06135859582880283 -0.39384669206753786 -0.22539162117625242 0.17528367917170481 0.13108791540578396 ]
[ 0.3206667090779155 0.014267865082281686 -0.06401677751773727 0.38222566717816703 0.4906080876276448 -0.009434355768340712 -0.3146285476219569 0.08398364211252343 0.43777637311118933 0.16712416773782166 0.024196519037937753 0.008773315151361013 -0.10179564847062304 -0.018296792395446196 -0.06920344740609922 0.3221054037854766 1.1506512893607062 0.17542960080972675 -0.9672130151081192 -0.07500204822229457 ]
[ -0.538818917261981 -0.9195853785546505 0.5515636763704486 -0.5727796303245174 -0.3702690625377371 -0.021510305974820808 -0.8844677125326283 -0.5403939533719938 -0.043990349262063355 0.9729458891138917 -0.27643121246677255 0.5328811378917017 -0.15895229997620774 -0.0032504284406486917 0.028605408308727896 1.5531424495149677 -0.769207106993434 1.3411062970856322 -0.5082966889565946 -0.8406512058088227 ]
[ -0.5227730067627845 0.17132988396218146 1.1920379624700292 0.4610083690854362 0.4426718025299302 -0.59447813676517 -0.30321463917116465 0.811466465334547 -0.7963700232497237 0.35719124338475766 -0.07508508556930793 0.2586702925879508 0.7542598259598262 -0.6398547225752377 -0.0013879094233936295 -0.46192735199281 0.12114986409857918 0.6922544736155025 0.092687027029156 0.3149844941540477 ]
[ 0.822989897928963 -0.35352940694931284 -0.3639030676399135 0.2228377861894776 -0.40896388214111556 0.16291497702940133 -0.35301235092439726 0.1470478999490396 -0.29487874158142036 0.15480623103507166 -1.103793462341786 -0.39186941187336694 0.6367239278908983 -0.6473365636231345 1.2536807835139598 0.1185917554218227 0.39569589527791943 0.7227400907610094 0.953839710924955 0.2278449491166178 ]
[ -0.33545942684729396 0.33143448722164226 -0.3221529145381855 -0.0954524514127493 -0.682450406626273 0.580211444349952 0.30825492129201915 -0.10938305077634959 -0.18208354277249444 0.22627886792313037 -0.9456241008109386 0.7286145424034453 0.41993922699776537 0.7718121785662938 0.29905272517281783 -1.2564779496853966 -0.8148960598061427 0.8083425787938897 1.36568684287991 0.09373773078306576 ]
[ -0.008639710927550283 0.048380092457418256 -0.8152199734502107 0.22728158373256382 -0.08556104745650202 -0.06011577044179994 0.18752436680493909 0.5335017836961176 1.1399682584958677 -1.503472194443573 0.2150156442636271 -0.05215851139585319 0.1187936817098418 -0.20935871785876725 0.03194543182939271 -1.0038019362419577 -0.02640511739357692 -0.42100246282172094 -0.11476377645749883 0.38259519046297774 ]
[ 0.04936477001785488 0.14805221635004476 -0.015808469136211395 0.06612404772340978 -0.12801194550485545 0.16519954631288905 0.13104826079106788 -0.34308610369507464 -0.07987738458290257 -0.3463829583431206 -0.12033493668423756 -0.11958549955042358 -0.26832069977698214 0.20332625745975788 -0.09638378728958587 0.12833378304281162 -0.09063781359943877 0.04484565498404623 -0.22550544980531947 0.3359973301196261 ]
layer 1 Activation
tanh
layer 2 Dense
20 40
[ -0.38087262717786474 -0.27372545787042113 -0.06499409932980599 0.21217192271264423 0.2006450838214189 -0.2688332993014778 -0.4738715268208365 0.05616350867678432 -1.0127520575245932 0.1907489684713199 -0.27696947070191635 -0.5163796300534002 -0.12346485742415159 0.2570797424023605 0.2395745542366327 -0.5373685041686127 0.03352599732839527 0.12843019899939104 -0.5733134667719879 0.2139163735832594 0.3324069386859538 0.3269350530360941 -0.3265508716869065 0.5718707993439062 0.5502647919257072 -0.15402621873542896 -0.4428661595925213 1.0800326565387917 0.783455336608297 0.2642917532152118 -0.25821910698944234 -0.4787701401456955 -0.12284274469540421 0.0712239083325219 0.06936761822882825 0.2071439133745511 -0.1412013058802084 0.2888583703112456 -0.2310963762777407 -0.516972797025481 ]
[ 0.7685511582941692 0.09458939117153001 -0.22983364024496414 0.509695164212957 -0.29818059003090425 -0.2185208895422919 -0.04461003242972078 -0.28401699412162873 0.26629750575137145 1.0323073643088816 0.16812148941425462 -0.2931402994458517 0.19501262866444663 0.12909051740567618 -0.9049191234933425 0.04937631037104647 0.2903064342472227 0.129612241380392 -0.05340814354932202 0.19660993753196304 -0.3621963571469362 -0.017515516938796345 -0.44256419547099285 0.2573114217173529 -0.1522775363275676 -0.10367975102942269 0.30242936566694567 -0.6558386983003992 0.20289812783806635 -0.027220979907604786 -0.14422991649915382 0.2435622558390179 -0.008328151614249752 -0.1961479375358017 -0.07704372023913954 -0.25877654780310017 -0.2928048860241664 0.22755497485725915 -0.6979797910429045 -0.05878283160031826 ]
[ -0.001141222692751102 0.5106523874696318 0.5362004471454611 -0.5793693616663299 0.4245168245674421 0.40766293441855384 0.2056681220652289 0.5970165105846407 0.3242578828602203 0.17521434877951517 -0.3636578761644202 -0.5513938435743597 -0.07739114821777206 0.00717648401766327 0.510654950028355 0.5638640243483535 0.10012456936170577 0.4383549810874274 0.3256244533738723 0.2383123039254762 -0.03379166919094264 0.25236574213553176 0.21653909603024782 0.3951874874479603 0.30435919435110226 0.013816849420095098 -0.6489922306578895 0.41111711247442834 -0.3057400553586603 -0.026931241033284068 0.4457067718772802 1.0027009298778808 -0.332795425695412 -0.42232297030289917 0.11056053542117042 0.1404493950975044 -0.10255745503010191 -0.579978002315843 -0.3144075466447731 0.4888910318497997 ]
[ 0.5108549761043852 0.23821077449328298 0.06832609819764407 -0.23376709007644297 -0.06066933426584811 0.09897580936639797 0.05320786930288183 0.3966596802903818 -0.5365677528021394 0.021409359047084308 -0.28100420899954326 -0.1472903364262317 -0.12822069592697044 -0.12003540672423878 -0.40299220149475207 -0.21474637715794131 -0.29468164549025494 0.28977837224725 0.20724848437250198 0.2341433456195549 0.27201939280956344 -0.17297874584557552 -0.2757807825988872 0.4257409095463438 0.36746234403273725 0.2509000759162339 -0.20022451067759467 0.193042001749081 0.30021103897786083 -0.3960550008371519 -0.06954960950469626 -0.14359580289914123 0.12913651748940808 -0.48784728601110844 -0.13727999509808686 -0.15015411638561427 0.20774183428102344 0.40306929972281064 -0.27058516313371983 -0.48149195609553336 ]
[ -0.1670430190233297 -0.2016875276561189 -0.19124300671866112 0.52482470712281 -0.3869600699070452 -0.01618766326990451 0.03643910998391 0.26993000035081305 -0.34298089929889236 0.7432681297678179 -0.2961275968184441 -0.44379455524881767 0.3317221652100794 0.37228362252727865 -0.25911492746461984 0.5211942215142208 -0.2764694397801354 -0.27528881752577916 0.06757879021196757 0.04573957602704246 0.12173953562541114 -0.2801106753475175 0.37991385683083895 -0.3040086459748364 0.09387126299880891 0.8062219471037265 -0.13877771372365263 0.875546366200554 0.20529500364086967 -0.019081561014548856 -0.38894669195911324 0.45422265934833866 0.14172101745372584 -0.1638755029838079 0.2724598408944378 -0.2155396198633323 -0.024869242347480544 -0.031689535987265045 0.08360788746276918 -0.2806899132899069 ]
[ -0.339077248512798 -0.7537829394693435 0.5016229316093372 -0.18507262152388454 0.3592138576527083 0.1040624632650208 -0.1921316441872527 -0.0343842498970049 -0.4744308481284785 -0.3366824762409058 0.5159325425384879 0.44329754032500124 -0.31978702195053826 -0.29094180482871124 0.2366568139715861 0.043119905462174306 0.2838700351904563 0.23038683377245764 0.037948090253664704 -0.2522207617324634 0.6605657910896751 0.2157040749849346 0.15714349032677602 0.5726797269981677 -0.35184020105234554 -0.20622823939422893 0.3389977059367639 -0.626458831336051 -0.10965085698590801 0.44675159784480917 -0.15876973314322354 -0.13642203016841326 0.22432130407822692 0.23823590714660745 -0.2443731754603809 -0.04691023787551943 -0.19691883292306794 0.1537394696213186 0.2725393478755731 -0.009215005157642283 ]
[ 0.03423427145117945 -0.014371536921780843 -0.3159544346939422 0.48688314888669426 0.08234936897017651 -0.2965783722790973 -0.32508774319384565 -0.8835203865878676 -0.7302588420514627 0.7949609454030576 0.8425154857333048 0.5198152552690216 -0.2521516248439445 0.019894750246702744 -1.0290832037362956 -0.058481398800382514 -0.5455393090026686 0.11224230802710393 -0.3250403935815669 0.4355235415384733 0.6777669650395316 0.22848504823845753 -0.3324787396997692 0.5625324066997764 -0.2741839208477445 0.3062570263204294 0.06383071428497857 -0.23250510519225728 0.669147808303821 0.6048073875142648 -0.5685724333161293 1.0034012260163647 -0.08056282959039317 -0.7543029795722225 0.23358259728384287 -0.3301245768180926 -0.5764035017057083 0.11542768531863645 -0.5968816194871819 -0.2754085459022909 ]
[ 0.1848191874565329 0.10581670697755934 0.3417530256378895 -0.5284129059353754 -0.5182899738703987 -0.08476375346979595 0.16826492056696155 0.301941070378301 0.3335660922466472 -0.21992254673336192 -0.6889529429762037 -0.8471855168628704 0.016604801030582872 0.17025187516267162 0.22303805488496065 0.27283543174748665 0.3009561986077505 -0.7118744836709424 -0.05977681092195567 -0.13672344360373154 -0.8372167160157065 0.1518731436124849 0.4029244914834254 -0.03210645924154214 0.9881581547426564 0.21728687880076475 -0.22962269116956785 0.3190463511719906 0.05616812741011958 -0.28103238152160975 0.599293913158375 -0.08616020392529644 -0.26145311731430315 0.5345184722313929 -0.2033243726942958 0.13688967693562645 0.03616334853422236 -0.14038300618716248 -0.010462300103455833 0.08572179990309473 ]
[ 0.3665513281531501 -0.08390249173250053 -0.896987884763757 0.06893942122637332 -0.06932307351388584 -0.1970762228797171 0.3649624412374164 -0.18193673535114385 0.010904101357673973 -0.239512236098337 0.009710788849607898 0.07814083916874975 0.14887464334044664 -0.10961878772714678 -0.05695126612371717 -0.18463006638196275 -0.15555144021396597 -0.21889501145942095 -0.22172326190574088 -0.15661858986629482 0.0024414293499696437 -0.05093427923675211 -0.5368341462019517 -0.9686693944888844 0.09387853065510432 0.035254378806095346 -0.3115726844214703 0.32473841631785627 -0.5038037667827633 -0.3306445135574772 -0.31354506471758864 -0.2527558910470265 0.11675590814876077 0.6423414878815439 -0.23805978744794226 -0.24102328488100674 -0.04151860178267994 -0.0198039708700462 0.451083751466804 -0.032925687411974394 ]
[ -0.4341084062439187 0.8111881684018257 0.807285952138086 -0.5926447937685672 -0.3158931930674611 0.2787897956670105 0.21368741876793249 0.5473589626531816 0.5514637064377512 0.4108978757321856 -0.22356177479544756 0.07995069034388223 -0.4749486719498212 0.17807785503165557 0.9705276351301918 0.8874641772638003 -0.22931444572897278 -0.4324365852481621 0.42497013172261644 -0.5952283318337408 -0.14500077930584518 -0.15991259966826132 0.9352158815731763 0.7007277475507027 0.17807866170326017 0.10840124578379098 -0.31693357641438147 0.4271913485893699 -0.0003086679172947135 -0.26787207663386675 0.4737648846450511 0.4270036470453855 -0.3494741523223427 0.23329782093307633 -0.12137968614557303 0.2735057631247696 0.3729607177793745 0.17638613032889985 -0.325404082988365 0.17330637562204948 ]
[ 0.26136659750440705 0.06533625142681143 0.006101485725036876 0.0183688711163488 -0.835722943750948 -0.283500226496538 -0.1644881051356457 -0.6557149510160276 -0.5912144455718393 0.6215364681049823 -0.019034853914733585 0.07398869963959877 -0.3186149395769877 -0.08934814035326813 0.2682872841885225 0.16752080806110833 -0.05153235736921443 0.06950169615607579 -0.43447473969726363 -0.17815259885976614 0.15266428677595975 0.12365678621746541 -0.2691094443103082 0.021361832022108226 0.03675330145187761 -0.5370456534048906 0.2985811056379196 0.459669987953385 -0.08863432553703952 0.025569740392372142 -0.44313575545964645 -0.30184776621064313 0.12323632201157655 -0.1653310607595259 0.19747521678446814 -0.1891773110909304 -0.17296180309132703 0.19645867134272432 -0.2760836883010039 -0.2043412145993051 ]
[ 0.09708873849872364 0.34190710253960693 -0.2399411987051013 -0.11533258621870307 0.06926105755278521 -0.24192108555431832 -0.15046878152403037 -0.6247513339825327 0.10409325836451563 -0.07864024836376851 0.3478122384519448 0.8359200916657658 0.15724592082671465 -0.14255562195116095 -0.26694306586112865 0.4674654100955425 0.016745935598333928 0.23875048550693326 -0.2077037205814781 0.04534424502244163 -0.3413681996666719 -0.12344815818992312 0.20454771181066328 -0.1984676256620865 -0.5087958699820226 0.16747971132461992 -0.28550812727855834 -0.010087568086951902 0.2238514107996719 0.1084433737112948 0.10625748102378835 0.2674723544889921 -0.020660569953970274 0.2636764279198402 0.0881832952552783 -0.20892315461106511 -0.19684023199112652 0.1810255807223034 -0.21088908075598925 0.12740565035513576 ]
[ -0.08135910155623788 -0.07618075596372088 0.48194251209577355 -0.3159484556359435 0.546526336665637 0.1373942878756156 -0.49132752610733477 0.4105514893469482 0.36988076650687507 -0.07887698622411568 0.04818966768983995 -0.5577901337149554 0.0055680537824422975 0.10435123693589633 -0.22534592619542665 -0.4177410216194614 0.17688482539904754 -0.2954754740300356 0.08874322283090434 -0.14301913582519407 -0.26185470282356066 -0.16379669573541636 0.11585700027337775 -0.13521776831148968 0.02883562989119792 0.11549998140781889 -0.2315764516425468 0.5275931319821753 0.7672420259599101 0.13199595727261315 0.08823786566964276 -0.08857791433515887 0.003431407091991985 0.06240879830375298 0.02544016485044119 0.2164785996757697 -0.05378763368162115 -0.24785181280696092 -0.5264216936534105 0.27773717113391816 ]
[ 0.7103666225215183 0.3883638771671229 0.3248761094469271 0.34639751690799886 0.3086055689623423 -0.13606081202471346 -0.30652459502787704 -0.6203428203137673 -0.4939471175387265 -0.2657824793537942 0.5626923442649413 0.7390527555662586 0.0029610809582647545 -0.14531915617051244 0.6823745914551806 0.10798296396088113 0.029098943539127137 0.10424500848344954 0.20870563412269563 -0.09772107609719709 0.10471603507876687 0.1720942168072368 0.0961338043886649 0.14867699375233656 -1.2326520550344673 -0.06359507894221988 0.23279970145024392 -0.1734915672102283 0.38786915723024007 0.7467468609780108 -0.5043506214934566 -0.25101055683891427 -0.34649966471188287 0.0361562243899689 0.4154816606155117 -0.10479301611855367 -0.2699900645624054 0.18130513014956828 0.06854972838950238 -0.49673668801319887 ]
[ -0.0603114077214297 -0.21813215281710738 0.23093425573282103 -0.08924971787183736 -0.19211613539122116 0.015733169397197783 -0.3532777530195997 -0.1603086386704132 -0.40553300721110797 -0.37810789952085255 0.13372897367501715 0.5267804647829958 -0.03472006161203709 -0.18933793513833314 0.07929989965257285 -0.4317239243126034 -0.31236750801814706 -0.37143382091149507 -0.00650282348421147 -0.295927903591466 0.23575199520468487 0.28238101387401027 0.0007228008252451598 0.3135002784775481 -0.6827680111299165 -0.25435334152211236 0.1924074425016138 0.06430006410222507 0.4248323227632263 0.04121779717287984 0.1339255363020412 -0.7783432802111895 -0.04348979712755943 0.34467498967827587 0.19322885867730136 -0.3000382247544941 -0.09396370092240289 -0.03524556575012415 -0.5531621017553893 -0.2824670760502737 ]
[ -0.499659403437532 0.08744701664685302 0.39725819388564615 -0.20115912589194626 0.0940263675776703 0.5392953941046255 0.5963934242200023 0.16708290131832834 -0.4487716293903367 -0.11818843002235324 0.3819074766314472 0.7990111681270441 0.37127498353853267 0.06238118779038397 0.2573391120039635 -0.45740654270260284 -0.3672860378301225 0.30984689969725915 -0.4778401507101669 0.23452461459179516 0.6481635401906879 0.3464769420465206 0.32000981970833636 0.3720414672515071 -0.6285861137769405 -0.22242807718339502 -0.8574251207396576 0.10269231138701142 -0.46365882159975724 0.20771793166471936 -0.14788374894267847 -0.5982158790024893 0.04592119847169122 -0.06444593850734327 -0.055307189824744044 -0.13982890711689663 0.09794162433574698 -0.7958081402716531 0.05999594678155635 -0.269227385404459 ]
[ 0.5737619282039971 0.5423439707640006 -0.008209778828250174 0.3979606199368498 -0.30230483639296557 0.5145356783212175 0.15378484052791058 0.06043901347540764 -0.4510798126709912 0.21636490095018582 0.16476776109771954 -0.9241241269888261 -0.00906380492874194 0.4977308502816205 -0.2581724277004447 -0.19018289447931697 0.016416345783528196 -0.01837474697577155 -0.5511908187656955 0.09777107294953523 0.1797108834981342 -0.17470360834269408 0.20659294161622657 -0.09582842333671542 0.5196823575028268 0.4328439268373609 -0.19777719194911778 0.9572024518485714 0.4792104414571555 -0.30282584282056835 0.15026321787791355 -0.5751007711639292 0.09653590519044197 0.20901301024174482 -0.3108835995311966 -0.04443419225693502 -0.056856952019338346 -0.27011870662537546 -0.27626931400258714 -0.5149151144631939 ]
[ 0.16930349070764086 -0.4433219406160409 0.3291132687456485 0.09625259856432147 0.6487682361402999 -0.07623447213335237 -0.3465877934302951 -0.3554003684400223 0.6963676904583243 -0.44298553137277 -0.19126186071261744 -0.38888578941091656 -0.0054136131728810145 0.22927264033002198 0.22602127000483613 0.46004330834595786 0.834709980392539 0.16753962309240475 0.1296182910264762 -0.07051925002906635 -0.23489947190281057 -0.23884646022983935 -0.03182657183239198 -0.40607238035481935 -0.048974997411465666 0.173629961685557 -0.3436256661363964 -0.4048150318487332 0.6111971792983343 -0.08193781678526099 0.5618038841936023 0.3001196902332233 -0.15177146128148072 0.3464540188986786 -0.03521117794486219 -0.09385011989319429 -0.31696732940586314 0.3290761763719675 0.05444694655941261 0.48892803150952907 ]
[ -0.3493793533666107 0.04777123209207626 -0.19007627676218902 -0.2307559214732332 0.1011996891791916 0.2185495286935928 -0.9502468305477783 -0.3574363121822215 0.6367400139643611 0.12084679151477276 0.24602377331399192 -0.32834548029369304 0.11520089615401072 0.5141309467143125 -0.6978801938563064 -0.872942711899528 0.21740226902302817 -0.42206830705570225 0.3006941900015305 0.1210840767321592 0.3971658549676869 -0.29590530886029054 -0.2542196412844512 -0.2865598350724382 -0.21868629904625111 -0.11275424163757344 0.19518695989759677 0.39585369637824364 0.8094263359566232 0.30320269371154435 0.22417476963784014 0.31852791977975037 0.35678878617070514 0.3581117260587581 -0.08802904963922138 -0.0765030316140993 -0.04568095913652459 -0.49260782361392 -0.288840798174917 0.19160250231061424 ]
[ -0.13694732617039676 0.17542367509025714 -0.21234947744567856 -0.03176782210362615 0.4564861593456871 -0.33394046202559785 0.28390598933205574 -0.008639826133462225 -0.1586718596073381 0.012039754401396516 0.05636456747501465 -0.5042146876550678 -0.224632649567964 0.20607468203517904 -1.0216156211022742 -0.4107547868637873 -0.2363256760733596 0.4078247802609095 -0.11270955359828698 0.7203560645837168 0.5235529224838782 0.030548071032606473 -0.22443786094687132 0.16151978283002685 0.1473403720862829 0.32884133101638563 0.07197248217493057 -0.0792685390528564 -0.26769582614456167 -0.0629907624221878 0.05361730646047647 0.09307427916217056 0.20565260283458647 -0.2401968603403798 0.3041060595251294 -0.07590486876809907 -0.011012890277432937 0.14422317411366653 -0.22530709207374844 -0.3282185815977906 ]
[ -0.14226148699669056 -0.0466029359341937 -0.1493188110688704 0.17347138468761378 0.4103761292379929 -0.2090240779195886 0.04483911900676811 -0.184468283132536 -0.32145169300188586 0.057435212740628926 0.21129943149102706 0.10507696073378785 -0.049854039019072934 0.17564871583764563 -0.7313009952915094 -0.23143137414563594 -0.009276525031170763 0.3989541360485445 -0.1000054784598401 0.5129802639853616 0.4215160774023849 0.007190602853516655 -0.3953596325103149 -0.06266679338136368 -0.3840321307479596 0.10468580315024546 -0.21829564962031986 -0.14812480497218056 -0.008992400521334046 0.14912865091940397 -0.040672214648625124 0.018813732768781788 0.12732178794465404 -0.24504131849742763 0.082733878263106 -0.004151819583812874 -0.056515931184741464 -0.04482669313731494 -0.34143554773328155 -0.2798544689329881 ]
layer 3 Activation
tanh
layer 4 Dense
40 20
[ 0.12878325905402135 -0.08006574206290568 -0.33230757771911523 0.23913032803146908 -0.30545630119074246 0.16067701952698973 -0.29470217255700043 -0.31090617834526046 -0.10362650905242538 -0.3284986823447886 -0.21529168437668636 -0.46258489401524333 0.26454910560300277 -0.5283438361086347 0.04830041211201295 -0.3516225095580895 0.2519141174947832 -0.27467018077763744 -0.2415027037040785 -0.24225103345154309 ]
[ -0.2709072935715631 -0.2111415059484181 0.18971019025840943 -0.2953651763166118 -0.15960797614056635 -0.06636854478917419 0.004392685652677741 -0.3631804344519067 0.08948043239401056 -0.3320275953438608 -0.19986874191790402 -0.25131192770975985 0.010890317104077027 -0.1869135330812256 -0.008986328253279312 -0.20078157351306689 -0.4365593264141626 0.40176355289388727 0.25090875923974876 -0.07066322306708131 ]
[ -0.18490117000778797 -0.010472936011651075 0.4290200068429783 -0.18406288987298036 -0.05682574795901966 0.04627526517357318 -0.2828907957652718 0.37760685029031177 0.3413497569297258 0.1983935877183377 -0.269565772186128 -0.0003986775544906017 -0.22897787344799794 0.6459218193989391 0.2579438976818912 0.5201852879876164 -0.2216248846615435 -0.44136420530831566 -0.2757893400472452 0.3622178192544083 ]
[ 0.2844276486094252 -0.16249926813538304 -0.10435697542175063 0.38807568368839324 -0.15834272715296005 -0.03920890203116376 0.24123379261417052 0.03334259236321994 -0.08145024739388475 -0.2764440770418386 0.033164279212276625 -0.1630894023208678 0.32352764911929227 0.053712081684191816 -0.034347413604118394 0.0316144648071043 0.30750917369291025 0.28809998293601424 -0.4237961988400911 -0.2812220081076819 ]
[ 0.41224265717788855 0.477525327903203 0.21668653483404193 0.343485229065293 -0.08003903148028235 -0.18872382185789627 0.535636249512079 0.116234989268361 0.43539871111238065 0.09551544399948678 0.24508853686409812 -0.11791945841022791 -0.30683844845588637 -0.21973556205593658 -0.34359431452812766 0.4031491933951466 0.0673515867627493 -0.31321082951508006 -0.049880182074366584 -0.18214682672928845 ]
[ 0.18103566910997143 -0.13352932515955898 0.24952489723239069 -0.18239293170191134 0.2917447065573471 -0.24969130021916702 -0.05861887725415301 0.12181865591038121 0.12285665341613729 -0.14409638989691928 0.1651975625531408 0.213848865689596 0.0629669351575711 -0.1962643531765157 0.196721448138623 0.2843508550697111 -0.2650046468162911 0.036899451410593906 -0.14028898647391344 0.18281681332263422 ]
[ 0.366458507950903 -0.2894240535232436 -0.09406864506366035 0.1968498125827681 0.27183036213770817 0.046003041608082496 -0.15133207659080217 -0.15371301052191982 -0.35090172106684475 0.03678890115721302 0.15471981738565435 -0.052591456590576284 -0.22961186722792215 -0.2424179734821488 -0.30821213894976796 -0.02340308149422228 -0.2158791977341887 -0.05855620603824656 0.5971645494896344 0.013905600202204504 ]
[ 0.39354055779692215 -0.10136005653018912 0.5750759141330224 -0.4296170635743242 0.20288714305948172 0.3997848914633927 -0.31249228050038114 0.33490404145591357 0.18327689761695462 0.050091982240698586 0.3177319887834547 0.028305030212878154 -0.07158544633324243 0.2613488975363447 -0.048084895736470894 -0.05797977413943305 -0.303146021131238 0.1544190200334341 -0.07652736754395127 0.25114278456364914 ]
[ -0.22518927382557707 0.5530967941461757 0.7074607099714214 0.21917560243746126 -0.17612579228777103 0.11595126221485574 -0.28941392530799837 -0.4953803237004144 0.38111195884076704 0.5161074159808575 -0.04007399652246505 0.027592185985105072 0.24222518304596422 -0.35915081510194236 0.2660633064808817 -0.4066769437692049 -0.2094451474628445 0.4747524091161581 -0.12950590794149114 0.31176269935074963 ]
[ -0.31612053455938277 0.021987869511627785 -0.2563367447374711 -0.1388626310240005 -0.17639197261095105 -0.25910444396588567 0.42383738445308833 -0.11017979771393592 -0.19988471102842487 -0.6055418456379511 -0.3486093401286116 -0.014247977899903562 0.41765122576162506 0.009033822089213415 -0.05635225859958089 -0.26194347249755373 0.2262241974701302 0.505763628546957 0.05663947917977489 -0.07400127255960783 ]
[ 0.35007773295902234 0.3554140416978138 -0.20726614224379383 0.27832889139830935 -0.3518857827468955 0.06996433344636342 0.3283159362253918 -0.26073879926270094 0.257153701178722 -0.3531911770747319 0.23387358427715965 0.035975098550387594 0.49248181484549247 0.34199933496695717 -0.265025391803821 0.2884446694691106 0.2816758756939425 -0.4590446042126179 -0.029408470860528176 0.13404140438047232 ]
[ -0.09468612306550311 0.34875099678279947 -0.537727208425262 0.2994703419538623 -0.19133984026522352 0.14040916427030797 0.24701203791368248 -0.46964882998386653 -0.1212447183133681 -0.08587517278756715 -0.08860262794585448 -0.08279409974167871 0.5969767506267872 0.05879213638868015 0.12744577104271892 0.3896558787534319 0.425984299483587 -0.22025072669684645 0.032043826925845134 -0.16645672156633406 ]
[ 0.22323022449943847 -0.21718531466578392 -0.1710045539733842 -0.07456130927334456 -0.1305222746565885 0.03554090037477847 -0.0061062502667492465 -0.07032898115482313 0.11914883927192399 -0.10056366904960844 -0.10690406176172233 -0.06884849155509991 0.11367828569433236 0.0033676440474898805 0.03659683246986292 -0.03485119781424693 0.06750163614078092 0.31386519582341654 0.2289327749352169 0.05611217117432478 ]
[ -0.03940781428743293 -0.1476238087755527 0.24326328854365464 -0.02574837907398611 0.3273938735278883 0.21390868620225745 0.04685463991488645 0.4265183633793872 -0.00447677888429431 -0.048689893166346594 0.21868640252197608 0.04820209940740716 0.06320238852318112 -0.09564760444116764 0.14094117733340886 -0.07747262722842475 0.12283305475739072 0.40697207923957934 0.03724387973064246 -0.042582188253397074 ]
[ -0.3017486294097475 -0.522200749118811 0.42934765269361336 0.014602239973259355 -0.025105826068664655 -0.05111038175782412 -0.8716488087497467 0.0500036930123838 -0.08371696519198488 0.3725515058254155 -0.36945320434288687 -0.11119457305904654 -0.766747557926439 0.5768399530418661 0.22232787991929517 0.02760981080318453 -0.22530688772775984 -0.2866017149244019 0.16022115716346105 0.09487145647788955 ]
[ 0.07263503609556105 -0.3522207743963365 0.36490694810567725 0.37229358955924313 0.029625542547318667 -0.1737028282086276 -0.3858313909739448 -0.04474036404751295 0.11800582708147093 0.23380986042023819 0.003942252846917662 -0.20001395884715203 -0.6617000817996231 -0.09669311899935168 -0.05887701260878568 0.0803499070604366 -0.19736730107842818 0.2889998175984366 -0.1164663579199139 -0.1890564146045338 ]
[ 0.1860948916990001 0.1617023464442046 0.1383880187249873 0.0007778441862058875 -0.37224516773345223 0.07618790708168054 -0.06915765226842883 0.1706395121785706 0.19075994511715294 0.22840095331972254 -0.14048176933777587 -0.024011209545971794 -0.2441833352952199 0.028425695639697504 0.25406551203421474 -0.23792945188141323 0.28210475776883087 -0.20224646807621302 -0.2828634000939166 0.252404456600507 ]
[ 0.30290406918972795 0.15011195009298012 -0.02729994278753818 0.3648226764055457 0.0693198838130418 0.3095125809106025 0.4823868406195944 -0.4815166064353332 0.03338458238655725 -0.4155084034719169 0.45117528504301085 0.10017668538911087 -0.0756453194094719 -0.09454951563923644 -0.31337274428717715 -0.06605038717312527 -0.23311148487403088 -0.1697438405903501 0.1838452972265788 -0.17761669190216392 ]
[ -0.3125192497322947 0.33668028035563885 0.20275780883706124 0.17138057491894063 -0.055596712045976576 -0.09322533196702547 -0.2904559584436795 -0.39591814627705335 0.0119019913199019 0.3133298153163064 0.11782127653888341 0.1620724815419939 0.3787141105287932 -0.2441541636951533 -0.13844650011996631 0.1835848176926377 -0.27979567078279166 0.22571298913224477 -0.061605464676164616 0.10398992717345021 ]
[ 0.19456499516756162 0.07149995645308566 0.513023243237562 -0.04910664524922492 0.12922387572763397 0.05020178554617874 0.33890750373491196 0.1094083228377862 0.17146120046548285 -0.2958440354395167 0.5377347229429238 -0.21635438098451373 0.45381160854481006 -0.4306731313585198 -0.3227735715670114 0.18524354884366395 0.032102073581263935 0.2713278689760186 0.3331678023945992 -0.440576908754648 ]
[ 0.3216722018816125 0.0677540255684181 -0.18964892682437445 -0.15611089681853751 -0.1036840098500125 -0.26424099289189 0.6963235606591351 -0.06382509539941149 -0.20045261386731297 -0.498545908517952 0.4850591034739289 0.28360237134916655 0.03244831513762153 -0.04604241198954878 -0.016952162433657797 0.5574472194530533 0.060618153979966914 -0.25888058884603316 0.27639981750432213 0.17810376217785334 ]
[ 0.2132547782724627 -0.012601319440449399 0.02970904256159678 -0.07621229795480003 0.3420248941118896 0.07301281995867072 -0.009440934466964578 -0.09095417061237734 -0.0990947120821746 -0.1391524606539058 0.07854195006839522 -0.012049112279135958 -0.1668236718916558 0.3498030096541612 -0.431382195829448 0.17651057613005028 0.012897810161477922 -0.3036106314131759 0.014942278287396976 0.004482546532298334 ]
[ 0.0016926997067341675 -0.23318590671885028 0.22910307331217164 0.02634568854395154 -0.06231357542696581 0.25304294076911416 -0.25676122579530364 0.5366517190791626 -0.05426076662657203 0.284409628273165 -0.6150355620548488 0.014833462205794273 -0.1760104492240642 0.27670389313043525 0.19623645731528347 0.34411575767721353 -0.138361525542593 0.2261357899643866 -0.07796593858876515 0.3588086260291811 ]
[ -0.20021264316106493 0.20137257338824643 0.13823925345545185 -0.1467774272402237 0.10296108392307991 -0.11819730641666702 -0.08436612425584071 0.0008161306272400845 -0.18071349792297658 0.14429288921276984 -0.1077277487898589 -0.026853187658344393 -0.09963536000956459 0.5223242813577185 0.29211269118778715 0.6808184788933855 -0.3516211556280636 -0.5382472512431501 -0.06616409557361815 -0.22983247035779078 ]
[ -0.1785936285961862 -0.4265392151683432 0.20254302218982767 -0.3486586161348999 -0.175729187359241 0.22977456359349022 -0.4484673056524565 0.19667250369124403 -0.219615346304519 0.3311634307524974 -0.2563340338487122 0.09873222526284348 -0.03934254641357056 -0.07189944793861675 0.32293123222677594 -0.43090669515228297 -0.40357852262089783 0.2674986713307845 0.11551617821598734 0.027381207194140077 ]
[ -0.12441136460511415 -0.16678770378659125 0.21528798047575815 -0.12701756919537208 0.39120548523984744 -0.19246401965712562 0.07881962232680134 -0.09417046491454949 0.09815447035301746 -0.19944431714545835 0.03423953350088811 -0.1660358795529178 0.15243978916780343 -0.6225248138844903 -0.24940503793478713 -0.021429292334173976 0.04808042161486723 0.3737981303387339 -0.3043627574241915 -0.2846737172183571 ]
[ -0.37179560941292294 -0.09180655941237148 -0.031033933177717778 0.20506968936840742 0.014996809297406002 -0.25854398444067694 -0.12672978404730972 -0.2295480913793891 0.07041432299146125 -0.42678627780866674 -0.4711921165279207 0.010593255575532062 0.4749784532540745 -0.22220801136243906 -0.05362312767861381 0.15565475625483208 0.2835928934431594 0.062167505650196846 -0.2532565144105431 -0.006120699355258325 ]
[ -0.25662737883842274 -0.44701416210548356 0.6015665833259085 -0.516838386724202 -0.003137274630175957 0.2125527926748039 0.09722947504703529 0.5468783247942203 -0.2870115115695471 -0.03197447528429951 -0.04848803453519849 -0.2374223702595148 -0.008456386155168862 0.3768678862720998 0.3004995083982166 -0.0997453715047599 -0.6384312477641001 0.4329766625553446 0.049716406352407705 0.1346949688517351 ]
[ -0.5702624351049117 -0.0007525457070252686 0.3832563884410418 -0.24034774805465742 0.25210454396223814 -0.11244707216397717 0.49026714405266475 0.9037582630389611 0.4680050893423065 -0.05435813871027146 -0.08418385616064943 0.020915689635300792 0.3233435409945982 0.297421166579271 0.23043959716787527 -0.21266533645969862 0.30759701103121057 -0.36737412571047845 -0.5906148603141982 0.2813039387838083 ]
[ 0.09093289422008123 0.4982271236321 0.3118449203168424 0.04388355452596775 0.11255477790368607 0.15880280726725815 0.007529723341410401 0.035591281963750776 0.11503227167928362 -0.264409992850792 0.23654620109153357 0.04283137841215104 0.3796913412533047 0.3464867476213265 -0.3246103980135601 0.016681894857846786 0.08223378879689879 -0.5341142959696952 -0.12910868717589133 -0.22629806808894395 ]
[ -0.1602640075767083 -0.03846112709950498 0.3965908046042736 0.14665302781323372 0.09272600860910782 -0.0046506538450182934 -0.4727455100827875 0.31359559887112576 0.45595156874073883 0.3762336247295183 0.15939196024396982 -0.19084406607438628 -0.5854116107349312 -0.20844593512612375 -0.061588915777788925 0.04967301265475628 -0.10057986950471434 0.28750677389727103 0.3577791615785744 0.1608189593046059 ]
[ -0.2128096657185194 0.2707047940886863 0.45776421594349453 0.03752329099475034 -0.021689184315036462 0.3324989174478192 -0.4531810091440844 0.16848245522214547 0.29950025361756777 -0.017771628852182895 0.0716863503148686 -0.5403102997938225 0.29490819794343887 -0.16408420683963432 -0.01193813852190633 0.02395003544454245 -0.09729945181016539 -0.18225003998319336 -0.08977644273647264 -0.5166198975865457 ]
[ 0.2586976683170429 0.09826850649806093 0.07911815370942721 -0.08734381448633075 0.12440716304643831 0.2119135371784647 0.16332248149114698 0.028095396085132812 -0.2550882414710761 -0.14094743662725456 -0.1867097373985781 0.07458092007548996 0.025913985897790946 -0.13767460930927464 -0.016002857022722708 0.03600595178208135 0.17043547103240625 0.1976137373528415 0.07241204030242467 0.15776998271409987 ]
[ 0.17591607458062453 -0.17335986293111197 -0.488148336388184 -0.4060408955943717 -0.078544143528619 -0.26640333277531125 -0.14802287540337492 -0.05988622178970385 -0.15646361380167859 0.4700496889189556 -0.021790856784171028 0.07333042591165258 -0.33536965821739184 -0.1125240924599378 0.15925210210386967 -0.4559239893446446 0.17422310375358793 0.14511640177754614 -0.2773229910276642 0.5797822862597408 ]
[ 0.20224457580385366 -0.06863280239171354 0.1119516990522847 0.14105054159837702 0.0805901451817337 -0.11196705059809291 0.15068454852636584 0.15901288101244948 0.09380875479442698 -0.3288797102967531 0.1988978870745983 -0.10683799741018311 0.0929808479311908 0.30189235877191284 -0.4535275652517077 0.14956966791726267 -0.13084144481546023 -0.030138208983335364 -0.2465394879806744 -0.5323009140726361 ]
[ -0.12875865272879938 0.1109255033172001 0.021300645971497542 -0.204947780207809 0.030926249144430613 0.03859318565706103 -0.07554194848812819 0.124967026401268 0.11699345728359122 0.1475623877614372 -0.09032089224980457 0.359604589604273 -0.3624494557986269 -0.3402387525824816 0.08742245635657411 -0.030812032102685957 -0.09272725842406684 -0.2380975023311187 0.16350928407907886 0.14556402992242948 ]
[ 0.0677438219964491 0.02626397108149309 0.023441576735917364 -0.15227338312445493 -0.22692779822230408 -0.1759414343225813 -0.08500959137962896 -0.0680247483438505 -0.0021879067914048166 0.04070675116958198 -0.3269377981730628 0.20194398749795564 -0.2796170386716576 0.06719535997690418 -0.012118450366737716 0.10731205944039905 0.016880930709324126 0.3122764594773198 0.4069126814040307 0.2070309750192983 ]
[ -0.33592847195298936 -0.07814058624475245 -0.16328866667483527 0.4185155913441832 -0.18252336635141236 -0.30964048860887433 -0.0445512513703116 -0.08570796469874524 0.12726125015278586 -0.07616735714057087 -0.23565357404127427 -0.04154717502192209 -0.3597807830467161 -0.006466144947253538 -0.38381681741438395 -0.11936973813309446 0.4401579741342122 -0.07589522220057766 -0.19652012111690864 -0.16338649586675522 ]
[ 0.06322192732605325 0.25179306832831094 -0.24457502837324305 0.034304241867805486 -0.06123604554688527 -0.06904777436262356 -0.36378755011959635 -0.5050451531389775 -0.15584262474977956 -0.0023697461790539937 -0.0012853098785297584 0.282441023404597 -0.15561684135673504 -0.46590060091227525 -0.4438571121613331 -0.04726767834639327 -0.13927205345164748 -0.08741601690171233 -0.05626582040437718 -0.2067630529312597 ]
[ -0.03207310308799048 0.26629352836872444 -0.09635030652417094 -0.09380637155774589 -0.058926188748813876 0.10515526771523016 -0.38989524696223926 -0.011959052803365634 0.2970643462455046 0.14272453105192343 0.2838541750795811 -0.4163235921827604 -0.087391689883491 -0.18579791166036322 0.3524285024223562 -0.08873870944718555 -0.2699633956346464 0.165712753239991 -0.10363163975000479 0.02209942262510948 ]
[ 0.19023350748214546 0.18755610816581805 0.16613435621124856 0.14626399084598998 0.09040728705428831 0.05773469059687217 0.41882239543812755 -0.2347595684282823 0.07454769925338582 0.03370899482172098 0.28128812318633645 0.039376988833602695 -0.008882281538314265 0.05626770569478903 -0.15563831108095685 0.045704923006675606 -0.11087328368928782 0.02527239495848921 0.19762041772528827 -0.15623953588817455 ]
layer 5 Activation
tanh
layer 6 Dense
20 1
[ 0.25189056228252155 ]
[ 0.2603598431828937 ]
[ 0.2081396979709204 ]
[ 0.2812806883911154 ]
[ 0.01852696207006708 ]
[ 0.02196852290538699 ]
[ -0.7727089336800889 ]
[ -0.12125693666445281 ]
[ 0.15928885000296375 ]
[ 0.24010700719022535 ]
[ 0.3900111779906593 ]
[ -0.014233474591285999 ]
[ -0.155551720780586 ]
[ 0.014483737586820356 ]
[ -0.0347858948648679 ]
[ -0.31322411633259994 ]
[ -0.22415492995898306 ]
[ 0.1992987292167224 ]
[ 0.13181684787426404 ]
[ -0.2803578708075852 ]
[ 0.3258080364993682 ]
