layers 7
layer 0 Dense
20 20
[ 0.18598467  0.20979288  0.21009696  0.35684022  0.08308839  0.07417962
  0.03245892 -0.13033666 -0.1510813  -0.1596742   0.10894918  0.1373094
  0.3087202  -0.03311009 -0.01289658 -0.20217314  0.3617347  -0.11173929
  0.32206243 -0.29839233]
[ 0.16111667 -0.22494453  0.05338078  0.28912455  0.16270813  0.18310894
  0.25677133 -0.27633873 -0.37805748  0.32732695 -0.3879341   0.11467022
  0.17352086 -0.12659244  0.16888729  0.8228791  -0.14434844 -0.21185757
  0.23324168 -0.37070918]
[-0.19508916 -0.02224541 -0.21673389 -0.10829502 -0.02614134  0.19855985
  0.30869204 -0.4749125  -0.40203202 -0.10630752 -0.07605051  0.25230688
  0.02503653 -0.1163285  -0.55040973  0.15312873 -0.02472197  0.46871275
 -0.27921408  0.27467328]
[-0.10132284  0.17654164 -0.21480063 -0.06391852  0.18881714 -0.29583865
 -0.23336592  0.26369298 -0.25890052  0.00937038  0.07054035  0.08360978
  0.14255214 -0.3787687   0.3578954  -0.18566711  0.17374648 -0.15221491
 -0.13150284 -0.3637641 ]
[ 0.25165558 -0.09942892 -0.0892954   0.34003845  0.3874267   0.24236959
  0.04219533  0.15997316 -0.21524525 -0.36061758  0.28293908  0.5109276
  0.2690812   0.2031422   0.14889157 -0.23260053  0.17338556 -0.26430064
  0.41099116  0.1164123 ]
[-0.10985395  0.04943239 -0.24250916 -0.08934442  0.128777   -0.18970335
 -0.3930701  -0.07732491  0.0640529  -0.16590527  0.1226565  -0.06435186
  0.1420141  -0.17367403  0.40391532 -0.72048205 -0.06439335  0.09183513
  0.13726407  0.27485743]
[-0.06871811  0.44897643  0.14391832 -0.33099204 -0.05137236 -0.37607247
  0.03446988  0.02602329  0.46120155  0.2696197   0.18466364 -0.3560908
  0.15436117 -0.60830593  0.5784633  -0.61631525  0.25172788 -0.5246595
  0.2698474   0.23358706]
[ 0.28243136  0.3117944   0.07598677 -0.35911617 -0.32287636 -0.13452348
 -0.04455644  0.2433486   0.05521791  0.01227462 -0.15107135 -0.43709812
 -0.26796833 -0.02165461 -0.16111363  0.1864684   0.39890906  0.17514136
  0.17933321  0.40548405]
[ 0.13491449 -0.04044311  0.658378    0.06511456 -0.2872368   0.05412067
  0.21419777  0.22329633  0.21720879  0.16090748  0.278503   -0.2752633
  0.1815025   0.12749046  0.16076909 -0.32124195 -0.4114972   0.11888421
  0.3171515  -0.12846129]
[ 0.14668101 -0.09802371 -0.3207215  -0.20887497  0.41879058 -0.01340567
 -0.11525539 -0.19078971 -0.17152274  0.28647676 -0.06973858  0.07147934
 -0.10599385  0.5094574  -0.18572925  0.28721866  0.55599165  0.02025888
  0.3246912   0.17896125]
[-0.06549783 -0.24344791 -0.17447126 -0.05596298  0.06405909 -0.08395242
 -0.09746248 -0.30590683  0.23361775  0.26128316 -0.22067612 -0.2549128
  0.08947536 -0.24467058  0.31026348 -0.26287    -0.29086143  0.3401854
  0.00158718  0.27503923]
[ 0.15436442 -0.18197787 -0.16182345 -0.37554553 -0.16770662  0.12171289
  0.21439426 -0.24164383 -0.08835137 -0.2001966  -0.23508869 -0.20245962
  0.04369977 -0.04976052  0.1578587  -0.03003844  0.02963179  0.2510244
  0.20478842 -0.53103083]
[ 0.1303804   0.22335456  0.08037817 -0.3167608   0.20483786 -0.2888204
 -0.26547304 -0.43846217 -0.12450892 -0.25955042  0.04717791  0.18434663
 -0.4632147   0.05824231 -0.23957416 -0.39268854 -0.23966613  0.04088516
  0.30977648  0.06343062]
[-0.28257933 -0.00553248 -0.2546936  -0.09341902  0.12563944  0.02322119
  0.00543611  0.29682374 -0.2360826   0.37348872 -0.2507547  -0.03087061
  0.41608283  0.22819495 -0.44218728  0.09271991  0.1872042   0.0117801
  0.12094705  0.24233042]
[-0.5045945   0.11992136 -0.09577549  0.07291557  0.17197198 -0.14675483
  0.01653649  0.12292677 -0.5241463  -0.00108642 -0.03040756 -0.11414439
  0.15080127 -0.17436768 -0.02833992 -0.13400446 -0.21485941  0.05162613
  0.06234174  0.14446956]
[-0.22140938 -0.15122284  0.2196435  -0.27242035 -0.18311173 -0.13181445
  0.04546185  0.19191211  0.10494456  0.15231223 -0.03414821  0.13670301
  0.25431782 -0.13745025  0.32366747 -0.15322511 -0.0461746   0.19483134
  0.06882848 -0.05600544]
[-0.0671524   0.23401946  0.56908435  0.37415555  0.0538108  -0.32502517
 -0.16185884  0.01729355  0.4407312  -0.1068405   0.21170612 -0.03909578
 -0.45915395  0.01504202 -0.07073668 -0.0631424   0.29840675 -0.16013302
  0.3469837   0.23247014]
[ 0.60578203  0.21131682  1.0627275  -0.420093    0.186526    0.27880523
  0.20731339  0.06463167 -0.00894527  0.18127018  0.10856172  0.2976046
 -0.48422727 -0.06068616  0.01653623  0.01251301 -0.09004547 -0.01838579
 -0.8620293  -0.25767404]
[ 0.02197269 -0.32688504  0.12240964 -0.05229569 -0.01315919  0.12836777
  0.12501921 -0.2972765   0.1333829   0.12129536  0.05943772 -0.21657833
 -0.4826239  -0.02303146  0.10342097  0.12055916  0.06797802  0.2542654
 -0.22782984 -0.0959135 ]
[ 0.09734366  0.10005425  0.10111534 -0.41509366 -0.31989542  0.21429412
  0.1318377   0.24135025 -0.04681675  0.09440646  0.30458525 -0.5771288
 -0.47320923 -0.36000168 -0.508708   -0.02699384 -0.05131651 -0.23469481
  0.00279766 -0.4164868 ]
[ 0.01324227 -0.01955967 -0.15603067  0.08614623  0.01706392  0.02255704
  0.06724358  0.05371881 -0.09045839 -0.01761725 -0.00057783  0.00106426
  0.06822246  0.03348509 -0.01091118 -0.06791431  0.01429725  0.00628368
 -0.01588712 -0.12389492]
layer 1 Activation
tanh
layer 2 Dense
20 40
[-0.10454442 -0.22962493 -0.03915555 -0.11652558 -0.02207857  0.30210304
 -0.16859443 -0.07008984  0.29019275  0.00406084 -0.15569817  0.20779683
 -0.03720431 -0.21046889  0.0837044   0.2761878  -0.29846355 -0.02148845
 -0.23352493 -0.20315945 -0.06719687 -0.08200407  0.26938042 -0.16389848
  0.03043384 -0.14486517  0.17070736  0.30312222  0.11463826  0.14037615
  0.07896673 -0.02908437  0.09828036 -0.18380688 -0.10625578  0.04272937
  0.30708528  0.23855765  0.08550232  0.23702781]
[-0.1481393   0.22130653  0.14395776 -0.19362767 -0.00035773  0.00145409
 -0.14170454  0.15068208  0.02772321  0.00595073  0.09515397  0.07976384
 -0.00346774  0.13219978 -0.12893437 -0.16187541  0.11614443 -0.20089231
  0.24075717 -0.1691939   0.01579515  0.2853065  -0.0211237  -0.02278635
 -0.11996131  0.07891533 -0.01157678 -0.13634701  0.03940187  0.14421698
 -0.0197125  -0.1705312  -0.02110064 -0.09218068  0.01122427  0.0290238
 -0.0842793   0.1306457  -0.28997803  0.05248389]
[ 7.9447404e-02  1.6560403e-01  9.4300359e-03  1.5452607e-01
  2.7405372e-01  7.1761422e-02  1.9203211e-01 -1.4739528e-01
 -1.3027559e-01  1.2468117e-01 -1.4649343e-04  2.5564488e-02
  6.5650225e-02  2.4685094e-02 -3.3559692e-01 -2.3981102e-02
 -5.3707308e-01 -2.2856782e-01  2.9151928e-02  4.9642835e-02
 -1.1251182e-01  1.2602930e-01 -1.2256743e-01 -7.9179175e-02
  1.6137265e-02  8.6257190e-02 -8.1914470e-02 -2.5582327e-02
  9.5366560e-02 -2.5833447e-02 -2.4051215e-01 -1.0515871e-01
  7.8652337e-02  7.9040214e-02 -1.5453479e-01  1.3136695e-01
 -2.2573936e-01 -4.7942862e-02 -1.8299203e-01 -1.3364555e-01]
[ 0.01559849  0.25322136  0.09668368  0.02728204 -0.0583224   0.09284139
  0.2068727  -0.26401857 -0.05213927 -0.26024103  0.2597702   0.15966463
  0.07957309  0.03426789  0.02135588  0.05944892  0.37352636  0.0791699
 -0.36072934  0.16513321 -0.03444132 -0.00900058 -0.21266177  0.25134915
  0.14858267 -0.01004764  0.14966583 -0.11075818  0.16969623  0.01732226
 -0.08158566 -0.13231248  0.01746267 -0.29880986 -0.1715591   0.01908357
 -0.10929048  0.08833006 -0.09353546 -0.1022869 ]
[ 0.04955176 -0.08895488 -0.06388876 -0.2613519   0.2903737  -0.12513492
  0.12624282 -0.11316405  0.01768301 -0.33373827 -0.13765372 -0.15715677
 -0.28829435 -0.12467275  0.09976852  0.0691506   0.34462133 -0.02323921
 -0.24481766  0.17779914  0.31582466  0.2578874  -0.17705372  0.31762108
  0.01708994 -0.07544921  0.12624422 -0.22116022  0.00150156  0.09544058
  0.24215302  0.13674945 -0.04419125  0.22008969 -0.12840037 -0.14244062
 -0.13975951  0.21553987 -0.30361938 -0.0844967 ]
[ 0.11652494 -0.20551945  0.1787038   0.118431   -0.2477239   0.13527915
  0.02068887  0.24200186 -0.01719447  0.05224696  0.16472013  0.15451714
  0.05446793 -0.17724495 -0.2287755   0.06084556 -0.22728117 -0.08718117
 -0.1739624  -0.01142081  0.04346096  0.09190939  0.21950829 -0.28315535
  0.14678976  0.19446926 -0.18113856  0.21874847 -0.18796352  0.1676502
  0.2118332   0.13385384 -0.07435104  0.03041167 -0.18149224  0.21023686
  0.11454277 -0.02507487 -0.30603692 -0.0485539 ]
[ 0.03830937 -0.08701053 -0.2844961  -0.160135   -0.05035339  0.2370757
  0.14736082  0.0022431  -0.13291122 -0.02078318  0.03542351 -0.17037226
  0.15662505  0.08965428 -0.02404637  0.02875134 -0.02534451  0.15501058
  0.0194273  -0.00381397  0.05790795  0.10709329  0.11802761 -0.15448362
 -0.10504074  0.13691126  0.13676722 -0.22733279 -0.1890755   0.07220834
 -0.04130034  0.24011326 -0.0960689  -0.16205947  0.02514399 -0.00794449
 -0.0553753   0.21495368  0.11509524 -0.11325736]
[-0.07972057  0.21399556  0.04703164 -0.0909789   0.21816826 -0.18168712
 -0.24791373  0.07417898  0.09964336 -0.25205016 -0.04662458 -0.21369447
 -0.04362854 -0.04787926 -0.08761412  0.08360276 -0.2490542  -0.03150118
  0.05721572 -0.0754329  -0.22211172  0.27866805 -0.04414254  0.11323786
  0.09318586 -0.33348322  0.2459526   0.17654757  0.23459919  0.16949366
  0.18065539  0.02247903  0.20285186 -0.18629502  0.04095523 -0.10286455
  0.12994123  0.04436531 -0.18222657  0.1138046 ]
[ 0.11112839 -0.00810847 -0.00456435  0.17332977 -0.20158845 -0.16144036
 -0.17691918 -0.27212515  0.21448044  0.26253164  0.05719836 -0.11556774
  0.18967736 -0.11416303  0.17768542 -0.08059378 -0.07079186  0.06212893
  0.19451664 -0.15140456  0.08962235 -0.06657612  0.06632856  0.00597482
 -0.17110649 -0.00927003  0.08680328  0.13761654  0.06405965 -0.09582973
  0.08214468 -0.13446572  0.10278035  0.033158    0.07994103 -0.20299023
 -0.29462212  0.01564893  0.16795576 -0.14592494]
[ 0.16337194  0.18076426  0.08068529 -0.20693769  0.179006    0.1463404
  0.05946752  0.13196936  0.01149605  0.01731421 -0.1088176  -0.0874475
  0.01495869 -0.24759834  0.05370292  0.16404228  0.37885642  0.13919298
  0.10230853 -0.01316021  0.1460626   0.15591146  0.07346439  0.14868349
 -0.02456453  0.28013936  0.34993732  0.30047935  0.25213844  0.19039498
 -0.12049029 -0.01305032  0.11810016 -0.10490552  0.02414789  0.08687382
  0.02361401 -0.20264256  0.05063885  0.06138746]
[-0.2795558  -0.11570083  0.20865022  0.15292284 -0.21384929 -0.24206302
  0.06748374 -0.05825263  0.06283618  0.20280297 -0.23597905 -0.20612891
  0.26307094  0.02146279  0.04883091 -0.13483857 -0.3229814   0.03494764
  0.09042978  0.02494184  0.09709283  0.08223206 -0.04959289 -0.11331663
  0.03906769  0.12239487  0.00634601 -0.24106675 -0.05246192 -0.1600873
  0.189759   -0.03650486  0.113504   -0.14058849  0.01089927 -0.07051631
  0.12794703 -0.15382119  0.14468783  0.11678476]
[ 0.18116163 -0.07486366 -0.08824892 -0.13779342 -0.12974423 -0.05791248
  0.15365277 -0.03724879  0.00801058 -0.06263895  0.12110918 -0.1427043
  0.01832444 -0.0631408  -0.30185768 -0.11814597 -0.2692952  -0.03534409
 -0.31727278 -0.00261642  0.05861792  0.03478449 -0.03652909 -0.16992505
  0.13079105  0.20194358 -0.02716808 -0.01713231  0.01106244  0.0707974
 -0.04447112 -0.23062475  0.16949001 -0.24670509 -0.06905063 -0.1964814
  0.19296244 -0.06179169  0.01563872 -0.26142973]
[ 0.10045067 -0.06696766  0.22698043  0.15737128  0.13950287 -0.07725858
  0.02656511 -0.17372122  0.18807048  0.18037689  0.22020924  0.22698581
  0.16362864 -0.14729409 -0.04216337  0.00341293  0.38135272  0.12564431
 -0.3475449  -0.20594428  0.07702397 -0.06103104  0.25780675 -0.28679374
 -0.08925972  0.07259629  0.01809772  0.00053329 -0.03622483  0.03164744
 -0.22516555 -0.13999109  0.22764392  0.00936051  0.08455499 -0.06727067
 -0.03252519 -0.11263117 -0.00604786 -0.094928  ]
[-0.01811549  0.13189743 -0.19210353  0.09312543  0.19617791  0.27272427
 -0.02057608 -0.09000996 -0.15253845 -0.13112286  0.06313628  0.15645576
  0.20200896  0.08048236  0.02521949 -0.3059517   0.01961063 -0.1686197
  0.1820865  -0.10962287 -0.24917005 -0.12871501 -0.18087867  0.34259012
  0.10022991 -0.10131868  0.20038062  0.07376082  0.09781339  0.21283059
 -0.11815862 -0.21382731  0.03752612 -0.01655114  0.0507504   0.2258909
  0.1839424   0.09105071 -0.08328648  0.27095434]
[-0.10461488  0.10668609 -0.2434376   0.22609302  0.18554035 -0.29221448
  0.04416973 -0.0949867  -0.2133387   0.19498399  0.17656739  0.0429509
  0.04843878  0.35778493 -0.1075598   0.05741474 -0.12321255  0.06251986
 -0.35763243  0.12223793 -0.02286287  0.1575657  -0.35920876 -0.07168344
 -0.20849049 -0.19998743 -0.13736664 -0.32464555 -0.18745673 -0.23801701
  0.01987174 -0.07866212 -0.00973475  0.21931097  0.20493166 -0.06847977
  0.16651244 -0.02328867 -0.2648601   0.07299533]
[-0.2365206   0.08966769  0.00565677 -0.17281665 -0.3365338   0.1269151
 -0.1260231  -0.16452132  0.15634358 -0.09495029 -0.11470548  0.16336161
 -0.08096767 -0.06973471  0.16801295  0.11293034  0.00152852 -0.0461768
  0.15491337  0.03690629 -0.22016057  0.23298678  0.06576145  0.09974646
 -0.02042039  0.07973886  0.26988968 -0.19824377 -0.00560938 -0.09566604
 -0.12306222 -0.04963903  0.17332593 -0.16588278 -0.01552865 -0.01448206
 -0.19055876  0.11904965 -0.16972412  0.00353449]
[ 0.20408829 -0.09333366 -0.20420624  0.02771043 -0.22512132 -0.23465475
  0.17512445  0.04800159  0.11811637  0.03026362  0.082366    0.15901752
 -0.00435517  0.09703153 -0.14027698 -0.02471166  0.0540805   0.06792895
  0.20889914  0.09866161 -0.0733356  -0.14281368  0.16336703  0.32352033
  0.02931714  0.26016003  0.0137407   0.14945935  0.00345167 -0.0613016
  0.23904999 -0.31681344 -0.08931973 -0.04276507 -0.08951577  0.10057758
  0.20725867 -0.02633357 -0.017476   -0.31061456]
[ 0.0881274   0.0848684   0.01175664  0.14075388  0.20050582  0.10326573
 -0.1432404   0.10053972  0.2127834   0.33663344 -0.02417309  0.13593234
 -0.05727322 -0.03463113 -0.0672982  -0.17235984 -0.14528003  0.03016242
 -0.0185193   0.12179908 -0.10289018  0.11657797 -0.1897749  -0.12235687
 -0.2159824   0.18380696 -0.12239777  0.0092158  -0.08541854  0.10959551
  0.2195933  -0.09585138 -0.16279085 -0.13566613  0.19047505  0.11486124
 -0.10385396 -0.28232592 -0.2266196  -0.17160366]
[-0.09048007 -0.09674671  0.21206823 -0.0558507  -0.1002925   0.08272033
 -0.14462008  0.23685916  0.12661147 -0.11350168  0.05883756 -0.30539152
  0.33383662  0.12179559 -0.3859007   0.22875325 -0.11715264 -0.07126896
 -0.14167581 -0.15208419  0.22198229  0.37364966 -0.03644752  0.31030592
  0.07401128  0.19596696  0.23175184  0.16747242 -0.11332278 -0.2484205
 -0.23033588  0.23095624  0.28843305  0.23672824 -0.10795519 -0.07552203
  0.09821095  0.10933987 -0.15277551 -0.2679595 ]
[ 0.3536398   0.15996741 -0.15168825  0.05707188 -0.0510865   0.31983972
 -0.04571006 -0.22905406 -0.2223223  -0.04385936 -0.00380398 -0.15684965
  0.05097833 -0.2781197  -0.03822317 -0.08330746  0.0060223   0.18213415
 -0.06976719  0.31426036 -0.16110592 -0.01732025  0.1659782   0.22717386
 -0.04655836 -0.14531681  0.09469574 -0.06701614  0.01071989  0.08618844
  0.25387925 -0.19800895 -0.06566562 -0.20855848  0.21770334  0.3841656
 -0.32814422 -0.15569842 -0.16250297  0.0151239 ]
[-0.1469618   0.01418464  0.01987629 -0.0470181   0.0214967  -0.09871886
  0.10592796  0.03105958 -0.00369168 -0.12317506  0.11408285  0.05592212
 -0.09846789  0.13246447  0.08401917  0.04506623  0.18943785 -0.02575842
 -0.0964948  -0.02664596  0.0836696   0.00878715 -0.16011342  0.00583175
 -0.07307018  0.02603597  0.01209189 -0.04623476  0.04208669 -0.0543665
  0.03209423 -0.06078212  0.00623555 -0.01887678 -0.08838382 -0.06118004
  0.05130659  0.04584293  0.0009069   0.01141629]
layer 3 Activation
tanh
layer 4 Dense
40 20
[-0.14648108  0.01763407  0.21838109  0.31764185 -0.18253781  0.00172011
  0.0520263  -0.23935273  0.06593422 -0.12174972 -0.2382885  -0.0736337
  0.21020089  0.14275222  0.1769284   0.06372534 -0.03558178  0.02125144
 -0.08537628  0.2118766 ]
[-0.0179368   0.0940137  -0.07039049  0.16764563  0.21563199 -0.15903674
 -0.05914806  0.12553315 -0.08308143 -0.18214485  0.03579595 -0.01179658
 -0.2064518   0.01311153  0.09402271  0.12962034 -0.07108478 -0.08234137
  0.06356391  0.13985763]
[ 0.17948535  0.0209906   0.2032397  -0.18232499  0.06703743  0.00141884
  0.03227954 -0.20029569  0.19621824  0.2223505   0.05648692  0.041812
  0.02740368 -0.23603283  0.21374156  0.09211984  0.28287703 -0.04127859
  0.01432806  0.05997166]
[-0.09457154 -0.16303119 -0.32962316 -0.13470915  0.15409113  0.12055586
  0.20665455 -0.17841685  0.086624    0.12293434 -0.2252748  -0.03129678
  0.11953423  0.04139564  0.12061867 -0.23268305 -0.13040976 -0.05469614
  0.17456205  0.10702147]
[ 0.25936234  0.06805397 -0.22349681 -0.140256   -0.02477444 -0.01381727
 -0.02577806 -0.14623839 -0.24398045 -0.15532726 -0.09376311  0.10736548
  0.04060274 -0.23737943  0.17861457 -0.14842714 -0.02572241  0.13973936
 -0.10749574 -0.25233558]
[-0.394946   -0.26032987 -0.2551879  -0.15067673  0.2810685   0.08652318
  0.10462812 -0.20788619  0.24216601 -0.06299394  0.21180432 -0.1634852
  0.09819559  0.18524882  0.20718737  0.02439175  0.01690123  0.16189975
 -0.2851691   0.22994943]
[ 0.26936194 -0.13879386  0.19230649  0.2649859   0.09388055 -0.1682344
  0.00990377  0.04541557  0.16018502  0.01359033  0.2007751  -0.03996568
  0.0322978  -0.15076925  0.05720237 -0.13310702  0.27159327 -0.07476584
  0.20482774 -0.35125893]
[-0.18609367 -0.05469754  0.16673212 -0.07254992 -0.11276513  0.01750213
 -0.09141153  0.22317538 -0.328186    0.14536396  0.34341612 -0.2051373
 -0.1792309   0.2975259   0.19665344 -0.10273614  0.31328797 -0.13410176
 -0.01530129 -0.03983937]
[ 0.04258299  0.01589022 -0.07140181  0.19245438  0.14524478  0.25535122
 -0.0094902  -0.11987002 -0.14714478 -0.18555836 -0.11492334 -0.02467834
  0.0675377  -0.01430773  0.12406047  0.04842235  0.22229668  0.12990642
 -0.051327   -0.05821103]
[ 0.0436749   0.03100416 -0.0011197   0.06635837  0.16194463 -0.1964617
  0.02495423  0.23918281 -0.10124813  0.21148875 -0.24727084  0.01750936
  0.25536424 -0.21187906 -0.23074825  0.20076181 -0.01119248  0.0127518
  0.10805149  0.24626923]
[ 0.07343449  0.00179723 -0.24526605 -0.05122353 -0.06639294 -0.0483437
  0.0275637   0.1236688  -0.11574994 -0.2881885   0.07037833 -0.0257903
 -0.16231847 -0.04831706 -0.15014565 -0.07454703  0.11826652  0.02931495
 -0.1320529  -0.24187036]
[ 0.13515727 -0.07351603 -0.09873053 -0.05724092 -0.21952826  0.26709336
 -0.22722878  0.20597143 -0.11031956  0.06396906  0.21354572  0.10667066
 -0.06737697  0.06032269  0.18042722 -0.02357981 -0.12791896 -0.19982423
 -0.04284144 -0.25686157]
[-0.18240671  0.05016737  0.12146875 -0.07719157 -0.299734   -0.22589445
  0.24381945  0.03268763  0.17762499  0.24159646 -0.03523413  0.0294428
 -0.14087912  0.20729607 -0.0110935   0.13681927  0.15652141  0.07112551
 -0.00563147  0.3920919 ]
[ 0.25505033  0.09651527 -0.11543693 -0.20442608 -0.17211942  0.20266737
 -0.12750927 -0.2083874  -0.16817279  0.23073366 -0.3131466  -0.2099661
 -0.05935362  0.08473776 -0.09995303  0.22965328  0.06359942  0.10347973
 -0.13465539 -0.22621314]
[-0.15382065  0.00413196 -0.2072087  -0.11431815 -0.06138036  0.00118739
 -0.0130126  -0.10444515 -0.14698797 -0.01874294  0.2743464  -0.02181401
 -0.06102213  0.24577284  0.02708479 -0.18769354  0.08497957 -0.04119721
  0.04889848 -0.21412952]
[ 0.02952844 -0.2539672   0.14285052 -0.21999191  0.05860901 -0.06202307
  0.12129266 -0.00222944 -0.00322119  0.13670498  0.23668762  0.1517383
 -0.03393573  0.20921086  0.14296365 -0.10611406 -0.1132929  -0.06347453
  0.129281   -0.25703222]
[ 0.26906005 -0.11674043 -0.12104093  0.00772158  0.22410078 -0.17066759
  0.1042468  -0.22898258  0.22416131  0.20615202  0.13550402  0.10439294
  0.32804707  0.26635572 -0.22947887  0.06342385 -0.10147154  0.1351453
 -0.14522228 -0.35856795]
[ 0.11148922  0.03224677 -0.18464033  0.02708118  0.02684546  0.10207319
 -0.23770867  0.25740895 -0.17856225 -0.07472454  0.12312631 -0.1156698
  0.07939752 -0.15537427  0.20958224  0.07570864 -0.01351539  0.06761045
  0.13241708 -0.01230549]
[-0.41129643  0.06225718 -0.18499994  0.00071469  0.24943285  0.0844254
 -0.03420777 -0.25416133 -0.09799501  0.00534499  0.08935718  0.15484889
  0.07719725 -0.0492188  -0.13495815 -0.09429681 -0.18187784  0.01417596
 -0.18848404  0.38620815]
[-0.17940056  0.06830032 -0.09989266 -0.2124125  -0.03523083 -0.02568598
  0.16266192  0.15630405 -0.18332216  0.31893674  0.14252816  0.23958223
  0.08069067 -0.18731135 -0.15049861 -0.09695772  0.07647526  0.18350753
 -0.06478456  0.02695761]
[ 0.29865792  0.02231877 -0.13258035 -0.19735676 -0.05732812  0.1552321
  0.2056956   0.31950015 -0.30102214  0.07524855 -0.22892529 -0.05196502
 -0.12823893 -0.04396286 -0.1517411   0.1391762  -0.14873889 -0.05215584
  0.12595758 -0.13812627]
[ 0.12094476 -0.01435062 -0.2971386  -0.09580194 -0.26597014  0.19699867
  0.1002259   0.2778513   0.1062494   0.04813928 -0.2372927  -0.0003373
 -0.21643423  0.05868325  0.23123032 -0.20384826  0.07005013 -0.00534054
  0.02288038  0.0631969 ]
[-0.23424745  0.03481695  0.2145933  -0.02859052 -0.06954731  0.00296682
  0.03818371  0.21477626 -0.21752115  0.03573182  0.3531594   0.07625399
 -0.23475923  0.14177011 -0.13764033  0.06875858  0.20688652 -0.12484149
 -0.21004042  0.3732806 ]
[-0.25424588  0.04311655  0.21024293  0.22876577 -0.03386401  0.12007416
 -0.12405924  0.10717328  0.16889083 -0.18513478 -0.24406812 -0.08486263
 -0.22197674 -0.14648388 -0.0548888  -0.24141642 -0.03843518 -0.27335796
  0.25560015  0.14987211]
[-0.06967393  0.10699843 -0.274577   -0.12406959  0.12625334  0.04480936
  0.16859323 -0.00583745 -0.18709905  0.2142383  -0.00620341  0.12614241
 -0.18462437 -0.24643897  0.01498701  0.19691433 -0.05742963 -0.11921575
 -0.13707778  0.20373145]
[-0.1578128   0.0322958   0.04169213 -0.05460894 -0.2818157  -0.21946374
 -0.06787099 -0.25869614 -0.263312   -0.24532634 -0.0938914  -0.238601
  0.03181857  0.07405985  0.15237951  0.01014253 -0.22172503 -0.10858877
  0.10973793 -0.17677245]
[-0.07458168 -0.02055193 -0.01369774 -0.15451306  0.21586679 -0.15034503
 -0.05543313 -0.05663732  0.02497059  0.01481436  0.14646524  0.12425549
 -0.07041948 -0.20267001  0.23435627  0.06149436  0.09111837  0.05334189
  0.11520225  0.17062026]
[-0.20152964 -0.10880027 -0.02902435  0.11721899 -0.20887826  0.13970381
 -0.05703156  0.07090939 -0.18257855  0.0976253   0.00095712  0.11145994
 -0.15328847  0.22796744 -0.1459174   0.09944816 -0.13398318  0.39961144
  0.14499022  0.3367695 ]
[ 0.04823763  0.06245637  0.1122401  -0.08343957 -0.01560319 -0.25001264
  0.16307187  0.11386225 -0.07022321  0.04487091  0.05598849 -0.15450619
 -0.21209815  0.15962283 -0.15286876 -0.20898624 -0.12797761  0.03659884
 -0.02758258  0.150786  ]
[-0.04679981  0.08249301  0.17821166  0.02527482 -0.23286158  0.2049875
  0.04782366 -0.17877634  0.22890614  0.06359462  0.095846    0.02861772
 -0.10824141  0.30686063 -0.20053476 -0.11143572  0.03815185 -0.06859696
 -0.05170517  0.11995633]
[-0.04827435  0.07355104 -0.08893817 -0.22907627 -0.11191576 -0.07533962
  0.01126461  0.09100603  0.05267008  0.05675464  0.39158058  0.12031373
 -0.16183025 -0.03122235  0.02775118  0.189346    0.17579861  0.07522009
  0.21005228  0.03698675]
[-0.19923016 -0.01830469  0.08286384  0.19786711 -0.19978172 -0.09281209
  0.02925994  0.01465287  0.06226421  0.05983114 -0.11144455 -0.12871419
  0.0247578   0.18295722  0.02643387 -0.02449821 -0.22476739 -0.00818404
  0.02998058  0.0817456 ]
[-0.01421197 -0.14609368  0.1594387   0.1353106  -0.02984478  0.09925061
 -0.01801621 -0.21274221 -0.20483185  0.212892    0.2502092  -0.10929927
 -0.22368959 -0.03455833  0.03334547  0.10990727 -0.14349636  0.15912798
 -0.08488324  0.10430496]
[ 0.10934015 -0.07368492  0.12017819 -0.01931364  0.11686987 -0.03982761
  0.03235254 -0.03470983  0.30407435 -0.00695315  0.19552249  0.04397586
 -0.03275523 -0.07537351  0.03068211  0.21785994  0.17757055 -0.10224462
 -0.01476156 -0.00907412]
[-0.05847719 -0.047893   -0.1296925   0.06960665 -0.25300437 -0.19739594
 -0.08217542  0.22934745 -0.03696338  0.18022783 -0.01484189 -0.1247363
  0.18983671 -0.23428072  0.0640533  -0.12130999  0.04149951 -0.04066034
 -0.05839354 -0.04819037]
[-0.2948458   0.03609931 -0.08834501 -0.14798778  0.06854327 -0.01182687
  0.00126896  0.18218008 -0.11685669 -0.13481252 -0.21682543  0.06044668
  0.1698963  -0.15929803 -0.00588163  0.16389492  0.02695625  0.24536514
 -0.02569309  0.33904082]
[ 0.13158996  0.08280418 -0.1270432  -0.01544175  0.229189   -0.16251841
  0.05173486 -0.12187476  0.21131957  0.08339699  0.2057973  -0.11081617
  0.08194     0.09504474  0.09144819  0.17031573  0.04534195  0.18461862
 -0.25776377 -0.26280084]
[ 0.04332537  0.00306482 -0.23211499 -0.06132833  0.18932128 -0.17083777
  0.09080277 -0.03777985 -0.14137293  0.15409535 -0.09427924  0.0451312
  0.01999521 -0.22220448  0.00606788 -0.1284879   0.14104937 -0.01427872
  0.30757177 -0.02391813]
[ 0.06231987 -0.1526673   0.1186755  -0.01930664 -0.1392983   0.0665743
  0.05253629  0.13012576 -0.19335179 -0.3042127   0.20071419  0.04488418
 -0.18262194  0.06643667  0.17315038 -0.09473801 -0.10827774  0.02821972
 -0.20134084 -0.03396689]
[ 0.00775094  0.36808723  0.03691649  0.14644505 -0.19081801 -0.11651628
  0.0169406  -0.19064942 -0.17592196  0.06097431  0.07603234 -0.14055954
  0.05416741 -0.00748255 -0.09869451  0.16581687 -0.04193703 -0.15795624
  0.2955746  -0.07198586]
[ 9.1140948e-02 -3.5615731e-02  2.4795948e-02 -1.4044149e-02
  3.9870534e-02 -1.0398242e-03  5.4444652e-05  2.6815580e-02
  7.2223046e-03  2.1217030e-02 -4.4590663e-02 -4.1175921e-02
 -1.6827978e-02  5.8279006e-04  4.5052781e-03  5.0796114e-02
 -1.7680018e-03  3.0694462e-02  6.3699186e-02 -1.4438461e-01]
layer 5 Activation
tanh
layer 6 Dense
20 1
[0.36253467]
[0.01291477]
[-0.00558291]
[-0.00409974]
[-0.0136184]
[0.00918848]
[-0.02349008]
[0.00947221]
[-0.02112519]
[-0.02158462]
[0.02511098]
[0.00011564]
[0.05617876]
[0.00943366]
[-0.00377684]
[-0.00834847]
[-0.00102686]
[0.00011012]
[-0.0080806]
[0.32126084]
[-0.0135876]
