layers 7
layer 0 Dense
20 20
[-0.63081276  0.8415564  -0.7277302  -0.4530228  -0.7939952   0.88280654
 -0.5109838  -0.75775754 -0.3326624   0.7057916   0.2659536   0.4560459
 -0.6620826  -0.1700267   0.36125305 -0.20647444 -0.78706723 -0.15240076
  0.6677456  -0.08731025]
[-0.5890604   0.14188305 -0.18457845 -0.2871338   0.26497138  0.03387332
 -0.61592853  0.06458174 -0.09452137  0.18107761 -0.35857782 -0.08895728
 -0.002576   -0.21893655  0.25115934  0.42538646  0.5479892   0.15781367
  0.6003304   0.27525118]
[-0.3263369   0.2606181  -0.28004053 -0.15281245  0.5677736   0.31878442
 -0.3845597  -0.2927754  -0.31295198  0.3664753  -0.45199025  0.3028685
  0.06606893  0.1310078  -0.02052534  0.22100005  0.4795079  -0.3280238
  0.7274706   1.0037552 ]
[-0.53963935  0.3257674  -0.32961065 -0.6397255   0.0747024   1.0579679
 -0.84354454 -0.42337885  0.15454876  0.5051483  -0.00886265  0.21281028
 -0.3979619   0.10410866  0.35474867  0.06269979  0.2859044   0.30699512
  0.55814064  0.01423176]
[-0.3789479  -0.00998123 -0.02056497 -0.42789543  0.5382239   0.08221318
 -0.72229457  0.1993161   0.10084827 -0.10395452 -1.3363866   0.10458593
 -1.0813648   0.81929356  0.48511204 -0.7079973  -0.16815421 -0.6733975
 -0.35227323 -1.6473185 ]
[-0.29953173  0.34736845  0.3471697  -0.10675335  0.25583488  0.3371015
 -0.03523786 -0.19256186  0.16148134 -0.22705866 -0.61269665  0.34889352
 -0.31344053  0.2794055  -0.21842758  0.39367452  0.41937345 -0.03309621
  0.3133651   0.78523856]
[-0.15447685  0.48243043 -0.07381089 -0.7704823   0.6124613   0.4865563
 -0.49229357 -0.4496692   0.0665736   0.28696254 -0.05834522  0.16806148
 -0.40088105 -0.27506056 -0.17143671  0.02785424  0.6893446   0.27075237
  0.34639022  0.7718111 ]
[ 1.2213104  -0.7253523   0.3875868   0.77488077 -1.3527251  -1.0102806
  1.321692    0.29793513  0.26555607 -0.30026084  0.67616934 -0.72940665
  0.8906611  -0.18145435 -0.4941509   0.18025295 -1.2201161   0.4953607
 -1.151247   -0.29784724]
[-0.3921106   2.0914845  -0.88996005 -0.68742734  0.65451026 -0.3556948
 -0.9962936  -1.8056326   0.7761672  -1.3754086  -0.45262307  1.6157656
 -1.5463108   1.4566869  -0.29261285 -0.4769881  -0.42331254 -0.91535574
  0.07011982 -0.42233577]
[ 0.86420655  0.27030617 -0.16659184 -0.11475826 -1.4386795   0.9453798
 -0.29400238  0.10591337 -0.7270292  -0.32762071 -0.01587424  0.4050461
 -1.0664502   0.81185496  0.5724042  -1.6578499  -1.179061    2.7608182
 -0.08350544  1.2180812 ]
[ 0.31320733  0.02528197  0.946525   -2.1867926   0.4677273  -0.61928594
 -0.9654305  -0.55440354  1.7888829   1.5002996  -0.34791273 -1.6737442
 -0.04070764  0.24857192  1.2671962  -0.6660869  -1.2534564   0.25289235
 -0.16587071  0.98420054]
[ 0.87650865  2.0567076  -1.8652028  -0.8409497   0.89093256  0.8354329
 -2.0570421  -2.1846051   1.3708372  -0.13660268 -1.0197167   2.9102514
 -1.5085168   0.3683153   0.23349606  0.25407985  0.42232454 -1.2433842
  0.31340778 -0.6984069 ]
[ 1.0774757  -0.51345676  0.00608393  0.89038235 -0.63500553 -0.35802665
  0.1228651  -0.6543506  -0.24740946 -0.21787234  0.14349246 -0.5047907
 -0.08741581 -0.06383517 -0.07865876 -0.4151934  -1.7911179  -0.01679609
 -0.64828837 -1.3859737 ]
[-0.19126776  0.4071811  -1.9069395   2.2454166   1.6445869  -0.64111423
  0.6950841   0.03798455 -1.0319239   0.29735863 -0.06878683  0.17632133
  1.7725351   1.1398488   1.3286966  -0.14741929 -0.59068304 -2.683051
  0.02757009 -0.51960826]
[ 0.4419067  -0.7157209   0.05177982  0.9356685   0.82369727  0.51226264
  0.64354485 -0.48080808  0.30013794  0.62112004  0.73179823  0.01061993
 -0.40613937  0.07585996 -0.7966149   1.1817983   0.3840425  -0.38983008
  0.15755452 -0.32105276]
[ 1.8780832  -0.61268705 -0.5032539   0.09485632 -1.2844595   0.89977866
  0.08734468  0.92853904 -0.39396483  1.1116216   1.1980293  -0.6639251
  1.4660344  -1.7914122   0.8243072   1.275753   -1.6184648  -0.19314873
  0.06462254 -0.34702528]
[-2.105084   -1.0871031  -0.91136104 -1.5786726  -0.08661108  0.06094963
 -0.00835446  1.3221928  -0.905944    1.5442152  -0.06578847 -0.77997494
 -0.83975935 -1.2351327   1.9982729  -0.3083214  -1.5285378   0.32615593
 -0.1743108  -1.4255712 ]
[-0.4950898  -0.6132687   0.9227399  -1.540765   -0.14035365 -0.31248552
 -0.34516335 -0.10870177  0.89294463 -0.4451062   0.22144875 -0.26796958
 -0.35020313 -2.3134255  -1.6672918   1.3821491   0.59509474  0.58477336
  0.18635727 -0.50694966]
[ 0.05745547  1.4639633  -0.6015206   0.08836601 -1.1099629  -0.7663551
 -0.44504562  0.7560822  -1.2663562  -2.6770089  -0.7259005   1.5068883
  0.83143896 -0.6286006   0.37900725 -1.2197992   0.16155146  0.6473205
 -0.03144405  0.67184955]
[-2.504719   -0.15565835  0.7750993  -0.18057232 -1.5765405  -1.2665073
  0.92622423 -0.03684488  0.09130914 -0.7492598   1.0683465  -0.37019783
 -0.502495    0.3865691  -0.33895528 -1.0693212  -0.7792021   1.3682762
 -0.89630055 -0.15954448]
[-0.45618904  0.5946014   0.01463789 -0.5411912   0.55116224  0.5587655
 -0.5363032  -0.31512392  0.02356467  0.06669164 -0.531353    0.295219
 -0.14592746 -0.0172479   0.17750923  0.10295599  0.996329   -0.11426064
  0.631168    1.054481  ]
layer 1 Activation
tanh
layer 2 Dense
20 40
[-0.7360478   0.85547674  1.3660971  -0.42884934  0.87994945 -0.27734828
  0.14178753  2.1696954   0.41202962  0.05212243  0.85784566  0.8064259
 -0.52555144  0.59089863 -1.2553341   1.6634809   0.38400802  0.07000732
 -1.054403    0.42539755  0.410968   -0.04658818  0.20270903 -0.42906258
 -1.617463   -1.3714321   0.12010505  1.3403023   0.3691501   0.61564595
 -0.40724418 -1.351884   -0.6150664  -0.12291787 -0.00332991  0.5809317
 -0.14211322  0.25307503 -0.31301165 -1.3973849 ]
[ 0.04306206 -2.0784836   0.69627154 -0.46752408 -0.30523008 -1.4326725
 -1.0189352   0.63399756 -0.68561447  0.7895008   0.26029307  0.15457475
  0.63016546 -0.9538296  -0.5550101  -1.1656921   0.13237801 -0.8424738
  0.11480712 -0.09887435  0.8382517   0.37491408  1.0797212   1.02616
  0.44466427  0.0605786  -0.17884028 -0.29458955  1.8461857  -0.92735934
 -1.3191184   0.5858046   2.4073699  -0.00654589 -0.50334966  0.9321239
  0.6938701   1.517202   -0.5832528   0.6881544 ]
[ 0.05410528  0.6168358  -0.9201754   1.0134639  -0.68088645  0.22521253
  0.10275489 -0.16641647 -0.33714312 -0.21968302  0.56187373  0.37246978
  0.42174327 -0.01910914  1.0311635   0.75978667  1.0768      0.52973276
  0.7339619  -0.4045719   0.31924778 -0.20607701  0.24874033  0.02938929
  0.8846584   0.3175195   0.04385373 -0.22295305 -0.463664   -0.31746936
  0.35344717 -0.37262276 -1.2764602   0.31524426 -0.58594894 -0.4633123
 -0.60536015 -0.15322986 -0.92549884 -0.39974743]
[ 1.9336437  -0.90236795 -0.08258574 -0.6996418   0.12316102 -0.9458912
 -0.85754055 -0.3676944   0.83412206  0.2921644   1.0824323  -1.0083781
  0.5084527  -0.28805313  0.19888164  0.9865887   0.8276393   1.5821745
  0.45796525 -0.03264524 -1.4023199   0.01017092 -2.0369122  -1.0685881
 -0.26093832 -0.35045442 -0.14923534 -0.03911623  0.38753974  0.83832234
  1.7036043   0.06008567 -0.7646617  -1.6659733   0.706752   -1.0371195
  1.7080877  -0.20928425 -0.39649582 -0.3811752 ]
[-1.4150898   1.2630833  -0.40544105 -0.00708696 -0.9778      0.87866414
  0.36859715  0.5929876   0.14817986 -0.4873592  -0.87096506 -0.30501387
 -1.4937948   0.27810034 -0.83346236  0.78729606  0.05542808  0.21617103
  0.5842484   0.5287551   0.08231612  0.07082576 -0.09084706  0.6700534
 -0.3407376   0.20460773 -0.32682702  0.93290865 -0.85433716 -0.66331667
  0.03977871 -0.34851468 -0.28621227  0.73434424 -0.00484453  0.37597644
  0.31438783  0.37376812  0.81375146  0.4151046 ]
[-0.02964586 -0.32592657  0.7158696   0.06834892 -0.72018856 -0.372921
 -1.2305222   0.9056845  -0.30270782 -0.35310516  0.02258742  0.04294259
 -0.35235578 -0.65634257 -0.8061373  -0.1989876  -0.56091344 -0.5739616
 -0.15483582  1.1005988   0.84693336  1.1140946   0.5212513   1.2065384
  0.17254336  0.5081994  -1.0028124   0.970721   -0.4913206  -1.0168324
 -0.20726126 -0.09571621  0.5823277   0.66359884 -0.8752323   1.2247852
  0.04147525  1.00319    -0.08968563 -0.02987238]
[ 0.5955712   1.442268   -0.86354715 -0.5398839   0.42759272 -0.3857368
  1.0747288  -0.93384004  0.46967778  1.6839241  -0.34799233 -0.1518548
 -1.3102942   0.00448777 -0.32230124  0.19726631  1.6655098   0.45157006
 -0.10048953 -0.91312283 -0.48857313 -0.8526611  -0.38099784 -0.14242542
  0.28598842 -0.6732484   0.8692656  -0.91247374 -0.9837573   0.8662933
  1.6435454   0.30610466 -1.4140954   0.22197874  0.86781627 -0.39619684
 -0.06510913 -0.01331757 -0.9012691  -0.3488093 ]
[ 1.2286656  -1.2968718  -0.39253807  0.9319247   0.46899468 -0.71634936
  0.8212887  -0.1275344   1.0267928  -0.2712715   0.1924856   0.4982895
  0.75751656  0.4591434   1.0679036   0.37583423 -0.12346383 -0.61952925
 -0.90440667 -0.04612593 -1.2312664  -0.03377679 -1.1108456  -1.0612576
 -0.8706489  -0.37942165  0.37468863  0.13022181  1.1781251   0.9478893
  1.183137   -0.1921771  -0.8280982  -1.3239616   0.71426487 -1.3175315
  0.16632098  0.03344319 -0.81784916 -0.7727533 ]
[-0.85205716  1.6078436   0.2935966   0.7605745  -0.02933116  1.4454942
  0.04491415  0.8347295  -0.13481537  0.31112358  0.82482815 -0.23304994
 -0.7107021  -0.03079029 -0.23656313 -0.4117224   1.8605335   0.5380893
  0.948013    0.07352559 -0.18342511 -0.19971685 -0.0600117   0.5050276
  0.73647016 -0.0391918   0.34739414  0.13671541 -0.9926912  -0.21839182
 -0.23813955 -0.07353432 -0.18275233  0.02366922  0.4148817   0.03270712
 -0.63506746 -0.92158157  0.38252747  0.01531675]
[ 0.07660731 -0.2344578  -0.5598847   1.1049362  -0.80103385  0.4001228
 -0.37632486 -0.6534575   0.11512586 -1.1736597   0.04587698  0.7581815
 -0.48852566 -0.20519349  0.68006176  1.1927992  -1.1875607   0.42609808
 -0.75286597 -0.3266863   0.6267012   0.7408574   0.07063109  0.36815056
 -0.1163414   0.10301372 -0.28685772 -1.2433174  -0.16856208  0.15233932
  0.6444638  -0.5622927  -0.590809   -0.1571224  -0.19469342  0.1886004
  0.3136685  -0.3042025   0.21880834 -0.40915492]
[-0.33030513  0.8103947  -0.40681067  0.19490029 -0.53151625 -0.02542785
 -0.24706331 -0.608686   -0.16890699  0.53352547 -0.0390093   0.9061257
 -0.12143798 -0.62160474  0.06134088 -0.43240255 -0.00104924 -0.38913015
 -0.2772569   0.10513452  0.909405    0.05647637  0.38151172  0.62522864
 -0.40405893  0.36123577 -0.18515727 -0.44570166  0.36793664 -0.51568204
  0.4093098  -0.37923115  0.2527147   0.13145636 -0.5871859   0.46924213
 -0.0797924   0.12033818 -0.05655271 -0.01482955]
[ 6.6246283e-01 -5.2722615e-01  7.2705990e-01 -2.6741090e+00
  3.2456478e-01 -1.1087238e+00 -1.7048629e-01  8.6691910e-01
 -5.3146876e-02  4.1011521e-01 -2.9451117e-01 -4.1756940e-01
 -1.4256699e-01 -2.7371314e-01 -8.0026877e-01 -4.5333508e-01
  2.4721059e-01 -5.1745385e-01 -8.5605484e-01  1.2089448e+00
  1.4585839e-01  5.6465942e-01  1.2463049e+00  2.0349370e-03
 -1.5980968e-02 -6.2804776e-01 -3.5437599e-01  4.6155339e-01
  4.2527765e-01 -2.5769594e-01 -1.6364273e+00 -7.3777872e-01
  9.3076861e-01  8.4021039e-02 -1.3191375e-01  2.4877237e-01
  4.7628638e-01  3.5191655e-01  9.8942868e-02 -7.3055047e-01]
[-0.5350779   0.5846632   0.8901911  -0.14268447 -0.22256777  0.6012917
 -0.31708738 -0.517243   -1.1092026  -0.7578012  -0.34973988  1.3197342
 -0.2648357   0.06860407  0.02064535 -0.74446815  0.72130114 -0.6974501
 -1.0036727  -0.81401664  0.9414221   0.28949666 -0.49027768 -0.02978793
  0.7723832  -1.2649343  -0.30136597  0.22246148  1.2588675   0.10835644
  1.4711264   0.07889917  0.10424703 -0.26799914 -0.5123267   0.4475821
  1.4593515   0.00463265  0.8040637   0.29606816]
[-0.03120124  0.61534995  0.18069515 -1.0924002   1.4305078  -0.5777495
  0.21217908 -0.04600366  0.12803611  0.474155   -0.314035   -0.29043448
 -0.9134439   0.15664804 -1.0938396  -1.0879053  -0.16842568  1.5834494
  0.00466359 -0.48201022  0.5430879  -0.12247943  0.43290332  0.5534892
  0.5554345   0.8802246  -0.0126062   0.10708768  0.12731546 -0.81788325
 -1.0144169  -0.25646347  0.56258655  0.7496819  -0.2260939   0.4970741
 -0.18347868  1.2092525  -0.28157184  0.66668904]
[ 8.1068677e-01 -3.6325604e-01  2.1342258e-01 -4.7968465e-01
 -4.6444559e-01  1.1873050e+00 -2.9297611e-01 -9.8452359e-01
 -1.7844199e-01 -6.5050495e-01 -1.1634448e-02  9.5960337e-01
 -2.4128893e-01  3.2678932e-01 -7.4130589e-01 -5.0001144e-01
 -6.9243288e-01  6.4545055e-04 -6.4929597e-02  4.7790643e-02
 -7.7018544e-02  5.0562936e-01 -6.4664382e-01 -3.0193600e-01
 -9.3799901e-01  3.3006269e-01 -3.9052975e-01 -1.1789715e+00
  9.9301346e-02  4.6394759e-01 -7.2108276e-02  9.0927476e-01
  1.0494769e-02 -4.3838513e-01 -2.4805301e-01  1.1292346e-01
  5.7754368e-01 -1.1920202e+00  1.4384714e+00 -1.4041696e-01]
[-1.0350968   0.89579654  0.198031    0.24089602 -0.10597798  1.0110048
 -0.6311878   0.21340625  0.94111073 -0.23741879  0.734316   -0.3954861
 -0.23555487 -0.3108851  -0.69263935  1.1885922  -0.3335878  -0.04862946
  0.75359803  1.0131539   0.0190521   0.7847703  -0.20224547 -0.59883255
 -0.8086452  -0.8117323  -0.32600662  0.39537016 -0.56839406  0.514413
  0.2942683  -1.1665213  -0.6224711  -0.05671861 -0.451451   -0.48575324
 -0.00848839 -1.2602789   0.9423158  -1.0376122 ]
[-0.1998624  -0.72753936 -0.7051045  -0.03638666 -0.2752661  -0.74075013
 -0.37604833  0.9318612  -0.0786935  -0.67109096 -0.20660974 -0.24504028
 -0.9799883  -0.72109795 -0.9078235   0.50507355 -0.16105928  0.89091873
 -0.6418214  -0.72979844  0.73858553  0.3134587   1.2160968   0.88801724
 -0.14516422 -0.9378962  -0.34511727  0.48336548 -1.3368012  -0.8106844
 -0.20421627 -0.13974398 -0.03197777  1.3513134  -0.34286177  0.64138293
 -0.12176235  1.4411293  -0.78618383 -0.55218035]
[ 1.6393554  -1.1164514  -0.36104348  1.6509827   0.4437347  -0.6385911
 -0.53635514 -0.5253983   0.06274765  0.2722326   1.2387615   0.05107306
  1.1822405  -0.3649762   0.965328    0.57365525  0.46043286  0.29583725
 -0.5243485  -0.5489757  -0.21213453  0.10086728  1.0150144  -0.763883
 -0.22227289  0.25660628 -0.44609532 -1.2877477   0.9528392   0.33164218
 -1.14662     0.23619688 -0.70149374  0.27841425  0.23141457 -0.64758974
 -0.55035394  0.77263343 -1.2524594  -0.4017138 ]
[-0.26670116 -0.26622644  0.70241916 -0.39465702 -1.2979636  -0.17620035
 -1.4245228   0.81600386 -0.5128279  -0.9406046  -0.12548919 -0.09983423
 -0.12127385 -0.73684406 -0.83126205 -0.3148858  -0.4239479  -0.43766853
  0.00520338  1.021884    1.2357305   1.4970222   0.7412659   0.96727973
  0.07709873  0.64293176 -0.95795244  0.58364177 -0.39398342 -0.9680256
 -0.22636086  0.03724324  0.23760705  0.66240054 -0.5557754   1.1340619
  0.09707926  0.9184195   0.20079058  0.22666945]
[ 6.57712877e-01 -1.12477219e+00  8.08379412e-01  1.06138110e+00
  2.47869873e-04 -9.16221201e-01 -5.38377523e-01 -5.79730988e-01
  2.06740007e-01  7.29612529e-01  7.55115986e-01  5.40747046e-01
  3.90477516e-02 -1.50756761e-01  1.61859289e-01  4.63486612e-01
  1.35831639e-01  5.41095197e-01 -1.37757468e+00 -2.06549942e-01
  6.78336740e-01  1.11967616e-01  9.99198377e-01  7.49441326e-01
  1.50527041e-02 -5.79477707e-03 -2.45587155e-01 -1.09999764e+00
  2.72357047e-01 -8.56496453e-01 -7.83454537e-01 -6.11397564e-01
  2.38434151e-01  1.08717561e+00 -6.47104979e-01  8.77260029e-01
 -7.49810517e-01  1.17755306e+00 -1.27481830e+00 -1.64166912e-01]
[-0.28345302 -0.23101415  0.548035   -0.11341871 -0.6874926  -0.4005171
 -1.1496582   0.88204086 -0.40608552 -0.4981931  -0.14689337 -0.48853865
 -0.32371542 -0.46839878 -0.84915984 -0.29895678 -0.05849212  0.03200236
  0.10593933  0.7326192   1.141989    1.0366106   0.60918427  0.96628475
  0.40248773  0.60771835 -1.1864431   0.8251981  -0.2421498  -0.909705
 -0.38994497  0.19613929  0.4289285   0.60975355 -0.85379195  1.3061441
 -0.10695527  0.8911682  -0.2651055   0.26681143]
layer 3 Activation
tanh
layer 4 Dense
40 20
[-0.34025222  0.00902151 -0.7852373   0.9724303  -0.89061487 -0.10155693
 -0.12243799 -0.68792784 -1.3425236   1.0731603  -0.02566892 -0.80424356
 -0.02817366 -1.3366966  -0.70763147 -0.5577937  -0.28424713  0.07931065
 -0.9657166   0.92288196]
[ 0.21783538 -1.3985331  -0.26066288 -1.5298754   0.27469182 -0.03209434
 -0.45645025  0.7180762   0.61857116 -0.22059964  0.07950674  0.0476792
  0.05604851  0.59352756  0.45455453  0.19542336  0.24730146 -0.47802138
  0.14274482 -0.28137112]
[ 0.5606748  -0.45258358 -0.45298943 -0.07692853 -0.01566645  0.534472
  0.39955443 -0.24119115  0.21391502 -0.24274144 -0.06708507  0.10654189
 -0.37520996  0.3690786  -0.0898331  -0.11405364 -0.06003329  0.2648664
  0.42823577 -0.77131134]
[-0.8012254  -0.04777785  0.75979584  1.4939991  -0.85668474 -0.4158151
 -0.79347974 -0.70817983 -0.936195    0.9245495  -0.19641496 -0.5281512
  0.12320992 -0.9965811  -1.2182665  -0.24934725 -0.45451897  0.52458525
 -0.79844224  0.54669243]
[-0.5353002  -0.7102021  -0.42379668  0.08690653 -0.37816945 -0.33069825
 -0.35099423  0.4718078  -0.7763354   0.5721542   0.581538   -0.15261053
  0.5146418  -0.47817263 -0.44155353  0.7714333   0.42730278 -0.16112696
 -0.13017476  0.7427155 ]
[-0.21220651 -0.43133467  1.039546   -0.49852362 -0.8185497   0.32068315
 -0.8764594  -0.1364661  -0.61701125  0.35598618 -0.06547321 -1.1220882
  0.78764105 -0.9486674   0.13007589 -0.24890776 -0.42043984  0.50688374
 -0.80792695  1.1467314 ]
[-0.06827582 -0.37226382 -0.58004993  0.8111525  -0.6639582  -0.00327685
 -0.07999322  0.58678055 -0.56623995  0.50801027  0.9002456  -0.5513965
 -0.19684482 -0.736345   -0.64971197  0.7850064   0.70785946 -0.6044011
 -0.27476853  0.422176  ]
[ 0.6863974   0.6788011   0.12888923 -1.3365905   0.75165737  0.9954311
  0.6392678   0.18348713  0.6338196  -0.5225658  -0.45005026  0.29470214
 -0.52221245  0.5833483   0.6337411  -0.01614524 -0.01693193  0.03307412
  0.51050526 -1.0585692 ]
[ 0.09669494  0.17920184 -0.41905147  0.07862109 -0.20814872  0.77642035
 -0.08432452 -0.1678159  -0.40624326 -0.23619038  0.03580803 -0.4637381
 -0.36810008 -0.03897931  0.43328857  0.07366337  0.03271171 -0.3666092
  0.02433457 -0.02512235]
[-0.3765075   0.04540734 -0.03594059 -0.04709094 -0.20648503 -0.08687294
  0.06935684  0.1504907  -0.47442618  0.21110363  0.30299756 -0.31546772
 -0.46970254 -0.1818527   0.25494233 -0.03618232 -0.21670362 -0.94804263
 -0.13892685  0.36832944]
[-0.22074096 -0.22757393 -0.9351179   0.09937592 -0.15070173 -0.36305773
 -0.1346989  -0.2053195   0.03791261  0.8247017  -0.13507234 -0.6990858
  0.40547648 -0.14406146  0.309168   -0.06067311 -0.21639752  0.0349958
 -0.35618758 -0.32567742]
[-0.21501468 -0.36702874 -0.6855599  -0.01876342  0.31028807 -1.0591831
 -0.42922455 -0.10689733  0.21085523  0.56109583 -0.2702508   0.38702458
  1.0586784  -0.27955726 -0.19127703 -0.17926474 -0.34499356  0.2937129
  0.31253263 -0.05784582]
[ 0.50324494  1.2252439  -0.25824553  0.6015808  -0.5151371  -0.38355786
 -0.2407494  -0.19096266 -0.57337886  0.8135227  -0.4566056  -0.30403715
 -0.48771268 -0.7214714  -0.48113504 -0.5749256  -0.2659214   0.27887222
 -0.11053572  0.72717226]
[ 0.8542587  -1.1910635  -0.5853404   0.45160955 -0.36466122  0.28266552
 -0.03002386  0.42483595  0.21431354  0.7145348   0.3163818  -0.3654574
 -0.45519814 -0.64390767 -0.14491639  0.55849266  0.59451616 -0.14498742
 -0.43610457  0.666644  ]
[-0.18355785  0.5607847   0.61539286  0.48435444 -0.813392   -0.51958287
 -0.6514804  -0.37289244 -0.8916285   1.2759348   0.18381108 -0.5335386
 -0.08306117 -0.84982055 -0.65028065 -0.28459874 -0.06277447 -0.15446874
 -0.6324177   0.4608769 ]
[-0.31518582  0.49349567  0.45896593  0.48305306 -0.77001476 -0.12576616
 -0.20817196 -0.44509006 -0.4341606   0.58505046 -0.1024464  -0.61072874
 -0.25812775 -0.15994535 -0.8357927  -0.6631766  -0.3495859   0.63549834
 -0.9260775  -0.26442817]
[ 1.0287489  -0.7252697  -0.43347627 -0.15143347 -0.02588085  0.26144373
  0.20292246  0.859931   -0.48840722  0.27445704  0.47147098 -0.4054849
 -0.7107232  -0.6035733   0.0626251   1.0452179   0.25380635 -0.5897631
 -0.30185896  0.5294251 ]
[ 0.69052356 -0.08454512 -0.1823911   0.30849957  0.07718611  1.0361587
  0.74977136  0.60204667 -0.23388973 -0.6131265   0.11632091  0.16810377
 -0.5230579   0.18592556  0.7579527   0.5637961   0.10145796 -0.20768027
  0.43969625  0.07328018]
[ 0.89475554  0.02497024 -0.1292887  -0.18049257  0.10018931  0.33760467
 -0.24711956  0.0569056  -0.3407036  -0.3301669   0.39654085 -0.0163026
 -0.59774625 -0.14003037 -0.01764564  0.27746758  0.39973238 -0.19764242
 -0.39017808 -0.15270926]
[ 0.39935443  0.9110377   0.10125791 -0.24619317 -0.07104646  0.32708377
 -0.31522655 -0.57721114 -0.08928631 -0.45358676 -0.62844974  0.09018535
  0.15439439  0.12038346  0.8541211  -1.4973129  -0.2874817   0.45070016
 -0.18038948 -0.27549523]
[ 0.7320448   0.47839525  0.3201093  -0.8208667   0.9914815  -0.07654338
  0.64470136 -0.44863433  0.93863285 -0.90976363 -0.7284522   0.6232923
 -0.06123279  0.81961316  0.7911954  -0.35038492 -0.30419585  0.47980636
  0.75892067 -0.84847367]
[ 0.15199518  0.7469805   0.29925516 -0.82968843  0.6159789  -0.22752288
  0.45452675 -0.8191755   0.4439859  -0.6503938  -0.6093529   0.4765818
 -0.27937818  0.5969306   0.87726575 -0.9504588  -0.65676886  0.6913789
  0.09947316 -0.2872692 ]
[ 0.13383791  0.24435319  0.3305312  -0.5590722   1.5501758   0.02349056
  0.7507125  -0.07500954  1.2049637  -2.267291    0.26079416  2.0234582
 -0.48152974  1.2699857   0.8701058  -0.7339364   0.33018488  0.4648612
  1.3584169  -1.3532795 ]
[ 0.394568    0.5608489   0.07032573 -0.6277882   0.44576752 -0.06036213
  0.68134445 -0.3529444   0.70489943 -0.3269892   0.0869913   0.50340104
  0.14088663  1.141541    0.45327505 -0.18254873 -0.2740619   0.57302153
  0.86542505 -1.1906399 ]
[ 0.49326378  0.26852173 -0.23970887  0.18005905  0.13387151 -0.1767819
  0.63183606 -0.222594   -0.05823468  0.23402475  0.00249962 -0.0136671
 -0.5615301   0.17494579 -0.3089544  -0.22819707  0.10179061 -0.28490728
  0.23844571 -0.06750648]
[ 0.4113708   0.6594082  -0.449329   -0.10591817  0.407268   -0.3069887
  0.0723979  -0.48215687  0.14693557 -1.1675875   0.03865084  0.33888432
 -0.11628497 -0.02378925  0.74142843 -0.6353012   0.27903634  0.89376545
  0.7093485   0.44250274]
[ 0.1869002  -0.740435   -0.38238746  0.6007981  -0.58448035 -0.06403257
 -0.3188477   1.0171466  -0.35846427  0.83113366  0.62714213 -0.3868652
  0.04684122 -0.4699373  -0.8636457   0.8628937   0.3872574  -0.72126836
 -0.50461495  0.41925   ]
[ 0.3451771  -0.02167628  0.6542068  -0.7494686   0.44088057  0.67425305
  0.39335522 -0.11788179  0.48381823 -1.1587737  -0.13785924  0.43729535
 -0.0583624   0.4444573   0.9738466   0.44055176  0.100258   -0.04442077
  0.05827994 -0.6189473 ]
[ 0.4214746   0.07916784 -0.182948   -0.09593112 -0.5575435  -0.48601848
 -0.19893357  0.35455215 -0.5557258   1.2838356   0.18583497 -0.85260916
  0.2590156  -0.36168    -0.20005804  0.75064623 -0.10075371  0.15955009
 -0.40877593 -0.5287516 ]
[-0.36250708 -0.9009951  -0.42895377  0.24527907 -0.40893424  0.06578377
 -0.20376644  0.45646495 -0.26762775  0.6729494   0.4226716  -0.8052103
  0.31606856 -0.5255144  -0.41197747 -0.05531095  0.5051655  -0.8988676
 -0.9507349   1.1661838 ]
[ 0.17268965 -0.3452239  -0.35250622  1.4531664  -0.5003126  -0.34829628
  0.02655759 -0.2085447  -0.3677388   1.5025537   0.08705367 -0.8664418
  0.7127713  -0.48973757 -0.6503438   0.26853782 -0.14457126 -0.3699683
 -0.56890076  0.30042043]
[ 0.19614996 -0.01640165 -1.0063331   0.06914174 -0.13969672 -0.42698124
 -0.19117431 -0.31622788 -0.0670919  -0.72916716 -0.09121425  0.05096656
 -0.62657183 -0.00811814  0.4295828  -0.2870178   0.05841469  0.15044205
  0.09377158  0.82809997]
[-0.22497535  0.19987926 -0.16023783 -1.1471615   0.11356078  0.22002986
  0.21158056  0.04926815  0.29363018 -0.02542577  0.2229944   0.20593414
 -0.7111331   0.8758945   0.02725384  0.27663448  0.20148167 -0.01993595
  0.02190614 -0.65141696]
[ 0.19157358  0.8194426   0.44346657 -0.502835    0.41033673  0.6105732
  0.03558082 -0.10104007  0.44629407 -0.896688   -0.05036416  0.5953824
  0.07792582  0.08429867  0.45452613 -0.5138779   0.07686976 -0.01711905
  0.73315257 -0.8835396 ]
[-0.17352033 -0.81222564 -0.53650665  0.5249555  -0.6468573  -0.08917212
 -0.77558345  0.3333298  -0.41582626  0.25802755  0.49532914 -0.6670767
  0.228561   -0.4091502  -0.07134321  0.5023164   0.6704404  -1.3479593
 -0.498186    0.67004913]
[ 0.11659018  0.29083025  0.4665635  -0.55215526  0.9815069   0.08944941
  0.64230806 -0.42233402  0.90322036 -0.889064   -0.44000867  0.38480318
 -0.16196427  1.0508187   0.2458009  -0.26011288 -0.16200165  0.7408977
  1.0149659  -0.76979876]
[-0.2600661  -0.3105746  -0.08164359  0.35424572 -0.20465814  0.07839919
  0.5170976  -0.3040905   0.02214753  0.4523747  -0.06353173 -0.37645692
  0.5589557  -0.09377578 -0.60382426 -0.29238796 -0.3334342   0.1193384
  0.17875639 -0.26590118]
[ 0.14761262  0.6578343  -0.4723144  -0.38083336  0.69068867  0.2649937
  0.7909961   0.13089693  0.6338301  -0.7738319  -0.16709729  0.7110895
  0.10323258  0.8124315   0.9117917  -0.143148    0.14388472 -0.00357047
  1.0538634  -0.7060583 ]
[-0.00727571 -0.5078146   0.44468224 -0.18826176 -0.2183738   0.393527
 -0.79344594 -0.1809855  -0.20631956 -0.04732094  0.18712533 -0.18211241
  0.23059435 -0.55120486 -0.3763249  -0.07004013 -0.18090081  0.7480291
 -0.5012004   0.5593163 ]
[ 0.20616741  0.5213465  -0.31848565  0.18695092  0.18305735 -0.10708954
 -0.43422624 -0.39991972  0.26142716 -0.8661208   0.10917955  0.21740761
 -0.5607779   0.03098121  0.3344954  -0.06317791  0.39603707  0.30506995
  0.24357992  0.02514783]
[-0.00708757  0.47085142  0.33578545 -0.39975876  0.39032257 -0.07224989
  0.21464792 -0.4900534   0.44419962 -0.54704684 -0.46296793  0.29268715
  0.03129865  0.5109638   0.5753564  -0.6666722  -0.25716242  0.3939077
  0.19615011 -0.5297966 ]
layer 5 Activation
tanh
layer 6 Dense
20 1
[-0.5671693]
[0.6936051]
[0.08712032]
[1.2386677]
[-0.6314755]
[-0.14275776]
[-0.0925409]
[-1.0489911]
[-0.6795093]
[0.9225899]
[-1.1637686]
[-0.34956893]
[0.16308762]
[-0.83583677]
[-0.55835295]
[-0.63122684]
[-1.1587511]
[1.0853426]
[-0.5219847]
[0.2967401]
[0.95757073]
