layers 7
layer 0 Dense
20 20
[ 0.3027901  -0.17418705  0.01405631 -0.05662294 -0.23428877  0.15538892
 -0.20991538  0.19808018 -0.13217928  0.13477576  0.0240449  -0.2551056
  0.40733516  0.02765421  0.02528629 -0.21678233 -0.08154356  0.18842262
 -0.09233652  0.2054975 ]
[-0.31111386 -0.2567494  -0.02665877  0.32537913 -0.00065264  0.17521739
 -0.05951273  0.11803925 -0.0059638   0.3842218   0.3505751  -0.04062405
 -0.1783977   0.11620796  0.12087327 -0.34669703 -0.05398405 -0.14281501
 -0.08032313 -0.35942808]
[ 3.5856205e-01  2.8100348e-01 -3.7746063e-01  3.8355023e-01
  1.7983550e-01  3.2719284e-01 -5.4757833e-02 -1.9473398e-01
  2.1208173e-01  2.1540558e-01 -3.5338968e-01 -3.2611907e-01
 -3.4171104e-02 -2.0769230e-01  3.4561753e-04  3.6706150e-01
 -1.9885242e-02 -1.6296765e-01 -1.9050069e-01  2.1311939e-03]
[ 0.2987857   0.3157638   0.141524   -0.09879342  0.29468817  0.04434349
  0.14879216 -0.10547853 -0.28209355  0.3041177  -0.32146254  0.22106779
  0.4244362   0.16159031 -0.02608564  0.07687885  0.10070121 -0.24126764
 -0.13098612 -0.22040737]
[-0.3852993   0.44914973  0.26014206  0.17376189 -0.03367821  0.03965109
 -0.23654094  0.20573716 -0.08773755  0.25747272 -0.4800535  -0.14877106
 -0.21803416  0.18468258 -0.07734133  0.25724104  0.17467351 -0.46011326
  0.3332677   0.16275801]
[ 0.32332498  0.38102466 -0.1465216   0.07487947 -0.15241726 -0.32722777
 -0.24083151 -0.16367081 -0.01170325  0.28871888  0.21624088 -0.1540704
 -0.22438508  0.23194093  0.28616422  0.16487253  0.2684604   0.00068885
  0.04788697 -0.29318956]
[ 0.21603793  0.25997764  0.15655404  0.0832139  -0.06533778 -0.02619955
  0.05018419 -0.21894677 -0.15339126  0.36556566  0.2947868  -0.21314695
  0.30288333  0.02446008  0.25014353 -0.11124158  0.34087867  0.0480243
  0.29042435 -0.01918945]
[-0.27891037 -0.41382363  0.00377965 -0.01147097  0.1600685   0.09855954
 -0.12326749 -0.10183261  0.21043813  0.24946459  0.66981256  0.32507962
 -0.27376118  0.3429639  -0.32847217 -0.22152503  0.4482482   0.2501544
  0.205293   -0.34954876]
[ 0.13533019  0.30432975 -0.23231266  0.21835819  0.03488147  0.02172536
 -0.80720633 -0.18999903 -0.00085705 -0.21344829 -0.2848048  -0.02606881
 -0.11766629 -0.36840653  0.21077971 -0.27295527  0.5537678   0.2010852
  0.07981638 -0.15691514]
[ 0.20190474 -0.01234114 -0.6380375   0.07972022  0.24081537 -0.18257408
  0.05856206  0.06267159  0.20122382  0.14442143  0.21922772  0.14850046
 -0.01801695 -0.21700758 -0.03386199  0.29942462 -0.38997564 -0.00804049
  0.4448723   0.29543006]
[-0.0295744   0.11818065 -0.03665607 -0.261406    0.3462324   0.25192893
 -0.10859626 -0.3066612   0.45524213  0.17260724  0.02216022  0.309539
  0.03329552 -0.19383813 -0.6004544  -0.20807745 -0.03630239 -0.1884072
  0.05469988 -0.20686409]
[ 0.35684904  0.1842611  -0.73953015  0.21870995  0.1594542  -0.19854069
 -0.36531517 -0.21919121  0.38525155  0.05374809  0.33795756  0.09304282
 -0.75725764  0.12163584 -0.1885527  -0.02981256  0.5116449  -0.49577257
 -0.28671053  0.25099126]
[-0.5513573  -0.46210572 -0.01419975 -0.17799878  0.30249944  0.25598717
 -0.00957612  0.4074371  -0.49117607 -0.6671981  -0.3728266  -0.20354886
  0.38176498 -0.4263806  -0.23693264  0.5231796  -0.4365029  -0.38854617
  0.724491    0.19106388]
[-0.15147863 -0.22002974 -0.27215415  0.2233684   0.03724337 -0.4746194
  0.05917546 -0.521381    0.03908963 -0.5271773   0.11097278  0.03169839
  0.00265808 -0.7016254   0.25042823  0.32279482 -0.11127603 -0.3254593
 -1.002541    0.6446097 ]
[ 0.60999274 -0.4767128   0.18134941 -0.6887909   0.3472976   0.02739181
 -0.99460125 -0.3627846   0.39717525 -0.06163196 -0.39221466  0.6298377
  0.1361033  -0.1183112   0.22951174  0.31311777  0.32555392 -0.4033096
  0.15910314 -0.33246478]
[-0.13412064  0.4372315  -0.19134071 -0.4117008  -0.23875277 -0.37828496
  0.03844605 -0.35325047  0.27480316  0.2644459  -0.2260681  -0.22595152
 -0.8083701   0.20220733  0.21219718 -0.2030434  -0.36266604  0.13109128
 -0.2508532  -0.38557827]
[ 0.04160019  0.0595495  -0.1067317   0.02149917  0.16137399  0.2977182
  0.55012035 -0.2648582   0.257238   -0.36323223  0.09301949 -0.34853104
  0.38184026 -0.00702506 -0.26988247  0.06975316  0.05460708 -0.06698769
  0.02008527 -0.2096297 ]
[-0.07123174  0.7864327   0.7872392   0.09051248 -0.38396546  0.60533726
 -0.19443932  0.9000378   0.18716611  0.73292226  0.2288893   0.58667725
  0.04107005  1.0995529  -0.36023036 -0.8200047   0.57074255 -0.17399383
  0.8765834  -1.0448711 ]
[-0.77721286  0.6903852  -0.47844845  0.36104107 -0.7537787  -0.27239487
  0.6198752   0.5781494  -0.50412226  0.5005498   0.6685788  -1.0934289
  0.08143138 -0.30056512  0.6654446  -0.5177541   0.62783647  0.02910479
  0.3556326   0.41891196]
[ 0.03548791 -0.44652548  0.5645578   0.36696738  0.13252768 -0.23960455
 -0.1675226   0.15092547 -0.60576475 -0.18149313 -0.0765861   0.34237063
  0.5766237  -0.168633   -0.39587638  0.48347595 -0.77663696  0.52649665
  0.27077994  0.09654641]
[ 0.15986975  0.07935578  0.01508787 -0.05772591 -0.04663949  0.04177928
 -0.05052825  0.02790738 -0.06623043  0.04842777 -0.10458795  0.01950945
  0.21892391  0.07025687  0.09590163  0.10603629 -0.04033272 -0.03518746
  0.01568284 -0.04342349]
layer 1 Activation
tanh
layer 2 Dense
20 40
[-0.3332445   0.00558226 -0.03457027  0.10170845  0.09141859 -0.10404553
 -0.2794404  -0.22073841  0.05640292 -0.12107714 -0.15637954 -0.48395383
 -0.1578014   0.38505808 -0.31419855  0.32663465 -0.1631503   0.15180235
  0.4248345  -0.06861471  0.1329974   0.4451719   0.2214888   0.3323352
 -0.42817968  0.22538143 -0.18659931 -0.19054426  0.09314281  0.07489891
 -0.3298096   0.10707822 -0.05934106  0.1378252   0.3806506  -0.2882422
 -0.11962963  0.11542802  0.36399502  0.2126345 ]
[-0.04042063  0.38727614 -0.02718954 -0.08295403  0.42921764  0.04919941
  0.297441   -0.27633947 -0.16429843 -0.6904696  -0.09984148 -0.02752167
  0.37066552 -0.6583337   0.16231559  0.0182986   0.10258977  0.00827515
 -0.74963206  0.57957643  0.12869851 -0.5394435   0.528699    0.25643054
  0.02779997  0.22171451  0.2600251   0.4102677   0.06940184  0.15890777
  0.5803926  -0.1482769  -0.07800165 -0.22071636  0.07111479  0.47891545
 -0.03985023 -0.56428003 -0.18178138  0.11048201]
[-0.3828626  -0.07954168  0.11293748  0.11028361 -0.21372874  0.23871656
 -0.4639711  -0.01624488  0.69275415  1.118195    0.04280842  0.03363755
 -0.09156986 -0.27604744 -0.2149184   0.21378398 -0.12183955  0.52709115
  0.10543694  0.00236895  0.27577147  0.18047073  0.07716652 -0.02579293
 -0.25659466  0.14916462  0.5556392   0.49942598  0.21251595  0.36314526
  0.21424551 -0.10298468 -0.01328099  0.12425933 -0.12473118 -0.36258146
  0.06118293  0.3142206  -0.02211377 -0.06078723]
[ 0.02081734  0.0533595  -0.15764041  0.16992465  0.07338076  0.15449712
 -0.13188283  0.25095198  0.04537412  0.23461701 -0.02677021  0.46848822
 -0.29180732 -0.26460037  0.16633028 -0.23978531 -0.03372198 -0.07491104
  0.04337857  0.2873283  -0.00304409 -0.07166193 -0.21607295  0.19514799
  0.35047123  0.10858801  0.09269647 -0.06341557  0.3583196   0.33478582
  0.14797872 -0.33807057 -0.23322967 -0.22181238 -0.33517444  0.06071581
 -0.10971725 -0.05398974 -0.3364509   0.3470095 ]
[-0.49782354  0.31847045  0.00823729  0.02232645 -0.43449852  0.08865611
 -0.0636814   0.2526365   0.3505159   0.3378466  -0.2795053   0.24990526
 -0.3249566  -0.21968721  0.10494921  0.16973193 -0.05943434 -0.04917094
  0.50745434 -0.07182454 -0.05487139  0.34817782 -0.14540541  0.25741047
  0.19783325 -0.00740301 -0.13955264 -0.31968695 -0.04497212 -0.2599301
 -0.30088854 -0.0366562   0.17619282  0.72305787  0.42030123  0.10917445
  0.2775678   0.38350132 -0.10845993  0.1593396 ]
[-0.09442225 -0.18643524  0.05598948 -0.02882149 -0.32401553 -0.37627578
 -0.25068244  0.21864732 -0.09908448  0.39760268 -0.35868707 -0.1665082
  0.16286284 -0.5261845  -0.5291254  -0.15082851  0.12812117  0.29021186
 -0.49771377  0.30978546 -0.03364404  0.08236083 -0.06064077 -0.03436456
  0.2694804   0.19258341  0.25130224 -0.14536534  0.4768802   0.10895029
 -0.00989446  0.09191396 -0.18895864  0.21166275 -0.01327288  0.23007487
  0.16537513  0.16541067 -0.20427725  0.2917649 ]
[ 3.2636676e-02  1.1726843e-01 -3.9939141e-01 -2.3098318e-01
  3.7236574e-01 -3.0977780e-01 -1.5188882e-01 -1.5019207e-01
 -1.5641604e-01 -6.0292047e-02  1.9778574e-01 -1.5157780e-01
  2.6628053e-01  1.9329475e-02  7.0071146e-02  6.1706431e-02
  2.0868421e-01  9.3170762e-02 -6.3896514e-02  8.3886996e-02
 -1.6099134e-01 -4.2735127e-01  5.2430663e-02  2.6297295e-01
  1.1428147e-01 -6.9830858e-06 -4.5678267e-01  2.2353554e-01
 -4.6166992e-01  3.3583481e-02  3.2663172e-01  5.8092464e-02
 -5.3484116e-02  2.2618225e-01  2.0497021e-01 -7.6078989e-02
 -1.8385346e-01 -3.7710962e-01 -2.7082688e-01 -5.5195787e-03]
[-0.19646838  0.04420316 -0.20750631 -0.16572434  0.4600061  -0.4435503
 -0.37452322  0.12342361 -0.1924463  -0.16104437  0.11535434 -0.08601812
  0.40293816 -0.8646979   0.20137289 -0.04424335  0.0719486   0.2490145
 -0.5125395  -0.05306827 -0.14480305 -0.29742235  0.00387663  0.22928171
  0.45723125 -0.35889876  0.57769006  0.20203933  0.02650043  0.11690354
  0.23519474 -0.2332313   0.3747211   0.06815366 -0.37930337  0.69522095
  0.14987524  0.18835206 -0.39723015 -0.2203595 ]
[ 0.18344831 -0.17167914  0.13106042  0.11065256 -0.26732203 -0.36994585
 -0.04874191 -0.36522144 -0.6857641  -0.29276046 -0.23058343 -0.28702182
  0.08090273 -0.16717613 -0.06799531  0.22387937 -0.31365484 -0.4615808
 -0.06809165  0.29891297  0.17851327  0.21672657 -0.23793678 -0.01651054
 -0.12516458  0.6752415   0.22036906 -0.3417111   0.3360877  -0.7044387
 -0.5435373   0.423604   -0.4120179  -0.27375478  0.6647029  -0.18437098
 -0.12122007  0.27453065 -0.06755628  0.7055497 ]
[ 0.14516461 -0.29940537 -0.0925551   0.02329854  0.4359651  -0.47117794
  0.04059389 -0.2007767   0.04367502  0.28780612 -0.07123409 -0.32714897
  0.19429438 -0.24035695  0.00302159  0.34335834  0.19783962  0.28264952
 -0.20859836  0.37563178  0.24270397 -0.39385197  0.11508778  0.17038384
 -0.11894552  0.09985731  0.3291583   0.14521123 -0.1315764   0.301127
  0.2731743  -0.29531255  0.05785552 -0.00358248  0.06377774  0.05164799
  0.11249333 -0.49734455  0.20943901  0.15965517]
[-0.01626496 -0.2417628   0.24746393 -0.14209644  0.24068499 -0.27611238
 -0.06351968 -0.18737863 -0.6524608  -0.607087    0.23584378  0.35477915
 -0.06495027  0.0342849  -0.08809945 -0.04937286 -0.30020204 -0.6992109
  0.25964683 -0.08796098  0.5188535  -0.5770534  -0.06731272  0.09016936
  0.20041509  0.03725002  0.19180308 -0.13599032  0.0899222  -0.08587483
  0.43828192 -0.3375709   0.16198407 -0.42617604  0.26339003  0.06684536
 -0.22344032 -0.3659289  -0.65339273 -0.45013833]
[-3.01212877e-01 -3.38118047e-01  1.61819845e-01  1.48899153e-01
 -4.97890055e-01 -9.28711966e-02 -3.48476201e-01  2.85459995e-01
  6.25705579e-04  7.51559496e-01 -2.55784750e-01 -4.93043095e-01
 -4.64332432e-01  8.08898732e-02 -4.18606669e-01  1.23811372e-01
 -1.30818918e-01  4.47654337e-01  7.35589266e-01 -1.35616884e-01
  6.86272532e-02  2.42117140e-02 -1.19891062e-01  1.61425844e-01
 -4.44908500e-01  2.96546459e-01  1.41357765e-01 -1.83436632e-01
  2.14380503e-01 -1.30594999e-01 -1.21778846e-01 -1.22382812e-01
  3.27698886e-02  2.37768114e-01  1.81733087e-01  1.07771508e-01
 -5.89876324e-02  3.44990999e-01  1.37726152e-02  4.40673858e-01]
[-0.132049   -0.08644738 -0.34364864 -0.31764305  0.13245867 -0.12358503
 -0.27355692 -0.07320987  1.025158    0.5690809   0.11540153  0.06827646
  0.43184862  0.28229272 -0.09533795 -0.36806738  0.31107274  0.42630383
  0.04561234  0.2617233  -0.00849035  0.01846359  0.2856659  -0.15141898
  0.05610074 -0.43223184 -0.23519567  0.56406164  0.09202017  0.2411751
  0.15623264  0.01512615  0.44719753  0.5052288  -0.07480291 -0.27164257
 -0.16036996 -0.0533288   0.46198604 -0.61211723]
[ 0.1195439  -0.12077438  0.39727077  0.34971648  0.35576236 -0.61496466
 -0.7952648   0.1756728  -0.17664437  0.45700112  0.27459794 -0.8311618
  0.1587667  -0.40245482 -0.6401481   0.20637405 -0.19807573  0.2021266
 -0.5358926  -0.22178425 -0.06145886 -0.1447468  -0.03782148  0.00862727
  0.4738549   0.22200783  0.4732118  -0.10675263  0.25191417  0.5839527
 -0.05107154 -0.37300938  0.28377208 -0.67211044  0.20342098  0.47282514
 -0.36728013 -0.19249114 -0.5017985   0.14770709]
[ 0.4297491  -0.1425329  -0.35066825 -0.06560579  0.22638388  0.02798249
  0.10554689  0.26804835 -0.44538113 -0.2912001  -0.03113967 -0.3018983
 -0.01980022  0.03746651 -0.09645208  0.29156694 -0.2553979  -0.36613703
  0.28387898  0.107017   -0.05714079  0.0386679  -0.10629371 -0.04845503
 -0.37580946  0.00302532 -0.30321488 -0.20613903 -0.08113322 -0.25956738
 -0.11383167 -0.22843927  0.07242769 -0.38293737 -0.24107707 -0.25264704
  0.19567901 -0.00902119  0.2562382  -0.1007633 ]
[-3.20343561e-02  4.56692055e-02  9.57200155e-02 -2.58090526e-01
 -3.49310905e-01  2.18746006e-01  1.39425859e-01 -1.75049767e-01
 -2.40394756e-01  2.40656555e-01 -1.82838202e-01 -3.07954326e-02
  6.56319608e-05  4.85623628e-03  9.56533402e-02  4.89068665e-02
  4.03396785e-01  4.25837487e-01  2.01326981e-01 -2.23168880e-01
 -4.34279032e-02  3.99241060e-01 -1.44430459e-01  1.78200044e-02
 -5.05094193e-02  1.21055795e-02 -4.18518454e-01  1.67981297e-01
 -8.96477774e-02 -7.22047910e-02  1.10225014e-01  2.32251376e-01
  1.14903606e-01  3.33643407e-01 -1.90991536e-02 -1.42693117e-01
 -1.35265052e-01  1.19926319e-01 -5.69917038e-02  2.82635521e-02]
[ 0.41715053 -0.5719337   0.2309444   0.03255011  0.37117004  0.10902903
  0.11621832 -0.36952716 -0.29711753 -0.5339875   0.1793079  -0.13490325
  0.10072392 -0.07072029  0.27956912 -0.03401455 -0.3989323  -0.14585055
 -0.6117137   0.47353062  0.13339199  0.14921477 -0.2422073  -0.3561095
 -0.16296327  0.2811968   0.61957496 -0.10406262  0.06338063  0.0847618
  0.19998322 -0.35578778 -0.2083127  -0.3613404  -0.25775725  0.10310825
 -0.29862216  0.02427116  0.35602808  0.4169827 ]
[ 0.33039695  0.02029295 -0.34976792  0.20704181  0.504796   -0.27595848
 -0.62056947 -0.2418475  -0.04043931  0.36586493  0.27824894  0.6048989
 -0.34811527  0.10030066 -0.10991973  0.2793942  -0.32467833 -0.28444946
  0.39560515 -0.02635592  0.03425792 -0.42639786 -0.32807776  0.13588263
  0.06070454 -0.4851287   0.05779349  0.04720722  0.09184746  0.3677179
  0.5040829  -0.26358742 -0.36785814  0.35585752  0.21515538 -0.43775263
 -0.15879813  0.07735106 -0.37412417 -0.5806648 ]
[ 0.07212326  0.02092023  0.09023016  0.12722023  0.1169297   0.04639697
  0.02622011 -0.0726933  -0.0864369   0.10494778  0.18205036 -0.00703429
 -0.07767184 -0.41860238  0.29307064  0.07604666 -0.00780407  0.25576812
 -0.6150663  -0.38770354 -0.02039918  0.3396765  -0.10334992 -0.14653653
  0.37272033  0.07415637  0.35898855  0.14240098  0.1013291   0.18990761
 -0.11033474  0.05775598  0.30693027 -0.11037647 -0.3893894   0.2593541
  0.2536307   0.1963484  -0.76641095 -0.20950349]
[-0.01231963 -0.01628479 -0.7991213   0.00670326  0.01088123  0.602007
  0.552846    0.13936576 -0.05654148 -0.85845226 -0.26023164  0.7709613
 -0.33439845  0.4413923   0.49759012 -0.37076163  0.28922486 -0.24914867
  0.3915612   0.43769318  0.08263785 -0.38205317  0.4248702  -0.27866352
 -0.12038767 -0.04499903 -0.32266003  0.08197803 -0.55511856  0.15422453
  0.08765047  0.05817063  0.04700893  0.3329867   0.3111492  -0.50508755
  0.0650396  -0.14665408  0.3187259  -0.04956924]
[-0.26665497 -0.02860309 -0.13933592 -0.0617371   0.01192997 -0.0549773
  0.01386302  0.07185554  0.48097146  0.12302028 -0.03045954 -0.20322753
  0.10876732  0.14965476  0.06091643 -0.03037053  0.088453    0.11417723
  0.12758063  0.19233206 -0.21602519 -0.1388706   0.3092659   0.3506579
 -0.17742501 -0.03923092 -0.09422435  0.12784164 -0.17136134  0.1932556
 -0.17158365 -0.02993233  0.12578933  0.21063218  0.18691272 -0.01162128
  0.04668498 -0.06319883  0.3086347  -0.01819147]
layer 3 Activation
tanh
layer 4 Dense
40 20
[-0.37221536 -0.3802878   0.02861449 -0.3195186   0.20996007 -0.3700692
  0.21456978 -0.30580235  0.28639844  0.40555528 -0.04185117 -0.01356056
  0.23412623  0.101474   -0.35200375 -0.2358272   0.2722067   0.14901067
  0.06565709 -0.36572048]
[-0.03549617  0.08364346  0.00171644  0.44795552  0.18068852 -0.13238841
  0.09582078  0.05485699  0.07658729 -0.11870283  0.20110494  0.4027521
  0.01848211  0.13519634  0.2313101   0.257798   -0.30998817 -0.06625158
  0.01814592  0.07819129]
[-0.0647659  -0.00357792  0.24278052 -0.29166362 -0.12690695  0.07240845
  0.06282533  0.10474075  0.12869248  0.3481954   0.30576384  0.13717349
  0.07242149 -0.02751966  0.42653245 -0.3674676   0.19577059 -0.08898853
  0.21203716 -0.05135246]
[ 0.3130015  -0.06443468  0.15625705  0.19921553 -0.25165188  0.4508997
 -0.2961818   0.3458192   0.22810496 -0.03681074  0.26634896  0.11850867
  0.34278858  0.3764719   0.40013486  0.03728007  0.0803158   0.13241151
  0.12859604 -0.15359382]
[ 0.34114966  0.17630406 -0.3771025   0.19063574  0.23460202 -0.12402102
  0.36089757  0.19612028 -0.0700046   0.32144675 -0.43931875  0.2821324
 -0.10980712  0.27073005 -0.5833048  -0.33058184 -0.34207398 -0.35792297
 -0.03413641 -0.38425484]
[-0.03028674 -0.1411094   0.23536743  0.20437527  0.4503598   0.0185113
 -0.4330796  -0.2407915   0.23301718  0.06619363  0.25342306 -0.16712783
  0.28407872  0.20498112  0.4223777   0.17628343  0.14576171 -0.2824842
  0.49455675  0.0211291 ]
[-0.16798311  0.05287964 -0.3492612   0.14719257  0.20156154  0.00559
  0.04171843 -0.41487905  0.33810213  0.05019889  0.31378374 -0.30909374
  0.15429164  0.23114155 -0.33575672  0.087653   -0.17916015 -0.1600878
 -0.15359075 -0.09979576]
[ 0.2883563   0.23835418  0.19078791 -0.07382809 -0.13349137 -0.06229299
 -0.22934982 -0.16545852  0.15793896 -0.02311962  0.14178509 -0.01915268
  0.033362   -0.27672908 -0.06437178  0.01593408 -0.16286899  0.24671724
 -0.14562075 -0.01361524]
[ 0.19879226  0.53178734  0.00583404  0.0875238  -0.19972606 -0.15508397
  0.07495043 -0.03925178  0.2769397  -0.7499038  -0.04929179  0.00790179
 -0.32261628 -0.5164199   0.24710116  0.04686071  0.23263307 -0.07940674
 -0.00493788  0.12014137]
[ 0.23077281 -0.10838746  0.07370429  0.01656617 -0.42110753  0.2572467
  0.01127641  0.26604593 -0.34156433 -0.18620433  0.26524484  0.5736235
 -0.41528094 -0.07713876  0.5731333  -0.61101896  0.28941295  0.3106575
 -0.23316222  0.35635528]
[ 0.15176685 -0.05833985  0.17605522  0.13052392  0.09531849 -0.05271278
  0.0030574   0.127811    0.17081527 -0.09843931 -0.4000744   0.05253024
  0.15479244 -0.0381672  -0.4783899  -0.16404247  0.44538277 -0.27858472
  0.06784205 -0.41555086]
[-0.2413508   0.01534905 -0.5787597   0.01777665  0.6965593   0.02768891
 -0.5257256  -0.23975642  0.24022524 -0.07257866 -0.22425413  0.03665891
  0.28989473 -0.07222592 -0.16020334  0.4997583   0.22682828 -0.57032055
  0.22202985 -0.37086657]
[-0.04248812  0.17602383  0.08926471 -0.16931717 -0.07041431 -0.2159499
  0.3993818  -0.07966156 -0.04726146 -0.33368582 -0.36783636 -0.01366218
 -0.22955453 -0.18695472 -0.12501709 -0.02980285  0.06372418 -0.26153818
 -0.1718613  -0.338005  ]
[-0.2567919  -0.17029725 -0.27870646  0.04394426 -0.31221792  0.11346845
  0.21288744 -0.20140365 -0.16762352  0.10475553 -0.38087803  0.25079775
  0.15099728 -0.3182922  -0.41769573 -0.3160997   0.12490176  0.2001401
 -0.27157313  0.64885473]
[-0.10476615 -0.10893138 -0.05666036  0.32631108  0.41184124 -0.31953904
  0.0950467   0.00831668  0.02070292 -0.06837749 -0.22498897  0.0714611
  0.14295042 -0.24014983 -0.23142822  0.09169286 -0.09803339  0.13577034
  0.16070054 -0.33772194]
[ 0.42264438 -0.09378982  0.26492757 -0.38322914 -0.16346344  0.03989933
  0.09799184  0.56160456 -0.34483635  0.14644904  0.05203596 -0.29315656
  0.23372898  0.2848414   0.10649019 -0.23161389  0.06725484  0.442076
  0.12954979 -0.12258043]
[-0.42961648  0.35328498  0.13722955  0.4049346   0.24563389 -0.0693524
  0.10073216  0.05745063 -0.17439535 -0.55780613  0.07610219  0.38337088
 -0.13133428 -0.32141992 -0.04921605  0.16734202 -0.55184335  0.1224735
  0.02025585 -0.13774478]
[ 0.05374181 -0.1603381   0.45118472 -0.34921852 -0.24533431  0.0153286
  0.09806274 -0.02041806 -0.45821446 -0.48502195  0.3773481   0.43297198
 -0.07338169 -0.10823821  0.4114307  -0.28824675 -0.23847595 -0.06380984
 -0.0765651  -0.3440053 ]
[-0.00965298  0.25397384 -0.4747714   0.05661411 -0.584092   -0.06475771
 -0.27059275  0.29968643 -0.02693952 -0.11492312  0.13575484  0.07930584
  0.06805024 -0.00850957 -0.20650858  0.1103787  -0.41635767  0.48105094
 -0.28851244  0.15620823]
[-0.22070387  0.06223139 -0.3130864  -0.01539043  0.35214064  0.21515763
  0.42145926 -0.1562534   0.0930543  -0.13292845 -0.34196126 -0.39133167
  0.01652875 -0.03901277 -0.4451863  -0.17081295  0.02497499  0.07179897
 -0.09209032 -0.36493585]
[ 0.22681127 -0.04372338 -0.11363769  0.24101451  0.05207986  0.01560903
 -0.2103687  -0.22309396  0.13245548  0.0811878  -0.06607411 -0.02561681
  0.13603745  0.26192728  0.03208965 -0.14776988  0.27332294 -0.06642392
 -0.12868121 -0.11903889]
[-0.5460608   0.33169675  0.268306    0.22026509 -0.38101447 -0.27905434
 -0.2007706  -0.34397727  0.31801352  0.18349338  0.05158554  0.10808399
 -0.12070911  0.06946684  0.31944504  0.16291533  0.57409424  0.25916055
 -0.20399094  0.22287452]
[ 0.04393565  0.11390119 -0.41530085 -0.27121925 -0.06100314  0.2850131
  0.335857   -0.14051306 -0.25899133 -0.43825185 -0.04718924 -0.21937397
 -0.11363377 -0.4444151  -0.17914337  0.14298801 -0.16210562  0.00907308
  0.11821792 -0.05003653]
[ 0.22983237  0.13512184 -0.3253565  -0.01985883 -0.04103717 -0.02867954
  0.23337553  0.3705368   0.11101354 -0.21572243  0.08075741 -0.35920477
 -0.13826124 -0.02561141 -0.22371921  0.14209507 -0.06113035  0.34251857
 -0.20359126 -0.23630863]
[-0.06545889  0.04193813  0.09998396 -0.09354421  0.08506971  0.06552436
  0.40806958 -0.20638038  0.2151637   0.3914804  -0.10441288  0.3381891
 -0.26434955  0.23529334  0.20361817  0.23991723  0.36072195 -0.1748767
  0.15806079 -0.4379639 ]
[-0.11308352 -0.03272031  0.30407745 -0.02206127  0.04101431  0.10520414
 -0.05439249 -0.04233825 -0.3485785   0.39489475  0.31434807 -0.11309207
  0.36767182  0.24156015  0.3690089  -0.2707748  -0.11728813  0.17305121
 -0.13175648 -0.1725097 ]
[ 0.6467863   0.11183901  0.50467694  0.21363507 -0.17309427 -0.03693075
 -0.06329562  0.38295856 -0.34001395 -0.04975637 -0.03706983 -0.27363974
  0.11598575 -0.01263403  0.31296387 -0.13364786  0.2588171  -0.2172733
 -0.4068721  -0.27928397]
[ 0.24399501  0.38287678  0.09933038  0.36171997  0.4176598  -0.20678237
  0.2204597  -0.19006185 -0.1570198  -0.57171166  0.03498656  0.33848608
 -0.40778512 -0.5201516  -0.22813553 -0.2742786   0.02900288 -0.2642263
  0.30795756 -0.5484776 ]
[ 0.16675156  0.15755257  0.20108159 -0.30932662 -0.01815291  0.08452794
 -0.16786575  0.2635461  -0.3585417   0.13975911  0.10585145  0.0327378
  0.32528412 -0.0320274   0.6852841  -0.22259684  0.30118975 -0.17803077
 -0.05747035 -0.23219037]
[ 0.3982023   0.02625371  0.11022057 -0.21814333  0.29257753 -0.02893945
  0.30809948  0.01817154  0.07693885 -0.25178143 -0.21014795 -0.163475
 -0.08827364 -0.22199087 -0.28602344  0.03538095  0.31705374  0.13263436
 -0.00317891 -0.2375551 ]
[ 2.5471494e-01  1.1870390e-01  7.2208822e-02 -2.8707411e-02
  2.4178630e-01 -1.2704225e-01 -2.7719116e-02 -3.2094914e-01
  1.8895331e-01  3.5768270e-02 -3.9911816e-01  3.3484605e-01
  2.5364363e-01 -2.4448323e-01  6.4240314e-02 -4.9139664e-02
  2.8704642e-05 -2.9303172e-01 -2.3781805e-01  2.9584201e-02]
[-5.3259760e-01  2.5237492e-01  2.3311004e-06  1.4781028e-01
 -1.1060771e-01 -2.9637095e-02 -3.1126070e-01  1.6500922e-01
  1.9777243e-01  2.2632791e-02  3.5853297e-01  3.2574248e-01
 -1.7599945e-01  1.2128135e-01  1.7491989e-01  2.8000534e-01
 -5.3791189e-01  4.4189502e-02 -1.9728637e-01  1.0982903e-01]
[ 0.20682804 -0.22200018  0.01945957  0.28933218  0.07305884  0.09064669
  0.15247644  0.15685992  0.27936292 -0.28382885  0.07174589 -0.01323411
 -0.43930027 -0.13126466 -0.09541022  0.28248596  0.10419899  0.04939629
 -0.4729151  -0.13350646]
[ 0.10031525  0.35482556 -0.2272893  -0.08743266  0.13486384 -0.3063652
 -0.37779173  0.05810269  0.22779025 -0.21726726  0.09996472  0.26335955
 -0.24248646 -0.49597964 -0.14443232  0.16664456 -0.08393301  0.36135584
 -0.20840766  0.43015254]
[-0.08003376  0.1482501  -0.08719188 -0.03178174 -0.32419282  0.10319516
 -0.19287436  0.09846898 -0.14658971  0.02461464 -0.09205665 -0.4457175
  0.12512085 -0.21670035 -0.1383528   0.3671701   0.00341374  0.43337414
  0.33428437  0.22241652]
[ 0.4135297   0.00589244  0.31587112  0.23316212  0.06871075  0.13664387
 -0.05677067 -0.15147676  0.14731757  0.12442145  0.00729902 -0.28305888
  0.06891456 -0.29299486 -0.01531113  0.34031984 -0.17748812 -0.02135754
 -0.30371088 -0.3726366 ]
[-0.15857202  0.15773757  0.16742189 -0.03834638 -0.03109602  0.01258965
  0.0749358  -0.01063894 -0.46459416 -0.05537592  0.20869362  0.14800723
 -0.08895148 -0.06084462  0.45949098  0.21175264 -0.40249473  0.02343339
 -0.08776754  0.33007088]
[-0.18725047  0.22672907  0.27338794 -0.07408938 -0.12453326 -0.03994295
 -0.16569933  0.30938357 -0.0748353   0.04669533  0.33989012  0.20165762
  0.20921978 -0.11888686  0.3972222   0.20871712  0.39565048  0.3535333
  0.19380865 -0.17223783]
[-0.00563522  0.01284543 -0.25582707  0.08885816 -0.2833921  -0.03970377
 -0.05825145 -0.10986976  0.02062295 -0.07858649 -0.2625659  -0.3517795
 -0.2086286  -0.35057902 -0.19512428 -0.1778176  -0.4529572   0.35299864
 -0.00494898  0.21993461]
[-0.40892586 -0.18562987  0.43264422  0.20529431 -0.1740782   0.38556662
  0.29991648  0.12865807 -0.2822158   0.07099801  0.3830675  -0.26188877
  0.35686857  0.29046094  0.07318538 -0.35475665 -0.3482233   0.29952544
 -0.15505056  0.00792582]
[ 0.06631087  0.10255916 -0.04355326 -0.13289386 -0.11265369  0.04420014
  0.06441828  0.02998448 -0.04510275 -0.2183814   0.01457743 -0.18400607
 -0.10200986 -0.19583939 -0.01626985  0.06460698 -0.09338975  0.06537298
 -0.02433397  0.06345149]
layer 5 Activation
tanh
layer 6 Dense
20 1
[0.2898492]
[-0.06519055]
[-0.59054136]
[-0.01748291]
[-0.41617936]
[0.03076043]
[0.4261072]
[0.1605606]
[-0.12320974]
[0.4760287]
[-0.5103513]
[0.23534507]
[0.32256946]
[0.16443418]
[-0.29491323]
[-0.38034928]
[-0.31865448]
[0.46493006]
[-0.01203551]
[0.25227138]
[0.08330046]
