layers 7
layer 0 Dense
20 20
[-0.18146831  0.50852716 -0.59128606 -0.0908473  -0.05180434  0.5907304
 -0.31519157 -0.15577908  0.0291282   0.14415109 -0.28262553  0.12631279
 -0.24692754  0.22317922 -0.22672081  0.75413287 -0.05275968  0.03095044
 -0.09738659 -0.1729643 ]
[-0.00742155  0.10828762  0.2882032  -0.18601063  0.07672925  0.39691618
  0.24248327  0.22405005  0.10529605 -0.00193227  0.01908078 -0.25994846
  0.06513666  0.20037809  0.1302173   0.17806238 -0.21018307  0.22493926
  0.05644443  0.04174706]
[-0.24406585  0.42967772  0.27789387 -0.07517084  0.05905361 -0.16017453
 -0.15607545 -0.11716949 -0.23839965 -0.07723492 -0.39695928 -0.41815442
 -0.2378301   0.29631302  0.25014457 -0.34472957  0.33686817  0.09858817
  0.03632627 -0.17641738]
[-0.29067257  0.04502217 -0.32153383  0.01244122  0.17696579  0.5217733
  0.11460661  0.14103073  0.10152227 -0.0340508  -0.21271105 -0.36220765
 -0.06385781 -0.30835983 -0.11326551  0.5058431  -0.36015588 -0.192971
  0.24684247  0.34562448]
[ 0.26038477 -0.08419988  0.14364785 -0.0262194   0.07000421  0.24715512
 -0.23110902  0.07080956  0.20704725 -0.32181063  0.07093868  0.04721395
 -0.42815593 -0.43211532 -0.04956333 -0.17015623 -0.20297074 -0.15927207
  0.23098952 -0.05524701]
[-0.2519505   0.23393327 -0.07642678 -0.17134234  0.23865545 -0.0592855
 -0.23477352 -0.24356285  0.33959618 -0.25444433 -0.25799555 -0.4466469
 -0.08915317 -0.06478779  0.14763467  0.2534096  -0.32482746  0.23682763
  0.32358503  0.09610906]
[-0.04401897 -0.07363929  0.05976932 -0.11788211  0.09118212  0.43401286
 -0.22779784 -0.11248791 -0.00173558 -0.07984104  0.17411163  0.02960631
  0.07084724 -0.01638621  0.3591824   0.0658266  -0.06517262  0.02325026
 -0.1362024   0.48278832]
[-0.28605998 -0.5854262  -0.22669877  0.12564908  0.08604123 -0.54723823
  0.096011    0.67832404 -0.1996304   0.05610635  0.17268096  0.44420198
  0.39460123 -0.2951178  -0.12557264  0.27514178  0.33703095  0.48245946
 -0.10084561 -0.28836998]
[-1.61672667e-01 -3.66933703e-01  1.20234057e-01  1.60579085e-01
  8.57424378e-01  1.81196392e-01  3.21896702e-01 -4.28250372e-01
  1.07270613e-01 -2.30276608e-04  1.05548374e-01 -6.43329769e-02
  2.01766878e-01  1.43143922e-01  2.10639760e-01 -6.03607632e-02
  6.09860241e-01 -7.23624080e-02  1.29329085e-01 -1.70090482e-01]
[ 0.3612825   0.42172548 -0.11578071  0.00163886 -0.7827715   0.29603094
  0.21625938  0.02560456 -0.37798473  0.4959236   0.5625898  -0.39021894
 -0.2281901  -0.22689244 -0.24667357  0.14376374  0.34208128  0.08196498
  0.01136712 -0.3493255 ]
[-0.3259212  -0.5180756  -0.2437543  -0.32480204  0.25629145  0.3228177
 -0.29525572 -0.27632007  0.0853117  -0.38039902 -0.3090303  -0.41894427
  0.36138108 -0.01426031  0.8006631  -0.5568768   0.34627965  0.23849845
  0.63413715 -0.28226897]
[ 1.0596887   0.1687267   0.66756004  1.197644   -0.576749    1.7687443
  0.20437261 -0.3639879   1.2788227  -0.13608116  0.42864266  0.7834029
  1.8732893   0.10793834 -0.1776641   0.8062195  -0.2761602  -0.12625705
 -0.08848929 -0.3127091 ]
[ 0.40771547  0.1002961   0.5419146   0.25860497  0.7865527   0.10829397
  0.09695169 -0.16185279 -0.2448587  -0.31598344 -0.02465756 -0.07139774
  0.29363835 -0.00309845  0.11010186 -0.6434946   0.28002626 -0.26652765
 -0.05065269 -0.11581535]
[ 0.08419486  0.7164732   0.11487369  0.51770854 -0.04928747 -0.14097407
  0.2014837   0.13621438 -0.12622058  0.14663075  0.1559688  -0.1415124
  0.18733476 -0.05811399  0.95005137  0.13190502 -0.49166176 -0.01919605
  0.7090852   0.19729923]
[-0.24408378  0.07046627  0.03144626  0.49119884 -0.16276348 -0.22793373
 -0.1803485   0.63875437  0.27250627 -0.19920057 -0.2904274  -0.44860953
  0.20780525  0.20993026 -0.30891597 -0.20813061 -0.47035968  0.76750654
 -0.5792802  -0.46303478]
[ 0.10852776 -0.43058726 -0.20544557  0.94651777 -0.66784346 -0.06942495
 -0.36172396 -0.17686091  0.3328246  -0.40973747  0.57655156  0.8636497
  0.31287825  0.74473476 -0.14013597  0.6968128  -1.4103363   0.67280114
  0.19676007 -0.8041435 ]
[-0.31416148 -0.03678839 -1.0860803  -0.27155906 -0.61287934  0.2614125
  0.11307351  0.4964672  -0.3903138  -0.31656674  0.5203161   0.2325134
 -0.83845794 -0.32386726 -0.6325903   0.64353853 -0.20296359  0.23080647
  0.39840603 -0.31360006]
[-1.0834063  -1.6320314  -0.3416382  -1.707408    1.3789531   0.11932888
 -0.8500033  -0.7864732   0.0904282  -0.5013955  -1.3898973   1.0199432
  0.32017738  0.8892034  -0.534215    0.09704106  0.25647205  0.01445506
 -1.2817075   0.49083474]
[ 1.5920597   1.5662738   0.82465523 -0.45594463 -0.48563227  0.2268029
 -0.66551244 -1.7081751  -0.42777598  1.2067816   0.7514593   0.809767
 -0.9404064   0.02545194 -1.0303268   1.2345281   0.17336503 -1.5294276
 -1.014363    1.5646486 ]
[-1.9867273e-01 -1.4501789e-01 -1.4037961e+00 -4.7828978e-01
  1.4402449e-01 -1.3095396e+00  1.2076859e-01 -1.5681207e-01
 -2.5737950e-01 -7.4500763e-03 -2.8330478e-01 -2.2582199e-01
 -1.2233099e+00 -4.0366396e-01  2.4579225e-01  4.9915487e-01
  7.6955920e-01  1.9709976e-02 -6.0394499e-04  6.1260849e-01]
[-0.06564364  0.22718811  0.112744   -0.00961521 -0.13855158  0.19472629
 -0.21045482 -0.13798986  0.04960487  0.00930954 -0.11745358 -0.1842472
 -0.06986536  0.15378758  0.25337857 -0.11072864 -0.00985333 -0.1188254
 -0.04065623  0.11183076]
layer 1 Activation
tanh
layer 2 Dense
20 40
[ 0.24378324 -0.43021712  0.00753091  0.6165939   0.06444408  0.11806332
  0.2904502   0.4534486   0.4548719   0.23114128 -1.0083623  -0.05055781
 -0.26405615 -0.09902295 -0.11142831  0.27251887 -0.573261   -0.29354647
  0.12184164 -0.4109873  -0.06466378  0.19796391 -0.17517626  0.2786324
 -0.36180392  0.307321    0.0652903   0.39198962 -0.2680399   0.8432902
  0.12216838 -0.01595675  0.02676751  0.4069529  -0.14024101  0.04702398
  0.5955177  -0.5182602  -0.38074702  0.53943735]
[ 0.0738163  -1.2218113   0.01703215  0.11031865  0.04265787 -0.26661947
  0.63135415  0.11354405  0.28131467 -0.09699856 -0.25271022 -1.1337837
  0.69326127 -0.23981038  0.08364492 -0.19340375 -0.64114565  0.15526098
 -0.3407079  -0.15421978 -0.5222937   0.09848723 -1.269446   -0.00290998
  0.4658361  -0.1286342   0.61580557  0.29780167 -0.37495854  0.09945224
  0.34552476  0.28580412  0.46919233 -0.06367777 -0.01127602  0.8820417
  0.28804713 -0.4179819  -1.0848949  -0.04234066]
[ 3.43647860e-02  2.22741321e-01  4.16480243e-01  2.74727140e-02
  1.22732937e-01  1.99352056e-01  6.22164086e-02  3.16320390e-01
 -2.88338400e-04 -1.60687506e-01 -1.28115296e-01  2.39645407e-01
 -4.50216860e-01 -7.18958080e-01  1.15466058e-01  1.19985953e-01
 -5.61002381e-02 -3.15374941e-01 -1.25207931e-01 -3.82494688e-01
 -3.22305292e-01  1.17733441e-01  1.41580284e-01  6.91564083e-02
 -5.37657380e-01 -4.94083911e-02 -3.08601037e-02  2.69459873e-01
 -1.98279589e-01  3.22944015e-01 -1.00350425e-01  6.98074847e-02
 -8.11235979e-03  1.91607043e-01 -1.68978289e-01 -2.66055703e-01
  1.85209498e-01 -4.38781798e-01 -1.38986008e-02  7.99672771e-03]
[-0.03954831 -0.64769924 -0.11671999 -0.72735685  0.59643626  0.7518816
 -0.4438415  -0.11584007 -0.4691056   0.22029583 -0.17326233  0.08696663
  0.13886401 -0.5234151  -0.4417284   0.32456094  0.27087495  0.48044577
  0.3003505  -0.00946511 -0.29684472 -0.08131916 -0.5928003   0.64946
  0.44600096 -0.2979341  -0.08794855 -0.26097777 -0.40993732  0.2836338
 -0.38867497  0.0743877  -0.30035233 -0.38858512 -0.22438732 -0.07973971
  0.2805257  -0.32601032 -0.5679852   0.13584927]
[-0.35680985  0.66864014  0.5444088  -0.6194392   0.11709797 -0.2284552
 -0.5873843  -0.27683073  0.17244074  0.04625969  0.6462046   0.61874676
 -0.5875359   0.49146408  0.24310887  0.10048893  0.31075677  0.48247534
 -0.0996675   0.5704137   0.14045991 -0.16131681  0.18698218 -0.05127868
 -0.3850927  -0.3221912   0.09118728 -0.6029912   0.05052491  0.27932093
  0.08240955 -0.21168765 -0.27696094 -0.3584673   0.09241658 -0.21245486
 -0.6558964   0.22146046  0.1066834  -0.30077815]
[ 5.1505136e-01  1.3203895e-01  2.4387777e-01 -6.3289151e-02
  5.9451032e-01  2.5688362e-01 -4.9387410e-02  1.3051359e-01
  1.0208001e-01 -5.1650036e-02 -2.6712453e-01  3.2891402e-01
  2.7206787e-01 -3.5525635e-01  2.1755578e-01  1.4940664e-01
  1.6396990e-01 -4.8298284e-01  5.8032300e-02 -3.9299686e-02
 -4.1851208e-01  8.3505756e-01  2.3528004e-01 -6.8703555e-02
  7.2331101e-02 -4.1667078e-02 -6.1927181e-01 -1.0522564e-01
 -8.7653548e-02  6.7881262e-01 -1.3200197e-01  3.4921694e-01
  1.7617624e-01 -1.4655525e-04 -5.1690680e-01 -7.9260215e-02
 -5.0176255e-02 -6.1482060e-01  3.9208791e-01  8.6165369e-01]
[-1.64320394e-01 -1.58475071e-01 -8.08505416e-02 -9.09118503e-02
 -4.44892794e-01  2.90842980e-01  2.02424407e-01  9.45270956e-02
  1.69412956e-01 -1.34858310e-01  1.04792990e-01 -4.57752168e-01
  2.59546757e-01  1.12764157e-01 -3.35309476e-01  3.48276459e-04
 -2.03238964e-01 -2.57204808e-02 -1.75983310e-01 -2.28784978e-02
  2.61586875e-01 -1.22986600e-01  2.34343112e-01  5.28887153e-01
  3.63705188e-01 -4.73452359e-02  2.59036392e-01 -2.69104421e-01
 -3.43589395e-01 -1.72079653e-01 -1.03408635e-01 -4.39439993e-03
 -1.57045245e-01 -4.00100313e-02 -1.80281863e-01  2.35330224e-01
  1.51935890e-01  7.53780305e-02  8.27438608e-02  2.30149657e-01]
[-0.23219182 -0.05946819 -0.06457666 -0.18555044  0.36708274  0.44909304
 -0.46767697 -0.41682604 -0.67318    -0.07121184  0.12247738  0.34026146
  0.36672133 -0.21867067 -0.4613718   0.37443927  0.69704735  0.05081846
  0.14693744 -0.00923791  0.16938886 -0.05022626 -0.3162545   0.16782802
  0.51910335  0.24868554 -0.24803083 -0.39782324 -0.11535045 -0.4740539
 -0.16913469 -0.13284028 -0.60038066 -0.23244734 -0.4154643  -0.13440646
  0.46185067  0.1118079  -0.28068462 -0.37917352]
[ 0.32062468 -0.18528968 -0.17571408  0.03679601 -0.4756454   0.13276514
 -0.5661223  -0.3758968   0.00672956 -0.05763356  0.01894934  0.0109681
 -0.11699402 -0.16165346 -0.00956452 -0.04632906 -0.30379382  0.15749668
 -0.48956105  0.03479296 -0.15940593  0.07022249 -0.05140567 -0.21136218
 -0.01759848  0.26078025  0.1789857  -0.33500588 -0.12679537  0.27614105
 -0.14720537 -0.19835973  0.26388207 -0.0475508  -0.32449284 -0.09708391
 -0.37175733 -0.3430736   0.04931523  0.29938936]
[ 0.20414317 -0.0662938  -0.13460435  0.25897723 -0.20856272  0.2405772
  0.32412907 -0.02542047  0.3295115  -0.08490916 -0.24920323 -0.5195819
  0.00808574  0.10253862  0.06951039  0.10165509 -0.44042936 -0.08733099
 -0.2431248  -0.24563308 -0.09042692  0.09110833 -0.11651266  0.16214304
  0.2859723  -0.29271     0.01147562  0.10227396 -0.34479198  0.3264573
  0.22544444  0.10182621  0.2009287   0.36892626  0.14884357  0.411325
  0.42150125 -0.3511996  -0.33481744 -0.10957206]
[-0.1982651   0.04891193 -0.30321825  0.27207166  0.15487936  0.34191197
  0.0111222   0.6525989   0.16196296 -0.05537536 -0.6057717  -0.27313536
  0.09051714 -0.04907677 -0.38716215  0.09441867 -0.1321978  -0.31786314
  0.03432289 -0.23233052  0.15121762 -0.47151405 -0.44994038  1.0815854
 -0.127909    0.03973651  0.0705336   0.50467414 -0.13954426  0.37241012
  0.11050048  0.12733273  0.34081724  0.28075895 -0.37437722  0.22346452
  0.44893196 -0.13712367 -0.3430365   0.3772247 ]
[-0.54424304  0.8057299  -0.13496561  0.3257613  -0.36000165 -0.12316
  0.06039616 -0.039707    0.07044384 -0.0685553  -0.36017314 -0.05297383
 -0.5245785  -0.20697597  0.2704205  -0.09086835 -0.21889248 -0.05138748
  0.28912315  0.02720389 -0.26829678 -0.3602676   0.20233525  0.3007165
 -0.5950627   0.09230829 -0.14744778  0.21180215 -0.13608661  0.57298875
  0.5317569   0.09373267  0.27360862 -0.0821739   0.08193252  0.02049679
  0.02830388 -0.459113    0.49390423  0.36484402]
[-0.19038628 -0.02922241  0.32591677 -0.06600166  0.12198949  0.40038562
 -1.0297422   0.64586097 -0.40676963 -0.09742264 -0.1600546   0.8047492
  0.08873119 -0.7047035  -0.59541935 -0.3680435   0.4853345  -0.03733742
 -0.12912627  0.27334204 -0.49084818  0.09713504  0.28947937  0.23232643
 -0.23232725 -0.12660575 -0.2800131  -0.08612286 -0.3138152   0.28570306
 -0.01811404  0.52089894 -0.4435162  -0.32370758 -0.8776978  -0.5417478
  0.16715099  0.05121852  0.31489283  0.23046465]
[ 6.68376312e-02  5.50709307e-01  2.81447638e-02  6.54409975e-02
 -3.44935209e-02  1.41452979e-02 -7.12486878e-02 -2.37280771e-01
  9.94152017e-03 -1.66027099e-01  4.32812810e-01  1.00983672e-01
 -4.13462877e-01 -3.46074790e-01  5.12892962e-01  1.56752720e-01
 -1.81020587e-03 -3.30938578e-01 -3.50051284e-01 -7.49949962e-02
 -1.48803800e-01  4.39567603e-02 -2.69617945e-01 -2.19391912e-01
 -1.24019504e-01  1.29061803e-01 -1.18751444e-01 -3.56116449e-04
 -2.05584943e-01  2.87745476e-01 -4.94271405e-02  1.16685383e-01
 -1.15626454e-01 -1.79383606e-01 -3.88687015e-01 -7.95050636e-02
 -4.92560208e-01 -1.63287878e-01  5.79828098e-02  7.15723336e-02]
[-0.6325184  -0.17265853  0.20304963 -0.41797423  0.25767338  0.4435698
 -0.53988105  0.06003522 -0.36132598  0.06746811  0.11899668  0.28109008
  0.5256062  -0.14027302 -0.5326815   0.35132384  0.5829201   0.08547827
 -0.0319063  -0.47689876  0.18031815 -0.05643955 -0.21497586  0.39172202
  0.47166935 -0.16149586  0.18178123 -0.20391245  0.11844534 -0.51137614
 -0.16234007 -0.11990741 -0.5220762  -0.33801106 -0.18694702 -0.09009427
  0.5954315   0.382262   -0.05772446 -0.22993858]
[ 0.12185948 -0.6218     -0.04795782  0.19382761 -0.08441766 -0.40952328
  0.24595438 -0.20294508  0.04637292 -0.21412024  0.02122441 -0.3602285
  0.40401354 -0.09366001  0.41199052  0.15009822 -0.15096626  0.0212356
  0.23445798 -0.21371675  0.1604677   0.15558633 -0.55014795 -0.2524781
  0.40430242  0.00943818  0.28202996 -0.41746762  0.09537422 -0.01170806
  0.0577786   0.19238985 -0.01844133  0.08285689  0.08801233  0.130842
  0.08260827 -0.08682331 -0.3860899   0.11088066]
[ 0.1713129   0.15231583 -0.7155847   0.15391752 -0.19275756 -0.527078
  0.48137844 -0.2082127   0.3134401  -0.23651095 -0.1813843  -0.35177463
  0.45519787  0.3802982   0.08952513 -0.00108093 -0.3378775   0.1298728
 -0.2948365   0.14947559  0.12517697 -0.57150954  0.23294184  0.14492443
 -0.0336164  -0.10683062  0.02881746 -0.02189157  0.31180203 -0.22481129
  0.24611582  0.09195993  0.13085969 -0.18531798  0.29965344 -0.28189847
 -0.23139976  0.38070425  0.37296948 -0.4642752 ]
[ 0.14896059 -0.17765193 -0.2197912  -0.6364029   0.25520584  0.46116412
 -0.8418275   0.05195378 -0.54952115 -0.04818783  0.42440897  0.11475404
 -0.20915495 -0.4796456  -0.01299264  0.38124236  0.5948759   0.41568106
  0.09351546 -0.3067681   0.26699394 -0.01903541  0.25953662 -0.04575641
  0.31690913 -0.21357523 -0.8532784  -0.30659088  0.11330476 -0.4624209
 -0.56493264 -0.08752322 -0.69515365 -0.50669825 -0.30644116 -0.53295296
  0.02016789  0.692368    0.33327234 -0.3687523 ]
[-0.26930404 -0.37462     0.43425888 -0.25455114  0.6161533   0.20414133
 -0.62668866  0.35595533 -0.02314528 -0.1855218  -0.59615093 -0.30298078
  0.65440565 -0.31162378 -0.41083807  0.17773572  0.28741026  0.09161244
  0.08933459 -0.12924394  0.14098868 -0.08501369 -0.22961904  0.50729823
  0.6373841   0.41360343 -0.08734049  0.36020777  0.00793126 -0.4842608
 -0.18168949 -0.13127398 -0.23536749 -0.2975767  -0.19835405 -0.07352346
  0.67653143 -0.28156388 -0.20090115 -0.31123978]
[-0.34633434  0.01074911  0.563506    0.25418615 -0.13154906 -0.64643604
  0.6683364   0.23591879  0.51977944  0.28107303  0.18189265 -0.42941007
 -0.5442202   0.73631984  0.5994603  -0.24130447 -0.42158803 -0.38155758
 -0.24341618  0.3515682   0.10512374  0.04261643  0.3114151  -0.54576904
 -0.29781806 -0.16387865  1.1162775   0.10505755 -0.15203851  0.3904727
  0.11014215 -0.12631829  0.7824029   0.29305357  0.8945759   0.660458
 -0.501057    0.0217105  -0.14199802 -0.18911485]
[ 0.39125463 -0.15580028  0.600668    0.15491109  0.3445713  -0.07141792
 -0.0453686   0.03299475  0.07179676  0.07293484  0.09878992 -0.01289183
 -0.20845197 -0.13721038  0.03622941  0.06680716 -0.1981057  -0.2726768
  0.09592408  0.07448159 -0.17250553  0.8499344   0.04910611 -0.40625423
  0.06493723  0.0958672  -0.24970879 -0.19977784 -0.2983298   0.12078629
 -0.3238738   0.05306966  0.0768104   0.3002414  -0.21594076 -0.04698326
  0.04522789 -0.17700738 -0.05117608  0.49521723]
layer 3 Activation
tanh
layer 4 Dense
40 20
[ 0.00940865  0.24456269  0.14444861 -0.33936602  0.07154346  0.33243036
 -0.12982868 -0.08870116 -0.28692016 -0.1794623   0.10878499 -0.10777491
 -0.1984381   0.2574515  -0.07963848  0.2342202  -0.20231561  0.32150194
 -0.08174186  0.00691116]
[-0.37239352 -0.3852465  -0.18979365 -0.18997529 -0.19698045  0.06649772
 -0.07371335  0.3627374  -0.04841124  0.2023806   0.13220583  0.47067738
 -0.57985485  0.04068087 -0.5759486  -0.10832926  0.1719823  -0.03087427
 -0.30698293 -0.5452308 ]
[-0.08228153  0.08800088 -0.0354867  -0.23238929 -0.13459234  0.29431912
 -0.16652852  0.17679256 -0.5048683  -0.2310098   0.37551925 -0.00603737
  0.24411225  0.06979459 -0.33366865 -0.17667061 -0.09871727  0.30949485
 -0.29939753 -0.1155982 ]
[ 0.6539114   0.1470955   0.1432736  -0.20830293 -0.25250024 -0.4227118
  0.12236204  0.13643448 -0.01714084  0.3595907  -0.32314527 -0.31635875
  0.07801898  0.33663028  0.12354817  0.3529609   0.22669083  0.2741597
 -0.04177674 -0.13255477]
[-0.35330305 -0.00842447 -0.2393119  -0.18683247 -0.07339853  0.12331651
 -0.16874555  0.03278541 -0.3243789  -0.41353628  0.4080341  -0.35100743
  0.37006822 -0.1508883   0.07296888 -0.34197864  0.07530956  0.31245768
 -0.05562325  0.22400273]
[-0.36834058 -0.4315074  -0.3004247  -0.02074874  0.03412649  0.12322585
 -0.35723215 -0.30030793 -0.294107   -0.08188325  0.2671338   0.06501992
  0.1396348  -0.43973345  0.02423029 -0.3211288  -0.04787479 -0.09507357
 -0.31148311 -0.04109196]
[ 0.22767752  0.30770618  0.3868674   0.36902434 -0.28225258 -0.41354826
  0.25459173  0.21329744  0.37799332  0.50095093 -0.14927085 -0.29204285
  0.25287604  0.6193142   0.28443888  0.01822361  0.29562208  0.6258992
 -0.02013942  0.10245708]
[ 0.52368593 -0.53700215  0.23925124 -0.08844879 -0.24255791 -0.4586435
 -0.14087704 -0.2909706  -0.3322631   0.29991448  0.01688614 -0.33936214
 -0.06876287  0.24543123  0.10176156  0.21176815 -0.15177709  0.14206696
 -0.21575284  0.42344666]
[ 0.5779696  -0.14002979 -0.00958125  0.42470336 -0.1974281  -0.21853344
  0.16305575  0.21469405 -0.11232052  0.47967225 -0.39508277 -0.10627943
 -0.2623659   0.38269523 -0.05830945  0.26457608  0.07228772  0.27464992
 -0.17756213  0.07623922]
[ 0.05419712  0.17292115  0.03031082  0.2149873  -0.01719183 -0.35601965
  0.14477718 -0.00478879 -0.13487281 -0.0960021  -0.13543025  0.07787281
 -0.29762417 -0.11113611  0.0952269  -0.2811371   0.06039885  0.04130475
 -0.04817487  0.09838257]
[-0.4627582   0.05515609  0.31891328  0.27952182  0.27816322  0.60034645
  0.2540573   0.07415533  0.09779792 -0.23943591  0.06987907  0.4444958
  0.19229233  0.15615539 -0.4896502  -0.04286294 -0.20850578 -0.12850063
  0.21470404 -0.26592702]
[-0.44436502 -0.4181082  -0.4304888  -0.4481661   0.25126407  0.05069815
 -0.07091674  0.24639742 -0.3211126  -0.15847948  0.5658787   0.5341783
  0.08139281 -0.37273023 -0.50925034  0.00844445 -0.08516627 -0.32140788
 -0.03401077 -0.03249449]
[ 0.21885803  0.08782304 -0.00361988  0.04154813  0.5199239  -0.0900524
 -0.10519649  0.21004759  0.5104624  -0.20818715 -0.03574404 -0.28396183
  0.32117724 -0.18920007  0.2629341  -0.09983686  0.11157759  0.00507511
  0.17239802  0.2582816 ]
[ 0.40461665  0.02058579 -0.15987526  0.68516314  0.06372345  0.3538099
  0.06224165  0.20145933  0.32221743  0.23822388 -0.04899462  0.07630368
 -0.41826198  0.3973083  -0.20083006 -0.14676093 -0.07186184  0.39889923
  0.02615289 -0.3044124 ]
[ 0.48152724  0.00174488  0.10375393  0.2165705   0.02898801  0.31946108
  0.1832236   0.5249334   0.42713606 -0.03561165 -0.08209984 -0.43869528
  0.2556609   0.36200923 -0.4850579   0.43197075 -0.12795213  0.31984603
 -0.11309471  0.46597895]
[-0.32240674  0.07786686  0.11167146 -0.0343526   0.06811152  0.1795399
 -0.04994741 -0.00070408 -0.02216355  0.01339162  0.29526615 -0.07476132
 -0.07840656 -0.20807628  0.23132202  0.07784733  0.22914568 -0.25641754
 -0.26433906  0.10053241]
[-0.51475364 -0.13541594 -0.4962712  -0.22002095  0.30415556  0.08749283
 -0.15946327  0.1855639   0.02447675 -0.21829133  0.24446188  0.09481706
 -0.11600335 -0.21068339 -0.15877123 -0.56685597  0.21396488 -0.46331227
  0.14074901 -0.10408758]
[-0.33361247  0.24808557  0.07943414  0.30896986  0.16692369  0.4714875
 -0.16428539 -0.19821301  0.16458026 -0.28831545 -0.30713713  0.04222462
 -0.19684158 -0.13201828  0.12318967  0.07379604  0.24516253 -0.2594405
  0.18440165 -0.03166989]
[-0.2163357   0.34954858 -0.24081725  0.3518474   0.15106358  0.35678783
 -0.32966682 -0.05519667 -0.13607347  0.04394006 -0.07985811 -0.13378483
 -0.29640442  0.03379491  0.09792978 -0.25321952 -0.3604861  -0.21711324
 -0.05603834 -0.03066907]
[-0.11014545  0.04200445  0.0806526   0.36601004 -0.01880467 -0.02792838
  0.29586032 -0.19363755  0.00829719 -0.18982773 -0.06473126  0.31421772
 -0.2204214   0.22884744 -0.70238745 -0.02310441  0.30929562 -0.1761231
  0.08497942  0.23663835]
[-0.07681169 -0.05107708 -0.3605931   0.30191702 -0.0545106   0.32009387
 -0.1813876   0.40877277  0.05831709  0.03769473 -0.15686105 -0.22291234
 -0.19922692  0.12310622  0.05465221 -0.13010964  0.21501355 -0.19773376
 -0.06445131 -0.24837324]
[ 0.17255722  0.27536884  0.37233827 -0.14377412  0.07492453 -0.26321322
  0.1343923  -0.01830211 -0.6196194  -0.2654012   0.10409924 -0.1367774
  0.45393857  0.05053519  0.04842337 -0.23546481  0.13563265  0.06926431
  0.1400339   0.3658403 ]
[ 0.24527492 -0.444085   -0.0940356  -0.1034653  -0.11592739 -0.00798055
  0.2333473   0.53411776  0.07499859  0.21709011  0.01459182  0.4934992
 -0.09777929  0.16033018 -0.6362982  -0.1758031   0.00665697 -0.35524645
 -0.00678245 -0.40589914]
[ 0.12027272 -0.41064078 -0.40548906 -0.3906902  -0.25607026 -0.49244404
 -0.35884812 -0.43276265  0.10773429 -0.19759862  0.0674067  -0.2873011
 -0.14358324 -0.14697002  0.17118865 -0.05343847  0.23677802 -0.13000016
  0.1895015  -0.45116773]
[ 0.09007088  0.00998987  0.19185254  0.2164313   0.58837676  0.24332754
  0.01067051  0.4446889   0.57349384 -0.613195   -0.20274232 -0.6827069
  0.37265942 -0.11519889 -0.2929655   0.1502564   0.07434709  0.29212013
 -0.39571008  0.47083968]
[ 0.08140276  0.15633121 -0.03999276 -0.18050785  0.09267817 -0.13154665
 -0.04725113  0.2711001  -0.00433196  0.14353086  0.0674765  -0.14031413
  0.00965613 -0.04370546  0.0186555   0.06619283 -0.08895682 -0.05503014
 -0.05575341 -0.08534722]
[ 0.37381566  0.27785924  0.3207148   0.44839284  0.00514845 -0.26348957
  0.25809056  0.10851446  0.29863703  0.26029232  0.0719882  -0.05366892
 -0.12138972  0.3222479   0.30401418 -0.06235856  0.18301326  0.5507417
 -0.07633939 -0.00720878]
[ 0.32468575  0.08613781  0.27769288 -0.32037744 -0.19563441 -0.06454959
 -0.25540176  0.15021539  0.09537442  0.3260283  -0.03146873 -0.17219576
 -0.22763531  0.28392586  0.47669092  0.00873385  0.2665833   0.28879055
 -0.17613712  0.2560377 ]
[ 0.16703275  0.05540179  0.01981532  0.09898276 -0.20504014  0.41937065
 -0.317382    0.1854895   0.24575016 -0.125861   -0.01579245  0.12570901
 -0.16034406  0.09875606 -0.12062172  0.11094557  0.08210036 -0.13414252
 -0.04969523 -0.19171613]
[ 0.19897887 -0.4566584   0.5456031  -0.13902803 -0.29102316 -0.11833672
  0.3270644  -0.74048    -0.5323248   0.24887791  0.10226011  0.3306377
  0.08152063  0.16518587  0.24538842 -0.02944679 -0.06708339  0.0566128
  0.21789874  0.2896051 ]
[ 0.23062411 -0.23888168  0.06025617  0.15594715  0.03253243 -0.15252966
 -0.16961053 -0.16317996  0.25180814  0.27356964 -0.35966516  0.2612585
 -0.12039705  0.3235248   0.25342035  0.1659966  -0.19079275 -0.08155157
 -0.15518883  0.05242576]
[ 0.0471071  -0.14613895  0.19116281 -0.14563905  0.21257293 -0.25479198
 -0.20216207 -0.21098843 -0.05191971  0.17337993 -0.32602537  0.12421577
  0.18804573  0.06136265  0.06883676  0.10505887  0.17994244  0.36578214
 -0.02556283  0.23833823]
[ 0.3279074   0.32151914  0.5645297  -0.1832159  -0.40873775  0.08964114
  0.27599552 -0.04073559  0.10019504 -0.17047212 -0.28486073 -0.19169033
 -0.10578744  0.15213478 -0.04279783  0.15028423 -0.06214751  0.10408332
 -0.12337317  0.26240164]
[ 0.18888853  0.13465212  0.1826973   0.08264626 -0.2568403  -0.20643355
  0.15466218  0.21743144 -0.22399394 -0.01426252 -0.51411855 -0.22572407
 -0.14048187  0.23603563  0.0632125   0.02671219  0.24114764  0.07635127
 -0.07269769 -0.01445145]
[ 0.24454726  0.3860942  -0.01933467  0.5384862   0.09356385 -0.20916578
  0.32550395  0.11933843  0.2740652   0.33042488  0.05599887  0.09854482
 -0.5036364   0.24288389 -0.04612499  0.22370782 -0.13791727  0.16212776
 -0.16256505  0.1040542 ]
[-0.04640117  0.04865394  0.5156629   0.04666682 -0.30565566 -0.09045182
  0.19294956 -0.26641312  0.24052034 -0.0279825  -0.2552478  -0.2838342
  0.17709248  0.10755082  0.12723753  0.401643   -0.28546086  0.44574586
 -0.24876563 -0.08773769]
[-0.04483163 -0.15659006 -0.13317168 -0.49844265 -0.26106295 -0.03196677
 -0.41718835 -0.1909072  -0.25536916 -0.12386006 -0.11935151 -0.18934992
 -0.45749784 -0.19933014  0.7690324  -0.11478444 -0.14424154  0.26910335
 -0.2501929  -0.39824334]
[-0.01107701  0.2564248  -0.17832744 -0.17865296  0.27685836  0.29021448
  0.05007215  0.2396197   0.47527292 -0.19054917 -0.1529347   0.03343376
  0.08159523 -0.18052584 -0.38362947 -0.10236238  0.05829474 -0.3762184
  0.20498373 -0.4230526 ]
[-0.30149037  0.05192804 -0.04937456  0.13198361 -0.05222484  0.57177657
  0.34433305  0.50893044 -0.18719965 -0.15433863  0.35448587  0.51328826
 -0.12415968  0.00232098 -0.5864721  -0.22880279 -0.20006917 -0.17116769
  0.37137455 -0.35850075]
[ 0.313166   -0.10071604  0.18091014 -0.2995097  -0.26894575 -0.18276171
  0.03710891 -0.49571842 -0.2765878  -0.06544981  0.04396416 -0.20019263
 -0.09703834  0.24211201 -0.07984695  0.1706115   0.02749944  0.43218464
 -0.18475342 -0.00760429]
[-0.01229637  0.06010228  0.10491888 -0.11474188 -0.06922966 -0.03054626
  0.04115237  0.01795542 -0.42585966 -0.11286865  0.1723248  -0.01202636
  0.0696918   0.02647195 -0.01515933  0.04671865  0.01591176  0.12441103
  0.01324632 -0.01092597]
layer 5 Activation
tanh
layer 6 Dense
20 1
[0.3385879]
[-0.01074239]
[0.06122766]
[0.13627346]
[0.45267025]
[0.2061852]
[0.13060382]
[0.27591434]
[0.49467182]
[-0.436585]
[-0.03196976]
[-0.37116814]
[0.24453393]
[0.2991718]
[-0.23742837]
[0.0349287]
[-0.01872777]
[0.15297374]
[0.00992837]
[0.28968707]
[0.25789884]
