layers 7
layer 0 Dense
20 20
[-0.18362583 -0.09454968  0.21050161  0.14845698 -0.52068424  0.18115212
  0.2435259   0.25836456 -0.12599353  0.38039142  0.22054955  0.3336407
 -0.22590236 -0.24544835  0.21053639  0.05825347 -0.41363406 -0.20840286
  0.0972922   0.32976726]
[-0.38029405  0.147506   -0.4165935   0.5820323   0.00766868  0.23745789
 -0.6101966  -0.30337116 -0.97809225 -0.28496766 -0.2635005  -0.0959561
  0.05139196  0.36597708  0.35966802 -0.17165235  0.2632869   0.00670762
  0.08511247 -0.27927327]
[-0.199671   -0.3712581   0.22870496  0.30065092  0.39712757  0.15186408
 -0.29199916 -0.38797438 -0.30530405 -0.5266923  -0.7346428   0.508868
 -0.21215619  0.1925932  -0.36852834 -0.46183836 -0.23037213  0.4867033
  0.52512264 -0.6130027 ]
[-0.06579809 -0.12705803  0.356122    0.04733114  0.02486482 -0.33210766
 -0.1019404   0.13082834 -0.22635114  0.20599253  0.44552156  0.28694576
  0.00091854  0.27967376 -0.09499605 -0.1580757   0.15324707  0.00563901
  0.16628015  0.01574876]
[-0.00550871 -0.30421585 -0.03234377 -0.1074323  -0.41644496  0.10067409
 -0.11783376 -0.03255855  0.0137388   0.3505597   0.18621057 -0.02870098
  0.05743466 -0.00843129 -0.20288795 -0.23193173  0.28926313 -0.01746122
  0.2943745   0.1612151 ]
[ 0.2585774   0.4366057  -0.22099236 -0.2743763  -0.16955233 -0.5116416
  0.6104202   0.15131703  0.8091718   0.485772    0.8319312   0.01480057
 -0.3405288  -0.8481967  -0.22303006 -0.14308305 -0.22225873 -0.1821647
  0.08350264  0.38015231]
[ 0.05334302 -0.13585661  0.10145468 -0.44346544 -0.63558847 -0.46855173
  0.5646259   0.58795625  1.1467357   0.39504036  0.7926125  -0.46735787
 -0.33794895 -0.629161    0.15597264  0.27542755  0.07780366 -0.18359871
 -0.18824317  0.7333234 ]
[-0.18211995  0.13787207 -0.41536945  0.30176285  0.23762095  0.24196555
 -0.01398923  0.04615827 -0.32312754 -0.39882973 -0.023229    0.05495248
 -0.15211742 -0.22845572 -0.18536764  0.3725563   0.22409323  0.32689998
 -0.14451158  0.30614045]
[-0.17444415 -0.35575595  0.47595307 -0.25038028 -0.48916525 -0.61185896
 -0.62422854  0.41889343 -0.37573913 -0.16678916 -0.67404115  0.09771617
 -0.39847973  0.48781943 -0.21421544 -0.7220065   0.13498488  0.0599864
 -0.2786535  -0.19589123]
[ 0.14336854  0.3479405  -0.36047062  0.4027613  -0.07940704  0.7190391
 -0.6625927  -0.0612752   0.9221181  -0.11243234 -0.80076593 -0.41985318
 -0.1343638   0.01628223  0.13433813  0.18134968  1.034031    0.6107764
  0.6137269   0.18061103]
[ 0.30911767  0.44650057 -0.46008208  0.20253628 -0.39052686 -0.11927498
 -0.3402039  -0.6432917  -0.45986685 -0.13030688 -0.5422601  -0.74760014
 -0.71363527  0.5578182  -0.7852996  -0.41363    -0.41166788 -0.38291833
  0.3861294   0.127466  ]
[ 0.7974116  -0.47815695 -0.6075052   0.22355777 -0.2988244   0.5514707
  0.04051809 -0.7706767   1.1407638   0.55984366  0.8190951  -0.35047427
  0.8120651  -0.81069124  0.37985292  0.7390618  -1.3041799  -0.26412928
  0.8400702   0.86280155]
[ 0.20004378 -0.46089572 -0.0593429  -0.07311421 -0.23168443  0.5068465
 -0.21759254  0.08080415 -0.08876938  0.5671946  -0.36920083 -0.08568757
 -0.07698689 -0.5555796  -0.32020345  0.56555265 -0.3457683   0.19813964
  0.30736217  0.56445175]
[-0.1662321   0.07515804  0.5938511   0.16750576  0.05732669 -0.07725195
  0.22993208  0.27098486  0.05110381  0.02445883  0.16166574  0.3948475
 -0.18278554  0.05797148 -0.58992696 -0.09803328 -0.6045745  -0.32346335
 -0.33172396  0.02233461]
[-0.36155006  0.173243    0.868307   -0.24802557 -0.1119549  -0.6160923
 -0.5109669   0.38084337  0.5670118   0.1175927   0.32824734 -0.351423
 -0.40613866 -0.46792477  0.6536976   0.15724473  0.48813388 -0.09711725
  0.3277815  -0.34176406]
[-0.42920032  0.44183907 -0.4424074   0.0171657   0.07645409  0.27671257
 -0.6541486  -0.17381456 -0.58642066 -0.13996671 -0.37911415  0.13916548
 -1.116249    0.6583043  -0.81271315 -0.6562215   1.0755544   0.8150909
 -0.11883557 -0.7202311 ]
[-0.14344724  0.16766174 -0.14662062 -0.06629383 -0.04021562  0.2027649
  0.35082915 -0.0406743   0.08848625  0.27226576  0.8773706  -0.06972983
  0.7449282   0.18802528  0.01640784  0.37187344  0.0908924  -0.89240766
  0.23174539 -0.7853235 ]
[-0.5576055  -0.03075786 -0.2813237  -0.44400334 -0.10705566 -0.06938995
  0.54750085 -0.09744363 -0.46330082  0.4681408   0.12354217 -0.02116304
 -0.41874227  0.36961442  0.8524964   0.13105246 -0.5659419  -0.04879223
 -0.2991613  -0.18888932]
[-0.22572887 -0.34037966 -0.46966755 -0.3985554   0.08991041 -0.10509465
  0.69119257  0.8415775   0.27630395  0.01859012  0.26552197  0.8762304
  0.20421945 -0.5002596   0.8269159  -0.27554825  0.32507735  0.17624487
  0.01856201 -0.20762867]
[-0.5189206   0.0252353   0.48739532 -0.8374296   0.23085196 -0.48810714
  0.01363618  0.54977614 -0.18641277 -0.17222013 -0.23519212  0.55665994
  0.31234527  0.00135126 -0.31167713 -0.3587956   0.47528976 -0.70174223
 -0.7065987  -0.71077955]
[-0.19660819  0.14699641 -0.01359721  0.08354184  0.0078732  -0.02895572
  0.0475774  -0.02819961  0.02460063 -0.0437176   0.1291298   0.13269821
 -0.12370723  0.02865275  0.09193025 -0.16128181  0.1003448   0.00572792
 -0.08570103 -0.02022356]
layer 1 Activation
tanh
layer 2 Dense
20 40
[ 0.02990374 -0.1386994   0.0685772  -0.32816657 -0.1948929  -0.16438912
 -0.10773356  0.08600293 -0.21847758 -0.13805416  0.27751753  0.20104933
 -0.08148859 -0.15822893  0.32013255  0.11575831 -0.10264525  0.07414164
  0.26748767 -0.05863491  0.13249414 -0.19709158 -0.23797879 -0.2644344
  0.22839871  0.21413386  0.00273793 -0.03476001 -0.29067877 -0.22216201
  0.11958457 -0.03081665 -0.16893105  0.13676515 -0.12287912 -0.12557818
  0.05156882  0.02779039  0.07927613  0.04470204]
[ 0.10514445  0.00270278 -0.21811116  0.23864196  0.11859465 -0.10054805
 -0.2093938   0.17531547 -0.02573735 -0.16431303  0.05588889  0.17534916
 -0.13307293 -0.23729555  0.01308475 -0.23049846  0.02976121  0.15338032
  0.04725861  0.24607171  0.18941543 -0.15777932  0.02567522  0.17151923
 -0.11966265  0.01215811 -0.14035614  0.15587397  0.01182621  0.02165192
  0.1066238  -0.25568813  0.15842168  0.18571457 -0.18983488  0.00966887
  0.23275039 -0.03357701 -0.09862047  0.00981904]
[-1.77986503e-01  1.22211106e-01  3.45463127e-01  6.32928088e-02
  1.68478519e-01 -1.01913482e-01 -2.83477515e-01  5.64065538e-02
 -2.22842410e-01  2.73264362e-04 -8.86321068e-02 -2.09710985e-01
 -5.07787019e-02  7.95110688e-03 -3.40927452e-01  3.03160936e-01
 -3.46814431e-02 -2.15535074e-01 -1.29585311e-01  3.62588644e-01
  2.06546392e-05  3.75834256e-02  2.19001666e-01  1.64622739e-01
  1.26767114e-01 -3.91350761e-02  3.29756171e-01 -2.07644954e-01
  5.21547496e-01  1.09622203e-01 -2.77884007e-01  3.47009391e-01
  1.77868605e-02  2.55049527e-01  3.35521430e-01  1.70647472e-01
 -2.85970777e-01  7.90841132e-02 -1.45735979e-01  9.21492875e-02]
[ 0.17383374 -0.13048518 -0.00065281 -0.18787912  0.10876638  0.22337903
  0.06257927  0.19784284  0.12857527 -0.11574105 -0.18095246 -0.11915382
 -0.32547203 -0.13756579  0.05788055 -0.20769684 -0.08627905  0.13748342
 -0.02283864 -0.09352828  0.31518856 -0.1066102  -0.15696728  0.17484118
  0.3614634  -0.02007529 -0.2693179  -0.17841786  0.00594293 -0.11727866
  0.1157236   0.07871267 -0.12750857  0.13764259  0.05569331 -0.18569343
 -0.23057204  0.02444654 -0.3038912  -0.10364826]
[-1.08237177e-01  2.00919271e-01 -9.35453251e-02  1.88071206e-01
 -1.24803521e-01  1.87987890e-02 -1.13425575e-01 -2.04974785e-04
  9.72594414e-03 -2.73475409e-01  2.06961390e-02 -3.19390208e-01
 -3.58635366e-01  1.09902278e-01 -1.79887205e-01 -3.36627603e-01
 -9.62142274e-02  1.55700326e-01 -3.22017908e-01 -4.04653430e-01
 -1.09683916e-01  1.47219330e-01 -2.33958080e-01 -1.83221653e-01
  3.11348289e-02 -1.53594509e-01  2.41200030e-01  2.05077410e-01
  1.90513641e-01  1.54587567e-01 -3.81570607e-01  1.32197872e-01
  6.68724105e-02 -2.69796222e-01 -4.40648338e-03 -3.74401696e-02
  6.75106049e-02 -5.84467389e-02  4.04902518e-01  1.25287380e-02]
[ 0.05723876  0.00913116 -0.43202898  0.03917751 -0.11147262 -0.19305527
  0.20761056 -0.16806704  0.05625399 -0.19591795  0.1652785   0.08953062
 -0.00706184  0.03101385  0.15324317 -0.11666176  0.17703386 -0.19564348
  0.01942408  0.3161684  -0.03116775  0.11785351 -0.31607872  0.16514657
  0.52782315 -0.05657421 -0.06684203 -0.11286327 -0.26580128 -0.27070218
  0.2557498  -0.13467064 -0.22831112 -0.05363985  0.07276755  0.00130633
  0.20722468  0.01948016 -0.4976839  -0.13944168]
[ 0.16461188  0.08100694 -0.20877568  0.48544955  0.04497993 -0.22460182
 -0.0383253   0.31004566  0.11392967 -0.03016843 -0.18191256  0.13644679
  0.16871807  0.06328118  0.07789015 -0.15950547  0.04797288 -0.18194091
 -0.24411002 -0.38109356  0.16066402 -0.37836725 -0.06772182 -0.04422659
 -0.43862647  0.18462257 -0.13044016 -0.08367818  0.24069333 -0.1566149
  0.02154941 -0.11310483  0.21236011 -0.19672489  0.27700773 -0.0169912
 -0.35835075 -0.03282242  0.4516529   0.2712359 ]
[-0.11795435  0.1120578   0.08576299 -0.11344825  0.29096806 -0.54720914
 -0.40019864 -0.42572775  0.3182199  -0.05319525 -0.4113019  -0.6720216
 -0.22852243  0.58807796 -0.5380149  -0.09877224  0.22862083 -0.20541592
 -0.4630901  -0.3516696  -0.28091088 -0.34639037 -0.2518878   0.02219953
 -0.35191554 -0.05820297  0.42980942  0.2328362   0.2269979   0.04114844
 -0.17740276 -0.01072293  0.4536134  -0.03944132  0.40887964  0.5291224
 -0.8327337  -0.07773037  0.07749885 -0.08899191]
[ 0.18254171  0.07518145  0.13638219 -0.06461889 -0.2794107  -0.05733107
 -0.20268272 -0.23566459 -0.132117   -0.18003535 -0.05789335 -0.6451178
  0.01375023  0.35725674  0.2150807   0.0975113  -0.19411695 -0.03809642
 -0.3180096   0.07470108 -0.38427192 -0.4015423   0.08729039 -0.3517261
  0.37843367  0.04704889 -0.21453072  0.03341571 -0.13130225  0.38555592
 -0.06304426 -0.01648071  0.07890419 -0.30597055  0.05053595  0.12221526
 -0.04526966  0.02348824 -0.27508757  0.15103841]
[ 0.2726322  -0.14008197  0.28726912 -0.15507028  0.13026771  0.25672832
 -0.0224532  -0.01517866  0.2242356  -0.1300506  -0.00769378  0.06222669
  0.00290483 -0.1155261   0.21937045 -0.06003028 -0.2924396   0.23179437
  0.00472357 -0.06749264 -0.20218411 -0.01185101  0.21902007 -0.00955649
  0.12078268  0.2446849  -0.02241693  0.27365232 -0.0473952  -0.01874179
 -0.15184353 -0.0835319   0.07816869 -0.20148085 -0.20402847  0.0796458
  0.21912424 -0.04476742 -0.08163661 -0.11145298]
[-1.0984489e-02 -1.4762190e-01  4.6538815e-01  3.2634091e-01
 -1.9516149e-01 -1.5876560e-01  2.1445242e-01  3.8693455e-01
  1.2257495e-01  1.8951246e-01  1.5949292e-01  1.0725030e-02
 -2.0730461e-01  7.6603696e-02  9.7541384e-02 -2.8190243e-01
 -1.6315956e-01  2.3251848e-01 -2.4364029e-01 -5.6377184e-02
 -2.6728559e-01 -1.7033619e-01  2.9409987e-01 -1.9088979e-01
  1.5544014e-01  2.0855126e-01 -3.8978815e-02 -1.7333680e-01
  5.6657162e-03 -2.2900259e-04 -3.8474900e-01 -1.3232097e-01
  2.3916787e-01 -3.6197853e-01  3.3679071e-01 -3.4279369e-02
 -2.6141751e-01 -1.9167760e-02 -2.0746678e-01  1.9123977e-01]
[-0.20623325 -0.01080794  0.22961679  0.46005577  0.32479447 -0.54169333
 -0.21600766 -0.04998932  0.31735364 -0.09655419 -0.0777522  -0.5098607
  0.01811899  0.4230663  -0.4603815   0.23032235  0.00859753  0.03665549
 -0.30198076 -0.28042573 -0.288532   -0.43307632 -0.05799379  0.03705951
 -0.1902827   0.17492823  0.17239223  0.09613846  0.31806606  0.0988379
 -0.16796827 -0.16439264  0.1663518   0.16866162  0.08353297  0.38908544
 -0.46916494 -0.1246007  -0.1953171   0.09726807]
[-0.20853812  0.23508398 -0.3037719   0.29568532  0.03053218 -0.1285056
  0.0032533   0.17813785  0.01909096 -0.19067325  0.07817926 -0.1660464
  0.23959062  0.17393458 -0.22909491 -0.17628394  0.18578179  0.05293016
 -0.0749885  -0.00146379  0.09733039 -0.3258936  -0.14511892 -0.17498006
  0.1203252  -0.17817666 -0.1586131  -0.19389805 -0.18746059  0.28780788
  0.27199814  0.03421894  0.07053376  0.01250421  0.01559679  0.24720745
 -0.28272733 -0.03127068 -0.20906831  0.07169571]
[ 0.07124252  0.17934053 -0.16484523  0.09556857  0.2766629   0.19166064
 -0.08495218  0.31418112 -0.13349883 -0.03066023 -0.20592521  0.48317596
  0.14108074 -0.15448324  0.4368541   0.12129149  0.1302279  -0.15591747
  0.22201197 -0.11239854  0.26803297  0.16878521  0.27905986 -0.12781829
 -0.44240215 -0.36049598  0.03123393  0.2550653  -0.2652558  -0.2931468
  0.21497908  0.37527934 -0.00839864  0.2085882   0.18111533 -0.29213327
 -0.00175527  0.27152318 -0.11101845 -0.0172133 ]
[-0.35943842  0.21655418 -0.09070423  0.28001565  0.058508   -0.41428456
  0.01307375 -0.38319102  0.03224103  0.20423649 -0.32592925 -0.37333184
 -0.00101818  0.18711561  0.07963884 -0.07215287  0.290949    0.04701867
 -0.7063718  -0.532575   -0.3485632  -0.3293194  -0.19720095  0.01746811
  0.5421299   0.16323532  0.20635237 -0.07285366  0.08767727  0.4109427
 -0.5151654  -0.08051974  0.501524   -0.12089044  0.07718103  0.14589071
 -0.36873373 -0.16372746 -0.54285574  0.28909484]
[ 0.14328246 -0.00619832  0.13972622  0.3797216  -0.03064707  0.25285015
  0.20493513 -0.05274414 -0.00763203 -0.11376714 -0.20860696  0.1854797
 -0.04296061  0.13761747 -0.2761496  -0.22106752  0.05606254  0.02857278
  0.18677437  0.5691187  -0.38208953 -0.22036059 -0.22775497 -0.30036142
  0.2177394   0.19786489  0.01553386 -0.56143284 -0.01819924  0.01457458
 -0.29829398 -0.25967118  0.06358317 -0.01499126 -0.054758   -0.03275338
  0.2910819  -0.21548371  0.3658987   0.13357422]
[-0.14126028 -0.34134355 -0.56411797  0.1798238   0.64235586  0.14349583
 -0.24771987 -0.63423234  0.37070316  0.346675   -0.08277743 -0.55531496
  0.02303146  0.00817901 -0.40677643  0.16080639  0.05836561 -0.3314968
  0.25312263 -0.36042982  0.3386411   0.2403289  -0.8942221   0.5587544
 -0.05085113  0.09433056  0.7808564   0.64603084  0.50049984  0.26013783
 -0.4356202  -0.16659847  0.26974958  0.3579679   0.34697306  0.04090305
 -0.17312737  0.41696495 -0.23003933  0.01755732]
[-0.30835027 -0.442615   -0.22749072  0.38711086  0.23345001  0.0710579
 -0.41329923 -0.2833624   0.14517258  0.22485088 -0.06748256  0.0174576
 -0.13076252  0.19697055 -0.15290776  0.12994449  0.02210776  0.00153826
  0.348787   -0.61634934  0.08368704  0.0173285  -0.34887922  0.21725754
  0.65183836 -0.1182638   0.12581801  0.0202367  -0.16418225  0.30112246
  0.31743243  0.21096808  0.25945285  0.24677163  0.1488752  -0.26035184
 -0.11393587 -0.05229807 -0.20371589  0.02994469]
[ 0.3209652   0.11625109  0.0802042   0.19088866  0.13652527  0.06000401
  0.33914334  0.15971316 -0.11242453  0.28646514  0.00997911  0.17576942
 -0.08289973  0.16424091 -0.02301949 -0.13909735 -0.18605895  0.2414891
 -0.2589841   0.73725945 -0.2758173   0.15761411  0.1368183   0.21492104
  0.32123098  0.21281578 -0.06790262 -0.1046413  -0.26784214 -0.40733013
  0.47035292 -0.25613463 -0.18576124 -0.08167614 -0.06790919 -0.12021842
  0.0658023  -0.01779514 -0.4029198   0.10717526]
[ 0.23516476  0.0724915  -0.03785928 -0.02031921 -0.12317245  0.17114028
 -0.03402813 -0.20138554  0.17023103  0.06839345  0.21599479  0.14099905
 -0.15517583 -0.02981885  0.14090993 -0.06804474 -0.3391692  -0.21859553
  0.07895955 -0.02741253 -0.10515396  0.11283229 -0.04134024 -0.30385348
  0.45621637 -0.02702693 -0.11758894 -0.24738127 -0.27080446 -0.2746634
  0.44384998  0.12790865  0.17618598  0.3573545  -0.29405513 -0.03809867
 -0.08617543 -0.08118737 -0.0975303  -0.07702124]
[-0.08039582 -0.07845978  0.16841048 -0.04184874  0.26556152  0.05898011
 -0.1325209   0.10208709 -0.13909023 -0.08562199  0.03165102  0.12492111
  0.15269051 -0.09111903  0.03167152  0.12287617 -0.03710428  0.03343973
  0.04867425 -0.20496729  0.10926635  0.05699953  0.25395265  0.11660545
  0.04834992 -0.03002825  0.04508618  0.14145792  0.05204511  0.05507881
 -0.02393512  0.13823843 -0.01836316  0.03615755  0.02069921 -0.02030343
 -0.04296362  0.12167091 -0.29779038 -0.18221398]
layer 3 Activation
tanh
layer 4 Dense
40 20
[ 0.04254891 -0.2602128   0.0108257  -0.10764002  0.09253272  0.11407559
  0.202338    0.1816926   0.06875924  0.21180306 -0.11622567 -0.26156822
  0.11837937  0.17646691 -0.2129901  -0.02655835  0.09545135 -0.25179756
  0.1839961  -0.3166048 ]
[ 0.04643072  0.10376479  0.2347173  -0.16052516  0.07041936  0.08873839
 -0.01816503  0.01541507 -0.16760196 -0.05038807 -0.15046564 -0.23303404
  0.14830735  0.24576095  0.12940581  0.09711079 -0.10354026 -0.06723268
  0.23385511  0.14460272]
[-0.13770773  0.01946197  0.21264364 -0.03000947  0.04321986 -0.27132955
 -0.16252373 -0.23543774 -0.22463243  0.11167573 -0.07538649 -0.04272053
 -0.22889759  0.21166408  0.30762374  0.1836852  -0.11560673 -0.03346414
  0.10262667  0.33808517]
[ 0.13979922 -0.15902697  0.07421201  0.3074865  -0.2903752   0.01796324
  0.20921747  0.00273611 -0.17894116 -0.2584571  -0.18594857 -0.01048691
  0.04774266 -0.22257183  0.09160516  0.34078127 -0.12038036  0.28141832
 -0.03574033  0.21391623]
[ 0.21553865 -0.4340905   0.1921772  -0.32766554 -0.26577783 -0.08152584
 -0.21470764 -0.14789353 -0.10060167 -0.3790534  -0.05050433 -0.12052773
  0.07134413 -0.24265406 -0.01575729  0.04463237 -0.04313501  0.0843597
  0.11379363 -0.26558924]
[-0.1642414   0.09065238 -0.03552044  0.10271209 -0.03019019  0.26212746
  0.06812537  0.12674856  0.17486526  0.20075302 -0.11206675 -0.12561883
  0.00472823  0.1277058  -0.18982923  0.1279906   0.11508822 -0.20935597
  0.06787349 -0.24846873]
[-0.02645831  0.0264479  -0.07271287 -0.06464717 -0.08184519 -0.2399171
  0.24366815 -0.04018177 -0.11297812  0.35121423  0.13894047 -0.20745824
  0.16851446  0.26311335  0.01081294  0.16086115 -0.1743203  -0.31876183
  0.13157701  0.05704361]
[-0.0860071   0.08048139 -0.16264267 -0.12938547  0.5920566  -0.1228838
 -0.21338253  0.24327755  0.41069743 -0.25721356  0.04034939 -0.40085107
  0.10337568  0.1570847  -0.12832597  0.04790256  0.04733922  0.17428887
  0.06848688  0.00132684]
[-0.03459694 -0.2871486   0.2373443   0.01230022 -0.15858206 -0.0417629
  0.11358991 -0.14413573  0.10800721 -0.21168767  0.05207539 -0.18446735
 -0.07096729 -0.17479135 -0.0446171   0.04476064 -0.16638125  0.36938983
  0.20401995 -0.24084155]
[-0.16587007 -0.24711     0.08312899 -0.04923538 -0.22899722 -0.09868558
 -0.00479719 -0.28829834 -0.05620322  0.18663345  0.07208978 -0.05104195
 -0.21143597 -0.20256145  0.05690908  0.2510664  -0.02575106 -0.16159095
  0.16326515  0.13174622]
[-0.07665928  0.15187328 -0.01989944  0.16100006  0.02727748 -0.13302107
 -0.00502524  0.19981647  0.12259311  0.1634691   0.17655465  0.20626606
  0.04496867  0.12067804 -0.18899561  0.15296316 -0.06183164 -0.1163164
  0.14312145 -0.04087849]
[ 0.31753948  0.11138617  0.20979726  0.09289432 -0.14762305 -0.05904331
 -0.0200112  -0.372879    0.08012818  0.31364763  0.1615479  -0.09648474
  0.15331161  0.42106873 -0.25513303 -0.13603693  0.2340663  -0.20635681
 -0.23926517  0.04061014]
[ 0.17801882 -0.32502624  0.0110581  -0.3076728  -0.1900887   0.12120253
 -0.10754201  0.02256615  0.12438461  0.00198039 -0.08627192  0.03561491
  0.11089106  0.1062902  -0.14488877  0.09487712  0.10550857 -0.22535565
 -0.14412773  0.06497375]
[-0.15307842 -0.366201   -0.18994294 -0.11413258 -0.33827132  0.22955003
  0.2058857  -0.04651757 -0.22393125 -0.17846419  0.0200228  -0.03553474
 -0.14694823 -0.18039957  0.04681705 -0.31106952  0.11586216  0.32692406
  0.27191564  0.02434988]
[-0.16911481 -0.10049178 -0.1378494  -0.06825532  0.27258804 -0.03782844
  0.10087261  0.31772602  0.15747508  0.30472812 -0.15694438  0.11465759
  0.14060216  0.14535816 -0.2248742   0.23335347 -0.18363494 -0.30218616
 -0.26412433 -0.07276437]
[-0.06461811 -0.20490655  0.08917337 -0.2917042  -0.39936233  0.20835441
 -0.32413405 -0.23713289  0.04971881 -0.00692068 -0.12892333  0.24718264
 -0.1661223   0.06441391 -0.20841262 -0.03045392 -0.00885097 -0.0751
  0.01155324 -0.00100522]
[-0.14905943 -0.06509645 -0.20189744  0.06146132 -0.00320756  0.02023682
 -0.13368545 -0.10301268  0.10026536 -0.24356389  0.09962925 -0.04120586
  0.04443885 -0.03648303 -0.09632464  0.13850775 -0.01593057  0.22016108
  0.07614012 -0.00068651]
[ 0.1342765  -0.17176874 -0.01766442  0.18204868  0.18279923  0.13762793
 -0.05096551  0.04001197  0.00061675  0.15961303  0.08160164 -0.14170054
  0.02521844 -0.09094492  0.11028508 -0.03373    -0.03960958 -0.07365593
 -0.15960127  0.10745547]
[ 0.074972    0.4408725   0.07015563  0.09518235 -0.07482102 -0.20757404
  0.12190197 -0.22817181  0.2298012   0.07833851 -0.09025837  0.17223157
  0.091415    0.0785711  -0.18819793  0.256198    0.0027886  -0.04399176
 -0.02953681 -0.15300345]
[-0.00503597  0.40022975  0.20423824 -0.00502938  0.11786014  0.11114511
 -0.17236605 -0.06251463 -0.0445767   0.23855025  0.13410676 -0.31320643
 -0.32768276  0.4756732  -0.05039144  0.18279277  0.00306773 -0.23198141
  0.23695332 -0.02415739]
[-0.03551703  0.13532509  0.20973645  0.10167784  0.11286677  0.09865188
  0.009856   -0.00360048  0.00327261  0.32290566  0.18977194  0.07255968
  0.39106932 -0.02807982 -0.24761258  0.29542965 -0.24077736 -0.07296822
  0.27171397 -0.13309349]
[-0.16722953  0.12198585  0.18905698  0.08725686  0.10961465  0.13009346
 -0.1298667  -0.23352146  0.21969314  0.2504342   0.10841055  0.02102818
  0.20045489  0.32077163 -0.15931946 -0.15942962 -0.1095394  -0.09371327
 -0.04627596 -0.1620546 ]
[-0.12525745 -0.08060285 -0.13700329  0.00561639  0.09648286  0.01216843
 -0.23650868 -0.04388405  0.3458926  -0.03770655  0.17122604  0.00138914
 -0.19805488  0.44223824  0.14346226 -0.02328807  0.21661574  0.07378251
  0.24246167  0.33884728]
[-0.09989078  0.14977631 -0.2957     -0.30149606 -0.37091842 -0.1829089
 -0.41009998 -0.19693227  0.00571805 -0.11891653 -0.12178431  0.18446243
  0.20170106 -0.26240668 -0.23002827  0.09892096  0.15719894  0.20212622
 -0.13259757 -0.24332033]
[ 0.1279303   0.48316106 -0.16421868  0.27016038 -0.19235846  0.03530467
  0.07877415  0.41024274  0.69316137 -0.53573054  0.34850195 -0.23426923
 -0.5244247   0.07872916  0.15198773  0.16088364  0.0159921  -0.03920956
 -0.10280149  0.43641964]
[ 0.09399154 -0.6109884   0.04932521 -0.1141895  -0.15342022  0.19950609
  0.23122744  0.01841549  0.00550039  0.09777213 -0.02760826 -0.14295045
 -0.16670462 -0.05133766  0.2993276  -0.17392288  0.05386442  0.00383578
 -0.07833884  0.05263045]
[ 0.08944421  0.20449273  0.05580776 -0.01454467 -0.3087771  -0.09344366
 -0.30024222 -0.06352143 -0.00413351 -0.26387012  0.12689331  0.12481298
 -0.15818976 -0.08992726  0.14322084 -0.00556087 -0.23665628  0.13035996
 -0.23640782 -0.0332554 ]
[ 0.0774319  -0.0462181   0.10067072 -0.15441991 -0.07150957  0.03957423
  0.02594949  0.07906634  0.21134603 -0.13372444  0.09589058  0.02165273
  0.3001077  -0.28942287 -0.08162639 -0.13258249  0.0899933   0.05230978
 -0.09098599 -0.18772629]
[-0.00700972  0.04365746  0.13422474  0.06628884  0.05310801 -0.00995689
 -0.2809633  -0.17822874 -0.23383866  0.11561013 -0.13063522  0.14393185
 -0.20807543 -0.27161786  0.18961178  0.19008069  0.17434363  0.2811712
 -0.2659019   0.23537214]
[-0.07532366  0.15316425  0.22552504 -0.10809192  0.12432699  0.1241301
 -0.195705    0.1958142  -0.25022653 -0.13609548 -0.07450981  0.25426832
 -0.19923276 -0.1952171   0.23721196  0.38266975  0.26299655  0.09517831
 -0.0882268   0.08615666]
[-0.09319258  0.28589702  0.25527292 -0.22019589  0.04884554 -0.11572864
  0.27994198 -0.03445832  0.39840278  0.19569895  0.13287541  0.13634259
 -0.1572981   0.38585973 -0.33812216 -0.04809684 -0.03543979 -0.11414309
 -0.22251502 -0.32884902]
[-0.04382759  0.3957989   0.09305589  0.15560946  0.32782644  0.00159058
 -0.34352902  0.00605734  0.00380186  0.19384211 -0.08143489  0.21576178
 -0.10819651  0.04252155 -0.007345   -0.21092978  0.1924258  -0.1548912
 -0.13634819  0.20924667]
[-0.14451775 -0.1788758   0.02797543  0.08831496 -0.0225736  -0.20786785
  0.36227426 -0.12311768 -0.14699678 -0.18375838  0.38134852  0.20770612
 -0.21953827 -0.37421292  0.29925066  0.06024681 -0.19503799  0.07021395
  0.11030108  0.04187423]
[-0.2559979   0.16146962 -0.16592956 -0.28385112 -0.21352656  0.05140748
 -0.08420597  0.0905968  -0.38342544  0.1631113   0.03981978 -0.04805985
  0.04812324  0.11451083 -0.10578123  0.05556533 -0.19649348  0.11933864
  0.3393902  -0.22199202]
[ 0.22560951 -0.24899955  0.1165264  -0.01400222 -0.20608276  0.10804003
  0.15537883 -0.2819555  -0.02224126 -0.02495687  0.02491374 -0.18952376
  0.16561142 -0.28295743  0.20917776  0.03060787  0.00126951  0.3729796
  0.19411597  0.12019769]
[-0.07166185 -0.00763431 -0.16180485 -0.35552508 -0.11628278  0.00539857
 -0.09742486 -0.20870772 -0.13242444 -0.24204127  0.28598797 -0.07439496
  0.20956132  0.00781738  0.19820732  0.06568597 -0.13178769  0.27206218
  0.2578693   0.09803341]
[-1.2131289e-01  3.8735282e-01  5.6128331e-02  1.6319397e-01
  2.2438571e-02  1.8348546e-01 -3.2953313e-04  2.1221109e-01
  3.2151321e-01  1.8762888e-01  1.9187997e-01  1.5741615e-02
  5.5357277e-02  3.5092628e-01 -1.2358917e-01  1.4578559e-01
  8.6558975e-02 -1.6833837e-01 -1.0070304e-01 -3.0047455e-01]
[-0.00330081  0.10508199 -0.20771548 -0.19494085 -0.00269829 -0.09687403
  0.02703382  0.1785041  -0.06245337 -0.11147144 -0.16311792  0.17489998
  0.04518795 -0.07693761 -0.36794788  0.05868875  0.05112675 -0.08459558
  0.02321423 -0.2028952 ]
[-0.14279254  0.15850729 -0.26746038  0.00442833 -0.05721987  0.14712659
  0.26427445 -0.2338799  -0.09604497  0.06584784 -0.14939718 -0.01495585
 -0.05332416 -0.21124552  0.13906941  0.20504358  0.03050988  0.04072234
 -0.02517438 -0.3222114 ]
[-0.15398538 -0.11016394  0.23754568 -0.18389963  0.06281956 -0.01247238
  0.32997698  0.11718249 -0.06907605  0.03805307 -0.10694936 -0.1501781
 -0.02380861 -0.11803301  0.08945886 -0.25346342  0.17536518  0.07501091
 -0.03238846  0.01842076]
[ 0.07690933 -0.18080583  0.08486943  0.04054786  0.01258405  0.05980068
 -0.11730397  0.00939513  0.10640614 -0.10619073 -0.09093352  0.06931107
 -0.03152113  0.08723896 -0.00072527 -0.03295733  0.0061783  -0.09019334
  0.009463    0.03828862]
layer 5 Activation
tanh
layer 6 Dense
20 1
[-0.00378353]
[0.02521107]
[0.00581458]
[0.00336776]
[0.01332585]
[-0.00874379]
[0.05234787]
[0.03239082]
[0.07983948]
[-0.10491076]
[-0.00910234]
[-0.06417245]
[-0.05735352]
[0.11367313]
[-0.03689777]
[0.00952534]
[0.0008271]
[0.03830328]
[-0.00418696]
[0.10553835]
[0.00482643]
