layers 7
layer 0 Dense
20 20
[ 0.07712306  0.20869     0.14438058 -0.25560766 -0.00559288  0.42346838
 -0.55923045  0.05465439  0.20237996 -0.20645314 -0.41429216  0.2841818
 -0.0308871   0.02463619 -0.24702902 -0.01467662 -0.3290637   0.32288027
 -0.09539323 -0.12812784]
[-0.3526757   0.2561919  -0.2582885   0.0799714  -0.03255925 -0.02864441
 -0.2795542   0.37585968  0.18803096  0.15507203  0.15802282  0.35783476
 -0.29064855  0.21251553 -0.3203162   0.3258934  -0.12396491  0.00409192
 -0.30796537 -0.21007787]
[-0.00456533  0.03656298 -0.12591556 -0.21820243 -0.13696301 -0.13472962
 -0.23054059 -0.00463283  0.37953186  0.36762714  0.2863701  -0.27929667
 -0.3329928  -0.17929219 -0.12083542 -0.31410408 -0.24616078 -0.16998653
 -0.1712177  -0.22141121]
[ 0.25657576  0.00085919  0.27361205  0.07574537 -0.32433215  0.12501869
 -0.39340088 -0.47118443  0.06456576 -0.32711822 -0.46341875  0.05842537
  0.00953836  0.23897688 -0.28015658 -0.29092795 -0.27152678  0.16240758
  0.2839796   0.29938248]
[-3.2398450e-01  1.8232109e-02 -4.3231227e-02  1.9810158e-01
  3.7391821e-04  5.2678132e-01  2.5359479e-01 -1.3170852e-01
 -4.0163508e-01  1.2955838e-01 -2.2910449e-01 -4.5420828e-01
  5.9976190e-02 -1.5860876e-01 -7.8883719e-01 -1.1290561e-01
  2.9304016e-01 -4.1306376e-01  2.8981164e-01  7.9451829e-01]
[-0.11859897  0.28065056 -0.02346539 -0.33465064 -0.01388586  0.1958232
  0.33777356  0.23908526 -0.08145696 -0.12383258  0.17759407 -0.06795782
  0.13864619 -0.30718336 -0.12347254  0.08899486 -0.33917266  0.08198392
  0.13094693 -0.02773091]
[ 0.16640073 -0.07067859  0.067794   -0.03478009  0.297059    0.12027556
  0.3214097  -0.32070816 -0.2845795   0.23911744 -0.3116098  -0.0342108
 -0.3338906  -0.09102356  0.17612356 -0.3836878   0.35494816 -0.22123493
  0.07226682  0.01152015]
[ 0.30675626  0.23163356 -0.486009   -0.24016461 -0.04161851 -0.496409
 -0.05444841  0.3227778   0.08448172  0.8134356   0.56591654 -0.16457312
 -0.34689918  0.3388358   0.5323194   0.22201292 -0.6058453   0.30623797
  0.29752234 -0.8898311 ]
[-0.19544847 -0.5910281   0.08067263  0.38821056 -0.34371096  0.2149062
 -0.25573224  0.01842714 -0.4092133   0.355359    0.39263585 -0.15718423
  0.7587096   0.2469987   0.22069564 -0.158851    0.23731895 -0.24284247
  0.02753892 -0.03314553]
[-0.30602264  0.5797476   0.08397313  0.48067826 -0.06239856 -0.20844959
 -0.13045435 -0.7935065  -0.16913854 -0.02934034  0.10088303  0.602438
  0.22405073 -0.29873565  0.18229058  0.32176286  0.07561179  0.07267024
  0.5976572  -0.06999516]
[-0.02576145 -0.03044562 -0.34502745 -0.48154804  0.49081948  0.12766759
  0.0048337  -0.10386821  0.17541796 -0.19024177 -0.19490094  0.08951472
 -0.01336987  0.5652538  -0.6150581  -0.35120413  0.09115405 -0.6160957
  0.75877494  0.07143024]
[ 0.20097949  0.21338241 -0.71177006 -0.5600716   0.46378952 -0.35127074
 -0.0548823  -0.2423311   0.33448306  0.10780377  0.5136956   0.4669311
 -0.10131299  0.4019726   0.2311094   0.19140245 -0.74311006  0.6613055
 -0.23080805 -0.05736341]
[-0.54345745 -0.75294113  0.8527488   0.43414718 -0.83198106  0.18384829
  0.23447235  0.40540287 -0.57744664 -0.18634832  0.15081184 -0.9842272
  0.63132125 -0.08960599  0.11052661 -0.7268636   0.80767006 -0.56983703
  0.9733685  -0.14968005]
[-0.25218225  0.2882583   0.443032    0.30999306 -0.21252887 -0.04412458
  0.41565576 -0.229816   -0.16890751 -0.04781871  0.22483529  0.15221733
  0.8792217   0.41625667 -0.02112043  0.702299   -0.0184161   0.5001089
  0.2633075  -0.12366152]
[-0.39088488 -0.01202853  0.10722273 -0.21445607  0.2147739   0.4926311
 -0.20078303 -0.38753042  0.1717512  -0.5124452  -0.30428317 -0.1235113
  0.26870152  0.5877508  -0.40296766 -0.14421251 -0.130969    0.34039414
  0.23795031  0.01534507]
[ 0.41387534  0.28160453  0.17584378 -0.5881437   0.04990608 -0.08280423
  0.19382514 -0.6958826   0.10010393  0.9673804   0.62916076  0.7329581
 -0.27887067 -0.094968   -0.41065493 -0.04737807 -0.3447372   0.5365918
 -0.4289195  -0.0654652 ]
[ 0.25814605  0.25361228 -1.0936915  -0.3058303   0.51362824 -0.93164736
  0.32890582 -0.2616981   0.19795446 -0.28914118  0.15429051  0.2336444
 -0.64157486  0.36150917 -0.8240187   0.93293786 -0.17529573  0.18965484
 -0.10114112  0.6649755 ]
[-0.21244404 -0.91950464  0.19226599 -0.2592488  -0.3397847  -0.16066137
 -0.9447641   0.8283281   0.512822    0.21515426  0.13003096 -1.2500938
 -0.70362496  0.01785423 -0.81954086 -0.34455726 -0.12661418 -0.44775662
 -0.72099847  0.25280923]
[ 0.6696832   0.3950302   0.1339859   0.7729129  -0.75882095 -0.39291424
  0.28393677 -0.07413386 -0.9955579  -0.1957321  -0.29956147 -0.04475338
  0.03198005 -0.86311203  0.3092264  -0.26896042 -0.28567865  0.7419865
 -0.51823103  0.58204365]
[-0.45014367 -0.36968717  0.07717485  0.01150701 -0.09074206 -0.02706634
 -0.0048862   0.03872458 -0.4143914  -0.4688999  -0.49993643 -0.08484709
  0.516786   -0.27033675  1.0696054  -0.07951048 -0.0120582  -0.3982225
  0.16919893 -1.0380243 ]
[ 0.13341649  0.11688122  0.18312362 -0.06520174  0.03175613  0.3487182
 -0.1414607  -0.18140061 -0.10057239 -0.43212464 -0.30317435  0.21213864
  0.04364672 -0.09033895  0.06582291 -0.2889491   0.01888049 -0.10724257
 -0.03766566  0.17540361]
layer 1 Activation
tanh
layer 2 Dense
20 40
[-0.10123773  0.4211278  -0.06660163  0.03170922  0.28440818  0.13666256
  0.03714906 -0.61018264 -0.3348744  -0.15353218 -0.03143213  0.02086257
  0.37676552  0.52463716 -0.27303857 -0.32295698  0.05010676 -0.06539281
 -0.26071596 -0.47752532 -0.54817146  0.11882165  0.01070608 -0.04481699
 -0.0094961   0.11576294 -0.11421595  0.35077626  0.36532    -0.0070198
  0.00120788 -0.16956669 -0.18106847 -0.17123269 -0.00476805 -0.1688367
 -0.27073953  0.3128824   0.04987738 -0.25377187]
[-0.3250551   0.09334698  0.17329432 -0.27747473  0.33060545 -0.15428568
 -0.41001952  0.3987582   0.19162665  0.3406728   0.1170857  -0.05416815
  0.03293516 -0.4991409  -0.04333417 -0.26081774  0.11028405  0.16705516
 -0.01980735  0.10930569 -0.34581876  0.18496403  0.45958468 -0.33126554
  0.09923252 -0.00117048  0.6607003   0.6612782   0.34996983 -0.13589905
 -0.04335539  0.06820553 -0.33484396 -0.32308596  0.3105323   0.6660872
 -0.5000657   0.0596649   0.1285133  -0.27180508]
[ 0.1539364   0.03083047 -0.02951924 -0.6752867  -0.615999   -0.6302281
 -0.38616544  0.04613246  0.401027    0.35290515 -0.4066783   0.914991
  0.7194924  -0.5542214   0.41384542  0.39526653 -0.6492697  -0.3880611
  0.4544259   0.1465641  -0.48676032  0.30609     0.2733559  -0.26264113
 -0.02004127  0.15538087 -0.34891337  0.10224248 -0.04988926  0.17179367
  0.31644702 -0.22056065 -0.01481311 -0.20036303 -0.48093995 -0.5182771
  0.48587933 -0.40005895 -0.20831509 -0.37110487]
[ 0.2515172   0.1165958  -0.23695986 -0.06270517  0.02614838  0.22317807
 -0.07975687  0.24053638  0.31274232  0.11218293  0.2249771   0.2804999
  0.20984334 -0.59892786  0.3777759  -0.09615818  0.17648247  0.25503224
  0.02271673  0.5293424   0.25856346 -0.24340509  0.56175345 -0.07160408
  0.5354776  -0.06548959  0.3709112   0.03534674 -0.20910804  0.02023986
 -0.21495833  0.47550967  0.8692842   0.10330488 -0.13061297  0.11805067
 -0.03216345 -0.5000464   0.09866434  0.08955476]
[ 0.1203926  -0.9522083  -0.14542754  0.34488645  0.15849006 -0.15559828
 -0.07571518  0.11903428 -0.43608803  0.02864311  0.06031359 -0.12124451
 -0.3025197   0.33965725  0.26132226  0.15845363  0.15805085  0.38766968
  0.7488038  -0.31798366  0.11683703  0.09471916 -0.04983353 -0.15512481
 -0.3846429   0.28041387  0.30425826  0.0644606   0.09068689  0.36358267
  0.11224954 -0.6964379  -0.44391322 -0.21723089  0.36882877 -0.05407419
 -0.01252737  0.6058824   0.33564755 -0.5793795 ]
[-0.11115932 -0.47211602 -0.2630141  -0.45671204 -0.42449993 -0.26517516
 -0.1271599   0.18340577  0.44843325 -0.03034521 -0.20902829  0.27403197
  0.18008031 -0.03908707 -0.0496318   0.51723796 -0.12478765 -0.33342415
  0.5304373  -0.14057544 -0.20405313  0.40929663  0.2714931   0.1710472
 -0.25873813  0.21675903 -0.39957374 -0.60572225 -0.4993683  -0.16050382
  0.13816924 -0.51511043  0.04011685 -0.09787693  0.09074026  0.17227489
  0.01499719  0.25061882 -0.08995353 -0.47722584]
[ 4.79934752e-01 -2.61459023e-01  1.72960019e-04 -1.17525958e-01
  2.65830278e-01  2.23988652e-01  1.17516905e-01  1.53493404e-01
 -1.95616111e-01  1.10713221e-01  1.03241845e-03  1.60102412e-01
 -6.57182261e-02 -1.54756635e-01 -3.04835401e-02  9.40284282e-02
 -2.28677645e-01 -1.18354358e-01  1.14023909e-01  2.29615539e-01
  3.33436877e-01 -2.40847453e-01  2.26992592e-01  4.67827082e-01
  7.10476786e-02  3.13207544e-02 -4.87887561e-01  1.30637348e-01
  1.23450607e-01 -1.48480132e-01 -6.96312934e-02  7.37742856e-02
 -2.55170137e-01  3.57392132e-01  3.30074802e-02 -2.66794801e-01
 -1.34666353e-01  1.71747774e-01  2.75439117e-02  2.76970625e-01]
[ 0.40085405  0.21509412 -0.34315345  0.02437764  0.08887573  0.5254285
  0.02502698 -0.6030456   0.09098168 -0.16266158  0.01213711 -0.07348183
 -0.02799751  0.3335388   0.7500785   0.22821961 -0.00619559  0.05460524
 -0.25531924 -0.38410687  0.29084563 -0.44714054 -0.4923276  -0.20518838
 -0.14368236 -0.29950607 -0.62137014 -0.18719324 -0.255798    0.1250389
  0.5914614   0.41239756 -0.05616165 -0.04146288 -0.4101688  -0.34776628
  0.62440866  0.25044096  0.10911149  0.19629814]
[-0.7524766  -0.4461676   0.20803505  0.04707527  0.3438006  -0.28152665
  0.06220097 -0.04773172 -0.331829    0.0431466  -0.44359642  0.19675909
 -0.21551995  0.32785022  0.46469006  0.20946546 -0.15546854  0.09022302
 -0.34436303 -0.7487967   0.00702144  0.10929397 -0.682686    0.04649102
 -0.96961784 -0.1807223  -0.3511085  -0.35903633  0.32977653  0.7606719
 -0.32291946 -0.85012865 -0.3562704  -0.34747258 -0.38722664  0.2885433
  0.44560888  0.9249414  -0.5798505  -0.5413351 ]
[ 0.10304487  0.01319257 -0.12632711  0.33681113  0.5472368   1.1519103
  0.7932758  -0.4044643  -0.48709178 -0.6794473   0.29856268 -0.62356216
  0.4517548   0.14806262 -0.5535747  -0.331092    0.15665963  0.505435
 -0.37602228 -0.28809595  1.0737071  -0.53739655 -0.56263626  0.25553817
  0.11256198 -0.00796938  0.10781219  0.71890455  0.51796806 -0.30414176
  0.62016654  0.21783863 -0.68884856  0.59802955  0.05674547  0.13316837
  0.08100295  0.35747284 -0.34457463  0.09921591]
[-0.23520768 -0.23570658  0.07145987  0.5036802   0.5938331   0.84721357
  0.6030671   0.13198866 -0.7484629  -0.12125659  0.5257736  -0.43276837
 -0.01051522  0.32956323 -0.3862841   0.17318045  0.71199054  0.56393784
 -0.18535101 -0.14899373  0.81820536 -0.4245237  -0.33739397  0.68526864
 -0.05257325 -0.3994427   0.18439634  0.23749427  0.5376797   0.17562579
  0.00786708  0.01891807 -0.54274     0.29319102  0.29526615  0.3846583
 -0.11158868  0.07572654 -0.18468982 -0.279925  ]
[-0.04509677  0.07701891  0.19142923  0.26702914  0.35182542  0.29113865
 -0.01883307  0.6868359  -0.08939141 -0.34254432  0.00234403  0.04373775
 -0.10586537  0.20680644 -0.31438392 -0.29326218 -0.00912387  0.4613516
  0.11401427  0.10944511  0.20581898  0.21064846  0.7226218  -0.23051654
 -0.0828022  -0.23564781  0.37024885  0.7110744   0.54806185 -0.67702633
 -0.3594749   0.27803397  0.08934346 -0.2493999   0.5886035   0.03901219
 -0.15852344 -0.14552867  0.37683526  0.24326321]
[-0.34464434 -0.13281423 -0.05432662 -0.06910266 -0.270493   -0.2649464
 -0.05564592  0.12122401  0.0663797   0.00373824 -0.03669396  0.4657978
  0.03153722 -0.58758146  0.07746038  0.40661082 -0.21791907 -0.274041
  0.5714837   0.57062864 -0.3541253   0.03610392  0.42238706 -0.04199903
  0.19599156  0.24713954 -0.18215697 -0.38030076 -0.32104024  0.03619185
 -0.16395131  0.50624484  0.31861413  0.04895524 -0.07232282  0.3787156
 -0.30141166 -0.2406852   0.05606181 -0.09572188]
[ 0.2779215  -0.15953077 -0.263605    0.35872385  0.1688965  -0.00206266
 -0.15033284  0.5408026  -0.22870012  0.26002765 -0.1755199   0.0132655
 -0.29441884  0.3290444  -0.2763964   0.27517638 -0.06888421 -0.13434425
  0.64350814  0.15535025  0.17589952 -0.29586744 -0.7963185   0.06670216
 -0.36840993  0.08944945 -0.27827606 -0.32935277 -0.23222663  0.29540944
 -0.1134512  -0.15723184 -0.460922    0.05070981 -0.16287372  0.44960827
 -0.19236577  0.3759136   0.10944922 -0.67110956]
[-0.6742739  -0.10944717 -0.00475676  0.0734166  -0.15803266  0.30003017
  0.2817431   0.06222858  0.39661184 -0.07985101  0.03444002  0.15404789
  0.14697784 -0.11312369  0.08600791 -0.01969078 -0.04768027  0.121434
 -0.42900455  0.5077665   0.20166583  0.02980975  0.653718    0.12689237
  0.1502716   0.11777357 -0.36219764 -0.20836043 -0.32471567 -0.49088973
  0.00919755  0.43806338  0.4575238  -0.15355028 -0.36838847 -0.47651473
  0.39482754 -0.22072682  0.08182591  0.7704847 ]
[-0.42420888 -0.05512454  0.4191986   0.2830147   0.44315556  0.05097232
  0.20795715  0.09482811 -0.04913357 -0.17875355  0.5087471  -0.36645558
 -0.1812797   0.30757964 -0.45775896 -0.03520691  0.39342862  0.41125953
  0.10817995  0.27210352  0.4516746  -0.360523   -0.03615549  0.36749747
  0.31274247 -0.12691621  0.28332976 -0.21079147 -0.091378   -0.3957814
 -0.23737049  0.36149374 -0.11769515  0.17717569  0.32666278  0.41851
 -0.3998146   0.01876803 -0.08783557 -0.31840613]
[ 0.4244623  -0.5943879   0.00203297 -0.10885921 -0.03624585 -0.22990549
  0.19435719  0.25975746  0.1855797   0.1139871   0.01229262  0.29395893
 -0.34919113 -0.27293923  0.49168786  0.14949936 -0.34217304 -0.4503786
  0.60082895  0.44556513  0.2847887  -0.27666965  0.32692188 -0.16224553
  0.20966774 -0.02130237 -0.39658046 -0.22929624  0.08840835 -0.31180403
  0.01527615 -0.07650208 -0.08735224 -0.51749665  0.15538289  0.30650926
 -0.02827433 -0.24442044  0.17874235  0.0696834 ]
[-0.5282437   0.32359597 -0.19536124  0.16341497 -0.08390209 -0.34792897
  0.07712213  0.4494709  -0.10841759 -0.43547937  0.4818494  -0.19632448
  0.44062743 -0.33111718 -0.8449211  -0.49522376  0.13545999  0.47970077
  0.18156424  0.07690039 -0.32934567 -0.2213097  -0.09186851 -0.30544218
  0.46088326 -0.11725049  0.05449938  0.6585153   0.01745411  0.32362187
 -0.3435327   0.39792112 -0.02651758 -0.2720678  -0.22140029  0.4860565
 -0.3869445   0.41087565 -0.07730636 -0.3236208 ]
[-5.74950390e-02 -4.50939596e-01  3.64503473e-01 -4.93179679e-01
 -2.05081895e-01  1.76271126e-01  1.04908764e-01  1.98987886e-01
  4.86360192e-01 -2.32596606e-01 -3.98027450e-01  2.22502232e-01
  1.55505270e-01 -2.94109404e-01  4.57621217e-01  1.81905292e-02
 -2.78951049e-01 -3.90923381e-01 -1.25536650e-01  4.78309393e-01
  1.37505263e-01 -3.23971249e-02  5.41670263e-01  9.81159857e-04
  2.86517106e-02 -5.83431385e-02  2.46988922e-01 -2.46244133e-01
 -3.15506965e-01 -5.91244996e-01  1.76954255e-01  3.09651978e-02
  4.08065081e-01  4.49904166e-02 -3.85825559e-02 -2.33975165e-02
  4.05925885e-02  2.52228510e-03  2.56291823e-05 -1.64024949e-01]
[ 0.3468502   0.69460607  0.20952423 -0.25694934 -0.18319862 -0.16573454
 -0.3881998   0.24836445  0.02273148  0.6366321  -0.02032149 -0.08477949
  0.3493057  -0.0024254   0.11963531 -0.5237207  -0.00236863  0.19743304
  0.38070703 -0.5754595  -0.11991262  0.384474   -0.24936008 -0.29745126
 -0.028632    0.22968653  0.33082917  0.36022523  0.0997287  -0.0583581
 -0.28128532 -0.4200903  -0.21383004 -0.44639993  0.41178787  0.09877645
 -0.35951495 -0.09549867  0.15206422  0.08459128]
[ 0.18911436 -0.05709972 -0.06639186 -0.533945   -0.3864932  -0.62788486
 -0.40294516  0.00413494  0.42424497  0.2993704  -0.16088194  0.47999105
  0.28042316 -0.24799837  0.4249314   0.09405322 -0.42657274 -0.26013765
  0.17389077  0.2138269  -0.69357336  0.46824342  0.20986651 -0.40155846
  0.17393737  0.13927035 -0.03433291 -0.09752662 -0.20583364 -0.02494042
 -0.2706972  -0.18208271  0.55347574 -0.3659841  -0.17531508 -0.0975935
  0.02017973 -0.24743177  0.12894037  0.01767026]
layer 3 Activation
tanh
layer 4 Dense
40 20
[ 0.15296774  0.0948792   0.04408884 -0.06108363 -0.29724064 -0.10899661
 -0.30745223 -0.18681034 -0.6326214  -0.28485036  0.2477131  -0.07811053
  0.50348127 -0.03125491 -0.10461986  0.08692361 -0.74730784 -0.34373182
  0.8212057   0.1312596 ]
[ 0.5386409  -0.14115876  0.5937639  -0.15440828 -0.10146268  0.37437502
  0.38872394 -0.41585708 -0.03724067  0.05537298 -0.34707895 -0.14530656
 -0.2124422  -0.2728447  -0.02281558  0.25168312  0.5900083   0.32322243
 -0.25566134  0.14943375]
[ 0.10816153  0.03775057  0.3062139  -0.03225737  0.27724633  0.3427322
 -0.26522735  0.26119196  0.23332873  0.10102426  0.20796195  0.14925532
  0.12357625 -0.01041535  0.07833254  0.10036325 -0.06022694 -0.16446653
 -0.09210635  0.01399703]
[-0.23947743 -0.09022427  0.07084501  0.66643065 -0.02133667 -0.20642993
  0.07637779 -0.34032437  0.11458296  0.00410438  0.524222   -0.11660907
 -0.20925099  0.11292148  0.32343647 -0.5607405  -0.2027677  -0.01414123
 -0.36299285 -0.34617203]
[ 0.38158688 -0.26750687  0.38020447  0.70530605  0.22851636  0.28263742
 -0.00210564 -0.5988885  -0.20124385  0.17424867  0.42592677  0.11890437
 -0.40472946  0.10034792  0.32173133 -0.25246587  0.37985736 -0.16810617
 -0.39451042  0.03968496]
[ 0.12025966 -0.4866947   0.32801694  0.1798972   0.21436451 -0.09582423
 -0.0753962  -0.29213148 -0.17504635 -0.20049404  0.28582454 -0.30804035
  0.10898346  0.50752753  0.36550358 -0.4504255  -0.02108117 -0.3140495
 -0.13979833 -0.21642563]
[ 0.13209637  0.08659914  0.37329027  0.27036864  0.23619182 -0.25542402
 -0.25025088 -0.30790317 -0.43578288  0.01021304  0.5044133  -0.3098717
 -0.17442311  0.18371928  0.43756908 -0.37142596 -0.18810143 -0.2734643
 -0.17351219 -0.11144149]
[ 0.00679924 -0.2840693   0.24770078  0.19838892  0.08956777  0.39679277
  0.3325219  -0.008492    0.568443    0.24167693 -0.13437076 -0.08915194
 -0.29458684 -0.45132184 -0.34636036 -0.05667631 -0.22451988  0.4405433
 -0.3234725   0.61936665]
[ 0.08977647  0.37432086 -0.7325093  -0.47816318 -0.3350355  -0.07769372
 -0.23605557  0.42512828  0.13849421 -0.05444755  0.00366875 -0.38228056
  0.03469102 -0.07072905 -0.03289635  0.5356831   0.01713521  0.31227595
  0.6297606   0.52067554]
[-0.03312181  0.07208122 -0.08430487 -0.09684396  0.03825005  0.08544362
  0.18639746  0.09984166  0.40145695 -0.06352856 -0.13163851  0.29994556
 -0.31149897 -0.18498307 -0.36662313  0.07133031  0.32621565  0.40784693
  0.40460104  0.40547723]
[ 0.11441971 -0.07582846  0.12109351  0.18702239 -0.13924281 -0.07812006
  0.41076425  0.01901642 -0.21180277 -0.1100181   0.31191677 -0.41552567
 -0.14336295  0.10424062  0.2199883  -0.08865596 -0.02462293  0.02953079
 -0.3352704  -0.20610598]
[-0.17114264 -0.03943839 -0.38856587 -0.58814067 -0.3086026   0.12134781
 -0.08229719  0.4051777  -0.09069704  0.13192803 -0.34479412  0.0590249
  0.30835772  0.02504247  0.2556573   0.4100456  -0.32165137  0.2367458
  0.33083746  0.37691748]
[ 0.16894867 -0.41110286  0.27708444 -0.5774607   0.20960705 -0.01425014
  0.40196168 -0.2046004   0.6092561  -0.15858087 -0.07837162 -0.370838
 -0.25296262 -0.12587869  0.2533136   0.5714877   0.35979876  0.09154326
  0.05004621 -0.29240206]
[-0.06494481 -0.14068429  0.21754508  0.49770218  0.21746676 -0.3023642
 -0.17393714 -0.28569865  0.30868918 -0.22516382 -0.13975078  0.40129802
 -0.29135862  0.16339737 -0.01564385 -0.24122918  0.41700917  0.19439557
 -0.08502015 -0.3901902 ]
[ 0.07346948  0.36704293 -0.26639593 -0.54058456  0.14142159 -0.20512614
 -0.4086139  -0.10845701 -0.34458736 -0.24151109 -0.38811857  0.5314703
  0.833436   -0.18173383 -0.5412237   0.29464304  0.12483425  0.09319431
  0.10144547  0.11482695]
[-0.57943213  0.34101015 -0.2361651  -0.3991419   0.01783574 -0.33119985
 -0.33199817 -0.3384557  -0.2399944   0.74662995  0.2869747   0.17175108
  0.2785098   0.3977166  -0.34307784  0.2074109  -0.01474996 -0.24094161
  0.6421556  -0.11723527]
[-0.21923465 -0.12641223  0.02825262  0.44641668  0.0675624  -0.3540503
  0.27565023 -0.28109616  0.13415997  0.14145893  0.41127494 -0.15914461
 -0.64882976 -0.11768418  0.41651124 -0.19260755  0.20381941 -0.27277648
 -0.5518738  -0.5316085 ]
[ 0.29357263 -0.670123   -0.06056781  0.3563302   0.40791902  0.53033084
  0.30168763 -0.34313667 -0.1388851   0.17566724  0.33104184 -0.1775165
 -0.7713562  -0.2364616   0.30280358 -0.40982857  0.5025222  -0.07340514
 -0.39865366  0.14326954]
[-0.22060375 -0.19111301 -0.05781258 -0.29312056  0.08508855  0.37197834
  0.25923547 -0.3046317   0.09939808  0.6289382  -0.32914594  0.2735711
 -0.03185776 -0.17723979 -0.23130713  0.19033957  0.20849186  0.53154606
 -0.23107728  0.4061831 ]
[-0.23160845  0.39498445 -0.23342855 -0.40537286 -0.1306398   0.24488471
  0.05626618  0.5951602  -0.42321312 -0.11974098  0.22101149 -0.48042977
  0.32104456 -0.2648968   0.4768973   0.28720248 -0.65398145 -0.3740621
  0.32358104  0.18963613]
[-0.14751801 -0.18578966  0.3770469   0.5343459   0.43751353 -0.17774193
 -0.22451687  0.24375528 -0.7737103  -0.48158157  0.23281991 -0.05546668
 -0.24345481 -0.05084322  0.30718848 -0.59395665 -0.49776286 -0.6163974
 -0.0681906  -0.09667086]
[ 0.2983325   0.10785668 -0.26306102 -0.3826973  -0.20241676  0.02196625
  0.01627702 -0.1542861   0.21723251 -0.05024811 -0.4623962   0.2594265
  0.4388023  -0.15878758 -0.42831966  0.42638218  0.13643634  0.2010581
  0.03915534  0.38481456]
[-0.1592911   0.02713879 -0.64256835 -0.22934063 -0.7715724   0.04381048
 -0.2651943   0.72102076  0.01384667 -0.23883544  0.2490386  -0.22579272
 -0.06253852 -0.3861763   0.44562346  0.5544636  -0.26491895 -0.3225437
  0.08082929 -0.18783033]
[-0.43009722 -0.2896631   0.08102985  0.04066308  0.04087989 -0.18692105
  0.16122276  0.09622341  0.01496416  0.17540306  0.42241952  0.11139505
 -0.05926406  0.14727797  0.15864153 -0.3479641  -0.39642623 -0.47533432
 -0.04107941 -0.5055524 ]
[ 0.19192508  0.20578195 -0.22931847  0.0409746  -0.6339536   0.41098675
  0.48656642  0.3581172  -0.16386782  0.01559298  0.40657052 -0.46959084
  0.22211796 -0.19895843  0.29289985  0.181413    0.02881014 -0.24635424
  0.19881883  0.11001672]
[-0.04915629 -0.13640164  0.2566448  -0.15301432  0.0088048  -0.23876329
 -0.08860692 -0.0703223   0.01294229  0.16576304 -0.3872125   0.14613147
  0.06899167 -0.11654605 -0.28007215  0.17741974 -0.26550853 -0.12405998
  0.38988322  0.2315545 ]
[ 0.42762175 -0.16744992 -0.1615626  -0.04576175 -0.19626185  0.37905893
  0.09796318  0.50829375  0.05852652 -0.51519567  0.19674058 -0.16745237
 -0.5598577  -0.3647886   0.07078205 -0.22051907 -0.10534987  0.13629015
 -0.22896905  0.1295243 ]
[ 0.60405004 -0.4075409   0.1726     -0.07832517  0.13949665  0.23573303
  0.42564628  0.12387749 -0.11691836 -0.8471869   0.11186166 -0.49512985
 -0.4380298  -0.15913777  0.17755118  0.04315925 -0.0842972  -0.24857347
 -0.09579353  0.00846957]
[ 0.48093644 -0.32586342  0.25125074  0.08437873  0.39124194  0.04276217
  0.32090017 -0.5215877  -0.3076093  -0.08846653 -0.02870615  0.04000068
 -0.1828792  -0.19236708  0.1590099  -0.18532321  0.03397874  0.11996518
 -0.5083649  -0.2521621 ]
[-0.14091036 -0.16705704  0.09859324 -0.21534975 -0.2953295  -0.5801686
 -0.143962   -0.39775157  0.17513774  0.3628573   0.1412211   0.12805955
  0.00508895  0.07269736 -0.08411954 -0.3624868   0.4246037   0.34541383
 -0.4643228   0.2038492 ]
[ 0.0633326  -0.25138262  0.24544327  0.30738214 -0.30439526 -0.00327286
 -0.14336228 -0.5280475  -0.08553477 -0.11342619  0.29107153  0.34003058
  0.17405555  0.2305181   0.14452544  0.02943743 -0.02298102 -0.41987047
  0.3151158  -0.42840084]
[ 0.03408273  0.09898038 -0.09995581  0.03064433 -0.07033265  0.4525097
  0.64765847 -0.05549974 -0.33819196 -0.41689634  0.23664081 -0.37435153
 -0.20406187  0.28706938  0.62632614 -0.1881703  -0.29538953  0.06640039
  0.2917037  -0.17858775]
[-0.35675374  0.5196199  -0.8524421   0.01999594 -0.67900366 -0.50947094
 -0.17270012  0.20574234  0.40591294 -0.13660175  0.2095524  -0.02713537
 -0.00286351 -0.29013455  0.23091601  0.56614226  0.25257087  0.19911346
  0.25659022 -0.07948291]
[ 0.0138463  -0.02769699  0.2621342   0.11110786 -0.09695846  0.21882169
  0.08158353 -0.3076285  -0.2962823   0.03096736  0.50550187 -0.18307228
 -0.37465042  0.190186    0.04368779 -0.35450375 -0.40092686 -0.21388674
 -0.12789948 -0.43623313]
[ 0.32481116 -0.18362227  0.0822591   0.5942089   0.47345424  0.24111612
  0.01924404  0.3006871  -0.18838412 -0.01523545  0.14105222  0.14696471
 -0.42803726 -0.44723034 -0.10009279 -0.3699694  -0.5528013   0.02344479
 -0.03980913  0.27044716]
[-0.10303322 -0.0217218   0.31481156  0.15589811 -0.17934981  0.26517937
  0.34907964 -0.19709072 -0.7269481   0.6268663   0.34257293 -0.19249547
 -0.278666   -0.1636362  -0.13517722 -0.29406503 -0.75153136 -0.3270967
 -0.32760045  0.32640278]
[ 0.01053376  0.3100617   0.05942244 -0.27433717 -0.35988474 -0.7479292
 -0.45326763 -0.39693126 -0.03019462 -0.1717358   0.20131089  0.28748676
  0.161645   -0.03772497 -0.09190526 -0.04403812  0.67257106 -0.11047734
  0.73874974 -0.19597887]
[ 0.33178833 -0.25069335  0.38036382  0.09021918  0.34802502 -0.02520554
 -0.2627513  -0.5327     -0.15532006 -0.24698696 -0.218095    0.45462477
 -0.06663268  0.40535676 -0.09267422 -0.25396398 -0.01043126 -0.19721036
 -0.2240642   0.12699789]
[ 0.11059345  0.17850444  0.02296585  0.33305258 -0.309309    0.3973929
  0.14198261  0.01719507  0.17636278 -0.23208901  0.01773993 -0.00321084
 -0.08870399 -0.33631563 -0.01381721  0.0245008  -0.2150252   0.20738353
  0.27435675  0.08317601]
[ 0.5909432   0.3456857  -0.33917275  0.20001963 -0.28142703  0.22792083
  0.17355023  0.40182042  0.30656487 -0.5420109   0.42259407 -0.15290165
 -0.02529526 -0.11253306  0.50846565  0.17599766  0.4964931  -0.10392265
  0.23775333 -0.0153502 ]
[-0.01780256  0.22534613 -0.23987839 -0.21192637 -0.244927    0.08620226
 -0.05014133  0.11747108  0.18900156  0.00746423 -0.14996095 -0.00731755
  0.22937813 -0.10232312 -0.10748906  0.3403944   0.10656776  0.21909542
  0.0220944   0.1317794 ]
layer 5 Activation
tanh
layer 6 Dense
20 1
[0.5881855]
[-0.84432876]
[0.5693404]
[0.74320066]
[0.20207015]
[0.19617808]
[0.66097033]
[-0.4534435]
[0.36370552]
[0.6054728]
[-0.8619675]
[0.7685517]
[-0.5089014]
[-0.5716642]
[-0.58016807]
[-1.0440052]
[0.20749676]
[0.9117293]
[-0.41846508]
[0.849366]
[0.33132702]
