layers 7
layer 0 Dense
20 20
[-0.19341645 -0.2660875   0.10065672 -0.02204703 -0.01174994 -0.02764018
  0.03614477 -0.13062716 -0.10425116 -0.0882634   0.2455512   0.06148421
  0.03779806 -0.05741969 -0.09009069  0.2911503   0.23231822  0.23491801
  0.2298523  -0.29344574]
[ 0.45290464  0.45255598 -0.05371195  0.26428112 -0.6179191  -0.4237947
 -0.01925451 -0.34565493  0.69711876  0.0274446   0.1035317  -0.205216
 -0.4156716  -0.18220222  0.02833462 -0.1614095  -0.3504519  -0.04514389
  0.5347828  -0.5839551 ]
[ 0.25579727 -0.06053858  0.14890635 -0.3370623  -0.6206859  -0.14560173
  0.07991026 -0.3043841   0.1735602  -0.2191596   0.06467977 -0.4059622
 -0.06381886  0.10774676 -0.2016658   0.1345975  -0.05233006 -0.43404353
 -0.2030022   0.17246754]
[ 0.09331743 -0.17654158  0.41647708 -0.0659264   0.01378195 -0.08952273
 -0.4137077  -0.03694844 -0.33416215  0.27745593 -0.07620358  0.30533355
  0.25730553 -0.29806277  0.0746173  -0.16677289 -0.35768238  0.09284244
  0.2275656  -0.14293794]
[-0.07934843 -0.08277338 -0.09580233 -0.260806   -0.2615917   0.18844044
 -0.09701011  0.4278679   0.06014069  0.39920485 -0.28367686 -0.06701612
  0.16527592  0.21007432 -0.07725227 -0.06809311 -0.01043996  0.18785697
  0.11768577 -0.1679995 ]
[-0.21179913 -0.45068932 -0.233493    0.00119772  0.6629127   0.22168338
 -0.7433479   0.36880964 -0.11863644  0.07759492  0.10945216 -0.33863705
  0.39998427 -0.13298438  0.39884707  0.3142259   0.41451025  0.4568057
 -0.17244351  0.48268303]
[-0.2967211  -0.4770551  -0.1381525  -0.02289111  0.43501157 -0.06114096
 -0.36348912 -0.27167457 -0.08615093  0.08577016 -0.13862668  0.09116607
  0.22978267 -0.19844332 -0.00869242 -0.14787291  0.41972822  0.1552686
 -0.3282018   0.3625027 ]
[-0.22545807 -0.13114533  0.3036286   0.4137419   0.64476776 -0.11502825
  0.38063437 -0.05898242  0.08493945 -0.06684776 -0.18211484 -0.3928449
 -0.15051788  0.09454864  0.0346324   0.20055532  0.26939926 -0.13748372
 -0.51657724  0.38696036]
[-0.24053364 -0.51619834 -0.6169593  -0.16568299  0.48929137 -0.07170854
 -0.6238082  -0.5604212  -0.63817334  0.14193735 -0.49277973  0.440858
 -0.22440583  0.60160327 -0.66245     0.076399    0.11912286  0.60559785
 -0.01693998  0.6048291 ]
[-6.5319258e-01 -2.2342959e-01  1.7522909e-01 -2.8995204e-01
  4.3967709e-01  2.0350935e-04  2.5654611e-01 -2.3551875e-01
  3.5233381e-01  2.9524142e-01 -4.4377007e-02 -1.1258727e-01
 -5.4789865e-01  7.0488974e-02  9.9896595e-02  9.5570259e-02
 -1.5655994e-01 -4.4446560e-03 -2.5475338e-01  1.4957431e-01]
[ 0.04384426  0.33490273  0.37666297  0.01620261  0.26663357 -0.04601615
 -0.0566508   0.00811119  0.19420834  0.15566133 -0.48566434 -0.19394062
 -0.5279043  -0.05852182 -0.01930317 -0.24401425 -0.17547315  0.07528603
  0.18475614 -0.12059131]
[ 0.04055221 -0.36070293  0.56180173  0.48579237 -0.28920543  0.04535976
  0.25084108  0.15203601  0.8143154   0.20209289  0.14519198 -0.7371164
  0.27152735 -0.37582776 -0.11218954  0.416236   -0.166458   -0.4306808
  0.19741891 -0.2545169 ]
[-0.04613136 -0.29823288 -0.1586021   0.02325835  0.33667046  0.37361452
 -0.04744769  0.49699235  0.31592506  0.3195752  -0.09024356 -0.23681404
 -0.25830525 -0.49042183 -0.21757358  0.14288025 -0.17836252 -0.10163762
 -0.03014538 -0.40331954]
[-0.519451    0.4715812  -0.09621057  0.54034966  0.4018271  -0.7963661
 -0.1203242  -0.64773965  0.54899406  0.37958536  0.3882257  -0.0634877
  0.98015344 -0.36580214  0.51004195 -0.13728997 -0.07991023  0.7152236
  0.50060856  0.1317341 ]
[ 0.33275622 -0.3925471   0.00816324 -0.11090425 -0.3428567   0.01167118
 -0.05898123  0.6527146   0.75055575  0.73302937 -0.36327207  0.7843857
  0.49078232  0.15990564 -0.6404015  -0.02061182  0.48270905  0.2742594
  0.1839038  -0.04797493]
[-0.4541995   0.40334123 -0.4695549  -0.3694128  -0.41220713  0.6539213
 -0.19749251  0.3277396   0.51078063 -0.30728552 -0.5368048  -0.11584286
 -0.591604   -0.65909886 -0.38488296 -0.14715712  0.21716009 -0.38393506
 -0.02736219 -0.23348896]
[-0.22007038 -0.09281954  0.27692005 -0.05973622  0.02041091  0.12906875
  0.4654332   0.33206707  0.54508066  0.20759597  0.24215062 -0.3040343
  0.05279601  0.03508596  0.6809307   0.12145741 -0.3828699  -0.09632771
  0.24130003 -0.20595416]
[ 1.1151386  -0.7189415  -0.07824588 -0.377705   -0.4923429   0.19873531
  0.6726912   0.3452239  -0.4599745  -0.7424278  -0.21426426  0.03555832
 -0.2674017   0.06459827 -0.7801053  -0.41657734 -0.02696276 -0.49446175
 -0.24393246 -0.31238037]
[-0.17747732  0.30776325 -0.2602227  -0.49480948 -0.33593383 -0.07189567
  0.05471176 -0.74589556 -0.69139    -0.31818065  0.64375615 -1.1992158
  0.2582233   0.19525395  0.39602715  0.3214584  -0.3006791  -0.43759233
  0.13359904  0.08396088]
[-0.40113667 -0.67786247 -0.35221362 -0.16257931  0.83326703 -0.8971575
  0.31733525 -0.13363118 -0.73236823 -0.40941465 -0.01833382  0.24891135
 -0.297944   -0.2510667   0.39156148 -0.8357822  -0.101347    0.10196817
 -0.32020935  0.40367666]
[ 0.04483877  0.12383172 -0.040202   -0.00553519 -0.32935053  0.08936823
 -0.16696464  0.00879887 -0.03020083 -0.03732347  0.04810321 -0.04914079
  0.02991122  0.01255198 -0.03020951  0.09687945 -0.01312928  0.03013347
  0.22582173 -0.02879861]
layer 1 Activation
tanh
layer 2 Dense
20 40
[ 0.09660098  0.03767509  0.00444189 -0.27446207  0.27969348 -0.21030253
  0.07797211 -0.2532976   0.05159394 -0.10919573 -0.15010975 -0.02066978
  0.14882822 -0.14885461 -0.10800424 -0.12627867 -0.03281292 -0.13106489
 -0.27538505 -0.24181326 -0.1531948  -0.12072557  0.01909106  0.21808343
  0.1275512   0.39763504  0.09795393  0.09239145 -0.04100298 -0.21718022
 -0.2099589  -0.33712673  0.01297681 -0.06151589 -0.41239965  0.31610408
  0.4086445  -0.16292763 -0.20077465 -0.13815545]
[ 0.08682205  0.13723913  0.03871474  0.09626252 -0.13109659  0.19797921
 -0.21234626 -0.09770661  0.02767887  0.40552828 -0.11700895  0.29405537
 -0.00702884  0.37767002  0.00367125  0.46543223 -0.2055357   0.10700192
  0.06322598  0.04385871  0.26679462  0.00435124  0.16011707 -0.27940124
 -0.23679155 -0.14806806 -0.10157946 -0.33920375  0.09178244 -0.11423788
  0.2455954   0.06179509 -0.29149082  0.04419098  0.33126938 -0.02758202
 -0.45425186  0.06141823 -0.23396781  0.35205394]
[ 0.137927    0.16536978  0.20653155  0.23481789  0.0817549   0.07642667
 -0.02800732 -0.22178417  0.13505347  0.18109234 -0.15084185  0.18926968
  0.24926345  0.02478404  0.14102964 -0.14718756 -0.15973511  0.09813867
 -0.00935793 -0.01066685  0.3138728   0.04980452  0.2116783   0.07783309
 -0.00649012  0.06807079 -0.1518747  -0.2571947   0.23876351  0.23010147
  0.00799689 -0.10704434 -0.27683717  0.19678134 -0.36842075  0.29288226
 -0.18087244 -0.02187706 -0.16697958  0.2861557 ]
[-0.07172165 -0.25868416 -0.12102859  0.0069934  -0.26478624 -0.10057753
 -0.08257998  0.05083247 -0.06046762 -0.072208   -0.10988073 -0.11207124
 -0.14238217  0.30811876 -0.32255682  0.01262483  0.14364296  0.24807134
  0.237494   -0.2645016  -0.08650602  0.12111558  0.43125787 -0.32500917
 -0.01275997 -0.1941837  -0.0814111  -0.24517001 -0.16061702 -0.09187621
 -0.1147966  -0.09267109 -0.20470151  0.25610244  0.02230348  0.10592337
  0.330164    0.2407094  -0.06921009 -0.01547706]
[ 0.04114749 -0.11301162  0.05454801 -0.12477782 -0.27061412 -0.2308546
  0.05338875  0.4903531  -0.34956726 -0.29439765 -0.09837203  0.07666047
 -0.21541381  0.3183484  -0.29648834 -0.01934602 -0.27026042  0.17070101
 -0.2164837   0.22029433 -0.01521796  0.25906715  0.17201474  0.01100747
  0.15648256 -0.22915189 -0.03225531 -0.11442114 -0.12558916 -0.0654572
 -0.01457016 -0.05640064 -0.06169145 -0.29469335  0.20103869  0.13144305
 -0.3028066   0.12393518 -0.06954099 -0.24976952]
[-1.56005651e-01  1.17164932e-01 -2.42207885e-01 -3.72969002e-01
 -2.26383042e-02 -2.72419304e-01  1.02256894e-01 -8.97644982e-02
 -3.38893849e-04  3.14945877e-01  1.06128454e-01 -1.69234008e-01
  4.52345252e-01 -2.11919770e-01 -2.27202907e-01 -1.54647589e-01
  3.41062218e-01 -4.51639354e-01  1.73327297e-01  2.82918572e-01
  3.79075818e-02 -7.08774999e-02 -2.71764249e-01  2.36513928e-01
  7.20740557e-02  2.49125779e-01 -4.73250961e-03 -2.14810744e-01
  8.58212039e-02  2.65993029e-01 -3.61914992e-01 -1.69136003e-01
  1.01956986e-01 -7.22965300e-02 -5.89997396e-02 -2.45272249e-01
  2.45973393e-01 -3.14050853e-01  1.10711075e-01  4.96106356e-01]
[ 0.3595494  -0.09002049  0.21831174 -0.29837972  0.2290659  -0.04971053
 -0.16060427  0.14018711 -0.03202769  0.12778357  0.24837533  0.16174474
  0.23224917  0.05600666  0.21233068 -0.32866466  0.00553452 -0.2092725
 -0.05124972 -0.27362785  0.02713794 -0.10945646  0.16597545  0.5119108
  0.13106647  0.06669439 -0.09950025 -0.0541661  -0.10034416 -0.3565543
  0.11858392 -0.08820361  0.00119451  0.19791144 -0.06124396  0.33605927
  0.13688691  0.41301215  0.09191227  0.03436382]
[ 0.01637177 -0.16066821  0.13971022 -0.03722904  0.26216745  0.02390216
  0.05263106 -0.31805605  0.05172036  0.34174588  0.08515085 -0.6133116
 -0.22196382 -0.17620882  0.1954872  -0.4256341   0.28270307 -0.09068996
 -0.16144454  0.01326451  0.22072999 -0.1141732  -0.11699633  0.20699497
  0.33954924 -0.19722925 -0.03763995  0.0678476   0.19323935  0.22364345
  0.1077011  -0.05479893  0.18401101  0.01996115  0.01502207  0.20966925
  0.1300244   0.29822445 -0.21978511  0.0193565 ]
[-0.36893493  0.10619745  0.27434835  0.12278914 -0.01775565 -0.18548886
  0.08827417 -0.32547146 -0.25360107  0.53314465  0.04474518 -0.5438684
 -0.27826273 -0.21040973  0.13303766 -0.36846852 -0.22607447  0.04233279
  0.12692432 -0.34661058  0.17380433  0.02055959  0.32727587 -0.24269554
  0.32880107  0.28155124  0.03377518 -0.46658733 -0.19639012 -0.22170573
 -0.02100855 -0.29252413 -0.17607051 -0.20832814 -0.3294679   0.04346797
  0.35968584  0.4217058  -0.01081351  0.04039574]
[-0.48407516 -0.33328104 -0.02446994 -0.08291645 -0.20177694  0.09261796
 -0.01565106  0.10088565 -0.60906744  0.5203372  -0.38726965 -0.16046101
 -0.00149752 -0.09615114 -0.08301817  0.22681504 -0.05533175  0.07412586
  0.17822313  0.13509367 -0.2897699  -0.26314193 -0.01126937 -0.44008863
  0.23217562 -0.31478745  0.19633521 -0.25704092  0.12389047  0.2132258
  0.16733882 -0.21150036 -0.06605667  0.05954482  0.09291379 -0.3095461
 -0.17297433  0.35293138  0.12720372 -0.0852337 ]
[-0.16584904  0.02644747 -0.18403758 -0.17628281  0.26652724  0.34515217
 -0.06278901 -0.3443117   0.08902967 -0.01375898 -0.01566589  0.2861165
 -0.3066969   0.33283412 -0.0189402   0.23397    -0.29498804  0.28230175
  0.34664696 -0.01307701  0.40304682  0.11112615  0.07761264 -0.14478947
 -0.18187006  0.06369644  0.16637419  0.08940519 -0.37735543 -0.08343069
  0.35418233  0.2893615  -0.36782956 -0.26476318 -0.12074346 -0.12964362
  0.02957892  0.25567555  0.00161984  0.27819237]
[ 0.32035136  0.03308348  0.0170855  -0.10368441  0.16332191 -0.32297036
 -0.03431809  0.10491833 -0.07809412 -0.2961147  -0.1738902  -0.23081209
  0.31705707  0.04863476 -0.2932584   0.41838652  0.20402579 -0.29958612
  0.03849399 -0.10809965 -0.23945168 -0.08766297 -0.10126003 -0.4193711
  0.12616995 -0.33128586  0.20508568  0.26820529  0.25377905 -0.03270714
  0.32483575 -0.02881003  0.251585   -0.12974347  0.25585428  0.00588643
  0.10013629 -0.331134   -0.25457093 -0.33249378]
[-0.4006004  -0.03207504  0.09892225  0.29941753 -0.2831525   0.25906983
 -0.08838259 -0.17401849 -0.3219631   0.21366076 -0.08118369 -0.33628246
 -0.41238093  0.04690537  0.10933509  0.0264887  -0.13007307  0.356795
  0.12577738  0.25345892  0.39278075 -0.11988909 -0.2171566   0.1189765
  0.03079767 -0.23345529  0.03367297 -0.10123604 -0.07333151  0.22010303
  0.05758834  0.2734258  -0.11734585  0.00460803 -0.1793117  -0.08390183
  0.12177482  0.49649054 -0.2411949  -0.19751707]
[-0.0415108  -0.07271518  0.08762991 -0.03884608  0.09234398 -0.12749523
  0.01039803 -0.02676529 -0.06568118 -0.16061278 -0.161352    0.25185356
 -0.10544272 -0.19215815 -0.02632635 -0.13165265  0.10026743  0.08013318
 -0.06457804  0.03182764 -0.25607607 -0.04829746 -0.29835346 -0.1002563
  0.06877781 -0.25748786  0.02753461  0.2811518  -0.03971062  0.05855573
  0.16844009  0.06007923 -0.04491895 -0.09068225 -0.16265486 -0.01757547
  0.07040909 -0.20885822 -0.02575339 -0.25400606]
[-0.4383921  -0.24737443  0.14449559  0.2716286   0.01114442  0.3864944
  0.23255321 -0.28801808  0.11214205 -0.26403835  0.23773101  0.50470334
 -0.4963639   0.3314497  -0.01706107 -0.00950576 -0.07510782  0.3261538
  0.24716395 -0.03025216  0.11383718  0.04711036 -0.2660745   0.5321156
  0.28610712 -0.16060005  0.13115798  0.08948671 -0.34042025 -0.25358832
  0.3549281   0.35006094 -0.51563805 -0.16561776 -0.22805133 -0.02732535
 -0.09674683  0.04265639  0.1551905   0.2243972 ]
[-0.14582989 -0.06609742  0.19159447  0.07213495  0.1705293  -0.10751174
 -0.14563532  0.0099138  -0.2410842   0.1439192   0.14846328  0.22710775
 -0.05414302 -0.14650781 -0.12738946  0.18334918 -0.24709225 -0.39848202
 -0.19986047 -0.03253159 -0.19130544  0.09996758  0.0999398  -0.05377004
 -0.12322619  0.19475375  0.04534712 -0.24831824  0.13370012 -0.24325423
 -0.00125205 -0.14618213 -0.18554793 -0.00548514  0.05321902 -0.02813423
  0.01252833 -0.10001391  0.2736733   0.15242039]
[ 0.08773136 -0.21262428 -0.2052594  -0.06569963  0.02219399  0.15638979
  0.134229    0.02832654  0.26907185  0.17499125  0.07548033 -0.07826982
 -0.13400438  0.24189955  0.11305664 -0.42435148  0.08361269 -0.05980105
  0.14419115  0.02016211 -0.2742002   0.02522066 -0.00259767 -0.20540759
 -0.19200559 -0.01888889 -0.2608422   0.1024277  -0.08586421 -0.0165007
  0.07534046 -0.32190293  0.06524335 -0.12333858  0.28672865 -0.20160133
  0.1096601  -0.22344787  0.24846849 -0.37011683]
[-0.25565377  0.20351623  0.22239769  0.309981    0.08137884  0.3182573
 -0.03621612  0.03182772 -0.50051796 -0.03122079 -0.3331097  -0.20096298
 -0.10595801  0.01964168 -0.068453    0.17880425 -0.41852298  0.17281581
 -0.01184238  0.05881402 -0.3522635   0.38280442 -0.09629579 -0.6608439
  0.04130517 -0.4677029  -0.09188349 -0.12154628 -0.17040098 -0.00985269
  0.15417565  0.2707514  -0.15962328 -0.19088268  0.34524125  0.24865216
 -0.6038646   0.32795903  0.42339754  0.16303627]
[-0.44612223  0.03069061  0.05332307  0.00260604 -0.09732328 -0.15391965
 -0.00892944 -0.4167953  -0.1814772   0.07524036 -0.21223252  0.08713531
 -0.23528263  0.28508818 -0.01241039  0.0684204   0.03173747  0.16245125
 -0.11474718  0.08857599  0.34516907  0.13540672  0.12739846 -0.25128803
 -0.02525795 -0.01460008 -0.01328955 -0.12774116 -0.09831616  0.10423726
  0.18219131  0.2682048  -0.05163719 -0.27521944  0.04533742  0.15258296
 -0.34622273 -0.18258008 -0.28501084  0.16130847]
[-0.11440381  0.3582761  -0.02984782 -0.02252654  0.20377539  0.191104
 -0.25999826  0.51091206 -0.15526949 -0.3311131  -0.22371262  0.22628894
  0.04510578  0.15573508  0.0967341  -0.08744796 -0.15363625 -0.12329268
 -0.2746798  -0.10049537 -0.15359528 -0.30732816 -0.14026584 -0.32487738
 -0.10834082  0.064333    0.04603354  0.31143567 -0.05728246  0.03108294
  0.08750144  0.06532868 -0.1559939  -0.20029292 -0.05996672  0.02019008
  0.09442677  0.2026835   0.2751944  -0.3754254 ]
[-0.07400534 -0.06193328 -0.06654458  0.05102098  0.00739324  0.0112949
 -0.01855527 -0.21655847  0.00156572  0.00895944 -0.061314    0.2326213
  0.12972642  0.01436235 -0.09022981  0.13887501 -0.00505571  0.00166483
  0.05896568  0.09135219  0.21176074  0.14900105  0.02944476 -0.1842792
 -0.00558307  0.09866571  0.01598361  0.00036123  0.1892619   0.05815795
  0.01749659  0.21640639 -0.03539485 -0.04482209 -0.07378865  0.00719124
  0.00337201 -0.05093886 -0.11044306 -0.11811064]
layer 3 Activation
tanh
layer 4 Dense
40 20
[-0.03322079  0.15991257 -0.02776576 -0.12709053 -0.25337458  0.16925336
  0.20782202  0.29821965  0.35072458  0.26698357 -0.19802429  0.00320342
 -0.21569194  0.04096439  0.01777072 -0.12643564  0.25254896  0.18100013
 -0.16934012 -0.1276858 ]
[ 0.00513008 -0.04682095 -0.05312263  0.021615    0.08477055 -0.0920935
 -0.37048373 -0.17937598  0.13529153 -0.11817917  0.12972245 -0.03313161
  0.25673157  0.18346903  0.16956656  0.24380079 -0.04709304  0.00630999
 -0.15855236  0.03346892]
[-0.03857584 -0.32605886 -0.10950457 -0.14417295  0.04296697 -0.10967002
  0.26551145 -0.02638976 -0.2238049   0.33089343  0.17228532  0.01806143
  0.39230174 -0.04881427  0.05873151  0.0994365  -0.20776796  0.12384615
 -0.06906689 -0.09426975]
[ 0.19151229 -0.22428292  0.3153789   0.30084497 -0.03131089  0.00333863
  0.14653601 -0.17020035 -0.2578848   0.04500389 -0.3276252  -0.32074115
  0.03137664  0.01083366  0.09386745  0.02590705 -0.07098398 -0.20036875
  0.24520646  0.0809757 ]
[-0.09988207  0.18361823 -0.25462887 -0.12439485  0.26392117  0.13845918
 -0.10950863  0.00899275 -0.00964538 -0.17353757 -0.14352706 -0.0606565
 -0.16539222  0.18183628  0.05304536  0.13701564 -0.31935617  0.08191898
  0.02424104  0.27598834]
[ 0.05966977 -0.31197208  0.14840533  0.05536929 -0.07739371 -0.30359307
  0.22231743  0.20632486 -0.05867382 -0.32555756 -0.1508456  -0.16579273
 -0.07190402  0.2473479  -0.29647654 -0.15442435  0.18828289 -0.21946439
 -0.05604082 -0.03770695]
[-0.09378505  0.04451291  0.00428929 -0.03733895  0.17019667  0.10181291
 -0.17232917 -0.14238253 -0.09746438 -0.17029886  0.09976567 -0.2401315
 -0.09891488  0.11980799 -0.19128752  0.06895828 -0.1812998   0.00170481
  0.01142879 -0.03293179]
[ 0.22014275  0.06197695 -0.08444115 -0.25439298 -0.00910577 -0.16748913
  0.08845086 -0.11714017  0.2872337   0.46107414 -0.2698212   0.08897746
 -0.14731182 -0.03606903 -0.04517673 -0.00078763  0.190677   -0.01519041
 -0.22867484  0.23149233]
[-0.3288262   0.1209696  -0.40707746  0.33919573  0.14374089 -0.02372136
  0.0485238   0.04518833  0.2111934   0.04066621  0.08979644 -0.16543707
 -0.2222703  -0.12784599  0.08538538  0.1319008  -0.14485566 -0.05544729
  0.06357478  0.31209245]
[-0.08018928  0.04076048  0.02985672 -0.21969974 -0.23919533  0.2920501
  0.26038042 -0.03867764 -0.32002744  0.25345892 -0.10483749  0.2846765
 -0.06412809 -0.0367968  -0.3200936   0.16579828 -0.01948374 -0.20653751
  0.4215984  -0.00375017]
[-0.23998973  0.1269392  -0.19281082  0.07470669 -0.1629188   0.04787362
  0.25655714 -0.19289774 -0.16645573 -0.03011118  0.02353603  0.3208087
  0.2764383   0.21839216  0.1277369   0.12383842 -0.23677972  0.1111056
 -0.1295234   0.04151599]
[ 0.23992899 -0.0031685  -0.04997406 -0.06390446 -0.12630235 -0.43524632
 -0.18431364  0.14770786  0.28355172  0.0007117  -0.02692511  0.0750461
 -0.36138722 -0.2505294  -0.1790072  -0.33131358  0.19235149 -0.09990544
  0.12346898 -0.1874823 ]
[-0.18728572  0.3000632   0.19920978 -0.42353073  0.08855882  0.01478811
  0.0482762   0.18561636  0.16366968  0.25966942 -0.15643452 -0.19513738
 -0.03440802 -0.00933807 -0.02617365  0.31200373  0.12598188  0.22882535
  0.13545842 -0.28453645]
[ 0.26926282 -0.13358591 -0.12118981 -0.12191876 -0.07725019 -0.28512546
 -0.2915487  -0.2007525  -0.00997461  0.29425853  0.21669403 -0.47022516
  0.2837537   0.00053765  0.14137305  0.14696428  0.2022813  -0.2524573
  0.11730443  0.18074019]
[ 0.22215295 -0.2650628  -0.19760875 -0.06467523  0.33056152 -0.00401261
 -0.03541808 -0.19940561 -0.03202683 -0.06800479 -0.12424842  0.2946746
 -0.01637901  0.03176514  0.26154053  0.17165     0.19226965  0.10428641
 -0.11151811 -0.04261527]
[ 0.03871776  0.35499537  0.29024416 -0.21701436 -0.06076974 -0.2019877
  0.23391439 -0.1489706   0.21539626 -0.28615007  0.17236939 -0.13806151
  0.13576272  0.01204243  0.08599681 -0.09027179  0.2087292   0.07344133
 -0.20776483  0.1373756 ]
[ 0.01551945 -0.11153723  0.02629287  0.0150604   0.09410459  0.28851387
 -0.22883993  0.12502556  0.05784239 -0.08954699  0.20561452  0.00389302
 -0.37062654  0.05162562  0.05853241  0.08649143 -0.00689827  0.30155602
  0.08545461  0.2580016 ]
[ 0.18440078  0.01492667  0.00090307  0.23279783  0.03445262 -0.1048461
  0.03894082 -0.06295969 -0.03750467 -0.06504568 -0.06525257  0.04541755
 -0.15002681  0.31374577 -0.07631536  0.11283772  0.12159806 -0.28223753
  0.01409462 -0.32150716]
[ 0.04582813  0.1906888   0.02117233  0.10244733 -0.12399134 -0.10858571
 -0.19329016 -0.11038947  0.05817873 -0.18926165  0.1681625   0.05686251
  0.13737397  0.2267174  -0.0933447  -0.16064641 -0.2848571  -0.24833749
  0.257389    0.16056563]
[-0.09245837 -0.07937604  0.34313706 -0.2906888  -0.2684973  -0.30341396
 -0.13265347 -0.33030835  0.2725103  -0.19096869  0.20236184 -0.1035982
  0.28399217 -0.07042726  0.02776958 -0.08027253 -0.20700614  0.13031864
  0.10560609  0.2200463 ]
[ 0.14417517 -0.23288307 -0.10757794 -0.09050395 -0.02044743 -0.1883889
 -0.02662868  0.19257264  0.08597335 -0.16022831 -0.26909292 -0.30832413
  0.04926061 -0.1018625   0.12728071  0.01983635 -0.290331   -0.16339211
  0.46490037  0.2660442 ]
[-0.11725848  0.2272996   0.19179831 -0.1978202  -0.2321585   0.01686799
  0.15850216  0.18889536 -0.02055019  0.13629961 -0.00371089 -0.3055451
  0.19888432 -0.1707699   0.16418053 -0.02742097  0.13463525 -0.12435237
 -0.03752642 -0.07835387]
[-0.1090996   0.10206026  0.11764356 -0.21204732  0.09780813 -0.15789989
 -0.05558894 -0.00867788 -0.01927081  0.3417097   0.02712169  0.03364573
  0.220592    0.15844685 -0.1809074   0.375088    0.33659267  0.08605631
 -0.10941148 -0.16122709]
[-0.42294773 -0.09973934 -0.11158931  0.17293216 -0.16741496  0.40330118
 -0.04150509  0.1752087   0.23932658 -0.07223272  0.09338896  0.23344964
  0.1541457  -0.11068086 -0.19881512 -0.06946262 -0.21265754 -0.3676371
  0.08976226  0.04031267]
[-0.13690734 -0.34303907  0.01861633  0.21914563  0.1165917   0.03631184
 -0.10573153  0.1113946  -0.10245453  0.29222032  0.11418264  0.09001639
  0.11015294 -0.05386233 -0.09037398  0.09807853  0.13266669  0.11094757
  0.03118388 -0.17241909]
[-0.21496984  0.16720755 -0.1331574  -0.05760074  0.07763054 -0.07226445
 -0.01779675  0.13555467 -0.0016555  -0.14182803  0.14202565 -0.00137432
 -0.24415031  0.05444254 -0.03511161 -0.16900131 -0.31982535 -0.05961562
  0.21268545 -0.04186912]
[ 0.13878499 -0.09386817 -0.24070051  0.10085215 -0.13929513 -0.01875547
  0.1543362   0.36472797  0.03672549 -0.11676122  0.06770445 -0.15766537
 -0.01209302  0.10105284 -0.18804257 -0.09431823  0.03057485  0.1629933
  0.20941742 -0.0988361 ]
[-0.17602998  0.21457681 -0.21851152  0.1923512  -0.29741508 -0.15970728
  0.28501368 -0.133415    0.18062302 -0.42586702 -0.06158294 -0.15939237
  0.21559508  0.13045593 -0.09387666  0.25510925 -0.1591108   0.22173388
 -0.2978088  -0.2964312 ]
[-0.10269108  0.19069435  0.22838572  0.20859441  0.1449977   0.08801999
 -0.01219685  0.075078   -0.17757638  0.17125632  0.13634172  0.13488115
  0.01296314  0.01745968  0.12559344 -0.2042792   0.12365804  0.3655804
  0.2874984   0.1131568 ]
[ 0.17270294  0.15602005  0.15661697 -0.06609687 -0.0496853   0.31765127
  0.043331    0.02039934 -0.10989629 -0.02735918 -0.06910691 -0.09190318
 -0.12738544  0.19495    -0.05948166  0.32181507 -0.14184585  0.24908653
  0.24224015 -0.15379325]
[ 0.11894017 -0.24243343  0.22955392  0.13798124  0.0049495  -0.17082801
 -0.19700871  0.21128109 -0.25089836  0.03387101 -0.0207135  -0.2889493
 -0.18997934 -0.01439865  0.16861553 -0.09977257  0.10038004 -0.29340777
 -0.00099852 -0.05509012]
[-0.03973576 -0.22293481  0.12084597 -0.1612838  -0.2220572  -0.25608134
  0.14173444  0.03304074  0.26430017  0.10498223 -0.12736726 -0.36959738
  0.31538016 -0.03526495  0.19577825  0.23663886 -0.15492576 -0.00251097
  0.17270926 -0.12438796]
[ 0.02786948  0.07866282  0.07115408 -0.12446516  0.13453686  0.36571133
  0.03020295 -0.17469619  0.29113653 -0.04588693  0.05846177  0.35544318
 -0.27132338  0.01842083 -0.23818746 -0.23756969 -0.07746296  0.28383836
 -0.19913645 -0.285195  ]
[-0.09183608  0.01056779 -0.15643138  0.05199077 -0.19957526  0.0061199
  0.1763362  -0.15707852  0.1222869   0.24412045 -0.06676619  0.16533943
 -0.07558247 -0.00371176  0.05376682 -0.20306525  0.39623663  0.11785334
 -0.04022384  0.10527971]
[-0.23751749 -0.08273981  0.35008675  0.1982698  -0.01366593 -0.16374724
 -0.19927529  0.22194853 -0.02560775  0.04679564 -0.10100157 -0.19353436
  0.32475647  0.24713534 -0.00680336 -0.24347557 -0.1460983   0.10690919
 -0.2960854  -0.3041494 ]
[ 0.04203709  0.09603547 -0.12593542 -0.33372805 -0.20676252  0.29098672
  0.04038271 -0.19282927  0.0544978   0.34209257  0.3114977  -0.10888977
 -0.2363956   0.20551494 -0.13600785  0.02757561  0.41432068  0.10479176
  0.02694302  0.21193446]
[-0.07888421 -0.07051392 -0.27491292  0.05093725 -0.11517145  0.33904454
 -0.3525504  -0.28777847  0.12647836 -0.3034333  -0.09750184  0.14121191
 -0.34129772  0.22427732  0.13759615 -0.15154356 -0.45281395 -0.11365235
  0.2326689   0.01432514]
[ 0.20819405 -0.12937966 -0.07889088 -0.3459921   0.16152689 -0.06991882
 -0.11789688  0.26190606 -0.4308543   0.2139445   0.14700149  0.09127734
  0.2882594   0.15745348 -0.06508968  0.16782233 -0.16872405 -0.27247444
  0.07553671  0.08999158]
[ 0.18292075 -0.11257065 -0.11579775  0.08244063 -0.1118421  -0.00242679
 -0.13314332 -0.22037527 -0.17674689  0.03223585  0.141035   -0.06233259
  0.21033187  0.19537763  0.10578808  0.20210636 -0.19134371 -0.08962926
 -0.3219992  -0.12441486]
[-0.26189724  0.15716025 -0.12253939 -0.26648366  0.07624973  0.17472818
 -0.1340622  -0.25383252 -0.17772852  0.19258882 -0.04807767 -0.26396775
  0.20214476  0.2323368  -0.12367444 -0.11556592 -0.103574   -0.22077073
 -0.15762025  0.12291931]
[-0.00390692  0.0710518   0.05025014 -0.05853068 -0.12888935 -0.10677422
 -0.04118267  0.01257155  0.02958014 -0.07506731 -0.04951693 -0.11346013
 -0.04479356  0.03946428  0.00738478  0.03939918  0.13041453  0.06843722
  0.1558304   0.03136757]
layer 5 Activation
tanh
layer 6 Dense
20 1
[0.14964375]
[0.09802134]
[0.06478956]
[0.02367651]
[0.00276799]
[-0.1601013]
[0.00164869]
[-0.02170572]
[0.08567792]
[0.06030591]
[-0.00893222]
[-0.04103053]
[-0.07804199]
[0.00828017]
[0.02933669]
[-0.02351376]
[-0.04690642]
[0.14405425]
[-0.08819337]
[-0.04530678]
[0.01308386]
