layers 7
layer 0 Dense
20 20
[-0.38482648 -0.16016774 -0.02311616 -0.28509068  0.28337738 -0.36685538
 -0.03314952  0.05260776  0.64452654  0.10248907  0.29696128  0.26644832
  0.40883023  0.08758344  0.13044634  0.27963662  0.37858352  0.19864216
 -0.04658336  0.07733583]
[ 0.35071555 -0.57079583 -0.10186087 -0.22544298  0.14724313 -0.28797948
 -0.0333918   0.67644453 -0.00573054  0.29791367  0.17346114 -0.05288439
  0.0390633   0.5938074  -0.43318272  0.67694837 -0.72034705 -0.1985438
 -0.1568655   0.465886  ]
[ 0.45323643  0.00840672 -0.1131949  -0.19035028 -0.18002795 -0.1298943
 -0.04833384  0.15996787  0.4001118  -0.02875623 -0.29047522  0.3462788
 -0.39462385  0.22408785 -0.5027809   0.5746105  -0.24900803 -0.0575326
  0.357103    0.0849696 ]
[-0.42576402  0.3398608   0.09383313 -0.00600525  0.06960002  0.16273628
 -0.19738299  0.10963416  0.2896465   0.09082934  0.50200427 -0.22990392
 -0.01265097 -0.02538077  0.26028758  0.08534534  0.03520938  0.13507739
  0.23970123 -0.11044028]
[-0.4926737   0.12778112  0.52178466  0.07174245 -0.04006405  0.03161102
  0.205344   -0.0190477   0.319589   -0.04362282 -0.04705542 -0.44437858
 -0.09387366 -0.10901701  0.7184507  -0.15382273  0.4557114  -0.02391264
 -0.05782931  0.28616846]
[-0.08616992  0.64768845  0.49530283  0.45959258 -0.10308237 -0.32160595
  0.43656304 -0.41871288 -0.02745435 -0.07276746  0.29774565 -0.08524985
  0.20295478 -0.44451082  0.23376046 -0.33914712  0.24565943 -0.48236755
 -0.25491813 -0.3934947 ]
[-3.8763967e-01  3.0437797e-01 -1.1402619e-01  4.2446730e-01
  1.7874839e-04  6.9195226e-02 -2.2497943e-02 -1.0370178e-01
 -2.0038144e-01  2.9512542e-01  1.8471802e-02  1.6878141e-01
  7.1540332e-01 -2.7241656e-01  4.9611059e-01 -1.4438824e-01
  2.9231045e-01 -3.0714667e-01  3.0797046e-01 -3.1940439e-01]
[ 0.06189147 -0.33529022 -0.13629928  0.36873496 -0.06328058  0.2638793
  0.24644163 -0.33571216 -0.16036189  0.1086494  -0.61072826 -0.01741348
  0.01872834  0.0510853  -0.26464212  0.26354456 -0.07709598 -0.5549023
  0.26066443 -0.03253026]
[-0.51119244 -0.11452263  0.03231388  0.06694679  0.02586991  0.28914112
  0.13875371 -0.33567205 -0.8517897   0.4522941  -0.24929388  0.11466679
 -0.09755383  0.1686136   0.24564363 -0.31528032  0.23202981 -0.09579001
  0.22845653 -0.24173664]
[-0.18603176  0.4283975  -0.60620266  0.18088613  1.0376673  -0.03901988
 -0.3448911   0.094298   -0.20057628 -0.4828685   0.00237871 -0.08188783
  0.6428794   0.00770498  0.07994658 -0.7993795   0.34472483  0.3968137
  0.55472004  0.09655152]
[-0.6679164  -0.24287541  0.13652197 -0.36526725  0.5251608   0.32943955
  0.58635676  1.2421067   0.12120962  0.28166464 -0.17166421 -0.57682437
 -0.28091     1.0727684  -0.05193691  0.2376767   0.03396869  0.21149969
  0.54469544 -0.5528821 ]
[ 0.14283867  0.12904006  0.12809075 -0.01213739  0.5214243  -0.16177718
  0.20796625 -0.4679087  -0.19644336 -0.39420453 -0.08637847 -0.26729053
 -0.10737211 -0.19116671 -0.23884195 -0.26932743  0.00897439  0.10878056
 -0.07335098 -0.12406158]
[-0.33008444  0.08476047  0.60107356  0.36235026  0.13823462  0.3290641
  0.2867951   0.34097713 -0.28628027  0.4921613   0.29780817  0.3125561
 -0.4041081   0.17856124  0.313673   -0.39417183 -0.17135791 -0.10145575
 -0.29263958 -0.30106252]
[-0.09215466 -0.49824613 -0.0503513   0.23541553 -0.64892316 -1.2566278
  0.00933958  0.03359121  0.48348057  0.27041724  0.4448014   0.48502874
 -1.2235255  -0.10458205 -0.34913638  1.3073548  -0.40212774  0.58325064
 -0.68090165  0.3866931 ]
[ 0.10092592 -0.10330638 -0.15361655  0.54463035 -0.5885494  -0.4252961
 -0.75240934 -0.9371378  -0.5114039   0.7215185   0.37069184  1.2316991
  0.4391114  -0.54437125  0.43610778 -0.08714758 -0.42883843 -0.06217832
 -0.5055153   0.10099033]
[-0.28813595  0.4567624   0.02514615  0.45077017  0.20356098  0.22360781
  0.42895856 -0.48955515  0.02422486  0.10198505 -0.5694344  -0.15110002
 -0.75379366  0.5271949   0.66853404 -0.7495095   0.3478711   0.4166193
  0.10691531 -0.22233915]
[-0.4817942   0.30475962 -0.1740772   0.41471437 -0.19577986 -0.48249698
  0.5513748  -0.05203601  0.36003727  0.59034336 -0.39659545 -0.01313143
  0.98414564  0.02716183  0.9460976   0.29197875  0.0640371   0.08327633
 -0.03957285  0.14991844]
[-0.26906872 -0.06583458 -0.00715581  0.5255649  -0.7572341  -0.02868677
  0.18862587  0.47090906 -0.10696211  0.24411829 -0.45529935 -0.10542478
  0.00959455  0.03042243  0.03547216 -0.0795754   0.04177201 -0.14604393
 -0.40472654 -0.13141762]
[-0.05433164  0.2121322  -0.26259628  0.03566734  0.00787978 -0.1764465
  0.49123436 -0.12674947  0.0540979   0.2527897   0.1403227  -0.21336824
  0.22720021 -0.08690669 -0.12642545  0.42067522  0.1739563   0.0717864
 -0.03309464 -0.04759795]
[ 0.06994265 -0.15744841  0.40678096 -0.00288478 -0.30503955 -0.446368
  0.48379388 -0.15273225 -0.2169641   0.11946515 -0.2702734   0.04684318
  0.14511545 -0.34869376 -0.41723728  0.03090972 -0.26094374 -0.13560607
 -0.39655262 -0.7180087 ]
[ 0.00790903  0.10942616 -0.21957937 -0.08868677  0.18317814  0.06894279
 -0.09241319  0.14536494  0.17605597 -0.11438355  0.20926018 -0.03848416
  0.05379342 -0.0468299  -0.01670923  0.05071055 -0.03793017  0.1251749
  0.03541793  0.24385269]
layer 1 Activation
tanh
layer 2 Dense
20 40
[ 0.45879227 -0.1286883   0.25074515  0.1917761  -0.04013531 -0.30121833
  0.00813754  0.19830646  0.17921625  0.43870237 -0.02813916 -0.55458415
 -0.08643705  0.25329348 -0.11673602 -0.01197916  0.55248445  0.27279344
 -0.21600267  0.17898121 -0.4828692   0.25914305  0.2930535   0.07913165
  0.13542864  0.35504478 -0.22381337  0.05885409  0.06046765  0.04569742
 -0.0469578  -0.41719085 -0.10488411 -0.22301175  0.317986   -0.27546123
 -0.12202431 -0.19176158 -0.14072151 -0.07633185]
[-0.27412573 -0.19671689 -0.19483112  0.48600066  0.30618405  0.09787478
  0.22064896 -0.00482827  0.3423504   0.29448512 -0.2805245  -0.0658208
  0.29951268 -0.38028193 -0.05994705  0.05194348 -0.33559546  0.3801045
 -0.37855     0.040635    0.11940759  0.30257264 -0.18376605  0.24919103
 -0.16241261  0.1669602  -0.13966481 -0.10142262  0.0884373   0.25610098
  0.26730245 -0.03819504 -0.17636378 -0.04078791  0.38670135  0.16846739
  0.08968487  0.26433277 -0.30351853  0.1111074 ]
[ 0.00878116  0.19930092  0.18453622 -0.15223385 -0.20668496 -0.14246984
  0.25410402  0.12599318 -0.08126491 -0.11466099 -0.12632534 -0.22227354
  0.21475641 -0.0159716  -0.08395037  0.10841268  0.16350983 -0.12150965
 -0.11150497  0.15984379 -0.3289866  -0.09978861  0.30840263 -0.02881321
 -0.08576734 -0.22506508  0.32394966  0.02302867  0.2180247   0.2577463
  0.31994745  0.23896313 -0.22742131 -0.2107786   0.07689906  0.26534995
  0.28962138  0.21356362 -0.14892033  0.12623388]
[ 0.32995754  0.0504105  -0.00250062 -0.12525545  0.21676333  0.1160553
 -0.506237    0.1679114  -0.02626869  0.27312306 -0.11255144 -0.15733807
 -0.05198056  0.37915987  0.08384953  0.10195179  0.27382392  0.05785431
  0.16014586 -0.10958189 -0.04045279  0.08334369  0.419937    0.29695296
 -0.44836277  0.18272957  0.1299733  -0.18068644 -0.16581613 -0.05872703
  0.06093006  0.03999321 -0.16496043 -0.00416177 -0.03956536 -0.12779199
 -0.06343033  0.37910268 -0.54939556  0.22000042]
[-1.1996623e-01 -1.4048715e-01 -1.7302373e-01  4.7065026e-01
  3.3520964e-01 -2.1778212e-01  3.1816232e-01  5.4307157e-01
  5.0685394e-01  4.6890080e-01 -5.1351225e-01 -2.2816952e-01
  3.8605222e-01  4.3524951e-02  1.1791571e-01 -9.7207174e-02
  2.9258803e-01  1.8442559e-01 -2.8761244e-01  5.4975283e-01
  6.8887430e-01  3.8922912e-01 -7.2393186e-02  8.5821934e-02
  1.5099888e-01  4.1514463e-03  3.5064012e-01  3.4676615e-02
  5.9380788e-01  2.5920233e-01 -9.5885076e-02  4.8486341e-04
 -2.3217422e-01 -2.3578107e-01 -1.6868246e-01  5.0356913e-01
 -5.7561491e-02  3.5661435e-01 -1.3228832e-01  1.0016863e-02]
[-0.16772093  0.22887516  0.16469842 -0.13250169  0.30703592  0.21878581
  0.45826343  0.5311475   0.06494115  0.43630734 -0.31491628  0.27282342
  0.29464218  0.57922316 -0.27395618 -0.31757325 -0.00107039  0.48089176
  0.34405503  0.24058309  0.52328825  0.09655033 -0.18231289 -0.11826572
 -0.2508154  -0.4241414   0.23673978 -0.08337048  0.7926293   0.51505196
  0.11408436 -0.27487397  0.1415291  -0.12093335  0.08920748 -0.02121042
 -0.23257408  0.36034378  0.03635557  0.21419717]
[ 0.3324904   0.31042933  0.02249836  0.15404573 -0.06546009 -0.4806209
  0.53323054 -0.4986722  -0.06965458  0.01854574 -0.2862991   0.2401468
  0.25505614 -0.0201051   0.22355056  0.24217173 -0.33673277 -0.06499611
  0.16628268 -0.07111455  0.05340191  0.17374867 -0.53923064  0.09389959
  0.05316424 -0.00100006  0.41069847 -0.20063147  0.36123973  0.5668001
 -0.11583038  0.15713795  0.12960525  0.02420629 -0.24456637  0.24035977
  0.48101774  0.43470636 -0.20147772  0.10520116]
[ 0.0644056   0.27396363 -0.44213894 -0.4131269   0.1416491  -0.4281202
  0.7854081   0.54797095  0.40382397  0.14073813 -0.34164956  0.6781987
  0.69133234 -0.46016946 -0.20777696 -0.2993984  -0.22447126  0.28398404
  0.16874322 -0.07655895 -0.12273117 -0.44710225 -0.5602751  -0.6444789
  0.16720146 -0.59612703  0.37544137 -0.15445425  0.7616255   0.32701865
  0.41079158  0.07296847  0.03305631 -0.28530696  0.14472796  0.5168602
  0.20238544  0.32929757  0.25432488  0.1341156 ]
[ 0.0429964   0.54320955  0.08720297  0.0238904  -0.17723925  0.05758584
  0.08537935 -0.1770918   0.3517407  -0.18997659 -0.21660209  0.08463701
  0.6129007  -0.20116359 -0.00595713  0.3894891   0.17640097  0.23031865
 -0.17097814  0.39597836 -0.8665062   0.10157936  0.11998959 -0.10066112
 -0.18188426 -0.15533014  0.06065523  0.12095718  0.13831282  0.45172748
  0.46564323  0.35863146 -0.3785958  -0.23455293 -0.15187396  0.01843564
  0.06359855  0.3889646  -0.3090295   0.04448643]
[-0.16387098 -0.23998405  0.16319479 -0.5244643   0.02597515 -0.09580021
 -0.48598558 -0.24768703  0.0125367  -0.19887315  0.19948483  0.24200974
 -0.4041664  -0.00305397 -0.04343544  0.07220189 -0.48811308  0.03519481
 -0.18724181 -0.1505661  -0.24665765 -0.17110795  0.17910686  0.2384956
  0.2422472  -0.2484365  -0.1053973   0.5165123  -0.3519201  -0.42706248
 -0.24835205  0.10475074  0.0961372   0.1795452   0.11858168 -0.32110313
 -0.13720801  0.1612425  -0.32666266  0.03692412]
[ 0.3336739   0.46521103 -0.14171767  0.00810051  0.10685942 -0.399496
 -0.09963224  0.09769636 -0.01819243 -0.37986505 -0.27416766 -0.28646436
  0.36385682  0.12729079 -0.00628973  0.47703522  0.3339411  -0.15897176
 -0.0187652   0.13637085 -0.37798786  0.18677337  0.284812    0.24889183
 -0.448478    0.29260746 -0.04582868 -0.43730775 -0.18588525 -0.22189957
  0.27239615  0.22633126 -0.53823966  0.04132676 -0.06091725  0.03070397
 -0.23393275  0.01193535 -0.21651092  0.35687616]
[ 0.31977302 -0.01747898  0.02361452 -0.11801221 -0.13283569  0.27009732
 -1.0606962  -0.12163991  0.17633402 -0.298309   -0.27262637 -0.2832989
 -0.06099916  0.23966436  0.34858015  0.29598147  0.38494346  0.12691502
  0.20644338 -0.38303837 -0.14756702  0.24394937  0.8152759   0.48563808
 -0.5257444   0.09687842 -0.06282742 -0.34511718 -0.03612857 -0.22924665
 -0.06277682  0.2461298  -0.08070748 -0.0950034   0.17848514 -0.3258949
 -0.46947703 -0.1422718  -0.24088444  0.10510416]
[ 0.31186247  0.18875103  0.23214895  0.20312217 -0.17477068  0.37894973
  0.0162216   0.30110127  0.54131454 -0.22029825  0.0238087  -0.18214327
 -0.02997759  0.44565693  0.2749072   0.6539048   0.4142718   0.08188179
  0.35352778  0.11453893  0.03840815  0.5023385   0.06799361  0.45611027
 -0.03635235  0.68893754  0.3897484  -0.08505167  0.40562975  0.59214634
  0.5812645  -0.2542105  -0.03257237 -0.25399485 -0.25364104  0.0648232
 -0.09661473 -0.15390424 -0.55438876  0.056103  ]
[-0.17538819  0.10368808  0.05000379  0.02206291  0.1118018  -0.09803343
  0.4482229   0.01189697 -0.0417479   0.23232678 -0.5323295   0.01034513
  0.3751463  -0.05414074 -0.09707996  0.01400114 -0.2125961   0.20835932
  0.72491336 -0.0060106  -0.03470738 -0.0278156  -0.18813138 -0.3243592
 -0.2218461  -0.26187485  0.18344316  0.02401791  0.5502538   0.46700466
  0.23227713  0.00962134 -0.24421768 -0.23926485 -0.2881739   0.4836748
  0.05314277  0.00113164  0.21628046 -0.23137337]
[-0.0927737  -0.07119111  0.03188377  0.39313632  0.32678476 -0.15187201
 -0.26088855 -0.09488437  0.40848652 -0.02554982 -0.03545649  0.03499121
  0.04254302  0.2652174   0.23217462  0.23097311  0.37379265  0.28749698
  0.16225345  0.1674886  -0.12699169  0.29678005  0.10862356  0.07189619
 -0.26589975  0.21006207  0.15485695 -0.37513986  0.23413773 -0.11102828
  0.1923646  -0.17995584 -0.07680348 -0.07714056 -0.11115382  0.29068717
 -0.07600928  0.58993584 -0.3970119   0.03812728]
[ 0.1900484   0.17029953 -0.01519497 -0.1735895   0.09799714 -0.41786274
  0.11515827 -0.18748401 -0.06197286 -0.2633786   0.35313287 -0.05347819
  0.24908821 -0.13614494  0.04684763  0.31450525 -0.00248669 -0.10998687
 -0.13813655  0.22304615 -1.3895596   0.0296966   0.10902788  0.27251688
  0.28452814  0.18239804 -0.2539001   0.02057653 -0.3948511   0.27731404
  0.5872456   0.26350003 -0.22610022 -0.3981557  -0.14105117  0.30733085
  0.17030983 -0.189146    0.06218886 -0.1037785 ]
[-0.12256704  0.23636566  0.00266757  0.5675533   0.32175007 -0.37085056
  0.28920892 -0.33064485  0.378318   -0.12763652 -0.27970418  0.05836579
  0.18233542  0.271875   -0.139465   -0.0438011   0.1001942   0.21513753
 -0.26849023  0.0461092  -0.1895836  -0.06472483  0.06827988  0.11415205
 -0.2696828   0.27957085 -0.15252808 -0.46560135  0.15806656  0.26585114
 -0.04272197 -0.00565614 -0.04818799 -0.31596553  0.18122585 -0.0456535
  0.10756909  0.19875215 -0.2493671  -0.0230298 ]
[ 0.09398123  0.302586    0.22717425 -0.37980324  0.17569521 -0.1149976
 -0.06309738  0.05566543  0.00762806 -0.27360198  0.23354591  0.14176604
 -0.19586763 -0.24347171 -0.31974936 -0.0121575  -0.10711642  0.21473937
  0.13060644 -0.11288772  0.04664049 -0.10994749 -0.34412783 -0.04231634
  0.12009908 -0.45010328  0.03400955  0.26706547 -0.06347327 -0.27982813
 -0.04067506  0.02630039  0.10640519 -0.03421463  0.411607    0.19092734
  0.07627226 -0.01500594  0.43776122  0.01688181]
[ 0.07090643 -0.24994315 -0.01381133  0.3671355  -0.0236947   0.4417784
  0.17527403  0.27188748 -0.20030816 -0.23544224  0.1731091   0.48076555
  0.34129307 -0.19335374  0.08152507 -0.45628884 -0.15960082  0.20733747
  0.06404707  0.03891456  0.76625687  0.06730185 -0.45205384 -0.27674365
 -0.01456774  0.05896471  0.25787625  0.41718516  0.24456023  0.30543226
 -0.1852199   0.1443533   0.02344338  0.02674131  0.04351294 -0.48845944
  0.27556947  0.01586964  0.510191   -0.04739357]
[-0.06094153  0.03748636  0.06581896 -0.09018815  0.03036223 -0.09705412
 -0.2438931   0.37440792 -0.09724258 -0.2687265   0.38502875  0.13117327
 -0.12251382 -0.08735135 -0.10419258  0.16120547 -0.2195204   0.2157263
 -0.20285988 -0.13866875 -0.18100785  0.04535241 -0.07433078 -0.40000027
  0.14154686  0.3424044  -0.2596217   0.09461983 -0.3870364  -0.07691208
 -0.10389915  0.0251096   0.38869053  0.43311223  0.28977177 -0.16476724
 -0.11553814 -0.10188353 -0.1338498   0.04515964]
[ 0.09855726  0.23566598 -0.10977887  0.21576242  0.07349603 -0.17719604
  0.19760755  0.21892911  0.2479908  -0.01715341 -0.11465346 -0.11892477
  0.2390712   0.03109126  0.03316909  0.20618445  0.1837941   0.02326542
 -0.0558799   0.22334497 -0.27042857  0.25980693  0.1238442   0.090588
 -0.19623646  0.07596324 -0.00590775 -0.15399092  0.06683325  0.15947624
  0.35861966  0.11698612 -0.5198254  -0.20794867  0.06742188  0.05178532
  0.0506672   0.02100213 -0.11691263  0.0878813 ]
layer 3 Activation
tanh
layer 4 Dense
40 20
[ 0.26246586 -0.01193406 -0.01264842  0.03406212 -0.14024816 -0.01556728
  0.18177557  0.0079894   0.01512688 -0.30995625 -0.10323567 -0.0750959
 -0.1195911  -0.11898942 -0.04060955  0.04438391 -0.08812459 -0.12107179
 -0.44157195 -0.09599739]
[-0.19074792  0.1338242   0.47085965 -0.08642003 -0.03082728 -0.43523592
  0.49118134 -0.1401582  -0.04481244 -0.22776045 -0.09740159  0.10993343
  0.00222942  0.4842834   0.18500535  0.1007917   0.04854171 -0.10288116
 -0.33542195 -0.03505664]
[ 0.29218587  0.00274611 -0.19816354  0.0158514   0.09717721  0.17444813
 -0.35672677  0.13531266 -0.07660134  0.06710303  0.14832143 -0.01685858
 -0.3790289   0.15514414 -0.23853274 -0.2254358   0.09528659 -0.31356576
  0.31159845 -0.00219637]
[-0.08904529 -0.01526339 -0.12442259  0.02618942 -0.28705505  0.28294948
  0.2835063   0.4347272   0.12514703 -0.33291003 -0.23396781 -0.05141079
  0.19297756 -0.0143618   0.4033731   0.04617292  0.02531305 -0.02812226
 -0.07942525  0.25625736]
[ 0.0594009   0.18346243  0.123155   -0.30452988  0.16243309  0.04481105
  0.3024044  -0.02385904 -0.19652322 -0.09929448  0.17282495  0.15112692
  0.2953378   0.02461886  0.38944188  0.19193782  0.07283858  0.17435648
  0.11416674  0.20347822]
[ 0.07941804 -0.03649206  0.16970773  0.15016083  0.2761365   0.23985057
 -0.22348477  0.28927124  0.17412835  0.35723704  0.13836233 -0.32646903
  0.018106    0.1434639  -0.32537135  0.137217    0.06207245  0.19411312
 -0.34598032  0.2585159 ]
[-0.23411034 -0.19623123 -0.25686273 -0.23119546 -0.10003407  0.3719939
 -0.04091591 -0.17453115  0.28170538  0.34750938 -0.22819416 -0.12001572
 -0.03091465  0.02749655  0.10016083 -0.29544464  0.28203085 -0.3753702
  0.07516299  0.20136547]
[ 0.07276984 -0.32472184 -0.02167205  0.09377313  0.15363032  0.4726514
  0.01832672 -0.2549712   0.03344383 -0.3114407  -0.1730363   0.33368355
 -0.17467843 -0.24941769 -0.1525901  -0.1264297  -0.14087112  0.13859037
 -0.10265353  0.3835265 ]
[ 0.29501915 -0.26092395  0.07847704  0.4368095  -0.167352    0.4435877
  0.03653316  0.13866903  0.20857248 -0.12424573 -0.01803502  0.01939117
  0.05082272 -0.12340084 -0.19234517 -0.02611244  0.3880914  -0.18506636
 -0.14598788  0.15521458]
[-0.3403308   0.00290543 -0.2470613  -0.09072538  0.18867749 -0.06313054
 -0.2769895   0.10890049  0.21226884 -0.11278051 -0.02266471  0.24918571
  0.09338734  0.11340033  0.329114    0.03367503  0.06086538  0.3426815
 -0.23446727  0.15658236]
[ 0.21630658  0.36284012  0.37610292 -0.299406   -0.10968597 -0.30511117
 -0.06247972 -0.20436151 -0.35019135  0.02486739 -0.27331677  0.22821435
  0.32015243 -0.19630371 -0.30701017  0.42017263 -0.34664896  0.29417714
  0.0838774  -0.16939047]
[-0.25724527 -0.34324148 -0.24792202 -0.07126383  0.13947079 -0.14259431
 -0.14610186 -0.02500496  0.19798811  0.3973865  -0.1929226  -0.08705083
 -0.41563484 -0.29926842  0.18692924 -0.24733423  0.2547335  -0.40485123
 -0.0775237   0.1482258 ]
[-0.2883526   0.18140984 -0.04071693  0.10204759  0.3071223   0.04138632
  0.33159885 -0.5131569   0.36415765  0.23488319 -0.02254852  0.09016956
 -0.29837874  0.21731505  0.01495146 -0.3124042   0.29006124 -0.40115067
  0.20957561  0.39184183]
[ 1.3156207e-01  1.0656822e-01 -4.5407960e-01  4.3377367e-01
  8.7369017e-02  3.5726998e-02 -5.0169840e-02  8.8479593e-02
 -2.8787188e-02  9.0101562e-02  2.1540041e-01  2.3089851e-01
  1.4123681e-04 -1.5138467e-01  5.8014687e-02 -2.4811226e-01
  1.6816236e-01  1.8054329e-01  3.5967276e-01  2.0190965e-01]
[ 0.13240652  0.37530965 -0.02499653  0.16509369 -0.28988233  0.2174532
 -0.22822627  0.17517507  0.0801957  -0.05741606 -0.30726677  0.1297256
  0.12004913  0.1570317   0.04945605  0.03375357  0.26225507 -0.01721503
  0.0272803  -0.11728784]
[ 0.42458653 -0.18467282 -0.01025584  0.46122333  0.18078353  0.1940019
  0.1378324  -0.16038984  0.23603463 -0.00115911 -0.04699078 -0.05248787
 -0.04695292 -0.08449566  0.02426059 -0.12176201 -0.14236377 -0.37158173
  0.06597293  0.07676616]
[ 0.46101332 -0.15861788  0.15550505  0.45687062  0.10473078  0.49733424
 -0.11967112 -0.04151291  0.39696157 -0.3811972  -0.23366128 -0.03633966
 -0.4298691   0.10386465 -0.02182599 -0.32421213 -0.11812908 -0.25822347
 -0.10875991  0.10484313]
[-0.12924033 -0.29047862  0.37932137 -0.04651245  0.14928627 -0.07908186
  0.16628909  0.27081212 -0.33100337 -0.17921264 -0.07293493 -0.16539755
  0.0621183  -0.36847922  0.1770661   0.53004783 -0.13992175  0.00095327
 -0.01204233  0.01255512]
[ 0.09970762 -0.33904    -0.3117877   0.24043483  0.17245823 -0.01449713
 -0.3943019  -0.162918    0.2935259   0.11763712 -0.01495381 -0.14521419
 -0.23940496  0.1676012  -0.00282491 -0.26390144  0.17195192 -0.22702885
  0.36113015 -0.05011309]
[-3.1733316e-01  7.3684230e-02  4.1951501e-01 -9.7171934e-03
 -1.6799850e-02  2.2801878e-01  4.4113475e-01  1.3225424e-01
 -8.2850412e-02 -1.5211485e-01  1.9105195e-01 -2.5970498e-02
  1.9481214e-02  1.0372474e-01  3.2689741e-01 -2.9426088e-04
 -7.2743627e-03 -2.1690936e-01 -3.1206671e-02  2.2428589e-01]
[-0.46693105  0.37794217 -0.00554629 -0.01135262 -0.25119197 -0.24703783
 -0.2777197   0.8329689   0.02923676  0.14822304 -0.02459527 -0.16283591
  0.04205566  0.33650523  0.5119372  -0.05417135 -0.19700772  0.06643237
 -0.0550293  -0.21672049]
[ 0.1525784  -0.04841767  0.15715896  0.35250187  0.40454352  0.3808488
  0.24194033  0.24382372  0.02241211 -0.16324922  0.25936848  0.18215957
  0.09772806  0.2522165  -0.03978642 -0.10018808  0.29597124  0.12160002
  0.35497367  0.1345066 ]
[ 0.3581391   0.4592339  -0.09766953  0.48643252  0.12656173 -0.02309883
 -0.06791044  0.1475288   0.36262062  0.24089152  0.13124576  0.16694723
  0.07439637 -0.04858017 -0.31411952 -0.14882492 -0.15099952 -0.06557093
  0.39266276  0.04380854]
[ 0.1064169   0.19586916  0.182758   -0.00108047  0.23362152 -0.23245627
  0.28396255  0.05587092 -0.22034152 -0.28083736 -0.02801609 -0.10766729
  0.13906473 -0.07180587 -0.31014332  0.23625769  0.02087433  0.25836
  0.11869825 -0.36110887]
[ 0.23481849 -0.34689006 -0.25823247 -0.06904973 -0.16586033 -0.15247989
 -0.40098372 -0.31278887  0.26383072 -0.05368683  0.2121009  -0.17481618
 -0.07990255 -0.23723456  0.00040167  0.13153815  0.14382546  0.05745101
 -0.19094418  0.17424695]
[-0.15607603  0.10562292  0.12934697  0.17678319 -0.1420597   0.05274876
  0.02190449  0.03974398 -0.21990278 -0.04750834 -0.05984795 -0.0340944
 -0.03138928 -0.1829381   0.01298598  0.34309897 -0.39424866  0.25342706
 -0.3637489  -0.04709533]
[-0.03664384 -0.25896177  0.32288483 -0.24437188  0.18597002  0.26095644
  0.05439448  0.2172494  -0.2075884  -0.2693698  -0.06425738  0.06734072
 -0.22381093 -0.10295057  0.15057671  0.09133596  0.2986606   0.26336595
 -0.32621154 -0.06993776]
[ 0.28731495 -0.01804177 -0.15115643 -0.12307987  0.12029302  0.13128078
 -0.04491558 -0.2206147   0.3023669   0.04204098  0.19993134 -0.24895616
 -0.23602177  0.08913483 -0.06573152 -0.16620734  0.3096761  -0.00150019
  0.12526199  0.1361714 ]
[-0.24702565 -0.4107455   0.15259036  0.41247144  0.44081572  0.38557684
 -0.3928712  -0.00150491  0.1761654   0.07316832 -0.02123219 -0.24664308
 -0.51511925 -0.3042241   0.2062306  -0.3692946   0.34632373  0.14076948
 -0.07352621  0.27209434]
[-0.04074759 -0.17244035 -0.1773875   0.17074858  0.31056237  0.28214175
 -0.18418406 -0.5810899   0.24961399  0.01811285  0.05060436 -0.10731424
 -0.0859776  -0.047668    0.23366874 -0.30437064  0.59479237 -0.33804834
  0.25397256  0.23065735]
[ 0.06656803 -0.08790904  0.10407713  0.3883318  -0.12442371  0.16707452
  0.36253363 -0.30343243  0.3151394  -0.27285177  0.12679423 -0.05793573
 -0.11429382  0.01727664 -0.05386942 -0.27855104  0.11367355 -0.5387797
  0.2306153   0.14847471]
[-0.09223299  0.24236502  0.08212918  0.00441574  0.01916934  0.02909295
  0.00734509 -0.29613394  0.32667795  0.04823786 -0.05412201 -0.00975103
 -0.42767033  0.26124606 -0.21920437 -0.4351919   0.12478813 -0.15162651
  0.26299414  0.1177521 ]
[ 0.02269064 -0.02032615  0.11073873 -0.05179266  0.2939521  -0.27019125
 -0.5710369   0.2833093   0.04259724  0.51002544  0.01300124  0.12622306
  0.19280073 -0.13567999  0.3136769   0.2845977  -0.12946057  0.18616986
  0.01275476 -0.02169327]
[ 0.09544583  0.25581715 -0.2132018  -0.23843561 -0.06426734 -0.14997584
 -0.2457559   0.03439543  0.11575608  0.302388   -0.01510521  0.21100852
  0.09040304 -0.3380002   0.06209778  0.25568247 -0.18782362  0.3225668
  0.04035148  0.16107935]
[-0.05488386 -0.03073869  0.45166782  0.02584619  0.00203604 -0.056049
  0.19443347  0.10773677 -0.51893693 -0.25435072  0.22109248  0.05181419
  0.2880829   0.00869464  0.05337372  0.59751344 -0.43714118  0.18243022
 -0.10607798  0.08897631]
[-0.25810373 -0.07115437 -0.01931117 -0.18157351 -0.1708167   0.17415833
 -0.08153812  0.09321925 -0.07281645  0.1246239  -0.08622613  0.05827456
 -0.10772618 -0.05677574  0.21016741 -0.09611962 -0.0044042  -0.48023787
  0.35102952 -0.11007141]
[-0.248222    0.023354   -0.04712781 -0.135942    0.12138477 -0.35423774
  0.18440947 -0.08910473 -0.19158252 -0.20233963  0.11199898 -0.13618962
  0.2850503   0.17805907  0.2271991   0.47908974  0.17873162  0.04235119
 -0.17745474 -0.3414807 ]
[-0.43504092  0.17585628  0.19370404 -0.06895841  0.06475844  0.00663355
 -0.1734592  -0.00519092 -0.4357446  -0.19196954 -0.02595376 -0.05907857
  0.28428906  0.207169    0.46578288  0.35046157  0.16233476  0.00728763
 -0.28330222 -0.21221337]
[-0.3512346  -0.46480674 -0.05789416 -0.3157112  -0.16385514 -0.33170062
  0.30916187  0.0287373  -0.29288277 -0.08352032  0.1131968  -0.0049679
  0.42898205  0.01006341  0.07459469  0.4269955  -0.24764833  0.16457614
 -0.3760833  -0.03629168]
[-0.14100806 -0.02987512  0.5189745   0.04100127  0.27903575  0.01189689
  0.37818316  0.3523837  -0.5389144  -0.2963302  -0.07094982  0.19247243
  0.2391427  -0.43223178  0.18353353  0.35993534 -0.11891457  0.10708004
 -0.23471841 -0.19230607]
[ 0.15433957 -0.03573322  0.00414848  0.21569248  0.05323653  0.2415371
  0.1809208  -0.20143001  0.08833887 -0.07493962  0.0159271   0.03350411
 -0.0749126  -0.05541277 -0.16107316 -0.10145181  0.1908296  -0.15773524
  0.15705083  0.12137789]
layer 5 Activation
tanh
layer 6 Dense
20 1
[0.2610788]
[-0.13685815]
[0.14236782]
[0.16794884]
[0.00683133]
[0.1491246]
[-0.36892846]
[-0.22068724]
[-0.02051304]
[0.2620369]
[-0.02585295]
[0.00493857]
[0.03714091]
[-0.01236173]
[-0.15248844]
[0.08583979]
[0.2503062]
[-0.09699984]
[-0.00729936]
[0.09651383]
[0.20436178]
