layers 7
layer 0 Dense
20 20
[-0.13511583  0.4259374   0.25732931  0.03514744  0.25246826 -0.26838765
 -0.09748846  0.41957864  0.13633072 -0.07578161 -0.2111904  -0.09384988
 -0.2804166  -0.10570794 -0.07132169 -0.04255151 -0.19397803  0.22379363
 -0.37027866 -0.02814901]
[-0.11201359 -0.3750844  -0.38570294  0.2057265  -0.2574893  -0.18871513
  0.4077114   0.12940884 -0.02506894 -0.04773639 -0.28059748  0.20799941
 -0.3303462  -0.30634832 -0.12459854  0.25309536 -0.02437734 -0.29533088
 -0.13869491 -0.29852453]
[ 0.00419553  0.05678952  0.03318395 -0.27841035 -0.11617217  0.25030476
 -0.18240091 -0.20884427 -0.10971921 -0.13560782  0.27521935 -0.11831645
 -0.2627427   0.15781103 -0.21567307 -0.26918146  0.00822771 -0.19796382
 -0.18420167 -0.28070635]
[-0.18282545 -0.32890615 -0.28715083 -0.33641344  0.24071813 -0.17389518
 -0.37113708 -0.2237854   0.31614834 -0.04261114 -0.1885194   0.18409818
  0.03957532  0.3574857  -0.19839899 -0.03341819 -0.18398194  0.05995469
 -0.18953617  0.22822903]
[ 0.12696317  0.01704912 -0.09795409  0.20288391  0.18938668  0.21088785
 -0.03292368 -0.21757504 -0.1803672  -0.26713443  0.12339446  0.05054535
  0.46040162 -0.01626705  0.04088847 -0.16818264  0.07894756 -0.21058661
 -0.25621817 -0.12498827]
[ 0.11405377  0.26821584  0.02732796  0.13565737  0.1328932   0.17796889
 -0.23789686  0.11457231  0.089954    0.06019702  0.35866657  0.3188344
 -0.17838104  0.24166998  0.26501745  0.23470603  0.25683388 -0.3924682
  0.00396909  0.3755826 ]
[ 0.254879   -0.32495332 -0.04950196  0.32194152 -0.29813007 -0.17373766
 -0.15821481  0.21822639 -0.12655579 -0.20192428  0.0926299  -0.32337233
  0.22748448  0.04267092 -0.07899597  0.31650254  0.28690207  0.1042829
 -0.3231231  -0.09605376]
[ 0.12961094  0.31850097 -0.17018107 -0.02042934  0.07557023 -0.0173049
 -0.08691287  0.21171309  0.10001349  0.15141548 -0.19346997  0.1454883
 -0.08183533  0.11526649 -0.19715121 -0.24499567 -0.06556304  0.06244773
 -0.05974736 -0.31467757]
[ 0.05629334 -0.25620776  0.20934255 -0.06328145 -0.3088099   0.10913604
  0.29669335 -0.4730183   0.08500686 -0.08690581  0.05276221 -0.27020162
 -0.08938025 -0.28493005  0.16919047  0.17505895 -0.20256238 -0.00471921
 -0.34197322 -0.38573214]
[ 0.22718278 -0.32449216  0.07084851 -0.12848996  0.11481429  0.1719268
 -0.1352945  -0.18755685 -0.03433185 -0.256957   -0.01968631  0.3104246
  0.1835266  -0.2512986  -0.17846158  0.19729997  0.22905132 -0.10371097
  0.3073311   0.30806687]
[-0.29814717  0.08054049  0.06648566 -0.01825526  0.02948853  0.27242976
  0.28291482 -0.24519132  0.07726689 -0.2905818   0.01769729 -0.11129875
  0.32009685 -0.21207787  0.29959753 -0.27387908 -0.24974057 -0.3280454
  0.06012891 -0.11366592]
[-0.2876295   0.20966431 -0.47391716  0.11058056 -0.16485311 -0.04834653
  0.01892051  0.06265099 -0.47300664  0.38807604 -0.14927307 -0.15717973
  0.11715239  0.09428345  0.07393416  0.33719468  0.12729906 -0.06436248
  0.2662938   0.13158457]
[ 0.13316031 -0.07036097 -0.20253538  0.13784161  0.2731213  -0.43538007
  0.2539082  -0.02253483  0.2707083  -0.15895434 -0.14324743 -0.4735986
  0.02002699 -0.08484416 -0.13504936 -0.18258369 -0.2778943   0.17245421
 -0.15066479  0.35356927]
[-0.20899361 -0.07136519 -0.46047407  0.54857767 -0.5732719  -0.3802887
  0.74967355  0.25092512 -0.26587248  0.4224768   0.41358668  0.01866869
  0.12044144  0.6684973   0.14740051  0.31597552  0.0546639  -0.14560822
 -0.57622576  0.13274717]
[ 7.3748105e-04 -3.5528061e-01 -2.6564521e-01 -3.0680684e-02
  2.7288640e-01  2.8353760e-01 -3.6318749e-01  3.4375378e-01
 -5.3952682e-01  6.3986951e-01  2.0049657e-01 -3.2128355e-01
 -3.6586776e-01  1.1692535e-01 -2.6442212e-01  7.7990603e-01
  3.4282374e-01  3.5811955e-01  7.5779028e-02  8.6380899e-02]
[ 0.1416113   0.4228193   0.1530722   0.38932228 -0.6707556   0.47319618
 -0.649403   -0.21813577  0.8836095  -0.53118753  0.637908    0.1591903
 -0.43171257  0.506345    0.03215184  0.12870944 -0.18642761 -0.3509903
  0.5617268  -0.28265214]
[-0.26544625  0.23948543  0.18678306 -0.14907053  0.20112948 -0.06310885
 -0.13950494  0.17489228 -0.01002174  0.33291066  0.07955874  0.34271026
 -0.0781368   0.1444419  -0.2075959  -0.00886459 -0.21801524 -0.3837936
 -0.06895446  0.10720433]
[-0.32183996 -0.08151471  0.2926933  -0.40451232 -0.04838295  0.350137
 -0.47734243  0.15834397 -0.00937989 -0.04915405 -0.4502803   0.23887917
  0.28501043 -0.41074646 -0.56044394  0.09125111  0.2646806   0.2160961
  0.38355982 -0.30091274]
[-0.07577844  0.16185924 -0.07271638 -0.11181523  0.01068165  0.4246112
  0.09734786 -0.02353926  0.3738339  -0.29998273 -0.4948449  -0.22356886
  0.18234888 -0.22656202  0.25972843 -0.31269485 -0.36808226  0.12771988
  0.06683446 -0.17439872]
[-0.24830559  0.03178794 -0.3568772  -0.22990459  0.44486094  0.04159455
  0.2082101   0.2576182  -0.4322483  -0.25559682 -0.25444648  0.40318957
 -0.162345   -0.24672711  0.11103786 -0.3405105   0.40113735 -0.28537452
 -0.43976742  0.43812513]
[ 0.02661369  0.03492042 -0.06249329 -0.0436202   0.03460279 -0.10145313
  0.03884718  0.03880285 -0.06237101  0.00660626  0.04899659 -0.0442456
 -0.03251623 -0.05715091 -0.03941036 -0.02877131 -0.02207906 -0.10380387
 -0.03160787 -0.00276246]
layer 1 Activation
tanh
layer 2 Dense
20 40
[ 0.29724586  0.082776   -0.07931385  0.08029156  0.01028064  0.18588376
 -0.14981183 -0.30600902 -0.06751052 -0.19781414 -0.2079746   0.07996411
  0.226898    0.20956194 -0.27844742  0.1886406  -0.082474    0.1451784
 -0.12771888  0.24293083 -0.19288369 -0.08843766  0.05213716 -0.00745446
 -0.3890186  -0.0799854   0.01036709  0.12961604  0.30337033  0.1037545
  0.28836778  0.29733583  0.01683164  0.2711932  -0.14797986  0.20275508
  0.07744048 -0.07496022  0.15479986 -0.0689147 ]
[ 0.09409705 -0.14318053  0.19297922  0.05752034 -0.28665155  0.15853484
  0.10281985  0.32466847  0.00087172  0.09790355 -0.26265046  0.09725681
 -0.05375354  0.03640454  0.06165169 -0.24375258 -0.07138363  0.01678751
  0.07685693  0.11941635 -0.11450237 -0.0974761   0.3028244  -0.17858337
  0.13834536  0.24669608  0.24046992 -0.02551701  0.04642659 -0.27114895
  0.0806478   0.24166436  0.11331955  0.2226485   0.06120617  0.2044764
  0.18587841  0.19375424 -0.0525059   0.18419662]
[-0.20242205 -0.32343742 -0.06386468 -0.44996673  0.11918735  0.11857558
 -0.05926948  0.09270359 -0.09784772 -0.13792875 -0.12416758  0.07757808
  0.22828344  0.12812442 -0.0170037  -0.29596984  0.16186385  0.23641856
 -0.23554148 -0.21568033  0.15601072  0.00840972 -0.23437592  0.12272251
 -0.1686488  -0.20420103 -0.20719992  0.07967997  0.13367856 -0.06146602
  0.15697259 -0.01694626  0.26754126  0.054204   -0.24749374 -0.12354502
  0.1409374   0.3048902  -0.20477495  0.20183484]
[ 0.1977796  -0.09270258  0.06063198  0.09667541 -0.27801046 -0.20481431
 -0.04816486  0.13573319  0.12239058 -0.1534709   0.25055593 -0.19409995
 -0.18327866  0.32972234  0.08194501  0.23575805  0.08520331  0.30058426
 -0.22796163 -0.000733   -0.23177734  0.04736582 -0.07481326  0.17125958
  0.06891653  0.15832564 -0.12994142 -0.21872212 -0.02529975 -0.11607917
  0.07245716  0.24083978 -0.07183026 -0.24966371  0.01076673  0.1606716
  0.27529636 -0.13981415  0.19120377  0.07059243]
[-0.20649686 -0.17422041 -0.01780517 -0.16047595 -0.22933947  0.04420152
  0.35695183  0.2049849   0.14857672  0.25388402 -0.30527115  0.11081693
  0.15599838 -0.25689664 -0.02471762  0.14603996  0.130475   -0.002095
  0.10953056  0.16975087  0.3031142  -0.03153069 -0.14242935 -0.09892718
 -0.38482884 -0.12385715  0.17116351  0.1476411  -0.01093316 -0.01416399
  0.10082421  0.08008126 -0.15949701 -0.14139575 -0.04050079  0.16312625
 -0.3504804  -0.27431294 -0.33625823 -0.26553294]
[-0.06190973  0.1801004  -0.08493228 -0.17225382  0.03902819 -0.00679724
 -0.2511964   0.18094802  0.05938018 -0.24554186 -0.14442997 -0.18145382
  0.16197444  0.05992925 -0.11331516 -0.26668814 -0.30989808  0.05449948
  0.04760579  0.02176119  0.4004023   0.15503767  0.21206823 -0.10999904
 -0.29153052 -0.04132502  0.08988821  0.00333876  0.18925406  0.11690655
 -0.18752262 -0.24591216 -0.14173143  0.04283412  0.07470226 -0.02449679
  0.04167187 -0.01873409 -0.29133677  0.13810477]
[ 0.12113015  0.3648564  -0.03931481 -0.3414586  -0.11329389  0.19148082
  0.2620263  -0.39690635 -0.39064163  0.12676327 -0.24262749 -0.16724677
  0.09119999  0.1374075   0.3936594  -0.10771777  0.36348784 -0.29250166
 -0.10002306 -0.06063481 -0.10130184 -0.03934472 -0.17036203 -0.21394552
 -0.00439302  0.12329622  0.3143258  -0.16286895  0.05872821 -0.2521742
  0.34437865 -0.01183677 -0.17370659  0.00905428  0.17981678 -0.19069205
 -0.16917449 -0.314782    0.05127221 -0.33409753]
[-0.21610795  0.26357913  0.2615398  -0.14481717 -0.1476095  -0.13676223
  0.3265911  -0.10452041  0.3179444   0.01070128  0.20503035  0.07609019
 -0.04455249 -0.42012656 -0.07562573  0.30023336  0.15462476 -0.35532627
  0.21365085  0.21163209  0.16911405  0.26348296 -0.20528121  0.11475717
 -0.13593794  0.03360898  0.1688176  -0.12664989 -0.10708025 -0.1998117
  0.09972668 -0.03270666  0.00429639 -0.21720208 -0.29571936  0.21879211
 -0.13721369 -0.04442387 -0.00975748 -0.44173843]
[-0.03608375  0.11359763  0.11168287 -0.0680006   0.26120767  0.21249263
 -0.26673326 -0.14708163  0.06348335  0.08444684  0.08639431  0.24429743
  0.25128195  0.36957848  0.01088835 -0.30381936 -0.28388724  0.30099374
 -0.16485517 -0.12695491  0.0297492  -0.12680966  0.30188888  0.13783845
 -0.26124865 -0.2026403   0.2153415  -0.12303096 -0.24564002 -0.15948229
 -0.12306499  0.2204357   0.06559079 -0.30496538  0.18042132  0.11466305
  0.1000419   0.26501003  0.12408999  0.01286408]
[ 0.1309467  -0.1643681   0.06458724 -0.23196691 -0.04875528 -0.13153332
  0.0066474   0.18163164 -0.16562803  0.0809052   0.06292863 -0.32053763
 -0.02140684 -0.19759347  0.16106768  0.18612601  0.12072597 -0.12656678
  0.30392608 -0.22703035  0.13227403 -0.17279598 -0.19523972  0.14001673
 -0.20599891 -0.24061248 -0.13372304 -0.05748862  0.24076551  0.02313026
 -0.09232558 -0.22408491 -0.05498478 -0.24319193  0.22665228  0.03459288
  0.08463218 -0.04044736 -0.2635583  -0.23113811]
[-0.18964909 -0.08050545  0.30908015  0.111241   -0.37731227  0.10248816
  0.03270821 -0.09264504  0.17629218  0.02382076  0.3595569  -0.3677478
 -0.06625211  0.15893272 -0.40388682  0.08795234  0.10460157 -0.0151779
  0.01338605  0.11981104  0.29639736  0.08481527 -0.02687837 -0.04155504
  0.47072583  0.20374969 -0.05058995 -0.06031282  0.06116162  0.16732438
 -0.3217122  -0.22374189  0.04401132  0.01758199  0.11044295  0.22008216
  0.10239361 -0.03504213  0.06253169 -0.19444686]
[-2.05023289e-01 -6.89967573e-02 -4.07076143e-02 -2.91630566e-01
 -4.51359190e-02  2.29062766e-01 -2.83338781e-02 -1.47711812e-02
  1.88419223e-01 -1.83148414e-01  4.92062792e-02  3.78016025e-01
  2.05943674e-01 -1.39980024e-04  9.40674543e-02 -8.11462570e-03
  7.29477629e-02 -8.64170715e-02  1.77412465e-01  3.59251574e-02
  9.24810916e-02  4.52849269e-02  3.21027756e-01  1.48246527e-01
 -2.19398305e-01 -1.02844782e-01 -6.33440688e-02  2.21747339e-01
 -1.35769118e-02  1.86744466e-01 -3.30548510e-02  5.08478396e-02
 -1.53292194e-01  1.00123994e-01 -4.80077155e-02  2.95816898e-01
  1.95594624e-01  1.80961177e-01  1.24218725e-01  2.32658640e-01]
[-0.02937956 -0.06610726 -0.13819355  0.1078139  -0.15657862 -0.18172951
  0.04226776 -0.02607812 -0.0009236  -0.06443114 -0.18987176  0.10730279
 -0.12179406  0.21745777  0.24381125 -0.2519544  -0.1253639   0.17013282
  0.25168052 -0.0277255   0.02607406 -0.03856912  0.19734524  0.12049916
 -0.10617701  0.06391711  0.24673381  0.07640285 -0.19787979  0.04578742
 -0.10770816  0.2960884  -0.28655258  0.24057885 -0.07663478  0.12430413
  0.08557782 -0.2467901   0.31675822  0.32336527]
[ 0.24812223  0.02539569  0.57163614  0.32626918 -0.27877036  0.06120982
 -0.18518029 -0.38036582 -0.05885397 -0.22970743  0.31809735 -0.0987808
 -0.4145094   0.1373697  -0.3544326   0.06996683  0.16817266 -0.19156763
 -0.00756888 -0.40413556  0.15711887 -0.22967768  0.0200317   0.02212833
  0.32732144 -0.20949395 -0.17291299 -0.57938755 -0.20358644 -0.36564347
 -0.16854641 -0.37170336  0.20530894 -0.29832476 -0.104218    0.46060535
  0.12985216  0.3240859   0.30859357 -0.26557395]
[ 0.26605847  0.17883578 -0.06609919 -0.22605434 -0.01490706 -0.29031247
  0.13799609 -0.38398135 -0.1524569   0.11985581 -0.19327614  0.06172312
 -0.13511278  0.3282223   0.06248125  0.25364083 -0.13962848  0.3099586
  0.06407981 -0.34239405  0.00260557 -0.11532059  0.13948606 -0.0207238
  0.2247426   0.11593176  0.31098977  0.3094955  -0.02921541 -0.1240805
  0.08260012  0.231019   -0.21328245  0.15194716  0.11715829 -0.2431556
  0.11242246 -0.2358201   0.31118533  0.23176694]
[ 0.05636385 -0.12347182  0.319941    0.08452468 -0.39967832  0.24476407
 -0.23424292  0.10328853  0.23967345  0.16791207  0.00827905  0.28753558
  0.12852415 -0.10622513 -0.40315843  0.15538283 -0.21348089 -0.08146231
 -0.0097075  -0.12098119 -0.13680631  0.3417735   0.13146001 -0.1549543
  0.31357983 -0.09574687 -0.47224706 -0.05837996 -0.15401213 -0.0259811
 -0.10080525 -0.05332605  0.4420146  -0.42322353 -0.27808625  0.34163767
 -0.239384   -0.19739689 -0.1415986  -0.07333689]
[-0.00826058  0.17190169 -0.3383543  -0.12511049 -0.03372682 -0.09800079
 -0.15134165  0.20929804 -0.11218017  0.0105894   0.18663448  0.29740417
  0.3164339  -0.41629374 -0.14851072  0.14578441  0.07867765 -0.12941885
 -0.17860399 -0.2109661  -0.06348646 -0.23162155  0.22517298  0.2594035
 -0.07806282  0.01672477 -0.1282219   0.02906865  0.22519052 -0.12971173
  0.15277837 -0.00178358 -0.18994525  0.09597325 -0.06169325 -0.2051126
 -0.19233167 -0.31536433 -0.29327765 -0.20295815]
[ 0.25536814 -0.28092358  0.07324078 -0.13083361  0.28234234 -0.16326581
 -0.14209881 -0.12748337 -0.14609364 -0.01138359 -0.04675637 -0.1012454
  0.28053308 -0.06006711  0.02387785  0.01671524 -0.17057584 -0.12583634
  0.00317685  0.12746611  0.23288605 -0.20807527 -0.07916845 -0.10876282
 -0.34973407  0.25454822 -0.19317046 -0.02030826  0.27096507 -0.06994206
  0.27653816  0.3034554   0.07792129 -0.2506023   0.18794318  0.22237031
 -0.27862242 -0.28284997 -0.30434045  0.00134698]
[-0.37416825 -0.5772765  -0.00757127 -0.03001758  0.2073037  -0.00972982
  0.1282433   0.23718196  0.39871854  0.26685762  0.18386032  0.5080308
  0.40884802 -0.07522267 -0.02500071 -0.3816883  -0.05725981  0.08469293
 -0.22216515 -0.19195223 -0.03239099  0.37034145  0.06723708  0.23124957
 -0.3667213   0.12799948  0.01580383  0.20396173 -0.28463012  0.37345156
 -0.29268998 -0.17930654 -0.21994312 -0.25844693 -0.04433298  0.17152143
  0.23754138 -0.04309025  0.13036652  0.29813263]
[ 0.03496596  0.07013503  0.02058189 -0.23485076 -0.02486822 -0.3528306
  0.33921233 -0.08745085  0.2775381   0.09108336 -0.07700563 -0.1438789
 -0.18006349 -0.07791195 -0.20360745 -0.12199977  0.03220723 -0.12902276
  0.2402236  -0.09953844 -0.16352294 -0.13593638  0.02066509 -0.05539503
 -0.02134799  0.1950309   0.08520871 -0.163863    0.01064994  0.22671981
 -0.15032637  0.00127697  0.0750945   0.14729601 -0.14143217 -0.22173691
 -0.058803   -0.14257678  0.19469133 -0.10195939]
[ 0.01297696 -0.07203478 -0.00120857 -0.07281902 -0.01016833 -0.11681031
  0.02098145 -0.05833947  0.06084622 -0.00772514 -0.00432828  0.01942529
 -0.04218322  0.0170045  -0.01462149  0.0205008   0.01896104 -0.02885843
  0.02535669 -0.0070752  -0.01827499 -0.01264457 -0.03262802  0.06763435
  0.11112688 -0.03609073 -0.0332372   0.0102027  -0.04309547  0.10810521
 -0.01029532  0.01555119  0.04275783  0.01057203  0.06135606 -0.00754088
 -0.00497185  0.02854632 -0.03346112  0.01834994]
layer 3 Activation
tanh
layer 4 Dense
40 20
[ 0.08348163 -0.22026855  0.16423756 -0.0239972  -0.13717936 -0.10958222
  0.2984916  -0.13217893 -0.11387907  0.13726601 -0.24728839 -0.25673878
 -0.24349585  0.12262315  0.22448267 -0.17142239 -0.2662187  -0.37154946
  0.26682848  0.05261094]
[-0.00749194 -0.12959951 -0.13173759 -0.12164368 -0.23762845  0.05393599
 -0.05976123 -0.22187084  0.08486079  0.07289205  0.17022273 -0.07583442
 -0.22415647  0.01533069  0.16172588 -0.15601039 -0.08624443 -0.30237767
  0.2616351   0.3388453 ]
[ 0.2138505  -0.1944612   0.29703015  0.2026476   0.17338595  0.37801415
  0.05772671  0.05320049  0.08628286  0.17358407  0.32222927 -0.06270252
  0.17888398 -0.13646373  0.09135693  0.07130232  0.17725655  0.07993353
 -0.1754011  -0.34458145]
[ 0.01906648 -0.04127797  0.2444452  -0.05902848  0.0146499   0.13329776
 -0.21491829 -0.09218495 -0.22178388 -0.07881652 -0.171688    0.1332343
 -0.13425267 -0.04112674 -0.05623962 -0.09903017  0.10407969 -0.3416962
 -0.24810988  0.11426506]
[ 0.12075884 -0.22030754  0.329432   -0.26815528  0.15242438 -0.32641843
  0.11825223  0.10901957 -0.11936541 -0.0346698   0.31029966  0.2363339
 -0.18355744  0.08212327 -0.20090532 -0.12762071 -0.29574713  0.31301853
  0.1593841  -0.09387425]
[ 0.04269464  0.27270585  0.17975746  0.04611548 -0.09030917 -0.1281237
  0.11752779 -0.1606991  -0.05715629 -0.00352102 -0.07389396 -0.20772442
 -0.1318641   0.00490322 -0.16965286  0.03362204  0.31052545 -0.0392387
  0.01985082  0.0352222 ]
[ 0.30866426  0.19642574 -0.03705347  0.05718674 -0.12160466 -0.04499135
 -0.09821909  0.31214097  0.23018816 -0.01861914  0.08625698  0.12814648
 -0.21149036  0.03808998  0.1036736   0.05790644 -0.31661776  0.17313787
  0.10229081  0.24740317]
[ 0.34565264 -0.18061562 -0.04820109  0.06036084 -0.08453537 -0.02842444
 -0.08769269 -0.0973426   0.08548079  0.07050967 -0.0864002   0.11383915
  0.11016023  0.10280968 -0.16022077 -0.0991991   0.25160408 -0.14600922
 -0.27807698  0.20675418]
[-0.00996176 -0.16305692  0.23051329  0.22876163 -0.09502618 -0.10530855
 -0.21790674 -0.2929456  -0.23070833  0.18105817  0.20757642 -0.27055442
  0.09421694  0.27602407 -0.22252008  0.1999332  -0.24582306 -0.05086533
  0.01117192 -0.25251934]
[ 3.42879921e-01  1.11056045e-02 -1.90997064e-01 -2.18938246e-01
  1.14632323e-01  1.85173094e-01 -1.47103399e-01 -1.47930011e-01
  1.91904694e-01 -2.13774573e-02 -1.60280630e-01  1.00849591e-01
  5.07636517e-02 -2.70689398e-01 -6.80285394e-02 -1.83553085e-01
 -2.09329324e-03  2.06040487e-01 -1.58369735e-01 -1.74451736e-04]
[-0.17208476 -0.17129591 -0.16004415  0.2631094  -0.14222762  0.35785237
 -0.11022185 -0.24900481 -0.12686516 -0.2742061   0.11187092 -0.04874951
 -0.47460556 -0.15189059 -0.31030086  0.0068223  -0.18918802 -0.12927681
  0.08621386 -0.28663155]
[ 0.0609524  -0.16361924 -0.07218772  0.2787362   0.15553185 -0.25980163
  0.03651545 -0.20711789 -0.2542915   0.1821412   0.0433167   0.05588807
 -0.21871611 -0.00452624 -0.28041014 -0.01646056 -0.10910767  0.44252917
 -0.09754156 -0.17363016]
[ 0.24354246  0.10480729 -0.18861589 -0.14590023 -0.31925666 -0.28581357
 -0.16730723  0.04183114 -0.29583701  0.04102012  0.02065746 -0.22658372
  0.3301203   0.1800148  -0.11877231  0.08020856  0.12316029  0.2804417
 -0.25232413 -0.05208016]
[-0.01469713  0.09234035 -0.19522801 -0.31237417  0.18453914  0.26443553
  0.12108731 -0.16727547 -0.15219234 -0.0032629   0.14099808  0.26665115
  0.15886837  0.23467332  0.26391125  0.01529186  0.24565893 -0.24055539
  0.36154765 -0.10025188]
[ 0.08777478  0.2435002  -0.13289708 -0.39978576  0.00192505 -0.06206185
  0.01776198 -0.03615811  0.19370194 -0.03314677 -0.23203768  0.09225383
 -0.01140979 -0.11123005  0.16825736  0.12748325 -0.21559067 -0.18816271
 -0.1249046   0.30473015]
[ 0.29717222 -0.09852552 -0.27756214  0.21429634 -0.34219584  0.20065765
 -0.15013878 -0.14787665 -0.1913833   0.2847312   0.06417738  0.12075495
  0.30942684 -0.12277561  0.12972462  0.05374878 -0.06496906 -0.24835378
  0.11580724  0.34260246]
[-0.3307592   0.0744385  -0.02190901  0.28727406  0.23964411 -0.1800399
  0.26101664 -0.06321222 -0.13005082 -0.2612583  -0.01282112  0.2738412
  0.0889971   0.0992117   0.20678876 -0.1395714  -0.22293639 -0.00720188
 -0.05469386  0.2530118 ]
[ 0.07894949  0.2397959   0.22713672  0.18057555  0.12254348  0.18498594
 -0.10676195  0.27171516  0.10387297  0.2624675   0.08350098  0.02662498
 -0.1884658  -0.01372437  0.07389785 -0.12382361  0.18399653  0.13371454
  0.19705006  0.11405178]
[ 0.27413955  0.34647754  0.03365782  0.08959799 -0.02048721  0.12639076
 -0.10422228 -0.22362785  0.09700478 -0.18668295  0.02430891  0.18923752
  0.1229258  -0.06909865 -0.01155507  0.20719904 -0.01048484 -0.22752336
 -0.27264228  0.3111254 ]
[ 0.0480889  -0.13139437  0.12810937 -0.28125998 -0.11133486  0.2108101
 -0.16471395 -0.04769342  0.15126054 -0.16117814  0.07406869 -0.07450602
  0.04087267  0.10053594 -0.04133304  0.00569027  0.07279324 -0.07813464
 -0.18927306 -0.00480697]
[ 0.01959413  0.10841555 -0.02167126  0.24165025 -0.0616871  -0.1515604
 -0.14281493 -0.14093953  0.29048783  0.18438372  0.00172327  0.03890642
 -0.1382031   0.23115642  0.12680455  0.38873917 -0.04947685  0.25351438
 -0.06924481  0.1417696 ]
[ 0.07426155 -0.1738483  -0.14184316  0.0820285   0.00347162  0.18394905
  0.11847928 -0.1095007  -0.01287053 -0.24723092  0.08623768  0.07544918
 -0.01258579  0.11705709 -0.19776036  0.22169869 -0.01245803  0.25362414
 -0.10006583 -0.18697591]
[ 0.18754299  0.24752992  0.00980572 -0.14103748  0.10642272  0.03452035
 -0.00789109  0.17265226  0.12720954  0.27746308  0.25941938 -0.04161959
  0.32287717 -0.06049571 -0.2433187   0.0440235  -0.04394529  0.0814757
  0.07439726 -0.03885213]
[ 0.27406004 -0.10650405 -0.1909496  -0.09638838  0.1292203  -0.11426388
  0.07075843 -0.05631561 -0.1796861  -0.18467969 -0.08363336 -0.10151748
 -0.14142683  0.019803   -0.25722018 -0.1514462   0.09614848 -0.21519096
 -0.04890371 -0.13172695]
[-0.19149788 -0.11092279  0.306792    0.32861894  0.14140905  0.19874687
 -0.2519757  -0.09572485 -0.17679834 -0.135932   -0.12244986 -0.18587151
  0.09961491  0.00619239  0.15113574  0.2418087  -0.17025217 -0.18274431
  0.13052039 -0.3111182 ]
[ 0.01881035 -0.09231218  0.00933245 -0.2647655  -0.26247415  0.08516575
  0.05692774 -0.12011542  0.2204527   0.2362393   0.04841647  0.23461412
  0.03505871 -0.08081427 -0.06680144 -0.16790558  0.18972099 -0.04791684
  0.06924872 -0.04412242]
[-0.02365759  0.17220435 -0.24944183 -0.34185398  0.2827756  -0.1881626
 -0.04644642 -0.11157455  0.18126132 -0.12655412  0.02121896  0.23762605
  0.34596997 -0.2112058   0.21088336  0.14777167  0.0015936   0.16557851
 -0.21019578  0.10144022]
[ 0.10282289 -0.18898453 -0.03526555 -0.15614216 -0.0225366  -0.2908916
 -0.00979587  0.10457162  0.00917078  0.21505809  0.02050009 -0.19137532
 -0.09241226  0.30710337  0.08701955 -0.00660461 -0.22301078  0.17780603
 -0.07260298  0.31343305]
[-0.09468864 -0.20774949  0.1573745   0.16444531 -0.20459808 -0.0866856
  0.19634612  0.18900569  0.1016599   0.20082489  0.16435057 -0.01903651
 -0.10909577 -0.37984425 -0.01205155  0.26404724  0.23107637  0.10831649
 -0.1553917   0.36248535]
[ 0.30372173 -0.2454967  -0.27828678 -0.07182775 -0.12274503 -0.12502122
 -0.30141848 -0.23571491 -0.1407867  -0.10242611  0.11134763 -0.24981351
  0.05249008  0.29295698 -0.11069158 -0.16582993 -0.23373958  0.30894125
  0.0160346  -0.16649859]
[-0.08059654  0.19417948 -0.22728178  0.10961938 -0.04078867 -0.06430235
  0.38463947  0.23929532  0.06246141 -0.16056006  0.20565553  0.09796413
  0.20018023 -0.39545676 -0.08583411 -0.2997543  -0.02439565 -0.02148378
  0.18217103  0.29773855]
[-0.03148387  0.2256829  -0.24124233 -0.00049549  0.07585473  0.02108905
  0.2632629  -0.05055001 -0.30616263 -0.00486238  0.20561714 -0.2904598
 -0.16318515 -0.16080166  0.2239574   0.083461   -0.15801027  0.18280989
 -0.08776403  0.1642141 ]
[ 0.26895145 -0.2658695  -0.16682981  0.090193   -0.10173658  0.24603452
  0.33452383  0.29599822 -0.27535084  0.07862215 -0.00993125  0.2148674
  0.10243887  0.18711962 -0.10698234  0.2675852  -0.07890535  0.05580482
  0.10169935 -0.28615034]
[ 0.19357502 -0.23474969  0.12432385 -0.27171862 -0.10458556 -0.3804928
 -0.09356406 -0.00202409  0.1956759   0.16327311  0.06017191  0.14180759
 -0.18378665  0.07453448  0.3334412  -0.17503253  0.02201365 -0.02712945
 -0.05922592  0.16470341]
[-0.251595    0.37547404  0.1375892  -0.27904046  0.19599736  0.15211357
 -0.11337814  0.33369368 -0.2132944  -0.06664383 -0.21700798 -0.28358924
  0.2619224  -0.24620073 -0.06755971  0.0976786  -0.19389005  0.09708668
  0.06206223 -0.14098273]
[-0.15294002 -0.16617368  0.23453212  0.27459386 -0.268609    0.1338234
 -0.10699852  0.1941555   0.22389044  0.21958224 -0.11850527  0.14598246
 -0.13575214  0.01256093 -0.27837867  0.07648673  0.32218003 -0.12456451
 -0.03162818 -0.19852944]
[-0.23124476  0.06744166 -0.20413974  0.01214816  0.20634606  0.06985484
 -0.08392011  0.2864128  -0.3358802   0.06409517 -0.02669355  0.1722703
  0.12155922 -0.15836519 -0.02355557  0.25455794  0.2476249   0.11519659
  0.05284259 -0.38059247]
[-0.27172017  0.21685258  0.28412744  0.11235221  0.30307534  0.23014688
 -0.16853495 -0.15585798  0.31284976 -0.23663299 -0.10533369  0.00127447
  0.1537086   0.18695645  0.08650225  0.05212182 -0.17301548  0.15696178
 -0.09956056  0.00530784]
[-0.07387826  0.33986545  0.05756029  0.03164677  0.23003641  0.2735146
 -0.27077302  0.33654273  0.17819805 -0.05476572 -0.03752453 -0.08754978
 -0.17622553 -0.06231732 -0.10710134 -0.11960252  0.24877077  0.06891653
  0.2768389  -0.29634422]
[-0.01721137  0.08919952 -0.26891112  0.01232612  0.16219838 -0.20587048
 -0.2792768  -0.25743502 -0.05834648 -0.06237818 -0.23645985 -0.21712863
 -0.22835653  0.24057359  0.27408543  0.14840703  0.23356625  0.23809652
 -0.15787521 -0.01252838]
[-0.01354996 -0.01253966 -0.02755142  0.03081855  0.02086711 -0.01710952
  0.01722102 -0.00983439  0.00832568  0.00368623  0.00218779  0.00647468
  0.00532969  0.01311031  0.01507878 -0.01784924 -0.05642269  0.02234621
 -0.03715578 -0.13192214]
layer 5 Activation
tanh
layer 6 Dense
20 1
[0.01540072]
[-0.04440887]
[0.06748367]
[0.23211896]
[0.28994143]
[0.28098652]
[-0.03734387]
[0.00816149]
[0.00445781]
[0.00691824]
[-0.01811488]
[0.0006724]
[0.01192357]
[0.25539058]
[-0.26798227]
[0.00058603]
[0.22677314]
[0.19720085]
[0.34194365]
[0.25767064]
[-0.00804677]
