layers 7
layer 0 Dense
20 20
[-0.7880885   0.21204397 -0.18144767 -0.8714819   0.18464758 -0.00223663
 -0.20147762  0.27857286 -0.44223985  0.6919729   0.29516378  0.23269773
  0.03861726 -0.46208262 -0.01283734  0.2592939  -0.40510988  0.311351
  0.13956438  0.01546375]
[ 0.0127404  -0.24764909  0.14755404  0.22534394  0.16958272 -0.30913413
 -0.28207892 -0.25787935  0.23994958  0.12202615  0.07530469 -0.12720102
  0.13136345 -0.241039   -0.23773676  0.09615484 -0.3464224  -0.11102349
  0.19394505  0.08048934]
[ 0.0511145   0.26007497  0.3793472   0.12442327  0.27022713 -0.30060446
  0.33946216  0.30436856  0.05001473  0.06093118 -0.04295561  0.05578437
 -0.3795534  -0.24656641  0.26735508  0.19611102  0.22735482 -0.10598591
  0.26169747 -0.15436654]
[-0.5843228   0.18964933 -0.01663776 -0.7068537  -0.1788765  -0.39698365
 -0.02469086  0.01348349 -0.55677354  0.5121641   0.46744266 -0.18729466
  0.13144237 -0.07471678 -0.08212649 -0.36910293  0.15809259 -0.18384649
 -0.25991324  0.17751178]
[-0.23268062  0.08483344 -0.562654   -0.24214017  0.50372356  0.3873781
  0.25677037  0.11422567 -0.25380942 -0.08702425  0.15677331 -0.16754986
 -0.02080699 -0.36430463  0.19945018  0.20094843 -0.6045484   0.4435883
 -0.36756414 -0.2859196 ]
[ 0.3043455  -0.1679884   0.04658085 -0.2641294   0.28368944  0.12605876
 -0.14574124  0.00158092  0.14076406 -0.08755797  0.22128868 -0.04446176
 -0.2508456   0.3054062   0.20753044 -0.32931685  0.19561166 -0.01682788
 -0.32752657 -0.36477295]
[-0.0109711   0.0650917  -0.01740196 -0.11870101  0.06319422  0.26235658
 -0.37195638 -0.38705236 -0.04608914 -0.21018545 -0.13010499 -0.23850429
 -0.07895067 -0.0026685   0.15534753  0.16673797 -0.37901145  0.32280296
  0.19109082 -0.19029099]
[ 0.5729228   0.27571782  0.40587592  0.00537313 -0.29381305  0.22612928
  0.41186264 -0.39045238  0.2586856  -0.3068972  -0.59214544 -0.2558755
 -0.02307537  0.31083563  0.19108933 -0.39555538  0.54346246  0.16908953
  0.12369496 -0.0846954 ]
[-0.54806554 -0.4736038  -0.35727078 -0.39125094 -0.22585587  0.57005286
  0.42460188  0.60584366  0.7448193   0.6844561   0.5069195   0.39006084
 -0.37953198  0.15535703  0.6585596   0.0290549  -0.08433656  0.29412144
  0.08679327 -0.300319  ]
[-0.14079227 -0.4661793   0.7425638   0.1598218   0.6095373  -0.01326241
  1.377141    0.3589769  -0.8075706   0.6009918   0.074563   -0.3452826
  0.27506474  0.13564208 -0.32579374 -0.756631    1.0001711  -0.17227353
 -0.9645877  -0.3603591 ]
[ 0.05542368  0.8782519  -0.14386299  0.01777912  0.17989999  1.5366309
  0.03151177  0.36233646  0.3549161  -0.11272836  0.32851842 -0.5735152
  0.27457473  0.99433476 -0.49884683  0.02989997  0.17403182 -0.11501594
 -0.58404154  0.9724732 ]
[-1.235244    0.6094845   0.3014381   0.2362954   0.02157209 -0.25903633
 -0.6684549  -0.20807587  0.7187336   0.5792546  -0.21301916  0.11656209
  0.66375875  0.13580106 -0.74215937 -0.51868296  0.25510362 -1.2609867
  0.0160318   0.06179438]
[ 0.68954486 -0.6188064   0.03969517  0.36494806  0.366204    0.01154727
 -0.3431337  -0.3155618  -0.09026473  0.03967509  0.4045235  -0.5743597
 -0.10836193 -0.81676096  0.00237308  0.2696457   0.2376347   0.7574193
 -0.06699518 -0.24318092]
[ 0.36730838 -0.39090216  0.01709435 -0.31719333  0.38044527 -0.00805815
 -1.148112    0.3815604  -0.1227342  -0.23890783 -0.12834482 -0.24705738
  0.02623328  0.15341172  0.45013642 -0.36528274  0.16842623 -0.57136935
 -0.2669801  -0.07772089]
[ 0.1598488   0.3255486   0.08903629  0.3083606  -0.07313445 -0.16575873
  0.0727601   0.39410743  0.12265168  0.16600159  0.04505197 -0.5714777
 -0.53004915 -0.1126151   0.2857876  -0.08707464  0.312296    0.3287211
 -0.14751443  0.50078857]
[ 0.69953036 -0.10330132  0.94605833  1.298907    0.9544592   0.311387
 -0.65991396 -0.78237534  0.53069544 -0.7629393  -0.7101216  -0.9870229
  0.870449   -1.0897254   0.13709879 -0.00509227 -0.41907555 -0.35757595
  0.04306764  0.05222746]
[ 0.00976815  0.4606723  -0.31509447  0.14132003 -0.23970911 -0.5533435
  0.41300505 -0.18671243 -0.21416685 -0.32394716  0.34073603 -0.20146307
 -0.07050555  0.28085247  0.4040211  -0.37913734 -0.64017856  0.09793164
 -0.3929705  -0.12827763]
[ 0.49012855  0.4579268   0.11782685 -0.384799   -1.7734812  -0.05040548
 -0.6045934  -1.0361596   1.0317248  -0.24318118 -0.15138     0.35749373
 -0.33847696 -0.6698593  -0.43408477  1.3270253  -1.612726    0.8986921
  1.2462953   1.3041689 ]
[ 0.18433449 -1.4681845   0.15961125 -0.2517553  -0.16087617 -1.0714483
 -0.28507736 -0.71149206 -0.2756997  -0.05119682 -0.5942528   1.4717331
  1.735032   -1.3755503   1.0976393   0.30409327  0.49932307 -0.30023238
  1.0018685  -1.945807  ]
[ 0.2626166  -0.87667793  0.17265327 -0.50405836 -1.6027677   0.43774346
  0.6384832   0.95633644 -0.02713162  0.6592097   0.3867883   0.47889498
 -0.6595872   0.30193284  0.32951933 -0.18655145  0.91288954  0.37405273
  0.5835294   0.11950995]
[-2.8261170e-01  1.1703681e-01 -4.9717069e-02 -2.2888270e-01
 -1.9802675e-03 -1.4680575e-01  1.2125788e-04  7.7924959e-02
 -2.5160685e-01  1.5451917e-01  1.3517448e-01  1.3824145e-01
 -9.6360222e-02  3.7892666e-02  3.1560786e-02 -4.5999296e-02
 -1.3222685e-01 -8.7048300e-02 -4.8418861e-02  1.1624584e-01]
layer 1 Activation
tanh
layer 2 Dense
20 40
[ 0.0394015   1.0551682  -0.2044708   0.40394452  0.42461464 -0.26960805
  0.31304777  0.01516889 -0.04958189  0.20426112  0.22147663 -0.01213352
  0.4883086   0.25329345  0.04391545 -0.05323153 -0.11051732 -0.30925503
  0.30809835  0.4343887  -0.00158312  0.47919205 -1.0786488  -0.8386452
 -0.09240747 -0.12594649  0.06637679 -0.04380775  0.27705738 -0.15431888
 -0.07288759  0.40714163 -0.07166857  0.45060065  0.12059298  0.3073695
  0.37366244  0.22793454  0.4647542  -0.22804597]
[-0.56533325 -0.60215896 -0.413859   -0.24128771  0.17989427  0.6207362
  0.12764697  0.03295283  0.20745465 -0.21288422 -0.5840005  -0.29513448
  0.33870766 -0.02243862  0.01551372  0.09249023  0.5369343  -0.5990187
 -1.0071528   0.69253266  0.1083791  -0.62556225  0.3253179   0.19940266
 -0.8579593   0.548379   -0.87286496 -0.6706851   0.6562782  -0.3703843
 -0.67336065  0.7886233  -0.25333336  0.02266179 -0.4480575   0.18646877
 -0.03194518 -0.6886251   0.76535624  0.6379755 ]
[-0.30939615  0.2134072  -0.30537552 -0.26901612  0.2359729  -0.28150263
  0.09319973 -0.26198748  0.38755673 -0.01738114  0.46974182 -0.18989003
  0.2650204   0.23931809 -0.0447582   0.53248274 -0.18239273  0.35536838
  0.148934   -0.12103099 -0.12247607  0.2601633  -0.00466833 -0.5008968
  0.19580533 -0.19212542 -0.23475365  0.20492642  0.74787337 -0.04563901
  0.46932495 -0.19053373 -0.11818796 -0.27964625 -0.5746677   0.28319347
 -0.507772    0.5189159  -0.09331264 -0.23477612]
[-0.03057568  0.5648442  -0.32302675 -0.13254128  0.3360652   0.06956013
 -0.07099195 -0.32598972  0.3550086  -0.31475788  0.26561406  0.00266888
  0.17935742  0.182856    0.09894815 -0.04047752  0.04322421 -0.15040618
 -0.5300587  -0.32243714 -0.26250598 -0.04200612 -1.119879   -0.9128333
  0.13369252 -0.11483256 -0.44250748  0.00813219  1.1762904   0.577248
  0.4310281  -0.04557085 -0.91150624 -0.278681    0.14037323  0.30388594
 -0.12576954  0.7835786   0.15159073 -0.1016214 ]
[-0.6385062   0.1991771   0.47444773  0.5445848   0.02418267  0.5557674
  0.52276814 -0.5632567  -0.34861016  0.6302226   0.6330746   0.53811806
  0.4671135  -0.58723325 -0.07162412  0.78420097  0.40849295 -0.1043874
 -0.00856474 -0.83382773  0.7526855  -0.22291304 -0.21837103 -0.21785629
 -0.16507588 -0.62665653  0.32604444  0.3375932   0.13182567 -0.6806848
  0.27031374 -0.3417312   0.27741104 -0.96106195 -0.63353485  0.44424367
  1.2902746   0.35477284 -0.21265705  0.367016  ]
[-0.47148448  0.18198793  0.03272799  0.04608241  0.2547155   0.4946579
  0.04264532  0.762417   -0.24979012  0.07572138 -0.29474995 -0.5192286
  1.0630472  -0.08220062 -0.04608134 -0.11099037  0.03454827 -0.9655961
  0.00685579  1.0490048   0.8366474  -0.11452254 -0.36018252 -0.18388486
  0.02696303  0.45716733 -0.93853337  0.69204676 -0.1072097  -0.8256042
 -0.02372286 -0.11483484 -0.4638502   0.33549187 -0.13721748  0.63464
 -0.06544895  0.10747502  0.2816694   1.0544443 ]
[ 0.37679502  0.05917886  0.23816912 -0.42400447  0.43983442 -0.24185494
  0.5986513  -0.62590647 -0.37849987  0.31327918 -0.25884867  0.2070808
 -0.1253843  -0.4689896  -0.19922398  0.22473961 -0.07139932 -0.49537623
  0.38289216 -0.3263493   0.8877066  -0.20852117  0.17127596  0.10178505
  0.10439745 -0.4571379   0.07424206  0.77648765  0.09464388  0.65961426
  1.235976   -0.3852575  -0.19216429 -0.4890723   0.18049933  0.57954174
  0.43748116 -0.29686582 -0.36860162  0.5514901 ]
[ 0.21002471 -0.6697002  -0.1738097  -0.503814   -0.40074712  0.08965111
 -0.74788177 -0.05526047 -1.0056334   0.48713025 -0.87610835  0.26253405
  0.6627596  -1.4732918  -0.31117943  0.84216154  0.5374113  -0.7614388
  1.1819782  -0.13329773  0.56591725 -0.11644644  0.48790592  0.20383923
  0.5961545   0.63315797 -0.06404004  0.2886352   0.0224247  -0.7003826
  0.40842065 -0.3219968   0.80014145 -0.5872822   0.77792346  0.83426595
  0.4689598  -0.5762276   0.366666    0.30881655]
[ 0.13475122  0.18171918 -0.11986634  0.19552901  0.30456418 -0.04858906
  0.08721981  0.7972866  -0.01269219  0.28788394 -0.28759003 -0.52909094
 -0.3165118   0.62608093 -0.01922638 -0.52905196 -0.195476   -0.3690062
 -0.50946933  0.5716968   0.15546301  0.95626634 -0.5712652   0.3801206
 -0.37402126  0.24710383 -0.16542831 -0.125725   -0.32789192 -0.42345518
 -0.22146901  0.48578402 -0.28943062  0.26375505 -0.21710354  0.531152
 -0.5121786  -0.19223306 -0.0118104  -0.2678412 ]
[-0.09026939 -0.72115743  0.12717304 -0.39026427  0.05761363  0.02262789
 -0.08397245 -0.27034822 -0.11164513 -0.19927876 -0.008538   -0.04229413
  0.00592069 -0.37279525  0.53461134  0.588619   -0.2877348  -0.12058101
 -0.19553266 -0.29906154  0.12382708 -0.07478955  0.773804    0.64754796
  0.1490212   0.2244423  -0.06991312  0.2723033  -0.06622002  0.510087
  0.39835158 -0.38304812  0.2905173   0.04566735 -0.08689548  0.07831427
 -0.43290052 -0.26205283  0.03973172  0.18427055]
[-2.2701907e-01 -5.4196620e-01 -5.6738108e-01  1.6869807e-01
 -4.1725388e-01 -1.2636359e-01 -2.5309247e-01 -3.0013564e-04
 -1.4195533e-01 -2.0386626e-01 -4.6992093e-01  8.8331334e-02
 -3.5965717e-01  2.4685021e-01  2.1070677e-01 -1.3341449e-01
 -2.4523510e-01 -1.9107288e-01  1.5731707e-01  2.0005079e-01
  2.7894964e-02 -3.7818861e-01  4.8297998e-01 -1.6447559e-01
 -4.0243697e-01  1.9627462e-01  6.2930204e-02  1.3335814e-01
 -5.5238008e-01  5.8544272e-01  2.1676664e-01 -3.7656546e-02
  3.3898401e-01 -1.8032111e-01 -3.7640908e-01 -2.7754870e-01
  2.7130073e-01 -6.7872740e-02 -8.4034599e-02  7.4850246e-02]
[ 0.14645793 -0.06564441  0.9615671   0.09176356  0.40174925 -0.74295115
  0.96712834  0.51102287  0.19095352 -0.03259052  0.6051152   0.05108803
 -0.5035756   0.00399058 -0.6118278  -0.09852337 -0.7297141   1.1280454
  0.37564892 -0.72992784 -0.02892659  0.26752165  0.8750679   0.51557595
  0.55654156 -0.66833586  0.30514064 -0.19614464 -0.8323934   0.40321556
 -0.43727055 -0.06049434  0.27992168  0.13147958  0.93392915 -0.57295275
 -1.0805663  -0.4826568  -0.9769609   0.47026628]
[-0.1058211   0.25296736  0.18560675  0.6362016  -0.13532084  0.22129925
  0.24176206 -0.53332996  0.27271625  0.04570222 -0.05700535  0.06493896
  0.05108692  0.59924376  0.2686992  -0.01169186 -0.25227997  0.829564
 -0.53184694 -0.62074846  0.41885418 -0.00978404 -0.4060434  -0.43822896
 -0.38201734 -0.27922758  0.629527    0.2864554  -0.23108098  0.39065164
 -0.5597578   0.32212892 -0.73926526  0.2891957   0.1887478  -0.1128828
 -0.38250992  0.35099265  0.42808896 -0.17782634]
[-0.3377297  -0.14195405 -0.31614456 -0.2816776   0.30465204 -0.1734047
 -0.49427605 -0.14313087 -0.19247769 -0.3000405  -1.0916065   0.77373827
  0.14690164 -0.22062466 -0.09108788  0.10210239  0.02900286 -0.17476682
  0.67184925 -0.2607842   0.10822576 -0.24085565  0.4374653   0.08633923
  0.16322166  0.01144872  0.02109704 -0.14059243 -0.76752067 -0.23083185
 -0.6538925   0.60048294 -0.24515982  0.13259433  0.06853866  0.08251087
 -0.5813053  -0.52546114  0.687535    0.10888287]
[ 0.600706   -0.16791947  0.48115283  0.37787223  0.360672    0.07027077
 -0.08474831  0.499355   -0.06890748  0.5639291   0.23132843 -0.16467908
  0.17994298  0.26349905 -0.12906495 -0.47040507 -0.28172982 -0.0601527
  0.2531102   0.16312689 -0.03210995  0.48774844 -0.30017158  0.49626932
  0.05928529 -0.4596432   0.27542743  0.5652878   0.11100139 -0.28372288
  0.27741593 -0.13670093  0.2184598   0.13615254  0.36510435  0.31809762
 -0.21282715  0.10791165 -0.42009112  0.11560462]
[-0.1222589   0.3760648   0.44946474  0.12849462  0.13459377 -0.32349423
  0.35889488  0.37807977  0.01373919 -0.43874833  0.15466309  0.08460578
  0.10063656 -0.13204204  0.73691016 -0.12464195 -0.3247686   0.30466297
 -0.42680815  0.14791207  0.27699408  0.21239725  0.33794698  0.2034713
 -0.10139129  0.160691   -0.1561997  -0.43947113 -0.0110882   0.11365722
 -0.28350016 -0.19876504  0.03528031  0.6816181  -0.12446125 -0.62337023
 -0.4559969  -0.3106749  -0.16156153  0.37348023]
[-0.22756556  0.21321057 -0.50333107  0.28537664 -0.07957054 -1.106638
 -0.19858824 -0.7533333  -0.25591624  0.6463369   0.3425097   0.4210233
  0.13416474 -0.8364502  -0.53256047  0.43829605  0.546931    0.42398456
  0.9515213  -0.28511545 -0.13714617 -0.17887406  0.33671236 -0.87078273
  0.46727183 -0.17478901  0.7734554   0.65011436  0.06052196 -0.09366311
  0.63650334 -0.53504467 -0.16960482  0.03554877  0.7493793   0.19766401
  0.00975689  0.8746804   0.36783206 -0.1193257 ]
[ 0.6263803   0.16873556  0.24319567 -0.3317001  -0.21608597 -0.50173354
  0.00838923  0.3082335   0.14664836 -0.67526174 -0.32851133 -0.39082605
 -0.15558985 -0.1667712   0.04083039 -0.19680038 -0.43506545 -0.43637547
 -0.13762385  0.43878946 -0.11258293  0.3643178  -0.01761748  0.20359452
 -0.18488845  0.5036778  -0.73533595  0.0696369   0.6321147   0.11717746
  0.04278437 -0.5037626   0.50557977  0.1008288  -0.37769857 -0.39658132
 -0.41159645 -0.34996805 -0.37415078  0.49198106]
[-0.10578486  0.2735528  -0.26130933 -0.37868682 -0.09645558 -0.5514477
  0.47540593  0.59810036  0.83993495 -0.37350154  0.5577949  -0.33966044
 -0.33752713  0.6739185   0.0990502  -0.37079537 -0.38413438  0.38745305
 -0.2900204  -0.35486546 -1.0145905   0.77100915  0.18904151  0.07696736
  0.23481652 -0.12586671  0.26579598 -0.32295272 -0.03478281  0.37406498
 -0.7268541   0.21837349  0.09640079  0.95146704 -0.0733204  -0.67814153
 -1.1308192   0.24543947 -0.40519232 -0.2587054 ]
[-0.8643202  -0.04848336 -0.89752257 -0.5114739  -0.1426718   0.17518435
 -0.9904168   0.06985753  0.51312506 -0.51429576 -0.87055457 -0.5323549
  0.8308762  -0.38177237  0.1410591   0.17594855  0.6539037  -0.5917737
 -0.74560887  0.60932946 -0.37308463 -0.1549589  -0.1578511  -0.14307159
 -0.27310467  1.0253507  -0.350496   -0.6055738   0.52198    -0.16082783
 -0.8199703   0.7919315   0.21592367  1.1355762  -0.48122254 -0.04922145
 -0.356408   -0.55341744  1.4925039  -0.01320647]
[-0.28266913 -0.23624954 -0.09583931 -0.35738513 -0.6915813  -0.34609255
 -0.3372625  -0.26908633  0.13575307 -0.21315107 -0.42757353  0.13084391
  0.1279595  -0.10369507  0.02875607  0.20423509  0.01771159  0.1593845
  0.09290151 -0.22753076 -0.19955938 -0.20030236  0.875479    0.09983346
  0.28917986  0.24962662  0.16195254 -0.27210188 -0.38665017  0.15203944
 -0.31795287  0.11554793  0.48697808  0.15342197  0.105795   -0.3672639
 -0.07021597 -0.23023605  0.20883505 -0.02697326]
layer 3 Activation
tanh
layer 4 Dense
40 20
[-0.17972234  0.07893825 -0.20980203 -0.02274985  0.37851623  0.2501473
 -0.2661707  -0.58612067  0.15542729 -0.12042846  0.6849401   0.3373546
 -0.21708445 -0.1636854   0.48437077  0.00739677  0.49313393 -0.58396673
  0.107901   -0.4274497 ]
[ 0.41429934 -0.5774206  -0.42722377  0.21909536 -0.1318077  -0.22381143
  0.16995168 -0.0714001  -0.12655593 -0.10804228 -0.09524461  0.3698493
 -0.18893617  0.75052965  0.16997898  0.09325248  0.54226726 -0.00386346
  0.14324072  0.12342703]
[-0.26136303 -0.07988752 -0.2267725   0.6851524   0.644628    0.27725703
 -0.2703375  -0.17915086  0.14980978  0.48039252 -0.3161357   0.1323204
 -0.4426969  -0.2158209   0.4145138   0.8165481   0.26444775 -0.85485315
 -0.00971378 -0.22263443]
[ 0.19932741 -0.75511646 -0.27703115  0.20764352 -0.18636817  0.04703211
 -0.10979968  0.1708067  -0.2370317  -0.2331822  -0.15591325  0.7491665
 -0.36402494  0.5016853   0.16206607  0.58323747  0.40994674 -0.52617705
  0.8321248  -0.5710853 ]
[ 0.30825877 -0.40694728  0.11120486  0.38135394  0.42350593  0.21415032
 -0.20740177 -0.18375175  0.02855004  0.1661265  -0.35797697  0.28301972
  0.27097043  0.5352849   0.05477007 -0.2458258  -0.2199167  -0.30635497
 -0.30376825 -0.2246465 ]
[-0.01604005 -0.02426567  0.46014857 -0.47418144  0.28135434  0.2747205
  0.5274467   0.37185696  0.16079973  0.625334   -0.516417   -0.6528728
  0.4705154   0.1583553  -0.13297279 -0.5495211  -0.08255845  0.6552379
 -0.399311    0.11447002]
[ 0.37333572  0.03198048 -0.23059002  0.41353384  0.6873941   0.05548864
 -0.28693196 -0.21213594  0.2843789   0.64111483 -0.2642016   0.51632494
 -0.04523642  0.09586693  0.21931902  0.34786698  0.46727577 -0.37184742
 -0.05447432 -0.32503903]
[-0.06146221  0.5585772   0.30081093 -0.2788018   0.54001164 -0.77421606
  0.0142581  -0.30561897  0.44941258 -0.06644722  0.7250315   0.2213938
  0.4610344  -0.07226192  0.3398869  -0.02140848  0.23296428 -0.24702461
 -0.1075135   0.46354237]
[-0.05380782  0.4210557   0.19175975  0.31444803 -0.1228319  -0.2703467
  0.22099866 -0.4403243   0.20991561 -0.32024586  0.09483571  0.03157295
 -0.12562738  0.08070209  0.3503896  -0.44929743  0.48925743  0.13246557
 -0.12023313  0.5936061 ]
[-0.11428196 -0.20342708  0.06424277  0.36976233  0.5113967   0.0810741
 -0.12122098  0.3881988  -0.01303016  0.42582333  0.4048027   0.4154597
  0.33858     0.2877249   0.09096262  0.16516872 -0.06716406 -0.8933074
  0.01370676 -0.44080243]
[ 0.22295071 -0.15251754 -0.28830793  0.53666514  0.10843558  0.46790388
  0.28056207  0.1978438   0.12236186 -0.0205537  -0.27200118  0.5614255
 -0.14487179  0.37542424  0.30021518  0.14454249  0.04432206 -0.91198933
  0.46392158 -0.1345718 ]
[-0.23857394 -0.68726575  0.00716214  0.32879162 -0.3316319   0.36231595
 -0.09848733 -0.01311964 -0.20181264 -0.30912468 -0.4492703  -0.01297174
 -0.01200405  0.0934405   0.27251506  0.68704814 -0.08836261 -0.2394677
  0.1809561  -0.16036786]
[ 0.08408066  0.00267056 -0.00095448  0.32094806  0.62077963 -0.42567065
  0.10145766 -0.10045882 -0.02392921  0.09948415 -0.14517368 -0.24556473
  0.1697603   0.20456438 -0.21693972 -0.6407391  -0.47940737  0.2562337
 -0.0119351  -0.18340577]
[ 0.22776686 -0.09739032 -0.02912658  0.46419922 -0.14676568 -0.39041066
 -0.22258699 -0.6938651   0.09833612 -0.7228641   0.26849186  0.1488543
 -0.16829754 -0.02651552  0.4194645   0.02618455  0.49829784 -0.23641984
 -0.3648557   0.2271888 ]
[ 0.10091465 -0.22458872  0.4361606  -0.27751976  0.01369198  0.04174513
  0.45792556  0.06432425  0.02562926 -0.2512905  -0.18118545 -0.13908496
  0.0320318  -0.03622253 -0.05780198 -0.59550273 -0.08365358 -0.0664854
 -0.08689089  0.14347793]
[ 0.09605406  0.18078852  0.30534568  0.02168772 -0.01190947 -0.02158119
  0.09159545  0.5531687  -0.12049144  0.38137403 -0.4507426  -0.38141873
 -0.0766826  -0.00180101 -0.2680102  -0.48936847 -0.17934161  0.5719254
  0.44956267 -0.268782  ]
[-0.13936242  0.2665447  -0.39763278 -0.27424398 -0.5005738  -0.04309285
  0.6082482   0.7227131  -0.28346217  0.12098508 -0.38918388 -0.4970327
  0.29599258  0.18349375 -0.3710796  -0.3356148  -0.5792458  -0.2188571
  0.21289934 -0.00354524]
[-0.23870333 -0.06585106 -0.6988062   0.49809882 -0.2587147  -0.21093851
 -0.2520246  -0.04299618 -0.0823295  -0.44915652  0.3782987   0.50016844
 -0.3467424  -0.2171303   0.5810878   0.22205508 -0.2523436  -0.05573527
  0.9515692   0.12541725]
[-0.66576546 -1.2191242  -0.6726612  -0.5130749  -0.20379904  0.52530855
 -0.2992766   0.1654734  -0.2484906  -0.22947405 -0.16569962  0.24392565
 -0.18869625 -0.3543235  -0.18531224  0.27616975  0.37208775 -0.29218522
  0.4482778  -0.376333  ]
[ 0.28150508  0.08156303  0.02969736 -0.5682384   0.25646657  0.17796673
  0.40039706 -0.4707749   0.26424503  0.5151603   0.42835513  0.21573485
  0.52073157 -0.12605181  0.17875968 -0.18084559  0.4925294   0.15920998
 -0.6714095  -0.06872603]
[ 0.2993466  -0.40090725  0.04968306  0.6473013   0.33355272  0.3829497
  0.10647088  0.548427    0.11126021  0.15431495  0.21450281  0.02699643
  0.14471556  0.15491758  0.1479808  -0.33592537 -0.40302086 -0.5422939
 -0.26005244 -0.33883515]
[ 0.20876767 -0.02717621  0.19403175  0.05580274  0.37746137 -0.44239876
 -0.04842832 -0.35055986  0.20976287 -0.43993884  0.23808831  0.4041364
 -0.51822454  0.31761733  0.6139608  -0.1420132   0.3962163  -0.35212824
 -0.23263857  0.17879716]
[-0.68627536 -0.11897297 -0.13142447  0.73144937 -0.18203881  0.12383852
 -0.21570931  0.16876635  0.28061837 -0.10611574  0.02475991 -0.19134331
  0.01499732 -1.0719979   0.26957527  0.14133695 -0.13262337 -0.3198958
 -0.00209698  0.01022315]
[-0.49191007  0.89405024  0.3435581  -0.38055995  0.18402271 -0.03969429
 -0.27859205 -0.16988447  0.30392823  0.05651829 -0.00807433  0.4127711
 -0.0450769  -0.47219396  0.07423539  0.18511322  0.22268656  0.55733615
 -0.41481838 -0.02546861]
[-0.3981537  -0.45153072 -0.3589317   0.01871028 -0.2036797   0.0978891
 -0.6139026   0.25694057 -0.01296004 -0.30828258 -0.09757376  0.29815638
 -0.15106624 -0.32937884 -0.04399049 -0.02567396  0.40915656 -0.77197593
  0.1106189  -0.12607214]
[-0.29260325  0.45591173 -0.17267646 -0.43872762  0.40448582 -0.41067287
  0.5894152  -0.22476433 -0.0167836  -0.59235257  0.0083673  -0.11177759
 -0.02074432 -0.11600806 -0.37587178 -0.49866018  0.18743277  0.33187872
 -0.34562644  0.01345509]
[-0.02612966 -0.12963468  0.00172432  0.611454   -0.3462667  -0.35932022
 -0.03874176  0.6447146  -0.3939325  -0.47340733  0.02843301  0.3123015
 -0.09997193 -0.20699564 -0.01496327 -0.04830378 -0.3924241  -0.46059117
  0.8979594  -0.20473629]
[ 0.16231798 -0.7013754   0.13154073  0.21977451  0.49247694  0.45530313
 -0.23188089 -0.10836726 -0.34115914 -0.25675407  0.57703936 -0.1131451
  0.03966025 -0.06893288  0.1790439  -0.04563279 -0.16316606 -0.9317754
  0.01711063 -0.41704023]
[ 0.2922125   1.1633428   0.19886822 -0.40891334  0.24472976  0.03682014
  0.538513   -0.07369658  0.35792196 -0.74095684 -0.2744269  -0.19366327
 -0.00365512  0.67131567 -0.3480106  -0.4449305   0.02882931  0.1907213
 -0.04017932  0.22621122]
[-0.06271868  0.293424   -0.49539885  0.09701902 -0.43388897 -0.12509727
 -0.11113091  0.17694712 -0.17597605 -0.05278597  0.47869086 -0.09587138
 -0.3894998  -0.17135207  0.25351033  0.08260665 -0.09965921  0.22767535
  0.41507232  0.24000023]
[ 0.31701702 -0.24542128  0.33195508 -0.04660563  0.346462    0.26180178
 -0.14167182 -0.16198808 -0.2876763   0.1019269   0.65402305  0.18193313
  0.24578221  0.14436351  0.2875879  -0.3780522  -0.0067904  -0.85994565
 -0.08710784 -0.29747164]
[-0.00702941 -0.15129057 -0.10657477 -0.5621539  -0.29774308 -0.78512466
 -0.17095868  0.35532832  0.12947501 -0.14536396 -0.13292912 -0.122454
 -0.1270882   0.02422994 -0.08814306  0.39224362  0.30006862  0.62645566
 -0.15004061  0.151982  ]
[-0.97651225 -0.11456271  0.06052482 -0.18732966 -0.15268727  0.04654682
 -0.3303306  -0.07583981 -0.13260889 -0.01684639 -0.05218941  0.23812917
 -0.13015753 -0.47391117 -0.11098868  0.27109858  0.01536359 -0.18006061
 -0.3224647  -0.00747009]
[ 0.11854745  0.02949811 -0.06823308 -0.28516147 -0.26918718 -0.20250183
 -0.12325003 -0.2027407   0.242813   -0.4463828   0.2616208  -0.3490521
 -0.6239198  -0.27452388 -0.26939508  0.30867657  0.2545104   0.734687
 -0.17726238  0.2018124 ]
[-0.21256499 -0.9908952  -0.24680442  0.58410424  0.07292476  0.04953891
 -0.572301   -0.17458689 -0.282857   -0.02582968  0.3091778   0.34773037
  0.04100641 -0.3065794   0.03849481 -0.01090193 -0.04475819 -0.95825636
  0.33627644 -0.17347427]
[-0.05302184 -0.4213235   0.142825    0.310923    0.22471635  0.30008733
 -0.0477206   0.31051564  0.2198584   0.5784442   0.5629404   0.3615875
  0.43669304  0.15788147 -0.08685025 -0.5588843  -0.18745424 -0.5329475
 -0.42350873 -0.37586537]
[ 0.1404342  -0.5576625  -0.07853932 -0.31952363 -0.19622052  0.16297305
  0.4598902   0.64653003 -0.5695923   0.5102143   0.12332805  0.25591737
  0.6850095   0.48157436 -0.5755028  -0.03280216 -0.7680562  -0.6806949
  0.5138365  -0.5425334 ]
[ 0.39297828 -0.46391127 -0.39610508  0.07782871  0.12572639  0.38075706
  0.2253071  -0.36680597 -0.22050747  0.03600299  0.37431207  0.13663091
 -0.41381776  0.71902204 -0.12126444 -0.25667286  0.4078547  -0.4117993
  0.1361373  -0.24647592]
[-0.23999727 -0.3542395   0.22907417 -0.2285826  -0.58572567 -0.64148766
  0.00990035  0.49170893 -0.311689   -0.17553979 -0.1247576  -0.522593
  0.3287318  -0.03077319 -0.37244284 -0.44780025 -0.4196303   0.4362477
  0.00108698 -0.13175097]
[ 0.10985692 -0.07567675  0.23121488  0.44400215  0.08641139  0.37495524
 -0.26650897  0.11011979  0.4591646   0.20982249 -0.21192662 -0.12970383
  0.22150604 -0.42038006  0.02405953 -0.23755066  0.00443616  0.24378872
 -0.4662258  -0.26776326]
[-0.35184196  0.28539547 -0.18771352 -0.01935739 -0.23255588 -0.08024601
 -0.00711493  0.05256808 -0.15761024 -0.19668102  0.08325869 -0.29824284
 -0.21926549 -0.36539543 -0.21826677  0.18453942 -0.10246611  0.05465089
  0.09018442  0.19275016]
layer 5 Activation
tanh
layer 6 Dense
20 1
[0.40209165]
[0.09417964]
[-0.29880184]
[-0.20163326]
[0.11044228]
[-0.25862196]
[-0.07129987]
[0.36268565]
[-0.555533]
[-0.4649323]
[-0.34565267]
[-0.2214992]
[-0.40889287]
[0.34017146]
[-0.29879496]
[0.13569577]
[-0.10851373]
[0.08015777]
[0.2128356]
[0.21629348]
[0.17168547]
