layers 7
layer 0 Dense
20 20
[ 0.35454265120775275 -0.22869556542342429 -0.08810083561740142 -0.24729150826537621 -0.43008462381222995 -0.456652308222037 0.06232222809857738 0.3979405247536818 -0.1466090520643477 -0.19704533000057234 0.428310433786531 -0.1916286709934259 0.06280546232192723 -0.6841407330602297 0.24244756339686008 0.6329376560882595 0.056673331974522304 -0.21377030389265045 -0.46790524014803636 -0.11926465573681971 ]
[ -0.08650572775354748 0.17133190856185704 0.0687320269001794 0.30265947954463257 -0.1927912805320353 -0.15914279423243988 0.04149330190701456 -0.21562939015362012 -0.13148586403251672 0.3734074585249216 0.27689465618392817 -0.19512405724171117 0.17232489314399188 -0.29250178487614115 0.34862128329553665 -0.3237206221633935 -0.12226914766258334 0.039932002913894565 -0.083836946672474 0.22548399241679937 ]
[ 0.16465331522794377 0.19674809418721717 0.322012939415219 0.3138992820674168 0.010985967098662577 0.3824127311636713 -0.08255618506210569 -0.08937909791871021 0.380531398344021 0.14390324762355167 0.3765641485852809 -0.3318530662854563 -0.36429963626158696 -0.15770539010382634 0.10499870566473755 0.3432330021236478 0.17774265717877114 0.28218474446004393 -0.2793851409363804 -0.28415947648421 ]
[ -0.27622928760805116 0.15632221083754058 -0.39570450447051386 0.07825928322813554 0.18659070102796707 -0.02151598608674095 0.496904682215679 0.5144249198714389 0.2906582147526001 -0.6054899083684686 -0.13820839161313953 -0.08872767759288488 0.4287148398393047 -0.3283240082000467 0.25193330750751036 0.6125628009712925 0.07136156492588036 0.06768286043201757 0.22309218592013216 0.4712697885824655 ]
[ 0.3552523526379888 0.43760216462913015 -0.33252797827813946 -0.08805769839682745 -0.16862711750285875 -0.3894663390448543 -0.0603326322559422 0.44386107720737966 0.7839198810791128 0.00048352612398335046 0.14867393069272805 0.2107669606365853 0.4524992527975175 -0.2836809719898496 0.20774196742573892 0.07166851532009519 0.34295701124242606 0.23886487100931875 -0.20355429319876267 0.08404141741328297 ]
[ -0.258388073676147 0.01960050795579093 -0.29869501941650195 -0.18426407204961553 -0.3662822111429619 0.015301949882906401 0.07632558295091706 -0.1990624718928021 -0.37679533057685155 -0.3549910204363685 -0.08124616752464031 0.001400693643142525 -0.03449842615110663 0.3062630790098096 -0.03517740817602134 -0.2776844087205255 0.35666630286792944 0.21863101391423181 -0.16082804408987125 0.10940201621103722 ]
[ 0.3739410154154119 0.0006299583947451729 -0.029666696140572407 -0.09088728942790118 0.1535391490215286 -0.35238324590845144 -0.37196973008585155 0.15499727282256628 0.12224934910412641 0.025831614184660536 0.2739831754879643 0.18550337905837566 -0.11478150602847512 0.06288703818752006 0.12468279143146348 -0.23080479585612834 0.33083348950872304 0.13377463156543692 0.32718630783147046 -0.26882828028411304 ]
[ -0.4868682429305751 -0.0915257814518927 0.2801438104175725 0.08032332577592284 0.17593301907320044 0.21929564944542104 -0.3291850883601604 -0.10577956616298796 0.11708901356362851 0.6658763901869602 -0.2655091358001613 -0.0920815260451012 -0.3037656568186041 0.18311083545892765 -0.15284347827652622 -0.4722596130642628 0.3025130800985051 -0.3018658473900323 0.5288491808699035 0.0092612784701677 ]
[ -0.21637173235405402 0.3896448283485078 -0.26538259093323446 0.11459776558743383 0.15800341083667968 -0.47720952859046206 -0.07436224912312096 -0.23730224220052898 0.18173016992785998 -0.14997320677711326 0.4854801931489642 -0.044561270123514754 0.46939556833040064 0.33930563842182043 -0.2526577185142242 -0.6399612537117682 0.38362556376051676 -0.26270420466422123 0.014973768524981572 -0.09334163029953028 ]
[ 0.6037820691415392 -0.14605675288140824 0.1588734815450522 0.3639524654743288 -0.2511273862380419 0.26865985969825235 -0.09046609611477664 0.12944636115759836 0.3801185466722399 -0.2646076533005715 -0.48649440958101964 -0.25232163859097195 -0.2404526844023731 -0.03770970009231628 -0.6043570102203808 0.1277266428308501 -0.2577609152097399 -0.10931006584468482 -0.33377438257302877 0.1085335015455391 ]
[ -0.31859900544007264 -0.006772020023010187 -0.2408020776434493 0.4032280677198543 0.09788796141135149 0.05064615835368479 0.24810033949166144 -0.024778592016029936 0.39710813786348964 -0.013880903445541921 0.17857225359387646 -0.06288194711494745 -0.2938811430667907 -0.13426344291374093 -0.20276491622859977 0.003986119757085049 -0.1303972284696324 0.7798456600566492 0.3009760842291433 -0.33961764986239523 ]
[ 0.8626735560083172 -0.20094893690544677 0.5892856421104459 -0.7830345579721351 -0.6310906331425468 0.4386180080280337 -0.9056132714473867 -0.3629500587465593 0.7989055955870147 0.888112009535452 -0.07645783635839057 0.168265625446951 -0.5091994525587522 0.5500978302111056 0.09753532478133413 -0.8793053170157269 -0.11383295121989166 0.6700205713059587 0.6451701468346759 -0.18714245108175204 ]
[ 0.11522610666694315 -0.14944814761956837 -0.024105987208615638 -0.04131669224388901 0.35237361470829354 0.20499580230853398 0.2910693292986155 0.3189902121417952 0.2513931008268541 0.036599718171149494 0.37792227936471534 0.09068032522969292 0.9037781666783256 -0.14183903348586296 -0.3551879181125597 0.18485694251916981 -0.08066616585385876 0.01773203140042371 -0.5701826823237741 0.41679402708149954 ]
[ 0.28489073008806504 -0.42414654186129175 0.10613338604812873 -0.051335629117075746 -0.09478955064018695 -0.04196173117127746 -0.23684323107367833 0.09689447585035708 0.06566940664959091 0.01202935793068736 -0.1276890644090346 0.5389273976040131 0.05259438543355682 0.21373241983258975 -0.24574873645134823 -0.032103187585925175 -0.0888585538224898 0.18544440730633685 -0.37361049664908763 -0.18331318761523008 ]
[ -0.04584678794533872 0.6296909955089567 0.05368810067841083 -0.0848857959173487 -0.06477254696570703 0.044737159113288266 0.14243683984082342 0.06112547901632588 0.33245711182241133 -0.13479068193961918 0.05407452019339064 0.23309927206126957 -0.16467976327464626 -0.012272187709011347 -0.3014090006211442 -0.11720640661355836 -0.6027773027583535 0.28596999065587747 0.17476217772632296 -0.6696551407701232 ]
[ 0.7671559669891624 -1.0430644988485904 0.026488403792955344 -0.8492110281242794 -0.3501712377602573 0.8563731748324682 -0.4801590506416097 -0.7106084530856023 0.3151717039303236 -0.3169655354230836 0.07215677934305116 0.22875879589206743 1.0090758729137084 0.19249333546150404 -0.3732168762676882 -0.1653928301310823 -0.008211610036924987 0.8482383466850024 -0.39484810884785826 1.1885982870415215 ]
[ -0.17201681502670937 0.49571240552293416 -0.12303369938896673 -0.912271083089933 -0.831507314579349 -0.5563265031854622 0.3044753344538551 0.1849895375048675 0.13428779077475567 -0.11687729579208239 0.6357123736650051 0.47904068798828603 -0.40561064227772453 -0.18725955018588886 -0.11595535356111675 0.0030065154581489445 -0.36592425332211637 -0.40104892717162965 0.38432679993852503 -0.5895646879590517 ]
[ -0.3300189631346872 0.3693920635609055 0.02699292267626666 -1.1092310351761752 0.4685618375171031 0.26640188264899467 -0.35113820762457215 0.052379289331221976 0.4623411520550808 -0.3474672791877372 0.6040653281194514 -0.1828727810765516 0.7961915892041135 -0.1510418702812548 0.9905332900968364 0.37074182395353106 -0.07381754879840105 -0.1358319257881468 -0.24789264135197356 0.3706329312161869 ]
[ 0.8767038319809539 -0.16980061788987624 0.39286723489634856 -0.07545680984014996 -0.16468286263913373 0.40678538104766193 0.09176483483560673 0.1259881640731857 -0.5897447795596262 0.20395105697602756 0.498902202151867 0.4405713772522514 -0.01952845825223323 0.4147196006759042 0.48615012848044625 0.07713430678773264 -0.2386079641708882 -1.2522055548698792 0.20141277683114397 0.41916742747140034 ]
[ -0.6910968983281194 0.07507281096161536 -0.24292732005444753 0.8912891486885122 0.47600933251233585 -0.18136406166605343 0.32658912921061883 0.5714315571819482 -0.48998046910292403 -0.4946406549973435 0.577349256345644 0.2969169851532617 0.05519899465762531 -0.30675982907181126 -0.2728569901703995 0.31559743678923063 -0.1066952015012482 -0.5726473111727326 -0.02355819708384963 -0.23564468804848474 ]
[ 0.07719181035370945 0.014049990598277743 0.004249937402761235 -0.017903965557129562 -0.07097139672896689 -0.07092026242903282 0.21000806069837474 0.19292073875651747 0.03079940809470642 -0.1295011973929808 -0.04734058605725205 -0.06980780662614072 0.07516480714384884 -0.34381351917321756 0.09927052718450624 0.32001218514961255 0.05055424482363461 0.09715919105660532 -0.12476231384169545 0.04444279320961049 ]
layer 1 Activation
tanh
layer 2 Dense
20 40
[ 0.5529801667979181 0.15119557759397814 -0.3008960194326001 -0.07853787938301027 0.029043634593065547 -0.18813169039833846 0.25584682402899983 0.13098512475755586 -0.26840565585910403 0.20732580566877512 -0.1066441540025529 -0.036951192247114406 0.5078105503747798 0.3731417350213778 0.060672177836417006 0.1920299605336595 -0.22647587854490284 0.4273135380808466 0.21980452528829106 0.7604160874154281 0.12461088859001533 -0.5244800710948565 -0.15833564118357688 -0.007866469007953375 -0.048487609293341435 -0.0037217313666293053 0.04815525222220179 0.5167201090590444 -0.3187381519988778 0.2694648388949249 -0.2946313080964094 0.4822003877350568 0.19517373489148693 0.34973390304542035 -0.5171157224785974 -0.2442863530286311 -0.29072603703215627 0.2959342394461378 0.2517581016254782 0.6345267027062239 ]
[ -0.41096206151430625 -0.1521707694737453 0.060291476484342583 0.06920873206890721 -0.4097163242828873 0.34773433183710023 0.15216654370577398 -0.08427380183683676 0.36202794502708324 -0.21211979483646481 0.15067255961664608 0.0400242748333441 0.06443612961457156 -0.358863337006448 -0.17916687989623603 0.05833540605694682 0.11075236170942926 -0.06780145735351567 -0.2685870884087698 -0.11400751451525941 -0.318909262997161 -0.08874718294812609 0.11573114447772798 -0.11901803964081992 -0.18055244422156067 0.37860818684821507 -0.11628299217762186 0.08226215312253916 0.5710921219633183 -0.01214792268851678 0.16276049964070616 0.10249189435629905 0.44056681537062486 -0.1286893369884332 0.1527911325246452 -0.020692680844298726 0.025602582317499085 -0.4339635233978271 -0.3486554135803859 -0.4335717529407365 ]
[ 0.2668152620235541 0.25392742852327804 -0.19092288452760814 -0.11026613817008174 0.37325197257022585 0.18017087112740726 0.06275050898340803 0.21875495575687326 0.15606179360824912 0.20675900881091233 -0.07769047443038611 0.06302060580042639 0.13354301688173728 0.33004957523125583 0.07548003586411742 -0.1324135659534958 0.010127352656396822 -0.026413820806709083 0.22875480467319137 0.05211387554003247 -0.16359043494758418 0.13610638305629807 -0.2559737939192738 0.20927551872707265 0.42568430919366007 -0.0014600904753333253 -0.16281263216081196 0.11823482287980748 -0.14904392290916404 -0.18767431716140073 -0.23308172093892607 -0.14178018999182634 -0.08512406211236417 -0.3008934584321611 0.2672144618940709 -0.18486788689601727 0.19700196885849575 0.07367357122097054 0.21447144029628573 -0.1973845040451019 ]
[ -0.26171261082070646 0.10182550522039943 0.2570930369422711 -0.42454558798777015 0.47862118642879065 -0.2306556024800973 -0.31767210647191463 -0.2055353452225722 -0.1334132247468707 -0.02843852326343324 -0.09751480556841075 -0.3036443771360794 -0.41816073654746155 -0.6217267951075384 -0.5642012214058901 0.1751133002509616 -0.22914659420424122 0.0009490024686139354 -0.4620871493518186 -0.11648774787621154 0.16267649605681328 -0.016332262344682807 -0.15615835624861998 -0.14583414433030376 0.2911970338078989 -0.11998562191605319 -0.17915566041927095 -0.7299694303975026 -0.4166539068525702 -0.31284934789632773 -0.11650505857761592 -0.16305365885961076 0.4486085219569788 -0.1557042077203582 -0.1446458051836884 0.2210954131113456 0.1318518850224934 -0.17335341303138507 0.2648501105724162 -0.14593965497696512 ]
[ -0.3137699423022392 -0.1665452641149438 0.5615318673846355 -0.2447899716306383 0.28282806237532143 0.6038782198457724 -0.7364450344825402 0.06724154687452445 -0.022131906594979885 -0.29582863286530087 -0.12395268975144705 0.21683721974328415 -0.6205928780997656 -0.5158783631548483 -0.24411363723648052 -0.03906323855221599 0.6243411718953149 0.011205910981757312 -0.16783104747925923 -0.030658802761256657 0.30225238206700056 0.7521543292365424 -0.0688491855656483 -0.1762241388980865 -0.3427240321282995 0.32787155406575325 -0.09359194828728613 0.1814203707453372 -0.5963805430636622 -0.17906133495914334 0.14507956007166894 -0.2995931040246567 -0.016627527987602732 0.17879046605255422 0.137519174764741 0.035694457708666666 0.5426485116446295 0.01011004779531543 -0.05000639899249776 0.030029700678324407 ]
[ 0.19911463097732043 0.27137116911891845 -0.07001577663509737 -0.17784688633730603 0.17938755088337652 -0.03380221892430508 0.21053995861949906 0.016676599340124467 -0.2596783366503195 0.38840444270245983 -0.005298555664201142 0.12268766415448679 -0.2924695471222802 0.19191612380018494 0.26443970061826877 0.0632873273253776 0.33059087708628304 0.10623247161352144 0.28288076952189817 0.14281109562859456 0.3322698633197005 -0.2642532706882252 0.09874207184597626 -0.2525823048605259 0.2736932725584683 -0.24842044701254537 0.006082007300999208 0.032122275860103695 -0.29889317272580385 0.3622489852849055 0.2715684489061837 0.3540206785284227 0.12228665320096306 0.2718261678622153 -0.3359164774664844 -0.398550261027951 0.2263566393504281 -0.07912934882685378 0.25643586882513203 0.033113185890849245 ]
[ -0.487286004525211 -0.21531525638797885 0.45385493329282506 -0.22779797725349915 0.18931485319461838 0.31684536515874573 -0.5330833565923231 -0.2251547187482856 0.47719666733761995 -0.6057686694746752 0.1870689129350272 -0.11786436753513961 0.19488400470222492 -0.5438691854233804 -0.35906307497420287 -0.17957133229627406 -0.15737993168684006 0.7777175419610103 -0.627237670306135 0.22242580598285105 0.12404699018956596 -0.734066756560068 -0.05606479291683783 -0.09600511364416812 0.09708394908912665 -0.03670887860389505 0.20184593672352116 0.055151197111636 -0.13294717036878612 -0.042636555007577896 -0.3571522934620811 0.1477375030361611 0.0452672202814373 0.09860070170558316 0.11613460773664967 0.08476469797051998 0.038555887451249035 0.029455957674336647 0.0990464221611567 0.08666266030458952 ]
[ 0.07707627659116575 -0.48694097918162327 0.3131228114616391 -0.47039246730844914 0.23966244829152392 0.12662009184369702 0.1895996375073154 -0.2337105609241889 0.4396164652083026 -0.47076211169097515 0.45930079009127134 0.05687791515725473 0.24201898478226438 -0.3188034755688785 -0.42718868941549504 0.3229166187376418 -0.18191392174847457 0.04633222894232944 -0.5230076111910376 -0.17188241743915475 0.2789779059032479 -0.429228543399083 0.04386786655932251 0.26469790357744627 0.11409277126361046 0.3511096959170269 0.31726843861694076 -0.308602878751452 -0.047137488585897336 -0.1279995900255846 0.1740819634032985 -0.2242557969039925 -0.0044824208572320015 -0.09743791670276102 -0.25633476296179347 0.37277970120291704 -0.021858311874871642 0.18509788166002866 0.09413174847055811 -0.009931946827281499 ]
[ -0.2115941619107308 0.03648669846996478 -0.3030554737046669 0.4926480626048012 -0.10894035259449607 0.46921122446505015 -0.3604755364459155 0.1566554700105422 0.1492361015061579 0.18273810257973774 0.04636583767857208 -0.34803911343579713 0.008761511880994615 0.17129207766063403 0.45608632833074003 0.08059798548148468 -0.08520921539147278 -0.15103979032759493 0.30175546207104087 -0.19438537444405854 -0.12220130231714159 -0.08883984916878411 -0.20792633599107282 -0.02283716424682292 -0.5915593790751369 -0.1840509741122432 0.5779778036717824 0.17069621411049063 0.5748887578080463 0.06415309287069659 0.22040621183166703 -0.10245659127705968 -0.3299516764578814 -0.011366007602534546 0.38776656567124695 0.4925711765343067 0.03641092074522641 0.24558205395736266 -0.000774658791296507 0.47526902499563844 ]
[ 0.2516618128082362 0.2393412622513609 0.25307914921280766 0.2891744434657142 0.0021410416437787484 0.22980378784364475 0.28529132105327665 0.2146181944596933 -0.3370194774990186 0.4630494543715967 0.051547813120756146 -0.38002770926422547 -0.22447286379126466 0.3938684632252159 0.38394311872173353 0.19707032942475625 0.015868037626650018 -0.1499592374869622 0.18811479097409275 0.15310726878118333 -0.11501622271561045 0.5578936073399122 0.1487261718938237 0.1647261627332319 0.3467169858977909 0.1560420640555435 -0.34701030586502307 -0.1734730998465236 -0.3355998703275865 -0.045558790856634564 0.0327426156621901 -0.026371187227007487 -0.27421134204450287 -0.4373113409330623 0.23810420502525662 0.05580574116470421 0.2689744453225261 -0.14343853522633954 -0.0228510676643772 -0.5552675966231669 ]
[ -0.27013980990558 -0.11285735573307516 -0.19213565829860754 -0.03323880578723329 -0.36776807715797394 0.3592218962982905 -0.10219983125621457 -0.13710049554153522 0.4775631487137159 -0.07284200229626495 -0.35225784030881563 -0.0911912817982411 -0.02735976413969095 -0.10938101309766766 -0.09503807520733588 -0.15289279269129485 0.230468117764192 -0.19686903799783828 0.04439176395071966 -0.3606835988465489 -0.3200203641975362 0.5607518946662404 0.24332270909490053 0.13634488371381323 0.13742559971710677 0.42567443641284364 0.0650679102817341 -0.5203007304064737 0.0031085952749647233 0.23288123035597588 0.02620454488724166 -0.31958257404573853 0.12312854067914235 0.0004042609429291942 0.12903707670204573 0.22888398676089206 -0.07638958345610111 -0.14392007223622494 -0.014974769936027522 -0.2889746979821463 ]
[ 0.3696781089234921 -0.05523184760150533 -0.18456314832172174 -0.06420823124385613 0.294468444027524 -0.07200447219124503 0.225526200489586 0.14239447370763977 0.21264846054085518 0.19471823849224415 -0.06571988002175601 -0.33089192326154115 0.07793383348607848 0.055937816835712986 -0.2218837168855951 0.10474578433461224 -0.3510657526290041 -0.02278002777057473 0.06775393985462834 -0.31954768191971594 0.265985854547758 -0.10029708686304298 0.10647807380156755 -0.1572134925718143 0.22432486340407967 0.07458500279902029 0.12070429229873533 -0.3562958876147868 -0.2052193714979171 0.11771186051544763 -0.1147123818009042 -0.11137556179856278 0.3104856079952012 0.14106270815646804 0.09000387322267382 0.39876288906650154 -0.1500175503791696 -0.19291457241444804 0.018988877062141245 -0.19581503375620582 ]
[ 0.04577786325877913 0.14983638044113226 -0.04121590134496253 -0.5820179623252071 -0.06536163933297297 0.20154883483498048 -0.5016696736245815 0.10066006409775907 0.12602574643238892 0.2021874036914909 -0.4126416744411085 -0.45162979828140315 0.2744120941754522 0.015453463634332453 -0.11856297151247337 0.26100846688383667 0.47364376160630806 -0.28346196720571404 -0.06381452148675651 0.2707887974709788 0.4500557018731026 0.8505423313281989 0.16013346534915152 0.13216783614801952 -0.5985354154028883 -0.02372457009209521 -0.17566145602806335 0.7205764601490328 0.0957339223520471 0.3785986061330638 -0.26029371717680605 0.271800533755448 0.02138048367233837 0.4112448002958129 -0.3053575927044345 0.4100589189575949 0.1459231193320455 0.3213846028634982 0.7000563591231822 0.19381097405241787 ]
[ -7.153865632872651e-06 0.2513981148122217 0.061043097278680736 -0.2459179308411439 -0.017009422166633894 0.10616639220620373 0.2339860950560789 -0.16088009317878613 -0.27373502526039745 0.22235777228027095 -0.1744126740573126 -0.2368210629095261 0.006650693832965435 0.38411922408218946 0.29448386433218654 0.05500749695215018 0.30339133433051974 -0.05423044121260861 0.297893115192292 -0.048482636659020216 -0.2940124994695049 0.344420799170529 -0.0661217287224713 0.11043091258552314 0.40143978412937037 -0.1799704620240473 -0.40494671539434285 -0.10153362499608691 -0.4065734965270777 -0.19183177615136493 0.16798540304588272 0.17520212415285466 -0.03266308897275556 -0.18328466110536104 -0.21018425133537003 0.12696322441313979 0.06602015967315299 -0.2669230493740855 -0.36574360391662886 -0.4901404985186951 ]
[ -0.06398158153819428 0.005316645647701363 0.12765035413323428 0.20609910760675437 -0.42600454646490826 -0.09305486477024524 0.3892031378294268 0.02824386658112069 -0.028556165455439493 -0.3154843041730711 0.09894326454965333 0.022483938554508025 0.578235005011787 -0.03297427244764123 0.05420370106645267 0.30795272127183027 0.10379137617689344 0.22800199420642892 -0.2320618656407886 -0.0983706173109707 0.058059152937277175 0.017577435955101518 0.10177605981969709 -0.2161345595606685 0.27264221874269273 0.22490490498136712 0.5193003920652921 0.4337141394154757 0.44292919419531 -0.26082156799354306 0.17748347423710323 -0.015080804489617232 -0.08121732225868795 -0.3954374242693992 -0.6133674031835814 -0.41288328692333337 -0.386378134099262 -0.032346898525221865 -0.19546806634246403 -0.001594240714570812 ]
[ 0.13005286052751697 0.04397951139562594 -0.21965110618104763 -0.4981561750523583 -0.26357551809662966 -0.035351773679171174 -0.11563047250967812 0.21826348931787307 0.2783997859871193 -0.5386683318405634 0.22407381610422192 0.028260777971256593 0.16463600143661747 -0.4051069520632496 -0.534596600096936 0.15294445382036204 0.03493138455915503 0.29926919734278945 -0.18887232829427403 0.3178678294723824 0.023709242577010275 -0.2672898384736627 -0.262932302463104 -0.10871469544602969 -0.01174576409008996 -0.2830946798576149 0.38794794101138297 0.4972804511471347 0.025907345742032153 -0.04396708344133533 -0.28448119382880055 -0.07803150759328861 0.18216895558290824 0.5308528849797644 -0.10056122679524275 -0.26128279365561313 0.06770968081102426 0.5014377638534652 0.4916635536974432 -0.04130950821117544 ]
[ -0.07356657194344378 0.172431487641421 -0.0434302545033183 0.2553523281827518 0.17943881725116437 0.09548681791456472 -0.028753208720321975 -0.18246019411317088 -0.3551330840248682 -0.08352679189483382 -0.022823513704289023 0.10963360844237985 0.2113964221852387 -0.11588938148513579 -0.008366982546643115 0.06267434432048377 0.09203620705430215 -0.16470208086399818 0.13446973724682018 0.14000016060196144 0.34151666611362996 0.7179124935279316 0.20719896902524654 0.2910107524006503 0.04396328888703489 0.2700759754271209 0.17700915676810827 0.060275306822814616 0.0746138362298098 -0.26309476293996875 -0.022330053077715573 -0.03833145422097294 -0.10265213729159749 -0.04008834493720342 -0.1607630372409358 0.16694577807430644 0.004923729881503072 -0.005800056128626442 -0.017545163924341092 0.16395377003672898 ]
[ -0.1602784864426422 0.4435481087882696 0.4296911841213627 0.4937069174039745 -0.08560781970576604 0.37014477522161204 -0.48996852646975564 0.22856695068592825 -0.37219643305177996 -0.08868732958115591 0.3080888162829591 0.04791207284434389 -0.5079007173707543 -0.06616264151234108 0.2031179121731571 0.4795844389587728 -0.4293118809341572 0.16599188836404993 0.06962334649379708 -0.09764061245434208 0.31832901675773834 -0.5317108006408857 0.031008184848078494 0.054178154417411375 -0.763405833564194 -0.5283294251656558 0.4572272483686004 0.704041270266094 0.5217160590342146 0.2304928079966754 0.5179455914751496 -0.5169166391590174 -0.5534529743488952 0.1776890494898083 0.2146856813275454 0.5046508644469004 -0.009726015134154057 0.32838706237100473 0.17608367898350266 1.3407423733708277 ]
[ 0.5712044463384901 0.16608702975984563 0.0717476199981022 0.7808080219489475 -0.3068625709270142 -0.25670689537714275 0.6056888666376485 0.19146302193493753 0.1854828534290692 0.5862421192701522 -0.23106144432313896 0.39657428708770265 -0.11155666877613306 0.040159973570293814 0.012414163329774887 -0.1786715945522408 -0.4137640071014232 -0.27415118070445516 -0.11002235217998509 -0.711532113872056 -0.7276550803402907 0.3851607197450792 0.5644107113918114 0.6051407025613825 0.4234904793546771 -0.3723461553978376 0.13172868931495085 -0.5549476764351967 0.3878974126643166 -0.06667209521461451 0.05831858482649222 -0.09093283637436786 -0.5836646133741924 -0.4453100515111467 -0.14493379184926303 -0.7408118794216385 0.20431186135137816 -0.2717496258639018 -0.4153317261440545 0.0352207182431759 ]
[ -0.14436682144582236 0.07834239495650203 -0.6027713784410672 -0.06746958803104304 -0.10771857356365121 -0.05144199310920451 0.008141972775549407 -0.42298643700848954 -0.20145807840784477 -0.17803420600138675 -0.4037302712610511 0.2273938788513978 0.1929602015629857 0.24666035169719022 -0.04045448170566478 0.32510691577657713 0.40248334148262305 -0.02267306179332299 0.27705612281049014 0.24955610793734798 -0.06335820651926878 -0.06547496950274491 -0.24933082050223643 0.2867416826837023 -0.43468458793705345 0.21683220657537478 0.13630263925122638 0.5099636459138421 -0.4803440552109692 0.02631143470271507 -0.20484205409608292 0.25715537633602187 -0.10289102847626327 0.5366124513982831 -0.05288309382338378 -0.38523925807900905 0.35438886006715825 0.3995309170720123 0.17922948171988573 0.27869382678479654 ]
[ -0.10472150482582591 -0.11539341513807251 -0.008266136003266915 -0.21905991477511574 0.015829293841503705 -0.11825636991107 -0.08754275042156809 0.07536154351404532 0.022368908267853135 -0.3216299277338146 0.10350807201827882 0.07960863906425807 0.05751632251511488 -0.24459153509502837 -0.31655933991454704 0.11193230673156077 -0.04106139496642239 0.2655090265681853 -0.18578229103346397 0.12368772412328963 0.13142454030013132 -0.12190799978838568 -0.010187139588538629 0.14237944090333687 -0.07334019893380529 0.015467537341674348 0.047499342494226555 0.38477745689139076 -0.07066726555111066 0.042671720376132344 -0.03569503116894162 -0.06367783869651686 0.037352798183107265 0.16892128543865556 -0.13728953061549626 -0.06524923552852946 -0.04658312613341243 0.15967145995596066 0.28398471770411726 0.2830199602965282 ]
layer 3 Activation
tanh
layer 4 Dense
40 20
[ -0.007998644100749845 -0.04832411483449383 0.1627744562426002 0.2343824876960379 -0.1355740808124001 -0.20736595267583643 -0.18041651635076483 0.08228057350070159 0.2957930210330362 -0.23186818866170764 0.07820634173637418 -0.3017729929260769 -0.29276973868239375 -0.13437794772099526 -0.3037961343444248 0.08939248584983611 -0.24941700560280022 0.06816314295211287 -0.19658214905284632 0.19251015813819533 ]
[ -0.1552183294135568 0.23061217865284991 0.11574343547619739 -0.2794447633593441 0.10580885041784464 0.011553811019172673 -0.29168599020315944 -0.07284950902129844 0.13584099882915832 -0.11823701555695756 0.19988269006392925 0.18175320621627317 -0.234880255894893 0.020596685236557482 0.009676832413600829 -0.20101318036579754 -0.1084821125822248 0.07462650968826076 0.06291322338304041 -0.03393644942920186 ]
[ 0.2646808662480277 -0.08588519532279379 -0.11671552066476623 -0.09110242723848679 0.07166409739059003 0.17300991947450817 0.1464062729420354 0.07957776445162733 0.07892810144009392 0.029461230998250557 -0.09720412981120223 0.23086467338243602 0.24867666846835304 -0.004594124185144923 -0.058071966830957354 -0.24947471251179368 -0.15379343059540898 0.2523228902498303 0.04179406177107235 -0.25286080251833704 ]
[ 0.10282649443454246 -0.4955831026225981 -0.04561426757536218 -0.09106688512103471 0.5571665842532869 0.13714949049990496 -0.2120129318657537 0.12463551824214167 0.001423682818305066 0.18669624506917404 -0.1918202375258714 0.3770814435211802 -0.2704534154498353 0.47662191870848497 0.14657638645845453 -0.1806867710746092 -0.23469709307530404 -0.21839710463436826 0.37134250925002243 -0.16365052637193306 ]
[ 0.24746115896585288 0.280391339661462 -0.07664878027380422 0.23072735275158415 -0.1234643613060222 -0.06702462254488155 0.10319928251947 -0.09524941223081101 -0.2686482869500943 -0.03522364428406155 -0.005403716766881314 -0.2183693042116098 -0.32822898500237385 0.05898493661364527 -0.27743957949331943 -0.16528772919595064 -0.14736939814281141 -0.19312877155015581 0.14059348741591735 0.16223545626982813 ]
[ 0.40941098601059916 -0.18580937651603022 -0.12031594503724716 0.10081088375954948 0.1675779367807387 0.29790998244435 -0.14140294472376852 0.2351772815846592 -0.4107847003786328 0.2863484383734498 -0.08920777804763255 0.010341486109623757 -0.07608963945638576 -0.3173368989304607 0.033128561677810586 -0.03367150254286086 0.12439374998165986 0.10568335527926892 -0.29660214106720467 -0.3301002966916076 ]
[ -0.43570745820410417 -0.39862701796609257 0.1334645494024845 0.15548233005502204 -0.4005331053092076 0.3276773243017325 -0.1452437571466756 -0.1366709750816032 0.04788522727757713 -0.5058577647501247 0.15185291257373595 -0.27768614533145713 -0.18466251982654555 0.2976370611118297 -0.2958947362710511 -0.18130075975297508 -0.2976530807236963 -0.11068914592177813 -0.12670918054264727 -0.12669204453572627 ]
[ -0.0942124990656062 -0.11798006146899016 0.09075467048133518 -0.07314043588019757 0.25391198540265936 -0.17827964753047712 -0.02419418562522771 0.10467177079536194 0.09759398079734195 -0.0853176311371229 0.07003723171048185 0.18883849814308176 -0.2412006220149772 -0.23440174596082142 -0.2725174736983777 -0.10425049988149408 0.07407593530917936 -0.17251796913765255 0.30007186227747723 0.07362266296276396 ]
[ 0.16295297557808436 0.23664516925424023 0.062082754870369856 0.25084700370586077 0.18855547017424473 -0.06559146018880824 0.23039895362594978 0.11755309857951259 0.07045840461997888 -0.2914604256821525 0.12072138781695653 -0.14690564850347748 0.2673181251870011 0.05785447067883836 -0.1275861553221711 0.21680489634579186 -0.3255995849420781 -0.43536807017693985 -0.12731270199834493 -0.1601165514990157 ]
[ -0.049551611311868034 0.049488791999657736 0.19197483854950873 -0.0970922966359651 -0.1310424860199773 0.4448280909369294 -0.15521348369418222 0.37686862084161016 0.2279449035979784 -0.03914295908606539 -0.20503157175911385 -0.3082280193068572 -0.26057672245785884 0.1722899432203579 -0.3864227764697702 -0.04743578454255409 0.2087998040829391 0.2298233294471781 0.25981064141202725 -0.31207268324745946 ]
[ 0.1485460461371947 -0.10489128141435103 0.18912707914913865 -0.1869428112196122 -0.18912544355991895 0.05319115106073427 0.21176926685598904 -0.12260225816276107 0.0995996920813665 -0.0941760007920531 0.07137021385633892 0.27337528988911314 0.2784150321560635 0.007198526521118414 -0.19791596380964072 -0.19369576818604226 0.0917689101941097 0.041843409382893736 0.12958184551445462 0.34941958318944377 ]
[ -0.07409407189094924 -0.2062860805164535 0.10647255128482787 -0.2452388108403169 -0.18457078142860708 -0.3151630635411958 0.0012686322685807772 -0.204926838645335 0.29192592182013766 0.2661717201241366 -0.2936566252649719 -0.08015873110577962 0.17524228123007468 0.32097778711690866 0.2711140242978498 0.15345702889901894 0.08551388941108694 0.3278306491151754 0.08987211975462382 0.23859057538222067 ]
[ -0.4026446642008489 -0.10638050336969732 0.0655407527619226 0.1787761549924037 -0.19544365496484045 0.04364621968883317 0.11790644593474178 -0.34640813396052855 0.27918577447008125 0.20090084752888285 0.010478201601592983 0.25036826518877403 0.09217856632105663 0.1510273426497476 0.254639552706287 0.13182720684991206 -0.16486714914659117 -0.4147847203970603 -0.2552186797354962 0.19822044581144047 ]
[ -0.13794264971293213 -0.025665131403342756 0.052905268756148996 0.2289340089626353 0.03200798698330206 0.34407299987620404 -0.25949213295000423 0.14692183935999995 0.36924805138335 0.033321615118206895 0.004705460094709693 -0.29213675690482493 -0.34631426499337287 0.3917466874597157 -0.5095627680943311 0.2997508698425903 0.1175163468744469 0.20915311482672025 0.13645233315785166 -0.4288509387123461 ]
[ -0.27676860738508846 -0.3698447374191643 0.5426844478107925 -0.026300257960444228 0.13907382128473605 0.6570318927029382 -0.24115919929834123 0.27325531983683043 0.20232657621964453 0.03895346717375085 0.00945236712655527 0.17225832113464418 -0.07946767981036164 0.4820970618315465 -0.06831746470556513 0.04188058726377661 0.030131615138879964 -0.1850782475909962 0.17235185558546784 -0.3528509989306941 ]
[ 0.11088593527826411 -0.01587889755503469 -0.039615600767424874 0.1653723996334761 -0.11849696221322514 -0.2752126929533053 -0.22997738094755515 -0.10269287289564327 -0.12006619611682423 0.18258213253091854 0.15054842767746296 0.21654689528808765 0.1485319552359452 -0.02245521978954993 0.23002060076135622 0.4040819314287671 -0.2257208917295482 -0.23409828541101266 0.12010852970765509 -0.17302610682115416 ]
[ 0.17469908551196178 0.25273171089192764 0.014269201951847325 0.35426651385040303 0.22377925322092268 -0.2615061370088016 0.05183069688028825 0.10099991221695478 0.07765938040765466 0.18368758206722272 -0.10234858460517043 -0.04377394342497429 -0.02908709811742283 -0.5105269336114122 -0.15218530830729604 0.3520179956172529 -0.07497991460233216 0.22776598935596382 -0.011346750014627364 -0.01832749447342881 ]
[ -0.009842557727402683 0.22909639046977953 0.2540399602309209 -0.016520370625702212 -0.17390051421858407 -0.40017984344196433 0.24621961534397724 -0.26702957877300165 0.16187299221293228 0.20366806090529857 -0.2326256720978998 0.3057420011110073 0.20761472824568272 0.02911517911184456 0.38097206754323404 0.19766537233103015 0.1928895702071577 -0.3192419643085779 0.032616100812287725 0.3700533987690924 ]
[ -0.26934815681393315 -0.004358826850475917 0.19676274515704667 -0.12821963698399858 -0.0003279920684314938 0.3261443689225533 -0.35546191827052803 0.09688203934812606 0.30167332291753807 0.1077778145040916 -0.3105131387096414 -0.25921230667537015 0.18275744467029909 0.170954338894967 -0.3144583943714229 0.13188305309045054 0.2728495753850709 -0.08164267080418589 -0.2723635492633845 -0.41779807971100735 ]
[ -0.20625073913711148 0.3211923702506615 0.2617541985623672 0.08355992728059558 -0.47316292611969357 -0.3569231305489351 0.230226404203734 0.0074863645004498314 -0.13604299166002248 0.2141758042351733 0.1530715505633592 -0.21761787222554915 -0.3490111819556793 -0.1667125259868772 0.003738543054298167 -0.14857679908502214 -0.15351226923425043 0.08518372231824384 -0.03860853452676077 0.10261412075441857 ]
[ 0.24338673753221152 0.25251661362823113 -0.16103960265119419 -0.07295316404047188 -0.10155563247095561 -0.23359252835132469 -0.14697089596534424 0.22442388369463423 -0.16978493235347095 -0.09200887666839234 -0.07172849334150912 0.17444715463850088 -0.35361515303295493 -0.17339604694098365 -0.15375239279234998 0.2591533958795376 -0.0017574682949539643 0.2935746825982963 -0.1897875060840425 0.3644952485518491 ]
[ -0.08991442704946845 0.06016774815239673 -0.5308934594876925 0.2909363177170089 0.41989704738748856 -0.004466681789176091 -0.3585358074454524 0.23116619792723875 -0.37988866235259494 0.4768063049763682 0.2086633603804039 -0.21246489344130495 -0.01063703772335077 -0.3649876274619091 -0.06921191157071767 0.09726176498334692 -0.21790282555523557 -0.01482721268910517 0.3500302385795084 -0.2489632579450361 ]
[ 0.0960489464075133 -0.09428245159580907 -0.38982613607043765 -0.19308276484989065 0.28657673521181737 0.05620127219269152 -0.2416277122912249 -0.05201005376761181 0.01994731622523302 0.05907913630588948 -0.07964192075732841 -0.30628679266592607 0.21639247501201866 0.1050296500477737 0.2634031669757568 -0.13525479991371944 0.2110723246627879 -0.009802748273439962 -0.18112169143997972 0.26135845521441087 ]
[ -0.014201749839523613 -0.061396993529070555 -0.19776537533527377 0.06307318650954963 0.17895900985309413 -0.11558426747897106 -0.08874335491323132 0.09625232945647577 -0.01792759482666328 -0.19136984312400804 0.030554597194419757 -0.3039490164476133 -0.016337958985379826 0.26077663844711746 0.1871751243592376 -0.09512347981629601 0.1785934572343081 -0.09401000277048792 0.01255710087784126 0.09530132885861639 ]
[ -0.34530358310086207 0.006359250019723412 -0.4261842940200623 0.24198644754651646 -0.49024397701062356 0.3561042734178315 0.1250496363840949 0.3163403926168182 0.3495227546564288 -0.17349776623965993 -0.11708070200381772 -0.21671569778157104 0.3199564753273125 -0.1636334175741811 -0.40508664416702844 -0.061623148667640446 0.11929281956378944 0.5743935375306548 0.01275020590755258 -0.1454228314899725 ]
[ 0.19631652454616771 -0.12295518933748968 -0.608642233587924 0.023981776373619968 -0.05333609066349259 0.1801699188937845 0.30457407233082673 -0.05535267529983373 0.05790250696284123 -0.05233060365891423 -0.17387566143758393 -0.296190822808016 0.09498690205706409 -0.13095546712131928 -0.2146768901653843 0.09512123694486627 -0.029996989008379646 -0.34717896947607874 0.3300903874234403 0.1178947839715537 ]
[ -0.10485268555687166 -0.2589082874017133 0.4789662827369075 -0.23595964253596033 -0.10754363802283483 -0.22039827832481973 -0.09527375287946911 -0.2676476005572431 -0.06648635012496149 0.4003129374487144 -0.03463556269638618 0.16700626103204722 0.34709465075429013 0.11335170508057987 0.4163458884832431 0.10821514442166347 0.3372908833622162 -0.1159827458572221 0.12044703021988577 0.1006011600681806 ]
[ 0.10042568822645581 0.4888279197416582 0.406726970186787 0.11907149802051871 -0.08833355387808023 -0.629466044177631 -0.2883465594210545 -0.26370479176885475 -0.20661476102828188 0.16458249228991548 0.1557851736580814 0.2496301654619113 -0.134535463849996 -0.5342317277015715 -0.1064885485289378 0.22012833063058598 0.06153032577676143 -0.2461073144636505 0.09367684541744815 0.0555976927986419 ]
[ -0.06519602782982113 -0.5499078849622677 4.357881495526284e-05 -0.3319155126979301 -0.02670128918450617 0.5207005955390672 -0.1222989219852802 -0.23165798143460503 -0.1175544278576809 -0.19100192031077848 -0.016432021962983545 0.4167504846642516 0.050361606005525854 0.4204222037575871 0.5348824129505378 -0.12660676397519716 0.29034050377384885 -0.5916346601045855 0.11216033210474836 0.1804168921320288 ]
[ 0.18393694313979447 0.05177967440213194 0.2621338506625715 0.24058981981482594 0.18566907562351714 -0.13888791783881374 -0.43200776379958117 -0.25972217362284095 0.06526305184498488 0.34274962504088885 -0.0876133152304222 0.027113514742863113 -0.07748882274666177 -0.00521555875996338 -0.12029883792869499 0.2685990384089825 0.30641008126722513 -0.15091225810597098 -0.0560434073255634 -0.251193525071863 ]
[ 0.26511024428494884 -0.31416387171286153 0.1677462822239969 -0.38918943836973485 0.20834033939933802 0.14895437209765133 -0.2224959438157996 0.23857345935827967 -0.07069033902858304 -0.11651578974517578 0.14827015693982343 0.052040617956059 -0.14808107743878926 -0.11635190266553717 0.27086913316383715 -0.13261304979586946 -0.09289308722204655 0.0604584233134925 -0.17148645749454552 0.2581306984575259 ]
[ -0.274768902397709 0.056769976663520245 0.1346070797088334 0.4830062094819473 -0.14952041334190566 -0.19225609549549463 0.17820624495969883 0.17543003386504735 0.21956640876307548 -0.14658633645658403 0.2819567692329587 -0.27476515897316617 -0.3418968715165718 -0.003002622507443221 0.04161189689011978 0.1373882634451578 -0.21763987297304904 0.11432478926556963 0.1175651567712342 0.15257122501057965 ]
[ -0.16794311976825 0.2341346011740893 -0.12187334546975875 0.35475624702142655 -0.34887815806052846 0.22327780625328192 0.24972533939738403 -0.19594275342624867 -0.1937273586113875 0.061511485468522024 0.27267612058356977 0.09188367847108446 0.3872608027666216 -0.21194836956876642 -0.06849254484023025 -0.30413345604981024 0.22697623306266343 0.36680567106360845 -0.056478034794444736 -0.2968769883017111 ]
[ -0.15723717000340456 0.20916408329439445 0.2614889626168417 0.22311766048027618 -0.0365104610619301 -0.4522321676883038 0.04337891712274282 -0.4601896729974229 -0.4330419490288839 0.24266435318665971 0.10879252417047185 -0.20711415799563587 -0.16616833158319255 -0.5309924547308986 0.01905211246700023 0.273262188470608 -0.07418633342389712 -0.0007651456043428486 0.03593094128514149 0.0049149030404673395 ]
[ -0.03688651608718183 -0.17144461808434155 -0.1623396581167462 0.09868754734151158 0.1863720541663862 0.030458230779305664 0.24491642051682477 0.29268371586844777 -0.043015524272095804 0.27072993918839083 0.2594257759871939 0.11485018698997854 -0.12820101066450687 0.05259610370811324 -0.1983079492220996 -0.23915120292877198 -0.07013684356343576 0.24608210099298183 -0.11435190720989306 -0.4155786231904057 ]
[ 0.4293501969258573 0.07537409106241162 -0.19066094715037496 0.20970377294493003 0.4195634794310346 -0.29578441756443374 -0.021763449506158845 0.22543183799571012 -0.3728394496590196 0.30930583492790087 0.06527541934965564 0.11992897758266743 0.24639478741721133 -0.03948274890834314 0.20272927721858175 -0.33396407440888065 -0.04313672228929903 0.09556322037429038 0.2320382265663349 -0.2948223311154965 ]
[ 0.3304274910905425 0.14630372438631736 -0.17047462971977595 -0.22506650051731694 -0.08089246576414133 -0.01094598511472778 -0.2364525665713732 0.0509253330027411 -0.04245480561087311 -0.14663177973993427 0.08741752266656577 -0.1899705969439641 -0.048395790868598805 0.14975416335401498 0.26340303285040206 -0.017650235558518915 0.32167748206813856 0.5601493006203098 0.0641612860646055 -0.3034739824164673 ]
[ 0.22346333978780503 -0.22105717054193788 0.27030831507681724 -0.30581401200906794 -0.2594180183591628 -0.40199404894434004 -0.03412777319126964 -0.46924053748947137 -0.31333821213464486 0.13038149780900946 -0.29324123822175097 -0.12981043056782088 0.2944080413934115 -0.30635788078215154 0.5250646745861368 0.2320805369841747 0.09374523271250378 -0.07862845015140983 0.38028424405233124 -0.10247824027593648 ]
[ 0.18358210602520048 0.18748000350337374 0.12177622747981817 0.1077280259187676 -0.2271139380587171 -0.4390502801593321 -0.09513315691766859 -0.32042866274740145 -0.24076869989123373 -0.05550875070014838 -0.01924426057992509 -0.13916066155997514 0.19880288170814536 -0.26652706960242445 0.1123696298383277 0.08670886557905622 -0.29240409366102094 0.23699139612292142 0.15131139195772617 0.24810516917764588 ]
[ 0.2777109927848482 0.15298229611440092 0.18594085598618684 0.09246542012688554 -0.2365763848910187 -0.254342192764347 -0.20808064090934086 0.20955721433402136 -0.4905525512991507 -0.040318921016740034 0.11166778438979894 0.4527620915540227 0.0006657418766294059 -0.10607483998001098 0.3872397521846648 0.32829580850435924 -0.2603741514359439 -0.046472240201526765 -0.2110155025785561 0.2915289607887445 ]
[ -0.03057578363679483 0.014579847174210923 0.03199637294245337 -0.056296271392978735 -0.09393475302129473 -0.21308218539869528 0.06920244675366759 -0.07512076919184921 -0.051913135994122395 0.056193493845866443 -0.019512734103320238 0.06081632914620188 0.0857606834414239 -0.0661052899563728 0.038005843430977196 0.0026564174326317294 -0.02682272419841279 -0.023169074176565822 0.001299896264270562 0.07816543987547633 ]
layer 5 Activation
tanh
layer 6 Dense
20 1
[ -0.1875768118040781 ]
[ -0.2809947098503005 ]
[ -0.266223134534446 ]
[ -0.10398073878945242 ]
[ -0.3400078276239745 ]
[ 0.5607615335503221 ]
[ -0.17358981494781464 ]
[ -0.3904707164413736 ]
[ 0.3346454338276884 ]
[ -0.012263932814575615 ]
[ -0.017938583340135105 ]
[ 0.2676591645756905 ]
[ -0.07469174998380476 ]
[ 0.10385167030302991 ]
[ 0.21750886452481874 ]
[ -0.008821366119323833 ]
[ -0.010366066153670545 ]
[ -0.044609839135355656 ]
[ 0.0040335406527026675 ]
[ 0.460041494456148 ]
[ 0.11456512638478525 ]
