layers 7
layer 0 Dense
20 20
[-0.1395763   0.39057377 -0.33119503 -0.1701803  -0.4407592   0.30315903
 -0.04308731 -0.26795247  0.11251099  0.09892856 -0.1357219  -0.01796036
  0.2263086   0.02943126  0.38441733 -0.08486369 -0.4394265  -0.17215507
  0.34485894  0.42558128]
[-0.39504963  0.28731167  0.07390241  0.11455543  0.13006872 -0.37428156
 -0.11218645  0.15284187  0.00277628  0.04638808 -0.2678129   0.3730779
 -0.15386355 -0.2956099  -0.05400619 -0.12241168 -0.39204982  0.0957444
  0.218748    0.47813594]
[-0.12942824  0.47016698 -0.2157285   0.5205017   0.05435484 -0.45309278
 -0.21630462 -0.14132528 -0.2947139  -0.45449775 -0.6003594   0.12099718
 -0.07787671  0.35598886  0.34291202 -0.34875447 -0.55637395  0.03109937
 -0.24417253  0.4645685 ]
[-0.38045198  0.06582727  0.40018648  0.07648313 -0.23832715  0.14689669
  0.20741187 -0.28088254  0.3525429  -0.21451576 -0.16031581  0.26365128
 -0.08636551 -0.17543124 -0.36406267 -0.41280916 -0.28986847 -0.0808111
  0.05402748  0.00668217]
[ 0.07494792 -0.03160442  0.2406355  -0.34483498  0.24233162  0.16017796
  0.03503999 -0.01516433 -0.1605581   0.33889452 -0.29391617 -0.17243657
  0.2351182  -0.15296865  0.22829762 -0.3693193   0.22016248 -0.14290303
  0.13170002 -0.32175335]
[ 0.09032268 -0.01426387  0.24991587 -0.09210891  0.09998262 -0.05472454
 -0.16267797  0.13250087  0.12884068  0.12480634  0.1474957   0.02004122
  0.03476829 -0.00867083  0.16075315 -0.2406878   0.28755504 -0.08191592
  0.1500262   0.14121178]
[ 0.14591146 -0.06214033 -0.00384365 -0.47094962  0.25336117 -0.06461684
 -0.26933846  0.2963459  -0.24747567  0.33404037  0.59172744  0.21737725
  0.19663712  0.2118693   0.11001385 -0.31835714  0.262191    0.11004199
 -0.5168214  -0.11856291]
[-0.18098208 -0.3052099   0.05815947  0.16017616  0.17818886 -0.58300304
 -0.22381587  0.3271415   0.26791674 -0.08424878 -0.02908768  0.26749548
 -0.17273101 -0.16228358 -0.1874105  -0.06738374  0.47824013 -0.28758508
 -0.23650621 -0.33697   ]
[-0.13506435  0.32835907  0.1027658   0.0798305   0.14461488 -0.21059193
  0.433052    0.20778376 -0.08327296  0.119314   -0.30548403 -0.17095885
  0.10970633 -0.12558165 -0.2985041   0.04738719 -0.43290088  0.05481659
 -0.29104102 -0.3004622 ]
[-0.3479226  -0.0085878   0.00327019  0.47146004 -0.47040862  0.45809495
  0.09346934  0.064655   -0.08226193  0.4162361  -0.73191077 -0.03194682
 -0.6221657   0.49905235 -0.05164936 -0.06233936 -0.09074932  0.20329271
 -0.21175069  0.03762498]
[-0.2050262   0.04258862  0.37800258 -0.06738796 -0.17133708 -0.11839168
  0.80511117  0.2527226  -0.28503123  0.07660176  0.33298624  0.3644514
 -0.6316341  -0.11566199 -0.62977684 -0.4087196  -0.09156261  0.3898705
 -0.2029741  -0.03465437]
[-0.36871675 -0.0611917  -0.06431703 -0.17683479  0.12283335  0.0472415
  0.19127652 -0.18411027  0.29728383  0.24616309  0.08418241 -0.12318059
 -0.10827041  0.21332695  0.15998173 -0.08009353  0.06744242 -0.26179674
  0.3289273   0.11883645]
[-0.03170875 -0.42513242 -0.32914078  0.34295708  0.03819039 -0.19735307
  0.09482944  0.12505338  0.18176591 -0.322765    0.5320617   0.61458194
 -0.21096921  0.2147936  -0.36225274  0.12882115  0.08521558  0.36678445
 -0.02106871  0.10154152]
[-0.02124879 -0.32437465  0.27420783 -0.19443046 -0.24101768 -0.00605308
 -0.3065962   0.21085146  0.24716492 -0.02980548 -0.12676857  0.22097278
  0.42150146  0.20498663 -0.10242978  0.03973766 -0.25014505  0.05211578
  0.03687769  0.27691084]
[ 0.3508658   0.157789    0.19797185 -0.1667532  -0.35006937  0.2737031
 -0.26385415  0.10023854 -0.04386732 -0.14886877 -0.26651546 -0.19738947
 -0.04208943 -0.02371182  0.2802254  -0.2307918  -0.05642936 -0.18385378
  0.31975502  0.08196053]
[-0.27097967 -0.11892843  0.06030317 -0.08406959 -0.29032522  0.07763293
 -0.01211624 -0.27566287 -0.0396735   0.6298691  -0.04835208 -0.37072384
 -0.08542635  0.2036543   0.17959876  0.04714166 -0.7705108  -0.05603279
  0.33762512 -0.10300231]
[-0.34301254  0.04071929  0.2870263  -0.24305686 -0.10722777 -0.05034849
  0.08258169 -0.23951319 -0.3047519  -0.13520823 -0.0905083  -0.28109378
 -0.20295675 -0.18545187 -0.13046405 -0.23231798 -0.18614626  0.28249803
 -0.1046254   0.14383298]
[ 0.12546138  0.05256487 -0.41223904 -0.65207434  0.27183995 -0.43413043
 -0.31662166 -0.36446616  0.11161233 -0.30715936  0.5760759   0.09441065
  0.4454362  -0.04097735  0.574688   -0.02086445 -0.27210236 -0.2511811
  0.32753107 -0.06739061]
[ 0.26369968 -0.03477686 -0.7983901   0.5820446  -0.01939702 -0.2318043
 -0.08356543 -0.13617097 -0.18688244  0.01865375 -0.01671914 -0.5505912
  0.1166912  -0.2854115   0.3440809   0.13454625  0.40977767 -0.43006432
 -0.20573306 -0.02659915]
[ 0.40241906 -0.5065312   0.11912603  0.5578598   0.13127613 -0.30055186
 -0.03922493  0.24307974 -0.20698647 -0.37371308  0.49835524 -0.30023956
  0.15971349  0.3323939   0.22372063 -0.14903988  0.3541634  -0.13617915
 -0.2830736   0.10568791]
[-0.10454563  0.02695776  0.04677687  0.00881693 -0.04681087  0.05623806
 -0.05619979 -0.02400939  0.00551899 -0.15381126 -0.07098713 -0.03093106
 -0.01172999 -0.00952005 -0.03126452 -0.11132877 -0.05205418  0.02973125
  0.03208756  0.12208388]
layer 1 Activation
tanh
layer 2 Dense
20 40
[ 0.2306428   0.43609563 -0.19823265 -0.13709196  0.24974184  0.31693625
  0.23110093 -0.14700279 -0.12274761  0.23163144  0.00645629 -0.10666221
 -0.09169792  0.1498162   0.09168784  0.10992949 -0.05515654  0.13968475
 -0.27267605 -0.25962377  0.08331481  0.08985711 -0.13526033  0.09751522
  0.09109957  0.21550125  0.13901067 -0.2579797   0.05359107 -0.17512602
 -0.15043288  0.04102927 -0.12739584 -0.1751005   0.29935077  0.11853965
  0.26818803 -0.2940002   0.05974165  0.27513856]
[ 0.08474424 -0.03323019  0.22582702  0.01208564  0.17526373  0.09734149
  0.0497889   0.06172704  0.39635137  0.08132892 -0.09301215  0.30134964
  0.08374071 -0.0761739   0.17937686 -0.09643171 -0.18100178  0.22287287
  0.05529658 -0.21747868 -0.08050874  0.18824756  0.17429975 -0.29863438
 -0.15435277  0.28129956 -0.24323027  0.13282967 -0.3164097  -0.13726093
  0.1836787  -0.26038247 -0.03443535 -0.20363809  0.07686712 -0.2121275
  0.17827864  0.23032452 -0.03767307  0.21356769]
[-0.01463906  0.03509723  0.34843013 -0.13909653 -0.07398872 -0.07489701
  0.17133303 -0.35033348  0.09230532 -0.15521364 -0.31524888  0.39554393
 -0.15603217 -0.06936426  0.06630129  0.19384967  0.29655963  0.03006125
  0.16784956  0.18222831  0.11246093 -0.36237895  0.08763774  0.08970602
 -0.08558616  0.23626323  0.1250209  -0.00562188  0.12950058  0.23690936
 -0.0603796  -0.13282911 -0.49806097  0.05312429 -0.05169539  0.01849862
  0.13171388  0.0349598   0.29618546 -0.11886396]
[-0.07786575  0.20725605 -0.17521766  0.30002415  0.03989946 -0.06199126
  0.02467392 -0.15356861 -0.46797442 -0.30577     0.04356616  0.18486395
  0.32943335 -0.18797041 -0.27571124 -0.19733545 -0.1948957  -0.21056834
  0.31743568 -0.00901045  0.0864668   0.21380182  0.21956679  0.21712902
  0.26647606 -0.33684215  0.05997446 -0.19007535 -0.20509742  0.13801236
  0.20741104 -0.07205723 -0.01906101 -0.15618083 -0.09259088 -0.28923714
 -0.31233007  0.09349131 -0.17769551  0.18733676]
[ 0.21387038  0.0031075  -0.23697454 -0.05324426 -0.12210207  0.13111602
 -0.06954026  0.11133941 -0.19945747 -0.09609029  0.11172633 -0.09152729
  0.16666567  0.08489423  0.36841804 -0.43705094  0.06837971  0.18493322
  0.2391125  -0.20358384  0.22030336  0.28227505  0.12613992 -0.10111901
 -0.20131496  0.22832869 -0.20097956 -0.08235648 -0.24947985  0.02016616
 -0.11844591  0.21710986 -0.01633486  0.07239485 -0.08306998 -0.278078
 -0.08801942 -0.02660853 -0.25159964  0.21271273]
[ 0.0950566  -0.24843019  0.34994403  0.24378294  0.02455558 -0.32715797
  0.01617015 -0.02207703  0.49249667 -0.34162053 -0.14806685  0.06515758
 -0.20702365 -0.08929682  0.02838822  0.2837519  -0.30416963  0.09268926
 -0.02287647  0.22558033  0.04076679 -0.20092915  0.27289185  0.08942747
  0.15608522  0.10947929 -0.2870502  -0.08791716  0.09329424  0.20635502
  0.28371602  0.30820832 -0.3287407  -0.249683    0.24397928  0.17343214
 -0.10869182 -0.16523464  0.3031689  -0.18258382]
[ 0.06547635 -0.31551403  0.24781482  0.26042593  0.29239938  0.08833104
  0.06920085  0.10640033 -0.07855059  0.2544218   0.19128539  0.12127814
 -0.02572692  0.23711419 -0.25955236  0.31661746  0.05326185  0.2592424
 -0.24283618  0.18694198  0.10479794 -0.3505982  -0.00778796 -0.07954859
 -0.23238406  0.1975305   0.1090752  -0.13682401 -0.09958605 -0.19201773
  0.08745572 -0.20614292  0.00881147  0.23628023 -0.02865361  0.13538149
 -0.08740762 -0.03360111 -0.30886668  0.09621939]
[ 0.12957785 -0.1473106   0.02739489 -0.19919133  0.03191254 -0.23009495
  0.19598821  0.05141208 -0.14240195 -0.29436272  0.22628437  0.09834687
  0.01273328  0.00406202 -0.23218001  0.05828162 -0.08804378  0.02783555
  0.01475846  0.02529401 -0.00579562  0.06955095  0.1790575  -0.16504064
  0.13227513  0.05535161  0.19436324  0.20914479 -0.17405751  0.11799469
  0.29655957 -0.1303815  -0.18916558  0.25499758 -0.20747916  0.31550723
  0.1158837  -0.01920499 -0.25111827 -0.11631918]
[ 0.20575699 -0.17293295 -0.03269678  0.14431503 -0.00048351 -0.09629842
 -0.00634601 -0.07254972 -0.09261116  0.08237757  0.21565783 -0.07548426
  0.13330866  0.19065991  0.10192957  0.06827156 -0.18197952  0.0248229
  0.27907813  0.04103593  0.16648132  0.12591241  0.22109154  0.13722219
  0.04748632 -0.00919262  0.22734377  0.18683903  0.11002743  0.2647377
  0.10110383  0.03778596  0.06252386  0.17049709  0.19696622  0.2861202
  0.1488412  -0.29553524  0.04013767 -0.07570995]
[ 0.13986295 -0.15788728 -0.12874518 -0.02009018 -0.22681437 -0.22253004
  0.06121295  0.10376407  0.05397414  0.26344424  0.25727895 -0.19554129
 -0.02904115  0.14396411 -0.03271355  0.0624877   0.20937037 -0.19808158
  0.13087925  0.25649032  0.08991722  0.06410353 -0.01142984  0.10561129
  0.18993877 -0.20226368 -0.1991105   0.09045254  0.04439445  0.18012692
  0.10532521 -0.33411062 -0.07548676 -0.03999553 -0.24574344  0.15752046
 -0.16855854  0.34076247 -0.13025592 -0.12668526]
[ 0.12664983  0.10231582  0.22711575 -0.29552293 -0.02923456 -0.23633854
  0.0298517  -0.18127075 -0.4574092   0.11204405 -0.1210123  -0.11126772
 -0.03887335 -0.17375529  0.57819325  0.06424544  0.03424861  0.14449075
 -0.1422275   0.05318116  0.06047504  0.264466    0.01196007 -0.1693278
 -0.02368303 -0.01046269 -0.2714399   0.090841    0.25791857  0.16301407
  0.00349332  0.38750926  0.11330202 -0.2479964   0.07866242 -0.29382473
 -0.03851955 -0.00188415 -0.34175828 -0.19991346]
[-0.35473102 -0.00560317  0.06150681  0.32417193 -0.04271917  0.06243495
 -0.13202497  0.05339166 -0.19299674 -0.23479345 -0.32728687  0.17443615
 -0.3052556   0.06022783  0.10852391  0.18521301  0.29192132 -0.25136697
 -0.03563353  0.11774115 -0.19460699 -0.52748734  0.02239403  0.02316632
  0.14303054 -0.34644997 -0.0848904   0.02589495  0.08938695 -0.22040024
  0.01390542  0.15221593 -0.56214315 -0.12865579 -0.17970689  0.48750645
  0.13321525 -0.13819714 -0.16804928 -0.18402374]
[-0.28746647  0.02810849  0.04225592  0.02604094  0.1415733  -0.19557363
 -0.20775022 -0.22743483 -0.0212009  -0.01693363  0.19325612 -0.21629809
  0.2058469  -0.16512814  0.4429663  -0.17015572  0.2174359   0.02730589
 -0.27886856 -0.4243456  -0.15451628  0.39630297  0.26649898 -0.408963
  0.15167066 -0.03719751 -0.10427646  0.33488896  0.12494827 -0.24516417
 -0.21479039  0.20630875  0.13112356 -0.08636013 -0.01451291 -0.41730872
 -0.2287088   0.06606521  0.2642222   0.19418012]
[ 0.18503556 -0.14690709  0.20172529 -0.11704811  0.00698427  0.21762657
 -0.10556394  0.08875117 -0.225273   -0.37490857 -0.04290426  0.0006028
 -0.15771791  0.17423032 -0.11462556  0.07517786 -0.18305358 -0.07298517
 -0.15698165 -0.23929892  0.11448088 -0.04987644 -0.03368936  0.23959611
  0.09054657 -0.10210986 -0.04955804 -0.19638085 -0.11023666 -0.07646883
  0.19162276 -0.33455455 -0.25347462  0.07834591  0.24650313 -0.07689932
  0.10474033 -0.03230393  0.06773569  0.16765708]
[-0.05347246  0.52797335 -0.37823364 -0.25056612  0.25169164 -0.08035084
  0.22754222  0.02522507  0.30547887  0.24499604 -0.01823416 -0.08046934
  0.09238008 -0.08331548  0.42665532 -0.18405853 -0.20333616  0.13525297
  0.01869824 -0.13986371  0.18912505  0.18274832 -0.29223493  0.13779148
  0.38761193  0.09845222  0.24964787  0.14333136  0.00201185 -0.00124461
 -0.26972538  0.19246246  0.08294178 -0.27878472 -0.18462838 -0.4518674
 -0.03448223  0.05662644  0.300323   -0.22747499]
[-0.26120454 -0.0526513  -0.13495277 -0.21689102  0.10066821  0.10066343
  0.07227419 -0.2280461  -0.3030856  -0.0774144   0.22644244 -0.08992449
  0.13823149  0.04875718  0.17829241 -0.24565761 -0.35096473  0.03561441
 -0.02158449  0.06772786  0.09435061  0.10840983 -0.14752561 -0.1509116
 -0.14215028 -0.167787    0.06513767  0.2799156   0.08347641  0.20875609
 -0.19546005 -0.11296354 -0.03584481  0.17125039  0.09537574  0.07052389
 -0.03263135  0.26692015  0.09405135 -0.05794569]
[ 0.07419592  0.22168557 -0.2621508  -0.06302424  0.19784237 -0.16539979
  0.23103824 -0.15271452 -0.40273708  0.11862512 -0.03295709  0.09105401
  0.11501037 -0.02292735  0.1689913   0.07763496 -0.23522836  0.15485686
 -0.0938668   0.06042143  0.28525108 -0.00223777  0.19196877  0.38224688
  0.08478341 -0.13345842  0.04289863  0.12731571 -0.2981889  -0.1597678
  0.3096229   0.01425301  0.08266305 -0.289706   -0.21066692 -0.4385762
 -0.29147437 -0.2639907  -0.25557625  0.16278249]
[ 0.01436477 -0.276255    0.25887653  0.02864075 -0.15584984 -0.34934184
 -0.16597848  0.06717651 -0.18270501 -0.18182117 -0.15614589  0.43242723
  0.00142379  0.14292254 -0.46128038 -0.10962741  0.12624441  0.09125684
 -0.11923993 -0.11309653 -0.45519382 -0.31547877 -0.2291136  -0.13856652
 -0.32068005  0.20105782 -0.20189731  0.33521292 -0.06124745 -0.00739041
 -0.11434174 -0.13016047 -0.09885561 -0.0458809  -0.00129433  0.13780878
  0.24933995 -0.13006815 -0.07889109  0.09475961]
[-0.09068613  0.35156485 -0.0336354   0.11452532  0.19952866  0.08714699
  0.37367123  0.26783052  0.3122898  -0.15394498 -0.14936557  0.21051645
  0.14222525  0.14484619  0.37835085  0.06460954  0.23341803 -0.22522122
 -0.04205386 -0.11007021 -0.20936792 -0.25998747 -0.0582666   0.16285035
  0.02952023 -0.04047168 -0.05554851 -0.31910917  0.14817502 -0.05203836
  0.15268108  0.23011146 -0.07566024  0.13736917 -0.3532313  -0.24126497
 -0.01168276  0.0490686   0.38573736  0.15004475]
[ 0.14024374 -0.01575106 -0.29941586 -0.01075402  0.13487244 -0.13228698
 -0.19259697 -0.2722012  -0.02039354  0.08855842 -0.05747069  0.16018198
 -0.03121722  0.0400717  -0.2804142   0.36680496 -0.13168524  0.00449323
 -0.02705724 -0.12684044  0.16370104 -0.24742742 -0.18694592  0.13912927
  0.12145709 -0.26742363 -0.00189468  0.00389561  0.12986541 -0.10975641
  0.06636892  0.23630273  0.07273269  0.08589166 -0.10573517  0.2849236
 -0.19075994  0.21692726  0.21290827  0.26783794]
[-0.04393864  0.00089768  0.06692556 -0.00531197 -0.00457687  0.02914104
  0.11272036  0.05896988  0.06473484 -0.0288025  -0.06824481  0.09639153
 -0.05172047  0.06146817  0.07825387  0.15527497 -0.05441076  0.02252996
 -0.10286608 -0.01786689 -0.03692956 -0.06281644  0.00188638  0.03040788
  0.04810593 -0.05529594 -0.00923755  0.02509357  0.01269065  0.02680298
 -0.02036311  0.08324707 -0.10831316 -0.03721864  0.01087445  0.10714029
  0.015878    0.02284838  0.01840118 -0.01036699]
layer 3 Activation
tanh
layer 4 Dense
40 20
[-0.22344102  0.19471653 -0.15153621 -0.04392372  0.12151851 -0.1652131
  0.17067848 -0.10146336 -0.16142653  0.14084612  0.19311236  0.00549288
  0.20361805  0.12142967  0.0502082  -0.18357265  0.07181791  0.24271274
  0.01528801 -0.02697192]
[ 0.27582976  0.14638932 -0.16913748 -0.2833674   0.11677299 -0.19983861
 -0.11372922 -0.290415    0.15291093 -0.03906733 -0.22050744 -0.11172015
 -0.09370537 -0.25771475 -0.19143726 -0.09761707 -0.28134322  0.12239069
 -0.25431883  0.01966416]
[ 0.13654499 -0.29938522  0.10641629  0.04989923 -0.3201264   0.25947604
  0.4407899  -0.00525788  0.0565752   0.11124858  0.15602674 -0.04649866
 -0.35721034 -0.24098358 -0.0459441   0.02618306  0.32264337 -0.16480188
  0.19648997  0.28596053]
[-0.02008529 -0.20037311  0.30617863  0.2808065   0.16247752  0.21526785
 -0.2050034   0.21755728 -0.24627578  0.30704919 -0.18816963 -0.12859885
 -0.11849526 -0.28679508  0.29171926  0.1753218   0.12361261  0.32632443
 -0.23992893 -0.16189805]
[ 0.15788954 -0.08630595 -0.14948252 -0.07007139  0.09632731  0.06567892
  0.00259007 -0.17899041 -0.14948727 -0.06571726 -0.36994717 -0.25026762
  0.22478521 -0.10004111 -0.14357533  0.03995911  0.08641792 -0.03878796
  0.12763695 -0.02368977]
[ 0.11419271 -0.04299913 -0.15611091 -0.19120604 -0.12586103  0.2152153
  0.11577029 -0.0532602   0.18335383 -0.31511006 -0.2467641   0.12694897
  0.11078567  0.3848816  -0.02417772 -0.12145413 -0.10193252 -0.06654796
 -0.34350318  0.00185827]
[-0.13016213  0.06694889 -0.2604876   0.08882628  0.03008927  0.15562738
  0.2571962   0.22233857 -0.22867353  0.07979025 -0.22087726 -0.23919998
 -0.26438692 -0.14583696 -0.17522    -0.1556215   0.09033719  0.05637303
 -0.20668364 -0.3576043 ]
[ 1.0758516e-01 -1.9300911e-01 -1.0485929e-01 -2.8751895e-04
  2.3050930e-02  2.2310771e-01  2.9307804e-01  3.5675373e-02
 -1.9695060e-01  1.3589388e-01 -1.5848584e-01 -1.4965697e-01
 -9.6598901e-02 -3.1169084e-01  4.0094908e-02  1.8448916e-01
 -1.8619290e-01  2.0855528e-01  2.0300996e-02 -3.5416740e-01]
[ 0.11336977 -0.07496741  0.27678022 -0.09413171  0.13286313 -0.23346421
  0.11967417  0.09623653  0.22504641 -0.26406527  0.23071782  0.01385852
  0.02311767 -0.0030695  -0.32371765  0.3138977   0.24377377 -0.02718781
 -0.06114807  0.1194726 ]
[ 0.01119127 -0.26348057 -0.28934455 -0.3700558  -0.04577326 -0.18452816
  0.01085799  0.14323391  0.10629456 -0.2740626  -0.00827759  0.20698267
  0.06305148  0.21457455  0.35080174  0.16247804  0.01090273  0.31218746
 -0.20100747  0.02490317]
[-0.09645371 -0.0078172  -0.19423813 -0.36726537  0.21292442 -0.04305411
  0.11192998  0.20098828  0.29112273 -0.02048261  0.05618388  0.07200997
 -0.22015063 -0.02358401  0.27779385 -0.1461409   0.20995156  0.3094802
  0.10936844 -0.04410043]
[-0.16810714 -0.25310892  0.22824499  0.10555811 -0.24467991  0.22850117
 -0.10418154  0.18497147 -0.1625051   0.15073171  0.31534928 -0.14772788
  0.15545124 -0.31206673  0.03813618  0.02699904 -0.03131541  0.22246863
 -0.2474075  -0.33716103]
[ 0.17986648  0.31720343 -0.12916723  0.1730253   0.18077256  0.09021008
 -0.26864412 -0.2252515  -0.1579229  -0.1408782  -0.22626401 -0.07609732
 -0.10132121  0.16496205  0.24315709  0.07761823  0.10657035  0.08049478
 -0.17614122  0.19226696]
[-0.21534075 -0.1915293   0.07799862  0.07178401 -0.1615772   0.14727859
 -0.0408465  -0.13799529 -0.09564609 -0.00613577  0.20017216 -0.10982841
 -0.27147514  0.24237213  0.02220532  0.12243599 -0.01062925  0.27343693
 -0.3993667  -0.04470809]
[-0.15550509 -0.29458752 -0.18895362 -0.12553842 -0.00801026  0.26254842
 -0.02819982  0.12552437 -0.24864432 -0.19542082 -0.06194361  0.2214364
  0.28160125 -0.15211721 -0.16163857  0.13533174 -0.32083625 -0.17416424
  0.04793182 -0.25419408]
[-0.1216355  -0.38415116  0.2720832  -0.0922868  -0.20629667 -0.02729766
 -0.10186133  0.1428308   0.04319899  0.19326663 -0.12033046  0.06154784
  0.27020097  0.17975678 -0.28249875  0.10673738 -0.04894973  0.22182304
 -0.13935255 -0.17424946]
[ 0.02684791  0.0464742   0.2545048  -0.30311003 -0.05689928  0.09947123
  0.12930839  0.1133081  -0.1685925  -0.24322556  0.2854652  -0.01404442
 -0.11270643  0.08439244  0.22653931  0.23163235 -0.05626224 -0.29057828
 -0.0686135  -0.0186297 ]
[ 0.12332229  0.06826887  0.06572525 -0.1371621  -0.07968518 -0.3275157
 -0.1564     -0.08491637 -0.14568241 -0.04688883  0.15787277 -0.38539773
 -0.09009665  0.14276545  0.17584106 -0.04529712 -0.13881622  0.3387522
 -0.03523062  0.1575994 ]
[ 0.11985853  0.18616176  0.05454745 -0.06106621 -0.10999497  0.04671855
 -0.01190411 -0.0652522  -0.31056276  0.1443325  -0.03707459 -0.0050192
 -0.2087081  -0.1902013   0.1702457  -0.07498381  0.34583056  0.14907883
  0.01969013 -0.00980202]
[ 0.14666525 -0.09824438 -0.20770022  0.39970827  0.07648604 -0.2603035
  0.22655399 -0.04327343  0.0563768  -0.13752753  0.05202952 -0.25172278
  0.20090847  0.28656188  0.06646496 -0.09829299  0.21735287  0.2025261
 -0.09712983 -0.00236716]
[ 0.05348473  0.158331    0.18427618  0.06439807 -0.00999128 -0.24915692
 -0.3238792   0.00431724 -0.06775402 -0.05073772 -0.12962529 -0.04126062
  0.24627417 -0.08375427  0.02718669 -0.16954638  0.0832363  -0.11177519
 -0.09334515 -0.06438795]
[-0.21786278 -0.14932843 -0.10722596 -0.21164097  0.3187747  -0.13380958
 -0.29343364  0.14768365 -0.067215   -0.3947145  -0.12571998 -0.1564858
  0.05795996 -0.2453983   0.07225586 -0.32579944 -0.20007844  0.26703122
  0.02161482 -0.24960452]
[ 0.04864551  0.17613867  0.36924136 -0.03633195  0.05610506  0.1440865
  0.15695982 -0.20426987  0.3125486   0.1815124  -0.11110833  0.22208889
 -0.04999711 -0.2562403   0.08641063 -0.218371   -0.02907665  0.1325148
  0.13192597  0.14067838]
[-0.32712948  0.15979424 -0.22572061  0.39704508  0.11963446 -0.01905105
  0.00377156 -0.2445481  -0.20120776 -0.02952918 -0.00854791 -0.22820261
 -0.01675888 -0.14722033 -0.3009647  -0.0870758   0.09425432 -0.11639282
 -0.05846352  0.34439915]
[ 0.08406671  0.03382168 -0.11255679 -0.23556803  0.1296856   0.04669932
 -0.28996882 -0.12163658 -0.2606561   0.21593432 -0.14194238  0.29457137
 -0.28782204  0.15939148 -0.33147424  0.01881156 -0.09400483 -0.13740139
 -0.07714404 -0.14577314]
[-0.2871182   0.10173499 -0.3483971  -0.3715558   0.12424453 -0.25360778
  0.29982263 -0.33351034  0.09219714  0.28778479  0.17722492 -0.15844259
  0.27009195 -0.30987903 -0.1910522   0.1803554   0.1854339  -0.27706107
 -0.19845724 -0.28797594]
[ 0.18403065  0.13234925  0.15823613 -0.17125632  0.07330652  0.03967487
 -0.26452062 -0.13123469 -0.00427656  0.01529784 -0.06624658 -0.17706461
  0.24074972 -0.06297864 -0.03773243 -0.15693013  0.1327306  -0.27200642
 -0.34584728  0.08350489]
[ 0.15139107 -0.06700557  0.2419811  -0.0346325  -0.06951499  0.09265085
 -0.0594986  -0.02466584  0.1998835  -0.2790509   0.05521022 -0.4074308
  0.09795884  0.12923282  0.03812836 -0.15031078 -0.33401054  0.20385055
 -0.33858243 -0.25506195]
[-0.03535918  0.05720963  0.33449453 -0.24588627 -0.06812691  0.22396234
  0.08727189 -0.03704613  0.04080955  0.24336742 -0.10976106  0.043149
 -0.00447387 -0.08425835  0.05567461 -0.21468219  0.00887622 -0.05688798
  0.09924477  0.07074656]
[-0.15356006 -0.16355844  0.05342567  0.15963617  0.21707222 -0.3569578
  0.05211079  0.13125159 -0.04260806  0.03554899 -0.03957956  0.23092797
  0.1633126   0.15328346  0.02726933  0.12598711 -0.14171992  0.32873288
 -0.21314754  0.18535148]
[ 2.64964968e-01  4.35227156e-02 -1.42927587e-01  2.24596754e-01
 -2.57106125e-01 -2.06661344e-01 -1.34823412e-01 -1.22501485e-01
  3.14383358e-01  6.44706711e-02  1.22048368e-04  5.52010499e-02
 -1.12279050e-01  1.74313039e-01 -6.62911907e-02  2.21552432e-01
  3.10392588e-01  7.21418336e-02  1.97366606e-02  1.82786062e-01]
[ 0.08296213 -0.07376746 -0.18332973 -0.13727573  0.03344112 -0.1334664
 -0.27913398 -0.27271155 -0.10155424  0.05645369 -0.09253381 -0.08622366
 -0.01516639  0.34383813  0.02514445 -0.13195886 -0.26367626  0.19862889
 -0.241662   -0.25551945]
[-0.16660833  0.33465374  0.18241683 -0.31075698  0.3298385   0.08388712
 -0.01279362  0.03631978  0.09116399  0.21948218 -0.2815948  -0.08070938
  0.1058443   0.27652836  0.2960157  -0.25523284 -0.01435775  0.16015267
  0.1308604   0.02331428]
[-0.14005576  0.22617036  0.08013548 -0.18838024  0.16118056  0.048506
  0.00588311 -0.26354757 -0.01193656  0.35797697  0.27696955  0.06770732
 -0.04364304 -0.04179558 -0.18332042  0.24779224 -0.1477824  -0.03620294
  0.13849196  0.09001157]
[ 0.18238598 -0.08964589 -0.00887613  0.05180149 -0.18040603  0.16275173
 -0.25804427  0.2614567  -0.03117415 -0.22271001 -0.12297573 -0.13358845
  0.2360165   0.08450571 -0.09761718  0.25224617 -0.22689538 -0.02986189
 -0.1420923  -0.11876459]
[ 0.00193457 -0.33492693 -0.04722472  0.25647837 -0.20133413  0.11555956
  0.26161757 -0.31686884 -0.01849678 -0.22158857  0.0870818  -0.23404422
  0.23294108 -0.07371835 -0.19218183  0.0508971   0.28671238 -0.08651609
 -0.04291327 -0.03698262]
[ 0.26949054 -0.17834459 -0.21460158 -0.2849585  -0.14317109 -0.14590529
 -0.00858073 -0.12115825 -0.19969466 -0.00279154  0.22818233  0.02516869
  0.13977176 -0.05313385 -0.20876421  0.10525908  0.12307688  0.13409197
 -0.00873352  0.2620487 ]
[-0.21692559 -0.20861255 -0.09076087  0.17429718  0.02961841 -0.00330238
  0.15617564 -0.17350766 -0.19617803 -0.02488081 -0.28381202 -0.1928674
 -0.31252372 -0.22515522  0.24041156  0.33591938  0.13061823  0.08189827
 -0.00304118 -0.33323428]
[-0.1226434   0.24727122  0.27275124  0.05623521  0.22635031 -0.28007996
  0.04566379  0.06965426  0.22459395  0.31051403 -0.11386742 -0.08166604
  0.03410184  0.18691427 -0.27938202  0.24223754 -0.11830276  0.27835
  0.26424277  0.05105159]
[ 0.00621707  0.26743257  0.1127328  -0.11372153 -0.21325949 -0.03532333
  0.0082252  -0.28224567 -0.24247254  0.1231362  -0.20083049 -0.20624875
 -0.0457041  -0.11477324 -0.15891097 -0.27256626  0.15495281 -0.19441974
  0.0639106  -0.21190462]
[-0.05258294 -0.10728972 -0.02917835  0.13734761 -0.08976686  0.02914657
 -0.02543735 -0.00735511 -0.01358975  0.03359439 -0.08427167 -0.02771627
 -0.00014218  0.06819984 -0.00322868 -0.04717649 -0.07542965 -0.03195968
  0.06542856  0.05432132]
layer 5 Activation
tanh
layer 6 Dense
20 1
[0.01126295]
[-0.257754]
[-0.20370017]
[0.15742803]
[-0.20156409]
[0.03277728]
[-0.11621882]
[-0.02238719]
[-0.01697342]
[0.22018912]
[-0.13610011]
[-0.00358105]
[0.0149846]
[0.028409]
[0.17085525]
[-0.22973286]
[-0.1667775]
[-0.02962733]
[-0.01430579]
[0.06736492]
[0.01981675]
