layers 7
layer 0 Dense
20 20
[-1.0168376  -0.504413    0.67080003 -0.48985404  0.35652104 -0.18374859
 -0.60320723  0.14399853  0.5570492   0.7280105   0.00241149 -0.4417089
  1.0112394   0.08062543  0.19537315  0.50912774 -0.11139817  0.22613908
  0.81886077 -0.15965639]
[-1.0225198  -0.57392275  0.9183964  -0.8110317   0.11838637 -0.0378512
  1.2962841   0.19922206 -0.529257   -0.9169249   0.627683    0.68357956
  0.15103382  0.24078996  0.8404959  -1.7789553   0.1529794  -0.26971567
  1.0893848  -0.06720106]
[-1.4689629  -0.49257317  1.0987339  -0.28422067 -0.19251071  0.20987229
  1.1966155   0.03788915 -0.11131408 -1.1845492   0.3368427   0.06789042
 -0.11392169  0.2635477   0.60520643 -1.5207888   0.02948936 -0.29797935
  1.0275286  -0.12707679]
[-1.2483889  -0.94117963  0.636819   -0.21438903 -0.00390979 -0.4120088
 -0.18993185  0.13806905  0.33253974  0.34914124  0.02907237 -0.14761029
  0.75070196  0.18962428  0.10227726  0.31559724 -0.04821255  0.42359772
  0.50471854  0.11594201]
[-0.18507616 -0.05076444  0.6387168  -0.8399106  -0.7433397   0.47102034
  0.37494603  1.1145773  -0.80217975 -0.30382675  0.69663703 -0.6982496
  0.23490444  1.3536752   0.6493434  -0.1330878  -0.60776293  0.00268349
 -0.14265335  1.0588809 ]
[ 0.33925396 -0.42176756 -0.922116    0.64088356  0.05160617 -0.5011334
 -0.9994064   0.16987848  0.0219476   0.9483735  -0.6817569  -0.39583805
 -0.48112303 -0.49946076 -0.24405822  2.03991     0.09970245 -0.5263599
  0.15516391 -0.02714562]
[ 0.4358937  -0.2498561  -0.52284217  0.63088506 -0.28831327 -0.7135512
 -0.9389485   0.06663064  0.55835617  0.44193724 -0.29249457  0.07705287
  0.0998441  -0.7471455  -0.25118753  1.488545    0.03990041 -0.9297523
 -0.32018995  0.40412956]
[ 1.3486013   1.0659797  -0.51283807  0.62607837  1.4072529  -0.21354008
 -1.5118673  -0.5969309   0.90407753  1.1873804  -0.49028373 -0.01836659
  0.46419153 -1.3846887  -1.5659939   0.4037144   0.9636177   0.432345
 -0.9476483  -1.1788259 ]
[ 0.54692024  0.28826636  0.84378797 -1.7583555  -0.00781606 -0.50279605
 -0.5233008   0.43635783  0.01466576  0.57962704  1.2212621  -0.17208317
  0.8834447   1.5161358   0.8400182   1.4020873  -0.52278394  2.385453
 -1.3694693   1.2555178 ]
[ 0.55979645 -1.7625129   0.16330515 -0.79908854 -0.34516603 -0.76548296
 -0.33676156 -0.1202655  -0.47798255  0.41683462  0.5799833  -0.9499832
  0.578297    0.21302137  1.292597    0.7249673  -0.8356965  -0.27476686
 -0.68042076  1.0818702 ]
[-0.6940884  -0.15054451 -0.5514573   1.0548104   1.0593152  -0.07481052
  0.7618858  -4.1381264   0.01880606 -0.4363695  -1.1319803   2.271248
 -0.6436745   0.10615818 -0.76939833 -1.4278008   1.0833764   1.5878522
 -2.5857964   1.3972872 ]
[-2.3549967e+00 -1.2718114e+00  1.9205413e+00 -3.0388832e-01
  1.1163362e+00  2.1509094e+00 -4.1260532e-01 -6.6565728e-01
  1.3317716e-01  2.2232185e-01  1.3065996e+00 -1.7153345e+00
  1.3874170e+00  4.4517705e-01 -1.7634630e+00  3.7951344e-03
  6.6477472e-01 -5.8557117e-01  8.3397657e-01  4.7574058e+00]
[ 0.84091026  0.27463815  0.4996601  -0.00894115 -0.51424164 -0.96351147
 -0.33136094  0.90516126  1.0940524   0.50357944  0.09229224  1.2442454
  0.6073172   0.66934466 -0.14790598  0.7002469  -1.8287935   0.7564396
  0.38377193 -0.11471406]
[-0.48293394  1.2426927   0.42357072  0.11829503 -0.18910359 -0.7085593
 -0.09982265 -0.06102342 -0.9472427   0.34422132 -0.01002754 -0.41579846
 -1.4578726   0.4807588  -0.0059931  -0.31440625 -0.10867153  0.76000065
  0.9706992   0.3853217 ]
[ 0.57367945  0.39406803  1.7787215  -0.87103635 -2.163115    1.284184
  0.9391278   2.770122    0.45423526 -0.24684952  0.57407856 -2.6820784
 -1.4260933   0.321851    1.3423533  -0.39366263 -0.19529992  1.4836746
  1.9704512   0.02453983]
[-1.1135416  -0.6944001   0.26466233  2.3651054  -0.09928261  1.4663519
  1.0182691   0.71170515  4.383057   -0.7007126  -1.8986366   1.0139041
  0.87478226 -1.2185512  -2.1451883  -1.908939   -0.12056951 -0.63440955
  3.2459037  -0.84418863]
[-1.9950204   0.1460563   0.74238104 -2.0588868   2.1080377   1.2680732
 -1.8260744   0.90686125 -0.11263066  2.410473   -0.7169473  -3.1639805
  3.2636633  -0.42339587 -1.7087502   1.5833986   1.7425833   0.36733058
  0.21020384 -0.02125783]
[ 0.06173982 -0.9437967  -0.8148803   2.2828045   1.4123092   4.034016
  0.4639903  -0.45012292  4.1899695  -2.0722077  -3.1450715   2.5106494
  2.598917   -3.0008867  -2.8254592   0.1531647   3.1272979  -0.33659586
 -0.23766647 -4.1983466 ]
[ 0.10500319 -0.91279435 -1.2961787  -0.21586487  1.443703   -1.7876437
 -3.4070172   0.77452934 -1.3748715   1.999195   -0.32043266  0.36476898
  2.3894684   0.5416561  -0.98792     2.289897   -2.0224566  -4.872859
  2.1114035  -2.8327575 ]
[ 1.5537856   1.0174998  -1.0289098  -1.3972988   2.4135776  -1.4742061
 -4.0910826  -0.35359067  0.80093145  2.6322317   0.1961916  -0.94658417
  1.1930307  -0.50387025  0.43925864  4.1250606   0.7205412   3.0466797
 -1.5161266  -1.9509727 ]
[-0.885872   -0.5636468   0.1786916   0.05343989 -0.33619377 -0.12872687
  0.58962315 -0.20701057 -0.05929494 -0.43929058  0.1383234   0.09466208
 -0.40512142  0.13713609  0.54527986 -0.43815833 -0.4661498  -0.5325295
  0.5928275   0.27862623]
layer 1 Activation
tanh
layer 2 Dense
20 40
[-0.58289295 -0.35503334 -1.6562185  -0.5499104  -1.4688683   0.11280108
 -0.15413082 -0.93929845 -0.1823396   0.9355601  -1.908689   -0.99331826
 -1.6790239  -0.88330823  0.44838783  0.40115747  1.7454641  -1.5267999
  0.7970748   0.91415554  0.15131098  0.5742202   0.5893738  -1.8835704
 -0.10042655 -0.7891794   0.96468604 -1.4090397   0.90982693 -0.14681286
 -0.05788129 -0.00759905 -1.0253851   0.82829     1.0647717   1.2542882
 -0.13689008  0.854731    0.8810083   1.1509123 ]
[-0.06520453  0.6452356  -0.9221041  -0.56826794 -0.97277105  0.24903211
 -1.2526661  -0.9893376  -0.7364568   0.9259076  -1.0105135  -1.1631671
 -0.45770523 -0.87636065  0.27620864  0.5491042   1.05924    -0.72382617
  0.4150397  -0.09038159  0.07541662  0.5158802   1.2977247  -1.0898937
  0.02946514  0.1281403  -0.29482248 -0.9435168   0.93918705 -0.52036
  0.1794255  -0.72715473 -0.13253836  0.78556854  0.67818713  0.65774196
  0.7501564   0.7099663   0.17473064 -0.1832274 ]
[ 0.19754417 -0.40033346 -0.04663688  0.9286438   0.55270994 -0.36314446
  0.10012992  0.5049724  -0.03489211 -0.68642783  0.32372007  0.23297222
  0.21119305  0.83412933 -0.31701025  0.690351   -0.52481633  0.09883384
 -0.1801936   0.17608264  0.13341996 -0.71294653 -0.15584958  0.7991033
 -0.81694865  0.60165673  0.11794315  0.22580701 -0.16160198 -0.7926398
  0.11472283 -0.27502838 -0.16412695  0.49812287 -0.5496518  -0.74269795
  1.06079    -1.1596216  -0.34321228 -1.1653631 ]
[-0.09517962  0.36542886 -0.82605624 -0.9190677   0.5301209  -0.48051488
  0.47716904  0.5377155   0.33941364 -0.3055305  -0.6093221   0.10846658
  0.79435706 -0.11833749  0.36761615  0.40664732 -0.42329222  0.6277442
 -0.85966957 -0.01413566  1.4180218  -0.5819442  -0.08650321  0.70399374
  1.122426   -0.35329658 -0.236475    0.00693073 -0.9895845   1.0048153
 -0.2864196   1.2942193   0.38549158  0.04374319 -0.92341095  0.14573224
 -1.1465989   0.75734484  0.31971815  1.089731  ]
[-0.20277634  1.1577245   0.6264213  -0.23075894 -0.08997843 -0.1544742
  0.09865899 -0.35759607 -0.68937796  0.30903605  0.29657662 -0.32248875
 -0.29501474 -0.44741756 -0.43405965 -0.27878067  0.42324072  0.5099688
 -0.785511    1.0962877  -0.11352979  1.0870086  -1.0400757   0.05567183
 -0.64513093  1.0367582  -0.95418495  1.3500205   0.70283157  0.84932375
  0.7248767   0.49178472  0.5669392  -0.5435901   1.3921499   0.5466317
  0.34598243 -0.19456734 -1.9670923  -0.13079455]
[ 1.3397847  -0.12083078 -0.18209511  0.10086448 -0.20314936 -0.717762
  0.2679296  -0.6034085   1.1544846   0.17347221  0.49990392  0.00483813
  0.07202173  0.6507327   1.339589   -0.413254    0.30516744  0.02318312
 -1.031172   -0.4502336   1.2744321  -0.9919391   0.5057876  -0.17316973
  0.05866386 -0.59291935  0.10445316  0.88733417 -1.4361643   0.04886566
 -0.526389   -0.55242604  1.1969849   0.9328829   0.14888358  0.46325722
 -1.4971018   0.47932395 -0.75724447  0.6449678 ]
[ 0.4397215  -1.8233408  -1.7750229  -0.64563644  0.7116995  -2.1565423
 -0.4197624   0.56949514  3.0213609  -0.04597964 -0.7437589   0.04856824
  0.72807086  1.4677547   1.4718232   0.24843562 -0.40286982  0.5790745
 -1.1902472  -1.9191687   0.30090907 -3.6974714   1.9730465   1.0341965
  2.1427839  -0.756586    1.8460503  -0.53444856 -1.2323349  -1.9362621
 -2.6589272  -0.08844063  2.218447    0.25600258 -2.3246489  -0.3343374
 -1.582894    0.14475787  1.7087766   1.0679214 ]
[-6.7812508e-01  6.4018768e-01 -1.0866292e+00  2.5863287e-01
 -2.9728201e-04  4.7879574e-01 -8.2003480e-01 -3.6462727e-01
 -3.4206808e-01  6.7146733e-02 -4.4401789e-01  1.2514499e-01
  6.2744159e-01  7.6075125e-01  2.6242983e-01  9.5721263e-01
  2.2909280e-02 -2.0900812e-02  1.2980298e+00  8.6531621e-01
  6.4657569e-01  1.5236986e-01  7.9137504e-01 -4.4054341e-02
 -1.2017871e-01  5.6667143e-01  8.8779128e-01 -1.7174856e-01
  7.6167560e-01  3.6950335e-01  5.3501976e-01 -5.2003879e-02
 -8.6636925e-01  3.7984776e-01 -1.0592898e-01  3.1278959e-01
  6.7342079e-01 -1.1681848e+00  3.8446468e-01 -4.1778654e-02]
[ 7.2894508e-01  5.8302224e-01 -1.4550701e+00 -9.1742381e-02
  5.3220594e-01  5.5695796e-01  1.5395684e+00  2.3826975e-02
  1.2516470e-03  3.5699449e-02  6.8992332e-02  8.6634696e-02
  1.9134481e+00 -4.5530778e-01  1.7092421e+00 -1.7585340e-01
 -2.6202789e-01  4.1357023e-01 -9.6005452e-01  7.2001928e-01
  1.1480428e+00 -7.0501661e-01  7.9748249e-01  2.8279272e-01
  4.7367939e-01  5.2464899e-02  5.2339768e-01  9.3722230e-01
 -7.7460063e-01  4.8079723e-01  1.0317851e+00  1.0647649e+00
 -3.3236870e-01  3.1893009e-01  1.6485837e+00  4.8827894e-02
 -1.3292835e+00  2.3428375e-01  2.5923488e-01  1.0787520e+00]
[-2.046746    1.0268419   0.15230449  1.1611869   0.14216767  1.048713
 -0.2889415   0.33345205 -1.213744    0.38064116  0.84542716 -0.14275032
 -0.35502788 -0.9862991  -0.50851446  0.5876939  -0.04249597  0.03091642
 -0.04386672  0.8854986  -0.5326915   1.3551213  -0.6249475   0.28535867
 -0.36411998  0.2887879  -0.49644428  0.23991503  0.8965444   0.715621
  0.7654163  -0.3878147  -0.8510057  -0.14034663  0.15687074  0.05887917
  0.7015018  -0.9371563  -0.70135194 -1.3207334 ]
[-0.1504197  -0.07604051  0.21987186  0.7790599  -0.5211956   0.18371741
 -0.37785077 -0.49685457 -0.5849897   0.23771477 -0.41490543 -0.09602149
  0.11796504 -0.14133747 -0.8986959   0.42596835  0.25111145 -0.16477604
  1.5173787   0.19371364  0.00241178  0.20629832  0.21029343  0.22756276
 -0.22580467 -0.24749243  1.0065795  -0.32917234  0.41533086 -0.52411824
 -0.08966017 -0.6703739   0.25135413  0.1757279  -0.5365241   0.15683031
  0.5264767  -0.59844345  0.04769822 -0.54426503]
[-0.50400525  0.4202563  -0.9257902  -1.6176639  -0.0647192   0.6226196
 -0.43415973  0.15714134 -0.2758047  -0.74722534 -0.6945826   0.33801344
 -0.5316333  -0.44847792  1.2504059  -1.7081118  -0.1008141  -0.08619598
 -1.6880167   1.2402552   1.557757   -0.29052067  0.93694365  0.04277753
  1.3604116  -0.11169371  0.03312908 -1.1935277  -0.8597609   0.8982535
  0.60840094  1.713685    0.47312668 -0.8155479   0.44016773 -0.5096675
 -1.6703348   0.83865756  0.87603694  1.4956504 ]
[ 0.25047567  0.8195679   1.0850649   1.0303731  -0.28028235  1.4578003
  0.7402685   0.17386217 -1.343743   -0.3061764   1.8512346  -0.38108873
  1.0896821  -1.4658703   0.3972386  -2.0340724   0.16139522  0.5818318
 -0.3174298   0.83943045 -0.35561487  0.1682548  -0.72155637 -0.12052733
 -2.1874497   0.64273477  0.23583302  0.7524249  -0.47776762  1.5819154
  1.5043675   0.6366522  -1.0579491  -0.33055907  2.6262853   0.33283913
 -0.628621   -0.7219055  -1.6378617   0.23968644]
[-0.86916625 -0.47156972 -1.0978597   0.24761035  0.37164167  0.17286478
 -1.0454948   0.43759158  0.09486802 -0.36237618 -0.2121141   0.21702726
  0.6257317   1.4215693  -0.3777069  -0.30263966 -0.31300017  0.15546063
  1.2666544   0.00541961 -0.25773594  0.1562441   0.993698    0.09711275
 -0.93737423  0.04262797  0.9817014  -0.9765446   1.2398026  -0.12867253
 -0.62199    -1.2529241  -0.8034212  -0.25506675 -0.37345907 -0.5066261
  0.98523986 -1.3884596   1.9391311  -0.18592869]
[-0.1041158  -1.9551718   0.07525577  1.7948765   0.29282117 -0.25236198
 -0.86948514 -0.10716648  0.7023253  -0.09483245 -0.8836696   0.34504405
 -0.67631006 -1.1360462   0.18777333  1.7343987  -0.23304276  0.47494668
  0.8290501  -0.8286778  -0.9909079   0.32398447 -0.48500243  0.53309494
 -0.9752458   0.87071085  1.4105755  -0.3937401   0.3150034  -1.4112881
 -1.0249244  -1.6325024  -0.04510179 -0.37187237 -0.49545377 -0.3582192
  0.4243669  -0.26532075  0.9187191   0.27580556]
[-0.47611558  0.5511206   1.150846    1.1020539   0.72891384  1.8842378
 -1.3686063   0.24778727 -1.482907   -0.20954755  1.1748474   0.37709457
  0.46309277 -1.0934643  -1.8247296   1.1452583  -0.5576189   0.14666612
  0.93398684  0.88168937 -0.32839555  1.1670269  -1.1228887   0.49438205
 -2.4243002   0.5730795  -0.8213536   0.2829004   0.6782551   0.96852404
  0.9497791  -0.13351911 -1.6765786  -0.5220285   0.7657354  -0.0798469
  0.15820037  0.3170742  -1.1745852   0.53325754]
[ 0.01801139  0.59748334  1.3773663  -0.26675802 -0.37465632 -0.49815232
  1.2021819  -0.5925776   0.15400481  0.05668958  0.07087909 -0.46378246
 -0.6359031  -0.01493142  1.563371    0.04195552  0.33476838 -0.13777903
 -0.9091814   0.04996743  1.6805338  -0.18931542 -0.62652814 -0.48663786
  0.70883757  0.13460732 -1.1018078   0.07870121 -0.9147303  -1.281068
  0.2945369  -0.2709555  -0.00192895  1.2795812   0.60883105  0.38634652
 -0.6061053   0.7980964  -0.2940819   0.49513346]
[ 0.49843946  0.8328541   0.64482    -0.29162917  0.09481013  0.48766506
 -1.5543835   0.59690267 -0.7238488  -0.46903217 -1.5588402   0.8486439
  0.15676051 -0.37123746  0.86170477  2.0957081  -0.4297398   0.02476367
 -0.1696898   1.0108374   1.6843615   0.8902665  -0.3411927  -0.04613151
  0.8306848   0.7575446  -0.6151011  -1.7316312   1.8630074  -1.0425622
  1.2987024  -0.50370824 -2.2735198   0.28800192 -0.81974405 -0.5172649
  1.7675198  -0.1408206   0.1119967  -1.6096584 ]
[ 1.0379006  -0.9753059   0.63109934  1.4518297   0.09130052 -1.757072
  1.4061116   0.4987323   1.1848408   0.3072803   0.9456928  -0.01901438
  1.2480458   1.7819175   0.13978857 -0.3039606  -0.10177152  0.3486893
 -0.61690813 -1.4444053  -1.3944175  -0.94206643 -0.04997654  0.29232898
 -1.1023864   0.50616235  0.2790784   1.6198992  -0.6713891  -0.6212182
 -1.0458338  -0.98909026  1.2073317  -0.9164519   0.31667998  0.36634654
 -0.63416606 -1.1429957  -0.15979932 -0.6198884 ]
[ 0.03682245 -1.3057647  -0.29140896  2.2731855   0.13554521 -1.0090419
  0.42722556 -0.45565522  0.92623276  0.5453826   0.8634046  -0.36066642
  1.2041541  -0.05152381  0.00487985 -0.8590798   0.20904042  0.15914962
  1.1035839  -1.7048559  -2.0198085  -0.6805884   0.7994143  -0.16011861
 -1.2306441   1.2907273   0.8297279   0.8571841   0.47049904 -2.2920084
 -2.021298   -2.5285876  -0.03598521 -0.31364802 -0.06694649  0.25019678
  0.88315576 -1.720828   -0.20359485 -0.72991747]
[ 0.8991471  -1.8471546   0.38003     0.87973803  2.2738233  -0.9101003
  0.9729136   2.2085176   1.0086764  -2.8672442   1.0864139   2.8635445
  2.184129    1.369987   -0.7223376  -1.0331767  -2.1675286   2.278441
 -0.90183675 -1.110163   -0.9615898  -0.67410934 -0.28978673  2.206882
  0.19652     0.8474158   0.44801334  1.2965652  -0.59488934 -0.47076982
 -0.88391334 -0.2940903   0.3484935  -1.6329222  -1.3826398  -2.5137255
 -0.4320469  -0.6014316   0.41684505 -0.21189329]
layer 3 Activation
tanh
layer 4 Dense
40 20
[ 0.44851702  0.01259563  0.01374244  0.22014152  0.21820214 -0.46519247
 -0.45578268 -0.17529856 -0.23393619  0.17092249  0.04337065 -0.01676976
 -0.03333816  0.16763455 -0.3908668  -0.4309465   0.1718492  -0.5499272
 -0.35487238 -0.34002787]
[-0.73302203  0.47144124 -0.41418213 -0.3137652  -1.012321   -0.01695793
  0.7520237  -0.05917432  1.347746    0.761468   -0.02951367 -1.217947
  1.2353536  -0.4010029  -0.4125551  -0.6644311  -0.6143666   0.755919
 -0.40108728 -0.5749427 ]
[ 0.15398528 -1.1115026   0.1315969  -0.82443285  1.2341592  -0.12500946
 -0.13364273 -0.4272738  -0.8492892  -0.99984884  0.57935977  1.058777
  0.376201   -0.4859622  -0.94957846  1.7373455  -0.23654133  0.74723256
  0.82770395  0.33404738]
[ 1.9317448  -1.7938002   0.34402803 -0.35865492  1.0987374  -1.0731468
 -0.9444033   0.5768826  -1.3780929  -1.5003649   0.60026616  1.357305
 -0.1255909   0.4858619   0.40208817  1.5150373  -0.9070744  -0.36452493
  0.77097255  1.7347652 ]
[ 0.39032796 -0.9189099   1.7192823   0.8180924   0.3675804  -0.10222328
  0.08814455 -1.2297093  -0.4892947  -0.7382503  -1.0302101   0.4904564
 -1.1140476   0.07874116 -0.07725469  1.0353142   0.3638698  -0.7788004
 -1.478124   -0.84875846]
[-0.28658658  0.84698004 -0.38426292 -0.96355575 -1.677171   -0.25266963
  0.18096581  0.00170943  0.6861659   0.49009144 -0.00783915 -0.5282141
  0.9558562  -0.7490564  -0.13596362 -1.6068007  -0.7234259  -0.31258458
  0.43891814  0.5768524 ]
[ 0.6779883  -1.2126942   0.6967128   0.23258287  0.9556564   0.23958665
  0.04131418  0.18531033 -0.91603875 -1.0537317  -0.749622    0.14246365
  0.4536942  -0.3881312   0.5525372   0.63184935  0.00550976  0.24325353
 -0.07780531  0.23562916]
[ 0.3952059  -0.18595135  0.9059955   0.6638206   0.3803995  -0.43293777
  0.42030716 -0.57202256 -0.34690922 -0.59024817 -1.4500861   0.4869007
  0.92676616  0.3459426  -0.20076327 -0.20144053  0.30327767 -0.7301006
 -0.52816826 -0.85844636]
[ 0.6164198  -0.34373716  0.24777563  1.1971935   0.38705656  0.25057226
  0.30375212 -0.34133682 -0.19519235 -0.66861737  0.1275127   0.42266038
 -1.207577    1.6691425  -0.04881803  0.8645878   1.4206798  -0.23157689
 -1.4372911  -1.1027534 ]
[-0.42359215  0.50168145 -0.8988363  -0.32572323 -0.4253829  -0.07876746
 -0.76115423  1.0317793   0.5477197   0.67351615  1.2329472  -0.6117357
 -0.02627897 -0.13761747 -0.15997672 -0.06502017 -0.3211961   0.5201275
  0.7536463   0.70090413]
[ 1.8358955  -2.1360447   2.1766837  -0.42986903  1.0519962  -0.27994424
 -0.13692516  0.06472911 -1.5182041  -0.9713886   0.38199553  1.6370537
  0.90704626  0.5059046   0.49537063  1.0343491   0.3195819   0.34669453
  0.8221377   0.4407883 ]
[ 0.95197064 -1.327291    1.3060232   0.5935387   0.8470449  -0.25548452
  0.81338763 -0.94880176 -1.4643459  -0.93335205 -0.70988613  1.2477686
 -0.34188646  0.72168976  0.24227326  0.875057    0.45644802 -0.7936207
 -0.63877565 -0.67567694]
[ 1.0638134  -1.330206    1.8123536  -0.5972318   0.632481   -0.38375947
 -0.81072843 -0.47505358 -1.5259886  -1.3802441  -0.54751277  2.082436
  0.45144764  1.0810509   0.16382034  0.63420874  0.7708296  -0.09628067
  0.45053086  0.29446083]
[ 0.15067288 -0.6137815   1.3553414   0.64041543  1.0278126  -0.2144593
 -0.01927238 -0.32853955 -0.44879812  0.27987278 -0.0487953   0.7669785
 -0.7169825   1.0512264   1.2962042   0.16240788 -0.15721595  0.2805543
  0.41325808 -0.22747792]
[ 0.4945041   0.0355205  -1.1253347   0.21141876  0.37019873  0.8106187
  0.6317654   0.31048954  0.18619478 -0.96521634  0.12309876  0.1075526
 -0.60702103  1.0072646   0.10966137  0.8734697   0.46236807  0.7085135
 -0.18340115  0.13665015]
[-1.2621046e+00  1.0551467e+00 -1.3589035e+00  1.4698095e-02
 -1.2470909e+00 -1.0445656e+00 -6.5349919e-01  2.2759245e-01
  1.1187431e+00  1.6395093e+00 -1.5845667e-01 -1.8529500e+00
  3.0157155e-01 -1.1488830e-03 -6.1433208e-01 -1.2289108e+00
 -2.3407179e-01 -6.8349046e-01 -8.8085912e-02 -1.6167881e-02]
[-0.880696    0.37505755 -1.2210349  -0.4843157  -0.5810921   0.26880983
  0.56993896  1.0013677   1.2085254   1.2271057   0.4095536  -1.2730472
 -0.31283525 -0.66332734  0.28823808 -1.0816027  -0.31668568  0.63459414
  0.10618499  0.8188475 ]
[ 0.00690746 -0.0631234   1.3809712   0.31051815  0.37701738  0.22440605
  0.46840778 -0.71438706  0.02964265 -0.7141361  -0.7451417   0.30711353
 -0.20634899  0.5540882  -0.09715352  1.3920581   0.28793558 -0.29147705
 -1.115631   -0.45639107]
[-0.97215855  0.72471803 -0.61572033  0.60029763 -0.42338407 -0.91390735
 -0.85075366  0.06538897  0.89940655  0.06026622 -0.2479741  -0.5535817
  1.0734164  -0.95061153  0.60295874 -1.0596143  -0.93709314  0.1250564
  0.88633263  1.1795318 ]
[-0.7865549   0.74256414 -0.4352654  -0.69604546 -0.7871991   0.21365246
  0.70725226 -0.11935562  0.32234398  0.42569718 -0.09825962 -0.40253606
 -0.02032133 -0.6221084  -0.8739786  -0.87881434  0.09282602  1.0471879
  0.25014743  0.33860156]
[-1.3895812   1.4581965  -0.65201706  0.30844903 -0.67693347  0.45979333
  0.6670491   0.45448098  1.60997     1.4978617   0.0389863  -2.0376518
  0.5607619  -0.39289707 -0.6313686  -1.9008596  -0.07914859  0.39830557
 -0.4489458  -0.2058899 ]
[-1.1288633   1.0626394   0.5247456  -0.48882633 -1.771968   -0.81110066
  0.5086967   0.17726195  0.68914074  0.55360764 -0.35388115 -0.6247429
  1.3879267  -1.4152515  -0.78124547 -0.40682182 -0.65916616 -0.08133689
  0.17747088  1.0055575 ]
[-0.2949347   0.85985255  0.25899968  0.63221073 -1.5945332   0.43411925
  0.9226792  -0.06148227  0.87563175  0.48846218 -1.0085934  -0.26675957
 -0.19682863  0.23751725  0.00755944 -1.5059869   0.38884223 -0.15788609
 -0.7054091  -0.6110171 ]
[ 0.5606648  -1.262562    2.1638222   0.42045125  0.67487454  0.23820095
 -0.1834991  -0.957573   -0.6678214  -0.83575004 -0.41308105  0.97504574
 -0.31404173  0.15291469  0.08409219  0.79653615  0.41109198 -0.2386534
 -0.9635319  -0.09254824]
[-8.7137711e-01  1.0681224e+00  1.3674080e+00  1.1052415e+00
 -1.3451989e+00  6.4292234e-01  8.5327017e-01 -4.8759073e-01
  7.1979618e-01  1.2211170e+00 -4.8972502e-01 -1.1899029e+00
 -5.1033872e-01  8.5680807e-01 -6.9091648e-01 -6.9768292e-01
 -4.5876653e-04 -7.5252664e-01 -1.7424790e+00 -1.0299363e+00]
[-0.27096555 -0.10377579  1.1406723   0.38380605 -0.24210712 -0.27815
 -0.12058375  0.06144093 -0.18253873 -0.1069743  -0.51039827 -0.06598873
 -0.2650399   0.04768794 -0.45731443 -0.04146936 -0.3719756  -0.01126633
 -0.47402728 -0.42444104]
[-0.18472557  0.9379453   0.19162127  0.954281   -0.5728996   0.05936486
  0.28311867 -0.20676321  0.78891844 -0.08159214 -0.28974926 -0.4029182
 -0.3225472   0.8464859   0.76508796 -0.8866111  -0.17790568 -1.3098967
 -0.26653406 -0.52570075]
[ 1.3804563  -0.67982936  1.5127522  -0.46888462  0.9827461   0.12469584
  0.11320998 -0.24216262 -1.0717316  -0.16653456 -0.445991    1.2458459
  0.44353405  0.38556555  0.75000286  0.92489976  0.1590328   0.21564133
  0.22356014  0.09120887]
[-1.3087738   1.0264771  -0.82599175  0.7896633  -0.7074387  -1.2748201
 -0.6617122   0.5121649   0.68950325  0.3972177  -0.5032781  -0.9505668
  0.6396254  -0.7564618   0.4023417  -1.2413687  -0.69481176 -0.6249334
  0.5115415   0.4493527 ]
[-1.1069964   0.5134287   0.21276589  0.20065148 -0.06506632  0.2769513
  1.0847843  -0.38001287  0.3796879   0.90329874 -0.30594668 -0.7667339
  0.8571105  -0.816551   -0.36089042 -1.3648925  -1.022258   -0.19980519
  0.8380817   0.22462285]
[-0.8016173   1.0279583  -0.29133677 -0.51366425 -1.2851804   0.10595879
  0.2768228   0.17802435  0.97014225  0.9675337   0.05984409 -0.96441936
  2.0460725  -1.4919509  -1.3374252  -0.96413946 -1.0765285   0.9177843
  0.493652    0.8550873 ]
[-0.48656818  0.81904227  0.13561425 -0.01576522 -0.8598223   0.8972531
  0.5887238  -0.18326642  0.57505894  0.7383381  -0.12626033 -1.1453815
  1.19119    -1.0675435  -1.1732013  -1.0908979  -0.2676509   0.7821292
  0.17332982 -0.7268177 ]
[ 1.4192337  -1.1099219  -0.01039411  0.21884476  0.8566817   1.5556893
  0.48268408 -0.02643782 -1.6540595  -1.3260342   0.311413    1.3376573
 -1.4388255   0.9953467   0.25560978  1.5323197   0.9658177   0.53774244
 -1.2878258  -1.1361047 ]
[-0.22765519  0.470495   -0.9958239  -0.6721447  -0.10807911  0.38615036
 -0.07157657  0.7669677  -0.3293081   0.48023707  0.245444    0.23422271
  0.01394422  0.2927802   0.39428824  0.06359503 -0.26322818  0.05114802
  1.1479975   0.9661653 ]
[ 1.1251752   0.3773541   0.23773313 -0.32788846 -0.13497302  0.8832914
 -0.16749826  0.31510264 -0.10772198 -0.41466457 -0.5610284   0.5914346
  0.4192022  -1.210548   -0.71654826  0.57445776 -0.21421248  0.7877942
  0.83558875  0.6667808 ]
[-0.19078423  0.90355766 -1.2731391  -0.96949756 -0.5463644   0.2544714
 -0.50509274  0.7508359   0.34282973  1.3516916   0.6946745  -0.30835137
  0.45171466 -0.09886155 -0.00877598 -0.5328553  -0.65420526  0.5733829
  0.9151256   0.71205175]
[-0.21506353  0.28392655  0.37172693  0.8212655  -0.15097587 -1.1832743
 -1.2763895   0.530942    0.3435828   1.5744877   0.11615396 -0.49822438
  1.0526705  -0.25565407  0.43063465 -0.14929745 -1.374449   -0.5188441
  1.032081    0.39747047]
[ 0.20464978  0.33638006 -1.4158903   0.4576586  -0.31773195  0.10039426
  0.41045332 -0.43589863  0.39841017 -0.14021255 -0.01162845 -0.26534337
 -0.9330991   0.24285868 -0.58068097 -0.39161122  0.8405302   0.40971386
 -0.99219745 -0.821164  ]
[-0.04018243  0.08666267 -0.30868894  0.3336154  -0.7415768   0.45959458
  0.18157303  0.20311993  0.16557248 -0.01227267 -0.15437543  0.2791295
 -1.0323848   0.36568913  0.59439296 -0.5969015   0.8350373  -0.4933518
 -0.79185694 -0.27205953]
[-0.10648184  0.02480208 -0.4641538  -0.52527654  0.6111494   0.57870865
  0.5541345  -0.08003435 -0.15077968 -0.44799203  0.23112962  0.41859978
 -1.499342    0.18751542  0.23532236 -0.18489501  1.0112958   0.68078935
 -0.9212605  -0.9285776 ]
[ 0.39939106 -1.070196    0.9652918   0.58531725  0.3681115  -0.11168508
  0.5404957  -0.9083086  -1.2173965  -0.86009705 -0.6552915   0.74317724
 -0.33771002  0.1801761   0.1170636   0.27698568  0.4155599  -0.5176567
 -0.5707471  -0.6723738 ]
layer 5 Activation
tanh
layer 6 Dense
20 1
[-1.2554871]
[1.8003367]
[1.2834466]
[0.4150337]
[-1.7088174]
[-0.31308842]
[0.33816692]
[-1.7349874]
[2.0773256]
[0.37994167]
[-2.582196]
[-1.25465]
[0.36724034]
[-0.08814949]
[-0.5405933]
[-0.79373926]
[-0.54302806]
[-0.5493232]
[-0.5673745]
[-0.3841795]
[3.2842157]
