layers 7
layer 0 Dense
20 20
[-0.22198458  0.51464033 -0.13311553 -0.20619379 -0.0642299   0.09624234
  0.03802207 -0.2153188  -0.1206771   0.22990532 -0.08686338  0.09889238
  0.12283373  0.06367991 -0.22407962 -0.22731903 -0.32789606 -0.14760417
 -0.04481021 -0.07645197]
[ 0.07825398 -0.35033306 -0.18368699 -0.21778135  0.35388052 -0.07300425
  0.32447803 -0.2780075  -0.37631148 -0.07792914 -0.22613306 -0.09598374
  0.02841255  0.32213324  0.01738423  0.13344556  0.21749705  0.01771709
  0.34429562  0.18130916]
[-0.05573452  0.17619133 -0.03021955 -0.11405358  0.32030767  0.34667784
  0.29698837 -0.01211536 -0.10840252  0.09785667 -0.06619781  0.27821833
  0.30390936  0.01940265 -0.38427424  0.35645854  0.34932637  0.36996567
 -0.2355125  -0.06119055]
[-0.70734495 -0.07455829 -0.31824803 -0.17099567 -0.523681   -0.38509476
  0.05400368 -0.12543042  0.40862417  0.08080641 -0.06626238 -0.3642679
  0.1496445  -0.17609452  0.31336647 -0.24690771  0.20478976 -0.2705939
  0.06823882 -0.03260034]
[ 0.06322712 -0.21393201 -0.23274277  0.08277179 -0.25236598 -0.5665806
  0.07286581 -0.03088489  0.07806477 -0.02849515  0.02139175 -0.11005659
  0.2596341  -0.11288379 -0.13202594  0.01226827 -0.23724341 -0.29418153
 -0.18516786 -0.15472905]
[ 0.26347566 -0.07994175  0.34378392 -0.38685927  0.34445816 -0.26019984
  0.10532284 -0.23790473  0.0735034   0.02816194  0.2813179  -0.05102557
  0.35969985  0.2711835  -0.339487   -0.22737475 -0.14795858 -0.26045746
  0.3543402  -0.11497921]
[-0.32401806 -0.11207256 -0.04345101  0.15458512  0.06879237 -0.08388731
  0.19483972 -0.36582193 -0.04519844  0.31203872 -0.13294968 -0.12846783
 -0.12320864  0.02836123 -0.3199895  -0.28592652 -0.35870636  0.34616542
 -0.15515955 -0.12642086]
[ 0.595309   -0.46229196 -0.40508977  0.16441807  0.2839455   0.7210612
 -0.27746457  0.12693484  0.33807483 -0.04329939 -0.44480193 -0.27496284
  0.08654069  0.19437611 -0.3764296  -0.17657311  0.18708415  0.18369247
  0.01318898  0.16542733]
[ 0.20075387 -0.16816959  0.19223638  0.18165402 -0.08122951 -0.32190424
 -0.5022731   0.07042757  0.09795    -0.12321932  0.1420124  -0.3924197
  0.25145483  0.28664258 -0.11972285  0.26627204  0.1635472  -0.13749136
 -0.15295851  0.33074138]
[ 0.13013217  0.23852187  0.1618831  -0.1503602   0.4544353  -0.0199764
  0.30019614  0.19704434 -0.8357452   0.23766221 -0.27618864  0.0241737
  0.31751525 -0.7423477  -0.42898646  0.44271302 -0.4785844   0.00091347
 -0.144462    0.33844554]
[ 0.17108233  0.09573996  0.4985892  -0.27413374 -0.16451342  0.03161887
 -0.40232202 -0.40982997 -0.09995051 -0.41073883  0.09525919  0.3808185
  0.11156043  0.52282506 -0.23882596 -0.34448418  0.22271465 -0.3354323
  0.05671382 -0.14896902]
[-0.8379586   0.3354548   0.03533632  0.401203   -0.97842747 -0.11794957
  0.40652826 -0.5668984   0.87401545 -0.28223428 -0.34166655 -0.47436103
  0.21204951 -0.71198773  0.586226    0.06032512  0.48554832 -1.191802
  1.00031    -0.03661571]
[ 0.14786595  0.11563533  0.07176849  0.25296283  0.3030217   0.34635508
 -0.35386285 -0.286257    0.5173257  -0.06264491  0.6966046  -0.03082452
  0.05175053 -0.41540846  0.17036901 -0.06970651  0.4622646   0.10212585
 -0.25971338  0.0618639 ]
[-0.20323415  0.25380725 -0.20208235 -0.27035138  0.19944257  0.1707525
  0.21867527  0.45653817 -0.38248137 -0.57390165  0.57688624 -0.04809656
  0.6853127  -0.2855714  -0.21154143  0.4414829  -0.28528574  0.17753534
 -0.27678487  0.4512495 ]
[-0.09374599  0.16245887  0.4597986  -0.29976723 -0.5633786   0.21882284
 -0.42713648  0.06463365  0.03799578 -0.11448003 -0.12236194  0.6939591
  0.4405931   0.41442    -0.23548271 -0.22723985  0.28627297  0.4012578
  0.2537076  -0.10275016]
[-0.3897474   0.04791732  0.4032659   0.3909227  -0.60847306 -0.26897538
  0.5022445  -0.908831    0.07698418 -0.19053546 -0.617316   -0.07839993
  0.04270954 -0.30202514 -0.07958543  0.24373616  0.24168074 -0.28803065
  0.69597447 -0.03634409]
[ 0.3901366   0.10699449 -0.10321502 -0.09363247  0.26408124 -0.06939818
  0.05217281  0.71603906 -0.44932216  0.30139384 -0.04362561  0.2157417
 -0.5083327   0.6722147  -0.08020452  0.1828425  -0.3198516  -0.05257934
 -0.03493699 -0.15542662]
[-0.01190813 -0.5926809   0.5809709   1.0409077  -0.2642203  -0.47565803
 -0.54079527 -0.6954685   1.0996075   0.41867146 -0.7568917   0.38204658
 -1.2201052   1.3138765   0.87889105 -0.28466487  0.33414567  0.11216287
  0.95703626 -0.7888382 ]
[ 0.03956945 -0.06504081 -1.1966951   0.94218373 -0.08942186  0.30623648
  0.62315696  0.7455854   0.68392384  0.9028409   0.01214441 -1.0318013
  0.09402633 -0.24522012  0.52491367  1.1954019  -1.1121328  -0.07093313
 -0.63128835 -0.10592899]
[ 0.33944097  0.03769894 -0.27837574 -0.02770494  0.60649616  0.92458606
  0.13812515  0.2927927  -0.228865   -0.01867629  0.12282604  0.22820818
 -0.47279584  0.2327101   0.25655344 -0.33103627  0.17039512  0.15491217
 -0.64194906  0.1607336 ]
[-2.1448517e-01  2.3048609e-01  6.9878977e-03 -1.7996201e-01
 -2.6831216e-01 -1.6880392e-01 -1.9342359e-04  1.0280531e-01
 -1.9927524e-02  4.5931973e-03 -1.7155387e-02 -7.6779850e-02
  3.6934722e-02 -1.6110380e-01 -8.1730627e-02  1.2617639e-01
  2.5268150e-02 -1.7464876e-01  4.1737333e-02 -7.4982368e-03]
layer 1 Activation
tanh
layer 2 Dense
20 40
[-0.04676041  0.172234    0.06832143  0.11611546  0.20506072  0.64616495
 -0.28935832 -0.22696142 -0.10367304 -0.06275624  0.46383733 -0.21418095
 -0.11126559  0.14267242 -0.13855936  0.17790265  0.21271856 -0.00764045
  0.2564326   0.16321817  0.6106011   0.21204129  0.5209756   0.21262106
  0.09754651 -0.08864684 -0.16790241 -0.31680164  0.5574213   0.09294808
  0.33369437  0.3726648  -0.56590813 -0.21429783  0.11096328  0.15171522
 -0.5214647   0.12316551 -0.18090144  0.2529869 ]
[-0.02217074 -0.23393926 -0.56265676  0.2958163   0.28819376 -0.4015178
  0.27655178  0.0359453   0.20977207 -0.17553689 -0.39462262  0.12236572
 -0.04231035 -0.26338065  0.44922432 -0.11145373 -0.15596043 -0.05949817
  0.16715118 -0.5497617  -0.25388107 -0.10342357 -0.49044546  0.26864964
 -0.21982016  0.30888817 -0.34770715  0.02967497 -0.1669922   0.11374788
 -0.16230051 -0.01180978  0.04077641 -0.3131865  -0.32024655 -0.07709172
  0.39209124 -0.14073417  0.10603072  0.03094637]
[-0.08538946  0.12852526 -0.31612766 -0.73385894 -0.53525823 -0.08528188
 -0.27531198 -0.4173848   0.1792107  -0.71823674  0.02877349 -0.49262398
  0.26131833  0.5020205  -0.49206805 -0.1925678   0.05026509  0.16695096
  0.01495176 -0.09529233  0.32323962 -0.57198894 -0.11862405  0.52884066
 -0.6522042  -0.03718298  0.73552275  0.6477478  -0.15833272  0.05638273
 -0.22457115 -0.1998423  -0.36630088  0.24045078 -0.32810286  0.22345318
  0.27861688  0.29724598  0.55089986  0.00500803]
[ 0.5611466   0.4256144  -0.04581945 -0.27751547 -0.201226    0.00809046
 -0.19052547  0.08267181  0.08391987  0.33077237  0.04749227  0.56523275
 -0.4051618   0.05735211 -0.83160305  0.19713797  0.05634387  0.21046486
 -0.47923818  0.3411852   0.32792088  0.28000382  0.03504774 -0.23143847
 -0.54610527  0.0497241  -0.24348955 -0.04337155  0.1151666  -0.21087117
  0.11392312  0.1452202  -0.13777032  0.1283938   0.25590387  0.07103831
 -0.02596426 -0.12763657 -0.3720965   0.42822066]
[-0.581334    0.13557187  0.21333556  0.5109114   0.2675619   0.31409845
  0.03313899 -0.12768766 -0.16629149  0.38259047  0.67192316  0.16951916
  0.09025007 -0.13307993  0.39739698 -0.17300005 -0.21129405 -0.20387758
  0.25507408 -0.16030313  0.4513897   0.11197756  0.8059974   0.09653553
  0.5845387   0.11846787 -0.6926194  -0.66236687  0.49996477  0.12100528
  0.7110694   0.5213995  -0.25876608  0.06434178 -0.29762897  0.4291586
 -0.4476672   0.43483418 -0.03318032 -0.23304248]
[-0.45849046  0.2659591   0.36437482  0.45586514  0.20903781  0.0276779
  0.13498749  0.10184029  0.34113866 -0.08832715  0.45760545  0.07804085
 -0.12813629 -0.5762058   0.07706597 -0.43328306  0.1934635  -0.12609655
 -0.37282735  0.20998123  0.14262848  0.5975092   0.5881215  -0.21300976
  0.06167719  0.2788468  -0.11278577  0.2392194   0.6015866  -0.27990192
 -0.03854555  0.6241623  -0.09877813  0.23079601 -0.3157997   0.44202867
  0.19476958  0.2278823   0.18549441  0.06876084]
[ 0.02734539 -0.11648146 -0.4053945   0.11477359 -0.00963238 -0.27821884
  0.32413122  0.37489167 -0.10980168  0.21911946  0.3563327   0.13073839
 -0.4285263  -0.65055543  0.07965177 -0.0066575   0.08271209 -0.53969115
  0.14796676 -0.16569969 -0.01972544 -0.08171035 -0.13494927  0.05393567
  0.15128341 -0.1624931  -0.54862076  0.07317396  0.12416639  0.01166145
 -0.27600402 -0.09669756  0.31424168 -0.03005159  0.32901543  0.1058533
  0.5012908   0.24076945  0.42238408  0.10211977]
[ 0.04469804 -0.11154594  0.12301809  0.41202667  0.3709996  -0.10076865
 -0.10492311  0.39557692 -0.42829463  0.08891183  0.43347025 -0.11171661
 -0.16977616 -0.08307357  0.40334007 -0.18544321  0.19936109 -0.20344077
  0.26499864 -0.3021604  -0.08753596  0.40291724  0.35848173 -0.39905888
  0.12237088 -0.29415417 -0.5031762   0.04384769 -0.22054984 -0.07213452
  0.38412225 -0.22554564 -0.12511592  0.10822185  0.30007222  0.5233428
 -0.23791516  0.3273183  -0.08499756 -0.29830098]
[ 0.8213281   0.0197843   0.19087438 -0.27303466 -0.41523015  0.04997939
 -0.16623501  0.11315636  0.00476389  0.33822337 -0.5791633   0.5962786
 -0.11814561  0.15807286 -1.2741715  -0.07417241 -0.14555728  0.65031517
 -0.51161146  0.1445747  -0.28611404  0.01044154 -0.74916065 -0.43259966
 -0.9011326  -0.7290691   0.1634992  -0.01588775  0.31443545 -0.2333587
 -0.48395777 -0.29168296 -0.04905761  0.4497642   0.5336662  -0.47541088
 -0.17527917 -0.06613553 -0.5390069   0.8416926 ]
[ 0.09486517  0.11180283  0.39975566  0.29616863 -0.07168219  0.02255647
 -0.1652167  -0.02160248 -0.39334834  0.44167367  0.00230406  0.4457396
 -0.0158852  -0.5932335  -0.13857545 -0.01866964 -0.11093818  0.09012649
 -0.15274839 -0.37176555  0.40375826 -0.3809672   0.21887363  0.29168284
  0.2988518  -0.25543436  0.06481158 -0.5399975   0.08608559  0.08507518
 -0.02291976  0.16601676  0.05571783  0.31346864  0.03249741  0.00113546
 -0.14409555  0.32360643 -0.2526662   0.40963376]
[ 0.321628   -0.09388298 -0.20835854  0.42602172  0.57964915 -0.04932113
 -0.07743669  0.09318847 -0.08691531  0.0960287  -0.0513927  -0.12961286
  0.0163741   0.1603339   0.2166207   0.25191307 -0.07285631  0.1926791
  0.4799288   0.01404884  0.01083322  0.10103995 -0.1607464  -0.24882878
 -0.15043408  0.06760866 -0.27086174 -0.07295576 -0.25851688 -0.08989447
  0.20542932 -0.4718221  -0.11420629  0.01529624  0.18971147  0.46311626
 -0.14241499  0.48868635  0.38841945 -0.01678312]
[-0.72488284 -0.3233755   0.36977908  0.26448053  0.5352354   0.00784411
 -0.24371801 -0.42331067 -0.18264939 -0.19360502  0.3258178   0.1802868
  0.3406232   0.4033695   0.30583724 -0.6488187  -0.549531   -0.4683719
  0.17338142 -0.08167114 -0.00582948 -0.39997452  0.6407476   0.26377976
 -0.13519946  0.7027756   0.5118685  -0.2347744  -0.08060499  0.23077416
  0.13434568  0.08602083 -0.12110354  0.36604872  0.11912613 -0.20762649
 -0.24114615 -0.18755884 -0.09100332 -0.56339383]
[ 0.3031443  -0.12802787 -0.49755907  0.26883376  0.5121281  -0.40428674
 -0.24630448 -0.13405442  0.6731256  -0.49508917 -0.4374929  -0.16114302
 -0.36891052  0.26405564  0.2207739  -0.2552368  -0.05191555 -0.48195183
  0.04365797  0.29721615 -0.20751633  0.24390389 -0.11187778 -0.34628564
  0.24774751  0.15765063  0.3625697   0.8339265  -0.51693255  0.11549747
  0.06452505  0.05719301  0.12905599 -0.01402897 -0.47156516  0.5269413
  0.04417785 -0.21295501  0.3134046  -0.29485235]
[-0.4167895  -0.02560597  0.45592815 -0.07709341  0.39592528 -0.11584994
  0.06282969  0.09532299 -0.05496224  0.38039517  0.34648645  0.6208896
  0.6753782   0.25909704  0.05851998  0.03881791 -1.0347338   0.50813717
  0.00562625 -0.22655585  0.4027806  -0.33224517  0.46572763  0.37604743
 -0.4244181   0.45520362  0.01739022 -0.6208621   0.07120831 -0.44681877
 -0.33700407 -0.3044597  -0.3782983   0.3175075   0.65451723 -0.09658925
 -0.11843294 -0.34635916 -0.27372456  0.02189052]
[ 0.44518456  0.21459511 -0.04667647  0.2718023  -0.33459863 -0.20981146
  0.18301393 -0.0787173  -0.14805917  0.09472092 -0.00543233  0.1892629
  0.05137782 -0.18459615 -0.43859187  0.41865593 -0.1081854   0.3026697
 -0.12327863 -0.06854222 -0.22575516 -0.14992036 -0.18643495 -0.03044461
  0.0429618  -0.06451832 -0.3236013  -0.2443647  -0.25628716  0.3133939
  0.06258538 -0.2775352  -0.24383532  0.26865438  0.38190904 -0.11411091
  0.56063795  0.00580084 -0.3352269   0.28707403]
[ 0.17605484 -0.07133967 -0.0225932  -0.21234165 -0.29968107  0.27243084
 -0.1647398   0.18263437  0.26937833  0.09451374 -0.25382683  0.17451926
  0.13340053 -0.33061814 -0.53395224  0.5090866   0.7763027   0.29912782
  0.22279266  0.38801828  0.33000448 -0.18121721 -0.2827684  -0.37589818
  0.10216497 -0.29083782 -0.24229884  0.19808838  0.2596921  -0.08307822
  0.21454647  0.06442545 -0.40632182  0.14612615 -0.09247185  0.19937114
 -0.2653846   0.5825124   0.46723196  0.27565897]
[-0.14649089 -0.13820124  0.20391439 -0.14343658 -0.07107746 -0.3106815
  0.00705973 -0.16877729  0.11246378 -0.201716    0.16890149 -0.13708599
  0.15708971  0.5316468  -0.2503885  -0.5768576  -0.38317013  0.29147914
 -0.23865762  0.20035194  0.19517046  0.13838148 -0.37297416  0.35164142
 -0.3767497   0.5481383   0.45983455  0.43849486  0.3782256  -0.25264546
 -0.24293458  0.11193482  0.05496591  0.05495834  0.17846337 -0.09040843
  0.18772173 -0.2125309   0.2003577  -0.03024698]
[-0.25054544 -0.12813434 -0.05750892  0.39800185  0.00467309  0.46810877
 -0.03743442 -0.18795022  0.31027645 -0.08545201  0.13830988  0.24260327
  0.38104758 -0.02799122  0.05032759  0.17926392  0.07205608 -0.23999819
  0.13192984  0.26002315  0.2668797   0.03346565  0.4010008  -0.29142255
  0.14039189  0.418058    0.275875    0.0183058   0.2540339   0.02160925
  0.29445216 -0.11178279 -0.49819857 -0.03942207  0.07002193  0.02427945
 -0.25278875  0.40999442 -0.15211459 -0.03654574]
[-0.06177428 -0.32297882  0.13783713 -0.6020242  -0.32105562 -0.09811506
 -0.05325103 -0.22007436 -0.02171371 -0.16675392  0.12554458  0.2633676
 -0.18134259  0.4126357  -0.44231036 -0.3948708   0.3803046   0.32636616
  0.06803569  0.3024271  -0.05619656 -0.3800242  -0.19884461  0.5251034
  0.16096741  0.32897645  0.03582562  0.6434449   0.12138168 -0.01010691
 -0.11052498  0.3220449   0.00101665 -0.11509701  0.25492513 -0.30868393
 -0.09616815 -0.35782188 -0.05219767  0.25912407]
[-0.35735726 -0.0914323   0.28567216  0.08424399  0.21424922 -0.20095839
 -0.17622584 -0.01233974  0.2332582  -0.45369893 -0.3224636   0.03693813
 -0.04458423 -0.20735659  0.42686015  0.1227872   0.00327871  0.03685188
 -0.20608163  0.10345645 -0.0199598   0.35892096 -0.22762154 -0.33977044
  0.09531638  0.13883367  0.19392115 -0.0551573   0.30614918  0.10015815
 -0.2535165   0.22419554 -0.14090692 -0.04859782 -0.3712898   0.11134788
 -0.18363906 -0.08519317  0.18777283 -0.08988664]
[ 0.21026498 -0.08357522 -0.28898674 -0.05084181  0.03729957 -0.3525505
  0.064637    0.10241406  0.08087064 -0.03628607 -0.21527952 -0.165356
 -0.07650848 -0.04826376  0.04670696  0.04659902  0.07869673 -0.04804149
 -0.06020375 -0.0484631  -0.418551   -0.14395043 -0.3453975  -0.05473878
 -0.09659282 -0.08912527 -0.01758723  0.11822829 -0.31410614  0.00772035
 -0.27633584 -0.24080528  0.2761951  -0.04965159  0.02713743 -0.06900115
  0.3662657  -0.23441532  0.07601875  0.04778585]
layer 3 Activation
tanh
layer 4 Dense
40 20
[-0.27284774 -0.23188533  0.09278429  0.11309075  0.38333163  0.613166
  0.35531247  0.05973152 -0.18209182  0.10424574  0.36131126 -0.09609829
  0.02935484  0.09498201  0.1421254   0.7616722   0.12500799 -0.28306833
  0.19035831 -0.6860882 ]
[ 0.17424896  0.03833566  0.02604374  0.3502431   0.2490776   0.09987164
 -0.09231266  0.29348955  0.1746997  -0.05847845  0.23931032 -0.32509685
  0.42162946  0.27140298  0.35855496 -0.07168923  0.26150396  0.08628632
 -0.27437648 -0.08015093]
[ 0.14238648  0.18024924 -0.02150545  0.5155722  -0.13151272 -0.25167328
 -0.19531368  0.0650183   0.19215341 -0.04605763 -0.14747052 -0.56192565
  0.10206012  0.1511392   0.2625754  -0.2029864   0.02063006 -0.06682548
  0.24782836  0.21600223]
[-0.30803564  0.303207   -0.19381562 -0.28703216  0.26440012 -0.4319228
 -0.29584983 -0.4767795   0.18990292 -0.0943841   0.36072913 -0.27689353
  0.22384922  0.5545588  -0.2720222  -0.13160016 -0.14768627  0.4321224
  0.21586493  0.37560388]
[ 0.00941447  0.1876508   0.22848806 -0.02131422 -0.01937473 -0.13525395
 -0.40229452 -0.15551272  0.20429744 -0.2550091   0.13743931 -0.58601266
  0.04490524 -0.07825737 -0.44474113 -0.03393241 -0.03605288 -0.13542138
  0.09574555  0.01671515]
[ 0.31459764 -0.18430693  0.09481894  0.05869912 -0.06738417 -0.6243171
 -0.27847004 -0.00112517  0.12692554 -0.17003134  0.22480923 -0.3633877
 -0.10670256  0.01138806  0.17270546 -0.27539834  0.43587863 -0.04123446
 -0.3820741   0.41591245]
[ 0.07112693  0.06306434  0.2005018   0.04581608 -0.44101363  0.37633026
 -0.12770276 -0.18619238 -0.2606131  -0.02059108  0.00654266  0.20804068
  0.32291186  0.17552236 -0.01901607  0.3420907   0.15283781  0.20557077
 -0.13888888 -0.34677264]
[-0.34114334  0.18431795 -0.3494842  -0.01110441  0.07101949  0.27109706
 -0.2372847   0.00411194  0.32040992 -0.04660821 -0.02404111  0.0606681
  0.23490815  0.10906506 -0.05344393 -0.24353963  0.3446121   0.3863183
  0.14148241  0.1828933 ]
[ 0.01300866  0.36838138  0.35507888  0.37928092 -0.02019298  0.36653444
  0.03904809 -0.22017197  0.0639171   0.10344386  0.12913916 -0.20299369
 -0.07009624  0.23205392 -0.30573484  0.19694652 -0.20931771 -0.24609725
  0.32381487 -0.00428901]
[-0.33445406  0.0239165   0.00575181  0.0647055   0.09992758 -0.24268317
 -0.4536624   0.11144746  0.09280036 -0.12995513  0.10676582 -0.52960616
  0.33593646 -0.12833394  0.23503262 -0.24604231 -0.12359122  0.2741693
  0.07537128  0.5021927 ]
[-0.18623215  0.07100028 -0.1647472   0.18917365  0.07886251 -0.4037976
 -0.34170294  0.0021972   0.20072381  0.3768144   0.27211553  0.15819597
  0.09361466  0.26171693 -0.29064935 -0.5995156   0.42220643  0.17279136
 -0.3718482   0.2549917 ]
[-0.01668918 -0.24514025 -0.21746077  0.16880772 -0.24403313 -0.22347996
 -0.23131151 -0.2717962  -0.00331052 -0.12400788 -0.31196865 -0.27633625
  0.2885359   0.11043323  0.24361113 -0.59695226 -0.4286971  -0.12480526
 -0.01289145  0.16151586]
[-0.16988324 -0.02680496  0.13445127 -0.01815441  0.06261096 -0.35480276
 -0.22586101  0.4759332   0.10439608  0.32860306 -0.11945229 -0.04288337
 -0.11588039 -0.38604385 -0.22582005 -0.3428468   0.30799314 -0.01986675
 -0.08009753  0.3137652 ]
[ 0.21358524 -0.3160027   0.31592467  0.3451778   0.5013773   0.32348925
 -0.01385869  0.1894738  -0.5348024   0.29822612  0.03677139  0.07162052
 -0.0798097  -0.02475008  0.12515146  0.25048357  0.60655636 -0.1741633
 -0.28681278 -0.104998  ]
[ 0.35704148  0.3564731   0.5474947  -0.3396735  -0.12754887 -0.12398766
 -0.35043207 -0.17050724  0.57606834  0.3312103   0.21845706 -0.27791056
 -0.3202919  -0.28387386 -0.5069827  -0.30436715 -0.1687327  -0.03828912
 -0.23869741  0.33537817]
[-0.20288852 -0.4954427  -0.11302333 -0.01078763  0.39447573  0.13952087
 -0.08439904  0.24620615  0.23337637  0.37679034  0.25482547  0.1517255
 -0.08567791  0.02793705  0.14028953  0.04963345 -0.07349034 -0.07739785
  0.12604424 -0.08409004]
[-0.16988711  0.00783105  0.29228976 -0.32194528  0.19987181  0.2354143
  0.21323533 -0.06118169 -0.07023057 -0.23106483  0.16583382  0.4904052
 -0.1455178   0.00276884  0.35258892 -0.16572791 -0.08140428  0.13078572
  0.10415114  0.12479945]
[-0.11192939 -0.45045936 -0.35762802  0.28652442  0.08308942  0.5231537
 -0.09209606  0.39767474  0.05466601 -0.2667063  -0.25380626 -0.05399564
 -0.05333636 -0.32552338  0.36200392  0.11814902  0.12205268  0.20590705
 -0.16585173 -0.10094124]
[ 0.0594255   0.26152942  0.16906801 -0.05401836  0.2609694  -0.09325235
 -0.36379045  0.01091338  0.16831118  0.1246992   0.23513858  0.18279083
 -0.32101446  0.08976819 -0.31255138 -0.28436702 -0.19219832 -0.04660784
 -0.17952134 -0.08450871]
[ 0.34945226  0.19342606  0.07244595 -0.07604365 -0.04168947 -0.08144823
  0.1130805   0.06631529  0.2844341   0.3030628   0.09277205  0.05860782
  0.2861119  -0.25732204  0.06483844 -0.49309602 -0.25631532 -0.36044922
  0.04464856  0.41304812]
[ 0.20075321  0.1542351   0.12213989  0.1365232   0.42182204 -0.4829203
 -0.06493187  0.26033452 -0.33680338 -0.03949822  0.2148719  -0.30095637
 -0.23778994 -0.02807299 -0.09776539 -0.22419089  0.5217887  -0.01128968
 -0.10635954  0.6351154 ]
[ 0.294467    0.02937596  0.36443573  0.26084974 -0.09783728  0.21031162
 -0.17979445 -0.21162768  0.3303431  -0.43101344  0.17910111  0.33948448
 -0.32862365  0.4360354  -0.1276553   0.29821625  0.373315   -0.04654519
 -0.20707929  0.03745742]
[ 0.23932275  0.48839587 -0.01530807 -0.37973243  0.17116076 -0.4583196
 -0.5051177  -0.00624917  0.28919852  0.29557198  0.21250108 -0.23262233
  0.26662278 -0.22429396 -0.11988562 -0.91017485  0.42714304  0.11568484
 -0.2881142   0.76845807]
[-0.07328153  0.20925184 -0.14524679  0.07004267 -0.3577833  -0.5488738
  0.04767958 -0.05879444  0.02227307  0.35995084 -0.15439156 -0.05332158
 -0.07186177 -0.00432947 -0.4368853  -0.33305326 -0.2298554  -0.14330383
  0.3731786   0.553798  ]
[-0.09892784  0.2761469   0.37672123 -0.1267562   0.0124398  -0.33211842
 -0.06989156 -0.5277803   0.27008954  0.23341729  0.27711868  0.05138888
 -0.08338897  0.5453672  -0.13387842 -0.51127267 -0.2848429   0.20729823
  0.11442767  0.29838437]
[ 0.08976702  0.28620976  0.05024516  0.15508974  0.07461882 -0.5161694
  0.08223633 -0.29930794  0.2106289   0.18029615 -0.23685506 -0.21273309
 -0.2112306  -0.49970743  0.09652831 -0.29398286  0.28102976  0.09989478
  0.41431627  0.19039603]
[ 0.31483895 -0.02324646  0.18994178  0.26330164 -0.03406918  0.57837015
  0.4616908   0.54475826 -0.4633469   0.2875313  -0.28535298 -0.04085764
 -0.2758529  -0.16990915 -0.184064    0.15848012  0.44830495 -0.19738431
 -0.25453964 -0.3089066 ]
[ 0.06671588 -0.11617219  0.39648488 -0.16910149 -0.319753    0.4070941
  0.29532012  0.01778729 -0.22384569  0.06965891  0.02283225 -0.14793724
 -0.22369178  0.3638109  -0.3184915   0.21662359 -0.08887576 -0.19106798
  0.24278386 -0.4953661 ]
[ 0.03367777 -0.17763273  0.29756418  0.40692642  0.13799536 -0.41862917
 -0.14643674  0.06059347  0.02903474 -0.5228785   0.4369051  -0.15642674
 -0.00083081  0.16289113  0.38394502 -0.50480723  0.25773922  0.06146074
 -0.14412285  0.39109382]
[ 0.09007315  0.27214643  0.122013   -0.36224833  0.33578014 -0.0221412
 -0.18791303  0.04500863  0.10679632  0.0056299   0.2113524   0.09141615
  0.08454636 -0.07186304 -0.07540953  0.04554028 -0.22207196  0.07238107
  0.31150615 -0.00963796]
[ 0.03535379 -0.10592965  0.14219715  0.16553596  0.2510499  -0.2322322
 -0.25410515  0.16511683  0.35029966 -0.2914696   0.46015093  0.00407034
 -0.18424988  0.31888914  0.15901954 -0.14572448  0.22104995 -0.08209434
 -0.09078497  0.39458337]
[ 0.35608426  0.13927837  0.46971422  0.23155199  0.1640383  -0.22811033
  0.01779066  0.02887355  0.06154383 -0.23091201  0.20959577 -0.02664649
 -0.28057352  0.3670619  -0.01347912 -0.18154277  0.1081644  -0.03847515
  0.03907342  0.00063664]
[ 0.1270039   0.02110241 -0.0331054  -0.17066202 -0.4303514   0.34085393
  0.2563114  -0.16813658  0.22928286 -0.08415703 -0.13616578 -0.03978752
 -0.15839802 -0.22194242 -0.20699304  0.13254976 -0.38006088  0.10331415
  0.5544925  -0.5678334 ]
[ 0.21169499 -0.34189498 -0.1854687   0.05312321  0.0169358  -0.17132984
  0.23107977  0.24159418  0.18166795 -0.0465369   0.17471106 -0.48757324
  0.28366587 -0.35339245  0.048452   -0.05001131  0.13345364 -0.03728547
  0.00253741  0.31002748]
[-0.51479346 -0.10612404 -0.23180415  0.13150321  0.19394092 -0.11106295
  0.1541191   0.45414433  0.15281568  0.1042509  -0.1528722  -0.47616526
  0.29536533 -0.5160289   0.21004425 -0.1881874  -0.14054145 -0.04462491
  0.10522427  0.3626851 ]
[ 0.2997619   0.35096097  0.28181586  0.3130511   0.33210334 -0.01887683
  0.06342722 -0.15456066  0.17873403 -0.23881377  0.42677253  0.30516544
 -0.00124102 -0.1325659   0.20996746  0.17633028  0.52503294  0.20332772
 -0.40078607 -0.02242793]
[-0.3081184   0.27282596  0.07832325 -0.17691185  0.05435207  0.48481014
 -0.14299537 -0.11634533 -0.14347267  0.20505367 -0.16694506  0.36324194
 -0.24670647 -0.32270882  0.08606486  0.6865573   0.01520297 -0.16123292
  0.28438678 -0.31388533]
[-0.14106435  0.23948395  0.37000296  0.13609551 -0.19180363 -0.16532186
  0.02425431  0.09221666  0.20682186 -0.22703493  0.21285062 -0.11405909
  0.04266645  0.08663745  0.47298238 -0.2556503   0.14510101 -0.08508409
 -0.3609126  -0.13001549]
[ 0.27613297  0.3473339   0.36147073 -0.2365483   0.290406    0.26878214
  0.37024197 -0.2202717   0.05913991  0.25588274  0.29947287  0.5084037
 -0.46078202  0.1505864  -0.27898702  0.53879154  0.20276366  0.08390861
 -0.46062872 -0.63505954]
[-0.23880261 -0.3673413  -0.12858301  0.14793944 -0.16117887  0.291186
  0.15779218  0.416908   -0.3226116  -0.36495766 -0.20350786  0.19705951
 -0.08780536  0.45447785  0.03647441  0.21886477 -0.0896266  -0.15964982
 -0.31033826 -0.4512285 ]
[-0.1271888   0.04993332 -0.04016474 -0.10957961 -0.18798323  0.1913523
  0.06451008 -0.10586373  0.02372647  0.09966943 -0.127669    0.10402954
  0.04733848 -0.1024475  -0.05816689  0.24536793 -0.06723824  0.03218648
  0.18182644 -0.2535541 ]
layer 5 Activation
tanh
layer 6 Dense
20 1
[-1.3690076]
[1.2806104]
[-1.5580623]
[-1.3354936]
[-1.1316795]
[-1.64067]
[-1.2647538]
[-1.2269871]
[1.4631876]
[0.95224154]
[-1.1796656]
[-0.94155645]
[1.385941]
[-1.2985555]
[-1.2559077]
[-1.1946905]
[-0.84327376]
[0.47362325]
[0.99792695]
[1.0948162]
[0.60657626]
