layers 7
layer 0 Dense
20 20
[ 0.38322198  0.28349236  0.06645276 -0.02663159  0.07658327 -0.11461898
 -0.30062944 -0.13178627  0.41405863  0.09313496  0.15172487 -0.02655267
 -0.06623061 -0.26031747 -0.10581034 -0.10151171 -0.05408607  0.16705944
  0.15845749  0.07675245]
[ 0.52118295  0.1867399   0.13645382 -0.33133978 -0.36365864  0.02752291
  0.17808759 -0.06575137  0.1639139   0.1364249   0.29033437 -0.00758264
  0.06208638 -0.2087023   0.13245499  0.14972366  0.02187074  0.08734062
 -0.33836943 -0.19749738]
[-0.04612476 -0.2727787   0.35828575 -0.04021657  0.09953909  0.12594187
  0.33789492 -0.32439852 -0.02709709  0.3885958   0.2856173   0.26884654
  0.00091614  0.07934505 -0.08136931 -0.2952971  -0.10488915  0.11115443
 -0.2624812  -0.02297183]
[ 0.46442595 -0.18052234  0.16954818  0.02439135 -0.1016755   0.17122461
  0.05585969  0.34240276 -0.22198501 -0.19758524  0.14002757  0.0477066
  0.29458594  0.11517385 -0.28747776  0.21832198  0.04228158  0.11279982
  0.10408781  0.04017056]
[-0.0255314   0.3992009  -0.3738221   0.14162531  0.22729732 -0.08769391
 -0.42986202 -0.3546366   0.37776592 -0.3026203   0.36864528  0.40672642
 -0.3054026   0.03442705 -0.28058136 -0.12861913  0.14718997 -0.03640859
  0.31930938  0.06260429]
[-0.18303666 -0.12447783  0.24528433  0.3033474  -0.20729059 -0.07915846
  0.14905398  0.44988286  0.15737969 -0.5676586   0.18616648 -0.12573768
  0.07962926 -0.25124514  0.24558683 -0.3382155   0.05608371 -0.36474797
 -0.40967786 -0.11138435]
[-0.47855064 -0.20990089 -0.15456945  0.20138736  0.3802191  -0.26066583
  0.20628671  0.45763066 -0.24524911 -0.22240439  0.02865689 -0.15444903
  0.12260157 -0.32436663  0.23801173 -0.02077207 -0.24047004 -0.11259781
 -0.16363277 -0.23485042]
[-0.11496177 -0.5564503  -0.06331375  0.21516259  0.06435218  0.15034275
  0.36806265 -0.3902127   0.10409737  0.05414728 -0.3889221   0.369978
  0.36000976  0.3793251  -0.37634438 -0.00267508 -0.21172555  0.17105174
 -0.09516975 -0.30772215]
[-0.12355509  0.29201493  0.30425045 -0.18114504 -0.26219332  0.2795404
 -0.45795467  0.04608924  0.12179045 -0.02374973 -0.12250379 -0.10350855
  0.25219598 -0.32378098 -0.19156669 -0.18383116  0.28568608 -0.06865847
  0.02929878  0.48655915]
[ 0.0419104  -0.0865455   0.24751784 -0.0624419  -0.20540614 -0.23446818
 -0.01027103 -0.29216462 -0.45335034  0.03482192  0.30015072  0.3181721
 -0.20532438 -0.23062333 -0.27343628 -0.38441828  0.14811802  0.34641197
  0.3123834  -0.27642614]
[ 0.5650045   0.09042037  0.25405574 -0.14170451 -0.09681498 -0.3296665
 -0.05182956 -0.49589354  0.1744704  -0.05206973  0.3587446  -0.4897546
  0.13126108 -0.12376183  0.052587   -0.05498992  0.14184165 -0.08935022
 -0.22196048  0.01717349]
[ 0.05821105 -0.35969165  0.14174548  0.3443927   0.05136972  0.38623995
 -0.2426836  -0.42821756  0.220937    0.11507885 -0.13186538 -0.15509363
  0.22401607 -0.11412719 -0.02764791 -0.1818354  -0.20410867  0.21893503
 -0.0483246   0.6195056 ]
[-0.0787213  -0.3494347   0.39712107  0.1854542  -0.31866843 -0.16274256
  0.07598424  0.3250889  -0.2340177  -0.05218315  0.33954746  0.53411376
 -0.22306944  0.13536647 -0.21160914 -0.32171345  0.02151712 -0.2843435
 -0.32683107 -0.3084051 ]
[-0.14155972  0.05759035 -0.05036705  0.30363664  0.02546045  0.09442893
  0.32570738 -0.2028349   0.20994559 -0.10185587 -0.03797112 -0.03116483
  0.17245841 -0.05945465  0.20403244 -0.60344833 -0.17395607 -0.229803
  0.0535136  -0.3751049 ]
[-0.07990042  0.01607975  0.14506596 -0.1275181   0.05457791 -0.644212
 -0.08794227  0.1758844  -0.04718792 -0.14242157  0.37012416 -0.34737757
  0.11053768 -0.66003436  0.29961124 -0.26894492  0.03697461  0.01158613
  0.1755047  -0.30023125]
[ 0.63808316 -0.06008079  0.09698302  0.53609097  0.2638594   0.01901304
 -0.09331471  0.04506791  0.07069364  0.209556    0.33193383 -0.01254576
  0.20681022  0.2727551   0.26393813 -0.20119038 -0.4393472  -0.410221
  0.07064361 -0.705052  ]
[ 0.24549162  0.49105552  0.2984655  -0.07493649 -0.26848537  0.31794956
  0.336759    0.20110928  0.05545605  0.14514418  0.31756374  0.45824993
 -0.26745513  0.0782472   0.2914241   0.22278386  0.2841106   0.08746444
  0.24464117 -0.33718666]
[ 0.15974666  0.3573904   0.04097321 -0.30036923 -0.18070024  0.10885225
 -0.12734796  0.19229479  0.27608883 -0.68098253  0.35403067 -0.760868
  0.04747897  0.09304315 -0.12480948  0.32274    -0.04348469 -0.01990957
 -0.11327653 -0.32312483]
[ 0.1355221   0.13989787 -0.42672634 -0.19649519  0.21737935  0.48985597
  0.32354864  0.10427795  0.2510109  -0.3020211  -0.5492618  -0.11659979
 -0.2620434   0.3479755   0.0268326   0.13534945  0.14052215  0.46484646
 -0.11416959 -0.00559011]
[ 0.4178472  -0.29846233 -0.37838796 -0.23926905  0.04067007 -0.03245737
  0.5563375  -0.13744003 -0.00204012 -0.15321392 -0.17825952  0.17882288
 -0.2833505  -0.43288067 -0.34853652 -0.33357662 -0.15752633 -0.00069969
 -0.33742076 -0.10309945]
[-0.0197948   0.032422   -0.01839123 -0.02373946  0.01699242 -0.07247715
  0.05165273  0.02197247 -0.00635321 -0.03215112 -0.0225755  -0.1450137
 -0.05031285  0.00843541  0.0506262   0.02655115 -0.05559301 -0.01717254
 -0.07405017 -0.04324148]
layer 1 Activation
tanh
layer 2 Dense
20 40
[-0.26998645 -0.07352137 -0.07174857 -0.11087149 -0.0822954  -0.40190113
  0.17339605  0.08975165 -0.17192434 -0.06009487  0.1145042   0.26715365
 -0.03001266 -0.02792625  0.2467264   0.2519973   0.2151736   0.19337952
  0.08358131 -0.23094715  0.03570191 -0.09604686 -0.23662393 -0.14332855
 -0.0419671   0.22524594 -0.19029336 -0.17006305  0.33065805  0.28606373
 -0.26054242 -0.05920504  0.04469142  0.00742368 -0.20163408  0.06783096
 -0.15820351  0.21295296 -0.04033688  0.2173223 ]
[-0.17671289 -0.09845022 -0.08398768  0.13432589 -0.27050608 -0.21120642
 -0.06543432 -0.19257608  0.4575915  -0.15649426  0.08194162 -0.04011833
 -0.28990215  0.14023872  0.05775149  0.06369658 -0.19239795 -0.1095876
 -0.07406242  0.1554114  -0.14634983 -0.07010659 -0.40601116 -0.18170656
  0.03039386 -0.16057165  0.10064973  0.27418977  0.08988078  0.01799691
  0.05595998  0.07722066  0.01009167  0.05156917  0.3430651  -0.3145793
 -0.07057896  0.21756831 -0.00344871 -0.07852521]
[ 0.14460249  0.17973466 -0.2846387  -0.3205017   0.15262198 -0.07137189
 -0.10227689  0.11659208 -0.05079723 -0.2263154   0.10304473 -0.06270545
  0.17746578 -0.03025679 -0.18528976 -0.20230483  0.16613324  0.00061919
  0.23276335 -0.06676965 -0.28981835 -0.2775087   0.13552022  0.1303452
  0.12390804 -0.2652359   0.15099037 -0.08138632 -0.10673757 -0.04726975
  0.27454075 -0.20204753 -0.22405538  0.02383945 -0.01326183 -0.10435479
  0.11094915 -0.09016207  0.2975532  -0.09646971]
[ 0.28679094 -0.11534369  0.07283689  0.03430795  0.05920875  0.14334327
  0.06985611 -0.06482644  0.31849548 -0.18070903  0.11042801  0.01330971
 -0.04623694 -0.34911418  0.0722488   0.01958973  0.05015883  0.2514962
  0.04910529 -0.2257056  -0.24337335 -0.21511331  0.00846003  0.15894583
  0.19848906 -0.15631269  0.0793335  -0.11969689  0.16490526  0.13508087
  0.08329637  0.20552567 -0.24144004  0.11630584  0.32359752 -0.22800556
 -0.00248028 -0.02124891 -0.24176967 -0.29791424]
[-0.0202683  -0.20844707 -0.00268634 -0.13599052 -0.31664178  0.1445254
  0.01260709 -0.10646579  0.08304963 -0.13783547  0.2457851   0.21553524
  0.05932517 -0.06906596  0.09327908 -0.16924478  0.18098685  0.01519552
  0.07806408 -0.02119481  0.07722528  0.17157112  0.10765049  0.07078613
 -0.08990236 -0.17457953 -0.09227801  0.21687864  0.13798311  0.11118726
 -0.14304513  0.05829476  0.06011081  0.0420636  -0.15766953  0.03640774
  0.09772215 -0.30057138 -0.19980763 -0.14113206]
[ 0.31832865 -0.07013433  0.05087229  0.12352842 -0.00791474 -0.07494911
 -0.18027683 -0.02547854  0.16393533  0.08439245 -0.08299475  0.01474451
 -0.0461189  -0.09986688  0.06414135 -0.27236938  0.01986095  0.02338657
 -0.2922814   0.22165664 -0.2656099   0.31444216  0.2554253  -0.02762418
 -0.15465507 -0.33935615 -0.31043985 -0.09708557 -0.1927817  -0.2779351
  0.07845378 -0.18434344 -0.1851283   0.21647988 -0.16284521  0.28882408
  0.10559231  0.04278533 -0.24373324 -0.3637584 ]
[-0.0130411   0.20532379 -0.16955961  0.23195603 -0.1936873   0.03480719
 -0.08320727  0.02049091 -0.07335615  0.2795381   0.16032049 -0.15340403
  0.1863204  -0.01149373 -0.06792386 -0.12218536 -0.09360112  0.06958348
  0.10607444 -0.21819024 -0.14490448  0.28682807 -0.0250545   0.3333248
 -0.40436673  0.07575205 -0.3360041   0.29567966 -0.186678    0.0772125
  0.28451493 -0.08971015 -0.0006104   0.06322617  0.01254637  0.05812887
  0.15676472  0.12653846 -0.14101861  0.10420682]
[-0.04899482  0.33373764 -0.09228787  0.02866124 -0.03208068  0.00313719
  0.10795255 -0.01802956  0.03366634 -0.0740588  -0.23907712  0.2434589
 -0.07838102  0.30153027 -0.23816486 -0.08248881  0.14322676 -0.41899475
  0.24832775 -0.20968568  0.07663168 -0.27782857  0.15522486  0.24196388
  0.3794265   0.03542941  0.17434742 -0.0998631   0.0355242  -0.07164974
  0.12108371  0.03804738  0.14180522  0.0244678  -0.24366489 -0.26101243
  0.20336859 -0.19653602 -0.04048943 -0.24798933]
[ 0.15994361  0.19142361  0.28778985 -0.2154175  -0.0628297   0.17776823
  0.0769939   0.08088047  0.12462502  0.18392475 -0.05929518 -0.16289794
 -0.10394457  0.15897949  0.12884496  0.04598494  0.00653881  0.03049808
  0.07708429  0.00704882 -0.04682395 -0.24524678  0.04350388 -0.17798246
  0.1548087  -0.14736617  0.07324085 -0.08668394  0.25102672  0.09404393
  0.2811041   0.24794532 -0.20126745 -0.12169923 -0.15281218  0.00783606
 -0.15322335  0.33460206 -0.14341596 -0.24479014]
[ 0.0033577  -0.07004194  0.27097446 -0.14551577 -0.05413872 -0.31738412
  0.22513074  0.04070408  0.21266815 -0.22946218 -0.13310519 -0.2553438
  0.00365699 -0.24339297  0.04737569  0.02370734 -0.41012233  0.45978814
 -0.03677287 -0.02965642  0.22351596 -0.31165934  0.28796977  0.14061591
 -0.11830246 -0.11838227 -0.23094451  0.3398917  -0.16808438  0.2960064
  0.17896146  0.18588851  0.02325318 -0.20984785 -0.06470136  0.20315464
 -0.02781723  0.15653095  0.12168956  0.24705864]
[-0.0045788   0.11247487 -0.1681864   0.09778956 -0.11348927 -0.16376339
 -0.3447022   0.04586212  0.14745095 -0.33211988 -0.24464005  0.06668671
  0.10867502 -0.16168605 -0.08015304  0.15145747  0.08990515  0.11623334
 -0.30713433 -0.08566025 -0.14422914 -0.31498283  0.4556784  -0.21058626
  0.71759427  0.09046624 -0.26740888 -0.05552147  0.02596643 -0.3151443
 -0.25819224 -0.1237381   0.36596683  0.4538365  -0.2817524   0.12060554
  0.39221972 -0.0653962  -0.21022965  0.16608405]
[ 0.37371907  0.2677718   0.29245883  0.4314474   0.08173834  0.26793602
  0.06139083 -0.38813785 -0.17264654  0.06187984 -0.09507969 -0.40272263
 -0.0160377  -0.20180781 -0.3573858   0.07025904 -0.12327146  0.54624116
  0.16802247 -0.14710999  0.2985399   0.09175031  0.09165531  0.25186038
  0.17053537 -0.14587513 -0.4210059  -0.30269516 -0.04776083  0.18184534
 -0.21739057 -0.1170244  -0.13446487 -0.39573804  0.00914692  0.24506974
 -0.18493521 -0.32230604 -0.14019129  0.16511919]
[-0.17778681 -0.31070614  0.2605951   0.1835684   0.07874174 -0.25110582
  0.12707603 -0.03048757  0.07846963 -0.24088576  0.11256813  0.07358931
 -0.30265874 -0.064947   -0.05575468 -0.01403273  0.02087794  0.04562232
 -0.18969564 -0.39920065 -0.03613761 -0.1943307   0.273412    0.2818009
  0.28657198  0.16799583  0.23674546 -0.26911843 -0.2528991   0.0171638
  0.14663789 -0.19784981  0.1263936  -0.06789705 -0.3158135   0.16197698
 -0.1523359   0.22367443 -0.21948048 -0.1686959 ]
[ 0.22180715  0.14240108 -0.30340728 -0.061884    0.24089293  0.29690754
  0.1858895   0.1610427  -0.00381916  0.55760425 -0.0102818   0.0417688
 -0.1811103   0.19913565 -0.11604148  0.320762   -0.13522783 -0.1733106
  0.18889353  0.03284542  0.25335997  0.23765598 -0.10837834 -0.07788382
  0.09250262  0.10649945 -0.28803772  0.06561093  0.00701726  0.1749119
  0.26022324 -0.2643783   0.10597377  0.01409688 -0.00836205 -0.0027739
 -0.20392989 -0.33278462 -0.22082572 -0.3819837 ]
[ 0.06233182 -0.04152296 -0.2547368  -0.36462966 -0.3097809   0.26651886
  0.07407601  0.04083654 -0.02419422 -0.2545309   0.00391854  0.08273159
 -0.15013354 -0.18812145 -0.00523241  0.21181218 -0.13010888  0.34608334
  0.0078737  -0.33226332 -0.08880296 -0.16350362 -0.21234736 -0.07873792
 -0.03130067 -0.07795612 -0.27318376 -0.21200754  0.27752548  0.06085174
 -0.13316998 -0.00665947 -0.06249969 -0.01705126  0.06232952 -0.2478246
 -0.27742782 -0.20673317  0.1305249   0.20591184]
[-0.12993725 -0.31187835 -0.18490641 -0.06290927 -0.1420713   0.18926688
  0.29158738 -0.05633254 -0.06106532  0.19298068 -0.00191665 -0.0493644
 -0.09716191 -0.02763272 -0.04435936 -0.15271324  0.1926538  -0.23827648
 -0.19494016 -0.34744197 -0.21346648 -0.26071715 -0.17691046 -0.05684918
  0.07630719 -0.00181244 -0.13608232  0.10308251  0.16953397  0.19898346
  0.15723792  0.24682151 -0.2598024   0.13418393  0.18388075 -0.2089997
 -0.18979537 -0.23342288 -0.09395673  0.28810102]
[-0.41149008 -0.05847829 -0.07720217 -0.07636854 -0.3253136   0.2922452
 -0.2625271   0.27124843 -0.01442122  0.18836825  0.20227459  0.04525055
  0.18905073 -0.31657803  0.14338396 -0.22664368  0.08484842  0.35489887
 -0.08061079  0.12647876 -0.08446303  0.15113577 -0.12079609  0.03963707
 -0.19577888 -0.1371812  -0.08146568  0.31484985  0.16482134 -0.24535774
  0.01293616  0.01750475  0.30637574 -0.08236681  0.05849736 -0.09646229
  0.04876972 -0.17672259 -0.2995035   0.12972693]
[ 0.3594003   0.13179079  0.0678717  -0.07269492  0.05845682  0.30854174
  0.3358637   0.05485979  0.09891554  0.01614963 -0.02929539 -0.07778171
 -0.35377625 -0.11670872 -0.07695524  0.19240548 -0.32055217 -0.2445527
 -0.04090914 -0.18134095 -0.18814325 -0.18210807 -0.33807293  0.13789958
 -0.6869356  -0.08509652 -0.19539891  0.05695266  0.13092719  0.13131544
  0.00936318  0.2649724  -0.14164399 -0.177943    0.16501631  0.17758566
  0.15893634 -0.05595987 -0.05015355  0.25099337]
[-0.07154238  0.00146539  0.325859   -0.19804084 -0.12811953 -0.06367556
  0.05040055 -0.05287674  0.06448743 -0.400652    0.34338832 -0.01511135
 -0.07339468  0.02531001  0.25663736  0.03053361 -0.31812137  0.05738352
 -0.00153636  0.2635402   0.21562053  0.02788101 -0.3086713  -0.24763153
  0.16316968  0.21489672 -0.17416745  0.07795312 -0.07000782  0.22049859
 -0.0313286   0.233192    0.0507407  -0.2058709   0.2712798   0.14850281
 -0.254126    0.19872004  0.07974897 -0.3446458 ]
[ 0.0016892   0.04728072  0.21251146  0.04375943 -0.34884766 -0.03825724
  0.1703869  -0.13277037 -0.1038517  -0.04624902 -0.20390312  0.12966843
  0.10224096  0.27554676 -0.05061534 -0.3193525  -0.16031376  0.1291955
 -0.03648578  0.08450729 -0.00944825 -0.09450502 -0.33070856  0.03606046
 -0.12463593  0.01729036  0.16809739 -0.1652109   0.24072178 -0.17121816
  0.08986391 -0.12925926 -0.22941257 -0.13481936  0.24066013  0.1743227
 -0.13649993  0.14584322 -0.19210109  0.3268515 ]
[ 0.00020116 -0.0390257  -0.06425117  0.07094607  0.04533753 -0.09645776
  0.00132393  0.03782966 -0.00955362 -0.00179049 -0.06181281 -0.01295939
 -0.04122937  0.1078476  -0.0132767   0.01933658  0.04598167 -0.16725661
 -0.01047951 -0.03072669 -0.01613531 -0.01426921 -0.09546042  0.00024281
 -0.08506927  0.08953576 -0.03460271  0.13054511  0.03744581  0.02027087
  0.01974342  0.02871008  0.10631651 -0.02760161 -0.01398202 -0.02484126
  0.04999664 -0.03664026  0.03639542 -0.09535877]
layer 3 Activation
tanh
layer 4 Dense
40 20
[ 0.21850833 -0.00483857 -0.28571406  0.29400983  0.02841153  0.32648766
 -0.00656591 -0.00817451  0.09245932 -0.08655625 -0.02684043  0.04616657
  0.03225959 -0.09308487 -0.2198271  -0.02811652  0.02042119  0.16134658
 -0.06754602  0.27236748]
[ 0.2893736   0.00960513 -0.0108137   0.17511438 -0.18589967  0.31620353
  0.07542388  0.13854572  0.04344339  0.28822008 -0.37174895  0.03218158
 -0.16988914  0.04934091 -0.23522852 -0.20905598 -0.20580058 -0.19296873
  0.23379235 -0.09794348]
[-0.12755659 -0.23531315  0.13927747  0.37253097 -0.12539324  0.2870123
 -0.02752158  0.14418074  0.24807146 -0.10908078  0.19804619 -0.08135114
  0.24464515  0.01721277  0.0091329   0.08317058 -0.03760468 -0.02430055
 -0.00324828  0.4216892 ]
[ 0.04936963 -0.03721184 -0.12502776  0.13474008  0.21771793  0.13539836
 -0.06385153 -0.02052486  0.18600866  0.08687978 -0.1345088  -0.10494567
  0.26481915 -0.25410345 -0.15354651 -0.21731666 -0.01817516  0.3867437
  0.2255534   0.17235072]
[-0.23874626  0.38932782 -0.16071178  0.26337036 -0.15405178  0.20730622
 -0.15544027  0.11623597 -0.00808947  0.08425052 -0.0249051  -0.18747652
  0.01549366  0.06959046 -0.29916832 -0.15454866  0.17504206 -0.16278762
  0.1382869  -0.14651398]
[-0.06392471 -0.00419951  0.12011597  0.12355108 -0.04871893  0.03659037
 -0.18067805 -0.03203086 -0.09506163  0.25343677 -0.17615297 -0.07988453
  0.05292215  0.03703097  0.20116062  0.09938709 -0.15902881  0.18948618
  0.33348292  0.21190925]
[-0.12260291  0.34703848 -0.20208052  0.11611901 -0.1124028  -0.12744515
  0.01926009 -0.05694676 -0.07477609 -0.07505082 -0.14865106  0.00993995
  0.10558297  0.12954654  0.02692091  0.4112932   0.29934508  0.13561958
  0.05286354  0.05283666]
[-0.00329543  0.04846909 -0.00487394  0.01499815  0.10553734 -0.05164713
  0.25863034  0.10341097 -0.15996301 -0.10362563  0.07751863  0.19372675
 -0.20256375 -0.155772    0.10006581  0.02363534  0.07707173 -0.00525681
 -0.23177576 -0.13402373]
[ 0.05416935 -0.260042    0.07430114  0.08396417  0.18717365  0.05281213
  0.27426463  0.22142713  0.1094185  -0.01807759 -0.21957587 -0.11710596
  0.13426563  0.00680844 -0.10251352 -0.19955644 -0.09199481  0.15339611
 -0.22881897 -0.15872885]
[ 0.09257054  0.09170803 -0.23285776 -0.18387958  0.33243105 -0.324205
  0.13169836  0.15422527 -0.304642    0.12545022  0.2346868  -0.03758495
 -0.19026773  0.03809599 -0.1519935  -0.08093869  0.0171858  -0.13670598
  0.21623206 -0.17862208]
[-0.07664199 -0.27197304 -0.08043149  0.06092181 -0.08083928 -0.03789638
 -0.03153069 -0.37086302 -0.01717623 -0.15610139 -0.02349168 -0.11707921
 -0.11537336 -0.01140913 -0.06741957  0.0443733  -0.23459087  0.04328927
  0.1986623   0.08639534]
[ 0.05528656  0.27315828  0.14012672  0.16687463 -0.21490279 -0.235411
 -0.13207588  0.37175313  0.16662358 -0.30848983  0.14186855 -0.20457722
  0.11106799  0.08562795  0.10182551 -0.18723701  0.19540715  0.125097
  0.3202387  -0.06285754]
[-0.25170353 -0.02841956  0.07796924 -0.10238822  0.11033836  0.0470039
  0.12196716 -0.16107726 -0.05529087 -0.08227104 -0.09537653  0.0691392
 -0.01629037  0.07607187  0.23718041  0.17900124 -0.27753088  0.1949633
  0.00266833 -0.10007118]
[-0.21591742  0.20875181 -0.18020567  0.04976819  0.23934965 -0.3289582
  0.13979372  0.02618636  0.05879368  0.0144253   0.25606728  0.1662999
  0.13279632  0.20023821 -0.12132315 -0.03016572  0.39023572 -0.23578103
  0.00561041 -0.15708296]
[-0.04229881 -0.24021925  0.10735635  0.14462611  0.06151956 -0.18507995
 -0.11479753 -0.12544127  0.09410642 -0.24397142  0.0265915  -0.10207672
 -0.10297427  0.19754265  0.069087    0.30299765  0.03698427 -0.1831728
  0.09673981  0.1365635 ]
[-0.33640918 -0.19685262 -0.02152996  0.06163492  0.11704879 -0.00860656
  0.19358544 -0.00164553 -0.17851745 -0.22980839  0.00912379 -0.30885452
 -0.030428   -0.00527146  0.00491227 -0.1924163  -0.31431565 -0.00682288
  0.06707078 -0.1145926 ]
[-0.06768233  0.2324754   0.08807915  0.17387225 -0.05777026 -0.05730903
  0.17568274  0.2102846   0.08916581 -0.32272118  0.0158762  -0.0862627
  0.25398192  0.10291914 -0.16911347  0.30721927  0.08148482 -0.07447834
 -0.05181748 -0.38789445]
[-0.14667173 -0.35370284  0.05794324  0.18368655  0.23080224  0.23626456
  0.02074239  0.07447641 -0.03663808 -0.08119453 -0.010411   -0.04386026
  0.15463555  0.01476316  0.31819835  0.01424149 -0.38415423 -0.06087114
 -0.36310887  0.12088656]
[-0.16137496 -0.05654022 -0.26849037 -0.10987867 -0.10205568  0.02750371
 -0.3016964   0.10956921 -0.37883905 -0.10457663  0.04275548 -0.1702785
  0.08290321  0.04682694 -0.11373826  0.07561571 -0.10780776 -0.05576978
  0.1588656   0.05092347]
[-0.30627248 -0.29222345 -0.02126997  0.3723889   0.23699257  0.16131356
  0.10964494  0.14126945 -0.21047989  0.35444847  0.17911872 -0.12760633
  0.12525916 -0.10600606  0.16952777  0.07663152 -0.10745113  0.20587638
 -0.31805107 -0.09691188]
[-0.09835319 -0.21237427 -0.20666979  0.06238272  0.166862   -0.06671403
  0.01493562  0.04996967  0.17942442  0.31260777 -0.1398315   0.14075713
  0.0303694   0.19838782 -0.00462041  0.10939332 -0.0990916  -0.00109766
 -0.17054677  0.17330325]
[-0.03281096 -0.03594624 -0.3951978  -0.0359689  -0.1148224  -0.03087554
  0.06021664  0.15191548 -0.14461297  0.04451504 -0.11221763  0.08608761
  0.1745023   0.20350014 -0.22944407 -0.22589643 -0.22844627 -0.2283538
  0.02499953  0.18397756]
[ 0.23465367  0.12004519  0.15583172 -0.07548162 -0.12022404  0.33432138
 -0.04341076 -0.11587551  0.33968225 -0.2077225   0.08057866  0.306325
 -0.14502877  0.12361307 -0.31378055  0.0231676  -0.1540005   0.06696118
  0.06250691 -0.07717212]
[ 0.19680594  0.26026765 -0.13609341  0.25217748 -0.31127718  0.18079525
  0.07048135 -0.00901604  0.3279815   0.19821821 -0.21944596 -0.11213203
 -0.13217832  0.14726661  0.03066105  0.17866954 -0.09060946  0.12066661
  0.43317443  0.17250095]
[-0.18901755  0.12157904  0.12404668 -0.21140425  0.12044777  0.27665788
 -0.05495866 -0.09148607  0.18039493 -0.31664327 -0.00233434 -0.20020352
  0.18295555  0.25600854 -0.15558738  0.1889409  -0.32190555 -0.12057181
 -0.35424143 -0.34063348]
[ 0.07903339  0.28642     0.11924598 -0.3036915   0.11906958 -0.23587252
  0.26503026 -0.07257679  0.33249983 -0.05544943  0.08513465 -0.03594746
  0.22418019 -0.1650673   0.1839582   0.2325473   0.00679068  0.19208732
  0.199855    0.05389401]
[ 0.07817858  0.17924587  0.26042417  0.16676049  0.02959906 -0.24664496
  0.14239329  0.14690341 -0.16944571 -0.13678905 -0.02514702 -0.13245575
 -0.28068963  0.11857494  0.27576637 -0.2732334   0.19743836  0.1384244
 -0.00457518 -0.16234623]
[-0.33642712  0.09977031 -0.06941759 -0.10259168 -0.10087547  0.00109884
 -0.10496919 -0.11427853 -0.16121972  0.2636873  -0.28057897 -0.25139898
 -0.01809244  0.09362194  0.08565308  0.20596585 -0.01533474  0.2200268
  0.17871703 -0.11912336]
[-0.24725012 -0.14026667  0.01627786  0.21139507  0.09062618 -0.31440556
 -0.19885205 -0.13122472  0.12706651  0.05245428  0.20799634  0.1049211
 -0.05352763  0.08608125  0.05152043 -0.18870321  0.29342616  0.11826169
 -0.11882434 -0.03328293]
[-0.18378699  0.08759987 -0.30166394  0.03449319 -0.04846161  0.00979154
  0.22051796  0.01486922 -0.16846505 -0.22342378 -0.18044692  0.31127918
  0.2614661  -0.12823462 -0.12522742  0.04674608 -0.0696597   0.03740598
  0.31224757  0.1826132 ]
[-0.05917606  0.09452824 -0.10049856 -0.12894091 -0.06933718 -0.02040771
 -0.1710283  -0.19129819 -0.31760934 -0.14158742 -0.08189403 -0.38367763
 -0.19457407  0.13958839 -0.05166829  0.11041018  0.26687518  0.24448408
 -0.08764938 -0.24160087]
[-0.16277675  0.01715281 -0.19057892 -0.26283252  0.11812869 -0.11788938
 -0.0593831   0.16394691 -0.00601684  0.06309234 -0.12622559  0.17553926
  0.20964524  0.11371673 -0.13268219 -0.30087483 -0.15399759 -0.21267277
  0.02514895  0.05943229]
[-0.3248557   0.15097336  0.01412435  0.03653873 -0.0767478  -0.0122617
 -0.2609926   0.0760705   0.0367268  -0.14379713 -0.08359039 -0.0720142
  0.08360059 -0.12082927  0.24209009 -0.2322872  -0.08781044  0.05658958
 -0.32209688 -0.12492985]
[ 0.1647943   0.26939264  0.16424298  0.24967128 -0.11992079 -0.02058716
 -0.05268722  0.05178683  0.09045402  0.1699176   0.0009616   0.01905618
  0.16859768 -0.28510693  0.05603566  0.22264273  0.18500434  0.06049688
 -0.00841069 -0.30971986]
[-0.24066032 -0.28197393  0.18439    -0.13191007  0.23892364  0.0834916
  0.14999159 -0.1331792  -0.08888428  0.20753744  0.14675912 -0.15943064
  0.00526054 -0.23571466  0.15142098  0.19497477 -0.12217305  0.05899718
  0.06998156  0.03985027]
[-0.19737734  0.22560354 -0.05741537  0.12095046  0.289012    0.16093965
  0.13301383  0.12302168 -0.02552878  0.18034714  0.26397803 -0.07762653
 -0.01414518  0.19233748  0.21385081 -0.0657394   0.20707566 -0.10785873
 -0.05249289  0.2962087 ]
[-0.29935515  0.25943267  0.19266896  0.02050792  0.25408557  0.32357362
  0.09421469 -0.2290707   0.07813182 -0.13777886 -0.00423457  0.19680697
  0.27588117 -0.1026912   0.16619897 -0.05893494 -0.16514644 -0.16488194
  0.26458725 -0.12236227]
[ 0.39844334 -0.18929084  0.01480372  0.25067425 -0.23223251 -0.26272056
 -0.12418687 -0.18526255 -0.04797322 -0.42305484  0.10804148  0.27143577
 -0.09185288 -0.04766056 -0.13167918  0.01604656 -0.22817962  0.085645
  0.17656855  0.03500499]
[-0.18792152  0.26201588  0.16461729  0.08073746  0.27354193  0.12290106
  0.05094272 -0.36628515  0.26425374  0.21193828  0.14423977  0.2009559
 -0.12666212 -0.20971061  0.30465367  0.23628317 -0.08729297  0.12768112
  0.13272673 -0.05131098]
[ 0.06019736  0.02658738  0.23682491  0.06501469 -0.16424601 -0.19311425
 -0.11109554  0.1927318  -0.1380829  -0.08751781 -0.20922028  0.04966448
  0.07295877  0.30969182  0.37279126 -0.07063619 -0.18186574 -0.00768771
  0.29520616 -0.02625245]
[-0.02996572  0.05034199  0.00244973  0.00132338  0.03544365 -0.02021281
  0.02043068 -0.02101091  0.03673657 -0.06228552 -0.11815688 -0.05273898
  0.01640035 -0.05169323 -0.02155203 -0.03341941  0.02193854 -0.09400832
  0.0188501  -0.01754191]
layer 5 Activation
tanh
layer 6 Dense
20 1
[0.0303879]
[-0.19254966]
[-0.22359252]
[-0.0585473]
[-0.01236534]
[0.22348133]
[0.00684841]
[-0.00802479]
[0.06181223]
[-0.08102003]
[0.00382052]
[0.01079101]
[-0.02089178]
[-0.00218751]
[0.16511457]
[0.01697794]
[0.18932001]
[-0.00696318]
[0.06823611]
[-0.23432972]
[0.02224942]
