layers 7
layer 0 Dense
20 20
[ 0.01500777  0.29143003  0.28593978  0.22894149 -0.40809572 -0.1348418
 -0.08973818  0.3036379   0.11238283 -0.47990108  0.20755926 -0.02175937
 -0.14487755 -0.05997638  0.04395726 -0.17185503 -0.39401045 -0.16803142
 -0.31164396 -0.13533641]
[ 0.22738288 -0.23760602 -0.0927602   0.7683799   0.30143693 -0.25401747
 -0.4127923  -0.3684864   1.0262208  -0.11539876 -0.05541563  0.29398733
 -0.2105644   0.14026481 -0.263668   -0.5183674   0.272549    0.5374571
 -0.58914113 -0.16733748]
[ 0.10392576 -0.01310539 -0.27254444  0.63275933  0.2929885  -0.50195515
 -0.6673275  -0.4479436   0.51815003 -0.21574253 -0.35974935  0.44226733
 -0.500861    0.19775388 -0.7572517  -0.18975405  0.8080633   0.4777226
 -0.5298107  -0.01834197]
[ 0.01052711 -0.05415785  0.06446137 -0.31862086  0.0126705   0.00910975
  0.20263539  0.07788808  0.2682469   0.23708838 -0.15183945  0.12864172
  0.20203198 -0.03107308 -0.38526154 -0.5260182  -0.4562341   0.06421338
  0.18369049  0.19521964]
[ 0.20901394  0.43554226  0.0293457   0.07536695 -0.3183317  -0.01317889
 -0.14953469 -0.3249383   0.21239577 -0.17912747 -0.23673716  0.25958574
  0.29511067  0.51000184 -0.1059618  -0.17010528 -0.18564545 -0.04811485
  0.26606748 -0.02124682]
[ 0.13018936 -0.40127558  0.17879009 -0.12474333  0.22191082  0.9415379
  0.74154     1.2828273  -0.4493765   0.19422837  0.10305566 -0.24277776
  0.2584472  -0.784711    0.4403234   0.5020555  -0.17129494 -0.40175763
  0.2964649   0.0031633 ]
[ 0.05898882 -0.29813415 -0.2715058  -0.2478317   0.15501761  1.1699345
  0.90343463  0.63936925 -0.5158502  -0.14699669 -0.06083309  0.17364755
  0.7453636  -0.9155165   0.6899429   0.47553945 -0.38190043 -0.5701747
  0.9320834   0.32634443]
[-0.10547549 -0.2269091  -0.03724986 -0.19520871  0.4425718   0.06454247
 -0.01567608  0.08815927 -0.4308635   0.31095174  0.16943868 -0.15015058
  0.09008333  0.1317844   0.44744924  0.5839684   0.0084595  -0.43291348
  0.3344134   0.28578058]
[ 0.3781522  -0.13903941 -0.04522952  0.52100426 -0.3563317   0.06441839
 -0.00627697 -0.25697643 -0.8027072  -0.14590731  0.19041845 -0.29191425
 -0.15430638  0.9982841   0.6102389   0.19768055  0.45219383  0.4161725
 -0.52492386 -0.3455195 ]
[-0.5623169  -0.06952564 -0.01038828 -0.01472392 -0.11726782  0.15845247
  0.17258766 -1.195485    0.22272855  0.28570965  0.6440911   0.30074015
  0.7126526  -0.30491436 -0.19627987  0.11882988  0.7487847  -0.2529766
  0.16054037 -0.30511922]
[ 0.14538477 -0.36920542 -0.47002348  0.31814185  0.14420447  1.4811581
 -0.5975805   0.15116492 -1.1284344  -0.2709     -0.36331686  1.108127
 -0.5630569   0.6757666   1.0998117   0.48703504  0.08664436 -0.53761137
  0.89163166  0.25710797]
[-0.0887202  -0.36999124 -0.40348378 -1.1480157   0.61199427 -1.4177657
  0.75004905  1.0385604   0.6080608  -0.472905    0.15739907  0.5051939
  0.2074989  -0.7014672  -0.35617894  0.8154178  -0.04742202 -0.26649553
  1.5814066   0.87342703]
[-0.2396098   0.19724244 -0.4497566  -0.05605702  0.1218127  -0.90425324
  0.22739379 -0.0646233   0.38426548 -0.4752535  -0.6861721   0.18860492
  0.8510187  -0.18506408 -0.35228142 -0.4285852   0.12810294 -0.50259787
 -0.00604091  0.26526114]
[ 0.725008    0.12155464  0.05764521 -0.19618073 -0.37808302  0.1469209
 -0.62497103  0.67567664 -0.15855405  0.31317335  0.3930722  -0.25399974
 -0.01269442 -0.13076857 -0.06536108  0.07981607 -0.25097728  0.23500086
 -0.30553642 -0.11248175]
[ 0.3609824   0.15782742  0.5112617  -0.16572353  0.13488165 -0.13686968
  0.22548254 -0.3546039   0.21285026 -0.02140398  0.4791742  -0.20873989
  0.6679661  -0.10027647 -0.2836149   0.23608652 -0.5485132   0.34126398
 -0.10762332 -0.13903512]
[-0.543646   -0.59199864  0.636483    0.29970255 -0.6229389   0.8167551
 -0.949776   -0.88727134 -0.4902032   0.49498847 -0.20122133 -0.07490118
 -0.6699275   1.404602    0.7356341   0.14042023  0.7529091   0.57794493
 -1.0081809  -0.36433116]
[ 0.3830058  -0.07132633  0.08794505 -0.91881496  0.11178763  0.6274146
  0.49292248  0.22083509  0.06730179 -1.0096685  -0.03076494 -0.26818067
 -0.05358107 -0.34785867  0.03440131  0.1304597  -0.5398634  -0.07333797
 -0.15905827  0.6024789 ]
[ 0.14441942  0.00569318  0.350956   -0.03335326  0.2411419   0.0273364
  0.91096926  0.4787287  -0.22541678 -0.3298876  -0.06447127 -0.60748726
 -0.45647886  0.2917971   0.01941308  0.2213889  -0.6649403   0.13758312
 -0.40069768 -0.13154297]
[-0.09659085  0.26957992 -0.28728333 -0.33593288 -0.0142183  -0.0708248
  0.32733184 -0.2716033   0.6579101   0.27809477 -0.6750546  -0.40904966
 -0.94479245  0.09010823 -0.6509454  -0.58067304  0.8268522  -0.15259978
  0.00311506  0.0056311 ]
[ 0.37411675 -0.03051039 -0.34786746  0.566945   -0.3080528   0.12872295
 -0.32419652 -0.29197583 -0.06531956  0.6131047  -0.18788345 -0.9740261
 -0.24966514 -0.23643647  0.17950767 -0.20955439 -0.67523056  0.65195906
 -0.680491   -0.29325148]
[ 0.05354365  0.12367211  0.208501    0.10463788 -0.16024652  0.15324624
 -0.07304598  0.15038557  0.04336887  0.08209751  0.09455495  0.11272321
 -0.0848408  -0.19495277 -0.08715244 -0.12796989 -0.02417431  0.11620797
  0.0740268  -0.07588718]
layer 1 Activation
tanh
layer 2 Dense
20 40
[ 0.2548779  -0.04328161 -0.30373085 -0.10494176 -0.07479884  0.17081045
  0.15149239  0.09985843  0.03557658  0.20610799  0.04854523 -0.24355498
  0.06605739  0.0253997   0.03939348 -0.00188014 -0.0570943  -0.30880183
  0.28735527  0.6046347  -0.28822187 -0.11286072 -0.31197459 -0.06297034
 -0.03857762  0.59143305  0.51720494 -0.25151017  0.01600182 -0.1455329
  0.05862408  0.07528178 -0.11954637 -0.03950688  0.32608056  0.04814422
 -0.22744198 -0.28392962  0.04583555  0.34065923]
[ 0.21571141 -0.09536242 -0.08087119 -0.18123668  0.17962486  0.11382638
 -0.10231003  0.12095947  0.02677118  0.13904284 -0.07396502  0.01086287
  0.06982185  0.15762828 -0.17534117 -0.01660135 -0.24638811 -0.02581996
  0.14616413 -0.253757   -0.01685494  0.0993567   0.42387086 -0.02413302
  0.16053957  0.2300997   0.29773217 -0.04666007 -0.31302267  0.00153298
  0.0813073  -0.20426485  0.14949378  0.15218362  0.21801914  0.04283648
  0.05278572  0.1200126  -0.1840963  -0.03057915]
[-0.49260896 -0.00331058  0.15320325 -0.11057837  0.26291522 -0.3432104
  0.17810397  0.09516738 -0.00249512  0.00326521  0.0781254  -0.07863512
 -0.03594059 -0.02412665 -0.0279426   0.0756538  -0.00669768 -0.16771542
 -0.01215152  0.16310911 -0.03014613  0.1423747  -0.08981978 -0.20375843
  0.21135214 -0.26928383  0.17644717 -0.07544934  0.0401336  -0.00109808
  0.11877731 -0.0337775   0.03053396  0.3379311  -0.02225974  0.25928542
  0.01403353 -0.04563602 -0.17592922  0.0909017 ]
[-3.4792301e-01  3.7119944e-02  1.5876558e-01  2.5311181e-01
  1.0841940e-01 -3.5581264e-01  2.5124496e-01 -5.4767493e-02
 -2.8552243e-01 -2.5929743e-01 -1.0513069e-01  4.1765246e-01
  1.9156955e-01 -2.5794366e-01 -5.0829136e-01 -1.9089861e-01
 -3.9513630e-01  2.7495408e-01  1.2925610e-01 -2.2210589e-01
  1.4004478e-01 -4.2177949e-02 -4.5099986e-01 -6.4532049e-02
 -1.7735572e-01  5.8185562e-02 -2.8022623e-01  1.0456690e-01
 -9.1515899e-02  3.1794977e-01 -1.0472637e-02 -1.7112013e-02
  4.0118359e-02  2.0234797e-02  6.2128022e-02  1.8124686e-01
  1.5329283e-01 -4.0552887e-01  2.2967501e-01 -5.8924459e-05]
[ 0.43443137  0.2004231  -0.12497599 -0.15734991  0.21173461 -0.25392815
 -0.30562818  0.24569444 -0.07853649 -0.03022958 -0.05235479 -0.12194765
 -0.06205098  0.22576186  0.11905715  0.2787761  -0.01535856 -0.03397395
 -0.1611028  -0.10024209 -0.20429906  0.38034797  0.15804633 -0.1992992
  0.1813591  -0.10872421 -0.13187484  0.33311358  0.2898074  -0.04842132
 -0.04688554  0.32213983 -0.10275728 -0.20695831  0.1205076  -0.28201374
 -0.07931007 -0.05636314 -0.04262078 -0.1331019 ]
[-0.5191402   0.12543797  0.13442883 -0.23749016  0.06396966 -0.46436676
 -0.18250811  0.02747804  0.26495278  0.00356952  0.06291991  0.21425441
 -0.14537974  0.12558287 -0.07391965  0.0888081  -0.19230087 -0.06118268
  0.1581006   0.4316488  -0.13415259 -0.1560431  -0.49969843  0.0072768
 -0.23152462  0.5800888   0.38416675  0.28768268 -0.14028952  0.5502325
 -0.07727948  0.02600383  0.0260464   0.08338617 -0.04410725 -0.17887425
  0.02869169 -0.18048921 -0.36880106  0.07717278]
[ 3.22259933e-01 -5.90357231e-04  4.95745093e-01  1.16348125e-01
 -1.41291082e-01  1.69814050e-01  5.27134873e-02 -1.40585884e-01
 -1.75174065e-02 -3.49314153e-01  8.42940882e-02  3.71894054e-02
 -3.62913847e-01 -1.64678529e-01  3.18785906e-01 -2.74491996e-01
 -5.71678169e-02  2.11937159e-01  1.36136532e-01 -4.10954595e-01
 -2.85917171e-03 -2.11600624e-02  4.44241077e-01  2.51704514e-01
  3.02152127e-01 -3.87797356e-02 -1.03861935e-01  1.41063631e-02
  3.41152400e-01  6.19728789e-02  9.64749604e-03  3.18591371e-02
 -2.22530186e-01  2.83793032e-01 -3.35322559e-01  2.66104005e-04
  4.91054833e-01  1.29039317e-01  1.83434829e-01  2.35433385e-01]
[ 0.44175252  0.14940429 -0.09420878  0.0049613   0.31578073 -0.21277496
 -0.12802984  0.01329053 -0.10371243 -0.03824304 -0.2902416  -0.48284924
 -0.15482287 -0.1323553   0.33972818  0.18727343  0.38105997  0.15977596
  0.29603902  0.21178798  0.4009585  -0.30058408 -0.13867743 -0.24051793
 -0.06751798  0.17304873 -0.2447899  -0.32181942 -0.09013342 -0.4073039
 -0.2662523  -0.49640372  0.51784074 -0.3805574   0.01789923  0.1960865
 -0.00811041 -0.20286264  0.25883135 -0.09316368]
[ 3.98093223e-04  2.14273036e-01  2.09850952e-01  1.85898229e-01
 -1.13942295e-01  1.79364726e-01 -2.68843919e-01  7.74076879e-02
  3.88430059e-03  8.75174068e-04  4.56617549e-02 -1.94485486e-01
 -4.01082218e-01  5.65265007e-02  2.08667859e-01  2.88881809e-02
 -2.15057343e-01 -2.29194853e-02 -1.20537635e-02 -3.51301670e-01
 -4.68581647e-01  3.62207770e-01  7.40723670e-01 -2.48892251e-02
  2.55204976e-01  2.54739504e-02 -3.95251950e-03 -1.61840243e-03
  1.07688427e-01  7.17003793e-02 -2.33903497e-01  3.38356316e-01
 -3.12506288e-01 -4.05041687e-03 -2.54211515e-01 -4.79833111e-02
  1.52629256e-01 -1.83639601e-02  2.23760217e-01 -1.63739607e-01]
[-0.1314603  -0.02044229  0.08793556 -0.09205773 -0.00611822  0.00715172
 -0.01448709 -0.02627054 -0.01879898 -0.26472327  0.03811673  0.4077938
  0.04003777  0.10338716 -0.3664951   0.05604443  0.13225527 -0.05058658
  0.20006563 -0.13365473 -0.28759077  0.1277509  -0.3216007   0.25938594
 -0.0228222   0.10574011  0.15803789 -0.06188772  0.21208537  0.08621137
  0.07304293 -0.12015665  0.13158269  0.06041839 -0.00702725  0.2662324
 -0.06551638  0.00815613  0.21894673  0.02772654]
[-0.11006975 -0.12790656  0.25676066 -0.110809   -0.20747322  0.04434814
  0.01917765  0.06895208 -0.31727368  0.06039403 -0.01421113  0.37546626
 -0.22750734  0.19746508 -0.20924035 -0.1787552  -0.14516926  0.36602783
 -0.28383768 -0.3426753  -0.23967312 -0.07903592  0.12981534  0.04866184
 -0.02570637 -0.14899462 -0.02294076  0.41784978 -0.01389905  0.40967488
 -0.01874892  0.3866798  -0.03870131  0.23415007 -0.3873828   0.09731784
  0.1134086   0.109193   -0.10662685  0.05508073]
[-0.06194876  0.24215768 -0.24355283 -0.3431678   0.4246374  -0.3773952
 -0.01045701  0.3414627   0.21540928  0.34468332  0.02506563 -0.0232066
  0.11393705 -0.3759286   0.15147007  0.19194542  0.2327212  -0.14186041
  0.2699904  -0.08654147  0.5485896   0.252931   -0.08998123 -0.100009
  0.00318468 -0.8741386  -0.5711945   0.27125198  0.22642456 -0.15368642
 -0.08845863 -0.11743455  0.286865    0.05059767  0.35808843  0.1477612
 -0.2873236  -0.3671573  -0.3628594   0.10527241]
[ 0.30425802  0.04113582  0.08311617  0.10913513 -0.31247658  0.60000384
 -0.13689047 -0.19436261 -0.05165725  0.13889633 -0.07880376  0.40290853
  0.05747317  0.07056952  0.2838187  -0.02554565  0.28338873  0.00622661
  0.0084132  -0.7311388  -0.28867453  0.04100207  0.45475274 -0.11841317
  0.29311123 -0.77351713 -0.3979346   0.11268967  0.01048462  0.10226397
  0.05645003  0.00176638 -0.25748846 -0.2994756  -0.01995003 -0.19091177
 -0.00545738 -0.04313516  0.36353794  0.18032494]
[-0.16035575 -0.13732886 -0.12182438 -0.40295     0.3744945  -0.19504659
  0.28923687  0.2525098   0.15865806  0.19395494 -0.09071384  0.2539776
 -0.18331577  0.1663384   0.20891608 -0.03660397 -0.22824255 -0.35692433
 -0.13997579  0.65376353  0.22072026  0.37239    -0.42764974  0.02373052
 -0.41720405  0.1622296   0.3348923   0.6386146  -0.17175667 -0.1663168
  0.11143561  0.02459377 -0.3148409   0.3063366   0.15788324  0.22148053
 -0.21058095 -0.3006342  -0.19193055  0.20230049]
[ 0.15349448  0.01954615 -0.2124805   0.03395426 -0.0829288  -0.29095522
 -0.04813992 -0.07815083 -0.1624877   0.20221087  0.0812488   0.27447152
 -0.03235712 -0.21129411 -0.21213527  0.02117174  0.24142675  0.17710392
  0.06447644  0.33930212  0.23747729 -0.32809642 -0.5006026  -0.10645395
 -0.28787488  0.08554453  0.04517252 -0.18139087  0.15418848 -0.2029443
 -0.08471477 -0.3252768  -0.03822013  0.10954352  0.21843366 -0.02718742
  0.02062371 -0.14837176  0.2534     -0.06846838]
[ 0.45891955  0.22737274  0.26265106 -0.08026187  0.06247624  0.08795559
 -0.00934501  0.03261894 -0.0384631   0.08358848 -0.03433674  0.13007386
 -0.05308716 -0.1238197   0.21881789  0.07034206  0.29198396  0.2609544
  0.07764919  0.48928744  0.06298678  0.08789635 -0.46824652 -0.03331147
 -0.1924774  -0.29114357 -0.05824733  0.2504802  -0.02492751 -0.03076906
 -0.11476188 -0.17522244  0.1771626  -0.14978574 -0.1865789   0.28505212
 -0.00411418  0.05775758 -0.18860747  0.0644423 ]
[ 0.03720832  0.14264455 -0.03455618  0.01938066  0.16271043  0.49431458
  0.03620772  0.33262208 -0.23712136  0.21790779 -0.24281882  0.60624295
 -0.24923764  0.21127973 -0.11332531  0.09642659  0.24067084 -0.03447389
  0.14039929 -0.3369662  -0.06896278  0.14628077 -0.15066667 -0.119794
  0.27278802 -0.46759441 -0.20369805  0.05306124 -0.06791399  0.33449748
  0.03157637  0.4199338  -0.1723143  -0.05298046 -0.11298733 -0.24870737
 -0.32919294 -0.16048728 -0.14165053  0.21758124]
[-0.2714164  -0.02204396 -0.08497024 -0.0848888  -0.22179556 -0.03153132
  0.12860101 -0.11308595 -0.04293606 -0.07859758 -0.09972294 -0.13157812
 -0.02183565  0.05672115 -0.11116022 -0.21788137  0.00878862  0.02153391
  0.05116387  0.32747868 -0.25661072  0.11440323 -0.06572029 -0.15512858
 -0.11165132  0.35899845  0.01511825 -0.35999843 -0.07077651 -0.12014362
  0.21547881  0.2480279  -0.15976143  0.04368602  0.04415097  0.10243029
 -0.03700468 -0.03426965 -0.01239934  0.09444198]
[ 0.33608463  0.02517518 -0.1682726  -0.294672    0.0426626  -0.11486622
  0.19342898 -0.1608541  -0.02891582  0.16228141  0.05061286  0.18758546
  0.00818888 -0.2945283   0.03212501 -0.12101619  0.27808252  0.13670838
 -0.02997433  0.03452467  0.29644036  0.04197812 -0.15025155 -0.02504089
 -0.00312052 -0.7615103  -0.41934973  0.33611628  0.131015   -0.24360879
  0.10065193 -0.3383967   0.11100523  0.11087604  0.36536178  0.01451282
  0.32222754  0.00453308  0.15470608 -0.21298315]
[ 0.39921203  0.03378019  0.05463406  0.09527662  0.00690775 -0.16307029
  0.19126797  0.25545633  0.3496871  -0.03792227  0.09554902 -0.18782659
  0.33166745 -0.11570103  0.1923026   0.18468013  0.01678521 -0.25015956
  0.03813256  0.41836017  0.22713456  0.13142698 -0.09667449  0.23320802
 -0.0902985  -0.05219732  0.08110906 -0.02207745  0.11866432  0.04858709
  0.0535321   0.29201576  0.16039176  0.15164043  0.09156425 -0.04085044
  0.02268649  0.08622937 -0.24436563 -0.40231055]
[-0.3181839  -0.09160291  0.05125157 -0.00497244  0.15457521  0.06554612
  0.28371102 -0.0517426   0.01090986  0.00098344  0.0711198  -0.08923914
 -0.12374721  0.07344578 -0.14102152  0.0244716  -0.19576854 -0.30291358
  0.09105963 -0.5124489  -0.02879971  0.01555628  0.13323183  0.08406682
 -0.00109186 -0.12577267 -0.0670724  -0.04677644 -0.11680743  0.13240221
  0.02496225 -0.05752467 -0.03010703  0.06000205 -0.01690426  0.10102513
 -0.0582104   0.1942597  -0.09614736  0.1266835 ]
layer 3 Activation
tanh
layer 4 Dense
40 20
[-0.04652575  0.06784956 -0.06965432 -0.46693134  0.11035474  0.52778685
  0.14920768 -0.1295577   0.17763747  0.19581471  0.1357147  -0.22018644
 -0.19774573  0.20677046 -0.13266164 -0.10966112 -0.02327865  0.36202797
  0.33177796 -0.2411216 ]
[-0.1007944   0.06837175 -0.28368354 -0.2626262  -0.20610943 -0.1013872
  0.01955279  0.23203398  0.01831232 -0.24092191 -0.03759948  0.0681814
 -0.05129969  0.16777824 -0.2085111  -0.1329011   0.064412    0.0754108
  0.05196317  0.01433371]
[ 0.0435777   0.19673759  0.25503185  0.06458663  0.2323466  -0.12184177
  0.16558322 -0.24004914 -0.18840563 -0.06671928 -0.09757537  0.10706062
  0.12575313  0.06782892 -0.04543787  0.03263299  0.02278693 -0.09535355
  0.09377658 -0.16735442]
[ 0.0313588  -0.07072148 -0.04155104  0.07773729  0.14371185  0.2718034
 -0.28434438 -0.07107821 -0.2274429   0.19402808 -0.20601752  0.11228649
  0.07800251  0.07159054  0.21172449 -0.10090466 -0.08467934  0.24781273
  0.05506434 -0.00590045]
[-0.00465806 -0.00234768 -0.02947373  0.02306509  0.07943244 -0.15154228
 -0.06316575  0.23126712 -0.06384266 -0.10460004  0.21363942 -0.13655424
 -0.04433656  0.0438625  -0.11722752 -0.25221276  0.22571518 -0.02172905
  0.03630878  0.15937968]
[-0.07780735 -0.14499147 -0.00303937 -0.2875914  -0.21276687  0.37579504
  0.08315684 -0.35344103 -0.13210788  0.10981738  0.15318006  0.28372547
  0.24700439 -0.23854248  0.00153764  0.19917202  0.00718698 -0.15840125
 -0.12408565 -0.06312814]
[-0.21601285  0.09092428  0.17082873  0.03611311  0.16071126 -0.1200683
  0.0741876   0.16657373  0.01550453  0.03741307  0.1817916  -0.1566221
 -0.02531585  0.06847117 -0.02729348  0.24146484 -0.15388618 -0.23272732
  0.1446276   0.12913987]
[-0.1857139   0.11379182 -0.26433492 -0.17368063 -0.23196289 -0.23280959
 -0.2132801   0.01919528  0.04361656  0.01836112  0.24162775 -0.18002537
 -0.02488574  0.03056314 -0.10812236 -0.05760723 -0.04808831 -0.19285469
 -0.3835142  -0.13546209]
[ 0.10531087  0.10849419 -0.17346849  0.1332069  -0.17455752 -0.04270592
 -0.03513903 -0.12473895  0.0361115   0.05507707  0.05915883 -0.1772766
 -0.01497983  0.30415672  0.08152052 -0.10714887  0.31406522 -0.08218151
 -0.07808673  0.06129139]
[ 0.07247177  0.166453    0.13137534 -0.19037746  0.12628625 -0.0700936
 -0.10725541 -0.005011    0.06390179 -0.18117903  0.33824453 -0.17977144
 -0.17709649 -0.12629853  0.11144502 -0.14765455  0.19652815  0.03349709
 -0.34233224 -0.1614577 ]
[-0.09638564 -0.12525411 -0.07016981 -0.01371723  0.15532789 -0.00737844
 -0.09557321  0.06495018 -0.11981466  0.22426642 -0.15666625 -0.14431153
 -0.01433342 -0.12776339 -0.11834864  0.18856959 -0.00858418 -0.09635293
 -0.03471664  0.2172616 ]
[ 0.09772029 -0.24601275 -0.01788056  0.22400068  0.14960179 -0.28449082
  0.15610762  0.48003876 -0.1005367  -0.20344418  0.24941628 -0.06110678
  0.40238515  0.07384966  0.00344636  0.1975546   0.23028441 -0.31509042
 -0.49220952  0.15609722]
[ 0.11792836 -0.03009913  0.09495054 -0.08257131 -0.14549327  0.08320138
 -0.04041955  0.06353725 -0.18643144  0.23526387 -0.00270082  0.14197016
 -0.18114215 -0.0904306  -0.09733692  0.04182597  0.0375629  -0.22409123
 -0.05080451 -0.15702868]
[-0.23348206 -0.1580573  -0.11303839  0.03320452 -0.00789161 -0.23683493
  0.0339659  -0.10951219  0.23821875 -0.22471307 -0.41040838  0.30951014
  0.09106468  0.17965513  0.05849005 -0.08099723  0.26168534 -0.1881322
  0.2279624  -0.19702584]
[ 0.19134955  0.20552623  0.00733082  0.10707301  0.302189    0.12856436
 -0.03991984 -0.33219838 -0.05162925 -0.02709355  0.22024882 -0.21072926
 -0.12323581 -0.16963132 -0.08312073 -0.09800092 -0.02439861 -0.11040406
 -0.0443622  -0.01410256]
[-0.00117918  0.05272865 -0.10486849  0.01759999  0.10284518  0.03668891
 -0.237692    0.09390453  0.13343282  0.08028396 -0.06034761 -0.07149012
 -0.05706269  0.23090155 -0.1826275   0.07589327  0.14790988 -0.01187801
 -0.02537878  0.14620236]
[-0.10155717  0.21456856 -0.06390724 -0.09979064 -0.13360994  0.28476208
  0.11456334  0.02591228  0.09318506 -0.02534635  0.17003264 -0.04371953
 -0.00922712 -0.09436426 -0.20298019  0.02673201  0.01297049  0.1931392
 -0.10409222 -0.05783299]
[ 0.02750111  0.10420721  0.19686447  0.03204447 -0.04814403  0.1735361
  0.23078792 -0.01799189 -0.13678677 -0.03175668 -0.11107885  0.12462425
  0.10607394  0.00306403 -0.03050258  0.13584547 -0.30059198  0.2766003
 -0.00511975 -0.15951006]
[ 0.23499197  0.1188778  -0.25122562  0.26278308 -0.23971368 -0.10317153
  0.04661996 -0.0661831   0.30054456  0.1715503   0.05613526 -0.17715913
 -0.11970354  0.0054028   0.05122752  0.16532235  0.14445771 -0.18354958
  0.06911478  0.22837694]
[ 0.15871403  0.24317756 -0.13812333  0.31666034 -0.05475472 -0.27183264
 -0.135786    0.16992599 -0.2883226   0.17952478  0.13815747  0.01331308
  0.11542585  0.00990745  0.19658339  0.04287614 -0.14570709  0.21005107
 -0.48482174  0.25081787]
[ 0.14372332  0.04930856 -0.09918219  0.11315149 -0.22810948  0.05016444
  0.08213613  0.3860674  -0.09384397  0.06079492  0.37768364 -0.25891834
 -0.18570507  0.02847734  0.0350108   0.22020257 -0.12651473  0.18196517
 -0.2346591   0.17727715]
[ 6.86884746e-02 -6.26345053e-02 -4.55961600e-02 -2.43472740e-01
  1.17504932e-01  8.62000063e-02  6.72065653e-03  1.29605234e-01
  1.28579214e-01  5.49331633e-03  7.25896209e-02 -8.48253667e-02
  2.00919554e-01  8.99885446e-02 -5.84244990e-05  1.39012769e-01
 -1.11006446e-01 -2.25256547e-01 -1.17230592e-02 -2.49151755e-02]
[ 0.10756177  0.01097684 -0.19637005 -0.34867516 -0.0508091   0.2248524
 -0.13660896 -0.35252407 -0.14558722 -0.09669191  0.09127882  0.0885523
  0.30880475 -0.03816204 -0.07962836  0.18851902  0.0638158   0.05169505
  0.3089589   0.10606304]
[ 0.22903046  0.07354781  0.08203278 -0.05376933 -0.24948505 -0.1754021
  0.00874997 -0.08469091  0.1482287   0.17383288  0.04664533 -0.13115802
  0.2345068   0.03408315 -0.03901025  0.10747551  0.15504107 -0.03934937
  0.04184185  0.04810015]
[-0.08402829  0.07617483  0.00412219 -0.15077665 -0.2337509   0.01914441
 -0.06835109 -0.23654091  0.05923899  0.26224     0.09836787 -0.00438884
  0.24676172  0.25073853 -0.02320257 -0.2899032   0.01451314  0.01408027
 -0.00575645  0.17686397]
[-0.24662721 -0.23717912 -0.20177522  0.25493246  0.11176503 -0.00102882
  0.06592616  0.26460388 -0.15061405  0.10956813 -0.51345754  0.08051505
  0.29856157 -0.01514269 -0.0589072   0.04351525  0.30091184 -0.0140781
 -0.02795059 -0.1092744 ]
[ 0.01386615 -0.05047997  0.01672147  0.3494739  -0.18804242  0.16962151
 -0.00576658  0.3002158   0.1934664  -0.1434507  -0.50789917  0.02621485
  0.2061598   0.12769866 -0.19565256 -0.23201546 -0.1763904   0.05836751
 -0.24582516  0.07981069]
[-0.17223342  0.22545806  0.0670099  -0.32903183  0.20575005 -0.08603417
  0.07576282  0.21888721 -0.0104364   0.12978557  0.33177474  0.22699268
  0.16449398  0.1608835  -0.01826936 -0.21855912  0.0337393   0.03970407
 -0.11339865  0.26406065]
[-0.2774881  -0.12913074  0.09786522 -0.06634772 -0.17113292 -0.2584443
  0.24050644  0.05884791 -0.04600704 -0.11484078  0.10853145 -0.18507695
  0.11247934  0.15552679  0.08987992 -0.09317638  0.06343126  0.14914867
  0.01737682 -0.00304636]
[-0.01193547 -0.06074532 -0.15912433  0.0714799   0.14020304 -0.32632482
 -0.18014023 -0.24454293  0.02624899 -0.04618958 -0.06462055  0.08504276
  0.03918664 -0.01659769 -0.1481036   0.05503983 -0.11078171  0.14737058
 -0.19437355  0.20692252]
[ 0.01706628  0.07864923 -0.03276143 -0.19104034 -0.00174177 -0.07375798
  0.23788235 -0.03248911 -0.09785964 -0.00504366  0.12678432  0.08865106
  0.01637175  0.03379928  0.16086487 -0.22853583 -0.15927729 -0.16887778
 -0.00712372 -0.07838757]
[ 0.06463355 -0.06530803 -0.03114585 -0.23747042  0.13126571  0.09508891
 -0.04886704 -0.20758064  0.0136939   0.0699119  -0.23501441  0.1131679
  0.11429843 -0.00797732  0.15844816  0.05965793  0.08330713  0.14580837
 -0.20734926  0.1704446 ]
[-0.16815774  0.08576094  0.09589691  0.20713314  0.2943429  -0.22251827
  0.00505447  0.16607438  0.17577767  0.11765154  0.04333629 -0.03637018
 -0.33857948 -0.03600365 -0.195467    0.07594611 -0.04388994  0.06958963
  0.23526798 -0.3434756 ]
[-0.15228622  0.00673264  0.13017464 -0.03063126  0.14104438  0.04493332
  0.10236558 -0.17295666 -0.15092236 -0.21526681  0.13376632  0.00249898
  0.09076077 -0.14931399  0.05636172  0.01336876 -0.00310454 -0.25427705
 -0.2206479   0.2344535 ]
[-0.19475308 -0.03281607 -0.11514563  0.07739463 -0.05953964 -0.17152748
 -0.10507844  0.09613929 -0.04052129 -0.0250627   0.15122397 -0.07125864
 -0.1898569  -0.00914784 -0.10512239 -0.15248352 -0.01703293  0.01517499
 -0.09025789  0.01699578]
[ 0.18404946 -0.12569982  0.12258454  0.18794304  0.10697346  0.04347108
  0.24853404  0.26245925 -0.06538692 -0.26800704  0.01807937 -0.12503304
 -0.13920802 -0.04776141  0.1327999  -0.01696278 -0.04125011 -0.05654735
  0.14481764  0.20568602]
[-0.02551079  0.17909878  0.13952743  0.17799841 -0.2654079  -0.15563402
  0.12663805 -0.08711022  0.08235884 -0.07282469 -0.03554421 -0.18243648
  0.22669522 -0.18749708  0.09564131  0.09669742 -0.04287745 -0.0375863
  0.18014997 -0.20751087]
[-0.08807999 -0.28920075  0.00100362  0.00048006  0.08745251 -0.04781911
  0.0550004  -0.26563102 -0.19258049 -0.09830087 -0.31905124 -0.19413297
  0.14061223 -0.13898179 -0.05831004  0.11898319  0.06098872  0.16036828
  0.08059959  0.26972455]
[ 0.15288872 -0.00856905 -0.07283058  0.00835884 -0.26009205  0.30908906
 -0.04169429  0.07208644 -0.21764308  0.06445976  0.04222774  0.07325709
  0.11058511 -0.05939576  0.06102452 -0.33241254 -0.24785297 -0.1334206
  0.25683126  0.27673668]
[-0.0152616  -0.07101817  0.1013215  -0.08589671  0.19937079 -0.05459823
  0.01947607 -0.03922621 -0.00292581 -0.04312107  0.0871402   0.10850804
 -0.08285053 -0.036597    0.0417419  -0.10387108 -0.12293062 -0.20041178
 -0.0774284   0.09341632]
[-0.00395884 -0.00922454 -0.1053826   0.05107771 -0.04238941  0.02137361
 -0.04242129 -0.07668525 -0.06746309  0.02280313  0.00629228 -0.03701341
 -0.00544901  0.07458999  0.04688051  0.01235848  0.01361664 -0.06203704
  0.05876186  0.06488947]
layer 5 Activation
tanh
layer 6 Dense
20 1
[1.5299942e-05]
[0.0041669]
[-0.00544056]
[-0.0469955]
[-0.00845122]
[0.04270449]
[0.00219624]
[-0.10576747]
[0.01396123]
[0.02508342]
[0.06690557]
[-0.06609312]
[-0.13817018]
[-0.00414063]
[-0.01637202]
[-0.006588]
[0.00681648]
[0.02974026]
[0.08722094]
[-0.02716149]
[0.0016816]
