layers 7
layer 0 Dense
20 20
[ 0.2813919   0.04078159 -0.34666026  0.08052319 -0.21878675  0.14169827
 -0.24676788 -0.3588798   0.2688493   0.10869609  0.4893004   0.33352605
 -0.13544667  0.39692324 -0.19492795 -0.17331627 -0.02920579 -0.32171318
 -0.14019123  0.5625298 ]
[-0.1062417  -0.14685439  0.04160625 -0.31850293  0.26504672  0.06403008
 -0.16076186 -0.01012683  0.26903206  0.1977477  -0.21144311  0.01711026
 -0.26760036 -0.18216376 -0.04265854 -0.30432683  0.26175463 -0.37010562
  0.17700368  0.07615945]
[ 0.38291013  0.18121892  0.20533496 -0.37233305 -0.35704243 -0.16479163
  0.25168008  0.2983393   0.01491472 -0.23867835  0.3859825  -0.11548716
 -0.33616287 -0.00302622 -0.19168973  0.32107198 -0.20158674 -0.3240225
  0.3827545   0.35407555]
[-0.47482896  0.5707581  -0.3512363  -0.08245839 -0.04818181 -0.19447955
 -0.24890992 -0.229433   -0.17894329  0.43178764  0.04197634  0.30187505
 -0.23584086 -0.2241369  -0.4053572  -0.04455869  0.37076893 -0.00913718
 -0.3078429   0.46475202]
[-0.15752688  0.03965252 -0.11680671  0.29461727  0.15806915 -0.20697893
 -0.18390723 -0.05317186 -0.02138167 -0.10872094 -0.26523936  0.38736892
 -0.15528744  0.05329474 -0.09125935 -0.12732023 -0.09235022  0.17686646
 -0.4141129  -0.009804  ]
[ 0.14625448  0.13808912 -0.11397123 -0.14836432 -0.05253062  0.16471815
 -0.37160403  0.13984197  0.09751379  0.17618406  0.3323332  -0.1118466
 -0.3456726  -0.02674362 -0.10249826  0.25058794 -0.02563334 -0.10997155
  0.06574935  0.09059668]
[ 0.23079842 -0.34861425  0.1312359   0.37290084 -0.28042746  0.26198703
  0.16385436  0.08763519 -0.14403823 -0.02404732  0.16554725 -0.2671333
 -0.32558876 -0.24756165 -0.24875504  0.04125112 -0.12410638 -0.19637494
 -0.16461904 -0.26057047]
[ 7.8550301e-02 -7.9070210e-01 -2.2813873e-01 -1.7561828e-01
 -1.9863512e-01 -2.5248027e-01  5.4381138e-01  1.1964888e-01
  5.2920389e-01  6.7728825e-02 -5.8793795e-01 -8.0361497e-03
  4.3843422e-02 -3.5056448e-01  6.5507181e-04  3.3457884e-01
 -1.3899745e-01 -2.0011194e-01  4.0121475e-01 -4.1359186e-01]
[-0.35923418  0.07468151  0.17740013 -0.27714965  0.32477984  0.12644151
 -0.5063709  -0.05600239  0.12710445  0.1963279  -0.29034212  0.19429725
 -0.27561402  0.5499931   0.20443521 -0.04896776  0.3714145  -0.22856785
 -0.18863904 -0.38961214]
[ 0.2724377  -0.149129   -0.33972308  0.25755152  0.61625624 -0.15756534
  0.601031   -0.14581172 -0.23250425 -0.05029272  0.147958   -0.07416536
  0.49218327 -0.7161518   0.09416679 -0.3662292   0.01597898  0.29045823
 -0.05478834  0.17792721]
[-0.59342706 -0.41361305  0.31094354 -0.06425861 -0.13588816 -0.3623401
 -0.25975415 -0.18106653  0.28255087  0.6641245   0.40120727 -0.22599474
  0.05716744 -0.24234174  0.4705523   0.15792671 -0.08827282  0.4620186
 -0.18692987  0.10758686]
[ 0.17562391  0.6728325  -0.25328395 -0.37028497  0.71419245 -0.41004634
 -0.7239394   0.3429545  -0.04795539 -0.8802946   0.5352102  -0.51606834
  0.8615053   1.0834758   0.45173848  0.41414678  0.7661814   0.72291934
 -0.14139253  1.2612994 ]
[-0.04676155 -0.05600921  0.39825594 -0.2093582   0.03550637  0.31376106
 -0.06723957  0.22981046  0.09485507  0.05918957 -0.2538495   0.18230526
 -0.06636915 -0.21355821  0.32541108 -0.21215893  0.12130605  0.33771577
  0.03525494 -0.06116634]
[-0.38576818  0.15371686  0.03101828  0.2523311   0.31663853  0.13496298
  0.16654438  0.19345571  0.02752182 -0.06783842  0.4275679   0.07893684
  0.6173507  -0.6121482  -0.2691162  -0.32931098  0.58345777  0.51338303
  0.0078403   0.26617754]
[-0.00828765  0.41374293  0.30554542  0.14845072 -0.2321097  -0.5065378
  0.16473228 -0.20059708 -0.2761022   0.5798076   0.03111385 -0.22589602
 -0.04333528 -0.29095834  0.6107123  -0.06515545  0.26630777  0.38849387
 -0.12407164  0.0758222 ]
[-0.36261985  0.11886964 -0.15986638 -0.1551519   0.43347007 -0.5442065
 -0.26237944 -0.1244394  -0.42647102 -1.4349332  -0.09209321 -0.68345547
  0.5524633   1.0394197   0.13084838  0.10489266  0.49970922  0.41360053
 -0.15461461  0.19765902]
[-0.02750891 -0.41911098  0.1200936   0.19745606 -0.24287996  0.00419854
  0.5133521   0.35831144 -0.1604036   0.18093392 -0.37851688 -0.45915642
  0.09936997 -0.6296053  -0.25676364  0.57683337 -0.49566194  0.07080466
 -0.04356565 -0.24819827]
[ 0.95835596  0.38289073  1.2608525  -1.2173467  -1.1400023  -0.71508664
 -0.33372325 -0.49885425  0.29996556  0.39752632 -0.5649953   0.03449906
 -1.840461    1.4374634   0.15970531  1.4676534  -0.5489658  -0.61047673
 -0.8100359   0.25282973]
[ 0.26644647 -0.04132235 -0.92085075 -0.72014284  1.4605572   0.832859
  0.24220872  0.7507771   0.1934328  -1.5934979  -0.14896564  0.5630775
 -0.33908364 -0.06943448 -1.034271   -0.8507602  -0.01006459 -1.2539486
  0.47479555  0.01479326]
[-0.55420107 -0.6596507   0.02579211  0.3215083   0.3499382   0.88628066
  0.87871116  0.27101278  0.28651708  0.8330906  -0.3831554   0.09395579
 -0.5417884  -0.5245979   0.4874875  -0.36933717 -0.38483694 -0.2672736
  0.63374925 -0.5302644 ]
[-0.0128477   0.37762347 -0.13718751  0.00331959  0.06803006 -0.04387625
 -0.27997962 -0.08795514 -0.09368917 -0.04291675  0.21867992  0.17855416
 -0.03131533  0.10790969 -0.12701236 -0.11591621  0.22889882 -0.07090925
 -0.13248768  0.2149312 ]
layer 1 Activation
tanh
layer 2 Dense
20 40
[-0.09546383 -0.20916931 -0.14345738  0.12005033 -0.21533431  0.05469551
 -0.18793386 -0.1828502   0.01867444 -0.05854319  0.01056989  0.11521608
  0.19138883  0.29790163  0.37345776  0.15012163 -0.408635   -0.05494488
  0.15514538  0.0785635   0.23661646  0.27539647  0.2368718   0.275237
  0.06509146  0.3030527  -0.1519798  -0.31306425  0.1273255   0.03773761
  0.22135496  0.00695236 -0.17234059 -0.2535291   0.2961834   0.28699297
  0.11736475 -0.28366634  0.01568701  0.04789213]
[-0.5492087   0.2049376  -0.04505922  0.04344155  0.36513108  0.21956328
  0.19845459 -0.09529528  0.21741721  0.237537   -0.03605086  0.3493015
 -0.4751134   0.23188992  0.02224075  0.2077202   0.13249153  0.25870073
 -0.01575921 -0.03724689  0.00721694 -0.2573152  -0.24821465  0.08146919
 -0.0933213  -0.39331892 -0.27841347  0.40080032 -0.5362695   0.0231146
 -0.04810797  0.14363931 -0.1680057   0.11232989 -0.18838495  0.01459116
 -0.01287123  0.15202665 -0.04205465 -0.44242346]
[-3.9165774e-01  2.8008050e-01  1.2814686e-01 -1.5697718e-01
 -3.9329123e-01  3.1168187e-01  1.5708147e-01  2.9245019e-01
  3.1542119e-01 -7.1655549e-02  1.9421919e-01 -1.1210821e-01
  3.2075369e-01  5.4310232e-02  1.2826264e-01  4.5889571e-01
 -1.8829259e-01 -2.4838689e-01 -3.1138080e-01  3.2818925e-01
 -5.9052527e-02 -3.8053092e-01  9.0892203e-02  2.2188017e-01
 -1.7667814e-01 -1.2073958e-02  2.0418905e-01 -8.8251382e-02
  3.7800264e-01  2.5297457e-01 -6.9089338e-02 -4.5363624e-02
  1.7959651e-01  1.9482648e-01  1.3948214e-01 -2.3127986e-01
  7.4581185e-05  4.3990180e-01 -2.2448853e-01 -9.4973378e-02]
[ 0.26999754  0.28165612 -0.1090358  -0.17638633  0.38294148  0.00733332
 -0.20149785  0.31267184 -0.20050873  0.26898146  0.01938388  0.11561763
  0.2797515  -0.03726201 -0.41532767 -0.33658713  0.5649834  -0.22323593
  0.45502183 -0.14611992 -0.36695147  0.47159672  0.2658217  -0.35732707
 -0.2579619   0.5211734  -0.05350804 -0.02239075  0.05814108  0.02000927
 -0.40313458 -0.36627194  0.17879935  0.3940318  -0.328719    0.1826834
 -0.00892528  0.11666673  0.38483906 -0.18608798]
[ 5.16253412e-01  6.25957131e-01  3.21244270e-01 -1.74414098e-01
  2.25905348e-02 -3.18861544e-01  2.11151809e-01 -4.63489741e-01
 -1.35856554e-01  3.97992074e-01  4.77899939e-01 -3.88860047e-01
 -7.83945978e-01 -1.79557159e-04  6.87772810e-01 -2.99829662e-01
 -2.82209069e-01 -4.47492093e-01  2.47896895e-01  1.16040362e-02
 -2.00348690e-01 -9.98086259e-02 -2.89949894e-01  1.92941934e-01
 -1.51795864e-01  5.61977923e-01 -3.51910055e-01  7.42617130e-01
  1.49316713e-02 -2.95836180e-02 -7.41891742e-01 -7.76326239e-01
 -5.81514060e-01 -1.24225594e-01  6.38229921e-02 -3.63580167e-01
  1.40885577e-01 -4.58811045e-01  2.14631334e-01  1.78856537e-01]
[ 0.6767505  -0.33997002  0.383267   -0.36390594 -0.2144512  -0.38836044
 -0.1661352  -0.47141412 -0.14401768  0.5549458   0.29808208 -0.23743795
 -0.15116656 -0.60696083 -0.21891382 -0.36531833 -0.06916876 -0.10932962
  0.7028076  -0.258956    0.04476864  0.85374606 -0.25493854  0.00949882
 -0.12717691  0.51307863  0.43899384  0.24461412  0.08681205  0.3266976
  0.20258641 -0.10718256 -0.23055524 -0.20435965  0.31977263 -0.3974849
  0.22925717 -0.6420957   0.15080577  0.03135394]
[ 0.28265426 -0.09127861  0.3174262   0.16743231 -0.29964554 -0.00921115
 -0.2620874  -0.00119809  0.14379638 -0.07196593  0.43104666 -0.3363695
  0.3520086  -0.07608493 -0.11684097 -0.5664924   0.07852212 -0.05267462
 -0.12146601 -0.01046189 -0.13727987  0.51128477  0.5131147  -0.31394225
 -0.10972805  0.45591286 -0.1639485  -0.30720457 -0.23999575 -0.24038024
 -0.14670675  0.10497941 -0.2641972  -0.4735434   0.08335448  0.47606602
 -0.15339719 -0.12227426  0.1770183   0.38308722]
[ 0.10754357  0.13041367  0.29254693  0.03825694 -0.13310978 -0.33673418
  0.18013582 -0.4007869   0.15597299  0.26318684  0.6493808  -0.10629571
  0.09361568 -0.19233572  0.3495572  -0.02480731 -0.04045043 -0.37255844
 -0.0887984  -0.33089137  0.09713097  0.28562745  0.15979268  0.34946802
  0.13963968  0.42651546  0.0859369  -0.02925384  0.02726514 -0.02317994
  0.05762973 -0.1154127  -0.00903879 -0.5660521  -0.03174768 -0.23951656
  0.14479479 -0.25696087  0.15869553  0.4095209 ]
[ 0.14328684 -0.0634896   0.02535629  0.20208979  0.15005834 -0.21219528
 -0.00893572  0.02045786  0.5073294  -0.02809828  0.26068982 -0.09115427
 -0.13007936 -0.17305107  0.03601419  0.33031166 -0.1798313   0.1313723
 -0.21824059  0.12302678  0.02981651 -0.02392042  0.22438008  0.28297833
 -0.22932307 -0.23133114  0.159135   -0.22463484  0.03822189 -0.06740459
  0.17842987 -0.2612745   0.01961652 -0.30881828  0.16251557  0.12691262
 -0.06384712 -0.07737765 -0.00394595  0.16869338]
[-0.05483003 -0.2765234   0.14457323  0.33695406  0.08009317  0.5063025
 -0.1831679   0.1136151  -0.52465576  0.0589308  -0.23869202  0.10492194
  0.12770432 -0.775933   -0.41350368 -0.39034638  0.45828563 -0.08861621
 -0.04072349  0.39896163 -0.10684806 -0.16972657  0.35091436 -0.6657117
  0.1554256   0.1692569   0.01019045 -0.3188407   0.00477997 -0.21123675
  0.0512893   0.02328483  0.6219047   0.09592412 -0.40175906 -0.18214521
 -0.19842045  0.15833849  0.20892352  0.43799135]
[-0.22090977  0.15591028  0.20895     0.18696102  0.0451769  -0.16958457
  0.32757413 -0.07193963 -0.14232577  0.19678897 -0.1537277   0.53495914
 -0.4431487  -0.1615355  -0.22924733  0.31162152  0.04030912  0.35610348
 -0.21442501 -0.30936453 -0.5102351   0.0409961  -0.3117743  -0.3540374
 -0.06999864 -0.17636426  0.09097738  0.48546228 -0.29864234  0.11718338
 -0.27641943 -0.03024731  0.14477734  0.64284766 -0.46909526 -0.2032229
  0.13158762 -0.0766872  -0.10329429 -0.41537204]
[ 0.02492318 -0.09076168  0.13197787 -0.24234863 -0.0204842   0.17036206
 -0.14764966 -0.1070008   0.03606971  0.3147228  -0.47359     0.4239736
 -0.39865983 -0.33356974 -0.37888777  0.10021026 -0.23281932  0.25934988
  0.19403654  0.07269155 -0.02325333 -0.00144609  0.07190564  0.16011621
 -0.14368832  0.29206306  0.06097329 -0.07460485 -0.05762773  0.00654283
 -0.16759333  0.09009495  0.06695361  0.0056873  -0.03130633 -0.22297451
  0.17423311 -0.04629265  0.14287439 -0.3163532 ]
[ 0.22537844  0.45110014 -0.45445865  0.2586776   0.0532678  -0.23432392
  0.29159692 -0.43288755 -0.67603797 -0.35293147  0.40522695 -0.41274652
 -0.27658147 -0.32421872  0.37447923  0.00292606 -0.33824056  0.07344687
 -0.04054143  0.13976374 -0.3529347   0.17536068 -0.5562785  -0.4404821
 -0.2203959  -0.17698848 -0.4471243   0.3930364   0.22841826  0.26655963
 -0.2917025  -0.27417156 -0.5795254  -0.1234647  -0.12793155 -0.26350582
 -0.13613316 -0.3408646  -0.29253665  0.29277197]
[-0.7288663  -0.5766057  -0.44527262 -0.23381309  0.13377969  0.7217226
 -0.11402908 -0.30243772  0.9753696  -0.3599507  -0.28855386 -0.09857195
 -0.6712694   1.2354035   0.4209923   0.83712304  0.12914726  0.48772368
 -0.49729934  0.18308616  0.69219506 -0.52174026 -0.5741806   0.44602498
 -0.11491474 -0.36265525 -0.73174685  0.17617774  0.00814937  0.19031504
  0.32456386  1.1226518  -0.1357463   0.0561326   0.69157165 -0.1085829
  0.4685693   0.14223884 -1.0017111  -0.15067716]
[-0.16927078  0.18107815  0.2496711   0.49986985 -0.41564512  0.41201216
  0.16365758  0.51034313  0.2845983  -0.297276    0.27844098 -0.07167186
  0.26438293  0.22216481  0.30688268  0.11105929  0.31525463 -0.1326822
 -0.18802248  0.22780907 -0.13543959 -0.23773558  0.5809701  -0.2261984
 -0.29588062 -0.37322247 -0.22806914 -0.12072268  0.10189489 -0.3292246
 -0.650406   -0.32300922  0.46375823 -0.39158905 -0.035354    0.14375548
  0.03660457  0.24505061 -0.5037047   0.14906546]
[-0.17854317 -0.5344004  -0.41195402  0.00501908  0.30145404 -0.12145346
  0.05251807  0.15263559  0.35483506 -0.3692354  -0.03467498 -0.10826474
  0.68145424  0.32717744  0.18200344  0.2650298  -0.08681685  0.31516722
 -0.41592833  0.09171338  0.04052416 -0.21310869  0.74843234 -0.0623054
  0.12891749 -0.3263717   0.11759038 -0.03655105  0.18502304  0.14719716
 -0.07834166  0.30712774 -0.24473776  0.16094574 -0.1673082   0.04259094
 -0.03043802  0.44906422 -0.7188187   0.03583098]
[-0.5987412   0.1247763   0.00383755  0.14599015  0.3211867   0.0167372
  0.28651124 -0.24025762 -0.37376305 -0.28109613  0.09150084  0.53091955
 -0.42116466  0.0020642   0.20231959  0.17901427 -0.06447556  0.0469045
 -0.12505859 -0.03865883 -0.11136407 -0.00839514 -0.76417553 -0.28722984
 -0.21260822  0.40434334 -0.18183044  0.35395226 -0.4018851  -0.07559864
 -0.45547834 -0.15583149 -0.01757462  0.18550415 -0.36710873 -0.20924616
  0.33906415 -0.28936926  0.3210656  -0.3936861 ]
[-0.49624062  0.6339983   0.05991356  0.4535609  -0.16198157  0.51641864
  0.37385064  0.32593563 -0.25035796 -0.392225   -0.20486052  0.30142006
 -0.24337527  0.17890015  0.3634269  -0.11974452  0.21416038 -0.11377981
 -0.2703073   0.21456793 -0.10013264 -0.46054366 -0.38214216 -0.64873236
 -0.03350005 -0.8667589  -0.3799478   0.43273622  0.24139826 -0.43585896
 -0.591667   -0.0944138  -0.12135201  0.39817595 -0.26520973 -0.31556964
  0.09011833  0.25250244 -0.3096541  -0.29434815]
[ 3.71427357e-01  1.91426679e-01  3.70982289e-01  8.48169997e-02
 -4.40893173e-01  1.60975736e-02 -2.72560656e-01  6.19240222e-04
 -1.64507329e-01  4.20659959e-01  8.53177726e-01 -2.37615868e-01
 -2.31981575e-01 -7.80223191e-01  8.10824931e-02 -2.65294075e-01
  1.21583425e-01 -9.58708376e-02  2.41217718e-01  1.23113587e-01
  3.56289268e-01  4.10965174e-01  1.20581701e-01  1.45819083e-01
  1.48994341e-01  3.03485334e-01  2.09151670e-01 -2.42760107e-02
  3.88595581e-01 -2.09116533e-01 -6.69825748e-02 -6.85829461e-01
 -2.97034532e-01 -3.47540021e-01 -7.41114691e-02  3.69941980e-01
 -3.58881027e-01 -5.33098161e-01  6.47163510e-01  4.00622696e-01]
[-3.19008291e-01  2.66543701e-02  2.74867862e-01 -7.12363049e-02
  2.37551928e-01 -8.84456262e-02  5.22544205e-01  1.97138965e-01
 -1.34290591e-01 -2.13259175e-01 -5.67725115e-02  2.58879632e-01
 -4.45005536e-01  4.90529928e-05  1.42683610e-01  4.19297785e-01
  6.74043745e-02  1.19673416e-01  2.15311125e-01 -5.85549362e-02
 -2.84485340e-01 -2.87559241e-01 -5.06627381e-01 -3.96975279e-01
 -7.83763006e-02  1.20324507e-01 -5.09204686e-01  3.80971581e-01
 -5.28113306e-01 -1.09628132e-02  2.00942308e-01  3.86126280e-01
  3.44178937e-02  5.04479825e-01 -3.05543989e-01 -2.19815187e-02
  5.40786922e-01  3.10419381e-01 -1.51148960e-01 -1.45782039e-01]
[-0.18842256  0.04948475 -0.02732327 -0.04836088  0.05546431  0.09076753
  0.20413983 -0.017126   -0.00783862  0.00311281 -0.2372939   0.3557334
 -0.18087193  0.20862569 -0.09197352  0.13798858 -0.01383653  0.26627386
  0.0763326  -0.09470486 -0.14479953 -0.10090395 -0.4126912  -0.12200327
 -0.01603897 -0.10546417 -0.3119128   0.15974051 -0.36127913 -0.07686869
  0.09750401  0.27034023  0.04682241  0.26602322 -0.05346202  0.03913044
  0.20128974 -0.05001568 -0.16151536 -0.30770436]
layer 3 Activation
tanh
layer 4 Dense
40 20
[-0.33529845 -0.6220879   0.04208307 -0.4916667  -0.1682092   0.00242511
  0.05234074  0.33419758  0.1660091  -0.48591664  0.12089724 -0.10013708
  0.30208763  0.00436334 -0.33417782 -0.51935357  0.38832197  0.16399334
  0.49889213  0.03736669]
[-0.25808254  0.02666394 -0.2850011   0.01516777  0.2778778   0.395895
 -0.24709627 -0.22691643 -0.23113836  0.31258103 -0.22707824 -0.13811241
  0.16238534  0.3825097   0.19740017  0.03519215  0.24470598  0.29770967
  0.15211047  0.3795682 ]
[ 0.17890505  0.04037688  0.24814683 -0.19531092  0.0421412  -0.02299817
  0.13943243  0.10046164 -0.23588316  0.16355209  0.26535663  0.0717319
  0.03374675 -0.293759   -0.27772424 -0.04972437  0.08340257 -0.12838891
 -0.17348951  0.15436421]
[-0.14891635 -0.18103781 -0.16199993 -0.0080783   0.23441386 -0.09911641
  0.09227876 -0.1128156  -0.4763317  -0.20933445 -0.09389951  0.4345366
  0.06334336 -0.14854686  0.15156078  0.16117436 -0.11912343 -0.26066038
  0.38292977  0.1986699 ]
[ 0.4206059   0.28294015  0.25155073  0.4455421  -0.04934545 -0.05915516
  0.11802622 -0.40650505  0.4773767   0.23887731  0.34308398 -0.3162098
  0.02177378  0.15319368 -0.03735184  0.22596064 -0.4553491  -0.02017507
 -0.34569755 -0.27800032]
[ 0.07457223  0.16206087 -0.40367493  0.09731352 -0.20848075 -0.15995753
 -0.17081466 -0.27798402  0.02030688  0.1434165  -0.01058442  0.25741562
 -0.3263782   0.28918126  0.4370883   0.57895726 -0.26227582 -0.09073292
 -0.1368354   0.26734442]
[ 0.07706758  0.6690323  -0.06841037  0.05517019  0.18350786 -0.256338
 -0.25356516 -0.4626048  -0.51250076  0.04475668 -0.00564847 -0.01387745
 -0.02431666  0.42674166  0.1672835   0.4272531  -0.12541334  0.10927264
 -0.49754748  0.21788645]
[ 0.21277578 -0.5128646  -0.20605335  0.30560797 -0.29801315 -0.4475477
 -0.17934409 -0.05111173  0.05591942 -0.41511652  0.150649    0.06506878
  0.33461058 -0.05441797 -0.2361709   0.02582798 -0.43574485 -0.33642444
 -0.3123537  -0.3322205 ]
[-0.50857264  0.24852344 -0.5633372  -0.30263317  0.3417446   0.25309023
 -0.17366208 -0.07863741  0.2712088   0.1412038  -0.22016403  0.3742936
 -0.02543611 -0.05040765  0.05011667  0.06206713  0.04580691  0.0559114
  0.12395203  0.02434868]
[ 0.2935279  -0.10595328 -0.12826386  0.10837145 -0.2607584   0.02380608
  0.13348985  0.2056995   0.05236892 -0.28689054  0.26640567 -0.09414923
  0.1032643  -0.07451715 -0.31975493 -0.249677    0.14314196  0.3676569
  0.07857841 -0.24755004]
[-0.2006223  -0.01749546 -0.00837969 -0.32874224  0.10349259  0.35214165
 -0.29310828  0.36818418 -0.1805909   0.08123401  0.2713221   0.4352554
 -0.16819663  0.14700082 -0.37648943 -0.51441914  0.3998803   0.2106578
  0.6306665   0.29372373]
[ 0.46838197  0.21562018  0.08993642  0.41567853 -0.3093085  -0.35736683
 -0.04542964 -0.35217595  0.3777951   0.45287913  0.25998634 -0.3557965
  0.27277252  0.46139917  0.08846981  0.3408833  -0.29587036 -0.21092781
 -0.64006     0.28618613]
[-0.23935948 -0.40492764  0.08388804  0.36347735 -0.118545   -0.46705487
  0.10787553  0.56677073  0.29190886 -0.6827433  -0.04105736  0.4604498
 -0.08725727 -0.11379307  0.06154944 -0.1746553  -0.5840053  -0.2104623
 -0.18815108 -0.5145685 ]
[ 0.05793198  0.43259388  0.0495558  -0.28363565  0.23689751  0.16511086
 -0.05062376 -0.4030897   0.5804211  -0.10740765 -0.54978347  0.19018519
 -0.12951632  0.02181491  0.36825985  0.04774759 -0.3252422   0.20239003
  0.19000886 -0.1347323 ]
[ 0.2738839  -0.3038434  -0.00132923  0.34722453  0.5408488  -0.36352697
  0.28075057  0.10581993  0.24550621 -0.27508074  0.29658222 -0.39534608
  0.15099753  0.23739548  0.10298939 -0.42288515 -0.40394464 -0.10182271
 -0.51044685  0.2469805 ]
[ 0.40011865  0.30834523  0.06410349  0.06813295  0.16077255  0.22056529
  0.10058179 -0.4486031   0.47600973  0.31709263 -0.34336585  0.06122025
 -0.06909138  0.11260276  0.09469994 -0.06977783 -0.03434289  0.38730574
 -0.33841625  0.20416829]
[-0.02859841 -0.24894188  0.17603783  0.15504086 -0.42726412 -0.19988997
 -0.24688119  0.38886768  0.11355926 -0.01447581  0.15242817  0.148535
  0.22960073 -0.5944361   0.28910565 -0.0672299  -0.06794899 -0.02363833
 -0.22362182  0.18263218]
[ 0.31848052  0.1857725   0.00322763  0.27567983 -0.09956797 -0.23862809
  0.3131565  -0.2722323   0.32091758 -0.1426113  -0.35844803 -0.25694618
  0.24105904  0.40964404  0.16314316  0.2388838  -0.2355753  -0.22788616
  0.05057077  0.12685087]
[-0.09473243 -0.00756946  0.37132606  0.0962241  -0.00425949  0.38831338
  0.05219243  0.07639424 -0.2931126  -0.26431343  0.02796165 -0.16427803
  0.37672248  0.17905775 -0.32277602 -0.37569726 -0.10426972  0.19579402
 -0.42113054  0.1978662 ]
[ 0.11418723 -0.02157233 -0.41890207  0.03286575  0.2807661  -0.5166566
 -0.36681116  0.10185029  0.16949011  0.21199656 -0.29851592 -0.13226826
  0.05382276 -0.11040851  0.32296616  0.02574957  0.16644247  0.13302688
  0.30238196 -0.091346  ]
[-0.22763602 -0.11412162 -0.06403321 -0.2697875   0.2275707   0.07784478
 -0.20569834 -0.01720855  0.27238783 -0.12147941 -0.3572876   0.5773119
 -0.04165388  0.13518198 -0.18303049  0.0012092   0.39826122  0.34194842
  0.0843899  -0.2526537 ]
[ 0.04526732 -0.1812134   0.08333489 -0.4098012  -0.11424351  0.3065543
  0.33417505  0.28172827 -0.155389   -0.5848325  -0.17024158 -0.05728769
  0.07214667 -0.13044174 -0.11061379 -0.4838973   0.4224177   0.07469143
 -0.26253858 -0.17592087]
[-0.3218539  -0.4820977   0.06296992  0.01810181 -0.06312209 -0.39174673
  0.00673332  0.32712922  0.21222976 -0.43456972  0.2137991   0.34786615
 -0.01694084 -0.3526531  -0.08180121 -0.2086701  -0.13658896 -0.12765099
  0.14895469 -0.60256046]
[-0.21552289  0.23971477  0.1297338  -0.19324377  0.2821777   0.12603179
  0.10692891 -0.29034498 -0.05232007  0.5543916  -0.11004119  0.17471457
 -0.5492337   0.09321957  0.19619063  0.05852112  0.12758563  0.4092818
  0.2629785   0.08084637]
[-0.20484973 -0.0051945   0.18157887 -0.05543942  0.03060154  0.06979706
  0.11657689  0.07601667  0.12900124 -0.09905861  0.16104598  0.24140194
 -0.0942032  -0.3146874  -0.16313101 -0.00731093 -0.06380684  0.01349513
 -0.08054172  0.0980723 ]
[ 0.07879784 -0.07997946  0.63869894 -0.63570386 -0.2533922   0.37942562
  0.2195876   0.2959502  -0.15263991 -0.68136454  0.28129056 -0.37871075
  0.2821841  -0.13796966 -0.498981   -0.6158294   0.18674819  0.297877
  0.00558996 -0.3431498 ]
[-0.15666884 -0.43437737  0.03818495  0.09937226 -0.24740753  0.04570795
  0.08357061  0.24960145 -0.22319567 -0.35848126  0.48484272  0.21595162
 -0.06529062 -0.5249328  -0.18174034 -0.2940133  -0.09219933 -0.2615239
  0.04416599  0.13914886]
[ 0.31732044  0.42508802  0.11411542 -0.14657004  0.17270583  0.2977338
 -0.2833193  -0.30272168 -0.2298935   0.29381216 -0.03496402 -0.65716296
  0.03603165  0.25394484  0.28751266  0.20313434 -0.13825531 -0.06960525
 -0.17260349  0.4720393 ]
[-0.4463762  -0.5429037  -0.46353865 -0.06961321  0.40338752  0.01399051
  0.10698326  0.10611015 -0.40135175 -0.477641   -0.12653276  0.05604272
 -0.14497423  0.16525766  0.20130865  0.1813143   0.19709371  0.13857387
  0.25521702 -0.18333353]
[ 2.36024216e-01 -5.79599850e-02  1.66730061e-01  2.77341992e-01
  1.65342093e-01  3.21904123e-02  2.25772679e-01  1.45695787e-02
 -4.19600448e-03 -1.83135795e-04 -2.44893916e-02  2.58067042e-01
  3.56506594e-02 -4.10807580e-02 -3.67870294e-02  3.55179340e-01
 -1.20257184e-01  4.03198957e-01 -3.28940563e-02 -1.12416662e-01]
[-0.03895551 -0.1432364   0.37545493 -0.05873982 -0.3570125  -0.2415675
  0.43969887  0.30550107  0.41659647 -0.14552446 -0.13559045 -0.15071443
 -0.30097365 -0.62250996 -0.1653709  -0.22223727 -0.2648704  -0.19235994
  0.0441909  -0.17226541]
[ 0.3642914   0.29463378 -0.03318259  0.40133327 -0.30674553 -0.14664745
  0.30755627  0.18965383  0.21258906 -0.21317409 -0.62170297 -0.19746388
  0.33626807  0.01468644  0.45043832  0.18017562 -0.2990957  -0.05830049
 -0.07890584 -0.16742858]
[ 0.42913383 -0.2837086  -0.316205    0.38888463 -0.2939843  -0.23640747
 -0.20365654 -0.05489953  0.28016055 -0.061936    0.2819832  -0.13620958
 -0.13629825 -0.19606796  0.12490248 -0.08284947 -0.272243   -0.11077298
 -0.45376515 -0.37146395]
[ 0.45434597 -0.05913074 -0.19615534  0.20686606 -0.38244325 -0.34975395
 -0.06283206 -0.24151446  0.12499335  0.48082417  0.2255862  -0.34632385
  0.35578817 -0.06506439  0.30749118 -0.06907884 -0.2676227  -0.16508828
 -0.08686061  0.1076004 ]
[-0.31132847 -0.07539708  0.1592052  -0.12952931  0.08230434 -0.08973907
  0.05623204 -0.27284297 -0.23892981 -0.05805133 -0.1405489   0.31444925
  0.1413906   0.27634743  0.08782772  0.2999967  -0.34451586  0.23153141
 -0.12683846 -0.25711924]
[-0.06195736 -0.07238911 -0.13377391  0.114184   -0.25910568 -0.3291987
 -0.03818995 -0.10946678  0.19151011 -0.6752639  -0.1241312   0.2422952
 -0.33502123  0.27547988 -0.34398675  0.01898664 -0.00475702  0.08659574
  0.07632428 -0.25926396]
[ 0.24830793  0.53497183  0.26558888 -0.03216577 -0.19707705  0.36483628
  0.19066022 -0.28941622  0.11294916  0.57000893  0.06730814  0.24988833
  0.22550988  0.33575702  0.09444594  0.35012448 -0.13346408 -0.12987642
 -0.04450763 -0.13478813]
[ 0.50283104 -0.23283006 -0.24771011  0.47098833 -0.29226986 -0.08954139
 -0.0414405  -0.01339999  0.07520473  0.27357647 -0.0630096  -0.04268873
 -0.17042348 -0.10788481  0.33678725 -0.0387439  -0.42487332 -0.1865461
 -0.56972986 -0.3150697 ]
[ 0.232719   -0.40272173  0.37289834 -0.21027353  0.02477901  0.39408588
  0.02257892  0.33235604 -0.13829665 -0.12907761  0.3806398  -0.4312656
  0.25006506 -0.3635906  -0.19880687 -0.30304787  0.2898917  -0.06387278
 -0.00097084  0.04196679]
[-0.58479035 -0.07014941  0.12008905 -0.15997186 -0.20938958  0.06576554
 -0.34251004  0.39410713 -0.01767454 -0.05511627  0.08026329  0.24977572
  0.03746578 -0.09426473  0.18487388 -0.05308207  0.11434516 -0.19863927
  0.52024454 -0.37710413]
[ 0.11469265  0.28349715  0.13584743  0.13646102 -0.08116581 -0.06422192
  0.03450916 -0.15419444  0.13581356  0.25204217  0.00136816 -0.07742844
  0.13724461  0.15728517 -0.08611245 -0.00441569 -0.12662336 -0.05864217
 -0.17031887  0.14441839]
layer 5 Activation
tanh
layer 6 Dense
20 1
[1.3934723]
[-1.5307676]
[1.482225]
[1.3741254]
[-0.266157]
[-1.4840131]
[1.9507003]
[1.5958064]
[1.568054]
[-1.2165828]
[1.4493341]
[-1.5547659]
[1.2021128]
[-0.7312097]
[-1.4625869]
[-1.4499668]
[-1.558753]
[-1.6711301]
[-1.3089585]
[-1.4462459]
[0.878955]
