layers 7
layer 0 Dense
20 20
[-0.48687434 -0.21726389 -0.9031557   0.47199944 -0.57878774  1.0278426
  0.01988493  0.90656126 -0.31391808 -0.17742747 -0.15667026 -0.2568917
 -0.5800301  -0.09438524 -0.37037888 -0.4168346   0.3038472   0.61841464
  0.42195916  0.337185  ]
[-0.4740935   0.1404865  -0.18911459  0.28562924 -0.42259046 -0.07424206
  0.9156657   0.2857832   0.20652062 -0.7856016  -0.55349743 -0.41653252
  0.21496706  0.07229739  0.2667976  -0.33218035  0.5742671   0.04057479
 -0.38269126 -0.40551013]
[-0.31908187 -0.3074663  -0.04115269  0.3532497  -1.0544894   0.1209337
  0.91821384  0.6273649   0.04338714 -0.6929395  -0.7697426  -0.01627292
  0.3099688  -0.44243854  0.10546935 -0.6665386   0.17505664  0.0168424
 -0.37881953 -0.5494927 ]
[-0.5301737  -0.59673476 -0.9965622   0.6541181  -0.5385034   0.45762616
  0.48864076  1.0648929  -0.5172303  -0.38704124 -0.834825   -0.49435344
 -0.0027503  -0.49796426 -0.17909765 -1.0039688  -0.03781168  0.57817405
  0.3613495   0.0839977 ]
[ 0.26135767 -0.4466046  -0.56370467  0.64471656 -0.23655201  0.02538802
 -0.48994723 -0.39753628  0.614594    0.37119418  0.4683027  -0.91200465
  0.18053009 -0.6138276   0.10627773  0.4413042   0.7010408  -0.26382223
  0.6694467  -0.44495752]
[-0.28261763 -0.4364229  -0.61320543  0.65166754 -0.46216568 -0.13383478
  1.0744376   0.57079417 -0.1660535  -0.15195349 -0.6657128  -0.3918947
  0.12296264  0.12921837  0.10024957 -0.4905662   0.2106407   0.0726098
 -0.5092929  -0.2281583 ]
[-0.5032005   0.06376452 -0.49408418  0.58645433 -0.39576575  0.16129826
  0.7683712   0.15993084  0.13978891 -0.3418873  -1.0731996  -0.41827112
  0.24286887 -0.2087245   0.20780815 -0.41665083  0.5384189   0.23231918
 -0.34513468 -0.60725045]
[ 0.44136614  1.1216065   1.2336594  -0.79259044  2.240988    0.23408738
 -1.2035513  -1.116481   -0.02722641  0.61635756  1.228148    0.12142075
 -0.4057033   1.1918645   0.16899672  0.7053593  -0.76059544 -0.21114866
  0.13349631  0.52327657]
[ 1.554375   -1.0703348  -0.5794014   0.07616725 -0.4635086  -1.1102343
  0.05589958 -0.22261296  1.0183179  -1.3624997  -1.302805   -1.4880946
 -1.6410055  -0.24208407 -1.3678493  -1.9095371   0.62871534 -0.5565948
  0.63807654 -0.5096585 ]
[ 1.128194   -1.6174649   0.2503117  -0.9771155   0.06039046 -0.05283758
 -0.13175808 -0.12979427 -1.8050822  -0.85442317 -0.66681844 -1.0770499
  1.2580806   0.15500368 -1.6067985   0.09092892  0.04549829 -0.25286177
 -0.00336897  3.018168  ]
[ 1.6532587  -0.8213574  -1.4070076   0.19351035 -1.4868402  -0.6544091
  2.619967   -0.2672812  -0.836159    1.9957207  -0.31963253 -0.1637136
 -0.6707609   1.4781375   1.1311427   0.19074668 -0.65174043 -0.30783615
  0.69325423 -0.3719613 ]
[ 0.02675328 -2.3465538  -1.5742074  -0.7587279  -0.56503963  1.3826281
  0.09183312  1.1096516   0.35109678 -1.9509043  -1.9329457  -1.2068808
 -1.565679   -0.5306038   0.6620247  -2.723423    2.8715217   0.4886512
  0.58488846 -1.5237705 ]
[-0.30459782  0.24442227  0.32998645 -0.8818336   0.8302158   0.37772393
 -0.65508693 -0.787681    0.23080128  0.24831879  0.61100197 -0.6163615
 -0.43103468  0.6340437  -0.36509448  0.21863882  1.021462    0.07007459
  1.4497515   0.8839742 ]
[-0.07698747  1.1557024   0.73162794  0.30758882  0.66395795  0.26912957
  0.98031086 -0.58226866  3.6106267   0.39394116 -0.09518249 -1.1221079
  0.3221961  -0.40807495  0.17278843 -0.12255473 -0.23471877  2.2162054
  1.139642   -0.56896937]
[-0.90447825  0.71919227  1.1197797  -0.2198705   0.7070699  -0.05764925
 -0.6329789   0.18431322  1.0208087   0.21353754  0.8369944   0.47521913
 -1.1717163  -0.38345113  0.9328515   0.08466896  0.30909204 -0.20596927
 -0.53594977 -0.72602266]
[-1.0261408   0.91042674  0.19551073 -2.2887108   1.2448955   3.350182
 -0.9091618   0.32712504 -0.0832898   1.3149585   0.0563002  -0.22031757
  0.6328351   1.2527586   0.43293187  1.0188284   0.4693405   0.95027405
  1.4636598   1.0540031 ]
[-0.14911361 -0.21910839 -1.3389537   1.9452028  -0.94328785  1.5412726
 -0.8476536  -0.1466789  -1.3479197   1.3584999   1.2708775  -0.18620098
  0.89546937 -1.5986085   0.89808935  0.1433359  -2.626022    0.47217116
  1.8074268   1.0857369 ]
[-0.9399284   0.5625096  -0.20775254 -0.26366568 -0.66554457 -0.45587537
 -0.5185668  -0.30369753 -1.4398504   0.34025103  0.2259027   1.420867
 -0.89616644  0.3010715   0.7422128   0.17404693 -0.26482102 -1.6166599
 -1.437327   -1.0212526 ]
[-0.5376101   0.4157261  -0.6875989   0.21924913  0.0480272   0.21258388
 -1.5513488  -0.25519577 -0.78924584 -1.5071237  -0.6268218  -0.53735274
  2.0235736   0.16106054 -2.2450366   0.4437747   0.52668506  1.1972497
 -0.01828299  0.3850549 ]
[ 2.1724236e-01  8.1729388e-01 -2.7973044e-01  2.3018920e+00
  4.6410584e-01 -1.4152081e+00 -3.1567103e-01 -8.6764854e-01
 -8.3759511e-01 -8.2868807e-02  3.3600584e-01  1.9454521e-01
 -4.4932160e-01 -7.2196096e-01 -1.0467795e+00 -6.2131029e-01
 -2.7931511e+00 -2.4244696e-01  1.2623964e-04  7.7149957e-01]
[-0.3219025  -0.25469983 -0.49885216  0.41507563 -0.8351074  -0.03631506
  0.9722759   0.6479668  -0.18445489 -0.48579744 -1.0792692  -0.08771261
  0.17010994 -0.2665175  -0.01420775 -0.5223278   0.36276937  0.26756316
 -0.59863967 -0.6480859 ]
layer 1 Activation
tanh
layer 2 Dense
20 40
[ 1.5929387  -0.8486874   0.1412547   0.22518595  0.05755336 -0.22714946
 -0.6257231   0.4238436  -0.7770813  -0.5858022  -1.141298   -0.4272273
  0.5168208  -1.0839761  -0.24943833  0.94789714  0.05309407  0.07670983
 -0.29167634 -0.10551045 -0.08141853 -0.12362833  0.22668235  0.7758636
  0.71211815  0.17795715  0.6572705   0.00952505  0.35641682 -0.01927432
 -0.75064796 -0.465607   -0.75817657 -0.7465145  -0.1332472  -0.44664434
 -0.45392707  0.40693292  0.22366942 -0.24838676]
[-3.9499804e-01  1.3825572e-01 -4.3730226e-01  1.1184324e+00
 -4.0229939e-02 -1.1591752e+00 -2.7763170e-01 -5.5447686e-01
 -2.7268478e-01 -2.5651005e-01 -3.9365489e-02  4.0020856e-01
  1.3369557e-01  3.2624775e-01 -1.2790233e+00  1.1242046e-01
 -1.0972339e+00 -1.2331522e+00  5.5938548e-01  4.2449212e-01
 -1.3269234e+00  2.5877899e-01  2.4696919e-01  3.1291014e-01
  7.7570289e-01  6.7315882e-01 -4.1939351e-01 -5.5142379e-01
  3.6518413e-01  9.6507984e-01 -1.1194144e-01 -6.6828114e-01
 -1.4745342e+00 -2.6965034e-01  6.8595976e-02  2.4284832e-01
 -1.1718580e+00  7.2987974e-01  5.3586644e-01 -1.2354589e-03]
[-0.5803092  -0.12994018 -0.91678727  0.4505828  -0.4805931  -0.20387055
 -0.54224306  0.8889292  -0.2645987  -1.0607724  -0.47796065 -1.1152498
  0.32884854 -0.02911434  0.25581354  0.18837485  2.0596633   1.4634267
  0.37960637  1.2142733  -1.166638    0.969905    1.5555862   0.158136
 -0.2068638   1.2208705  -1.0453916  -1.6844833   0.47976458 -0.93083483
 -0.30992118 -0.8061669  -0.39801824 -0.8906342  -0.2537502  -0.69575775
 -1.3263519   0.5024444   0.3628219  -0.25393602]
[ 1.9019425   0.17670213 -0.8017394   0.5695484  -0.94131005 -0.5080645
 -0.13253345 -0.34453303 -0.13268186 -0.00987319 -0.05932041 -0.1107394
 -0.84255975 -0.3070766   1.6633016  -0.20457241  1.7389487  -1.0468621
  0.8786094   0.26683784  1.7477441  -1.1748163  -0.55852604  0.5866066
  0.76194364  0.771919   -2.1751359   1.2669251  -0.19366848 -0.63756245
 -0.04903726 -0.63676256 -0.46333617  0.40237096 -0.47146624 -0.86794597
 -1.4361587  -0.10446816  0.68074495  0.6657165 ]
[-0.70178384 -0.15820423 -0.24611947  0.8829863   0.30454725 -0.552083
 -0.36700523 -0.225882   -0.88165647 -1.1992198   0.36115992 -0.23200919
  0.26984048 -0.28235963  0.03300452  0.2513055   0.75339967  0.05647679
  0.05214777  0.89604473 -1.2638371   0.823283    1.2805976   0.3061221
  0.44791085  0.11448693 -0.94160706 -1.2128118   0.90821975 -0.6352332
 -0.26502678 -0.87552685 -0.43803558 -0.22586529  0.48608145 -0.5287671
 -0.20968223  1.3512418   0.11875998  0.08809893]
[-1.4030007   0.6237702   0.00804994 -0.37674797 -1.4951324   0.51741785
 -0.21639477 -0.17185634  0.6679852   0.41512752  0.912841    0.7500163
 -0.20754705  1.7997588  -0.65781814 -0.2818086   0.44016674 -0.88564354
 -0.34533468 -0.93153745 -0.5332321  -0.23981363  0.8990126  -0.40489942
 -0.10966015 -0.16410536 -1.3695124  -0.37927812 -0.06613872  0.44441938
  0.41128197  0.56733215  0.40453056  0.5745133   0.27450493  0.7362892
  1.0474433   0.04987371 -0.25492495  0.0571011 ]
[ 0.14345749 -0.00555182 -1.3162779   0.3254086  -1.5180556  -0.22847764
 -0.92062396  0.6444664   0.5726985   0.26530498 -0.54197824  0.05075201
  0.94638234  0.7890643   1.15624    -0.18923907 -0.33658007  0.37377384
  0.52784294 -0.17109129 -0.7012646  -0.8417342   0.21249047 -0.77668273
 -1.2049935  -0.60667205 -0.8735721  -0.10298828 -0.560035    1.6692996
 -0.02763074 -0.04555307  1.4408852   0.15380383 -0.37400848 -0.7160412
  0.78132915 -0.5420623  -0.34343925 -0.04548214]
[-0.84656215  0.91456956  0.15966941 -0.74650013 -0.13669074  1.2893419
 -0.03513407 -0.44643223  1.1655868   1.0270214   0.20250466  0.6836642
  0.20157216 -0.3359724   0.00246963 -1.2986882  -0.17821018 -0.5327299
  0.10608637  0.01548282  0.0693661   0.0538404  -0.43697396 -1.0915931
 -0.5989993   0.45311758  0.19586183  0.32322335 -0.37986502 -0.25984862
  1.2575723   0.76695824  0.79289514  0.5807876   0.31103742  1.1049224
  0.6577896  -0.89805186 -1.2123584  -0.12351494]
[-1.0705987  -0.18863313 -1.8095222   0.82392246 -0.50700897  0.45150045
 -0.5083347  -0.41634455  1.0262356   0.60332227 -1.7511584   0.85501224
 -0.34692574  0.6418293   1.566929    0.2389803  -0.06955317 -0.9445337
 -0.6031733  -0.06810947 -0.76949894 -0.49754575 -1.135882   -1.044218
 -0.5066884  -0.06720293 -0.28652412  0.0525766   2.875396    0.7972069
  0.17005903  0.17255734  0.8267403  -0.62094826 -0.41037285  0.3576257
 -0.28110555 -1.600792   -0.29998136 -0.93840945]
[-0.53556764  0.16267642 -0.5924267   0.8137839  -0.20465115 -1.2046357
 -1.0286734   0.35081553 -1.3965871  -1.05647    -1.0449626  -1.0201654
  0.26029825 -0.7340521   0.00980123 -0.1927947  -1.2010301   0.22562353
  0.12438066  0.46891853  1.0041038   0.5086265  -0.807176    1.10409
  1.0428644  -1.7947483  -0.5847959  -0.40253744 -1.7393332   0.9169553
 -0.27803573 -1.0043985   0.2166513  -0.81349695 -0.41488612 -1.7542759
 -0.2403861   1.1580396   0.8806026  -0.6339124 ]
[ 0.19914606 -0.7625364   0.16969398  1.1905005   0.52137035 -0.9913936
  0.24008025 -0.59697783 -1.2106279  -0.13075943  0.24565203  0.0752528
 -0.8027175   0.20063221 -0.16988426  0.39887536 -0.7465895  -0.15461388
 -0.7590488   0.48693323  0.5738397   1.0220813   0.5264077   1.1177633
  1.0575114   0.28992808  0.12904112 -0.71484405  0.10320366  0.18241858
 -0.28732342 -0.7926241  -0.28632435 -0.3194372  -0.82067686 -0.21193635
 -0.6634654   0.92864305  0.7481395   0.29923174]
[-0.48225495  0.21560566 -0.19832735  0.36655194  0.13421941  0.33373904
  1.1582258   0.4058545   0.6804969   0.5440543   1.1285759  -0.39918694
 -0.7701042   0.8276615  -0.20715725 -0.05225833 -0.581783    0.79260784
  0.88223994  0.77318233 -0.17588179  1.0195334   1.0690176  -0.0944413
  0.53681844  0.1894792  -0.21216942 -0.15960427 -1.1666077  -0.30605605
  0.11496615  0.13368864  0.2980879   0.80669427 -0.6909406  -0.14835484
 -0.25085413  0.27794358  0.04978489  0.23594755]
[ 1.0293803   0.10821816  0.08364727  0.04126853 -0.69408375 -0.99950963
 -0.56911135  1.1198925  -0.34542277 -0.85722005  1.2707486  -0.59277034
 -0.08992093  0.5669459  -0.16041349 -0.16464618  1.9766876  -0.05081628
  1.6668382  -0.5642522  -0.45776984  1.0438774  -1.4712808   0.3314856
  0.41316286 -0.43579587 -0.1742858   1.9558234   0.05048403 -0.9752002
  0.21234323 -1.2269058  -0.72201043 -0.5706704  -0.7316302  -1.5173492
 -0.8127633   0.9866616   1.1994306   0.22332561]
[ 0.13585086 -0.28337672 -0.312505    0.08629821  1.2984301  -0.43766835
  0.5161104   1.3492132  -0.43641993  0.08087699  0.06736685 -1.0477754
  0.645059    1.0588733  -0.251493    0.16655467 -1.094553   -0.0048468
  0.03666507 -0.12158687 -0.7270257  -0.22545922  0.7545557   0.06044168
  0.04474341 -0.6714529   0.42643198 -0.8720114  -0.35428807  0.25084367
  0.05059052 -0.27748576  0.91142166  0.27115092 -0.01751974 -0.24146211
  0.95823425  0.11040385  0.906933   -0.9781052 ]
[-1.8433584   0.37858805  0.5673459  -0.19300832 -0.75464004  0.8376015
  0.17365283 -0.08185579 -0.85982513 -0.18761003 -1.4794732  -0.87019944
 -0.1672567   0.18027316 -0.5483539  -0.18296441 -0.6598054   1.1945863
 -0.57426554 -0.0645934   0.06212541  0.8104327  -0.21509564  0.7458969
  0.65395796 -0.21558094 -0.86527234 -1.0889945  -0.5753573   0.31817675
  0.3413966  -0.66179985 -0.3047761  -0.16250916 -0.6140799   0.45431262
  0.08816731  0.23983835  0.60182035  0.1774972 ]
[-7.30124712e-01 -4.38199490e-01  7.37358853e-02  1.33018279e+00
  2.32431158e-01 -6.99820817e-01  1.07497193e-01  5.69981754e-01
 -1.11665106e+00 -3.97740781e-01  1.15674162e+00 -3.83686334e-01
 -1.21830165e+00  3.05128932e-01 -1.14806867e+00  3.59844387e-01
 -4.47692961e-01 -8.86206329e-03 -7.13247433e-02  1.79202691e-01
 -9.96465027e-01  5.44167101e-01  3.88396710e-01  6.43982112e-01
  7.10204124e-01 -2.99903929e-01  1.00238614e-01 -6.54412091e-01
 -1.06025195e+00 -2.57893978e-03 -4.48593885e-01 -8.96582901e-01
  9.25517466e-04 -4.04329062e-01 -9.03861940e-01 -4.78210270e-01
  1.14784546e-01  4.23447698e-01  7.86460161e-01 -1.84883520e-01]
[ 0.6985628   0.14321296  0.35814202  0.24176115 -0.59304804 -0.00767654
 -0.45737335 -0.567134   -0.0858216   0.7344061  -0.5871785   0.5290351
  0.8298121  -1.3290826   0.25331935 -0.49715298 -0.4721418   0.4247312
  0.3828545   1.003431   -0.61703557  1.4199934   1.0761814   0.2624948
 -0.46505135  0.7123544   1.6911776   0.16314724  2.0507746   0.14285503
  0.08891424  0.0236075   1.477793    1.2989827   1.1567359   0.46532097
  1.7270739  -0.23845862  0.26296803  0.12162616]
[ 0.0510767   0.3910244  -0.11317194  0.4663819  -1.2859243   0.1036946
 -0.61910546 -1.187008    0.40577745  0.11469991 -0.21704866  0.8371022
  1.1082659   0.55340695 -0.59625447 -0.29259616  0.43369016 -1.5504639
  0.15852769 -1.1342331  -0.19119519 -0.0809795  -0.33415163 -0.27170712
 -0.04751782 -1.6093333  -1.327679    0.19494395  0.82131404  0.30415836
 -0.06514567  0.28223357  0.02919477  0.06554694  0.7961427   0.07184835
 -0.14391485 -0.44987038 -0.3634536  -0.5809348 ]
[-0.50252855  0.04655292  0.2553216   1.2867556  -1.4057978  -0.6419743
 -1.9928417  -0.09437049 -1.5447264  -0.85550207  0.44321504  0.30561793
  0.06501558 -0.5775563  -0.8537084   0.133056    0.8468315  -1.0461786
 -0.5879456  -0.6050035   0.10943928 -0.3109693  -0.08026947  1.0582615
  1.1137135  -1.1232432  -1.6683928   0.68605775  0.8750057   1.3364601
 -0.1143103  -1.2850372   0.60959476  0.35077474  0.79176986 -0.83031064
  1.1395851   0.38063008  0.17928219  0.24483287]
[-0.9515144  -0.03201941  2.0455313  -0.2565899  -0.02362688 -0.2854794
 -0.89695424  0.94361776 -1.2548298  -0.50163156 -0.47768265 -0.6721896
  0.63977826  0.55624896  0.22858445 -0.02033955  1.285286    0.07751981
  0.4450273  -0.770553    1.5194318   0.18254313  0.5808534   0.56722593
  0.2692624  -0.06612032 -0.91962117 -0.0107084   0.15152104 -1.1519146
  0.01052908 -0.80066234 -0.28963816 -0.92484975  0.7482701  -1.2047048
 -1.082027    1.1052235  -0.24327937 -0.5264595 ]
[-0.47583574  1.0349168  -0.1510276  -1.0712073   0.01912905  1.1388651
  0.23515303 -0.4207266   1.0280244   0.9173466   0.10471957  0.3635225
  0.5026211  -0.25071514  0.01867935 -1.0373386  -0.4417921  -0.21715966
  0.20707098  0.12741446  0.45373765  0.11372414 -0.47709206 -1.0182947
 -0.8098038   0.6207074   0.13959247  0.19778423 -0.05527486 -0.46258578
  1.0673683   0.80320734  0.71397346  0.8362245   0.5515867   0.8325368
  0.68886137 -0.73260605 -0.96744794  0.0367613 ]
layer 3 Activation
tanh
layer 4 Dense
40 20
[ 0.61338365 -0.636289    0.14720641  0.27130643 -0.6042963   0.7748957
 -0.8607253   0.85022354  0.72291255 -0.18500191  0.47338775 -0.7097873
  0.05176171 -0.9455149  -0.3200036   0.48763633 -0.29903302  0.16971761
 -0.19669642  0.31830803]
[-0.8915757  -0.20185205  0.6802214  -0.6183327  -0.4031704  -0.9888628
 -0.37797555 -0.00660213 -0.7131072  -0.67283833 -0.05455891 -0.40756983
  0.65134925  0.9642391   0.51866895 -0.49195227  0.31424853 -0.65089804
 -0.75229716 -0.91785353]
[-0.6460645   0.04152522 -0.311517    0.37809396 -0.76018184 -0.3831577
 -0.5295597  -0.33550707  0.04673883  0.4784307   0.09751885 -1.0078956
 -0.02825028 -0.01249347 -0.5582999  -0.43794522 -0.380925    0.9007543
  0.28029037 -0.4060109 ]
[ 0.26373655  0.15440865  0.04410226 -0.2060285   0.72117484 -0.340841
 -0.5027401  -0.37561882  0.01403575  1.1980653  -0.7437249   1.1613917
 -0.1724347  -0.18958327  0.10048045  0.2159641  -0.41407743 -0.13529158
  0.05835454  0.26975256]
[ 0.9021234  -0.34124947  0.65777594 -0.70550287 -0.28871295  1.027559
 -0.31158912  0.3261956   0.6089335  -0.5874129  -0.44925523 -0.4415661
  0.90961957 -1.9576589   0.07917362  0.80990386  0.39875934 -0.01808158
 -0.6991779   0.34611785]
[-0.35230994  0.25623065  0.08676115 -0.4791038  -0.67146575 -0.28978267
 -0.11195368  0.56650585 -0.46961433 -0.95584625  0.28480768 -0.347017
  0.32879913  0.95709956  0.2528857  -0.43598294  0.9157165  -0.15057392
 -0.57140934 -0.4495189 ]
[-0.20204063  0.21675158  0.37256566 -0.25974846 -0.340753    0.05479663
 -0.3478754   0.551935    0.01134651 -0.52651995 -0.52439684 -0.46620244
 -0.21320851 -0.31104308  0.04287235  0.11072365  0.18628693 -0.4631232
  0.37438244 -0.2527949 ]
[ 0.34592366  0.2233301  -0.4323369   0.6129108   0.5932981   0.20881058
  0.34479037  0.60766214  0.06289797 -0.34358636 -0.7180964   1.4624113
 -0.61189497  0.06019549 -1.0148655  -0.06352051 -0.4161498   0.8526082
 -0.07291689 -0.26111886]
[-0.7123059  -0.22041541  0.7351477  -0.61129606 -0.25110406 -0.27982536
 -0.8889482   0.23549472 -0.2063001  -1.5119367   0.3228304  -0.5508633
  1.0674717   0.02925812  1.1695949  -0.5691663   1.2210275  -1.4257243
 -0.49032587 -0.31287318]
[-0.40457153 -0.15874441  0.5258224  -0.65471536 -0.2854699  -0.4866477
 -0.34434593  0.41519275 -0.5823272  -1.0695972   0.003534   -0.32637778
  1.0427251   0.82481265  0.72754765 -0.92508715  0.74952483 -0.3627459
 -0.5595474  -0.32186204]
[-0.9610427   0.27990365 -0.61511815 -0.01820653  1.0389615  -0.6086243
  0.05569299 -0.7375591  -0.2828142   0.23809421 -0.7645974   0.8362898
 -0.27374107  0.27553248 -0.14471519 -0.6591119  -0.43470493  0.62301195
 -0.09918267 -0.81025946]
[-0.20938297  0.6419179   0.01241953 -0.02406588 -0.5999294  -0.5273349
 -0.23341942 -0.8864639  -0.14194609  0.20966217  0.5373111  -0.6081185
  0.31266868  0.35091636  0.6304184  -0.1451681   0.01955313 -0.86576235
  0.32880172 -0.04102619]
[-1.5991557e-01 -8.3575231e-01  2.3063196e-01 -4.4227052e-01
  6.1397128e-02  1.0749338e-01  2.6357785e-01  6.2331259e-02
  1.5550922e-01  9.2749104e-02 -1.0369496e-01 -9.8688591e-01
  3.1021228e-02  1.5756097e-01  4.7674197e-01 -7.1938604e-04
  2.4468999e-01 -9.0856355e-01  5.2812654e-01 -1.3323504e-01]
[ 0.30557838  1.5847316  -0.05850252 -0.08759794  0.42963275  0.3051658
  0.28055558 -0.8848389  -0.611209    0.27089602 -0.78422827  0.33226556
 -0.2848426  -0.10869778  0.22915079  0.35025194  0.24474443  0.37208316
 -0.18123336  0.15744106]
[-0.1230915  -0.8352337   0.6258319  -0.53934413 -0.06664682 -0.04886618
 -0.27244052  0.28268996  0.39478484 -0.35150304  0.3900647  -0.1280524
  0.46867904  0.4829904   0.24874353 -0.0193323   0.47007456 -0.8755581
 -0.30100882  0.3275834 ]
[ 1.1586317  -0.00770817 -0.3722132   0.49125054  0.55915517  1.0585287
  0.62364405 -0.15152699  0.38466504  0.9495922  -0.20445706  0.71682894
 -0.6774626  -0.90410805 -0.3010598   0.5442498  -0.46256575  0.34095636
  0.93080485  0.562946  ]
[-0.11013935  0.3915668  -0.8421565   0.8904989   1.4784491  -0.65991724
  0.7217732   0.23482288  0.11751984  0.65811807  0.30495557  0.76937336
 -0.9180999   0.61995995 -0.27137876 -0.27906477 -0.9007946   0.08403185
  1.5685035   0.01514084]
[ 0.11421788  0.06481483 -0.30781293  0.51209927  0.9223453   0.53999627
  0.81534344  0.28956974 -0.1079452  -0.4750399  -0.34941483  1.0491111
 -0.61688733  0.00695736 -0.56050307  0.00170431  0.10172554  0.20313622
  0.83003694  0.32906353]
[-0.14522342 -0.5804159  -0.3348694   0.01294515  0.37791696 -0.04620464
  0.05312092  0.00654897 -0.18411541  0.1177893  -0.09718936 -0.21196596
  0.16554631 -0.05311485 -0.3008533  -0.00385073 -0.48926568  0.15333715
 -0.23336457 -0.43321425]
[ 0.4547114  -0.8229757  -0.03297066 -0.20590706 -0.00459807  0.45658487
 -0.27730978  0.5528934   0.13165864 -0.11608569  0.63632387 -0.4031372
 -0.20156088 -0.4490612  -0.03034724  0.2478761   0.59235746 -0.1810692
 -0.1197245   0.21913262]
[-0.4835596  -0.177053    0.26880395 -0.32711735 -0.44200087 -0.45191553
 -1.0914166   0.70379066  0.26607788 -0.55791813 -0.14564785 -0.7118375
  0.88097    -0.14594564 -0.01167287 -0.33978632 -0.35371062  0.40255168
 -1.3545411  -0.18584532]
[-0.42545947 -1.0366002  -0.9876197   0.9913561   0.64188206 -0.42842525
  0.9132524  -0.8958218  -0.0841068   0.5844769  -0.8177763   0.343644
 -1.0869864  -0.26123565 -0.4651647  -0.10016826 -1.0664874   0.33743432
  0.28999048 -0.40767086]
[ 0.40902993  0.15807217 -1.1792105   1.142053    0.27648842 -0.02774216
  0.64675206 -0.840392   -0.25362036  0.7202931   0.33326417  0.14870524
 -1.0794011   0.36904582 -1.223435    0.17466737 -0.72258514  0.91001594
  0.3976085  -0.0205363 ]
[ 0.26464143  0.30868948 -0.32792115  0.48454863  0.02691469  0.40970927
  0.8310194  -0.02793407  0.5104534   0.7193104  -0.33511323  0.9876723
 -0.7779677  -0.81456363 -1.0015184   0.2513759  -0.85368043  0.9946688
  0.31901127  0.21216823]
[-0.06531248  0.32041225 -0.13518551  0.09047713  0.2624724  -0.11943108
  0.5431662   0.07237247 -0.05896315  0.28509012 -0.43400955  0.3855937
 -0.7283156  -0.75823903  0.01843588  0.6439183  -0.21913478  0.68538535
  0.2726605   0.7163553 ]
[-0.62216663 -0.8348439   0.51009864 -0.04678441 -0.576792   -0.07817937
 -0.5307227  -0.30053735  0.2991743  -0.60443115  0.7641759  -0.35736695
  0.11723837 -0.00489103 -0.1876706   0.45740384  0.60764086 -0.40497902
 -0.4003316  -0.08624712]
[ 0.00621676  0.36497742  0.5604104  -0.88208437 -1.3107396   0.21836632
 -0.8288827  -0.30115452 -0.1378909  -1.3035332   0.31061643 -1.158459
  1.2717037  -0.11394636  0.30906165 -0.3984438   0.6411302  -0.90862113
 -0.7786418  -0.05705783]
[-0.09533775  0.14755587  0.5904222  -0.5192862   0.11975752 -0.13639855
  0.26746172  0.45672125 -0.07906418 -0.40834895  0.5129101   0.10490929
 -0.16886766 -0.20361349  0.5804136  -0.16667831  0.60504216 -0.3549913
 -0.10510861 -0.09065634]
[ 0.81264704 -0.2976683   0.946132   -1.1082604  -1.800705    1.024189
 -1.4686381   0.35863835  0.73878187 -0.2923652   1.3487155  -1.0159638
  1.6454183  -0.7492206   0.63074297  1.5239844   0.41198233 -0.8688334
 -1.3313301   0.7210902 ]
[ 0.9816712   0.50013083  0.25851348 -0.29535422  0.1279518   0.35570136
 -1.0694768  -0.45104703  0.18185726  0.59337634  0.5645804  -0.03352284
  0.49180916  0.24108532  0.6382285  -0.16276641 -0.21281847  0.16299559
 -0.3926194   0.6124766 ]
[-0.6480819   0.02242651  0.70063823 -0.38463333 -0.4136094  -0.83298594
 -0.48462868 -0.02729012 -0.40223432 -0.4368817   0.11948643 -0.26072177
  0.750663    0.83610123  0.58356124 -0.56180984  0.51154613 -0.26040548
 -1.0250354  -0.53076065]
[-0.99881345 -0.35556397  0.6951636  -0.71132463 -0.5597231  -0.6801916
 -0.40719342  0.3680414  -0.20670988 -1.381682    0.37857473 -0.45202407
  1.2660251   0.5474354   1.1863414  -0.5869823   1.4190769  -0.77968353
 -0.37880462 -0.64382684]
[ 0.24997559 -0.07236684  1.0151724  -0.8861655   0.13861308  0.10746199
 -0.5554308  -0.16551648 -0.07659003 -0.7515239   0.352986   -0.45155564
  0.9876391   0.65250516  0.84556913 -0.12247476  0.58269566 -1.2889212
 -0.9742296  -0.21295099]
[-1.0094523   0.11627692  0.08289947  0.01408911 -0.69084    -0.5155896
 -0.70757073  0.24095817 -0.65335506 -0.6146048   0.54775137 -0.39604142
 -0.10844263  0.9320261   0.1109597  -1.1217885   0.34327036  0.22815816
 -0.18822157 -0.5850727 ]
[-0.32638952  0.11391819  0.10275935  0.00319997 -0.08980526 -0.01197098
 -0.13405332  0.73893124  0.43279678 -0.6602447   0.62850356 -0.18607892
 -0.09145954 -0.13790065  0.33574104 -0.16779578  0.20774522 -0.67991054
  0.54199326 -0.15631871]
[-0.85850763 -0.5969743   0.96685    -1.0120978  -0.8747634  -0.1605595
 -1.085385    0.02555897 -0.10331923 -0.76361716  0.11453663 -0.526271
  0.9346646   0.36806604  0.60085195 -0.5886507   1.2221961  -0.60369664
 -0.8033716  -0.72989726]
[-0.33932352 -1.1762561   1.0326053  -1.349673   -1.4143726  -0.08523795
 -1.7056459   0.62462056  0.61886907 -0.76072     0.70464176 -0.9658687
  1.1315821   0.09874143  0.55582786 -0.14733742  0.5096759  -1.0466232
 -1.1870439  -0.46825957]
[-0.57165045 -0.09043308 -0.51225185  0.9869258   0.22710817  0.56626314
  0.48241183  0.0389304   0.23439638  0.585888   -0.3253784   0.17349644
 -0.49039066 -0.39332053 -0.66696507 -0.10817542 -0.99514264  1.0744188
  0.7321265  -0.24946667]
[ 0.4573818  -0.7983621   0.03119969  0.1820928   0.20354599  0.15992914
  0.49621993  0.03783862  0.43465757  0.42563343  0.08745797  0.31090704
 -0.52355695 -0.86429733 -0.99589527  0.9636485  -0.594514    0.22705911
  0.18743883 -0.0423751 ]
[ 0.22809611  0.2529897  -0.20624436  0.47220346 -0.4466446   0.11984196
 -0.30849266  0.20023324  0.16997002 -0.473535    0.2201344   0.5523371
 -0.42708546  0.41615182 -0.08136428 -0.32729703  0.00329406  0.3425819
  0.2154124  -0.09799612]
[-0.8192017  -0.09593917  0.4397463  -0.41726077 -0.47881186 -0.77065825
 -0.63114876  0.10386186 -0.37477884 -0.60399884  0.16942412 -0.45605296
  0.753253    0.7052086   0.26603097 -0.30514324  0.28974438 -0.22030804
 -0.72363585 -0.4758111 ]
layer 5 Activation
tanh
layer 6 Dense
20 1
[-0.9978133]
[0.1720984]
[-0.6969541]
[0.7206041]
[0.8117114]
[-1.3297725]
[0.8308769]
[-0.2122684]
[-0.6113038]
[0.46401465]
[-0.14576846]
[0.5074165]
[-0.72256124]
[1.3342782]
[-0.61793023]
[-1.2376217]
[-0.7795509]
[0.3608168]
[0.80753356]
[-1.2045797]
[1.0241574]
