layers 7
layer 0 Dense
20 20
[ 0.27256602  0.24160312 -0.09358919 -0.7377545  -0.3651973   0.20637998
 -0.12180595  0.346998    0.22348018  0.14459531 -0.33313426  0.24256343
 -0.18217927 -0.27036086  0.23828892  0.37279484  0.5592319  -0.27053466
 -0.05592191 -0.4334628 ]
[-0.67785496  0.99951655  0.34177276  0.6569067   0.15678528  0.37652147
  0.16531217  0.11425116  0.13975066  0.24760923 -0.29949242 -0.34474844
  0.1950648  -0.6614691   0.39299434  0.3748888   0.3567275  -0.31710768
  0.22488162  0.00372934]
[-0.03771008  0.6169961  -0.1865436  -0.02012977  0.72917557  0.18610975
 -0.03667834  0.19697154  0.5060175   0.5311194   0.34009826  0.01096566
  0.39396378  0.10102446  0.26159087 -0.25428402  0.6215495  -0.6604202
  0.44223866  0.63856053]
[-0.20699155  0.54301345 -0.30516672 -0.54460084  0.41710067 -0.25222212
  0.52072215 -0.08729812  0.24587187  0.02298106 -0.4424265  -0.23930433
 -0.19312498  0.19937971 -0.19284804  0.20736359  0.5310094   0.37625632
  0.20868501 -0.17967439]
[ 0.21491455 -0.06703527 -0.44833195  0.03757046 -0.13096283 -0.10220534
  0.04490796  0.07453725 -0.22247466 -0.06480114  0.3685993  -0.10154907
  0.06651816 -0.8678793   0.19498686  0.43340874  0.12674198 -0.11625116
 -0.30761304  0.09803539]
[ 0.44000733 -0.7233434  -0.61054844 -0.12695408 -0.34911263 -0.32263196
  0.16307397 -0.16499735 -0.15111727 -0.1867607  -0.23180662  0.04308755
 -0.11024246  0.27672422  0.21381095  0.06434215 -0.6368313   0.7357817
 -0.39983845 -0.51838773]
[ 0.70163286 -0.6434857  -0.19527873 -0.39551312 -0.10899037 -0.5465554
  0.09200707 -0.58400744 -0.7478493  -0.26708034 -0.08532605  0.00116571
 -0.13495733  0.12624091  0.12605889  0.19970357 -0.44262454  1.0380907
 -0.00965078 -0.7065495 ]
[-1.9312765e-01 -7.5529331e-01 -1.2721746e-01  3.1089118e-01
 -5.7155633e-01 -2.3429610e-01 -3.3122891e-01 -1.5377420e-01
 -7.4762523e-01 -2.5815454e-01 -3.1659579e-01 -7.9581968e-04
 -4.6331060e-01  3.5839415e-01 -2.6566786e-01 -8.2698697e-01
 -6.0883248e-01  2.1025562e-01  3.4814757e-01  5.7231861e-01]
[ 0.80850005 -0.08085228 -0.24989857  0.05656664 -0.5074502  -0.04390832
  0.2416381  -0.06946448 -0.16610631  0.07507107 -0.53319263 -0.15567529
  0.03613479  0.13697109 -0.4176191   0.43494678  0.4435968   0.15015495
 -0.30010998 -0.38549095]
[ 0.96756756 -0.26556966 -0.20528403 -0.72125304 -0.00805985 -0.65066004
  0.14093116 -1.3364357  -1.3785238  -0.09177952  0.84411615  0.06493038
 -1.5325478   0.3344116   0.40524638 -0.38891035  0.3293511   0.6293635
 -0.12967305  0.59860146]
[ 0.8097114   0.6415397  -0.1914799   0.7182624   0.56381565  0.77982193
 -0.00980917  0.99854153 -0.1452358   0.6673613   0.2223451  -0.07561721
  0.28178984  1.0028285   0.900556   -0.08857816  0.31776428 -0.8115167
  0.76246536 -0.11496618]
[-0.57757413 -0.7159077  -0.16488175  0.53252226 -0.73649895 -0.43713257
 -0.23337142 -0.8962164   0.00236872 -0.18703987 -0.46735418  0.15730378
 -0.9056122   0.2102283  -0.54511845  0.42265874 -0.67114115  0.30881625
  0.34449887 -0.32083693]
[ 0.581412    0.02157213  0.24630634 -0.23967771  0.23940156  0.06343815
  0.30649588 -0.04228662  0.28642437  0.5185286   0.53793114 -0.13239162
  0.12387109 -0.5954887  -0.5569691   0.01514873 -0.05848973 -0.75333494
 -0.06049466  0.03123373]
[-1.0289958  -0.00333731  0.788014    0.16953759 -0.42676193  1.7098017
  0.03670345  1.2025425   0.02089821 -0.947704   -0.54686666  0.7834101
  0.62883633 -0.5668689   0.05608018  0.44509953 -0.4323224  -0.22681837
 -0.40634406  0.37999493]
[-2.8665695e-01  7.4660414e-01  3.2568863e-01 -6.7848128e-01
 -2.9446822e-01 -5.5373269e-01 -5.5072796e-01 -1.7681554e-01
  8.5843816e-02 -7.9595935e-01 -2.7294546e-01  5.1181287e-01
 -2.0336957e-01 -2.9137143e-01 -9.9332500e-01 -7.5118005e-05
  6.0196072e-01  8.8102984e-01 -1.8198127e+00 -2.2772525e-01]
[ 1.0405067  -0.15536973  0.35091722 -1.1265601   1.2832367   0.5261638
  0.16747464  0.16660185 -0.7124438   0.34418276  0.59527457 -0.02047303
 -0.09236735 -0.16570751 -0.14223106  0.04189767 -0.0380682  -0.34918785
  0.42791358 -0.35794762]
[-0.43137947 -0.29187542 -0.28797078 -0.86182725  0.49917787  0.24691997
 -0.01424359  0.5556224   0.05778809 -0.48632348  0.3581636  -0.20531233
  0.262288    0.07984754  0.76200503  0.06417148 -0.13922724  0.47464055
  0.27602437  0.67928517]
[ 0.08437727 -0.49093366 -0.10832823 -0.4351163  -0.23895049 -0.79709196
 -0.50894856  0.01608451  0.55374813  0.14159784 -0.5409109   0.1774354
  0.36772564  0.1538446   0.4582387   0.382644    0.49850938  0.2955165
  0.4708648  -0.34206924]
[ 0.13415982 -0.93988585  0.5908898  -0.02240316 -0.12946783 -0.00127303
  0.14764905 -0.4576997   0.39244518  0.40355727 -0.0443169   0.20063712
 -0.07828428 -0.34288293 -0.32829025  0.20600471 -0.60973024 -0.31517774
  0.2646215   0.06166392]
[ 0.09276165  0.04445629  0.09705172  0.05355138 -1.0344353   0.17016123
 -0.15520674 -0.21460652 -0.05985913  0.46708995  0.27731612 -0.12207972
  0.35253096 -0.2282429  -0.6951486  -0.32675108 -0.6216893   0.11182467
 -0.21823633  0.49131557]
[-0.11649838  0.40097797 -0.07508427  0.0530323   0.16266616 -0.04313602
  0.14521801  0.01044421  0.2823533   0.04383678 -0.15570532 -0.13592653
  0.2584068   0.00693768  0.00180827  0.29264283  0.30424523 -0.05523991
  0.07306824 -0.27888918]
layer 1 Activation
tanh
layer 2 Dense
20 40
[-0.09451298  0.3235655  -0.8947811  -0.24568897 -0.10368655  0.6715008
  0.41829452 -0.7277014  -0.14936593  0.21578123  0.18597977 -0.32787988
 -0.373933    0.616917   -0.05958769  0.05770796 -0.14478897 -1.1237378
  0.07387822 -0.41520545  0.30850306 -0.18506761  0.06618928 -0.9838467
  0.14517732  0.22400585 -0.05992066  1.0997895  -0.27137852  0.68499583
  0.07542294  0.47190842  0.23146977  0.07154343  0.2696312  -0.1600368
 -0.24299282 -0.17439696 -1.1238644  -0.63576716]
[-0.0765059  -0.2085771   0.43382555 -0.60147846 -0.55598724  0.53899634
 -0.17040953 -0.4677709  -0.5322826  -0.25254795 -0.00583377 -0.2240039
  0.00466307  0.39159065  0.05560336 -0.0158729   0.2834105   0.15386173
  0.26683882 -0.38355118  0.11573512  0.05646855 -0.06113674 -0.6160766
  0.44771805  0.3594793  -0.27992377  0.09911276  0.1959787   0.42303342
  0.0409297  -0.08667295  0.21679747 -0.30807057  0.26863107 -0.31538326
 -0.6568215  -0.04403969 -0.25189856 -0.44360113]
[-0.34555468  0.03497073  0.07385235 -0.47926325 -0.0440027  -0.12864484
  0.0374076   0.18201888  0.0430763   0.15141882 -0.3072564  -0.01973025
 -0.11723992  0.14028524  0.39717507 -0.12447533  0.12202222  0.00852241
 -0.32182643  0.3726454  -0.12145463 -0.14532606 -0.34029067  0.30691808
  0.2839934  -0.08324464  0.23836516 -0.42339545 -0.00234616 -0.2933397
 -0.04151665  0.26202086  0.11898275 -0.1218865   0.12098105  0.01293607
 -0.06162941 -0.1307196   0.2719875   0.00098349]
[-0.02325331  0.5412846  -0.48896253 -0.3062369  -0.09421325  0.2545509
 -0.21498956 -0.3136457  -0.25826988 -0.30669087  0.21676792 -0.00111279
  0.03080556  0.26056442  0.30580392  0.01279054 -0.05766524 -0.17234117
 -0.32062644  0.16535476  0.56550336  0.01848614  0.16116036 -0.20797686
 -0.08530285  0.45138022  0.4532576   0.095861   -0.17403077  0.328993
 -0.04018115 -0.15318231 -0.21762964  0.20864913 -0.43632743 -0.67804986
 -0.1072844  -0.10202547  0.08686606 -0.39298037]
[ 0.07599687 -0.41197082  0.16198938  0.76091135 -0.12494516 -0.02521274
  0.03031278 -0.25075552 -0.15886235 -0.11728477 -0.13226613  0.16228099
 -0.27895543  0.05183351 -0.10335173  0.18960017 -0.23716745 -0.46848068
  0.39957073  0.30475616 -0.47366214 -0.02603468  0.16048867  0.14692265
  0.02681376  0.00158354 -0.55414706  0.4678561  -0.27698943  0.07079256
 -0.07769284 -0.29626575 -0.09456851  0.21066393 -0.30086166  0.7448666
 -0.3288655   0.02637986 -0.04728231  0.02964113]
[-1.12661384e-02 -4.29221392e-01  1.76310062e-01  6.03993356e-01
 -9.77328047e-02 -1.47391990e-01 -3.76679212e-01  3.71111967e-02
  1.15570314e-01 -2.85837919e-01 -2.95683980e-01  3.00136685e-01
  2.81863689e-01 -3.08118463e-01 -4.42773551e-01 -6.33329928e-01
 -1.22063994e-01 -4.85995114e-01  4.01351601e-02  2.53939509e-01
  1.39848098e-01 -3.19685489e-02 -1.48042664e-01 -1.06951512e-01
  2.84851998e-01 -6.46043685e-04 -2.90542305e-01 -7.26764500e-01
  5.99500760e-02  2.00013518e-01 -1.98905349e-01 -2.25558937e-01
  2.47370172e-02  3.59553039e-01 -6.79062247e-01 -8.02881598e-01
 -1.18991613e-01  1.84057757e-01  1.07679963e+00 -2.31933966e-01]
[-0.2448814   0.04229995  0.23333985  0.09615342  0.1723654   0.49536216
 -0.32638085 -0.08546115 -0.5467987  -0.10313518  0.01191321 -0.04505615
  0.04939013  0.24871162  0.13843535 -0.2516686   0.39038894 -0.62554705
  0.37211275  0.42568952 -0.06575745 -0.05744892  0.02736379  0.13839446
  0.66311157 -0.1487921  -0.07667617 -0.40108508 -0.08008286 -0.0730032
  0.20647319  0.21012318 -0.1638936   0.13755219 -0.3446801   0.39383847
 -0.14547649 -0.14369465  0.2717201  -0.29485863]
[-0.31092185 -0.5672117   0.04928007  0.8607776   0.1552375  -0.547978
  0.05860429 -0.1338746  -0.1478478  -0.20379755 -0.17429072 -0.12185068
  0.4102133  -0.04265912 -0.3966924  -0.6438612   0.02241831  0.6132031
 -0.22263758  0.24556674 -0.2804871  -0.08367366 -0.1786655  -0.19302954
 -0.45877606 -0.26906645 -0.11896073 -0.40033197 -0.1037534   0.01392749
  0.37178597  0.05718453  0.3805051   0.28779104 -0.55516493 -0.4741495
 -0.7999275  -0.4766329   0.77956885 -0.2319393 ]
[-0.41952536 -0.28935167  0.7355418  -0.12016387 -0.18892965  0.16110298
 -0.30424234  0.3009696  -0.777886    0.14465871  0.1401848   0.2126338
  0.1571607  -0.3675013  -0.00516535  0.01297783  0.15250212  0.19480646
  0.17124338  0.3135382  -0.18458144 -0.2586229  -0.24988306  0.30825707
  0.2941562  -0.19243102 -0.28013623 -0.3232998   0.4205143   0.24935572
  0.25128424 -0.49953425 -0.10237733  0.1304544   0.37314373 -0.8076124
 -0.012915   -0.04786902 -0.30852634 -0.55452967]
[-0.622492    0.2419174  -0.4379552   0.3975915  -0.33021578  0.31480858
 -0.06844998 -0.15183993  0.17029598 -0.09176028  0.25270307 -0.18441948
  0.12447529 -0.09668821 -0.2473726  -0.3443465   0.24919139 -0.5941026
  0.11382028  0.50241286  0.80484474 -0.08309464  0.1605877  -0.16599798
  0.0291831  -0.01909667  0.18092719  0.08719434  0.29264015  0.7363906
  0.13711525 -0.06399269 -0.22980368  0.28307015 -0.33237305 -0.5056766
 -0.16317219 -0.5839847  -0.45155084 -0.35184878]
[-0.01904834  0.16608688 -0.10863321 -0.05720206 -0.14468616  0.2109709
  0.00237116 -0.40399623  0.24293126  0.41977113  0.41052675 -0.27129567
  0.16451778  0.13308758  0.17612109  0.09261087  0.01684465 -0.5935377
 -0.294836    0.143952   -0.25315115  0.10035039 -0.17332838 -0.33952528
 -0.01384192  0.2871514   0.33343977  0.7457035   0.07893266  0.03850799
  0.08869536  0.13925152 -0.38011575 -0.18785857 -0.83063686  0.38675103
 -0.28914362 -0.1552236   0.03818433  0.03683295]
[ 1.94185510e-01 -1.15856573e-01  3.37303162e-01 -1.30314425e-01
  1.68715268e-01  3.13260496e-01  5.48063703e-02  2.99153090e-01
  3.21725070e-01 -1.67801708e-01  3.58940065e-02 -3.61567140e-02
  7.46530592e-02  2.05675393e-01  4.68537688e-01 -1.59258813e-01
 -8.79686102e-02  1.08483709e-01 -2.60842264e-01  1.17738377e-02
 -1.66073674e-04  2.93213338e-01 -1.10652875e-02  2.21784607e-01
  1.09744169e-01 -1.75663948e-01 -2.65474707e-01 -4.27626789e-01
 -7.36744702e-02 -1.34030774e-01  9.84020308e-02 -1.76470131e-01
  1.22766249e-01  6.05201051e-02 -3.28024775e-01  6.71913922e-02
 -2.08051860e-01 -2.59818792e-01  1.58641323e-01 -1.42866969e-01]
[-0.52827287 -0.33915734  0.3423978   0.43729055  0.13276836 -0.22780706
  0.01628738  0.11861652  0.18893827  0.27529943 -0.30599073  0.26948628
  0.17915228 -0.36383083 -0.2746051  -0.39791206 -0.06222122  0.42655635
  0.2502768   0.26356238 -0.4325969  -0.07846791 -0.04998802  0.37040523
 -0.23674488 -0.2027173  -0.07188682 -0.39656976  0.11495007  0.41171333
  0.04554592 -0.49114397  0.45920753 -0.30009225  0.16518945  0.27887636
 -0.35868847 -0.30469698 -0.00851456 -0.32191458]
[-0.03753343  0.4476113  -0.35793903  0.74153906  0.33883575 -0.0815753
  0.44178516 -0.5067578   0.17000528  0.09834991  0.0285968  -0.1170987
 -0.5159034  -0.00159608 -0.07969472  0.7153564  -0.2425359  -0.07927021
 -0.205472    0.15660624  0.8297455   0.07052801 -0.00986154 -0.6737448
 -0.4328518  -0.1361541   0.50246096  0.42274082 -0.7163818   0.36097118
 -0.3639504   0.10192244 -0.22298273 -0.09731295 -0.26145992 -0.22260433
 -0.22169238 -0.18129224  0.01932612  0.39228162]
[-0.21518649  0.28113726 -0.2289071   0.654168    0.05408728 -0.11658146
  0.42100552 -0.26711145  0.22968104 -0.24857025  0.49669775 -0.6274987
 -0.31056318  0.12526304 -0.21150485 -0.03969417  0.11582347 -0.3881897
 -0.07396956  0.4079048  -0.1027813   0.03241055  0.10097966 -0.7820621
 -0.01208427  0.22018111 -0.25754213  0.546426   -0.25551143  0.61546487
 -0.22641519  0.40429106 -0.05592609  0.21436305 -0.32710987  0.14228427
  0.06445916  0.28239322  0.2902351   0.4022113 ]
[-0.0111514  -0.2797982   0.4159158   0.09300462  0.32295796  0.09613185
 -0.3581118   0.07147081 -0.19481778  0.01193011  0.04670895  0.2589861
 -0.05656624  0.00265906  0.09725882 -0.45367694 -0.10527495 -0.21144995
  0.12723821  0.22797409 -0.05625168 -0.11640096 -0.04549868  0.0147563
  0.31371573  0.087768   -0.4603201   0.06901571 -0.20245834 -0.02280349
  0.25330487 -0.09104819  0.323637   -0.06635088  0.39167443  0.19358185
 -0.16397044  0.0745943  -0.01238542 -0.3311629 ]
[-0.28428617  0.3003263  -0.07256108  0.33456895 -0.22328469  0.23036318
 -0.22917052 -0.52830285 -0.45586455  0.32075077  0.32881805 -0.21778925
  0.28587157  0.17939726 -0.0414132   0.5048173  -0.02445017 -0.24261293
  0.528365    0.04075239  0.3306841  -0.00353778 -0.07045907 -0.37343442
  0.03244125  0.43836603  0.15209718  0.28933766 -0.06214746  0.3608702
  0.10042135 -0.08854301 -0.2502732   0.1603581  -0.01507918  0.07969433
 -0.24881402 -0.5380704  -0.43782863 -0.3018821 ]
[ 0.5837068   0.17696552  0.33518466 -0.08697398  0.00480188 -0.14842063
  0.04508993  0.22790086  0.14208992  0.28186163 -0.129899   -0.03980143
 -0.21500933 -0.50422794 -0.08753544  0.19526565 -0.3191379  -0.10395928
  0.30700848 -0.01734729 -0.3653919  -0.09131537  0.08244903 -0.00613873
 -0.21235716 -0.13711086 -0.38680777 -0.31233558 -0.05052337 -0.43943602
 -0.18625249  0.09134112 -0.24228431 -0.5822734  -0.11331321  0.17177896
  0.4438395  -0.05907926 -0.2316071   0.37492162]
[-0.38237557  0.08205848 -0.4137274   1.1849952   0.00219697 -0.1791745
  0.31748712 -0.2414513   0.53518784 -0.37090528  0.29704863 -0.48367316
  0.1243828   0.38217977 -0.75069666 -0.35079163  0.07645634 -1.2218444
  0.12264808  0.9282857   0.37424174  0.30162528 -0.08740856 -0.16255915
  0.10300203  0.16677736 -0.03571328  0.51821125 -0.5074287   0.40006196
  0.05920657  0.10385048  0.47558922  0.7987501  -0.5387629  -0.4771298
  0.28070948 -0.68107545  0.35926786  0.37955692]
[-0.11994915  0.15376587 -0.16814946  0.0289448  -0.01685903 -0.3178936
  0.3821769  -0.05194782  0.07368262 -0.15266974 -0.11137152 -0.08623474
 -0.30974096 -0.00919167 -0.1592758  -0.03757806 -0.12430783 -0.1653496
 -0.49944994 -0.06212419  0.12973674 -0.2290008   0.1860826  -0.2013776
 -0.07070425 -0.09495121  0.22184451  0.25942013 -0.15399736 -0.37728095
 -0.19856434  0.22016643  0.22858965 -0.10718548 -0.31438187 -0.22002627
  0.18301894  0.1977925   0.35583     0.33182344]
[-0.20863797 -0.18301025  0.52371144  0.34211674  0.1333273  -0.00235547
 -0.00649877 -0.03208137 -0.20855121  0.05255759  0.1476523   0.03113337
 -0.00922888 -0.21413113 -0.18008366  0.08603522  0.10837587 -0.49289626
  0.44755587  0.21994571 -0.28134736  0.05561212 -0.07099178  0.17725444
  0.09718997 -0.09696212 -0.30149475 -0.17179695  0.04339513 -0.0016266
  0.1035715  -0.14762011  0.07885448 -0.07304174  0.05332074  0.2540412
 -0.2765384  -0.15762973 -0.10063866 -0.08036868]
layer 3 Activation
tanh
layer 4 Dense
40 20
[ 0.41840288  0.33664677  0.27754045 -0.07556412  0.28999153 -0.2777934
 -0.26782507  0.25836012 -0.5497524   0.05779238  0.2565669   0.21284676
 -0.15176171  0.08607925  0.44137406  0.11136415 -0.11188448 -0.05574223
 -0.06440161  0.07947621]
[ 0.27040824 -0.2814098  -0.11854982  0.08149597 -0.42161068 -0.12969232
  0.21293563  0.04189115 -0.2944732   0.12409686  0.0489459  -0.04529968
 -0.28657547 -0.19769895 -0.2566011   0.27132046 -0.1806398   0.15092017
  0.40331873  0.00786237]
[-0.49271306  0.01098191  0.37097815  0.24129705  0.11368376 -0.24343866
 -0.11234113  0.07689466 -0.19919704 -0.18497258 -0.2347132  -0.2316391
  0.04466556  0.1224621   0.27812028 -0.17227556  0.14682081  0.07980083
 -0.3766685  -0.11878882]
[-0.50343996  0.0268134  -0.5682377  -0.27242616 -0.1386204   0.29004362
 -0.10780341 -0.28633904 -0.08842222 -0.36812127 -0.13604769 -0.03405255
  0.03683047 -0.1367075   0.25958744  0.39240927  0.74077743  0.22535162
  0.17208096  0.16802885]
[-0.07009652 -0.1622451  -0.22382066  0.10883074  0.23418742 -0.12413006
  0.3199522   0.2071936  -0.27723998 -0.25958756 -0.11350425 -0.18657255
  0.17484549 -0.03250783 -0.07595123 -0.19083412  0.09492428 -0.00232572
 -0.2899214  -0.03932452]
[ 0.2567525  -0.17856278  0.36245278  0.01759138  0.04373414  0.07446244
 -0.3536827  -0.17331958 -0.16604191  0.22006935  0.35439444 -0.03563171
 -0.31127992 -0.09589617  0.3442743   0.35470316 -0.00346248 -0.19228356
 -0.21937376 -0.3513512 ]
[ 0.10458741  0.05693829 -0.32305172 -0.16779825 -0.08571418  0.15831316
  0.3138415  -0.14517799 -0.12965254 -0.19845922  0.20828488  0.16381776
 -0.2030652   0.29804742  0.09651699  0.25351965  0.19487901  0.17505822
  0.15463838  0.03736451]
[ 0.22911964  0.01428853 -0.00321892  0.03632884  0.37080786 -0.30411822
 -0.1995708   0.23888204 -0.12759061 -0.1377475  -0.2285574   0.09263626
  0.15703224  0.00065636 -0.13547102 -0.45624977 -0.09672166  0.15563938
 -0.21246591  0.29931343]
[ 0.16880259  0.5463927  -0.35460937 -0.19288263 -0.4260664  -0.3068216
 -0.10080462  0.10026802 -0.13154519 -0.27927518  0.0709604  -0.04837177
  0.14622788 -0.48091212 -0.0340204  -0.10391798  0.36418417 -0.03906658
  0.16012853  0.08752079]
[ 0.17238209 -0.24829993 -0.1687039  -0.03965367  0.0018529  -0.29893923
  0.11248136  0.12971742 -0.06672446  0.07913496 -0.0906958  -0.14241648
  0.27610067  0.21191396 -0.03644784 -0.06315688  0.12694436 -0.0506121
  0.1714317  -0.04336654]
[ 0.00635715 -0.1312088   0.18352379 -0.29589036 -0.01837829  0.22075036
  0.09875418  0.10750803 -0.3622502   0.13414879  0.01756702 -0.2934365
 -0.1891615  -0.05882595  0.2202192   0.6806167   0.18865757  0.28062043
 -0.11833052 -0.10057589]
[-0.02694926 -0.03088804  0.07653924  0.15006047  0.19986941 -0.32603952
 -0.29255453 -0.10001098  0.23954423 -0.39177838 -0.12859534  0.1910105
 -0.07045289 -0.2746386   0.18667191 -0.64144653 -0.16458803 -0.06080813
 -0.1472242  -0.05731138]
[-0.18205757  0.09411389  0.07775701  0.22280653 -0.2684162  -0.08282929
 -0.20985113  0.20721288  0.43637735  0.12631077 -0.3013524  -0.13854383
  0.20838702 -0.2363784  -0.196732    0.18086883 -0.17103289 -0.1142862
 -0.1684788   0.13185783]
[ 0.26883045  0.04029267 -0.0674143  -0.31625775 -0.33467785  0.3638587
 -0.03790823  0.08687587  0.33483112 -0.3350534   0.28381422  0.01908786
 -0.05670572 -0.2750396  -0.16134623 -0.09966999 -0.01792852  0.20782031
  0.33650628  0.1818241 ]
[ 0.51571554 -0.11045916 -0.12083678 -0.12902914 -0.05011741  0.04416083
 -0.30119365 -0.32578886  0.23943104 -0.19164826  0.13503604 -0.23046196
 -0.03393042  0.28218058  0.1468829  -0.3547862  -0.21408945  0.10460136
  0.27216023  0.03250974]
[ 0.58725584 -0.22129443 -0.07524992 -0.12704067 -0.0787706   0.15173744
  0.04622165 -0.04581157 -0.8957516  -0.26977116  0.1191517   0.04609799
 -0.2166043   0.20095748  0.01888889  0.34641054  0.15275986 -0.24782526
  0.27623487  0.29757068]
[-0.02884158 -0.01870616 -0.08324625  0.06737226 -0.3128129  -0.33474317
  0.05853274  0.1567801   0.11065469  0.33728918 -0.11658067  0.07051206
 -0.1199016  -0.06148896 -0.11338793 -0.12891884 -0.00601881 -0.16549751
  0.00281889  0.0248275 ]
[ 0.33929074  0.14460158 -0.29655808  0.17920732  0.36978215 -0.0936074
 -0.21078122 -0.14339428  0.22525276 -0.08151349 -0.0067219  -0.11146025
  0.3651386   0.19358899 -0.2454243  -0.4145489  -0.38163278  0.01394639
  0.7231827  -0.06110148]
[-0.01588384 -0.5957725   0.349132    0.22777772  0.36422962 -0.10051224
 -0.16837789  0.17147133 -0.2061468  -0.0346175  -0.14824854  0.04066876
 -0.08781324  0.03571829 -0.16572389  0.37964192  0.30035484  0.2643324
  0.14175072  0.2978048 ]
[ 0.08030792 -0.03772917  0.1885859   0.33100268 -0.2225188   0.2517872
  0.00627317 -0.02214853  0.31257868 -0.21142621 -0.32384422  0.16855496
 -0.06970926 -0.28157377 -0.41265944  0.21179646  0.29717156 -0.19355616
 -0.14559484 -0.02388333]
[ 3.8579521e-01  2.6912106e-02 -2.9078532e-02 -1.7084177e-01
 -5.3959850e-02  3.0135480e-04  6.7336231e-02  1.3949738e-01
  1.2729625e-01 -2.1854630e-01  9.5978357e-02 -1.1507490e-01
 -3.2778540e-01 -4.0396410e-01 -2.7494887e-01  1.0783250e-01
  8.2776152e-02 -7.8183591e-02  1.0197430e-01 -1.6864425e-01]
[ 0.02458525  0.00029415  0.00057364 -0.1616796  -0.17961848  0.10446744
  0.05383008 -0.20925254 -0.01179948  0.04019715 -0.09091549 -0.1067254
  0.1680952  -0.12397227  0.00650381  0.03919179  0.1110686  -0.1789594
 -0.2114735   0.08837272]
[-0.00254257 -0.02291243 -0.09751688 -0.03121369 -0.17646492 -0.07399216
  0.05827982 -0.0006523  -0.26171058 -0.08962844  0.19513616  0.13643636
  0.19553751  0.10878444  0.04618671  0.10708234 -0.07185511  0.1336327
  0.13934779 -0.1222364 ]
[ 0.13328011 -0.06478833 -0.14544386  0.30977738  0.2262944  -0.0977398
 -0.34000418 -0.28382733 -0.09991735  0.0623551  -0.2286591   0.1012645
  0.23567824 -0.4584085   0.18196698 -0.35464677 -0.23373134  0.08816124
 -0.2728303  -0.00199428]
[ 0.51601917 -0.15326577  0.11017021 -0.13423248 -0.14174673  0.12892987
  0.2040531   0.02705285  0.24149154 -0.04857097 -0.16549712 -0.07152883
  0.09203554 -0.33759767 -0.13760796 -0.43793577 -0.0904459   0.13602236
 -0.32433522  0.00959488]
[ 0.33032668 -0.00217681 -0.12399208 -0.03981932 -0.00057541  0.1174385
  0.08218805  0.16655953  0.0661336  -0.10153571  0.11156624  0.05440816
 -0.32420456 -0.26981825 -0.19056508  0.13585725  0.05038512 -0.00887614
  0.11032755 -0.01746229]
[ 0.09975486  0.21801351 -0.12482884 -0.22016585 -0.35661173 -0.03302693
 -0.06077588 -0.01243545  0.21477363  0.21660276  0.2845189  -0.10420977
 -0.07758039  0.1526056   0.04012336  0.07133656 -0.18204747  0.05411224
  0.28716105 -0.21798168]
[ 0.33879673 -0.44952464 -0.29442674 -0.21988356 -0.19678693  0.3313806
  0.24200495  0.09426265 -0.08816797 -0.18845293  0.447547    0.14808203
 -0.1903052   0.22873785 -0.05054196  0.2689057   0.2885892  -0.00162273
  0.24737178  0.08424915]
[-0.17314786  0.04440159  0.28077257  0.21219154  0.20079333 -0.02227299
 -0.23045427  0.23921499  0.24242191  0.231145   -0.18016027  0.02105814
  0.06097871  0.05589959  0.13427807 -0.3882579  -0.08240131  0.08416139
 -0.0015524  -0.26260877]
[-0.5123166  -0.63427556 -0.25126243 -0.28820375 -0.18442431  0.12477299
  0.2868241   0.23320049  0.13355441 -0.06164981  0.04537456  0.18331388
 -0.3437809   0.33277264  0.19211903  0.19356053 -0.11756641  0.13090527
  0.34090853 -0.17034377]
[-0.10448473 -0.13292742 -0.05916895 -0.18878075  0.06787884  0.27857128
 -0.20994256 -0.17313468  0.4352373   0.22507353  0.08084612 -0.22156462
  0.07845395 -0.31041083 -0.1455364  -0.23975888 -0.00117239  0.07015372
 -0.06373668  0.04507744]
[ 0.44805133  0.34378865 -0.21139932 -0.3546035  -0.09507778  0.18484306
 -0.11832288  0.15841131  0.02697942  0.09422801  0.35688648 -0.2246551
 -0.34388512 -0.01742891  0.01932169  0.13900974  0.0995352   0.02574475
  0.16626716  0.03475789]
[-0.46512023 -0.15914388  0.24370053  0.40003836 -0.1852094   0.0199615
 -0.20154478  0.3564747   0.5722375  -0.29137272 -0.28652886 -0.31709126
  0.26343098 -0.2865862  -0.11199918  0.14500755 -0.20804164 -0.27997342
 -0.08856528  0.13596289]
[-0.1890169   0.31051335 -0.14602587  0.093897   -0.2823932   0.37994483
 -0.15630698  0.09222963  0.1571755  -0.33062276  0.15581566  0.09869276
 -0.0555731  -0.89492035 -0.37511322  0.48830384  0.05838075 -0.16770898
 -0.23149693  0.1588424 ]
[ 0.5041461  -0.5201471   0.11416536  0.10810319  0.24501255 -0.01401894
 -0.14742136  0.20818357 -0.4357226  -0.0283499  -0.09418686  0.20303258
  0.20378739  0.13822882  0.409054   -0.5359234  -0.18217419  0.18031201
 -0.13204886  0.04154019]
[-0.04898132  0.22651981 -0.23713036  0.04999086  0.18168554 -0.161346
  0.09594329 -0.10880435 -0.5025148   0.0114178  -0.3638139  -0.1251406
  0.39260742  0.2820636   0.5829418   0.20814691  0.4249727  -0.17991833
  0.21308129 -0.10522451]
[ 0.32495362  0.45792004  0.24962892  0.00091333 -0.0139426  -0.29622135
 -0.23463614 -0.14176702 -0.5232362  -0.14555456  0.14085639 -0.18484654
 -0.0312634  -0.36258695  0.24568923 -0.14340894  0.1472355   0.30195573
 -0.21656534 -0.00722548]
[ 0.09095076  0.16201892  0.13303635  0.05529084  0.27689263 -0.25166252
 -0.04901833 -0.11387081 -0.06970169 -0.24561164  0.32928672 -0.22462898
  0.28204563  0.41284436  0.23204775 -0.5029276  -0.04378521 -0.09716433
 -0.13958436 -0.10683132]
[-0.52698827  0.8292062   0.21022737  0.01153263 -0.07450245  0.14186859
  0.19159582  0.02878325  0.46323797  0.10422765 -0.31603792  0.07374991
  0.06476744 -0.07770943 -0.11840045 -0.29529512 -0.10917294  0.1918128
  0.09825546 -0.04737535]
[-0.06285428  0.35999689 -0.14271224 -0.16569479 -0.04228713 -0.14953417
 -0.14202218  0.14059459 -0.5859551   0.10700152  0.10223054 -0.1140972
  0.07390735  0.29479373 -0.05409115 -0.01698021  0.14408885 -0.03461342
 -0.35202613 -0.05169908]
[-0.16508058 -0.30868357  0.02878825  0.0394336   0.10163382 -0.03459734
  0.00245541 -0.00744577 -0.21982034  0.02566791 -0.15630428  0.02165568
  0.04149922  0.08874204  0.02290833  0.0428516   0.13676824  0.00542798
 -0.09464785  0.04683558]
layer 5 Activation
tanh
layer 6 Dense
20 1
[-0.1182643]
[0.20970495]
[-0.06063833]
[0.00778425]
[0.09628811]
[-0.03898511]
[-0.04106176]
[-0.00183819]
[-0.06781628]
[-0.03188443]
[-0.11474466]
[-0.01955813]
[0.07132845]
[-0.04055246]
[0.07159592]
[0.01790768]
[0.23398095]
[0.01068107]
[0.08238414]
[-0.02417368]
[0.15443815]
