layers 7
layer 0 Dense
20 20
[ 5.8541375e-01 -9.5350601e-02 -1.5576591e-01  3.1002912e-01
 -6.5293908e-02  1.8342987e-01  4.9497146e-02  5.2791613e-01
  5.3978950e-01 -2.8133738e-01  8.9901902e-02 -1.5087886e-01
  4.1583848e-01  8.1471875e-03 -8.6838149e-02  1.5623988e-01
 -9.0591319e-02 -2.6947844e-01 -2.9501825e-05 -1.6242327e-02]
[ 0.13723435  0.56979316  0.6049639  -0.6073679  -0.4458049   0.5825973
 -0.17416836  0.02040124 -0.16960588 -0.75062966 -0.9303674  -0.19283687
  0.4770863  -0.10541179  0.55448455 -0.489796    0.44178858 -1.048719
  0.31015775 -0.11600046]
[ 0.42195755  0.5266911   0.3926169  -0.662612   -0.655987    0.53440905
 -0.7602464   0.24110118 -0.327727   -0.709426   -0.7019653  -0.03367259
  0.36045128 -0.18299316  0.20501535 -0.7356747  -0.08875659 -0.8060379
  0.23702087 -0.5617192 ]
[ 0.46830034 -0.3531979   0.16759196  0.3173907  -0.55368793  0.04029951
 -0.48419508  0.18892829  0.6142342  -0.3095722  -0.01416609  0.05733965
 -0.10041997 -0.21692109  0.1652431  -0.16928756 -0.08386832 -0.01885077
  0.14478193 -0.01424941]
[-0.16114701  0.66666275  0.71790296 -0.04249429  0.20900084 -0.03059192
  0.04168174 -0.23800887  0.15131316  0.17722291  0.11940642  0.13650484
  0.02993499 -0.5539248   0.44483557 -0.40822595 -0.8843721  -0.03609814
 -0.16587575  0.00862279]
[-0.39939246 -0.24072805 -0.31896666  0.30898473  0.2989127  -0.7231269
  0.48125976 -0.5202373  -0.14108486  0.33639488  0.6201362  -0.34738836
  0.1215341  -0.4220149  -0.60433495  0.11887961  0.35464892  0.08388323
 -0.15802762  0.35756564]
[-2.0727615e-01 -2.1537252e-01 -1.4013636e-02  9.1284990e-02
 -2.6484394e-01 -3.0857518e-01  1.4566907e-01 -2.9584762e-01
  2.4795292e-02  2.7798659e-01  1.1084369e+00  5.3094190e-02
  3.2458469e-02 -1.6361220e-01 -2.7595021e-04  4.2794228e-01
  3.3429414e-01  1.7172746e-01 -2.2552806e-01  4.9901974e-01]
[-0.4530656   0.03435919 -1.0408878   0.59676933  0.9067695  -0.6572194
  0.5631002  -0.15713443 -0.3064998   0.04825291  0.3158814  -0.48001456
 -0.9711367   0.10579271 -0.781616    0.42902294  0.02682899  1.3312705
 -0.501202    0.81221807]
[-0.35722446  0.21363449 -0.7670432   0.7061146   0.00169914 -1.1307814
  0.27373123  0.12880784  0.20688565 -0.11370703  0.8026658  -0.5415044
 -0.37607488 -0.37440997 -0.5250292   0.34370822  0.3083162   1.1118883
 -0.09389745  0.33488056]
[-0.01935308 -0.09229657 -0.44760934 -0.62696785 -0.05443456 -1.0441964
  0.15065813  0.38204625  0.606252   -0.00321357  0.11036788 -0.07426364
 -0.04448126  0.39263964 -0.27125102 -0.6241283   0.13007636  0.16669004
 -0.09387154  0.8983069 ]
[-0.2375716   0.9252988   0.8746903   1.0070099  -0.08560226 -0.6801458
 -0.09473547 -0.26546004  0.34523854 -0.0802738   0.62377393  0.11107813
  0.05914558 -0.12240427  0.40725127 -0.15474518 -0.05587644  0.41335753
  0.47281414  0.8108642 ]
[-0.12542437 -0.32119372 -0.8633014   0.70919967  0.01891421 -0.28905353
  0.2749069   0.3595988  -0.044617    0.16436744 -0.05152669 -0.76024216
 -0.7423967  -0.14561468 -0.14457272  0.14475073  0.4293483   0.58183706
  0.44582483 -0.10589891]
[-0.11177856  0.3829697   0.5792706  -0.09132218  0.16934371 -0.00277991
 -0.1334264  -0.46167153  0.10312174  0.535677   -0.30985633  0.3373693
  0.8085973  -0.06415711  1.277184   -0.5128601  -0.831843   -0.39918357
 -0.1718706  -0.41253817]
[-0.13683166  0.4357856   0.921537    0.91714346  0.19498108  0.20152655
  0.48603535  0.22745652 -1.0395164  -0.08705786 -0.39064792  0.84921587
  0.31289256  0.4501968   0.6340803   0.5228164  -0.650762   -0.09890231
  0.12637693 -0.58301896]
[-0.14609835 -0.31533563 -0.86614805 -0.50632024  0.10660058  0.22197953
 -0.50441664  0.03020545 -0.05948075 -0.2011142   1.3820168  -0.7181159
  0.03936862 -0.28197148  0.22478047 -0.6163218  -0.00874828  0.23901168
  0.33703578 -0.9174146 ]
[-0.00510023  1.1711055   0.7300253  -1.0931935  -0.29697078  0.7793173
  0.11313572 -0.32165322  0.7603603   0.19803444 -0.95485246 -0.53115165
  1.2073799  -0.75431967  1.1808888  -1.9074217  -0.81209147 -1.1035635
 -0.5263884  -1.849311  ]
[-0.26092622  0.1267007   1.2154573   1.341485    0.01709026  0.02149403
  0.1580552   0.40478468  0.04415402 -0.17871329  0.37397498  0.21238692
  0.5062203   0.1419703  -1.0566607   0.39737517 -0.66730344  0.43123454
  0.01833925 -0.26008606]
[-0.15418138 -1.0189674   0.1281377  -0.9007105  -0.00642577  0.4446362
 -0.30546713  0.03548986  0.02658804  0.09152491  0.21876176 -0.29482985
 -0.0596959  -0.4519979  -0.8927942   0.20254952  0.5188995   0.22219624
 -0.33700237 -0.6658409 ]
[-0.06349346 -0.13376683  0.27906418 -0.7758906   0.14116368  0.2849995
  0.23945272 -0.3157776  -0.37599963  0.65032583 -1.4449583  -0.110747
 -0.00264866 -0.03938554 -0.5890398   0.35825968 -0.1951297  -1.1025727
  0.20301187 -0.2203664 ]
[-0.39446297 -0.10766484 -0.38385135  0.99549526  0.20757821 -0.7599012
 -0.08318886 -0.15526196  0.2625509   0.18293571 -0.18014926  0.23252337
 -0.4184135   0.29432493 -1.1974387   0.8687354   0.326048    0.97002494
 -0.04195634  0.6513883 ]
[ 0.46185744 -0.0444137   0.2049141  -0.43702692 -0.41835448  0.44219732
 -0.26930925  0.15004814  0.15013218 -0.3545325  -0.38374364  0.17685547
  0.29675925  0.05463035  0.31314975 -0.319151    0.19867532 -0.5580088
  0.13160343 -0.26136664]
layer 1 Activation
tanh
layer 2 Dense
20 40
[ 0.23694395  0.09607613  0.35940674  0.19509457  0.53870064  0.30271676
 -0.23174371 -0.8593981   0.39109302 -0.40789968 -0.5537197  -0.3049808
 -0.4297654   0.08603364 -0.31402475 -0.24790108  0.8194665   0.05577648
 -0.10515245 -0.54060817  0.36901206 -0.0560813  -0.01581413 -0.624828
 -0.54684144 -0.17950362  0.25573277  0.6013074   0.5368308   0.2845504
  0.17327349 -0.21650213 -0.26814044 -0.10851719 -0.4278736  -0.45888922
  0.01221517  0.42371124 -0.6060902  -0.2834871 ]
[-0.46068144 -0.4226522  -0.02878268  0.11861612 -0.5417759   0.00157608
 -0.1432604   0.10719835 -0.2143091   0.21054961 -0.01519552  0.19662248
  0.05918072 -0.08054087  0.03014335 -0.12445478 -0.19738525 -0.6469081
 -0.0224827  -0.09607293  0.03353101  0.09076129 -0.20014735  0.43983355
  0.3347578   0.2104155  -0.12429532 -0.11673584  0.26095396 -0.2402427
  0.17095935  0.25102535 -0.04772103 -0.12737851  0.18021168  0.1415571
  0.19535726 -0.09286596  0.4303737  -0.18828852]
[-0.83785653 -0.08151338  0.1679884   0.34211594  0.37505582  0.396176
 -1.2960203  -0.1340124  -0.0607595  -0.46749303 -0.3260225   0.01764935
  0.01862416  0.26147634  0.00853093  0.01281649 -0.05121467 -0.37844282
 -0.05860305 -0.46580228 -0.05670113  0.6340237  -0.30142733 -0.37010604
 -0.3492185  -0.2310629  -0.23159151  0.5676696   0.62880653  0.45151392
  0.37258962 -0.14642213 -0.54906267 -0.43780318 -0.3005583  -0.25842816
  0.39926708 -0.11195561  0.0798307  -0.24679086]
[ 0.12523474  0.10353793  0.23920111 -0.75405234 -0.18447502  0.02560991
  0.8370939   0.26467255 -0.08889486  0.39272693  0.17011365  0.05937606
 -0.25572127 -0.15836412 -0.2898742   0.5297297  -0.09961552 -0.38484627
  0.2844214   0.38581493  0.49516055 -0.73454297  0.09200552  0.20485295
 -0.15243092  0.12161776 -0.11737954  0.02354402 -0.81926286  0.04012464
  0.04342747  0.00327104  0.14777885  0.4267711  -0.03799722 -0.05875915
 -0.6651374  -0.12738235 -0.33429196 -0.18935941]
[ 0.03599217  0.4422045  -0.70970845 -0.44201732 -0.24277793 -0.37800136
  0.37262496  0.6239893  -0.6853273   0.574868    0.48537     0.12788735
  0.12009197 -0.4062818   0.6014521   0.32133427 -0.5613102  -0.06542119
 -0.08440942  0.5971113  -0.08695337 -0.22613081 -0.00842988  0.2870614
  0.3248185   0.2490114  -0.40225887 -0.381792   -0.07905803 -0.38298315
 -0.01636336  0.25309232  0.35683155  0.39514878  0.5920667   0.29659474
 -0.37062806 -0.49958193  0.20419523  0.13711874]
[-0.09724376 -0.05230695  0.2120531   0.47908106 -0.06461432 -0.04459728
 -0.68829584 -0.3540168   0.0064273  -0.0703067  -0.60071534  0.21166968
  0.06411822  0.33766967 -0.33532572 -0.198957    0.26701415  0.12922436
  0.01388481 -0.36584634 -0.05497607  0.696373   -0.22053605 -0.7442157
 -0.3091932   0.43698123  0.1218197   0.15495531  0.38531953  0.23049465
  0.32855654 -0.28854525 -0.03999129 -0.1142212  -0.33179238  0.15917882
  0.69720644 -0.10578992 -0.1627906   0.0236448 ]
[-0.20093344  0.4122754  -0.27028292  0.40450594 -0.12081357  0.38848776
 -0.2044544  -0.11647769 -0.22252317  0.15431775  0.56688994  0.31240812
 -0.08702178 -0.5452181   0.05216772  0.12464216 -0.31348863 -0.15018286
  0.04311569  0.22646937  0.19367383 -0.14628258 -0.18070334  0.2917846
  0.17902625 -0.06208425  0.2598044  -0.15604644  0.12436339  0.05403117
  0.16262203  0.32240415  0.03985431  0.32878873  0.2781541   0.21317087
 -0.2481135   0.0502022  -0.1200157  -0.18679763]
[-0.04206169  0.00384202  0.31863636 -0.0244822   0.27997285 -0.03606142
  0.10554952 -0.4230575   0.14450021 -0.48394424 -0.62025994  0.10839123
 -0.45101896  0.34208927 -0.11465357  0.04755633  0.39383146  0.02289066
  0.25758973 -0.6635671  -0.01780678 -0.11495481  0.29887772 -0.25220317
 -0.2699419  -0.33727956  0.64913183  0.3402159   0.15092245  0.5505873
  0.20010343 -0.21313326 -0.6517217  -0.5373999  -0.37077233 -0.659993
 -0.03908851  0.33085468 -0.0402734  -0.3074426 ]
[-0.12856156 -0.04570277 -0.10985551  0.19357403  0.2598666  -0.10231941
  0.13864893 -0.12144342  0.23104885 -0.36640146 -0.5564381   0.19016257
 -0.04754329  0.49189392 -0.10216431 -0.17698823  0.1988289  -0.32587278
 -0.04644486 -0.16209301 -0.11517645  0.2792874   0.14761439 -0.34368423
 -0.26121068  0.08906409  0.7401635   0.19764261  0.12176566 -0.14668226
  0.5017168  -0.7750239  -0.33011624 -0.19023868 -0.1593726   0.08816791
  0.10653338  0.3068548   0.03369688 -0.01347051]
[-3.4709949e-02  3.5531229e-01 -8.9017548e-02 -1.0487325e-01
 -1.8834955e-01  1.5875600e-01 -1.0944152e-01  2.7678698e-01
 -1.5947515e-01  4.4131616e-01  3.7884048e-01 -1.8085222e-01
  5.2237179e-02 -6.3492525e-01  4.4382805e-01 -1.0901870e-01
  1.9961287e-01  4.1899100e-01 -1.1301853e-02  1.9786194e-01
 -7.4466743e-02 -1.9033867e-01 -7.1075901e-02  5.4465920e-01
 -8.6993389e-02 -1.1782350e-01  7.2415848e-03  2.7348602e-04
 -3.1701587e-02 -2.5604630e-01 -1.0322327e-01  6.8823361e-01
 -4.0847670e-02  3.7099519e-01 -1.1736380e-02  5.1779252e-02
 -2.7684996e-01 -5.8889236e-02 -1.3350850e-01 -1.2148094e-01]
[ 0.53480077 -0.22221777  0.08952364 -0.14138897 -0.11059442  0.13649854
  0.45789763 -0.00320445 -0.02994948 -0.1532597   0.11272532 -0.11246853
 -0.26620516  0.2879717   0.04640867  0.27578002  0.35626173  0.23040447
  0.38361168 -0.12933527  0.29872182 -0.24247734 -0.04417431 -0.03693048
 -0.14177103  0.12061043 -0.3723607   0.12012034 -0.21203332  0.00666108
 -0.09580521  0.1532186  -0.01368846  0.1299164  -0.20443906 -0.04503291
  0.12978646  0.01782912 -0.20139834 -0.0035032 ]
[-0.14863032  0.0130022   0.33393744  0.10221495  0.03279608  0.37155706
 -0.01823586 -0.2887277   0.14732711 -0.28268516  0.19417419  0.38098103
 -0.08144268  0.28643048  0.11095405 -0.10225677  0.3921044   0.30712482
 -0.07363093  0.00152831  0.29344016  0.09004329 -0.20693272  0.0472863
  0.01778603 -0.05185386  0.17848736  0.09929056  0.23801199 -0.13713661
  0.10528561 -0.07539293  0.15480302 -0.04857289 -0.4100669   0.11174464
 -0.22856382  0.18822578 -0.3474862  -0.24647836]
[-0.7897655  -0.65274024  0.2714226   0.09245634 -0.07504191  0.06570447
 -0.2894594  -0.26285797  0.507828    0.04342085 -0.5173705  -0.01864248
 -0.36960655  0.20067206 -0.33342668 -0.19742653  0.1613841  -0.5534084
 -0.4872904  -0.22852598 -0.01049993  0.6228283  -0.20098493 -0.53841066
  0.03295773  0.17802349  0.26247433 -0.32457197  0.08955041  0.2940577
  0.1025152  -0.24247886 -0.24040207 -0.22242604 -0.06985565 -0.24366412
 -0.14825524  0.306206   -0.12545411  0.03139869]
[ 0.06861099  0.10030138  0.13276026  0.21793705 -0.02301185 -0.0505926
 -0.088259    0.18861105 -0.0537927  -0.15569343  0.0521356   0.29225925
 -0.42592758 -0.14143255  0.16442654  0.0387724   0.5612397  -0.1922768
  0.2160103  -0.2084243   0.40534222  0.1922544   0.09262124 -0.17091478
 -0.32878837 -0.11754139 -0.6507459  -0.00758002  0.23177615 -0.00254299
  0.34787732 -0.08087216  0.06129045 -0.01004441  0.05150696  0.18906131
 -0.03256023 -0.32430774 -0.58299613  0.05505621]
[-0.6772217  -0.65001804 -0.0388456   0.68041635  0.30241945  0.31792635
 -0.9055413  -0.18096666 -0.08632739 -0.40508983 -0.40768555 -0.10323884
  0.3281651  -0.06236348  0.2979678  -0.42129412 -0.09846873 -0.34864053
 -0.6868128  -0.3731304   0.12727377  0.5894989   0.01441293 -0.10841466
  0.05573595 -0.14180788 -0.056232    0.16449957  0.46783626  0.04203029
  0.7207346  -0.27660888 -0.17017694 -0.27329254  0.23160855 -0.00354259
  0.93470037  0.16140941  0.26475966 -0.00260828]
[ 0.2320527   0.5855339  -0.25161523  0.07527415  0.06477327  0.02545148
  0.3005226  -0.07727616 -0.15885922 -0.20686564  0.322661    0.10524704
 -0.51486766 -0.32335123  0.07584024  0.5291065   0.20077217  0.38426283
  0.79213667 -0.07194818  0.2650132  -0.1738732   0.0257594  -0.0074414
  0.22215009 -0.15616053  0.02350323 -0.05800145  0.20848294  0.15889747
 -0.22084913  0.42918527  0.05770223  0.00423009  0.06107057 -0.17389838
 -0.45773178  0.15671708 -0.06397487 -0.11779385]
[ 5.3053987e-01  1.8805776e-03 -2.2013925e-01  1.8614341e-01
  1.0356744e-02 -2.8954059e-01 -5.9544321e-02 -1.8358449e-02
  4.3431524e-02 -1.8991341e-01 -3.9025256e-01  6.4974569e-02
 -1.9947770e-01  1.5309662e-01  4.1529879e-02 -1.0342926e-01
 -4.9552605e-01  7.1261637e-02  3.4857118e-01 -4.3124172e-01
 -3.9336988e-01  2.2581575e-04  1.4708021e-01 -2.9769200e-01
  6.7412369e-02 -9.4354451e-02  2.9423069e-02  6.7614309e-02
 -1.7956543e-01  1.4319488e-01 -8.1662014e-02 -3.0325675e-01
 -3.4523189e-02 -1.2867609e-01  1.4372137e-01 -1.2557529e-01
  2.6180568e-01 -8.2669929e-02  3.8017729e-01  1.7761351e-01]
[ 0.25847623  0.08647483 -0.26625064 -0.6734232  -0.42877796 -0.24873966
  1.048574    0.36137378 -0.21726514  0.45235077  0.16568513  0.08897495
 -0.14532949 -0.23541799  0.2698842   0.4419462   0.07036118  0.23591435
  0.32718545  0.5636913   0.04670055 -0.42102277 -0.07125182  0.6863197
  0.20462273 -0.08534147  0.03568757 -0.373536   -0.8221826  -0.04179705
 -0.3638101   0.40236494  0.1467422   0.20125733  0.39349198  0.17288794
 -0.8543199  -0.04719776  0.4464577  -0.01511147]
[ 0.16430694 -0.39528757  0.17973624  0.23410743  0.03726815 -0.05635412
 -0.15661368 -0.30453074  0.5293205  -0.01598649 -0.22778787 -0.10431193
 -0.08911312  0.18010947 -0.47820646  0.13555239  0.34845284  0.19591399
 -0.09740235 -0.5978956   0.4166161  -0.23022814  0.10015994 -0.2707041
 -0.5079572  -0.21946812  0.02095095  0.39968768 -0.08055957  0.47327864
 -0.04870472 -0.2807324  -0.22679266 -0.00719137 -0.3467264  -0.25987965
  0.12790842  0.40032914 -0.2691446  -0.44173837]
[ 0.28373143  0.20458995  0.0330152  -0.26729783 -0.4673663  -0.31965175
  0.46788085 -0.10099619 -0.15496813 -0.01272602 -0.01742144  0.10855786
  0.06795048 -0.3070583  -0.18506718 -0.0381206   0.17786671  0.31226474
  0.29564306  0.17203419  0.05418377 -0.2986909   0.1650526   0.21667606
  0.15822805  0.08470442 -0.11349884 -0.14628673 -0.58889693  0.00431884
 -0.22675866  0.14549372  0.19227856  0.18376948  0.06776298  0.07565106
 -0.6019961  -0.110625   -0.31216112 -0.34469166]
[ 0.17961718  0.06719782  0.2071659   0.32125264  0.16078155  0.08039373
 -0.22697683 -0.41470733  0.16748875 -0.35376522 -0.27649686 -0.07062107
 -0.18295458  0.10776103 -0.2767125   0.01824751  0.47404018  0.14292428
  0.07586755 -0.562997    0.05250245  0.08340375  0.10459907 -0.44690275
 -0.12122228 -0.02250382  0.2441758   0.3612      0.16247605  0.36856326
  0.09201841 -0.25302806 -0.22326191 -0.0946554  -0.40299395 -0.40215245
  0.08417244  0.24048872 -0.6104216  -0.10723971]
layer 3 Activation
tanh
layer 4 Dense
40 20
[ 0.11802749  0.04412021 -0.0587094  -0.02583793 -0.28389207 -0.07711388
 -0.19087368 -0.1908837  -0.04076042  0.03827438 -0.21778221 -0.11243023
  0.391669   -0.18292743  0.1338644  -0.14775854 -0.1526826   0.28068084
 -0.10037664  0.16241704]
[-0.07819936 -0.05615836  0.19601192 -0.11022659 -0.04455583 -0.10126771
 -0.22778982 -0.05175951  0.05096943  0.17052874 -0.42262918 -0.13017686
  0.32183784 -0.18979868  0.40702912 -0.27731946 -0.07806866  0.17268926
 -0.4559025   0.2031179 ]
[-0.16964272 -0.1874926   0.20360194 -0.07030336 -0.9854994   0.37227976
 -0.33562255 -0.11649208 -0.2644618  -0.20099512  0.24239038 -0.01734441
 -0.0780405   0.35235655  0.18930498 -0.08617486 -0.1686392  -0.01588675
 -0.0539174   0.05908167]
[-0.12594877  0.24114674  0.3726503  -0.16168886 -0.254139   -0.04493535
 -0.04261868 -0.2549136   0.09153923  0.11947028  0.19503044 -0.03948355
 -0.08808365  0.19014731 -0.14540114 -0.18709935 -0.19103235 -0.64034873
 -0.03237852  0.2153707 ]
[ 0.04534657 -0.27041453 -0.18198323  0.1991766   0.24689995  0.21856838
 -0.26075435 -0.03264498 -0.14802702 -0.04827138  0.39529154  0.03068841
 -0.23139629  0.27979723 -0.5465087   0.04479563  0.05796836 -0.28224117
 -0.18453969 -0.18381874]
[-0.04971924  0.03120925 -0.11396387 -0.32746938 -0.09398302  0.12753764
 -0.1520679  -0.28633624 -0.13388507 -0.14071527 -0.32552034  0.01613653
  0.00278413  0.1020414   0.00992772 -0.4415111  -0.05669646 -0.12560676
  0.14539143 -0.22431944]
[-0.0326279  -0.09137078 -0.52457714  0.70406383  0.01622129  0.08768978
  0.59210336  0.6706093  -0.02077958  0.17899558 -0.47165167  0.36041486
  0.28090546 -0.1900945  -0.0053083   0.07139142  0.19705287  1.0289654
  0.01204223 -0.38777307]
[ 0.15874703  0.10570144 -0.37643227 -0.16694377  0.86904    -0.18685286
 -0.01009956  0.20037293 -0.0328763   0.11038431 -0.54800427  0.45828563
 -0.00667157 -0.45088303  0.33757997  0.06518674  0.48234415 -0.14669412
  0.04021123 -0.02662952]
[-0.34679338 -0.08856729  0.43177375  0.2788694  -0.59929895  0.4247063
  0.0801356   0.1232947   0.01102777 -0.05974775  0.65140855 -0.6421579
 -0.39134154  0.0696895  -0.06792055 -0.18359953 -0.5580165   0.2784427
 -0.13503566 -0.21785969]
[ 0.10660145  0.15548038 -0.4003874   0.21377954  0.70115894 -0.3165333
  0.37026513  0.5734881  -0.5524667  -0.24581513 -0.4998054   0.30036104
  0.0800969  -0.18916167  0.1862384   0.29226902  0.80536866 -0.07776401
 -0.00525758  0.11562376]
[-0.02053672 -0.3814617   0.00910624 -0.03656942 -0.15919645  0.11167556
 -0.20498632  0.06947172 -0.649783    0.01594482 -0.7125375   0.25332084
 -0.11057342 -0.05063968  0.5638189  -0.196884   -0.06581295  0.20384741
 -0.20136751  0.26073235]
[-0.12250249  0.11618789  0.1239809  -0.01853033 -0.13288428  0.030869
  0.08134913 -0.1486817   0.5028884   0.13594481 -0.00751026  0.09377006
  0.18915603 -0.25028157  0.21545166  0.20404527  0.04792676 -0.11823316
  0.44177294  0.13360137]
[ 0.05874209  0.23543671 -0.24601121  0.11512179  0.25320405  0.2764095
  0.23429383  0.16201866  0.7035362  -0.06373729  0.07100566  0.3397686
  0.36736912 -0.38238773  0.2610945   0.01630512  0.36563504 -0.43561852
  0.08742481 -0.24243107]
[-0.20405273  0.1703372   0.0758668  -0.00661173 -1.1407663  -0.01720922
  0.29991218  0.13867442  0.08293924 -0.11963904  0.6686326  -0.38615853
  0.15188792 -0.08827107 -0.36206582 -0.00550211 -0.19314873 -0.05991893
  0.11487335 -0.17056264]
[ 0.10775615  0.43661994 -0.17937113  0.07032102  0.3072941  -0.42160103
 -0.05262219  0.32075542  0.7676825   0.00726171 -0.47709534  0.43286368
  0.4349411  -0.13339405  0.2602803   0.1747569   0.32894108 -0.41546562
  0.07033831  0.09099644]
[ 0.06879311 -0.2033913  -0.03348759 -0.46571726  0.21479201 -0.06651486
 -0.27420837 -0.02249627 -0.06057993 -0.08815026 -0.4592796   0.2226067
 -0.01430649  0.07034563  0.30979618 -0.06173319  0.01499475  0.4679517
  0.01012701  0.15214294]
[ 0.05057366 -0.33782127  0.20269261 -0.11216907 -0.5733461  -0.06059321
 -0.30251113 -0.00239736 -0.4865085  -0.16172361 -0.06936638 -0.3094993
  0.1162328   0.30186817 -0.04048108 -0.35937    -0.48778483  0.20955388
 -0.4129172   0.29780677]
[ 0.17570485 -0.19354296  0.1900173  -0.2722707  -0.5536397   0.41407728
 -0.11594064 -0.39831218  0.0396247   0.13310724 -0.32077628 -0.17204927
 -0.00331223 -0.09994897  0.20443586 -0.3880172  -0.1916036   0.20031828
  0.02622429  0.36439604]
[ 0.08201186  0.10725317  0.2708457  -0.25421584 -0.14596376 -0.03870937
  0.03618454 -0.33832425  0.37129936  0.2563786  -0.49217647  0.01951714
  0.5009399  -0.0306972   0.2711082   0.16703457 -0.08926591  0.06016406
  0.19165665  0.2795456 ]
[ 0.33487865  0.03109771 -0.53794605  0.45400602  0.8624784   0.12846687
  0.29805663  0.60704464 -0.20429784 -0.02200091 -0.6558896   0.369756
  0.3750635   0.22515257  0.14925086  0.14662962  0.6822399  -0.1494134
 -0.1401621   0.08228366]
[-0.26671535 -0.14257121  0.15722552  0.16386831  0.2008019   0.16872394
 -0.10040513  0.15987802  0.07389025 -0.13736367  0.01969158  0.01609667
 -0.3519311   0.35967806 -0.0276749  -0.15242971 -0.13760397  0.30762053
 -0.3155468   0.15186451]
[-0.2639596   0.31166026  0.26745173 -0.26037014 -0.62914085  0.3272047
  0.04788792 -0.06757789  0.46936038 -0.07416446  0.33897662 -0.2019223
 -0.34548718  0.3782822   0.09787308 -0.09803545 -0.22443257 -0.39067927
  0.06550483  0.10418688]
[-0.08288401 -0.07624003  0.07309743  0.08157946  0.08532943  0.04644069
 -0.00849413  0.10930126 -0.5296308  -0.167614    0.3596722   0.06905774
 -0.14915489  0.17353332 -0.2093932  -0.27133897  0.1916795  -0.01809005
 -0.23575914  0.23422   ]
[ 0.29361638  0.23863368  0.1381776  -0.06759734  0.13843437  0.17865261
  0.13738354  0.11492386  0.447899   -0.17177713 -0.49299526  0.53241765
  0.28798503 -0.13308479  0.5516609  -0.11935212  0.3591952   0.1137144
  0.16550948 -0.03222907]
[ 0.17234616  0.32174864 -0.3455549  -0.00626044  0.6733673  -0.14123075
  0.24746923  0.23087186  0.51529515  0.1071817  -0.16290276  0.39734426
  0.0545941  -0.44454658  0.14239867 -0.05759429  0.23583403 -0.03584003
  0.14997622 -0.16988704]
[ 0.15006652  0.05298    -0.15580027  0.37391877  0.7649561  -0.1797736
  0.3118925   0.32157966  0.42711303  0.1114992   0.17166665 -0.11240494
  0.04757001 -0.3929252   0.11988378  0.26520872  0.29010746  0.00961594
  0.06060556 -0.19480321]
[ 0.04882722 -0.11573721  0.09097472 -0.12413236  0.12049572  0.07445551
 -0.13886128  0.07039791  0.08438677  0.07005508  0.2521511   0.04987611
 -0.04147308  0.31846875 -0.30484432  0.07930686  0.14756887 -0.0380846
 -0.3598394  -0.21883798]
[-0.39295766 -0.13864441  0.21557444 -0.07020288 -0.70121425  0.37982097
 -0.3797141  -0.3752599   0.34355268  0.25419754  0.6720455   0.09335916
 -0.1634949   0.33065805 -0.28565156 -0.3197866  -0.5698278   0.00231898
 -0.16579197  0.00105988]
[ 0.10844618 -0.11438453  0.44919905 -0.40015608 -0.6285059   0.28262383
  0.03381528 -0.4622718  -0.02204238 -0.3456686   0.23085074 -0.24942105
 -0.16683984  0.12042612 -0.14325833 -0.18883201 -0.5405983  -0.615648
 -0.0926175   0.33127043]
[-0.38908467 -0.01009261  0.09293792 -0.16519904 -0.00904187  0.17430064
 -0.23463228 -0.54506975 -0.07650008  0.30981672  0.38482752 -0.17567533
 -0.18188165  0.3083808  -0.20795844  0.00425106 -0.0074072   0.16780995
  0.01110713  0.05898287]
[-0.10952669  0.2999175   0.6672927  -0.22032066 -0.43794236  0.19779977
 -0.09264085 -0.07642193 -0.05216438 -0.09776127  0.3182934   0.00182242
 -0.53747207 -0.05110548 -0.14907196  0.11984073 -0.31754622 -0.7463002
 -0.38754377 -0.01797508]
[-0.07991923  0.23639245  0.10899474  0.11372779  0.32555556  0.14158566
  0.14251868 -0.20391306  0.5955268   0.08022957 -0.4778923   0.07243371
  0.12356354  0.12032746  0.7334797   0.280954   -0.03839785  0.2336191
  0.15299799  0.22167496]
[ 0.1712138  -0.04838616 -0.20802495 -0.26537907 -0.07611786 -0.07960974
 -0.09365977  0.10123476  0.7083273  -0.25631118 -0.45710602  0.1327254
  0.2604739  -0.05471622  0.15860176  0.28330448  0.2356445   0.02947769
  0.37283045  0.16051655]
[ 0.39628714 -0.17838283 -0.25949427 -0.324994    0.29354715 -0.39387235
 -0.06503935  0.14897108 -0.1451272  -0.03841785 -0.44122946  0.35447106
  0.17107676  0.11590334  0.38967636  0.04447157  0.3815888   0.10298878
 -0.21848498  0.08042148]
[ 0.13787135  0.5144513  -0.06362233  0.06751449  0.25645965 -0.1513622
  0.46227646  0.16576193  0.57562804 -0.04707773 -0.09837554  0.20009036
  0.5104066   0.07739507  0.29879808  0.50607395  0.13324793 -0.22756821
  0.38357493 -0.09985688]
[ 0.2553179   0.23592997 -0.43987963 -0.19536434 -0.21069899 -0.146621
 -0.11170971  0.18373966  0.3942228  -0.25205413 -0.42023477  0.14254995
  0.43082216 -0.32032844  0.5571213  -0.0616718   0.18248095 -0.2752769
 -0.08210245 -0.01426877]
[-0.35119376  0.22103737  0.23383427  0.05584044 -0.19109006  0.32522848
  0.04146398 -0.3294088   0.08585673  0.12497549  0.49260473 -0.22559871
 -0.289103    0.14429642 -0.23761119 -0.26854217 -0.29773548 -0.64283735
  0.06661597  0.15144391]
[-0.34583554 -0.3970534   0.20940453  0.0642666  -0.11083774  0.3447223
  0.08866902 -0.19740996 -0.47132242 -0.09728542  0.43836185 -0.14126669
 -0.27088654  0.48698476 -0.42820835 -0.03555512 -0.17604464  0.29563382
 -0.6237147  -0.15527219]
[-0.01436981  0.4473505  -0.11827149  0.3401956   0.61815757  0.05627809
  0.4391903   0.20394269  0.52680695  0.20516786 -0.04413832  0.13954787
  0.37208694 -0.38711587 -0.21185373  0.50765806  0.45596007 -0.34346676
  0.13871135 -0.24051625]
[ 0.19039318  0.09082124 -0.19985151  0.1898208   0.5362845  -0.19296493
  0.2502037   0.26876092 -0.16650662  0.16480578  0.13101332 -0.09902148
  0.18980105 -0.11829669 -0.32140216  0.4839256   0.4600492  -0.07487661
  0.17300184  0.05651992]
[-0.21704443 -0.29225406 -0.01450485  0.04828531 -0.14682855 -0.184547
 -0.02808246  0.04047852 -0.545951    0.14276227  0.02221341 -0.23526955
 -0.20908369  0.08014593 -0.08691973 -0.1250245  -0.2394507   0.33074936
 -0.08493362 -0.06082715]
layer 5 Activation
tanh
layer 6 Dense
20 1
[0.03597618]
[-0.15619563]
[-0.19972147]
[-0.00041005]
[-0.01459529]
[-0.02631235]
[0.03629018]
[0.09504652]
[-0.0937091]
[-0.00470575]
[-0.10322016]
[0.06829746]
[0.01038831]
[-0.05613105]
[0.18434462]
[-0.19902655]
[-0.00847801]
[0.06065113]
[-0.00031554]
[0.03148886]
[0.4003366]
