layers 7
layer 0 Dense
20 20
[-0.14179063  0.15280041 -0.10932428  0.23758829  0.07790997  0.3221165
 -0.31869328  0.36666337 -0.24886633  0.13581051  0.2512171  -0.1673523
  0.1939843  -0.35897243 -0.13646239  0.0645567  -0.20178619 -0.42420712
  0.34798127  0.04613027]
[-0.20890106 -0.12281949  0.49612182 -0.00393481  0.02316471  0.45852348
 -0.0504331  -0.11935288 -0.6635448   0.34162813 -0.25092724 -0.11521958
  0.5620784   0.22914992  0.2116669   0.24420707 -0.2242425  -0.12519489
 -0.03364659  0.07114516]
[-0.12779255 -0.11283076  0.28527394 -0.13967152  0.3523242   0.31719384
 -0.3585098  -0.37711808 -0.6266709   0.21374628 -0.51560825 -0.24024986
  0.64203596  0.30060172  0.15501778 -0.02005305 -0.44166285 -0.26527858
 -0.14835691 -0.1427816 ]
[-0.23859178 -0.25868708 -0.21375081  0.08880471 -0.10479919 -0.06880654
  0.15060726 -0.27693933  0.09574571 -0.06375034 -0.19215947  0.15579142
 -0.20150065  0.19599707  0.14125766  0.07987189 -0.23617724  0.13859168
 -0.01747838  0.15461473]
[ 0.3923515  -0.04474675  0.13455385 -0.1902177   0.1348725   0.31300816
  0.03034071  0.06538136  0.49048486  0.38748604  0.06630961  0.14064837
  0.28536725  0.27793792 -0.09723999  0.3236161   0.10185973  0.03377052
  0.02369459  0.30765763]
[ 0.22131668  0.40762314 -0.14994779  0.23738499  0.0428515   0.12199425
  0.29637986  0.31943324  0.5190386  -0.10474119 -0.17004661 -0.05289424
 -0.5843799  -0.2764007  -0.22633992  0.16109753  0.24591431  0.3722917
  0.08188645  0.6118189 ]
[ 0.10930678 -0.16900377 -0.6873553  -0.1630215  -0.34549883  0.15572001
  0.5401012   0.3729213   0.767776   -0.26008084  0.41905397 -0.37928426
 -0.30800208 -0.19771864  0.14252429 -0.06109769  0.5712598   0.0146354
 -0.04791861  0.54345566]
[ 0.22544546 -0.17178814 -0.18611132  0.04555339  0.03949268  0.26486155
 -0.03852227  0.36368436 -0.19539349 -0.40855196  0.30682275 -0.00475343
 -0.11425196  0.32831827 -0.35337245  0.3150595   0.25996885  0.02694866
 -0.3738259   0.10746185]
[ 0.08576941 -0.63141304 -0.14256057 -0.4846667   0.3188658   0.42298448
  0.22914764 -0.6084087  -0.25243026 -0.18263835 -0.22841758  0.49178353
  0.21134926 -0.14278537  0.17315091  0.00975599 -0.10956943 -0.32284984
  0.11364418 -0.13855547]
[ 0.27922508  0.335272    0.6624581  -0.01118611  0.7414074   0.09794061
 -0.73377293 -0.24984281 -0.326291    0.37280592 -0.51524657  0.22054733
  0.9142336   0.41688126 -0.12057113 -0.7653201   0.2387266  -0.1759526
  0.30540767 -0.3518109 ]
[ 0.876731    0.3047318  -0.3173207   0.5661299   0.11162488  0.9262088
 -0.25654954  0.06889728 -0.10537017  0.08608039  0.12809934 -0.19928236
  0.2814646   0.5005633   0.8164943   0.581405   -0.53711265 -0.36143813
  0.541688    0.22725825]
[-1.4568568   1.1573178  -0.33091068  0.3878351  -0.1922952  -0.2580755
  0.18475169  0.3199739   0.30986553  0.4673041   0.48098084  0.5396776
 -1.112578    0.07535687  0.7646649  -0.38317612  0.7779979   0.15157765
 -0.5746965   0.07820646]
[-0.31864122  0.43829733  0.06588058 -0.22007304 -0.1675211  -0.03577837
  0.29801604  0.12666097  0.37354457  0.15552609 -0.20480298  0.05127435
 -0.36318725 -0.18663268  0.0006534  -0.3429458  -0.40289015  0.168299
 -0.06836825  0.07451965]
[ 0.29942462 -0.41921857 -0.5199679   0.17606221 -0.4329413  -0.20386878
 -0.45980337 -0.31815615 -0.08758441 -0.39538386  0.151844    0.35118726
 -0.50016046 -0.6233964   0.03572242  0.45715582  0.3079181   0.03119673
 -0.45797247  0.2456655 ]
[-3.85424614e-01 -2.55397707e-01  4.74429131e-01 -1.12928666e-01
 -3.58932346e-01 -6.83871508e-01  2.83430874e-01  2.42384896e-02
  1.68185099e-04 -1.99387357e-01  6.50617778e-02 -3.51136513e-02
  1.77290857e-01  5.89338713e-04 -2.09684879e-01 -1.42159127e-03
 -2.47080117e-01 -6.02349266e-02  3.79374236e-01  1.00809902e-01]
[ 6.3941330e-01 -6.3174731e-01  4.2297485e-01 -5.5866569e-01
  8.0696952e-01 -1.3822829e-04 -3.4016943e-01 -5.4473579e-01
 -1.0442076e-01  2.1676722e-01 -3.2481007e-02 -2.6869357e-01
  4.9306471e-03 -3.0990228e-01 -1.3259736e-02 -1.9048937e-01
 -6.6221935e-01  4.5757737e-02 -2.2894628e-01  3.3342011e-02]
[ 0.22585967  0.00480614  0.1376535   0.19984424 -0.1997264   0.16216306
  0.30251467  0.21356286  0.3034891   0.06718308 -0.1526968  -0.20338549
  0.09519926  0.23513713  0.1416865  -0.01482826  0.38963854  0.1915489
 -0.16729027  0.35777625]
[ 0.19324185 -0.45206806 -0.36720887 -0.20792006 -0.05519895  0.5141197
  0.72696394  0.21911478  0.49943718 -0.7309741   0.04239773  0.29148033
 -0.49131948  0.12109756  0.01820655 -0.40854087 -0.14726458  0.38221118
  0.26008353 -0.1051392 ]
[-0.26813325 -0.2993889  -0.03431128 -0.23944151  0.47260576 -0.17821504
  0.21426474 -0.25648874 -0.02757249 -0.17800078 -0.15957123  0.18172416
 -0.43325573  0.26031053 -0.30496085 -0.72623366  0.36497086 -0.3357468
 -0.912434    0.27462107]
[ 0.17769814 -0.4812785  -0.01876581 -0.2704209   0.16446316 -0.15090123
 -0.19645049  0.08100539 -0.5991578   0.2001333  -0.28509372  0.22496939
  0.16478585  0.33321506 -0.15073374 -0.05674153 -0.6192171   0.11048661
 -0.04876583 -0.18712573]
[-0.03734308 -0.04217241  0.12334275  0.03830408 -0.00885562 -0.0113551
  0.01534028  0.02923541  0.00123688  0.01389818 -0.02952297  0.11254422
  0.05388239 -0.0393079   0.03622924  0.00190437  0.0287755  -0.09584218
  0.09975407  0.07007656]
layer 1 Activation
tanh
layer 2 Dense
20 40
[ 0.12473975  0.43197685  0.03060269  0.00960966 -0.08101627 -0.09892319
 -0.33593777  0.02682997 -0.00160532  0.00630429 -0.09952811  0.10625277
  0.01689612 -0.06710404  0.03067233 -0.1788847   0.5216849  -0.4164698
  0.19534433 -0.08899818 -0.19908385 -0.07841951 -0.07286897 -0.04783013
  0.06812334 -0.00549458  0.27093002  0.06358728 -0.55069035  0.16819522
 -0.1919931  -0.06020143  0.01577998 -0.468197    0.22456138  0.0460898
  0.24079457  0.02823629 -0.3782607  -0.11614417]
[-0.13512681  0.00687452  0.07723084  0.3989811   0.25677666  0.24314933
  0.11500859 -0.09708599 -0.12333196 -0.32889768  0.05539839 -0.1354881
  0.06014366  0.41567287  0.23773164  0.47469333 -0.06910933  0.24228571
  0.26925427 -0.1992801  -0.09864393 -0.1781058  -0.40152204  0.20856586
  0.06448817 -0.00565527 -0.10102526  0.09098551  0.04890511  0.3596418
  0.45146734 -0.43394643 -0.08531447  0.57713306 -0.24705963 -0.1595482
 -0.12607941  0.1376591   0.5536059  -0.17238574]
[-0.00463455  0.15782832  0.1872163   0.13609362  0.08660546  0.2690076
 -0.13718404 -0.07661647 -0.20694898 -0.13451678  0.16013004  0.1948553
  0.00589376  0.27372795 -0.05881007  0.11588329  0.29058164 -0.18603827
 -0.21597399 -0.0065667   0.28619882 -0.29303807 -0.00927787  0.31684637
 -0.24938487  0.21210706 -0.31752056 -0.08495617 -0.4315078   0.07752319
  0.29271162 -0.24629705  0.04968004  0.30583465 -0.17912486  0.04223793
 -0.14093277 -0.21288535 -0.08783538  0.25280347]
[ 0.28791898 -0.0810682   0.2678318  -0.09037502 -0.2730559  -0.30257562
 -0.23088586  0.1775717  -0.01752747  0.22859333 -0.27891418 -0.19747697
 -0.08496701  0.00307808 -0.02802306  0.30519658  0.11777216 -0.12545744
 -0.27812472 -0.22755411  0.27655768  0.03295542  0.24349435 -0.15729304
 -0.15221103 -0.50851005  0.20859489  0.25839204  0.11977018  0.22296552
 -0.06337151 -0.0176727   0.31271732  0.2545768   0.18705575  0.06488906
  0.14560999  0.14178516  0.3884291  -0.14053394]
[-0.03338785  0.45568335  0.12586097  0.0577656  -0.29881495 -0.00101601
 -0.15632434  0.03509115  0.2777537   0.09222148 -0.20452176 -0.18672006
  0.04420295 -0.16727482  0.03012181  0.23474659  0.3789525  -0.2912354
  0.1433665   0.22088408  0.12401722 -0.07920324 -0.07797395  0.17922686
  0.08564002  0.3982699  -0.240412   -0.10214376 -0.25414392  0.07199423
  0.2313934   0.13113019  0.32681325  0.13321154 -0.03969811 -0.09932589
 -0.12393835 -0.14412236  0.09406417 -0.24214274]
[ 0.15923105  0.3620309   0.22869281  0.02467439 -0.05252781 -0.13325955
  0.06429341  0.3050987   0.10171259 -0.15747076 -0.21257687 -0.0768282
  0.3427015   0.47829324  0.07146396  0.10594513  0.22497866 -0.2915963
  0.19784401 -0.46782288 -0.05470691 -0.16776162  0.28079665 -0.31203663
  0.34229493  0.08812797  0.573311    0.04785759  0.17957965  0.12175317
  0.2407702   0.16073614 -0.0492004  -0.42054898  0.31918654  0.03555772
 -0.05965569 -0.18961227  0.12187719 -0.43098736]
[ 0.08826385 -0.36399576 -0.27372763 -0.2583424  -0.1805472   0.35074112
 -0.08241262 -0.06741724  0.08219662  0.3402883  -0.08010707  0.13674343
 -0.18470432  0.19957525 -0.12094671  0.13675402 -0.14625911  0.02768628
  0.05466755  0.29124644  0.300843    0.0414831  -0.14918123 -0.10959629
  0.07467274  0.29657724  0.11242209 -0.18463391  0.0783418  -0.01779457
 -0.29280758  0.19835088  0.25417343 -0.15934846 -0.09467797  0.3227198
  0.18860263 -0.3072654  -0.24194223  0.2203731 ]
[ 0.02774054  0.08952339 -0.04219605 -0.03277887  0.03840069  0.18736286
  0.31393307 -0.06357021  0.01430192 -0.32610855 -0.00587652  0.2070127
  0.27865398  0.3425091  -0.30884212  0.16340601  0.11872984  0.25356928
  0.07434858 -0.21136889 -0.01914871 -0.21140896 -0.235873   -0.07882359
 -0.06957714  0.04796855  0.05000873  0.09680384 -0.04728611  0.17433679
 -0.17033902  0.07256556  0.10832729 -0.05370535 -0.03631179  0.15642102
 -0.01155715  0.34664324 -0.01488988 -0.21974295]
[-0.05307419 -0.12163471  0.18951723 -0.06589904  0.10401646  0.22553512
  0.137571    0.12820458 -0.0194287  -0.15725198 -0.23578827 -0.23169394
 -0.08913414  0.2829764   0.11179761  0.24204475 -0.37576556  0.18123566
  0.1357872  -0.0156132  -0.0172455  -0.27891272 -0.01505973  0.04276206
 -0.02906395 -0.01039769 -0.06555845  0.20025511  0.2216374  -0.17777474
 -0.10187516  0.2284765   0.23305391  0.23385723  0.06878269 -0.02455869
 -0.01493777  0.31783286 -0.03953239  0.06431594]
[ 0.15824966  0.28405434 -0.1756367   0.12905094  0.03981628 -0.13083133
  0.3824327  -0.15262888  0.04701287  0.15264237 -0.16943781 -0.06329629
 -0.2821966  -0.12136655 -0.24369851 -0.29397392 -0.22123975  0.32399666
 -0.25032723  0.10252949 -0.21298605  0.12044162 -0.30540124  0.18958485
 -0.1484448   0.04487312  0.19182144  0.22286609 -0.28048956  0.02063975
  0.20710701  0.38890755  0.17539963 -0.07571026 -0.23054573 -0.08695918
  0.01649932 -0.13792482  0.36651903  0.2710406 ]
[-0.27642414 -0.33415404  0.16047163 -0.01194313 -0.18332231 -0.17856058
 -0.22032985 -0.03114924 -0.21538089 -0.03541419  0.2624986  -0.35690445
  0.0846497   0.0952742  -0.16477145  0.21594313 -0.17750737 -0.31468612
  0.18188305 -0.19798338  0.23320334 -0.17203766  0.04376148  0.03516916
  0.348632   -0.13653412 -0.03114887  0.2215711   0.35202754 -0.11985154
  0.07549763  0.23286003 -0.06085377 -0.10542545 -0.21668853 -0.19419986
  0.03728693 -0.1852397  -0.08489343 -0.23258188]
[-0.05205772 -0.08195665  0.06648429  0.13876268  0.09249467  0.14525811
 -0.15358587 -0.12642714 -0.18597092 -0.47924587 -0.28466952 -0.17124204
  0.0375325   0.24185391 -0.1288136   0.1111687   0.00872563 -0.11954307
 -0.17820522  0.10307144 -0.191281   -0.066038    0.20566033  0.24506618
  0.03121754  0.00059046 -0.23784873 -0.28980827  0.16537374  0.06051492
 -0.24137357 -0.01635891 -0.08357976  0.17915958 -0.24268226 -0.01345633
  0.16075855  0.16697416 -0.2891793   0.03580431]
[ 0.10051544  0.18776856 -0.06502572  0.06353378 -0.32536128 -0.02954276
  0.01620524  0.22210991  0.08828973  0.36259273  0.07290564  0.03995915
 -0.30478206 -0.4403725   0.17728107  0.19729805  0.29882163 -0.17370686
 -0.20582551  0.09253254 -0.21554096 -0.18014285  0.26479286  0.3395591
 -0.00099136 -0.11634094 -0.20552556  0.01470982 -0.51808834  0.00445361
  0.1257423  -0.02198956  0.02248144  0.2021094  -0.04605402 -0.19384584
  0.10448966 -0.13214637  0.21954629  0.17294495]
[-0.28646097  0.15747853 -0.18482374 -0.01470187  0.21433148  0.03114775
 -0.09310556 -0.21590647 -0.05119085  0.06109148  0.08414152  0.24424085
  0.16288246 -0.28016144  0.25126144  0.37438577  0.1853364  -0.04073304
  0.09309899  0.00653474  0.28032377  0.11820826 -0.03764277 -0.2846266
  0.07901033 -0.09788962 -0.07421805 -0.07925675 -0.2883437  -0.09445661
 -0.18972465  0.15995994 -0.14704739 -0.02793159  0.15749487 -0.0194192
 -0.14949572  0.24439429  0.38681346 -0.09253723]
[-0.18824278 -0.37520316 -0.08584847  0.36734354  0.10851453  0.26750726
  0.28867915  0.40221056 -0.17990467  0.04507196  0.23456773 -0.0631435
  0.26249874 -0.01485014  0.02834167 -0.02944486 -0.03191065 -0.05264015
  0.09045587  0.24423392 -0.26608667 -0.22459257 -0.23255062  0.21133234
 -0.09426044 -0.28515264  0.30397317  0.01308895  0.40148538 -0.09998981
  0.08157013 -0.14935175 -0.22766213 -0.21572153 -0.09249199  0.10893193
 -0.138721    0.19161043  0.2647988   0.19270606]
[-0.09376149 -0.15239045  0.03775534 -0.11468044  0.30474573 -0.478186
  0.07061477  0.5074402  -0.24682774 -0.20395386 -0.01995147  0.11529131
  0.15037179  0.22572136  0.17820229  0.01863199  0.04001413 -0.245965
 -0.20942862  0.19563793  0.3633246   0.28717756  0.00369762  0.06861579
 -0.06970746 -0.43930194 -0.14224975  0.22150812  0.27574223  0.10336238
  0.06469145  0.0607191   0.00581138 -0.4659607   0.1772431   0.09701825
 -0.19532791  0.18228674 -0.25917432 -0.09899616]
[ 0.09854777 -0.30396172  0.00861533  0.04106187  0.31844524  0.3282889
  0.15341683 -0.33506063 -0.21888469  0.06101872 -0.22670133  0.03026609
  0.16532983  0.3027422   0.10510461  0.36051095 -0.15462339 -0.01136455
 -0.09331193 -0.25817147 -0.3275539  -0.10655379 -0.37332487 -0.12875824
 -0.24710596 -0.0288857   0.06715201  0.41986275 -0.03687269 -0.15184738
  0.1946612   0.2637782  -0.00512284  0.04578151  0.13157701 -0.06293677
 -0.26355028 -0.1870641   0.19482777 -0.23730703]
[ 0.05337965 -0.07649735 -0.10178699 -0.28330657 -0.22120966 -0.02827336
  0.33051273  0.2362804   0.16717389  0.27130744 -0.3323071   0.1274248
  0.13332193  0.00192183  0.19178578  0.22678672 -0.17503783  0.26531455
  0.13331595 -0.12806205  0.27112284 -0.16526286  0.02375715  0.03255134
 -0.24950886 -0.08532501  0.27191252  0.08778434 -0.10341202 -0.01207049
 -0.2824873  -0.14346923  0.14745454 -0.21620868 -0.2394003   0.1792784
 -0.0694205   0.16574147 -0.26517805 -0.04172227]
[ 0.13447893  0.14585616  0.10712226  0.23575033  0.26439387 -0.5747616
  0.05550468  0.17123283  0.08030822 -0.0643515   0.09844869 -0.1761792
 -0.13626914 -0.2683462  -0.1472198  -0.03483607  0.44666848 -0.08039892
 -0.50565237  0.15439269  0.16715597  0.08900989 -0.06496461  0.312908
 -0.21166523  0.15439732  0.32324475 -0.40100405  0.35106203  0.4221724
  0.03991005 -0.04705198  0.13296787 -0.0149245   0.3252147  -0.18002436
 -0.14943227  0.08762876  0.23537996 -0.05597869]
[ 0.02557767  0.02396833  0.07373919  0.25445738 -0.20547232  0.02993812
  0.05387455 -0.2369335  -0.04075629  0.11883247  0.00799173  0.21838509
  0.1011212   0.08574104  0.23080344 -0.18853284 -0.0141669  -0.01985399
 -0.1762873  -0.22534256  0.07708317 -0.28719747 -0.07807154 -0.29782256
 -0.17210853 -0.14691794 -0.19290808  0.16664913 -0.00428343 -0.22178708
  0.22222985  0.00185792 -0.07732392 -0.11804306 -0.12788321 -0.10466515
 -0.10298678  0.15832919 -0.02593295 -0.02586124]
[ 0.10399579 -0.01628602  0.00572473  0.02690375 -0.05886161 -0.01952784
 -0.05308365  0.08259206 -0.03029904  0.04518291  0.03079193  0.04989091
  0.04356914  0.01459735 -0.03495379 -0.06304626  0.008498   -0.00888236
 -0.07504483  0.02941942 -0.03117345  0.00038071  0.03017464  0.06067527
 -0.00363275 -0.08536164 -0.03730211  0.00904166  0.01847923  0.14529195
  0.02001299 -0.15307474 -0.04183466  0.11006609  0.02423144 -0.01654476
  0.02375773 -0.02588842  0.01072056  0.02598698]
layer 3 Activation
tanh
layer 4 Dense
40 20
[-0.15355097  0.2543488  -0.0930307  -0.07558204  0.06114747 -0.03921746
 -0.04596557  0.12559277 -0.18563363 -0.12054588 -0.07009444  0.16023211
  0.22194639 -0.0777094   0.33439532  0.01700841  0.19587448  0.04576274
  0.3222702  -0.2281986 ]
[ 0.25361758  0.38512734 -0.15573184 -0.11493605 -0.09129524 -0.02475067
 -0.01633036 -0.15247263 -0.10887331 -0.11312632 -0.03188626 -0.18255632
  0.15616734 -0.30193892 -0.15832815 -0.26901     0.25277424  0.10295384
  0.04237271  0.1072707 ]
[-0.02655659 -0.0261752  -0.01213458 -0.159876    0.02946874 -0.01215481
 -0.152406    0.1522804   0.279561   -0.22393444 -0.12324712 -0.02549605
  0.00219921  0.00399477  0.21445101 -0.12014018 -0.00704372 -0.10583732
 -0.04139717  0.23388459]
[ 0.3084429  -0.00477635 -0.10503445  0.10551266  0.17618     0.1963177
  0.17920437  0.07335995 -0.11594351  0.10954519 -0.20177828  0.07486147
 -0.13723183  0.14452699  0.02218716 -0.27765197  0.27380767  0.1513882
  0.03062383  0.17371808]
[ 0.14310202 -0.172921   -0.17826499  0.06254973 -0.1492578  -0.09693944
 -0.20313497 -0.00478456 -0.07520945 -0.3204366  -0.10358414 -0.11645111
 -0.0992481  -0.06007825 -0.08651486 -0.03692595  0.06306692 -0.29762122
  0.00401983 -0.18522789]
[ 0.11332204 -0.16887218  0.07375206  0.13142225  0.059494   -0.14424764
 -0.2037953  -0.26016834  0.03208635  0.18661654  0.26978964 -0.25384128
 -0.19342019  0.02413881  0.06289504 -0.18572475 -0.1297703   0.12958573
 -0.24777669  0.01529152]
[-0.28044668  0.06089393 -0.19317655 -0.04417886 -0.24590153 -0.14746717
 -0.10292967 -0.07250581  0.23466304 -0.18479851 -0.14748251  0.30691957
  0.13805717 -0.15959851  0.18539716  0.08012426 -0.27055722  0.11411363
 -0.15532997 -0.01492574]
[ 0.00232218 -0.0541728   0.19421475 -0.307133    0.1117357   0.02138666
 -0.2025262   0.05233217 -0.14812659  0.15670095 -0.20158958  0.40343612
 -0.17137967 -0.25197127  0.15197767 -0.15845762  0.01341572 -0.23737839
  0.07364516 -0.08556509]
[-0.15855548  0.14968795  0.05157159  0.04224611 -0.15580384 -0.16955985
 -0.11936527  0.10778888  0.12524395 -0.11964131  0.13724978 -0.26260474
 -0.3083395   0.11852024 -0.07295867 -0.11824724 -0.07191891 -0.1998888
  0.13106982 -0.04763249]
[-0.00097593  0.01183585  0.21345097  0.10634754 -0.18715662  0.23823275
 -0.18872492  0.0758379  -0.07141184 -0.12052888  0.1985554   0.09027296
 -0.11500484 -0.00396566  0.2617683   0.04878955 -0.04679497 -0.03151586
  0.1512141   0.19235542]
[-0.08838397 -0.14239526  0.22248745 -0.13618758  0.2255218  -0.04431562
  0.12738478  0.0007273  -0.12073336  0.36620316  0.03146719  0.3447741
  0.19528736  0.03644731  0.15787719  0.10098679  0.21016014 -0.03545321
 -0.00587416  0.03623782]
[-0.29441276  0.12574476  0.23542736 -0.02934367  0.21293917  0.11988892
 -0.1439232  -0.17620818  0.19133554  0.3003982   0.08026705  0.04629956
  0.01614706 -0.11734413 -0.14262055  0.16084263 -0.15372044 -0.00288914
  0.24979985  0.04757376]
[ 0.09911527 -0.11531205 -0.290807   -0.15205641 -0.1745861   0.29892716
  0.22784615 -0.13577953 -0.02818296  0.1474087  -0.09384993 -0.21688145
  0.02380492 -0.16587698 -0.10512231 -0.10508914  0.12891765 -0.0941188
 -0.11332326  0.23190096]
[-0.32903007 -0.09211862  0.00171113 -0.17784223  0.25837404  0.04248881
  0.29011247 -0.01647502  0.0099789  -0.01825555 -0.24171747 -0.21811143
  0.00666874 -0.16536878  0.06885492  0.19014558 -0.03318886 -0.24082689
  0.04819402 -0.079116  ]
[ 0.3084929   0.0441232   0.03566687 -0.13342357  0.3570984   0.13936298
 -0.06323025  0.18185583 -0.01067877  0.04617545 -0.00756366 -0.40923968
 -0.00547271  0.2508182   0.3572305   0.17821209 -0.33477238  0.0235459
 -0.06043762 -0.3881112 ]
[ 0.03294031 -0.13300936  0.00499842  0.14451657 -0.04048041  0.01975855
 -0.12528403 -0.10909551 -0.15110338 -0.0862821   0.06312805 -0.27202156
 -0.15158732  0.07866059 -0.01315665 -0.3006255   0.05174085  0.2166704
 -0.00214163  0.14487602]
[-0.23811641  0.19063659  0.10666129 -0.35196906  0.042973   -0.12485759
  0.10854684 -0.17477359  0.15050216  0.21444537  0.29601422  0.16262926
  0.21040411  0.21135491 -0.13907567  0.00060658 -0.12923883 -0.16566676
  0.05491219 -0.08953898]
[-0.08582184 -0.19851232 -0.18140963  0.26339975  0.08919299 -0.06321479
  0.126915   -0.15740886 -0.28704166 -0.25542355  0.05646244  0.03945031
  0.08985767  0.27205572  0.07656032 -0.03723863  0.24678002 -0.10422368
 -0.07170936 -0.03495609]
[-0.161504   -0.22614732  0.14807242 -0.06165336 -0.12914485 -0.03426648
  0.09984964 -0.28091022  0.19850725 -0.27730975  0.06215176 -0.16896617
  0.23684652  0.02133747 -0.30739632  0.06862258 -0.07951973 -0.04195303
  0.08174039 -0.07850429]
[ 0.15414369  0.04780803 -0.14645176  0.15621    -0.1773188   0.00880958
  0.26221973  0.14252412  0.16486648  0.33710942  0.14341065  0.33466345
 -0.24526939 -0.16196373  0.11171167 -0.33071262  0.01889347 -0.11319641
  0.16181688  0.18609482]
[-0.30582702 -0.26151893 -0.08512525  0.14037275 -0.1764719   0.05200725
 -0.260633    0.02571028  0.10360293 -0.26116064 -0.20549817  0.09482118
  0.06293575  0.0488719  -0.29902107  0.15137476  0.06914779  0.2413326
  0.29132393 -0.07753126]
[ 0.00961182 -0.00745034 -0.13582268  0.03560789 -0.05971575  0.14131899
 -0.07666215  0.372452   -0.13002995 -0.11674861 -0.07973789 -0.2319408
 -0.28522095  0.04376439 -0.26051974 -0.14367615  0.27698022  0.02396745
  0.0222948  -0.11659654]
[ 0.11808588  0.06134209 -0.04411612 -0.2595979   0.04151229  0.03990635
 -0.16819419 -0.15333126 -0.21485156 -0.05566796  0.07161425  0.2516417
 -0.36698556 -0.05781778 -0.13910218 -0.20891242 -0.20576625  0.07402807
 -0.25284436  0.19675349]
[-0.14457193  0.17284338 -0.09115161  0.123188    0.21451856  0.20308596
 -0.26797813  0.1732942  -0.01828809 -0.24590963  0.06940341  0.23426478
  0.21511558  0.05664199  0.14239235 -0.23194745 -0.13049638  0.1704348
 -0.08015101  0.02534817]
[-0.22228064  0.11493193 -0.01875655 -0.09950746  0.11549895  0.22427356
 -0.07870384 -0.3413296  -0.10656234 -0.15193273 -0.05018568 -0.20246506
  0.12214956 -0.01611293 -0.29033205  0.07099353  0.12183356 -0.00085835
 -0.05500545 -0.23438601]
[ 0.17278925  0.07830442 -0.3005709   0.2882173   0.14463024  0.29467493
 -0.2505111  -0.11910859  0.10203087  0.02620277  0.3373854  -0.27317035
 -0.09658864  0.00896015 -0.02603453 -0.18731272  0.16232948 -0.23387851
 -0.01428004  0.12940945]
[ 0.04001768  0.21746883 -0.10242154 -0.2611459   0.18535838 -0.2396009
  0.06955934 -0.2748375  -0.10803004  0.00185565 -0.30475825  0.20885542
  0.06523721  0.00288965 -0.10491485 -0.06774644 -0.04824119  0.12029165
  0.13679582  0.14926727]
[ 0.14687738 -0.21985815  0.24106582 -0.11892183 -0.17973557  0.09868867
 -0.32599348  0.23275222  0.14467047 -0.03817754 -0.15577936 -0.29195362
 -0.16865079  0.20345174  0.26334554  0.28269106 -0.08065452 -0.17396447
 -0.40003082  0.23365447]
[ 0.29338318 -0.36408827 -0.23507866  0.00817975  0.12182549 -0.06978769
 -0.2865101   0.05866937  0.2571257   0.20815136 -0.38097018  0.21225366
  0.21785565  0.14276563 -0.32917506 -0.25861627 -0.23138563  0.15456149
 -0.05947746 -0.16908179]
[-0.08865832  0.26994988  0.14949849 -0.21469694 -0.01243717  0.09735278
 -0.08616244  0.15648836  0.1358822  -0.1071381  -0.18656503  0.2924657
 -0.26745662  0.20632403  0.07514133 -0.30191326 -0.24970904 -0.05212548
 -0.01673932 -0.06251867]
[-0.12621258  0.20416339  0.09425928  0.20611973  0.01312484  0.01897502
 -0.15913536  0.31241786 -0.1115022  -0.10982183 -0.16813338  0.06238522
  0.06109997  0.12138961  0.27380607 -0.12431265  0.33062035 -0.09895401
 -0.11875965  0.29825437]
[-0.33944765  0.03078181  0.00237704  0.00683116 -0.14569607 -0.19135152
  0.0468529   0.0773349  -0.06781291  0.31525108  0.03745563 -0.25627828
  0.16541512 -0.01144163  0.03772819  0.27981117  0.0101848  -0.18674527
 -0.1473303   0.11872051]
[-0.3295532   0.04589026 -0.1194227   0.04479959  0.1813217   0.13906378
 -0.01708786  0.03660272 -0.00621233  0.0546743   0.09664734  0.01600211
 -0.1166703   0.1479267   0.01807715  0.08977449 -0.18696307  0.06549495
  0.1022728  -0.22650239]
[-0.03927228  0.07930328 -0.1020511   0.29309353  0.06339858 -0.01649497
 -0.1475714  -0.11272211  0.12945999  0.256202    0.25632158  0.06226061
  0.22380428 -0.06644612 -0.167792   -0.3589652  -0.24899885  0.26243243
 -0.10133585 -0.34212434]
[-0.288415    0.17214727 -0.03418525 -0.27589825  0.07359918  0.23186907
 -0.00899851 -0.39498514  0.27215797 -0.14251661 -0.08512674  0.07972645
 -0.37826768  0.32494447  0.1481744   0.08080559  0.0058084   0.30838305
  0.01160193 -0.22413087]
[-0.22715901 -0.12958138  0.0312808   0.08722749 -0.02851999  0.02162192
 -0.21187119 -0.16427422 -0.2595782   0.10971092  0.00106217 -0.14098564
 -0.22843799  0.06256487 -0.16539437  0.37455055  0.06487723 -0.05071838
 -0.07709208  0.30656993]
[-0.20049202 -0.02378251  0.33492944  0.06470625  0.3470734  -0.05371341
  0.20951769  0.28894404 -0.1530739  -0.06467983 -0.03660597  0.10637729
 -0.16456355  0.11519356 -0.2598563   0.160614    0.11414842  0.04850451
  0.1609681  -0.18951122]
[-0.1513367  -0.219679    0.08641899 -0.16700473 -0.10764707  0.1433589
 -0.14004776  0.17948161 -0.10015686  0.02402108 -0.08186033 -0.24569346
 -0.0312431  -0.16521433 -0.27347702 -0.16766904 -0.2898371  -0.03852251
 -0.06135125 -0.1690523 ]
[-0.17120588 -0.22353837  0.4082919   0.32362488 -0.14899702 -0.29078755
  0.19014437 -0.07644632 -0.09449754  0.23860826 -0.3673596  -0.09950763
 -0.22433771 -0.17897755 -0.1545207  -0.27119064 -0.20345898  0.01501771
 -0.13251865 -0.29703075]
[ 0.06028089 -0.14680105 -0.02787958  0.21175833 -0.14422077 -0.07276934
  0.23056902  0.10819145  0.21783867 -0.24879149  0.17764722  0.39850014
 -0.03615181 -0.11773542  0.15684776 -0.03280496 -0.21546267 -0.01634656
  0.02401265 -0.06760672]
[ 0.03139973  0.00860686 -0.00605823 -0.01057938  0.02478869 -0.00290652
 -0.03201721  0.02675265  0.03561879 -0.01655849 -0.02190827  0.11077375
  0.01577813 -0.01266183 -0.03488666 -0.07032186  0.0258553  -0.03800215
  0.07481145  0.02783924]
layer 5 Activation
tanh
layer 6 Dense
20 1
[-0.01216291]
[-0.09583906]
[-0.01747748]
[0.18364169]
[-0.00252012]
[-0.02854115]
[0.00260647]
[-0.02150315]
[0.00694483]
[0.00544594]
[-0.21224198]
[-0.03954948]
[0.03398563]
[-0.01395433]
[0.06629679]
[-0.09814878]
[-0.02041364]
[-0.00483483]
[-0.02088525]
[0.00220631]
[-0.03072429]
