layers 7
layer 0 Dense
20 20
[-0.42392638  0.05969439  0.07815824 -0.820753   -0.18730764  0.22497465
  0.11431504  0.56372863  0.4400157  -0.02348095  0.05964212 -0.13886674
  0.04576383 -0.22234577  0.02014836  0.4943201  -0.1351396   0.25603536
  0.10578208 -0.15416768]
[-0.3500584  -0.45382115  0.83639073  0.21455468  0.49734968 -0.6056949
  0.69853544 -0.16853397  0.8092421  -0.5560837  -0.10542877  0.07800544
  0.5424209  -0.00205965  0.78390723 -0.37563145  0.46745944  0.21278901
  0.2511995   0.5056237 ]
[-0.62411547 -0.17000575  0.4757566   0.2727742   0.5360594  -0.46459615
  0.192804    0.46563017  0.7485888  -0.11538777  0.11700142  0.2856908
  0.8181626   0.08110446  0.38261333 -0.32108483  0.25805297  0.15882674
  0.27050456 -0.0011303 ]
[-0.4952252  -0.30754113  0.19884199 -0.04663919  0.25727394  0.07380695
 -0.14021038 -0.02293117  0.05974957  0.02056929 -0.2742914  -0.07625306
  0.24411987  0.24006525  0.18271318 -0.05607349  0.01780682 -0.01139877
 -0.08689094 -0.0686212 ]
[ 0.24199787  0.13965693 -0.55710393  0.21538547 -0.4634026   0.39966568
  0.25690335  0.11752789  0.10447025 -0.16378076 -0.67225754 -0.01504776
 -0.7379277   0.04365154  0.27664548 -0.01254334  0.33696622 -0.19819848
  0.09861623  0.827393  ]
[ 0.02551503  0.3752054  -0.65814596 -0.14297007 -0.22724395  0.31393123
 -0.3472376  -0.3349671  -0.14738828  0.46583736  0.3346533  -0.3815625
 -0.2412068   0.22819054 -0.20866728  0.57251173 -0.19679737  0.08211992
 -0.31412232 -0.00865251]
[ 0.6043242   0.03766515 -0.6598704  -0.3343752  -0.00282955  0.6162947
 -0.3649554  -0.40060055 -0.31458315  0.2920307  -0.07322977 -0.5847205
 -0.01440806  0.46036455 -0.33998162  0.5567439  -0.13226755  0.31593627
  0.01784865 -0.03315343]
[ 0.29617038  0.10091431  0.2262418  -0.05973961 -0.3719903   0.36356696
  0.14239939 -0.32960588 -1.3270527   0.04280755  0.41057953  0.5967674
 -0.12803167 -1.0461266  -0.15719658  0.09862374 -0.35740593  0.09100638
  0.18374676 -0.13898304]
[-0.25596827  0.15928154  0.39086443 -0.10033078  0.5276006   0.7679084
 -0.48967305 -0.6302154  -0.870023    0.39205554  0.09234036  0.41765422
 -0.61645937 -0.21800964  0.50161797  0.8172097  -0.2591934  -0.0999577
 -0.01374756  0.4841274 ]
[-0.6374203  -0.27244216 -0.440211    0.07989865  0.32130736  0.47609958
  0.13509277 -0.10378742 -0.50341773 -0.40132648  0.08487988  0.10519533
 -0.55601335 -0.08566893 -0.16239734  0.6123365  -0.10761756  0.6399377
  0.6025236  -0.19066176]
[-0.4072698  -0.19443716 -0.20780383 -0.0344949   0.2970288  -0.6641717
 -0.03864592 -0.75610054 -0.4523306   0.59480757 -0.60417426 -0.22488245
 -0.6490789   0.37142378  0.11666255 -0.16990544  0.15938231  0.38142836
 -0.20097275 -0.40732008]
[-0.37137002 -0.48486695 -0.03066071 -0.12055085  0.15331435  0.17670065
  0.0210412   0.10671191  0.15822375  0.2096297  -0.000979    0.14644921
 -0.3666953  -0.39963907  0.20542115 -0.4453547  -0.19495061  0.40894815
 -0.5660562  -0.20104995]
[-0.06375907 -0.24516165 -0.16643803 -0.54868555 -0.36693573  0.1804722
  0.1799321   0.45248634 -0.6640226  -0.05924204 -0.57572967 -0.1282925
  0.004539    0.4730821  -0.01531242  0.36222485 -0.09241904  0.11612848
 -0.10756864  0.01048965]
[ 0.83291006 -0.38172188  0.15030013  0.06358233 -0.261103    0.04051125
 -0.20983689  0.48589462 -0.21710336 -0.38517982 -0.5002089   0.25556302
  0.2793664   0.28336486  0.4047234  -0.00586202  0.14095923 -0.24051356
  0.3317145   0.47019228]
[ 0.11567813  0.1520877  -0.08181827  0.00887565 -0.15806426  1.173922
 -0.05154265  0.6616762  -0.06905703  0.10729597  0.38580185  0.14369774
  0.765314   -0.97557664 -0.34012574 -0.8320858   0.17212695 -0.2525164
  0.1593328   0.20609665]
[ 0.03817552 -0.16084227 -0.8665246   0.15336159 -0.00701389  0.6297503
 -0.15261547  1.311599   -0.4356729   0.1179967  -1.1888729  -0.01696846
  0.98180825 -0.04635301 -0.31239808  0.3164749   0.02314583  0.58037925
 -0.4946941  -0.3649678 ]
[-0.49006277  0.06530748 -0.2526867   0.14661936 -0.23074102 -0.43915024
 -0.29782912  1.448877   -0.8196282   1.4872826  -0.22227712 -0.3871308
  0.44354635  0.20476809 -0.16459642  0.30792257 -0.24486017 -0.07685695
  0.56063867  0.7531768 ]
[-0.13221395 -0.15944174  0.0024454   0.21798371  0.21339032 -0.4849767
  0.59302807 -0.94738585  0.65166605  1.2642062   0.32472575  0.23019327
  0.51329345 -0.41949087  0.29560375 -0.9063983   0.28434575  0.02144336
 -0.9386681  -0.78560853]
[ 0.3302634   0.10362634  0.10464243  0.07009075 -0.41913024 -0.6867329
  0.07142475  0.4509246  -0.09258405 -0.5907146   0.12081847  0.00360468
 -0.1870478   0.12768391 -0.27114788  1.2317255  -0.05575633  0.16579191
  0.3811248   0.10742424]
[-0.3609365  -0.10858531 -0.17951702  0.24662276  0.24199729 -0.9414507
 -0.21423692  0.20934336 -1.415376    1.3066229   0.5216831   0.28208783
 -0.22464468 -0.2628133  -0.14224575  0.24082763  0.24801904 -0.27988088
  0.40186366  0.04040118]
[-0.19531697 -0.21216226 -0.06098769 -0.20902188  0.206      -0.22648807
  0.01272798  0.04669719  0.80025274 -0.24746053 -0.07837729 -0.15151852
  0.42030442  0.3282489   0.28048667 -0.21434478  0.03215203  0.25772387
 -0.12549804 -0.35454136]
layer 1 Activation
tanh
layer 2 Dense
20 40
[ 0.32628438 -0.03160369  0.14792131 -0.07397721  0.11462227  0.2746238
 -0.16594246 -0.09427769  0.10899141 -0.21952493  0.12735093 -0.35104057
  0.17426096  0.09879169 -0.26083884 -0.10591595 -0.07249931  0.19113298
  0.1209595  -0.23095305  0.00967568 -0.386763   -0.12049098  0.14393343
  0.14647293  0.22665767 -0.4420247   0.45863146  0.40674293  0.26795104
  0.4936908  -0.10549035 -0.08707332  0.112004   -0.21946822 -0.35597336
 -0.20744312  0.6441214  -0.5133234  -0.30816194]
[ 0.14933188 -0.01027126  0.0895872  -0.03143902 -0.17631415 -0.06537254
 -0.34721583 -0.09120727  0.1520538  -0.21752207 -0.12143009 -0.0775593
 -0.14704917  0.16354059 -0.16781488  0.0881637   0.20026195 -0.07484123
  0.01402237 -0.18619029  0.11218254  0.1077436  -0.37288615  0.02311821
  0.15359013 -0.17585015  0.14481924 -0.13501367  0.05574166  0.16829787
  0.04479662  0.32628918  0.09099221  0.11555152 -0.00507998 -0.36018494
 -0.164773    0.3270891  -0.1304836  -0.1501077 ]
[-0.0860035  -0.04057191  0.17193772 -0.12207331 -0.16168167  0.19786079
  0.26315373  0.17700925  0.12974279  0.06498422 -0.04704878  0.04841052
 -0.39776322  0.3680533  -0.16344929 -0.0303157  -0.10445901 -0.08654612
  0.1767274  -0.0787254   0.19288069 -0.23162085  0.03037333 -0.15362148
 -0.17361039 -0.21515262  0.13658173  0.20071264  0.06534727 -0.3202942
  0.1271324   0.17139472  0.00377293  0.06698569 -0.16274233  0.16991678
 -0.10448676  0.0731881  -0.06950054 -0.02592781]
[ 0.09771668 -0.23460521  0.10612928 -0.10267282  0.00451936 -0.01336569
 -0.25215784  0.00091836  0.38990328 -0.31913128  0.36000893 -0.03813981
  0.1758512  -0.07714151 -0.12088989 -0.17595579 -0.37660742  0.09020103
 -0.00494443 -0.17891842 -0.01142757  0.05836965 -0.45543304 -0.22063199
  0.05274991 -0.13192268 -0.41512868  0.13430835  0.34218395  0.15493992
  0.19447248  0.14755133 -0.07736534  0.2833005  -0.11952482  0.03552836
 -0.10159587  0.1473002  -0.32240978 -0.2367737 ]
[ 0.01176866 -0.10526852  0.03546058 -0.00928312 -0.21846163 -0.03467622
  0.2728988  -0.06552923 -0.07730422 -0.08354841  0.04291158 -0.02144824
 -0.14049456 -0.03906003 -0.01518706 -0.03900601  0.32703674 -0.05288733
  0.05866263  0.06340532 -0.25704968  0.08368489  0.1723487  -0.14893141
 -0.09205248 -0.34207875  0.113395   -0.20002887  0.14922045 -0.03155282
 -0.33609146 -0.04167629  0.01715812 -0.24008498  0.31077245 -0.08308201
 -0.04375761 -0.32109904  0.34160852  0.12675507]
[ 0.27663353  0.11677393  0.16034438 -0.13270736  0.08239672 -0.09379236
 -0.09555001  0.04589305 -0.3724031  -0.3213204   0.3204789  -0.14737163
  0.19217113 -0.02419551 -0.13637777 -0.26653072 -0.17262252  0.22516416
  0.08678709 -0.00889426  0.18698014 -0.2885648  -0.22856405  0.00260794
 -0.21584709  0.03173611 -0.05595363  0.22613461  0.09634133  0.05663259
  0.5083909  -0.22688805  0.2622699   0.2647329  -0.13093698 -0.2844228
  0.0445897   0.10239011 -0.16431752 -0.7598247 ]
[ 0.1218934  -0.07389022  0.26394072  0.44311905 -0.01972781  0.09094019
 -0.16569771 -0.24957521  0.05376489 -0.09603292 -0.28188255 -0.18152471
 -0.138442    0.15578526 -0.18250543  0.06133489 -0.25618514 -0.0673889
  0.39901438 -0.10348483  0.27993998 -0.19632947 -0.19549234  0.20290805
  0.13981831  0.07283333  0.06762972 -0.09462217  0.3147625  -0.09118044
 -0.07405598  0.02414701 -0.06165779 -0.10633548  0.04867101 -0.1969378
 -0.01718131  0.12878616  0.05765416 -0.2985639 ]
[-0.29684994  0.05322882 -0.25671148  0.02375789 -0.07261021 -0.64273727
 -0.01680437 -0.23571481 -0.13091221  0.46381912 -0.4591572   0.05353829
 -0.17926055 -0.22988047  0.45461977  0.07602375  0.36228392 -0.42784938
  0.11672636  0.31945288 -0.06223056  0.2906223  -0.00098646 -0.1273836
 -0.23382075 -0.0283642   0.33965567 -0.67543966 -0.16968481 -0.01310413
 -0.5079148  -0.08500493  0.03766178 -0.1372252   0.10646687  0.27499145
  0.24915965  0.00918557  0.4138945   0.40648797]
[-0.29737106  0.0681044  -0.30114466  0.04037191 -0.08005893 -0.2863212
  0.13053764  0.13016489  0.11458509  0.33232453 -0.6136952   0.1960904
  0.06960933 -0.21294788  0.31722477 -0.11723956  0.5664583  -0.12585185
 -0.10348453  0.46709755 -0.3085158   0.37236312  0.30565053 -0.03822971
 -0.08533749  0.24523865  0.1325702  -0.2648024  -0.2793276  -0.0785564
 -0.7567503  -0.08882463  0.3404697  -0.3465044  -0.16503482  0.37647957
  0.31452525 -0.41430643  0.5289834   0.6945149 ]
[ 0.11151403  0.02485685  0.2094522   0.0191484   0.11270399  0.3632211
  0.07721996 -0.03198162  0.01082156 -0.21083634  0.45073026  0.07370314
 -0.16963823  0.17853676 -0.11451993 -0.07200674 -0.5837119   0.09921689
  0.2555492  -0.11006663 -0.02290828 -0.1693171   0.24735747  0.08520536
  0.28240523  0.07074461 -0.26934272  0.27470523 -0.02272684  0.04408966
  0.72436285  0.10171669  0.14613362  0.16285622 -0.12133559 -0.09440586
  0.04830187  0.21154813 -0.05742841 -0.8598879 ]
[-0.00352686  0.00595396 -0.03571361  0.07495706 -0.08302552  0.3751479
  0.17080337  0.2577124   0.27921042 -0.28575853  0.08707976  0.21504344
 -0.09760041 -0.09962547  0.0998138   0.18089467 -0.04649866  0.0051664
 -0.03706281 -0.05912428  0.1338732  -0.01682248  0.25472385 -0.06560931
  0.13386218  0.15650275 -0.22605914  0.0732557   0.05850811  0.01577957
  0.5693055   0.24028419 -0.00506211  0.0927908  -0.22040583 -0.01499169
 -0.14681855  0.07358604 -0.1786046  -0.3496919 ]
[-0.04651926  0.14671946  0.07511923 -0.27751002  0.05908392  0.01168539
 -0.16027781  0.25945687  0.00051538  0.03305858  0.24999925  0.15815713
  0.1597312   0.06720129 -0.17594987 -0.14570528 -0.12692094 -0.02797736
 -0.24016747  0.16089037 -0.13793895 -0.20632571 -0.21176039 -0.10496522
 -0.04044743 -0.02277511 -0.13152318  0.15923448  0.0193083  -0.23569386
  0.46751654 -0.17088462  0.13726644 -0.01793673 -0.03706572 -0.16758212
  0.20631027  0.0070856  -0.0365333  -0.48998246]
[-0.00850544  0.03868999  0.01689773 -0.13672045 -0.07723405  0.05262845
 -0.05013825 -0.05506072 -0.02602105 -0.0632164  -0.17549565 -0.02780832
  0.1240845  -0.16535091  0.29641277 -0.04980761  0.35667154  0.34956154
  0.08139851 -0.3452497  -0.05144428 -0.05348456  0.22638085 -0.17399049
  0.1216962  -0.24166793 -0.13535911 -0.19770399 -0.1425531   0.02704768
 -0.59247255  0.05942454  0.04604371 -0.1181794   0.12840958  0.05391145
 -0.18134004  0.05326283 -0.32642913  0.22365823]
[ 0.07684606  0.15734063 -0.14492227 -0.13125172 -0.18750995 -0.12455714
 -0.16356176 -0.21356532 -0.353446    0.18247226 -0.33383894  0.05092609
  0.17415512 -0.00512979  0.07223594 -0.10254792  0.1977472   0.1813485
 -0.14393175  0.13546775  0.06227872 -0.00741293 -0.09884353 -0.16504674
 -0.1867601   0.0621386   0.15526658 -0.43962976 -0.10303109 -0.16262758
 -0.35876217 -0.2595338  -0.24941516 -0.21143304  0.05389938 -0.0961689
 -0.09225784 -0.02437012  0.26141527  0.2638348 ]
[-0.09742764 -0.04038208  0.13384224  0.0121416  -0.02752994 -0.11458154
  0.21202618  0.15490092  0.16674265  0.18990438 -0.09786929  0.04031967
 -0.28914016  0.06661853  0.0358384   0.20896015 -0.33148086 -0.03932058
  0.19021556  0.15861186  0.03710962 -0.07801034 -0.05646967  0.1469007
 -0.07574028 -0.16894144  0.25988102  0.02330803 -0.16456716 -0.09985704
  0.06550016  0.21087775 -0.20766091  0.15503752  0.00993875  0.05277226
  0.11297283 -0.24125358  0.24888644  0.07856286]
[ 0.3074868   0.00067432  0.01058224  0.05667649  0.04855803  0.17601986
  0.15719463  0.10686548 -0.18524922 -0.185093    0.45373622 -0.1791424
 -0.19387384  0.18526888 -0.0949121  -0.04805135 -0.06215329  0.10031941
  0.09376191 -0.04313072  0.03012994 -0.13893674 -0.0313382  -0.31214002
  0.2336699   0.0396164   0.03173827  0.34683588  0.11674115 -0.09800763
  0.2863184  -0.02665016  0.27147678  0.11406576  0.10913257 -0.4401764
 -0.04244577  0.02246375 -0.24974099 -0.4692839 ]
[ 0.05473351  0.17970172 -0.16400945 -0.11864755  0.14488456  0.01613965
 -0.11730505  0.08934353 -0.06731922  0.11548299 -0.04698895 -0.0601324
  0.05555394 -0.0197688  -0.0236115  -0.13950533 -0.08078676 -0.20645407
 -0.04885285  0.05043588 -0.07682949 -0.02782984  0.00234699  0.00897015
  0.01049982  0.2521588  -0.13426583 -0.12213076 -0.05075882  0.02271491
  0.00517202 -0.25764528 -0.09556812  0.04468206  0.01294837 -0.13969791
 -0.03005272  0.04908407  0.01621644  0.05291148]
[-0.14915366 -0.01938703  0.00621931  0.06063854  0.12392219 -0.15114237
  0.05364874 -0.00137088 -0.28869146  0.4283618  -0.256101   -0.01188593
  0.01505439 -0.17738423  0.44105023 -0.08152842 -0.04011855 -0.01626348
 -0.11212169  0.39966372  0.1541076   0.18852992 -0.10889196 -0.30825615
 -0.04392606 -0.01573051  0.04251437 -0.17490435  0.06137777 -0.20315291
 -0.01211656 -0.18250169  0.19014452 -0.00776595  0.03581677 -0.26784602
  0.21571858  0.03377652  0.19588484  0.11980205]
[-0.24190004  0.05389248 -0.04110907 -0.18139525 -0.23158738 -0.12501003
 -0.3412544  -0.0199465   0.08718728 -0.00086502  0.11158992  0.1686832
  0.2576372   0.03845965  0.40307653 -0.24253954  0.2214963   0.00823881
 -0.00103528  0.00729518 -0.2051324   0.14784953 -0.20852718 -0.04496272
  0.00715549  0.14494869  0.06910437 -0.21625042 -0.05619793  0.128204
  0.11601039 -0.14820279  0.06822197 -0.1837126   0.03266833  0.03636377
 -0.08213134 -0.07645486  0.02905162  0.02712446]
[-0.12671678  0.11255968  0.1067045  -0.04714296 -0.09915816 -0.06782421
 -0.38748175 -0.109669    0.43173957  0.02706721  0.46789658  0.03020794
  0.18461725 -0.09953871 -0.0411478   0.07417388 -0.21467498 -0.15550941
  0.0366783  -0.15605174 -0.3651205   0.03071712 -0.3617163   0.16164157
  0.15349084 -0.11222348 -0.1141801   0.11343089 -0.1027338  -0.20017673
  0.35085562 -0.00482981  0.18694183 -0.20720159 -0.3162456  -0.13775694
  0.14767721  0.07593995 -0.26839384 -0.6468368 ]
[ 0.07314756 -0.01427291 -0.06222662  0.06130567 -0.10423886  0.10771842
  0.02941127  0.24348696  0.23099454  0.07826389 -0.12761782  0.0263368
 -0.03758819  0.0231535  -0.09378269  0.00051624  0.14871696  0.0043058
 -0.09624178  0.04367812 -0.03012755  0.06627851  0.02129342 -0.06899565
 -0.04760445  0.05552507 -0.11721499 -0.16239537 -0.06254333 -0.25565273
 -0.35036492 -0.0413213   0.03339664 -0.10973736 -0.02790004 -0.01546341
  0.07231974 -0.05592063  0.10113466  0.19768317]
layer 3 Activation
tanh
layer 4 Dense
40 20
[ 0.13333386  0.02442824  0.00600553 -0.02949473  0.06317006 -0.09661938
  0.22388858 -0.10761355 -0.03287266 -0.1677541   0.23461787  0.0371388
  0.17985432 -0.07552564 -0.0247494   0.05021349 -0.04810225 -0.10503654
 -0.05870794  0.03883412]
[ 0.12275519 -0.04892648 -0.04688632  0.01883413  0.03983662 -0.05072935
 -0.05975669 -0.01796029  0.05955397 -0.14920838 -0.10067932 -0.05339465
 -0.03317697 -0.02752689 -0.08567651 -0.02013459 -0.23151839 -0.00066058
  0.03539197 -0.1588067 ]
[-0.05993145 -0.05864777 -0.03334159 -0.09635448 -0.07811914  0.16204636
  0.03884672  0.00941724  0.16597141 -0.01067386 -0.01070699 -0.00966929
  0.32951733 -0.08820891  0.10252105  0.07616707 -0.04824867  0.1880037
  0.14953205  0.07910656]
[-1.83125481e-01  2.57295873e-02  1.15851723e-01 -5.85514531e-02
 -2.02175289e-01  5.97660169e-02 -7.13653564e-02  7.93777406e-02
 -1.75593138e-01  2.20929962e-02  4.56722006e-02  1.70627721e-02
 -3.07709482e-02 -1.32126305e-02  9.38256755e-02  1.17775798e-01
  1.87966183e-01 -3.05553883e-01  8.97218197e-05  2.25714236e-01]
[ 0.11509077 -0.12980995 -0.03644053  0.0543118   0.05779071  0.06862622
  0.05838412  0.00172924 -0.13787383 -0.04494439  0.04514551  0.15098843
 -0.02107568 -0.02351382 -0.04665109  0.01043984 -0.06947371  0.23157828
 -0.00356867 -0.05581307]
[ 0.04353421  0.12622204  0.03613993  0.07800471 -0.04503502 -0.1150186
  0.03119844  0.03360745 -0.01264344  0.23271929 -0.02066363 -0.12442266
  0.20641284  0.01231099  0.17047161 -0.06421749 -0.057366    0.04336767
 -0.10576807 -0.28602263]
[ 0.24395251 -0.04184394 -0.02881723  0.04159083  0.04627562 -0.04436089
 -0.0116578  -0.03862969  0.08187287 -0.06241446  0.1095356  -0.20372652
 -0.09293272  0.02988279  0.19551305 -0.05203709 -0.1053417  -0.17211957
 -0.17691728 -0.16507709]
[-0.16628477  0.03014836 -0.06568801 -0.02035858 -0.10558603  0.10295333
  0.08466785 -0.07454318  0.05295    -0.03524117  0.0833535   0.07636075
  0.00119692  0.05377745  0.09733431 -0.00618726  0.09620881  0.07320364
  0.02335674  0.05779279]
[-0.29343665  0.13747549  0.04227091  0.00912585 -0.1506441  -0.08426867
  0.09920529  0.08527192  0.02315805  0.01257895  0.28488186  0.11693536
  0.10983792  0.07453535  0.1412496  -0.05006788  0.20928788  0.10230869
 -0.02204986  0.12405907]
[-0.0175742  -0.08512951  0.01547743  0.06331035  0.13045473 -0.06590919
 -0.16134153  0.00849241 -0.01846927 -0.12749667  0.14425358  0.09057248
 -0.27255017  0.11371865 -0.11626892 -0.02032315  0.025242   -0.14317086
 -0.01521963  0.02590872]
[ 0.04027198 -0.00237153  0.11091779  0.0603297  -0.1031711   0.11735656
 -0.04736014  0.00153315 -0.06665139  0.04083869  0.03347747 -0.17713405
  0.7553385   0.10687095  0.02917599  0.14755404  0.05093864  0.3463213
 -0.20991306  0.05397575]
[ 0.17213823  0.08564578 -0.019255    0.09709521  0.00367418 -0.12552586
 -0.1009035  -0.02350455  0.18841217  0.15708803  0.08811398 -0.15239944
 -0.03705617  0.01174678  0.03619997 -0.03045414 -0.13699487  0.07302339
  0.0087868  -0.15213895]
[ 0.04995966  0.12183392  0.06821542  0.06345773 -0.0307272   0.09237882
 -0.01705865  0.08031424 -0.00876741 -0.01454186 -0.01940447  0.09804115
  0.10153364 -0.08146955  0.02182384 -0.08402175  0.0203389  -0.02321897
  0.04421275  0.0747054 ]
[ 0.12464909 -0.02524213  0.06911837 -0.08333081  0.02956603  0.04950784
  0.07604188  0.07716211  0.14696768 -0.07800097 -0.00756879  0.05346311
  0.03279358  0.03410066 -0.04642527 -0.10937091  0.01737286  0.21260291
  0.01461174 -0.10137027]
[-0.12653956 -0.12273201  0.00456098 -0.06656524 -0.03379958 -0.16837232
 -0.03969596  0.05714381  0.00286738  0.0273504  -0.1607035   0.05000765
 -0.09013651 -0.10838249 -0.0588623  -0.05822855  0.07018413 -0.27138108
  0.05381729  0.18736754]
[-0.10631784  0.01170482  0.00473988  0.01808168  0.09351929 -0.13655667
  0.0176324  -0.0423366  -0.01420342  0.05006026  0.030788    0.10134397
 -0.10916361 -0.09041898  0.0816505   0.13856165  0.09808747 -0.05910324
 -0.15468523  0.16111225]
[-0.22119668 -0.01407209  0.05211375 -0.01271964  0.06852511  0.14911743
  0.00814645 -0.11856665 -0.02474015 -0.00089075 -0.3547391  -0.12947768
 -0.2032474  -0.03548811  0.02519429  0.05842395  0.05455044 -0.08842892
 -0.04797415 -0.05152054]
[-0.04407874  0.10031882  0.09237725 -0.11251945 -0.04141225  0.01092784
  0.01687962  0.04492178 -0.06337463 -0.1564474  -0.04549795  0.04099241
  0.2311948  -0.02415241  0.16853291  0.05222194 -0.00536695 -0.14547236
  0.03621138 -0.16846797]
[ 0.06895559  0.00436054  0.01791615  0.08670706  0.0084659  -0.08309492
  0.02444344 -0.00290773 -0.04695896 -0.08859475 -0.02534877  0.10392141
  0.05470456  0.07755758  0.00581396 -0.03443678 -0.12033059  0.05970754
  0.05953433 -0.02075559]
[ 0.23975958 -0.01549767 -0.07457245 -0.02015514  0.0204858  -0.12884362
 -0.13352424 -0.18271773 -0.06838835 -0.00114468 -0.07156839 -0.10274134
 -0.25318518 -0.00892307 -0.00309235 -0.07471946 -0.1275909  -0.05473201
 -0.03172968 -0.02323097]
[-0.21864992 -0.03003823  0.07850417  0.10364725  0.00367465 -0.04104831
  0.10663249  0.00033648 -0.2014867  -0.05750447  0.0078121   0.18558642
  0.01089241  0.01122522  0.10431849  0.06139643  0.04245969 -0.20267414
  0.02708507  0.09235359]
[ 0.0031246   0.05338576 -0.03218335  0.02821684 -0.09970919 -0.05922167
 -0.12609738 -0.18038186 -0.00444932  0.19085477 -0.0249766   0.05410733
 -0.19629447  0.08127663 -0.08308544 -0.10749426  0.12757038 -0.10776186
  0.11963187  0.09517788]
[ 0.2646153   0.02543267 -0.0206219   0.168249   -0.02944079 -0.00704475
 -0.17341585  0.15538934  0.16489619  0.23931006 -0.29089314 -0.35116214
 -0.08148031 -0.05433445 -0.04989115 -0.12903596 -0.23642004  0.0106549
  0.06179399 -0.21216942]
[ 0.33130094 -0.06949744  0.05585176 -0.02845516 -0.00949309 -0.01890665
  0.09733088  0.00284743  0.05227815  0.03344515 -0.05560851 -0.11890743
 -0.02516952  0.00589129 -0.06362264 -0.05465285 -0.00537465  0.15467045
  0.03094181  0.05492317]
[ 0.2335752   0.01982841  0.01176135 -0.12144269 -0.00240832 -0.09844568
  0.03447169  0.0761768   0.03938037  0.15845136  0.02391509 -0.05170964
  0.07413144  0.02871161 -0.06278935 -0.2688504  -0.14559937  0.14332706
  0.0885858  -0.08179708]
[ 0.08582895  0.00317407  0.01998855 -0.00341093 -0.03069292 -0.00679141
 -0.02287059  0.04568937  0.00308815  0.08545821 -0.25815898 -0.04865158
 -0.04334629 -0.05034334 -0.03213308 -0.03556412 -0.00934523  0.05590619
  0.08666015  0.01990359]
[-0.13992919 -0.04307982  0.09057052  0.14428252 -0.03228706  0.12339626
 -0.17282255  0.0098852  -0.07538859 -0.14722882 -0.13539729  0.15529042
 -0.18037206  0.056276   -0.03746191  0.11800202  0.0380814  -0.08327098
  0.07672151  0.05084468]
[ 0.09919187  0.09258009  0.02588387 -0.14996599 -0.02729073  0.11599924
 -0.02274425 -0.13844046  0.1990982   0.11281729 -0.10146268 -0.14450954
  0.43511015  0.11157078  0.03057477 -0.06082064 -0.15481578  0.10206799
  0.03216593 -0.09786982]
[ 0.00982902  0.10235541  0.05800978  0.11855339  0.03369115 -0.08291013
  0.1492675  -0.17056808  0.13192487 -0.07413474  0.08304056  0.12907745
  0.14079057 -0.0107641   0.0644032  -0.05705312 -0.12407479  0.03721916
  0.03932079 -0.01833582]
[-0.00024256  0.00720993  0.02348777  0.02649505 -0.10987166  0.0625861
  0.00601019  0.00474034  0.11465415  0.07385528 -0.00913996 -0.01990302
  0.06059586  0.02668133 -0.06268121 -0.07524723 -0.14221033 -0.05303038
 -0.09033831  0.01389918]
[-3.8759690e-02  3.2426133e-03 -5.0727721e-02 -1.0855159e-02
  4.7825039e-03 -1.2333002e-01  4.9855982e-05 -1.6613658e-01
 -5.6248698e-02  8.1780061e-02 -7.0941634e-02  1.4442806e-01
  7.7221590e-01  6.8030432e-03 -4.1823246e-02 -1.1934520e-01
  5.1054679e-02  9.1498695e-02  1.3424642e-01 -1.1752027e-01]
[-0.24837683  0.09223361 -0.04749997  0.03894843 -0.00901425  0.1844084
  0.05611435  0.00469679 -0.09504215  0.02439251  0.0701802   0.2540038
  0.0322102   0.03801844  0.0984697   0.15086     0.18714686  0.11946242
  0.10551536  0.11813106]
[ 0.35745236 -0.02043151  0.01016383 -0.02487423 -0.03174922 -0.05790765
 -0.0203715   0.11004332  0.13565142  0.18103093  0.00269221 -0.02290348
  0.09038576 -0.15889238 -0.03387893  0.01522996 -0.15158835 -0.0549015
  0.18498465 -0.04418842]
[ 0.16484804  0.03006071 -0.04892546  0.1299161   0.1389788  -0.06930472
  0.14565682  0.13622636 -0.08787114 -0.08435999  0.2283791  -0.06085401
  0.27776548 -0.10786621 -0.04055684 -0.09860078 -0.18588346  0.2704253
 -0.08324946  0.03348088]
[ 0.14408292 -0.03456735  0.05859064  0.03347496  0.03466127 -0.15478605
 -0.09021182 -0.0771388   0.01606218  0.0226683   0.10570797 -0.1936593
 -0.07549119  0.00189002 -0.09377536 -0.02244114 -0.09928758 -0.150417
 -0.05417807 -0.1579742 ]
[-0.01441241 -0.07100197  0.04617354  0.02615354 -0.07620239  0.0956636
 -0.06996946  0.03486383 -0.03791693  0.1227322   0.08251784  0.10405762
 -0.15683775 -0.0127246   0.02378855  0.10668137  0.21290442  0.04124652
 -0.02445275  0.06684177]
[ 0.25752687 -0.12394314 -0.0580771   0.0897592   0.01169147 -0.02844401
 -0.15849139  0.01205258  0.01773127  0.0967714   0.11774195 -0.12012576
 -0.10318351 -0.0534028  -0.0663156  -0.05007784 -0.13722576  0.01101751
 -0.02537394 -0.08401018]
[-6.3907253e-03  7.1928599e-03 -1.5700346e-01  8.4182009e-02
 -2.0581743e-02  6.2485099e-02  4.2278625e-02 -6.6260315e-02
  1.3465630e-03  7.2698765e-03 -1.5189680e-01  7.5770564e-02
  2.2996342e-01 -4.7047969e-02 -1.6151345e-01  6.3251908e-05
 -1.7918906e-01  1.6981544e-01 -4.9156960e-02 -1.2334379e-01]
[ 0.262287   -0.07026392 -0.0736298  -0.24223977 -0.17756657 -0.10348912
 -0.16700073 -0.12071851  0.06832966  0.01960583  0.06310404 -0.11134474
 -0.49664894 -0.0708624  -0.02366051 -0.02562211 -0.17541333 -0.21918623
  0.10361714 -0.1556198 ]
[-0.0980805   0.1008752   0.04689227 -0.01082997 -0.2661313  -0.03456364
 -0.1908339   0.09454907  0.00815741  0.02609521 -0.01991833 -0.11860497
 -0.636281   -0.00260724  0.0260244  -0.06214592 -0.04512823 -0.07792024
 -0.02536814  0.22333074]
[ 0.3449868  -0.15598366  0.03131068 -0.029482    0.18235965 -0.03984502
 -0.14565358 -0.07343424  0.08610705  0.06040348 -0.19491108 -0.15108125
 -0.11165925  0.06560281 -0.08986726 -0.08015145 -0.01896423 -0.00039043
 -0.00566444 -0.25061402]
layer 5 Activation
tanh
layer 6 Dense
20 1
[0.01640593]
[-0.01175365]
[-0.00900279]
[0.00706435]
[0.00712146]
[0.00046226]
[0.02379933]
[0.00201932]
[-0.00878935]
[-0.00387464]
[-0.00118009]
[0.00963319]
[0.17995498]
[-0.00381478]
[-0.00746187]
[0.00378501]
[-0.02096197]
[0.01952197]
[-0.00201022]
[-0.0039098]
[0.20510913]
