layers 7
layer 0 Dense
20 20
[-0.13260145  0.15125285 -0.27413112  0.12847824  0.00555883  0.14941423
 -0.3322276   0.25158626  0.06903887  0.02507388  0.12593678 -0.38931844
  0.21503218  0.03117179 -0.30936787  0.16312389  0.22414105  0.12844074
 -0.02173463  0.19605055]
[-0.22140245 -0.26777646 -0.0194064   0.32896942  0.0726703   0.31379548
 -0.3799852  -0.2926856   0.25482693  0.30988222  0.13452676  0.15897763
  0.10703639 -0.25788215  0.18863425 -0.00108649  0.2756288  -0.19086613
  0.5216432  -0.11125304]
[ 0.27439198  0.09430579 -0.51441365 -0.402453   -0.21125805  0.28806472
 -0.35749304  0.00677345 -0.08550699 -0.25060803  0.2851057   0.01672869
  0.24115862  0.24337757 -0.27359995 -0.2534746  -0.26253235 -0.07738247
  0.22331533 -0.47111148]
[ 0.05443246  0.08576324 -0.37627137  0.07254726 -0.36162564 -0.3041795
 -0.19545281  0.14614089 -0.25500768 -0.00202753 -0.2798138   0.28579593
  0.04974185 -0.2413539   0.03045417 -0.313986    0.35557944  0.20640022
 -0.01552776 -0.3107198 ]
[-0.05550083 -0.31235784 -0.11078104 -0.02307659 -0.31735435  0.14870855
  0.06017105  0.20227379  0.16637221 -0.09169168 -0.31682688  0.26856363
  0.1033321  -0.3026583  -0.27133     0.22820237  0.2660674   0.07360125
  0.03343936  0.03393539]
[ 0.15498623 -0.36593378  0.54123294  0.35878     0.01157429  0.02182173
  0.26852018  0.42103526 -0.2094137   0.06840847  0.24180159  0.28823093
 -0.01419232 -0.00357252  0.11640402 -0.27576226 -0.1443782   0.04315447
 -0.08211846  0.13467504]
[-0.2846851   0.04886625  0.22494385  0.15250689  0.13416138 -0.23406968
 -0.08335208 -0.21876681 -0.21180871  0.26816007  0.1643902   0.08159561
 -0.00147055  0.08100268 -0.3109578   0.02569822  0.18892978 -0.10913771
  0.09952565  0.02182392]
[-0.00423679  0.2494495   0.03470392 -0.18779269  0.37500647  0.3124719
  0.33736792  0.09070816 -0.09897763  0.25973618  0.32998487 -0.3322335
 -0.130645    0.02176774  0.17960271 -0.15585716 -0.11141526  0.1050569
 -0.19793107  0.060966  ]
[-0.11806363 -0.15213645 -0.03700151  0.29666266  0.05455354  0.25351384
 -0.24601439  0.15339617  0.07481484 -0.13474986 -0.26260152  0.18443131
  0.09045035 -0.1468541  -0.22821896 -0.18792914  0.17929082  0.553708
  0.2586454  -0.3287893 ]
[-0.14932656  0.13958974  0.23619181  0.18157828  0.1272116   0.12036045
 -0.21112077 -0.20836979  0.2705003   0.10260155 -0.23534228 -0.25688022
 -0.22883858 -0.10853655 -0.24992558 -0.24123941 -0.29416403  0.2433543
 -0.30985752 -0.1172567 ]
[ 0.4021417  -0.2495877   0.16888432 -0.19528203 -0.0344129  -0.29856524
 -0.24457632 -0.20973878  0.02211194  0.16845101  0.03649883 -0.30859575
 -0.07992724 -0.27461353 -0.08088785  0.26725888  0.11807466  0.20617324
 -0.1920608  -0.00724327]
[ 0.12032191 -0.1860635  -0.5361085  -0.19424796 -0.10016567  0.23010956
  0.14381526  0.18209325 -0.06488147 -0.14432241  0.16905467  0.3242364
  0.56597185  0.25287268 -0.4678542  -0.12529269 -0.02701854  0.81322753
  0.3170558   0.11876138]
[ 0.1335977   0.20213571 -0.12952866 -0.21770063 -0.14711599  0.25866264
  0.07947648  0.3028955  -0.23540378 -0.05204573 -0.2767572  -0.29981127
 -0.26321554  0.47888765  0.03326173  0.17809181 -0.09524409 -0.4971526
 -0.07285509  0.02664025]
[-0.15731551 -0.03553101  0.23532002  0.2980282   0.0020697   0.14498077
  0.21132267 -0.37902495 -0.26148665 -0.06025914  0.03778648 -0.10789746
  0.12928727  0.14741088 -0.00990904 -0.3431956  -0.26060212  0.30404454
 -0.1652381  -0.27729777]
[ 0.10817488 -0.27646494 -0.07603238 -0.00630377 -0.13109405 -0.0156566
 -0.19812895 -0.0099167   0.12058503  0.10767061  0.30439597 -0.17508827
 -0.24180894 -0.02021061  0.21168444  0.269976   -0.03950281  0.16228788
 -0.09507392 -0.11389226]
[ 0.08656285  0.28311476 -0.21107075  0.17352244  0.33060086  0.16129927
  0.33982414  0.02215688 -0.31730402  0.21787964 -0.20219734  0.20960553
 -0.30842987  0.28601867 -0.0355177   0.1995118  -0.43454486 -0.21325591
 -0.31402984  0.42295554]
[ 0.32756886 -0.21298033  0.34536803  0.23394348  0.03665467 -0.11197092
  0.11947398 -0.321834    0.2700069   0.35776934 -0.18142796 -0.20808153
  0.24215369  0.20976059 -0.12436644  0.3733701  -0.0838065  -0.10964199
 -0.28016588 -0.079011  ]
[-2.7330649e-01  1.7621139e-01 -2.3172881e-01 -3.3748595e-04
 -1.3829459e-01 -3.6105296e-01  2.8218457e-01  1.5375222e-01
 -5.9926953e-02 -2.1997805e-01 -9.8810814e-02 -7.8628831e-02
 -3.6508060e-01 -3.1058165e-01  2.0828810e-01 -2.9899362e-01
 -2.8691280e-01  1.8027076e-01  4.1045513e-02 -6.8001680e-02]
[-1.53853610e-01  4.21877056e-02 -2.19169661e-01  1.11449756e-01
 -1.85956866e-01 -3.53596210e-01 -5.71298951e-05 -2.01811716e-01
 -2.44918913e-01  2.70007432e-01 -2.68084481e-02  8.15294608e-02
 -1.47702977e-01  1.29388839e-01 -1.20049447e-01 -2.98141629e-01
 -1.23876436e-02 -7.54356384e-02  5.37665486e-02  6.74280748e-02]
[-0.281321    0.1210568   0.3108657  -0.12158     0.00333885  0.18313964
 -0.2590943  -0.15442154 -0.22277859  0.35809538 -0.03888534 -0.5954781
 -0.39969724 -0.27169162  0.53693956 -0.12514117 -0.2869696  -0.11946391
 -0.28068677 -0.12353861]
[-0.02193487 -0.03464243 -0.02920567  0.00106499 -0.0599373  -0.00716594
 -0.03323924  0.00299455  0.00977874 -0.00554502 -0.00267588  0.06313035
  0.00186557  0.01854178 -0.00417186  0.00563004  0.06776893  0.02889084
  0.07176657 -0.00307278]
layer 1 Activation
tanh
layer 2 Dense
20 40
[-0.27944994  0.23405494  0.03690504 -0.14386497 -0.13263246  0.12711607
  0.31625095  0.32901743  0.14498271  0.06843377  0.07685     0.0137048
 -0.1969511  -0.19373542  0.13768089 -0.17677285  0.0745186  -0.07901714
  0.08673707 -0.03469823 -0.15872282  0.19646312 -0.02244088  0.08263859
 -0.21736422  0.09706385  0.1738521  -0.20684217  0.26165485  0.05551378
  0.06775219 -0.1230928  -0.01151554  0.02859499 -0.16113214 -0.09106503
 -0.09900499 -0.16742085 -0.10785383  0.21368271]
[-0.04240908  0.18951415 -0.13990407  0.18873739  0.14122926 -0.08585672
  0.07012118 -0.05020702 -0.06612144  0.23103969 -0.16226025  0.24451528
  0.10137898  0.21142538 -0.17443904 -0.18370268 -0.23821744 -0.1736573
  0.18898292 -0.05175781  0.01401236  0.06982857 -0.26643422  0.17608227
  0.15066871  0.07937101  0.13694587 -0.05014852  0.31412506  0.20179027
  0.18732378  0.05302807 -0.2726817   0.1316158  -0.18034416 -0.28713855
 -0.08392314  0.06020348  0.08824552  0.12692672]
[ 0.18303242 -0.03382235 -0.29982743  0.13243175  0.20813467 -0.28304154
  0.05994637 -0.04968541  0.08555433  0.07135257  0.1174028   0.23163068
 -0.10668387  0.25241685  0.0841698  -0.11481511 -0.08620694  0.13493134
  0.07391997 -0.18578875 -0.1774125   0.04647313 -0.11579363  0.1063846
  0.19620113  0.30278692 -0.27076438 -0.06469486 -0.26631942  0.06362554
  0.13159934 -0.20815572  0.08662561  0.01327276 -0.1863505  -0.27081057
 -0.12977496 -0.08780222  0.18196328  0.12296335]
[ 0.08974645  0.23709492 -0.05641399  0.00212159 -0.17255458  0.1758845
  0.07435974  0.17945814 -0.02884425 -0.07837357 -0.02187472  0.17461963
  0.05067102 -0.08296029 -0.08350482  0.01909082  0.3691651  -0.07525493
 -0.32270512  0.09694854  0.1616673   0.27736494 -0.28611237 -0.13292244
 -0.21939352  0.01466864 -0.19551736 -0.21010669  0.04386211 -0.1521736
 -0.0646473  -0.25357282  0.2185054  -0.18321127 -0.19085613  0.01784169
  0.07879377  0.1867541  -0.16968074 -0.07940488]
[ 0.11060866  0.04449823  0.00388816  0.13980494  0.20374629  0.25951427
  0.29252777  0.18042588 -0.16213807 -0.08629107 -0.13912793 -0.28200528
 -0.28447378  0.18484332 -0.06951479  0.03327189 -0.05477663  0.14201893
  0.13656692 -0.17931572 -0.1679814  -0.11119643  0.09104539  0.11686044
 -0.18336655  0.22308983 -0.26094118  0.1680926  -0.20232604  0.28622586
  0.04500198  0.21393582  0.26048526 -0.08017145 -0.02637175 -0.06022954
 -0.23650318 -0.02424969 -0.02259511  0.23887685]
[-0.22041032 -0.10294165 -0.286185    0.26351002 -0.10899544 -0.06390788
  0.06466186  0.19365399 -0.00326766 -0.26556477 -0.08223546 -0.21112317
 -0.00077327  0.2638605   0.02459561 -0.22216392 -0.32355934 -0.24445395
  0.20408797  0.29647276  0.01791176  0.07599477  0.1215822  -0.28022438
  0.14040838 -0.1599358   0.02936774  0.20063257 -0.18968849 -0.18478322
 -0.14416632  0.02251908 -0.24314629 -0.00740651  0.14574505 -0.00481192
  0.16769725 -0.25636908 -0.0570479  -0.24285266]
[-0.00500328  0.12773855  0.19590513  0.0978139   0.18706022  0.25431272
  0.01737186 -0.06349112 -0.02632411 -0.10560335 -0.26092607 -0.1570181
 -0.1553893   0.30225483 -0.03445937 -0.04678496 -0.05284283  0.06015727
 -0.20567577 -0.25308102  0.11879065  0.2893012  -0.19223338  0.03380208
 -0.15747432  0.22932456 -0.16761541 -0.24099773 -0.21766053  0.31215215
 -0.2569063   0.18179244 -0.04236316  0.17077187  0.05778108 -0.23242298
 -0.01180547 -0.05397571  0.35050103  0.257981  ]
[ 0.3079803   0.03031123 -0.24140649 -0.03791142  0.09035085  0.0039449
  0.15687037 -0.05134326 -0.03374465 -0.10146508 -0.05091463 -0.27697504
  0.13916321  0.2542795  -0.09658349  0.20918469 -0.00768655 -0.18755949
 -0.2694987  -0.0920625   0.07271826 -0.02730155  0.00235403  0.22000243
 -0.21949016 -0.0233632   0.09861972  0.01464375  0.10010641 -0.04144711
  0.16902992 -0.0991885  -0.03157245  0.1340575   0.10058192  0.25087994
  0.31866238  0.05436574  0.06265244  0.0022383 ]
[-0.29828018  0.29968238  0.23323083 -0.06696559  0.12317364 -0.19900157
  0.06331037  0.20650366 -0.13154687 -0.01821692 -0.36719552 -0.24284287
 -0.11892381 -0.22225583 -0.07706004  0.0579403   0.02428597 -0.09687785
  0.03365221 -0.25047952  0.03388513 -0.10656866 -0.07181416 -0.11831411
  0.13869596  0.16900653  0.18490677  0.08010221  0.17854068 -0.11752665
  0.24210532  0.16646312 -0.03592145  0.04474948 -0.0019649  -0.27863967
  0.14358051 -0.28997195  0.06729958  0.18528852]
[ 0.235564   -0.17115465  0.12493083  0.08000055 -0.30326137  0.19324614
  0.00308277  0.21780458  0.19243698  0.07642506 -0.15176308 -0.06464005
  0.09461603  0.09197801  0.1037887  -0.13916275 -0.30455905  0.26182052
 -0.21823949 -0.21250717 -0.2780207   0.05575892 -0.05613846  0.07596769
 -0.30493382  0.1316029  -0.27915636 -0.05753093 -0.29205513 -0.0761055
 -0.22749294  0.0267713  -0.06193392  0.2691497  -0.0572273  -0.00896557
 -0.26233837  0.13891172  0.22869298  0.1427625 ]
[-0.20306253 -0.15411732  0.1365168  -0.19975229 -0.08810653 -0.11370967
 -0.21935496 -0.03519308 -0.06996933 -0.05688881 -0.05345872  0.22030547
  0.13495806 -0.03786527 -0.08477832 -0.00133098 -0.09430441  0.30092612
 -0.16074528 -0.07640359  0.24901044  0.06365746  0.10204001 -0.03002607
  0.00532633  0.12186389  0.03549197  0.07246434 -0.02987313  0.22459534
  0.06349772 -0.26393783  0.06597574 -0.08456209  0.12787123 -0.22324634
  0.20125008 -0.07545484  0.11048816 -0.26326874]
[ 0.02192125  0.05648188 -0.24747805 -0.10530702 -0.09170772 -0.07193906
 -0.10346641  0.3398605   0.02313436 -0.15374565  0.25019786 -0.0559389
  0.23877299 -0.32206556  0.18219663 -0.4024905   0.21610817 -0.02440551
  0.37327263 -0.21082132  0.03165459  0.04236412  0.2440697  -0.2798866
 -0.16179496 -0.41657686  0.22026332  0.14096473  0.13558671 -0.12202669
 -0.09626892 -0.07416528  0.12754183 -0.22248001 -0.25599432 -0.01790983
  0.24267116  0.07711785 -0.28065524  0.00899433]
[-0.11832584  0.07781892  0.17428932 -0.24176858  0.32099473 -0.266796
 -0.29771096 -0.06475031  0.02832538 -0.16277027 -0.03740326 -0.0123389
  0.14947505 -0.23050065 -0.17126393 -0.10487337  0.28644103  0.01007165
 -0.03596579  0.03168035 -0.2802101  -0.08599912  0.2899504  -0.03079018
  0.15777138 -0.32167065  0.17546603  0.04273295  0.02594549  0.19851694
  0.04960078  0.31334236 -0.14549959  0.22632347  0.01279551 -0.24910545
  0.26106298 -0.3340408   0.03414959 -0.17487393]
[-0.21269439  0.15448257  0.10055716 -0.25560716  0.02920343 -0.08653823
  0.23700191 -0.06398404 -0.14019258  0.09794641  0.07254872  0.20791146
  0.25544193 -0.17562546  0.21276626 -0.08745471 -0.22295631  0.28170288
  0.07792713 -0.12035668  0.28915125 -0.08602198  0.12248693  0.28992474
  0.01332442  0.13934663 -0.03140971 -0.10451519  0.18892923  0.2571731
  0.22639239  0.03835757 -0.01798058 -0.2791923   0.05284266 -0.00567777
 -0.20531908  0.08881426 -0.06252847  0.02815198]
[-0.06368883  0.20995754 -0.27293268  0.08117579 -0.11180975 -0.10037547
 -0.15368386  0.270733   -0.1579794   0.1242003   0.03847275  0.2415979
 -0.36755186  0.26995495 -0.01530368  0.03112731  0.10972091 -0.00163104
  0.09407855 -0.0008663  -0.24545398  0.2411816  -0.39551327 -0.14870587
 -0.20163853  0.01257326  0.06494483 -0.07498115 -0.23018436 -0.2794263
 -0.09122269  0.29854187  0.27164376  0.16874312 -0.15810351  0.03607024
 -0.24355368  0.09686188  0.3026798   0.03184879]
[ 0.0923449   0.20135006  0.2212494   0.00390552 -0.31195047 -0.16514198
 -0.13712011 -0.00217694  0.24119852 -0.06992079  0.14878722 -0.161106
 -0.11253294 -0.06193779 -0.23047885 -0.14259198 -0.18158917 -0.04239476
  0.1698324  -0.07393149 -0.24326634 -0.1131928   0.17975914  0.05131301
 -0.03403347  0.39146146  0.08799925 -0.16115262  0.121526   -0.16383658
 -0.09683254  0.1457763  -0.20701468  0.2510029   0.12347244 -0.1243682
  0.13210307  0.1752267  -0.1734857   0.0668955 ]
[ 0.26240584 -0.00413847 -0.16457881 -0.18539344  0.05480881  0.23688488
  0.07520936  0.06605776  0.01464645 -0.23224936  0.26118687  0.25438082
  0.1818713   0.35231104  0.11155963 -0.11775412  0.24529529  0.25268382
  0.05860022 -0.25428188  0.31408224 -0.10735147 -0.09453963 -0.24390613
  0.08551406 -0.33161908  0.27833083 -0.34761193  0.23724344 -0.13402948
  0.31806144 -0.19409157 -0.1675368   0.21028993 -0.09268559 -0.01772865
  0.03602063  0.22325212 -0.31411663  0.18159808]
[-0.22590145 -0.28323492  0.13708884 -0.37259367 -0.03452526  0.1115228
  0.2684496  -0.04708923  0.14462587 -0.0391833  -0.14761968 -0.0965018
 -0.20962815  0.02227668  0.01273881  0.09662014  0.04681012 -0.35743174
  0.05217701 -0.00731277 -0.05964937 -0.27505326 -0.04817106 -0.3709414
  0.28494024 -0.34099618  0.1579339  -0.16025443  0.07107059 -0.12861192
  0.1567017  -0.13304652  0.06306817 -0.25263122 -0.39061433 -0.06793163
  0.3061203   0.17220807  0.13750994 -0.19236736]
[-0.12543643 -0.13055961  0.02142042 -0.11034814 -0.34789976  0.29065722
  0.2052737  -0.2829183   0.09360173  0.15605085 -0.13042319  0.23387027
  0.04040602 -0.15317148  0.1309376   0.0716773   0.2508831  -0.27045992
  0.09796517 -0.00350418 -0.15651287 -0.2812244   0.05068626  0.26187584
 -0.24424556 -0.36433154  0.12790905 -0.24565807 -0.22234155  0.08827594
  0.20280403  0.10066234 -0.16076186 -0.18802889 -0.31923082  0.10401203
 -0.0561314  -0.04012175  0.02635322  0.07156893]
[ 0.06105816 -0.3154759  -0.18973382 -0.19499886  0.13067074 -0.15955722
 -0.2175366   0.15630412  0.15486594  0.10362244 -0.23331168  0.00181266
 -0.0171965   0.07503036 -0.06577805  0.17401046 -0.17555864 -0.0943101
 -0.09644642  0.25047007 -0.1735307   0.03258729 -0.10851348 -0.19305575
  0.13278462 -0.08384014  0.00360531  0.02562658  0.13606018 -0.20856886
 -0.25393242 -0.02237283  0.2110417  -0.23167609  0.13056485 -0.15792637
 -0.0980327  -0.20724535  0.31125703 -0.0289149 ]
[ 0.01504088  0.01292736  0.0531029  -0.05149652  0.06767241  0.03169734
 -0.08678596  0.03096147 -0.05433374 -0.01245966  0.0732495   0.02623503
  0.0983296   0.02470706  0.00744034 -0.00176912  0.08576564  0.01457268
 -0.07012302  0.00413315  0.00067253 -0.01733564  0.0344467  -0.01174432
 -0.00397156 -0.05889561 -0.01390724 -0.00203348  0.03940639 -0.03438178
  0.082056   -0.02346897 -0.01441891  0.00715095 -0.07167335  0.03525823
  0.00073153  0.00695577 -0.07860801 -0.0204192 ]
layer 3 Activation
tanh
layer 4 Dense
40 20
[ 0.03453523  0.11076779 -0.394827   -0.04574505  0.11699255  0.10612935
 -0.12203831  0.05158228 -0.17086774 -0.03105925  0.07281354  0.04704606
  0.13935213 -0.04480482 -0.24981792 -0.09173728  0.1392244   0.10705797
  0.12336524  0.18343532]
[ 0.2435186   0.07668377 -0.12714262  0.26600337 -0.21369931 -0.06173982
  0.31207538  0.07287341  0.05435291  0.00656554  0.04619426 -0.16397074
 -0.25120884 -0.12176041 -0.01962845 -0.21295911 -0.23695087 -0.11126272
  0.0710725  -0.18026353]
[ 0.01991549  0.0562177  -0.27493992  0.26358372 -0.21860997 -0.18694772
 -0.34464794 -0.11724795  0.10873928  0.16280706 -0.16061947  0.02225898
 -0.04405582 -0.07225581  0.28658864  0.16508035  0.11059232  0.16838984
  0.15171589  0.22902709]
[ 0.20404959 -0.2075452   0.12526761 -0.02245843 -0.17203937 -0.28061292
  0.23201434  0.21137905 -0.19645545  0.14047018  0.15649378 -0.0110149
 -0.06811479 -0.08860596  0.14602746  0.13404053 -0.27046898  0.06186809
 -0.22331904  0.15791686]
[-0.2641149   0.3231893   0.20304103  0.18243587  0.15197806  0.18550725
  0.1505451   0.1165866  -0.17105086  0.20648313 -0.16213413 -0.05653424
 -0.0804547   0.23535769  0.00894555  0.21146302  0.10218702  0.21826085
  0.03900393  0.12399194]
[ 0.07753824 -0.00093003 -0.1381186  -0.12110363  0.22809094  0.15595818
  0.24819176  0.17587245 -0.19876678 -0.17343526  0.15341644 -0.24026726
 -0.14537935 -0.27275243 -0.13445002  0.0906706   0.23061696  0.23406354
  0.16078465 -0.21730225]
[-0.19652426  0.28716972 -0.05205496  0.10024863 -0.08181293 -0.22670136
  0.03153432 -0.28577316  0.22189522 -0.30431336  0.26693913  0.05951729
 -0.1163936   0.10082612  0.21965246 -0.30527043  0.06889285  0.0932329
 -0.28221723  0.04827329]
[-0.2593499   0.15306985 -0.06188149 -0.2572712  -0.18700637 -0.19615473
 -0.08853547 -0.20763417  0.17063853 -0.24373692 -0.11154945  0.11413912
  0.2876991   0.27494782 -0.2063653  -0.06435249  0.15467541  0.2228077
 -0.05042208 -0.00523629]
[-0.16060126  0.0184086   0.01132881 -0.0478237  -0.06939511 -0.08221453
 -0.04184835 -0.2628515   0.08274829 -0.11052853  0.18633565 -0.02473919
  0.17862356  0.2898367   0.06180957 -0.20616557 -0.12147668  0.07684862
  0.02206502 -0.17711079]
[-0.15218729 -0.05676999  0.1971022  -0.21713287  0.23554502  0.04536927
  0.25145814  0.30048516 -0.17174906 -0.03760264 -0.21057633 -0.08295429
  0.15029737  0.15212518 -0.22974084  0.3531941  -0.18983456 -0.29638284
 -0.09022785  0.03261162]
[-0.37833875 -0.16943114 -0.06002871  0.08935104 -0.03387639 -0.0637996
 -0.31714243 -0.0222375  -0.2448932  -0.21140577 -0.30295685 -0.21350276
  0.23172668 -0.20332593 -0.09518593  0.11822751 -0.05200404 -0.2738872
  0.2972422  -0.2785427 ]
[ 0.17667866 -0.2606875  -0.01634951 -0.20148845  0.15466002  0.19256379
 -0.21964975  0.2339585  -0.21981923 -0.08943279 -0.31718305  0.2502908
 -0.25265297  0.25990975 -0.24579197  0.25323957 -0.08246507 -0.16188216
  0.11704948 -0.13366063]
[-0.23222521 -0.25652993 -0.18285897  0.16606355 -0.08018684  0.17738254
 -0.06919514  0.23595607  0.03439486  0.01697871 -0.2797206  -0.24965745
 -0.23570086 -0.21705323  0.1460378  -0.35402298  0.13852318 -0.09624227
 -0.0495897   0.02641442]
[ 0.12370204  0.20758955 -0.1596156  -0.25305367  0.26092562 -0.21535718
  0.03552636 -0.19475707  0.13118379  0.20039076 -0.06971376 -0.06259204
  0.08902198  0.02914368 -0.25932413  0.13741714 -0.22070459 -0.3057847
 -0.17580749  0.11743288]
[ 0.07378202 -0.11691187  0.20997678 -0.19949464 -0.11100812 -0.1403676
  0.09586679  0.23758192  0.24292332 -0.3922457  -0.05942009 -0.10642023
  0.40453434 -0.30651245 -0.10286085  0.12831226 -0.05529609 -0.36919892
 -0.14766996  0.06884002]
[-0.03767581 -0.00638231  0.02253754  0.15460642 -0.18354589 -0.18673892
  0.07383454 -0.00210067  0.12520821  0.08902029  0.13712424 -0.3025262
  0.17952158  0.08813095  0.35159948 -0.18992348  0.08730334 -0.3947323
  0.17824215  0.05500175]
[ 0.30668715 -0.22970827  0.09906761 -0.12909894  0.19263734  0.32410368
 -0.08344931  0.1172973   0.04490556 -0.13200371 -0.13624927 -0.3010269
  0.22225565  0.23298644  0.0386798   0.17876785 -0.06812689  0.00855391
  0.26214612 -0.11458676]
[ 0.03117487 -0.05056996  0.14300929  0.1825579   0.15666927  0.06014022
  0.2049688   0.21771897  0.15241024 -0.21101567 -0.21003738  0.09996853
  0.04514272 -0.2641869   0.01440778  0.3343101   0.11824984 -0.03510345
 -0.10987941  0.2153488 ]
[ 0.08997416  0.18151587  0.16049716  0.07311065 -0.05298961 -0.02100285
  0.2180276  -0.24467751 -0.22142977  0.14017175 -0.03788498  0.10738389
  0.27038157 -0.1878862  -0.16948155 -0.05440798 -0.22228839  0.1849744
 -0.22389317 -0.27734232]
[ 0.121847   -0.03477453 -0.2511897  -0.3026632  -0.19500355 -0.02716538
  0.10168616  0.1278362   0.06989005  0.253886    0.22312225  0.03250038
  0.16474296 -0.05071002 -0.16577974 -0.04002361 -0.17547028  0.00787589
  0.25677073 -0.084252  ]
[ 1.05565395e-02 -2.39010707e-01 -3.77455771e-01 -1.52125165e-01
 -4.55376916e-02  1.03870757e-01 -6.42928900e-03  2.36477941e-01
  7.23245591e-02 -2.19794974e-01 -4.79354970e-02 -2.78558463e-01
  3.81541960e-02 -1.52371392e-01  8.14267769e-02 -3.54799181e-01
  2.43068650e-01 -1.57977581e-01 -1.29617676e-01  1.05907413e-04]
[-0.19385305 -0.20809717  0.20818228  0.06542683 -0.15647607 -0.1472926
  0.23850325  0.2917902   0.09683444 -0.05395579  0.33244294 -0.03163248
 -0.21065347  0.24699664  0.13177915 -0.07523113  0.29437938  0.1650774
  0.07250923  0.0803453 ]
[-0.01408981  0.3378309   0.13702242 -0.05987646  0.2514686   0.11665753
 -0.20748739 -0.26867846  0.0124368   0.00358503  0.12032522  0.03498482
 -0.15336224 -0.1261398  -0.13809119 -0.2964108   0.23818173 -0.2462789
  0.15125495 -0.09788387]
[ 0.15775159 -0.30105883  0.39536047  0.24940324 -0.29823408  0.091638
  0.07227927  0.08918898  0.13917969  0.02934698 -0.12112742  0.19070674
 -0.12082575  0.18768731 -0.23140211 -0.10910627  0.15500757  0.05065029
 -0.295734    0.07421958]
[ 0.2991259  -0.22188325  0.05536582 -0.22452497  0.20537876  0.15141776
 -0.05037024 -0.21054913  0.04865951 -0.1639876   0.19412939 -0.02676004
 -0.18097682  0.14596704  0.2653854   0.17893    -0.01173314 -0.18278916
  0.2133719  -0.21187137]
[ 0.04703203  0.29470506  0.3825111  -0.11934027  0.09594279  0.05135823
  0.25412568 -0.2987032  -0.31077123  0.12106282  0.21439256  0.29911768
  0.28592485 -0.22069159  0.03240316  0.32327393 -0.23573288 -0.12206297
  0.07597739  0.31181505]
[ 2.67221063e-01  1.16390124e-01  2.09897102e-04 -1.52548149e-01
 -3.46667469e-02 -2.16048323e-02 -2.02983856e-01 -1.16664559e-01
 -1.36112005e-01 -9.32192951e-02 -1.47520527e-01 -2.58736402e-01
 -5.12632914e-02  3.78638618e-02  1.39374822e-01 -1.98765829e-01
 -1.07156031e-01 -4.63679507e-02 -5.16682714e-02 -6.49142936e-02]
[ 0.1479762  -0.00868913  0.28039652 -0.18801625  0.2020269  -0.21836801
 -0.01511648  0.19087206  0.28194743 -0.13731273  0.05507716 -0.10516376
 -0.07430069  0.12282143 -0.07809356  0.22848217  0.19892621  0.07322448
 -0.03984406  0.18263167]
[-0.0126426   0.31754255 -0.08619593  0.08497517 -0.32256496 -0.06467079
 -0.1362805  -0.01525193  0.13415374 -0.16904068 -0.18854786 -0.3085182
  0.06187635  0.08414773 -0.21167128 -0.12367975 -0.00320013  0.10809129
  0.29733968  0.2549127 ]
[ 0.10625089 -0.11674113  0.16622752 -0.07285637 -0.00998483 -0.2942821
 -0.08575504  0.0687127  -0.14619163 -0.20899351  0.01399468  0.2478381
 -0.01062244 -0.20830502 -0.20974252  0.166205   -0.1654998  -0.03308809
 -0.22964363 -0.2411918 ]
[-0.27871886  0.22376919 -0.35329273 -0.22066128  0.27249485  0.24740458
 -0.19546883 -0.24004602  0.29618603  0.14565201 -0.18312758 -0.12276372
 -0.02500848  0.00586458  0.10712413  0.08630319 -0.17715837  0.12945889
  0.28153676 -0.08444345]
[-0.03260262 -0.06430208 -0.02149863  0.2723397   0.00749753 -0.2847315
 -0.13478798  0.1908172   0.20078407 -0.01085188  0.13168117  0.16051832
  0.01605947 -0.17478165 -0.12888183  0.06694283 -0.18289477  0.14397554
 -0.12069131  0.1627878 ]
[ 0.09784824 -0.1882159  -0.05655938 -0.1788385   0.11716014 -0.04518376
  0.1807574   0.26395604 -0.27665398 -0.19383262  0.154702    0.04763887
 -0.19818218 -0.04016878 -0.23657808  0.26111084 -0.0640795   0.07049482
 -0.04306837 -0.19901474]
[-0.15134194  0.21671306 -0.17370062 -0.2443716   0.13501784  0.32104984
  0.2538984  -0.33863235  0.03194958  0.07251304 -0.14472176  0.10736167
 -0.15628444 -0.26839405  0.01373518  0.00858216  0.08691436 -0.0435985
  0.13627166  0.27361342]
[ 0.22017379 -0.11265457 -0.10515485 -0.2016006   0.12420474  0.12541606
  0.15400817 -0.2376032   0.05237936  0.10928727  0.27999684  0.28005967
 -0.0833638   0.20305432  0.2990105  -0.04969686  0.05498824 -0.05584014
 -0.0507038  -0.01036879]
[-0.23589781  0.05164716  0.01370402  0.3158783   0.02394162  0.25350243
  0.02776073  0.1724438  -0.0329482   0.04608263 -0.09794662 -0.17724185
  0.18155015  0.06967828  0.15992919 -0.24268712 -0.04948613 -0.14585827
  0.2414052   0.04860045]
[ 0.2564661   0.19280371 -0.36474928 -0.15009993 -0.15798882  0.22584201
  0.26741582  0.15072346 -0.22254972  0.12621018 -0.17417984 -0.12630582
 -0.26007956 -0.14147511  0.1620737   0.07029818 -0.2029353   0.21355732
 -0.14552876 -0.13056067]
[ 0.19876459 -0.23292528  0.00962718 -0.38042787  0.09851559  0.16732623
  0.10258339 -0.02008529 -0.21122658 -0.3011838  -0.13539235 -0.11129318
  0.19956465  0.12532505 -0.151183    0.19305055 -0.07439084  0.1364293
  0.01889639 -0.08811826]
[ 0.18463548 -0.33613056  0.442208   -0.2500718   0.06873862 -0.23150386
 -0.24026814  0.25366223  0.09379527 -0.01748729  0.02958606  0.36730847
  0.16941388  0.2623288  -0.11008824  0.31681517  0.10966699 -0.04005051
 -0.17203031  0.09105888]
[ 0.0916715  -0.3183271  -0.03651864  0.28189623 -0.14316669  0.1022138
  0.37869343  0.2167261   0.27496096 -0.01278259  0.26420566 -0.03032248
 -0.2948612   0.11418229  0.1329098   0.12301365  0.08611777 -0.05582703
 -0.16936722  0.01637332]
[-0.01474441 -0.02459946 -0.16461663 -0.0231817   0.00764596  0.01986418
  0.00647954 -0.00541251  0.03478532  0.00639007 -0.075583   -0.04427602
 -0.03452487  0.02387463 -0.01836273 -0.0287337  -0.02225765  0.034006
  0.09424064  0.00322629]
layer 5 Activation
tanh
layer 6 Dense
20 1
[0.0088464]
[-0.12229721]
[-0.0122159]
[-0.01979411]
[0.04051145]
[-0.2790667]
[0.19178428]
[-0.11963028]
[-0.02932382]
[-0.02906323]
[-0.33779413]
[0.28570208]
[-0.01698568]
[0.00055744]
[-0.0604942]
[-0.10341294]
[0.01930959]
[-0.00038883]
[0.32288626]
[0.11439873]
[0.0293298]
