layers 7
layer 0 Dense
20 20
[-0.38985553 -0.6217702   0.00624353 -0.17411816  0.06069656 -0.27989474
  0.05246365  0.24919195  0.00249135 -0.35995832  0.2931827  -0.35490355
  0.11761677 -0.22081023  0.62058836  0.2337174   0.29999447  0.5108516
  0.10296286 -0.25887612]
[-0.68026     0.66570604 -1.3561374  -1.2868698  -0.05143771  0.7043285
 -0.05960444 -0.60049355  1.197976   -0.03895355  0.1425314  -0.48835373
  0.03452599  0.10076705  0.05093072 -0.06458614  0.44630477  0.23787333
 -1.1572447   0.38270408]
[-0.5704067   0.6757832  -1.2911     -0.56132525 -0.0222038   0.49326983
  0.2381624  -0.7436795   0.9486407  -0.324049    0.15861996 -0.03431277
 -0.6380589  -0.37768906 -0.13648573  0.14092885  0.07382794  0.2343225
 -1.5944659   0.3343594 ]
[ 0.28404728 -0.5580974   0.14043717  0.08949595  0.49790117 -0.5331512
 -0.28528586  0.30100664 -0.05856268  0.03444827 -0.38877887 -0.31793895
 -0.39200497 -0.2200293   0.37155384  0.41071767  0.3617065   0.6105832
 -0.28428695 -0.3722449 ]
[-0.01738571  0.07740067 -0.2902005   0.56822747  0.34265807  0.43859097
  0.417846    0.02880102  0.28559023 -0.15299459  0.22803655 -0.15928112
  0.02138605 -0.26485798 -0.26664528  0.30506226  0.54552245  0.40678522
  0.2480026  -0.21057887]
[ 0.99851024 -0.36699763  1.2241822   1.1049638   0.17914473 -0.7952135
  0.37621084  1.0833251  -0.7902563   0.2576775  -0.7856296  -0.01593202
  0.4509413   0.30634743 -0.22056223  0.39585337 -0.3701865  -0.3366773
  1.5494326  -0.16607279]
[ 1.0464501  -0.81853735  1.3671739   1.2070689  -0.01550596 -0.50570923
 -0.26490366  0.9703107  -1.1669931   0.05232532 -0.7850138   0.61720115
 -0.10086127  0.3586949   0.07138318  0.19344412 -0.6374136  -0.2796042
  1.5947404  -0.30981052]
[ 0.22554564 -0.11096094 -0.27283445 -0.3993571  -0.28778568  0.16438761
  0.2646289   0.18615875 -0.3756437  -0.22912909 -0.12094108 -0.30627212
 -0.38455385  0.3910392   0.25458568 -0.20333552 -0.00499242  0.09542413
  0.10558026 -0.09420563]
[-0.46146697 -0.37309876 -0.72399044  0.8177803   0.4461911  -0.78021866
 -0.83304256  0.6215451   0.7609303   0.43592808  0.5682698  -0.72845995
  0.80312634 -0.67754394  0.10919435  0.46237162 -0.289538    0.93738014
  0.18527536  0.25478002]
[-0.15064391  0.8584969  -0.7514931  -0.64499086 -0.55222166  0.5226568
 -0.18769531 -0.12774421 -0.21502678 -0.66255826 -0.6079526  -0.8897585
  0.14807355  0.6256222   0.5607154  -0.5980493   0.13578956 -0.02843157
 -0.6245383   0.1439477 ]
[-0.26041162 -0.01391383  0.40672404 -0.13129847 -0.45045012  0.41733655
 -0.13212334 -0.24893677 -0.29658893 -0.37194455 -0.4699744  -0.1615686
 -0.11421849  0.3890027   0.11661526 -0.19287498 -0.5075705  -0.17042013
  0.11730395  0.8512193 ]
[ 0.42515412  1.0627761  -1.0746175   0.3535171   1.3133613   0.42240682
  0.32209158  0.00441973 -1.2458928  -0.48107466 -0.18282945  1.3515685
 -1.4244218  -0.02168095 -1.6073426   0.6482046   0.08560304 -0.31912488
  0.83170444  0.03178817]
[-0.5618436   0.29660627 -0.10627417 -0.28283578  0.11852141  0.19895945
  0.33302832 -0.8028556  -0.8751264  -0.35284832  0.5723099  -0.66363436
 -0.043735    0.68684405  0.0598211  -0.11478382  0.99739385  0.41290918
  0.4482665   0.21054497]
[ 1.103589   -1.4705131   0.42208052  0.22631793  0.62327665 -0.9642259
 -0.5585293   0.606015   -0.05765981  0.2298299  -0.7899712   0.89626807
 -0.15688345 -0.4094506  -0.37322563  0.31316108  0.18760961 -0.65548164
  0.9080467  -0.31184208]
[-1.3975757  -0.1786762  -1.6137817  -0.4999151   1.160411   -0.48196423
 -1.2836214   1.2365304   1.0454185   0.99542063  1.5760154   0.3138536
  0.2797573  -0.09382527 -1.1763048   0.35980168  0.03212541  0.59245044
 -0.4494722   0.42375076]
[-0.49638364 -1.7113938   0.22524096  0.3333323  -0.4616538  -0.66839844
  0.00410683  0.08894392  1.0473008  -0.23407327  0.08913287 -0.36890867
  0.8436349   0.08040884  2.062396   -0.6501354  -0.45522147  0.7340605
 -2.0021272  -0.21318911]
[-0.10538219  0.2054445   0.6983519   0.8119202   0.424746    0.31289512
 -0.00236868  0.4563459   0.00252603 -0.16022265 -0.20376466  0.19399786
  0.27184415 -0.41344655  0.28214076  0.35821348  0.15273355  0.41508713
 -0.48399147 -0.26369056]
[-0.9347572   0.75742126  0.17230307  1.0544482   0.3187067   0.7538992
  1.2585748  -0.8584458  -0.51391333  0.6673197   1.2848669  -0.10230611
  0.6455104  -0.2821394   0.42225128  0.6827568   0.58003986  0.58243674
 -0.9801376   0.35317677]
[ 1.0087438   0.18293525  0.7164025   0.7220018   0.24178602  0.00297685
  0.10200527 -0.01590865 -0.19189388 -0.27001083 -0.55682075  0.18043157
 -0.22481774  0.07837313  0.5895221  -0.2086421   0.09069382  0.05375776
  0.15262821 -0.7386828 ]
[-0.09919118  0.17033333 -0.88046974 -1.4185834  -0.2986082   0.7705558
  0.11715914 -0.5896167  -0.7774511  -0.30667743 -0.01355169  0.17890048
 -0.8646498  -0.03968222  0.23666131 -0.11348609  0.33481345  0.5196647
  0.6934927   0.7084278 ]
[ 0.260577   -0.02532672  0.15809922  0.0856885  -0.0440033  -0.15111208
 -0.04584812  0.07265812  0.05216726  0.07932194 -0.2162311   0.08596271
 -0.144082   -0.07710075 -0.12773526  0.138063   -0.01695951 -0.32202625
  0.03899629 -0.2505563 ]
layer 1 Activation
tanh
layer 2 Dense
20 40
[ 0.46140906  0.31698588 -0.29054633  0.21063162 -0.10878646 -0.20013891
  0.13782303  0.5451814   0.54330325 -0.22961758 -0.32176512 -0.06023813
 -0.3338744  -0.53024095 -0.13507514  1.3299171  -0.2640468   0.26996577
 -0.18306334 -0.714459    0.5874043  -0.06186346  0.09509067  0.07562962
  0.14847818  0.09875043  0.05054303 -0.6818521  -0.49691892  0.9849166
 -0.31625333 -0.30713087 -0.07159302 -0.30325156 -0.22567004 -0.41212666
  0.1711006   0.93019944  0.06878334 -0.5608087 ]
[ 0.3472205  -0.17259462  0.28631556  0.6744513   0.28495836 -0.13513313
  0.12772438 -0.37439856 -0.4014266   0.24800526 -0.34368053  0.30027893
 -0.48718616 -0.15205422  0.04571317  0.3798306   0.03056961  0.27413622
  0.04407722 -0.29538366 -0.30637738  0.17289491  0.12556218 -0.2768887
  0.15360151 -0.10293517 -0.29391855  0.40254188 -0.56478006  0.605477
  0.46603906  0.18224902  0.4398775   0.4284694  -0.19649668 -0.02598798
 -0.29234725 -1.0883383  -0.14303504  0.20813565]
[ 0.2955489   0.8050635  -0.01497056  0.02735865  0.07938975 -0.8438044
  0.3289045  -0.4460937   0.537464   -0.07469181  0.23622125 -0.12888698
  0.15241987 -0.44856527  0.2886159   0.41184786  0.11696731 -0.1836362
  0.1078712  -0.22422959  0.49609342 -0.37319398 -0.07698048 -0.34239268
  0.10949907 -0.00920629  0.39009967 -0.6184835  -0.2723735   0.2520616
 -0.13036625 -0.6630884  -0.47498068  0.01542229 -0.23542924 -0.23302561
 -0.07409948  0.45983538 -0.25217345  0.5505472 ]
[ 0.07154871  0.23203613 -0.3245096   0.12247692  0.128959   -0.5516419
 -0.2836287   0.2162932   0.40009695 -0.40320998  0.70847225 -0.5608567
  0.33406883 -0.03314272 -0.04569369  0.05728672  0.42223766  0.08313144
 -0.22767551  0.05463304  0.25006267  0.13571648  0.20570515 -0.14503968
 -0.05850923  0.31797656  0.20844515 -0.39155063  0.30693537 -0.64326966
  0.08116451 -0.65817654 -0.3528394  -0.04439189  0.14100516 -0.02516969
  0.72058743  0.34394106  0.22898142 -0.03389771]
[-0.02194121 -0.70260173 -0.0669326  -0.18134815 -0.2820276  -0.06182328
  0.1958576   0.48656613  0.04451757  0.47492376 -0.10787722  0.12146514
  0.71674085  0.36048228 -0.16098051  0.01055067 -0.21063253 -0.04444765
  0.06861136 -0.04188301 -0.11888777 -0.17244372  0.10221604 -0.084757
 -0.11679356  0.12583347  0.39267236 -0.04895249  0.38806313  0.11864163
 -0.32438654  0.28544602  0.2955799  -0.17993662 -0.17245424 -0.69906217
  0.5097506   0.3935799   0.06378289 -0.13440414]
[ 0.19536127 -0.13933817 -0.03362426  0.1461694   0.2048988  -0.6621757
  0.23523772 -0.25550455 -0.6917428   0.04529366 -0.006446    0.31915227
 -0.15047808 -0.24096662  0.15112154 -0.03544689  0.20074995 -0.20670246
  0.54201543  0.26148152 -0.19612773  0.45561832 -0.01299668  0.25080657
 -0.38323775 -0.19843528  0.07787766  0.12743317 -0.34409863  0.2609755
  0.1610823   0.15123077 -0.01435223  0.65237796 -0.07538373 -0.30555686
 -0.3716885  -0.7539417  -0.2101725   0.01415973]
[ 0.78729916  0.6136366   0.02748849  0.8643633   0.13318267 -0.70650667
 -0.22404617 -0.4510746  -0.34049913 -0.48285717  0.11542799 -0.36351082
 -0.3990212   0.21737696 -0.08639718  0.30689713  0.10657316 -0.3092955
  0.21577308 -0.22727188 -0.11419692 -0.01876911 -0.06260867 -0.06331538
 -0.353706   -0.3147572   0.02248473  0.06692304 -0.40797833  0.38059112
 -0.5695122  -0.07815348  0.46038285  0.09142715 -0.38719237 -0.36527458
 -0.60132253 -0.14261828 -0.36370978  0.20438513]
[-0.4132265  -0.17298941 -0.05542746 -0.79425466 -0.16387464  0.91641206
  0.1433027   0.04614188  0.3261345   0.38992187 -0.0358929  -0.13536741
  0.46927282  0.3719207  -0.03675006  0.10563899 -0.25739363  0.1292187
 -0.22696713 -0.09806722  0.05253561 -0.16157563  0.21681125 -0.07822126
  0.237646   -0.16103649 -0.02477915  0.13121115  0.0267242  -0.16594622
  0.04791122 -0.42132542 -0.3322857  -0.01862635 -0.05626049 -0.04331358
  0.41145343  0.23829165  0.2078094  -0.17635438]
[-0.92977893 -0.36162546  0.27326593 -0.1912708  -0.37291074 -0.11519751
  0.37023094 -0.46524623  0.46422794  0.0086648  -0.48381543 -0.43484598
  0.2613158   0.35490918  0.11572494 -0.5120795  -0.0858375  -0.46388164
 -0.36493793  0.5855191   0.02769673  0.05999255  0.26461637 -0.08627669
  0.1834649  -0.23663227  0.08799001 -0.04704218  0.65922433 -0.17961292
  0.34356093 -0.39713636 -0.831398   -0.05696821  0.10854834  0.63615555
  0.25746822 -0.34877732 -0.06894193  0.02424678]
[-0.01953502 -0.16707706  0.19803923 -0.25643992  0.03738552 -0.47755134
  0.31494045  0.13706116  0.26471782 -0.0138406  -0.43422973 -0.12259673
  0.07666047 -0.02720621  0.02170854 -0.37148353  0.1289577  -0.11857897
 -0.10508718  0.31585237 -0.25557163 -0.10485146 -0.01556357 -0.13148797
  0.01383824 -0.26009727 -0.20158683  0.29788494  0.3845612  -0.37765196
  0.1584714  -0.21227273 -0.52042294 -0.12687244 -0.33395347  0.16154772
  0.20047767 -0.5340074  -0.04544172 -0.21475233]
[-0.0753858  -0.7605286   0.32881784 -0.33192775  0.04264111 -0.03337722
  0.09665947  0.5559143  -0.7304253   0.6902875  -0.22567463  0.60776055
  0.5152318   0.9216774   0.07122909 -0.6813323  -0.10755359  0.00661753
  0.25015962  0.96258575 -1.0370762   0.42613485  0.16100697  0.38041207
 -0.18011397 -0.06352464 -0.26286903  0.44743618  0.42484117 -0.5416706
  0.5245944   0.4265627  -0.27528685  0.14617059  0.5524986   0.27208987
 -0.0082334  -0.6165279   0.11282036 -0.18874262]
[ 0.0694439  -0.26034862  0.08100577  0.06531072 -0.07111364 -0.3268424
  0.18972385  0.7241342   0.3737677  -0.08785205 -0.22354645 -0.24267884
  0.22019404  0.13899162 -0.01553732  0.47146788  0.05732461 -0.24800856
 -0.2812568  -0.29684538 -0.3653756  -0.0958228  -0.06365129 -0.41644254
  0.22316779  0.1290514   0.03783659 -0.16868089  0.07332133  0.11210852
  0.03005953 -0.5327976  -0.3290722  -0.2227137  -0.13021588 -0.45734984
  0.01265281 -0.1919821  -0.31448644 -0.40400854]
[-0.06741918  0.46609184 -0.24276865  0.05918341 -0.25581595 -0.4766573
 -0.3100652  -0.06944757 -0.38625884 -0.3435127  -0.32135943 -0.0212994
  0.10147195  0.30361143 -0.04638703 -0.03284797 -0.10270558 -0.34315982
  0.26804256  0.27274284 -0.2604311  -0.00559339  0.02235477  0.184425
  0.26277176  0.02334303  0.01669219  0.45026538  0.24414524 -0.2826719
 -0.24343885 -0.01666118 -0.24160852 -0.23872471  0.20409547  0.472911
  0.04435579 -0.77447754  0.08816054 -0.08102384]
[-1.99520960e-02  1.76064238e-01  1.05896398e-01  4.42442536e-01
  1.40096486e-01  1.51177812e-02  1.28654301e-01 -2.61986732e-01
 -1.40611470e-01 -3.52948278e-01  3.09131108e-03 -7.90218860e-02
 -5.20552456e-01 -7.28397164e-03 -2.26796865e-01  2.87198603e-01
 -3.98963876e-02 -1.75891414e-01  3.62337381e-01  1.63712338e-01
  1.11252919e-01 -1.24331526e-01  1.03198849e-01  2.03203961e-01
  2.08968163e-01  5.02786948e-04  1.25931084e-01 -1.99685872e-01
  7.34535465e-03  1.91425487e-01  1.08850606e-01 -6.73313290e-02
 -2.19732657e-01  1.62768781e-01 -5.68718985e-02  1.13509797e-01
 -2.84611940e-01 -3.30717742e-01 -1.06888779e-01  1.86332881e-01]
[-0.42745048  0.7426079  -0.15769844  0.5049871   0.33660945 -0.36632997
  0.05519649 -0.7760879   0.21811533 -0.48226726  0.7092663  -0.1409762
 -0.01788698 -0.2441363   0.01923238  0.39142334  0.10998198 -0.29989436
 -0.15860917 -0.15588059  0.02122584  0.05607332 -0.4123876  -0.28799877
 -0.01706385 -0.17577174 -0.05069555  0.06295441 -0.09693895  0.2524142
  0.14134285 -0.42401683 -0.06591503 -0.21162896 -0.24121065  0.48322284
 -0.41727242  0.6774622  -0.32184216 -0.04788418]
[ 0.24239795 -0.4432817  -0.0313627  -0.22235413  0.1382618   0.27690804
 -0.16865487  0.29784     0.3071573   0.5316859   0.0158707   0.1742722
  0.46155396  0.0034479  -0.07495981 -0.71548045  0.08274157  0.25712767
 -0.18623696  0.0721165  -0.01118992  0.14620936  0.29930556  0.21966778
 -0.3580847   0.03308519  0.04258678 -0.08700482  0.06661396  0.03891529
  0.05227957 -0.01243819  0.29341662  0.01692652  0.20584561 -0.34517425
  0.28158212  0.09843823  0.01588916 -0.26319233]
[ 1.4496990e-01  2.8632069e-04 -1.0902631e-01  1.6606663e-01
  4.1294751e-01 -9.0907998e-02  1.9130991e-01 -2.5049841e-01
 -3.0775478e-01 -5.4498148e-01  3.2873425e-01  5.1412272e-01
  8.5252643e-02  4.4605470e-01 -8.0684669e-02  1.4975749e-01
 -1.4921233e-01  3.0933233e-02  7.6698504e-02  2.1793494e-01
 -4.0221187e-01 -3.3720210e-01  9.4383776e-02  1.4527354e-01
 -1.7556615e-01 -8.4216997e-02 -8.0124892e-02  1.5366563e-01
  7.1561478e-02  9.2122175e-02  5.8499044e-03  6.0695446e-01
  4.5347339e-01 -9.0902997e-03 -9.5785260e-02 -4.9643818e-01
 -5.9952122e-01  2.5764173e-01 -2.0997562e-01 -7.0019543e-02]
[-0.23864065  0.0718079   0.20809504 -0.24579835 -0.19843034  0.00998044
 -0.11089522 -0.3689065  -0.3320599   0.05325627  0.4092418   0.4230145
  0.28771222  0.2480534   0.08362827 -0.4555765  -0.10023732  0.18273939
 -0.27925566  0.61285037 -0.04227738  0.16595306 -0.04518609  0.31382215
 -0.16393033  0.04131644 -0.02214888 -0.03605473  0.58228403 -0.21736093
  0.26052502  0.19776638  0.3792938   0.10114407  0.05682674  0.35764495
  0.0837589   0.2945043   0.14503236 -0.15995009]
[ 0.62833136 -0.78947693 -0.215818    0.01281346  0.23844717  0.5628008
 -0.10269959  0.70349354 -0.42848447  0.34931815 -0.7601823   0.2926252
 -0.37476435 -0.38662264 -0.00343473  0.01604545  0.01055897  0.20348677
 -0.15396743  0.03988488 -0.22369702 -0.22105284  0.02972324 -0.08898163
  0.13257998  0.01808291  0.15000086 -0.11530308 -0.288828    0.04730074
  0.01864217 -0.15185629  0.6227209  -0.15757872  0.15896529 -0.8742607
 -0.16353622 -0.1447519   0.09817258 -0.33630824]
[-2.8180758e-02  1.5968759e-01 -2.5938535e-02  2.3392707e-01
  2.8351313e-01 -2.9502866e-01 -2.5029403e-01 -4.4370005e-01
 -4.4934098e-02  2.5456983e-01  3.1772405e-01 -3.5990234e-02
  4.0241361e-01  1.3408007e-01  4.8439693e-01 -6.4940411e-01
  3.8164989e-03 -1.9173779e-01 -1.0434043e-01  4.4007105e-04
  1.1079088e-01 -6.3195839e-03 -2.0486879e-01 -4.3249533e-02
 -4.1151941e-01  5.4277278e-02 -7.8709729e-02 -1.4331502e-02
  1.2376616e-01 -2.5564837e-01  1.1831030e-01 -2.5081746e-02
 -7.0734173e-02  3.3093622e-01  2.5406376e-01  4.3573144e-01
  3.1942937e-01 -3.8753375e-01  1.7050983e-02 -9.8532550e-02]
[-0.09458535 -0.04325635  0.03843194  0.08598021 -0.00991552  0.269246
 -0.0580505  -0.0921156   0.16597545  0.08925958 -0.27974293  0.19774191
  0.10069176  0.08139276  0.10858819  0.05486498 -0.10648747  0.21328302
 -0.04909474  0.03139669  0.14587393 -0.07510513  0.11653194  0.13295235
 -0.12188729  0.14000098  0.20732619 -0.15162297  0.08580318  0.11126834
  0.22989257 -0.02749017  0.5796494  -0.02927443  0.11723474 -0.10900331
  0.04976599  0.28618318  0.02602062 -0.14717661]
layer 3 Activation
tanh
layer 4 Dense
40 20
[ 0.46549377 -0.16446878  0.17004903  0.09524251  0.19004214 -0.37493718
 -0.05305016 -0.09248003  0.34722182 -0.19727124 -0.24300708 -0.6089629
  0.01440846  0.2904527   0.16922033  0.20846893  0.13154723 -0.3198772
 -0.03489624  0.29738352]
[ 0.02143302  0.0188187  -0.41801465 -0.0660765   0.16577277  0.4449461
 -0.21390025  0.26432428  0.2699325  -0.03833311 -0.44730902  0.12396914
 -0.26566082  0.3804143   0.21171129  0.02268468 -0.0497653  -0.06185829
 -0.21261968  0.10810529]
[-0.49621257  0.27765366  0.2890811  -0.2697309  -0.0459101   0.10931356
  0.06905413 -0.10186368 -0.12593634  0.24194857 -0.02186647  0.09169769
 -0.02422113 -0.11620838  0.04921909  0.00797779  0.20297426 -0.22954403
 -0.12798224  0.05972186]
[-0.08163136  0.27189472 -0.04636572  0.16839075  0.16501418  0.38053367
  0.13183263 -0.05737352  0.34231555 -0.25000653 -0.11020982 -0.21242845
 -0.14704265 -0.24540164 -0.17095903 -0.18716465 -0.07058027 -0.23657636
  0.47005546  0.12877047]
[-0.28246498  0.20650172 -0.02191446  0.06741461  0.16035879  0.2819112
  0.10472781 -0.11047196  0.16521119 -0.19384746 -0.10119861 -0.14728521
  0.04055491 -0.27242061 -0.04080869 -0.04471196  0.0594922  -0.23235229
  0.20445849  0.02725052]
[-0.7962899   0.05645458  0.19349718 -0.3497817  -0.1936294  -0.4306674
  0.1597564   0.07561152  0.01089553  0.4741304   0.37948093 -0.01271325
  0.12569432 -0.00672451  0.20716934  0.00193997 -0.10241621 -0.34120652
  0.05883555  0.41242817]
[-0.26241547 -0.20451681  0.3141812   0.15800446 -0.24530752  0.00447336
 -0.09207337  0.16939963 -0.16187419  0.14957981  0.04578041 -0.1270121
 -0.00473772  0.22102626 -0.06296866  0.16139694  0.2612475   0.27287203
  0.26092812 -0.01492891]
[ 0.31129488 -0.09116873  0.51535386  0.14943528 -0.17618021 -0.14299762
 -0.18101455 -0.12935008  0.00116421 -0.01612471  0.307346    0.03809867
  0.4134308  -0.08140608 -0.03969564 -0.1427298   0.05715603  0.12661003
  0.01229848  0.4091293 ]
[ 0.35781467 -0.2693902  -0.17015153 -0.22620358 -0.00198311 -0.16272761
  0.06731922  0.04366856 -0.07610095 -0.3384184  -0.4688565  -0.06226276
 -0.01193972  0.07468951 -0.19086863 -0.11410605 -0.13140798 -0.06098295
  0.12819143  0.06567793]
[-0.11079068  0.13246582  0.4915606  -0.03078144 -0.35204375 -0.06514496
  0.03701941  0.12510596 -0.31148195  0.04970513  0.27929124  0.01196077
  0.43673915 -0.11765489 -0.14521322  0.02693322  0.1057283  -0.57520837
 -0.15950736 -0.2648121 ]
[ 0.11723704  0.00346743 -0.4072194  -0.07691942  0.24985267  0.41347784
  0.02965242  0.02731262 -0.03710564  0.11300896  0.00405863  0.12720802
  0.01955779 -0.25499353  0.07219104 -0.09574986 -0.32973987 -0.07060499
 -0.07870356 -0.3375554 ]
[-0.38918248  0.06873326  0.21302707  0.10568034 -0.13701855 -0.16776484
 -0.2791586  -0.14393003 -0.0101984   0.10068934  0.43299976 -0.02401713
  0.0480456  -0.08443476 -0.04224491 -0.01481863  0.32362124 -0.20573346
 -0.1497151   0.03440614]
[ 0.27442664  0.23214461  0.14437652  0.298092   -0.2467648  -0.04197722
  0.1710132  -0.03130128 -0.41961813 -0.11586018  0.2181019   0.4234455
 -0.2107014  -0.48112634 -0.09234224 -0.1337919  -0.19928804  0.01624079
 -0.47858244 -0.4029678 ]
[-0.00941623  0.76399463  0.30110103  0.10025315  0.00236384  0.02694374
  0.05423591  0.03807328  0.01206314  0.36951175  0.10934979  0.19535486
  0.01871226 -0.37203717  0.07435031  0.05795396 -0.07134467 -0.10249527
 -0.40997422  0.0654998 ]
[ 0.20604417 -0.07660062  0.10941549 -0.06052259  0.07747022  0.1461591
 -0.15009123 -0.02898181  0.06587725 -0.14613543 -0.07802661 -0.12165751
 -0.23613322 -0.16174164 -0.20471793 -0.15221883  0.03694973 -0.09371357
 -0.08925061 -0.07685429]
[-0.0156453  -0.12297227 -0.10629726  0.05548322 -0.23180571 -0.12477913
 -0.04791917 -0.0590084   0.23421048 -0.20515111 -0.3205169  -0.21257773
  0.44425973  0.16209072  0.0041973   0.04392108 -0.12219708 -0.06191977
  0.24307245  0.38067704]
[ 0.3869762   0.01739066  0.16234194  0.09160223  0.26549476  0.04060185
 -0.07287624  0.1445602   0.2607724   0.22455068  0.02733648 -0.09816478
  0.09451303 -0.0040788   0.02224987 -0.05827485 -0.08106731  0.05582798
  0.19610557 -0.12098612]
[-0.03676068 -0.16365814 -0.19376877 -0.22896458 -0.28023228 -0.29779267
 -0.01598161 -0.09554816 -0.15973182 -0.00577739  0.10332365 -0.24714296
  0.16205443  0.08882371  0.0625613  -0.1796232  -0.01562658 -0.3938632
 -0.09367836 -0.16998026]
[-2.76450068e-01 -6.54422790e-02  2.14945376e-01  3.29102911e-02
  2.80546898e-04  3.40058535e-01 -5.63752912e-02  1.21284798e-01
  1.88293606e-01 -1.29956558e-01  2.73258001e-01  4.60983030e-02
 -1.10641345e-01 -9.36625898e-02  2.26459820e-02 -1.70584455e-01
 -4.61538583e-02  1.90332353e-01  3.13270211e-01  1.25448897e-01]
[-0.12722099  0.4957738   0.25871062  0.25465715 -0.02895847  0.10194191
 -0.10193019 -0.19105068  0.20417401  0.10298706  0.2711254   0.21907954
 -0.02320335 -0.3796394  -0.30630934 -0.05621871  0.21324794 -0.02145232
 -0.46157733 -0.20730783]
[ 0.31640607 -0.5351817  -0.48189104 -0.19644806 -0.03612914  0.3354246
  0.21733852  0.08115076 -0.38670853 -0.4473147  -0.03464219 -0.16794708
 -0.12555282  0.3110871   0.13344914  0.11199894 -0.04016362  0.08179855
  0.24111342  0.30149144]
[ 0.08816669  0.36734712  0.15852243  0.1666673   0.04201738 -0.03644246
  0.19953212 -0.16195153  0.0708966   0.33825606  0.05180505 -0.09289598
 -0.20839413 -0.09030825 -0.01507231  0.1407207   0.16602838  0.06541179
 -0.2506331  -0.1629373 ]
[ 0.4055256   0.09482667  0.11274856  0.08600853 -0.25638938 -0.12718001
 -0.13319707  0.09483777 -0.14551938  0.311179    0.11036437  0.13553903
  0.12428327  0.22175443 -0.0840582  -0.07192843 -0.07099722 -0.33294553
 -0.34249175 -0.04973849]
[-0.01603249  0.11227055 -0.0827143  -0.00324203  0.04257186 -0.03156493
 -0.00763045 -0.02123584  0.16930033 -0.06149964  0.09388527  0.09344587
 -0.10852185 -0.22542939 -0.10083383  0.17500648  0.1257505  -0.07761017
 -0.33921492  0.02443347]
[-0.21871838 -0.16305447  0.07654654 -0.05004511 -0.05932958 -0.07822327
 -0.21220005  0.24158704 -0.02969746  0.17044643  0.01330222 -0.01350922
 -0.06857087  0.26733163 -0.02557533  0.10079861  0.02528635  0.11676075
  0.19720028  0.05690702]
[ 0.43967113 -0.00731464 -0.11304198 -0.16132638 -0.03437898 -0.10718358
 -0.048672    0.13512443 -0.03843712 -0.48976803  0.10009041 -0.04201614
  0.06878535  0.01089562 -0.18134256 -0.01087838 -0.09526972 -0.27360693
  0.1004058   0.12192252]
[ 0.7587388  -0.19214883  0.01140836 -0.01805592 -0.06378614 -0.00854371
 -0.00142     0.08024786 -0.1079523  -0.20101573  0.05022751 -0.03993759
  0.1231447   0.2730524   0.04617976 -0.10840965 -0.09601375 -0.1683001
  0.11374238  0.10843416]
[-0.48985758  0.21695136 -0.00149474 -0.03166315  0.08481093 -0.03716755
 -0.0598741  -0.13797148  0.28381246  0.687596    0.01764248  0.03881235
 -0.09834471 -0.36823174  0.13529338 -0.10095785 -0.01026025  0.14901091
 -0.46330836 -0.16917375]
[ 0.4632587   0.1012697   0.00677846  0.2725571  -0.02369665 -0.09882716
  0.2829321  -0.19093768 -0.2408282  -0.01992227  0.38104054  0.48713416
  0.03172185  0.02172493 -0.17793368 -0.01213161  0.19906369 -0.03517672
 -0.3471151   0.07710106]
[-0.13057175 -0.4277405  -0.2002074  -0.00395854 -0.04850433  0.06895123
  0.19214866 -0.2502751   0.08408076  0.15690666 -0.2159341  -0.33743432
  0.3094964   0.16439049  0.22449039 -0.19607401 -0.1002346  -0.06501261
  0.4550089   0.28654847]
[-0.363497    0.11056378  0.25874662 -0.04960574 -0.1598379   0.03935358
  0.05031482  0.01821694 -0.0435787   0.21009153  0.02336532 -0.12486802
 -0.36209798  0.05057922 -0.16529338 -0.06020255  0.33357343 -0.01274507
 -0.3640216   0.02463815]
[-0.5010482   0.03472767 -0.12399292 -0.03888298 -0.25884473 -0.13790439
  0.05642832 -0.07470825  0.3319573   0.4012841   0.1990874   0.3653169
 -0.21899945 -0.40205163  0.03702732 -0.11059835  0.2673549  -0.08851024
 -0.1455041   0.01174169]
[-0.35692918  0.07413983 -0.38836402 -0.3581906  -0.06904344 -0.20578797
  0.41033188  0.02708052  0.34605664 -0.15792574  0.25390697 -0.13269642
  0.09813318  0.00753918  0.15958288 -0.3709967  -0.04391768 -0.4526132
  0.17001662  0.27903476]
[-0.23374604  0.06927559  0.17985636  0.20509169  0.0051842   0.34373453
 -0.03415302 -0.02570866  0.11961311  0.01000077  0.18886715 -0.20121248
 -0.23510519  0.10037038 -0.03864546 -0.349291   -0.04136099  0.09762365
 -0.22013973 -0.26703584]
[ 2.3362789e-01 -7.9203434e-02 -7.5692292e-03  2.6450271e-04
  2.2935344e-01 -1.1942012e-01  2.2656630e-01  9.2571266e-02
 -9.6814349e-02 -2.0624284e-01  9.9162810e-02  7.8056104e-02
 -2.0902449e-01 -3.7083507e-01  1.1575648e-01  8.3125681e-02
  1.5631481e-01  2.8584929e-02 -2.7154893e-01 -9.2623554e-02]
[-0.16301423  0.01487384 -0.2545828   0.23569103  0.1680111   0.42447734
 -0.13441847 -0.37018704 -0.10251477 -0.01726995 -0.3121941   0.5588748
 -0.42645156  0.07398741  0.25248057 -0.06565014 -0.03467824  0.27516297
 -0.35404912 -0.61143255]
[ 0.27094957 -0.29090008 -0.06598799 -0.09965486  0.01579846 -0.11302477
 -0.04335276 -0.06571484 -0.30051678 -0.42753282 -0.28987157  0.22675443
  0.09351413 -0.04519454 -0.1718689   0.17319903 -0.00508931  0.17788446
 -0.24800189 -0.3984596 ]
[ 0.5490659  -0.07081119 -0.50075954  0.08188163  0.06020553  0.12588836
  0.18769313 -0.02362218 -0.3803445  -0.341935   -0.36410615  0.36324355
  0.07459148  0.11320181  0.0907167   0.05640499 -0.02747681 -0.11047198
 -0.10939019  0.34772074]
[ 0.20813264  0.08226682 -0.22156803 -0.05423887 -0.161599   -0.3379944
 -0.08240607  0.27117822 -0.26646838 -0.00979229  0.14867744  0.02168195
 -0.13810265 -0.08389759 -0.16652529  0.01271312 -0.06596655 -0.30131093
 -0.43731034 -0.12035897]
[-0.15834022 -0.10070092 -0.0443625  -0.0707273   0.02241631  0.05091821
 -0.00057038  0.14495322 -0.00116374  0.09162718  0.04602121 -0.04294137
 -0.12054235  0.18548398  0.4111774  -0.17476799  0.01317295  0.05878204
  0.14935352 -0.22628665]
[-0.14849481 -0.06247773 -0.06617108  0.04539917 -0.20685415 -0.00886474
  0.01662127  0.14055377  0.00310093  0.04005202  0.03514835  0.08090355
 -0.08412777  0.09037186  0.01697483 -0.07994466  0.03036126 -0.24221006
 -0.09223894  0.09781195]
layer 5 Activation
tanh
layer 6 Dense
20 1
[0.01993732]
[-0.00873185]
[-0.09815179]
[0.02482104]
[-0.00154083]
[0.10596066]
[-0.00696265]
[0.00256019]
[-0.09000595]
[0.00080375]
[-0.09978832]
[0.10289945]
[0.01816512]
[0.01178685]
[-0.00723926]
[0.01885817]
[-0.01585212]
[0.03365278]
[-0.06434485]
[-0.07351765]
[-0.05103491]
