layers 7
layer 0 Dense
20 16
[ -0.4381648821730784 0.800508093039697 0.12039167741539268 -0.2535129732420176 -0.01683526731312443 0.3835737165186825 0.19846451411098065 -0.07119693629999764 -0.3470640226828249 -0.4788650053513465 -0.38116855796291804 0.3640653353106326 -0.6777922798137723 -0.1762844576539614 -0.1902427664405809 -0.26898374063041514 ]
[ 0.08909019169142438 -0.4047598940477065 0.11804473210383293 0.4013238158744599 -0.5129698226375276 0.340950412587831 -0.2371254216444495 -0.5895983315907886 0.023053209962062327 -0.6574664131612984 0.01769206523297409 0.1556912128117036 -0.14959207642548625 -0.03574259503791264 0.20591179635317539 0.7622509610796991 ]
[ -0.0018948084750803759 -0.3440741796610573 0.2871572559197524 0.45814968432812825 -0.46969350960105466 0.11955115036428202 -0.21206042423130675 -0.7411585157086186 0.6116095816847088 0.021742001520585617 -0.2397989921371804 -0.21914458218698693 -0.5018082317611101 -0.28046540240617873 0.21903800878774887 0.5259995739234293 ]
[ -0.4113755097055225 0.5920244464193635 0.19280960735046862 0.07663890864613006 0.2462999440451977 -0.19331350421778096 0.27755544830700696 -0.204057234353131 -0.3035525907382885 -0.23810739230963046 -0.24505864437867816 -0.12144102882490491 -0.5590049832000676 -0.05763061906818969 -0.1623037088319822 0.13863296698783006 ]
[ 0.15653194124411207 0.3857906272673648 0.6083469582673721 -0.41202597453303424 0.281336075403295 -0.6850064652995073 0.06955245674263476 0.33711633026430804 0.1519338955694099 0.27012149184311646 0.47770684847859857 -0.4785663405501136 -0.2215457226637757 0.708507343416336 0.4284838623392049 0.24903286156176088 ]
[ -0.141911076229665 0.5032088140836558 -0.09249978012324428 -0.40289183001294965 0.9732554388496923 0.4070450256558268 0.6611625624707639 0.06797922973998201 -0.5689975947025312 0.021706309001394513 0.2755380067973777 -0.248989107853891 0.051410640057247346 -0.3913575414992025 -0.3117986114654505 -0.3342741585911377 ]
[ 0.2955658627862994 0.28691526534507217 -0.32768248937297856 -0.2745656164389382 0.6966266728751669 -0.12081567861541165 0.06689392219618166 0.7213706568806827 -0.48449560078780785 -0.0003196332458314361 0.41596026072960834 -0.1771557754311552 0.4641870669967879 -0.04292981047652774 -0.5274847074604552 -0.09827605776901124 ]
[ -0.13138276290792314 -0.5697524246126215 -0.11647400476811443 -0.17310944304178336 -0.38619554087758406 -0.1828539665036196 -0.0395810293584248 0.025663875606159757 -0.04592862757579553 -0.2585327748904709 0.16586512478351575 -0.14654595829956177 0.26107183148772073 -0.2979755066951654 0.36386267472207984 -0.05287566884213503 ]
[ -0.00966644035598566 0.16269306215904805 0.11849656237851051 -0.21586592910783825 0.1801083902493827 -0.3332550542186962 -0.20106626867315663 -0.38635497981749517 -0.3161626851453637 0.22363112298279403 0.10923827431314616 0.10645971916107375 -0.20257184684258783 0.46588973496870395 -0.423876196930828 0.05836269591719838 ]
[ 0.1328886681286337 0.20370503707989812 -0.49574953489431905 -0.678677070753186 0.06583212496509971 -0.23618544181828963 0.5506246861007568 0.18463920654763843 -0.2780556262881341 0.2860063681737547 -0.03246680833742744 0.6313210572464374 0.10004036417155031 -0.1283862865036376 0.4336457412177117 0.377665279431227 ]
[ -0.48760838655737576 -0.011714496521468998 -0.15617431692351147 0.09731613142898574 -0.2015407852859102 -0.2388730474796792 0.05884521451813184 0.17090997126253019 -0.13195578258374718 -0.3921213370929991 -0.27348179037159387 -0.1388447384813785 -0.04296553966530054 0.5093011187290788 0.09363203700389154 0.3067192417625144 ]
[ 1.5099162299131963 -1.7775131422473556 0.2538468605456316 0.8859980499244272 -0.17085909841501137 0.5496558771814032 0.08255158905967958 0.41825047683026245 0.11050007137758265 0.3741855196703628 -0.07685174354101085 -0.12684510749457154 2.0001002566599326 0.6027376816500296 0.7297931540045666 -0.3600498106990928 ]
[ 0.4019038905905397 0.22304979472964695 -0.3874461646307035 -0.4051222630411988 0.7547531082725304 0.04464260611675901 -0.21971697747139393 -0.3086548277777587 -0.3775335775210446 0.07723884244786092 0.38448501655198236 -0.18659659094190242 -0.19828914444008902 0.19303243629440944 -0.5334188914120375 0.14659822259135508 ]
[ -0.08335843130986852 0.15975964654697436 0.10011620357526525 -0.4458884465153462 -0.03729448615924497 -0.035919318055972836 0.7774349804554553 0.38387677829132627 -0.11977788487266901 0.28107975374531846 0.3437973782690875 0.5568584109810922 0.14160465539355122 -0.25147470143567563 0.02413073019980651 0.11260358879800195 ]
[ -0.4205731279570159 -0.07945309200605997 -0.2938559489307725 0.04047279635259685 -0.18219852492645885 0.0489669410289269 -0.15070477308548696 0.3903907696336724 -0.3340197734357611 -0.5279469819202677 -0.6480288259951482 0.11537889983548023 0.056683104765786696 0.3651169203387605 0.12425070899710423 0.1459876843768265 ]
[ 1.1505800176708487 -1.862709497263274 -0.23437462702049683 0.9248055195378574 -0.46031150110101515 1.069056272586686 0.08813435876230971 0.7704268107974942 -0.6068106338946835 0.418345553991536 -0.39692378461963124 0.24190508114947357 1.7565567107756028 0.7598044024947773 0.5001615919157388 -0.4859135511583328 ]
[ -0.0672530815810331 -0.019698730099850414 0.2945871994755436 -0.47147954157135163 0.18033992484360797 0.6971881989241518 -0.3011901820749877 -0.10687315753265059 0.3160919659196307 -0.6666840905304833 -0.10164443824592885 0.14961033461674234 -0.21303916730152284 -0.038298570199908434 -0.4442886950349888 0.05931296248105923 ]
[ -0.15025814690139316 0.0275092008968758 0.2802590112835862 0.8075260630174652 -0.4054801659387446 0.5445560678477946 -1.230644409208739 -0.9422341266119384 0.8412150967229808 0.23228415657726695 -0.5910750454290783 -0.7550218479077421 0.029222438386349952 0.7648133761276462 -0.16443831085094202 -0.4312939676952553 ]
[ 1.155183194784888 -0.047891224660404234 -0.17553495962703325 0.34985403637870505 0.47964472810393505 0.1200188161842289 0.011532640787809564 -1.165609982298943 -0.34257474013562855 1.418171799513803 0.4736353549939179 0.30236092364899125 -0.016802273182846716 -0.6674602176493711 -0.26477190342529294 0.2135816643478813 ]
[ -1.3754550578996037 1.356433000791202 -0.841276375080742 -1.0065724304894155 0.768644298723932 -0.09159328282848658 -0.7378723705470641 -1.4402692093325216 0.3940867838888967 -0.9577931074180709 0.5800674237567247 0.5131113130754256 -0.8453933840358145 -0.9925883247775708 -0.8948441203146967 -0.17890391659645924 ]
[ -0.08611351579566416 0.3407901197474706 0.005478206996682623 0.17661453300360813 -0.0686024864720159 -0.004318746241524715 0.23836006058865394 -0.31919757415809624 -0.10663618239085743 -0.05040420181883139 -0.11335400195257486 0.027377394987649926 -0.3372498497056651 -0.16678154565697653 -0.28549483952475646 -0.14136312567022927 ]
layer 1 Activation
tanh
layer 2 Dense
16 32
[ -0.2598819034759277 0.27001556247264297 -0.014517506947659688 -0.10533995042141206 -0.2565592800227147 -0.10686929159723611 0.09026282242923583 0.34517235380805544 0.4747781954665593 0.16831739716986047 -0.10458401378255154 -0.08545935147210032 -0.24028532809103753 -0.594511110495757 0.11773570441904269 0.2888215148049262 -0.40550339048242146 0.12551113821543458 0.562449541426434 0.23478126189380072 -0.16970672300607142 0.16745539180285884 -0.16845014175446846 -0.3091843229745338 0.4100185338362718 -0.12308900487465306 -0.49897652237832163 0.14548668160524733 0.09013766287538542 0.06727212784565903 0.29566425427843496 0.7390471097288218 ]
[ 0.37970291910903436 -0.6239297968598329 -0.621189460071217 0.04050883984835464 0.7307556278958148 0.11846341328528817 -0.4683391757309739 -0.48871945389464605 0.043761263478735955 0.1499055654663027 -0.49192041848968865 0.5551288753737442 0.41329522929109064 0.13702809850058642 0.03492539193582491 -0.589830014684478 1.009419020763745 -0.4679319040995037 -0.6220146815728654 0.02686242995282251 0.04972049389353371 -0.5876801439716778 0.05629764487454566 0.7062366984171844 -0.2041637741845759 0.16041026874909528 0.30818761099861247 0.5322544100897616 -0.6381395761383236 0.012149628483333287 0.20787936336614665 -0.5543291953904236 ]
[ 0.28619191046611125 -0.051642748041641484 0.5658736527976993 -0.09667532160518828 0.295518758952532 -0.05751259720630037 0.2809797410217625 -0.05321548030990542 0.168056921312358 0.26833133594407 -0.08148596904655751 0.34224320318649937 -0.00642766506988458 -0.46766850748215566 0.37270269775562254 0.2392777969256925 -0.08052319624371712 0.0765585715704069 0.1276348355038502 0.10974482201512119 0.32948585273959724 0.18047948991009394 0.13571522982341944 0.2601064605981904 0.19935181382296868 0.4738503528345888 -0.1595393435458526 0.11724618342584793 0.34707087445463297 0.13449965282910964 -0.07449904560993975 0.30503513224346424 ]
[ -0.25979839850667574 0.10779235025220771 0.12848006124347292 -0.01948679482265794 -0.2564784680045484 0.10839424965246225 -0.07326941775534046 -0.7866054252445728 0.22536243872790776 0.10264867542067921 -0.550882205659533 0.4012597301888692 -0.22581851655555676 0.914445984190912 -0.14701755160684626 0.15758515861099726 0.17189128419318905 0.41276479627296303 0.6426618277902668 0.2720299594781808 -0.3480580667729964 0.07960398386982777 0.8008886026711217 0.2566994214600142 0.19835406215475565 0.43097007925992503 0.3340389600724818 -0.3408615649072556 0.4064515430207098 -0.025792354226318558 0.09426276604724886 0.7989808672950803 ]
[ 0.4559842740687355 0.19623084786189599 -0.6325622319340836 0.10553865311744705 -0.398620462255551 -0.19003662694852835 -0.24156602647490144 -0.42050533013722197 -0.03610538782965893 -0.08012713779372536 -0.21866331348546011 -0.08087451500270836 0.09404051849270273 0.2907538379804752 -0.2365762308340147 -0.2047789724200741 -0.11390639056319361 -0.3497970337447284 -0.23127200765914324 -0.2579039683812271 0.13467688369088607 -0.025342431666304528 -0.24181156791723538 0.03601619070136072 0.12553017475181383 0.18776913719872065 -0.006923847945676176 0.33476083995819544 -0.023622683295483747 0.11155374180272268 -0.13781850211648886 -0.12909853529161566 ]
[ 0.17725495681223666 0.12312247008151923 0.21526192604219707 -0.028720122896315887 0.12235847366678562 -0.06959848600057816 -0.05663185852539168 0.06251929155527036 -0.20058928006613777 -0.12754058511680338 -0.11232630715633259 0.25768551895955666 0.06632684532130043 0.2631752780867088 -0.06792579306246879 -0.28042458369891504 -0.3663606921839247 0.05570297492066528 0.7514754166788558 0.5389834318138799 0.09946210461427545 0.02262611030678107 0.5541602470366378 0.1365154576097754 -0.033545847884290075 0.09024640468161026 0.28763257695022443 -0.14137538027326532 0.12659318270762515 0.5503602977290791 -0.1055343753375928 0.5795460021878284 ]
[ -0.5446242871185868 -0.31085041623450177 -0.010225781650216897 0.10321724224204996 0.09707767594964713 -0.6367384260203586 -0.018828679899068737 -0.26918190468481185 0.7635632697598155 0.4950080579656247 -0.17288180128298106 -0.03572035346622325 0.1156768229735077 -0.49122471504656245 0.29656449121536427 0.02324430718664998 -0.13100639542068757 0.21596460799182693 -0.5806370384461103 0.4376736882946261 0.04016532957518671 0.27251227737755346 0.25396999007622295 -0.2043802260913394 0.48096592252325643 -0.3310162006044242 -0.746399634690872 -0.0768777023534137 0.3166371046112854 0.026192623603828957 -0.004247219756258045 -0.32013673933044356 ]
[ -0.31702604167609566 0.2760613703654257 0.30904333068643985 0.1971343507958722 -0.2809045104643005 -0.5617712127045514 0.3133047713438567 -0.43539985400610803 0.3614145845218204 0.20309164061866036 -0.2214704221571298 0.03740866702868436 0.04393974159966936 -1.1218843576384587 -0.03374887726426214 0.28354292734008407 -0.16963024401911528 0.07070263427142637 -0.08460718591929117 0.43226484467184884 -0.25764809046930415 -0.13930843716427002 0.21252151257295487 0.04114199538147638 0.21930370270965419 0.28123889771255706 -0.7623478399278384 -0.3410788395130163 0.24615813810324705 -0.3700331942563471 0.20151505344450948 -0.5976647145417714 ]
[ 0.29795480346665504 -0.3823401211151134 0.24947205706221673 0.04301371507284695 -0.019219772555558828 0.22485122836471616 0.3059607534672654 0.14494012920527372 -0.09242483387879975 -0.5609129133036896 0.3066060846034653 -0.5256200402177249 -0.28320074569772424 0.33876407815629894 -0.08895778362328517 -0.30070710636424086 -0.15143368549302663 0.3381110793899937 0.40081752098326395 -0.19028117813013143 0.10792479771746093 0.14778360289671327 -0.2513009955912428 0.15827111184978024 -0.2305776206089178 -0.2836765253070752 0.23273087594003805 -0.19021515183802323 -0.3855480998030509 0.03306472250940628 0.08204614701665296 0.13727372192382795 ]
[ -0.37478021762595115 -0.20061668989989082 -0.15211338972800126 -0.34688113772179463 -0.3320294423360774 -0.5750177918615795 0.5777091729620863 -0.3299589238350819 0.13010431113321164 -0.07692755426740193 -0.1715597887271945 0.25998066315658513 -0.5309564294869586 0.4940463024427974 0.5452482157407065 0.4238974892520251 0.02758888667799998 -0.08134391823939606 0.606378524699317 0.48096473558223574 -0.23029515675925036 -0.10551967561054615 0.32482740656740783 0.03545745586180635 0.5953178552405508 -0.19488959714473145 -0.755936175497501 -0.37460422734641585 0.003988758944901616 -0.07903575534890418 -0.21249203552251578 0.6629455647840905 ]
[ 0.20663795493133721 -0.6885657480798318 -0.22424633707000094 -0.11905980464085282 0.167290083851164 -0.05767726898682601 0.18751671756223437 0.3496699188772095 -0.019908694423248212 -0.254999142111347 0.6229342036594636 -0.4505657901986039 0.1708325605028957 0.21747389127665878 0.038883732511818855 0.19229941127572378 -0.027539743753266368 -0.5105332690419985 -0.15540567724177276 -0.6848444513146612 -0.10373118921174611 -0.18376266478300032 -0.2845927548522347 -0.408693516545489 0.05606891681445309 -0.5825673547564086 -0.13208694479522254 -0.08036513751759268 0.01015706548448255 -0.3349783076694221 0.076360771663008 -0.0008333047330049308 ]
[ 0.16608829128239477 -0.21956476964271002 -0.5226260964755405 0.3560375176042225 -0.11717936872465369 -0.8103207797334999 -0.016981670928856385 -0.22683599721027808 -0.22171112408321125 0.5255206943358817 0.0755585379851194 -0.1041710261423334 0.34283992142694886 0.060870130668537255 -0.19358022565140354 0.0721377788658551 0.08024589928280687 -0.00866469543261834 -0.29990785733491265 -0.38727476712688763 -0.32824068220780533 -0.09840594254115163 -0.003571400331127978 0.281703141387885 0.38105072852443117 -0.17854560835037747 -0.13441943780169094 0.15677710174373005 0.05951922479498986 -0.12713763917958604 -0.10449266106074279 -0.670902996119312 ]
[ -0.328174568287917 0.23287026288581705 0.4203632187082644 -0.5176082812606789 -0.41903005731683235 -0.13811106495071498 0.43299148234326756 0.3753866599121661 -0.15038784237105765 0.07226609183931744 0.42659748476192433 -0.31073905210948055 -0.2348792020017301 -0.14603212292078915 0.08108261017438237 0.3126283454978137 -0.9065985426365513 -0.14619734892664746 -0.2831106996081583 -0.16444502327729874 0.000619200922684296 0.24844883499272222 0.27273956611713024 -0.6744218815543572 -0.0515741781417848 -0.14994061413312293 -0.07808377078474937 -0.03988235447448939 0.25045801933221984 0.14093422305737158 0.2727558431658936 -0.2151402183224249 ]
[ -0.058143254555651835 0.35158364176620266 0.6865608175361764 -0.4712040563263716 -0.5350740968097193 0.020344399582915958 0.08903201554800814 0.21114759548285392 0.06505886562752719 -0.2255890638126874 -0.18246496376490706 -0.08580012248226399 -0.36531531067138384 -0.6439643762429931 0.13018857455384084 0.42569979450669276 0.07171800590840942 0.3067809628288083 0.8220615583287519 0.14843578540700475 0.24532895174974606 -0.07328198833614104 -0.08724224011298365 -0.20316826272770594 -0.11509201237612328 0.01862635370215015 0.07600759187659153 -0.12641782532875703 -0.10533243397501148 -0.038431978856033604 0.019226869632694873 0.6758665938510039 ]
[ -0.2791363464648258 0.17893094831944908 0.10086501981583208 -0.26350394822658046 -0.053040862550956996 -0.18766248445460185 0.013875700346499039 0.38393141609179826 -0.13095953428635188 -0.1313661932533028 -0.28844756979775577 0.20063223547077663 -0.06614875510743654 -0.09004634640403668 0.11095992202773597 0.3784879370213362 0.07736173114639325 0.26981850185375617 0.012502253397029126 -0.004370696644022932 -0.07458939114531932 0.05206852505558355 0.12895457242432926 0.25021929299462065 -0.3576993330292835 0.21018024265110555 -0.15643416104591923 -0.2878035096723614 -0.30537227866431954 0.36568244423107227 -0.08568788114071764 -0.3046190587714141 ]
[ 0.13212496031444793 -0.4111670058673771 0.30251215599909265 -0.04753735229141598 0.2697915084756361 -0.33571791077506347 0.3258458133511195 -0.012427231883429694 0.10040395761448502 -0.15494252460928667 0.02066887715857475 0.14695686570452401 0.06467817906469 -0.1873079593700855 0.2768352526119634 0.32384724144547755 0.06430119659134093 -0.046934899508774434 -0.28901433144139704 0.19296506794864804 0.27696675634045903 0.18175553251110094 -0.26845715898067346 -0.011408659472629075 0.2088135830459041 0.038844711191901096 -0.21079225973287785 0.09169620617982244 -0.24297350494476488 -0.16924319939979238 0.01900424997552874 0.13498067824435941 ]
[ 0.16478992412080204 -0.2977632313723924 -0.34713957180409516 -0.019512893406330205 0.2882022492050782 0.041371999711559505 -0.1635099239068172 -0.34482529047535515 6.982927515832578e-05 0.05644152683988919 -0.5731627582473203 0.6330035740649256 0.21615740125206154 0.2011063243233907 0.14240251939723983 -0.31902918090104393 0.6057151590407117 -0.045583931188883174 -0.4701294756694164 0.09797801066947115 0.2498613137422748 -0.042068580547794956 0.25655459327345137 0.9733425201502293 -0.020826974583937518 0.6166468695674162 0.26697932421762854 0.02783866408019203 -0.22584504309807907 0.0014003213191044164 0.031797980018962856 -0.14105909730473426 ]
layer 3 Activation
tanh
layer 4 Dense
32 16
[ -0.11638843024369654 0.2208082725469272 0.11556090411778379 -0.2154849034767892 0.0703660396969084 0.11439923892784994 0.120974048484443 0.1119054076148356 0.10517780987598295 -0.003635259427999919 -0.4724186205532056 0.7362002279682722 -0.13207519160386805 -0.06850664562913447 -0.2387196546475408 0.34989491658042315 ]
[ -0.18676571208130194 -0.26823147617916127 -0.11763123705382385 0.42398223926562423 -0.09083897155543093 0.2838051168634137 0.2201842322999141 -0.18601240078693063 -0.1931170451270708 0.2037420631410459 0.10708924337465969 -0.3466870049164918 0.5216163286970954 0.2946338306844383 -0.23148265046844949 0.010047208223064007 ]
[ -0.459848120009835 -0.43540492291169286 0.24303656346878613 0.5079127623152864 0.2572305197367281 0.1127879854110071 -0.06906168272962908 -0.005813781281363106 -0.6781260860948382 0.40067371163951754 0.41660417796338706 -0.3927842721713259 0.2673648492423045 0.19273106106152646 0.10306171439036124 0.03093760773142498 ]
[ -0.012705523123838809 -0.0451397509865998 -0.30658092733191356 -0.22136186419541654 0.05226829574105964 0.11247164990028637 0.1342220496516316 0.018643586694743353 -0.18308331532472255 0.05712310863664797 -0.19086422110909385 0.20340629194356033 -0.24080994248245766 0.05446728128607016 -0.07406292976594875 -0.17724648055619388 ]
[ 0.18829266854540133 0.38780413609096603 -0.008842672282820416 -0.12035322859018803 0.116287721163742 -0.18776836313538411 -0.14767914592545292 -0.27940053627750855 0.11595656796948926 -0.5345987876926935 -0.18712173653532652 0.415028960635395 -0.81589876259423 -0.4501507421494319 0.1284801444865798 -0.16833998571884085 ]
[ 0.6759085581526519 -0.3074662260989272 0.5207797587879694 -0.21668088596521656 -0.1452511670520949 -0.04427118029538183 -0.485587623538545 -0.2197054804763329 0.12588736213250892 -0.3414944790252808 -0.0476342415367716 -0.005160714262409078 -0.3711345002557785 -0.42801574426112965 -0.08581209204865121 0.3080443169328194 ]
[ -0.18426331585989544 0.06939351822455267 0.38512536363208044 0.24235520262534546 -0.09566379271883273 0.28811494491507733 0.1049826744451447 0.15754310964915288 -0.21726227468980186 0.04254499697400187 0.07249384726575554 -0.45180420484298417 0.6050760092113167 0.002354914542156244 0.07618706446221406 0.09048860891015939 ]
[ 0.4379201263736908 -0.34579225905773864 0.2972504256234984 -0.25995281828407635 0.0932356269582461 -0.4624504818200381 0.2629155892591598 -0.025022944464037876 -0.3869710830392343 0.1919289186015197 0.19111297839909985 0.1060834145043916 0.2247315887627266 0.03803153327468456 0.26670311496648386 -0.27140531106575283 ]
[ -0.06757443099469329 -0.00493669661272252 -0.6032757294306222 -0.04916578903740294 -0.434066410254611 -0.2076071063114524 -0.08493376612497917 -0.24903803428587118 0.3556465701091189 -0.446312877162457 -0.02876114473345757 -0.04234978996292475 -0.18730571430516413 0.046366949053836856 -0.12452628602268907 -0.12738074418391054 ]
[ -0.24035803634006808 -0.012899099949729117 -0.38497065318057505 -0.1145678508881789 -0.21235522334067827 -0.05437870982272261 -0.07056024348439184 0.17849221930804188 -0.0161236483128702 -0.022542593040062352 -0.09406951256240903 -0.22097130292831074 -0.20108706709684784 0.025577282241635486 0.16633145192500212 -0.6582353687125391 ]
[ 0.25519509848840893 -0.03155086366343474 -0.16211046780884653 -0.6398570552457367 0.10532055507450755 0.03954180777550977 0.24745493443784988 0.02704094386680993 -0.5741608057106209 0.19798796459096032 0.5219052867169423 -0.23948905268908036 0.6839124102673182 0.12117816943495827 0.04990744726570227 0.10860483882061123 ]
[ -0.1331191749274687 0.2806229871637376 0.3350502120131963 0.16498923265318965 0.13204196442553923 0.3141106292591075 -0.5022246845222558 -0.0981257203273393 0.34613358942016414 -0.5497044254410106 -0.23487756047261732 0.11952138529527637 -0.4608181491071725 -0.414176679733352 0.15567534034493444 0.07589337594520562 ]
[ 0.1396793879537471 0.3508601323290093 -0.009512822495641535 -0.16509475141752214 -0.15278877265331484 0.2783783750451611 0.015194276782607853 0.09544104444773331 0.3003309089509702 -0.1547487475060573 -0.221467433463466 -0.03201159302908068 -0.6093425333716607 -0.2796558348023954 0.16305697045376766 0.2939937734692255 ]
[ 0.804527501520517 -0.1000255776361404 0.037879770207420005 -0.08291920590386062 -0.299255523179552 -0.38313396023717555 0.032174040765668814 0.177024550211114 0.3362768430100446 -0.3282922081045176 -0.24328466055188439 0.11876920587633993 -0.08607527080431657 -0.36319229958058014 0.1231108688020788 -0.1786385471645669 ]
[ -0.07132962947555717 0.13465417336777782 -0.2891397717138941 0.09333016477379553 -0.32325817725844513 -0.04118882950094131 -0.20667064830412918 -0.011577976985731975 -0.17674015468206028 -0.28449023135648627 -0.09920483876139172 0.3151776777996207 -0.2676127654661288 0.020702427706612615 -0.18957705588759496 0.06362470902204607 ]
[ 0.022401989482587693 -0.07074018109554063 -0.10962433233882747 0.35327936760204615 -0.30434119564710777 0.17280485603307155 0.2597539801365323 0.031326960954930684 -0.3197375562675242 0.19587007314560553 0.5000447444043731 -0.35184859589375156 0.373622362851046 0.21113794599075417 0.1258713621907967 -0.27116312952633886 ]
[ -0.20658178205453992 -0.014166445241024417 -0.7053205882191137 -0.18302995338391598 0.07090685893683858 -0.13340701538177036 -0.45910209281438114 -0.33646934680045265 0.3827580356780645 -0.4934965634951364 -0.23531097715881324 0.3684158710569189 -0.6267313307647758 -0.23263199094242193 0.045233348109687224 0.2020401490965914 ]
[ -0.40077101065537063 -0.5496466085645552 0.47330764695700217 0.14317836461688335 -0.34851547880831657 -0.29651636579509766 -0.11231814132429843 0.16238710187801195 -0.30263189118809214 0.1311943306785888 -0.05588494896313171 -0.7197906805778788 0.2613233235370468 0.1832624567017035 0.21925344520444898 -0.09893404600806446 ]
[ -0.4087542674695955 -0.5413256501293036 0.5501710956900737 -0.012291262301715669 0.0013355165310944563 -0.22325561237641528 0.028425688956101137 -0.1725071737477503 -0.16507856170186339 0.25267540399679467 0.3851210457100359 -0.14403521200199879 0.42552151250211323 0.31301154335928155 -0.07800006476622896 0.026667116309402168 ]
[ -0.21572607530544477 -0.4784909377928915 -0.36962327914108756 0.05557020472743028 0.01508766330505782 0.27910523910767004 -0.3452962411927364 -0.07082378608992054 -0.1581126378229588 -0.36926345153230905 -0.08642278365681229 0.03302380879805263 -0.5530767589659661 0.0641438879296903 -0.06423734028030033 -0.28712167316028675 ]
[ -0.06198800791740264 -0.20230558512104146 0.23657691901334732 -0.01076091290363241 -0.050195182853148695 -0.08875876244448105 -0.2685082223001869 -0.06289486579702744 -0.10683113595890639 -0.16465246079537776 -0.22565857994481855 0.2517727001640207 -0.33726867734740124 -0.06493018176617263 0.14578455768979443 0.17728593491814496 ]
[ -0.11199619927055507 0.07730495579560909 0.09878163822977556 0.04437795317103236 0.009258609751571572 0.06987781335697746 0.07468618680161782 0.15242812534137645 -0.07656202710064748 -0.006893638365842042 0.3332484097847659 -0.7826177256227257 0.3719328502890723 -0.040464480543277705 0.16126962470407094 -0.04082776744634178 ]
[ 0.04523958657795064 0.09296713430658379 0.22779941328757938 0.10075446790635945 -0.22309759680209004 0.10793315841836025 -0.368320776251944 0.26054546512291676 0.24439939654186432 -0.18213309650994994 -0.36788801996567544 -0.22504019223721433 -0.246682842096363 -0.08825116373956442 -0.034346202289121004 -0.2420059886341105 ]
[ -0.10046166217006339 0.2801983694748727 0.3971238812117346 -0.10261752507195492 -0.03930777311004348 -0.024585703654873437 -0.561118211876379 0.27224090575453475 0.1748945442845758 -0.7880847242245962 -0.12405418630363652 0.18746233441208 -0.35632149790464324 -0.4475898364539118 -0.031057907271328136 0.38068411722221085 ]
[ -0.3358102818864983 0.09222778676920901 -0.056395610607998595 0.22271606416920328 -0.42433547322658005 0.01832529664818541 0.19589929901461717 0.23813322351205768 -0.10344777471495209 0.2688800757743599 0.09614467648768131 -0.5108089758175486 0.3087127051093446 0.10902783272237986 -0.002079936168786764 -0.12221730599384618 ]
[ -0.16560859627942576 -0.20465844640253647 -0.323226682198406 0.14921041158779402 0.13836484510979408 0.02256802867876798 -0.744047550245047 0.143453189287833 0.1614997211756934 -0.7308682753389096 -0.17784497316978884 0.025834935103533088 -0.4306951143728781 -0.27805420869294567 0.19432866710059674 -0.154770024683822 ]
[ 0.540621995590376 -0.40962454677979365 0.5689978905302057 -0.21505428508217725 0.27704421174663435 -0.2991967766755406 0.08790678261551456 0.2575548857924325 -0.08152770573613062 -0.3993732957621501 -0.2030842966671278 0.38835989843575647 -0.3425975404772476 -0.22156823445446153 0.10482032811134914 0.25767380924127364 ]
[ -0.09164419751966751 0.30923658879418003 -0.22538715658250477 -0.16710531513198998 0.3050693125347156 -0.04560811577063243 0.0823979862595073 -0.005735365262994975 0.2893186799692487 -0.02351508265203301 -0.1910034969509569 0.5435689223777168 -0.5060643628183376 0.05009919035589373 0.0700889999035809 -0.22873886796706125 ]
[ -0.033134740138383016 -0.3070840075777311 0.2562782114308617 0.18490541245553732 -0.2883760008636265 0.276408046932378 0.4265184452400641 0.2048715113344844 -0.2835172228363111 0.11305831312523033 0.10701687766652472 0.06651997283666009 0.5865405954289863 0.3114357704241787 0.1409351922454373 -0.3670972849158769 ]
[ -0.233329120829397 -0.6044463657546428 0.26296342298079206 0.03102056733524464 0.042814923427475796 -0.11832907881423775 -0.012581428355915778 0.23997835499140321 0.08185454669371771 0.004331433694178955 -0.058815701874187026 -0.35037510319338716 0.23107749415999487 -0.0463876061521245 0.14249520498979193 -0.05893653086620918 ]
[ 0.11765042961138802 0.014737332832180832 0.1629209309410561 0.1282878150787681 -0.09341309621362101 -0.13220956425856883 -0.2068183254473707 -0.067611641652828 -0.10153540167163172 -0.23387019344172127 0.06538259347153576 -0.11966588201356962 -0.0818706914525374 -0.09192054695838626 0.07750813005965226 0.32284211100441124 ]
[ -0.668123487689074 -0.4179170935334376 0.7434284808219 0.1255606834456597 -0.4128690018068957 0.14096832137875587 -0.15502819621507832 -0.06814684716868237 -0.31883527402621903 0.44989324276175413 0.12349192157508819 -0.4715592635564413 0.089559254757307 0.3511025867275561 0.12888975814751402 -0.06652677776363687 ]
[ 0.09630668121250302 0.017847703279107393 0.041508849699471655 -0.07666988213237375 -0.09029249199700215 -0.09435748638894975 -0.3545331985191444 -0.032135280839438396 0.21593454467117107 -0.49852322462016624 -0.1909414418941435 -0.03159660398798027 -0.5109164288216279 -0.2038160866069428 0.010634403770543751 -0.015495089476409074 ]
layer 5 Activation
tanh
layer 6 Dense
16 1
[ 0.028158450869814167 ]
[ -0.002924115854635135 ]
[ -0.01383548543576227 ]
[ 0.005059813709149045 ]
[ -0.0040493628642702785 ]
[ 0.00246382025467228 ]
[ -0.35492628302159246 ]
[ 0.018040281633653548 ]
[ -0.05487947839602328 ]
[ 0.11457902921168484 ]
[ 0.08434474410644958 ]
[ -0.02422921700483407 ]
[ 0.1221291610211903 ]
[ 0.10691696432584576 ]
[ 0.0030076785122078635 ]
[ -0.01348983066054552 ]
[ 0.14784670113135784 ]
