layers 7
layer 0 Dense
20 20
[ 0.1475708   0.136501    0.18416171  0.1562223   0.05480449  0.2585436
 -0.1234758  -0.18826786 -0.22332178 -0.02100289  0.01846232 -0.02386241
 -0.3131622   0.25119078  0.16068012  0.01486421  0.15471189 -0.16782665
 -0.3088408  -0.05379968]
[ 0.50067484  0.40932977 -0.46912488  0.1548729  -0.15219098  0.11580388
  0.13660605 -0.27053586  0.15540445 -0.1197236  -0.11953802 -0.7320352
 -0.29425701 -0.42519593  0.00848492  0.19641468  0.19004655 -0.25686982
  0.12177844  0.12852669]
[-0.19492297  0.4066355  -0.1277314   0.38697276 -0.15361334  0.06521063
 -0.09021441  0.18718411  0.28275794 -0.19773312 -0.07861854 -0.21556123
  0.08460589 -0.3986304  -0.22359811  0.28059223  0.26843458  0.07474882
 -0.29417512 -0.02994713]
[-0.01026023 -0.13481006 -0.38775653 -0.00055897 -0.01417834 -0.24213855
  0.27456936 -0.2548998  -0.01145692  0.01412816  0.14230974 -0.40817842
 -0.20524922  0.21576801 -0.12355742  0.11582947 -0.2361006   0.2734244
  0.13762707 -0.13592425]
[ 0.11983239 -0.38723436  0.18686812 -0.21078232 -0.04360432  0.10055494
  0.32227984  0.11799356  0.19543459 -0.0588256  -0.27322704 -0.23599073
  0.24495386  0.09304942 -0.08175935  0.33297646 -0.24931748  0.20797834
 -0.293217    0.26451156]
[ 0.09299605 -0.01647872  0.4366351   0.2955389  -0.18392374 -0.30724806
 -0.2562032  -0.10894863 -0.05299217  0.47378823 -0.4546204   0.10758369
  0.23237225  0.31484517  0.24118619 -0.22444499 -0.55390394  0.18011458
  0.10296249 -0.6136363 ]
[ 0.17671347 -0.13394377  0.02306661 -0.08731371  0.44475582 -0.47516742
  0.23731004  0.03017584 -0.04579239  0.02420908 -0.21923779  0.08005805
  0.47537848  0.3982364  -0.28111905 -0.1922643  -0.38469172  0.18217489
  0.07502766 -0.36365488]
[-0.26600242 -0.14593273  0.08665513 -0.1478377  -0.07416845 -0.29733226
 -0.22587073 -0.11116714  0.02565495  0.02627946 -0.09043296 -0.20665933
  0.05975957  0.4024811   0.17757581 -0.07190304  0.31830165 -0.26060727
 -0.08578675  0.3663408 ]
[-0.4739529  -0.08514905  0.07202395  0.10272135  0.15917608 -0.15879063
  0.00538704  0.12705685  0.5012015   0.30377716 -0.00526519  0.36155444
  0.5049505   0.19276689 -0.23287734  0.34662282  0.23545457  0.08773945
  0.3381925  -0.1111735 ]
[-0.15422526 -0.02890759 -0.08154839 -0.23382995  0.17381383 -0.00095155
  0.2816868   0.07624645 -0.25379834  0.43866956 -0.15498798  0.29287848
  0.31413418 -0.01501903 -0.23486803 -0.34200698  0.3916609  -0.05915953
  0.28465337 -0.19016404]
[ 0.06745368  0.07898139 -0.14532048  0.12472897  0.04870438  0.1804065
  0.22938657  0.12483478  0.33925045  0.01460577  0.1789216  -0.23873053
 -0.07339191 -0.20512961  0.1854594   0.03735078  0.35006562  0.12896797
  0.20866482 -0.00888951]
[ 0.07723425 -0.1344472  -0.2683716   0.09371813 -0.34087947  0.24553987
 -0.09822614  0.05554004 -0.0086263   0.24383533  0.25418022  0.23460934
  0.16668494  0.3513302   0.16769573 -0.3481803  -0.4059882  -0.2683697
  0.09749783 -0.3156862 ]
[-0.18535025 -0.42979524  0.13609716 -0.0531337   0.28497005  0.00942369
  0.0422216  -0.23524967  0.2292321   0.10719182  0.25757265  0.4122586
  0.0200871  -0.4349133   0.11225742  0.03686767  0.1582929   0.21570389
  0.27566323 -0.31880438]
[-0.2195093   0.26434353 -0.22749116 -0.15106712  0.23291962  0.30013222
  0.17820261  0.02987098 -0.09768664  0.01527816 -0.14011717  0.23413019
  0.1419408   0.32753766  0.15115868 -0.36192405  0.36104518  0.35014504
  0.13904987 -0.03392391]
[ 0.04016905 -0.03377507 -0.31507152  0.16886175  0.18868205  0.33304754
 -0.10586044  0.02440099  0.37067345 -0.08788556  0.2683978  -0.2542668
 -0.12054139  0.14525035  0.34454522  0.09364088  0.34968573  0.01439044
  0.17194003  0.05027093]
[-0.06258578  0.25038788 -0.5389062   0.08497154  0.21395095  0.34066
 -0.02197292  0.15712011 -0.04378365  0.4717901  -0.13359761 -0.03574428
  0.5655836   0.24145609 -0.3518844  -0.27904457 -0.22211185  0.11131003
 -0.30654824  0.21013734]
[ 0.3799335   0.4316446  -0.6001635  -0.0420849   0.05019894  0.03585434
 -0.05754515  0.31122595 -0.45500213 -0.29933423 -0.07723792 -0.3811253
 -0.48798683 -0.2094844  -0.4217975  -0.44518277 -0.2365205   0.00923096
 -0.01965623  0.12293708]
[ 0.6108175   0.0561468  -0.5018567   0.9592453   0.4387186   0.09430858
 -0.73356044 -0.32662994  0.39430198  0.16826367  0.42638245 -0.37038833
 -0.13779873 -0.11874849  0.4478098   0.3867897  -1.0065495  -0.4759123
 -0.5927346  -0.502065  ]
[-0.11378549  0.4014146   0.19979231 -0.34423077 -0.7886054  -0.46759912
 -0.9415107  -0.52254695 -0.3502481  -0.28258857 -0.162062   -0.53485096
  0.39409906  0.55237967  0.23659976 -0.87190056 -0.5913683   0.25372228
  0.16656941 -0.85287845]
[-0.22177431 -0.05829909  0.5295041   0.43933555  0.17304675  0.25854012
 -0.62785447 -0.2760419  -0.09144506 -0.06277495  0.16532803 -0.37403387
 -0.642738   -0.08939455  0.04646476  0.42656726  0.5055927   0.1211025
 -0.19892295 -0.16304576]
[ 0.1136402  -0.01237044  0.03535425  0.04645883  0.14515878 -0.09795425
 -0.04043486 -0.02287177 -0.07333517 -0.01831503 -0.04542816 -0.12584265
 -0.07839929  0.0127586   0.01046816 -0.08951423  0.07616288 -0.00622394
 -0.10319994 -0.05218979]
layer 1 Activation
tanh
layer 2 Dense
20 40
[ 0.0920013  -0.1266173   0.28000557 -0.03337035  0.07592907 -0.17973962
  0.13399418 -0.04868601  0.20459032 -0.2251623  -0.03355075  0.03260467
  0.02902611 -0.22434174  0.01828104  0.2562344   0.15577386 -0.21779369
  0.23995966  0.18971631 -0.01617751 -0.0487339   0.23340917 -0.07456876
 -0.09850887  0.00040138  0.26615837 -0.22063848  0.24718177 -0.02002621
  0.2809511   0.15591805 -0.08596361 -0.05206084 -0.18396838 -0.20632838
 -0.0996547  -0.2546373   0.3311625  -0.2901089 ]
[ 0.05402594 -0.07775556 -0.21982594  0.32787743  0.02530535  0.0009911
  0.37304345  0.2848812   0.22072013  0.05902814 -0.20838013  0.00839006
 -0.05955176 -0.19649893  0.19218472  0.01488944 -0.18244757 -0.12159891
  0.06817171  0.01630036  0.22024061  0.11258562  0.09900699  0.29881716
  0.28906375  0.19791527  0.1712153   0.19613668  0.17939778  0.09321987
 -0.12095996  0.24886635 -0.27376947  0.10884823 -0.21408677 -0.18715231
  0.22402743 -0.19095254 -0.1937499  -0.05314242]
[-0.37034127  0.03423746 -0.3900418  -0.32456526  0.01428433  0.11113011
  0.14200008 -0.3883923  -0.21270545 -0.06424963 -0.2147415  -0.2578537
 -0.253372    0.04699321  0.08649531  0.0820851   0.13854186 -0.29975036
 -0.13375437 -0.37371433 -0.05698431 -0.12465977 -0.03615806  0.02464317
  0.21668847 -0.22785011 -0.17597575 -0.40495005  0.04474043  0.11022984
 -0.2718116  -0.1876242  -0.00759164  0.13725579 -0.12930691 -0.0449894
 -0.21312536 -0.05891892 -0.06594609  0.16909051]
[ 0.42311496 -0.2852739   0.1576763  -0.4180452  -0.00099929  0.23900801
 -0.26452708 -0.4090923  -0.38319418  0.11954263 -0.11643615  0.10887644
  0.14521988  0.01335442 -0.00482277  0.28025326  0.00547309  0.16504487
 -0.19089988  0.13050872 -0.02880688 -0.05835226  0.1465261  -0.41777554
  0.01878322  0.32379198  0.226135    0.24322058 -0.11620577  0.14770079
  0.3103082   0.42192173  0.17302112 -0.0673044   0.21381867  0.18069938
 -0.16785674 -0.40257153 -0.15767357 -0.142022  ]
[ 0.25891462  0.07526001  0.02324116 -0.4011858  -0.11074889  0.08251406
 -0.0716108  -0.06730431  0.02455365 -0.19889754  0.08734105  0.05759642
 -0.20579004 -0.09857196  0.3208012  -0.08594625  0.09763038 -0.14573705
  0.21563391 -0.17402658  0.2046062   0.00119305  0.001489   -0.19147362
  0.17544502 -0.01348346  0.10698773 -0.10789489  0.19755444 -0.23558407
  0.31246588 -0.13881193 -0.02621732 -0.2983705   0.21671957  0.19715711
 -0.14426592  0.06573446  0.1175808   0.31079444]
[ 0.22205119 -0.14370744 -0.02673413 -0.07749941  0.23818728 -0.12490152
 -0.19606796 -0.11226902 -0.08767331  0.27129492 -0.25279877 -0.20110707
 -0.20437473  0.12351751 -0.0483085   0.02178291  0.27887714 -0.1358462
 -0.11898658  0.24839474 -0.09638831  0.07540041  0.03298584 -0.05109998
  0.11356303  0.12931441 -0.09108939 -0.08373486  0.25147745 -0.3668482
 -0.12076351  0.14969201  0.03468602 -0.06414855 -0.24291642 -0.049124
  0.24259248  0.10119139 -0.15449733  0.03421862]
[ 0.07822736 -0.05971809  0.01223521  0.23109096  0.05248721 -0.29151538
  0.26556963  0.3582139  -0.05647718 -0.2613165   0.06562757 -0.2232381
 -0.1013369   0.36046964 -0.13438839 -0.02636375 -0.27698624  0.05211375
  0.21332535  0.30131245  0.16990004 -0.02173965  0.21039137 -0.10271528
  0.01226964 -0.09708302 -0.3479106  -0.12792967 -0.2564522  -0.30770698
  0.30053088 -0.30602428  0.07697945  0.13822947  0.18283048  0.00767073
  0.16377576  0.19861725 -0.21470764 -0.12367965]
[-0.23297344 -0.00744724 -0.20214151  0.19631559 -0.32158327 -0.39050838
  0.07084463  0.14433908  0.05332538 -0.11081512 -0.220325   -0.00121682
 -0.20514189 -0.2485704   0.16997823 -0.03408705 -0.2748093   0.17078787
 -0.18582031 -0.12236252  0.35032114 -0.02743236 -0.10319947 -0.06527767
  0.05279941 -0.00109034 -0.16253787 -0.02512212  0.09942602  0.16018659
  0.06127937 -0.22568657  0.15187474  0.37234563  0.09217695  0.22132729
 -0.2177363   0.1029679  -0.22051391  0.21653624]
[ 0.2205293  -0.39966288 -0.0972404  -0.00402556  0.18515542  0.1542236
  0.18039602 -0.05996069 -0.3166555   0.03237353  0.08099882  0.38047498
 -0.27609783  0.09984313  0.22404602  0.44530565  0.175264    0.03567785
 -0.18303825 -0.16144162  0.23492034  0.15191703 -0.14475645 -0.260161
  0.1428071  -0.23195936 -0.00330847 -0.30791378  0.12587167 -0.25526184
  0.06075379  0.22757253  0.17568311 -0.26074916  0.01178976 -0.10234691
 -0.05686638  0.32912797 -0.06029082 -0.2620496 ]
[-0.20065685 -0.08362427 -0.08198562 -0.34910157  0.2226675   0.33019534
 -0.16406952  0.01944022 -0.21079959 -0.1280304   0.24713011 -0.1121469
  0.11843006  0.15317953  0.11848072  0.07499298 -0.08461657 -0.03900482
  0.11899115 -0.02165428 -0.15411092  0.3301663  -0.0268605  -0.13854766
 -0.07664876 -0.36293507 -0.1278784  -0.230851   -0.18604428 -0.41165107
 -0.1250765  -0.03137287  0.16001359 -0.17577387  0.10335924  0.00973257
  0.02708583  0.40916502 -0.25719395 -0.3956923 ]
[ 0.07967082 -0.06007523  0.27569845 -0.4172016  -0.15387805 -0.09968875
  0.13486256 -0.27591693 -0.2879553   0.12552905  0.2472736   0.15791975
  0.15576607 -0.09462456 -0.00385111  0.09527032  0.06254769  0.14212793
  0.09921283  0.08196339  0.06585435  0.04687095 -0.00892104 -0.2543519
 -0.14189859  0.01987085 -0.17618264  0.04266558  0.19119155  0.00141975
  0.13574825  0.17666483 -0.07678603 -0.00525598 -0.20768271 -0.1100984
 -0.01611259  0.08263914 -0.17682363  0.42396098]
[-3.99425507e-01 -3.45450312e-01  8.29329565e-02  3.61023992e-01
 -1.61916852e-01  2.73054726e-02 -1.33383080e-01  1.07263178e-01
 -1.50558218e-01 -4.45566094e-03 -2.24148929e-01  4.08295900e-01
  1.32174318e-04 -8.86875987e-02  1.67456493e-01 -4.51938733e-02
 -2.37205967e-01 -6.39194809e-03  7.66542107e-02 -3.44326943e-01
 -3.30676697e-02 -2.00960219e-01 -6.08207621e-02 -2.00232521e-01
  4.53383237e-01 -4.83077943e-01 -3.71890873e-01 -2.03020930e-01
 -3.77211086e-02  5.17534651e-02  2.04047889e-01 -3.28139663e-01
 -3.79896344e-04  5.78551646e-03  5.44315726e-02  3.61593843e-01
 -4.67752442e-02  6.07707202e-01 -4.55627680e-01 -1.00091584e-01]
[-2.86976188e-01  1.45436555e-01 -1.82732731e-01  3.53308976e-01
 -1.34128258e-01 -3.20683062e-01  2.01667145e-01 -3.08961235e-02
  3.03465396e-01 -1.38860777e-01  3.16568345e-01 -2.29198560e-01
  6.73960224e-02  3.76941800e-01 -2.15046629e-01 -2.33796984e-02
 -2.32570931e-01 -4.78112876e-01  1.31544292e-01 -1.09419562e-01
 -1.88621238e-01  3.08544397e-01 -2.59216160e-01 -8.73495415e-02
  2.95489788e-01 -1.01155266e-01 -3.49015832e-01  1.42664555e-02
  1.04942154e-02 -2.70327419e-01 -5.57457916e-02 -6.44014925e-02
 -2.96712678e-05  3.02812517e-01  1.20017365e-01  2.29611069e-01
 -1.02182992e-01  4.67190184e-02 -2.72706509e-01 -1.89222023e-01]
[ 0.07639891  0.24941632 -0.23823452  0.39448828 -0.23379672 -0.18061751
  0.01620747  0.01008938  0.31186828 -0.08965968  0.08654524 -0.03835528
  0.29908895  0.04081873 -0.23285943  0.07918108 -0.12796798  0.09171081
 -0.15977708 -0.00568511 -0.06128773  0.00561514 -0.2913994  -0.07442456
  0.05041753 -0.12390473 -0.1210935   0.28518447 -0.04388778 -0.15648188
 -0.13766961 -0.09922078 -0.02666335  0.03122411 -0.09826537  0.23343775
 -0.18000889 -0.06702389  0.17363931  0.11597946]
[ 0.26072824  0.12558325  0.3747041  -0.20198037 -0.23892957  0.21191604
 -0.18574394 -0.10691932  0.17266734 -0.29619148 -0.02704803 -0.02572853
 -0.08906715  0.2992952   0.22730829  0.21979478 -0.04558976 -0.31240198
  0.23902401 -0.38560224 -0.05335186  0.25111467  0.13692662 -0.13417341
 -0.14373338  0.14749578 -0.03548275 -0.105306    0.03754903 -0.1065756
  0.31117097  0.04972408 -0.08576152 -0.0052586  -0.04878829  0.3206832
 -0.01924524 -0.16334258  0.1072481   0.17229792]
[ 0.61269635 -0.37117884  0.30754474 -0.5616325   0.02925392  0.5649518
 -0.23952761 -0.33444825 -0.38545838  0.17399712 -0.07058536  0.31889614
 -0.1793585   0.16184674 -0.10432876  0.29694694  0.04048925 -0.06911837
  0.28825438 -0.14247021  0.22973949 -0.33757147  0.0383758  -0.2310969
  0.11464319 -0.3060667  -0.15665714 -0.2646586  -0.14157309 -0.12835261
  0.08771037  0.31787473 -0.04271907 -0.30183095 -0.05083129  0.33440474
 -0.14632346 -0.21269758  0.21436058  0.24276884]
[-0.32594335  0.32676798 -0.41071928 -0.2907669   0.04382898  0.22897914
  0.09814511 -0.45618933  0.05666354 -0.21902809 -0.1862389   0.19138046
 -0.41186672  0.03549462  0.2713684  -0.14143768 -0.31664476 -0.04917905
  0.10461824 -0.22288401  0.21445845 -0.24944288  0.25261354  0.09441534
 -0.14724253  0.00361066 -0.05357836 -0.43916693 -0.27831495 -0.06658494
 -0.23223749 -0.07510196  0.1221751   0.20882432 -0.01331312 -0.05400054
  0.31967705 -0.02491862  0.05519991 -0.12461843]
[-0.22343922  0.10130098 -0.29628995 -0.13532779 -0.27803493 -0.12305581
 -0.07294188  0.02394635  0.26864886  0.37589645  0.20158644 -0.0743986
 -0.03957122  0.29794213  0.22170818 -0.3024099  -0.28896594 -0.12526135
 -0.10440338  0.176697    0.18598588 -0.16272588  0.1760964  -0.12187993
 -0.260991    0.06391668  0.17510417 -0.17020601 -0.15093164 -0.00064044
 -0.03265052 -0.1887534   0.11113122 -0.07290454  0.20158719  0.0445446
  0.16448249 -0.11542495 -0.20077336  0.00360677]
[-0.52330375  0.24871202 -0.22794284 -0.02975469  0.07425244 -0.03010839
 -0.06945167  0.04391896  0.10692111  0.05126802  0.01159857  0.0671349
 -0.10009003  0.1794592  -0.05704563 -0.04751187  0.27313316 -0.19817723
 -0.19357295  0.25062037  0.30686727  0.00822379 -0.16790396 -0.19547856
  0.37781405 -0.32892573 -0.02319323 -0.03608924 -0.13921966 -0.1411038
 -0.33887225  0.09878135  0.06015272  0.24713929  0.02928169  0.06202563
  0.01655668 -0.0316239  -0.37861487  0.05829917]
[-0.12379361  0.09367208 -0.19896246 -0.09508273 -0.2711457  -0.46213716
 -0.07650746  0.23835638 -0.2899374   0.05227121 -0.07985426  0.13953091
 -0.24562176  0.01304421  0.20595665  0.18009299  0.05445335  0.21401952
  0.3241773  -0.20686415  0.11231862  0.100619   -0.26721328 -0.18936594
  0.30901578  0.13676335 -0.10299964 -0.34485644 -0.25980815 -0.2187767
 -0.23424447 -0.08004783  0.37447357 -0.03978907  0.20433387 -0.0518248
  0.26040608  0.22727346 -0.28830862 -0.3542516 ]
[ 0.01237087  0.06917633 -0.03527041 -0.07842501 -0.04142807 -0.09184594
 -0.00051381  0.07627659  0.05282647 -0.01975474 -0.03024663 -0.00659083
  0.05418858 -0.06936789 -0.00284084  0.04393274  0.05280314  0.01377016
  0.00196356  0.09467235 -0.00019407 -0.02905489  0.01506313  0.0277146
 -0.01469909  0.05296832  0.06871139  0.04945415  0.034919   -0.01393325
  0.00465169  0.02849514  0.02852688 -0.00173231 -0.04706511 -0.05619108
  0.05142371 -0.07244067  0.10339683  0.07337341]
layer 3 Activation
tanh
layer 4 Dense
40 20
[ 0.04734541 -0.3433323   0.29089937 -0.2439625   0.04555072 -0.31367418
 -0.00493235 -0.3507548   0.28051057  0.16102043  0.30708438  0.15786509
  0.07987007 -0.32985264  0.27984133 -0.1683189  -0.1878731  -0.4252368
 -0.12190557 -0.04358077]
[-0.13857755  0.21252613  0.19508287 -0.099616   -0.1662923   0.20440826
  0.1541691   0.01888474 -0.10632936  0.09248229 -0.24213861 -0.13775206
  0.24745966  0.14731489  0.0457631   0.19837822 -0.01049985  0.1537371
 -0.20481052 -0.19567968]
[ 0.28991053 -0.35451606  0.05534245 -0.21841599  0.1069289   0.22271222
 -0.14504223 -0.03209538 -0.10013082  0.11734951 -0.13065763 -0.13928844
  0.3335051  -0.15894501  0.18222935  0.24024433 -0.21918663 -0.2362948
  0.31369597  0.10807449]
[ 0.00924152  0.13877578 -0.14651336 -0.28327984  0.40137523  0.39139158
 -0.2283875   0.07796764  0.10398721 -0.11672119 -0.20713465 -0.3160312
 -0.30601263 -0.04913175 -0.181636    0.13382538  0.45353645  0.28550124
  0.17255297  0.09761768]
[-0.08443306 -0.15278073 -0.20116928  0.28801113  0.18464857 -0.19367957
  0.22085695  0.15203218 -0.15502003 -0.00368933 -0.26702896 -0.3194106
  0.25767294 -0.1001879  -0.2758791   0.26022917 -0.15766323 -0.2729589
  0.31546664  0.18795526]
[-0.14665747 -0.155479   -0.01782605  0.37158996  0.15911071  0.11353245
 -0.15291168 -0.01730009 -0.18113828  0.11413973  0.32040948 -0.20875964
  0.21675058  0.18079153 -0.00895673 -0.30402333 -0.14342079 -0.09142726
 -0.22065882  0.19302702]
[-0.23470847  0.20799604 -0.11324942  0.14847057 -0.13010153 -0.2662601
 -0.18822315 -0.09257544 -0.36964276 -0.3607609   0.03205226 -0.16380893
 -0.34509075 -0.07140186 -0.19247723  0.1042174  -0.11933402 -0.09723178
  0.05994933  0.06854915]
[ 0.12371721  0.19528483  0.18570873 -0.09480394 -0.17440772  0.17807278
 -0.18406563 -0.27617553  0.05034279 -0.3153066   0.0202978   0.22166033
 -0.3481882  -0.01472742  0.16917512  0.2583469  -0.03227913 -0.24358366
  0.04761274  0.21706225]
[-0.27345636 -0.02115515 -0.28669816  0.1151115   0.04118881 -0.06259402
 -0.00779076 -0.04387352  0.00818501  0.26889443 -0.17224593 -0.08098682
 -0.00817273 -0.04457336 -0.14364363  0.28876403  0.0830337   0.39472726
 -0.22472535 -0.16261926]
[ 0.24335031  0.21147713  0.24057384 -0.04726633 -0.16598563  0.076944
 -0.11105274 -0.08722594 -0.18188466  0.3051351   0.07756138 -0.21172322
 -0.00515042  0.18071721  0.00503131  0.04066953 -0.0649252   0.11240687
 -0.08373678 -0.28258482]
[-0.03216086  0.03577319 -0.06701095 -0.13940448 -0.04103671  0.32939813
  0.06179118  0.16084962  0.15195797 -0.0823655  -0.02698397  0.15271708
 -0.00646217  0.11668016  0.20855369  0.36735523 -0.02701101 -0.09870222
  0.05216038  0.00232827]
[-0.03964868  0.04061026 -0.10046195 -0.0417866   0.14936848 -0.1515719
  0.27033788 -0.11791946 -0.19805779  0.28833267 -0.2788933  -0.11633018
  0.28930154 -0.2492006  -0.1185058  -0.3931821  -0.15014456 -0.06859826
 -0.09970124  0.07918602]
[ 0.05455874  0.19691189  0.2691243   0.27753496  0.20621109 -0.11799095
 -0.03810839 -0.2836181  -0.02205926 -0.2373469   0.02515856 -0.10621084
 -0.09392222 -0.04986594  0.03941961  0.26137802  0.22667114  0.16874488
  0.06362705 -0.07175977]
[-0.06357256  0.27250955 -0.06475675  0.25793055  0.30422312 -0.01381534
  0.19053347  0.00979123  0.2109041   0.30974403  0.192158   -0.02688104
 -0.19794947  0.06843915 -0.09559023 -0.2441386   0.1943769  -0.01474029
 -0.2294712   0.13153557]
[-0.33706182  0.1070426   0.2398752  -0.00860876  0.03018257  0.09271963
 -0.11462989  0.16086888 -0.1721687   0.0258062   0.11372539  0.00655924
 -0.04972797 -0.18284224 -0.24069373 -0.23055162 -0.19757116  0.12600991
 -0.08780968 -0.08285194]
[ 0.1987216   0.19384757  0.02024448  0.14359343 -0.2180495   0.22822882
 -0.15856262 -0.2741259   0.3407001  -0.05862582 -0.10221864 -0.18818198
  0.30236778 -0.16804364  0.19849834 -0.19938247 -0.14465402 -0.36984614
  0.04943464  0.03385473]
[-0.17043665 -0.20158483  0.2901252  -0.24898848  0.05569077  0.00791414
  0.26362342 -0.28424212  0.01584408 -0.13962421 -0.31124663 -0.24141806
 -0.154583   -0.06591178 -0.2562269   0.04015665 -0.19676547  0.0164812
  0.11719726 -0.256858  ]
[-0.28223634 -0.09744291  0.03209044  0.02396957 -0.25825298 -0.2876641
  0.22075655 -0.16269314  0.11626422  0.07841863 -0.1457325  -0.27009052
 -0.10710842  0.28993347 -0.16912824 -0.10126132 -0.12702401 -0.2760525
  0.22463852 -0.16880691]
[-0.03382183  0.04996904 -0.05187684 -0.31637934  0.23101643  0.23143603
 -0.13639662  0.15770817 -0.11684927 -0.2826796  -0.2616444   0.10816726
  0.13528137 -0.09886623 -0.19899572 -0.14634582  0.02360366 -0.0096256
 -0.08991737 -0.22476177]
[ 0.12895297  0.3064262   0.20606521 -0.05356922 -0.3068273   0.02018133
  0.11341123 -0.1481567  -0.20862001  0.25409207 -0.1008186   0.01724654
  0.28535277  0.2887692   0.13305362 -0.1983301   0.33755344 -0.1388948
 -0.14222844 -0.18104699]
[ 0.12298185  0.0110015   0.08229363 -0.09776138 -0.39048013  0.16355054
  0.16675264 -0.04688549  0.04521676 -0.01635706 -0.06172116 -0.17772228
 -0.19636224 -0.17270991 -0.17846997 -0.2798797   0.25501105 -0.17683928
 -0.10768724  0.22376753]
[-0.19072181 -0.32912964 -0.14308712  0.20650454  0.04788497  0.04758502
 -0.08152065 -0.24701303 -0.08039589 -0.19034395  0.23991042  0.33006668
 -0.07779038 -0.288274    0.12465405  0.03468519  0.20809226  0.22418009
 -0.04928534 -0.11634315]
[-0.02657596 -0.0421343  -0.08959217 -0.11217977 -0.16222665 -0.29602396
  0.13768007  0.13040861 -0.25947335 -0.24849667  0.10836007 -0.04549898
  0.22589003 -0.0769207   0.05314637  0.2878884  -0.05439408  0.14027339
  0.14138876 -0.10919105]
[ 0.07184698 -0.11253465 -0.08939522  0.37299654 -0.3681337  -0.03681701
 -0.12580691  0.16038504 -0.02172217  0.19279227  0.07337313  0.03187716
  0.01151997  0.29225016  0.20418088  0.07812086  0.09696207  0.15832701
 -0.3643662   0.16134484]
[ 0.0356136   0.1830595  -0.11622951 -0.12358633  0.0712438   0.21435979
  0.0955262   0.0305334  -0.05102833 -0.05298181 -0.25216937  0.27931705
  0.03088327 -0.04789242 -0.06971082 -0.27397266  0.2330093   0.174897
 -0.14086173  0.07503113]
[-0.05622863 -0.19224046  0.2944194   0.03576556 -0.36427677 -0.24425133
 -0.01564781 -0.3148959   0.01323043 -0.13752794  0.24018393  0.23622338
 -0.2651833  -0.24354409  0.04175586 -0.03822357 -0.18456864  0.0843757
 -0.08133472  0.24820466]
[ 0.05743457 -0.41650787  0.28794572 -0.08326206 -0.00412588 -0.1933353
  0.1667678   0.01374946  0.23946935  0.13633227 -0.23160729 -0.26146042
  0.02711046  0.25160968  0.04246331  0.37451595 -0.09716995 -0.04786603
  0.07270116 -0.15893406]
[ 0.11991584 -0.26601166  0.18534616  0.1508667  -0.0471837  -0.15198413
  0.14004497 -0.25737792 -0.25223768  0.10610054  0.06428609  0.08015256
  0.28574255  0.05427879 -0.09170286  0.10102548  0.35573193  0.18545246
  0.26176873  0.04245988]
[ 0.12549002 -0.16154006  0.10373432 -0.27104938  0.27710786 -0.30839965
 -0.11311577 -0.10035471 -0.1798599  -0.17184961 -0.12542544 -0.01426018
 -0.10737319  0.25097677 -0.06487051  0.18576665 -0.08156521  0.12189468
  0.04299544 -0.14978851]
[-0.01755294 -0.22025323  0.27286527  0.29568273  0.12360657  0.13671479
  0.02398701  0.11331826 -0.22829077 -0.17154902 -0.16347688  0.28339916
  0.2437278   0.00923199  0.09555813  0.27360415 -0.02248439  0.04650148
 -0.07290833  0.17935652]
[-0.25353178 -0.12771857  0.26889348 -0.3286495   0.08376723  0.16691357
  0.11441235 -0.28952676 -0.1334328   0.27043965  0.06195511  0.19164534
  0.0970666  -0.26588637  0.25816104  0.20120145 -0.13929391 -0.25762862
  0.36728197  0.2626506 ]
[-0.21913666 -0.12987588 -0.00590319  0.17651564 -0.01814749 -0.29141733
 -0.05328549 -0.2986807  -0.25676244 -0.27409485  0.1387767   0.16538838
  0.11534496 -0.3105927  -0.29787052  0.26409155 -0.25692984 -0.22938801
 -0.04339851 -0.06627754]
[-0.158595    0.09257796  0.09445278 -0.22499998 -0.16908988  0.38105738
 -0.12626843  0.04064631 -0.2959815  -0.159994    0.1442745  -0.1687964
 -0.20611094 -0.20705207  0.26920238 -0.13058548 -0.14999136  0.0725875
  0.26340392 -0.21279211]
[ 0.10920922 -0.04335856 -0.24245211 -0.17834283 -0.04624088 -0.2785124
  0.275161    0.20160785 -0.1005969  -0.4254647   0.26893967  0.05876804
 -0.1866149   0.37500525 -0.02205439 -0.2093019   0.2596443   0.24500209
 -0.14852992 -0.26308778]
[ 0.11953305 -0.18679354  0.1547485  -0.16144174  0.34330195  0.22582522
 -0.35582954  0.03379943  0.00897242 -0.08016994  0.11144827  0.19365823
 -0.34124297 -0.23958945 -0.09059921 -0.16608782  0.00507035  0.12347157
  0.187282    0.04989967]
[ 0.08362737  0.37573978 -0.07794733 -0.11233378  0.08275434  0.32938406
  0.25356835 -0.01769554 -0.25221068 -0.05733551 -0.11330482  0.12226945
 -0.2898926  -0.2138318  -0.05966638 -0.08915782 -0.04048858 -0.1138017
 -0.0509584   0.20698664]
[ 0.20953031 -0.03320809 -0.10454874 -0.14879605 -0.48484334 -0.22919875
 -0.03877362 -0.05747145  0.05389696  0.15175304  0.0514994   0.215071
  0.11727536  0.07630306  0.18731305 -0.12544715  0.09105566  0.32162118
 -0.23390652  0.11819419]
[ 0.19194306  0.12130232 -0.3379412  -0.27838895  0.258495   -0.09049185
 -0.06057446  0.2877858  -0.34668466  0.1085301  -0.19285996  0.02539791
 -0.00047642  0.1085121  -0.15868475 -0.20245743 -0.07343482  0.19504158
  0.28956276 -0.09058784]
[ 0.31353343 -0.4072024  -0.22171995  0.16268493 -0.32126346 -0.33490753
 -0.14130859 -0.28036743 -0.09947471  0.22778392 -0.13368882  0.17536025
  0.35012233  0.24287425 -0.19395566 -0.24225248  0.1846403   0.29674372
  0.13174142  0.20502572]
[-0.21497293 -0.30020827 -0.11723152  0.31089985 -0.24311197  0.22421965
 -0.15089193 -0.137905    0.14932102  0.34060657 -0.25683266  0.15128566
 -0.09058329 -0.2880404  -0.24249478 -0.19453502  0.24868701 -0.26895142
 -0.24714004  0.15951593]
[ 0.01764826  0.01328305  0.02314718 -0.0022201  -0.08008356 -0.05700092
 -0.05230638 -0.02928711  0.03757418 -0.04731815 -0.04662838  0.02287474
  0.01852854  0.02824063  0.00331334  0.01410753  0.03121144 -0.01821276
 -0.03870427 -0.00347744]
layer 5 Activation
tanh
layer 6 Dense
20 1
[0.03970253]
[0.1252989]
[-0.1674008]
[-0.22093496]
[0.11944108]
[0.05084419]
[-0.01153225]
[-0.32525724]
[0.01126291]
[0.07443169]
[0.0371469]
[0.01042347]
[-0.05748929]
[-0.02033508]
[0.02413604]
[0.22494861]
[0.2611433]
[-0.17194794]
[0.04936288]
[-0.00932265]
[-0.03708343]
