layers 7
layer 0 Dense
20 20
[ 0.21478878  0.14438395  0.11698285  0.02435134  0.15942578  0.3033782
 -0.05362856 -0.32783264  0.2164699  -0.2654135  -0.16448838 -0.2539179
  0.14778279 -0.14565785 -0.17432177  0.33684424  0.36003762 -0.0179922
  0.32680297  0.11919279]
[ 0.24693158 -0.25202334  0.39379224 -0.05514392  0.5116182  -0.13551754
  0.25341803 -0.43899646 -0.04703489 -0.28741652  0.2910218  -0.03125248
  0.20657514  0.63259935 -0.28742072 -0.05905117  0.49088696 -0.42859548
  0.1313352   0.4739403 ]
[ 0.38239002 -0.4430015   0.50615686  0.0535819   0.28643218  0.06075702
  0.5142999  -0.07817519 -0.4490009   0.2522898   0.57523    -0.07344983
  0.4754418   0.9661829  -0.4490817  -0.04916136 -0.01152724 -0.22636737
 -0.0399012   0.20276386]
[ 0.50332093 -0.14754614 -0.18323614  0.3547892   0.54471487  0.25552467
 -0.00488746  0.26563594 -0.24771696  0.21474153 -0.18881433 -0.09803584
  0.0611592  -0.3193954  -0.36563256  0.17984396 -0.36958757 -0.03166585
  0.02139134  0.10602018]
[-0.18165413  0.10795535  0.05067539 -0.02833666 -0.18102819 -0.00568785
  0.02834407  0.21008301  0.17794353  0.2470313   0.2962267  -0.1832642
 -0.09970032 -0.24708585 -0.21334033  0.17685702  0.24319428 -0.029702
 -0.03717865 -0.19312489]
[ 0.34676695  0.0809493  -0.3943181   0.22925512 -0.5152076  -0.55942875
 -0.04666391 -0.12043618  0.35001788  0.21472779 -0.65685904  0.2641636
 -0.20329438 -0.70297533  0.38060838  0.7317628  -0.11806519  0.36240467
  0.23292625 -0.17212206]
[-0.12029127  0.08496825  0.05654349  0.0750009  -0.50148493 -0.5123066
 -0.01061011 -0.30766067 -0.23389257 -0.06014945 -0.60005826  0.15420018
 -0.1226451  -0.5176082   0.01901394  0.02348494 -0.4604834  -0.15629585
  0.01434357  0.0913659 ]
[-0.01325575 -0.34160268 -0.06757317 -0.06871897 -0.5459136  -0.18699652
  0.3434834   0.0510706   0.48614568 -0.8336587   0.5217147   0.2109724
 -0.42427054  0.534466    0.14297488 -0.15669589 -0.07896995 -0.3877995
 -0.02159236 -0.02771335]
[-0.41014266  0.52421796 -0.6142143   0.94047743 -0.62550884 -1.1908064
 -0.5726359   0.5125512  -0.26273787 -0.8034172   0.01248995 -0.09967016
 -0.689043   -0.15707305  0.71265614  0.0232252   0.13576218 -0.2246649
  0.06839649  0.38678306]
[ 0.5030902  -0.27016476  0.34769544 -0.0235893  -0.33776653  0.1483054
 -0.01552492 -0.14634098 -0.00436236 -0.32123753  0.00715158 -0.13372664
 -0.33292425  0.34263504  0.20279686  0.48756817 -0.20844984  0.06776664
  0.07271191  0.11458346]
[-0.42470315  0.1731259  -0.0586945   0.07957001 -0.26119572  0.29913315
  0.28202608 -0.13217337  0.56002617  0.02926239  0.68189657  0.17531784
 -0.13868205  0.12980147  0.39179257 -0.27192932  0.06087217 -0.01458376
  0.09893397 -0.14078045]
[ 0.19694684 -0.06828795  0.57506526 -0.4536278   0.58962125  0.39198002
 -0.17616303 -0.4217901   0.4992517   0.4218052  -0.2611157   0.02450595
  0.1667037   0.91991913 -0.10913108 -0.39322248 -0.30956915 -0.23294427
 -0.03523158 -0.63088363]
[ 4.7698227e-01 -4.8414087e-01 -2.9242247e-01  4.0660006e-01
  5.5845124e-01  3.4595996e-01  1.1795324e-01  6.1537522e-01
  1.5765370e-01  3.3868805e-01 -2.0874180e-01  1.4700010e-01
 -2.9670084e-01  7.4861294e-01 -2.9491166e-02 -2.4844523e-01
 -5.8085617e-04 -3.8261291e-01 -4.6751298e-02 -7.1556079e-01]
[-0.7072328   1.3704519   0.85103685 -0.41025034  0.46545     0.0057747
  0.42648983 -0.81661755 -0.5360074  -0.84217095 -0.02319029 -1.0433105
  0.025354    0.33486006 -0.7595352   0.44721383  0.3278494   0.69177735
  0.84336454 -0.0771638 ]
[ 0.07274576  0.19321926 -0.33304742  0.13368744 -0.13852963  0.02991278
  0.8558403   0.46800435  0.46168694  0.8724276   0.5605773  -0.09356961
 -0.47808978  0.83261365  0.37551096  1.2310386  -0.2762856   0.4540397
  0.22237132  0.34412262]
[ 0.4286375  -0.7536711  -0.33583218  0.61536     0.14653035 -0.09418605
  0.38732854  0.5023732   0.4773693   0.07155547  0.66956836  0.6257499
 -1.0799241   1.0183216   0.7432312   0.23253544 -0.19160658 -0.39386806
  0.19435945 -0.946591  ]
[ 0.04850213 -0.03156276  0.7428737  -0.8351393   0.7191804   0.9871927
  0.3788471  -0.6501623  -0.40900052  0.7427953   0.11099025 -0.26500854
  0.4148165  -0.03660752 -0.45126703  0.28058362 -0.22402468  0.14430262
 -0.10359378 -0.26244956]
[ 0.12871195 -0.8305701  -0.34730798  0.0821991   0.24101585 -0.17403631
 -0.33831277  1.0106683   0.46961856  0.9103193   0.10522934  0.7239057
  0.9155451  -0.34577426  0.9349348  -1.3588008   0.17631401 -1.0088453
  0.11463536  0.5635597 ]
[ 0.43394205 -0.27547494 -0.04281195  0.1589333   0.06156753  0.05601766
 -1.2527628   0.02949239 -0.07538345 -0.40395746 -1.4491895  -0.2801518
  0.8234369  -0.6882613  -1.0397594  -0.84585106  0.22909175 -0.48462626
 -0.0212745  -0.14522612]
[-0.06507129  0.26424587 -0.47438672 -1.0517917  -0.3646255  -0.7635253
  0.02914992  0.24934813 -0.10515326 -1.1551965   0.71013224  0.38999918
 -0.43133262 -1.376081   -0.1740685  -0.11220377 -0.03964608  0.11828293
  0.5069342   1.1831043 ]
[ 0.03612951  0.09210911  0.00523928  0.05618112  0.29863465  0.05094772
  0.01317047 -0.03754508  0.01424472  0.10846885 -0.2513083  -0.08410747
  0.14465599 -0.2324858  -0.2781035  -0.02460313 -0.05264081  0.04313163
  0.14416046  0.03133665]
layer 1 Activation
tanh
layer 2 Dense
20 40
[-0.0663509  -0.26543847  0.42140678 -0.24157603 -0.28350183  0.0982185
  0.23521824 -0.2785222  -0.09824699  0.04883619  0.02448555  0.26185757
  0.26114798 -0.23379129 -0.1431936   0.32474008 -0.25220683 -0.15413454
 -0.6269709   0.11557335 -0.09297572  0.09692181 -0.3265658  -0.44382265
 -0.18201298 -0.19181874  0.27631634  0.2259054  -0.05819155 -0.33751577
 -0.3968451   0.09115081 -0.25061616  0.12997143 -0.156793   -0.19951467
  0.1227968   0.20231844  0.10867932  0.21598376]
[-0.12830877  0.06711074 -0.49165788  0.32603785  0.16614611 -0.32928556
 -0.3048217   0.05220317 -0.124946   -0.01049775  0.41506496 -0.51010966
  0.24936502 -0.01400403 -0.02520003  0.02828993 -0.17217961  0.3852948
  0.40705007  0.06960564 -0.16285992  0.20686266  0.18470322  0.03281987
  0.22783032 -0.21578653 -0.08268891 -0.29892796  0.03091718 -0.19529761
 -0.04083281 -0.22054051  0.03174688  0.01198687  0.05207336  0.00331342
 -0.06745292  0.16684045 -0.41207153 -0.19942887]
[-0.37377447 -0.44012165 -0.01145576 -0.23152752 -0.30326554 -0.05942703
  0.17756805 -0.00732369 -0.05291809 -0.19625846 -0.12939002  0.25138164
 -0.2001739   0.26991063 -0.02483544  0.198629    0.08318968  0.24740012
  0.20767157 -0.21303827 -0.2477235  -0.2026633   0.1354074   0.01168322
 -0.03146025  0.03865752  0.12851466 -0.26002213 -0.01122431 -0.14694501
  0.28502813 -0.06768739  0.01402952  0.1551983   0.01749763  0.15927292
 -0.19275394  0.40141556  0.05614121 -0.12315081]
[ 0.34570757  0.00480657 -0.15761343  0.11831781  0.42011565  0.16996458
  0.03340574  0.10502634  0.0864417   0.05425205  0.14867175 -0.25586548
  0.21890874 -0.0173811  -0.0601151  -0.12415832  0.04628847 -0.12454047
 -0.46269804 -0.17922442  0.33127126  0.26695448 -0.04156815 -0.35866708
 -0.24057637  0.30729297  0.5279081   0.37887952  0.04489882 -0.41238087
 -0.06616277  0.54318947 -0.19723257  0.1375824  -0.30854928  0.11226103
 -0.11456862 -0.11052157 -0.5014098  -0.27663746]
[ 0.13907126  0.10484765 -0.0636621   0.33716923 -0.3278002   0.23816562
 -0.22744256  0.48437968 -0.35139441 -0.18548454  0.1812344   0.29256752
  0.04982353 -0.5931855  -0.3950138   0.08369538 -0.03877389  0.384954
  0.4692679   0.1315929  -0.4956531   0.0623259   0.08463187 -0.16182648
  0.11382833  0.13780941  0.30433783  0.13688347 -0.17612506 -0.3811017
  0.50510997  0.00450325  0.21491373  0.23268543  0.03290729  0.07622364
 -0.18623479  0.5621181   0.5659899   0.33202645]
[-0.60818356 -0.30330223 -0.36369556 -0.3236343  -0.4188277   0.21930704
  0.10960235  0.28185892  0.07651348  0.05950598 -0.15439247 -0.16545485
 -0.0478203  -0.3842917  -0.38855645  0.13634811 -0.2249462  -0.04323523
 -0.21517286 -0.07969255  0.1327     -0.00740014 -0.07671231  0.303099
 -0.00318539  0.03679685 -0.27588832 -0.22874042  0.04453623  0.14795469
  0.04808924 -0.10303152  0.05872566 -0.25378495 -0.15042868 -0.18816742
 -0.21845582  0.65568817  0.7695125   0.39202288]
[ 0.24013354  0.47663763  0.10329328  0.062731   -0.15426287 -0.19461223
  0.03842404 -0.01255882  0.42413428  0.00570132  0.2152118  -0.5372503
  0.27038917 -0.19735621  0.05524153 -0.6381221   0.190803    0.08528566
  0.16527863 -0.15089267 -0.3044538   0.00083812 -0.16279005 -0.03536759
 -0.0190588  -0.22757879 -0.5690076  -0.28688562 -0.01986413  0.05596918
  0.03245207 -0.16777365  0.10013203 -0.00233442 -0.08898325 -0.07705621
  0.06530489  0.340987    0.01869038  0.27883312]
[ 4.37852800e-01  5.89117073e-02  4.46319431e-01  2.56338537e-01
  1.79801300e-01  1.24293879e-01 -1.09091289e-01 -3.09694093e-04
 -1.74087994e-02 -1.05267122e-01  2.79955834e-01 -4.42207515e-01
  1.68131471e-01 -4.05646972e-02 -9.63340923e-02  2.93186843e-01
  9.34840366e-02 -3.61812919e-01 -3.19580257e-01 -3.27275209e-02
  1.24349557e-01 -9.06583071e-02  7.01101199e-02 -3.99795473e-01
 -2.68207431e-01  3.11036915e-01 -3.84382248e-01  2.03833073e-01
 -3.46465968e-02 -1.85258180e-01 -1.27024495e-03  1.93436489e-01
  2.33500022e-02 -1.39032871e-01 -1.23873875e-01 -6.34648427e-02
  3.35510552e-01 -2.64571100e-01 -3.12297910e-01  2.92178243e-01]
[ 0.35907945  0.03433538  0.19044606  0.21379854  0.27742267  0.00663194
  0.13085032  0.07945766  0.2868471   0.18886729 -0.0440909   0.37303662
 -0.05943269 -0.01783178  0.0983598   0.2168589  -0.05638491 -0.27631247
  0.20760402  0.08538669 -0.00976952  0.0165836   0.00121865 -0.29736024
 -0.12052882 -0.11760297 -0.11637526 -0.04754482 -0.12548362 -0.01967604
 -0.05418379  0.07205532 -0.11711786 -0.06783602 -0.04701337 -0.09097209
 -0.08266279  0.20605007 -0.0436117   0.20035027]
[ 0.41383204 -0.16910997  0.04379296 -0.09754304 -0.17172453 -0.32550907
 -0.6435575   0.18982197  0.08974668 -0.02380615  0.19170624 -0.30886567
  0.5708588  -0.17186905 -0.16824819  1.2616537   0.37901995 -0.6060328
 -0.19640124  0.02241883 -0.43056828  0.08658957  0.09595542 -0.5729535
  0.13653784 -0.4454689  -0.5686137  -0.16554047 -0.19870582  0.25779644
 -0.15633012 -0.3352228   0.03717059 -0.23651552  0.36777315 -0.22529705
 -0.09370682 -0.68373096  0.6972018   0.7163494 ]
[ 0.5982432   0.52954584  0.30759984  0.42779884  0.43719733  0.04840132
 -0.22576568 -0.02039748  0.6385676   0.07070853  0.17600307 -0.4054668
 -0.08470742  0.29366007 -0.196432   -0.51151633  0.34453973 -0.24490087
 -0.16977453 -0.08255316  0.25100613 -0.14293279 -0.41708088  0.09874573
 -0.1615528   0.04817659 -0.20878698 -0.27863622  0.0419631   0.10093907
 -0.1852428  -0.36526477 -0.14153327  0.12404367 -0.03639476 -0.04666165
  0.10704442 -0.04535804  0.01738933 -0.11511313]
[ 0.07430534 -0.01937984  0.08962946 -0.09289581 -0.13712275 -0.10998844
 -0.23714216  0.03310994  0.41400173 -0.14074962  0.02790914  0.06754341
 -0.20625989 -0.16309273 -0.31970116  0.12406094 -0.02724052 -0.29151157
 -0.27544641 -0.11792075  0.10573064  0.20610233 -0.0165613  -0.2187588
 -0.00234812  0.06147743 -0.1122096   0.18934573 -0.1628168   0.26439887
  0.24189007 -0.3203063   0.20941545  0.11656544 -0.33236855  0.09491735
  0.41302598 -0.09842297  0.113906    0.10189819]
[-0.17000528 -0.22196192 -0.2618239   0.00259025  0.07640597  0.08859996
  0.33760566 -0.01075214 -0.41854775 -0.12794782  0.09318503  0.17947377
 -0.13269487 -0.35284364 -0.1988543   0.37354192 -0.17308106 -0.20172228
  0.04402512  0.00835987 -0.17352937  0.1606797   0.20418936  0.15795583
 -0.1751259  -0.0704702   0.3244901  -0.14095502  0.18095413 -0.09234393
 -0.17762327  0.27246782 -0.08791221  0.22054817 -0.3268065  -0.0072704
 -0.19180937 -0.5281184   0.29292825  0.1032891 ]
[ 0.06037243 -0.05579004  0.1787292   0.13776499 -0.23385414 -0.17588183
 -0.0273158   0.01082811 -0.22850096 -0.02861406  0.04828844  0.12238655
 -0.13547184  0.32171062  0.43864036 -0.1500182   0.10869607 -0.4137369
  0.26798913 -0.21387334 -0.4735689   0.1904039  -0.38947    -0.20538029
  0.01363547 -0.02142736 -0.21563362 -0.23377879  0.10863886  0.03556148
 -0.16043012 -0.33619592 -0.032997    0.3000423   0.1250485   0.16707021
 -0.12541677  0.39621234  0.25898778  0.5965878 ]
[ 0.3002285   0.18204221  0.5141136   0.08702341  0.35933194  0.02811946
  0.20439401 -0.11499948  0.60126096  0.05108132  0.04425579 -0.1514585
  0.141751    0.17798194  0.26922205  0.18648401  0.17247036 -0.4570452
 -0.37898824 -0.12406293 -0.07208104 -0.13245851  0.17286539 -0.16262795
  0.15275803 -0.02558279  0.12247773  0.11927404  0.09498458  0.01456181
 -0.53612494  0.21034186 -0.04019741 -0.08469816 -0.27065527 -0.03840102
  0.565118    0.23101388  0.0294932   0.16937116]
[-1.30479112e-01  4.17846143e-01 -1.33032903e-01  2.28009015e-01
  2.57073492e-01  4.12250832e-02 -4.92459774e-01  1.49733862e-02
  2.92336017e-01  7.93980509e-02  2.98580080e-01 -4.85193551e-01
  9.97635797e-02 -3.36983919e-01 -1.60421714e-01 -1.32773384e-01
  2.70651788e-01 -2.34006941e-01  3.90924998e-02 -3.51570337e-03
 -3.91884774e-01 -1.99891910e-01 -4.79292661e-01  2.38096118e-01
  1.49781510e-01 -2.45009586e-01 -5.44079423e-01  9.38309357e-02
  1.01985864e-01  2.96479613e-01  1.68153167e-01 -1.56697631e-01
 -1.98424086e-02 -5.09583727e-02  7.61325240e-01  1.41517231e-02
 -4.44381535e-01  3.96366179e-01 -1.31619945e-01 -9.45964421e-05]
[ 0.19743137 -0.28010476 -0.06468177 -0.25148934 -0.0644639   0.17460565
 -0.13101359  0.1558406   0.02879606 -0.00958455 -0.17223151  0.11843543
 -0.04216592  0.09351268  0.08884279  0.03595452 -0.06506814 -0.10633493
  0.07428423 -0.03554097 -0.00584141 -0.03521172  0.21347888  0.10352182
  0.22379166 -0.21443911  0.16307658 -0.12687281  0.19108683 -0.06759379
  0.08843523  0.06294756  0.16245386  0.16672476 -0.1889395  -0.10428359
  0.026916   -0.00300732 -0.10292437 -0.2884913 ]
[ 0.2022491   0.4880782  -0.08808575  0.23246631 -0.21141453  0.06276237
  0.00585288  0.05336808  0.02333654  0.13779588  0.29245424 -0.4110801
  0.10353453 -0.24626955  0.02776042 -0.14035022  0.1331883   0.04894728
  0.13697207 -0.09429565 -0.30154768 -0.25381655 -0.08606077  0.22677618
  0.03193677  0.0717544  -0.0717916  -0.26270887 -0.04258472 -0.07317035
  0.2616039  -0.41494185  0.11422373 -0.10205916  0.39825797 -0.06760682
 -0.30474105  0.20123634  0.11369039 -0.00322487]
[ 0.14127262  0.12160588 -0.24249023  0.25745156  0.21519807  0.21486261
  0.01618974  0.20784569 -0.17666149 -0.0829202  -0.02265577 -0.2705863
 -0.03973554 -0.02101265  0.08140779 -0.2639967  -0.27536535 -0.06234787
  0.36380222  0.30753592  0.11613069  0.13120429 -0.08164263 -0.06104212
 -0.10949481 -0.05776452 -0.13793203 -0.41270828  0.12057304 -0.2843582
  0.01963761  0.15396105  0.02592107 -0.05435847  0.22324081  0.0500244
 -0.05130879  0.21887511  0.17521662  0.07401872]
[ 0.34495604  0.3459926   0.0561882   0.19756632  0.13482603 -0.34097317
 -0.28152376  0.09864682 -0.29386547  0.01167098  0.12676062 -0.49513716
 -0.1980639  -0.11072648 -0.2296185   0.15519574  0.26707602  0.08466086
 -0.21739104 -0.15558907  0.283658    0.33950198  0.25608274 -0.30974364
 -0.44576925  0.15356451  0.10438523  0.12140723  0.09779047  0.29332206
  0.08002649 -0.16702488  0.09687786  0.01230786 -0.22354393 -0.21826935
 -0.34236026 -0.17748609 -0.4172209  -0.1715801 ]
[ 1.98698267e-01  2.03735709e-01 -1.26432583e-01  2.66539096e-03
  9.65691581e-02  4.53668945e-02 -1.39037594e-01  5.86467534e-02
 -9.21346024e-02 -6.53742254e-02  4.23841178e-02 -1.63873672e-01
  2.40951940e-01 -4.26929086e-01 -2.74780750e-01  7.98838213e-02
  2.69564297e-02  2.31619135e-01 -9.95203927e-02  2.23272175e-01
 -5.87315410e-02  3.44950333e-02 -2.18260009e-02  1.12855881e-01
 -1.08871549e-01  1.99656393e-02  2.70973980e-01  3.66962284e-01
  3.13183351e-04 -3.40260804e-01  1.07737623e-01  2.54894882e-01
  4.10123020e-02 -1.17028795e-01  4.47200723e-02 -3.15027505e-01
 -1.60389557e-01 -9.45987925e-02  1.81612030e-01 -2.94143856e-02]
layer 3 Activation
tanh
layer 4 Dense
40 20
[-0.12907618  0.33741972 -0.09045072  0.28250915 -0.21626054 -0.10431312
 -0.14798662  0.14396036 -0.13551928 -0.23461679 -0.3347647  -0.28847116
 -0.19078468  0.0692315   0.10642171 -0.14057332  0.24848056  0.01654808
  0.12769426  0.07102969]
[-0.33332705  0.14328602 -0.20646128 -0.11544013 -0.04389098  0.29602662
 -0.13086633  0.12878244 -0.22805278  0.11058118 -0.28402877 -0.24824512
 -0.06750502 -0.16724105  0.12777829 -0.04906379  0.25881764  0.23118407
  0.32110143 -0.10507619]
[ 0.3158128  -0.11017476  0.1525175  -0.50348955 -0.30507812 -0.2994602
  0.31113282 -0.03473576 -0.06327976 -0.06360718 -0.04451688 -0.35574275
  0.02376806 -0.03554466  0.01786823 -0.16269992  0.2552808   0.2204399
  0.15739366 -0.21588357]
[ 0.0306072   0.12064454 -0.42790037  0.18638535  0.04422797  0.2410483
  0.01442146  0.08450513 -0.15587752 -0.2700079   0.12635016 -0.2016665
 -0.12676655  0.14893188 -0.04286282 -0.19522072  0.06777592  0.19094387
  0.07469446 -0.14625095]
[ 0.29327315  0.12562227 -0.05502966  0.0543932  -0.14755188  0.14443842
  0.20665297  0.07306677 -0.04689399  0.09359957  0.00292963  0.08698613
 -0.05370425 -0.02099182 -0.00074705  0.22893955 -0.23855497 -0.02971913
 -0.03329415 -0.18664737]
[ 0.17460674 -0.3010846  -0.00879238 -0.32610658 -0.15938117  0.10859445
  0.02164698 -0.17016116 -0.08240071 -0.12515217 -0.2984897   0.29655266
  0.16447861  0.35063073 -0.25399354 -0.18502095  0.11701652  0.34927794
 -0.31885535  0.15556099]
[ 0.05763444 -0.20648555  0.40588123 -0.21930124  0.11353666 -0.18572022
  0.0343025  -0.19088843  0.28960413 -0.25974014 -0.37496588  0.07309461
  0.2131163   0.06384657  0.2618414   0.11826199 -0.03745952  0.1557155
  0.04300946  0.08324672]
[ 0.12266771 -0.0693308  -0.27284822  0.3950327   0.02368509  0.07235371
 -0.00676767  0.15791216 -0.0080649  -0.21677215 -0.01112599  0.19851568
  0.23349962  0.30797538 -0.02663329  0.01685515  0.42333946 -0.0278379
  0.10355192  0.13629349]
[-0.24510054  0.53723395  0.03797114 -0.55016    -0.39687595 -0.2897472
  0.13440199  0.27649355  0.17300612 -0.3602999   0.00640339 -0.16912913
  0.19085893  0.1662778   0.05364132  0.104275   -0.22996213  0.01701326
  0.47275865  0.1197607 ]
[ 0.2376763   0.05785035 -0.12929341 -0.17753947 -0.11979529  0.12546442
 -0.10699554  0.03191945  0.22408627 -0.01763439  0.1649411  -0.0777033
  0.00707158 -0.11624849  0.10052118  0.08154013 -0.29120573 -0.03151357
 -0.16163039 -0.05564721]
[-0.3526512   0.20236821 -0.2924572   0.21594733  0.11938925 -0.11264597
  0.01366164  0.13914579  0.02418651 -0.1034585   0.02408163 -0.01354934
  0.014593   -0.17060423  0.04039909  0.18994014  0.39402345  0.02634466
  0.0338557  -0.03349528]
[ 0.4830164  -0.6385738   0.00617259 -0.133905   -0.00543892 -0.382616
 -0.04710824 -0.15767863  0.46070883  0.15908583 -0.03640268  0.21863928
 -0.20166263 -0.03039925 -0.01461967 -0.08973232 -0.51291573  0.437562
 -0.16876423 -0.19075027]
[-0.2787454   0.2948926  -0.37531072  0.3663675  -0.21433783 -0.2695881
 -0.1402915   0.1868008   0.16780432 -0.19440849  0.03811574 -0.05659405
  0.00617782  0.15657836  0.07985019  0.18569505  0.46074194 -0.3240159
 -0.2749972   0.00228613]
[-0.12152662 -0.44687814  0.0073228  -0.39115572  0.19317642 -0.24441405
 -0.12476294 -0.12532519 -0.36511803 -0.02723013  0.03650996 -0.5254204
 -0.15116645  0.22621912 -0.10418848  0.03320666 -0.23536678 -0.13727131
  0.45187587  0.15454185]
[-0.05629428  0.0415669   0.22691965 -0.2961578   0.3250534  -0.12711978
  0.01469298  0.10101814 -0.17237791  0.24884534  0.27093545 -0.43369138
  0.19975346 -0.22147635  0.3719245   0.05838056  0.23801105 -0.09875404
  0.43233517 -0.00821623]
[ 0.23575963  0.31774557  0.072442    0.30851448 -0.19574586 -0.28857857
 -0.14632864  0.03460354 -0.03806499 -0.2771438  -0.25595647 -0.20180461
  0.09495123  0.2625376   0.0905449  -0.2953329  -0.25330672  0.07545356
 -0.42625606  0.04583823]
[-0.12199965  0.38964978 -0.03560673 -0.07996819 -0.15448342  0.10355528
  0.22485827  0.23975879 -0.09466704  0.14927486  0.05239019 -0.27224147
 -0.34721082 -0.01034668 -0.00611721 -0.10539113  0.22031811  0.09860402
  0.03526453 -0.13956583]
[-0.3445985   0.3464941  -0.13424458  0.16067791  0.2804498   0.32237884
  0.26344225 -0.43633705 -0.1404745   0.08443439  0.08603224  0.3611832
 -0.03604269 -0.11972236 -0.3250534  -0.2164553   0.00763006  0.05120516
  0.14912513  0.00614707]
[-0.04983227 -0.2519872   0.05790592  0.20499629  0.34133238  0.42004865
  0.00058825  0.2700278  -0.2913146  -0.05982236  0.25766546  0.03109655
  0.10570256 -0.09725481  0.26154372  0.02779813  0.25676706  0.20594728
  0.11476824  0.10480782]
[-0.08819455 -0.1366943  -0.21851668  0.25945026  0.22698645 -0.15071435
  0.10271598 -0.08517905 -0.04731009  0.00967122 -0.26898375  0.20169328
  0.19070369 -0.02708659 -0.24647772 -0.04630714  0.01674916 -0.01852494
 -0.14876358 -0.0103405 ]
[ 0.09800821  0.17998952  0.19038583 -0.27912137 -0.17274068 -0.05860186
 -0.05367386 -0.30938452  0.23116264 -0.07625279 -0.22387724  0.123148
 -0.13099378 -0.13790561 -0.00422802  0.20327093 -0.73925346 -0.17416778
  0.39679727 -0.17798977]
[-0.02256474  0.03180388  0.01030915  0.07981085  0.07312169 -0.35601014
 -0.08103725 -0.10988229  0.16381554  0.11477043 -0.24609302  0.09526844
 -0.2621052  -0.11790425  0.02089116  0.00738385 -0.1062558  -0.15060101
 -0.14784044 -0.01469475]
[ 0.16941509 -0.26429468  0.2950928   0.20688388  0.19632567  0.21854955
  0.14294067 -0.1436269   0.02575644 -0.00320277 -0.21125259 -0.12886523
  0.04915277 -0.22186312 -0.10644091  0.19638112 -0.02913288 -0.10359346
  0.13190043  0.13230515]
[ 0.11741578  0.14532538  0.10621035 -0.03467473  0.21818654  0.13872623
 -0.08550174  0.12358169 -0.03066823 -0.03775051  0.02174184  0.51169586
 -0.17690866  0.18026619  0.32402113 -0.21413666 -0.04928582  0.24801992
  0.08458856  0.0037524 ]
[-0.08247347 -0.1439108  -0.02626871 -0.12514658  0.04423202  0.22462784
  0.1032433  -0.15432109 -0.09993176 -0.21834002  0.20379107 -0.15666197
  0.22117253  0.31995466 -0.03194787  0.04893805  0.19940463  0.01136321
  0.05588148  0.00930541]
[-0.06175698  0.03115128  0.26586753 -0.10997115  0.05994969 -0.03229925
  0.13087386 -0.21894422  0.35503906  0.01569181 -0.2794705   0.20200358
 -0.07285589 -0.04216754  0.00584492  0.22549622 -0.12351824  0.05363639
 -0.15018563  0.01065087]
[-0.25530255 -0.4255758  -0.04304781  0.18529005 -0.38184795  0.13643225
 -0.05551217 -0.38756368  0.47403643  0.10392221 -0.29017073  0.22024417
  0.01582243  0.2344198   0.2626611  -0.18038638 -0.35859397  0.17468777
  0.2550786  -0.11673706]
[ 0.23501608 -0.00434252 -0.1888577   0.06647481 -0.24500185 -0.06639918
 -0.08666126 -0.35235947  0.23458104 -0.18126205 -0.30647734  0.15611671
  0.10129535 -0.3126112   0.15454671 -0.08830977 -0.16648862  0.26063052
 -0.31458738  0.1619758 ]
[-0.00465648 -0.0110035  -0.17176442 -0.11384895  0.08467254 -0.16687019
  0.09948457  0.07664343  0.01016453 -0.08914968 -0.18510704  0.18845592
 -0.16247489 -0.07651287 -0.15095767 -0.10457761 -0.25453952  0.0879689
  0.06022849 -0.40057874]
[-0.21489732  0.07023493  0.26084977 -0.13654819 -0.06786133 -0.09930457
 -0.07443705  0.18954292 -0.14572212  0.11264412  0.18087071 -0.25020054
 -0.02246099  0.10125308  0.15392016  0.05415059  0.08239345 -0.1627205
  0.13361448  0.04562808]
[-0.31318384  0.25691497 -0.09460422  0.17944604  0.2897742   0.38031098
  0.18170537 -0.11831997 -0.02277971 -0.01068603  0.340379    0.33278468
  0.17480733  0.2437555  -0.11447637 -0.09903648 -0.01927126  0.18346265
 -0.10717198  0.07811524]
[-0.01029803 -0.29107383  0.161967   -0.12387817 -0.21727231  0.02428297
  0.01193916 -0.2569643   0.39875516  0.21335292 -0.28023225  0.14369768
  0.0395024   0.01529357  0.03840694  0.24244411 -0.11014926 -0.05063959
 -0.28371662  0.17442772]
[-0.2170367   0.08194865  0.1724847   0.04824337  0.06900434  0.04630762
 -0.04710101  0.092504   -0.35970584 -0.00518871 -0.08060297  0.18106505
  0.04269634  0.0467562  -0.26289645  0.04429322  0.330159    0.07933991
 -0.01690084 -0.06231791]
[ 0.30567226  0.07162926  0.12039763 -0.00378391  0.12145534  0.20559748
  0.00229199 -0.02351857  0.2874437  -0.06140631 -0.07664447 -0.15799642
  0.25380227  0.2365989  -0.18752255  0.17689642 -0.14562982 -0.1407333
  0.15499759 -0.05580447]
[-0.25460345  0.02534626 -0.28140646  0.0135025   0.0365441   0.0127242
  0.12131479  0.2689673  -0.17868438 -0.14760849  0.30493268 -0.10927545
  0.08506639 -0.06926927 -0.00325042  0.18391357  0.4944872  -0.10289336
 -0.38615143 -0.05818369]
[ 0.2627638   0.04513    -0.05472016 -0.08635544  0.16626693  0.0793719
 -0.14207676  0.07493331 -0.04364423 -0.31204814 -0.1386864  -0.04023821
  0.1111619   0.08778456 -0.05555157  0.02000428  0.03067146  0.0327336
  0.35263598  0.0215654 ]
[ 0.3068201  -0.07421527  0.5418383  -0.2134216  -0.07636393 -0.23653243
 -0.14038146 -0.15180999  0.04070687 -0.07491485 -0.38548243 -0.28986013
  0.06348174  0.02855165 -0.16636732 -0.19384196 -0.0770239   0.01864585
  0.20403562  0.17430027]
[ 0.02601478  0.07782231 -0.29006377 -0.45854872  0.2719495   0.27305943
 -0.22694686  0.15366386 -0.21415292 -0.05088774  0.13974541  0.45219582
 -0.16882908  0.08844423 -0.04676642 -0.01077655  0.03273553  0.09061542
 -0.00499641  0.23151438]
[ 0.14830902  0.10271076 -0.00544565  0.3344845  -0.01293976 -0.3923589
 -0.17462982 -0.01951208  0.09476287  0.06342347  0.4693063   0.16407739
  0.21539946  0.2059264  -0.2767487   0.3133864   0.15001361  0.69068587
 -0.348665   -0.1634545 ]
[ 0.10058879  0.27020276  0.1904343   0.2546911   0.17748067 -0.32968983
  0.31098905  0.4919906   0.02585072 -0.0091925  -0.10101575 -0.644002
 -0.2676765  -0.1638661  -0.27408728 -0.03730461  0.45582786  0.32737127
 -0.349323    0.09238969]
[-0.14698392  0.22582048 -0.09618209  0.19149938 -0.20422871  0.11783314
  0.01826562 -0.1449913   0.01636248 -0.0178879  -0.17189716  0.2838454
 -0.06741251 -0.01198084  0.02370757  0.01364285 -0.00983935  0.06622888
 -0.15785004  0.05057777]
layer 5 Activation
tanh
layer 6 Dense
20 1
[-0.04708251]
[0.0632043]
[-0.04885178]
[-0.09635004]
[-0.08647721]
[0.06980364]
[0.01858713]
[-0.08185472]
[0.00067157]
[0.00580649]
[-0.05822869]
[0.06439195]
[-0.00703224]
[-0.02016067]
[0.01780638]
[0.00282043]
[-0.01343128]
[-0.04931904]
[0.0931359]
[-0.00733636]
[0.09725966]
