layers 7
layer 0 Dense
24 20
[ 0.8958715  -0.3171278   0.3045426   1.2879537  -0.5192291   0.43575153
 -0.8473664   0.73224545  0.48797616  0.22880344 -0.63113976 -0.5484156
  0.23041397  0.44927958 -0.60519916  0.15187432  0.7835948  -0.6583638
 -0.3341219  -0.16033503]
[-0.6665386  -0.38143063  0.40649423  0.2068707   0.35237896  0.49783638
 -0.38990942 -0.7876751   0.10938241  0.49965116 -0.12851167  0.19172543
  0.4669535  -0.5616218  -0.63493156 -0.03766201  0.28275904 -0.325837
 -0.02552515 -0.0404258 ]
[-0.4523566  -0.06774931  0.66865957 -0.01886854  0.02813609  0.20736991
 -0.19610229 -0.9994021   0.11745488  0.3990131  -0.21009858  0.39493147
  0.64923847 -0.5865763  -0.16277537 -0.15775529  0.2909135  -0.60552084
 -0.14414023 -0.15008566]
[ 0.7916638   0.13399401  0.5220605   0.9575507  -0.14813899  0.7959643
 -0.7747092   0.82603925  0.8563122   0.6573433  -0.6071727  -0.6022684
  0.7002701   0.3929226  -0.67000157 -0.22848956  0.49911878 -0.9252854
 -0.29113945  0.01566905]
[ 0.7273944   0.09903753  0.46448842  0.42311713 -0.36776993  0.64991546
 -0.0587667   0.37251553  0.10586823 -0.18482317  0.12564166 -0.09787306
 -0.12428965  0.08400721 -0.04274324  0.06353191  0.61024183 -0.42051104
 -0.27227327 -0.63435525]
[ 0.5816547   0.03465018  0.03969439 -0.1187786  -0.22434857 -0.0208701
 -0.02122667  0.5702884   0.3409945   0.10844439 -0.28477558  0.06370395
  0.4351501   0.6390411   0.3017334  -0.5867471   0.39143723 -0.44758382
 -0.31496602  0.8284735 ]
[ 0.05643205 -0.12097457  0.10962456  0.09436752 -0.3149153  -0.1699494
 -0.02872251  1.2113988  -0.06857134 -0.04918921  0.05468251  0.25379413
 -0.17147994  0.76325935  0.01519358 -0.58558404  0.18437283 -0.09255736
 -0.25860107  1.3938129 ]
[-0.277221    0.38716578 -0.24240835 -0.8426176   0.174169   -1.2058425
  0.83697176 -0.6742805  -0.6044489  -0.6865324   0.996504    0.45847514
 -0.7992097  -0.21210068  0.64876086  0.14680102 -0.6975415   1.2830147
  0.7582241   0.30646935]
[ 0.3209586  -0.09783785 -0.0585132   0.02391461 -0.35927176 -0.05654863
  0.0871391   0.21670115  0.00098184 -0.7181403   0.12920746 -0.58490753
 -0.01090507 -0.37210894 -0.2381347   0.63569766  0.11428171  0.06909595
  0.33377403 -0.08062651]
[ 2.3989072   0.03429671 -0.576921   -1.0553211  -0.57743835 -0.01313572
  0.07334031  2.1436365  -0.28384477 -0.40414673  0.4820104  -2.4583948
 -0.12918201 -0.40753463  0.6052252   0.2546192  -0.8516949   0.79231805
  0.6285939  -2.991823  ]
[ 6.69209778e-01  4.08184320e-01 -1.65089369e-01  3.59674871e-01
 -8.52823019e-01 -2.68124640e-01  5.12171276e-02  2.24970028e-01
 -4.49925065e-01 -3.37508231e-01 -8.85611624e-02 -3.08252215e-01
 -7.98562914e-02  1.62530437e-01 -7.71126151e-02 -1.37961507e-01
 -2.99408042e-04 -1.23691745e-01 -1.18999265e-01 -3.47046942e-01]
[ 1.8815762   1.2061404  -0.124207   -0.88585556 -0.90987957 -0.4403329
  0.75898474  1.5429927  -0.48481977 -0.09763514  0.7968756  -1.7539945
 -0.2566844  -0.45472217  0.04154335  0.11655653 -0.94669574  0.7903463
  1.2381077  -0.3784636 ]
[ 0.4777736   0.35237208 -0.25291532  0.04770075 -0.6554547  -0.626405
  0.12114372  0.49847713 -0.18883108 -0.16360691  0.03518201 -0.11658423
 -0.45615643  0.46354213 -0.28930598  0.57936686  0.02148622  0.06402482
  0.08618919  0.13913617]
[-1.460273   -0.73178416 -0.08424427  0.52145463  0.4165738  -0.14351633
 -0.312633   -1.5504467   0.3403591   0.10033605  0.15003544  1.2850143
  0.3002248   0.48451483 -0.3151161  -0.46750036  0.12878317  0.0540483
 -0.12062316  1.2079866 ]
[ 0.1157463  -0.781507   -1.5795853  -0.0409052   0.9078614   0.8703634
 -0.50635254 -0.18977198 -0.12711634  0.15054093 -0.32104063  0.11560525
  0.16910939 -1.0683514  -0.02533347 -0.34488487  0.33713168 -0.55363667
 -0.8572825   1.366154  ]
[ 0.4837987  -0.00842867 -1.291596    0.07593209 -1.0658578  -0.6148202
  0.67402786  0.3779345  -0.3319051  -0.1329063   0.8043768  -0.88333154
 -0.05078883  1.6296011  -0.37518275  0.8049095  -0.72850287  0.20901626
  0.81406     0.36498386]
[ 0.20560406  0.36173713  0.26497403 -0.09761903 -0.37614477 -0.8161614
  0.33410132  0.28731546 -0.649687   -0.2220207   0.23742323 -0.39073655
 -0.4219625   0.15844378  0.07794366  0.60072154 -0.5019426   0.33455697
  0.62994087 -0.27632427]
[ 0.08860683  0.91324914 -0.3101949   0.23081098 -0.39277357  0.07970042
 -0.40017724  0.19824737 -0.2786236  -0.18063858  0.18993132 -0.36842296
 -0.1382558   0.14968018 -0.3357692  -0.3430103   0.06922761  0.02314266
 -0.36783162 -0.3436436 ]
[-0.27109665 -0.6282305   0.3200467  -0.08120493 -0.07639892 -0.46283188
  0.37805715 -0.5114378  -0.21782285  0.28119203  0.21891353  0.26912984
  0.33342302  1.0023985   0.15279864  0.6941019  -0.36522362 -0.01797141
  0.7215461  -0.09236864]
[-1.2085153  -0.50896126 -0.16900337 -0.22712795  0.0813831  -1.5954248
  1.1012441  -0.99199057 -0.5467216  -0.05195965  0.5183567   1.4041262
 -0.51505435  0.30771855  0.37432903  0.42340106 -0.8564076   0.821274
  1.0828458   0.11433835]
[ 0.1470351   0.51870763  0.13013141  0.23219985 -0.2728215   0.09184747
 -0.06298636  0.56200266 -0.47525886 -0.07657872  0.25021404 -0.48990038
 -0.16894624 -0.05823345  0.44058263  0.27334708 -0.33147323 -0.01292054
  0.14513366 -0.512381  ]
[ 0.74613494  0.96759367  0.63916     0.25013125  0.4859368  -0.00607062
 -0.01778964  0.48162958 -0.0375542   0.15983874  0.29950646 -0.7776073
 -0.13792051 -1.0546755   0.14800581  0.06508514  0.03997145  0.42133525
  0.123637   -0.3037912 ]
[ 0.66662544  0.36295426  1.5033499   0.27005562  0.3014755   0.3088219
 -0.0956061   0.12317887 -0.1658717  -0.24960195 -0.01470227 -0.20959143
  0.0865861   0.14343303  0.30136022  0.4526166   0.46805033 -0.0125931
 -0.54498494 -0.32778415]
[-0.01896625  0.55121595 -0.40530783  0.11631585 -0.37595275 -0.29149747
  0.49918082  0.5528688  -0.09057725 -0.5545123   0.06514746 -0.40541214
 -0.3607111   0.19609183  0.1284994   0.02149164 -0.10823069  0.26165426
 -0.08423479  0.08190665]
[ 0.10405865 -0.11728033  0.19944681  0.4516589   0.17705062  0.5960212
 -0.5758841   0.12525849  0.5854537   0.3994305  -0.45120966 -0.03929894
  0.3754605   0.10551669 -0.3678751  -0.20590024  0.39842147 -0.59211844
 -0.3494728   0.15389317]
layer 1 Activation
tanh
layer 2 Dense
20 40
[-8.84396359e-02 -2.00218156e-01  1.34721056e-01  1.21524565e-01
 -2.97886550e-01  6.56923652e-01 -4.17571753e-01  9.45266485e-02
  1.74267262e-01 -7.51020908e-01  3.11809599e-01 -2.80979186e-01
  2.16119671e+00  4.22075003e-01 -2.06126079e-01  7.54669785e-01
 -9.16400030e-02  9.76493284e-02 -3.74724180e-01  4.44874972e-01
 -7.15798661e-02 -2.78714299e-02  6.77557057e-03  1.06545520e+00
 -2.21927786e+00  1.77310169e-01  1.26550168e-01  1.55240357e-01
 -3.96990120e-01 -2.15109676e-01 -9.39913327e-04  1.63545597e+00
  3.33627969e-01 -8.11178744e-01  6.92581058e-01 -1.78045022e+00
 -1.52860597e-01  2.56402493e-01 -7.52094150e-01  9.12217200e-02]
[ 0.3794304  -0.30508676 -0.6228768  -0.30118063  0.07187054  0.16905329
 -0.5879898   0.25064313  0.38064837 -0.05265244  0.23930587  0.27608177
  0.411135    0.36896476 -0.4725411   0.17154036 -0.6576384  -0.49443963
 -0.45206645  0.4256063  -0.5375463  -0.15876797 -0.2264206  -0.09594087
  0.15777984  0.5354381   0.66557515 -0.14709733 -0.22840968  0.19072539
  0.17059214  0.25589696 -0.6965959   0.09225228 -0.17847374 -0.4326465
  0.598935   -0.10081821 -0.00807824  0.1195654 ]
[-0.4365061   0.04878007 -0.32822928 -0.16704214 -0.15830821 -0.45396018
  0.19738822 -0.11547694 -0.26209438 -0.4231475   0.01696001 -0.17640749
 -0.33328903 -0.03509806  0.18796867  0.17583531 -0.14414772 -0.01619216
  0.22592588  0.15762688 -0.22737412 -0.30610302 -0.06449945  0.23726712
  0.24761614 -0.05734832 -0.16935302  0.14372687  0.06094262 -0.56214726
 -0.31428173 -0.04774267  0.10001701  0.22442439  0.40612987  0.35273904
 -0.29204464 -0.02085357 -0.07304925 -0.00426269]
[ 0.04168292  0.09311974  0.06690358  0.5228694  -0.5644933  -0.21950032
  0.3208817  -0.22308773 -0.08835845 -0.49795792 -0.33478376 -0.29554266
  0.10021522 -0.58006173  0.67181355 -0.29024893  0.1952502   0.20180891
  0.1858934  -0.47872272  0.10882177  0.4461162   0.24463412  0.887245
 -0.8325524  -0.24809383 -0.25832152  0.7258136   0.5231273  -0.27940673
 -0.5494717  -0.09442862 -0.13273159  1.3546666   0.65414745 -0.21512662
  0.02178139  0.2729979  -0.92183495  0.1628102 ]
[-0.06083125  0.06377833  0.2421277   0.17266698  0.21196392 -0.1992766
  0.09192812 -0.19168545  0.20623358  0.36291385 -0.12700672  0.27691498
  0.21677966 -0.08378393  0.15747528 -0.749246    0.05877735  0.0193909
  0.38668296 -0.52140236  0.29382893  0.41608575 -0.1822103  -0.02981681
 -0.26830897 -0.09726418  0.06063106 -0.11211809  0.33077368  0.4495925
 -0.06916802 -0.25893605 -0.21940452 -0.03649587  0.07941934 -0.08674867
  0.16539304 -0.3455855  -0.02023269 -0.09254694]
[-0.0437208   0.36046103  0.03186229  0.41507515 -0.7900224   0.25811175
  0.34927619 -0.36507237 -0.05639109  0.3673124  -0.43249106 -0.35258391
 -0.04699008 -0.81469077  0.2936765  -0.36747673  0.85595894 -0.11445198
  0.12248267 -0.468189    0.05440152  0.95582837  0.3997009   0.66579366
 -0.8487682   0.111858   -0.46343753  0.46517327  0.24166429  0.49221095
 -0.4134829  -0.12416772  0.10133517  0.2289862   0.17043298 -0.17699365
 -0.14638807 -0.02396069 -0.76458424 -0.11170515]
[ 0.6590628  -0.07636242 -0.97596616 -0.31276062  0.5213521   0.51110166
 -0.45557287  0.34115955  0.18756466  0.51935756  0.42476004  0.0334889
 -0.83800036  0.39966568 -0.39529613  0.1893432  -0.05289306 -0.36628696
 -0.59387606  0.5827985  -0.25234523 -0.46921483 -1.508657    0.1039203
  0.29989094  0.88709676  1.1146455  -0.71145856 -0.48096085  0.81172127
  0.6333926  -0.14490427 -0.68485177 -0.4015798  -0.4820751   0.37655857
  0.27515534 -0.7691353   0.69110036 -0.62843424]
[ 1.8718006e-02 -2.5038442e-01 -4.5466471e-01  2.0646098e-01
 -2.2400136e-01  6.2167269e-01 -3.9542219e-01  2.3682064e-01
  3.8636708e-01 -2.0959912e-01  1.6341916e-01  1.3987699e-01
  1.9340990e+00  3.6222911e-01  5.7337683e-01  1.1020302e+00
  4.0656081e-01 -1.5269289e-02  2.1069650e-01  1.9584070e-01
 -4.2158309e-01 -1.6146548e-01 -7.1787602e-01  4.4228771e-01
 -1.7346764e+00 -1.8511629e-01  1.7780171e-01  2.0759666e-01
 -1.0095437e+00 -9.0105221e-02 -2.7150148e-01  1.3997594e+00
 -9.8421872e-02 -5.9811097e-01  2.6027822e-01 -1.1678236e+00
  3.3179161e-01 -1.4804268e-01 -3.7379769e-04  9.6722707e-02]
[-0.36764792  0.49459165  0.58959895  0.5784546  -0.28624478 -0.3455943
  0.79488    -0.6851849  -0.32969382 -0.08432316 -0.48053116 -0.4657979
 -0.29453668 -0.7201633   0.21514164  0.04276305  0.44295847  0.5679404
  0.56116635 -0.37646917  0.54851794  0.46622872  0.41789207  0.14031631
 -0.50150377 -0.3512228  -0.30471084  0.81802595  0.15074581 -0.04217523
 -0.50095546 -0.3192237   0.5402951  -0.04939895  0.64926714 -0.04676788
 -0.25197327  0.26189238 -0.29993424  0.15824975]
[-3.7062484e-01  6.8130118e-01  3.4708428e-01  4.5631468e-01
  4.6524130e-02 -3.5169446e-01  3.1961805e-01 -5.7177812e-01
 -4.6238586e-01 -2.7610233e-01 -5.1161188e-01 -6.2962967e-01
 -2.2431619e-02 -5.8161110e-01  4.4287694e-01  8.5009553e-05
  5.8168030e-01  5.9333104e-01  2.1677229e-01 -5.3411251e-01
  4.8575574e-01  2.9758081e-01  5.5664694e-01  3.9644864e-01
 -2.8975189e-01  3.5711002e-02 -5.0782001e-01  6.2609214e-01
  1.3101594e-01 -3.2516983e-01 -3.4057429e-01 -5.9044760e-01
  9.3743908e-01 -2.1872194e-01  4.5147210e-01  1.0200440e-01
 -3.2921669e-01  2.4827439e-01 -2.2536214e-01 -7.3720530e-02]
[ 0.3293628  -0.40871844 -0.53323394 -0.07803082  0.31315845  0.20642337
 -0.43025902 -0.12207725  0.43981552  0.5881742  -0.0695404   0.53077555
  0.34618926  0.48925292 -0.3788736   0.02494374 -0.01493573 -0.67418253
 -0.2293118   0.39732784 -0.38739562 -0.20051175 -0.53575253 -0.52423716
  0.6848675   0.417676    0.8267363  -0.6521735  -0.06501858  0.11428911
  0.51577324  0.17622392 -0.34586936 -0.09686109 -0.29121217 -0.06390391
  0.46192783 -0.47866464  0.20455904 -0.07128956]
[-0.03656553  0.09436017  0.12137955  0.4030591   0.07736827 -0.32588676
  0.24134217 -0.4690981   0.07633422  0.63017046 -0.17163908 -0.34889528
 -2.289957   -0.44803256  0.04173588 -0.90801984  0.46019948 -0.13804445
  0.37577742 -0.24641316 -0.06403949 -0.28108254  0.23913734 -0.6791889
  1.5189735  -0.2592984  -0.38040674  0.01842733  0.71390116  0.6253203
 -0.15786347 -2.1975636  -0.2072864   0.91837037 -0.50164497  1.8669738
 -0.16804804 -0.08084626  0.50416696  0.35812783]
[-0.29153103  0.75877273  0.2533357   0.41004735 -0.46151304 -0.13776398
  0.41836703 -0.6249578  -0.6402173  -0.3568245  -0.59708923 -0.18261391
 -0.2791191  -0.4428429   0.46062532 -0.1471709   0.70831245  0.18871
  0.20570932 -0.72519904  0.70326936  0.22307678  0.56201684  0.15388581
 -0.26588792 -0.34381157 -0.60417557  0.16486177  0.16829522 -0.5872329
 -0.13827582 -0.3054976   0.31365675  0.24428539  0.79839337 -0.06905066
 -0.4048077   0.39318028 -0.5289091   0.2571929 ]
[ 0.08384661 -0.30122563 -0.05663254  0.4111146   0.10409859  0.1800259
  0.08168492 -0.12762874  0.10220178  0.08554128  0.26034427  0.23384978
  0.26356184 -0.08801953  0.28491846 -0.03132373  0.2168157  -0.23229487
  0.34396645 -0.25172096  0.10277136  0.36605364  0.09969507  0.1351818
 -0.7189765   0.30994236 -0.0039258   0.19906798 -0.11254329  0.16108875
  0.07341215  0.05671367  0.2506927   0.7976083   0.02103664 -0.48814017
  0.11957967  0.15292138 -0.18150926 -0.19070819]
[ 0.17661615 -0.48418248 -0.28200215 -0.2584272   0.33062232  0.16996637
 -0.27584428  0.0485876   0.31963915  0.5798392   0.5384616   0.31763607
 -0.0554128   0.272333    0.04661883 -0.06771109 -0.33269882 -0.58533376
 -0.306617    0.38153479 -0.17182928 -0.13476744 -0.06914314 -0.2276303
  0.33800256  0.12910992  0.28257418 -0.02094317  0.00506586  0.32886434
 -0.00649639  0.08380726 -0.79604304 -0.30821893 -0.41733375  0.08059973
  0.4857815  -0.2879972   0.24876702 -0.3995625 ]
[ 0.22087105 -0.07230777 -0.17214555  0.3222517   0.41827798  0.16602439
 -0.22711767  0.09474191  0.02568184  0.32988718 -0.00419647  0.03215078
  0.12709592  0.48464876  0.24962938  0.28533608  0.21255818 -0.6509077
 -0.32834345 -0.11102355  0.06513359  0.10562252 -0.166184   -0.32559615
  0.7100695   0.27328023  0.2625329  -0.183485   -0.20990513  0.5677041
  0.0723758   0.08451252 -0.83057207  0.21729212 -0.11477569  0.05152117
  0.20168513 -0.49203688  0.43903795 -0.08456144]
[-0.61234933  0.5550758   0.702726    0.57390106 -0.32378945 -0.3066528
  0.3567791  -0.4772421  -0.4033963  -0.04968057 -0.05870834 -0.26695573
  0.01242687 -0.749881    1.1482128  -0.30011463  0.55892664  0.47763
  0.3257456  -0.63199586  0.24876276  0.35086665  0.48263985  0.27147254
 -0.41809273 -0.29593688 -0.44899166  1.0271775   0.60491294 -0.35904795
 -0.26133335 -0.34323794  0.7869253   0.50975615  0.9127997  -0.02641434
 -0.55300564  0.42005715 -1.2183031   0.524969  ]
[-0.01170468 -0.6273564  -0.06660835 -0.42587978  0.7170172  -0.00314913
 -0.35736704  0.52270824  0.42838767  0.24862796  0.73094356  0.50121367
  0.10553211  1.07013    -0.1823566  -0.12458024 -0.47065303 -0.34437162
 -0.6024564   0.0160648  -0.53543824 -0.06871135 -0.51457715 -0.24510093
  0.10669287  0.3183568   0.08804829 -0.47433227 -0.23465526  0.49189016
  0.23320399  0.01535282 -0.46982417 -0.31597644 -0.39351925 -0.04588553
  0.12061938 -0.5944931   0.72653794  0.00990142]
[ 0.2408656   0.0504802  -0.2766114  -0.49069497  0.53532046  0.13186687
 -0.2970542   0.56311464  0.54213053  0.49664858  0.05450498 -0.1496363
  0.07488219  0.24816996 -0.8042942   0.2627752   0.08663539 -0.5546765
 -0.46782604  0.29419237 -0.00600331 -0.59931326 -0.5450216  -0.06014503
  0.25848594  0.22676791  0.3563832  -0.3900876  -0.506756    0.4366313
  0.3457849   0.35354057 -0.64275926 -0.22508577 -1.024433    0.01539342
  0.33432725 -0.6783313   1.0311053  -0.63822246]
[-0.09253617  0.1732876   0.12786175  0.06713269  0.03258251 -0.84420455
  0.27018595 -0.5422744   0.13437577  0.3141054  -0.2556915  -0.26673254
 -0.5099803  -0.298425    0.28722137 -0.6388487   0.05623539 -0.04011601
  0.43941665 -0.03629834  0.0260387  -0.49979603  0.7336296  -0.6724375
  0.68294704 -0.45004866 -0.35611403  0.18798523  0.5484004   0.26687086
 -0.0802905  -1.3029993  -0.14642411  1.4932278   0.15499566  0.75410455
 -0.32634214  0.3117956   0.3294435   0.18044683]
[-0.3089128   0.47332695  0.38170317  0.09033836 -0.1384768  -0.27544838
  0.37970686 -0.37640485 -0.31313756 -0.08518112 -0.4500369  -0.39530194
  0.03256533 -0.5684967   0.3688391   0.00322742  0.50086486  0.44698113
  0.3369589  -0.47446442  0.39038464  0.24022563  0.3779729   0.10649572
 -0.35263947 -0.3418745  -0.5717534   0.2840256   0.21412326 -0.2628322
 -0.2302401  -0.19549765  0.55167705  0.11371303  0.42007443  0.00385255
 -0.5030475   0.2645515  -0.29321295  0.07069968]
layer 3 Activation
tanh
layer 4 Dense
40 20
[ 0.11129925  0.6564694  -0.76157993  0.29238626 -0.15548751 -0.10182948
 -0.08484226 -0.41199973 -0.231627   -0.5508232   0.4101672   0.29398477
  0.05794711  0.3705724  -0.14083456 -0.17632146  0.3590191   0.20584875
 -0.4698924  -0.3705974 ]
[ 0.00813883 -0.66099715  0.77950734 -0.4437339   0.50269014  0.27849123
 -0.4946043   0.00521947  0.1961121   0.37669516 -0.15221839 -0.7464297
 -0.18878618 -0.37245414  0.33995843  0.31599608 -0.32734302 -0.18255
  0.4032552   0.34728995]
[-0.46734822 -0.2513897   0.3152139  -0.05410364  0.4613212   0.15899211
 -0.18135439  0.58379865  0.56587934  0.23315142 -0.28877592 -0.4022433
 -0.12780026 -0.3476176   0.3698932   0.31016782 -0.31279242 -0.2546092
  0.32303086  0.4577904 ]
[-0.5796059  -0.70133555  0.4899327  -0.37851426  0.38100716  0.43891
 -0.15388867  0.25354365  0.4724186   0.24813007 -0.2925783  -0.34114283
 -0.4235485  -0.4829189   0.28596416  0.50719    -0.25871107 -0.40236118
  0.3139347   0.09588604]
[ 0.08434321 -0.07133748 -0.16006699  0.30722553 -0.4129476  -0.33434123
  0.23912458 -0.22047295 -0.90520597  0.2636533   0.3450227   0.21769215
  0.07150434  0.21979399 -0.11190549 -0.52396655  0.30955222  0.7254746
 -0.40818685 -0.16997816]
[ 0.21224856  0.14871868 -0.20307182  0.3357092  -0.37315297  0.22367652
 -0.21877341  0.02964828 -0.21331133  0.14614695 -0.14944099 -0.1565688
  0.17127298 -0.00245654  0.10208561  0.09990044  0.14940226 -0.06596104
 -0.04869186 -0.11967248]
[-0.57362473 -0.49120075  0.5769635  -0.5970425   0.2942389   0.00989242
 -0.2619301   0.11351979  0.58711857  0.1086634   0.19453615 -0.46734777
 -0.36696473 -0.2785149   0.21127687  0.2631425  -0.12063193 -0.2612977
 -0.08705331  0.5824507 ]
[ 0.512308    0.6725383  -0.7540802   0.36030135 -0.55450046 -0.26697114
  0.40302864  0.19672172 -0.58178157 -0.2144421   0.34463742  0.24361563
  0.36016145  0.44766825 -0.1281068  -0.47372755  0.48559344  0.36003837
  0.12328186 -0.4868987 ]
[ 0.25885123  0.45626634 -0.5347458   0.47188887 -0.5014927  -0.43098748
  0.56804603 -0.36352938 -0.42363995 -0.47954816 -0.06287574  0.7163709
  0.2794737   0.2290966  -0.13979842 -0.37254485  0.30802375  0.4991555
 -0.30573526 -0.3889429 ]
[-0.27714548 -0.2231008   0.14586303 -0.08200123 -0.39306414  0.15217169
  0.06199105 -0.03246273 -0.83515817 -0.15699361 -0.08571738  0.19563395
  0.21533999 -0.06075179 -0.19368897 -0.39661017  0.0985842   0.8287282
  0.03662026  0.15888982]
[-0.01492708  0.04143487 -0.7656159   0.46468243 -0.625662   -0.34129792
  0.37691185 -0.130727   -0.27210957 -0.21788637  0.45527777  0.5196397
  0.4176698   0.34893566 -0.49247822 -0.57755774  0.2996317  -0.14972878
  0.03400699 -0.5363906 ]
[ 0.20633118  0.2971028  -0.5835135  -0.14637074 -0.51271176 -0.40511405
  0.40381455  0.01903708 -0.64080906 -0.54783523  0.2801417   0.6048698
  0.59778553  0.5843753  -0.3730805  -0.43605632  0.28541416  0.19579253
 -0.43596247 -0.2737008 ]
[ 0.0991299   0.37654102 -1.308393    0.1724423   0.19540425 -0.2643692
  0.16892661 -0.03989813  1.1228017   0.16211073  0.278633    0.3462644
  0.2731108   0.01221304  0.3344263   0.3950793   0.26653293 -0.58856094
 -0.01831938 -0.19267486]
[ 0.44707116  0.8299363  -0.4496373   0.3061282  -0.67761916 -0.56547993
  0.5086287  -0.30258054 -0.24287912 -0.93933403  0.4258769   0.5673992
  0.00806955  0.02773534 -0.23258178 -0.75835764  0.3247276   0.15791461
 -0.49727482 -0.04631358]
[-0.40854827 -0.4911244   0.66107446 -0.37979245  0.23056759  0.8513238
 -0.43483016  0.41830203  0.7831236   0.81949395 -0.8750927  -0.34950286
 -0.32642242 -0.3174658   0.61527944  0.35884815 -0.00770697 -0.35664156
  0.8393643   0.07834811]
[-0.01909164  0.09651878  0.00300353 -0.05229543  0.06594059 -0.06631769
  0.37818158 -0.27198192  0.42743963 -0.4924504   0.24729286  0.06824987
  0.06131274 -0.05976203 -0.16253406  0.7447909   0.11585578 -0.6856652
 -0.5356223  -0.13537748]
[-0.61134017 -0.31549793  0.6209938  -0.33943242  0.47123817  0.76782304
 -0.32277867  0.2862574   0.7130019   0.3047022  -0.7096075  -0.24030334
 -0.09770291 -0.183754    0.02179097  0.21206912 -0.50586164 -0.5087465
  0.51266986 -0.06822471]
[-0.14208724 -0.4221693   0.00315118 -0.20516904  0.23996636 -0.242435
  0.22782741  0.43248883  0.71223944 -0.02797041  0.1962319  -0.11088079
 -0.30540037 -0.01805881  0.01892346  0.6285102  -0.02330936 -1.1470819
 -0.00823631  0.40780824]
[-0.39941168 -0.34751353  0.75285757 -0.16297777  0.5512409   0.18994178
 -0.26048386  0.14698903  0.23678975  0.33901146 -0.29461533 -0.26879755
 -0.6062861  -0.56497693  0.4650359   0.39353624 -0.45320457 -0.12715684
  0.14923865  0.48174405]
[ 0.27896112  0.560925   -0.7669276   0.45756152 -0.62872905 -0.31269985
  0.06766727  0.07718636 -0.6316113  -0.3713311   0.41361654  0.1908159
  0.46547967  0.2304252  -0.34461078 -0.43984187  0.45667738  0.39061588
 -0.44631115 -0.28110018]
[-0.20006245 -0.55162036  0.37191507 -0.2299115   0.2683836  -0.03899555
 -0.4173039   0.07420675  0.7904271   0.5108401   0.0838552  -0.6604141
 -0.01652284 -0.25396392  0.10225863  0.36898145 -0.15996596 -0.5373188
  0.40593556  0.43576503]
[-0.47987032  0.01735502  0.20106505  0.00695975  0.62722874  0.43744123
 -0.22199647  0.18933077  0.3741594   0.16228496 -0.1798948   0.17956139
 -0.00976127 -0.2473243   0.22986686  0.271497   -0.1980916  -1.0135392
 -0.03061763  0.10760234]
[-0.2294738  -0.39423212  0.32369885 -0.17285363  0.5798543   0.02452054
 -0.124683    0.8450144   0.99969065  0.37107226 -0.47939518 -0.15617453
 -0.17504823 -0.365693    0.35775867  0.14402957 -0.28297022 -0.31334916
 -0.04097439 -0.15203404]
[-0.00219064 -0.16087164 -0.7180013   0.28656814  0.11522602  0.23687941
 -0.09854501  0.09554932  0.878748    0.24973248 -0.4172637   0.14022438
 -0.09401958  0.41186583  0.3114062   0.5679085   0.18075292 -0.5724558
  0.2094389   0.05201299]
[ 0.5060872   0.09443905  1.7604905  -0.03124478 -0.42247534 -0.02434071
 -0.11216316 -0.04980427 -1.2716621  -0.26506445  0.18065855 -0.22951864
  0.18621013 -0.15168333  0.00748126 -0.41836616 -0.02476347  1.12342
  0.08175369  0.16750577]
[ 0.29213768  0.48463652 -0.31141952  0.52452725 -0.52310985  0.04888429
  0.5104373  -0.42211083 -0.7003257  -0.09313085  0.11930321  0.31536302
  0.24149969  0.3922212  -0.30300644 -0.2551531   0.15972374  0.3380531
 -0.11172918 -0.3153012 ]
[ 0.20397893  0.57996076 -0.5809161   0.41583878 -0.4364207  -0.4555761
  0.44529545 -0.6305134  -0.41472802 -0.29165965 -0.03738325  0.5257853
  0.43306744  0.02405076 -0.16909978 -0.4749831   0.42519698  0.0750408
 -0.4429355  -0.11287717]
[-0.40609485 -0.59015214  0.6571658   0.16713418  0.48168883  0.75535625
  0.1937915   0.5273451   0.47575086  0.31611085 -0.38263607 -0.32613158
 -0.19456758 -0.34591234  0.4920168   0.28956094 -0.06542581 -0.5302939
  0.53801966 -0.0361458 ]
[-0.58528686  0.08518868  0.16028725 -0.01738322  0.39926496  0.36745286
 -0.1691543   0.22671825 -0.6293289  -0.1196539  -0.31226435 -0.05467982
  0.0984268  -0.24352571  0.4234886   0.1252599  -0.19264233 -0.15107986
 -0.05770236  0.08897725]
[ 0.47259665 -0.09594891  0.2720464   0.2299504  -0.15133758  0.28976396
  0.35372975  0.12391355 -0.90696335 -0.0354026  -0.2463245   0.28926972
  0.18335441 -0.05478661 -0.06243332 -0.517344    0.23298366  1.0847275
  0.16092089 -0.13300182]
[ 0.30429766  0.2635573  -0.4668846   0.21592739 -0.58335215 -0.39410207
 -0.03133228 -0.4051454  -0.35044408 -0.6143566   0.25953814  0.16723609
  0.24991567  0.38542268 -0.40050265 -0.42201754  0.05434267  0.11421925
 -0.05141893 -0.4078576 ]
[-0.18256119  0.08279082 -1.3403552   0.20486408  0.17153366  0.2481353
  0.22966467  0.24236323  0.76851916 -0.08380515 -0.12139522  0.14752237
  0.4472771   0.50120455  0.26485974  0.4067007   0.27868214 -1.0237249
  0.2671074  -0.06378265]
[-0.45790103 -0.5046456  -0.7344158  -0.19289026  0.27900043  0.07117169
 -0.13913083  0.09502362  0.8805607   0.31227818  0.07502334 -0.1930512
  0.10476006 -0.21391372  0.25551102  0.74618626 -0.03449554 -1.4541615
 -0.05859783  0.2313807 ]
[ 0.24625653 -0.17646617  0.44287124 -0.02460311  0.01194507  0.2536969
 -0.01044784 -0.00463238 -0.14625543  0.5450368  -0.3116778   0.09577764
 -0.24720345 -0.274881    0.3223515  -0.62618417 -0.22321203  0.62288624
  0.23479362 -0.07193218]
[ 0.00694158 -0.31860143  0.05609847 -0.40604928  0.24494784  0.13041143
 -0.4570769   0.13664976  0.5642808   0.5217783  -0.28521752 -0.3913929
 -0.14057168 -0.30428585  0.30008918  0.60222733 -0.21684618 -0.78241247
  0.10268441  0.01118293]
[ 0.12867114 -0.15753509  0.90527594 -0.35718644 -0.364566   -0.21503352
 -0.42364246  0.14957994 -0.82443964  0.1013222   0.32941088 -0.36401248
 -0.15180229 -0.15166076 -0.04701834 -0.43928096 -0.06567878  0.6280789
  0.13513301  0.3962968 ]
[ 0.32013103  0.5933068  -0.33625928  0.25328764 -0.32516095 -0.25869372
  0.5486632  -0.28966564 -0.4881419  -0.27116364  0.12318255  0.6778604
 -0.02433933  0.4649136  -0.2869107  -0.3273478   0.46602398  0.12249429
 -0.24902022 -0.4852913 ]
[-0.18833974 -0.11903627 -0.1623098   0.1010712   0.5534272   0.27540523
 -0.15542     0.12319378  0.90325797 -0.22673947 -0.15968925  0.08532757
 -0.16803138 -0.09444051 -0.00997812  0.69436145  0.08851726 -1.1169978
 -0.04830841  0.07629263]
[ 0.1865425   0.04620893  0.6044296   0.06819025 -0.26530242 -0.02093338
  0.08302063 -0.3899242  -0.83563256 -0.08019736  0.64658946 -0.09033179
 -0.02332591 -0.2739972  -0.36256534 -0.7230653   0.02314764  1.062712
 -0.5435456   0.02082691]
[-0.24292172 -0.37966415  0.53449917 -0.53613704  0.2624972  -0.15808384
 -0.38325167  0.5864434   0.5162783  -0.270416   -0.18241675 -0.22970445
 -0.59233135 -0.03078241  0.1778948   0.16971521 -0.43419024  0.07147431
  0.08664592  0.5560958 ]
[-0.25054023 -0.36862057  0.5359171  -0.23872261  0.42702895  0.07484987
 -0.28733435  0.00107827  0.50442123  0.15042973 -0.07080197 -0.3526363
 -0.17443499 -0.19178227  0.0646157   0.27405766 -0.23513682 -0.27143475
  0.21301182  0.19752987]
layer 5 Activation
tanh
layer 6 Dense
20 1
[0.03026889]
[0.39652702]
[-0.02374309]
[-0.3869048]
[0.00558467]
[-0.1461357]
[-0.34011692]
[-0.15817577]
[-0.05748596]
[-0.19478895]
[0.17224173]
[0.3795134]
[-0.13863383]
[-0.30275026]
[-0.14536068]
[-0.01814091]
[-0.27354392]
[-0.05724149]
[-0.04079709]
[0.21326815]
[0.04092745]
