layers 7
layer 0 Dense
20 20
[ 0.07394322 -0.43702632  0.0633605  -0.02834863  0.17801665 -0.34907547
  0.27374956 -0.25170007 -0.20688727  0.20703     0.09996762 -0.12737231
  0.29545835  0.15722099 -0.01396125 -0.30357152  0.2338693   0.14868379
  0.0885374  -0.13809995]
[ 0.18820249 -0.19615468  0.10102294 -0.07141846 -0.33847544  0.14213575
 -0.33534738 -0.373516   -0.01733073 -0.15113278  0.04835996  0.19631752
  0.09951877  0.14050531  0.04355023 -0.08655505 -0.2651416  -0.48915505
  0.14946441 -0.31812316]
[-0.04981659  0.09571636 -0.39171377 -0.11518985  0.02207366  0.13368659
  0.17341457 -0.33743343  0.15464869 -0.33448195  0.522776    0.08764482
 -0.06112642  0.2641527  -0.12060814  0.07766221  0.24410424 -0.32605246
 -0.06699523  0.0067406 ]
[ 0.12744084  0.12127307  0.26988283  0.30898306 -0.09324251  0.20852198
  0.03799039 -0.32517868  0.05389674  0.09960987  0.566484    0.31711903
 -0.16049235  0.10983263  0.41319954 -0.38757122 -0.04582044  0.15825135
  0.14215726  0.45060873]
[-0.13594146 -0.24497275 -0.01888247  0.38511318  0.12822045 -0.44585246
 -0.12286485 -0.463363   -0.26006818 -0.05849661  0.17242399  0.05016905
  0.14299801  0.16523843 -0.06211854 -0.2939414   0.3923772   0.3142227
  0.44972324  0.09710385]
[-0.45823482  0.21416153 -0.17849372  0.00326952  0.46833894 -0.60874444
  0.24424818 -0.08220048  0.13796537  0.0589186  -0.07465872 -0.36432812
 -0.10738333  0.11493589  0.22310002  0.06452992 -0.33748466 -0.21569185
 -0.51045716  0.36004704]
[-0.587768    0.32972693  0.03798911 -0.09250991  0.59069234 -0.1577524
 -0.20944096 -0.09369284 -0.17610286 -0.22785392  0.07526387 -0.2113978
  0.28540143 -0.22516954 -0.05273505 -0.10930255  0.22304127  0.24244255
 -0.00291616  0.36077774]
[-0.56270117 -0.20952429 -0.30583245  0.18448478 -0.20601419  0.29808345
  0.09684066  0.2408677   0.01501337  0.05495529 -0.34770182 -0.11904813
  0.27498934  0.2098731  -0.43429694  0.139582   -0.19313452  0.25833073
 -0.33825198  0.14098468]
[-0.58249044  0.53133583  0.22328113 -0.74196136  0.04491096 -0.20406684
  0.12091977 -0.52685815 -0.40465903  0.35767835 -0.2707771  -0.7003503
 -0.25351316 -0.05940032  0.63597715  0.24298285 -0.33784387 -0.02872909
 -0.7598166   0.03507123]
[ 0.24145633  0.04493623  0.26749992  0.17171596 -0.09967574 -0.17520969
  0.39770284 -0.3895163   0.2779195  -0.32619554 -0.47317198  0.03568254
 -0.0682579  -0.21898673 -0.09110755  0.09890655 -0.24709414  0.19098231
 -0.4668368  -0.17686158]
[-0.17733984  0.26158682 -0.00873837 -0.1231658  -0.27395493  0.18095475
  0.17985995  0.2253282   0.0142384   0.28697008 -0.38825792  0.21898422
 -0.12538016  0.08532749  0.26420942  0.14373313 -0.13148779  0.17037404
 -0.0252208  -0.12224711]
[ 0.01682522 -0.39063418 -0.4018474   0.22739653  0.06155752 -0.06097433
 -0.20343857  0.49698988  0.18314311  0.11511316  0.16556647  0.5951731
  0.3146683  -0.27700678 -0.42637104  0.20232223  0.03069868 -0.11871687
  0.3300515   0.08020672]
[ 0.5993717   0.23909964 -0.5602878  -0.14063133  0.1607111  -0.19191912
 -0.08475539 -0.16679691  0.25441837  0.14444257 -0.12464851  0.6225661
  0.01620319 -0.2898809   0.17556384  0.20814252  0.1189827  -0.36106557
 -0.04031182  0.12840578]
[-0.1530259  -0.1342268   0.40700573  0.27214724  0.24280319  0.46751726
  0.45730662 -0.41591936 -0.26192296  0.48513153  0.4046027   0.1363219
  0.01971932  0.24752674  0.0906897  -0.62454724 -0.5803334   0.5834914
 -0.24465318  0.4540078 ]
[ 0.4901067  -0.33160144  0.70656925 -0.4528729   0.43949068 -0.36746356
 -0.07477378  0.16794366 -0.28634268  0.5276541   0.40455392  0.02478819
  0.2182644  -0.20502299 -0.41317892  0.4890124   0.09838955  0.04720904
 -0.4153483  -0.47140923]
[ 0.02116693  0.5556895   0.0147674   0.21649477  0.00643878 -0.07382556
  0.13542427 -0.15873714  0.2750823   0.35789794  0.05626048 -0.04446506
  0.11144417 -0.05964297 -0.03734527  0.3053343   0.01752139  0.073364
  0.11877797 -0.08640813]
[ 0.22853044 -0.41536772 -0.0272496   0.18650663 -0.08409211  0.11697984
  0.00793955  0.46961674  0.2976673  -0.24709244  0.36960202  0.4715555
  0.06648252  0.21327928 -0.41258797  0.11923317 -0.27532035 -0.22276068
  0.36268896 -0.21809447]
[ 0.06577145  0.5327033   0.09327863 -0.44359913  0.07373814  0.02941711
 -0.975774    0.29690406  0.4862084  -0.37421584 -0.19962241 -0.12619388
 -0.16098748 -0.28183448 -0.19740823  0.9330055   0.6791425  -0.3496832
  0.43865716 -0.12882797]
[ 0.2498845   0.4068207  -0.6127282   0.0042827  -0.6664019   0.29877856
 -0.22816357  0.05046069  0.1788992  -0.22431423  0.12605177 -0.2039339
 -0.55852664  0.1568543   0.37736514 -0.40499765 -0.6371044  -0.57236695
  0.62654245 -0.06847467]
[-0.45571497  0.33666152  0.70340604 -0.34403318 -0.26193154  0.3217086
  0.48328546  0.3675727  -0.11837611 -0.05821711 -0.5945917  -0.9935782
 -0.13042092 -0.28359133 -0.53329444 -0.10327064 -0.28157726  0.28428733
 -0.46250716 -0.09123842]
[ 0.14239624 -0.1112522   0.04390007 -0.04430186  0.23441023 -0.00256436
 -0.11352941 -0.03002759 -0.10194433  0.03857579  0.30323333  0.03272814
  0.12422335  0.04030425  0.20109299 -0.07335415  0.00038836 -0.0489162
 -0.02994455  0.05267714]
layer 1 Activation
tanh
layer 2 Dense
20 40
[ 0.0740377  -0.12561455 -0.04703369 -0.00258306  0.1116149  -0.29772595
 -0.30095145 -0.11724221 -0.13232207 -0.21590957 -0.10940155 -0.3250683
 -0.30908626  0.32533628 -0.15852949 -0.16735014 -0.23670816  0.2895936
 -0.24034943 -0.20100662  0.0357281   0.10266717  0.10378323  0.21759659
  0.21648946  0.2513392  -0.13035068  0.09307984  0.16073683  0.17878294
 -0.03118762 -0.00880325  0.29608622 -0.20903875 -0.12680998  0.15379857
 -0.06955235  0.07018705 -0.29782185  0.18228252]
[-0.17487323  0.36894423 -0.17425482  0.2641456  -0.2813085   0.03267795
  0.419673   -0.13272697 -0.23817493 -0.1997486  -0.2413615   0.3128188
 -0.01227457 -0.27548254 -0.28218523  0.1764179   0.33110034 -0.21294355
  0.06254456 -0.02845562 -0.03771889 -0.22736266 -0.07537271  0.02917273
  0.04777526  0.1727987  -0.02155988  0.35244307  0.04790895  0.23474824
  0.09256496 -0.17107539  0.02798842  0.10477652  0.35939956 -0.09554503
 -0.21210858  0.36949396  0.12638372 -0.16626053]
[-0.32216948 -0.23158301 -0.05175167 -0.34885553 -0.12751713  0.00581148
 -0.22743584 -0.06819224  0.22782546  0.18364893 -0.15791577  0.11600646
 -0.13087384  0.07236952  0.00868886 -0.23850864 -0.32576394  0.04786439
 -0.18902911 -0.21849363 -0.07216045 -0.01841699  0.00066089 -0.16016553
 -0.02931507 -0.07973097 -0.0371816   0.19028844  0.12253438 -0.24886702
  0.13144872 -0.09779078 -0.17021626 -0.05300426  0.08308663 -0.16506411
 -0.01224697  0.18160573  0.22678007  0.08957636]
[ 0.17286645 -0.10847496  0.00672035  0.15846922  0.04637156 -0.20539455
  0.01935486 -0.01672694 -0.29830134  0.1010885   0.18434002  0.03539443
 -0.30129808 -0.16034745 -0.01372255 -0.24788347  0.03712421 -0.3499508
 -0.02832396  0.0912139   0.3038337  -0.13681993  0.18349761  0.45616075
 -0.11578541  0.05832494  0.05882818 -0.3182224  -0.18729042 -0.17818852
 -0.21638101 -0.3118279  -0.10579026  0.09305605  0.01054593  0.04193229
 -0.09912787 -0.4213828  -0.20986669 -0.19829538]
[ 0.10417706 -0.14736219  0.19117062  0.11773573 -0.09089159  0.03501804
 -0.27128243 -0.00556034 -0.21873586  0.19416294 -0.31614265 -0.36990383
 -0.23447908 -0.16649121  0.16397284 -0.14385404 -0.00061433  0.05228111
  0.17401403 -0.0378817   0.06502968  0.15392296 -0.26644906 -0.23698613
 -0.02401751 -0.12761655 -0.20703165  0.2649592   0.21185379  0.18111628
  0.01860916  0.09827823 -0.12171786  0.13943827 -0.17823158  0.05762738
  0.23198424 -0.05783346 -0.01527588 -0.18883853]
[-0.1259021   0.36221173  0.10897921  0.27532703 -0.04074938  0.08272867
 -0.07243893  0.0431578  -0.0597724   0.09103705  0.148815    0.09300719
  0.14850292  0.10422815 -0.07885278  0.02594688  0.27660578  0.09980369
 -0.08683664  0.08657724 -0.09379915  0.07814806  0.1350321  -0.06059245
 -0.38052428 -0.16016921  0.09782121 -0.2522938   0.14743496  0.0669639
 -0.06156494  0.12170473 -0.15005074  0.14594191  0.21380453 -0.39228508
 -0.23152238  0.03469605 -0.15456122  0.00346317]
[-0.0056118   0.06121522  0.11714911 -0.3160278   0.20216265  0.4693782
 -0.25691885 -0.02345349 -0.24918413 -0.02851388  0.18473203  0.29033506
  0.08346817 -0.02591271 -0.02014095 -0.13403492  0.14953619 -0.40810537
  0.09137137  0.07924508  0.12060085  0.3048018  -0.15131392  0.46027073
  0.19848596 -0.26678473 -0.09599192 -0.12426263  0.30503336  0.14321458
 -0.03916503 -0.04156393 -0.10042536 -0.00615933  0.16724333 -0.03645054
 -0.09449435  0.08210556 -0.03920899 -0.12113383]
[-0.24988674 -0.00588855 -0.06675281  0.1653679  -0.10420294 -0.38832152
  0.2774313   0.12820649  0.10584946 -0.03233966  0.25979096 -0.4744539
  0.07801435  0.2616949  -0.06832571  0.17685999 -0.15749668 -0.04308059
 -0.03659561  0.18970641  0.22991505 -0.13754496 -0.07126225  0.02763589
 -0.363388    0.25625253  0.23817211  0.17988646  0.297914    0.01412111
  0.0383024   0.0217494   0.28290787  0.3139057   0.06784617 -0.24376675
  0.2678493  -0.11756394 -0.085828    0.44312868]
[ 0.20327903 -0.22063008  0.19914262  0.07313944  0.26383176 -0.33089232
  0.31276527 -0.11115087 -0.24040502  0.11979108 -0.21524131 -0.16452615
  0.26034722  0.03973157  0.06125468  0.07677834 -0.02666494  0.06454939
  0.0234166   0.10918465 -0.09226379 -0.12864903  0.07759152 -0.1656067
 -0.15312953  0.0807501   0.520562   -0.30442446  0.03067334 -0.20128104
  0.04611601 -0.03162184 -0.05047448 -0.3204052  -0.02494568  0.19085518
 -0.24433848  0.26178518  0.19314048  0.11334888]
[-0.2634142   0.12811856 -0.04263603 -0.3199285  -0.21289699  0.0652898
 -0.18153776  0.2538736  -0.16805372  0.02618202 -0.03741818 -0.21786034
  0.06389569  0.05770895  0.12778546 -0.35952023  0.0521427  -0.08667235
  0.10508296  0.24093609 -0.09239818 -0.08563036  0.2441826  -0.04114825
 -0.04065722  0.07408311 -0.1860346  -0.08805273  0.06620747 -0.05250909
 -0.09328287  0.18507418 -0.32508332  0.04941086  0.1822091  -0.02987499
  0.04401723 -0.14065552  0.20918404  0.06727252]
[ 0.17691934 -0.31304514  0.11161511  0.02744034  0.1715113  -0.2144716
 -0.26541713 -0.05704599  0.02023191  0.05652907  0.24393006  0.11476883
 -0.49366206  0.19076218  0.10004532 -0.14766708  0.2237837  -0.04424511
 -0.10948092  0.16528463  0.10529477  0.30448237 -0.18208309  0.37817344
  0.18973574 -0.27546084 -0.31414402 -0.30515024  0.0761603  -0.26624388
  0.4247944  -0.1696139   0.23809558 -0.16580348 -0.50934684 -0.13256223
  0.13470384 -0.17458993 -0.32416257  0.3064545 ]
[-0.05854569  0.09522355  0.02150175  0.07016766  0.09279808 -0.5458907
  0.10244287 -0.40382907 -0.1566245   0.20841123  0.11361984 -0.37618655
 -0.11467491  0.22028056 -0.12423432 -0.385151   -0.32372382 -0.09569504
 -0.35678032  0.17353444  0.5414383   0.09925258  0.09336445  0.43766937
  0.03378388  0.17346886  0.00571441 -0.44077533  0.24265271  0.02099517
  0.18554233 -0.16617836  0.05548745 -0.07217873 -0.14777093 -0.22010079
 -0.00250094 -0.22808777 -0.06995089  0.575457  ]
[ 0.05317776 -0.04657908  0.08953961 -0.25924104 -0.32294995 -0.20322327
  0.03873558  0.04593569  0.2510597  -0.05305445 -0.04851295 -0.35081705
  0.11537231  0.20084336  0.06081563 -0.2567075  -0.05643398  0.01718727
  0.05916621  0.06146951  0.1539036   0.14892535  0.25809756 -0.0229266
 -0.01030233 -0.10649811 -0.13854188  0.1153165  -0.066581   -0.00639657
 -0.15177947 -0.22040886  0.32625037  0.00435127 -0.00675177  0.07133975
  0.03474737 -0.15375532  0.11935814 -0.175367  ]
[ 0.07559921  0.13105871  0.04979734 -0.18744291  0.10904045  0.14069423
  0.32692355  0.05631601  0.16427316 -0.06814442  0.03522648  0.0324017
  0.06670997 -0.17878146 -0.23065422  0.10067552  0.00457453  0.19676714
 -0.08539509  0.32375398  0.13190846  0.16935582 -0.16019541  0.11028811
  0.17621885 -0.20419925  0.0111906  -0.2059951   0.07914372 -0.11776263
  0.03477751  0.10997768 -0.20697282 -0.12891912  0.17482665  0.04737093
 -0.100302   -0.20481122 -0.10639139  0.02051217]
[-0.00851684 -0.33997932  0.22252247 -0.21001804 -0.06383429  0.01552324
 -0.09641517  0.34136897 -0.2356416  -0.08287695 -0.2272589   0.41457108
  0.01297934 -0.2741912   0.15367822  0.10885737 -0.27001813  0.09416727
 -0.06168202 -0.39987373  0.23754895  0.17688344  0.06119028 -0.10834255
 -0.01599972 -0.29261976  0.19291486  0.04290347  0.0610519  -0.23754665
 -0.06092373 -0.27364814 -0.3332501  -0.19298843 -0.1262975  -0.13528244
 -0.0316188  -0.16130456 -0.27414083  0.02474979]
[-0.2992285   0.02152869 -0.24118848 -0.11181614  0.02174488 -0.33088145
 -0.0665703   0.06126459 -0.19917467 -0.12910165 -0.33291808 -0.42686692
 -0.15079053  0.23373753 -0.05827943 -0.01243479 -0.14460835  0.26220658
  0.2345848  -0.31740302 -0.23944396  0.08932435  0.19482096 -0.2105344
 -0.02531405  0.10300764 -0.13831677 -0.15181549 -0.21185943  0.11029254
 -0.08951157 -0.00286609  0.07336803  0.4205746  -0.06685181 -0.25589237
 -0.15222417  0.28114754  0.18432155  0.28079647]
[-0.40768144 -0.23401934  0.31115636  0.23456551 -0.27017266 -0.04521233
  0.11930762 -0.24699686 -0.11973826  0.01167667 -0.30379    -0.05927831
 -0.0891051   0.20282355  0.11088744 -0.28906628  0.20604272  0.25910923
 -0.07954655 -0.29855758  0.00255793  0.02303023 -0.16844478 -0.32113063
  0.03627521  0.27115366  0.08475451 -0.03502949 -0.06914412 -0.14861253
 -0.28491718 -0.01775156  0.26224557 -0.11026899 -0.258897    0.20553736
  0.15277545  0.20588134  0.33170578 -0.01665581]
[-0.27335736  0.01031543  0.15641452 -0.11914587 -0.07901201 -0.03293783
  0.01769986 -0.12378091  0.2765554   0.10536737  0.28799197 -0.16970311
 -0.06802121  0.0912416   0.1537083  -0.28161135  0.283015   -0.32764485
  0.09406023  0.08214042  0.17915276  0.02034793  0.12730238 -0.29615358
 -0.18508056 -0.11477116  0.26516128  0.27251944  0.24779019 -0.05760705
  0.24001372  0.10409532 -0.11408088  0.11476359 -0.0605387  -0.10947873
 -0.01083087 -0.12833317  0.3068315  -0.31083965]
[ 0.32065156  0.01489666  0.05466172  0.31435817  0.11423499 -0.2118547
  0.3939157  -0.01784461  0.21226583 -0.27944976  0.01932636  0.33529764
 -0.12817407 -0.01574408 -0.3837297  -0.00763203  0.11813919 -0.23798661
  0.00659412 -0.01940312 -0.06780986  0.19262835 -0.05665134 -0.23495984
 -0.313721    0.23456822  0.10410883 -0.10206049  0.03194238  0.23083276
 -0.23552471 -0.12656482  0.30759272  0.10804699 -0.09361903 -0.17623022
 -0.05924232 -0.02748432 -0.2012625  -0.10890446]
[ 0.28890088 -0.21253815  0.12576321 -0.04854087  0.11048513  0.24689212
  0.11793863 -0.13744794  0.26780736  0.1844114   0.06659792  0.16323991
 -0.09848625 -0.2091316   0.00686961 -0.30229574  0.20145683 -0.0254011
 -0.18071313  0.25126925  0.2033509  -0.05971764 -0.11269475 -0.2985604
 -0.22218397 -0.21895903  0.03184663  0.08697776  0.2414748  -0.2493423
 -0.19062191 -0.22215141 -0.06718256 -0.07014003 -0.05809488 -0.15236661
 -0.09829845 -0.02570668 -0.02585031  0.13930672]
[-0.06183637 -0.21836235  0.13979799 -0.01710352 -0.09531039  0.03844266
 -0.07848021 -0.01905181  0.02973935 -0.00450311 -0.01813088  0.13544266
 -0.13057762 -0.01960486  0.06983816 -0.04989117 -0.08312515  0.02714645
 -0.08998013 -0.03968902  0.02147919  0.07200876  0.0025346  -0.09573772
  0.11549256 -0.08291551 -0.05620092  0.04364719 -0.00724309 -0.12298087
  0.01460624 -0.08783051 -0.06167523 -0.1230989  -0.17199531 -0.03597253
 -0.01211352  0.05155726 -0.16279358 -0.00720521]
layer 3 Activation
tanh
layer 4 Dense
40 20
[-0.22450061  0.16785602 -0.06187286  0.09057853 -0.02896195 -0.25259387
 -0.2503118   0.1283346  -0.05902671  0.12141139  0.3303611  -0.14247519
 -0.19091645 -0.19490974 -0.25039828 -0.35420498  0.22299302  0.03740104
  0.146827   -0.30096596]
[ 0.15745795 -0.06893388 -0.12871642  0.10898923  0.1664403   0.3440168
  0.16364756  0.14158201  0.03991888  0.12665059  0.3061453  -0.08547723
 -0.11196157 -0.01359269 -0.18213646 -0.26839566 -0.0325679  -0.00924369
 -0.01306188 -0.28077608]
[ 0.18955113  0.2794964  -0.04741587  0.18187122 -0.27459416 -0.09224581
 -0.05925237  0.16988912  0.22632125 -0.26403332  0.27401438 -0.16098237
  0.04469265  0.3461241   0.0314091   0.15737312 -0.06409594  0.15555266
  0.14573264  0.00253714]
[-0.04512256  0.13590871  0.14238925  0.07291223 -0.1834001  -0.1884817
 -0.29274848 -0.0769915  -0.09170999  0.03681415 -0.00678239  0.13588478
 -0.38718206  0.22176075  0.4065038  -0.28169566 -0.19083227  0.07079163
 -0.2330425   0.17250536]
[-0.00138514  0.30140066  0.04807965 -0.04408151 -0.05493906 -0.06963035
 -0.05561764 -0.11394551 -0.02607272 -0.07455379 -0.1168115  -0.17736264
  0.00066108 -0.15170866 -0.06401404 -0.19045405  0.0202555   0.20697251
 -0.08701747  0.09640522]
[ 0.30567396 -0.10438433  0.02093631 -0.07035115  0.10433885  0.01136777
 -0.17959557 -0.0203186  -0.02664727  0.31942067  0.24816783 -0.14400296
  0.5083546  -0.03820234  0.08873797 -0.16260123  0.08017999  0.25622204
 -0.11381586 -0.04062754]
[ 0.23933057 -0.21793407 -0.10031451 -0.2826167  -0.00264252  0.11413213
  0.14009309 -0.17244175  0.10814142  0.23824951 -0.12246942  0.00062863
 -0.21182619  0.03550481  0.16010149 -0.12985261  0.23633198 -0.13053094
  0.12298626 -0.23331583]
[ 0.02276547  0.13465384 -0.0583652   0.2656441   0.068331   -0.16661072
  0.03172902  0.1838283   0.09391218  0.24036843  0.15753399  0.04515821
  0.0793673   0.01797495  0.00774232 -0.18441914  0.1329528  -0.05971618
  0.11448714 -0.33637586]
[ 0.13827676 -0.10807376  0.12130282  0.3395428  -0.05122288 -0.00065201
  0.12192304  0.14488755  0.11248346 -0.19421795 -0.08390554 -0.27712992
  0.23134781 -0.05289124  0.05976395 -0.14066553 -0.08588756  0.2032507
 -0.15935361 -0.20910156]
[-0.15513761 -0.11438054 -0.3162748   0.03546903  0.08039449  0.1168104
  0.08827981  0.1077079   0.32480073  0.05236917 -0.20658202  0.15265742
  0.10310695 -0.0615509  -0.10571451 -0.01130007 -0.0336585  -0.04185775
  0.12570836  0.01129996]
[ 0.23629354 -0.1624508   0.15338334 -0.19340202 -0.04927403  0.00575399
  0.18322816 -0.27824286  0.01695465 -0.17056318  0.3101605   0.21736746
  0.10851154 -0.01227286 -0.31107756 -0.21832958  0.08607669  0.05271913
  0.1307798  -0.03561474]
[-0.07186339  0.0150566   0.2000988   0.21154112  0.25010702  0.04921906
  0.02019228 -0.11703695  0.06021686 -0.14452599  0.1222175  -0.21061586
  0.3687145   0.19472662  0.12936825  0.2196343  -0.07071086  0.02812127
  0.22263213 -0.26600343]
[-0.16556069 -0.17118734  0.46566784  0.10519016  0.19224326  0.23148546
  0.08887886 -0.10868523 -0.00192079  0.01070925  0.09308802  0.06754356
 -0.19920379 -0.16311115  0.04763949 -0.18172844 -0.18167487  0.24200253
  0.14966278 -0.09254912]
[-0.10535605 -0.1976237  -0.2914413   0.05876919  0.15255706 -0.00261415
  0.01663137  0.03069384 -0.227894    0.14657009 -0.3531075  -0.25194192
 -0.09855126 -0.16292186 -0.34700406  0.10321469  0.18625788  0.06400568
  0.10284004  0.11568573]
[-0.00938934  0.22231627 -0.00779401  0.1021155   0.03619272 -0.10545608
  0.27296808  0.19745235 -0.1869097   0.1556206   0.08698622 -0.06451703
  0.04368782 -0.02151935 -0.15342864  0.11149208  0.12373713  0.03411921
 -0.16895005  0.16317333]
[-0.12631957 -0.02852534  0.04661864  0.07785787 -0.14799747 -0.15411445
 -0.23335786 -0.27749485  0.25536773  0.00368638 -0.12960917  0.04004082
  0.05458228 -0.2767286   0.21675232 -0.15734518 -0.15403962  0.03909184
  0.22010612 -0.1199591 ]
[-0.26801598  0.13167962 -0.08214311  0.01614559  0.02798051  0.07291407
 -0.09849121 -0.0115488  -0.04940834  0.040273    0.24497493 -0.08523701
 -0.13703686  0.0235457  -0.27894297 -0.17461127 -0.09468595 -0.01880566
 -0.24327834 -0.10876953]
[ 0.23999861  0.07741945 -0.07344713  0.04624943 -0.15769424 -0.41779292
  0.2635996   0.17944174  0.13140132 -0.28310674  0.12211984 -0.2572141
 -0.31185892 -0.21093291  0.08697312  0.26042742 -0.13240951 -0.03202277
 -0.1954192  -0.04663189]
[ 0.12347803 -0.21155469  0.04648532  0.2565491   0.30258188  0.11035673
  0.17508358 -0.12840253  0.06657592 -0.04448624  0.1590603  -0.19663428
 -0.2565165   0.12471782 -0.21456555 -0.00992167 -0.09258813  0.2868966
 -0.10553334 -0.2813761 ]
[ 0.06171249 -0.05068001  0.09734011  0.07621823 -0.1889098   0.31486565
  0.18881601 -0.12086774 -0.17630601 -0.23186621 -0.1805269  -0.07858735
 -0.193011    0.06389771 -0.09324689 -0.10530239 -0.1917701  -0.27666613
 -0.11348352 -0.09126292]
[-0.02264703  0.27636406 -0.27833465  0.24916492 -0.04994627  0.27809218
 -0.03398093  0.13066767 -0.07748902  0.09704776  0.11606093 -0.03987378
  0.0258384   0.21837026 -0.13048404  0.05573066 -0.18378519  0.26551855
  0.24417402  0.22866209]
[-0.13683482  0.21736118  0.01804688 -0.18842219 -0.17399982 -0.2502813
 -0.09121192 -0.22474399 -0.09577746  0.24592383 -0.30235118 -0.19597115
  0.27610847  0.14095837 -0.0747174   0.05325341 -0.15454374  0.07516926
  0.04531514 -0.05298465]
[ 0.26947746 -0.21490863 -0.08692926 -0.18824954  0.04216176 -0.00557822
  0.25290585 -0.25104055  0.10547197 -0.01780962  0.12697597 -0.02926002
 -0.01809835 -0.08742215  0.01778132 -0.04581966  0.17494301  0.06279793
 -0.18090948 -0.04315761]
[-0.07851125  0.14880027  0.03853696 -0.10510767 -0.02027126 -0.0281755
 -0.09133455 -0.07521955  0.14671801  0.24866763 -0.19516623 -0.10871532
  0.19167888 -0.12176667 -0.23488379 -0.16059543 -0.02013795 -0.12032598
 -0.13464226  0.2565274 ]
[-0.04312092 -0.1663141   0.10909831  0.18589683  0.13451363 -0.26168612
 -0.02829967  0.04550758  0.34484032 -0.09626304 -0.09912726  0.11482231
 -0.11054264 -0.1244596   0.09985413  0.26451683  0.25021094  0.07986224
 -0.1022424   0.30587554]
[ 0.22299342 -0.0558807   0.08079363  0.2597683  -0.0939      0.1804544
  0.08851776  0.12535195 -0.36632234  0.01151684 -0.2807847  -0.24771142
 -0.26308316  0.01275712  0.21037209  0.04261915  0.03731366  0.23313299
 -0.15168741 -0.05583728]
[-0.1378738   0.14385073  0.00992019 -0.04261316  0.10524152  0.08834007
 -0.02647534 -0.31528863 -0.11734851  0.18041912  0.2944598   0.22475827
 -0.1434941   0.230754    0.12177037 -0.09234629 -0.12980033 -0.07174347
 -0.17162035  0.22649084]
[-0.39158684  0.03615057 -0.0701363  -0.1738978   0.21476865 -0.10633139
  0.03562215  0.16748908 -0.19848412 -0.05976582 -0.14321084  0.09258716
  0.09194202 -0.19873482  0.21297139  0.05070207 -0.06433703 -0.07374567
  0.21951029 -0.21892889]
[ 0.18562403  0.03448569 -0.4750489  -0.19601694 -0.0395813   0.03359902
  0.25505552 -0.37025312  0.05355902 -0.08420758 -0.04056646 -0.11492646
  0.15454848  0.20510705 -0.09761409 -0.04308486 -0.10799414 -0.10689861
 -0.24423692 -0.05612347]
[-0.192534   -0.18471771  0.181057   -0.05540595  0.15473461  0.1909411
  0.0156998  -0.03304927 -0.2571816  -0.01776223 -0.10911628 -0.02225889
 -0.21535769 -0.23007752 -0.03404836 -0.0930368  -0.02146888 -0.07545505
  0.24927106 -0.12037053]
[ 0.24170478  0.28281492  0.10971219  0.26768163 -0.2019235  -0.1216791
 -0.17424987  0.00898774  0.18717518  0.09456896  0.24743442  0.14118281
 -0.04937688 -0.08018837 -0.18614537  0.14901054 -0.02504364 -0.04977198
 -0.07526049  0.09597914]
[-0.18570694  0.06521913  0.17646186 -0.01210453  0.08167967 -0.16353357
  0.20121342  0.16464075 -0.15524308 -0.12743114  0.14958474 -0.00709464
 -0.16112383 -0.3803179  -0.26722708 -0.12913978  0.07987667  0.03928577
 -0.23893584 -0.25572857]
[ 4.38184962e-02  2.05321572e-04 -2.74477631e-01 -6.75176904e-02
 -5.27879111e-02  1.00995996e-03 -2.13249087e-01  7.98322782e-02
  2.15353787e-01 -1.18250892e-01 -2.14044347e-01 -1.12874977e-01
 -2.53010005e-01 -1.63943931e-01 -9.74776447e-02 -1.06206417e-01
  2.20893905e-01  1.23762056e-01  1.43623069e-01  1.76912427e-01]
[ 0.2790217  -0.25615874  0.18948124 -0.17408216 -0.19436389  0.28408614
  0.01884015 -0.34391397  0.02234079 -0.03942451 -0.14681432  0.1969215
 -0.09584583 -0.14547578 -0.1062829   0.04811628 -0.26436874 -0.14924379
 -0.06953549 -0.28231514]
[-0.09584444  0.16108266  0.23351891  0.09959924  0.29419374  0.2775466
 -0.18336572  0.01062215  0.34346363 -0.23415636  0.13439752  0.01952878
 -0.09831876  0.15784244 -0.1659184  -0.20229875  0.14044754  0.05229232
  0.07377378 -0.01748971]
[ 0.17020793  0.26807803  0.09776441 -0.14349982  0.23569912 -0.26088914
  0.0687255  -0.11207716  0.29486525  0.17483693 -0.13332996  0.20554653
 -0.24356236 -0.13386188 -0.0574432  -0.00188415 -0.20688038 -0.12543641
  0.25845316  0.11138422]
[-0.02926634 -0.03745813  0.17311905  0.0548375  -0.09638586  0.08062103
  0.3224548   0.20625082  0.07694662  0.26202297 -0.1573973   0.05187184
  0.02368841 -0.11997136 -0.24873747  0.05495251 -0.26135278  0.22415835
  0.08560052 -0.2366861 ]
[ 0.19926049 -0.26984575  0.04213205  0.02950826 -0.3033262   0.1660893
  0.17026412 -0.02032537  0.02671744  0.16236629  0.30524367  0.22855
 -0.06747639 -0.03474374  0.36378554  0.22702926 -0.23620272 -0.09461582
 -0.09609451  0.12979575]
[-0.22252508  0.21947873 -0.0859516   0.1385833   0.15553267  0.2823351
  0.02731235 -0.31040707  0.2333428   0.07184999 -0.2721798  -0.1767429
 -0.1767136   0.31809247 -0.1531077   0.04298131  0.13675071  0.00595682
  0.21270461 -0.21671672]
[-0.21465707  0.00726841 -0.22544526 -0.12541898 -0.2582512   0.21104841
 -0.04395502  0.07229953  0.21229841  0.21271996 -0.02004847  0.13962828
 -0.08763362  0.04241036 -0.15493284  0.1420037  -0.27886415 -0.20328249
  0.02778105 -0.10775135]
[-0.03577255 -0.00696638 -0.01030282 -0.00355367 -0.03838524 -0.09555777
 -0.11936852  0.00446004  0.01222985  0.00598618  0.00915699 -0.01044156
  0.07173129  0.049878    0.12092081  0.09137077  0.03406232  0.00408693
 -0.00996748  0.05111092]
layer 5 Activation
tanh
layer 6 Dense
20 1
[-0.00698612]
[0.04237363]
[-0.02629311]
[-0.00919653]
[0.12625745]
[0.0764744]
[-0.02086466]
[-0.01133135]
[-0.00669699]
[-0.00374943]
[0.06282213]
[0.00773515]
[0.12206384]
[-0.07585343]
[0.11940443]
[0.17340969]
[-0.02148104]
[-0.02086518]
[0.01428398]
[-0.08227171]
[0.02732895]
