layers 7
layer 0 Dense
20 20
[-0.71719354 -0.3742798  -0.7142158  -1.1075172  -0.34080055  0.98357457
  1.3186814   0.3903453   1.1184564   0.6023454   0.23290598 -1.4773036
 -0.5409174   0.3307913   0.4462296  -0.3217262  -0.2296735   0.34514466
 -0.5235065   0.02319512]
[-0.58803123  0.75281346 -0.02342873  0.0976961  -1.1277664   0.40126273
  0.29690832 -0.43929505  0.7958688  -1.2422649  -0.53971076 -0.505276
  0.26119173 -0.14654127  0.02584196 -1.0713825  -0.5470525   0.12937355
  0.10102324 -0.56756234]
[-3.6333224e-01  9.4537383e-01 -5.5611557e-01 -3.0358561e-04
 -1.3346106e+00  7.4734527e-01  6.0441684e-02 -4.5184383e-01
  8.9332986e-01 -9.0029395e-01 -2.4908032e-01 -1.6330932e-01
  5.0628287e-01 -4.2639491e-01 -3.0618942e-01 -4.3594137e-01
 -1.0289426e+00  6.3051313e-01 -3.7175366e-01 -1.0172783e+00]
[-0.7553057  -0.19402988 -1.1408428  -0.4728805  -0.23739626  0.59983647
  0.6742675  -0.19769403  1.121067    0.83112025  0.06471276 -0.34055847
 -0.6221002  -0.05134608  0.06627032 -0.45468742 -0.06382634  0.0723395
 -0.6718536  -0.33857307]
[-4.34301049e-01  2.51030196e-02 -2.11276278e-01 -6.08104110e-01
 -3.97806883e-01  5.55078447e-01  4.51682985e-01  6.13719344e-01
 -3.38617235e-01 -1.10061024e-04 -3.63301128e-01 -2.54691571e-01
  3.02785069e-01  8.89559865e-01  1.17231917e+00  1.13666916e+00
 -1.75041631e-01 -1.19919330e-01 -4.30496037e-01  6.80357873e-01]
[ 0.43701798 -0.8560712   0.47885847 -0.37333563  0.46150637 -0.62079453
  0.05307725  0.3348966  -0.7010577   1.6228487   0.2882281  -0.03573872
 -0.48353884  0.19120038 -0.54054177  0.4917628   1.301212   -0.584883
  0.10212791  0.50806254]
[-0.158312   -0.6541718   0.41558608 -0.5241224   0.6771042  -0.7740616
 -0.07861589  0.34829748 -0.7846645   2.1870267   0.1989962   0.03257576
 -0.5056817  -0.10247568 -0.36824486  0.3030178   1.2094526  -0.59958017
 -0.1300686   0.7719737 ]
[ 0.752544    0.08128161  1.0338125   1.2497995   0.8845536  -0.8436404
 -0.94704807 -0.39866096 -0.62130815 -0.6998694   0.74029577  0.36021796
  1.0257295  -0.5424857   0.05348237 -0.5528749  -0.33856153  0.14160652
  0.73647875  0.05568037]
[ 0.8583772   0.32901648  1.3518972   0.36955813  1.2363203  -0.29374298
 -1.2172719  -1.2603137  -1.210149    1.1079662   1.0584636  -0.5005248
  1.268253   -1.3398604   1.5647448   0.18669881  0.25989327 -1.2910968
  0.55849874  1.9555428 ]
[ 1.1399329   0.49629748 -0.15919405  0.00759359  0.6328591  -0.25924104
  0.14676961  0.16007471 -0.3758049   0.16844127  0.61563945  0.09867438
  1.4778501   0.23444033 -0.38855565  0.5025069  -0.06777834  0.03104522
 -0.12419487 -0.74968106]
[ 1.0360707  -0.3441256  -0.177799    0.85540724  0.47225732  1.0855675
  0.6766661  -0.22629544 -0.16045839  0.35554913  0.02743734 -0.29021886
 -1.6962612  -0.24427599  0.04572457 -0.15628234 -0.22489728  0.7387384
  0.17109215  0.33474025]
[-2.6673100e+00 -1.9117053e-01 -8.6394238e-01 -1.3144631e+00
 -1.6930555e-01  1.3571827e+00  8.0761653e-01 -1.1488842e-04
  1.3012072e+00 -1.8774008e+00  2.4916053e-01 -4.8617613e-01
 -2.7650568e-01  5.9831971e-01  6.5199476e-01 -7.3704004e-02
  2.4521652e-01  1.5513823e+00  4.8538175e-01 -2.3623154e-01]
[ 0.62519544  0.40806693 -0.39124542 -0.31569478  0.08503346  0.53535557
  1.2871112   0.9136978   0.56811804 -1.1819495   0.09786204  0.06484984
  0.06034986  0.4808296   1.2339957  -0.41325432 -0.030966   -0.2310847
 -0.34217113 -0.53215235]
[-0.56929904  1.3031832  -0.16856463 -0.6145501  -1.3791493   0.26448262
 -0.5735085   0.4797856  -0.19308744  1.7435182  -0.64875555  1.6613537
 -1.3321964  -0.8661723  -0.08414352 -1.4952303  -0.39588904 -0.22255398
  0.21200022  0.500065  ]
[-0.7093092  -0.97110856  0.4233062   0.66422164 -0.03414665 -2.5543041
 -0.07743158  1.1274668   0.18512882 -0.1439106  -1.5816426   0.55084044
 -0.08662566  0.90671337  1.0740325  -1.2027808  -1.8489678  -2.3808222
 -0.9885775   0.09289208]
[ 4.9311857   1.6402218   1.4281229   1.7529303  -0.560323    0.1101414
 -0.1659615   1.6057512  -1.5140995  -2.7363555   0.7164476   1.0712941
  2.0016513  -0.4349366   1.7026678  -5.2335377  -0.193673   -0.27690747
 -0.01399277 -0.54130745]
[-0.5321755   0.13414238 -0.5992609  -0.33070818 -0.29357335  0.2050311
  0.9891502   0.43969074  0.81626683 -0.38238552 -0.29358813  0.266629
 -0.44655427  1.0227447   0.16637313  1.1176404  -0.31190327  1.1019262
 -0.7069173  -0.9921426 ]
[-1.411558   -2.112975   -0.5406215  -0.01341471  0.49280328 -0.47186682
 -0.22092558 -1.4278044   0.8751128  -1.2452934  -0.75179374 -2.0271428
 -1.010047   -0.38932773  0.7296487   0.6970227   0.7441795  -0.0225054
  0.0728187   0.57953686]
[-0.9247103   1.9432101   0.2451365  -3.1325073  -1.5761541   1.1187637
 -1.5922432  -0.7265068   0.30897722 -0.02662997  2.5274515  -0.02124067
  2.467178   -0.91856223 -1.4837855   0.93902117  3.1306489   1.1491742
  2.683911   -0.16912441]
[ 1.1024488  -2.0392444   0.90056276  1.8761604   1.7740633  -2.3516445
 -0.35426584 -1.7455869  -0.9345017   3.263416    1.1212531  -0.84368
  1.183592   -0.82874084 -1.0766912   1.9017951  -0.24691366 -1.223401
  0.37357008  0.16163526]
[-0.28385004 -0.09215355 -0.33925647 -0.28710952 -0.40354335  0.11347829
  0.07730329 -0.02298476  0.36334142  0.31407732 -0.17222047 -0.1601766
 -0.5508496  -0.19966616 -0.55562073 -0.07307409  0.0754378   0.10452997
 -0.16375157 -0.3355031 ]
layer 1 Activation
tanh
layer 2 Dense
20 40
[-1.0907669   0.03731286  1.1516614  -0.554262    0.45583493 -0.8408771
 -0.6163301  -0.5997299   0.64866894 -0.404704    0.6750127  -0.23090515
  0.01253569 -0.8264689  -0.68796265  1.67383    -1.7659084   0.26412973
 -0.54361755 -0.04781616  0.55555797 -1.6460593  -0.67186993 -0.6976775
 -0.5681623   0.81337076  0.6541168   1.3472829   1.2532008   0.8407268
  0.54251957  0.7758267  -1.6926845   0.83002114  0.68493366 -1.2638934
 -0.8786051   0.21282442 -0.18551816  0.8777123 ]
[ 0.18264484 -1.1260817   0.6290228   1.255435   -0.12416451 -0.1275294
  0.31880352  0.23849855 -0.5029676  -0.82141024  0.4095342   0.49094826
  0.28562436 -0.2909186   0.00876484 -0.6767985  -0.25923026 -0.32937282
  0.61067456 -0.7308119  -0.4374258  -0.5992023  -0.02543852  0.54016757
  0.12374905 -1.0811679  -0.0839579   0.04788925 -0.12780465 -0.42882288
  0.04650464  0.12307028  0.49240732  0.67714506 -0.48070997 -0.264443
 -0.2842071  -0.24767429  0.77640766  1.0090408 ]
[-0.8245242  -0.37633944  0.21247408  0.40754983 -0.37497976 -0.29405478
 -0.88693637 -0.38556856  0.286547    0.33072954  0.94177276 -0.8007807
  0.38795075  0.5808388  -0.01754623  0.27535936 -0.84929     0.19082406
 -0.2646679   0.7261192  -0.06461171 -1.2746205  -0.7648934  -0.23681374
 -0.23662648 -0.47193477 -0.39138073  0.692102    0.64159185 -0.1602397
  0.08504903 -0.89603925 -0.7417715   1.1516647   0.35166144 -0.42568472
 -0.6497925  -0.28976965 -0.61384684 -0.23916437]
[-0.6468811   0.30789632  0.55494493 -0.9258612   0.47034028  0.24633348
  0.14934704 -0.20127054  0.10586344  0.0877877   0.17730956 -1.0120306
 -0.04546079  0.00828692  0.71216106  0.3777102  -1.1371694  -0.7337492
 -0.20014854  0.6380335   0.05386308 -0.8153648  -0.3885795   0.24865739
 -0.37074134  0.7245714   0.6524448   0.45443064 -0.24475212  0.45696592
 -0.8170225   0.5334291  -1.3197103   0.98138237 -0.1707908  -0.5615424
 -0.7982442  -0.8458781  -0.4916109  -0.95282733]
[ 0.20312257  0.8083868  -0.12105974 -0.4000719   0.6441787  -0.38378257
  0.15653703 -0.40268946  0.6571627  -0.20310526 -0.27506438 -0.35409388
 -0.28436995  0.5667352  -0.27704477  0.18703713 -0.39304006 -0.6574024
 -0.4052285   0.6470566   0.41584963 -0.08057791 -0.19216448 -0.32006028
 -0.01728057  0.33501938  0.22860818  0.4370477   0.51675254  0.78935015
 -0.8664476  -0.37310523 -0.7701061   0.12809739  1.2105973  -0.09446321
  0.26371166 -0.6049756  -0.608288   -1.2442328 ]
[ 0.41307625 -0.97295594  0.36060634 -0.011242    0.05013119  0.20849657
  1.3707062  -0.31288457 -0.20949544 -1.562294   -1.0226034   2.1082287
  0.46215266 -2.3804913  -0.75331455 -0.15560326  0.5675874  -0.64137936
 -0.54147816  1.0263908  -0.5321783   0.8051192   0.70485884 -0.50876534
 -0.00685002  0.07776312  0.07536954 -0.42966923 -0.8158089  -1.3351265
 -0.17711416  2.0335512  -0.4627883  -1.0688262   0.49994963  0.28066787
  0.6375735   0.26579705 -0.12912163  1.4392769 ]
[ 0.9000537  -0.49024713 -0.9158789  -0.49226734  0.64890355  0.8731021
  1.1371322   0.4679688  -0.04932547  1.2796214  -0.87201446 -0.01508296
  0.5097421  -0.25799808  0.74601024 -0.74312925  0.89834327 -0.5496018
  0.8140826  -0.30255216 -0.08253449  1.1631002   1.0544616   0.44555068
 -0.26227584 -0.27325535 -0.48889706 -0.56258214 -0.33681974 -0.42305043
 -1.2638332  -0.27571142  0.39034766 -1.8716793  -0.27032426  1.2045039
  0.653716   -0.99645185  0.18877746 -0.19010971]
[ 0.02074865 -0.30575523  0.17035292 -0.16639088 -0.04754759  0.66007566
  0.85933983  0.6783545   0.6702749   0.4367352  -0.28075927 -0.42405576
  0.9716615   0.25724822  1.3330091   0.17186326  0.74493116 -0.22230336
  1.0219964  -1.0001019   0.18674359 -0.35821792  0.13301009  0.9730609
  0.4320557   0.71980953 -0.14497149 -0.8160373   0.07405428 -0.4350013
 -0.70132893 -1.3158711   0.24687843  0.05101295 -0.01821431  0.0369467
  0.10822437 -0.6672756   0.5089634   0.4574236 ]
[ 0.87421775  0.1136865  -0.7530673  -0.366423    1.0193075   0.351305
 -0.21462695  0.4486645  -0.29261082 -0.0131456  -0.6927666  -0.13384
  0.05345585 -0.84957004  0.05066565  0.00250374  1.4297979   0.43456018
  0.04291737 -1.2444313   0.10341349  0.853597    0.5113257   0.77756315
  0.12159944 -0.16805248 -0.7650911  -1.0426302   0.06931277 -0.19364364
  0.08236717 -0.01742937  0.6847941  -0.9346677  -0.44945884  0.65145236
  0.36679238  0.06552976  0.5676714  -0.45261186]
[-0.30324987  1.9493594   0.3360823  -0.20792782 -1.3133544   0.1994604
 -0.6701033  -0.31415975  0.24165215 -0.77154803  0.05381849 -0.04173393
 -1.2484999   0.6716761  -0.33628818  0.19450423  0.7784849   0.80266464
 -0.00607616  0.03854762  0.19052193  0.07280239 -0.45462456  0.15604313
  0.00457219  0.8800668   0.52276224 -1.1365554  -0.2439001  -0.2536673
  1.5853846  -0.08542258 -1.2852852   0.19444731  0.7640457  -0.16618618
 -0.19678089  0.31660634  0.13672724  1.3272303 ]
[ 0.10510959 -0.81629676 -0.16241933  0.8878515  -0.43489432 -1.026736
 -0.72624767 -0.23251718 -0.9307453  -0.6805716   0.20935234  0.25900522
 -0.30814433 -0.8092041  -1.2645186  -0.08905242  0.15207176  0.698266
 -0.95962137  0.2275427  -0.5494159   0.06201532 -0.48220637 -0.9206265
 -0.3184977  -1.4807395  -0.11252102  0.38779938  1.1011952   0.23303804
 -0.45008168  0.6521443  -0.40944803  0.31570384  0.11639357  0.1863941
 -0.37957263  0.143026   -0.17335182  0.091778  ]
[-5.11403739e-01 -2.36411020e-01  1.00623143e+00  6.19449914e-01
 -7.49786556e-01 -5.37109852e-01  1.67816624e-01  5.64608097e-01
 -4.86410439e-01  1.95136622e-01  4.97907221e-01 -1.14814237e-01
  7.76276708e-01  1.05259046e-01 -2.35055476e-01  9.31948647e-02
 -3.86551529e-01 -4.38936681e-01  1.16354302e-01 -6.98988318e-01
  1.00551290e-03  1.74805112e-02 -1.03051317e+00 -2.12983802e-01
 -2.47957818e-02 -1.01259314e-01 -2.42730952e-04  5.06179392e-01
 -1.08128309e-01  3.71029973e-01  1.66713014e-01 -5.10266602e-01
  5.86524606e-01  9.37535167e-01 -2.22769938e-02 -7.35771239e-01
 -3.83036703e-01 -4.70399588e-01  2.68662721e-01  5.10270953e-01]
[-0.38172567  0.05628858  0.6918573  -0.28405666  0.41261846 -1.2521583
 -1.5084047  -0.8825127   0.5694709  -1.2256184   0.6753416  -0.51605386
 -0.5475574  -0.34827995 -1.0574805   1.47731    -0.36669523  0.6701302
 -0.5819798  -0.26352394  0.24127603 -0.6779078  -0.8557615  -1.1537312
  0.14736013  0.2778927  -0.03220965  0.6363351   0.77292365  0.23122635
  0.9627213   0.488233   -1.1444926   1.4221278   0.7953559  -0.6356048
 -0.5271892   0.43122628 -0.2418095   0.23216863]
[-0.257138    0.08915954  0.44232753 -0.7131021   1.7722002   0.62434214
  0.25022146  0.22249748  0.0851691   0.51899374 -0.07371378 -0.89810944
  0.33380118 -0.57120174  0.78933674 -0.10957327 -0.05338794 -0.43100932
  0.86693215 -1.3216406  -0.03287699 -0.00957232 -0.27411672  0.94747335
  0.68283844  0.12747835 -0.91772056 -0.21601947 -0.11372373  0.63144547
 -2.405881   -1.1075567   0.6296321   0.11704462  0.14929606 -0.17117184
 -0.10393013 -0.976844    0.645471   -0.62350804]
[-0.36338925  0.02451221  0.3791192  -0.1192106   0.30087623  1.0761249
 -0.4553298   0.25481957  1.2340012   0.24377397  0.21479967 -0.35030115
 -0.0617725   0.03282298  0.1688111   1.510704    0.08476222  0.35074615
 -0.38250393 -0.513415    1.1370286  -0.26489615 -0.5401785  -1.1430534
 -0.1676577   0.66361666  0.15355721 -0.15036497  0.5496272   0.68485135
 -0.13513286  0.48719576 -0.82123005  0.5968566   0.27389777 -0.40580395
  0.27658987  0.7045173   0.22788455  0.06125842]
[-0.15409973 -0.15814577 -0.6163042  -0.04034344 -0.74424475 -0.7347409
  0.10171859 -0.6876805  -0.62164503  0.08924331 -0.5729304   0.3387493
 -1.4518497   0.28678846  0.39242798 -1.0305147  -0.753588   -0.27847204
 -0.34183797  1.4084238  -0.3150415   0.1125985   0.42054418  0.5639161
 -0.53408843 -0.9291257  -1.016253    0.14503415 -1.4857696  -0.12229743
 -1.0122111   0.5377472   0.18848115 -0.326886   -0.278784    0.43069598
 -0.06420024 -0.00716564  0.40456668 -1.5050374 ]
[-0.05837056 -1.0588067  -0.46258277  0.14765649 -0.37391186 -0.2924586
 -0.42263624 -0.88967514 -0.61780375 -0.5199077   0.33096212  0.15828079
 -0.00269075 -0.15417057 -0.87032473 -0.48662683  0.16007215  0.74657464
 -0.5738872   0.18228114  0.1185702  -0.17488135 -0.5354966   0.13105851
  0.4867595  -1.0562769  -0.5467018  -0.2153042  -0.32005116 -0.83389616
  0.7839802   1.1335124   0.49427027  0.28687635  0.12341824  0.06748384
 -0.42840013  1.1619288   0.30002454  0.08067754]
[ 0.21038589 -1.4267073  -0.2190699   0.7206343  -0.63961935 -0.39164034
  1.2806758   0.43730706 -0.49182174 -1.0264326  -0.22870441  0.96603054
  0.29662785 -0.4718023  -0.36356336 -0.48965693  0.00259808 -0.10977701
  0.02106833  1.2907623  -0.26413053  0.07640585  0.3414361   0.8948525
 -0.57415676 -1.2469876  -0.10151292  0.2074046  -0.07811103 -0.6456027
  0.8923034   0.9809182   0.26823717 -0.5853439  -0.00944496  0.11837209
  0.2371416   0.39451736 -0.34702718  0.354583  ]
[-0.2683809  -0.05652309  0.35958076  0.3155832  -0.08756216 -0.78406906
  0.1417087   0.0566705  -0.24379139 -1.0914778   0.3346732   0.15166692
  0.495598   -0.46213818 -0.8336644  -0.3025324  -0.63354325  0.5640921
  0.1283576   0.4659025   0.13412635 -0.38065016 -0.2599133  -0.00517045
 -0.04364048 -0.33358452  0.5766343   0.12697567 -0.41551778 -0.6260957
  0.517598    0.31116575  0.21158384  0.46658567  0.30379933 -0.431524
 -0.3690213   0.22036785  0.0697989   0.07405613]
[-0.57594705  0.19099902  0.23404217 -0.33517     0.40720525  0.27539477
 -0.79028493 -0.5921749   1.3238994  -1.0234936  -0.10884292 -0.43437165
 -0.3461667   0.04647264 -1.0751446   0.63686675 -0.33651525  0.4591616
 -0.29048428  0.2435376   0.17971757 -0.3182272  -0.0614122  -1.3099711
 -0.44884494  0.3119566   0.9755489  -0.0243374   0.11830693  0.45958957
 -0.29745317  0.45681864 -0.44885355  0.3088973   0.4152654  -0.23299633
 -0.13739863  0.44277796 -0.2341022   0.44089493]
[ 0.6434441   0.25963956 -0.37854508 -0.1148176   0.20023243  0.33137658
  0.35297278  0.23159708 -0.5250532  -0.13129082 -0.7300249   0.40402627
 -0.09945442  0.08067487  0.25779825 -0.7254022   0.7641789   0.07917921
  0.29777473 -0.7270849  -0.12437032  1.3743755   0.5226553   0.6290394
  0.40899977  0.14792077  0.21827887 -0.92657954 -0.7331048  -0.41448885
  0.04917642 -0.07684449  1.1198657  -0.80035084 -0.44852284  0.58812463
  0.6073217   0.42958283  0.31074652  0.14313783]
layer 3 Activation
tanh
layer 4 Dense
40 20
[-0.26186243 -0.46490192 -0.37369606  0.3567286  -0.29466358  0.6362443
  0.10140472  0.706234    0.06405296 -0.3206217   0.00695082 -0.00626219
  0.22066727 -0.511492   -0.31972495  0.48072496 -0.49626848  0.3714505
 -0.45406806  0.13811202]
[-0.13621217  0.8814564   0.3697443  -0.7041268   0.5089384  -0.41355696
 -0.7148335   0.11398642 -0.38061208 -0.28370884 -0.8635727   0.4268579
 -0.4469102   0.2607502  -0.26621196  0.3867533   0.08968244 -0.68317163
 -0.24986376  0.39251027]
[ 0.25296688  0.24962409  0.23100002  0.06426016  0.18071179 -0.69869876
  0.5167626  -1.1960208  -0.25993228  0.54591453 -0.0590504  -0.24104805
 -0.00923188  0.3663007   0.41764176 -0.3027599   0.43899882 -0.05422129
  0.48869142  0.09247304]
[-0.15620936 -0.212713   -0.00202662  0.68550366 -0.29026362  0.60774297
  0.28907755 -0.12615076 -0.23783682  0.13465673 -0.0650385  -0.2529217
 -0.08709633  0.09924689  0.03754018 -0.01723414 -0.10237347 -0.12052547
  0.07223038  0.04555195]
[ 0.35702863  0.16119094  0.5353564   0.773478    0.184973    0.49941427
 -0.3363108   0.18141311 -0.13014607 -0.0355148  -0.10156314  0.05759968
 -0.51242906  0.23894058 -0.24974374  0.22358495 -0.52396655 -0.11139622
 -0.01239875 -0.14562817]
[-0.34146842 -0.33876327  0.38701344  0.04108855  0.05921143  0.6557152
 -0.26144478 -0.0164324   0.12930521 -0.50067186  0.14038365  0.27186742
 -0.7778154   0.6873266  -0.25832373  0.48382917 -0.32343066  0.2878159
 -0.12922575 -0.22858207]
[-0.25389692 -0.34132448 -0.67163    -0.21372294 -0.54802746  0.25860184
  0.2835078   0.10964927  0.14266768 -0.02386376  1.3269175  -0.21218169
 -0.40513155  0.1817333  -1.2867458  -0.28272098 -0.512544   -0.17760378
 -0.5641263  -0.22600669]
[-0.42015466 -0.34004605  0.02627176  0.45018503 -0.03982688  0.16808893
  0.34162515  0.1674896   0.40417925 -0.42663038  0.76620185  0.17861897
 -0.38873035  0.67570716 -0.49374342  0.27510267  0.1020438   0.46825787
 -0.33346465 -0.32620594]
[ 0.3936641   0.1611765   0.8542071  -0.4224936   0.27342814 -0.18736495
 -0.52512693  0.04392435  0.39519307 -0.35617232 -0.4100426   0.50741017
 -0.28649014  0.70634085  0.12043964 -0.28949538  0.02257391 -0.2102599
 -0.01484646  0.7671445 ]
[-0.21337955 -0.703403   -0.45484513 -0.7881847   0.3541497  -0.27987817
  0.00289605 -0.16722676  0.37857777 -0.0565689   1.1910203   0.26567078
 -0.10298088  0.9990503  -0.5557778   0.4447889  -0.3277714   0.7384826
 -0.18699855 -0.47843426]
[-0.36915392  0.5185986   0.446763   -0.07229292  0.19133157 -0.30383325
  0.14388545 -0.72420436 -0.75247425  0.08745395 -0.667165   -0.09009644
  0.37238652  0.68599546  1.0203921  -0.24099836  0.58061266  0.33137625
  0.61742955  0.03609906]
[-0.83952665 -0.46637318 -0.17790405  0.89828116  0.28671402  0.24633965
  1.0455899   0.6337967  -0.06667279 -0.07385402  0.52039415 -0.03971348
  0.08612926 -0.27850202 -0.27449396  0.64596003  0.13699007 -0.68222404
 -0.30999127  0.09760407]
[-0.12832661 -0.6511641   0.08964737  0.09123173 -0.7964911   0.4216338
  0.8597473  -0.39920095 -0.12572385  0.52624816  0.93340117 -0.23318693
 -0.30179933  0.79786503  0.13050917 -0.25272146  0.19866368  0.49131504
  0.02433223 -0.25929776]
[-0.42259634 -0.21056445 -0.4503837  -1.02033    -0.48095074 -0.46092522
 -0.2969512  -0.988323   -0.20486657 -0.06562115 -0.52111816 -0.11852565
  0.31495616  0.74161565  0.39282075 -0.21642794  0.7064428   0.64294726
 -0.2953114  -0.31115848]
[-0.22481337 -1.2175273  -0.8388244  -0.11474072 -0.73722374  0.8857664
 -0.50093013 -0.02721938  0.66950935 -0.44899672  0.7337327   0.15813127
 -0.49853238  0.95773953 -0.41763827 -0.23811053 -0.66252667  0.11324432
 -0.36262447 -0.6099387 ]
[ 0.92613953  0.66605586  1.5511887  -0.54364604  1.2782812  -0.8860974
 -0.20426005 -0.38003746 -0.3519073   0.35829544 -0.54387665  0.24172762
 -0.0112786   0.39561743 -0.22167234 -0.32315895 -0.2710771  -0.19408336
  0.7949189   1.3471743 ]
[-1.5601375   0.00868752 -0.8481116   0.09456255 -1.2925268   1.0516429
  0.5926605   0.31166118  0.13589229 -0.8405678   0.29531935 -0.273637
  0.10368495  0.51025087 -0.5856481   1.0983348   0.03409952  0.75704116
 -0.82544374 -1.7718943 ]
[-0.3030143   0.13054034  0.18626624  0.3147905   0.26237497  0.36953548
 -0.45256233  0.26869893 -0.41476932  0.1020618  -0.5981942  -0.0212142
  0.32210347 -0.25991154  0.307474    0.20032667 -0.07924849  0.18415163
 -0.04475997 -0.04652616]
[ 0.01050718 -0.33076286 -0.23103246  0.5581805  -0.20135842  0.14332825
 -0.5528194   0.34484893  0.50224346 -0.697428   -0.53369415  0.10049606
 -0.5076128   0.6865174  -0.5339267   0.02572684  0.11834481  0.12661086
  0.05538245 -0.30079374]
[-0.53425246 -0.48951983  0.04970493 -0.23247312  0.32077357 -0.9202398
  0.52929485 -0.3627825  -0.3393379   0.5553419   1.013428   -0.719304
  0.82729954 -0.49584466 -0.01236406  0.22681049  0.22277837 -0.37242422
 -0.5666576   0.26816657]
[ 0.2252533   0.05052632  0.41488525 -0.10044684  0.22737509 -0.28547126
 -0.27502012  0.46832842 -0.23926653  0.15365732 -0.18565336  0.3775104
 -0.15632905  1.1836447  -0.45744872  0.12688926 -0.1858536   0.06347484
 -0.19453903 -0.21746954]
[-0.84251374 -0.03450765 -0.7009796   0.37937114 -0.7403982   0.8590005
 -0.02682954  0.89773166  0.32323587 -0.49453133  0.6028072   0.01729871
 -0.5564585  -0.14354904 -0.6762681   0.79083645 -0.33523104  0.0640632
 -0.80022967 -0.51411384]
[ 0.37010282 -0.42672044 -0.13674799  0.33163372 -0.08306371  0.7377676
  0.04306167  1.3357605   0.68220586 -0.01397522  0.78839487 -0.10177742
 -0.4011385  -0.39824873 -0.31207728  0.14385448 -0.42551342 -0.19253805
 -0.47382846 -0.17874052]
[-0.34956878 -0.25182447 -0.7983514   0.4843015  -0.70669246  1.0713141
 -0.31492963  1.0183498   0.08231727 -0.3798278   0.17585734  0.14541554
 -0.6900323   0.26673642 -0.31561428  0.06331488 -0.15782493  0.05177372
 -0.23818709 -0.99048644]
[-0.727454   -0.08027951 -0.08300333 -0.12438978 -0.35003918  0.0374415
 -0.05129668  0.13980675 -0.4091492   0.07373977 -0.569676    0.39893633
 -0.079454   -0.13133739 -0.03161105 -0.10355802  0.13236657  0.15805478
  0.01913334 -0.33896863]
[ 0.25385737  0.62773895  0.60341924 -0.34224778  0.6560676  -0.5384274
 -0.498889   -0.09128524 -0.04483878  0.15790692 -0.26972425  0.8412131
 -0.17152266  1.0505106  -0.14285915 -0.2150079  -0.21846728 -0.27705812
  0.13823503 -0.19189955]
[-0.03999318  0.20873761  0.04013046 -0.03630921  0.11827153 -0.4839915
 -0.05131325 -0.01920815 -0.12903617  0.12455402 -0.21205035  0.50925386
 -0.0268608   0.771734   -0.13628313  0.20599172  0.51771784 -0.29713356
  0.13776931  0.08753851]
[ 0.80551356 -0.17332825 -0.00273938 -0.08525441  0.26081383 -0.36291552
 -0.07692765 -0.7254991  -0.38050926  0.91305447  0.05645246 -0.24774493
  0.290771   -0.12352006  1.4651078  -0.45391873 -0.1058114  -0.23119155
  0.40039626  0.70368934]
[ 0.14669733  0.20307042  0.6451438   0.4731894   0.28616208  0.06188557
 -0.31343707  0.3979969  -0.2800809   0.21485473 -0.50621754  0.15135452
  0.1552821  -0.75907654  1.1429131  -0.04461597  0.07280167  0.42096218
  0.35158974  0.16303684]
[ 0.33892715  0.01545023  0.5206454  -0.6742474   0.00546987 -0.23091924
 -0.44706953 -0.7156534  -0.54938275  0.4445428  -0.18206215 -0.34355593
  0.0184553   0.1656428   0.11680706 -0.2992731   0.03853709  0.0807714
  0.19965906 -0.35987076]
[-0.06668814  0.7926494   0.7317337   0.55418515  1.1895498   0.35090807
 -0.3522677   0.4471199  -0.13872224 -0.19040771 -0.72019386 -0.4372978
  0.3863219   0.01608652 -0.25888786  0.2775208   0.29197574 -0.5373331
  0.22552006  0.6210822 ]
[-0.31084913  0.526786    0.9698095   0.3611887   0.3412358   0.27985597
 -0.02669271  0.30216068 -0.02910286 -0.35905188  0.34376255 -0.67085344
  0.06918945 -0.8592237   0.52288765 -0.15487003 -0.14968619 -0.53964984
  0.01020442  0.74464506]
[-0.36196408 -0.64444804 -0.45329353 -0.1725797  -1.7027786   1.0866692
  0.46550968 -0.19405493  0.52656066  0.06024745  0.02692811  0.02306129
  0.55002004  0.31755656 -0.6361073   0.6370419  -0.14382654  0.83757305
 -0.30253023 -0.92265576]
[ 0.98141146  0.45683247  1.1215367   0.32019603  0.33805805 -0.4625172
 -0.03496417 -0.7526205  -0.29826793  0.06697204 -1.1726872   0.14008985
  0.61416566  0.01721351  0.2020359  -0.6159937   0.23986034  0.13323234
  0.6312856   0.61466473]
[ 0.44963917  0.24090749  0.03501112 -0.140099    0.36073178 -0.8975357
 -0.07123651 -0.25100523 -0.16581748  0.29474127  0.05777964 -0.3247022
 -0.2737908  -0.2965031   0.16485502 -0.05903791  0.19458008 -0.24985409
  0.01781367  0.05524211]
[-0.3974629  -0.1380152  -0.13913983 -0.17563857 -0.305402    0.58466214
 -0.23110129  0.8075555   0.28927177 -0.42899802  0.1425375   0.28424054
  0.10137995 -0.47277373 -0.3481461   0.06410678 -0.32565153  0.11347002
 -0.5422398  -0.06180312]
[-1.1001056e-01 -2.8875196e-01 -5.3238781e-04 -8.3935902e-02
 -5.9293848e-02  3.9718235e-01  2.5001901e-01  2.0569536e-01
  6.6773641e-01 -5.6597966e-01  7.9014622e-02  2.3373498e-02
 -2.2377770e-01  3.3270380e-01 -1.3655541e+00  5.3319484e-03
 -5.9857488e-01 -5.5058211e-02 -2.2636366e-01 -1.4022970e-02]
[-0.77076924  0.37161112  0.18609814  0.160951   -0.01579216  0.44094396
 -0.31622308  0.30898228  0.0706261  -0.43666193  0.05023213  0.00125973
  0.46649772 -0.45854855 -0.4510235   0.47765997  0.24596494 -0.0998575
 -0.4931572  -0.13520968]
[-4.1627669e-01 -7.2299561e-04  1.3486865e-01 -2.3097883e-01
 -8.1160478e-02  4.3525636e-01  1.7384511e-01 -4.7641391e-01
  3.9793456e-01 -3.8400826e-01 -1.5842113e-01  2.3639426e-02
  2.2380359e-02  5.0720990e-01 -7.7465016e-01 -1.6713695e-01
  3.4791708e-01 -3.0038916e-02  1.9641578e-01 -3.8972488e-01]
[-0.08571852  0.9053502   1.2881708   0.7058117   0.5509008   0.20356104
  0.22928394  0.17693879  0.61487615 -0.02062546 -0.38271034  0.47545037
 -0.4080078   0.26364505  0.05797055  0.06413085  0.21400073 -0.07787796
  0.45519215  0.8885356 ]
[-0.677728   -0.21911737 -0.51920146  0.27958643 -0.6442306   0.19268866
  0.03498908  0.8290254   0.06389259 -0.10604891  0.35438433  0.14249834
 -0.42804176 -0.30822736 -0.25532112  0.24081586 -0.04382382 -0.0915988
 -0.35249117 -0.4257109 ]
layer 5 Activation
tanh
layer 6 Dense
20 1
[0.1604809]
[0.15905578]
[0.35273397]
[0.10966881]
[0.10685927]
[0.02349264]
[-0.10487214]
[-0.00627343]
[0.0910655]
[-0.05210263]
[-0.1217301]
[0.04940756]
[-0.11738053]
[-0.0354104]
[-0.04603738]
[-0.06330188]
[-0.06426975]
[-0.1364725]
[0.00056243]
[0.23872958]
[0.8790201]
