layers 7
layer 0 Dense
20 20
[ -0.0024866325973939727 0.21568054939079156 -0.18827493738466658 -0.4716642554738699 0.2912409121272087 0.3473554513142243 0.18065716900056963 -0.3587566512709038 -0.05555967785922202 0.23782262050173564 0.03317753673516317 -0.06451741313636626 0.12253175448056454 0.7175423573560513 0.7983227985795023 0.5937381212037498 0.12790687601807432 0.2618103030890668 0.2573840193841975 0.01571312120822749 ]
[ 0.16110434822090647 0.10703690571781678 0.06594446190455679 -0.2650708563037797 0.32597455231099204 0.14810355908298645 -0.3185924613372391 -0.36357056643803765 0.14720498671373367 0.2795563877822932 0.33588394076726125 -0.13573175164738535 0.08727164802669621 -0.09834593460810076 0.1134136115230537 -0.2992544000589102 0.19411411108558382 0.025068827751170805 0.06456832944505558 0.1257275815137097 ]
[ 0.09487408196597323 -0.18995019931502122 0.2207532258519032 -0.17298402202017732 0.3062879745107671 -0.09658134243897477 -0.34439956313703707 0.2993332895125115 0.38629123765463647 0.29357856405848715 -0.09417800096037506 -0.23648652190134423 -0.10495089761841957 -0.29226613948420666 -0.3681633745675376 -0.07334185885727941 -0.29379824806623267 0.3065232992738491 -0.21600789730855013 -0.358568383748343 ]
[ -0.28161810092760337 -0.007332482412421496 -0.3911966628681938 -0.646736973664578 0.5737303792869086 0.27180129137143766 0.2468656324415451 0.30044454220141603 0.3402127190768729 0.04566937500784515 -0.6236014475011906 -0.17012131614570944 -0.22157026855034073 0.9157233924770245 -0.017066470898857152 -0.16505703404125538 -0.29853500404719696 -0.3673485845463602 0.12424095467426066 0.5412659398908575 ]
[ -0.08699980144092817 0.057761039843940896 0.050560348689957194 -0.3282875242206724 0.7968239250274538 -0.5391222906282598 -0.4269533558047567 -0.5319914780909695 -0.24727808351580668 0.24938542456514912 0.11892775334243966 -0.40845617824883196 -0.3881074757981587 -0.012279836578496446 -0.21797375903675414 -0.04033293035372954 1.3649696010716776 1.2233071804614053 0.39057050804276555 0.7404672045057754 ]
[ -0.13293595049127982 0.03859096709348559 -0.15642929888044904 -0.2785054584984741 0.017373930628403162 -0.17018618112824083 0.2125602339222132 0.07942025207939216 -0.2185839075157105 -0.3680373715983567 -0.14467883118027716 0.038634458915237556 -0.18890245047921053 -0.31238982095255946 -0.17345683495969366 -0.29197807744476273 0.3672506827953264 0.19625648034369914 0.19797359945739038 -0.13540184829085725 ]
[ -0.20702004534813864 0.3775504152346031 0.12020961591975941 0.30032173168932813 -0.3100778997249277 -0.06490916452776908 0.31791355091802787 -0.03506318277665877 0.09513157474239647 -0.3210147982621151 0.13492520863727014 0.378317150244138 -0.26233340124505816 -0.12863265248935302 -0.23739813825915593 -0.30929042959864733 0.2859374681920924 0.38097147663568426 -0.38328564551082556 -0.32694585126418957 ]
[ -0.35657310179026025 -0.40150643788832674 -0.16674245331640933 0.5806304964529084 -0.3032878031524913 -0.5030847571930568 0.5630114386308428 0.21338610094243687 0.372100069049013 -0.380070649964984 0.5933226300675961 -0.40068203035871236 0.1953087314759122 -0.7174661488618921 0.25196366529163905 0.21677764896252283 -0.5417406428786912 -0.1496150265955604 0.3335497266473992 -0.6347986145503564 ]
[ 0.4716584758331364 0.5719527522075589 0.3049175641049898 0.0862083614978179 0.8212699379005691 1.0814853267512807 -0.26515205888595417 -0.7379965200770552 -0.7287988979232648 0.8065607367302963 -0.4078213039238845 0.3596169108610951 0.3616746543014894 0.4868160874873143 0.5222142755494152 -0.7207884506878893 0.48047502394188674 1.0369148211735733 0.9135720866648243 -0.19638147095146372 ]
[ 0.22554434999636475 0.115651293176102 0.9539559963394202 -0.198315934122517 0.1356896179062612 -0.26144710710990937 -0.08483789904756321 -0.803035157819271 0.4700581706591218 0.2946603070048267 0.25506746693593674 -0.1638975794818363 0.9818988815511082 0.015819388725952743 0.7756200058502143 0.005485271577677418 -0.2949186559230278 0.5034311989959585 -0.3070022700200715 0.136377426343174 ]
[ -0.4924442497848862 -0.3152969704076582 0.48628941584390295 -0.04649682327699057 -0.41711667938416064 0.052795696643832726 -0.43818912062031745 -0.5257469189416765 0.2784105716055393 -0.5618085660046156 0.275197131431768 0.5978969055372785 0.28113635614494664 -0.1719697461058414 -0.44942180537982346 -0.07404545268883636 0.4007959984062935 0.39145760102532884 -0.3940929716522029 0.801728779822248 ]
[ 1.2407304259512144 -0.6227690764458951 0.7722610604840721 0.9111938748344731 -0.2579530510095791 2.8427033055061206 1.5304937974639905 -0.09250475974283537 -0.3344277458250949 -0.5290632433007645 -1.019028634881184 -1.224350529693081 -1.842875089060123 -0.2562621863554524 1.4955374785718927 -1.3421591479698196 0.4004531563909134 1.3724798992170175 0.07612425687937556 0.5605767502248702 ]
[ -0.36093253226049643 0.3981120855570732 -0.3011480259478391 0.2018537900281806 0.1305204227857916 -0.3294046637703687 0.3271880286369571 -0.5764063621971242 -0.4061298037893819 0.8001124773762106 0.5964745441892417 -0.015537473100438274 -0.037241179937443754 -0.594491767275494 0.18927662800166103 0.5169989027818603 0.9334219472809675 -0.21422292342182817 1.0565515830472492 -0.4391768357771868 ]
[ -0.21263631820443102 -0.8531289279598372 0.16179048082840633 0.05263388664419709 0.5886338491665914 0.2695733616178248 -0.39011735859984087 0.03971009234001287 0.08944675005226548 -0.03638561649053886 0.5302255654129975 -0.41217985089928155 0.13509439784972224 -0.03901470988866115 -0.05095343919511745 0.06181991040228108 0.9461858121054484 -0.5011244213043585 -0.5750818591088892 -0.9785509938646474 ]
[ 0.21536673858717176 -0.04817296539835403 -0.1570114125795583 -0.10904577626590262 0.46120032279867945 0.22722409193628376 0.8767231796214142 0.09661195289750206 -0.6817528736963832 -0.06819658149314999 0.09768700277002686 -0.2973253681623504 0.1585703724230651 0.12331709646371705 -0.6485329515344764 0.32991708483109805 -0.5109714239201534 0.550184287284595 -0.5540983527010165 -0.1539922670389704 ]
[ -0.6787971202071671 -1.171713160704185 0.5673603982203697 0.8028189338255602 -0.2854421256207799 0.0024137536292673737 1.5866046929963844 -0.4516976506545782 0.870256550714392 -0.2151988563958495 0.07241392972744515 -1.3595106049090773 -0.7420713681157555 -0.7402203729134382 1.068708243319396 1.1176062668457964 -0.2919791551573529 0.06674659799022165 -0.17160922280834592 0.6740333306950419 ]
[ -0.49218142118178565 0.24608728484146283 -0.0910534490972273 -0.12461316161136816 0.5474539178321427 -0.21173926827777456 0.06808846752734353 -0.05464941790530045 0.6570127614935944 -0.5438571517025345 0.15126380004748902 -1.2115244778343817 -1.023459956386189 0.10759230878447185 -0.9917075161896871 1.104112444939152 0.09160379650630392 0.7089396414810398 0.5357905320946913 0.22747240259052498 ]
[ -0.49456834701429553 1.437717927385054 -1.4402372959744574 -0.0168342438689398 -0.7355773313311454 0.23540817129599523 0.19555355862792545 0.37752284801905267 -0.7308113943115003 0.10948904783302219 -0.07251958674580258 0.54647802776137 -1.2776161526067304 -0.04978292460380965 -0.64073985827149 0.30427100110423116 -1.2258232972752723 0.009607872474417353 0.7642181337772335 1.3081702783205185 ]
[ 0.8390867386998552 1.2270234960497086 -0.20226753152843363 0.013046855565942843 -0.3315018646144162 -0.3361827479621007 -1.084925106467291 0.2525824310048057 1.13427248885529 1.0603838823663119 0.4607468195194168 -0.5034342496357164 -0.325126113356902 0.058023264629621554 0.46111970680379893 -0.36008729433847386 0.5211630419614751 -0.23232294222219013 1.436005372707497 -0.7448829184605972 ]
[ -0.22576415054500865 0.52558558250431 -0.4407902719288298 -0.4789968018079818 0.7315646477899858 -0.5415628197221393 -0.7778236605364753 -0.37785503507279106 -0.3376375413652145 0.030569861126376437 -0.04625006067149762 1.2380394685432174 1.081116687534474 0.690855913408899 -0.3935679556905684 -0.419284074541472 0.28594133017285367 -0.4720580341889795 0.13005995693110717 -0.18382988663512248 ]
[ 0.13146546796996214 0.03130924506973253 -0.10996625286266647 -0.4165938873783414 -0.029959205763863083 0.24887584952528186 -0.05704609717282881 0.1809959946910265 -0.05594646729752622 -0.00910998291081585 -0.2787690381473228 0.10105642317784047 0.23950568344949877 0.3098162287746263 0.16829091253382067 -0.04526786962210562 -0.14889227215676926 -0.1119908999964379 -0.24255081786400443 0.16713678468105478 ]
layer 1 Activation
tanh
layer 2 Dense
20 40
[ -0.24272208330819395 0.21025457004957418 0.0664474204085985 -0.142010159294743 -0.04350676744693685 0.05516939323834233 0.8724461052181052 0.11679056863065489 -0.11896198350785951 -0.6002620675762008 -0.3648439528053216 -0.28568339394556524 0.4163310560742865 -0.4638622982654318 0.027022738347985784 -0.04699480924222198 -0.24482963629602753 0.11610363783847427 0.4986755798905446 -0.8140683196588241 -0.10954387819130568 -0.03806824500094642 -0.1629074869973059 0.35428001525880337 0.055903252180524526 0.13934633087558834 0.13287554311877964 0.2734897950508564 -0.32199840789016515 -0.26300872726077 -0.4928204755101759 -0.6208110647094474 0.02324382360513842 -0.9157266390203816 -0.34919387709996846 0.1365065059711725 -0.363328253055964 0.5810896043555355 -0.44628695854398004 0.24190216413450008 ]
[ -0.06119838467503048 -0.8584045586485767 0.18226973018299994 0.13223079535267263 0.4229447116059341 0.1638829092643558 -0.508174820489853 -1.0854974237209074 -0.12245325194976667 -0.45749885908736393 0.08117324908729924 0.31959842626016216 -0.036393300463807295 0.14710049640040626 0.20994923578088537 0.08765162293676426 0.7462966058800172 -0.02069731499365267 0.11166388595472972 0.6062038340652869 0.9874275929810024 0.1569796705229463 0.5154981158533691 -0.2625446086148068 -0.31930858170381365 -0.004332355852934311 0.014221326719622406 -0.9202283045144056 -0.45039145623911814 0.22715964992241663 0.17161364484354774 0.21602914403831802 -0.3075437368622576 0.8284170071457619 0.3677642359804456 -0.13874398409690658 0.30884719024794177 0.4468148408795499 0.5412295832432085 0.29394101554166435 ]
[ 0.12363794772594217 0.2554612017725348 0.23784034986241268 -0.2596270544179421 -0.26770050738030526 -0.02249751028368588 -0.03791197635158431 0.5938321370795834 -0.026329830565137793 0.46482158567792053 -0.47437506497531706 -0.49640463225565035 0.22709544938861034 0.0994223739465633 -0.12269167204135151 -0.04487585785798252 -0.346661240854846 0.11001304782800381 0.35398191449897815 -0.16058220325846193 -0.4856847195923751 -0.4401050171699485 -0.007822941823597995 0.5533968250806948 0.2875560462510914 0.018073539440881102 0.331893787818676 0.6508449973801089 0.447455743557927 -0.17599551806841715 -0.18700717446959855 -0.314480378217364 0.36227068728202666 -0.5313744036838991 -0.223140512241285 0.12979689559016735 -0.023267138764062775 -0.2076343843095701 -0.4512346865724335 0.09074949756239407 ]
[ -0.5192722768734602 0.14582421842889387 0.7947841207862338 0.1905485474737041 -0.7536561437591739 -0.3828089286402184 0.11106344336774605 -0.13291304109659105 -0.2060557345408916 0.0450580069870688 -0.40811091938252625 -0.08716480124721902 0.08611901191662336 0.036887682939961225 -0.36711166228880565 -0.89834281322353 -0.24716964943194003 -0.3994178962036085 -0.372314652259957 -0.02000027919398315 0.3600029442487549 -0.4000317405890414 -0.02223068078237265 -0.3975164200838993 -0.33523800111823915 0.09697584336601528 0.21141048018255892 0.7142070659372831 -0.6313462832193902 -0.2244354409309452 0.2855298621427617 0.2412613038709931 -0.062361214484177564 0.36032676404812636 -0.37623663471991886 0.23581164193776571 -0.5666681071796388 0.06344954542466962 -0.5807550811675379 -0.5037983471059607 ]
[ 0.02475377777949597 -0.19579271805144668 0.12259790557156901 0.1457240374407311 0.4588373305367368 0.17123787619867248 -0.07845862825836054 -0.17973760227066912 0.3773782802572896 -0.2926694699261184 0.6011848410055288 0.10664113549685006 -0.36542186842017305 -0.037677001874232494 -0.20972649682419747 -0.06948092845995008 -0.7360311395276 0.20364671700612907 -0.03169967447838146 0.4767486600646548 0.3121608192421341 0.7610740758252706 -0.026742589124392736 0.3416229458929664 -0.20770280570254301 -0.09788248677813728 0.4427575303820156 -0.40212992357626676 -0.15891838436172848 0.008803368089382565 0.09124447046325183 -0.7317584395198109 0.419555048457801 0.30918104796252 0.34980242702374226 0.3194809666163353 0.31450273268696577 -0.27870164649689355 0.42418149925620247 -0.11484228594764144 ]
[ 0.501320056334085 -0.15595695909281648 -0.27539722647450515 -0.5801791790093276 0.10232997229533156 -0.19435986653856366 -0.10922345393989286 0.3643482823686478 -0.10363443262073514 -0.9123296382340671 -0.07134808064694267 -0.22330684169275153 0.24247601285308198 -0.9229781742791309 0.4512644179126106 -0.052674568030387364 -0.686437080168909 0.4213799989972184 0.47561791653313557 -0.38528135195005997 -0.806855152351969 -0.2661974096581436 -0.007932739235307231 0.22038321965329233 1.0973487994998887 0.05725492631844122 -0.028290062040497246 -0.005085222300727577 -0.159263404287171 0.19695314338451872 0.08276088817322573 -0.3979911649832429 -0.09886121809690933 -1.123839941428171 0.06531662796770529 -0.16080585054619617 -0.05121016026785417 -0.7235396784513579 0.168407997451949 0.5294909549125584 ]
[ 0.7713190544981554 0.5326846877364432 -0.005671842716162187 -0.2669168291641026 -0.2995524871445032 0.10597229951520619 -0.2558155090816228 0.0149592234594345 0.08711682653913541 -0.3359760218471476 -0.4216270416699991 -0.08271428983200842 0.5203764869887719 -0.059754734866745034 -0.14862952416393696 -0.04352531310929187 -0.043540558941682045 0.12304736410006296 0.20457029524425405 0.23950021881763794 -0.38569882184295107 -0.05111242063626294 0.09649425850613708 -0.5950729959898853 0.6778471586833678 0.0016279787410747343 0.11726030764614327 0.9048734178230821 -0.013545316640480122 0.24957997336514523 -0.0035898145589035877 0.5533518112969037 0.031221977538206453 -1.0036753373404408 -0.38292210442025865 -0.04732342875792185 -0.35828674781569136 -0.5344950841503964 -0.30623617747146287 0.25203044906714966 ]
[ 0.048602385837218175 0.32508582250897194 -0.33949534280837956 0.21807973961704727 0.14860692689468494 -0.10585736682688748 0.3460119711599397 -0.1513171815365042 -0.619339910458812 -0.1394170360292874 -0.004184018993653541 0.6081219844496637 0.22266163943258754 -0.42977059982063104 0.4714623301865239 0.26878236992983945 -0.1467697657801289 -0.30635701699505036 0.16935017912779687 -0.13733159636318595 0.18470461651020398 -0.8248970942290021 -0.42101830100421883 0.2505363080972478 0.0673589574049552 -0.25506277731548893 -0.06913849700005058 -0.2577178442784244 0.3266321441761937 0.19489182411679876 0.24786429298691434 -0.24107432132597348 -0.44226640889200736 0.037694200586510886 -0.32299631715097893 -0.09782120272418769 0.37972635099935476 0.12076839247789968 0.21494099446935166 -0.5676077901609239 ]
[ -0.08226537192418919 -0.10984366064099685 -0.618744087163682 0.31487742907399624 0.31708442780060614 -0.04428340288502182 0.437737658387095 0.40565859120023573 -0.12841858137226697 0.7729128158264554 -0.1542128100786479 -0.6179447014765791 0.4935858022172692 0.6347650378272012 -0.07771869683453297 0.3654613444940444 1.1487678319626076 -0.048948525693194675 0.2847710817944754 0.14816960294829834 -0.013829137454651013 0.9507168002659919 -0.33083630104522255 -0.2596910087608129 -0.15633082414336635 -0.07698532044845056 -0.1642212706604083 0.24879720312580572 0.5242844344382159 -0.14973734690530804 0.13412354363975465 0.5642331646446282 -0.19736816914833635 0.09874870885043648 -0.09909582606306595 0.3555687593215705 -0.19221339740645532 0.09032288987746268 -0.060529298487823784 -0.7043681245646565 ]
[ -1.0313218231838697 0.3040506941764712 -0.20725053719225442 0.09302454141699174 0.06812579005390676 -0.0026391495338445098 0.22739691288364697 0.15680183862964425 0.023409456109322147 -0.5118222063606168 -0.0564158013098245 0.1614496791655877 -0.25844120144489147 -0.010290995250899458 -0.5171169905923669 0.38083749998509026 0.3683834353519357 -0.660867092602503 0.3661744260834809 0.08027826406036512 -0.12880853646024737 0.46196743116396 -0.11746887201617917 0.08833716528685727 -0.168304238888833 0.2312209097204954 0.0696150406813752 0.06500182066374234 0.7132286473357199 0.8096519634952482 -0.2785379784121205 0.041508879067241114 0.4112065996654102 0.08165273640456445 -0.3153806026780318 -0.10822799236072839 0.44564048440862475 0.5350646429437045 0.22479214473092216 0.6004875279092424 ]
[ -0.390416742170835 0.4530761575123699 0.4652172852863073 0.18514656561895382 -0.11353130689839619 -0.08714338170886625 0.21478947483235947 -0.5437339267161532 0.17602053794052636 0.4781718989527492 -0.125197546803497 0.47497799984201844 -0.4264719294005128 -0.2443831160381047 0.04902167846071952 -0.5777694706980434 -0.3376107756274929 -0.347805831123706 -0.3527388521925623 0.11995522298511492 0.49661371055330117 -0.3012408425341475 0.0008557353600991081 -0.10070722687257204 -0.3845839442469361 -0.036599220119785246 0.04626006383729103 0.21616596593486503 -0.28613420214823665 0.07139667413312982 -0.0003055152320031736 0.23594513802872563 0.1945562746473293 0.5668855491071793 0.1353282947666718 0.2084072175066423 -0.4692005300651125 -0.1424988096304562 -0.1429463188557247 -0.014779794022633656 ]
[ -0.9212714963014104 -0.505366560844739 0.03738079785586312 -0.034284123738292364 0.19568780321404142 -0.3434871768634736 -0.25909607291420744 -1.0236945498748193 0.08850715741377006 -0.20450175910268614 0.05021162684143864 0.31651532943459193 -0.6318705062390537 0.34524597668662665 -0.2397040719796764 -0.33470070189476636 -0.5785647444347183 0.2963333019320124 -0.15167265295506668 -0.2578465290700037 0.7224996469440434 -0.378183627889683 0.0010583021800939195 0.435671676360386 -0.08931711482515274 0.05501797928018381 0.14831367184926267 -1.3265490194786136 -0.35365020678271275 -0.25518371707357396 0.14788063953375238 -0.18206555832763835 0.3961998227924041 0.09381385877157544 0.08730951318650922 0.18293317697117614 0.3259742778148837 0.10208987556947467 0.5386683297266792 0.5524611602564242 ]
[ -0.15518824562398245 -0.6423622944633245 0.5697935769180277 -0.10958119447969254 0.4446791358257938 0.24345647910581322 -0.10253769714588051 -0.8552439546871671 0.5736388380206047 0.328335619477394 0.2648544329850698 -0.14562525618939626 -0.8294055072231374 -0.425452031973715 -0.32926190398455 -0.359751993550674 -0.3833999459608914 0.05360654780505138 -0.12237261498351257 0.5675663560965488 0.5328471472801175 -0.023474016568382654 -0.39738196185944435 -0.08416433157921534 0.08453576397549495 -0.3631404044453618 -0.3070409848602414 -0.9122437377998531 -0.6354392853237778 -0.9714354175669117 -0.24233776294065687 0.2693184188334719 0.101804089766212 0.741845623065034 0.2312087095081848 0.091442760039868 0.2925301248339532 0.7904619320969087 0.5917243619531232 -0.00646578315009998 ]
[ -0.22543281131784637 -1.024118993275049 -0.5795751030072067 -0.43976645773321354 0.9169580754677612 0.27468969326448045 -0.24839913077450618 0.6294640810230944 0.4984640251814541 -0.897773853632844 0.7111910105060731 0.5986051185119106 -0.4364225157481177 -0.497852287845192 -0.41732680370398906 0.6088285617386261 -0.5854819004155143 0.6388832740334757 0.0799080063613113 0.18594591652844913 -0.5044410798848967 0.3159028984776434 0.11966402388830792 -0.05759540751037242 0.227237501742146 0.09586736043277438 0.3502411244760644 -1.276956847553997 0.11923281285633734 -0.022335952222876973 0.025358913452522995 -0.10129423417227101 0.013783923182285255 -0.3977091833850594 0.7705598689115237 0.04440163108059036 0.8908596363448575 -0.11010288911081677 1.1961812758022659 0.744363237150018 ]
[ -0.973612440491573 -0.31491719085034225 -0.3508918440481203 -0.18042594938241077 0.07278638722142432 -0.28780438668186753 -0.039900340203363936 1.0537483050025829 0.3693495354439102 -0.07464949351631331 -0.36596228516821633 0.03896894845007924 -0.8735817253581587 0.03780903749174307 -1.2113491021091074 -0.07389982198874936 -0.09730884937776058 0.25476709672405595 0.8777106814795863 0.1547631849209378 -0.791345375016841 0.3202068806712719 0.30791127191730017 0.4797181465114582 0.3129632883497328 -0.18156566891720374 0.09387262038844908 0.2464448147922243 0.28488299549281926 0.6075692211692926 -0.2175719533709102 -0.08908249209880124 1.1417867148521275 -0.13905443609086485 0.16563478401071893 -0.004597614924971841 -0.013893566240413506 -0.4392933446105498 -0.2722345845588426 -0.24644590912843442 ]
[ 0.7293547917028954 -0.08433569723165711 0.05644074636340414 0.5237431935125552 0.3606293413487406 0.2958526882055359 -0.014715763350023382 -0.4530497773802272 0.14320545263774684 0.4720423671902475 0.09555753402781385 0.4607640541911244 0.4110712732873735 0.4050647370555744 0.15273540309630557 0.013948030652647056 0.5141796410386628 -0.290037167990701 -0.25796907880472636 0.75554052245432 0.3971367266373337 0.4267900932531039 0.02126264334878257 -0.3473139877299193 -0.8317005686599346 0.08098754146320551 0.18294980676387512 0.03379785570200428 0.3374169756757125 0.23333249681514437 0.35470300249870834 1.0116549235120877 0.13240773960099736 0.6671171497313344 -0.2692731512386041 0.1791112052356498 0.276800219784204 -0.04605865643565948 0.09531720578102076 -0.6301302955995309 ]
[ -0.41769971745564594 -0.24104825778744457 0.09956162696007433 -0.8684119968016344 0.515704658045014 0.7200691217856213 -0.31221080841037047 0.044599263390434365 -0.10182843216309487 -0.4866836657636849 0.6011978706310653 0.6189581474296293 -0.7190577036056056 -0.38027087080491695 -0.8631962733042391 -0.1747068997045599 -0.4749226514266139 -0.04048375953835027 0.14210320922441294 0.6426139629749955 -0.1350020428151807 -0.597946609956611 0.2172135871907281 0.38190745315138847 0.018729121332297604 0.06418373378055059 0.3428301004941534 -0.058465405963993466 0.2542417220886805 0.634724542991138 -0.025478340275185658 -0.4774359062561819 0.6300870648437664 0.23779251311227337 0.1447705427851404 0.27458701831094845 0.3345168272452704 -0.5390348888865981 0.3265891720532962 -0.020943681253869095 ]
[ 0.37697937454131064 -0.5516347662291644 0.1542793152475762 -0.9054132919966641 -0.15168209537302707 0.1750896959927118 -0.5913603341624843 -0.508788980012376 0.6166550560342835 -0.2720658514949836 -0.4084059175430127 -0.8497778402465023 0.9404459200191018 -0.6011666918722879 -0.018990481492433584 -0.2599996452111056 -0.6455296371141874 -0.5230836332551115 -0.370144514158002 0.6163400032306059 0.11069561284499974 0.13680710292311488 0.6817177376202473 0.01999881312549751 -0.8006362208464163 -0.28933376899895386 -0.22974290311807205 0.16178106991933844 -0.1047779049020457 -0.8856298087800332 -0.42926282758115225 -0.23577904094818622 -0.003216714606659298 0.19115614844906573 0.057908641951196965 -0.17105908336688058 0.2592961732862282 0.12059009674590714 0.1949389694253572 0.6701262719331907 ]
[ -0.9547545903183221 -0.30016635203097497 0.5471186910454005 0.3881955485306928 -0.4400823794736492 0.1958822199230994 -0.37284722087939143 -0.1554025431099313 -0.0347920755239623 -1.0076653614668236 0.08773536435993216 0.011801670863775897 0.37270753704882476 0.22133208825277662 -0.8023276290056085 -0.2029483086207901 0.410083901734788 -1.0271667035581704 0.871610701080002 0.43045850936695584 0.3953187017614701 0.2573921538471983 0.35861046315471107 0.3437467239948944 0.24246048428719114 0.26604200883122325 0.3238123447111838 0.158687999162956 0.3827168960209292 0.36281681548831096 0.18890548817286087 -0.08878347560107358 0.4315150686391947 -0.019115729815206137 -0.4997918077792174 -0.12356373755424883 -0.10408974952303297 -0.46701189749855365 -0.12220235319627876 0.4498662391617727 ]
[ 0.14872500980196784 -0.37503488686897984 -0.16571632411855475 -0.12419956857780218 0.4045650135093558 0.3866726497544361 -0.18583305060370495 0.07916370720545589 0.11773768740868056 -0.5009571492549503 0.021741905072153712 -0.3397596322771059 0.6430370286128552 -0.019967417029275413 0.5220656704210472 0.3119820786329488 0.5199804359252984 0.3242563069846571 0.27157400178700436 -0.03322472093820401 -0.39972472313171264 -0.5538133845402455 0.06907392255271946 0.24537192118033188 0.7780068860234128 0.12573469632295917 0.12515062520712736 0.5227194604851905 -0.24962346128071353 0.3515528209042758 -0.478893338089085 -0.5434472191987517 -0.3826698744776678 -0.6454033263214628 0.3517344857247802 0.027425323896518715 0.17888802997306189 -0.6609348176978008 0.05258683059983656 -0.1552222579290552 ]
[ -0.1291895381399897 -0.3943261949716914 -0.5423449374218778 -0.33824588471043665 0.5255781686906948 0.38850500060239257 0.012464112283279085 0.7516390333773343 0.1986032746917192 -0.19736089451044497 0.3617969944195046 0.2029797378692536 -0.060242920543142495 -0.12688162557255608 -0.031400397309028785 0.5015032396946335 -0.09522371175548017 0.6326409118533007 0.11796103760726662 -0.040111302329623434 -0.7446516416295389 -0.09727150155647135 -0.19655171639748012 0.14721175329892408 0.5703749091490647 0.04794412703018592 0.26452528746014603 -0.42930227042955327 0.27634334495122576 0.4086948254114828 -0.004922506912995476 -0.3716088663969476 0.037436420301667085 -0.615187408622111 0.506468244904023 0.13268380995789691 0.5420618009716707 -0.21921807849292685 0.7071427592028293 0.24985417172898974 ]
layer 3 Activation
tanh
layer 4 Dense
40 20
[ 0.29140110872915376 -0.30467186319769224 0.024863141488074857 0.008501467767957821 0.4017877308219398 -0.06252296478808307 -0.3961393285064587 0.305811170092759 0.31740085889929476 -0.08943165868638726 -0.3668082005942215 0.4913520141886058 -0.272163437909505 0.4815571026463664 0.15025730807717072 -0.3852282624083575 -0.11374051474486098 -0.6568497009012446 -0.07166506391159733 -0.6087776841350769 ]
[ 0.2010044295774451 -0.43190256652999987 -0.21737336094339277 -0.404866072187278 0.5358721242677851 -0.03565197156861643 0.20897532709508235 0.18726981297654008 -0.19904103430149542 0.45780215292106013 -0.19695704719529267 0.09152818389509297 0.2736000968092888 0.4509274698892883 0.3366942704276724 -0.4110043257952272 -0.06544098007781225 -0.34360443114691414 -0.02765056921783051 0.06542737903992737 ]
[ 0.2597798662767756 0.023295112334491584 -0.482200446607132 0.36170163475392364 -0.27802102779359994 -0.4130247431965078 0.4251713130274093 0.2415267870869068 -0.4183236092841695 0.20623586232346006 -0.025459471643580863 -0.3412436092703369 0.510012930869074 0.08047629407017498 -0.1571756927934012 -0.33533963859912297 0.24254609512867872 -0.4550217554604 -0.41853862340967757 -0.41466706955443927 ]
[ 0.04630806446719235 -0.26007097290224807 -0.34622360398744784 -0.23677505235133078 0.14992617621168372 -0.31710870830798177 -0.18888678714033746 0.5218037300686705 -0.24077209532310243 -0.008434951527685185 -0.20202502458504126 -0.321163160666809 0.42651163892595495 0.49328356570023096 0.33353655876088556 -0.173258838779813 -0.3079519359470224 0.08734230449847563 0.08045669478643538 0.4002858453613568 ]
[ 0.10226891281495787 -0.20926733068282205 0.6966950173497174 -0.4729501298385019 0.0753187977524264 0.46141148957051964 -0.15010674712253683 -0.5919666900726204 0.253624345011164 -0.4685794856044445 -0.0506012441126704 -0.07161528020533915 -0.3584577028470778 -0.34986589507383226 -0.6637095678916596 0.052578419879010865 -0.23671470714986972 0.22796218974152357 0.2656523722753508 0.06966042303454724 ]
[ -0.5472740382571634 -0.0052080357797031915 0.20548706140107942 0.28298228971150063 0.27207211333417985 -0.14259539079364353 -0.24169065949804508 -0.27827665820926545 0.1411052832029481 -0.28892326831997955 0.0804061418690741 -0.02359162300372319 -0.15380558620081436 -0.576964314155555 0.0301985197916007 0.0034594092310564865 0.26333780064594625 0.2680153149283159 0.3428382949829843 -0.2588747538616828 ]
[ 0.3263344476732972 0.09917842182700791 0.209252821905851 -0.5254062484577892 0.16527376330258992 0.3450512619039588 0.3688803498513193 -0.13025832106221402 0.07836157172512018 0.24474754279181274 -0.34291394345908127 0.2840943413903051 0.37726938930492476 0.11398371148010371 -0.22404593703927753 -0.16734391944937477 -0.07820154322666298 -0.24753319640451377 0.45013389457242337 0.6653487814881471 ]
[ 0.31213770460849277 0.4479675184133325 0.3934479916211661 0.18592112323030713 -0.6500795947580509 0.43578105396611033 -0.05424908888596253 -0.7587445652617714 -0.4525200624859193 0.020672925655663872 0.09641814917524734 0.5126016041005198 -0.6401004589621079 -0.32422198533784263 -0.7590987213005009 -0.13845331875793995 0.10771766821081738 -0.09557888720937771 0.21733263206483217 -0.06766086636504111 ]
[ -0.20113209624834064 0.31396740884143154 0.03518012560644759 0.3776929057081115 -0.2691547770105102 0.649482677532749 -0.4350096433027604 0.02878969209060237 0.16264122786844123 -0.2955422406470208 -0.21414307869421198 0.005843520723828022 0.026362780503171805 0.06537984534416973 -0.1256910500499303 0.0952053127169254 -0.5390684690903009 0.29789692090177616 0.03774164816830921 -0.3597575531086906 ]
[ -0.026741207893339034 -0.3410077311012224 -0.30240984332813703 0.20642406804821367 0.26679008423210626 0.5131698321278734 -0.4584967914672004 0.6324955884585771 -0.08601146553241613 -0.06555235217198409 -0.09758277035445483 -0.38679276026842035 0.0783550394923296 0.35297995703595414 0.31669133598147386 -0.8631905989252141 -0.8161569444403753 0.1713248193676709 0.2589987784645242 -0.14999224433805913 ]
[ -0.0141903623293967 -0.30793019834208923 0.6370096775019294 -0.1544945990040447 0.08587302573933372 0.10377249384933991 0.25420454499708617 -0.5012904889647998 0.07924911608534276 -0.3787888701679108 0.1926606231473288 -0.18021848610310773 -0.6000582207599792 -0.15164707840931546 -0.3629923500659331 0.23635939359024102 0.44842947660109184 0.7016999682913155 0.4145919756505576 0.2821185353246274 ]
[ -0.40351490053407507 -0.1395225615328318 0.4240140036197597 -0.72744277784453 0.09083349236961903 0.22467992196746028 0.19310745753288724 -0.2709560548218376 -0.14613766035991263 -0.1041585880085402 0.23790119211894686 -0.3019393306684284 -0.4382119096811125 0.18284440066102442 -0.06976270648499829 -0.17017900196814245 0.5337036933582859 0.597451646904489 0.4699300425800857 -0.07368042850473783 ]
[ -0.2703987479075243 0.2811396608438718 0.11008168312549362 0.09315057935036793 0.5372034632982275 -0.5960242332348963 -0.0575125377946664 0.009960651537428339 0.056613369424402704 0.39094768329550816 0.21790749106592894 0.5027030360763326 0.1569062963423195 -0.31011284483665674 -0.22554348137240846 0.06184438478897287 0.009643259880089424 -0.5472889723835256 0.01160866452436775 -0.10400068722189508 ]
[ -0.034111221547885394 0.09055900540194711 0.2801946087407606 -0.21149006593086356 0.19571019011560348 0.13040348636150623 -0.2233693112101121 0.31891392589285045 -0.2943744731991996 0.37378575618907833 -0.14120506675429295 -0.20701758144676038 -0.22202031299166838 0.2497659333655831 0.22109479753093939 -0.24750975734946826 -0.6035118305648544 0.09308402982613181 -0.18711451917928226 0.022938198162428747 ]
[ -0.0012535795063271058 -0.13934896607343122 -0.1447608151166109 0.1864439587705158 0.4406493441591991 -0.19106260800019784 -0.21298923281915402 0.5987360205344481 0.625457229500621 -0.12091778571112989 0.08034600786063123 0.37999881859596124 -0.0573134828793922 0.5401275525520577 0.1483298869051161 -0.1600105039283658 -0.1950418705732067 -0.1589316845944691 -0.029867546164754177 0.49851817443965074 ]
[ -0.27349089053431574 0.14052293731695256 0.5626566283996114 -0.2854511242883638 0.30513667186817783 0.2746869555565053 -0.2543691036751341 -0.19320181313842477 0.379642931474308 -0.07518619424911716 0.22507843958345736 0.31832794608437076 -0.2095458623291375 -0.5453217176834424 0.12226907857874063 -0.07359502872108949 0.1406476081515382 0.4481101289346296 0.6552156692299036 0.47532335532890524 ]
[ -0.4784170480989927 -0.4607113207652873 -0.10170846731199097 -0.48606385557871107 0.7489648624783266 -0.420567298219601 0.014514945346776031 0.5776634804686438 0.28537634911086096 0.04495151384908973 0.03397108406981017 -0.0228584898983653 0.23731956317757152 0.6495639003438596 0.1434658050837431 -0.47807119855112623 0.020824972642063767 -0.7589932272637888 0.7234343414425829 0.66961016008812 ]
[ -0.2973985097083403 -0.31041167745964426 0.5189290907440075 -0.15102505220572232 -0.18144657812910023 0.4651352090176698 -0.3251685417892244 -0.31394754255034907 0.45963172164793054 -0.21156158112285323 -0.3361659189921631 0.5107860156944846 -0.6154823737905536 -0.3932252814774604 -0.28665370158421577 -0.13682011778984224 -0.35650596229916554 -0.1063443161295737 0.3734105619956007 0.3080340631504187 ]
[ -0.2801126189855265 0.4774235982844039 0.23806708716511216 -0.44993768026863995 0.03230285026069404 -0.10137585865513075 -0.17745676057081117 -0.27704589307493516 -0.14792925931055104 0.30646246585818493 0.022322301303423105 -0.15743753046680203 -0.1257464463697612 -0.4992235543922556 0.11619406493877527 0.47499394785021787 -0.221319987217923 -0.1998975358355876 0.20155248066050496 0.07597087315664917 ]
[ -0.6644882998476991 0.2170811449275181 0.20801145938780588 -0.09800978867813519 0.06216754359118047 -0.02958914300886458 -0.3233533387920394 0.16305174629775626 -0.1891794635587662 -0.37510769926077975 0.2048396561780891 -0.3260926034464015 -0.36188786299180514 -0.20840099504006757 -0.011712235637169298 0.23549239921513873 0.08190916825418036 0.3611585446493092 -0.03500214701442573 -0.2913675306127139 ]
[ 0.07653898717913382 0.14482157970406526 -0.057562242112031 -0.21685653838465105 0.5909101709039245 -0.7369238923348845 0.3829014572924659 0.5613182325816436 -0.18049607887497066 -0.28867789676007166 0.11426221750035048 -0.5077964131333454 0.14565316199060438 0.5550668363429463 0.7386544944322234 -0.3104093184119819 -0.14988021487744013 -0.2808617317954343 -0.4366135621454382 -0.047571834127732505 ]
[ -0.20589240038430406 0.3830095652356767 0.3366084018832889 -0.07629171809603721 -0.052961890880757645 0.22091430543465324 -0.07737279054068216 0.5957707722264695 0.019463238582496725 -0.3516206239246888 -0.3454834916296832 -0.2954052070978695 -0.4050058927333589 0.2613131485166648 0.24782771848048418 -0.0765153176352999 0.14754785256499386 0.2732183654968278 -0.3112093444056928 -0.3307541990956153 ]
[ 0.1846407782299293 0.3820696011776268 -0.28505073303942996 0.5355613632207227 -0.1874509003683276 -0.2278838353335321 -0.4438881864048806 0.17692906538641723 -0.43667144807687364 -0.02786835021689016 0.3620579367634306 -0.048762692556913845 0.1837688883686033 -0.028083384785339095 -0.29329813451154096 -0.05791839169377117 0.24255451613303086 -0.030681449089164436 -0.5634476872067872 -0.9238073776965529 ]
[ -0.2522386250613246 0.2872628809916659 -0.10407142539120591 0.49797863321785535 0.05844377423017102 -0.010156554013771175 0.49671629296588804 -0.2602329422521136 -0.08946717819096515 0.2765084047899355 0.2778361725878161 -0.09939084960815317 0.08804404808020654 -0.18787897208844356 -0.3770161169869972 0.4032539038449817 -0.011168511813388205 0.20223212151677056 -0.29044868506394 0.1138711441576722 ]
[ -0.02953702148211302 -0.1098286029775315 0.506905859312187 -0.28052116226130785 -0.2714142977382264 0.05266201240754929 -0.03939261682158448 -0.5435154446097601 0.3705433467828889 -0.04471232266529714 0.1916504205885462 0.40316071908825646 -0.12485702734853221 -0.6742395045669792 -0.43019467921185056 0.5948811649291273 0.0038027518813335496 -0.10481772464389656 0.5356547890910409 0.3447359397133039 ]
[ 0.01567036417689478 0.053960266898437734 -0.033107969274411606 0.23859098852090677 0.10179464725410775 -0.1262834606541337 0.043432861588256384 0.06120947572406909 -0.0903594326086155 0.02491413421655447 0.4727333460299189 -0.11652756699413543 -0.19764072576803782 0.0759293671765832 -0.24548901186455696 -0.1146080232529546 0.39055071468648617 -0.04371332283447615 -0.09756161517245156 0.02569499975786228 ]
[ -0.3549734109020209 0.10655600990611086 -0.03775270704283987 -0.17035726235318085 0.08111604731910751 0.060620588232464044 -0.043023624146342546 -0.13002150256043696 -0.01535511292736524 0.12208388862193116 0.2972831473087282 0.011456610326348423 -0.35398013493053215 -0.018732718858077747 -0.07618020558962615 0.09951659397591107 0.42910966752918345 0.1967678308507065 -0.05293495114580086 -0.18267321658685604 ]
[ -0.29133534620486823 -0.5947188819977793 -0.04105479934484152 0.24800180482301112 0.7196340048544473 0.14539702308221866 -0.5296704716481203 0.4325454295848 0.3029900102251534 0.2348222891336805 0.14112977768516938 0.19985447073552184 -0.19292391847361165 0.6186106987251309 0.5265920177107559 -0.8691544478828002 -0.1349324582554123 -0.4304816951015293 -0.1802442767526346 -0.47627471191402204 ]
[ -0.09489654371529672 0.0870686699378326 0.2897052916877891 -0.305624517239023 -0.11444966128764841 0.17674983156982865 -0.19684338207540938 -0.3181878018653327 0.24310295709363597 0.31156679360264466 0.1490757556359481 0.7357063364406052 -0.5668954542193676 -0.31198985131142826 -0.22876979589440052 0.0066209182995102325 -0.05072676182793268 -0.15529623548790278 0.548447493582274 -0.27767101396736554 ]
[ -0.08406387023758491 -0.1173143455134607 0.41799139036988253 -0.5091472990424362 0.16555054507719094 -0.2736035044001165 -0.05255602054495977 -0.275834801113202 0.011618298216025674 0.12143924589204473 0.2568429820085038 0.0689797949815064 -0.5653661587935227 -0.3804719931100778 -0.59756522852883 0.02447618168761415 0.5312261664727317 -0.16641149537132685 0.20050086487496888 0.08306323724199277 ]
[ -0.2338821165387507 -0.09658794123408988 0.3875587963992358 -0.27901043399770925 0.08034870169630232 -0.04618327264574954 -0.1982514130297235 -0.028441247167824094 -0.14921955369817652 -0.06975816817922449 -0.17813026389065922 -0.20586023629277814 -0.259887110300403 0.34978986050501415 0.23017149677996476 0.004692132308416628 0.6251963189589099 0.32674800768644396 0.23183093727942797 -0.33979551615158327 ]
[ -0.09555576629963956 -0.22041756356962686 0.18718080137022552 -0.20158044336705283 0.16315048598751358 -0.4200785971394317 -0.7434482920317862 0.4758185784164387 -0.17188002562130683 -0.09356147572817301 -0.042244354282185904 -0.22079823701850176 -0.18421654511783386 0.5489627860401346 0.18861091806906624 -0.3502458540251553 -0.3294128645872179 0.22612384182487008 0.02274298432691396 -0.18994517450373155 ]
[ -0.2431894437216457 0.2238284803928281 0.1331489473041397 0.15121963273108466 -0.1064118021205736 0.38045846495158286 -0.2457391948096411 -0.22654434085770372 -0.482551991902332 0.3255330240930333 -0.08232299668816272 -0.006157809746687131 -0.2536096937145018 -0.03173759183150697 -0.284367225393517 0.3209745137173968 -0.1733040966876951 0.23166876848073623 -0.21083556855698998 -0.4102539274715696 ]
[ -0.23241320322235312 0.27258406916960254 -0.15540564190579897 0.3343424754667966 0.20574476941754408 -0.061539290264810136 -0.044101463486932335 0.3548232444981193 -0.5741523521586613 0.26172105134981594 -0.06549259329163182 -0.422610594545926 0.25940314209660786 0.6171148932586933 0.5789184073214598 -0.4434280438043935 0.18806189668011694 0.16011383436016663 -0.35146662707590615 -0.24618636850596842 ]
[ -0.08109491115605333 0.028657029454419773 0.5657556540864878 -0.2849354772428302 -0.1983261424865775 0.32085018193855563 0.1389344458172555 -0.402171581076115 0.368696485701877 -0.0393010949210832 -0.0334029756010256 0.1780557076175659 -0.40279859001477963 -0.426164673764015 -0.11120062472190827 0.022983066549399193 -0.09067101331137807 0.09613604254597544 0.5844575561135322 -0.003663689514115598 ]
[ 0.016874380129699697 -0.11913230179071724 0.17871085802988632 0.05820928211570573 0.06067074740297384 0.11850972187340116 0.10453921580160831 -0.1658113034564938 0.04642953208509197 -0.05221009992820907 -0.2148765706098377 -0.06824875074387397 0.050655465090419786 0.01727796307670998 0.1613298601459552 0.21684250930142737 -0.4083946051906511 0.10553990906663341 0.2571150847484905 -0.012986490753010196 ]
[ 0.05818150166883988 -0.23979156999865378 0.02843965704685263 -0.02723306962571743 -0.11720553668594186 0.1966470406322869 -0.15444562549295163 -0.12161413178344033 0.3572753941727848 -0.17184413287670583 0.05455205832870019 -0.07905803623984596 -0.2275833276052601 -0.6647552016258638 -0.46595474105433454 0.2156737527267959 0.042392340793894145 0.4315710629596848 0.25405213281912176 -0.14929011716640295 ]
[ -0.10174704601705022 -0.0037467992891183763 -0.2897151102931029 0.3867481148185782 -0.3095836420484522 0.19385010507622885 0.027948059539457202 0.6417298463011754 0.022679907042592363 -0.36256569801066624 -0.26743500458280806 0.12573703824810273 0.4194073439862281 0.08401938447031919 -0.006871689510083798 -0.2648701792921576 -0.22099821430327626 0.25508909366953875 -0.3444456837835583 0.3811325890373041 ]
[ -0.09380375805316604 0.07157777862347982 -0.11990060088656947 0.08432481569785498 -0.21455955632127005 0.033170881903012435 0.15777181343616897 -0.4275780420202345 0.39770867447719327 -0.24804081704635408 -0.020891332864083928 0.0218467581917796 -0.3198775176658579 -0.452719436737445 -0.3320988622761873 0.6215752558392512 -0.22686264495781747 0.49395125937624185 0.4641167996117831 0.15188303012048363 ]
[ 0.03738554448885866 -0.02850675851748869 -0.1305745567322499 0.401126276937387 -0.46430005920183653 -0.09550950905582116 -0.024354343377469466 -0.31190071032849276 0.2267905093432852 -0.44240387635386674 0.3986134195427614 0.30590518095365227 -0.14396924333214742 -0.36782507352700583 0.016194008332636563 0.6234252301244742 0.34015497687459995 0.20992961358646597 0.04187803850697691 -0.2804170189252386 ]
[ -0.0716262815330498 -0.05192048822505781 0.24182672401840247 -0.20320365984930985 0.047908987935564744 0.2245575667602091 -0.06641646815774288 -0.28280592704181323 0.20054379380629442 -0.0779122345093343 -0.047621858569049616 0.11083513836431177 -0.223821622230612 -0.28395861060436395 -0.2383783668951496 0.08750392648053365 -0.015232036466614378 0.1720293045580342 0.32045771345922036 0.12112973361641377 ]
layer 5 Activation
tanh
layer 6 Dense
20 1
[ -0.014132339920364478 ]
[ -0.0478402581618514 ]
[ 0.6765213685909856 ]
[ -0.06735278971226852 ]
[ 0.3987193812269875 ]
[ 0.32230023994173623 ]
[ -0.11400082305008141 ]
[ 0.6949314268846769 ]
[ 0.4113209554316255 ]
[ 0.1523445084178216 ]
[ 0.01609869538182268 ]
[ -0.4047269463263075 ]
[ -0.39859794769627405 ]
[ 0.23862026700102992 ]
[ 0.409740546762785 ]
[ -0.2512145412972964 ]
[ -0.028370159932226188 ]
[ -0.2067407687182977 ]
[ 0.3948398630955913 ]
[ 0.0582970930594609 ]
[ 0.3863990436525598 ]
