layers 7
layer 0 Dense
20 20
[-0.29695684  0.23399135 -0.1766486   0.18295908  0.0483228  -0.23473784
 -0.06629103  0.36682582  0.12642874  0.2781809  -0.17773122 -0.24649228
 -0.21726777 -0.12049279  0.32022947 -0.3813287   0.16207287 -0.30475923
 -0.12986688 -0.41716787]
[-0.02712249 -0.4513346  -0.3761464   0.20624171  0.04746873 -0.43040806
  0.03888895  0.14674719 -0.38407028 -0.17677198  0.15982601 -0.05052046
 -0.2873905   0.00850838 -0.33172858 -0.39540434  0.27920023 -0.07660425
  0.15742025 -0.24001434]
[ 0.13724965  0.15288043  0.00319386 -0.35999972 -0.5763526  -0.22055088
 -0.27510557  0.11209759 -0.09932061 -0.10969805 -0.45931745 -0.1566488
  0.42778563  0.21801661  0.03879866 -0.16863304  0.0552762  -0.44355112
  0.21496218  0.15398666]
[ 0.16204995 -0.00852926  0.2983627  -0.12637141  0.24662223  0.33114725
 -0.19151808  0.06316576 -0.13071243 -0.14084633 -0.32909077  0.34981287
  0.42927262 -0.13107273 -0.27513623 -0.2808178  -0.01152518  0.0176266
 -0.19931969 -0.33822572]
[-1.93782002e-01  1.22896016e-01 -5.90265989e-02 -1.42364070e-01
 -2.14698464e-01  4.92247045e-02  2.01019928e-01  1.07283898e-01
 -2.39415988e-01 -1.14867039e-01 -1.64918140e-01  2.34232426e-01
  2.42300749e-01  2.41111234e-01  1.46039180e-04  4.32213508e-02
  2.12178696e-02 -3.16119701e-01  3.80732231e-02 -2.40675718e-01]
[ 0.14049946 -0.14958724  0.0909378   0.02028417  0.03083169  0.27013382
 -0.01142917  0.05971131  0.18972126  0.18088806  0.4303024  -0.2869967
  0.14961785  0.39860928 -0.38034192 -0.04242348 -0.03334033  0.11330881
  0.32138598  0.02801568]
[-0.03018496  0.22637323  0.49554786  0.01848497  0.14392675  0.12251642
  0.15932626 -0.07281554 -0.16244906  0.11423775  0.2694362  -0.23633105
 -0.2274267  -0.05327035 -0.2923698  -0.0207727  -0.0823737  -0.19296849
  0.21569273  0.15333664]
[ 0.26443687  0.3166575  -0.25960666  0.2251875   0.02745717 -0.16131574
  0.32775563  0.34094584  0.37725547  0.50002104  0.15368976 -0.12044029
 -0.14455433 -0.12244055 -0.14620405  0.27466145  0.07158585  0.38149768
 -0.46720362  0.46285936]
[-0.24107033  0.24039404  0.34748343  0.14648575 -0.3229027  -0.09889717
 -0.2568346   0.14280845  0.24818933 -0.26387265 -0.10112479 -0.04961301
  0.4073377  -0.02867109  0.01458744 -0.3655309   0.27675334  0.35747477
 -0.13972211  0.12032742]
[ 0.4891712  -0.18551639  0.3082228   0.2417725   0.47369075 -0.391739
 -0.39398667 -0.01621031  0.15631707  0.17127205  0.193534   -0.25304192
 -0.20231554  0.41047025 -0.1325817   0.3726556   0.17284372 -0.12590984
  0.13106479 -0.39528126]
[-0.41102216  0.07945812  0.11839965 -0.15255536  0.29826745  0.04784393
  0.3362516  -0.16195628 -0.517502    0.355966   -0.04472759  0.2007262
  0.12744215  0.18827264  0.10682942  0.36429477 -0.14610752 -0.20122443
  0.5987337  -0.16791898]
[-0.3089415  -0.3869544   0.0459561  -0.14404194 -0.27823812 -0.22595121
 -0.00445447 -0.22857712 -0.28210285 -0.11562491  0.43770784 -0.18271412
  0.30291405 -0.2937147  -0.16089988 -0.06343494 -0.0631529  -0.5288645
  0.5238322   0.11871812]
[ 0.13994247 -0.29077768 -0.3452322  -0.41554594  0.32503253  0.08562367
 -0.23708335 -0.4064374  -0.35145047 -0.2666423   0.10580022  0.00641747
 -0.25449196  0.2733226   0.2609507   0.16346471 -0.24600528 -0.05832779
  0.02503465  0.19158743]
[ 0.3283594   0.24087039 -0.31621534  0.18127626  0.06478921 -0.09239437
 -0.19144705  0.11611392  0.25507408  0.3535207   0.25300622 -0.06381379
  0.05118576 -0.03818889 -0.36204252 -0.27050647  0.12635878 -0.08070391
  0.17311202 -0.1051136 ]
[ 0.42314953  0.12505798 -0.05819623  0.15508011  0.01635845 -0.19090359
  0.17421897 -0.27804238 -0.17396402 -0.19422328 -0.22275043 -0.27510154
 -0.11340782 -0.25865322 -0.21109292 -0.02931352 -0.16430265  0.10989557
 -0.23570944 -0.3934724 ]
[-0.00859449 -0.16268633  0.17731003  0.07924294 -0.11986014  0.04700338
  0.10053024 -0.24523    -0.28725243 -0.29271942 -0.20181821  0.13843568
  0.02329848  0.17561597  0.00678592  0.14946118  0.2256519  -0.17708686
  0.50276124 -0.75262547]
[-0.16301945 -0.41088855  0.4334281   0.21080653  0.00912802 -0.03623284
 -0.10498504  0.09409529  0.33107176  0.14621967  0.06642038  0.35184437
  0.0608883  -0.26231438 -0.17675649  0.0335976  -0.13351658  0.12231929
  0.26644966 -0.0440105 ]
[ 0.13276638 -0.02673979 -0.77096814 -0.21284144 -0.56418204  0.02340666
 -0.08884213 -0.05648284  0.37481105  0.25505906 -0.4922886   0.22672984
 -0.10200934 -0.4047508   0.40377802 -0.04058141  0.06672727 -0.03715001
 -0.16422841  0.10389198]
[ 0.5136006  -0.47991657 -0.24918951  0.6832351  -0.08947326 -0.2624655
 -0.7321399  -0.18181248  0.05995443 -0.04282422  0.3824029  -0.4652751
  0.31668732 -0.0454425   0.3517054   0.03435285 -0.02736658 -0.0182247
 -0.35658774  0.32850516]
[ 0.5201963  -0.32968432 -0.15423813  0.4079697   0.28049818  0.25335932
 -0.2105032   0.18033496  0.03942811  0.24940354  0.323246   -0.10623344
 -0.53410894  0.00953598 -0.10518366  0.41287497  0.0077348  -0.19402267
 -0.29961547  0.48159257]
[-0.07121208  0.00668087 -0.01819448  0.03018401  0.02767734 -0.031851
 -0.01429243  0.0255682  -0.07279656 -0.1166186  -0.05717454  0.01586592
 -0.01103085  0.02786903 -0.03366709 -0.03980114 -0.04903693 -0.02337005
  0.00543792 -0.03368279]
layer 1 Activation
tanh
layer 2 Dense
20 40
[ 0.38477072  0.23059638 -0.09544138 -0.37944436 -0.23126072  0.12016556
  0.08022401 -0.3833928   0.31915337  0.23799844  0.51705116 -0.21454301
  0.0693526  -0.24869733 -0.1555302   0.19338307  0.02055145  0.05953339
  0.3203986  -0.30869025 -0.4028807  -0.15133226  0.16004781 -0.08475519
 -0.33344385 -0.39882922  0.14703222 -0.02763989  0.02451295  0.15701784
 -0.23957364 -0.07187852 -0.21290357  0.09924661 -0.25950262 -0.43823925
 -0.05197373 -0.26777592  0.00526519 -0.12269381]
[-0.14076613  0.0535013  -0.03511068 -0.16356762 -0.16282646  0.11367172
 -0.17311496  0.0181925   0.09093244 -0.08067512 -0.20777428 -0.04081792
 -0.14952081  0.00622511  0.19827801  0.0848991   0.09594281 -0.024137
  0.10941736  0.2661931   0.03866841 -0.20627052  0.04727024  0.09273726
  0.3975015   0.18832387  0.17491437  0.19430928 -0.19047308 -0.17230783
  0.3167566   0.23541887 -0.3147832   0.08596639  0.17513712  0.08159311
  0.06522118 -0.26439586  0.10077599  0.14327888]
[ 0.20312062  0.01684903  0.24401063  0.03034928 -0.34639364  0.24703571
  0.30723384 -0.24347001 -0.14212759  0.27069783 -0.4979925   0.29003954
 -0.17050827 -0.21910974 -0.14779441  0.28293458  0.28158757  0.12311689
 -0.30886054  0.22832385 -0.0152142   0.19660689  0.17792213 -0.06385253
  0.05683754  0.11451859 -0.24325292 -0.00256967  0.11875636  0.04952564
  0.0593919  -0.23334983  0.03182428 -0.24590477 -0.00437735 -0.18799424
 -0.26427698 -0.03799433 -0.19994715 -0.1520589 ]
[ 0.31393427 -0.03406197 -0.06868226 -0.1882996   0.00895934  0.03133449
 -0.22368598  0.1807903   0.02930114  0.30607703 -0.28945634 -0.19128115
  0.3245      0.11640259  0.05208971  0.02514064  0.30442283 -0.21447101
 -0.09573881 -0.08949362 -0.30620077  0.17430428 -0.05324029  0.00429754
 -0.19182174 -0.14426337 -0.24538685 -0.1272384  -0.20045589  0.15196808
 -0.41577712  0.14326157 -0.2976601  -0.2009547  -0.02386874 -0.06742204
  0.13726394  0.37484285 -0.02298331  0.3052515 ]
[-0.16207267  0.01885614 -0.16652805  0.00425341 -0.07364264 -0.2394905
  0.0337896   0.006024    0.3295474   0.22105968  0.05181956 -0.05643136
  0.33417168 -0.42711312  0.11118404  0.29041302  0.23393951  0.3046749
 -0.13786322  0.12328302  0.3897501   0.23847532  0.04807349  0.4037583
 -0.21665351  0.22658262 -0.16589011 -0.09973627  0.01693981 -0.25119296
  0.4283946  -0.3393934   0.3486083  -0.26593456  0.09802604  0.0664765
 -0.21302547 -0.21041922  0.20785667 -0.27907526]
[-0.0410184   0.03532164 -0.21136828 -0.11052216 -0.26377338  0.05445382
  0.01348787  0.10397665 -0.11933465 -0.01386223  0.1785424  -0.10162937
  0.17384557  0.19309421 -0.03156929 -0.22186148  0.21954772  0.2560965
  0.2328328  -0.05234287  0.01183501 -0.09419278  0.1831839   0.2986909
  0.16453728 -0.06073209 -0.1729312  -0.25543633  0.24089733  0.26676232
  0.01727489 -0.27068713  0.00355453 -0.15580207 -0.0645992   0.10964119
 -0.0733121   0.00738501 -0.18053663 -0.08729597]
[-0.26356015  0.0286149   0.04920858  0.08123218  0.2533286  -0.10557671
  0.3341762   0.05143677  0.03854178 -0.3269878  -0.17211106 -0.12205546
 -0.29449382  0.08002573  0.2754432   0.1789289   0.01333051 -0.05556599
 -0.24271807  0.3800609   0.0690276  -0.27404636  0.00635926 -0.00765827
  0.15592061 -0.00285367  0.2660904   0.01096179  0.13423471  0.137244
 -0.10266116  0.19535373 -0.13997333  0.23213173 -0.25524917  0.2785502
 -0.07807905 -0.09434071 -0.15419163 -0.02852153]
[-0.0429919  -0.15394242 -0.20081836 -0.30044565 -0.2787599  -0.10207731
 -0.31063196 -0.10402935  0.11722824 -0.15871324  0.14940035  0.0161289
 -0.18017183 -0.16120596  0.2759713   0.17629154 -0.24591422 -0.17927502
  0.21459727 -0.07241637  0.05728718 -0.0540394   0.02854421  0.1758734
  0.2839245  -0.12841864 -0.16918199  0.03495931 -0.02082133 -0.13342847
  0.06334746  0.0678272  -0.05086838 -0.21833718 -0.11558455  0.2231536
  0.23861219  0.01692595 -0.41819587 -0.03805307]
[-0.08474305  0.20744386 -0.30843908  0.03154252  0.20807528  0.13545528
  0.02882537  0.08955154  0.17109218  0.04848412  0.18513966 -0.20283239
  0.16814947  0.12705004 -0.26250184 -0.15975355 -0.21855061  0.05771702
 -0.10191121  0.2495342  -0.2038019   0.29972607  0.28537565 -0.04976788
  0.01663208  0.13377681 -0.15935706  0.08585122 -0.45503962 -0.23041713
 -0.32162538  0.08506446 -0.14235218 -0.33833644 -0.25194114  0.22480185
  0.35930264 -0.17920627 -0.10176597  0.42474005]
[ 0.1649345  -0.11125479  0.30623806 -0.27715093  0.0367437   0.0502075
  0.26249745 -0.19271785  0.19463655  0.18368341  0.01328249  0.28045285
 -0.15223308  0.1124164   0.14723945  0.1338384  -0.10699129  0.07237591
 -0.15912642 -0.00560832  0.37722132  0.09438097 -0.04067851 -0.19929387
  0.36312154 -0.01325047  0.14576943 -0.24815367  0.07644378 -0.17996234
  0.19468896 -0.1871657  -0.11349243  0.0684883  -0.22093983  0.28850693
 -0.08658513 -0.05790917  0.01796264  0.31119248]
[ 0.00524233  0.20911805  0.09207591 -0.22991674 -0.24145842 -0.3532107
 -0.007853    0.04978304  0.08098269  0.07774588 -0.14819956  0.07871378
  0.22052     0.00954495  0.02151571  0.03305156 -0.1856227   0.224338
  0.23527937 -0.03042612 -0.05859018  0.1153565  -0.1242475   0.2532775
 -0.2998285   0.25885615 -0.20273145 -0.07439199 -0.14069432 -0.16190104
  0.16424558  0.32558808  0.0534324  -0.20249406  0.346822   -0.1620585
  0.01074823 -0.21973313  0.04843009  0.19847147]
[ 0.0071855  -0.11927656 -0.16279599  0.3124009   0.05441719 -0.26517162
 -0.0843858   0.07546919 -0.1688924  -0.03584851 -0.00781773  0.28364196
  0.06200959 -0.01654358  0.11027884 -0.20210797 -0.2650656  -0.08862255
 -0.19109686  0.12395585 -0.05678512 -0.03985077 -0.30410478  0.13804878
 -0.05895125 -0.23372847  0.18582077  0.38462684 -0.15868291  0.22495867
 -0.2126446  -0.36984596  0.2164796   0.23317678 -0.02569551  0.17412594
  0.15483677  0.1640983   0.18528488  0.05421566]
[-0.29823637  0.05882622  0.22057933 -0.05760002 -0.20894177  0.21072657
 -0.03995139 -0.13344273 -0.15390953  0.1130498  -0.34666008  0.2272944
 -0.08440245 -0.41392615 -0.0075951  -0.33698943 -0.06141199  0.07375952
  0.05331887 -0.22521737 -0.02153475 -0.18754442  0.3004818  -0.11767921
 -0.1767931   0.05677633 -0.2270007   0.29088193  0.20419781 -0.224448
  0.01334095 -0.22593388 -0.13318726  0.20410609 -0.06266943  0.15153694
  0.22872825 -0.17302622 -0.08984167 -0.23072171]
[-0.15478349 -0.02928237 -0.2954764   0.14292419 -0.09013283 -0.17718835
 -0.05271872  0.23082541 -0.20793581  0.25935104 -0.3323455   0.06655485
  0.10923252 -0.32739168  0.20943812 -0.05700401 -0.0581628   0.06370239
 -0.04316885  0.06280576 -0.01975835 -0.16224901  0.23496713  0.14288658
 -0.02054302 -0.20748611  0.2404438   0.16296229  0.24112958  0.2408271
 -0.04340807 -0.25937322  0.04810881 -0.29054013  0.29365966  0.04621592
 -0.20077516  0.00206791  0.11659079  0.05425846]
[-0.11397641  0.20119487 -0.03840601  0.05745814  0.04130441  0.2328656
 -0.05943645 -0.01727907 -0.27309737 -0.13419576 -0.33946854 -0.31155843
  0.22151783  0.18014148  0.13093631  0.05843002  0.05998137 -0.258662
  0.08400533  0.03313287 -0.1711685  -0.25197658  0.20481017 -0.16959669
 -0.14521049 -0.0208279  -0.03806492  0.1580576  -0.28341052  0.06642347
  0.22387013 -0.29052734 -0.0090922  -0.04718275  0.08394139  0.20197825
 -0.01834428 -0.04806288 -0.03798699 -0.21386065]
[ 0.05983908  0.20496875 -0.17543241  0.1565515   0.07331818  0.1491559
 -0.17717658  0.13791561  0.13422094  0.20901501  0.09759682  0.07208485
 -0.20313485 -0.19190322  0.08469633  0.36207145  0.28059188  0.30297425
  0.31743428  0.24846528  0.11519349 -0.22128552  0.01849778 -0.13515227
 -0.03664705  0.24977726  0.262422   -0.15162644 -0.02461631  0.06709303
 -0.01155548 -0.1418569   0.15604053 -0.18870054  0.05575066  0.04912934
 -0.07520114 -0.2637977  -0.1165903   0.32651106]
[ 0.09902398  0.19470744  0.1780093  -0.13143027 -0.20170252  0.20641775
  0.1985291   0.11198953  0.21821971  0.25999132 -0.22352114  0.09294512
  0.11718441 -0.11604168  0.03664134  0.16280983 -0.20898513 -0.02179193
 -0.00879444  0.19016309 -0.21697988  0.14200035  0.07572208 -0.1697842
  0.38136035  0.01746344 -0.16412534  0.16094898  0.00172914  0.01639579
 -0.12791082  0.06468245  0.09095076 -0.00066343  0.00723413  0.18675902
 -0.19750394  0.16414092  0.22725794  0.23842137]
[ 0.09939253  0.00318453 -0.34377265  0.09453586 -0.08388904 -0.19047436
  0.21990536 -0.0455232  -0.06778932  0.08919054  0.29979613  0.03110642
 -0.1598468   0.13456295  0.09760349 -0.13845271  0.0459457   0.31533667
  0.1717601   0.26500162 -0.22516418  0.34313115 -0.21155484  0.13318428
  0.12474836 -0.1893386   0.2639517  -0.09951119 -0.3008421   0.15209201
 -0.37236884  0.13641731  0.15614368 -0.28431186  0.09193847 -0.25589535
 -0.23481153 -0.04753793  0.05731886 -0.05789141]
[-0.34581354 -0.05698503  0.1394856   0.24138363  0.01161225 -0.02171657
 -0.09544774 -0.00941818 -0.21107596 -0.35213527 -0.29528672  0.11544806
 -0.03670007 -0.06476756 -0.34842977  0.22502455 -0.04789992 -0.28103015
 -0.2351633   0.32862118 -0.16058105 -0.06496759 -0.32504666  0.19594976
 -0.20268834  0.39219877  0.0649581   0.06168622  0.4917722  -0.12878291
  0.59284866 -0.3549564   0.3468154  -0.10758871  0.26228118 -0.15022253
 -0.22912505  0.06308696  0.16364251 -0.34196055]
[ 6.25394508e-02 -1.65790394e-01 -3.15118611e-01 -4.18379933e-01
  4.15094882e-01 -3.48696440e-01  5.33650294e-02  6.67892247e-02
 -2.20203976e-04  9.86502171e-02  2.88705826e-01 -2.30586007e-01
  2.04734251e-01  3.55253726e-01  1.64470509e-01  1.07162870e-01
  1.93872675e-01 -2.37575129e-01  2.10981846e-01 -2.76053458e-01
 -2.29366168e-01  1.02698199e-01 -9.71612558e-02 -3.22303951e-01
 -1.02277920e-01  2.66648740e-01  1.58611342e-01 -1.64952025e-01
 -3.45112085e-01  7.03664199e-02 -7.29669556e-02  1.50429355e-02
 -3.20618823e-02  2.90163964e-01  1.02094337e-01  3.76437694e-01
 -3.21634054e-01 -2.81171650e-01 -2.74689436e-01  1.88646540e-01]
[ 0.04164953 -0.01799326  0.06574638  0.04010321 -0.07621536 -0.0270285
 -0.04939007 -0.00169163 -0.01744719  0.02249161  0.02050582 -0.02486036
  0.05316668 -0.03630915 -0.00051694 -0.03127323 -0.0220821   0.00656359
 -0.01400173 -0.05229931  0.03570171 -0.02418737  0.0244394   0.11184879
  0.05492709 -0.01639633  0.03507203 -0.06780119  0.10380992 -0.01349828
  0.0509882  -0.0232418  -0.00327795  0.06058937  0.00856111  0.00267318
  0.01733672 -0.0060258   0.08703702 -0.11115581]
layer 3 Activation
tanh
layer 4 Dense
40 20
[ 0.3971641  -0.1644647  -0.3096791   0.01044695 -0.02855562 -0.13361886
  0.219822    0.24324846  0.04545522 -0.14103252 -0.10877719 -0.40222535
 -0.08652982 -0.22800069  0.21539819 -0.00347146 -0.19631617  0.05579948
  0.09454893  0.26056612]
[ 4.02162597e-02 -1.83468804e-01  1.61758587e-01 -1.85275134e-02
 -3.12572777e-01  2.35737979e-01  1.62727430e-01  7.19292834e-02
 -1.50675684e-01 -2.85094440e-01 -2.34244333e-04 -2.45612711e-01
  1.33930519e-01 -1.50196105e-02 -8.14818591e-02  1.81055352e-01
 -1.60833701e-01  2.38977224e-02 -9.14355442e-02  9.21551660e-02]
[-0.03597844  0.0163526  -0.13688011  0.2905514  -0.30001473  0.1652142
  0.14264993 -0.04740899 -0.19725274 -0.22555764 -0.17536126  0.07756287
  0.00585167 -0.12186841  0.21433346  0.20567387 -0.09256117 -0.30639532
  0.26239935 -0.1605947 ]
[-0.14329153 -0.15150087  0.14537746  0.10558859 -0.03689652 -0.3310372
 -0.33970955 -0.24805489  0.29365492  0.14213412 -0.22808474  0.09147038
  0.2264726  -0.19951533 -0.0527655  -0.13104409  0.2745184  -0.31047413
 -0.25277045  0.05349932]
[ 0.20439337 -0.2932389  -0.1224992  -0.3148415   0.02304816  0.26850277
  0.20476557 -0.12750703 -0.14870362 -0.22238158  0.3063985   0.2992268
 -0.25819314 -0.3045926  -0.01147477  0.2577109   0.28377768  0.17678809
 -0.13050675 -0.11201642]
[-0.23104963 -0.10846084 -0.12269181  0.02956751  0.20786168  0.20512141
 -0.16323659 -0.24370703 -0.24385561 -0.17706493 -0.31028163 -0.10524055
  0.15139323 -0.2939054   0.04450668  0.11915445  0.07091816 -0.13761166
  0.23401499  0.1121223 ]
[ 0.11134211 -0.02359471 -0.16841635  0.0516222   0.15702438 -0.05385103
  0.30675343 -0.19040902 -0.18795952  0.2430208   0.28368855 -0.02197338
 -0.22478576 -0.06170939 -0.12598354  0.27911988 -0.1560711   0.23712228
 -0.15429239 -0.09500274]
[-0.09148719 -0.06126592  0.16141646 -0.25293082  0.15236855  0.14657609
 -0.19178373 -0.07367521 -0.24046393 -0.14861777  0.23860158  0.326204
 -0.03502944  0.05794997  0.29065663  0.10580439 -0.19316517  0.05126701
 -0.18782759  0.03116405]
[ 0.05313787  0.14979918 -0.2547108  -0.03389036 -0.26764268  0.01136008
  0.3793745   0.36393616 -0.07603311  0.04599326 -0.16626856 -0.38803604
  0.20641416 -0.30052087  0.02647684 -0.2566526  -0.10869261 -0.14418863
 -0.22484052  0.23606175]
[ 0.21821477 -0.06093866  0.02843115  0.27293932 -0.12020673 -0.08156481
 -0.07241222  0.29610258  0.03947563  0.01235791  0.19322395  0.09949774
  0.27733803  0.03195902  0.08570541 -0.33255976 -0.16861677  0.08318979
 -0.3912949   0.0705635 ]
[ 0.10030507  0.05726344 -0.327607   -0.06208327  0.27769306  0.17462264
  0.28908247  0.02524222  0.16860238 -0.19455017  0.01073269  0.1563612
  0.22986412 -0.10728741 -0.09510042 -0.19068028 -0.30603442  0.3731187
  0.17926192  0.10590896]
[-0.09028628  0.2297436   0.32563    -0.04313238  0.15116982  0.18895428
  0.06519138 -0.28911698 -0.24107414  0.07283065 -0.24634865 -0.08592351
 -0.02859338 -0.1236986  -0.1326245  -0.22888646  0.06503677  0.01038469
  0.0915264  -0.1709152 ]
[-0.12421729 -0.00611882  0.29809391  0.26889884 -0.24708606 -0.32726863
  0.19446298 -0.2114452   0.05698727 -0.22200085  0.23770276  0.03186472
 -0.22304621  0.1369517  -0.13299745 -0.27009007 -0.26115477  0.0888702
  0.19451521 -0.36078602]
[-0.21929294 -0.1730096   0.09903264 -0.20249327 -0.14781094  0.19551364
  0.03762015 -0.3225581   0.11146046 -0.28368795  0.05283755 -0.2503366
  0.18605752 -0.14701226 -0.00366201  0.15485248  0.1619887  -0.04413729
  0.15475787  0.03987277]
[ 0.23138072 -0.269889   -0.24482036 -0.3045819   0.1477895   0.27207538
  0.15172172 -0.13674302  0.23702838  0.04861666  0.19609042  0.24255072
  0.01888377  0.13624017 -0.24937803  0.0959717  -0.2138675  -0.1081764
  0.10328817 -0.0189324 ]
[ 0.13872026 -0.04787342  0.14726306  0.09925371  0.09883044 -0.12469983
 -0.0299307  -0.16868533  0.14551821  0.08663975  0.11411167 -0.12501894
 -0.08180025  0.26669526 -0.34869823 -0.04830966 -0.10716988  0.11661727
 -0.5337931   0.2224739 ]
[ 0.06953704  0.0389684  -0.27729896  0.10915639 -0.04965722  0.1168816
  0.24516873  0.26866195  0.01853117  0.1761549   0.04260811 -0.14431718
  0.06442938  0.28562313  0.02015014  0.12530607 -0.26670638 -0.0510296
 -0.3650489   0.12098165]
[-0.16710149 -0.04271248 -0.20048486  0.15141992  0.07529104 -0.04915511
 -0.14601846 -0.06208347  0.2739496  -0.28354853  0.18666361 -0.04040673
  0.27161407  0.30107597  0.04173494 -0.08115199  0.19570743 -0.00069822
  0.09336677  0.13794939]
[ 0.02448291  0.06218244 -0.2124826  -0.17133336  0.05491869  0.14305457
  0.03880689  0.3449585   0.358783    0.27521998  0.40215483 -0.1275442
  0.05321047  0.17998293  0.1590153   0.00404352 -0.2411804   0.15964743
 -0.0655949  -0.06680346]
[-0.06675912  0.07100648  0.2460953   0.02949018 -0.20442392 -0.32736295
 -0.28390965 -0.28992242  0.31599948 -0.09220947  0.05437743 -0.28380567
 -0.05077619  0.0783423   0.3024551  -0.05402682  0.02307444  0.03980196
 -0.3579435   0.10933203]
[-0.21134762  0.20116992 -0.22605814 -0.14689332 -0.01881654  0.1346496
 -0.19201784 -0.16512105 -0.33922902  0.07223287  0.12988546  0.2532758
 -0.26695317 -0.2174405   0.2928654  -0.04826798 -0.18807173 -0.28655168
  0.0429242  -0.16142896]
[ 0.03382289 -0.06684764  0.05180107 -0.15900947 -0.11097046  0.19058374
 -0.11238367  0.04422059 -0.22551966  0.02308138 -0.3485446   0.17252095
 -0.01897767 -0.06028828 -0.02065207 -0.3447882  -0.05376186  0.38371453
 -0.06649647  0.14738102]
[ 0.16679177 -0.18324292 -0.20995851 -0.04733713  0.18203388 -0.00375947
  0.28133148  0.28143924 -0.27928627  0.2770436  -0.32108173 -0.24087144
 -0.24795096 -0.24397014 -0.20452163  0.12232354 -0.02769486 -0.24182422
  0.0807422  -0.07985392]
[-0.10155094  0.32427993 -0.02136321  0.20670277  0.11323377 -0.2535693
 -0.07780326  0.04791169  0.2447039   0.26255792 -0.03830134 -0.243032
 -0.28579596 -0.20526676  0.0595146   0.05053002 -0.05350938 -0.05693544
 -0.16790034 -0.17149657]
[-0.22868264  0.0856107  -0.28226143  0.06547815  0.0402437  -0.23603076
 -0.04928416 -0.33063442 -0.08992295 -0.2831405  -0.2360636  -0.19068787
 -0.30492097 -0.20125678 -0.1170075  -0.29470032  0.28982243 -0.11206648
 -0.09659547  0.01385792]
[-0.21631218 -0.2566383  -0.00384142  0.09411263 -0.00406878 -0.03871407
 -0.25889382 -0.33804032 -0.19537343  0.10530314  0.2852669   0.18028681
  0.06159917  0.05512089 -0.11880186  0.06113289 -0.02184806 -0.20973463
 -0.08783972  0.03211587]
[-0.16814707  0.03313643  0.13978912  0.10104567  0.13666815  0.18834488
 -0.0875254  -0.01720356 -0.27578944  0.05799446  0.13396549 -0.14776286
  0.2278354   0.07311548  0.14035688 -0.15862195 -0.1812002   0.00685616
  0.04916496  0.22819029]
[ 0.00143627 -0.06761049  0.22258876 -0.07720399 -0.14390884  0.23751324
 -0.37547255 -0.19847323  0.13241859 -0.25320593 -0.20658697  0.2667536
  0.05284126  0.17634857  0.05556724  0.19341768  0.17439005  0.08212219
  0.04592482  0.17117603]
[-0.0574529   0.31148544  0.01038295  0.07225303  0.2242116   0.04296494
 -0.21797828  0.23681599 -0.02775838 -0.21490991 -0.04477135  0.1666734
 -0.20933007 -0.3398521   0.05997014  0.2833557  -0.26367635 -0.4425559
  0.26686424 -0.28331754]
[ 0.07149082 -0.12003304 -0.10656775 -0.09358938 -0.05187667  0.23543899
 -0.09605023 -0.20517008 -0.02609413 -0.08799208  0.10016622 -0.0991178
  0.04137171 -0.12491012  0.22866279 -0.08595254  0.02809787 -0.04017451
 -0.23004283 -0.1029615 ]
[ 0.07423279  0.11426864  0.11434536  0.35444844  0.17596367 -0.13028699
 -0.07197798  0.06773701 -0.21864359  0.09324627  0.29578432 -0.10788088
 -0.30039573  0.20167086  0.22107436  0.14621338  0.1732578  -0.40747675
 -0.01142788 -0.24791759]
[ 0.01955794  0.3123586  -0.21572542  0.06608402  0.19072022  0.17877787
 -0.09280986 -0.16437565  0.25971028 -0.05660478 -0.13861991 -0.22525428
  0.15719971  0.16310135 -0.18274409  0.02391045  0.15921451 -0.04171558
 -0.00270545  0.31672874]
[-0.09019444 -0.20528246  0.19007732 -0.01288984 -0.07488278 -0.180657
 -0.22591566  0.12670685 -0.24855249 -0.12438822  0.19680667  0.06438636
 -0.17323533 -0.17193042 -0.22090219  0.35597292  0.2721611  -0.2713629
 -0.16946857  0.16040623]
[-0.2694421   0.18980674  0.26383716  0.1726279  -0.19822773 -0.32640672
 -0.03618404  0.23128533 -0.21616635  0.06691819 -0.04181433  0.21038291
 -0.15732203  0.06142374 -0.05548405  0.1790674   0.21068962 -0.15106586
  0.3662773   0.10880429]
[ 0.03866358 -0.04859585  0.28823417  0.15178545 -0.14721902  0.12793913
 -0.18213855 -0.01291144 -0.04292403 -0.2635629   0.15195093  0.00508101
  0.18098307 -0.24304451  0.02936211  0.14121006  0.16808115 -0.11617336
 -0.2972498   0.18562065]
[-0.18975523 -0.28627327  0.14150481 -0.13431135  0.11569454  0.09413809
  0.26371402 -0.1107167  -0.01819164 -0.25786626  0.0976444   0.1005785
  0.00317557 -0.30709267  0.00910164 -0.07684699  0.09662791 -0.08233599
 -0.13053024 -0.289136  ]
[ 0.24674451  0.13449118  0.10146078  0.0456278  -0.12560266  0.10089664
 -0.02002101 -0.23848152 -0.06128389  0.29255554 -0.33454219 -0.21752019
 -0.1224861  -0.22370481  0.1146365  -0.16601771 -0.06475326  0.10888114
  0.24067901  0.07289036]
[ 0.28347012 -0.03050574  0.06873491  0.20219958 -0.05812778  0.21836787
 -0.33923465 -0.11152349 -0.2964753  -0.13891007 -0.35834637  0.30430886
  0.02311327 -0.27403066 -0.08743884 -0.09931345 -0.05725783  0.16247997
  0.17337534  0.21263786]
[ 0.08037885  0.34929165 -0.10236423  0.299069   -0.24288726 -0.03708518
  0.12848563  0.15687099  0.08355958 -0.06640974 -0.02396961  0.09344535
  0.05457359  0.14229305  0.03179433 -0.02388492 -0.14530785 -0.21509174
  0.10959218 -0.04822431]
[ 0.14739443 -0.22909868 -0.1267755  -0.15402693  0.12558693 -0.06947035
  0.22192563 -0.04639027 -0.27020472 -0.08966298  0.23920555 -0.09940593
 -0.2184776   0.18549672  0.28455982  0.2610117  -0.04507263  0.16347067
 -0.33369103  0.22058205]
[-0.03699857  0.01001282  0.03101726  0.06318145  0.02643723  0.01909548
  0.04272834  0.04760573 -0.0024772   0.00709394  0.017476    0.02660009
 -0.02496814 -0.03656156  0.02213598 -0.01862823 -0.05170112 -0.07888635
  0.08929103 -0.01174733]
layer 5 Activation
tanh
layer 6 Dense
20 1
[-0.3265876]
[-0.3423843]
[0.23105991]
[0.34183472]
[0.0144501]
[0.15335895]
[0.2869068]
[0.14534988]
[0.17000964]
[0.01101699]
[0.26283556]
[0.11879712]
[-0.35180134]
[-0.05901236]
[0.00122854]
[-0.18061547]
[-0.11849209]
[-0.26301715]
[0.20650917]
[0.40547878]
[0.00815026]
