layers 7
layer 0 Dense
20 20
[ 0.1553307  -0.31164628 -0.16914812  0.24770215  0.20437708  0.25899047
  0.01239405  0.02677526  0.41924697  0.211577   -0.18404515 -0.36217353
  0.16240537  0.1450299  -0.07349196  0.17785211  0.3306269  -0.11937144
 -0.24866633  0.19352616]
[ 0.43253398 -0.02914571 -0.10112556  0.37665555 -0.22350766  0.33451128
  0.06742208 -0.08670695 -0.22690892  0.19530413  0.3211198   0.13551179
  0.2769663   0.10597828  0.26037455  0.36525235 -0.59452826 -0.21298155
  0.55633235  0.096843  ]
[ 0.47386855  0.20285198  0.3313784   0.46941805  0.03936916  0.11383218
 -0.3462452   0.1983701  -0.10083508  0.46943825 -0.0778417   0.05741069
 -0.40013054  0.08745582  0.21812795  0.29452953 -0.6818744  -0.22122471
  0.51875675 -0.01788897]
[ 0.30252063 -0.12321384 -0.18418306  0.0304761  -0.07559288 -0.00899022
 -0.38104254 -0.02521035  0.24599795 -0.1651961   0.14697248  0.32027662
 -0.39893863  0.2595811   0.12433552 -0.23812544 -0.12089016 -0.12501967
  0.2775321  -0.31337819]
[-0.18235692  0.04053269 -0.28761142 -0.40920836 -0.22901057 -0.09145118
 -0.2396285  -0.18066105 -0.01831409  0.21874742  0.2749137  -0.13522263
  0.12287415  0.02584886  0.0460927  -0.21193221  0.40018234  0.00234288
 -0.23585382 -0.10843791]
[-0.28032047 -0.13254388 -0.2617828  -0.3136994   0.2361923   0.19403838
 -0.06679405 -0.15687706  0.13163523  0.08930534 -0.28964633  0.38607454
 -0.05194554 -0.20164144  0.15245625  0.2539717   0.6166229   0.24948862
 -0.10120061 -0.49862486]
[-0.2143262   0.2987583  -0.04441962  0.34979016  0.17154062 -0.16330068
  0.07956912  0.03709022  0.03247711 -0.08330263 -0.14120269 -0.2084951
  0.3529119  -0.24418058  0.08774817  0.02794408  0.2522366  -0.44413352
 -0.25438336  0.18792458]
[-0.35946658 -0.18216169  0.07088157 -0.2369756   0.11863074  0.4615916
 -0.1863147  -0.31432658  0.09892479  0.29839206  0.13901605 -0.3327083
  0.21372259  0.22599316 -0.00311063 -0.3408283  -0.29851916 -0.41071042
  0.11737794 -0.25706178]
[ 0.02912646  0.3518725   0.20481391  0.059644    0.16262564 -0.24722306
 -0.08991645  0.26337793  0.23613057 -0.33584633 -0.07318515  0.25490916
 -0.03611869 -0.3060925  -0.36222404  0.46050197 -0.24886744 -0.3081227
  0.01253627 -0.21891314]
[ 0.15110785 -0.2462237   0.22896902 -0.11727839  0.05018312  0.072969
  0.16225775 -0.04460924 -0.5091229   0.12104104 -0.07540029 -0.11481192
 -0.12453415 -0.42083123 -0.59210783  0.04526998  0.22512513 -0.19461654
  0.03465815 -0.19323578]
[-0.17349772  0.23756285 -0.05521904 -0.33017388 -0.03697963  0.2280999
 -0.11768373  0.24212039  0.15972866  0.15730003  0.20582344 -0.42016125
  0.49754852  0.33797616 -0.28948697  0.31841946  0.15203117  0.06200265
 -0.04459541 -0.11256904]
[-0.2864759  -0.05183453  0.46918747 -0.22473781  0.27121943  0.1649804
 -0.10014103 -0.09951281  0.13375938 -0.31996784 -0.2454347   0.27543965
 -0.28383353 -0.58034277 -0.23347239 -0.13349389  0.05708183  0.53524035
  0.33574378 -0.09437636]
[-0.3233169   0.28818932  0.05035378 -0.23537931 -0.1852694  -0.23582134
  0.33957762 -0.10114463 -0.01819533 -0.03558584 -0.06336693 -0.26428428
  0.08352715  0.10508972  0.14979869  0.23163182 -0.26141682  0.01923767
 -0.1802544  -0.09447566]
[ 0.0182722  -0.05255679 -0.05377429 -0.06202434  0.31057778  0.48294896
  0.15712924  0.21312201 -0.04874852  0.21321912 -0.17742693 -0.3991926
 -0.18201068 -0.11526109 -0.42445314  0.04002111  0.2016821  -0.01987945
 -0.11562099 -0.13225713]
[-0.046808    0.42220026  0.01754726  0.14139746 -0.21496955 -0.00637343
  0.235221    0.568226    0.64908606  0.07881805  0.42428598 -0.19795783
 -0.37074617  0.01158924 -0.16895863  0.27032703 -0.28767258 -0.07245956
  0.0731445  -0.08200348]
[-0.44015965 -0.19292627 -0.41611224  0.4368908  -0.13221978 -0.2125194
  0.00801857 -0.31184664 -0.08919396 -0.12080934 -0.12486059  0.24118212
 -0.12675267  0.20019513  0.16639735 -0.06197811  0.21870251  0.46284264
  0.07470776  0.06250162]
[ 0.5884806  -0.27491525 -0.06103663  0.13838384  0.14116074  0.24702242
  0.0723342   0.10195619 -0.12603039 -0.31509444 -0.10291281 -0.02057352
  0.05905809  0.19979     0.04070086 -0.32623145  0.66222423  0.8482983
  0.05180308  0.04756341]
[-0.06554309  0.08883847  0.97018224  0.20713972 -1.0139958  -0.56524664
 -0.27959397 -0.38063988  1.1432353   0.5379013  -0.1994087   0.647344
 -0.41278458  0.80629176  1.3955544   0.47934052  0.06436873  0.6990914
  0.5840822  -0.07613797]
[ 0.07160475 -0.490539    0.00624067  0.7574564   0.18088458 -0.30641118
 -0.9832134  -0.5442976  -0.07962437 -0.6141419  -0.3809124   0.28857768
 -0.5509193  -1.144216    0.11202785 -0.7370803   0.3214794   0.13257493
 -0.2838479   0.6665054 ]
[ 0.4341173  -0.08723415 -0.3858345   0.43967646 -0.22235584  0.03100378
 -0.20064333  0.59922045 -0.45621184 -0.23086871 -0.02362114  0.19962944
 -0.45407018  0.35852322  0.27265698 -0.4348665  -0.5799113  -0.6876881
 -0.35338342 -0.1466171 ]
[ 0.1577835  -0.19780737 -0.03538688  0.11732555 -0.00066495 -0.1129714
  0.03461774  0.01472577 -0.0097303  -0.04594762 -0.04432471 -0.00769871
  0.03102907  0.02220309  0.01987481  0.00065253  0.10924782 -0.00761809
 -0.05668019 -0.02490758]
layer 1 Activation
tanh
layer 2 Dense
20 40
[ 0.15398765  0.03283237 -0.17485374  0.0060289  -0.1878087  -0.04760193
  0.03490625 -0.0071129   0.37166795  0.06458114  0.21804795 -0.11600929
  0.22468367 -0.35016093  0.14157654  0.09435084 -0.51763856  0.140355
 -0.08851677 -0.00394689 -0.15997857  0.01459741 -0.0799584   0.08221412
 -0.06103452  0.45718446  0.37936163 -0.26759762 -0.2537568  -0.24756008
  0.11831083 -0.3284567  -0.01474177  0.14461355 -0.34047303  0.01665666
  0.03507197  0.1704927  -0.10140666 -0.42441958]
[ 0.02136254  0.11746902  0.17459147 -0.02041319  0.04964361 -0.09138593
  0.2605547   0.1335758  -0.06398282 -0.11834338  0.03883363 -0.05828592
 -0.08332399 -0.1288376   0.1460149  -0.18924922 -0.04525029  0.07425912
 -0.22491255  0.22348881  0.38567936  0.19649763  0.05716604 -0.10807737
  0.15519202 -0.12298036  0.01012702  0.09363088  0.30761316  0.02404871
 -0.06499165 -0.20303765  0.01266967 -0.12313898 -0.21277298  0.02336356
 -0.1231295  -0.28914526  0.10767243 -0.19051346]
[-0.32840115  0.28528032  0.08914682 -0.14508964  0.1002224   0.25708264
 -0.17697467  0.07658163  0.20376615 -0.6114617   0.22597004 -0.06389897
  0.22204705  0.07490573 -0.4593013  -0.03444872 -0.21351424 -0.31135973
 -0.03129603  0.00730643  0.06157324  0.18015285  0.1287163  -0.31503907
 -0.02573129 -0.3814785   0.14123225  0.06548441  0.26117355  0.3123584
 -0.2089391  -0.198494    0.18435465  0.12671728  0.29336816  0.3148492
 -0.15213294  0.20281723  0.05184402 -0.21601553]
[-0.0071506   0.3231881   0.21187495  0.2672396   0.03754774  0.04938658
 -0.15593027 -0.08918729  0.21107723  0.09392513 -0.19572112  0.05387117
  0.3222183  -0.21689013 -0.23806758  0.36906356 -0.39882794  0.06656675
  0.08112472 -0.21633665  0.04935469  0.28697684  0.3875403   0.27966672
 -0.24568418  0.47640628 -0.05082775  0.20741034  0.23491548  0.24769874
  0.00746428  0.04720858 -0.42564374 -0.11743127  0.03125364 -0.08563511
  0.05487457  0.24902582 -0.00780643  0.35611436]
[-0.06247877  0.07051491  0.09874921  0.2045121   0.15194048 -0.3122826
  0.21763389  0.08284042 -0.23866507  0.35380444 -0.08970392  0.01587531
  0.10943039  0.11218764 -0.06179294 -0.02647604  0.3170605  -0.09674375
  0.33451644  0.26150632 -0.4655676  -0.151391    0.09284721  0.01331251
  0.27479425  0.18594795  0.00564556  0.12348448 -0.3128626   0.11019491
  0.12976587  0.10084108  0.07921126  0.15509531 -0.02956252 -0.33752304
  0.32372645 -0.032722   -0.0343541   0.12659448]
[ 0.05575919 -0.13638723  0.23774748  0.12393021 -0.2183453  -0.06284422
  0.22275868  0.0750626  -0.04216433  0.09279267 -0.00342852 -0.1472055
  0.18598212  0.00143505  0.2027229  -0.08596668 -0.17097762  0.13006303
 -0.00688939 -0.12918352  0.08311512  0.25309435  0.09014044 -0.0667871
  0.07251348  0.2131786  -0.28880602 -0.17819814 -0.19797277  0.21403491
 -0.08795618  0.0237429  -0.30114377 -0.17878298 -0.10141437 -0.224452
 -0.30691946 -0.02872437  0.1344497   0.08216859]
[ 0.00181718 -0.06770502 -0.10317121 -0.18895721 -0.34259927  0.01870904
  0.02017804 -0.17742997 -0.15867989 -0.2308022   0.03531537  0.0026863
 -0.18762796 -0.27904814  0.31939062 -0.28036198  0.27253264  0.2756788
  0.15556613  0.26885483  0.06602374 -0.02877085 -0.13611993 -0.2126634
  0.0709563  -0.26890773 -0.20091839 -0.31996915 -0.13340501 -0.10996614
 -0.05636927  0.14959283  0.08124678  0.13751084 -0.17743412 -0.28415415
 -0.01900478 -0.18551837 -0.13889073 -0.34880888]
[ 0.25457335 -0.2757256  -0.23842548  0.28182226 -0.15656312 -0.37674013
 -0.04534824  0.00575699  0.28448236  0.13992392  0.03193272  0.34475285
 -0.21148734 -0.35783353  0.20003809  0.11615705 -0.12151282  0.2539217
 -0.0358879  -0.17759423 -0.07552893 -0.06630822  0.33151644  0.14155218
 -0.17184576 -0.21177389  0.2529151  -0.49272764 -0.3410619   0.25600132
  0.07289529  0.3381094  -0.11008231 -0.07746006 -0.07213068  0.2383266
 -0.18617257 -0.21514916  0.1794121  -0.10046307]
[ 0.15978059  0.29343757 -0.24302228  0.21328524 -0.08734273  0.0954183
 -0.01566219  0.13533375 -0.23473823 -0.4495582  -0.3234623   0.04600382
  0.25368118  0.07106413 -0.08962404  0.04407641 -0.03360155  0.10152518
 -0.14293781 -0.0362028  -0.08589795  0.25024477 -0.00048617  0.05881618
 -0.07089491  0.03101954 -0.15397456  0.4220005   0.12757255  0.456649
 -0.1164415  -0.24428047  0.17658108 -0.26343784  0.19795875 -0.04023188
 -0.02158836  0.03861038  0.35929045 -0.33032385]
[ 0.0028848  -0.12002391  0.09115295  0.20291811  0.00880333  0.30729148
  0.2727761  -0.2412539  -0.0074175  -0.14512363  0.1190687   0.03315657
  0.00840277 -0.34446055  0.29072323 -0.11241245  0.15637389 -0.26715347
  0.25997412  0.23225245  0.23440857 -0.11720014 -0.09889744 -0.07043891
 -0.28748497 -0.0868814   0.01240095 -0.06958444  0.1033176  -0.0497402
 -0.14890815  0.04675119  0.19720286 -0.00047412  0.00663102 -0.26410353
 -0.09354925  0.10690523  0.00680546 -0.24374111]
[-0.02085984 -0.04990352 -0.00913385  0.10324056  0.21070369  0.03182241
  0.12150132  0.23510705  0.05798255 -0.06900283  0.2698232  -0.12011573
  0.15526873 -0.24350551 -0.05724073 -0.34983706  0.1388386  -0.13471723
 -0.15189481 -0.08138246  0.21449809 -0.1672028   0.23690242 -0.15203696
 -0.29732385  0.0436923  -0.07576093 -0.34672838 -0.07179609  0.2596132
  0.08180514 -0.0298597  -0.18107083 -0.25442255 -0.19004866 -0.18989001
  0.14086711 -0.12060525 -0.1437503   0.08719553]
[-0.03113756  0.31882262 -0.04411933  0.08616673 -0.09878738  0.02983593
  0.02628311  0.25587875 -0.00315123 -0.37185332  0.20975183 -0.15862823
  0.06125601  0.2697669   0.06637764 -0.10219859 -0.3215488  -0.05392973
  0.17338863  0.09485961  0.29560614  0.01645421  0.21485035  0.12832928
 -0.14974566 -0.1649326  -0.16759284  0.24373348  0.29776505  0.2896984
  0.12321363 -0.11518756 -0.19912563  0.31353843  0.16034858  0.32695508
 -0.24369402  0.06208783  0.26349792 -0.14150399]
[ 0.04621414  0.14307562  0.28328022  0.15887552 -0.08669163  0.27693412
  0.34805423  0.01706929  0.0058859   0.24183418  0.11010485  0.1816258
  0.04211882 -0.07917556  0.16281697  0.07722724  0.15523669  0.13949032
 -0.08990072  0.21857424  0.20715098 -0.02321983 -0.08775099  0.12723151
  0.07801585 -0.46156043 -0.14336652 -0.2622411   0.23260255 -0.22122917
 -0.05111822 -0.18051335  0.26238707 -0.08192582 -0.35432288 -0.30692515
  0.11725551 -0.3710138   0.22598872  0.01383704]
[-0.4661192  -0.2610672   0.09036063  0.09379908  0.312277    0.23135668
  0.4620887   0.00765257  0.3612855  -0.16337758 -0.54348075  0.6170852
 -0.39561307 -0.2772031   0.49749747  0.18566447 -0.2289141   0.15176654
 -0.05513379 -0.12824257  0.10312802 -0.51458925  0.01232433 -0.5077877
 -0.04112245 -0.60889286 -0.3554936   0.03813936  0.37690866  0.4059634
  0.398754    0.12604772  0.5561043  -0.5362388   0.5318081  -0.11729442
 -0.2252304   0.04798179 -0.38041207 -0.32231063]
[ 0.19601595  0.28862673 -0.47959512  0.19740137  0.21078195 -0.08986874
  0.08512548  0.19911139 -0.0185366  -0.24256389 -0.21026908  0.00102538
  0.07048313  0.27527842  0.22164784  0.29149857 -0.26851243  0.11498852
 -0.1696444  -0.18312204  0.47073492 -0.22537115 -0.4671942  -0.43476588
 -0.19052573 -0.21414816  0.23745477  0.23575015  0.38775477  0.06942429
  0.01698302 -0.3055875   0.36634755 -0.07525177  0.5908949   0.37054217
 -0.10820845  0.39622208  0.05129433  0.14313349]
[ 0.00833202 -0.23250306  0.0130852  -0.32486418  0.38639235  0.32217547
 -0.13008693 -0.09539829 -0.3211301  -0.3759291   0.1595948  -0.08549664
 -0.16735779 -0.21267608  0.18226829 -0.10435283  0.38748398  0.14989707
 -0.4268593   0.30642587  0.15670584 -0.11048915  0.2505618  -0.15660034
  0.40040174 -0.10165481 -0.07708839 -0.00473524 -0.10518085  0.34791934
 -0.15345581  0.12404007  0.04129932 -0.43457195 -0.11981521 -0.02135761
 -0.3251788   0.15899792 -0.06087024  0.00170448]
[ 0.10986705  0.24400848 -0.381767   -0.20775095 -0.28112248  0.2616554
 -0.0436106  -0.1239154   0.19975324  0.2369155   0.47107378 -0.2045534
  0.3005792  -0.33321926 -0.14098121 -0.03123105  0.3169091   0.21999525
  0.01169789 -0.3536126   0.00650069  0.15997373  0.2217538   0.2815001
 -0.07636959 -0.12586279  0.1737805   0.14286387  0.10077384  0.33057377
 -0.01690213 -0.03857585 -0.24486303 -0.06822181 -0.3019894   0.21113099
 -0.05536584 -0.26877668  0.04916651 -0.00247458]
[ 0.31304103  0.21346648 -0.03340843  0.18681705 -0.22699296  0.4656913
  0.03321914  0.02049227 -0.01115942 -0.2909989   0.18708526 -0.0014367
 -0.17845659  0.143196   -0.30686104  0.01037403  0.2683704   0.06870687
  0.1185788  -0.19791254  0.49043694 -0.33268082 -0.11800785 -0.17974378
 -0.42751887  0.276271    0.20906204  0.6299319  -0.32665163  0.11897317
  0.14107044 -0.03204253  0.10004205  0.07214703  0.1657      0.03048705
 -0.08833449 -0.09291273 -0.26090384 -0.3128166 ]
[ 0.18428876 -0.20185079 -0.17142788 -0.16188793  0.25124767  0.3771252
  0.05839506 -0.1349261   0.25282478 -0.11315373 -0.05221441 -0.12724422
 -0.04512374  0.24319842  0.06607261 -0.11358261  0.18063003  0.16193366
  0.15731062  0.12811707  0.191158   -0.23829275 -0.16724013 -0.04245647
  0.09255228  0.13929968  0.29177174 -0.14988378  0.35444242  0.4327763
 -0.27011588 -0.02069828  0.09584723  0.02847884 -0.15131354  0.44494805
  0.2981246   0.2387393  -0.18485488  0.22917923]
[-0.25986966 -0.03753325  0.15222503  0.15404658 -0.0156235   0.27732056
  0.03159263  0.0359531   0.06571647 -0.04019141 -0.17333083 -0.05716418
 -0.03134079 -0.10547303 -0.08170856 -0.17183147  0.21378857 -0.2513314
 -0.18737334 -0.33038598  0.07554296  0.1701196  -0.14636062  0.25207844
 -0.14677408  0.33875507  0.20688888 -0.02564394 -0.19333479 -0.09911968
  0.06625126  0.21297973 -0.37746453 -0.18346925  0.05431982  0.2184797
 -0.15265276  0.06104028 -0.09680331  0.29904974]
[ 0.11482577  0.0108474  -0.15221354  0.03783719 -0.04274593 -0.00169906
 -0.0160517  -0.01632571  0.04075499  0.09144484  0.16947529  0.02805004
  0.02678233 -0.08106798  0.02201106  0.0158211   0.0124789   0.01857034
  0.02761121 -0.05594718 -0.05169212 -0.07275664  0.02933429  0.03417105
 -0.13346064  0.14664587  0.06290544  0.01945309 -0.03398694  0.07707433
  0.03060895  0.02518798 -0.09384452  0.02791633 -0.13954116  0.00461149
  0.02184493 -0.0331454  -0.03731053 -0.05059574]
layer 3 Activation
tanh
layer 4 Dense
40 20
[ 0.28947142 -0.16061826  0.16966847 -0.12038942  0.01654311  0.00968918
  0.23085424  0.06493231 -0.08461391  0.05025028 -0.00503909  0.1519095
  0.21423122  0.2842524   0.21177249  0.07867463  0.22059835 -0.06804245
 -0.29097322  0.26823658]
[-0.0509004   0.17832386  0.1272375  -0.09751955 -0.08250761 -0.07546643
  0.33178887  0.16637303 -0.31747404 -0.16781527  0.16179414 -0.33351582
 -0.23769389  0.1357901  -0.2147768   0.03806785 -0.22742888  0.5878299
  0.06695125  0.20916587]
[-0.15327355  0.1232807   0.04312561 -0.2606909   0.2084825   0.1644927
 -0.29646215 -0.44908208 -0.0815898   0.02756005  0.02705675  0.2587248
 -0.15321    -0.22075011 -0.0940893   0.21217301  0.02119081  0.12418803
 -0.05341335 -0.2864121 ]
[ 0.04788916 -0.16868694  0.16509879  0.16914381 -0.21350962  0.35143527
 -0.16450736  0.09650376  0.09754087 -0.20177674 -0.18331102 -0.21996418
 -0.30272666  0.3062396   0.095909   -0.2115476   0.07464687  0.12685157
 -0.19322938  0.14818247]
[ 0.5114236   0.15496211 -0.25747362 -0.02380634 -0.3227888  -0.09994669
  0.18288234 -0.3622951   0.17992675 -0.16150749 -0.11782357 -0.0201133
  0.17383909 -0.19843738 -0.1673484   0.00291352 -0.04189787  0.09146388
 -0.13889034 -0.13838884]
[ 0.15420905  0.05015235  0.32103935  0.03462887 -0.24652319  0.33551157
  0.42694262 -0.0279833   0.2094705   0.23481205  0.09599122 -0.07142448
  0.1361924  -0.11831771  0.23353559 -0.00070892 -0.13537844 -0.230085
 -0.04227023  0.04772365]
[-0.20342118  0.13744003 -0.04402963  0.05733128 -0.35319906  0.29752257
 -0.12668741  0.20875964  0.27694216  0.28238222  0.05943638 -0.07645062
  0.0476649  -0.13750367  0.09766468  0.00294865 -0.15949121  0.24182034
 -0.29339528 -0.1452169 ]
[ 0.06654689  0.20390657 -0.14489524 -0.17569566 -0.15158215  0.20421103
 -0.09340779 -0.01917591 -0.15279877 -0.02888227  0.04485906 -0.15370822
 -0.01849625 -0.07254297 -0.16599818 -0.13831244 -0.18128021  0.04823769
  0.03210331 -0.04801566]
[ 0.0627998   0.11865334 -0.14200242 -0.26043117 -0.00258428 -0.09361695
  0.20240553  0.39373314  0.32666048 -0.15730096 -0.09248394 -0.17759196
 -0.27955645 -0.24989021 -0.1232717  -0.14314711  0.27664384  0.12316144
 -0.12636678  0.2560415 ]
[ 0.13567804  0.16036963 -0.04160605 -0.09751417  0.35526803 -0.266283
 -0.24966493  0.38168243 -0.25843123 -0.33404142  0.34907714  0.22206804
 -0.22711667 -0.04403872 -0.10875753  0.35188314  0.23348461  0.01189698
 -0.22495914 -0.26351875]
[ 0.02773135  0.22487776  0.14825837  0.01392529  0.05212424 -0.19113523
  0.0379725  -0.25320244  0.02689923  0.32410973  0.0363186   0.2734396
 -0.00252518  0.11047756  0.10639956  0.24119721  0.17658198 -0.05159562
 -0.30751756  0.35961875]
[ 0.04949648 -0.0304969  -0.02567306 -0.33077773 -0.53702885 -0.20496249
 -0.08070877  0.32550812 -0.1776607   0.18968338 -0.19094948  0.11917698
 -0.00077435 -0.17971486  0.2160395   0.17584881 -0.12062377  0.06631781
  0.15738153 -0.20239004]
[-0.0301077   0.13377556  0.00351826  0.09323145  0.04941233 -0.2413338
  0.12960204 -0.00925273  0.09709843 -0.2399205   0.15023512 -0.04954493
 -0.32674348 -0.12824988  0.1419622   0.17881137 -0.3414917   0.24043372
 -0.18084261 -0.0256091 ]
[ 0.22924738 -0.31267956  0.26282617  0.01705845  0.35874304  0.23615074
  0.20231852 -0.35217014 -0.04332894 -0.3848353   0.11694838  0.0115685
 -0.03658762  0.10976254  0.00273272 -0.26911646  0.20766154  0.4884595
 -0.19982895 -0.14446731]
[ 0.02229574 -0.01613806 -0.08708654  0.2694346  -0.00515216  0.09624006
 -0.2413578   0.45990407  0.05944047  0.15522985 -0.30856076  0.27722907
  0.12602513  0.02996423 -0.22677246  0.1412744  -0.11995656  0.12597841
  0.22266197 -0.20777573]
[ 0.20231579  0.13313566  0.2058616   0.11033603 -0.02878799 -0.0831376
  0.08253916  0.26920593  0.16692053 -0.22121792 -0.15847619 -0.10053199
 -0.07415994 -0.1018578  -0.1530547  -0.18306907 -0.23061655  0.08528014
 -0.06782394 -0.1080063 ]
[-0.2552834   0.337402    0.16009226  0.06251512  0.12717564  0.27147546
  0.18005367 -0.3652748   0.30447146  0.01152315  0.27757362 -0.2256688
 -0.21847631 -0.00640222 -0.08326379  0.39400312 -0.00058248 -0.39356485
 -0.09244521  0.15810487]
[ 0.16394193 -0.05557512  0.02186176 -0.24559198 -0.42457175 -0.18310906
  0.07317247 -0.01540586 -0.16590972  0.3611463  -0.12726519  0.11992507
 -0.20841078  0.02566463  0.3079111   0.11085484  0.15592368 -0.32100734
 -0.20512477  0.00893111]
[ 0.04012807  0.02875123  0.10005847  0.313464   -0.09352779 -0.19795766
 -0.02749972  0.0750097   0.02357906  0.05486879  0.1955433  -0.14419396
 -0.07475769 -0.33198613 -0.23587242  0.08913715 -0.24446346 -0.03083038
 -0.33504847 -0.11357576]
[ 0.21481504 -0.11493984 -0.17333996 -0.06593991  0.09271164  0.23212713
  0.01991774 -0.23130246  0.11429149 -0.1534804  -0.2964806   0.33369932
 -0.22214228  0.21555094 -0.13404101  0.21504319  0.10158268 -0.28232026
  0.05039316 -0.25140476]
[-0.06189828  0.12245779 -0.1363017   0.03293889 -0.24014279  0.32469147
  0.31515938 -0.08372466 -0.20260994  0.0064198   0.08937273  0.00555386
  0.26233047  0.02156489 -0.22844172 -0.28166372  0.19016778 -0.2300754
  0.09421754  0.3253611 ]
[-0.26165006  0.00910249  0.1951749  -0.02371529  0.315568    0.14983612
 -0.09829781 -0.37382445  0.15776809 -0.36632577 -0.00541085  0.05377302
  0.23854277 -0.15037905  0.24145053  0.15236215 -0.10205154  0.08740068
  0.04524761  0.08707117]
[-0.06283613 -0.0097047   0.1826493  -0.10510065 -0.00575019 -0.03854251
 -0.06294165  0.09809934 -0.09531649  0.0287466  -0.04940236 -0.18908156
  0.29794055  0.13983534 -0.16082604  0.19779533 -0.24340205 -0.27786478
 -0.1724989   0.23552792]
[-0.08153927  0.16791813  0.2537238  -0.1453963   0.19465558  0.16180359
  0.2409654   0.22754017  0.06776907  0.0536112   0.2788104   0.1045206
  0.36197394  0.08436528 -0.28175235  0.37904623  0.06377883  0.36708072
 -0.2438523  -0.03560882]
[-0.0384553  -0.18173982 -0.27127177  0.14579822 -0.03807066  0.10404292
 -0.07400255 -0.3424188   0.2785715  -0.15931742 -0.16934296  0.13767554
 -0.19668323  0.24335475  0.11259117  0.3438077  -0.1717962   0.24496199
  0.1224347   0.06719282]
[ 0.03806432  0.04600003  0.22084461  0.2136822  -0.17061685 -0.2628399
 -0.02699173  0.17253882  0.10525464  0.0713449   0.02397668 -0.13485023
  0.09694952 -0.03506019 -0.09137139  0.28174475 -0.2896132   0.0663521
  0.20888509  0.31778085]
[-0.18308638  0.04370577  0.09009641 -0.28653434  0.28905082  0.10580216
  0.16727123  0.19057573 -0.19773568 -0.08573498  0.14483206 -0.21450517
  0.19660477 -0.1938198  -0.11034023 -0.18800022 -0.00602362 -0.12377606
 -0.21336447  0.2198352 ]
[ 0.007321   -0.11757714  0.35363168 -0.06791138 -0.2673996   0.03211304
  0.2951899  -0.27183956 -0.14519924 -0.16916583  0.3376938  -0.4657008
  0.20357671  0.181506    0.12754855 -0.22389023 -0.2544903   0.1775683
  0.27678978  0.30036741]
[-0.05685893 -0.09161364 -0.14835308  0.0141127  -0.21398062 -0.06990685
  0.46364418 -0.2503495   0.0134084  -0.08314583 -0.2646782   0.12112893
 -0.06158056  0.23421332  0.2658879  -0.37697175  0.09901674  0.40903547
 -0.22350024  0.05658701]
[ 0.14330661 -0.27119753  0.2833982  -0.2962629  -0.20132242 -0.09970125
  0.16390704  0.12839857 -0.0275077   0.30362868 -0.29130605 -0.27278176
 -0.14037985 -0.03259305 -0.0948738  -0.03903966 -0.285171   -0.13309726
 -0.0463776  -0.24134365]
[-0.18348593  0.22298561  0.14527766  0.02379461 -0.25275004 -0.10243136
 -0.00605439  0.413965   -0.3128441  -0.03666244 -0.05694252  0.10533453
  0.17030038 -0.22193483  0.15693885  0.13632725 -0.22800219  0.13803862
 -0.22564425 -0.18645404]
[ 5.5690099e-02 -4.6022452e-02  2.4378457e-04 -2.9400015e-02
 -5.8135077e-02  1.1796598e-02 -1.7214851e-01  2.6606002e-01
  3.9742216e-02 -1.6703817e-01  1.5388510e-01  3.2242236e-01
 -2.6207266e-03  9.0167612e-02  1.8125953e-01  1.7913564e-01
 -7.9773314e-02 -3.0899236e-01  2.4494249e-01  2.4072844e-01]
[ 0.04075108 -0.00685219 -0.29791108 -0.12644996 -0.19762443  0.19230478
  0.19408828 -0.09003869  0.06674106  0.26733527 -0.29346892  0.29977998
 -0.23933463  0.33889827 -0.13688949 -0.1431576   0.06200578  0.1556263
  0.0585463  -0.22123258]
[ 2.47442955e-03 -1.73412472e-01  2.30941370e-01 -2.33637437e-01
  4.33059633e-01 -2.95060873e-01 -1.63681626e-01 -3.11451107e-02
  1.04009837e-01 -2.67748952e-01  3.64214808e-01 -8.17416161e-02
 -1.02453254e-01 -1.48119941e-01  2.60862231e-01 -1.80931658e-01
  1.02161415e-01 -1.24184997e-04  6.85036480e-02  1.85192421e-01]
[-0.20565708  0.19024312  0.0903976   0.1730029   0.08900189  0.15771604
  0.14468879 -0.10354483  0.03688251 -0.08222094 -0.22691922 -0.07064801
 -0.09434943 -0.29625708  0.01421262 -0.23683363 -0.05635346  0.29876238
  0.13236445 -0.32137817]
[ 0.23191564  0.07352135  0.18504949  0.15985428 -0.07975166 -0.16235006
  0.2827953  -0.3608188  -0.16553997  0.10014018 -0.23456955 -0.38631514
  0.07638408 -0.333414    0.09351495 -0.27453774  0.16043794 -0.0437993
 -0.3100758   0.01156905]
[ 0.13944982 -0.27414834  0.22414595  0.04509837  0.29249758 -0.16065444
 -0.18870316 -0.13229701  0.15870547 -0.03869315  0.03211682  0.03909658
 -0.18089738 -0.09437028 -0.19889571  0.00119239  0.25395188 -0.20384648
 -0.22752981 -0.3038995 ]
[-0.16396235  0.03006744  0.22516178 -0.18032628  0.00240592 -0.3064505
  0.2358675   0.1980423   0.22954565 -0.10746022 -0.31531358  0.01797653
 -0.01343355 -0.2972538   0.10774779 -0.0202573  -0.11889204  0.20060527
  0.02869707 -0.11048952]
[-0.06278295 -0.01612327  0.0444365   0.04615241  0.31773365 -0.20165552
  0.21423401 -0.10930707  0.03850343 -0.19918163 -0.0459745   0.35292175
  0.03084297 -0.10611302  0.19867136  0.21293445 -0.16275476  0.28597128
  0.19725768 -0.01128335]
[-0.03841514 -0.1144459   0.03641808 -0.06391162  0.5774662  -0.30107078
 -0.25628874  0.11003003 -0.01540046 -0.16977562  0.22118077  0.06922494
  0.14509326  0.14584129  0.14167443 -0.08751358 -0.03995164  0.39353275
  0.15290935 -0.09883542]
[ 0.11563197  0.03755252  0.02792246  0.01456825 -0.02532959 -0.01662136
  0.0120524   0.08876274 -0.00486997  0.02505864  0.00272762 -0.07570168
  0.01361787 -0.00701594  0.00607359  0.05568721  0.00382492 -0.0429216
 -0.04990058  0.08002324]
layer 5 Activation
tanh
layer 6 Dense
20 1
[0.00128115]
[-0.04781977]
[0.27662057]
[0.01881281]
[-0.10736534]
[0.04781812]
[0.31490228]
[-0.11104328]
[0.00938132]
[0.10862372]
[0.30791044]
[-0.15253201]
[-0.00290299]
[0.12168276]
[-0.01467489]
[0.28481698]
[-0.07284378]
[-0.16770084]
[0.10736833]
[-0.14921202]
[-0.01079633]
