layers 7
layer 0 Dense
20 20
[ 0.10242688  0.15617411 -0.21453549 -0.31793952  0.29964826  0.14375798
 -0.18924265 -0.34941787  0.19510561 -0.14761376  0.21782874 -0.21746059
  0.1971538   0.2966408   0.4120389  -0.29297793  0.07974394 -0.3474684
 -0.3711119  -0.1065471 ]
[-0.45547602 -0.5832703  -0.03923167  0.14844206  0.24497023 -0.34885085
  0.40779793 -0.04918893  0.08252443  0.17577307 -0.1421087  -0.57042307
  0.5308449   0.48477703  0.5456305   0.08933562 -0.6509347  -0.04722678
  0.2326674   0.44992778]
[-0.67646396 -0.11154816 -0.13241842 -0.26488647 -0.0288635  -0.20739983
  0.03749656 -0.08762722 -0.34380314  0.5282171   0.26369655 -0.642734
  0.19390151  0.5126365   0.7988307   0.06412286 -1.0580913   0.28228855
 -0.20180835  0.27464536]
[-0.09010456 -0.43947998 -0.39929274 -0.4825297  -0.08319443  0.15428512
  0.03418267  0.42471114  0.35660982  0.2841194  -0.03502768 -0.26121414
  0.23009193 -0.1783353   0.5146364   0.03593541  0.2996172   0.17478311
  0.22062518  0.21674606]
[-0.35178828 -0.17640391  0.05996839 -0.06291071  0.1763728   0.20281936
  0.23344702 -0.00462817 -0.01911938  0.29348814  0.16378629  0.07138195
  0.5444573   0.10755032 -0.45752785 -0.17041983 -0.00593053  0.3966886
  0.5659014  -0.01323474]
[ 0.48179507  0.4366457   0.4085251   0.11569478 -0.46060735  0.3203572
 -0.34801188  0.12335458  0.16873577 -0.25058776  0.190345    0.07405128
 -0.38784522 -0.15383507 -0.47590294 -0.0428269   0.9638508  -0.20003107
  0.29996455 -0.5901341 ]
[ 0.53717643  0.34075013  0.43543017  0.3526327  -0.07679159 -0.10853501
 -0.52238756 -0.2212336   0.16771762 -0.20300087  0.19440447  0.09399454
 -0.32042727 -0.7432747  -0.627349   -0.6403706   1.2504835  -0.4188173
  0.02532244 -0.64935935]
[ 0.34028378 -0.0244878   0.3860186   0.04203631 -0.43267512  0.0889005
 -0.02833809 -0.3044023   0.06772217  0.21863464 -0.04071049  0.33085933
 -0.5825134  -0.67729145 -0.2294907  -0.05373182 -0.13741527 -0.5304671
  0.1714401   0.17864156]
[-0.35290337  0.35548866  0.5194578   0.35713986  0.05227382 -0.13224515
 -0.19720705  0.05737508  0.34834316  0.23992932 -0.29761901 -0.17611513
 -0.01483889 -0.12359103 -0.2601167   0.04058651 -0.39437422  0.23196287
  0.45285255 -0.08046316]
[-0.05530294  0.4784801  -0.63004524  0.3577189   0.23363991  0.43494728
 -0.29604343  0.346597   -0.16329949  0.3622355  -0.37603593 -0.11223688
  0.37120736  0.30058882 -0.37437016  0.7541264   0.19054     0.02796465
  0.55252534 -0.46281037]
[ 0.16445334  0.13272011  0.5214192  -0.0997979  -0.50136644  0.05812854
 -0.7686221  -0.35424775  0.21619266 -0.07413971  0.14073665  0.1901153
 -0.44777867 -1.053368   -0.13605389 -0.91448414  0.7233191  -0.11402126
  0.12068974 -0.7368016 ]
[-0.63718945  0.40625888  0.60765296 -0.33743092  0.05139698  0.15867288
 -0.1028776   0.24298923  0.70073086  0.86126065 -0.16382477 -0.08839323
  0.3102049  -0.21613646 -0.07850069 -0.1362438  -0.02626184  1.2976686
  0.92417246 -0.10019059]
[ 0.78247344  0.10866383  0.06261898  0.07341284  0.1776991  -0.16691703
  0.6745524  -0.7179337  -1.11883    -0.28194866  0.5163933   0.46064907
 -0.7424931  -0.22823673 -0.1464643   0.46981448  1.2310183   0.31960994
 -0.51658314  0.18362764]
[ 0.0313753   0.28350946 -0.11190835 -0.21149835 -0.09211701  0.14713539
 -0.30459398  0.4281599   0.33463448  0.1999152   0.42918238  0.27984148
  0.4132569   0.24148262  0.6090236   0.22075695  0.11669683  0.18762977
 -0.01065214 -0.39618242]
[ 0.55619496  0.00399254  0.21998015 -0.39701417 -0.07794771  0.10976768
 -0.10573187  0.18529736 -0.0177327  -0.04144496 -0.19723815  0.32958198
 -0.18891901  0.4878482   0.320924    0.42337674 -0.19347253 -0.07727341
 -0.3653461  -0.29383668]
[-0.5867935  -0.11246936  0.14949863 -0.25690284 -0.07465439  0.594541
  0.1871528   0.56470644  0.9760522   0.11026093 -0.5161383  -0.2951558
  0.47715256  0.24393289  0.41059956 -0.449685   -1.1017742  -0.95612746
  0.4857479  -0.18774334]
[-0.11437798 -0.21293832 -0.26638693  0.02182583 -0.36406255 -0.03138031
 -0.3362086   0.24930267  0.5082703  -0.00792092 -0.7689569  -0.46434635
  0.6069016   0.34608784  0.19974984 -0.18233217 -0.7723118  -0.6579325
  0.11984476  0.04464283]
[ 0.2952444  -0.25373018  1.32657     0.07310314 -0.6250381  -0.00436736
  0.09944782 -0.5857682   0.11310033  0.44745943  0.4158471  -0.4603014
 -0.5479653   0.09248561 -0.16633894 -0.1568374  -0.38057768  0.14683379
 -0.7073612   1.3731167 ]
[-1.1631712e+00 -7.9161769e-01 -8.8689357e-01 -4.5719433e-01
  6.6093689e-01  2.5236008e-01  2.7719063e-01 -6.6460627e-01
 -8.3074158e-01 -4.2687300e-01 -3.4546834e-01 -8.6537689e-02
  7.4434280e-01  2.6398167e-01 -4.6140794e-04  1.7376009e-01
 -7.4886680e-01  2.0264903e-01 -6.1852270e-01  6.7884380e-01]
[ 1.0317209  -0.82144177 -0.6377977   0.43961298 -0.83872193 -0.45485356
 -0.17391868 -0.9747114  -0.7705885  -1.4732507   0.5691757  -0.13325796
 -1.4092499  -0.5857743   0.04044645  0.3598128   0.17132695 -0.72412443
 -1.8640612   0.20591559]
[-1.79136582e-02  5.60039617e-02 -8.86012167e-02 -2.09057584e-01
  6.31118491e-02 -4.90104146e-02 -6.78408891e-03  6.14624657e-02
  1.05068997e-01 -8.92116409e-03  1.23749435e-01 -7.79581890e-02
  6.92912489e-02  1.89156443e-01  2.18589276e-01 -5.36423139e-02
 -1.80008006e-04  9.70626250e-02 -4.34469208e-02 -1.03529073e-01]
layer 1 Activation
tanh
layer 2 Dense
20 40
[-0.4550633  -0.32080293  0.0562996   0.83325976 -0.23766933 -0.5506526
  0.128829   -0.17462915 -0.4641663   0.10183169 -0.2965343  -0.31060335
  0.21255991  0.05281912  0.13996093 -0.243939    0.30281022 -0.08973221
 -0.01263588 -0.07713443 -0.30229798 -0.4417617  -0.6016171  -0.1667886
  0.4207643  -0.00386119  0.36016607 -0.54163665  0.02853555 -0.00940176
  0.19834104 -0.29073864  0.13946874  0.14671822 -0.02344242  0.24672958
 -0.3667315   0.16432413 -0.3510776  -0.63421035]
[ 0.1539528   0.41048202 -0.05010871  0.37798974 -0.07421837  0.05980269
  0.13550341 -0.10466271 -0.01444276 -0.06062784 -0.0912144   0.00586163
 -0.22269404  0.14745001  0.20085336  0.04716296 -0.5510932  -0.04023176
  0.08897836 -0.24195923  0.01494762  0.01101159 -0.03979787 -0.12389058
 -0.0671921  -0.10118883 -0.04069703 -0.25965542  0.09898525  0.18317321
 -0.169003   -0.0265177   0.19240436 -0.43190175  0.11764939 -0.17462973
 -0.24834655  0.08233284 -0.19288535  0.40206626]
[-0.01316179  0.16207884  0.08749161  0.05955961  0.10400362 -0.3139272
  0.07617491  0.0986334  -0.3944094   0.48046342  0.0277674   0.00986497
  0.11797461 -0.23570652  0.12181604  0.01633118 -0.3805288   0.01172115
 -0.11361494 -0.31543112 -0.0058049  -0.08303218 -0.16764598 -0.07176507
 -0.27801418  0.22012104 -0.60837823 -0.32814077  0.19517392 -0.121346
 -0.12283336 -0.08496661 -0.20998403 -0.27237263 -0.06902645  0.22259153
  0.19195113  0.06706316 -0.02471326 -0.47560877]
[-0.04126732 -0.12385194 -0.11776991  0.18194948 -0.35246503 -0.21303539
  0.11361305  0.04357781 -0.15873966  0.07081167 -0.01654876 -0.20325112
 -0.30574927  0.02751276  0.11033835 -0.0114557  -0.16355413 -0.12804346
  0.09267217 -0.18293948 -0.15510532 -0.22492312 -0.1887025   0.2494415
 -0.16254999 -0.1398348   0.01900765  0.00140009  0.02561011 -0.1677426
 -0.008576    0.26148188  0.12541845 -0.3576592  -0.0295848   0.2032964
 -0.23764436  0.10925742 -0.06929887 -0.04548403]
[ 0.22778627  0.31711087 -0.1634393  -0.28104225  0.04141487  0.18338536
 -0.27845642  0.07884524  0.02827727 -0.31007522  0.12532878 -0.16296831
  0.18777914  0.2964094   0.1444073   0.12166588  0.25339827 -0.05205639
  0.28772017  0.43176168 -0.11459367  0.10683718 -0.24833047  0.2672194
  0.37818852  0.27245498  0.12163127 -0.19043568 -0.02215167  0.04323443
 -0.042151    0.3900717   0.04051736 -0.21037659  0.13689739  0.28147322
  0.12482633  0.08672852 -0.07277935  0.3632612 ]
[ 0.24597882  0.46009028 -0.03176896 -0.06253034 -0.05045684  0.04289364
  0.07164278  0.0803501   0.01292567  0.0045868  -0.10198996 -0.10320667
  0.09949623 -0.11989236  0.06220476 -0.22974446 -0.13205135 -0.07682293
  0.0834168  -0.16557088  0.01074581 -0.02135521  0.06999429 -0.06290574
 -0.02862652 -0.02138941  0.1526499   0.2835242   0.00592229 -0.14024779
 -0.17000076  0.42472598 -0.11003047  0.10069687  0.05292428 -0.20476848
  0.01757323 -0.1514715  -0.1432348  -0.00502015]
[ 1.37597382e-01 -1.05369315e-01  2.97810268e-02 -9.61069316e-02
  8.29536989e-02  2.74042785e-01 -1.01444811e-01 -1.71060205e-01
  1.18417367e-01 -3.54483217e-01  2.45608941e-01  1.27840891e-01
 -1.83661003e-02  1.51361348e-02 -1.11727625e-01  1.78846009e-02
 -1.67048007e-01  1.36678293e-01  3.65899742e-01 -1.41511962e-01
  8.58529359e-02  1.18698291e-01 -2.70452023e-01 -8.92660245e-02
  3.51939082e-01 -2.00607199e-02 -4.91678745e-01 -1.90750197e-01
 -8.08300897e-02  6.67575805e-05  8.80400464e-02 -4.64085080e-02
 -3.14772986e-02  1.61848247e-01 -5.32233194e-02  5.56815714e-02
 -9.34315771e-02  6.84259012e-02  3.04418840e-02 -4.23841536e-01]
[-0.2818976   0.34274128 -0.1643659  -0.15517272  0.1884609  -0.23516627
 -0.00669836 -0.03791361 -0.16434501  0.00502084 -0.11790125  0.11383318
  0.4177259  -0.05142007 -0.15601544 -0.04111838 -0.34558472  0.08798944
 -0.32317716 -0.29015806 -0.10111146  0.21525049 -0.04015677  0.36237627
 -0.14187677  0.03053578  0.6135488  -0.38070026 -0.10393657  0.66732115
 -0.33905867  0.26979038  0.19053629 -0.27733228  0.3988254   0.0509497
  0.14244276 -0.05745958  0.21907353  0.253447  ]
[ 0.18388624  0.20330785  0.03764352 -0.1048456  -0.10948823 -0.29331246
  0.47898576  0.31353155  0.43004054  0.35373202 -0.42484713  0.08545972
  0.7675221   0.3522046  -0.07423059  0.01415515 -0.70434874 -0.08555408
 -0.4276496  -0.09520697  0.38814995 -0.12054481  0.21200897  0.47399515
 -0.11468145 -0.43027958  0.08052888 -0.10098995  0.11993247  1.0285194
 -0.23795891 -0.0811148   0.1792307  -0.17567308  0.29192203 -0.08204771
  0.3295999  -0.26647255  0.15622728 -0.22311704]
[ 0.1574299   0.53514266 -0.1476625   0.5360185   0.12360811  0.08815574
 -0.14929253  0.23885602  0.13909353  0.04244939  0.32553363  0.14151841
 -0.02485233 -0.23383188 -0.00881901  0.1751577  -0.4595498   0.10962448
  0.29156378 -0.34104365  0.21211836 -0.17327972 -0.0194474   0.19756682
  0.14081225 -0.31205964 -0.01992077 -0.25493136 -0.06292432  0.32132572
 -0.13712826 -0.5203761  -0.26996484 -0.13782799  0.48577943 -0.4514407
  0.19801924  0.15411459  0.208318    0.19376878]
[ 0.10169039 -0.14171436  0.18737532  0.18687835 -0.57244456  0.130538
 -0.14148673 -0.13276394  0.18440543 -0.3453453  -0.5088946  -0.16103676
  0.1966426  -0.09237834  0.03412977 -0.0995821   0.16193528 -0.09836285
 -0.3538312   0.17895167 -0.02144554 -0.18511696 -0.03104299 -0.68001366
  0.43782946  0.22347976 -0.19463927  0.11209325  0.0980057   0.19184269
  0.46701095 -0.34093532  0.2641507   0.49870563 -0.47522935 -0.41057292
 -0.08722489  0.28156117  0.02659897 -0.01251693]
[-0.22724763  0.2516398  -0.11626055 -0.3289057  -0.28940618  0.08956666
  0.25973862  0.02928207 -0.09680697 -0.08611129 -0.16178927 -0.09167159
 -0.05914672 -0.08788407  0.04517468  0.00867402 -0.25682884 -0.14504017
 -0.057277    0.37387592 -0.3895812  -0.47204474 -0.60245675 -0.18570727
  0.47157666  0.19056948  0.02075393 -0.32067344 -0.13266052 -0.33819535
  0.15514624  0.15652497 -0.06097104  0.0675579   0.25688696 -0.05175767
 -0.09892951 -0.01292852 -0.29336217  0.16322812]
[ 0.47427303  0.78368056  0.19396986 -1.1085217  -0.09942262  0.51807404
 -0.07165655 -0.0632562   0.15152937  0.24221629  0.19601972  0.26914555
  0.42716032  0.24847786 -0.21554655 -0.10098241 -0.27752233  0.5992731
 -0.16361286  0.51923746 -0.14101714  0.0582442   0.34259614  0.30128443
 -0.32090023 -0.32635716 -0.54557884  0.54741436  0.02106763  0.09702974
 -0.23379415 -0.10676075  0.16628794 -0.3118751   0.74130774 -0.11991381
  0.27268115 -0.06306421 -0.03864592  0.45429346]
[ 0.25180867  0.62900615  0.20346966  0.25541687  0.2715195   0.10557359
 -0.07959126  0.08595885  0.11569987 -0.11083271  0.15285109  0.18303585
 -0.09390409  0.02348927 -0.25091916 -0.0303195   0.24994332 -0.16570145
 -0.16796742  0.42744762  0.02847068 -0.21649875 -0.15624858  0.22984615
 -0.22478162  0.10876807  0.17361592  0.10457747 -0.10998733  0.46642488
 -0.40545693  0.01490747 -0.18553935 -0.13710947  0.15400442  0.2074555
 -0.16451123  0.1321799   0.20369214 -0.4088827 ]
[ 0.3662586   0.2153086  -0.12664872 -0.22342908  0.18799655  0.30182543
  0.02718853  0.1077522   0.19603574 -0.06035623 -0.17232937  0.34850702
  0.08078085 -0.14654753 -0.08760901  0.24044733  0.37986323 -0.14925995
 -0.09581931 -0.27417958  0.19881532  0.17725407  0.03126139  0.055269
  0.03936126  0.06823943  0.00974682  0.2374806  -0.13397324  0.69268805
  0.12831019  0.22633262 -0.07387383 -0.3499381   0.0290694  -0.06345029
  0.4248178   0.18831088 -0.1223451  -0.4504219 ]
[-0.41766292  0.4725761   0.09389404  0.13674477 -0.12113318  0.1471445
 -0.1682345   0.04144135 -0.10467301 -0.02700085  0.43327573 -0.39365724
  0.15489537 -0.00668954 -0.07560326  0.10023259  0.4651868  -0.04870683
  0.401287    0.48336202 -0.31385234 -0.42169496 -0.0294265   0.07074877
  0.06700987  0.24176913  0.40784144 -0.14963827 -0.20413762 -0.36961114
 -0.3998685  -0.05610865 -0.09880415 -0.12835047 -0.01958267  0.5408685
 -0.80306625 -0.08510852  0.14609428  0.22295402]
[-0.03290115 -0.61857563  0.13059093 -0.07347029 -0.5223756  -0.2887272
  0.1797451   0.12129031  0.22554134  0.1125659  -0.40988147  0.06847854
 -0.38597795 -0.22452255  0.10905161 -0.02874965  0.19842069 -0.06618146
  0.06658072  0.19667721 -0.09934334  0.17779912 -0.30101612 -0.49673375
  0.03385507 -0.07663822  1.105593   -0.3647595   0.16133472 -0.40480852
  0.10503795  0.06040897 -0.10795671 -0.05212912 -0.4290843  -0.33914158
 -0.04802831  0.11205994 -0.24299897  0.37225816]
[ 0.27840227 -0.13730107 -0.08218192  0.24175042 -0.11025053  0.3024053
 -0.32301888 -0.05965599  0.10626993  0.02167755 -0.20307831  0.16960686
 -0.1217661   0.3174357   0.22555526 -0.33106154 -0.29011628 -0.28845888
  0.15310276  0.263521    0.22621262 -0.32741314 -0.10286298 -0.34601998
  0.10168731  0.0557497  -0.34546632 -0.0191084  -0.09861409 -0.1919738
 -0.06669166  0.21580794 -0.1253647   0.18709381 -0.12719563 -0.30594152
  0.3932916  -0.05782513 -0.2517981   0.6824437 ]
[ 0.04118544  0.24009632  0.05292632 -0.2425557   0.34063375 -0.18741098
  0.2853624   0.24712755 -0.10533438  0.43983158  0.04673447  0.10142309
 -0.27540734  0.2551243   0.04028156  0.2238834  -1.0535859  -0.12469465
 -0.08882035  0.05883694  0.03786501  0.49979088  0.20313707  0.4246388
 -0.3613872  -0.24186502  0.56072146 -0.13652876 -0.03832174 -0.3130965
 -0.37774393 -0.20005433 -0.1985003  -0.00604776  0.66846925 -0.23372355
  0.09120721 -0.10743423  0.02163345  0.62599385]
[ 0.04766894 -0.154916   -0.21366674  0.08069929  0.1336928  -0.35503563
 -0.09075109  0.27409455 -0.37513837 -0.24642389  0.51944005  0.29779857
  0.01729874  0.16289112 -0.12318099  0.18831179  0.17655216 -0.26630288
  0.1675789   0.15019342  0.3164202  -0.14503057  0.08949795  0.05939381
  0.14055711  0.18189918 -1.2261592   0.1460041  -0.20960838 -0.3011952
 -0.2308367  -0.2940701  -0.20323004  0.1792598  -0.10265715 -0.15049879
  0.02366651 -0.04595295 -0.14098272 -0.3121975 ]
[ 0.28590226  0.02477678 -0.00274446 -0.12647888 -0.01454711  0.11367369
 -0.07592586  0.09569653  0.06861936 -0.05403303  0.0978986   0.25378513
  0.11172601 -0.02138335  0.03067645 -0.05131587  0.16894516  0.09694046
 -0.20496719  0.12367681  0.22126769  0.18440108  0.30277175 -0.01168844
 -0.08824236 -0.13907577  0.22158575  0.13604076  0.1437287   0.05577001
 -0.14062397  0.05805758  0.01539665  0.12020682 -0.00516699 -0.04602093
  0.40549102 -0.05314228  0.02648539  0.19707926]
layer 3 Activation
tanh
layer 4 Dense
40 20
[-0.4504388   0.23753509  0.04976889  0.01254785 -0.2598332  -0.08812338
 -0.04931425  0.29844433  0.04319673  0.11837819 -0.07083661  0.01565037
  0.29118377 -0.28092587  0.23135373  0.02452367  0.2142479   0.07510368
 -0.20318441 -0.05121288]
[ 0.2554868  -0.26340598 -0.19864176  0.3063523   0.03819213 -0.12236396
  0.18781134  0.23276487 -0.11931774  0.19907276 -0.45458537  0.16620037
 -0.12949535  0.16646147 -0.19672652  0.18130894 -0.13651265  0.39890307
 -0.02379342 -0.04730523]
[-0.07696007  0.03341968 -0.16004382 -0.10535356  0.22259265  0.15302622
  0.03226807 -0.20073497 -0.29385558 -0.2635997  -0.07502614  0.02752146
  0.0887344   0.13151711  0.22920923  0.03808464 -0.02675505  0.02415984
  0.05239471 -0.1025189 ]
[ 0.42351252 -0.09785543 -0.20720378 -0.08304445  0.15353522  0.08064619
 -0.00918992  0.2123143   0.04523201 -0.20092963  0.21124035 -0.00976535
 -0.28641868 -0.20032132 -0.00920918 -0.30202454  0.02879605 -0.24758805
  0.23651348 -0.14613044]
[ 0.02701017  0.05812179 -0.03221398  0.45788604 -0.1668299  -0.20031415
 -0.05823881  0.3493497  -0.09498218 -0.15344557 -0.10354517  0.2667525
  0.33676755  0.12520513  0.06225277 -0.35088882 -0.12919658  0.16384655
  0.03617159  0.22614713]
[-0.2836595   0.11996886 -0.08656641  0.35676575 -0.24439931 -0.03189629
 -0.16975619  0.16319036  0.366584   -0.18555756 -0.22569665 -0.2162299
  0.09495049  0.12081378 -0.26326233  0.25150645  0.16243154  0.1541821
  0.22894396 -0.09540646]
[-0.06095707  0.20117347  0.05434923 -0.25859362  0.08707397  0.03240065
 -0.23775406 -0.16800901  0.2824029   0.18102618  0.10062187 -0.02690656
 -0.35094625 -0.11497342 -0.01663062 -0.2482375  -0.06339324  0.18702354
  0.10825732 -0.02878309]
[-0.11805525 -0.15744267 -0.00789743  0.09537378  0.06368509 -0.18492465
 -0.04574151  0.16729666 -0.23042588  0.38240403  0.02524403  0.19694696
  0.16790798  0.05480415  0.19076839 -0.305249    0.06067807 -0.0754028
 -0.3490809  -0.09069767]
[-0.25787863 -0.19962692 -0.21335047  0.04125546  0.01469804 -0.0491157
 -0.20785007 -0.1197084  -0.23251884 -0.10772488 -0.13132735 -0.02213307
  0.00082494  0.00115658  0.1807221   0.30224264 -0.2649023   0.19117005
 -0.25094846  0.18533492]
[ 0.07578998  0.12970202 -0.0689191   0.13350768 -0.02379123  0.00137817
 -0.12088285 -0.12865435  0.18757115  0.14987704  0.01389046  0.28994837
 -0.45403263 -0.30265486  0.0072217  -0.27973202  0.1748865   0.09491394
  0.05065883 -0.04508856]
[ 0.3763848   0.07029818 -0.16398595  0.27077472 -0.07479203 -0.23564176
  0.17519861  0.0242462   0.23840247 -0.27052864 -0.31501114  0.33470055
 -0.03330545 -0.04620978  0.19574252 -0.29461822 -0.00482995 -0.19111004
  0.2912603  -0.00413549]
[-0.19315132  0.25550103  0.16773075  0.09953962 -0.17799261  0.15572809
 -0.09751684  0.04154875 -0.19814444 -0.01175633 -0.18255584  0.17367803
  0.3536261  -0.22602423 -0.03752401  0.28301424  0.11466846 -0.11374611
 -0.18109094  0.25797284]
[-0.21548109 -0.0232406   0.33994102  0.15720154 -0.22614786 -0.27009547
 -0.06924294 -0.12269466 -0.20437035 -0.13980262 -0.14617668  0.3251224
  0.35942233  0.24483089 -0.08962832  0.38935867  0.12841439  0.31361914
  0.2627683  -0.09348959]
[-0.00363688 -0.04336445  0.03362136 -0.01687908  0.11706795 -0.03056689
 -0.12525235  0.38156304  0.16515455  0.02805599  0.0139364   0.01150336
 -0.06799214  0.14344004  0.01421059  0.30994198 -0.0399302   0.20148283
 -0.39237306  0.07965119]
[ 0.05689073 -0.18895239 -0.13898626  0.00162092  0.12790817  0.11856997
 -0.19915953  0.17857754  0.01263257 -0.06193306  0.08963867 -0.00075084
 -0.2791495  -0.18132308 -0.13068777  0.07228289  0.24187872 -0.04479361
 -0.13336104  0.01733887]
[ 0.05072528 -0.14976788  0.16698925  0.07030034 -0.1257708  -0.07655825
 -0.13866562  0.12751873 -0.0589679   0.17163081 -0.01473194  0.10797052
  0.00256653 -0.13823895  0.01395954 -0.27085555  0.12295289  0.0169124
  0.0751105   0.0895443 ]
[ 0.20229632  0.12888329 -0.3995848  -0.41484973  0.39930713 -0.139249
 -0.07755888  0.36784476  0.06082124  0.24832529 -0.3380796  -0.06447158
  0.15802144 -0.09178419 -0.14457384  0.05936282 -0.01893794 -0.46119022
  0.14597556  0.18102151]
[-0.19791576 -0.07893185 -0.2141406  -0.03362688  0.15804145  0.04645861
 -0.1033517   0.10615434  0.11796311  0.05102392 -0.10915201 -0.00589585
 -0.14069656 -0.10120811  0.2623176  -0.06862096  0.06163134  0.17278244
 -0.15888089 -0.14345884]
[ 0.27416465  0.10199127  0.16249773 -0.00760253 -0.2332739  -0.16006926
 -0.00307129  0.3442107  -0.23810162 -0.26664528  0.00531382 -0.08304325
  0.14217125 -0.09668326  0.17822029 -0.23396553  0.21870638  0.14720722
  0.02359591 -0.2201858 ]
[-0.14589731  0.12607627 -0.07837068  0.26071393  0.14590558 -0.04841591
  0.15598148  0.24090663 -0.16395326 -0.15590702 -0.04679838 -0.28433874
  0.36657095  0.12974815 -0.10319927  0.2703944  -0.11117845  0.0508965
 -0.13511062 -0.05969934]
[ 0.01956194 -0.21707983  0.15662016 -0.24838091 -0.1939905  -0.202771
 -0.01457992  0.08732431  0.2721537   0.2896726  -0.0522451   0.30729464
  0.3767315   0.20810795  0.10546247  0.19196807  0.05474116 -0.11574814
 -0.02651596 -0.15373683]
[-0.35512424  0.2683473   0.08799198 -0.04898585 -0.18419002  0.10181779
  0.06600164 -0.19098176  0.22518529 -0.05081193 -0.15688327  0.26166603
 -0.08605006  0.21839565  0.1890582  -0.07529924  0.07412179 -0.06187768
 -0.35551724  0.03394144]
[-0.27844307  0.07067     0.02585836  0.14146328 -0.25025943 -0.07646764
 -0.07326872  0.16943838  0.09663912  0.13190533 -0.06839599  0.16015129
  0.03276543  0.01079888  0.19595851 -0.202748    0.0149625   0.07569233
 -0.3793996   0.19147642]
[ 0.18193643  0.00474699 -0.15033597  0.21526122 -0.04213965 -0.00597091
 -0.06373598  0.19138533 -0.00882123  0.19627392 -0.27108902  0.36724254
  0.16450332  0.22294246  0.39662442 -0.1767382   0.068914    0.43993086
 -0.4451311   0.04845152]
[ 0.24346095  0.20494686  0.01904487 -0.2422012   0.26675406  0.28215703
 -0.13548677 -0.04170634  0.25160047  0.11646086  0.04419859 -0.29827824
  0.35702094  0.02737353 -0.01239851  0.00040841  0.21995053  0.03524365
  0.29446462  0.07153803]
[ 0.06239781 -0.28052214  0.3317258   0.33135235  0.02283493 -0.04344414
  0.02668177 -0.09177858  0.25996062 -0.14968757  0.16111794 -0.26066315
  0.23547398 -0.03568235 -0.13908076 -0.18853468 -0.06005761 -0.15160678
  0.32051176  0.14746234]
[ 0.37847033 -0.13944063  0.11188095 -0.3451444   0.06118699  0.20820582
  0.17180142 -0.27764717  0.22266153 -0.04189178 -0.17155656 -0.38261452
 -0.10265807  0.12442335  0.05629545 -0.1679251   0.01039004 -0.28375104
 -0.27152026  0.02347462]
[-0.57000375 -0.33789828 -0.09693565  0.16759847 -0.36388883  0.05592288
  0.04034587  0.3230433   0.08988044 -0.06568349 -0.25370744  0.12542634
  0.37202471  0.08948321  0.24587058  0.26811168 -0.19850966  0.15353474
  0.35749754 -0.14039321]
[-0.01276924  0.13936427 -0.18455444 -0.1568203  -0.27716848  0.02882995
  0.07693437 -0.20067339 -0.14824612  0.00067277 -0.09978419  0.13910511
 -0.08349368  0.1126138   0.01795592  0.24232623  0.12245794 -0.10497888
 -0.10903624 -0.00073873]
[-4.1515377e-01  2.5166199e-02 -2.2756441e-01 -5.7555787e-02
  1.4171134e-01  1.4863752e-01  1.1558366e-01 -2.2283609e-01
  6.6871352e-02  4.4951435e-02  2.2953425e-01  2.2926414e-01
  1.7759936e-02 -1.9051458e-01 -1.1368680e-01  1.8448255e-04
 -4.0513225e-02  1.7571855e-01  3.2012770e-01 -1.4515680e-01]
[-0.17561248 -0.14217429 -0.09655412 -0.10138404 -0.23522356 -0.01676945
 -0.09067778  0.00239114 -0.12578064 -0.1380479   0.17249002 -0.16129898
 -0.18705843  0.08675288  0.07384833 -0.1970511   0.09727866 -0.21394393
  0.29135966 -0.104317  ]
[-0.06053343 -0.00363518 -0.01922389  0.15530445 -0.2893484  -0.19766672
  0.16025646  0.03343257  0.01028892  0.45399687  0.0393335  -0.17378397
  0.06140495 -0.16532083  0.3083052   0.31374556  0.21429247 -0.07155045
 -0.12851144  0.05360438]
[-0.20460774 -0.01564122 -0.11029096 -0.09663128  0.23972982  0.14441709
 -0.00386038 -0.16551144 -0.02990942  0.15341571  0.06815305 -0.16915733
 -0.11201801 -0.07941106 -0.05325191  0.12754725  0.15494795  0.02822076
 -0.14794053 -0.19014888]
[-0.25108698  0.01109832  0.19387208 -0.02381094 -0.05005215 -0.1229834
 -0.13246848  0.25969112  0.04764625 -0.16626501  0.18240616 -0.06579705
  0.32852402 -0.26970097 -0.26390973  0.04670383  0.12577417 -0.28932828
  0.16889045  0.12929209]
[ 0.19997516  0.23294955  0.2887955  -0.19701494  0.11077438  0.12510662
 -0.10416993 -0.05501863  0.13995111  0.23753476 -0.29068172  0.2523989
 -0.25568306 -0.19673772  0.21232823  0.12798004  0.06208233  0.34223342
 -0.27012804  0.20346381]
[ 0.40411168 -0.0965322   0.11546858  0.21194988 -0.0513394  -0.06687249
 -0.17182423 -0.1717865  -0.01929619  0.05051508 -0.10804806  0.0428963
  0.15938586  0.05984009 -0.00438441  0.21333751 -0.06903104  0.11000388
  0.21323782  0.19844241]
[-0.4587591  -0.10656441  0.27152243 -0.43166676 -0.22749998  0.03585625
  0.09991509  0.24346408 -0.05150026  0.12486403 -0.06017997  0.19166118
  0.18429297 -0.07246385  0.22133505  0.22536002 -0.16711187 -0.04352467
 -0.52145964  0.10472316]
[-0.11328844  0.26976976 -0.1501732  -0.09691533  0.00218518  0.06444412
  0.13635875 -0.198806    0.03528715 -0.01579371  0.032111   -0.05744581
 -0.03571757  0.17746557 -0.2479374  -0.1238998  -0.19912748 -0.04021979
  0.16069998 -0.0089229 ]
[-0.16488536 -0.03904848 -0.26592672  0.25027078  0.13347517 -0.46518043
 -0.0637206   0.11566705  0.15689453  0.20710003  0.02618703  0.20924492
  0.44184285 -0.04430448 -0.01727921 -0.03756164  0.1026954   0.12741484
 -0.375067   -0.14764778]
[-0.23246352 -0.21634127 -0.10762674 -0.14591493 -0.20435561 -0.08275186
 -0.10049258  0.2029548  -0.13896623  0.04609903 -0.44174668 -0.30278125
 -0.05791738 -0.12784682 -0.02587777  0.23726425 -0.06507018 -0.03779443
 -0.5839506  -0.13579446]
[-0.20619676 -0.06732268 -0.01626157 -0.09531568  0.0174399  -0.1229057
  0.04215301  0.08818188  0.03382279  0.02669214 -0.15131931  0.06298757
  0.21670137  0.00979163  0.07358577  0.04525788 -0.02006162 -0.10526881
 -0.24236841 -0.06160986]
layer 5 Activation
tanh
layer 6 Dense
20 1
[0.09551307]
[0.02135157]
[-0.00250707]
[-0.09414081]
[0.02717131]
[0.01046268]
[-0.0101869]
[0.04172487]
[0.00213297]
[-0.008939]
[-0.14979887]
[-0.11852749]
[0.0465135]
[0.0002371]
[0.02273982]
[-0.01422724]
[0.03295709]
[-0.13060394]
[-0.04108272]
[-0.00050171]
[0.09027301]
