layers 7
layer 0 Dense
20 20
[-0.07539158  0.01791074  0.03694814 -0.14347643 -0.198554    0.4981452
 -0.385702   -0.3969754   0.17404364 -0.20780484 -0.08590288  0.25625908
  0.29847172 -0.04981519 -0.33224112  0.16809966  0.25301147  0.10069874
  0.08945864 -0.21972752]
[-0.22188985  0.17055853  0.41757762  0.30178836  0.34817848  0.5068707
 -0.32646865  0.13477735 -0.32192442 -0.4102743  -0.16251701  0.17243879
  0.30665284 -0.05742921 -0.3558337   0.11105556 -0.15779345 -0.25700775
  0.3961889   0.23299772]
[ 0.27031204  0.23396842 -0.00564458  0.20668544 -0.28954026  0.25352788
 -0.09074067 -0.06533352 -0.3014113  -0.14537202 -0.12052534  0.34554458
 -0.08647116  0.36516106  0.05480349  0.44325852 -0.04887366 -0.396195
  0.5948778   0.3476037 ]
[-0.41534728  0.19380912 -0.29519597 -0.26086697 -0.00256169  0.25015664
 -0.225631    0.13854487  0.12023083 -0.11011356  0.08238765 -0.14457367
 -0.15080999 -0.15261315  0.18569998 -0.32254878 -0.11648328  0.06471649
 -0.14272764  0.13973191]
[ 0.2594095   0.16015215  0.1222167  -0.33603197 -0.07130356  0.27583766
  0.10895708  0.14990044  0.00406547 -0.17282291 -0.00694474  0.16831152
 -0.11276446 -0.21014318 -0.04513045  0.12997957 -0.09497779  0.35707232
 -0.04605336  0.21136115]
[-0.21863636 -0.18123673 -0.24114835  0.06193395 -0.3881212  -0.3832524
  0.08998166 -0.07988658  0.07028539  0.75226307  0.3383287  -0.4435769
  0.09501337  0.26136276  0.14478384  0.21156992 -0.03563888  0.08332527
 -0.05975023  0.08894153]
[-0.29088846 -0.22712877  0.1680087  -0.15775016  0.05815775 -0.28485218
  0.42684484 -0.3117487   0.06566566  0.10897857  0.3234537   0.2953004
  0.07528513  0.04639217 -0.2141947  -0.3056177  -0.16314682  0.06328379
 -0.1685405  -0.06066285]
[ 0.4085135   0.33740008  0.04718835  0.288652   -0.12359774  0.12076348
  0.29079944  0.0388231  -0.18871379  0.00113958 -0.01849085  0.29062653
 -0.15588988 -0.20361736  0.23840936  0.25939956 -0.29822153  0.04252181
 -0.07494031 -0.27208707]
[-0.04018671  0.34719238  0.01254975 -0.45876294 -0.0660859  -0.17982677
 -0.4750368  -0.20346758 -0.16364166 -0.2913732  -0.22237864  0.15523368
 -0.3077066  -0.20628795  0.33747548  0.16828339 -0.30062628  0.10653164
  0.5450862  -0.21514738]
[ 0.1363205   0.00943832 -0.298548    0.13300167 -0.1852777   0.3496064
  0.27912262 -0.22851574 -0.05517422  0.31557447 -0.0621099   0.08780629
 -0.03248915 -0.23538114 -0.04014361 -0.12224638 -0.20729248  0.04245215
  0.06289884  0.2965712 ]
[-0.01304289 -0.23092091 -0.0613706   0.26947647 -0.1380682   0.2081039
 -0.24445412  0.21654467  0.05707891 -0.0889447   0.04659665  0.28214473
 -0.24455662  0.4417274  -0.08415084 -0.22133645  0.09205056  0.18604682
  0.20846845 -0.16538128]
[-0.46463352 -0.10943699  0.2977338  -0.81637436  0.7030142   0.1981747
 -0.6439504   0.01846875  0.4786599  -0.77020127 -0.14496265 -0.74714434
  0.16718973  0.35344452  0.17664102 -0.40970087 -0.0038597   0.65882945
  0.6672296   0.57600296]
[-0.05263245  0.08489777  0.40542695  0.31214255  0.3461386  -0.08518883
 -0.13394351  0.33964974  0.23541157  0.4977893   0.3917245   0.07029208
 -0.22648737 -0.01570053 -0.2612957  -0.04822941  0.13387269 -0.28220883
 -0.10006102  0.1609491 ]
[ 0.28962234  0.12775472 -0.27568665 -0.12653764  0.21482813  0.13653938
  0.2342122  -0.19571294 -0.32360658  0.06693889  0.08597329 -0.17362812
  0.35013548 -0.06225063  0.05593763 -0.03530712 -0.30515894  0.11321299
  0.11509232 -0.35281888]
[ 0.08855851  0.19226001  0.11158236  0.3111531   0.04303377  0.10785761
 -0.04785351  0.13026969  0.11955264  0.00509196 -0.110294    0.08096412
  0.27819055 -0.26285535 -0.17085826 -0.3123364   0.06863412  0.20533957
  0.31766027 -0.00719176]
[ 0.16954947  0.10379855  0.29970133 -0.07591581 -0.39383468  0.59912795
  0.36881152  0.39803177 -0.30105674  0.6778762   0.34799007  0.00142167
  0.283887    0.02331489  0.19914678  0.2915354   0.33324575 -0.278539
  0.09969112  0.22848041]
[-0.13684507 -0.22608352 -0.16727993  0.18775064  0.2821476  -0.19605978
 -0.02609511 -0.24461891 -0.26485085  0.06766772  0.35039526 -0.2620839
  0.36540565 -0.22541259 -0.41988602 -0.19533302  0.09949058 -0.28965724
  0.10166305 -0.37925676]
[-0.4179593   0.2196276   0.20846546  0.02935154  0.02260919  0.08534809
 -0.20860662 -0.04653604  0.1885816  -0.05041812  0.25398347 -0.02839989
 -0.13753672  0.03395578 -0.36660546 -0.00604285 -0.19852467 -0.11928075
 -0.3928603  -0.35104728]
[ 0.12553398 -0.07528124  0.2909237   0.22779389 -0.09469     0.34143615
 -0.08292083 -0.23064068  0.17472212 -0.20437336 -0.07691334  0.1596578
 -0.07832033 -0.2503012  -0.20832132 -0.27169287 -0.04777427  0.04246656
  0.3560762   0.38392434]
[ 0.48712823 -0.14550024 -0.27622533  0.11834538 -0.48714665  0.47345206
  0.4878166  -0.32723552  0.09286612  0.05529434  0.45357412  0.11548392
 -0.10329493  0.21321172 -0.01498869 -0.02752881 -0.06120701 -0.24414982
 -0.20053425 -0.41877317]
[-0.02234337  0.01512686  0.04874016 -0.04569656  0.06835359 -0.07318298
 -0.08782462  0.00906251 -0.03244834 -0.12612706 -0.00644435 -0.02475809
 -0.01478007 -0.04407319  0.0282683   0.03569492 -0.01931779  0.07191133
  0.10284159  0.07211041]
layer 1 Activation
tanh
layer 2 Dense
20 40
[-0.07219835 -0.12026421  0.04809586 -0.23556884  0.17937426  0.16614005
  0.02362609 -0.08926842 -0.21767445  0.1864751  -0.18017636  0.02061229
  0.03196992  0.03994219 -0.06182308 -0.2956892   0.19618471  0.03673695
  0.31537443  0.2748702  -0.32518214  0.10787515  0.08341967 -0.3168181
  0.15851077  0.28507927 -0.26465106  0.16108976 -0.27627978  0.3577776
 -0.12758528 -0.31527483  0.04936277  0.14402595  0.20687686 -0.19970854
  0.06683085 -0.2802144  -0.09447995  0.04603809]
[-0.01665383  0.16111481 -0.30666795  0.16335228  0.28840056 -0.18475865
  0.13341816  0.23092613  0.0478055   0.0717704   0.1594883   0.02624086
  0.02809931 -0.27986968 -0.3253733   0.04961755 -0.14114827  0.11207703
  0.13342738 -0.11997118 -0.26390624 -0.2110736  -0.03999715 -0.06572533
  0.32076922 -0.22495951  0.05445713  0.03539822 -0.08655979  0.00677903
  0.09772203 -0.29483145  0.02379945 -0.1126319   0.25071326  0.20264941
  0.20632017 -0.19797625 -0.13296627 -0.25288993]
[ 0.04813731  0.27021378 -0.10606837 -0.22784996 -0.04179064  0.15523343
  0.12653829 -0.2664037  -0.1666012  -0.17882136  0.2241761   0.20937824
  0.05880718 -0.26895002  0.14298552  0.12097006 -0.13286527 -0.12469423
  0.12028377  0.18612489  0.21045016  0.18314889 -0.19667272 -0.1915292
  0.15764286  0.21055958  0.03888051 -0.17578533  0.05682748 -0.1210997
 -0.02803145  0.01237037  0.16761364  0.15355355  0.13847294 -0.28449774
 -0.12838183  0.15010202 -0.11293566 -0.05661185]
[ 0.0778074  -0.15616882 -0.17489606 -0.24794266 -0.10669061  0.30178478
  0.37873617 -0.13650194 -0.10597271 -0.2018678  -0.22454609  0.4748816
 -0.3419615  -0.02209104  0.14375786 -0.26662248 -0.15774356 -0.04788427
  0.05439261  0.09348003  0.17719093 -0.22346865 -0.47735703 -0.09804484
  0.23866585 -0.01915603  0.32890025  0.2709082  -0.29399607  0.29112577
  0.0098784  -0.33800936 -0.04336637  0.12937638 -0.20082086  0.20127411
 -0.12845825  0.22514339  0.08453309 -0.03793554]
[-0.16199857  0.18091515  0.21527159 -0.05801009 -0.05488779 -0.3657897
 -0.16116682  0.26616207 -0.02659022  0.16077514 -0.08583139 -0.2531582
 -0.2389885   0.00800324 -0.05369964 -0.03302204 -0.01210584  0.32219127
  0.08639714 -0.01351759  0.1070493   0.029077   -0.00298534  0.2397564
  0.23302862 -0.05314918 -0.04286186  0.12902205 -0.05043025 -0.03448097
 -0.02965129  0.21126814 -0.07098275 -0.10933229  0.1549472   0.02908737
  0.13332249 -0.2578436   0.10272857 -0.08910001]
[-0.12190821  0.12564744 -0.16755278 -0.15252809  0.1231418  -0.12447321
 -0.18090568  0.10577007  0.21613897  0.15913099  0.28397873  0.13186304
 -0.14345029  0.24349318  0.04368179  0.02613268  0.16720532 -0.19790663
 -0.08544031  0.05937269  0.32820517 -0.04304865 -0.14526919 -0.05259311
  0.3808304  -0.1472042  -0.20839559  0.15024652 -0.28127995  0.24813856
 -0.03048846 -0.10641351  0.03631016  0.10162726 -0.02310309 -0.06841543
 -0.26366758 -0.19122152  0.21954934 -0.00848842]
[-0.01223248 -0.10251804 -0.16193718 -0.02457434 -0.20261747  0.4709313
 -0.1342813   0.1642092  -0.30083165  0.2646967   0.16922691  0.2756281
 -0.0095505  -0.35843357  0.43109545 -0.2123991  -0.16020426  0.05062518
 -0.07706498 -0.194076    0.24438655  0.04855654  0.07403927 -0.15036167
  0.32488623  0.02440242  0.07834113 -0.11113733  0.07068045  0.38351843
 -0.02761703 -0.38404194  0.33412102  0.5049188   0.26436308  0.2055004
 -0.13567539  0.10984024  0.00642958  0.09720311]
[ 0.2239502  -0.02092635 -0.35156038 -0.3028097   0.18507962  0.13938847
  0.05976174  0.06214549 -0.31825396 -0.12818813 -0.10691281  0.12371842
  0.28329337 -0.05660318  0.10919638 -0.15316248 -0.10564411  0.1708238
 -0.06439808 -0.20173852  0.31861708  0.07036725  0.27464065 -0.2833476
  0.04319753  0.03730207 -0.23656103  0.03489345  0.278821    0.27656046
  0.02475011  0.258925    0.17039905  0.11585151 -0.15848544  0.06688043
 -0.04526105  0.04781757  0.10932335  0.06743723]
[-0.30751714  0.35430425  0.01132533  0.03220778 -0.19183005 -0.01618519
 -0.11868817 -0.33178332 -0.04513156  0.16104636 -0.25429308  0.15867993
 -0.15851298  0.01706368 -0.22702694  0.00602803 -0.08445643  0.0361944
 -0.15803003 -0.28983197  0.01695422  0.05612843  0.25854808 -0.03178474
 -0.17648184 -0.09959662  0.26488197 -0.09030434 -0.28120637 -0.19910346
  0.1641692   0.21492264 -0.00745114  0.00388731 -0.19823012  0.13816121
  0.24042699 -0.13947368  0.01314184 -0.17826122]
[ 0.10863347 -0.02553928 -0.28522542 -0.40647042 -0.19163483  0.29017514
  0.04044977  0.15226054 -0.03647156 -0.00688234 -0.32796013  0.07437016
  0.10325733 -0.42669863  0.21466506  0.11874962 -0.14637128 -0.10729741
  0.05947021  0.01945814 -0.09777924  0.26370442 -0.26610097 -0.10283077
  0.25189057  0.06594781  0.4929441   0.29913908  0.04555519 -0.04087919
  0.09768393 -0.31159446 -0.10260259  0.15082291  0.2386293  -0.25567582
  0.08803268  0.23137854 -0.16466197  0.06289762]
[ 0.2388867  -0.13335429  0.1727638   0.10221817 -0.04989375  0.07308963
 -0.16035472 -0.10042279  0.11044328 -0.1988391  -0.2978214   0.11786114
  0.19822867 -0.3851099   0.30830652 -0.42102405  0.06743471 -0.09000708
  0.15467304  0.2388419   0.22745769 -0.16443186 -0.18765955  0.15524973
  0.0938986   0.11168609  0.18771617  0.02493491 -0.08242144 -0.22111496
  0.1341356  -0.30094564  0.04163954  0.0381017  -0.03555905  0.1807125
  0.03239068  0.32082656 -0.16514777  0.21466525]
[-0.02928095 -0.05779959  0.11720552 -0.03358648  0.18765625  0.3356186
 -0.0707049   0.03915513 -0.3186137  -0.09240313 -0.02092057  0.20272492
 -0.23135482 -0.24886559  0.1804374   0.01674157  0.2548076   0.15214166
  0.31104136  0.21547282  0.2980007  -0.17169857  0.24816993  0.1300431
 -0.12687744 -0.07937513 -0.1011345  -0.2688066   0.16337046 -0.0466475
 -0.03532194 -0.12295741 -0.01795667 -0.04122944 -0.16490978  0.07739515
  0.23514174 -0.22419746  0.02340022  0.17018414]
[ 0.3610699  -0.04188207  0.22789586  0.09255286 -0.07831981  0.02636643
  0.3110154  -0.1794171   0.01409043  0.1887464   0.24750385 -0.01090506
 -0.0500036   0.18097606 -0.28850555 -0.02798559  0.08275601  0.05854388
  0.18599734 -0.33767506  0.09703033 -0.14354508  0.17469522  0.13241646
 -0.1968632  -0.36824006  0.04961543  0.08364716 -0.181157    0.01791288
  0.0915532   0.02598094 -0.1774691   0.17158857 -0.13939692  0.17580423
 -0.07800598  0.05975501  0.06552032 -0.1441012 ]
[-0.09827172  0.28802368  0.1097798  -0.0272335  -0.20894326  0.1472616
  0.3360787   0.18520969  0.18549538 -0.07909305 -0.11954805  0.01797464
 -0.26248085 -0.04877852 -0.2873627  -0.08707111 -0.09873362  0.15466969
  0.01536541  0.21197613 -0.18811588 -0.14013153  0.14463235  0.12720025
 -0.03886889  0.13763282  0.18888067 -0.05241793 -0.05860955 -0.02423239
 -0.19720152  0.15482195  0.09503628  0.15207507 -0.17840275  0.00037152
 -0.09862217 -0.211236   -0.02362608  0.3059207 ]
[-3.4705020e-02  1.7285062e-01  1.2405789e-01  1.2739646e-01
  1.9040538e-01 -4.0873110e-02 -1.2086464e-01  2.7103895e-01
 -1.2325655e-01 -8.5381120e-02  1.0769035e-01 -1.1397659e-01
  1.6712824e-01  7.8480177e-02  1.6562305e-01 -1.5266646e-01
 -5.7238456e-02  6.7178041e-02 -1.8568810e-02 -3.8790766e-02
  2.1446511e-02  1.0516379e-01 -2.3741116e-01 -3.2477155e-01
  3.9930370e-02  5.7135906e-02 -8.5981667e-02 -1.6976731e-01
 -2.6499313e-01 -2.4640362e-01  1.6258764e-01  2.5502467e-01
  4.5522504e-02 -1.6488379e-01  3.7570873e-01  1.5734229e-04
  2.5754970e-01  2.7619841e-02  1.4894959e-01  1.9603084e-01]
[-0.07372021 -0.06393246 -0.31102863 -0.34405226  0.12783581  0.00979921
 -0.00472325 -0.02693532  0.11509182 -0.08140439 -0.0006805  -0.05879075
  0.13359195 -0.36112532 -0.21244875  0.29669166  0.01604723 -0.09923406
 -0.13220797  0.28764418  0.06932081 -0.2565291  -0.08109797  0.16056517
  0.22204153 -0.01375136  0.27626333 -0.06552155 -0.01689261 -0.04515272
 -0.26671612  0.0132899  -0.00507639  0.24569556 -0.04851196  0.24647287
  0.08108645  0.1884029   0.04190427  0.26054138]
[-0.19495876 -0.08608015  0.17971705  0.25837842 -0.00341057  0.03421487
  0.04032559 -0.09642721 -0.1330641   0.20923902  0.23425403  0.12274806
  0.24260035 -0.2075719   0.07768248  0.23967287  0.08420581  0.34242076
 -0.05478596 -0.0267962  -0.22015911  0.2892175  -0.23407443 -0.19828163
  0.20952837 -0.31995443 -0.26076376 -0.18167366  0.07542668  0.24882062
 -0.29556412 -0.02276158  0.10672071 -0.2932346  -0.25266823 -0.0937671
  0.22100602 -0.2596653   0.14088854 -0.20884016]
[-0.27114967  0.16289984 -0.04907825  0.10737062 -0.18983524 -0.09536368
 -0.08339754  0.2535024   0.16707174  0.02901318  0.21428962  0.12732083
  0.19181821 -0.00306095  0.05150402  0.12505901  0.02308331 -0.2627721
  0.12266123 -0.30244538  0.19608629 -0.20867161  0.11645148  0.24930337
 -0.01252785  0.11599658 -0.17966303  0.06284491  0.07360955 -0.02810861
  0.02064976  0.07789259 -0.21744475 -0.16467632  0.36412606 -0.1518834
 -0.15015088 -0.26139128  0.13459635 -0.3812885 ]
[-0.18432364  0.02229728  0.02782986  0.14613703  0.17824414  0.1931595
  0.14379194  0.2724507   0.2926865  -0.01219499 -0.15393786 -0.00219263
 -0.14254509 -0.09699609  0.19608925 -0.11986876 -0.24495159  0.26879227
 -0.19595218 -0.25199214 -0.02752202 -0.06487924  0.12869658  0.12828484
  0.12615941 -0.16127461  0.07552496 -0.16176073  0.26139262  0.0760472
  0.06446142  0.00198571 -0.01058718  0.05027668  0.3595791  -0.10848764
  0.00554902 -0.17937449 -0.13307087 -0.3052995 ]
[ 0.0036886  -0.04505508 -0.11311518  0.06329355  0.16380233 -0.29129916
  0.23847717 -0.03377564 -0.11888701  0.0723143  -0.04970304 -0.08785847
 -0.06152729 -0.1258726  -0.38104132 -0.18459421 -0.07753795  0.10772529
  0.05036185 -0.23373415 -0.09000691 -0.37872007  0.15058608  0.1544888
  0.11765    -0.02876706 -0.06298813  0.03653669  0.0399344  -0.14351375
 -0.0730936  -0.11843689  0.00190256  0.02264664  0.40558684  0.19369315
  0.09734048 -0.2021275  -0.23444782 -0.19407192]
[-6.85185790e-02 -2.94992216e-02  4.97675240e-02  5.49518317e-02
  2.02204697e-02 -1.54952630e-02  7.32478499e-02 -1.27049192e-04
  7.57818203e-03  4.55568694e-02 -2.15700222e-03 -4.39054854e-02
  6.63155541e-02  1.19459644e-01  2.28156839e-02  2.10386477e-02
 -6.23472687e-03 -3.62925120e-02 -4.79908055e-03 -6.71632867e-03
  2.33337674e-02  1.68387108e-02  4.43947501e-02  8.12143236e-02
  3.42516713e-02 -2.55864933e-02  6.04398921e-03  2.09402759e-03
  4.04181518e-02 -2.85448041e-03  7.38362828e-03  1.75875984e-02
 -2.16343418e-01 -1.62511736e-01 -1.55020440e-02  1.82447545e-02
 -4.21346426e-02 -1.01885293e-02 -7.31279096e-03  2.39779637e-03]
layer 3 Activation
tanh
layer 4 Dense
40 20
[-0.17906849  0.02762555  0.12520972  0.27791992 -0.12036591 -0.01267608
  0.10804389  0.13663909  0.05996219  0.27089623 -0.01913444 -0.27470836
 -0.11388895 -0.13333331  0.25207612  0.04722651  0.22486983  0.17265894
  0.20762792  0.08374761]
[ 0.1015058  -0.01835214 -0.11115678  0.23443092 -0.1269547  -0.21377543
  0.06159953  0.0964548  -0.23526663 -0.13824967 -0.14321986 -0.20736155
  0.10524593 -0.03250759  0.11184287 -0.20134705  0.13658312 -0.35422644
  0.0969904  -0.05385989]
[-0.35863075  0.2027404  -0.3115282  -0.22188789 -0.17591304  0.247624
  0.02680031 -0.17666443 -0.0717719   0.27859253  0.24608126 -0.15682107
  0.26252723  0.06353048  0.12153248  0.15749553 -0.31831798  0.17909881
 -0.22719933 -0.00807772]
[-0.28757647  0.09268784  0.2442718   0.2606703  -0.0332083   0.11339422
  0.28530294 -0.3208683  -0.04880794  0.08548248 -0.14722675 -0.24319072
  0.30477324  0.23003577 -0.07505003 -0.16758414 -0.2783786  -0.0970023
  0.30718032  0.08573242]
[ 0.3712056   0.24510837  0.20351236  0.01500517  0.29106563  0.03575548
  0.27959633  0.124491    0.10211722 -0.10930598  0.01197488  0.08389843
  0.18811713  0.11037103 -0.11675745 -0.10950034  0.12869366 -0.1173442
  0.01730908 -0.22923999]
[ 0.18132776 -0.06380389 -0.31224388 -0.15072714  0.02855743 -0.06366385
 -0.10430512  0.07790308 -0.27071497 -0.0818599  -0.20906565  0.27990064
 -0.10491141 -0.21321957 -0.1441828   0.16951457 -0.06422839  0.35457322
 -0.00920355 -0.27743682]
[-0.07005679 -0.20504342  0.2693183   0.2376152  -0.22036467 -0.27451977
 -0.05190288 -0.14562485  0.01108863 -0.2142141  -0.01148465  0.1265471
 -0.03371687 -0.14216061 -0.09956279 -0.27372426 -0.03103374  0.10604214
  0.06270891  0.3286031 ]
[ 0.0919061   0.09092792  0.08129213 -0.03848362  0.20875214 -0.07730972
  0.2641992  -0.01552053  0.06552467 -0.11044658  0.04658833  0.03204703
 -0.22307716  0.22285765 -0.2953515   0.25383767 -0.23759745  0.21441804
 -0.20006078 -0.33402172]
[-0.35999763 -0.11006109  0.18387145 -0.16815683 -0.0734264   0.07470858
 -0.00352321 -0.00751376  0.22250031 -0.23325498 -0.01727197 -0.24457182
  0.23516873  0.31478122  0.25621238  0.18106458 -0.18609107 -0.20428354
 -0.19158095 -0.11158558]
[-0.10190463  0.04748761 -0.24297374  0.061887   -0.05823515 -0.30220836
  0.13245057 -0.00704493  0.36172938  0.279255   -0.11388475 -0.09856053
  0.2611405  -0.05904308  0.02012752 -0.02180588 -0.08742452  0.14189431
  0.13008852  0.03266505]
[-0.29762462 -0.16098122  0.03696848 -0.18072163  0.05467626 -0.01205761
 -0.1303341  -0.05415313  0.35258785  0.03567738  0.13510406 -0.21187015
  0.12369873  0.21070176 -0.11675576  0.06649008  0.00764424 -0.11118191
 -0.01563301 -0.03963735]
[-0.06024201 -0.18351859  0.27804857  0.05405622 -0.30704978  0.1209582
  0.08837442 -0.13638978  0.20666485 -0.15511774 -0.28694555  0.1386653
  0.0791149  -0.2621347  -0.01713311 -0.18603241  0.16802138  0.22077857
  0.06102463 -0.10725608]
[ 0.1708092  -0.04548324 -0.27318683  0.20552224 -0.14870995  0.16993615
 -0.03576051 -0.2390969   0.14459908 -0.17781453 -0.21443419 -0.21509199
 -0.09795485 -0.13818216  0.15912016  0.01847258 -0.05097126 -0.10081922
  0.2876844   0.29074317]
[-0.33911252 -0.0238226   0.2804459   0.08237031  0.12578382 -0.22836985
  0.08256732 -0.22545432  0.30069178 -0.2300349  -0.1307376  -0.00835146
  0.05163115  0.03805541  0.15138409 -0.30078417 -0.08277942 -0.02658698
  0.1270688  -0.08427115]
[ 0.07111555 -0.22126229 -0.12772503  0.05306542 -0.21785538 -0.09593432
  0.22264983  0.10905144  0.08042636 -0.00618231  0.10798378  0.22518651
  0.2960683   0.20714544  0.26780415  0.25692156  0.26322004  0.18896803
  0.1047416  -0.07856039]
[-0.1323293   0.07400222 -0.06237978 -0.19345097 -0.05359334 -0.32950163
  0.1443144  -0.20964721 -0.28078532  0.03329524  0.30552098  0.18325883
  0.21676572  0.07008623 -0.09243026 -0.20867427 -0.11292692 -0.17986678
  0.02667648 -0.22031336]
[ 0.04088145 -0.20429033  0.19577326  0.17389888  0.12742156 -0.01316611
 -0.23449582 -0.13329192  0.22390732 -0.12675495 -0.29900455  0.21291636
  0.3618188   0.09236449 -0.20147544 -0.09556735  0.07205424  0.13120122
 -0.10228907 -0.40383086]
[-0.18766707  0.23538968  0.19040567  0.13500766 -0.32004577 -0.23639362
 -0.03937981 -0.20007525 -0.0136082   0.1821504   0.23699157 -0.20387304
  0.20754609 -0.07583211  0.0248597   0.1703562   0.23701519 -0.23292907
 -0.08736011  0.34667385]
[ 0.23261002  0.2639705   0.21786822  0.15488997 -0.11326236  0.02929783
 -0.23637895 -0.19862664 -0.13082601 -0.07902543 -0.11163671 -0.00688425
  0.11244197 -0.16986677  0.03457159  0.24658415  0.10744893 -0.2235344
 -0.2760823   0.11244757]
[-0.03292348  0.16453141 -0.14124054  0.17646207  0.20724297  0.20959151
  0.2239216  -0.08141507 -0.23073247 -0.25301558  0.10113978  0.24644077
  0.05580123  0.00486745  0.22038625 -0.08978997  0.2586699   0.11326965
  0.20602936 -0.19998258]
[-0.05844595  0.3877659  -0.34120128 -0.2599264   0.26476967  0.03558106
  0.07196919 -0.07509404 -0.27358055 -0.368121    0.04105522  0.22866184
  0.08741541 -0.14990556 -0.1955559   0.09867381 -0.01032571 -0.12893109
  0.13554424  0.2901874 ]
[-0.02003008 -0.1384215  -0.26597887 -0.06183716  0.25810754 -0.29196933
  0.22290824  0.09683558 -0.2428589  -0.16877158 -0.2087034   0.21410613
  0.28326666 -0.02500075 -0.2043449  -0.00981845 -0.18298382  0.10334559
  0.16981323  0.366277  ]
[ 0.0896716  -0.2626286   0.1981862  -0.07568834 -0.17931794 -0.13870707
  0.32733947 -0.20793147  0.29933757 -0.17924139  0.15977143 -0.11732373
  0.01390643  0.16234416 -0.17355715  0.12104981  0.06890149 -0.34935728
  0.03264934  0.15189137]
[-0.1997511  -0.25847742 -0.23206396  0.0240922   0.04461623 -0.02340749
 -0.12482738  0.00742878  0.06405972 -0.09682325  0.28957778 -0.05271916
  0.2243178   0.35914972  0.06586058  0.07746436 -0.13678898 -0.20939483
 -0.064297    0.1439243 ]
[ 0.19786951 -0.12751675  0.26087052  0.29359347  0.12822726  0.19712181
 -0.0295708  -0.25251073 -0.15442571  0.001923   -0.20275398  0.03705002
  0.25361806 -0.17700714  0.2826598  -0.03253854  0.04974509  0.04299851
  0.07796407  0.15753879]
[ 0.36487937 -0.03427042  0.22451544  0.33132434  0.02113515 -0.2361963
 -0.21099408 -0.19899586 -0.02136043  0.22704226  0.02965492 -0.00977292
  0.00955189  0.15749888  0.27877802  0.12526236  0.25293747 -0.35120356
 -0.28832003  0.26970512]
[-0.19596452 -0.0960961   0.20114446  0.28262854 -0.05679158  0.25161964
  0.24239938  0.22183904 -0.17533483  0.01251339 -0.28439024 -0.00474021
 -0.3035081   0.157805   -0.10996819 -0.10913587  0.1545405   0.12458168
  0.13406251 -0.01661656]
[ 0.1207928  -0.04938806 -0.18239021  0.31000063  0.02877663  0.149751
  0.04314914  0.18311635  0.16843155 -0.23259239  0.06600321 -0.01970341
  0.26089045  0.07531929  0.17808504  0.00573585 -0.1881961   0.2763646
  0.21203646  0.29249328]
[-0.0624733  -0.13231432 -0.02031157 -0.08393848  0.06977206  0.16957457
 -0.03545187  0.12821685  0.00589239 -0.06968849 -0.22441421  0.03200459
  0.08100983  0.16841365 -0.02696493 -0.172048    0.11801016 -0.13686034
 -0.1084768   0.25859106]
[ 0.11670066  0.10739511 -0.22041251  0.13564228 -0.33283463 -0.12100478
  0.04044047  0.30934888  0.18426818 -0.16271888 -0.37525177 -0.11950403
  0.08974049  0.0143756   0.14621492  0.39148828 -0.21671215  0.2842611
  0.03271979  0.22056654]
[-0.2685392   0.08556458 -0.08186086 -0.29060882  0.21697505  0.09589465
 -0.08794276  0.16973014  0.32183748  0.06439435 -0.17623463 -0.25830078
  0.10114238 -0.14060204 -0.01874443  0.06761028  0.05080504 -0.0113107
 -0.13575667  0.03414528]
[-0.32184976  0.16912918  0.28640953 -0.10317173  0.23370665 -0.26918492
 -0.13278714  0.02330442 -0.28115827 -0.21338072 -0.36668488 -0.2874511
  0.11083207  0.33854643  0.22636415 -0.11238612  0.20130438 -0.01070972
  0.21592969  0.09613188]
[ 0.15702747 -0.08025832  0.09000215  0.25917944  0.14060386 -0.18752843
  0.2967798   0.08063113 -0.24483596  0.0812823   0.08466164  0.11208928
  0.18232557  0.06967689 -0.02947757  0.21687782  0.11899635 -0.08603302
 -0.30674377  0.05754133]
[-0.04392572  0.02139852  0.17581668  0.04378247  0.10203691 -0.0802192
 -0.23828425  0.31125233  0.19580166 -0.2609154  -0.08512415 -0.03601247
 -0.07016382 -0.11965317 -0.27338707  0.2526663   0.32397276  0.18890204
 -0.18484724 -0.13730656]
[ 0.30552116 -0.06771515 -0.2113908   0.2094981   0.05523512  0.0736234
  0.09970295 -0.2643977  -0.2680574   0.03092982 -0.00312799 -0.29062518
 -0.29943967 -0.04836756  0.1811072   0.23855303  0.28244394 -0.26615298
 -0.02340387  0.18372084]
[-0.06846686 -0.13955262 -0.05781941  0.17882363  0.10029577 -0.09634272
  0.08337198 -0.22960874  0.04140635  0.1041635  -0.10410411 -0.03440628
  0.18354444 -0.22732683 -0.18830128 -0.14392005 -0.00728551  0.11015252
  0.21150227 -0.28875327]
[ 0.3339406   0.03740687 -0.03970335  0.09567692  0.053976   -0.05305916
 -0.21948396  0.15821412 -0.11073483 -0.07411135  0.2192928  -0.00970172
  0.19116704 -0.07220415  0.07379064 -0.01443397  0.00777479 -0.2152344
 -0.25162828  0.00591291]
[-0.18434976  0.16461892 -0.09662411  0.05569633 -0.1738416   0.05778234
  0.05824263  0.14230004 -0.2546928   0.0208241   0.2697335  -0.20065562
 -0.18353096 -0.18691593  0.16333793  0.22614571  0.0238783  -0.01944662
  0.01829637 -0.01804315]
[ 0.15478306  0.08364508 -0.23093012 -0.13786642 -0.3274915  -0.04441272
 -0.09994607 -0.2502226  -0.05020567 -0.08068357  0.1708065   0.08196639
  0.02527326 -0.06728657  0.2721359   0.17454474 -0.35161388  0.1738586
 -0.02168659  0.110517  ]
[-0.17430988 -0.15821695 -0.00625746 -0.06460301 -0.07954124  0.16117525
  0.17344314  0.04281313 -0.40800184  0.11524826  0.310904   -0.10198341
  0.09789061 -0.11396395 -0.10909639  0.07437801 -0.21087775 -0.10686287
 -0.05998873  0.30823734]
[-0.09741606  0.02600444 -0.00741896  0.02474886 -0.01839401  0.02597882
 -0.01643286  0.01751609  0.07178449  0.01442854 -0.03493698  0.03340763
  0.03408239  0.01834647  0.03060502  0.00522694 -0.0647603  -0.00335573
  0.05438907 -0.03311762]
layer 5 Activation
tanh
layer 6 Dense
20 1
[-0.15451512]
[-0.0139816]
[0.03621376]
[0.06740297]
[-0.04589055]
[0.06335558]
[0.00545423]
[0.13661295]
[0.10914875]
[0.03783216]
[-0.03671991]
[0.26014543]
[0.00972778]
[-0.20395464]
[-0.01493]
[0.15731552]
[-0.18544552]
[-0.17890194]
[0.09959116]
[-0.05978182]
[0.05648718]
