layers 7
layer 0 Dense
20 20
[-0.2569972   0.2269865  -0.17331144  0.23532782  0.20996504  0.08462051
 -0.01817373 -0.19448729 -0.15000317  0.01181811  0.16569161  0.09184828
 -0.13565232  0.03241102 -0.18390882 -0.27891633  0.02530441 -0.36945838
 -0.00540368  0.08082356]
[ 0.31496552  0.4797808  -0.01752187  0.10273314 -0.26162052 -0.1299114
 -0.2991428  -0.00148254  0.30302155  0.4263145   0.00171241 -0.0659073
 -0.1066462  -0.18296604 -0.13129416 -0.44088203 -0.46923873 -0.27471346
 -0.37220734 -0.5225053 ]
[-0.20627879  0.05337503 -0.44343558  0.15884836 -0.22028908  0.23874031
 -0.3235068  -0.05616911 -0.10576362 -0.2632269   0.33648917  0.03597157
  0.24688567 -0.50174564 -0.36369613 -0.17726578 -0.29060373  0.01768855
 -0.5369246  -0.6154463 ]
[-0.09332737  0.3957946   0.34920102  0.24811253 -0.07599761  0.11332299
 -0.19068816 -0.06417278 -0.36429626 -0.08522819 -0.05852333 -0.17028344
  0.2325353  -0.10822181 -0.06416209  0.1396733  -0.00382561  0.07729756
  0.35237956  0.18160501]
[-0.0293494  -0.2290492   0.19684307  0.3361499  -0.23982932  0.01791806
  0.1524475  -0.2537333  -0.4125832   0.2997796   0.00908468 -0.03099694
  0.3010119   0.12478536  0.26343673 -0.2557798   0.16956252 -0.19561559
  0.46202657  0.43102685]
[ 0.2455906  -0.45372924  0.2864266  -0.10046662  0.11916355 -0.32451177
  0.04124628  0.31153557 -0.32120055  0.38845333  0.01282796  0.13499139
 -0.2092198   0.2186601   0.01199888 -0.35114795 -0.05863796  0.08186574
  0.43458083 -0.1256468 ]
[ 0.16089733 -0.0588307   0.02363287  0.18784733 -0.2340278   0.00369596
  0.16076864  0.02138841 -0.14155865  0.26547423 -0.27262077  0.25142598
  0.30633262  0.01313619  0.14711747  0.09666718  0.01423404  0.09460632
  0.17311712 -0.09960406]
[ 0.24915761 -0.2702303  -0.40517142 -0.04582543 -0.0295241  -0.57185763
  0.39433882 -0.26949388 -0.1486151  -0.11795194  0.27783918  0.1761099
  0.14741802 -0.18983251 -0.01378806  0.02408501 -0.299046    0.50791025
 -0.28160068  0.30497304]
[ 0.30375364 -0.2105472   0.3201112   0.16043791  0.18317616 -0.18767695
  0.47881365 -0.26858556  0.09051973  0.3129217   0.20676695 -0.511062
  0.4048669  -0.54350543 -0.24339335  0.13294648 -0.1682018   0.25983685
  0.7782165  -0.20291333]
[-0.29840028  0.18824376 -0.19538563 -0.07937565 -0.05107682 -0.28496453
 -0.16484052 -0.01476927 -0.22553629  0.02047537  0.11994341 -0.18248028
  0.20661658 -0.3646241  -0.10492599 -0.25495952  0.07777095 -0.0261712
  0.27625772  0.3001078 ]
[-0.19051562 -0.34362724  0.0014049  -0.02106502 -0.1436652  -0.442067
 -0.00262168 -0.06006335  0.26329446  0.2083856  -0.08120053 -0.07741107
 -0.18097776 -0.14734723 -0.05682854 -0.2931384   0.28368065  0.33082062
  0.13983159 -0.09973063]
[-0.16990963  0.02978352  0.42977208 -0.4263517  -0.10655151  0.52357477
 -0.6887682   0.29220986 -0.04180137  0.16740727  0.28671053 -0.0245441
 -0.45001066  0.4767568   0.2871682  -0.28409678  0.26629403  0.11906409
 -0.5017031   0.23082012]
[ 0.2269367   0.01050715  0.06634717 -0.28451693 -0.01547945 -0.00402115
 -0.36385655  0.29590213 -0.04601174 -0.31993568  0.25815746 -0.19050731
 -0.10817922  0.19756603 -0.22849609 -0.2128105  -0.11711425 -0.31342068
 -0.37886694 -0.00051606]
[-0.21643084  0.32126597  0.00987864  0.504174    0.44229436 -0.2993254
 -0.07305221 -0.98623616 -0.11570656 -0.21198599  0.11699016 -0.1469255
  0.3361085   0.21516986 -0.7331193   0.2725875   0.05955478  0.42085147
 -0.50984126 -0.51140845]
[ 0.08736376 -0.1296636  -0.13983363  0.50090826  0.25126052  0.340717
  0.4826751   0.0390864   0.56433207  0.3786557  -0.05086695 -0.1628804
 -0.77651495 -0.46098936 -0.32312047 -0.63423395  0.7481714  -0.8600984
  0.19713992  0.5091657 ]
[-0.31100395 -0.08414353 -0.6420875   0.5911248   0.37613404 -0.13461556
 -0.4901746  -0.22996952  0.29719508  0.228372    0.04997964  0.19472705
 -0.317709    0.19122188  0.14296964  0.21524793  0.3268599   0.22733307
  0.06433256 -0.09946417]
[ 0.16022837 -0.36855567  0.13591865 -0.08525249 -0.13523571 -0.10914715
 -0.51498455  0.4744759   0.02201978 -0.04590152 -0.23782237  0.23696713
 -0.5049182   0.2775511   0.11826902  0.11915505  0.53797287 -0.01766403
 -0.42698509  0.11839344]
[ 0.03529402  0.19333966 -0.2741246  -0.38395712 -0.132071    0.04286516
  0.01168018  0.72151303  0.18199871 -0.27517956 -0.8213101  -0.050526
 -0.19668533 -0.6241004   0.7940491  -0.19192272 -0.37662107 -0.06639255
  0.51556087  0.72359645]
[ 0.06389566 -0.1958696   1.151062   -0.6374144  -0.82230586 -0.34270784
  0.26111278 -0.21278372 -0.42055982 -0.6265796  -0.29455438  0.34893966
  0.43605158  0.700073   -0.04214497  0.15200108 -0.78546745  0.7210665
 -0.12404162  0.16133721]
[-0.18726368 -0.21541409 -0.51018906  0.37540057  0.16391152 -0.606708
  0.17651233 -0.69671214  0.05270601 -0.07853973 -0.07368098 -0.4371414
  0.55831474 -0.3394633  -0.30660507  0.12793843 -0.3864399   0.46179348
 -0.17247327 -0.42597088]
[ 0.04659453  0.12195382  0.16476826  0.06017913 -0.11775467  0.09388594
 -0.00468163  0.00848547 -0.02626784  0.11452381 -0.07874375  0.07640256
 -0.07695644  0.00864029  0.06607536  0.0300538  -0.03369361 -0.0624523
  0.06845426 -0.00173913]
layer 1 Activation
tanh
layer 2 Dense
20 40
[-0.26558495  0.13847728 -0.17822367  0.09346698  0.12630723  0.26691136
  0.02530389  0.25971174  0.25996995  0.14819387 -0.18530354 -0.09581958
 -0.05363571  0.2277305  -0.12963791  0.04792426  0.20208631 -0.2825493
  0.16050409  0.2614052   0.12521933  0.26199672  0.08763401  0.16820015
 -0.14815025  0.04280918  0.2046074  -0.02602224  0.08669293  0.2081651
 -0.4240607  -0.20524457  0.0070295   0.2721355  -0.15541978  0.18710513
  0.2309097  -0.14731468 -0.30262578 -0.1758694 ]
[-0.0116943   0.20773305 -0.16898431  0.35064366 -0.29756653  0.17527084
  0.24833052  0.10938041  0.05617843  0.1711231  -0.09815254 -0.32787335
  0.18960334 -0.01371254 -0.04055115 -0.27840054 -0.10927746 -0.24076587
 -0.13577424  0.26544216 -0.18178591  0.24542895  0.00632897  0.16697225
  0.2661159  -0.2902872   0.0976752   0.06070298 -0.25535762 -0.26005587
 -0.20909594 -0.0723462  -0.08019074 -0.07069513 -0.08152654 -0.26657936
 -0.19740699 -0.21617109  0.25269735  0.02206184]
[-4.5037749e-01  1.7377526e-02 -8.2051232e-02 -2.7986482e-01
 -4.9703993e-02 -1.4864904e-01  2.0213130e-01  2.3828441e-01
  2.5411725e-02 -4.2636037e-01 -2.6391253e-01  5.5829398e-02
 -3.2129923e-01  5.8623888e-02  4.3848690e-02  2.6183933e-02
 -2.0349498e-01 -1.8326488e-01  5.1533526e-01  3.6309096e-01
 -4.5018658e-02  9.1755460e-04  1.4658324e-01  2.5308153e-01
 -2.9374588e-01 -2.8434557e-01  1.4166602e-01  2.8261429e-02
  1.9728687e-01 -8.7704167e-02  4.1780338e-02 -1.1096090e-01
  3.8488325e-01 -3.9572915e-01  8.9350536e-02 -2.5447670e-01
 -4.6045399e-01 -1.4013413e-01  4.5195979e-05  2.4714568e-01]
[ 6.7600504e-02  1.2819006e-01 -1.7445879e-01  5.7427364e-04
  2.5367448e-01  3.3037978e-01  2.0860198e-01  5.1693696e-01
 -4.6460550e-02  4.3628387e-02  5.6435645e-02  3.5943684e-01
 -3.3290929e-01 -6.0590583e-01 -3.7948680e-01  3.3084023e-01
  4.7161111e-01  2.5963697e-01 -3.3005568e-01  1.6782647e-01
  3.6481586e-01 -2.4794291e-01  6.6326119e-02 -3.8657721e-02
  5.5417085e-01 -3.4539568e-01  1.8082861e-02  3.3240493e-02
 -9.9529810e-02 -5.6047910e-01 -1.0088521e-01  5.0074745e-02
  5.4456890e-02 -1.6668013e-01 -2.7296099e-01  3.3684763e-01
  1.8583119e-01  3.4773514e-01 -2.6715413e-01 -1.6048256e-01]
[-0.1771564  -0.00359674  0.1122817  -0.12834157  0.16604128  0.09822602
 -0.24636155  0.1588611   0.15750529  0.10923424  0.23668392  0.08854246
 -0.23744816 -0.23596886  0.04502746  0.01346972 -0.15778764  0.19910803
 -0.31943506 -0.2673048  -0.0745377  -0.28890094 -0.03525091 -0.10074537
  0.1251677  -0.2968838   0.12879574 -0.00122428  0.07086992 -0.22249874
  0.07075176 -0.27214602 -0.3686115  -0.07673906 -0.40783492 -0.05205978
 -0.1090654   0.44305667 -0.07864384  0.1469741 ]
[ 0.05913859 -0.10919031  0.23830009 -0.19572401  0.16359279 -0.14908144
  0.03479067 -0.0931861  -0.21677823  0.26260033  0.23239927  0.46566516
 -0.10634678 -0.30700517 -0.00642638 -0.25799915 -0.15683633 -0.18834263
  0.25446478  0.368596   -0.10872976  0.22059566  0.28629604 -0.20605119
 -0.09644604 -0.08803657 -0.33043864 -0.19782884 -0.00124828  0.12530628
 -0.23290813  0.02444738  0.21819845  0.05255507 -0.18135495 -0.54159224
 -0.09254386 -0.02736991 -0.06354725 -0.35940367]
[ 5.65940551e-02 -6.13622777e-02 -1.70529157e-01 -3.28905851e-01
  3.14569652e-01  1.46738291e-01 -2.15469692e-02  1.22515239e-01
  2.02172071e-01  3.11785907e-01  1.74436033e-01 -9.59909987e-03
 -1.62054300e-02  4.70250438e-04  3.55403535e-02  7.79743046e-02
 -4.55784984e-02 -1.21947937e-01 -4.71759558e-01 -2.44154692e-01
 -4.67826605e-01  1.18194781e-01 -2.23056167e-01 -1.09997345e-02
  2.20888421e-01  1.09054632e-01  4.63532172e-02 -2.73677051e-01
 -1.53206974e-01 -6.94460392e-01  7.42867216e-03  8.63655284e-02
 -5.53085804e-02 -2.65306801e-01  2.23034933e-01 -1.56714231e-01
  5.05833089e-01 -1.03661820e-01  6.74103275e-02  2.53831804e-01]
[ 0.4946171   0.03158016  0.41724116  0.0596967  -0.15895754  0.13294971
 -0.2429682  -0.17108586 -0.25212526  0.0940297   0.16908273  0.05961962
 -0.17945921  0.00749254  0.09862225 -0.421008    0.08877909 -0.21849328
  0.3439792   0.14333464  0.16919965  0.17407605  0.02068099  0.24305595
 -0.5500701   0.31021968 -0.3617826  -0.204162   -0.40049145  0.34880078
  0.20087847 -0.17265221  0.07597572 -0.09327365 -0.21666832 -0.4527428
  0.06670028 -0.4991052  -0.23743483 -0.16103248]
[-0.18753229 -0.20170753  0.22973159  0.09172024 -0.05220032  0.17782362
 -0.11176688  0.14386973 -0.19917545  0.02732609 -0.18300231 -0.11236696
  0.27332217 -0.29676217 -0.32322153 -0.04182169 -0.00850416  0.21455462
 -0.14370483 -0.03073817 -0.41009045  0.42162326 -0.25614432  0.03077418
 -0.2039948  -0.00266193  0.07519514 -0.01681283 -0.21724935  0.06311914
  0.04522304 -0.07629169  0.26003036  0.41365936  0.14888833 -0.07231185
  0.4206711   0.02490646 -0.05298897  0.15652435]
[ 0.16533324 -0.15624137 -0.04874382  0.06845924 -0.1575217  -0.22106498
 -0.05935907  0.0311591   0.05157927  0.18702386  0.24849644  0.35699195
  0.10461694 -0.3140335  -0.10717012 -0.21329357 -0.18082196 -0.1437925
  0.21619542  0.1885136   0.0286853  -0.20900926 -0.11080921  0.012134
  0.32591286  0.00874792 -0.07775491  0.05974406  0.06294977  0.10207027
  0.20191103 -0.08218062 -0.074433    0.11296497  0.03288048  0.12426554
  0.08894371 -0.16492806 -0.26632884  0.01170167]
[-0.44798347 -0.27606797  0.29973993 -0.29463294  0.08784134  0.14988881
  0.14404005 -0.20096667  0.01241966  0.35862574 -0.13859898 -0.15033436
 -0.29498023 -0.05857123 -0.27793774 -0.3368649   0.18146203  0.30277184
 -0.32459912 -0.03246563 -0.26621574 -0.06888865 -0.1177991  -0.13908796
  0.37690392  0.21634066 -0.06881184  0.0029272  -0.23532987 -0.13894963
 -0.27213675  0.14787415  0.22400972 -0.03090858  0.13401648  0.08922499
  0.3693927  -0.18268208 -0.02910971 -0.09062425]
[-0.09722454  0.10723605 -0.33113077  0.29649702 -0.3592712  -0.00792159
  0.044158    0.1497001   0.13584058  0.05958672 -0.03978369 -0.03457467
  0.23921284  0.20760076  0.25140032  0.09226318  0.04716295  0.16495043
  0.235702    0.13579176 -0.00808104 -0.41707164 -0.06954806  0.1427221
 -0.14253573  0.26408195  0.19789502 -0.0375124   0.31344107 -0.0011605
  0.29657438  0.08027206 -0.26930255  0.04272319 -0.02535318  0.02770922
 -0.30143276 -0.22916006 -0.01854239  0.29333293]
[-1.99812204e-01 -1.61995720e-02 -3.43886644e-01 -1.14088483e-01
 -1.15590416e-01 -1.56707734e-01  1.30860582e-01  9.86521766e-02
 -9.56988111e-02 -4.48581964e-01 -3.09961915e-01 -6.42860472e-01
  2.92565823e-01 -1.42918482e-01  1.23612948e-01  3.05414438e-01
 -1.52697265e-01 -1.83380067e-01 -1.72089875e-01 -3.02134186e-01
 -6.36745319e-02 -1.41743794e-01  1.78257748e-01  2.37022787e-01
 -1.45510077e-01 -2.09168568e-01  1.82344466e-01  3.99997622e-01
  2.84491398e-04  4.19940613e-02  1.17803983e-01  1.95350289e-01
  5.21947920e-01 -3.83201987e-01  5.76369986e-02  2.44608030e-01
  2.36405313e-01 -3.63394231e-01  5.48641205e-01  9.37795937e-02]
[-0.42699808  0.19705248  0.1477984   0.08689164  0.10161453 -0.19015695
 -0.12989077 -0.07839704 -0.38411418 -0.16277495  0.05930931 -0.15167764
  0.03798751  0.27040848  0.0370981  -0.20880985 -0.40508595  0.25444806
  0.43579087  0.2878978  -0.06101818  0.10269503 -0.00412775 -0.06825952
  0.22091573 -0.03573408 -0.09513171  0.25051764  0.23729847  0.24985188
 -0.23776482  0.18109441  0.28584963  0.00755395  0.44367623 -0.15647142
 -0.59609205  0.3480111   0.18152693  0.01486055]
[ 0.36387357 -0.27273765 -0.06720631  0.10552272 -0.03336537  0.02280675
  0.19307117 -0.18464822 -0.02107497 -0.15702488  0.09421656  0.20179515
  0.11982208  0.32272995 -0.1166585   0.00163615 -0.22343016 -0.10173237
  0.14388485  0.34088    -0.10621017  0.08978067 -0.19901945  0.26115578
 -0.33769238  0.02770814 -0.08704674 -0.3144869  -0.24711838  0.34064204
 -0.11254163 -0.16802584 -0.22921583 -0.07264101 -0.03255546 -0.1658778
 -0.2408464  -0.48933807 -0.09448712 -0.13154626]
[ 0.00658047 -0.30532995 -0.1811777   0.25998545 -0.15249686 -0.32693172
 -0.13102478 -0.01349133 -0.18269545 -0.3206351  -0.01072691 -0.57782686
  0.26806286 -0.37901813 -0.06462312 -0.16114321  0.06200363 -0.00377757
 -0.20294467  0.09969564 -0.15904193 -0.23031081 -0.00149191  0.23598965
 -0.15675561  0.18579538 -0.05232014 -0.20956755 -0.04311925 -0.2723159
 -0.10235541 -0.10663233  0.4314438   0.02218593 -0.10297403  0.01304616
 -0.16626678  0.24724104  0.25668052  0.06308187]
[ 0.07899163  0.24374695  0.42657065  0.0489868   0.07310142  0.17989457
  0.23067008  0.48535603 -0.30231926 -0.00861772  0.18327555  0.6031732
 -0.6796736  -0.42841512 -0.6678274   0.00772769  0.38286275  0.28114042
 -0.15804178  0.4560229   0.20973858  0.1423873  -0.18477693 -0.26745883
  0.19731325 -0.319706    0.2726287   0.26108053 -0.2773934  -0.4120509
 -0.20572291 -0.05073461 -0.4758307   0.03900338 -0.24417947 -0.42622405
 -0.5383853   0.02445174 -0.20442489 -0.4311861 ]
[-0.08112294  0.17536987 -0.24147272 -0.1320672  -0.26179394 -0.12462599
  0.32490453  0.17059721  0.17924887 -0.01062556  0.30968553 -0.39619422
 -0.05632267  0.20493996 -0.12210106 -0.14383104 -0.00591525 -0.12450533
  0.12412879 -0.4038966  -0.2006495  -0.28438932 -0.06511603  0.4275654
 -0.25029218  0.24926502 -0.175838    0.47360075  0.07812279  0.41406897
 -0.47973073  0.21620563  0.00746082 -0.37910703  0.3153206   0.37237948
  0.4604873   0.28154653  0.18896051  0.09099191]
[ 0.46509725 -0.08995463 -0.22989154 -0.15287992  0.30898982  0.1248569
 -0.25895664  0.08418828  0.29298368 -0.1627764  -0.15621486  0.30443504
 -0.1481633   0.08153553  0.47893864  0.13320526  0.0331497  -0.16247262
  0.00379391 -0.00630038  0.27602765 -0.03922902  0.01420732 -0.26146132
  0.11266118 -0.40063506  0.01262966 -0.588083   -0.05748421 -0.10972357
  0.02957793 -0.31028378 -0.00609359 -0.3016064  -0.28817615  0.21706872
  0.37480766 -0.7462808  -0.27720973  0.4623726 ]
[ 0.17058212  0.10071833 -0.17981276  0.11512531 -0.2495339   0.20996891
 -0.03753445  0.03762513  0.11198521  0.15406854  0.15594961  0.32972872
  0.14235349 -0.11300659 -0.08782382 -0.0754406   0.24769567  0.10846078
  0.00146645 -0.05726792  0.15422457  0.07085089  0.06567109  0.25091577
 -0.19010916  0.02065955 -0.01676149 -0.30543527 -0.18866967  0.23854284
  0.17266475 -0.20576641  0.00760188 -0.04714544  0.10198049 -0.17706792
 -0.15484624 -0.19292408  0.02380942 -0.05457632]
[ 0.14316325 -0.0071791  -0.09185893  0.06335817 -0.16562155  0.02815778
 -0.04801328 -0.07183468  0.01633045 -0.01014053  0.05036117 -0.09455786
  0.13307801 -0.06298985  0.12770669 -0.0801721   0.04239746 -0.05563945
 -0.03938589 -0.02300295 -0.09452232  0.01633729  0.02440696 -0.0828879
  0.06569295 -0.04352278 -0.06863943 -0.04144459  0.02064754 -0.14559859
  0.01372394  0.01384705  0.10007857  0.00512793 -0.17117749  0.05682859
 -0.02609818 -0.30853483  0.00922972  0.03108475]
layer 3 Activation
tanh
layer 4 Dense
40 20
[-0.12922645 -0.26055506 -0.17631164 -0.27075824 -0.3345391   0.20803502
 -0.08310514 -0.05173888  0.31440902  0.08146704 -0.20874113 -0.23721273
 -0.33069235  0.04235516 -0.1457709  -0.24859174 -0.16748032 -0.08918299
  0.05925376 -0.2003431 ]
[ 0.24614216  0.04303561  0.04828168 -0.07215829 -0.03409884  0.00720909
 -0.18190503 -0.2502405  -0.03782666  0.06492171 -0.0662     -0.07426051
  0.02638974 -0.24773581 -0.05357441 -0.16100854  0.25393853 -0.06974643
  0.07382444 -0.11594681]
[ 0.18324566 -0.01916397 -0.24121088 -0.28550148 -0.3705634   0.16330315
 -0.09057912  0.30130184 -0.12820897  0.11136165 -0.33090505  0.19198917
  0.24081503  0.3034396   0.04446075 -0.10833163 -0.28670457  0.1244064
  0.36126268 -0.10567584]
[-0.17503639  0.25970024  0.23720491  0.01411275  0.14809914 -0.2567791
  0.21345937 -0.10682129 -0.11222795  0.35768238  0.14920974 -0.2532923
 -0.0844634   0.27932835 -0.11863843 -0.06953403 -0.16314243  0.08259341
  0.2229056   0.01249071]
[ 0.09802265 -0.23259488  0.05158444  0.1371208  -0.07624542 -0.23434553
  0.08409707 -0.28645775  0.16053084  0.2300102  -0.23145242  0.03879506
 -0.01647042 -0.15133077 -0.24533199 -0.24658585 -0.1394773   0.23113646
 -0.11335322 -0.02548662]
[-0.13203107 -0.03177954  0.02471808 -0.1379127  -0.12662467  0.18239723
  0.15256669 -0.15866822  0.10960785  0.03678664 -0.26138029 -0.08851168
  0.09207978  0.06228236 -0.1616306  -0.38435623 -0.39913854  0.14448017
  0.08846473 -0.22284783]
[ 0.38260362 -0.07304011  0.09237484 -0.02989399 -0.09059211 -0.20739323
  0.01599573 -0.15925074 -0.25506926 -0.17649299  0.41797405  0.20722479
  0.05851648  0.07580001 -0.07165204 -0.11464346  0.33887333 -0.14389634
  0.25000226  0.09063679]
[ 0.01776977  0.03642022 -0.01492884 -0.31489414  0.20611987  0.23568805
  0.06756795 -0.14606006 -0.08535022  0.27416518 -0.28114635 -0.19650735
  0.20703807 -0.20257242  0.19668539  0.13998774 -0.24946594 -0.16258171
  0.11722328 -0.03875029]
[-0.3507958  -0.00762773  0.28258732 -0.05934424 -0.04222059  0.28838784
  0.11147339 -0.13598199  0.09982792  0.20390841  0.21601601  0.09709387
  0.05378379  0.30957127 -0.27925658 -0.1754639   0.09812289  0.29897803
 -0.17923798 -0.04033548]
[-0.09373374  0.18125929  0.17162606  0.24856053  0.10165431  0.26219183
  0.24245165  0.11652087  0.02154904 -0.03920531 -0.21857472  0.12947313
  0.14241537  0.10697993 -0.11157522 -0.1398682  -0.14302337  0.05369737
  0.34922746 -0.14797091]
[ 0.0160066   0.2073925   0.09023155 -0.24259356 -0.01159464 -0.14391963
  0.00228153  0.11711213 -0.01044036 -0.05779467  0.12861025  0.05599735
  0.01121906  0.23825753  0.12537527 -0.3551386  -0.140905    0.2903556
  0.21715471 -0.08675634]
[-0.18382089 -0.09183581 -0.09458337 -0.04715177 -0.41419294  0.078369
 -0.14079773 -0.25238344  0.0105634  -0.11185553 -0.3438556   0.16717088
  0.31282955 -0.21808782 -0.1871994  -0.07278591  0.00482887  0.00939109
  0.4521752  -0.16217877]
[-0.25954393  0.20587693 -0.14585222  0.06319988  0.07899901  0.11342757
  0.02411163  0.2645563  -0.10356082  0.03398105 -0.1978462  -0.29225177
 -0.1846818   0.1301272  -0.27680212 -0.00350813  0.28709102 -0.11977959
 -0.3958441   0.04316198]
[ 0.13859019  0.08183496 -0.12866172  0.04010736 -0.10170471  0.2342277
 -0.35293055 -0.28614238  0.00567732  0.19212109  0.02081203 -0.13274238
 -0.30583757  0.20472783  0.16953015 -0.2242544   0.35256612  0.16555697
 -0.19928433  0.19147222]
[-0.32692412  0.13152826  0.22294243  0.14174068  0.07529793 -0.18585336
 -0.3399148   0.22034167 -0.21178156  0.15599726  0.2527594   0.10964685
 -0.21636084 -0.19208346 -0.00744781  0.01681216 -0.13585116  0.26672912
 -0.23402122 -0.09957279]
[ 0.2261712  -0.20554467 -0.18064168 -0.08240703  0.16089801 -0.10495041
 -0.21569227 -0.14875518  0.13486327 -0.27578104  0.16732855  0.19732709
  0.01260461  0.1368039   0.1934531  -0.19893241 -0.15819477 -0.0252646
  0.14544109  0.09118341]
[-0.1724301  -0.09323642  0.10210482 -0.01653787 -0.15954451 -0.26975048
  0.25395167 -0.17849985 -0.12495191  0.1976361  -0.3379697   0.1457627
  0.2874634  -0.08315393 -0.17789198 -0.30301055  0.15470627  0.19811216
  0.08931188 -0.01971454]
[-0.00571704 -0.09325574 -0.24546713 -0.35581982 -0.1485233   0.16429101
 -0.15891086  0.02330036  0.30941945  0.09663531 -0.16612606 -0.29661283
  0.33008346 -0.18978383 -0.2145203  -0.262593    0.17484912 -0.08935901
  0.32826993  0.02658571]
[ 0.3508025  -0.19646274 -0.20546845 -0.08480104 -0.3264691   0.09998788
 -0.31042683 -0.20093754 -0.13687351 -0.0937888   0.20700897  0.11374651
 -0.01207385 -0.01429236 -0.17495172  0.18018486 -0.11230079  0.15662846
  0.24972145  0.05714874]
[-0.01232256  0.11761536  0.22284009  0.06860943 -0.09909127 -0.16746743
 -0.22933334 -0.15593298  0.14305674 -0.28132355 -0.3329114   0.10981648
  0.08764175 -0.06300097  0.4170629  -0.16493566 -0.04624031  0.18127611
 -0.03778968  0.07809523]
[-0.19740927  0.09351562 -0.02783072 -0.44333372 -0.1357911  -0.1968967
 -0.1452859  -0.00834479  0.2081603  -0.10707271 -0.02191562  0.05145258
  0.2696075   0.0213722   0.02011808  0.08793676 -0.05585131  0.31249076
  0.07373928  0.08747383]
[-0.36627144  0.12137122  0.21197215  0.18486238 -0.21898879  0.12987295
  0.15894938 -0.32990366  0.01617104  0.2326066   0.03427893 -0.08791524
 -0.00217645 -0.02654242  0.02302076  0.07140303 -0.31462938 -0.22371249
 -0.02439291 -0.09115891]
[ 0.08712758 -0.19258325 -0.25946328  0.17800267 -0.04052063  0.04195166
 -0.20211358 -0.09433416  0.5247059   0.00105859  0.3663947  -0.2156331
 -0.02948131  0.22114792 -0.12516756 -0.0995605   0.04675467  0.10117942
 -0.07491997 -0.11228077]
[-0.05742346 -0.19046295  0.25400433 -0.19338988 -0.03672368  0.23870589
 -0.34400973 -0.04278287 -0.22043815 -0.07693473 -0.01435656 -0.23697193
 -0.21717227  0.14295991  0.01839309 -0.13523895  0.1327011  -0.2514214
 -0.12194805  0.27005205]
[-0.24891555 -0.12610412 -0.05689168 -0.0643791   0.29643628 -0.00915917
  0.27502573 -0.27145594 -0.09566069  0.09578348 -0.10426404 -0.27869204
  0.03438094  0.31762612  0.20447923  0.19187178  0.00785377  0.27079585
  0.00403718 -0.30024105]
[ 0.00708463 -0.23217914  0.22324926  0.08741734 -0.2881308  -0.01914442
 -0.16074055 -0.05974885  0.0887079   0.08393873  0.27247304  0.05720478
  0.1905558  -0.11610654 -0.08942801 -0.09000137 -0.03674238  0.12213977
 -0.01910487  0.25900763]
[-0.00690997 -0.12113976 -0.20779167 -0.16014282  0.16800085 -0.08885042
 -0.0231924  -0.1283171  -0.21023844 -0.26304114 -0.21242657 -0.2288954
  0.20793091  0.12709269  0.04248517 -0.29805216  0.21390454  0.27694064
 -0.02824685  0.05092818]
[ 0.20767225  0.24429002 -0.00733362 -0.30164018  0.33355474 -0.17401902
  0.31589347  0.27178487  0.53043157  0.10933021 -0.13595992 -0.17984131
  0.1823418   0.08660915 -0.27214512  0.13763523  0.23775393 -0.07023815
 -0.1891042   0.216607  ]
[ 0.1585471  -0.22436687  0.15625735 -0.08885126  0.05582177 -0.29383987
  0.10764936  0.00724597 -0.06613367  0.01941627  0.17773062  0.21473375
  0.23892936  0.08115347  0.13826865  0.13988411  0.24948013  0.02381755
 -0.24801873  0.2552032 ]
[-0.03173546  0.31682274 -0.10604083 -0.05849897 -0.09481762 -0.29976916
 -0.10230517 -0.11019437 -0.24634346  0.13195229 -0.20632328 -0.03884638
 -0.34185207  0.11999431  0.15333742 -0.03775297 -0.00930976 -0.07494501
 -0.08651419  0.19329731]
[-0.30361292 -0.2918328  -0.25833866 -0.03152123 -0.08166043 -0.04642302
 -0.11746044  0.2030839  -0.13434705 -0.17450403  0.03017049 -0.17723824
 -0.06084967 -0.11248007 -0.02804202 -0.30542877 -0.0227232   0.08219854
  0.166377    0.0830446 ]
[ 0.46851724 -0.10330761  0.01958345  0.02343738  0.20839801 -0.25090325
 -0.27422222  0.37265605 -0.11120825 -0.13973151  0.25136814 -0.24982545
  0.04895481 -0.04017854 -0.03995584  0.196483    0.17828596  0.15709391
 -0.18664674 -0.05581412]
[ 0.11527959 -0.28823388 -0.1807814   0.27504942 -0.05399032  0.10700674
  0.06623973  0.05626098 -0.01908921 -0.00231689  0.13815843  0.22211581
 -0.04833208 -0.10971932  0.07470856  0.43379804  0.35834995 -0.01132254
  0.04621894  0.19106895]
[ 0.18598844 -0.02736749  0.1349091  -0.07717106 -0.15072723 -0.17563806
  0.03097116 -0.0320978   0.16373183 -0.01002773  0.0276152   0.08925413
  0.27352023 -0.22263777 -0.1542847  -0.20575742  0.18138427  0.22456385
  0.32146057 -0.18941508]
[ 0.24238248 -0.2508818  -0.13149711  0.02194201  0.01234953  0.15273918
 -0.31833234 -0.12557448  0.06211323  0.03102846  0.12581505  0.11389273
  0.24619207  0.06980986  0.26980564  0.15883425 -0.19175316  0.19441877
 -0.43000433  0.16023053]
[-0.02131824  0.11937945  0.05341124 -0.27539176  0.31114265 -0.16633038
 -0.10014427  0.31334302 -0.1807704   0.07730002  0.08099391  0.00309806
 -0.05017411 -0.16047175  0.03046625  0.21837376  0.12227888 -0.1880251
 -0.2799681   0.1068545 ]
[ 0.11886604 -0.11119001 -0.09290416  0.02502381 -0.06589831 -0.21807778
  0.2331058  -0.01896912 -0.06868496 -0.18118325  0.01808253 -0.16298947
 -0.25537106  0.04875446  0.29032066 -0.33277634 -0.0719671  -0.13434777
 -0.12514015 -0.31858593]
[ 0.3912003   0.28168556 -0.18887673 -0.01354     0.14164543 -0.02853555
  0.27812707 -0.00865367 -0.29484928 -0.13480161  0.171437    0.04704341
  0.20606199  0.11356746 -0.07427239 -0.22376136 -0.1067121  -0.12578012
  0.01677254  0.31114715]
[ 0.13180603  0.04568425  0.08921302  0.25995836  0.2697444  -0.17165835
 -0.05457737  0.07699585  0.03076914  0.24398862  0.31491965  0.08382
 -0.30169678  0.06547717 -0.25031832 -0.02318982  0.00226343  0.26755112
 -0.23543064  0.141788  ]
[-0.17630768  0.1293606  -0.19432878  0.11355072  0.01509273  0.07192175
  0.01259644  0.13065098 -0.0351061  -0.08876926  0.26905385  0.05345576
 -0.1473958  -0.15508704 -0.13562705  0.38599926  0.16930257 -0.12629235
 -0.01359677  0.08188429]
[-0.05026975  0.01508379 -0.032529    0.01160673  0.03313059 -0.01451617
  0.05543504 -0.00301599  0.03715003 -0.04029055  0.0836168  -0.02926936
 -0.03997939  0.02341722 -0.01543988  0.06355786  0.06634801  0.04479692
 -0.03497656 -0.08531334]
layer 5 Activation
tanh
layer 6 Dense
20 1
[-0.09056103]
[-0.0645587]
[0.00884104]
[-0.11800972]
[0.16135783]
[0.00066199]
[0.11093999]
[-0.09893818]
[0.00258509]
[-0.00046752]
[0.08646122]
[0.02875459]
[-0.19641377]
[-0.01670114]
[0.01134188]
[0.06341513]
[0.04611478]
[0.00620422]
[-0.08765533]
[-0.27970824]
[-0.04447257]
