layers 7
layer 0 Dense
20 20
[-0.1689867  -0.18732272 -0.42136684 -0.22444287 -0.19279332 -0.01233407
  0.08563294 -0.47722375  0.26362577  0.1134981  -0.06760626  0.23728336
 -0.29998195  0.14655061  0.2604465  -0.32703868  0.21730664 -0.00617535
  0.11485004  0.07882826]
[ 0.4578277  -0.4019661   0.00270323  0.01145023  0.24990927  0.44304854
 -0.06147328  0.30812466  0.06646868 -0.19566126 -0.5215661   0.14621727
 -0.11841984 -0.1816536  -0.13171569 -0.02404037 -0.36358708  0.37148258
 -0.50080615  0.25243893]
[ 0.10225794  0.36075076  0.5735398   0.3780334   0.15700945  0.3235021
 -0.02164883  0.0225344   0.01370578 -0.1389023   0.01572695 -0.3253946
 -0.11540689 -0.6804622   0.07099373 -0.02131511 -0.6532072   0.00948858
  0.12760696  0.25418654]
[-0.1459888  -0.1795194  -0.3852282  -0.08755783 -0.10324208 -0.01858274
  0.12022997 -0.13510387 -0.01866084  0.29106757  0.36107597 -0.20192367
 -0.1259946   0.1284852  -0.11612822  0.40048707  0.18093656 -0.01740065
 -0.10610029  0.09622576]
[ 0.15358707 -0.31145355 -0.37487924 -0.3936611   0.10704483 -0.22306298
  0.24845853 -0.3720177  -0.10175108 -0.39708528 -0.29224432  0.3605547
  0.03211177  0.23779364 -0.28328693  0.1613427   0.2665376   0.1305784
  0.03295475  0.33081612]
[-0.19211134 -0.36078602 -0.25704497 -0.11404271  0.04249996 -0.11230621
  0.2589538  -0.4874684  -0.37074992  0.42295212  0.25540423  0.3496871
 -0.10650847  0.6177358  -0.03219265 -0.16377157  0.58760107 -0.44150206
  0.2349353  -0.17479993]
[-0.2677626  -0.17261973 -0.51783526 -0.13738774  0.07548895 -0.45079684
  0.512839   -0.22514068 -0.3775675   0.45604643  0.3975502  -0.15494405
 -0.06308436  0.622791   -0.07505137 -0.00630546  0.73703724 -0.25712886
  0.19116259  0.00302412]
[ 0.18033814  0.31493565  0.28920937 -0.00244767  0.02581113  0.03764566
  0.04393553  0.19552441  0.30773994 -0.21351591 -0.3988107   0.15507276
  0.31408364 -0.26036695 -0.05592166 -0.35017785  0.19084938 -0.1586396
  0.01971663 -0.28049266]
[-0.36666122 -0.02469647 -0.01022069  0.3728452   0.04172632  0.00903551
  0.01518411 -0.34189266  0.09751964 -0.11051112  0.20203963  0.00277897
 -0.04938965 -0.03446553 -0.5189334  -0.217535   -0.32334486 -0.0174708
 -0.05000474  0.16621086]
[-9.06968117e-02 -1.16353296e-01 -1.36205450e-01  3.07264268e-01
  8.97200346e-01  6.10299371e-02 -5.45670509e-01  1.43847821e-04
 -5.80928475e-02  1.96020618e-01 -4.15135771e-01  5.21621466e-01
 -1.97506487e-01 -4.01662663e-02 -3.30012053e-01  3.62405151e-01
 -7.96742558e-01  1.82273835e-01 -5.67138731e-01 -3.35331559e-01]
[ 0.52221054  0.21311443 -0.40120316  0.00639995  0.33820647  0.60132784
 -0.52788997 -0.01496227  0.53542393  0.0059167  -0.07082862  0.6542887
  0.8715469  -0.01909658 -0.47564512 -0.5078451   0.0590879   0.27698296
 -0.20438868 -0.38958013]
[ 0.3651353  -0.02065591  0.01473154 -0.32170576 -0.11038058 -0.00219049
 -0.08118828  0.24599944 -0.28924656  0.10651043  0.14695032 -0.0476433
 -0.2525061  -0.43900245  0.14932488  0.05463271  0.53811055  0.16082147
 -0.36908475 -0.26673627]
[ 0.11837558 -0.1110867   0.1571498  -0.39241734 -0.17010371  0.32890317
 -0.44869596 -0.1866932  -0.08515256  0.39697748 -0.5345394   0.12661631
 -0.0957243  -0.2772403  -0.00728247 -0.26647705  0.03930685 -0.0245022
  0.45824665  0.24999198]
[ 0.17174901  0.1222793   0.3437772  -0.10391041 -0.5881482   0.1024716
  0.22537133 -0.16539924 -0.45518526  0.30776948  0.46248114 -0.29693872
 -0.11330588 -0.6127146  -0.05923602 -0.39067808  0.29313734 -0.73588943
  0.644421   -0.17783986]
[-0.40012953  0.06897086  0.26272312 -0.51743186 -0.50909877 -0.35153803
  1.040755   -0.1979771  -0.663101    0.09808514  0.17763059 -0.2896979
 -0.05494016  0.05437846  0.0266418   0.3573546  -0.698736    0.17708023
  0.37554985  0.237535  ]
[ 0.16116862 -0.3003871  -0.6110013  -0.0687922  -0.02817596 -0.33013335
  0.13345933 -0.41655624  0.15359132  0.0740922  -0.23971152 -0.36068457
 -0.4016857  -0.05540076  0.19364156 -0.1263254   0.44762045 -0.09800457
 -0.3975791  -0.20750444]
[ 0.39847305 -0.41110012 -0.28588477  0.2344185  -0.04138065 -0.57953894
 -0.38579533  0.75096035  0.1545393   0.3321397   0.5725781   0.44032672
  0.10967161 -0.12932095  0.5865247   0.15625481  0.16983698  0.53103584
 -0.72173524  0.90412474]
[-0.2169803  -0.12541324 -0.08493245  0.27725112 -0.196312   -0.10308631
  0.11098317 -0.3397974   0.32204238 -0.26686537  0.09576697 -0.38627577
 -0.18486542  0.47611633 -0.03655802 -0.14392155 -0.15717138 -0.14679712
 -0.19493462  0.09955404]
[ 0.48585132  0.13682523  0.5005764   0.01893451  0.03366364 -0.08210133
  0.01089535 -0.2300415   0.08141046  0.11437473  0.02255883 -0.16498624
 -0.367498   -0.00154591 -0.01819541 -0.08284912  0.37139222  0.37061414
 -0.02012374  0.11745729]
[-0.17503183 -0.1930095   0.34654826  0.18955603 -0.22628717  0.10443801
  0.05050584 -0.08092048 -0.27216417 -0.1369982  -0.20822683 -0.01120572
 -0.00324985 -0.11993363  0.48439008 -0.078445   -0.22540706  0.2670937
  0.0799171   0.02626804]
[ 0.06027259  0.00807333 -0.13936703 -0.08749456  0.00320372  0.01468223
 -0.03133739 -0.16189606 -0.04250021  0.04823359 -0.00999533 -0.03511278
  0.01880451 -0.00333953 -0.00886026  0.06034049 -0.00690714 -0.0075751
  0.00591518 -0.04255702]
layer 1 Activation
tanh
layer 2 Dense
20 40
[-0.1954375   0.00865927  0.22396968  0.14518265  0.5265416   0.14315845
 -0.11008738  0.08638499 -0.1320634   0.17343856  0.26549715 -0.11985533
  0.0199317  -0.33187774 -0.24281585 -0.30138206  0.18164341  0.1378236
 -0.14360471  0.02832102 -0.26530904 -0.24434534  0.4179088   0.07719731
 -0.22301057 -0.35887584  0.23748155 -0.0212053   0.05913743 -0.04497077
 -0.25320002 -0.22878093  0.2876373  -0.09999043  0.2729132  -0.23970586
 -0.17416725  0.1756566  -0.05308343 -0.39405584]
[-0.00720761 -0.3731706   0.24056448  0.10421053  0.06779406  0.21389546
 -0.07544269 -0.4126922  -0.19007072 -0.1543725   0.16142358  0.06567555
  0.03234077 -0.26778618 -0.17326401  0.11106879  0.09620208  0.17449673
  0.17301305  0.00389407 -0.07316009 -0.1538372   0.2796012  -0.04074892
  0.2172331  -0.10924754  0.32084823 -0.00323416  0.01326761  0.18509302
  0.09267662  0.30527702 -0.28753322 -0.02979342  0.28913066  0.21455422
  0.1715345   0.50012845 -0.02943067  0.11269605]
[ 0.35152632 -0.24748562 -0.32448158  0.11660755 -0.1724013   0.37801042
 -0.32209376  0.15765798 -0.06388293 -0.25005114  0.2923721  -0.1405523
 -0.26399472 -0.44462228  0.18295911  0.35251462  0.31732535  0.18970975
 -0.04969327  0.039105   -0.0444122  -0.20364413  0.27317327  0.35587713
 -0.08665465 -0.04994499  0.41566312  0.420697    0.09462295  0.16625038
 -0.28022498 -0.18860807  0.14197586  0.00307818  0.03610217  0.08988532
  0.07965581 -0.45805022  0.24584404  0.2588015 ]
[-0.13410968 -0.22253573 -0.05666952  0.1946244   0.18894553  0.08835632
 -0.01428144  0.21795952 -0.16221257  0.19531855  0.13241139  0.1676878
 -0.11944651  0.28771475 -0.17630358 -0.25062713  0.04482654  0.18315381
  0.17623462 -0.05261453 -0.20200832  0.13622801 -0.2614551  -0.09931305
  0.00221567  0.14869882  0.3941502  -0.01660482 -0.29409283  0.17967281
  0.17395388 -0.02648062  0.30107704 -0.12262843  0.17928587  0.32123786
 -0.24039538  0.2885989   0.04113289 -0.17570582]
[-0.22353731 -0.29614943 -0.00790188 -0.3233218   0.03706603 -0.06406535
  0.01265609  0.17425816  0.02637824  0.13193762  0.1599611  -0.09128849
  0.37223378  0.17828728 -0.03262338  0.18659468  0.02530875  0.0120424
  0.15422827 -0.05160739  0.22768368  0.54638296 -0.21632802  0.21467718
  0.12979662 -0.40393683  0.2716174  -0.37183437 -0.30796567  0.18155709
 -0.20195238  0.11070752  0.40104547 -0.043003    0.12540735  0.08045664
 -0.19141513  0.3820337   0.18218713 -0.58853465]
[ 0.12558612 -0.04929077 -0.10111244  0.10411311  0.22455151 -0.12778664
 -0.14498147 -0.2733669   0.05095535 -0.26316875 -0.10836225  0.16029559
  0.29935482  0.05298393 -0.12947229 -0.10082119 -0.239464    0.01583255
  0.27836788  0.11127853 -0.04540227  0.46059862  0.3268603   0.3484458
 -0.1759595   0.12542059  0.3367541   0.21939668 -0.15727153 -0.09804202
 -0.22288412 -0.1264429   0.07439507  0.21463536 -0.192285    0.03097388
 -0.19545732  0.31976408 -0.370746   -0.08470265]
[ 0.1336297   0.25535274 -0.28543663  0.46479663 -0.649702    0.31053033
  0.20994458 -0.2502263   0.30892357  0.03527945  0.06973574 -0.28029525
 -0.27693778  0.32124436  0.31995818  0.31837633 -0.1449967  -0.19537003
 -0.23236564  0.02152493  0.3205933  -0.48757395 -0.14628693  0.16031066
  0.25620955  0.6901332  -0.26095262 -0.17478822  0.07064679  0.09525652
  0.18537977 -0.10003196 -0.00233974  0.34130397  0.03689497  0.15780258
 -0.1957127  -0.5531355   0.21383984  0.34779173]
[ 0.10761111 -0.37337428 -0.07803341  0.02110093 -0.04706747 -0.50701255
 -0.24648498 -0.08832824  0.3780949   0.24216373  0.37248734  0.37474066
  0.1862834  -0.20607767 -0.3589976  -0.09949949  0.03141416  0.26685518
  0.14215775  0.17541407 -0.3612112  -0.1306582  -0.3784153  -0.62066346
  0.28913593 -0.25335237  0.28150424 -0.5603479  -0.28351736 -0.05288554
 -0.0167996   0.1181491   0.05306129  0.13392156 -0.13511807 -0.06013491
 -0.17248966  0.13337229 -0.05353038 -0.15223037]
[-0.5004791  -0.09222185  0.27326044 -0.34868467  0.66483474 -0.4114008
 -0.24198624  0.20448779 -0.45199677  0.11081128 -0.14913492  0.22683237
 -0.06202576 -0.145873   -0.19523342 -0.7373148  -0.24909772  0.27889353
 -0.20021068  0.2516817   0.00243987  0.01179413  0.42544714 -0.10604993
 -0.21253228 -0.58279854  0.1857819   0.29904062  0.04541728 -0.4716724
 -0.01631731 -0.09698997  0.3042811  -0.84680414 -0.20273395  0.49083406
  0.22845568  0.4361913  -0.9284194  -0.11495852]
[-1.9850621e-01  5.2250916e-01  2.7270073e-01 -6.7374326e-02
  9.0034261e-02  2.1725875e-01  1.6475463e-02  3.9491025e-01
 -2.1392010e-01 -2.7836271e-04 -3.1789786e-01 -6.3906588e-02
 -1.7713387e-01  1.5651473e-01 -1.3872515e-01  3.1238559e-01
 -6.6963635e-02  1.9475877e-01 -3.5620723e-02 -1.6732888e-01
 -1.7023913e-03  2.6795664e-01 -2.8085753e-01 -7.1433134e-02
 -2.2962566e-02 -2.2631565e-02  1.6144012e-03 -3.7448305e-01
 -1.4315188e-01 -3.6161240e-02 -1.4354932e-02 -1.9105958e-02
 -3.2886244e-02  3.9283320e-01 -1.7436109e-01 -2.9283944e-01
 -4.5492619e-02 -1.5075228e-01  9.6389085e-02  6.1409818e-03]
[-0.01472394  0.3695169   0.00197843 -0.21029869 -0.37249658 -0.01102053
 -0.25211897 -0.03880293 -0.13034801  0.26190382 -0.2096902   0.3690615
  0.2006699   0.46888602 -0.10110323  0.21875145 -0.13267262  0.17090721
  0.10396814  0.19448178  0.14091933  0.07954822 -0.33828598 -0.00600806
  0.12555045 -0.07632437  0.10079613 -0.24006431  0.31834358 -0.23298974
  0.30599418 -0.14504975  0.23228483  0.10993855  0.19347696 -0.10734392
 -0.41733354 -0.13988024 -0.04112452  0.11510102]
[-0.3898132  -0.02351159  0.18208194 -0.48053974 -0.10529676 -0.2857371
 -0.3146711   0.24010275 -0.03982021  0.14866798  0.02037241  0.28060654
  0.4401007  -0.0236675  -0.13381213  0.0803594  -0.2575894  -0.15116265
  0.01730271 -0.10089446  0.14572656  0.12809865  0.00474632 -0.33264473
 -0.2915243  -0.29544842 -0.0983442   0.29613137 -0.03483117  0.1872759
  0.17272739 -0.06072057  0.40715596 -0.27958736  0.12569533 -0.18188861
  0.08403672 -0.11374222 -0.5487798   0.18294169]
[-0.25509644 -0.3505079  -0.26673272  0.09182812 -0.20950858 -0.35112053
  0.04354187 -0.4326189  -0.22601698  0.3225212  -0.22302681 -0.07015228
  0.21331453  0.23154214 -0.2704959   0.00751464  0.07482225  0.09566721
 -0.09207877  0.05128986 -0.20173343 -0.30204028  0.20341785 -0.23669791
 -0.07621343  0.07565837 -0.16207184  0.12236395 -0.13542657  0.21820876
 -0.25863165 -0.23641197  0.07244782  0.0088991   0.38688248  0.3019619
 -0.2117734   0.32554466 -0.42050004  0.29360905]
[-1.7041817e-01 -1.8389767e-01  2.5460732e-01 -1.7979063e-02
  1.6494146e-01  5.8897573e-04  3.6561668e-03 -1.8588455e-01
  1.8200673e-01 -2.8419712e-01 -4.3122910e-02 -1.8535236e-01
  1.5641510e-01  4.2320609e-02  7.5489111e-02 -1.0521523e-01
  7.3838890e-02 -3.0761874e-01  1.2888399e-01 -1.2170238e-01
  2.4794041e-01  1.5668609e-04 -1.7145453e-01 -2.3560096e-01
  7.8881085e-02  3.9170989e-01  2.9891741e-02 -2.7133515e-01
 -3.0496159e-01  1.8219939e-01 -2.6080060e-01 -2.0976149e-01
  2.5725996e-01 -5.5970484e-03 -3.1559744e-01  1.3238575e-01
 -1.8258977e-01 -1.3445981e-01 -5.5966456e-04 -4.0880772e-01]
[ 0.02654344  0.2616542  -0.08615758  0.3993698  -0.32109365  0.08348384
  0.06217846  0.2652622   0.2060054  -0.150624    0.16273925  0.17277561
 -0.21044034  0.11700673  0.20256782  0.12553167 -0.14482503  0.15603386
 -0.35413596  0.03347234 -0.31907594 -0.59455514 -0.3230486  -0.03582712
 -0.05395412  0.14783204 -0.21507953 -0.15466577  0.01849022 -0.35011
 -0.21660708  0.01894339 -0.5180686   0.02916522  0.16784145 -0.16459808
 -0.22887725 -0.4939686  -0.24579622 -0.12005006]
[ 0.05774926  0.14296515  0.20757757  0.42957807  0.03018336 -0.11487382
 -0.25131086 -0.15652665  0.04077987  0.09581486  0.08245503 -0.03211858
 -0.06426715  0.4250186   0.32299277 -0.02247181 -0.14049253 -0.23533899
 -0.13298787 -0.15255414 -0.24451628 -0.15031347 -0.39075458 -0.23312867
  0.09483005 -0.1471091  -0.43788874 -0.45068184  0.38308161  0.1584584
  0.38479415 -0.01188412  0.1636316  -0.14249805 -0.01750961 -0.35912842
 -0.0903112   0.16429135  0.37475112 -0.23613513]
[-2.6442371e-02  2.4657850e-01 -2.5995699e-01  1.7865576e-01
  6.4934939e-02  3.3569461e-01 -1.3461828e-01  5.1202136e-01
 -2.5481209e-01 -2.5023860e-01  2.0347160e-01  2.5703317e-01
 -2.3237786e-01 -1.1230798e-01  2.5472063e-01 -7.0441164e-02
 -7.6953612e-02  3.3035666e-01  1.7814194e-01  2.6966089e-02
  1.7021358e-01 -1.6818732e-01  5.1546681e-01  2.9221988e-01
  1.9656591e-01  4.8161723e-02  2.8149751e-01  1.6114314e-01
  6.4801052e-02  2.6269588e-01  1.8709746e-01 -2.1220013e-01
  3.5389316e-01 -2.3661570e-01  1.5623786e-01  2.4485280e-04
  3.7622178e-01 -1.7488343e-01 -9.8031104e-02 -2.5117853e-01]
[-0.23376279 -0.1377098   0.11264458  0.1864259  -0.2504708  -0.00273279
  0.2553004   0.38953236 -0.10620842  0.16566682 -0.07344537  0.01666342
  0.24742666  0.17064501  0.22523545 -0.26656026  0.26647323 -0.12985449
  0.3528959   0.00077797 -0.08066164  0.3156894  -0.4570377  -0.27345198
  0.25538686  0.06874375  0.05984582 -0.13427779  0.2263905  -0.22715262
  0.07864882 -0.26165342  0.1895823  -0.18393463 -0.09371156 -0.2058292
 -0.43521872 -0.11360344 -0.44528335 -0.26616126]
[ 2.63156027e-01  1.16130523e-01 -1.72141612e-01 -3.96348648e-02
 -2.29155138e-01  2.83531249e-01  1.17823154e-01  1.40091230e-04
  1.08021192e-01 -2.53295839e-01  2.06040181e-02 -7.48176035e-03
  1.71092153e-01 -2.21530139e-01 -2.13243961e-01  5.34453750e-01
  8.96683633e-02 -1.39881382e-02  3.20222586e-01 -2.94246316e-01
  5.62966652e-02  5.38359769e-02 -1.03102371e-01  3.04862887e-01
 -3.29315841e-01  4.07589316e-01 -3.98906544e-02  3.18988889e-01
 -2.57502377e-01  1.91956893e-01 -6.12399466e-02  7.29546174e-02
 -5.10638416e-01  5.13073623e-01 -1.42672062e-01  7.97504634e-02
  1.98629767e-01 -1.43160611e-01  4.75216746e-01  3.99075925e-01]
[ 0.17351067  0.2407942   0.17937249  0.21600902  0.1350115   0.05822689
 -0.05916149  0.34461114  0.08119629  0.38537204 -0.47870228 -0.18448667
 -0.08398183 -0.13985272  0.39061993  0.20809056  0.05581602 -0.33152953
  0.00385949 -0.08463733 -0.0627932  -0.02709941 -0.14846896 -0.1771122
  0.20812564  0.09843212 -0.53194666  0.2918764   0.06480224 -0.3160074
  0.15080757 -0.24739945 -0.05480918  0.06789904 -0.14520104 -0.11463422
 -0.36158365 -0.15556945 -0.07817034 -0.24065776]
[ 7.58358911e-02  1.96783200e-01  1.12055667e-01  1.17898397e-01
 -1.23868339e-01 -2.36575603e-02 -3.70555334e-02 -7.58334249e-02
 -8.70357901e-02  4.18633595e-02 -1.05539195e-01  2.16993093e-02
 -5.46436869e-02  3.65335792e-01  4.69051450e-02  2.84861587e-02
 -1.61738381e-01  2.08114423e-02  1.18841166e-02 -5.26385643e-02
  1.42196212e-02  1.12462461e-01 -1.04585499e-01 -1.39569826e-02
  1.57301985e-02  1.23887554e-01 -7.75743425e-02 -2.46925205e-01
  8.33317637e-02 -1.34602636e-01  9.25914496e-02 -3.21993954e-04
  3.73074263e-02  3.43638361e-02 -1.10454872e-01  4.43237498e-02
 -1.54776350e-01 -4.04727533e-02  1.09432511e-01 -1.03407810e-02]
layer 3 Activation
tanh
layer 4 Dense
40 20
[-0.12465458 -0.1078414   0.02926547  0.01284088 -0.11373352  0.06738836
 -0.3494667  -0.16569285  0.304194   -0.3861856  -0.31285474 -0.04039274
  0.28292066  0.12435742 -0.38773194  0.05820042 -0.04656351 -0.08121073
 -0.20797633  0.16547662]
[-0.00710695  0.08284906 -0.20906991  0.27419764  0.1322362  -0.19103995
 -0.04943485 -0.2502917   0.16895793  0.02098866  0.10306556 -0.09256238
 -0.31245002  0.25491506 -0.31988415  0.3088789   0.23551205 -0.21884842
  0.06873821 -0.29654315]
[-0.09955574  0.16189991 -0.22216076 -0.29291716  0.23394535  0.1775271
 -0.16676027  0.01149714 -0.13242963  0.28443608  0.08912543  0.0058435
  0.25032875  0.28751382  0.32661137 -0.21222344  0.21646248 -0.36071897
 -0.2741989   0.21596116]
[-0.21318166 -0.03380299 -0.16908348 -0.12385609  0.35982525 -0.01378292
  0.26868138  0.0157575   0.1832082  -0.06831092  0.12214776  0.1361106
  0.02951032  0.13445647 -0.23236538  0.17806473 -0.17571467 -0.1944279
  0.12263698 -0.14593405]
[ 0.12728895  0.01995287 -0.22402026 -0.26714578 -0.27003315 -0.27712414
  0.22591072  0.25674766 -0.16697402  0.07623726  0.01767564 -0.38179213
 -0.13203706 -0.1792166   0.32787788 -0.01358498 -0.05558391  0.10907674
  0.3368804   0.25543138]
[-0.30641088  0.07321726  0.01030847  0.06429993 -0.01003356 -0.376145
  0.10546409  0.0633302   0.25945625 -0.132255   -0.22937757  0.15217285
  0.09233122  0.17771563 -0.05860893  0.00930683  0.12802435 -0.30616406
  0.3141135   0.00534346]
[ 0.19249736 -0.0716204   0.30037758 -0.12411714  0.41255283  0.06394454
  0.00205566 -0.1898772  -0.1896491  -0.26709664 -0.23764902  0.35542357
  0.1323743  -0.10655142  0.13749911 -0.20186862  0.35353017  0.16696657
  0.18508586  0.1483969 ]
[-0.3446565   0.13506791  0.00750378 -0.03860868 -0.36855614 -0.36376452
  0.00219545  0.03658666 -0.00740378  0.24913038 -0.15986286 -0.19577016
  0.01404168  0.03445342  0.23944977  0.12819895 -0.38425472 -0.1772712
  0.04009718 -0.15865041]
[ 0.17144248  0.04374919 -0.215296   -0.0224003  -0.03221422 -0.12312652
 -0.32620457 -0.12663934  0.29679713 -0.22530179 -0.06776123  0.5251684
 -0.2957177   0.04518455  0.01211148 -0.20130804  0.03957316  0.22800602
 -0.10594971 -0.1113    ]
[ 0.09516367  0.3689479  -0.13453473 -0.21925136 -0.25435778  0.23158492
  0.19172578  0.02404783 -0.0980705   0.09386765 -0.25188875 -0.32305774
 -0.07999199  0.13733009  0.22648017 -0.18424098 -0.21237195 -0.04468853
  0.09236784 -0.27090323]
[-0.14521246 -0.06642407 -0.12016378  0.21292052 -0.06676874 -0.37439382
 -0.24741966  0.06268837  0.17916128  0.18949613  0.0413782  -0.2753892
  0.1088218  -0.07957607 -0.05073071  0.14389953 -0.38937604 -0.10330998
  0.15893862  0.21904051]
[ 0.11757613 -0.01675566  0.0704208   0.1249315  -0.34693655  0.06095161
  0.20976055  0.38925207  0.15372095  0.3133967  -0.1503476  -0.23536709
 -0.0784789   0.1170832   0.05956706  0.29453957 -0.23037185  0.01782195
  0.10411521 -0.15153131]
[ 0.16293047 -0.38109955  0.04906002  0.07081291 -0.36105734  0.18074693
  0.05152784 -0.06866644 -0.18932785  0.01933086 -0.29768437 -0.44898206
  0.12384797  0.12396813  0.27856508  0.26884344 -0.05589113  0.31132987
 -0.0071753   0.1864932 ]
[-0.37783954 -0.12466236 -0.21265975  0.13148205  0.23853351  0.1662755
 -0.23066302  0.24170576  0.03633634  0.27913347  0.16129643 -0.11547216
 -0.05345453  0.20029044  0.07455087  0.05366073  0.07373248 -0.2737161
  0.0703055  -0.23633903]
[-0.20630707 -0.11345008  0.01883989  0.02829108  0.25251055 -0.05769344
  0.01732596 -0.1839293   0.164283    0.15675168 -0.18124692  0.26556954
  0.04777425  0.05768307  0.06710321  0.11211617  0.3778061  -0.30412483
 -0.43044475 -0.34056506]
[ 0.0574048   0.10756924 -0.2356341  -0.16285883 -0.09445977  0.0308954
 -0.25213596 -0.351659    0.15154879 -0.457354   -0.09347321 -0.00981105
 -0.20058052 -0.00875964 -0.4095292   0.01141047 -0.16490406 -0.34157342
 -0.00579767 -0.23516381]
[-0.01530094 -0.05320381 -0.12009221  0.00620029 -0.13443351 -0.2277942
 -0.03470173  0.06936855 -0.16948587 -0.23985143 -0.2979987  -0.09190645
  0.26303917 -0.07402632 -0.01154221 -0.10015234  0.1775924  -0.15373121
 -0.04376371 -0.01541765]
[-0.0023658  -0.21256399 -0.12187117  0.10538272  0.06319837 -0.32497716
 -0.00543592 -0.07554512 -0.26031524  0.34328714  0.13311966 -0.3934241
  0.09083612 -0.26485166 -0.23138426  0.04825412  0.10189708  0.07879549
  0.01237891  0.14386782]
[-0.27086532 -0.32442507 -0.2644478  -0.01085015 -0.22446398  0.05384183
 -0.18148172  0.09749424 -0.19796062 -0.05795233 -0.01349431 -0.04123965
  0.11197264 -0.04600513 -0.21734405 -0.10316805  0.1917402   0.2403875
  0.30487013 -0.09329149]
[ 0.10389671  0.2121008  -0.21750343  0.31737486  0.21363074 -0.05134708
  0.04666856  0.26666215  0.08271002  0.02229394  0.20894432  0.06275105
  0.04411716  0.0391026   0.21650852  0.24901223 -0.26900733  0.13457794
 -0.26385483  0.23513713]
[ 0.01787687  0.0413162   0.02858077 -0.261703    0.08791287 -0.12825991
  0.19519736  0.2820195   0.12070979 -0.27509284  0.00519187 -0.17849074
 -0.21772462  0.20677927 -0.00196158 -0.0724498   0.24407451 -0.13824505
  0.19700882  0.19480914]
[-0.3162895  -0.47068897  0.14110851  0.18603781  0.03100199 -0.17341386
  0.12754203  0.0106467   0.05565717  0.20947511  0.09479271 -0.3451692
 -0.24451639  0.33965752  0.23293227 -0.24880661  0.2622087   0.25195426
  0.09441029  0.2752666 ]
[ 0.1396075   0.13097134 -0.14326753  0.18051627 -0.21233149 -0.31401977
  0.00913719  0.23401752  0.30567762  0.01127992  0.14296463  0.03583701
 -0.16818249 -0.24327733  0.36334854  0.13614112  0.38615027  0.02313961
 -0.21103626  0.18867269]
[-0.3349602  -0.09079473  0.01977554  0.01996355  0.09929956 -0.16233702
  0.00954813 -0.19888237 -0.3220291  -0.15150522  0.1942068  -0.10198987
  0.1540401  -0.21866763 -0.11686064 -0.15687151  0.29548016  0.25233003
  0.11488596 -0.07892423]
[-0.13237396  0.14581244  0.05260327 -0.2616124   0.05137008 -0.0933602
  0.02066113  0.17626935 -0.01850592 -0.04584655 -0.14422521  0.3253726
  0.20685059  0.11353099  0.0868216  -0.1016579  -0.0859009  -0.30044624
 -0.34138477 -0.27573392]
[ 0.12758851 -0.22003388  0.0234969  -0.06142921  0.2508681   0.17756298
  0.05284607 -0.3203885   0.13331655 -0.3898621  -0.1800068   0.45823473
 -0.28398392  0.12800111 -0.3412051  -0.10912035  0.17101108 -0.04072765
  0.10073345  0.12436455]
[-0.08789696 -0.04255114  0.18545902 -0.04584841  0.0217663  -0.3219903
 -0.00966108  0.31950212 -0.0597202   0.08164725  0.0408572  -0.33207232
 -0.02851839 -0.20953774 -0.12507851 -0.17310974  0.00548149 -0.14330259
 -0.02240199  0.00669515]
[ 0.32035202 -0.14551228  0.09518111  0.05945216 -0.13889058 -0.3124521
  0.16906184 -0.10311202  0.11179122 -0.3168301   0.01137578 -0.11460119
 -0.14689125 -0.2964111   0.12979828  0.04346453 -0.05557031 -0.20768937
 -0.12427156  0.03616084]
[-0.19415493  0.3328828   0.08389609 -0.1479166   0.31642854  0.21246004
 -0.10319331 -0.19373475  0.10974791  0.16724099 -0.05320117  0.3188652
  0.25617415  0.06890708 -0.03538653 -0.20954861 -0.28429756 -0.33576342
  0.02939904 -0.24683543]
[-0.05008252 -0.4493832   0.23117311  0.07003401 -0.1180803  -0.24786171
  0.23077361 -0.16734438 -0.08777923 -0.26566094 -0.11051858 -0.00110164
 -0.13461627 -0.19429156 -0.11125396 -0.25165147 -0.10591505  0.20176822
 -0.16079001 -0.08320834]
[-0.20068114 -0.05932925  0.23110329  0.16134568 -0.1441992   0.22880246
  0.28915203  0.28339335 -0.23048225 -0.01748423 -0.1505727   0.07374922
  0.09010968  0.22932974 -0.20076284  0.2322027  -0.12760662 -0.3102723
 -0.04475438 -0.19649014]
[ 0.10445468 -0.13254446 -0.28223187 -0.22497217  0.07892907 -0.04588712
  0.02206972  0.19882809 -0.11533343 -0.00640608  0.19549233 -0.12897556
 -0.2185156   0.1179378  -0.02676578  0.04348262 -0.27206004 -0.10985516
 -0.24580126  0.26274118]
[-0.40214577  0.26561832 -0.0042463   0.07624891  0.1550007  -0.15489769
 -0.01520502  0.13623926 -0.14676125  0.15803875 -0.3263746  -0.05079208
  0.03124141  0.25012434  0.17645611  0.2074969  -0.17876187 -0.33312467
  0.17959514  0.00878666]
[-0.05319205 -0.21206722  0.2451861   0.04525191  0.38487744 -0.01219444
  0.07579549 -0.08166246  0.04751479 -0.42817974  0.17052989 -0.15906592
 -0.45173275 -0.04428922 -0.3296327   0.10589316  0.33984303  0.07274832
 -0.01164986 -0.17698435]
[ 0.17478466  0.32592046  0.18127084 -0.21668467  0.19920628 -0.1416085
  0.0598785   0.20401828  0.09034341 -0.05081797 -0.10030957 -0.3880225
  0.1991502  -0.22088826  0.00390252 -0.14722626 -0.21773583 -0.06242631
 -0.05180501  0.13742927]
[ 0.20234609  0.12451085 -0.15286799 -0.10288939 -0.27100244  0.00613079
 -0.1920293   0.06693494  0.11607227 -0.07015276  0.21875347  0.00539641
  0.05919646 -0.1745349  -0.22364508  0.1776876  -0.14123942  0.0789733
 -0.16623625  0.3340036 ]
[ 0.15864252  0.21249568 -0.06174456 -0.08464728  0.16339588 -0.1620241
 -0.14313269 -0.12962513 -0.28674412 -0.24942456 -0.03585249 -0.00972095
  0.16780433 -0.07041249  0.00482917  0.07155021  0.30753112  0.00240702
  0.000828    0.23764752]
[ 0.22971751 -0.09944335  0.08398317  0.17652108 -0.28421187 -0.12374537
  0.26779777  0.1511806  -0.05127808 -0.09063482  0.10365564 -0.38167733
  0.12279853  0.15033084  0.16391279  0.13656476 -0.16057399  0.08529865
 -0.04393667  0.2576584 ]
[-0.2030738   0.05155766 -0.09758927  0.04078619  0.22201881 -0.14114983
  0.12579955 -0.16100119  0.23246105 -0.38705698  0.29681373  0.11302639
 -0.06579478  0.2964669  -0.08978124  0.03646114  0.09840903 -0.3628657
  0.11998448  0.121232  ]
[ 0.4552088   0.3229728  -0.28614435  0.06222578  0.03363836  0.10613672
 -0.18040821 -0.29680672  0.16978401 -0.19173108 -0.13322176 -0.06558049
  0.00856705 -0.20513538 -0.13712975  0.03194432 -0.10893001  0.03252391
  0.15602028 -0.20663036]
[-0.10554609  0.02304642 -0.0377369  -0.03174933  0.09689914  0.05834738
 -0.01356599  0.07660495 -0.03183936  0.08090872 -0.00441771  0.06332108
 -0.02026382  0.05249044 -0.07273878 -0.02455781  0.00940999 -0.02802641
 -0.03476246 -0.05780361]
layer 5 Activation
tanh
layer 6 Dense
20 1
[0.31108627]
[0.0039027]
[0.00615357]
[0.00181486]
[0.13815609]
[-0.32125342]
[-0.00442573]
[0.0233597]
[-0.01026427]
[0.25714007]
[-0.00308748]
[-0.04738276]
[0.10684437]
[0.4100861]
[-0.2442572]
[0.01393736]
[-0.03607917]
[0.17182975]
[0.01691126]
[-0.33198392]
[-0.00988369]
