layers 7
layer 0 Dense
20 20
[ 0.03737725 -0.16272913 -0.29499617  0.2524869   0.20663555  0.22492108
  0.38448817 -0.07415687 -0.16133374  0.29074347  0.10296795 -0.05807218
  0.14739431  0.11878647 -0.12619388  0.39836398  0.00052241 -0.02744497
  0.163805   -0.31434363]
[-0.32314712  0.07975749  0.14882863 -0.11416474 -0.21424595  0.363841
  0.16820474  0.17002757  0.07662974 -0.30890265 -0.08451173 -0.27312765
 -0.31917346  0.3754851   0.35840318  0.24655616  0.34185982  0.07546674
 -0.17305674  0.11128088]
[ 0.12675509  0.24788333  0.13846546 -0.12444258 -0.3090536  -0.15041426
  0.18596524  0.11388291  0.02718215  0.09351436  0.07066124  0.16602296
  0.3360954   0.32834342 -0.13444337 -0.06196759 -0.05929001 -0.11503819
 -0.00351581  0.2677408 ]
[-1.2788342e-01  7.0976369e-02 -1.4530566e-01  2.4388334e-01
 -2.2711062e-01 -3.7613210e-01 -1.6330867e-01  6.5013357e-02
 -2.0328785e-01 -1.3073282e-01 -2.5167136e-02  2.7593219e-01
  2.8767937e-03 -2.4343786e-01 -3.0151272e-01  2.5185654e-01
 -2.8734428e-01 -4.6135277e-02  3.4337386e-04  2.5477737e-01]
[ 0.13818851  0.21663636 -0.14546171 -0.08457092  0.13187103  0.26419693
 -0.27349648 -0.2391474   0.126455   -0.02698105  0.2440807   0.1329241
 -0.39858183  0.35818347 -0.07455     0.28935954  0.09001515  0.24614096
 -0.2254383  -0.02413044]
[ 0.2390375   0.08787941 -0.34364662 -0.26405948  0.28499493 -0.3118472
  0.17895497  0.21880008  0.2383554   0.11350344  0.35230657  0.21992347
 -0.0080741  -0.0047047  -0.22556706 -0.14052796  0.3252781   0.29168296
 -0.267749   -0.15559481]
[-0.13000016 -0.06314255 -0.08717856  0.03211334  0.22401598 -0.2152293
 -0.35202116 -0.30680752 -0.3632297   0.34721118  0.19473724 -0.2748499
 -0.32487637 -0.18483144  0.11822676 -0.17297432 -0.3602227  -0.10662777
 -0.18796954 -0.36064532]
[-0.44969937  0.17028628 -0.32030088 -0.47546527 -0.25818586 -0.26061472
 -0.01942635  0.31402466  0.17367825  0.12757097  0.26298484  0.22573625
 -0.34723398  0.04893971 -0.09546624 -0.2227345  -0.00501039 -0.28723124
 -0.09926569  0.1169028 ]
[-0.27820528 -0.51780206 -0.02867506 -0.03037654 -0.07708837 -0.34136507
  0.00386477  0.19450857 -0.22427261 -0.19938992  0.05919926 -0.14983898
  0.21923877 -0.47976622 -0.28639355 -0.16448173 -0.08446188  0.31773043
 -0.3514468  -0.06770506]
[-0.2470782   0.3331507   0.13835369 -0.26818755 -0.11100716  0.2269971
 -0.16037115  0.37114674 -0.30833918  0.14034942  0.31427225  0.3554127
  0.34004146 -0.1536748  -0.37712076  0.01552249  0.10004457  0.12598091
  0.17428401 -0.0745497 ]
[ 0.33444378  0.18784566  0.0724844   0.27347094 -0.1767566  -0.03793074
  0.35812718  0.14906566 -0.02591731 -0.3317349   0.31621766 -0.17635101
  0.14452966  0.29089898  0.00832119 -0.07265113  0.19872591  0.12675297
  0.17781994 -0.10731172]
[ 0.12591518  0.07117251 -0.24750201 -0.42741907 -0.06167554  0.0970569
 -0.04319854 -0.08392059 -0.1866581   0.0834948  -0.0889432  -0.27951503
 -0.08265051 -0.3487314   0.1361571   0.18038145  0.09725115 -0.24110317
 -0.18506968 -0.22702418]
[ 0.09967551 -0.33269256  0.19754852 -0.13222155 -0.19916418  0.19123966
  0.2587769  -0.41554806 -0.13226159  0.20141725  0.18196885 -0.10953274
 -0.10178082  0.07157043 -0.03168146 -0.15362942 -0.345039   -0.05938353
  0.3317843  -0.17803973]
[ 0.13222644 -0.43084198 -0.22723493  0.03512398  0.38861126 -0.49024302
  0.2440369   0.11431886  0.18332264 -0.01049876  0.31918275 -0.7016282
  0.17258564  0.11514109  0.14584309 -0.39815176  0.42856622 -0.3737327
 -0.2729878  -0.459935  ]
[-0.27369362 -0.23445566  0.10642835  0.06657173  0.10042343 -0.36185572
 -0.3728177  -0.43916437  0.13407487  0.20671019 -0.382446   -0.20111585
 -0.12027055 -0.26450917 -0.01975133 -0.22677843  0.10582927 -0.33837998
 -0.62487894  0.73199904]
[ 0.02133784  0.6285689   0.1507995  -0.08061936  0.3074997  -0.01324231
  0.626749    0.15417233  0.34388903 -0.20841926 -0.5408765  -0.3446692
 -0.40348396 -0.4633385  -0.26308736 -0.0571526   0.49122322  0.32102475
  0.40303835  0.8732362 ]
[-0.11446806  0.33393615 -0.08429813  0.34189117  0.2851446  -0.15537995
  0.18966132  0.30008298  0.03048698 -0.23530403 -0.12292448  0.25553772
  0.03361235  0.2253093   0.35197055 -0.16379961  0.04552289 -0.344933
 -0.11110786  0.2355809 ]
[-0.18008582  0.46232805  0.15575324 -0.21361014 -0.38126874  0.29501662
 -0.18509647  0.21151891 -0.37804428  0.09853108  0.19438979  0.55405927
 -0.22096005 -0.21902871  0.09846297  0.37104604 -0.17606857  0.37547517
 -0.13768905 -0.17506692]
[ 0.07075749  0.03879679  0.05027916  0.14264746 -0.08113483  0.29698038
  0.24835001  0.23115867  0.3196555  -0.2062156   0.3479128  -0.11201663
  0.39615467 -0.02306619  0.01106495  0.4052805  -0.09073842  0.00100979
  0.11158799 -0.09274784]
[-0.43146017  0.16938297  0.01989629  0.3763003   0.12436397  0.25673923
 -0.24851862 -0.09301665 -0.14057617 -0.33034247  0.10951729  0.3211013
 -0.22080518 -0.1121757  -0.06316537 -0.22823301 -0.24768353 -0.3243126
 -0.10038789 -0.3495719 ]
[ 0.07968561  0.26950225  0.02166909  0.04852963 -0.06142984 -0.01098446
 -0.04969893 -0.01418697  0.00269933  0.03189853 -0.00304042  0.06503739
  0.00209824  0.00688355 -0.00965815 -0.01084137 -0.06985586 -0.02105938
  0.00171332  0.02043202]
layer 1 Activation
tanh
layer 2 Dense
20 40
[-0.38122413 -0.05002756 -0.14209236  0.25367615 -0.00833324 -0.08138186
 -0.12056447 -0.03248873 -0.37934726 -0.203452   -0.37420183  0.39388877
 -0.07626154 -0.14017332  0.31717485  0.11761196 -0.36160746 -0.22993852
  0.06701691  0.12446959  0.19914247 -0.09090494  0.22937746 -0.05305931
 -0.12294911  0.1735356  -0.2737137  -0.05625524  0.12195657  0.25830987
  0.11327185  0.00238448  0.21830542 -0.19101349  0.09378477  0.21765372
  0.13681191  0.02584735 -0.35068142  0.00912571]
[-1.56195015e-01  4.08787951e-02  3.24219406e-01  1.04709789e-01
  9.80842742e-05 -2.81031467e-02 -1.90767109e-01  1.97506741e-01
  1.36193380e-01  2.03504950e-01 -2.57966757e-01 -2.52685457e-01
 -1.31886125e-01 -2.05821171e-01  7.51923164e-03 -8.67272448e-03
  2.49738041e-02  2.87846416e-01 -2.42978364e-01  2.74778873e-01
 -2.13811591e-01  1.86629117e-01 -3.57389152e-01 -1.16945699e-01
 -5.54382764e-02 -1.11759685e-01  8.89436528e-02 -9.77507681e-02
 -8.25345516e-02 -2.84351856e-01 -1.96659833e-01 -1.93012897e-02
  2.02546611e-01 -1.18441850e-01  7.54669085e-02  2.77377844e-01
 -1.86471209e-01  1.82557300e-01  8.23106617e-02 -2.13293940e-01]
[ 0.13184172 -0.03534029  0.30614218  0.23536196  0.2822454   0.06085385
 -0.12551077  0.14410883 -0.14472616  0.23587586  0.22146145 -0.23735514
 -0.00956234 -0.2702733  -0.2691987  -0.08712858 -0.24349178 -0.02554079
 -0.3211861  -0.15564074  0.13415955 -0.06295666 -0.13555162 -0.03461537
  0.29942253  0.14723328 -0.11181206 -0.18148674  0.10771549  0.02321576
  0.12416733 -0.3113281   0.19994989  0.0527071  -0.294091    0.16683835
 -0.21045287  0.30017334  0.13038972 -0.1046654 ]
[-0.4250859   0.01716481 -0.1382414   0.11325005  0.02523557  0.2242398
 -0.28327915 -0.2435709  -0.16501713  0.15202072 -0.1574995   0.36720732
  0.08694407  0.1478671  -0.192794   -0.25326946  0.26612234  0.22547235
  0.13565859  0.27290556  0.08636525  0.2684017   0.34727088 -0.29615456
  0.05716914  0.204606    0.00676796 -0.10942485 -0.18526788  0.07765517
  0.20471165  0.13753313 -0.15649468  0.3529351  -0.12274133  0.12529866
  0.3460047   0.30693617 -0.10992698  0.11646477]
[ 0.07535717  0.10193183 -0.06825213 -0.38440162  0.04449056  0.01345849
  0.2675539  -0.10523617  0.09876298 -0.13213319  0.00104559  0.30280855
 -0.1402674  -0.01351396 -0.00644212  0.01140271  0.18481517  0.11078018
  0.07364273  0.10281503 -0.23060197 -0.08686389 -0.13459903 -0.2059752
 -0.04517742 -0.19487238  0.12277489  0.2705824   0.29526496  0.28345743
  0.13100947 -0.09971925  0.01870297 -0.00956377  0.09180055  0.18567596
  0.05026073 -0.25116268  0.06825334  0.27040702]
[-0.2921616  -0.02961712 -0.0851298   0.15775695 -0.24853656 -0.15028143
  0.18718362 -0.22910427  0.00107114  0.13086586  0.00414976 -0.2632449
 -0.12330508  0.13062802  0.30542034 -0.2502511  -0.21054551  0.40522313
 -0.04581783  0.09690756  0.2807794   0.19115321 -0.2786207   0.11658666
 -0.26871073  0.04592275 -0.01050706  0.10947935 -0.15366112 -0.18853344
 -0.13651858 -0.35426742 -0.02746942 -0.4631885   0.14777915  0.1951002
 -0.27457598 -0.10051227 -0.10678761  0.12230906]
[ 0.0922741   0.19875832 -0.05179069  0.14277615  0.10369858  0.14837533
 -0.19512036  0.11296577 -0.14445354 -0.16241805 -0.32251275  0.08226766
 -0.15755482  0.04902805 -0.04760585 -0.17531203 -0.23750097  0.38477474
 -0.2867728   0.05260166 -0.05687156  0.09878419 -0.03001417  0.33927438
  0.00474064 -0.2368626   0.12454329  0.34831578  0.27166715  0.36112985
  0.33845863 -0.18429676  0.01948056  0.07531503  0.15926169  0.26162824
  0.37727153  0.09171469 -0.37773252  0.29963106]
[ 0.2641171  -0.47179824 -0.13614361 -0.11810606  0.16443138 -0.21961352
 -0.08422757 -0.11441757  0.15198323  0.18784758  0.07093941  0.10860763
 -0.15923895 -0.23225829  0.3197085   0.0880164  -0.4064968  -0.03010605
 -0.24743612  0.12742214  0.23827924  0.06999788  0.19413951  0.24574909
  0.10767903  0.06772704  0.21892107  0.22159688 -0.34034008 -0.00069817
  0.16091916  0.22213745 -0.15568057 -0.39004394  0.06528195  0.1786588
 -0.14972126 -0.08487502  0.13170356  0.33456826]
[ 0.10876746  0.15525457 -0.12816648 -0.38332582  0.38855007 -0.00471352
  0.18850972 -0.1243376   0.1953246   0.11522416  0.15692043  0.18045972
 -0.00328274  0.34783804  0.08593781  0.00367792 -0.26897055  0.00818825
 -0.35734233 -0.01774242  0.21452759  0.22627121 -0.12454692  0.24361067
  0.01078306 -0.20824617 -0.0287292   0.03219679  0.26199776 -0.00502413
  0.23321712  0.2140659  -0.28530252  0.21365802  0.1455007  -0.18199532
  0.00764863  0.2617662  -0.12419587  0.20574176]
[ 0.01081254  0.19705667  0.29225007 -0.03382617  0.09382773 -0.03548959
  0.14681159 -0.07401387 -0.2304004   0.2920623   0.2956465  -0.00452539
  0.22010109 -0.15554446  0.01533522  0.29347017  0.04834778  0.23667072
 -0.18603909 -0.16335131  0.15604907 -0.05348731  0.06497257 -0.16106546
  0.04478827 -0.14197905 -0.06069412 -0.06898031 -0.02392744  0.0570793
  0.01885243  0.1372483  -0.36313814  0.19662191  0.14999364 -0.21715419
  0.09512383 -0.07256281 -0.00965596 -0.13624628]
[ 0.07395329 -0.45339853 -0.268921   -0.05463381  0.35865948 -0.3618467
  0.07051335 -0.25472552 -0.04268157  0.04943322 -0.10817937  0.05143285
 -0.18011683  0.04239257  0.34984607 -0.17216194 -0.3784527   0.02668656
 -0.1547521  -0.02105905  0.26450107  0.08759028  0.11191142  0.22879055
 -0.1526942  -0.17214504 -0.14561135  0.13557462 -0.01114264 -0.07081838
  0.3511354   0.1256437  -0.14728086  0.02103762 -0.09443396 -0.0877867
  0.16720204  0.06711479  0.06038503 -0.18410072]
[ 0.22042252 -0.2523861  -0.3094086   0.05802426 -0.28096002  0.01426111
  0.27048382 -0.02393586 -0.27644667  0.03120936  0.0993387  -0.2710112
  0.19459875 -0.09300564  0.06217033  0.21859124 -0.16161148  0.07553913
  0.15702952  0.24166125  0.4705441  -0.19576453  0.1390044  -0.3039171
  0.18430896 -0.25900584 -0.06058172 -0.14214984 -0.23336571 -0.30064023
 -0.13960187  0.06424906 -0.38351372  0.06947408  0.3006263   0.2702434
 -0.37687477 -0.06867894 -0.04954643 -0.01431053]
[-0.13182566 -0.29530555 -0.15173495 -0.08536918 -0.08909527 -0.08946622
  0.1911036  -0.09975698  0.03711248 -0.15658054 -0.3368756  -0.19658634
 -0.16959883  0.3123854  -0.2812242   0.04383812 -0.3253627   0.27544248
 -0.17099258  0.0073392  -0.2618247  -0.26610562  0.24359053 -0.06923579
 -0.21107198  0.20506527  0.12658267 -0.06159066  0.06810796 -0.20595473
  0.2919958  -0.16791078  0.09759948 -0.17779738 -0.30814013 -0.01630221
  0.16542934  0.26501817  0.23009731  0.006741  ]
[ 0.00059623  0.00047489  0.21133947  0.16359684  0.07893754 -0.1501151
 -0.27946538  0.22811793  0.1926674  -0.09742033 -0.21492803  0.2454663
  0.12319072 -0.2904168   0.10955352  0.21332157 -0.21478626 -0.11632311
  0.03652704  0.18364452  0.09017272  0.03841202 -0.1483821   0.04418184
 -0.10507531 -0.22951883  0.18122885 -0.33960575  0.19977798  0.253139
  0.05380792  0.25969815  0.11788011  0.33337566  0.17291003 -0.17500523
  0.11278059  0.3020395   0.28397676 -0.28785336]
[ 0.2681393  -0.00992908 -0.05232204  0.18579808  0.20332691  0.06124108
 -0.12920338  0.14684643  0.07533153 -0.01354479 -0.02419543 -0.17364912
 -0.1751845   0.1758153  -0.17300238  0.20944746 -0.05250819 -0.2858115
  0.03533332  0.03789236  0.04082392 -0.22457294 -0.19269036  0.2237533
 -0.0347137  -0.21037059  0.05053401  0.28191543 -0.13205376 -0.05338738
 -0.26319885  0.16846965  0.11421327 -0.23313327 -0.2757983   0.11157453
  0.13154344 -0.26546842 -0.04183718  0.34902972]
[-0.41318652  0.03089     0.02385725  0.04927615 -0.28339908 -0.27057478
 -0.18526681  0.2995581  -0.13941309  0.3658023  -0.02247877 -0.01812535
 -0.28942534  0.23362789  0.06680116  0.02932101  0.01936112  0.08644298
  0.1441732  -0.10927327  0.21722884  0.02911003 -0.12704922  0.20208415
  0.24656844  0.4192705   0.16968651  0.17081718  0.2558946  -0.04151339
 -0.02809519  0.04408925  0.03590302 -0.12797326 -0.17276542  0.11759232
  0.13217565 -0.12399529 -0.22215377  0.33206594]
[ 0.09223055  0.10695866  0.01119427 -0.3334795  -0.06559762 -0.08529924
 -0.18879823  0.12597847  0.12050337 -0.01952972 -0.33697325  0.11944223
  0.06621138 -0.3405399  -0.23971643  0.12629545  0.21448994  0.17492145
 -0.0151677  -0.10902741 -0.4436075  -0.07505427  0.01533298  0.14429064
  0.20141545 -0.01475322 -0.044131    0.15572283 -0.03941208  0.30915812
 -0.1598872  -0.14643481 -0.16399741  0.07218389 -0.259036   -0.06923255
  0.3681863   0.16495152  0.17216894  0.28736803]
[-0.3946619  -0.06610356 -0.03663987  0.54376465 -0.13357267  0.07126051
 -0.0603508   0.05956244 -0.00275702  0.21811925 -0.13287225  0.17812136
  0.09051298  0.03712173  0.15715046  0.32891467 -0.29497668  0.13253938
 -0.21617611  0.10477351  0.51459867 -0.25516945  0.01942299  0.18771718
 -0.07186329  0.15418226  0.23091112  0.27996674 -0.10664942  0.05415046
 -0.23503496 -0.27765617  0.12454041 -0.28927863 -0.3226573  -0.04630243
 -0.35175696  0.06294659  0.00945209  0.30369797]
[ 0.08312847 -0.03561136 -0.20168215  0.24154112  0.04283728  0.21032138
  0.00241455 -0.20699927 -0.12094696  0.24497457 -0.2442814   0.08922004
 -0.19386101 -0.04783134  0.27044168  0.00354016 -0.29508796  0.3062362
 -0.196164   -0.0167267  -0.18564405  0.19966228 -0.14525048  0.0869858
 -0.26010722 -0.13658655  0.48296064 -0.05571271 -0.07559065  0.27105218
  0.21035314  0.06450704  0.07286721 -0.01808254  0.22553864  0.4287015
 -0.04765263  0.01801793 -0.10431504 -0.25844368]
[-0.04111655  0.7460385   0.59368837  0.15251529 -0.5006619   0.15643808
 -0.17378767 -0.20672351 -0.0342705   0.24551994  0.12977716  0.08743306
  0.02503035  0.11513259 -0.5440493   0.05110241 -0.004969    0.31773406
 -0.21874003  0.38631514 -0.20491871  0.05292611 -0.2657217   0.37451872
  0.29996988 -0.08143978 -0.25935027  0.39224353 -0.2067034   0.29632005
 -0.21943271 -0.07464959 -0.32612616 -0.13065813 -0.16458999  0.22106345
 -0.08854511  0.12621412 -0.09034551 -0.08446206]
[-0.0993779   0.06768081  0.02192064  0.03885235 -0.02266832 -0.06938104
 -0.02113782  0.01889513 -0.06403627 -0.00234069 -0.0429657   0.02905491
 -0.03319889  0.00664605 -0.00682039  0.0040385   0.01118951 -0.00742896
  0.02970299  0.01118292  0.07836424  0.01114343  0.05136677 -0.04549634
 -0.01462241  0.06417137  0.04743768 -0.09566887  0.01784504 -0.11944995
 -0.05181235  0.03708286  0.07116172  0.07379019 -0.15749627  0.02638528
  0.00695366  0.00091374 -0.23163332 -0.03984579]
layer 3 Activation
tanh
layer 4 Dense
40 20
[ 0.07915344  0.21872126  0.06333491  0.17462263  0.1637543  -0.36943832
  0.00250908  0.28220594  0.15356557 -0.34368291  0.08589873  0.19763838
  0.15544045  0.210145    0.02362463 -0.1743089  -0.11055551  0.26355025
  0.13387945  0.21047471]
[ 0.20769866  0.13698763  0.16413704  0.36625853  0.2909595   0.34355074
  0.22991037  0.19885197  0.11837257 -0.23585914  0.21732628  0.20708373
 -0.28088406 -0.33199728 -0.17276785  0.19123212 -0.23103485 -0.25864378
  0.33521283 -0.05676968]
[-0.19134858  0.22860141  0.10715792  0.30097196 -0.20751168 -0.18856543
 -0.25292176  0.12393313 -0.04540949 -0.40404615 -0.0657074  -0.23210958
 -0.26355085 -0.14630856 -0.21873607  0.0242516   0.01633155  0.00857577
 -0.09053957  0.3249807 ]
[ 0.13655792  0.10391614  0.2972019   0.09375983  0.3710542   0.21338901
  0.10317305 -0.21843132 -0.32783985 -0.06112346  0.14767365 -0.1084464
  0.23689683  0.26946393  0.2316561   0.20457824 -0.07423013 -0.2667061
 -0.06420775  0.28442517]
[-0.0992154  -0.09597141 -0.4377087  -0.15754715  0.23644356 -0.22323208
  0.04013806  0.09337898 -0.2065837  -0.11771231 -0.03168862 -0.23312841
  0.09501884  0.05291748  0.21217367 -0.37282354  0.15725397 -0.09810559
  0.09749751 -0.10624882]
[-4.97116894e-02 -8.52558110e-03  1.53056979e-01  1.80521965e-01
  6.96300715e-02 -1.58840582e-01  1.08742930e-01 -1.61083624e-01
  9.91141349e-02 -1.50834873e-01  5.66131203e-05 -1.06985524e-01
  1.23105876e-01  1.13040276e-01 -2.91566759e-01 -2.40351763e-02
  1.18789576e-01  2.72730380e-01  2.68205106e-01 -5.03276326e-02]
[-0.09197702 -0.09017471 -0.0583042   0.18804012 -0.09815996  0.07692975
 -0.09138     0.02257406  0.02094172  0.11812834  0.27743492  0.19596279
  0.06865537  0.13090256  0.14449058  0.18024087 -0.30635068 -0.06526556
 -0.12996748  0.08313251]
[-0.33503827  0.22796673 -0.14614676  0.21186061 -0.27706194  0.32002118
 -0.10733324 -0.07825936 -0.22871995 -0.22282776 -0.08650392 -0.01517821
  0.14904162  0.15207359  0.09102195 -0.1366179  -0.33644983 -0.13546577
 -0.16019848  0.22611059]
[ 0.21481875  0.24172993 -0.07900527 -0.21746022  0.06475736 -0.21177287
 -0.27019083 -0.12999378  0.26579154  0.09850011  0.16418739  0.25453007
  0.216954   -0.13640948  0.09782495 -0.25743344  0.15483524  0.16589491
 -0.17361744 -0.13161243]
[-0.01709089  0.24125658  0.06143137 -0.24454445  0.03348859  0.17789637
  0.08546732  0.07000772 -0.26826996 -0.16361703 -0.16735812 -0.05457705
  0.04889929 -0.14317404  0.12771724  0.3794544  -0.00437431 -0.19713797
  0.02853573  0.02402675]
[-0.08390947  0.06452344 -0.01807627  0.16360557 -0.17926246 -0.26039422
 -0.18990263 -0.17279154  0.08824612 -0.3537133   0.34219453  0.0508347
 -0.00522363  0.01487783 -0.1845333   0.23798417 -0.14755091  0.11824602
 -0.16549405  0.09899284]
[ 0.04039271  0.107127   -0.4227807   0.30521828  0.09129442 -0.07679299
  0.17472392  0.14354792 -0.0973902   0.17930344 -0.20124318  0.24857932
 -0.15697037  0.26586354 -0.155789   -0.25574526 -0.08148597  0.07700001
  0.25395015  0.10185064]
[ 0.06285889  0.2118569  -0.334082   -0.21165039 -0.12978458 -0.14649925
  0.15221874  0.18986788 -0.15834379 -0.15447298  0.21115173 -0.07156333
 -0.220004    0.39238772  0.00783026  0.0718106   0.22460656 -0.06878388
  0.11374691 -0.22923793]
[ 0.07292639 -0.07272161 -0.16259107 -0.14822696 -0.1765601  -0.01032737
  0.05271778  0.18683733  0.217751   -0.02617862 -0.27302808 -0.24896115
 -0.37893113 -0.04055302  0.03873016  0.0604125   0.12261534 -0.05644862
  0.32441956  0.19698541]
[-0.2786989   0.08797054 -0.11094566 -0.13036913  0.12981814  0.14909971
  0.38203248 -0.0197297  -0.07204606  0.04160452  0.00186632 -0.15776777
  0.37283048  0.07819869 -0.19517736 -0.233332   -0.02171612  0.26085746
  0.07905042  0.0680768 ]
[ 0.02746969 -0.12745526  0.33520654 -0.25238055 -0.05280314 -0.0106761
 -0.18310541  0.18094146  0.01161231  0.15075555  0.12479283 -0.08607891
 -0.21769679  0.0112819   0.2938999  -0.09653054  0.14525077  0.18442161
 -0.03583325 -0.24179885]
[ 0.18695812 -0.23316386  0.00776637  0.30124834  0.04724502  0.20319419
  0.04641136  0.19326672  0.2031802  -0.08888713  0.18584615  0.10168053
 -0.38252795 -0.32063037  0.30501136 -0.12391284 -0.24958636  0.21316884
 -0.11560088  0.2516507 ]
[ 0.04032126 -0.15500213 -0.12200832  0.3084572   0.1380082  -0.11055955
 -0.24857964  0.25291    -0.12364766  0.03504744 -0.16766196 -0.05931318
  0.06356823 -0.14220563 -0.20808376  0.26164022 -0.04027472 -0.3210861
  0.16282518  0.06245185]
[-0.10293846 -0.35417622 -0.20371498  0.14450103  0.10306593  0.11324193
 -0.26326427  0.16877533 -0.11872767 -0.13120085  0.14494829  0.05244902
 -0.03411252 -0.18542953  0.15719232 -0.1609297   0.15830956  0.21555193
 -0.1223147  -0.08451807]
[-0.15771928  0.10228954  0.20048603  0.13635467  0.02696684  0.14719656
  0.3078277   0.00771209 -0.27044156 -0.14060429 -0.06848859  0.21656737
 -0.03219301  0.33339694 -0.19962494  0.18774746  0.02541368  0.11190259
  0.2540579  -0.06551471]
[ 0.11532389 -0.17488478  0.1682775  -0.3451573   0.02120988  0.15435736
 -0.21598484  0.21321231 -0.27378994 -0.09916621 -0.20402698  0.0843954
 -0.12023582  0.16806522  0.12892964  0.18618451 -0.28748968 -0.1377582
 -0.33544517 -0.04864495]
[ 0.03535753 -0.16650033  0.03084009  0.09542381 -0.10748472 -0.0355161
 -0.18669438  0.2767396   0.11727016 -0.01463747 -0.2289216  -0.20257233
 -0.11229296 -0.015237   -0.10014205  0.04158054  0.19538653 -0.0518605
 -0.36031398  0.05275146]
[-0.05090427 -0.22990663 -0.21215199 -0.15696484  0.09846709  0.1895367
  0.14479993 -0.12268086 -0.23408782  0.0175189   0.20509239 -0.07730816
 -0.22252218  0.04559892 -0.13785361 -0.06043839 -0.2573283  -0.24270132
  0.04648937  0.12599754]
[ 0.06291756  0.41327032 -0.12425771  0.18304405  0.0127734  -0.32398492
 -0.31609875 -0.01491569 -0.22289643  0.03136759 -0.05073706  0.10892217
  0.22999163  0.16429128  0.041248    0.23207568 -0.02600163 -0.0806938
  0.01814726 -0.13255428]
[ 0.03567131  0.01621431  0.2816614  -0.11769079 -0.26783264 -0.01055948
 -0.32101643 -0.322279    0.13377577 -0.12318084  0.20593311  0.0195287
 -0.00284751 -0.24052498  0.35176808  0.05101391 -0.20058809  0.09899475
 -0.12939158  0.02599031]
[-0.11144054 -0.24105525  0.11084035  0.01839635  0.20553257  0.32172397
 -0.15671238 -0.10634866 -0.06659762 -0.04746358  0.2242187   0.21675168
 -0.22422302 -0.26886928  0.07998291 -0.13761482 -0.20348562 -0.27056238
 -0.1833674  -0.21551591]
[ 0.25844356 -0.04738908  0.18214697  0.05048392 -0.1084514   0.07193855
  0.26871493  0.2432297  -0.1636418   0.13166054 -0.18096024 -0.16893388
 -0.25156692  0.16812757 -0.05730734  0.10807885 -0.00103597 -0.22664051
 -0.26321143 -0.3152049 ]
[-0.01753615  0.22521654 -0.00662623 -0.00300732  0.12792052 -0.03724379
  0.13889357  0.11363981 -0.1982284  -0.18921785 -0.0771476   0.00447544
 -0.2197103  -0.30256876 -0.22158358  0.1291953  -0.2262182  -0.26931068
 -0.02348019  0.22817893]
[ 0.01636915 -0.18596698 -0.3110927   0.23426512 -0.3102112   0.08312369
 -0.15237355  0.31219143 -0.03048472  0.11239499 -0.12117268 -0.26688057
 -0.17392284 -0.16530973  0.26418442 -0.0085649  -0.12938102  0.03616184
  0.3050163  -0.21056503]
[ 0.03392173  0.34312555  0.14878786  0.24217954  0.04629907 -0.14338788
  0.29266787  0.28917834  0.01346432  0.06044054 -0.27965435 -0.28818187
 -0.17800541  0.23660882 -0.06728966 -0.2916952  -0.06403364 -0.37496325
  0.14006478  0.01847274]
[-0.25201505  0.12198026 -0.26704916  0.22384186  0.10981099  0.21618494
  0.19011411  0.28138602  0.01889381 -0.14838918 -0.21928066  0.17120111
  0.28253427  0.1569222   0.15849763 -0.09757228 -0.22753546  0.29316005
 -0.01074148  0.03919585]
[ 0.28543082 -0.27810103 -0.07678943  0.10772088  0.04696642 -0.21412686
  0.03758539 -0.01280414  0.3669973   0.1943041  -0.25996488  0.10460241
  0.07031529  0.04361696 -0.02233222  0.01210685  0.14827044  0.06618705
  0.16815072  0.01041457]
[ 0.22827424  0.01847227 -0.16179332 -0.23560545 -0.2787123   0.2969136
  0.09052379 -0.27787217 -0.08676206  0.20893632 -0.03473708 -0.1953739
 -0.22338289 -0.07652151  0.04294423 -0.2629189  -0.21894856  0.19953442
  0.06085408  0.40380722]
[ 0.12618034 -0.2352644   0.0097647   0.3126894   0.12516569  0.05498146
  0.26895735  0.02090498  0.26224914  0.1718199   0.13577716  0.07231509
 -0.22404954  0.32773238 -0.19017391 -0.311885    0.08826828  0.1559003
  0.13407008 -0.10917885]
[-0.01980095  0.20339505  0.10092648  0.16756953 -0.13135323 -0.17761658
 -0.01049918  0.12785435 -0.01316924 -0.26201534 -0.22390293 -0.25402936
 -0.06245813  0.26701027  0.12066804 -0.08873481 -0.305676    0.396605
 -0.32248715 -0.01729089]
[ 0.26563388 -0.12406427  0.33289585 -0.07417396  0.00355294 -0.2514403
  0.23167105 -0.23896667 -0.23266087  0.0338033  -0.3945723  -0.0968217
 -0.20358102  0.0831431   0.15509835  0.17909247  0.35065183  0.12745234
 -0.12321354 -0.2319559 ]
[-0.12916182  0.21692133 -0.26924846  0.2522711  -0.22312084  0.01037811
 -0.06145097  0.27519786 -0.07374741  0.39338765 -0.18585101 -0.12506792
  0.25542942 -0.03097097 -0.1815848   0.20101075  0.18840186  0.10410789
  0.313086    0.05393208]
[-0.07870791 -0.1841905   0.23364976  0.00787256  0.10350317 -0.1047837
  0.02362485 -0.39560178  0.06355605  0.20900142 -0.06032156  0.35936606
  0.21194574 -0.08186417 -0.1227109  -0.14916962 -0.15212981 -0.24381
 -0.07153235  0.16384503]
[-0.17665939  0.2469921   0.05704505 -0.25595778 -0.22782895 -0.36341453
  0.01309806  0.1445544   0.0779325  -0.0218296  -0.04444937 -0.10030742
  0.03129184 -0.22951303  0.03076471 -0.16530763 -0.1911092   0.14761978
  0.16166107 -0.12133208]
[-0.06539639 -0.01619923 -0.14832787 -0.2602029   0.24959162  0.24185626
 -0.24256463 -0.26348972 -0.15222941  0.26809892  0.27885142  0.06573785
 -0.25072333 -0.0317717  -0.23879233  0.08143874  0.17198282 -0.03354916
 -0.12794225 -0.07541787]
[-1.2908086e-02 -6.5403193e-02  1.3596331e-03  2.4506230e-02
 -5.6011125e-02  8.2846411e-02  1.0431788e-02 -2.1733072e-02
 -3.6802728e-02  2.4276676e-02 -2.2504361e-02 -1.0619449e-05
 -8.2246130e-03 -3.1134445e-02 -1.6231962e-02 -2.2796106e-03
  3.7174046e-05  1.8826018e-03  7.2898287e-03 -7.2073944e-02]
layer 5 Activation
tanh
layer 6 Dense
20 1
[0.00995689]
[0.23526235]
[0.19481699]
[0.2514091]
[0.01565598]
[-0.13300334]
[-0.24111785]
[-0.09053338]
[-0.27876505]
[0.31871527]
[-0.14618634]
[0.05746555]
[-0.2168077]
[0.00058102]
[-0.00610815]
[0.14507274]
[0.00459677]
[0.03661632]
[0.16851068]
[0.0058623]
[0.03465188]
