layers 7
layer 0 Dense
20 20
[-0.15887694  0.5097046   0.4196764   0.0474223   0.03843493  0.26265064
  0.07781512  0.0969165   0.17510925 -0.11177213  0.01137967 -0.21842527
 -0.25608495  0.34305555 -0.32919082 -0.25121537 -0.06268295  0.08290488
  0.07397565  0.17282708]
[-0.20499292  0.7854687   0.31156173 -0.38911682  0.27461436  0.2541907
 -0.23175517 -0.50811756  0.04145439  0.20398447 -0.40561312 -0.25551742
 -0.37383404 -0.6529305   0.09840632 -0.23936401 -0.39178607 -0.4759848
 -0.3941657  -0.66145   ]
[ 0.20505694  0.432855   -0.3376567  -0.2702064   0.28182012  0.01556543
 -0.06639534 -0.74912596 -0.08991179  0.23014016  0.2986837   0.18882088
 -0.48552984 -0.31960928 -0.22798516 -0.45505178 -0.1766432  -0.25867122
 -0.3379627  -0.5233203 ]
[-0.02747582 -0.24212699  0.07802487 -0.29128084  0.17091376 -0.11365401
 -0.38886118 -0.40920588  0.17193407  0.02314897  0.28386948  0.03080235
 -0.07765364 -0.11004319  0.2531615   0.03331069 -0.13577196  0.02670319
 -0.1047883   0.15785442]
[-0.04195322  0.34749395 -0.00596235  0.12290426  0.18441483  0.05720014
 -0.25950798 -0.2316065   0.47618642 -0.1889249   0.17957264 -0.00124283
 -0.02229812 -0.15561914 -0.03750131 -0.20634481 -0.23415501 -0.15576059
 -0.00175397 -0.2072831 ]
[-0.22510996 -0.32053125  0.18094844  0.16761371  0.0232724   0.28665233
 -0.0525986  -0.04545394 -0.3072701   0.39562723  0.14963672  0.32193282
  0.2586182   0.7327054  -0.49910432  0.14965646  0.03587526  0.45920184
  0.01557977  0.2567451 ]
[-0.34644228 -0.17394459  0.3068631   0.3211092   0.11543898  0.31869182
  0.38335413  0.51347667 -0.22524554 -0.013759   -0.27711958  0.21040381
  0.11060242  0.23379146 -0.27968812 -0.03887264  0.3310009  -0.20619927
 -0.14810151  0.25305617]
[ 0.26665053  0.20552938 -0.6263089   0.31967115  0.0683158  -0.4187385
 -0.1786627  -0.01778479 -0.36101505  0.01351532  0.10657713  0.5283647
  0.05181319  0.15308972  0.33616534 -0.22698905  0.30603468 -0.21677016
 -0.31478152  0.13117318]
[-0.27779385  0.19907902  0.62373406 -0.40094635 -0.5151495   0.47368592
 -0.36479104  0.08705299  0.20914644 -0.4950072   0.14622733 -0.31751603
 -0.22713467 -0.21210055  0.23019262 -0.19826835  0.21825767 -0.12836824
 -0.00432472 -0.12855716]
[ 0.3805635   0.2914525  -0.24078825 -0.2154537  -0.08757856 -0.26750693
 -0.07643132  0.18323313  0.4677022   0.26637888 -0.20252326  0.28518435
 -0.06634678  0.2576489  -0.17165254 -0.07696769 -0.19023508 -0.25213376
  0.15138485 -0.33828413]
[ 0.31944406  0.17987181  0.09483098  0.02890476 -0.05471428  0.07951105
  0.17654736  0.02818114  0.22468069  0.29070255 -0.10791185 -0.18819062
  0.00924385  0.06008811 -0.10555355 -0.18499914 -0.06763636 -0.3422772
 -0.19942988 -0.13562694]
[-0.10697595  0.49028128  0.4777552  -0.12528993 -0.2921594   1.2072283
 -0.26411745  0.4644163   1.0797765  -0.22000255  0.7281971  -0.49012947
 -1.1350795  -0.14719464  0.3154403  -0.01943958  0.33193952 -0.8278485
 -0.45461404 -0.37398678]
[-0.21308994 -0.5229079  -0.01446518  0.16763793  0.41439658 -0.77779526
  0.39502308  0.1378715   0.10080904  0.46425417 -0.21335901  0.3255354
 -0.10193235  0.3784685  -0.25498128  0.12251852 -0.20424443 -0.31931955
  0.17210457  0.27038345]
[ 0.10568945 -0.05877653  0.17422545 -0.14643739 -0.05011307 -0.04884431
 -0.16119313  0.14380181 -0.32506746  0.12346727 -0.04703193  0.15129595
 -0.17455405  0.09548078 -0.18378395  0.11753518 -0.355485    0.02864741
  0.00122604  0.09535339]
[ 0.15390208  0.06781007  0.26381388  0.43754444 -0.27467006  0.19211417
  0.38104668  0.2873049   0.16374448  0.23599365 -0.3941427   0.13498485
 -0.08614304 -0.36721292 -0.40819746  0.36587828  0.12264171  0.29323894
 -0.11112903 -0.31762934]
[ 2.0685643e-01  4.0273864e-02 -1.2996635e-01 -1.9907348e-01
 -6.7482814e-02 -5.2164543e-01  9.5981926e-02 -4.1156688e-01
 -4.3859473e-01  5.4759488e-02 -7.1037543e-01 -2.2879250e-01
  4.8451734e-01  2.5991425e-01  4.8925895e-02 -2.3109438e-01
  2.2763363e-04 -3.0649021e-01  3.4928498e-01 -3.1732842e-01]
[ 0.44387046 -0.07023534  0.011054   -0.2189751   0.03242174 -0.14475313
  0.33801594 -0.20209387 -0.44994444  0.17966951 -0.32198578 -0.02528056
  0.30759692  0.1351988  -0.29519168 -0.23133866  0.1928482   0.05810218
  0.40000868 -0.02929281]
[-0.08266245 -0.04057548  0.3283622  -0.05330614  0.11199005 -0.19516918
  0.0517551   0.46922746  0.0272055  -0.35370448 -0.07879372  0.22140956
  0.08047737 -0.04588649 -0.00213824  0.17669374 -0.20669048  0.24297877
 -0.10152632 -0.4029311 ]
[ 0.04036672 -0.00769108  0.36158335 -0.17426327  0.3553222  -0.0574571
 -0.02410311 -0.36087602 -0.36367685 -0.45795396  0.46387243 -0.28482682
  0.00672722  0.30789718  0.40314767 -0.05562642 -0.36188635 -0.21474902
  0.11456469 -0.0091448 ]
[ 0.33417743  0.02978818 -0.6744746   0.04713403  0.7322333  -0.59568965
 -0.26513815  0.21313852 -0.31527898  0.45873314 -0.0209504   0.45791525
  0.35522214  0.15011214  0.01629185 -0.01078665 -0.02848129  0.56636685
 -0.5002902   0.45835724]
[-0.02854116 -0.00372813  0.063224    0.09521788 -0.07400296  0.1850898
 -0.02557252 -0.17687282  0.00454559 -0.1092715   0.10745279 -0.03297419
 -0.06296542 -0.07650857  0.01544803 -0.11828422 -0.07273166 -0.20409328
  0.06135258  0.03249624]
layer 1 Activation
tanh
layer 2 Dense
20 40
[-0.21999696 -0.16095223 -0.22486682  0.3523438   0.11801192 -0.16724856
 -0.0570728   0.28603405 -0.1207672   0.20709892 -0.04462885 -0.03938357
  0.06304579 -0.05982785 -0.31125945 -0.17229764  0.22980493  0.16704914
  0.20892309 -0.03604608  0.12902509 -0.18517838 -0.17655925  0.08371289
  0.16545752 -0.23253457  0.09586351  0.3141148   0.0350674  -0.03728233
 -0.05290908  0.29394355 -0.06401088  0.08059127 -0.03146217 -0.24279356
 -0.03860389  0.22406414 -0.11495864 -0.16760972]
[-0.17203766 -0.02312157  0.17414293  0.11950189  0.2883471   0.12585957
  0.11868007 -0.25795227 -0.03871799  0.05942237  0.2528412   0.17724058
 -0.20440082 -0.31069073  0.0568742   0.06990986  0.14051749  0.25956792
  0.14982799  0.10670282 -0.1306491   0.17796366 -0.1809047   0.02849813
 -0.24068595 -0.21702047  0.10051283 -0.19725417  0.00278316  0.24132623
 -0.07165553  0.26933435 -0.09877361  0.0129619   0.07181717  0.00970067
  0.35798064  0.10407165 -0.2870045   0.10940487]
[-0.16560715  0.01777073 -0.39974105 -0.34672588  0.06885134  0.07139713
 -0.21975183 -0.29385817 -0.24764314 -0.18131998 -0.02518275 -0.23684707
  0.28194648 -0.00128054 -0.17203094 -0.11073208 -0.11826711  0.10875565
 -0.07416386 -0.05244283  0.30543867  0.15981472  0.01345384 -0.34720045
  0.02936067 -0.2660996  -0.00140778 -0.12712416  0.30026153 -0.20505647
 -0.19917518  0.22816929  0.03132631  0.08373932 -0.10703803  0.24189924
 -0.01011262 -0.00910206  0.07019477  0.2740398 ]
[ 0.17169316 -0.1741153  -0.16916901 -0.10996951 -0.12786323 -0.21651489
  0.10370247  0.18963645 -0.03829785 -0.09653503  0.00198914  0.04245336
 -0.22500733 -0.19807556  0.2013416   0.19896547 -0.20682894 -0.13566132
  0.15402357 -0.20960248 -0.01913325 -0.06801111  0.24243271 -0.19954543
  0.11520248  0.19355528 -0.17964803  0.07615852 -0.16959488  0.14984861
  0.16908062 -0.04574916  0.05750144  0.10623467  0.05571855  0.16832952
 -0.2520055   0.11437899  0.0624797  -0.21953562]
[-0.07032859 -0.04990228  0.3989625   0.12893954  0.09986115  0.12462953
  0.06987132  0.23420049  0.08542171  0.00793474 -0.20510879 -0.04308098
 -0.06307579  0.193915   -0.1469984   0.15151751  0.14891078  0.01874589
  0.13955487  0.19982992 -0.11039902  0.15870377  0.177582   -0.17402095
 -0.24806042  0.18581681  0.261824    0.25294793  0.10971101 -0.22299726
 -0.12379169 -0.28311098 -0.08403668 -0.13311976 -0.03200628 -0.14171329
 -0.10023566 -0.11528313  0.24100645 -0.22498307]
[ 0.09462921  0.3549695  -0.6633147  -0.36549658 -0.30075982  0.5434766
 -0.0927536  -0.33102974 -0.0663     -0.02316805  0.7640591  -0.07838912
  0.39871365  0.16154273  0.42312354 -0.25824496  0.04894494  0.20238099
 -0.05149196 -0.22489019  0.6041894  -0.21545753  0.2921446   0.05281197
  0.08335458  0.2734071   0.3191924   0.06722923  0.39332008  0.20614786
 -0.17919724 -0.04464057 -0.16318126 -0.47196454 -0.21531866  0.15868497
  0.27641997 -0.24131015  0.11361583 -0.15935466]
[-0.16262966 -0.16889666 -0.19603175 -0.23588072  0.1386896  -0.13070798
  0.10207699 -0.00312034 -0.16054495 -0.22787349 -0.04952668  0.15346204
 -0.15734272  0.26703906  0.12769994  0.08197612  0.00246966  0.06806886
  0.2265231  -0.17073451 -0.27021828  0.02414747  0.29955527  0.10714535
 -0.13408273 -0.25376904  0.12865786 -0.10614941  0.10787711 -0.12773423
 -0.12191065  0.22325453 -0.2937002   0.29477584 -0.14601332  0.02816075
 -0.2792787  -0.01751325  0.24617788  0.03818005]
[-0.1640762  -0.13950585 -0.07809427  0.258158    0.3247645  -0.09506735
  0.08610957 -0.03084763 -0.07997897  0.09258769 -0.15196633 -0.14048778
 -0.01733638  0.02647743  0.11686128  0.15371333  0.02076995  0.07950775
 -0.21671027  0.10042486  0.09301037 -0.22129312  0.00698125  0.23875898
  0.09616715  0.08061294  0.11682577 -0.0318369  -0.21876006 -0.22773945
 -0.08094651  0.18944612  0.02745095  0.08718669 -0.00959307 -0.17079641
  0.21490555 -0.1445543  -0.02822906 -0.08889225]
[ 0.23486185 -0.1698316  -0.21242082 -0.36483827 -0.1673706   0.03395903
 -0.23643214  0.14754692 -0.11073012  0.04419674  0.07156242 -0.13782173
  0.29810143 -0.19452763  0.21488273 -0.11736737 -0.16708541 -0.1494902
  0.09232505 -0.30486974  0.24824275 -0.02700195 -0.26594645 -0.03774496
 -0.14317425  0.14309265  0.05209357 -0.2892525   0.08992967 -0.03431152
  0.09899069 -0.04454334  0.17170523  0.18242006  0.20512603  0.31403518
  0.20699175  0.29941326 -0.09022699  0.16666807]
[-0.1271932  -0.16812529  0.18476138  0.15589449  0.0945384   0.06686442
 -0.14196695 -0.03480285 -0.14623885 -0.1101817  -0.09772848 -0.00137138
 -0.26705125  0.1304783   0.20463854 -0.13151151 -0.25584412 -0.00923224
 -0.23927237  0.00980231 -0.14583023  0.23139633 -0.19405203 -0.27282596
 -0.12268614 -0.11737043 -0.03123936 -0.20332651 -0.06218347 -0.03212882
  0.03228242 -0.31853482 -0.13878612  0.08312041 -0.06570912  0.25372124
 -0.24894202  0.227439    0.33801967  0.09326775]
[ 0.14170742  0.0416027   0.11297309 -0.00135389 -0.12251451 -0.07609896
  0.09783899 -0.120591    0.0340154  -0.05233476  0.20029815  0.27003074
  0.02759312 -0.10236452 -0.02673392 -0.0112571  -0.0648627   0.1890801
 -0.14913005 -0.03153033  0.26947162  0.15328845  0.18254192  0.10536987
  0.08288116  0.01304718  0.1793935   0.09714802  0.10814404  0.17314366
 -0.16802588  0.22881062 -0.29231477  0.23738392  0.36810666 -0.06703562
  0.28244835  0.1597507   0.02369773 -0.10561382]
[ 0.1606217   0.06832497 -0.07481094  0.30579716 -0.11046366  0.07706421
 -0.23444666 -0.09355937 -0.12797736  0.09205418 -0.11619838  0.13133852
 -0.25733963  0.18723828 -0.20485377 -0.0195155  -0.06220004  0.16996384
 -0.36185658  0.31022644 -0.10781147  0.16373442 -0.02395885 -0.06235006
  0.13506447 -0.03336706  0.17074637  0.19526286  0.12159148  0.05406923
  0.04044437  0.14682044  0.2404016   0.2570735  -0.16396312  0.09325323
 -0.2657779  -0.32936984 -0.10493155 -0.06573524]
[ 0.12287117 -0.01416813  0.15172124  0.25857213  0.05509815  0.14788353
  0.09030153  0.2873269   0.08079554  0.05633847 -0.27345404  0.31119716
 -0.3213359  -0.17495766  0.2544006  -0.25353733 -0.14801243 -0.2687021
 -0.23289253 -0.12264179  0.10882978  0.0050111  -0.19328898  0.17154925
  0.2896646  -0.14799291 -0.0674016  -0.2524247   0.12573989  0.28588405
  0.23774227  0.05342606 -0.30112728 -0.09668657 -0.08586644  0.18391804
  0.04483287 -0.10181233 -0.16042896 -0.02881251]
[ 0.31817248 -0.01669518  0.3086637  -0.08897892 -0.28027603 -0.14459623
  0.07521842  0.33717343 -0.12380099 -0.06501512 -0.06073348 -0.02399499
 -0.06828052 -0.24995284 -0.2289964   0.03192073 -0.08220869 -0.06533336
 -0.05905825 -0.2560107  -0.21378495 -0.12353802 -0.07712093  0.06007989
 -0.09388568 -0.1180098   0.22376934 -0.04624241  0.24864261  0.06800909
 -0.09566723  0.15914033 -0.10942865  0.07481737  0.05900752 -0.0518361
  0.28737256 -0.18312357  0.09099992 -0.2849334 ]
[-0.10885632 -0.28884977 -0.138266    0.02211096  0.17151827 -0.13267848
 -0.11972062 -0.20029782  0.00175902  0.14260185  0.17512254  0.25908196
  0.01529064 -0.16414511 -0.17027453  0.04803798 -0.04350058  0.18407796
  0.12402646 -0.079589    0.21861316  0.11417346  0.24478368 -0.16321315
  0.10924723  0.04999267  0.12007379 -0.12292318  0.304553   -0.13279642
  0.10891749 -0.15705673  0.22164775  0.14594862 -0.24482389  0.2055744
  0.21465372 -0.17634998  0.17123723  0.20410722]
[-0.2990169  -0.02402742 -0.24683814 -0.16175629  0.10640232 -0.05193964
  0.04710126 -0.10807039  0.02987072  0.11298221 -0.12579055 -0.00717136
 -0.02471911 -0.10638456  0.27297825  0.24190162  0.00209889 -0.1271461
 -0.18172878  0.17741333 -0.10403258  0.26515773  0.25747156 -0.0622246
  0.01726967 -0.19169033  0.10004996  0.03382954  0.04375667 -0.17554232
  0.20463134 -0.08189213 -0.13421217  0.18456179  0.23247102 -0.22034022
 -0.25164813  0.01449605 -0.15357013 -0.1782861 ]
[ 0.18494523 -0.23407893  0.33946976  0.3952016  -0.00420932  0.11192915
  0.07666136 -0.03642309 -0.00993551 -0.13457638  0.01951847  0.21583043
  0.07924341 -0.17419435 -0.16918086 -0.0254506   0.22582883 -0.01869291
 -0.0061001   0.1533252   0.19127612 -0.20407897 -0.02765366  0.15038903
 -0.11366547 -0.02894867  0.07106013  0.3429033  -0.10679276  0.25281033
 -0.12560718  0.03273704 -0.00345717 -0.05171148  0.0553886  -0.03665436
 -0.01218558 -0.31483987  0.11982976 -0.00194193]
[ 0.12169001 -0.18300164  0.18589288  0.03610567  0.1096074  -0.06739284
  0.02632592 -0.21352658  0.11332415 -0.04956824  0.18670528 -0.21067025
 -0.24090883 -0.09713395 -0.19628842 -0.12222934 -0.04301077 -0.17424569
  0.0297183  -0.07879084  0.24040572 -0.2705188  -0.21431768  0.15319991
  0.06217779 -0.01330757 -0.09969206 -0.11282889 -0.19577086  0.02250727
  0.21342354  0.20996548  0.19285493  0.07072352 -0.15963675  0.2481528
 -0.2881357  -0.25130352 -0.13403828 -0.00552513]
[ 0.07677673  0.13413002  0.02786259 -0.21593718  0.21310146  0.20803194
 -0.2111372   0.16824241 -0.15187356  0.12519795 -0.13480024  0.04023205
  0.26898572  0.10276259  0.16481084  0.11374966  0.08213156  0.03824622
 -0.10196177 -0.10220615  0.00685021 -0.19162728 -0.07705695  0.10224602
 -0.23893364 -0.14061028  0.13639714 -0.22252905 -0.07736458  0.24128401
 -0.1273357   0.20284995  0.25853175 -0.13281712 -0.0197966   0.07686085
 -0.32104826  0.05342352  0.1239804  -0.11273625]
[ 0.29306147  0.12120182  0.01992138 -0.2808172  -0.0097984   0.08667892
 -0.26520807 -0.17806073 -0.12839444 -0.13804911 -0.12677406  0.16435657
 -0.16685392 -0.04569716  0.20803164 -0.02671156  0.06777538  0.00070565
  0.12844265 -0.19285221  0.12022614 -0.13946234 -0.05937456  0.12988968
 -0.13118     0.21641955  0.09414503 -0.2478132  -0.01337393 -0.4369702
  0.12965308 -0.0083215   0.02067095  0.02724311  0.16525704 -0.22703725
 -0.15371072  0.21062039 -0.125753   -0.08436161]
[ 0.01180814  0.13188516 -0.04685937 -0.04822589 -0.0157032   0.11481248
 -0.03518077 -0.00310726 -0.06856892 -0.03444408  0.10274726  0.01853503
  0.10209394 -0.06272777  0.00093895  0.01073959 -0.02617815  0.07500222
  0.03129525 -0.10071813 -0.01817019  0.01466868 -0.0125882  -0.08602484
  0.06038565  0.03947453 -0.02783922 -0.04794241 -0.03026412 -0.04490796
 -0.03639624 -0.01233896 -0.06851538 -0.08172419 -0.01502428 -0.02181248
  0.01838069  0.09173369  0.06637201  0.01552972]
layer 3 Activation
tanh
layer 4 Dense
40 20
[ 0.02423149  0.10763539 -0.14088947  0.26045457 -0.11554911 -0.15629598
 -0.08919612  0.16800529  0.04431002 -0.24531648 -0.2705379  -0.10988476
 -0.02521046  0.20387346 -0.14396296  0.14768393 -0.1796339  -0.17628613
  0.1333326  -0.18639801]
[ 0.20959477  0.02977967  0.20522632 -0.17326988 -0.10881347  0.09868155
  0.04795818  0.20880273  0.2237048  -0.20057046 -0.13632031  0.08975947
  0.27482125  0.25489765  0.02575762 -0.23045494  0.2875375  -0.06704721
 -0.23245499  0.12452247]
[-0.17416918 -0.10379584 -0.00473547 -0.04617253 -0.20155095  0.20347299
 -0.31638762 -0.17123899 -0.07207853 -0.28236404  0.24111266 -0.0557664
  0.33902887 -0.2071652   0.04659567 -0.00355981  0.31594658 -0.11591502
  0.2471801   0.08355506]
[ 0.19865684 -0.01247886  0.20907898 -0.10545078  0.19294965 -0.11741971
  0.17638627 -0.10662639  0.06829572  0.16879155  0.1325937   0.06795714
 -0.20669946 -0.23480028 -0.07989663 -0.07595835 -0.03106911 -0.06641392
  0.2104923   0.05500917]
[ 0.26538786  0.05402831  0.15297547 -0.18235911 -0.15438703 -0.13212386
 -0.0535932   0.02575439  0.067068    0.17992058  0.2214208  -0.02642207
 -0.09684906  0.30369875  0.05011167  0.06717721 -0.1984485  -0.17738256
  0.10502683  0.26336485]
[ 0.27989662  0.11367644  0.25268313 -0.26147482  0.06637317  0.03032841
 -0.13151594  0.21223488 -0.15135996  0.07785568 -0.20444281  0.18630512
 -0.00294912  0.06625339  0.04889803 -0.08861671 -0.0009484   0.2425256
 -0.00857413 -0.26343754]
[-0.17784518 -0.00969492 -0.087584   -0.17951764  0.12895489 -0.16468023
  0.23308766  0.12498988 -0.21005245  0.162323   -0.28819585 -0.1423593
 -0.10308117 -0.18646322  0.18009587 -0.03024376  0.28283885  0.04447141
  0.02294788 -0.10279661]
[-0.10953198 -0.2907409  -0.05976312  0.09585676 -0.19116728  0.01207099
 -0.24504907  0.12478391 -0.07914177 -0.04204804  0.0437906   0.18826307
  0.28659388  0.22053279  0.22001004 -0.00667243  0.10900749 -0.24332835
  0.27590203  0.1702076 ]
[-0.03137901  0.1982121  -0.0702203  -0.20643702  0.25373217  0.16834567
 -0.24449204  0.10751995 -0.1084293   0.03088799 -0.23820081  0.09614405
  0.29022175 -0.11059921 -0.09046163 -0.16958004 -0.26807702 -0.1466832
  0.05503368 -0.09622823]
[-0.27771708 -0.08914966 -0.20382671  0.28113964  0.0024168   0.00903225
  0.11369642 -0.18473703 -0.24382249 -0.2070058  -0.1943857  -0.10003709
  0.1484183  -0.20798822  0.05924416  0.17704809 -0.12228939 -0.18326458
 -0.02735593 -0.09712584]
[ 0.01288953 -0.18639913  0.11838     0.08505011 -0.14681502  0.14337438
 -0.0225397   0.05692117  0.08163746 -0.13187607  0.3408715  -0.13515097
 -0.17799643  0.1023554  -0.07160074  0.005299   -0.02671899 -0.02401464
 -0.02361702 -0.2704013 ]
[ 0.10187743  0.11166075  0.26682103  0.2515941  -0.18131839  0.03025581
  0.1618632   0.16402954 -0.22056548  0.15582803  0.02877555 -0.20572975
  0.27630407  0.24702585 -0.24026608 -0.20030701  0.11822978 -0.0881632
  0.21969973  0.11826043]
[-0.14936009  0.00824038 -0.27038902 -0.05428389  0.15633546 -0.31266767
  0.11056673 -0.2911555   0.23489374  0.12749672  0.00953701 -0.12131523
 -0.19163175  0.1469339   0.2958446   0.30312076  0.1428367   0.16213061
 -0.28696522 -0.359418  ]
[-0.01910755  0.08678939 -0.14018701 -0.08622052  0.07335262 -0.08978487
 -0.2601961  -0.13682096 -0.17743525  0.14329208  0.22144635  0.2312339
  0.22865063 -0.15876856 -0.1289622   0.19392446  0.07988575  0.14291497
 -0.07247224  0.3468356 ]
[-0.201783   -0.18155633  0.06985861 -0.2532204  -0.10257149 -0.04801085
  0.1265975   0.2388612   0.17215875  0.12886217 -0.03643464  0.0334354
 -0.0979905  -0.08802684 -0.19677837  0.00508972 -0.0376684   0.2899048
 -0.25819108  0.25179696]
[ 0.13867307  0.11938439  0.11696583 -0.25519288 -0.2025938   0.09855876
 -0.25212452 -0.11915774  0.12503058  0.11474675  0.22131564 -0.20016111
 -0.03538911 -0.03728748 -0.23533502  0.06056799 -0.05573184 -0.08580318
 -0.01436579  0.024881  ]
[ 0.04365494  0.1709376  -0.13219891 -0.00834742  0.02738688  0.12096752
  0.24261408  0.23341505  0.39116558 -0.11148608  0.01889885  0.23475964
  0.10300039 -0.08125411 -0.01212006 -0.07474966 -0.23162208 -0.4132612
  0.36259568 -0.17041247]
[ 0.31960052 -0.34735388 -0.06583071  0.13941498 -0.11197416  0.19424722
  0.25353673  0.16915599  0.09165072 -0.14516857  0.00687466 -0.06464718
 -0.21096659 -0.17658924  0.11407644 -0.00808316  0.13908145 -0.19691165
  0.21882294 -0.27097133]
[ 0.07459367 -0.03322726 -0.05731861 -0.08870728 -0.1420167  -0.06745172
 -0.10790676 -0.17696656 -0.03135739 -0.01384638  0.07288779  0.1287331
  0.01394013  0.12529455  0.24876572  0.03806515 -0.13695411 -0.02903663
 -0.06184088  0.01258367]
[-0.10744594 -0.07899516  0.07666539 -0.01734256 -0.07709209 -0.15036131
  0.31923294  0.14738213 -0.18492942 -0.00062729 -0.22759305 -0.01339241
 -0.21869059  0.08440106 -0.16296664  0.16570254  0.12982191 -0.3174673
  0.24656402 -0.24053489]
[ 0.16042925  0.31207824  0.19550596 -0.04683477  0.11276831 -0.05757192
  0.2922277  -0.10557903 -0.16292349  0.13482143  0.02434944  0.16827607
  0.2225569   0.30514467 -0.28851938 -0.05351553 -0.05755029  0.18324287
 -0.07654441 -0.09462061]
[ 0.11415959  0.15208867  0.10875934  0.03337311  0.01485464 -0.05290851
 -0.20719187 -0.12048057 -0.12960695 -0.01239016  0.18089174 -0.19958965
  0.0930104   0.05525788 -0.00882088  0.15318146 -0.1158791  -0.02258955
 -0.16261642 -0.0678992 ]
[-0.21151963 -0.22692628 -0.03908909 -0.00523226  0.06735784  0.04046534
  0.25895593  0.19133635 -0.21683411  0.08306242  0.24991505 -0.21499716
  0.07458191 -0.04588669 -0.31671894  0.12434443  0.25241798 -0.12652083
 -0.09186922 -0.20226568]
[ 0.05807395  0.2555366  -0.08812104 -0.0765398   0.27882934 -0.10554186
  0.23519337 -0.04648758  0.00029725  0.02459424  0.2163198  -0.0296452
  0.00721741 -0.11965979  0.07354236 -0.12909305 -0.14909892 -0.21881996
  0.16643128  0.08088332]
[-0.13585016  0.23223177  0.16812907  0.00322057 -0.04423277 -0.02056319
  0.10045002 -0.31771702 -0.08721854 -0.06858426  0.27462596  0.11641871
  0.16496207 -0.05538195 -0.1300329  -0.3000868   0.11558995  0.22117393
  0.2023051  -0.19725953]
[-0.19902562 -0.16786802  0.18741977 -0.00467147 -0.13087595  0.15790659
  0.00574458  0.00929987  0.09784232  0.11545321  0.0605782   0.22520953
 -0.16434357 -0.1237628  -0.22298779 -0.29567382  0.1903734   0.0938649
 -0.07706726 -0.14591931]
[-0.30823678 -0.17166527 -0.20178069  0.24739914  0.04766681  0.03675043
  0.12353212 -0.19558595  0.08153394 -0.17628586 -0.11023556  0.18473618
 -0.03423231 -0.07128944  0.1862455  -0.00438946  0.32826045  0.21985921
 -0.02285795 -0.14892088]
[ 0.23527715  0.28549206  0.06982698 -0.05349345 -0.08087274  0.09837964
  0.18921292  0.04764463  0.05000136  0.08583461 -0.12759128 -0.01593982
 -0.19878405  0.10518093 -0.30522335 -0.13147144 -0.2540254  -0.2747705
  0.17387928 -0.01101013]
[-0.21432863 -0.08581664 -0.00641342 -0.14581485 -0.1616436  -0.24718483
 -0.2370009   0.02008175 -0.09887982  0.13975531 -0.037928   -0.1305249
  0.25228757 -0.2125475  -0.14571752 -0.24072105 -0.17172483 -0.03881986
 -0.0699252  -0.10538164]
[-0.04744302 -0.21950033 -0.14590998 -0.22688875 -0.18554851 -0.06918218
  0.14979258 -0.22948976 -0.159669    0.2438414   0.24739577  0.09949183
  0.32749683 -0.00273557  0.06548871  0.07933652 -0.08879437 -0.28981733
 -0.09239957  0.25223786]
[-0.03953914 -0.16602783  0.26496854 -0.1125985   0.09457706  0.1500199
  0.12307816  0.03474449 -0.20191725 -0.11285425 -0.03325289 -0.10763954
 -0.21922363 -0.14499478 -0.20237088 -0.23041719 -0.04914165 -0.01151697
 -0.0511076   0.29470822]
[ 0.07959723 -0.09769011  0.02250724 -0.19216517 -0.22149083  0.07188679
  0.12463973 -0.13768828 -0.10480943  0.25213563 -0.1731664  -0.06914965
  0.01326288  0.20346856  0.10193083  0.27563092 -0.08612607  0.11814094
  0.2971819  -0.08690274]
[ 0.07212187 -0.04501401 -0.22019154 -0.00143858  0.19948669  0.02661048
 -0.0534376   0.00076163  0.14136079  0.12118344  0.14156151 -0.26777786
 -0.14230655  0.13776286 -0.09600642  0.2655818   0.02237762 -0.19648859
  0.00360445  0.29206663]
[-0.03459198 -0.03690229 -0.04352042 -0.20719959  0.16773075 -0.04236596
 -0.25971165  0.2320099  -0.05171876  0.07045069 -0.28224933  0.2528572
  0.12668657  0.12346082 -0.22010379  0.22486618  0.2720158   0.22798967
  0.04453137  0.23838125]
[-0.23123302  0.10132236 -0.16106556  0.23551345  0.21284688 -0.03063448
 -0.05241562  0.0059445   0.12450127  0.07850918  0.21944498 -0.0262397
  0.09588245 -0.09795863  0.19855303 -0.03142906  0.16806246  0.23230965
  0.02134193 -0.15298373]
[-0.0686641   0.1480409  -0.25730026 -0.168775    0.26960453  0.30030775
  0.16386852 -0.23847884  0.18314016  0.01012154  0.11106768  0.0521433
 -0.30844283 -0.25641015  0.1605534  -0.01379376  0.21242492 -0.08194825
 -0.13479877  0.02130661]
[-0.00104368 -0.00451661 -0.32246208 -0.26674217  0.09420636  0.1419147
 -0.10292118  0.1932094   0.24724954  0.11448267 -0.18737389  0.11625124
  0.02828675 -0.10134237 -0.24538296  0.12073666 -0.20063667  0.0703216
  0.10015094 -0.293247  ]
[ 0.03144023  0.17210971  0.16718046 -0.11046084 -0.01315537 -0.01589797
 -0.17090835  0.21918517 -0.0614449  -0.08190066  0.28654906  0.16807078
  0.31236383  0.22168192  0.2283124  -0.16974716 -0.07673808 -0.00106915
  0.05773536 -0.10257244]
[-0.25481448  0.08230969  0.01169729  0.0555261  -0.09093765  0.0192398
  0.03889592  0.15080091 -0.21671271 -0.23656166  0.25158358  0.09599739
  0.12005486 -0.14962272  0.12019282  0.3202006  -0.11991845  0.3172225
 -0.10422325  0.10375623]
[-0.16354063 -0.18074845 -0.05339875 -0.13317002 -0.04031404 -0.04120689
  0.06802361  0.06603624  0.19266632  0.30984494 -0.30080378 -0.06994993
  0.12155262  0.06694327  0.2498296  -0.11350859  0.25009724  0.18742391
 -0.08212639 -0.01661255]
[ 0.00519047  0.05084187  0.05604354  0.04234927 -0.08092503  0.03623915
 -0.05913413  0.09492058  0.18437389 -0.00212331 -0.02286435  0.02093848
 -0.07475673 -0.04821462  0.08863587 -0.02471374  0.02671282  0.00919399
 -0.02290088 -0.02568116]
layer 5 Activation
tanh
layer 6 Dense
20 1
[0.00015428]
[0.00874131]
[0.06497886]
[0.03153421]
[-0.00533438]
[0.00066515]
[-0.03768247]
[0.01542514]
[-0.01285783]
[-0.00894183]
[0.00386822]
[0.00764152]
[-0.02592426]
[-0.01017874]
[0.04482812]
[-0.01411506]
[-0.00175512]
[-0.03968039]
[0.08535957]
[0.06595129]
[0.12202266]
