layers 7
layer 0 Dense
20 20
[-0.22732222  0.80519944 -0.086639   -0.2736636   0.7412986   0.27584183
  0.23971233 -0.6117192  -0.03243569  0.1003954  -0.28395838 -0.08053113
  0.02398499  0.28665635  0.8625445   0.2893248  -0.69164014  0.66939574
 -0.29404846  0.43533766]
[ 0.34220356  0.6293764   0.58579093 -0.02879003  0.12955795  0.40300792
 -0.27322844  0.06814484  0.0645919   0.335491   -0.08999114 -0.21058287
 -0.03451716  0.26174292  0.65735257  0.3253569   0.17313762  0.4953823
  0.11250849  0.8859943 ]
[ 0.36155054  0.48791972  0.42542356  0.21351409  0.03039484  0.73830426
 -0.27605224  0.42905796  0.4533413  -0.2107564   0.2595194  -0.74978507
 -0.2779211   0.48121545  0.9204176   0.57007056  0.5481692   0.67350924
 -0.41309285  0.87901497]
[-0.43259823  0.39268574  0.09779982  0.22073324  0.39423275  0.50251657
  0.3804984  -0.03954149  0.4706114   0.17937116 -0.01206322 -0.09289771
  0.09014017  0.57798505  0.5721022   0.29432264 -0.76355815  0.68310595
 -0.21072869  0.27503458]
[-0.11098623 -0.17217033  0.63423157  0.2564545  -0.1602445  -0.24302766
 -0.3012507   0.09286668 -0.83535886  0.24296273 -0.64558095  0.08578272
 -0.73769355 -0.10467044 -0.51040685 -0.44407922 -0.25305972 -0.99014807
  0.6356828  -0.43155253]
[-4.00598347e-01 -8.46097013e-04 -5.43652415e-01  1.87294602e-01
  9.71287768e-03 -1.16883826e+00  5.33035994e-01 -7.64535666e-01
 -2.67144144e-01 -1.04145125e-01  7.79115641e-03  1.13141119e-01
  2.57415712e-01 -5.61277509e-01 -1.09396315e+00 -6.89625978e-01
 -4.93964255e-01 -9.51734841e-01 -3.04100543e-01 -1.15769196e+00]
[-0.55510235  0.07198303 -0.2515393   0.50408065 -0.25403732 -1.0852736
  0.5025278  -0.40718552 -0.28245616 -0.6355053  -0.35870093  0.15720639
 -0.23330092 -0.2646436  -1.0469929  -0.38569662 -0.5006106  -0.32888496
  0.34939215 -1.203062  ]
[ 0.00733571 -0.8817267   0.17768331 -0.26405343 -0.07109297 -0.25800735
  0.30998006  0.15480904  0.13593648  0.35138673  0.3548822   0.15913017
  0.022089   -0.44091123  0.3673872  -0.16153389  0.53733695  0.23180957
  0.3727252   0.09107576]
[ 0.98531854 -0.37709764 -0.10658528  0.15944003 -0.42457247  0.330501
 -0.4072145   0.49588475  0.39747715 -1.0009941  -0.14051908  0.74914944
 -0.8333625  -0.73039705  0.16569619 -0.6170669   0.19857144 -1.4538194
  0.00898336  0.1605954 ]
[ 0.80317354  0.14722231  0.28908753  0.64920765 -0.03580695 -0.12067632
 -0.86462784  0.8139614   0.52858573 -0.99333256  0.21243861 -0.7138908
 -0.63824105 -0.539191    1.3687556  -0.25053877 -1.0687753  -0.16538145
 -0.02737219 -0.08937734]
[-0.24890201  0.18143009 -0.5026191   0.24851274  0.5283002   0.33210436
  0.4772401   0.33374777  0.20994276 -0.07788298  0.00279784 -0.6779609
 -0.04367335 -0.52670205  0.25510672 -0.08477612 -0.71379966  0.10109266
 -0.61207867 -0.6083874 ]
[ 0.7842496  -1.0907054  -0.4091793   0.5497067   0.03555575 -0.77458966
 -0.70549047  0.3314543  -0.14851306 -0.8053357   1.4204311   2.340737
 -0.9356661  -0.45034084 -0.30906636 -0.5538144  -0.264279    0.15767612
  0.22966722 -0.23215754]
[ 2.25158960e-01 -6.02250338e-01 -2.68376857e-01 -2.84053713e-01
  4.00750965e-01 -1.79056466e-01  1.00321695e-01 -6.61106780e-04
 -4.61908937e-01 -3.40036213e-01 -6.12689376e-01 -2.75045186e-01
  4.75381285e-01 -2.55093025e-03  1.30369589e-01 -7.85093784e-01
 -5.03137410e-01 -3.28532755e-02 -4.08485308e-02 -2.79363990e-01]
[-0.90050936  0.1479445   0.63548684  0.6287907  -0.3465089  -0.02915977
 -0.69747597  0.2865181  -0.04461872 -0.23122975  0.48899508 -0.01505998
 -0.3720385   0.04720068 -0.106263   -0.16506885  0.6179027  -0.4377623
  0.36801344 -0.38303095]
[ 0.35629913  0.16242738 -0.23011613  0.08160407  0.22337453  0.3943428
  0.05640196 -0.6189185   0.11216225  0.17633334  0.69965947  0.5149148
  0.6163604   0.8668882  -0.02804663  0.04920736  0.586996    0.63651496
 -0.4117579  -1.1160897 ]
[-0.78121585 -0.65886104 -0.6876404   0.5066266   0.5921573  -1.246676
  0.10260711  0.44653308 -0.98974615 -0.21609125  0.13798954  0.68825114
  0.61174434 -0.5171384  -0.5199161  -0.13748544 -1.2757151   0.81861496
 -0.10540804 -0.6119611 ]
[-1.4702518   0.68753135  0.66175556  0.04096201 -0.66152984  0.54643905
  0.2677214  -0.23992321 -0.5776235   0.4561722  -0.03106588 -0.5440351
 -0.24495997  1.3464077  -0.2050411   1.4824243  -0.3934024   0.45987952
  0.11801255  0.10308407]
[-0.4114123   0.19073553 -1.4959269  -2.133988    1.6926175   0.03664676
  2.3466747  -2.4082696  -1.7315603   2.4289267  -0.86167693  0.35517085
  2.0462794   0.0558132  -2.5582914  -0.16560043  0.36111987  1.3993714
 -0.9190618   0.20947677]
[-0.820288    0.157012    0.98763615 -0.21426912 -1.1587205  -1.8131925
 -0.47771177  1.2348282   0.15854524 -0.5940223   0.04195955  0.55066025
 -0.8638881  -0.20537768 -1.0499122   0.2822992   0.6001606  -0.3087098
  1.0331693   3.2527149 ]
[-0.5283783   0.9344351   0.33926025 -0.8504961   0.1487872   1.6276615
  0.8818747  -0.7245938   1.5462813   0.212406   -0.6024848  -0.95029646
 -0.04673152  0.79642767  1.2039465   0.7231229   1.633118    0.22294453
 -0.37051564  0.7869595 ]
[-0.03193651  0.45152265 -0.20444497 -0.12976351  0.38133764  0.04128632
  0.05322587 -0.0881344   0.18209545 -0.01753924 -0.13844943 -0.27580366
  0.0673888   0.22862785  0.11586709 -0.02915172 -0.2692102   0.3481636
 -0.23632932  0.13704336]
layer 1 Activation
tanh
layer 2 Dense
20 40
[-0.63425106  0.58414733 -0.18933463 -0.30146104 -0.7617176  -0.28562438
  0.85346746  0.58152026  0.16776448  0.47219932 -0.22833596  0.44971907
 -0.07129541  0.02585689  0.01642799  0.59273756  0.03084421  0.6010307
 -0.27109045  0.5507797  -0.19173822 -0.38739625  0.49727958  0.04399289
  0.22318654  0.19883192  0.9931385  -0.17633843 -0.14885415  0.0718841
 -0.92353314  0.08391006  0.92853475  0.7102842  -0.50753057 -0.07956336
  0.12432909  0.27591446 -0.39828542 -0.22131242]
[-0.7875217   0.6258477  -1.4489211   0.21972683  0.13580807  1.7935069
 -0.8222855  -0.7100475  -0.38523424 -0.90690196  0.5260641  -0.5639008
  0.09051843 -0.42872462  0.5536537  -0.61106646  0.3608796  -0.3586289
  0.3375092  -1.3291862   1.0151911   0.22519718 -0.910942    0.24603055
 -0.39914504 -1.0613457  -0.33595237 -0.00669392  0.36264166 -1.2632837
  0.23912354  0.18527609 -1.2279537  -0.11447434  0.8756252  -0.78670233
 -1.3026638  -1.0948981   1.253318    0.300053  ]
[-0.46668956  0.69174194  0.00171435  0.11914596  0.14481579  0.3064788
  0.16935417  0.1523879  -0.00296608  0.5782315   0.15109803  0.29591253
  0.01415673 -0.0957584  -0.25284404 -0.14317815 -0.14471792  0.29885495
  1.0462306   0.10355211  0.1294124  -0.12926954 -0.13346499 -0.03811198
 -0.17239088 -0.06488536 -0.7224388  -0.1918144  -0.21787035  0.28569874
 -0.2936931   0.10647707  0.05954644 -0.6488741  -0.1544199  -0.12204052
  0.0350881   0.527709    0.100643   -0.07281924]
[-0.36712825  0.38932648 -0.13118643  0.1877613   0.6167339  -0.42410082
  0.04969203  0.07366321 -0.23090558 -0.07994769 -0.1266652  -0.08633227
 -0.15365456  0.19416738  0.05849514  0.0608862   0.13175935 -0.05326257
  0.19902834  0.12023024 -0.23885202  0.04448913 -0.22609918  0.01833512
  0.06623176  0.35177073  0.20715034 -0.07674216  0.03634573 -0.356163
  0.04736001 -0.24121174 -0.52304673 -0.2377815  -0.36956057  0.28219658
 -0.20794217 -0.22962089 -0.03119313  0.26396188]
[ 0.02756572 -0.5893737  -0.52468437  0.17597863 -0.18505512 -0.31486723
 -0.6621191   0.04069626 -0.04846447 -0.5531965  -0.08262707 -0.12073753
  0.08040577  0.0254583   0.23040679 -0.45637843  0.22184967 -0.1532843
 -0.8542968   0.19502556 -0.36495277  0.16049808 -0.22569655  0.24207377
  0.02740494  0.20062807  0.34419167 -0.16460805 -0.23353542 -0.10689919
 -0.28429988 -0.02251457 -0.24065903  0.21727075  0.3027491  -0.13629335
 -0.2850275  -0.76729256  0.15200734 -0.07927641]
[-0.3050695  -0.5086017  -0.08016741 -0.00812937  0.06633247  1.3036098
 -0.6357762  -0.30322364  0.17995961 -0.8764909  -0.07619588 -0.13790518
 -0.07601538 -0.09329221 -0.03623371 -0.6876591   0.16718191  0.30307493
 -1.1767833  -0.40185657  0.36801457 -0.3001825  -0.13492501 -0.21576783
 -0.8653898  -0.19989696 -0.4546367   0.04414124  0.40357077  0.25687265
  0.22054099  0.1548346  -0.40188712 -0.30089658  0.40114117 -0.41920638
  0.25573826 -0.32216853  1.019966   -0.02452511]
[ 0.01000687 -0.89225173  0.34855214 -0.00104354  0.07951595  0.32204467
 -0.55767995  0.069258    0.10611048 -0.03388292 -0.08178846 -0.24141955
 -0.00461089  0.00721875 -0.14600158 -0.30311784  0.13641077 -0.27634045
 -0.7416401   0.13413541  0.11589674 -0.02413314 -0.01952866 -0.11736026
  0.2186768   0.39223683  0.0257312  -0.2544534  -0.25811857  0.125117
  0.7208516  -0.11799912  0.03285477  0.6335633   0.28535822 -0.18868163
 -0.02709621 -0.06037291  0.16016443  0.10756636]
[-0.12941149  1.03011    -0.11386079 -0.13654241  0.12175297 -0.41466585
  0.64119095 -0.28832877  0.17443563  0.46256864 -0.19016233  0.04997801
 -0.07758626  0.14361581 -0.2000254   0.81136614  0.06936636  0.28815073
  1.219375   -0.15237606 -0.02455737  0.25335357  0.2499172   0.29064193
  0.03775734 -0.32443497  0.16826491  0.11459777 -0.33989254  0.07746736
 -0.44840008 -0.05130218 -0.13710523 -1.0482328  -0.41167518  0.12040526
 -0.1725431   0.53086203 -0.32953393  0.12912893]
[-0.23124819  0.45897692 -0.41406834 -0.2824283  -0.4322128   0.08837257
 -0.28744715 -0.3851446  -0.02223733 -0.3778612   0.4022763   0.49799666
  0.20447767 -0.12387607  0.1055913   0.7830114  -0.02078442  0.6359511
  0.0162347  -0.63575745  0.5487062   0.0180698  -0.12703235 -0.26588342
 -0.23519155 -0.8465678  -0.46444553  0.16003837  0.29495254  0.19225824
 -0.15327299  0.32044557 -0.31965265 -1.0160179   0.19911896 -0.2258509
  0.05603594  0.22282992  0.17943166  0.30025125]
[ 1.1252239  -0.8168598   0.05958787 -0.15570748 -0.5448605  -0.29833218
 -0.19441207 -0.1183837  -0.1411452  -0.1286073   0.34547576  0.17747438
  0.12980045  0.1377163   0.2708005  -0.48087227  0.00358585 -0.3069884
 -0.08788264 -0.3021851   0.3136374   0.2067487   0.0506253   0.06321676
 -0.13432261  0.1320492  -0.2225752   0.07592599  0.12084404  0.26445645
  0.97756684  0.05755113  0.51178724  0.40814605  0.8181904   0.01191372
  0.05780428 -0.11160414  0.01949371  0.09380427]
[-0.10066028  0.08242116  0.08760689 -0.3062888  -0.23633958 -0.56550545
  0.06250597  0.06972151  0.05089884  0.04724582 -0.221207   -0.0271118
  0.09210889 -0.22938812  0.14745274  0.16739024  0.2164057   0.06959216
 -0.1112409  -0.66288155  0.31147647  0.06814288  0.00449381 -0.17525555
  0.10658168 -0.2531009  -0.37041086 -0.22709043 -0.25257602 -0.13076313
 -0.24266598 -0.05009949  0.03019392  0.35266882  0.10392813  0.10436056
 -0.21422942 -0.02714314 -0.03892082  0.13113274]
[ 0.54464066  0.43167102 -0.10871615 -0.02027536 -0.17252769 -0.6832228
  0.31717068  0.20128518 -0.17630701  0.25938377 -0.3602346   0.09673705
  0.0811205  -0.06343276  0.03115087 -0.13849355  0.14114113 -0.15684299
 -0.02033712  0.16416249  0.18366653  0.05172578 -0.169187    0.17032272
  0.1590195   0.8334247  -0.38453692  0.26331443 -0.0642328   0.03755341
  0.05489881 -0.6520404   0.25668362  1.1224844  -0.28267947  0.41267267
  0.04326959 -0.20112363 -0.20636135  0.59330773]
[ 0.48500177 -0.93349373  0.1080923  -0.13336447 -0.3309609  -0.30721012
 -0.7447996  -0.0832891  -0.20155455 -0.32320502 -0.15558752 -0.04211475
 -0.08486097  0.2965521   0.23448306 -0.7707476   0.07140344 -0.63260156
 -0.48500943  0.16131064 -0.03191062  0.11699812  0.11571763 -0.06570874
  0.40481734 -0.2366507   0.7965922  -0.01455599 -0.00405303 -0.10310483
  0.26938006  0.02794832  0.23568287  0.29507148  0.4730929   0.07900881
 -0.26330212 -0.05028151 -0.5895305   0.04244852]
[ 0.46638662  0.51906973 -0.52687466  0.240332    0.05882468  0.09793554
 -0.02341177 -0.85062325 -0.36071697 -0.41225725 -0.40368894 -0.18852931
 -0.01881283 -0.49102888 -0.03782877 -0.32451972 -0.08383599 -0.14534363
  0.3206432  -0.99026555  0.8248401   0.16340476 -0.415954    0.19377461
 -0.21442458 -0.33032876 -0.5545392  -0.21681596  0.2404182  -0.43448102
 -0.38593587  0.40020314 -0.443878   -0.4947115   0.6686409   0.04148109
 -0.38018414 -0.22663558  0.5711357  -0.03733081]
[-1.3783987  -0.11938686  0.23006389 -0.4224264  -0.13118269  0.8865696
 -0.94049233 -0.44855383 -0.0273188  -0.5339796   0.02062174 -0.28047332
  0.21578747 -0.2563064  -0.02664611  0.78966564  0.23624563 -0.21831334
 -0.23277898 -0.035537   -0.08432488  0.31019512 -0.1006928   0.18301669
 -0.05134748 -0.44687775 -0.31178802  0.04411058 -0.15709649 -0.09307445
 -0.07207395 -0.20544203 -0.99646986 -0.8129518  -0.4497624   0.06832596
 -0.00235527  0.11411816 -0.02379119  0.19157362]
[ 0.8123186   0.2865987  -0.14344431 -0.27558136  0.22686578  0.51425654
 -0.19680655  0.05499561  0.1860188   0.29687482  0.40407538  0.06740265
 -0.16614519 -0.19247702 -0.09694094 -0.2166357   0.14141224 -0.04426679
  0.68694067 -0.12782626  0.4173976   0.05484948 -0.13218568 -0.30080587
 -1.0513276   0.31652382 -0.43615323 -0.6003847   0.60424453 -0.01008445
  0.24437286 -0.03977994 -0.01945295  0.00951597  0.5374604  -0.37197855
  0.03299891  0.6137348   0.14810976 -0.14937237]
[-0.62598056 -0.6012142   0.32434112  0.2939876   0.16167408 -0.19331296
 -0.30158824  0.30296305 -0.07021271 -0.01177237  0.17217618 -0.11609206
 -0.14671446 -0.11739806  0.40620705  0.39373192 -0.30143067 -0.19087046
 -0.48746753  0.20322718 -0.5373142  -0.01118734 -0.44153106  0.07844978
 -0.04660117 -0.06224271 -0.7317481  -0.23067448 -0.0291964   0.1261607
  0.3456609  -0.27560124 -0.30705485 -0.7627394   0.00979788 -0.05201611
  0.5051912   0.15813707  0.22428288 -0.05057796]
[ 0.6109897  -0.75400114 -0.13109997 -0.2047995  -1.0287974  -0.16201732
 -0.9952125  -0.2852389   0.32214627 -0.8489523   0.1179329  -0.32127932
  0.08834908  0.50091445 -0.33979115 -0.55662477  0.32013413  0.04466878
 -0.6051428  -0.76587135  0.63356745  0.21220846  0.1914376  -0.10472692
  0.0656042  -0.75192827  0.5019352   0.43774933  0.09640987 -0.22011484
  0.46918988  0.01218466 -0.02059165  0.9716583   0.57342017 -0.23069584
 -0.03202545 -0.20075975  0.00368824 -0.10296486]
[ 0.0894831   0.3552058  -0.0546108  -0.10895556  0.29952446  0.0861689
  0.324776   -0.14119817  0.18225326  0.4333697   0.1217998   0.20528924
  0.23493911  0.20939445 -0.09489791 -0.00385319  0.0729176   0.5043299
  0.44931558 -0.058733    0.22227645 -0.05299055 -0.09757005 -0.0206225
  0.02961864 -0.200835   -0.31155938  0.3602421  -0.22639763 -0.06724613
  0.02108445 -0.22422771 -0.18628299 -0.17694627  0.10383999  0.43690637
 -0.08598816  0.6694409  -0.09284261  0.32723108]
[-0.85031176 -0.19460438 -0.36744803  0.20683312 -0.6480096   0.40716624
 -0.10618767 -0.60503554 -0.02516338 -0.2000117  -0.4078298  -0.11733423
 -0.10552601  0.19127534 -0.0819643   1.47536    -0.01465252  0.21988954
 -0.05105397 -0.7159911   0.5434321   0.18114255 -0.68370557 -0.25896385
 -0.0785611  -0.9992138  -0.5944486  -0.05987016  0.03158463 -0.16853403
  0.35903928 -0.07633628 -0.7340016  -0.5472048   1.2288585   0.06234453
 -0.0047462   0.549581    0.5692125   0.21102655]
[-4.1766927e-01  1.2505342e-01 -7.1726042e-01  1.2781766e-01
 -2.3854809e-01  4.8995766e-01 -4.8797995e-01 -8.1110787e-01
 -2.1334979e-01 -4.5599106e-01  1.6344267e-01 -4.6346527e-01
  1.8571727e-01 -6.9296062e-02  1.8662576e-01  3.0180182e-02
  2.9208556e-01 -3.8637540e-01  7.4424092e-03 -8.8157636e-01
  6.0315263e-01  2.0483322e-01 -4.2147407e-01  4.1385494e-02
  1.6649632e-01 -9.5077527e-01  1.1518118e-01  6.4414918e-02
  4.9639195e-02 -9.9282604e-01 -7.6759595e-04  4.6526112e-02
 -7.9722506e-01  2.0802232e-02  2.8477153e-01 -7.1732976e-02
 -9.6342450e-01 -5.2944720e-01  3.2321343e-01  3.3970550e-01]
layer 3 Activation
tanh
layer 4 Dense
40 20
[ 0.01983816  0.3569259  -0.3099716  -0.03032017 -0.20352466 -0.14131036
 -0.21715893  0.7205809  -0.15974073  0.6141327  -0.1877699  -0.4055517
  0.861821   -0.37879992  0.52644056 -0.11603775 -0.3442101  -0.3074674
 -0.08981297 -0.35838944]
[-0.7150678  -0.37338033 -0.16886579 -0.11656136 -0.16598837 -0.2022715
  0.06386479  0.44475672 -0.06358556  0.36593556 -0.18541546  0.04489559
  1.0278146  -0.5494432   0.45661464 -0.11219285  0.3820976   0.4369516
 -0.7530196   0.3829567 ]
[ 0.5669884   0.42374045 -0.50392413 -0.03798074 -0.02489295 -0.20292664
 -0.15876955  0.27527487 -0.32850617 -0.24662076  0.00187821 -0.29941723
 -0.26464424  0.1100455   0.6009663   0.27365276 -0.02136308 -0.4885956
 -0.0660051   0.05087442]
[-0.20795022 -0.16696884 -0.00990815 -0.08517159  0.3176309   0.10839902
  0.00923372 -0.30552453 -0.13658695 -0.18060979  0.06145953 -0.15788193
  0.13673685 -0.17352396  0.0942466  -0.12043027  0.02624173 -0.1370843
  0.01149894 -0.097943  ]
[-0.46974537  0.32188585 -0.19225045 -0.10420502  0.17218678 -0.24799545
 -0.3606407  -0.10840728 -0.3838893   0.30725184 -0.12370163 -0.12865019
  0.47246775  0.21772157  0.25163582  0.10771821 -0.09541778 -0.02074839
 -0.11161526 -0.20430614]
[-0.39574066 -0.90517116  0.35801345  0.13928081 -0.24930821 -0.6312195
  0.2458248  -0.4493712   0.29336682 -0.7366439   0.30145034 -0.07809407
 -0.58372384  0.704965   -0.7264685  -0.08827885  0.8917103  -0.33392233
  1.0219253   0.12218495]
[-0.02149295 -0.1405875  -0.22359768 -0.11782798  0.06327987  0.3116435
 -0.08283953  0.14718236 -0.31373835  0.6518997   0.03187069  0.00620821
 -0.04534699  0.45449913  0.51631874 -0.18143116  0.4735922   0.23086545
 -0.23034765  0.01121295]
[ 0.3752366  -0.05069645 -0.28290078  0.11818309 -0.02164708  0.11705263
 -0.27360442  0.18977095 -0.27477485 -0.08804435 -0.18603571 -0.19469735
  0.09154019  0.10592682  0.28667882 -0.18182796 -0.02483029 -0.5185604
 -0.0127157  -0.31949902]
[ 0.35746577 -0.0889463  -0.12520066  0.05971514 -0.09063254  0.10616447
  0.26641098  0.23780471  0.03027518 -0.138287    0.30948588  0.04690215
 -0.08272815  0.02966527 -0.168039   -0.02166557 -0.00646972 -0.33516124
  0.19508843 -0.09378529]
[-0.01015193  0.24223319 -0.15854758 -0.05478793 -0.01665513  0.5185444
 -0.03759065  0.36565486 -0.33513117  0.52651775 -0.05402992 -0.04836154
  0.46861693  0.38589665  0.34314492  0.27466667  0.49082062 -0.07915512
 -0.39920917  0.21662542]
[ 0.00798397 -0.06095368  0.19045728 -0.02297813 -0.20645037 -0.0206295
  0.1382633   0.0816805   0.04080025 -0.2750608   0.04743709  0.16725042
  0.08202719  0.03335099 -0.06574658 -0.09738111 -0.04992006  0.04024528
  0.06701503 -0.03006174]
[ 0.0493345  -0.05844054 -0.10122524 -0.28878587  0.22822878  0.00336339
 -0.28318518  0.24310522  0.02785012  0.36850852 -0.20323004 -0.04422998
  0.21569186  0.21733308  0.04303591 -0.07200916  0.26014885 -0.11940248
 -0.24847548  0.04142683]
[ 0.02255952  0.09739812  0.14775293  0.02573559  0.01054259 -0.13637996
 -0.00776828  0.0746178   0.02414582  0.10585691 -0.1582699   0.16470559
  0.01880801  0.01979462 -0.16464743  0.11212719 -0.04946852  0.02495454
  0.00636056  0.05404453]
[ 0.16947417 -0.09071582 -0.2931988   0.02609308  0.00482109  0.14716496
  0.3495367  -0.04788769  0.07701882  0.06112808  0.48282373 -0.12916808
 -0.32197833 -0.08643016  0.14926316 -0.20140868 -0.26357606 -0.13132085
  0.02349863  0.087455  ]
[-0.24149229 -0.05026789  0.3085557  -0.10905995 -0.01871694 -0.14411399
  0.23616104 -0.11261552 -0.14488408 -0.06010696  0.16381714 -0.07967172
  0.13071743 -0.01150053  0.0231761  -0.0767961  -0.10894784  0.31241184
 -0.13409157  0.1741846 ]
[ 0.522211   -0.4506624  -0.06145813  0.01847286 -0.01813695  0.07136746
  0.08249358 -0.28414097  0.51684743  0.34801    -0.03177759 -0.05912231
  0.09458505  0.37144774 -0.3031767  -0.138941    0.45521003 -0.1524432
 -0.72166634  0.05429015]
[-0.04596315  0.18809107  0.06811736  0.3134818  -0.12118949 -0.14664343
 -0.01798336 -0.03823122  0.07309908  0.09746007 -0.03639399  0.1939584
 -0.1957828  -0.16954798 -0.22658862  0.04434924 -0.31517696  0.39537695
  0.24878383  0.02748963]
[ 0.02026819 -0.10011635  0.14140435 -0.0150761   0.01843706 -0.04474599
 -0.05362175  0.2500281   0.11834161  0.37736064 -0.17501254  0.01740889
 -0.03716266  0.35956866 -0.05673585  0.00620691  0.34720027 -0.32548994
 -0.321295    0.04456525]
[-0.15734792 -0.20330091 -0.14486462 -0.06586192 -0.04592006  0.16214398
 -0.44652528  0.2433646  -0.32050008  0.11122369  0.3161975  -0.4093217
  0.5090912  -0.28925395  0.3406737  -0.17535444  0.47586745 -0.08664564
 -0.7982897   0.16372037]
[ 0.4438064   0.45049337 -0.21964522 -0.34580427  0.11759873  0.08413143
 -0.07761425  0.344513   -0.40902066 -0.22923748  0.09498354 -0.14223093
 -0.2153573  -0.09234382  0.5777964  -0.13156918 -0.06133398 -0.04728175
 -0.01825618  0.09421035]
[-0.26931897 -0.65656406  0.03193207  0.11794618 -0.18403773 -0.48117143
  0.13704361 -0.3926304   0.72850585 -0.08254778  0.1560823   0.28223082
  0.28412348 -0.1127713  -0.7200508  -0.1130382  -0.34968486  0.00473657
 -0.05389738 -0.1936203 ]
[-0.005217    0.16446102  0.11194795 -0.17199749 -0.26010594 -0.17350405
 -0.04700597 -0.05302535  0.180244    0.02615421  0.17697743  0.31093568
 -0.2641538  -0.1997232   0.06155193 -0.21520382 -0.3132124   0.36895326
 -0.06800672  0.03215163]
[ 0.14256632  0.04417807 -0.2707313   0.20719846 -0.11314591  0.11924075
  0.39192453  0.16455401  0.01303406 -0.10293563 -0.35861108 -0.03167954
 -0.09108177  0.09939919  0.14532267  0.09788465  0.02309356  0.06144505
  0.17508735  0.06596335]
[-0.09410565  0.10309136  0.05193574 -0.0422712  -0.01507777 -0.06758139
  0.16282846 -0.20945306 -0.03601744 -0.17098975 -0.14203788 -0.0656416
 -0.4064985  -0.18772477 -0.03032746  0.20971255 -0.02506647  0.24340314
 -0.09798229  0.12364306]
[-0.16525115  0.1197117  -0.33770368 -0.04444151  0.15483375  0.19896062
  0.28413615 -0.21766964  0.01007995  0.29469028  0.03449997 -0.09547979
 -0.21720281 -0.164755    0.37556076  0.01696308  0.00661396  0.16586457
 -0.28687802  0.28974393]
[ 0.32232815  0.36483055 -0.37277713 -0.06687275  0.28150016 -0.3663058
 -0.13286212  0.3067026  -0.5636404   0.06845881 -0.65698224 -0.30167586
  0.38031003  0.06269365  0.57787466  0.12226444 -0.20519179 -0.13703693
  0.03854013 -0.17626333]
[-0.4882192   0.5235729  -0.04816004  0.07225479 -0.03579361  0.6366477
  0.02807154  0.32144418 -0.19670454 -0.15465827 -0.0027318  -0.18769218
 -0.59152764 -0.671575    0.43844908  0.10072397 -0.6342733   0.641874
  0.07114474  0.20763625]
[ 0.06805001  0.14772332  0.05446687 -0.02454509  0.04796002 -0.01207495
  0.26556984 -0.0345151   0.10046125  0.20358838 -0.06276984 -0.00349262
 -0.25696534 -0.03714899  0.05370947  0.1052427  -0.13105899 -0.11604389
  0.00365642  0.16056809]
[ 0.02850435 -0.07182519  0.17656937  0.0018758  -0.08065155  0.00775546
 -0.12876126  0.10233196  0.00511543 -0.17690307  0.00293168  0.14125621
  0.32140982 -0.06512067 -0.20947833 -0.07916722 -0.09490846 -0.02270026
  0.19989488 -0.11132522]
[ 0.7710475   0.03350071 -0.32779965  0.11837692  0.16632873  0.11836432
 -0.17425802  0.5635607  -0.30581403  0.30132702 -0.03015327 -0.14220558
  0.03826611  0.20342684  0.6807268  -0.05079283  0.0269712  -0.436994
  0.05330326 -0.31800258]
[ 0.2196213   0.01925309  0.0252245   0.01647389 -0.15011992 -0.29039976
  0.3825769  -0.1038462  -0.01627723 -0.4788609  -0.00846359 -0.03001871
 -0.14809455 -0.17629267 -0.01435329  0.07793185 -0.33256575 -0.09367087
  0.38319498 -0.06419183]
[ 0.01164206 -0.00327801 -0.04081201 -0.21078627 -0.20899002  0.06592414
 -0.05319669  0.13220173  0.0039638  -0.24507312 -0.1852699   0.22456193
 -0.10207765  0.10087276 -0.36571413 -0.1398888  -0.12782389  0.23262228
  0.085508   -0.10113449]
[ 0.39225316  0.02702218 -0.27831417  0.10590131 -0.00447971 -0.04063103
 -0.1867384   0.7170681  -0.19616969  0.5076011  -0.24967983 -0.11726846
  0.6529304   0.22707094  0.7703697  -0.11994563 -0.4630788  -0.39503115
 -0.06180737  0.00359412]
[-0.567461    0.5097893  -0.43591943 -0.16627117  0.17775819  0.657613
 -0.02062272  0.6235515  -0.60339165 -0.18107948  0.30919385  0.08264495
 -0.33210495 -0.53937626  0.20474193 -0.11730582 -0.44745773  0.24012776
  0.03400677 -0.22959653]
[ 3.9637405e-01 -5.6460178e-01  1.6679379e-01 -3.7232751e-04
 -9.8833077e-02 -3.6654299e-01  1.6907234e-01 -7.2849792e-01
  9.5496631e-01 -5.0496233e-01 -1.5182145e-01  1.5566085e-01
  4.1293246e-01 -1.5498228e-01 -1.7275317e-01 -2.8648170e-02
 -5.2160591e-02 -1.2694468e-01  5.0283867e-01 -3.1945357e-01]
[ 0.11204702  0.08267747 -0.01698331 -0.03810887  0.51888114  0.06572445
 -0.24083309 -0.07610088  0.10094805  0.23914549 -0.10522389 -0.18629852
 -0.02043647  0.1861262   0.22441317  0.06247449  0.05496887 -0.26131183
 -0.25007635  0.05240023]
[ 0.7337746   0.18973997 -0.3275088  -0.14538543  0.03737054  0.21690972
 -0.16062449  0.7939809  -0.30518162  0.16323233 -0.3516156  -0.25777215
 -0.1969273   0.60957694  0.4627848  -0.05682081  0.18655176 -0.6218203
  0.23397963 -0.19455506]
[ 0.6530622   0.00505278 -0.16320586  0.06530976 -0.06667475 -0.11441826
 -0.40145096  0.3506369   0.2992937   0.39136273 -0.06315847  0.04982533
  0.2789687   0.5719974  -0.03276581  0.11241793  0.58679324 -0.31543988
 -0.08636699 -0.0212053 ]
[-0.16207165 -0.24781877  0.34267533  0.009334   -0.06421375 -0.46625593
 -0.42389265  0.00747351 -0.02711768 -0.05688231  0.07876923  0.10736036
  0.290471   -0.08889677 -0.36994871 -0.22803155  0.22402422 -0.31257778
  0.085238   -0.04093046]
[ 0.05875278  0.14508775  0.22021171 -0.04717791  0.10468697 -0.22260043
 -0.28818473 -0.15642163  0.04095609  0.3877415   0.15480787  0.11647034
  0.11898462 -0.00129535  0.00255266  0.08165769 -0.12997587  0.05172903
 -0.01791451  0.21687679]
[-0.40727088 -0.3470657   0.20269223  0.14345303 -0.12383793 -0.14030445
  0.23564613 -0.5933931   0.45163634  0.02112285  0.07135045  0.13255027
  0.09942717 -0.38203487 -0.5367233   0.02944629 -0.1960009   0.43377614
 -0.0803607   0.12288556]
layer 5 Activation
tanh
layer 6 Dense
20 1
[-0.21826255]
[0.14099737]
[-0.04254949]
[-0.00717341]
[0.001813]
[0.09128535]
[0.01154411]
[0.28939444]
[-0.18488531]
[0.03411684]
[0.00147724]
[-0.00741896]
[0.03508552]
[-0.07828149]
[0.10727713]
[-0.03234578]
[-0.087369]
[0.10448487]
[-0.08147893]
[0.01963037]
[0.46620044]
