layers 7
layer 0 Dense
20 20
[-0.01617127 -0.19313115  0.53705287 -0.20490813 -0.3133696   0.0417604
 -0.3194662  -0.3614281   0.0166982   0.4574859   0.5003565  -0.4812684
  0.36334577 -0.16535163  0.16075808  0.1427984  -0.088815    0.03432058
  0.12112243  0.09887017]
[ 0.10713982  0.16482824  0.14295419  0.11326793 -0.24406026 -0.11332093
  0.135096   -0.10058113 -0.2523357   0.04250692  0.18020263  0.21233068
  0.43161005 -0.16810364  0.1637647   0.36027008 -0.11707569  0.16074215
  0.20660086  0.21882331]
[ 0.24745232 -0.13870946  0.09336189  0.20579612 -0.32397866  0.14968643
 -0.08533949  0.0884401  -0.3103589   0.39128163  0.24321212  0.09010569
  0.353271    0.16067408 -0.00438009  0.4540006  -0.01873357  0.21177512
 -0.35077766  0.14475815]
[-0.15711915  0.49113595  0.22848552 -0.03809602 -0.23787229 -0.27810377
 -0.41465068 -0.20031613 -0.33067837 -0.1955021   0.21286742  0.12202021
  0.02764352 -0.45478466 -0.546044    0.40936196  0.2780617  -0.0360763
 -0.40311986  0.05057503]
[ 0.16529809  0.11994478 -0.08039895  0.11282761  0.12125726  0.07655889
 -0.28604943 -0.35780162  0.06234842 -0.2652966   0.295848    0.28666455
 -0.08118168  0.22084339 -0.05793824  0.18485086  0.12458964  0.13217892
  0.25261807 -0.17056264]
[ 0.20276634 -0.11211658 -0.11836993  0.32752538  0.14256343  0.38246584
 -0.04648856  0.40511394  0.20051563  0.10919108 -0.05074453  0.10970304
 -0.38175306  0.17387633  0.06961688 -0.02877832  0.08523102  0.4248888
 -0.05315154  0.16086957]
[-0.014089   -0.3344139  -0.01884139 -0.00667321 -0.12356198 -0.13923542
  0.16646618  0.1357075   0.26842165  0.17762288  0.20638862  0.22820212
 -0.20565492 -0.2422002   0.41431236 -0.35750946 -0.32643354  0.33221725
  0.2718786   0.09689004]
[ 0.24911194  0.07171594 -0.26504552 -0.59934324  0.23451762  0.39983565
  0.3062995   0.36314437  0.4709209  -0.15912294 -0.5491446   0.46556568
  0.5506667   0.55593616  0.30314484  0.14260754 -0.39239773  0.13532937
 -0.14882238 -0.14934412]
[ 0.22776486  0.13015205 -0.2783702  -0.21250306  0.3685614  -0.12997612
 -0.2484762   0.03926858  0.00057     0.4167342  -0.14691614  0.25581732
 -0.2158788   0.48675254 -0.41220072  0.23032743  0.12797384 -0.2025306
  0.311879    0.21549147]
[-0.01474516 -0.03540773  0.0546009  -0.02625191 -0.350101   -0.19310242
 -0.29285342 -0.10511486 -0.23960488 -0.2380071   0.10466952  0.3139168
 -0.1038462   0.11558384  0.11114071  0.15437923  0.05881993 -0.41264212
 -0.12127341  0.28991175]
[-0.00274449  0.05216198  0.1551905   0.25173125  0.109783   -0.29143944
  0.13338788  0.35472342 -0.0892282   0.18971774  0.12355528  0.39887822
 -0.4649719  -0.19557251  0.19371627  0.18268704 -0.50014234  0.22949386
  0.4392857   0.1068769 ]
[ 0.02164191  0.5253275   0.38375893  0.32224324 -0.54036736 -0.29774898
 -0.6500395  -0.89948654  0.42786783 -0.01002802  0.04460882 -0.31345013
 -0.91734153 -0.30798045 -0.03431784  0.53684264  0.54486984 -0.42261598
  0.02509522  0.7732002 ]
[-0.3238279  -0.23129171 -0.04989079  0.32416746 -0.14836948  0.23523742
 -0.07050127  0.26699713  0.09810238 -0.29060742 -0.05719643  0.2647537
  0.02586592 -0.17895     0.07212269  0.09960701 -0.08034704  0.01304625
 -0.01490204  0.4192545 ]
[-0.29661578 -0.0977807   0.06830827 -0.02763458  0.17590171 -0.2334613
  0.06023701 -0.21539696 -0.04394815 -0.14254032 -0.08635889 -0.07167657
  0.09842684  0.19254015 -0.4247507  -0.07372189 -0.08112525 -0.17705132
 -0.04848171 -0.2410362 ]
[-0.24427785 -0.38044038  0.07225177  0.24135529  0.09105101  0.32126397
 -0.4402195  -0.42280492 -0.0245113   0.4232628   0.03412966 -0.39891508
 -0.3694377   0.12395877  0.2553726   0.01091289 -0.29620913  0.18416938
  0.07241941 -0.22757679]
[ 0.05088863 -0.07485318 -0.19200535  0.2684315   0.33936372 -0.2559694
  0.05915635 -0.71432275 -0.0599177   0.30308363  0.19640289 -0.06715954
 -0.04012065 -0.00773986 -0.55415535  0.5179792   0.6174008   0.14537354
 -0.34683     0.6099412 ]
[-0.48149043  0.15263347 -0.05522802  0.25664008 -0.02922796 -0.38344008
 -0.12587304 -0.25364298 -0.47742662  0.3959673  -0.29658455 -0.32933903
  0.23168704  0.16190839  0.28958625 -0.5223978  -0.24750428  0.25353548
  0.17391728  0.35646662]
[ 0.33819216  0.27203098  0.30812415 -0.2623937   0.15864463 -0.12142153
 -0.12258308 -0.13972554  0.5029731  -0.08711682  0.01665458  0.03669499
  0.1643048   0.10283436 -0.17490347  0.68566567  0.08210043 -0.15256268
  0.24139246 -0.1791064 ]
[ 0.3502992   0.04778303  0.32511044 -0.10815971 -0.26354024 -0.28850737
  0.09086686  0.0141856  -0.01778123 -0.22353415  0.04065263  0.15793586
  0.15535611 -0.09613834 -0.31535766  0.23307961  0.06053102 -0.11314879
 -0.5319135  -0.02166256]
[-0.28557932 -0.82997894  0.09694914 -0.7196808   0.63104874  0.64179254
 -0.07151131  0.35925373 -0.4942963   0.4142607  -0.09922572  0.56964576
  0.866833    0.2812697   0.14780922 -0.5770434  -0.78247076 -0.38483694
  0.51110685  0.09156927]
[-0.04076678  0.03689488  0.15945905  0.08675653 -0.15770695 -0.19776234
 -0.07182427 -0.06790663 -0.04615205 -0.03042853  0.2877925  -0.13776731
 -0.13886996 -0.20462218 -0.15649477  0.21127659  0.16721803 -0.17598855
 -0.04326467  0.01888941]
layer 1 Activation
tanh
layer 2 Dense
20 40
[ 0.2875391  -0.11419066 -0.15141714 -0.04598045  0.12647314 -0.20023406
 -0.3271361  -0.41631886  0.17857349  0.30950508  0.3458852  -0.14185959
 -0.08038559 -0.24613714 -0.2868429   0.07063695 -0.22177927  0.09832239
 -0.07364171 -0.12506537  0.00217006  0.01193155  0.03966811  0.02765149
 -0.16736113  0.25009754  0.03499644  0.21447036 -0.24721175 -0.22396892
  0.09210909 -0.00113091 -0.22249502 -0.02884037 -0.1169716   0.19803865
 -0.02635409  0.15796462  0.27496582 -0.17431208]
[ 0.00499244 -0.20537323  0.38950893  0.19875364  0.15744206  0.21789151
  0.1606072  -0.24911389  0.03397149 -0.07465968 -0.17298658  0.06965565
  0.25933647  0.02931617  0.24673334  0.00229374 -0.1108643   0.14959335
 -0.06860615  0.01127733  0.24287336  0.1261446  -0.19342811 -0.0356077
 -0.03545773  0.17724513  0.03943112  0.32967216  0.26920035 -0.21230005
  0.11881013  0.25529757  0.14395523 -0.12601951 -0.06087651 -0.10080766
  0.18459728  0.21022573 -0.10094616  0.1726253 ]
[ 0.07616759  0.06042183  0.01618108  0.43679544  0.25185445 -0.43226677
 -0.12784646  0.23343515 -0.04782281 -0.44299534 -0.26177928  0.20551223
  0.11452992  0.39206994  0.01155297 -0.1886199   0.12269208 -0.20928806
 -0.51166123 -0.47739106 -0.24432978 -0.0349091  -0.04975415 -0.10040572
 -0.12964065  0.05963528 -0.05914713  0.19277792  0.20650683 -0.08594725
 -0.09248786  0.29122183 -0.05838779 -0.12106688 -0.16990215 -0.02164232
 -0.03364037  0.07084267 -0.10056278  0.23330204]
[ 0.35624284 -0.15687513 -0.11163497  0.10987701  0.10084368 -0.37158677
 -0.30052835  0.06667417 -0.00452318 -0.2817301   0.07725918 -0.11418358
  0.02668212 -0.05536235  0.05641624  0.02728475  0.13594599 -0.3512737
  0.3111893   0.05839894  0.07902142  0.20957653 -0.03895951  0.20992514
 -0.29872206  0.28985628 -0.12280867  0.33845964  0.24282958  0.26770926
  0.21875164  0.24837032  0.31477678 -0.09788947  0.1750314  -0.15169586
  0.06777833  0.09555241 -0.16107199 -0.2125041 ]
[-0.26394832 -0.04413372  0.16835584 -0.05487308  0.08827101  0.12747777
  0.13900082 -0.0293293   0.03289286  0.26014617  0.03426143 -0.11130435
  0.03009184 -0.30556867  0.05848175 -0.06375381 -0.25758973 -0.06621209
  0.10757525  0.36780712 -0.2733788  -0.0468863   0.19147201 -0.17717676
  0.52389425  0.19465785 -0.2596666  -0.2655503   0.21485305  0.11539003
 -0.18268757 -0.29838097  0.0940873   0.06013105 -0.09946774 -0.2232378
 -0.19397889  0.12983268  0.01154611 -0.00164635]
[-0.13716705 -0.10227668  0.00891036 -0.10907685 -0.12219772  0.205934
 -0.01693527  0.12704499  0.1798376   0.45312378  0.36030927 -0.00627289
  0.12466765 -0.42709106 -0.25572228  0.17021486 -0.23969392  0.02638732
  0.34788424  0.1256895  -0.1800249  -0.13199864  0.0959856  -0.29834017
  0.15001898 -0.05457531  0.0299607  -0.2014224   0.03095474  0.3786595
 -0.21682918  0.22000307 -0.08361322  0.23973449 -0.30668694 -0.21072766
  0.19561999 -0.05548524  0.47741142 -0.06682223]
[ 0.32935902 -0.03280108 -0.05909818 -0.3239385  -0.06498361  0.07679574
  0.00808109 -0.07080653 -0.12352094 -0.10004153  0.01644094 -0.2858773
 -0.11310909 -0.3498729   0.24047895  0.17851067  0.03177961 -0.21269481
  0.07270967 -0.15102836  0.2169142  -0.15768696  0.08324574  0.32228106
  0.0570968   0.19768149  0.03640375 -0.04820277  0.463347   -0.05546932
 -0.39305815  0.05926572 -0.29710507  0.3453276  -0.59812707  0.13257961
 -0.21860896  0.15061997  0.17421061  0.39378706]
[-0.3399049  -0.01106785  0.25572428 -0.22275907 -0.00953444 -0.02188013
 -0.00807159  0.30287856  0.25057858 -0.00164579  0.06023617  0.21236676
 -0.24787067 -0.1712441  -0.39604345  0.23670526 -0.25776896  0.1394722
 -0.01279533  0.18644477 -0.06145249 -0.30405134  0.2161725  -0.17395271
  0.57196116 -0.11432626  0.24110419 -0.20192595 -0.1149082   0.13910832
 -0.27555004 -0.2709889  -0.25611794  0.23815048 -0.4834203   0.23457794
  0.24367963  0.16259104  0.254523    0.40184766]
[ 0.11576194  0.0821869  -0.15077427  0.17759721 -0.2796047   0.42108306
 -0.06901941 -0.01293104  0.19018057  0.25201052  0.2531273  -0.09881055
 -0.39749932 -0.5162504  -0.08164885 -0.03893368 -0.278822   -0.06271762
  0.12813443 -0.1361858   0.08256403  0.24137473 -0.24940848  0.25326657
 -0.15251958 -0.17902003  0.01720554 -0.13609323  0.14118649  0.20530273
  0.0108241  -0.30680007  0.24784872 -0.04025188 -0.02464935 -0.27905938
  0.27930745 -0.10763443  0.08979345 -0.09536365]
[-0.1944869   0.07697908 -0.07205394 -0.16322847 -0.10916021  0.11105609
 -0.01912976  0.3312175  -0.12829532  0.00942243 -0.05623635  0.01539405
 -0.3217566   0.15894172  0.23577651  0.3212261   0.08766969  0.14461693
 -0.32621476 -0.24680993 -0.03548371  0.11673169 -0.07559626 -0.32753605
 -0.09493833 -0.236803    0.01976386 -0.03339395 -0.15823656  0.1502261
  0.05709807  0.31674773 -0.16564281 -0.23297611 -0.19932273  0.11081161
  0.01882491  0.15449981  0.05898212 -0.18548141]
[-1.02851629e-01  3.80761594e-01  3.76477949e-02  1.40376747e-01
  2.37824619e-01 -6.07829280e-02  2.97753006e-01  1.52155519e-01
 -1.61422417e-01 -2.77490795e-01  4.01323847e-02  7.25157335e-02
 -7.21725821e-03  2.66951114e-01  1.04641765e-01 -2.94487663e-02
 -2.10139126e-01 -1.70357138e-01 -2.73046941e-01 -3.98939162e-01
  1.23814091e-01  1.02091223e-01  5.90673909e-02 -3.47665250e-01
 -4.19569522e-01  1.00530058e-01  9.67472792e-02  4.30697016e-02
  9.43163857e-02 -1.80080661e-03  4.88458991e-01  4.15556967e-01
  1.89108819e-01 -1.87906533e-01  3.66536230e-01  1.84279643e-02
 -3.25144443e-04  2.98206568e-01 -8.67955014e-02 -2.28327438e-01]
[ 0.1917447  -0.23560256 -0.09471749 -0.15651724  0.24941576  0.27153656
 -0.07580858  0.23888892  0.20746478  0.11290221 -0.03919415 -0.1264562
 -0.1340924  -0.1767464  -0.43441504  0.30697387 -0.17085041 -0.0109682
  0.13236068  0.09255206  0.2517093   0.20486555 -0.00921363  0.04374357
  0.10361916 -0.02918608  0.03697499  0.11437619 -0.02178612  0.02696381
 -0.36979288  0.04276796 -0.29041174  0.14985642  0.01099485  0.14751679
 -0.2236629   0.31128612 -0.15830961  0.31645465]
[-0.21160309 -0.3630198   0.05604749 -0.06309406 -0.24253511 -0.32374233
  0.16904978 -0.19238977  0.03157699 -0.16701135  0.25734845  0.29139078
 -0.0961564   0.13838969 -0.0865595   0.33867842 -0.09465317  0.30139077
  0.2946352  -0.12812726 -0.1656393   0.06879719  0.18536745 -0.14502224
  0.34770092 -0.26912948 -0.30120006 -0.23705924  0.3300318   0.039578
 -0.4917021   0.2357051  -0.04901747  0.23359707  0.0358666   0.23295367
 -0.28185844 -0.36206988  0.44416544  0.38163072]
[-0.10596633 -0.43498555 -0.13348968 -0.42716783  0.16781747  0.12119366
 -0.3842152   0.14178422  0.14888577  0.43565902  0.30654773 -0.01785993
  0.13460794 -0.27015182 -0.00235952  0.35207382 -0.48264483 -0.26305977
  0.10018639  0.17260042 -0.1123988  -0.25089595  0.36526325  0.2765253
  0.20714603  0.09331868 -0.22626552 -0.12619473 -0.01046566  0.1400882
 -0.3750983   0.04137084 -0.25916812 -0.04263081 -0.3681734  -0.26394263
 -0.08999614 -0.24573949  0.40048975  0.18783163]
[-0.1352529  -0.3638047  -0.09782996 -0.39546993 -0.16606075  0.11915499
 -0.2911695  -0.14553836  0.14608504 -0.10436475 -0.00746373  0.12986603
  0.13344842 -0.08056505 -0.27535805  0.23042358 -0.3613642  -0.26526898
 -0.04779271 -0.00696815 -0.06734359 -0.00559997  0.0136308   0.10880293
  0.07172535  0.11543342 -0.5343587  -0.22909212 -0.13598892  0.2459966
 -0.11097727  0.25135422 -0.28510877 -0.19342463  0.44476557 -0.3186852
  0.04523111  0.23071662  0.17299484 -0.11093857]
[ 0.2032973  -0.09853803  0.2988816   0.28194797  0.16113752 -0.11027085
 -0.2975363   0.12649213 -0.05216426 -0.17980167 -0.04291616 -0.21601751
 -0.2309815  -0.0525379  -0.29654205 -0.2871171   0.02863092  0.32558444
  0.0693058   0.03258191 -0.1237763  -0.14609222 -0.06706236 -0.13487634
 -0.4806201   0.36167282  0.07607061  0.3439607  -0.0395752  -0.06292036
  0.3086627  -0.17945057  0.23930636 -0.19169609  0.10629709  0.1620305
 -0.13915038  0.00242882 -0.00887439  0.11628215]
[ 0.40761584  0.43275246  0.34383318  0.29189843  0.24872112 -0.16731308
  0.24240956 -0.33889598 -0.32299393 -0.13666375  0.18835032 -0.3462094
  0.15823507  0.01058579  0.20967937 -0.26486847  0.08341662 -0.0027538
 -0.32311133  0.03091327  0.30035314  0.31235117  0.0202666   0.07661134
 -0.5296367  -0.11745797  0.05574123 -0.01890725 -0.2609879   0.404689
  0.4556481  -0.2910472   0.23542891 -0.1237731   0.14588355  0.24947122
 -0.23132889 -0.15925242 -0.33844796 -0.19364688]
[ 0.15502624 -0.22301626  0.2742706   0.26048467  0.13062325 -0.0823964
  0.14425032 -0.24652445  0.27216622 -0.17313434 -0.19336924  0.08570854
 -0.00381751 -0.10032359 -0.00514883  0.08985344 -0.0362249   0.10183741
 -0.22335236 -0.07884028  0.16163988  0.26687682 -0.236721   -0.23116302
 -0.24641228  0.12938257  0.29199985 -0.22943099 -0.20898409  0.26503196
 -0.16452157 -0.25009796 -0.23073877 -0.1941903   0.0777831  -0.29012293
 -0.19161786 -0.01296345 -0.08774123 -0.08933784]
[-0.18658707  0.14682537 -0.33876926 -0.13575904 -0.05463689  0.18121491
 -0.32624605 -0.14497972 -0.1767836   0.12191354  0.070127    0.17264736
 -0.08235467  0.12213045 -0.0380502  -0.08191493  0.04284863  0.0965621
  0.1001361   0.20931128 -0.26029778  0.15737857 -0.5313131   0.27921546
  0.23541982  0.10660495  0.01690751 -0.28042033 -0.3130277  -0.07505627
 -0.0532669   0.16360816 -0.02477126  0.20209563  0.2568525  -0.01409706
  0.31648764  0.20299284 -0.08771934 -0.11591234]
[-0.08921341  0.17905512 -0.19607769  0.07930344  0.21580788  0.23173602
  0.11057839  0.13965988  0.10440426  0.2556663   0.00357216 -0.14177208
  0.18078767 -0.0979693  -0.22552975 -0.20503257  0.07023799  0.12810214
  0.07193197  0.11530127  0.24610545  0.06587252  0.06892246  0.24743015
  0.28458384 -0.15733325 -0.21113959 -0.02944722 -0.3734226  -0.03878734
  0.28689533  0.05058135  0.23620428  0.18773471  0.3672791  -0.21620013
 -0.03261101 -0.13486093 -0.11342365 -0.15758131]
[-0.01874323  0.21373406  0.02936214  0.2875198   0.10636172 -0.2192994
  0.13982366  0.11790369 -0.21453479 -0.2619845  -0.14113066  0.01357586
  0.08217841  0.19643016  0.13178237 -0.14211045  0.17780422  0.06034616
 -0.20264097 -0.22671834  0.0957897  -0.0596941  -0.10034319 -0.1618893
 -0.23744772  0.04698825  0.13032432  0.07236188  0.04543741 -0.07197049
  0.17730851  0.10374045  0.02317119 -0.04809422  0.12388901  0.04965797
 -0.03871139 -0.0427609  -0.25720224 -0.03697368]
layer 3 Activation
tanh
layer 4 Dense
40 20
[ 0.04930706 -0.05427596 -0.41614398 -0.15850906  0.34264466 -0.07204931
  0.06307263 -0.35645807 -0.08690724 -0.07850916  0.40896803  0.01960469
  0.32444322  0.24756785 -0.30987474  0.2876065  -0.05140311  0.04303376
  0.03417519 -0.09304197]
[-0.27284947 -0.19387801  0.195611    0.16676112  0.21822202 -0.00340181
 -0.28226373 -0.34506664  0.02273972 -0.36921638  0.21061568  0.22646289
  0.3514249  -0.18057215 -0.21305032 -0.11176033 -0.25802383 -0.29177427
  0.30732077  0.24431638]
[ 0.16290146 -0.20691264  0.23140909  0.11083584  0.18532355  0.11452778
 -0.03677959  0.04346595  0.1016263  -0.16571072  0.07050069  0.26197416
 -0.19576882 -0.18656923  0.13129158  0.29235667 -0.06525812  0.28221366
 -0.15839195  0.06031147]
[-0.26147646 -0.36589912 -0.17009942 -0.05417168  0.25609392 -0.03666626
 -0.25627017 -0.13571346 -0.12001745 -0.15512113  0.23334427  0.11948141
  0.0102203   0.00313773 -0.179172   -0.11976605  0.08331583 -0.04487609
 -0.00169905 -0.0978296 ]
[-0.1821535  -0.26130876 -0.05324139 -0.2533795   0.16848855  0.16511856
 -0.03778629 -0.22911328 -0.08775923 -0.14352481  0.3669365   0.09704974
  0.04262024  0.31372783  0.20714888  0.03517641  0.1713151   0.04016702
  0.08734158  0.35771066]
[-1.2255335e-04 -4.5563739e-02  2.3516773e-01 -1.0635257e-01
  2.6356485e-02 -1.6205275e-01  1.4234090e-01  2.4461874e-01
 -1.4461696e-01  2.0396906e-01 -2.1802302e-01  1.5826771e-01
  4.6491064e-02  4.4246081e-01  2.2165713e-01  1.5614803e-02
 -2.6303983e-01  3.7385881e-01  1.7765667e-01 -4.0156949e-02]
[-0.08899651  0.21869949 -0.09395988  0.18455431 -0.06450773  0.3107398
 -0.10551309 -0.23464026  0.05396729  0.06904405 -0.14158458  0.13951935
  0.12464437 -0.273791    0.11467166 -0.08249126 -0.2933843  -0.31822556
  0.04101641  0.02396779]
[-0.17459188  0.05029985  0.19020005 -0.2038081   0.1373134  -0.0663823
 -0.24892737  0.205941   -0.32831085 -0.08322209 -0.17636889 -0.2840843
  0.2644314   0.03058604  0.39204854 -0.09394306  0.20720598 -0.18376637
 -0.02731201 -0.21183605]
[ 0.10090441 -0.03309773  0.19704138  0.12320129 -0.19966759 -0.26808953
  0.03908721  0.03026881  0.04479171 -0.19702905  0.18358654 -0.34358004
 -0.05983941 -0.03664403 -0.2857459   0.3193391   0.04022845  0.30961645
 -0.24170014 -0.02294892]
[ 0.36287984  0.05304703  0.22476009  0.00938587 -0.35109812 -0.11917376
  0.24940175  0.2082568   0.12886395  0.23516046 -0.2677065  -0.08742392
 -0.02679095  0.38946283  0.05268592 -0.03814432 -0.07030696  0.33526763
  0.10631515 -0.22431712]
[ 0.13979028 -0.18905093 -0.02004945 -0.2577332   0.11526857 -0.26281804
  0.2721408  -0.18268289 -0.07347213  0.15859003  0.06549037 -0.25494087
 -0.25299174  0.27605736 -0.31711915  0.08218732  0.19188805 -0.08775263
 -0.04209044 -0.14654154]
[-0.07628012  0.05525346  0.20513245 -0.03939561  0.23856361 -0.05250286
 -0.18643665 -0.26895165 -0.01906203  0.0503307  -0.34242088 -0.23968187
 -0.11325941 -0.19720402  0.36534235 -0.2048946  -0.09248268 -0.34514153
  0.03467637  0.03303654]
[-0.17779578 -0.02745492 -0.04125904  0.10014337  0.07553323  0.24888593
  0.01259383 -0.23445113 -0.12417817  0.23581123  0.152856   -0.11304972
  0.20396432  0.1992237  -0.04090146  0.11540249  0.25440302 -0.06365585
  0.1068882   0.01757267]
[-0.02442738 -0.19728328 -0.0305887  -0.02951501  0.21182446  0.28593093
 -0.32123202  0.2021936   0.14780581 -0.13098986 -0.29549822  0.05366552
 -0.17665008 -0.3630066   0.3116401  -0.14805458 -0.36238715 -0.231483
 -0.07247407  0.29813522]
[-0.12645501  0.23073596 -0.15429793 -0.3350428  -0.24497592  0.31746677
 -0.32301152  0.09274072 -0.17125942 -0.17627251 -0.04380869  0.02115739
  0.06145526 -0.29275137 -0.28028044 -0.12251502 -0.3580982  -0.3027493
  0.2953803   0.01503472]
[ 0.14436556  0.26375356  0.13317858 -0.1613222  -0.4335778  -0.08352373
  0.38419935  0.20667008 -0.25391787 -0.02208497 -0.10715299  0.11304727
 -0.406431   -0.1217246   0.32822514  0.12897076  0.03243268  0.22887288
  0.10656372 -0.37171304]
[-0.01394276 -0.26219514 -0.3826034  -0.03965119  0.02581801  0.19941702
  0.13414854  0.09897833  0.10565918 -0.24913718 -0.20600148  0.32995826
 -0.16479126 -0.1502164  -0.20579143 -0.20330337 -0.31526607 -0.22064622
 -0.03462805  0.33870497]
[ 0.22037147 -0.01046674 -0.04610299  0.26126856  0.14480034  0.20320645
  0.00480305 -0.31126928 -0.32183686  0.07349978 -0.16156952  0.05938227
  0.0038018  -0.02042675  0.28381634  0.02153055  0.07261148  0.07744049
  0.16739929 -0.03781843]
[ 0.3392789   0.0774092   0.12208842 -0.22691968 -0.24992545 -0.18139876
  0.2235571   0.1197607   0.16333055 -0.00399551  0.2720611   0.08354647
 -0.0773351  -0.0165581   0.07911225  0.14080384 -0.1837414   0.162348
 -0.21964726 -0.08941312]
[-0.06197227  0.09458637 -0.03121275 -0.1528943  -0.16065398 -0.23589452
  0.05652145  0.19861467  0.32753512  0.34951952  0.10271771 -0.28268084
 -0.03548295  0.20453972 -0.00593237 -0.137896   -0.17288163  0.44823322
 -0.15719378  0.21363406]
[ 0.05685261  0.02971446 -0.28231236 -0.01999619  0.19894716 -0.02522681
 -0.21047303 -0.39239618  0.11010464  0.00192457  0.16804011 -0.00350632
 -0.30022418 -0.12493767 -0.00545101  0.0995801   0.18809825 -0.0290357
  0.19194989 -0.16372278]
[-0.08368734  0.1482431  -0.21930908 -0.16314243 -0.27063838 -0.04697945
 -0.1015648  -0.15699884  0.15195556 -0.32253203 -0.23833953 -0.01595225
  0.05282674  0.02040275 -0.22818431 -0.16120148 -0.11916066  0.12828283
 -0.08980003  0.10367773]
[ 0.15690343  0.0512532   0.24632901 -0.05406754  0.01492381 -0.01600256
  0.17088646 -0.28492403  0.1664714   0.31739628 -0.11248805  0.13840783
 -0.12866314 -0.17555325 -0.25879     0.30580056  0.26689306  0.03616215
  0.22862306  0.13565084]
[ 0.33089828  0.00413955  0.08160792  0.09976991  0.14384513  0.1710734
 -0.07110291  0.14688207 -0.10320779 -0.21588133 -0.1680227  -0.09244303
 -0.17738496  0.3031883  -0.24918546  0.03972737  0.14389543  0.14790693
 -0.17170246 -0.2713132 ]
[ 0.03375398  0.22869685 -0.03118858  0.04046551 -0.20409302 -0.13109182
  0.15353057  0.22078493  0.10165547  0.26768494 -0.2808062  -0.38886702
 -0.40948784  0.11955024  0.40655783 -0.05462945  0.27870882  0.14306128
 -0.355179   -0.42313522]
[ 0.19414257  0.04458121 -0.2158098  -0.13365078  0.16203123 -0.13398308
 -0.14436895  0.2510679   0.05328635  0.233533    0.15347534  0.1508192
 -0.17853872 -0.05619106  0.24182567  0.13192804 -0.23771828 -0.1694269
 -0.16506132 -0.25596777]
[-0.1437276  -0.24836081 -0.02161803 -0.2307689   0.29240376  0.29538375
  0.10489765 -0.03620537  0.2402146  -0.04585766  0.00719235 -0.02298109
 -0.0656952  -0.12547761  0.09322499  0.1571063  -0.12748669  0.1896456
  0.3500305   0.3498855 ]
[-0.11940929  0.12988801  0.20414715 -0.27981344  0.27206373  0.31765547
 -0.30642155  0.12057164  0.24349679 -0.29070178  0.18278095  0.04530686
  0.25826755 -0.3672543  -0.29634923  0.01018121 -0.00525636  0.19523172
 -0.24035753  0.13910413]
[-0.20894143  0.0151333  -0.03918471 -0.12760398 -0.172824    0.22066385
 -0.00297471  0.01319364  0.1407524   0.0160975   0.18439588  0.11453921
  0.12943599 -0.07858355  0.11437433  0.24558495 -0.11500463 -0.13522178
 -0.31773224  0.00130754]
[ 0.20615469 -0.19720809 -0.10047347  0.03628355 -0.10130117 -0.12310877
  0.04379604  0.22151951 -0.31927097 -0.1248392  -0.08735457  0.24777167
 -0.20691974 -0.18158133 -0.16736305  0.09476461 -0.33382007  0.4249515
 -0.08313504 -0.22724509]
[-0.12149325 -0.07982583 -0.37083182  0.18022129  0.4030258   0.12314757
 -0.31519675  0.01715702 -0.3186043   0.10288174  0.26759952  0.22826341
  0.28806308 -0.07403774 -0.32094014 -0.2916865   0.2551089   0.0684844
  0.08479726  0.17774238]
[-0.3034186  -0.00552266  0.08930704  0.16378418  0.25260577  0.32268494
 -0.12433195 -0.16029526 -0.3241054  -0.12155064 -0.2564359  -0.27535334
 -0.03652842 -0.28135327  0.3206402  -0.20270173  0.16364117  0.02035214
  0.14804049 -0.10268007]
[ 0.18679942 -0.10894061 -0.16483538 -0.08800223  0.36000922  0.1460549
 -0.05149733 -0.30705315 -0.40595493 -0.1078945   0.2500663   0.28411177
  0.24546003  0.02711586 -0.19722489  0.09089252 -0.2716529   0.17297275
  0.292936    0.3150367 ]
[-0.04676702 -0.23724854  0.01721847  0.11760677 -0.2696599   0.12738751
 -0.08694217  0.02607447  0.27161017 -0.19092405 -0.10945059 -0.09831087
 -0.13550895 -0.21171035  0.17460684  0.43674484 -0.18239433  0.3416035
  0.3118813  -0.263226  ]
[-0.09925167  0.29102582 -0.11571959  0.14351702  0.2148716  -0.38453394
 -0.05841034  0.30922487  0.20290473  0.13339536 -0.10214511  0.24860789
  0.12515981 -0.16643988  0.12019994 -0.41396865 -0.30884507  0.10204668
 -0.05140881  0.32613337]
[-0.06695165 -0.29080352  0.1765363  -0.23183115 -0.10257926  0.19462182
 -0.19711633 -0.20433202  0.18148993  0.05689973 -0.269764   -0.23793176
  0.04455268 -0.30528018  0.23388581 -0.12587959  0.08830578 -0.03896382
  0.29428127  0.13701227]
[-0.26771986 -0.03461473  0.1480468   0.2611717   0.11159085 -0.03502858
  0.1179754   0.18120688 -0.1993674  -0.16423742  0.1816861  -0.00175612
 -0.08083373  0.12473308 -0.22913949  0.20709522 -0.00106923 -0.05883386
 -0.06185393 -0.22035517]
[-0.22169352 -0.04359522 -0.24565755 -0.04833751  0.03867263  0.04186025
 -0.00482603 -0.02100741 -0.17323995  0.00550834  0.17094032 -0.03744817
 -0.26098132  0.19238889  0.37501174 -0.25772002 -0.11649034 -0.03320397
 -0.20673041  0.14694077]
[ 0.15067305  0.20051053  0.40164664  0.11043442 -0.41532215  0.01907646
  0.28402796 -0.1295942  -0.2772244   0.21574542 -0.14691067 -0.2064833
 -0.3011259   0.24222046 -0.2630662  -0.02632349  0.08629563  0.27383527
 -0.32663965 -0.21609642]
[-0.20210984 -0.20038152 -0.10894824 -0.16287765 -0.02688499  0.10495967
  0.17405428 -0.0072638   0.4005677   0.32855052  0.05988482 -0.3165295
 -0.3286618   0.01825877  0.39180517  0.2608876  -0.0413906  -0.06977139
  0.18358886 -0.06580811]
[-0.15273482 -0.06292304 -0.05357704  0.03527083  0.04185943  0.11933669
 -0.05294834 -0.04974965 -0.09787109 -0.02195844  0.01523081  0.08735548
  0.04475701 -0.14245887 -0.00392129 -0.11074887 -0.08921248 -0.1563783
 -0.01759001  0.0130729 ]
layer 5 Activation
tanh
layer 6 Dense
20 1
[-0.22861655]
[-0.2967675]
[0.3286234]
[-0.01473896]
[-0.32453376]
[0.2880398]
[0.3665979]
[-0.12224396]
[0.02242319]
[0.11990515]
[-0.11327417]
[-0.18395098]
[-0.15383804]
[-0.41680574]
[0.1503287]
[-0.09144755]
[0.00412792]
[-0.37662885]
[-0.08166894]
[-0.040188]
[0.02446243]
