layers 7
layer 0 Dense
20 20
[ 0.13978164  0.09265324 -0.24183029  0.00895053 -0.37959775 -0.3671293
 -0.2895187  -0.08571927  0.22870982  0.3009512  -0.35568902  0.02810139
  0.2503896  -0.29015595  0.02609695 -0.14187503 -0.09003672  0.05447057
 -0.20474158  0.13958934]
[ 4.4411159e-01 -6.4662851e-02 -5.2623194e-01 -3.5002939e-02
 -1.8890023e-01  7.2843045e-01  6.3663971e-01 -2.0287007e-01
 -3.8696852e-02 -1.3648392e-01 -6.5901747e-04 -3.8725913e-01
 -8.4419940e-03  4.3756405e-01  1.6897283e-01  6.7263171e-02
  8.9359254e-02 -3.9502412e-01 -5.5815507e-02  6.8538231e-01]
[ 0.1477525  -0.18868902 -0.6264219  -0.0821239  -0.19472755  0.8352576
  0.78037214 -0.5418687   0.08314581 -0.2609165  -0.03617832 -0.75194967
 -0.36080673  0.1937165   0.3891885   0.1950878   0.15074845  0.10621245
  0.1212455   0.3925435 ]
[ 0.20702492 -0.1597193  -0.23960656  0.39609277 -0.43945655  0.3997059
 -0.03896252  0.5002447  -0.19957711  0.11206866  0.02844228  0.2431445
  0.13954222  0.21911275  0.08645336  0.1688868  -0.08800588 -0.28541446
  0.35486844 -0.2498162 ]
[ 0.3152461  -0.4255453  -0.20340519 -0.06246514 -0.27096117 -0.04338636
 -0.40361205 -0.09005383 -0.48548803  0.01135293  0.05732854  0.24095051
 -0.22955559 -0.8835186   0.300917   -0.28167826  0.3292302   0.25408918
 -0.20205313 -0.72605366]
[ 0.12790658  0.4070137   0.09552767  0.30236933  0.2065711  -0.6661775
 -0.10204674  0.36727437  0.09420228 -0.02756195 -0.73598     0.70076495
  0.43393818  0.19039203  0.3137208  -0.60405004  0.4254879   0.18235663
  0.01454104 -0.4279404 ]
[-0.12359715  0.00440504  0.6851881   0.03212633  0.37897423 -0.31379783
 -0.28950155  0.42673868  0.07746647  0.2226429  -0.05821836  0.24353112
  0.098199    0.13576992 -0.30590114 -0.37282684  0.32312885  0.3694374
 -0.29247296 -0.25548193]
[-0.54221416  0.2520101  -0.3684326  -0.3220863  -0.4308588  -0.25959697
  0.34384283 -0.18987598  0.5165472  -0.00507539  0.40630355  0.30163372
  0.15008634  0.498058   -0.30891258  0.24512993 -0.05676422 -0.36224467
 -0.29920858  0.18501815]
[ 0.4456322  -0.87448746  0.19872226  0.41813597 -0.08846496  0.46117204
 -0.42391536 -0.72637534  0.01964455 -0.4850351   0.6971145  -0.5402946
  0.00671194 -0.09342125  0.18715017  0.09701964  0.35403076  0.16629006
 -1.1372198  -0.29087794]
[-0.06856342 -0.05659831  0.7622532  -0.2673383   0.27322185 -0.01290676
 -0.02771544 -1.0778748  -0.21365203 -0.61601824 -0.5371954   0.4031762
 -0.9547645  -0.3491935   0.19865476  0.06713476 -0.05796394  0.15975097
  0.38705036 -0.5746964 ]
[-0.07096311  0.15565756 -0.5747336  -0.2037269   0.8135078  -0.966995
  0.749377    0.31418145 -0.29311776 -0.40940177  1.1142353   0.4351865
 -0.15157114  0.05161938 -0.6903351  -0.6314072  -0.3326687   1.1027782
  0.9112674   0.29414877]
[-0.8764134   1.1327187   1.373773   -0.31052208 -1.1182064  -1.4121231
  0.6064324   0.96036327  1.106397    0.6623356  -0.7636442   0.7180377
  0.33184406 -1.0264242  -0.38568178  0.08954109 -0.03770238 -0.01543848
  0.02368285 -0.2905429 ]
[-0.09335964  0.15326215 -0.26962414 -0.08555983 -0.4060014  -0.1868681
 -0.05017593  0.17579247 -0.04726819 -0.4235833  -0.30921194  0.8456589
  0.4403783  -0.15427442  0.13300633  0.22244577 -0.29495472 -0.20599419
 -0.00960508 -0.5182676 ]
[ 0.00907128  0.20167042  0.01099792  0.47982168 -0.43468568 -0.19480897
 -0.37943444  0.38617194  0.3530101   0.26726764  0.10540795 -0.34495148
  0.43884495  0.2514737   0.6725297  -0.47529048  0.3145339   0.15335569
  0.04038276 -0.09864818]
[-0.12470882  0.15995854  0.22037344  0.5654327  -0.53367877  0.33671722
  0.03320481  0.02398959 -0.17452809  0.00571419 -0.69648415 -0.02123669
 -0.19310477  0.3440241  -0.09369956  0.21234396 -0.04414507 -1.1050256
 -0.54586387 -0.690421  ]
[-0.00968883 -0.469862   -1.6860108   0.8628426   0.6460295   0.40632254
  0.36839488 -0.8121431   0.17376406 -0.7501729   0.8134188  -0.26997226
 -0.75683475  0.19339766  0.55056846  0.002939    0.43444052  0.07073276
 -0.17589872  0.33782324]
[-0.343256    0.20832999  0.23534714 -0.7122962   0.00400722  0.27915597
  0.0789208   0.42737666 -0.41895178  0.53863716  0.04112567 -0.03429522
  0.22380023 -0.46102446 -0.12418523  0.15476388 -0.03576995  0.01666156
  0.33573025 -0.45220396]
[-0.05935389 -0.13741788 -0.46095115 -0.4008219  -0.06707774 -0.19006945
  0.0316867   0.35563147  0.30174336  0.1870864   0.25245973 -0.4859249
  0.40198314 -0.49044713 -0.8990182   0.2733932   0.18548116  0.05779546
 -0.57674557  0.04332671]
[ 0.10026889  0.26672614  0.04025374 -0.5109863  -0.7919327   0.12536913
 -0.08440594 -0.1398634   0.02229902  0.506641   -0.34884143  0.08617824
  1.1190273   0.39504665  0.0440824  -0.10387164  0.27910236  0.03192915
 -0.45588514  0.64827305]
[ 0.40474755  0.0521099   0.31198868 -0.33000612  0.00645493  1.0212054
 -0.4593134   0.3131171  -0.13581157 -0.225103    0.08583035 -0.23391108
  0.76301897  1.5569285  -0.03814691  0.19236022 -0.5831184  -0.69529283
 -0.1140443   0.56472176]
[ 0.1113335   0.09030364  0.11014172  0.3895287   0.094496    0.09630323
 -0.0612953   0.1396767  -0.04427833  0.0425473  -0.15591611 -0.02359239
 -0.10045034  0.06446492  0.02331259 -0.01220277  0.01141162  0.05490752
  0.02745367  0.10156622]
layer 1 Activation
tanh
layer 2 Dense
20 40
[ 0.04677216  0.06405675 -0.16241318 -0.10642463  0.09412289  0.4403565
  0.19182794  0.03187962  0.209772    0.28582144  0.11622974  0.30409122
  0.07653673 -0.00366767  0.29843384 -0.22504903 -0.08250182  0.22019367
 -0.29111132  0.27306178  0.02837835  0.37075472  0.2990024  -0.16150068
  0.11193503  0.11508045  0.02142094  0.07601129 -0.18221354  0.22054158
 -0.19481803  0.08475531 -0.01461271  0.01402567  0.15813906 -0.5746618
  0.12432975 -0.14045966  0.20060022  0.07669739]
[ 0.05020666  0.00778151 -0.07524992  0.1988653   0.16046378 -0.10092179
  0.12983789  0.15208937  0.18408117 -0.15440582  0.14486745 -0.10567202
 -0.12511984 -0.01788567  0.14484684  0.2303973   0.04172169 -0.11431038
 -0.01490705 -0.11806988  0.40201265 -0.24064451 -0.22100273 -0.1160287
 -0.09350053  0.1399371  -0.04232037  0.09215132  0.06439261  0.03627378
 -0.20987773 -0.23734131 -0.2571546  -0.11298101 -0.2586879   0.48932427
  0.26754507  0.14097951  0.13669613  0.31546852]
[-0.3773263  -0.02798299  0.13984194 -0.29018822 -0.20584282 -0.04674289
 -0.05137786  0.24643786 -0.08918408 -0.30632326 -0.03196758 -0.02204199
 -0.26129895 -0.23910967 -0.82641     0.03240068  0.10963944 -0.19493468
  0.09298526 -0.00848558 -0.03615031  0.3328736   0.49636087  0.09476392
  0.01112414 -0.39746776  0.03075474 -0.07211784 -0.09437187  0.15336516
 -0.29153833 -0.32394454  0.13113312  0.26669842 -0.05399188  0.45046574
  0.1624511  -0.03718564  0.03339623 -0.00456208]
[ 0.4249168   0.42444214 -0.06432625  0.22917628  0.21632299 -0.06819087
  0.52847403  0.3660881   0.3632018   0.045933    0.00606721  0.10153895
  0.02513436  0.18381374 -0.02907173 -0.0981604   0.24488816 -0.13264297
  0.039829    0.23410949 -0.54758465  0.03698513 -0.0953551   0.00455008
  0.4504325  -0.07163888 -0.0150463   0.09163078  0.00731939  0.18137135
 -0.17320293 -0.1999545   0.03738026 -0.00782797  0.58028346 -0.352302
  0.29249424 -0.24375275  0.23427401 -0.20879984]
[ 0.30328777  0.13737088 -0.5263464   0.34393543 -0.3408151   0.02641894
 -0.19933939  0.18174262 -0.10110498  0.4496474  -0.32335922  0.40663713
  0.19461928  0.23246385  0.14664142  0.02647479  0.3347712   0.06474917
  1.0077237  -0.05682352 -0.01350449 -0.02512855 -0.25452295 -0.2429994
  0.24015681  0.3710673   0.07410111 -0.03939092 -0.42218024 -0.31328744
  0.27365133 -0.22393043 -0.08635823 -0.10481871  0.1437547  -0.21233729
 -0.38064495 -0.31628036 -0.02929175 -0.12658231]
[-0.03431217 -0.02736205 -0.16902569 -0.4579256   0.22057064  0.03100467
  0.44929075  0.5186905   0.01271984  0.01202222  0.1988806  -0.22562648
  0.32246187 -0.21625997  0.5435098   0.00276907 -0.27272004  0.36000794
 -0.17440379 -0.2355147  -0.1603672   0.14287315  0.05718083  0.64447606
  0.0091936   0.64747006 -0.19456038 -0.2731621   0.20005935  0.28047386
 -0.11913508 -0.42973313 -0.03115322 -0.00791454  0.1354786  -0.6489959
  0.46671703  0.0430758  -0.12623005  0.2358258 ]
[ 0.24778752  0.04916187  0.03391016  0.06066206 -0.10579756 -0.25733724
  0.05701092 -0.16533199  0.05550119 -0.13793327 -0.09711567  0.3089083
 -0.2616987  -0.03320298  0.05142877  0.05131367  0.29555392 -0.10891736
  0.43382022  0.06071073 -0.07219641 -0.31310725 -0.31059206 -0.14115916
 -0.12950565  0.1694956   0.11823641  0.16954695 -0.1911843   0.08649797
 -0.20485578  0.03303616 -0.18992846 -0.02662139  0.09412818  0.17858842
 -0.14876325  0.09400746 -0.05900066  0.22688639]
[-0.27232847 -0.2652902   0.13581018 -0.23507611 -0.24429433 -0.17383212
  0.38463756 -0.39964432 -0.14210948 -0.301672    0.02048528 -0.05869548
 -0.32996684 -0.48505157  0.2523134  -0.29445332 -0.16372235  0.01991419
 -0.7951283  -0.26464823  0.4401807  -0.13783456 -0.15412511  0.19057553
  0.05902033 -0.42373198 -0.456577    0.53146386 -0.12703495  0.09608161
  0.02860785  0.2633934   0.239938    0.17040981 -0.10231514  0.48868287
  0.1101234   0.02011021  0.03696832  0.5887259 ]
[-0.25977808 -0.05632629  0.15727697  0.38028347  0.01275966 -0.13172947
  0.0076575   0.2482862  -0.1967688   0.09920117 -0.00567    -0.1838516
 -0.06419825  0.10655431  0.12391676 -0.13884325 -0.10412046  0.04029445
 -0.5962355   0.1119011  -0.06643202  0.1658426   0.09864532 -0.20691751
  0.09784016 -0.35527143  0.18075693  0.15073307  0.04809006  0.31334546
  0.08047289  0.12007508 -0.07200363 -0.1415386  -0.07317837  0.3794682
  0.13293304 -0.25399292  0.03465528 -0.17072566]
[-0.17378257  0.15449764 -0.03532209  0.10626891  0.34399226 -0.21551809
  0.12341218  0.13955986  0.07047828  0.02508983 -0.20964324  0.04362492
 -0.15678251  0.11211519  0.2227725   0.03122318 -0.13842392  0.11121748
 -0.4381003  -0.06811035 -0.07043917 -0.28738946 -0.07275914  0.20402469
  0.05985624 -0.5097454  -0.18079706  0.26516655 -0.05182983  0.00492501
 -0.02542076 -0.4046979   0.10398763 -0.4776563  -0.2786943   0.23672539
  0.19524266 -0.11401717  0.12792574  0.33766484]
[ 0.3970025   0.32727653 -0.5568967   0.04423266 -0.04484211 -0.08165732
 -0.07017596 -0.01625136  0.3736795   0.02977984  0.03482979  0.29787415
  0.55987066  0.2315583   0.7225939   0.08531033 -0.13302082 -0.09602112
  0.353648   -0.08543009 -0.4283845  -0.4641925  -0.5897955   0.13434553
  0.04355286  0.41684538 -0.08105876 -0.08128668 -0.05170263 -0.29541343
  0.39045125  0.03177194  0.3596575  -0.33081204  0.44748825 -0.18396156
 -0.14841384 -0.23434377 -0.12603764 -0.41047183]
[-0.18983153 -0.04168027 -0.22113985  0.30131635 -0.28757477  0.06479698
  0.02315547 -0.1270301   0.4455441  -0.03524024  0.19790381  0.4020441
 -0.25575048  0.09561992 -0.4679675   0.34313446 -0.17942715 -0.6113924
  0.5297441   0.460281    0.12201014  0.13233928 -0.00077467 -0.07992027
 -0.18089749  0.2709629  -0.02119589 -0.27455854 -0.24495177 -0.07347756
 -0.24610697 -0.30543768 -0.29119226  0.29164425 -0.20245124  0.30797642
  0.15286744  0.08125345 -0.1530933  -0.00584234]
[ 0.13059923 -0.02463294  0.18099487 -0.14246492  0.3115276  -0.06977532
  0.8184365  -0.09557929 -0.13363291 -0.17155765  0.06781545 -0.27992693
 -0.0398628  -0.36896807  0.9088586  -0.02513707 -0.18805109  0.15255715
 -1.3829484  -0.16999668 -0.09037416  0.20578174 -0.33529645  0.19023794
  0.01553176 -0.32344642 -0.3225855   0.09427778 -0.07543647  0.39831087
 -0.1443529   0.04718355 -0.00613566 -0.19827251  0.31034905  0.09370649
  0.45874664  0.10847079  0.15955804  0.04210221]
[ 0.04311081 -0.12929179 -0.05499288  0.14323762  0.48340207 -0.07758678
 -0.00852782  0.23599884 -0.07371031  0.12397329 -0.30095112 -0.2904539
 -0.06379418 -0.19428962  0.48439226 -0.08293617  0.04330081 -0.07050239
 -0.30134508 -0.15707566  0.02170302  0.14019279  0.1710016   0.49702302
  0.1567831   0.6937268   0.11826307 -0.51605815  0.0862034   0.00082938
 -0.24159506  0.05726584  0.32567436  0.13982622  0.00813358 -0.39887324
  0.00075901  0.02358987  0.23138231  0.17056477]
[-0.15068454 -0.3370526   0.02216289 -0.05302593  0.071606    0.00730397
  0.14236645  0.17058644 -0.11221331  0.22134452  0.05732931 -0.10791429
  0.32181862 -0.14153351 -0.12849858 -0.13818383 -0.02022655 -0.17139341
  0.30667397 -0.22811837 -0.18830873 -0.12985475  0.16388662 -0.00858071
 -0.24338941 -0.07564983  0.10020897  0.21239123  0.0870014  -0.0166459
  0.19873613  0.22061437  0.02421794 -0.26391587  0.08343014 -0.29505318
  0.2903605  -0.06437083 -0.19571258 -0.32213727]
[-0.11799029  0.05829125  0.27590716 -0.14234355  0.17402855 -0.06049003
 -0.24063742  0.3112212   0.15378067  0.19432162  0.02182392 -0.4300281
 -0.17651641 -0.07864881 -0.01999816  0.04742849  0.12361347  0.20098425
  0.04944913  0.08689333  0.1279198   0.13498618 -0.14504223 -0.0104973
 -0.0242222   0.04444411 -0.03949311 -0.3008307   0.04852103 -0.20290981
 -0.1797146  -0.1580096   0.39752665  0.06526848  0.15752676  0.1394329
  0.28235725  0.17312782  0.16421968  0.21146609]
[ 0.19009174 -0.1989117   0.13313973  0.07069725  0.10111764  0.12753536
 -0.14218996  0.16231255 -0.10772855  0.24065967 -0.22871962 -0.02442348
  0.2597156   0.04661231  0.18340677 -0.12647931 -0.40748012  0.1556368
  0.10559289 -0.17465585  0.17704679 -0.37570682  0.15760039  0.23784953
  0.21442428 -0.74122894 -0.28997466 -0.01693795 -0.24092948  0.12008243
  0.24924801  0.20227477 -0.22456369 -0.24917959 -0.17570204 -0.06347682
 -0.14830554 -0.28995988  0.14722066 -0.13557324]
[ 0.5783892   0.18513134 -0.44538194  0.3835527  -0.08598772 -0.07818295
 -0.3996254  -0.29510614  0.4342032   0.48697457 -0.12420677 -0.01867893
  0.23183486  0.47127327 -0.21847701 -0.01728049  0.2573382   0.02567841
  0.23300421  0.26233327 -0.33258635 -0.02775477 -0.42919284 -0.630084
  0.0529459  -0.3650991   0.40289673  0.24765405 -0.25744185 -0.06703934
  0.20990321  0.1841576  -0.22933254 -0.15563414  0.31527358 -0.12319358
 -0.3099737  -0.44298536  0.18852608 -0.26716486]
[ 0.1516762   0.2981912  -0.4249372   0.24357471 -0.39667335 -0.22142284
 -0.33076608 -0.41467294  0.00259352 -0.08171032 -0.04899595  0.35688773
  0.05627168 -0.06280192 -0.45577198  0.09134607  0.05500119 -0.16687454
  0.11342647  0.16394903  0.3408522  -0.31349698  0.31215322 -0.64809155
  0.02933489  0.3122366  -0.2948134   0.10544018 -0.47417292 -0.31937775
 -0.11051935 -0.05316865 -0.3491716   0.2946622  -0.26198748 -0.04107355
 -0.52624536  0.19222966 -0.19573861  0.5024621 ]
[ 0.13302888 -0.20674755  0.25052118 -0.16230382  0.28495982 -0.25481358
  0.08134782  0.16733645 -0.03047954  0.49419487  0.01693428 -0.12546748
  0.02017286  0.20334038  0.10808538 -0.4088616   0.15517735  0.18304783
 -0.2953205   0.00772832 -0.09007275 -0.2060545  -0.24378662 -0.17547597
 -0.03478536  0.17864133  0.00172111  0.37913644 -0.18762189 -0.09547319
  0.2357565  -0.01332702  0.18186346 -0.27190492  0.00842059 -0.30128416
 -0.06318514  0.00054837 -0.03761444  0.1284232 ]
[ 0.09641927  0.1260742  -0.10726697  0.10353864  0.07934576 -0.03529873
  0.11375501  0.093836    0.02352952  0.3761804   0.0396148  -0.12246991
  0.03174863  0.31571788  0.08701162  0.00693612  0.32602727  0.09933468
  0.01897126  0.12230057 -0.22073023  0.03362878  0.19631386  0.04467897
  0.1394627   0.20494321  0.11926024  0.06157054 -0.00657596 -0.10353813
  0.01257214 -0.32988432  0.01055891 -0.16372024  0.03582219 -0.30849785
  0.00102905 -0.26612094  0.18026575  0.2632217 ]
layer 3 Activation
tanh
layer 4 Dense
40 20
[ 5.3653415e-02  2.5517153e-02 -3.4634922e-02 -1.7252429e-01
  1.2944180e-01  3.3697884e-03  1.4154084e-01  2.7573928e-02
 -1.1644070e-02  4.5800120e-01 -1.7582713e-01 -4.6806302e-04
 -2.2714579e-01  1.9181157e-02 -4.7622144e-01  2.1779650e-01
  2.5328758e-01 -2.9038122e-02 -8.4668517e-02 -4.7062527e-02]
[-0.08093398 -0.09323481 -0.21218723 -0.10983548 -0.11975894  0.02294166
  0.03588175  0.25867233 -0.21446769  0.13986081 -0.1991576   0.18139273
 -0.00853367  0.02764896 -0.08623218  0.09172738  0.1797102   0.02386543
 -0.01909205 -0.10875081]
[ 0.19938739  0.11881767  0.10249327 -0.16266145  0.06856363 -0.2774744
  0.18551409 -0.01183028  0.02537999 -0.35874018 -0.11852854  0.06601891
 -0.00637348 -0.4160097  -0.05564173  0.10816481  0.1363201  -0.2226836
  0.2841399   0.28651196]
[-0.08546337  0.21214426 -0.27365336  0.00924919 -0.05155491 -0.17522709
 -0.11523049  0.2340632  -0.00333272  0.10016602 -0.12267628 -0.158705
  0.02930568  0.07345728 -0.06909589  0.0136509  -0.00496692 -0.07211218
  0.11009488 -0.04752275]
[ 0.01365617 -0.02214294  0.29677895 -0.19420779  0.05516223 -0.17567548
 -0.26755866  0.07169174 -0.05648397 -0.13473369 -0.15978135 -0.22579454
 -0.04696897 -0.22592066 -0.11988631 -0.04927084 -0.21774577  0.06323801
 -0.16424172  0.22452958]
[ 0.15217423 -0.31146055  0.29967746  0.03226832  0.24090114  0.07864252
  0.2522256   0.07162528 -0.14218724 -0.04481201 -0.01467605 -0.22107385
 -0.14440241  0.2639574   0.39819854  0.05801604  0.03305788 -0.06697819
 -0.14387242 -0.17488052]
[ 0.07590982 -0.18240964  0.56077695  0.27589548  0.00943789 -0.04136045
  0.31960812 -0.07581239  0.05610127 -0.02808718 -0.17252111  0.19085747
 -0.05471038 -0.10538512 -0.08479417 -0.04920717  0.10475568 -0.18506172
 -0.24803557  0.23726775]
[-0.04113967 -0.24713457 -0.07406285  0.15793778 -0.11754949  0.163232
 -0.21898547  0.01275136  0.25222978  0.0532216  -0.29038635 -0.12451243
 -0.02249609 -0.22912844  0.37722337 -0.07654237 -0.03032041 -0.00924426
 -0.17407003 -0.00616755]
[-0.06814449  0.05988855  0.06855093  0.1741524  -0.25943133  0.05553061
  0.09219003 -0.09751105  0.20399615  0.22826491 -0.11797101 -0.14971882
 -0.08881013  0.01322438 -0.4792118   0.11122174 -0.1925421  -0.13173983
  0.21786033 -0.11583502]
[-0.16350558  0.2290273  -0.06717435 -0.26725033  0.11290265 -0.20853649
  0.04402949 -0.11689735 -0.16719618  0.15276149 -0.14107351 -0.11702742
 -0.13867429  0.09973112 -0.04007503 -0.04796642  0.03641202  0.2512717
  0.05056208  0.19179423]
[ 0.07464778  0.03372622  0.25621817  0.07543348  0.06752788 -0.03169793
  0.3250068   0.08210501  0.07660197 -0.1137336  -0.21063739  0.16831729
 -0.26336354 -0.04758865 -0.14917186  0.17436384  0.0746636  -0.20930047
  0.1646102  -0.17804189]
[-0.14906749  0.04488754  0.05675923 -0.08941177  0.13080603  0.19232558
  0.15964244 -0.05034211 -0.01930816  0.33824384  0.18488991 -0.20208602
 -0.32769388  0.32228404  0.06732702 -0.16210917 -0.02647444 -0.20643608
  0.06041827 -0.20141463]
[ 0.11479618  0.06398598  0.39246908 -0.06649939 -0.0631444  -0.01488326
 -0.19433919 -0.01814113  0.12408507  0.27633044 -0.04531359 -0.0115179
  0.01919607 -0.09052092 -0.23896669 -0.19276087  0.21464999 -0.07136585
  0.08809832 -0.3025495 ]
[-1.29333243e-01  1.00106314e-01 -3.18699688e-01  1.43788040e-01
  1.01614252e-01 -5.06753474e-02  3.60764600e-02 -1.85348317e-01
 -2.92662770e-01  1.10679232e-01 -2.62166172e-01 -1.18069224e-01
  1.23007134e-01  1.64494646e-04  3.48877162e-02 -1.59875959e-01
  1.95331439e-01 -1.33083627e-01  1.84157252e-01 -5.31470180e-02]
[-0.24569616  0.15036337  0.5121082  -0.03598908 -0.14938222  0.2188647
  0.12673031 -0.0659114  -0.16771385  0.1750507  -0.34883606 -0.1986936
  0.0550267   0.11641052 -0.0165633  -0.09480171  0.09584376 -0.20209277
 -0.39206564  0.129918  ]
[ 2.08541911e-04 -8.09244514e-02  8.73993337e-02 -1.05841763e-01
  1.40235960e-01 -8.88893679e-02 -6.75614327e-02  1.22309349e-01
 -3.01754892e-01  1.06681906e-01  1.79168656e-01  2.13507503e-01
 -3.14119190e-01 -2.81094946e-02  2.00553611e-01 -1.91740856e-01
  1.58962950e-01 -9.87685844e-02  5.04060425e-02 -2.67497689e-01]
[ 0.29845566 -0.09485633 -0.2826047  -0.23435608 -0.06142945 -0.05552465
 -0.06328433 -0.25213566 -0.23208232 -0.00324106 -0.3754333  -0.23524514
 -0.00069613  0.21670885 -0.09083744 -0.0552508   0.18214796  0.08343598
  0.1725966  -0.00108207]
[-0.0975977  -0.17631534 -0.2452854  -0.16804962  0.09170862 -0.00561577
 -0.04586881 -0.00340169 -0.1575193  -0.04384954 -0.06214553  0.29251945
  0.08607052 -0.09385895  0.1126132   0.1763894  -0.04673618  0.18631986
 -0.24945326  0.20473388]
[ 0.12838647  0.00196651 -0.3261614   0.06121917 -0.12711439  0.0008647
 -0.06510252  0.22116081  0.11733206  0.5069908  -0.20604852 -0.44244525
 -0.0013819   0.30489284  0.55685043 -0.01909336 -0.16572666 -0.13451464
  0.36335254 -0.4299255 ]
[-0.008043   -0.1904816   0.01313168  0.02884335 -0.19640577 -0.10139032
  0.08019714 -0.17607354  0.13023457 -0.1413162  -0.23058814 -0.27328277
  0.05057069  0.1662505  -0.05819518  0.12238075 -0.05317846 -0.08149286
  0.22241724 -0.2382151 ]
[-0.0895538  -0.09774451 -0.34967217 -0.05364429 -0.055982   -0.03797132
  0.10359243 -0.03351907 -0.0152312  -0.11315003  0.52190566  0.21511813
  0.01118899  0.01584558  0.1413828  -0.21059471 -0.03499981  0.154683
  0.11363022 -0.03174499]
[-0.07851616 -0.13967974  0.07324111  0.19293518 -0.00853601 -0.1758406
  0.0792312  -0.05491681  0.03262485 -0.30234697 -0.17992902  0.1510484
  0.00656964 -0.153219    0.21726444  0.18246533  0.14281476  0.13736212
  0.15021402 -0.09615367]
[-0.17202696 -0.4027991  -0.10157525 -0.10500053 -0.05867979  0.03737317
 -0.24076812  0.06625192 -0.12783055 -0.2925959  -0.1840514   0.1219654
 -0.27614683  0.0177443   0.4182069   0.2461097  -0.14291617 -0.1485785
  0.38675794  0.21902594]
[ 0.07661872  0.18826656  0.25096118  0.02748417 -0.36129373 -0.14544243
  0.17545193  0.04313219 -0.25500247 -0.2287302  -0.19542888  0.07481682
  0.01078719 -0.20071308  0.45404702  0.26017684  0.25555465  0.03761151
 -0.49427515 -0.05738913]
[-0.23033811 -0.02233625 -0.00147283 -0.07400171  0.12509555 -0.16189831
 -0.08599705  0.17618534  0.14229311 -0.06485821 -0.2274327  -0.12442204
  0.16898568  0.18642823 -0.15200515 -0.08205193  0.2136815  -0.06845687
 -0.12540993  0.07118071]
[ 0.06644258  0.29317784 -0.25991222 -0.2605337  -0.02577048 -0.23881923
  0.1674357  -0.27485967  0.24740697  0.20882736 -0.45192373  0.08395637
  0.05705532 -0.24071348  0.5676265   0.02694345  0.02774159  0.01850479
 -0.18911412 -0.22884417]
[ 0.06915198  0.22344045 -0.28064972  0.07704331  0.02968279 -0.08182772
  0.26408952  0.13696031 -0.2109548  -0.0767819  -0.09050684 -0.08845897
  0.16393337 -0.14412293  0.22635637 -0.2502315   0.11182864  0.16045304
  0.22664678 -0.2184539 ]
[ 0.18556225  0.24124467 -0.09293684 -0.03309191  0.04135723  0.1988327
  0.14079997  0.23240764  0.1342542   0.06240331 -0.10306358  0.08542477
  0.07461734  0.2543274  -0.33003378  0.1119716   0.01594722 -0.25023156
  0.3503176   0.41710234]
[-2.10510388e-01 -7.25263953e-02 -1.00689836e-01  6.25488460e-02
 -1.90949359e-04  5.27834222e-02 -2.77179897e-01 -7.52688968e-04
  2.15158716e-01 -2.37760156e-01  6.65424913e-02  7.70924687e-02
 -1.68655932e-01 -3.45850259e-01  1.55677035e-01 -1.62956595e-01
 -5.51091693e-02 -2.23765522e-01 -1.71508029e-01 -1.59154490e-01]
[ 0.28095657  0.08571967  0.38900158  0.2920656   0.09119874  0.11233333
  0.13957992  0.13142     0.02699665 -0.2387947   0.11353868  0.11630062
 -0.30373064 -0.24532777  0.15614767 -0.20258819  0.21788271 -0.04623798
 -0.08692671  0.12793736]
[-0.12919669  0.37688377 -0.43230394  0.06888029  0.15172452  0.1595618
 -0.17626521  0.01102914 -0.04024015 -0.05987632  0.00208516 -0.26112446
 -0.14838189  0.11013751 -0.14907545  0.14411256 -0.12023831 -0.06571834
 -0.19623725 -0.14154522]
[ 0.22044094  0.33269304  0.15764691 -0.04910679 -0.29077944 -0.09128724
 -0.234149    0.10333198 -0.00286578 -0.22080934  0.28475025 -0.27601016
  0.04617346  0.23651242 -0.09118579 -0.12476052  0.0761287   0.03995172
  0.0265503  -0.13131237]
[-0.05476224  0.28055292 -0.2164139  -0.09475992  0.08816285 -0.072435
 -0.14516082 -0.09654035  0.14256573 -0.23897056  0.08200505  0.03840714
 -0.06172218 -0.0149483  -0.07945342  0.09876081  0.27431494 -0.15851866
 -0.29510707 -0.1192991 ]
[ 0.00722317 -0.08882489  0.23141755 -0.04482451 -0.01192276  0.07066427
 -0.01073563  0.2411639  -0.15151604 -0.13350184  0.08689317 -0.01233502
  0.00366022  0.16693674  0.08834736 -0.02025541  0.17560819  0.34966108
  0.09533765 -0.19907767]
[-0.15422767  0.15837248  0.27512398 -0.23193136  0.01395799  0.03634238
  0.18171558  0.09226698  0.13618599 -0.03919991 -0.2397452  -0.13514799
  0.30535766  0.06017138 -0.27162996  0.02113934 -0.21995799 -0.0534746
 -0.10616865 -0.13715656]
[-0.1843805  -0.1970714  -0.12463332 -0.16429581 -0.00113089  0.24421841
  0.11727    -0.1748226  -0.04812887 -0.16370259  0.4501963   0.33159113
 -0.08983652 -0.15199748 -0.45722732  0.16352594 -0.07377827 -0.18931915
  0.01640543  0.13507265]
[ 0.03700899  0.153493    0.28668168 -0.15389015  0.04596861  0.06864312
  0.18092078 -0.1980734  -0.24497305 -0.2984921  -0.22518241 -0.08344752
 -0.0991362  -0.25568244 -0.01545074 -0.2229102  -0.29043448  0.11213219
 -0.08742042  0.09741996]
[-0.17032951 -0.2739829   0.13072431  0.01457184  0.13468304  0.0847237
 -0.0522035   0.12645447  0.06969897 -0.05785663  0.17476037  0.14890493
  0.01976711 -0.25859308  0.05460528 -0.08690373  0.09495773  0.02070953
 -0.03280909 -0.06727179]
[ 0.26826283 -0.19006276  0.0640891  -0.15877892  0.03154644 -0.04769281
  0.19373494  0.01915737  0.18966784 -0.02789665 -0.19346699 -0.08044499
 -0.09223944 -0.10896802  0.05390855  0.03695604 -0.16348739 -0.03240201
 -0.01951704 -0.02076113]
[ 0.03260105 -0.39283088 -0.11784981 -0.01597589  0.10587133  0.04776663
 -0.1400946  -0.10318935 -0.14989479 -0.00392928 -0.05020073  0.01140287
  0.00523302  0.20255785 -0.23919524 -0.1795915  -0.15286708 -0.07437912
 -0.11199909  0.1862126 ]
[-0.0212693  -0.06257395 -0.09081285  0.0713027  -0.07209359 -0.04700005
 -0.10457482  0.06914519  0.03730144 -0.0785782  -0.26526734  0.18638322
 -0.0592755   0.07964713 -0.02292607 -0.03193431  0.03704118 -0.09850209
  0.06878714  0.09715065]
layer 5 Activation
tanh
layer 6 Dense
20 1
[0.00663759]
[-0.0635935]
[-0.00098248]
[0.01536456]
[0.01790454]
[-0.02476157]
[0.00308654]
[-0.02005227]
[-0.01467524]
[-0.10843077]
[0.10966035]
[0.01838277]
[-0.00875208]
[0.09139486]
[-0.07138132]
[-0.01148942]
[-0.0190915]
[0.02616185]
[0.1056815]
[0.06253293]
[0.04663426]
