layers 7
layer 0 Dense
20 20
[ 0.06968708  0.4734522   0.36652598 -0.26579618  0.1661408   0.15844129
 -0.22930677  0.3056745  -0.03782595 -0.24429011  0.05831339  0.22356275
 -0.00711287 -0.3122318   0.29324806 -0.13205871  0.1606602   0.13716657
 -0.08803203 -0.2553169 ]
[-0.45085362 -0.24888676  0.02594446 -0.16237617  0.16198283  0.1653013
 -0.10959817  0.24848893 -0.06413413  0.22755483 -0.1305005   0.21728183
 -0.15970801 -0.04509743 -0.22264561 -0.00179269  0.62008184  0.31342492
  0.04111768  0.54314536]
[-0.00715104  0.04748709  0.48735547  0.12683178 -0.12846443 -0.07264804
 -0.19798289  0.61790156 -0.43836856 -0.08881464 -0.31900084  0.33391878
 -0.5106242  -0.10049213 -0.19588976  0.3740026   0.2489409   0.08325311
  0.2663686  -0.02127254]
[-0.33123243  0.20927103 -0.00369446 -0.30065542 -0.00257785 -0.36587986
 -0.3049268  -0.23392285  0.0121447  -0.32860303  0.2105177   0.21916445
  0.05381704 -0.2479737  -0.29966798 -0.2760623   0.29341725 -0.36852258
  0.16056627 -0.20333625]
[ 0.1509016  -0.06632269  0.16851072  0.02253089  0.12299677 -0.20631504
 -0.14398947 -0.32288843  0.14234485 -0.02925836  0.09892078  0.12367402
  0.05050878  0.22408718 -0.24991918  0.25710943 -0.15642892  0.2524269
  0.36728376  0.19026168]
[-0.14174698  0.23495324 -0.3972113  -0.03680776  0.25308055 -0.32127273
 -0.00052277 -0.01757468  0.12616415 -0.40895954  0.5184564  -0.37558222
  0.50139344 -0.01095612  0.12234413 -0.28739974 -0.506007   -0.27019507
 -0.01616479 -0.03148521]
[ 0.4556636   0.24636327  0.17165804  0.37366188  0.22524695 -0.5042096
 -0.0156212  -0.39716452  0.2689842   0.03777122 -0.09121992 -0.21122347
 -0.00566903 -0.0357848  -0.31717652  0.07673825  0.02716305  0.21034463
 -0.17638832 -0.24550632]
[ 0.20340817 -0.28912044 -0.02442838 -0.24591531 -0.17899528 -0.29670772
 -0.15025872 -0.33851174 -0.12300374 -0.17600638  0.10773741  0.07503893
 -0.00104377  0.32247117  0.04813657  0.0181723  -0.16543238  0.01233247
 -0.1915736  -0.3023361 ]
[-0.01521969 -0.24548547 -0.10705874 -0.0321984  -0.34370777 -0.05378513
  0.12075578  0.08894274 -0.00546781  0.32795385  0.04504884 -0.27083853
 -0.03228678 -0.17553243  0.12261166 -0.20918383  0.1390452   0.0655547
  0.16483681 -0.28247836]
[-0.431514    0.17052011  0.15472592 -0.1000383   0.33338422 -0.02191004
  0.1358333   0.00737396  0.22727187  0.05277316  0.02432061 -0.05861207
 -0.2786633   0.30202675  0.13865814  0.04090355 -0.3191956   0.10761985
 -0.05354333  0.20399402]
[-0.20055614  0.12355036 -0.15106507 -0.03990425 -0.24475154  0.05422081
  0.23869091  0.09035327  0.17240117 -0.0696997   0.34842435 -0.18300626
 -0.101647    0.36525095 -0.12091739  0.0842462  -0.04650705 -0.12127595
  0.00351707 -0.14051354]
[-0.16464566  0.72359246 -0.19200258 -0.00972883 -0.24121019  0.12750645
  0.12251234 -0.46237022  0.4376389   0.07463679 -0.4092054  -0.3828194
  0.5680531  -0.1923927  -0.29121315  0.45205143 -0.21548082 -0.31046507
 -0.21005774  0.5042473 ]
[ 0.13803953  0.25983772 -0.20205586  0.0007952  -0.23383768 -0.08979839
 -0.07962542 -0.1280757   0.28024307 -0.06405915  0.10314506  0.08271082
  0.01215494  0.19582117 -0.20834117 -0.20225093  0.11437845  0.08994412
 -0.01689721 -0.05554546]
[-0.37672395  0.18722081 -0.19834973 -0.02104615  0.35888883 -0.26554263
  0.04084396 -0.01807389  0.31162006 -0.213912   -0.25485992 -0.1483809
 -0.12269734  0.01154566 -0.00722937 -0.35635796 -0.3833228   0.09321523
 -0.17073789 -0.0859511 ]
[-0.25332576 -0.14286754 -0.37752852  0.29159117 -0.24985084  0.13114141
  0.2303331   0.05641365  0.02611481 -0.07233398  0.22005926  0.21285921
  0.14011416  0.22165039  0.13561487  0.42722973  0.0534288  -0.0947234
 -0.17477795 -0.04536083]
[ 0.4732861   0.1530862  -0.09921563 -0.1250374   0.13845311  0.01259892
  0.2890775  -0.37135687 -0.27194226 -0.25836402  0.3333586   0.15903531
  0.25603238  0.22387306  0.13358268  0.0250402  -0.36332637  0.01271847
  0.25804082  0.4745568 ]
[ 0.39134422 -0.30609366 -0.13762465 -0.02643442  0.01318195  0.22380446
  0.18754548  0.17150283 -0.19933861 -0.0701863  -0.25864336 -0.23410244
  0.06362763  0.1232685  -0.34581235 -0.35915712  0.2514191  -0.1927416
  0.19914098  0.00500431]
[ 0.26002103 -0.45392686 -0.26644495  0.37909326 -0.19358851 -0.10197288
 -0.03335665 -0.43443605 -0.59659034  0.12912291  0.872539    0.03713306
  0.6732162  -0.17016642 -0.03726335 -0.08312903  0.33353966  0.40488556
 -0.5375322  -0.5682803 ]
[ 0.01669215  0.18473345 -0.04707759 -0.5005832  -0.21658313  0.39324862
 -0.75697756 -0.5558182  -0.674378    0.5940486  -0.44981894 -0.41520894
 -0.26168528 -0.15323308 -0.20062482 -0.43838254  0.06762042 -0.08594275
  0.5771151  -0.11954959]
[-0.2875147   0.02337613  0.31352592 -0.01288425  0.36310163  0.28129238
  0.44172832  0.68872976 -0.5485646  -0.25139365 -0.6156595   0.11857758
 -0.42197436 -0.12852827 -0.03364262  0.07690168  0.5300789  -0.21830055
 -0.37718254 -0.44470385]
[ 0.00220212 -0.03203269  0.0581441  -0.1244711   0.15406066 -0.06588694
  0.02495367  0.04522556 -0.03769578 -0.05773896  0.09819531 -0.03430298
 -0.04487368  0.06171211 -0.02704786 -0.00773757  0.02588862  0.0164376
 -0.00340873 -0.00437019]
layer 1 Activation
tanh
layer 2 Dense
20 40
[-0.15353067  0.04138312  0.13796045 -0.0165967  -0.28300422  0.1774694
 -0.30132422  0.03964495  0.33791897  0.0422073   0.42631367  0.18660422
  0.2607937   0.10707493  0.30210462 -0.37608245  0.1563042   0.15306854
 -0.4393935  -0.22120298  0.199538    0.13247     0.17922787  0.1274946
  0.2638145   0.13032669 -0.6153557   0.10883349  0.1611369   0.15672202
  0.16587716  0.22198991 -0.14975458  0.15987562  0.00899847  0.12033579
 -0.08781554  0.1009611   0.06581281  0.26143077]
[ 0.24675065  0.04417796  0.11832001  0.09204423 -0.12860641  0.22060333
 -0.1362053  -0.23990083 -0.02312448 -0.11181569  0.18359524 -0.14881492
 -0.01893756 -0.14963835  0.2492321   0.18320058  0.09782796 -0.03885803
  0.2741318  -0.15687293 -0.00467537  0.04116596  0.18197383  0.11220009
 -0.2746491  -0.23481847 -0.19006832 -0.26401106 -0.13447304  0.02832431
  0.01849885  0.00123167 -0.06268896  0.09869339 -0.12802307  0.04093165
  0.18557133 -0.04441537  0.05611813 -0.2157999 ]
[ 0.11463218  0.01672503 -0.13038948  0.11752999 -0.21519983  0.26424682
 -0.28888747  0.10708687  0.0655411  -0.19342075 -0.38367718 -0.14010331
  0.05359441 -0.0623421   0.07816791 -0.14117455 -0.03741762  0.22400169
  0.2661639   0.20525703  0.28942057  0.04035528  0.17481473  0.17906353
 -0.26550937 -0.2931265   0.2431068   0.13379753  0.14081469 -0.23073786
  0.3636281  -0.07634445  0.09421731  0.1709677  -0.10676677 -0.30726394
 -0.15967204  0.02409525  0.16785172 -0.06362307]
[ 0.10610204 -0.17272374  0.14210312 -0.19142635 -0.07043722 -0.07368627
  0.06335408  0.01557721  0.10366004  0.1310949   0.06108972  0.26580513
  0.21475543  0.3345764  -0.02801015  0.26934567 -0.17569087  0.12574615
 -0.1396703  -0.16472387  0.00507657 -0.09828117  0.25440222 -0.08052663
  0.12720095 -0.03274624  0.2461367  -0.15634918 -0.0756973   0.26625448
 -0.15544623 -0.14588103 -0.12830344  0.25506476 -0.00266356 -0.19553113
  0.13560688  0.01846252  0.21315932 -0.00764706]
[-0.04952844 -0.0370833  -0.10004395 -0.07249914  0.05041983 -0.11767041
 -0.25370008 -0.07380385  0.14301911 -0.4193126   0.08525401 -0.38490835
  0.10237227 -0.12356152 -0.14027002  0.28663054  0.04322062  0.23015916
  0.32480747  0.16384657 -0.187063   -0.01401652  0.20518588 -0.12508787
 -0.3193025  -0.17081967 -0.09035113 -0.00152404  0.32451484 -0.16789104
  0.2316881  -0.23247735  0.06790961  0.04725672  0.04005428 -0.31068417
  0.05792214  0.11634839 -0.02257746 -0.09458118]
[ 0.18128157 -0.23618086  0.09627016  0.10228525 -0.32473704  0.07632279
 -0.13704073  0.14502919  0.11955726  0.1927669   0.00933937  0.07696976
 -0.05669269  0.15139048 -0.2180841  -0.00601511 -0.30104852 -0.24383453
 -0.01629086  0.08913312  0.07033669  0.09060267 -0.04293564 -0.16049457
 -0.21162196  0.15120345 -0.10491728  0.12291706  0.08512374 -0.03444198
  0.32169634  0.04121201 -0.16315693  0.14418739  0.21859471  0.22405368
  0.04979978  0.09135007  0.24421667 -0.01498839]
[-0.05649398  0.1927433   0.36216223  0.22139032 -0.14845993 -0.00451592
 -0.07021987 -0.27644724 -0.25503984 -0.33294013 -0.07864817  0.25543344
 -0.08087349  0.09006737 -0.14283495  0.11293494 -0.07367224  0.27335143
 -0.03666021 -0.03359988  0.10420182 -0.15470609  0.14048587  0.14230976
 -0.19685383 -0.22658859 -0.24611984 -0.2969713   0.17907299  0.14485402
 -0.15543652 -0.0506059  -0.13912423  0.21283095 -0.1489604   0.01991777
  0.11715047  0.01603102 -0.25011468 -0.01778615]
[ 0.01554528  0.13816646  0.16832744  0.09196692 -0.13382494 -0.296013
  0.28845403 -0.22177565  0.18932846 -0.27953663 -0.32318735  0.27909267
  0.18854585  0.1101287   0.062014    0.4251907  -0.00323976  0.15270738
  0.04457172  0.25998294  0.0300433   0.23447727  0.1569662   0.31055126
 -0.3177031  -0.10941743  0.44764513  0.00114421  0.07357951 -0.43773243
 -0.2647061   0.00978231  0.03972083 -0.09496631 -0.18082099  0.05576132
  0.1396711  -0.06094252  0.03353678 -0.02466093]
[-0.15482448 -0.3286158  -0.37129706 -0.16255629  0.13706805 -0.13085161
  0.10911053 -0.06550106 -0.2550233   0.19500157  0.12479332 -0.2051936
 -0.17209958  0.12743077  0.17174189 -0.2986305  -0.31880933  0.13072258
  0.20060708  0.19643205  0.0270502  -0.12452843  0.22065738 -0.38502732
  0.25795475  0.3890006   0.02988515 -0.3706422   0.24119836  0.21039476
  0.16417886  0.08585771  0.01318801  0.08418935  0.05142556 -0.19243531
 -0.06836089  0.07175782 -0.28870922  0.18244483]
[-0.41079774 -0.20367688 -0.0008775  -0.17806834  0.00881262 -0.23090062
  0.04646876  0.19621722  0.09741607 -0.06538351  0.09063616  0.17691118
  0.01020105 -0.20061283 -0.14924     0.03524657  0.27338165  0.20446986
 -0.23526143 -0.17641908  0.1762243  -0.16649942 -0.01840299 -0.03388203
  0.3609987  -0.01267872 -0.07450474  0.29331318 -0.1826343  -0.08812425
  0.25130424  0.3492463  -0.25987303 -0.09057445 -0.04833709  0.16693711
  0.18130268  0.00336178 -0.2824238  -0.2601098 ]
[ 0.02082408  0.27302226  0.05370983 -0.222634    0.06887026  0.20049366
 -0.04481773 -0.07422327 -0.10365748  0.3847048   0.09415735  0.23393402
 -0.23053323 -0.06371433 -0.23145577 -0.09519516  0.0261451   0.01284131
  0.1041467  -0.33603573 -0.11838999 -0.01305614 -0.07161155  0.21636978
 -0.33143798 -0.03439737 -0.140256   -0.44705546 -0.15770562  0.1752308
 -0.09347349  0.29728413  0.24634312  0.05868194  0.04840643  0.13110526
  0.11551432  0.12351419 -0.1615743  -0.06082283]
[ 0.2779751   0.10459448  0.02531064  0.10757399  0.00893745 -0.0123678
  0.0852622  -0.21617721  0.24254327  0.18440697 -0.43783805  0.02695302
  0.2335822   0.31690624 -0.0303203  -0.19087912 -0.03177199  0.26018786
 -0.08663423 -0.04119631  0.1646698   0.27225754 -0.25955424 -0.11893252
 -0.01555716  0.13041246  0.11759363 -0.20641215 -0.24447069  0.0300904
 -0.04713347  0.0932808   0.09921135  0.02167267 -0.15624323 -0.29132834
  0.21785918 -0.06495958  0.26053455  0.0714636 ]
[-0.33320555  0.20031057  0.14240707 -0.03439179 -0.11473492 -0.10834081
 -0.20987915 -0.25203902  0.17725565  0.10185166 -0.24959897  0.19595383
  0.02879208  0.072122    0.28546706 -0.23561144 -0.23716277  0.17592998
  0.10008063 -0.10054854  0.08052475  0.06187946  0.16735765 -0.1623343
 -0.07432954 -0.0752339   0.17415465 -0.38176113 -0.42197415  0.10269234
  0.00659617  0.22930798  0.46088785 -0.14344089  0.16043244  0.29311523
  0.31921628  0.23645578 -0.00735246  0.04942257]
[ 0.006639    0.3277384  -0.19999637 -0.11365632 -0.28424212  0.13721628
 -0.18054995  0.28707534 -0.30425328  0.21604647  0.02759075  0.30849883
  0.08940667  0.06166549 -0.13936628  0.00723932  0.13954823  0.24257523
 -0.16701102  0.03860246 -0.13809137  0.19419764 -0.068436   -0.13772886
  0.07941456 -0.05755199  0.13993426  0.1366843   0.2066473  -0.10224506
 -0.21035343 -0.27498817  0.21200217 -0.18514453 -0.05128489  0.00678331
 -0.09200767 -0.1088649   0.23709987 -0.20877121]
[ 0.00686417  0.08267759 -0.2325223   0.11743708  0.08334724 -0.21511532
  0.01382654 -0.30671203 -0.20983657  0.10987468  0.0627969   0.06510726
 -0.36757988  0.18719167 -0.09048481 -0.13947524 -0.0018538   0.0061476
  0.07200572 -0.2531878  -0.21025689 -0.21808162  0.02972455  0.14042272
 -0.11927112 -0.12591329  0.09818131  0.10937744  0.14705515 -0.24809766
  0.0853738   0.12873901 -0.08633236 -0.04160012  0.07754513  0.21846199
  0.16537571  0.04501166 -0.07633238  0.03192161]
[ 0.1035535   0.01942436  0.32620806 -0.11492317  0.14828129 -0.17085665
  0.03774921  0.21090941  0.00533701  0.17235224 -0.2395737  -0.09154159
 -0.36496586  0.17210181  0.20607147  0.20857437 -0.14546844 -0.16484174
  0.30885088  0.05853507 -0.1497671   0.02331803  0.11064453 -0.01741683
  0.2321528   0.04182192 -0.22927496 -0.1376478  -0.27288747  0.17847875
  0.13076425  0.16657913  0.25882676  0.16820975 -0.17860143  0.0736592
 -0.01570674  0.05600935  0.0161669  -0.19201154]
[-0.18367694  0.11656895  0.26333088 -0.01509303  0.05017984  0.07804731
 -0.08940441 -0.16345392  0.19912589  0.14338188 -0.07848238  0.06465262
  0.2507372  -0.06829812  0.20002139  0.33196935  0.1935374   0.27527422
  0.28407797  0.34701     0.06890479  0.34181318  0.25569507  0.14749606
 -0.164917    0.11197015  0.24083194  0.0093043  -0.0005852   0.05775929
 -0.15783522 -0.09117711 -0.31150097  0.355319   -0.1422543   0.17289181
  0.22498775 -0.23233196 -0.08001421 -0.19684543]
[ 0.26082987 -0.1659113   0.16048749 -0.18901423  0.12312971  0.03470864
 -0.03533569 -0.26765326 -0.14526051  0.08944841  0.23574078  0.17151587
 -0.28182396 -0.14720826  0.32634243  0.11878199  0.2815163  -0.17638208
  0.04110371 -0.23682088 -0.17651187 -0.13417716 -0.0196304  -0.00044108
  0.10960179 -0.24552718  0.14496075  0.23158735 -0.07205199 -0.19658233
  0.21348774 -0.03649975  0.19697583 -0.07126117  0.1974638  -0.3047687
  0.3355863  -0.04536758 -0.25892377  0.11814561]
[-0.1998947  -0.24201198 -0.33364874  0.08600688 -0.06768449 -0.03566088
 -0.25118586 -0.35419935  0.07447217 -0.26160026 -0.06074588 -0.14109911
  0.07308623 -0.07252883 -0.0138569  -0.17670694 -0.26401088  0.08618998
 -0.1807722  -0.1280626   0.10637987 -0.08803184 -0.19340466  0.15576902
  0.24796557  0.26831228  0.20228288  0.13188118 -0.07392572  0.12343612
  0.03130224 -0.05736267  0.05176374  0.04985879 -0.20832148 -0.03484794
  0.15635884 -0.15270641  0.08591015 -0.06194717]
[-0.21932472 -0.19111137  0.00413029 -0.00553833 -0.24992163  0.10479072
  0.18180119 -0.06499043 -0.2687566   0.07771397 -0.09004653 -0.15798259
  0.01238766  0.46498382  0.03875304 -0.01002449 -0.19084871 -0.01139645
 -0.00630679  0.16926889  0.02798115 -0.29222786  0.05497776  0.01053481
  0.08307689  0.20736533 -0.0034571   0.05571711  0.01660787  0.1394434
  0.2328957  -0.09384182 -0.07577343  0.12296349  0.06609956  0.10694156
  0.3200748   0.2343082  -0.10179117 -0.1760166 ]
[ 0.01913056  0.0419625  -0.0120162   0.01407337 -0.01486801 -0.01255073
 -0.00967992 -0.01433808 -0.00274661  0.03473814 -0.1844977  -0.00387306
  0.02627317  0.14693479 -0.0247713   0.11129231 -0.02425971  0.02660001
  0.04629506  0.06245205  0.01974835  0.12261559  0.03937792 -0.00344754
 -0.02408941  0.02708755  0.16025585  0.03172068  0.06458856 -0.03054889
 -0.00825308 -0.01386033  0.07554334  0.02796394  0.00280496  0.00154123
 -0.03576292  0.01270751  0.02600022  0.0240983 ]
layer 3 Activation
tanh
layer 4 Dense
40 20
[ 0.27114555 -0.04734021 -0.17657119 -0.07114412 -0.15114926  0.04279562
  0.33971593  0.31494206  0.05188265  0.18315457 -0.11288294 -0.10023401
  0.17634383  0.02275773 -0.01921669 -0.06899139  0.19913132  0.07838919
  0.01344423 -0.05197318]
[-0.14422043 -0.04095682  0.3288776   0.24171522  0.09427982  0.23490188
  0.25521347  0.32936662  0.2061437   0.06092349  0.02444138 -0.27013385
  0.12514731  0.10882825 -0.12598197  0.13919574  0.00731408  0.1149314
  0.20708315  0.2912531 ]
[ 0.00253406 -0.12615824  0.21793202 -0.13918014 -0.18123513  0.03250097
 -0.06228926  0.30036798  0.02189677 -0.03447125  0.29336745  0.14513531
 -0.2068402  -0.2116321   0.2886923   0.2171891   0.1393274   0.00204069
  0.24278463  0.17588529]
[ 0.32722536  0.05371093 -0.20814528 -0.18410987  0.18872528  0.19916743
  0.24351089 -0.27517074 -0.05477184  0.09796461  0.2553812  -0.27123317
  0.03254068 -0.03215054 -0.06363343 -0.01804889  0.26260078  0.00316346
 -0.28239805 -0.07582132]
[-0.05397585  0.12481746 -0.30345336 -0.26548907  0.17395185  0.04971986
 -0.31661624 -0.22620982 -0.2299096  -0.02725905  0.13775846 -0.30569053
 -0.2239282  -0.08325036 -0.22860855 -0.23170987 -0.20762657  0.08435978
  0.25453398 -0.1961423 ]
[-0.20339863  0.23466967 -0.24228153  0.03374146 -0.1438653   0.33541363
  0.31115976 -0.06280398 -0.21496774 -0.0377069  -0.05133823 -0.2622103
 -0.21321398 -0.07125396 -0.18089461 -0.07698037  0.09751843  0.16194454
 -0.30088866  0.10852498]
[ 0.15447979  0.0217599  -0.16131382 -0.1646381   0.08841207 -0.09598522
 -0.05078217  0.06821767  0.12041846  0.03245081  0.07030995  0.28579694
  0.02877624  0.08983437  0.24105108 -0.21267642 -0.15313825 -0.14229754
  0.07288116 -0.13447924]
[ 0.24337392 -0.17419912 -0.05046136  0.15169765  0.15187202 -0.327399
  0.17366335  0.03666773  0.0389858  -0.3014789  -0.06559385 -0.13964868
 -0.14844027 -0.28327763 -0.10663091  0.1536944  -0.28078035 -0.07035251
 -0.15377814  0.08753923]
[ 0.02725402  0.15988892  0.06396427 -0.23279576  0.28172302  0.19133238
 -0.1008819  -0.10098122 -0.08334797  0.11514913 -0.03817702 -0.278874
 -0.01619729 -0.2508815  -0.00706656  0.16245957 -0.24161366 -0.21447739
 -0.00530424 -0.21208444]
[-0.02507577  0.05625841 -0.11296982 -0.0426417   0.29313007 -0.22910659
 -0.11063854  0.27098095  0.05637018  0.31796125  0.21138126 -0.23077467
 -0.18668114 -0.3443444  -0.29106045 -0.1542396   0.2260648   0.10824972
  0.09478608 -0.27718726]
[ 0.0380034   0.01606025  0.14771396  0.01619341  0.2955432   0.19201486
  0.16467607 -0.0897922  -0.20026137 -0.00884001 -0.16244712  0.10415093
 -0.09439286 -0.38007942  0.07039777  0.04381929 -0.3954881   0.1843091
 -0.28614673 -0.17272073]
[-0.05502245 -0.22542344  0.01285221  0.21605465 -0.05648274  0.00717436
 -0.14966427  0.13277386  0.12023111 -0.2521846  -0.10773151  0.16832656
 -0.32002258 -0.25249285 -0.09919696 -0.02640114 -0.22108993  0.07236797
 -0.2720636   0.2578714 ]
[-0.0270708   0.22510421 -0.16509008  0.3188359  -0.14495619  0.03306663
  0.27844676  0.13336265 -0.24391867  0.07351405  0.06746101 -0.15453948
  0.02111493  0.03530235 -0.24339229  0.22251889 -0.19889964 -0.29958352
 -0.10493755 -0.2748622 ]
[ 0.02842388 -0.32003766  0.20541675 -0.13271156  0.14294076 -0.2803744
 -0.2823422   0.10248642 -0.2368736   0.08883331  0.11394688  0.24299094
 -0.31434038  0.00894726  0.28388566 -0.04151378  0.25911677  0.14154898
 -0.15359326  0.06959642]
[-0.03540023  0.02066224  0.06993546  0.20959052 -0.20607796  0.18614143
 -0.13384748  0.10487949 -0.04675792  0.3219446  -0.31234333 -0.23907919
 -0.2888919   0.16770026 -0.18516055  0.19601454 -0.02603114  0.2469636
  0.02560799  0.15494843]
[ 0.296937   -0.16246861  0.07360321  0.13771373  0.29261297 -0.29329708
 -0.25770724 -0.2897838  -0.15643035  0.14635426  0.3376272   0.15042305
  0.26868966  0.22832134  0.20720664  0.07311022  0.30298987  0.07044738
  0.05546523  0.00269193]
[ 0.09043691  0.23432922 -0.10989308  0.2891263  -0.01547314 -0.2430554
 -0.16808024 -0.05024236  0.06995831  0.23641045  0.17704375 -0.04133976
 -0.01204356 -0.09054946 -0.21864554  0.06083053 -0.19930485 -0.11599005
 -0.28140533 -0.06778698]
[-0.20075639 -0.14835179 -0.22275198  0.01620095  0.06019143 -0.05411357
  0.01710632  0.03441441  0.24828781 -0.05068233  0.21080452 -0.1002702
 -0.2289446  -0.16405931  0.01687114  0.25324407  0.21903999  0.04803282
  0.1295874   0.3785428 ]
[ 0.32215664  0.23040678 -0.24552767 -0.18083908 -0.21131307 -0.22299892
  0.05670525 -0.10152802 -0.28432423  0.09008083  0.27519095 -0.26552957
 -0.06387839  0.31151178  0.28576034  0.21751773  0.25733408  0.09760044
  0.19027764  0.1403131 ]
[-0.00046402 -0.04911179  0.0568618  -0.26425406 -0.20131922  0.0804667
  0.08164322 -0.2066065  -0.18411948 -0.07773788  0.14641023 -0.00349036
  0.21454284 -0.07238571 -0.08453844  0.0694057  -0.08160975 -0.21848558
  0.2029075  -0.2981291 ]
[ 0.04669426  0.28046718 -0.03098187 -0.084783   -0.2765209  -0.07371233
  0.13989732 -0.10195028 -0.17470844  0.3356047  -0.06864259 -0.26938057
  0.1111421   0.07065314  0.14522004 -0.35368478 -0.05338694 -0.24380565
 -0.22954136  0.18166935]
[-0.07159743  0.14465626  0.28798246  0.08023231  0.18663736  0.07637684
  0.04880363  0.32894486 -0.09410083 -0.22439538  0.19796906 -0.23394841
  0.19141537 -0.18886162 -0.29826754 -0.127575   -0.05710625  0.06470156
  0.12039518  0.01638881]
[ 0.01414735  0.14760205 -0.1599441   0.01886292 -0.21413033  0.03536708
  0.07613151 -0.07803926 -0.19147977  0.19007024  0.23692024 -0.1111135
 -0.1996694   0.05687136  0.19745699 -0.0429675   0.22096519  0.08108789
  0.33858925 -0.16695115]
[ 0.14261498  0.2251782   0.22737229 -0.20615871 -0.09903894  0.03563652
  0.00993359  0.35644975  0.03262419 -0.22709747 -0.18140781 -0.10960652
  0.27195138  0.11051887  0.19280533 -0.40129924 -0.130559   -0.25967774
  0.24220571  0.18456045]
[ 0.06609845 -0.1714147   0.15383053  0.06222761  0.28239146  0.01663432
 -0.22574905 -0.31851637 -0.24462342  0.11740884 -0.31783223  0.16696239
 -0.08599161 -0.0865679   0.18689679 -0.18281856 -0.09586681  0.21246742
 -0.3011986   0.29098323]
[-0.2988976   0.16960967 -0.30197287  0.1683969   0.14849424  0.24233744
 -0.15434463 -0.17530933 -0.1063614  -0.2591743  -0.29244846 -0.11100709
 -0.30288666  0.19644149  0.15572874  0.06378496  0.18588157  0.18472002
 -0.17729186  0.02941747]
[-0.06591724  0.03988339 -0.03017713 -0.11180105  0.08355456  0.04595045
 -0.26451623  0.20254019 -0.04992536 -0.27248803  0.14400089  0.02440632
  0.04022243  0.25232384 -0.15603139  0.16853885  0.26837555 -0.13033295
  0.2031128  -0.28614557]
[-0.12067197 -0.10036231 -0.02638866  0.12539782 -0.04865849  0.27628446
 -0.2333624  -0.30301127 -0.20676556  0.0105783  -0.05639962 -0.10969966
  0.25177625  0.09453705  0.21976252 -0.1305416  -0.07801537  0.07082529
  0.17962283  0.30284962]
[ 0.06377441 -0.20742176 -0.00152482  0.26073828  0.1241452  -0.15473548
 -0.15098876 -0.10544982 -0.28005537  0.32954088  0.2798721  -0.20590663
  0.00988267  0.1981598  -0.36268732 -0.15305553  0.11356404  0.28953362
 -0.28148815 -0.06758284]
[-0.37092936  0.24871616 -0.21320085  0.26276606 -0.19298074  0.25097227
 -0.02743513 -0.10438276 -0.12713397 -0.10943584 -0.34405255  0.19220163
 -0.2872074  -0.07703725  0.14231542  0.14968121  0.03467304 -0.21398169
  0.218923    0.07410628]
[-0.08709237  0.11601328 -0.12365203 -0.21984495  0.03037782 -0.04694302
  0.18265484 -0.18363796 -0.02349204  0.21480586  0.0011098  -0.01131163
  0.28421077  0.03519692  0.30775443  0.25179693 -0.26302174  0.2722426
  0.04121787  0.18798667]
[-0.16906402  0.06050078  0.03568206 -0.06702758  0.13031347 -0.26130792
 -0.22355013 -0.09879361 -0.25268692  0.2377548  -0.07244046 -0.32148576
  0.04298726  0.02463522  0.01377868 -0.23448335  0.27892554 -0.15218909
  0.12589307 -0.19558808]
[-0.00088992  0.01843303  0.07719864  0.1861825  -0.18588123  0.25737888
 -0.12253845  0.01222467 -0.04253036 -0.14779723 -0.1733927   0.21146464
 -0.09676844  0.30235317  0.06908163  0.15426804  0.1729702   0.18887891
  0.32230562  0.00784675]
[-0.24206083  0.20844059  0.08893487  0.05248458 -0.20170394  0.02849164
 -0.08510508  0.29617015  0.10760798 -0.26320824  0.1718572  -0.3432224
 -0.19190536  0.06369604 -0.11041127 -0.11166075  0.13664557  0.05707956
  0.2023783   0.07495069]
[-0.41940802  0.17727055 -0.23031442  0.12606512  0.00292757 -0.08388276
 -0.03171011 -0.21346153  0.08115721 -0.03023945 -0.17078303 -0.00316947
  0.13826768 -0.08231859  0.2164263   0.09128723 -0.05114585  0.22447047
 -0.11766459 -0.09977651]
[-0.13889441  0.19618978 -0.19707425  0.23979066  0.07268653  0.10945856
  0.18947627  0.02429065  0.00950509 -0.05740134  0.18604755 -0.21309748
 -0.08086751 -0.06996644 -0.12329916  0.29727805 -0.05608666  0.0707029
  0.08127985  0.32938507]
[-0.10137568  0.20556499 -0.34111097  0.28837466 -0.17644595 -0.05536082
  0.04725947 -0.20761557  0.15310681  0.11094551 -0.05666015  0.00975924
 -0.2319276  -0.1360302   0.11467392 -0.12273486  0.11020283 -0.02531548
  0.25230202 -0.15824051]
[ 0.19665638  0.0119912   0.00085844 -0.31785077  0.35015583  0.10354641
 -0.09923331  0.11897719  0.16488205  0.17926496 -0.2421362  -0.21342503
 -0.09120173 -0.02712777  0.26996422 -0.15811035 -0.01297276  0.18534724
  0.10478197  0.08533889]
[-0.1430756   0.01524254  0.3192772   0.08567216 -0.25750798  0.03883714
  0.15785499 -0.07394346  0.1770182   0.2835413   0.21748582  0.2295013
  0.06142893 -0.09158031  0.13194406 -0.09272105 -0.08318862 -0.24235678
  0.11920197  0.01421021]
[ 0.11252397 -0.07063065  0.121701   -0.14549714 -0.08365944  0.13845906
  0.2224153   0.03614714  0.06736255 -0.01284974 -0.04995793 -0.16105166
 -0.310975   -0.2867255  -0.10371806 -0.38458645  0.40062827 -0.15114784
 -0.15864912  0.04217569]
[-0.00064283  0.00306869 -0.04449343  0.00623541 -0.03501404  0.02292779
 -0.04983965  0.00968886  0.01121531 -0.01750992  0.01522399 -0.04294261
  0.02222687  0.00602016  0.03168664 -0.05330181  0.02185089 -0.04465979
  0.00741658 -0.00423426]
layer 5 Activation
tanh
layer 6 Dense
20 1
[-0.05638458]
[0.29604456]
[0.07499922]
[-0.14115168]
[0.08307403]
[-0.20842549]
[0.18509772]
[-0.15945145]
[0.00298112]
[0.00122675]
[-0.19027689]
[0.22908413]
[-0.1574285]
[0.11710411]
[-0.19323124]
[-0.00144945]
[0.06895079]
[0.07369199]
[0.09019479]
[-0.0048786]
[-0.01970898]
