layers 7
layer 0 Dense
20 20
[ 0.28137752  0.15714084  0.49159396 -0.11443154 -0.01551926  0.19298328
 -0.04396256  0.5450937   0.00177275  0.14415754  0.48673707  0.20426963
  0.00903489  0.6169466   0.79472715  0.25698438  0.11708876 -0.23878339
  0.29713705 -0.08090153]
[ 0.4488401  -0.10934689  0.20150363  0.6451257   0.31681272 -0.56873167
 -0.45650932  0.7880554   0.06464575  0.17297141 -0.00102275 -0.15691933
 -0.20037308  0.5313535   0.73659736  0.47178474 -0.28416517 -0.18444513
 -0.258744   -0.19385676]
[ 0.474592   -0.6439615   0.64397585  0.6845749   0.37962252 -0.5020672
 -0.15645146  0.9119689   0.20635511 -0.3298871   0.2188235   0.00997587
 -0.43587226  0.18862931  0.03127833  0.13288301 -0.2900581  -0.38975483
 -0.4148961   0.38528305]
[ 0.08636458 -0.76311827  0.61126673  0.44516557  0.18440224 -0.57256275
 -0.08310864  0.68863547  0.18339406 -0.26140797  0.2482593   0.15262158
 -0.36284688  0.7861698   0.52864975  0.36683208 -0.42168793  0.27762547
 -0.08983985  0.24055755]
[ 0.1566284  -0.09768979  0.24757828 -0.17330009  0.01394249 -0.46505037
  0.40472877  0.20739555 -0.33479565  0.22862166 -0.77080154 -0.21366432
 -0.28987998 -0.04477146 -0.25026336  0.41437763 -0.24151719 -0.07861087
 -0.37578508  0.1079104 ]
[ 0.07698205 -0.48835373 -0.24034016 -0.36090416  0.00213885  0.07172772
  0.15475306  0.07428209  0.2405558  -0.18939963  0.19223963  0.43268865
 -0.02051239 -0.17247747 -0.19175124 -0.8719031  -0.02244847  0.08528349
 -0.04273913 -0.5093265 ]
[-0.17926449  0.07961382 -0.1860914  -0.36580005 -0.1845922  -0.0290033
  0.5628925  -0.1054671   0.06186027 -0.20038019  0.12362771  0.06937303
  0.18798336  0.19542162 -0.1759924  -0.668807    0.13582718  0.3073808
  0.3720404  -0.5608648 ]
[-0.0493256   0.5984342  -0.4573099  -0.2089873   0.30361572  0.8973939
 -0.03556204 -0.6752689   0.30516496  0.07917715  0.23173724  0.503331
  0.06874344 -0.7261172  -0.29279172 -0.47075665  0.14946222 -0.24872586
  0.41366887 -0.26548418]
[ 0.37402707  0.14673728 -0.3132267  -0.0203257  -0.1406319  -0.31562135
  0.80374634  0.1301267  -0.24454646  0.3579624  -0.2660311  -0.19341946
  0.20297174 -0.02333914  0.09546395 -0.13742667 -0.01409229  0.1512394
 -0.42186818  0.4301723 ]
[-0.51169175 -0.11432534  0.32897142 -0.39462247  0.20434877  0.2658003
  0.07715683 -0.0153166  -0.08749734 -0.07035244  0.12072307  0.1025085
  0.20960487 -0.25697708  0.59285     0.30952412  0.22781506 -0.6392955
 -0.3354627  -0.6141688 ]
[ 0.66582304  0.19578758 -0.03734906 -0.95062935  0.05468607  0.20773296
  0.737305   -0.35103002  0.8594792  -0.4091339   0.03624868  0.12947898
 -0.4907177  -0.10209784  0.34602526  0.0835312   0.26321477  0.1500517
 -0.9884371  -0.04749862]
[ 0.41451228  0.2908112   0.05757735  0.07032994 -0.5574012   0.54004896
  0.19414832 -0.6555266  -0.999365   -0.20027295 -0.4963929   0.18070437
  0.3855908   0.08460682 -0.22795801 -0.70681477  0.39313242 -0.26988733
 -0.49657923 -0.1405057 ]
[ 0.5412467  -0.01853979 -0.495698   -0.01543525 -0.5897327   0.20044474
 -0.8133665  -0.7518276  -0.32260793  0.28094095 -0.71547544 -0.25482187
  0.12367377 -0.38064992 -0.4848061  -0.22245915  1.0482005   0.648056
  0.24874592 -0.6396754 ]
[-0.22343646  0.2596037  -0.6286496   0.32320315 -0.09909344 -0.1741288
  0.11161303 -0.36275765  0.11550635 -0.23111637  0.05550747 -0.10197827
 -0.297861    0.15328154 -0.5735872  -0.43418813  0.06805841 -0.3633006
  0.00153362 -0.34797835]
[ 0.01416227  0.17994569 -0.2374592   0.5171562   0.2412184  -0.20481259
  0.09333061  0.46799615  0.67862874  0.01098097 -0.14805806  0.11023781
  0.16165406 -0.38146704 -0.3933036   0.7120072  -0.17897633 -0.07880507
  0.43895006 -0.05678565]
[-0.17972068 -0.30117956  0.09693242  1.0562491   0.22443508 -1.03872
  0.49937594  0.18107261 -0.4475221   0.17494489  1.3415124  -0.33830708
  0.48004073 -0.07843304  0.21444479  0.9325166  -0.0824608  -0.6678955
  0.7353651   0.12949254]
[-0.479818   -0.073256    0.06056112  0.36996162  0.6710727   0.11277674
  0.11528025 -0.18833348  0.32992843 -0.11057185  0.04471514  0.27419642
 -0.26347035  0.02514061  0.1407452   0.2883646  -0.7801919  -0.48838133
  0.24102186  0.5268253 ]
[ 0.29543185 -0.03576754  0.7559225   0.36562762 -0.35181534  0.33117396
  0.06578626 -0.10381286 -0.18466519  0.3241568  -0.22097975 -0.41393688
  0.62105405 -0.15957606  0.2313258   0.20105046  0.49798685  0.81273407
  0.05933663  0.4001416 ]
[-0.66780096 -0.03289982  0.19001143  0.23714697  0.67346203  0.20683032
 -0.81947124 -0.30724952 -1.9415064   0.38237488 -0.25026387 -0.41518953
  0.39160237 -0.17876172  0.1322125  -0.33598414 -0.16889015 -0.37486959
  0.61461407  0.47919747]
[-1.0099934   0.614983   -0.5314483  -0.7499683  -0.13519745  1.5585107
 -1.1646091  -0.5536534   0.52557737  0.29060352  0.75767124  0.7538385
  0.08045851 -0.55278313  0.27800706 -0.3675483   0.06503764  0.6189591
  0.15031245 -0.20696871]
[ 0.01155993 -0.37943166  0.2593073   0.23707858 -0.10256607 -0.2147813
 -0.03173831  0.32103613  0.03098566 -0.04400304  0.17113493  0.06975728
 -0.1305042   0.35983574  0.09480752 -0.04075928 -0.08191062  0.00699244
 -0.09368917 -0.00169495]
layer 1 Activation
tanh
layer 2 Dense
20 40
[-0.03366077  0.32975757  0.09467799 -0.06036379 -0.02317538  0.011161
 -0.49738047  0.06901592  0.14372972 -0.26354146 -0.116799    0.06916742
  0.05509331 -0.2655198   0.04044339  0.22316316 -0.33152553  0.15363243
 -0.14072634  0.67537576 -0.03108171 -0.18575287 -0.3145779   0.12637888
 -0.04301716 -0.47659564  0.15026519  0.07597873 -0.06394065  0.03243199
  0.5759708   0.06493402  0.34647632 -0.12042035  0.06333172 -0.3477037
  0.08479128  0.4414131  -0.36845484  0.2924463 ]
[ 0.09515992 -0.28819767  0.0322552   0.23751451  0.2529629   0.23649381
 -0.14655766 -0.07711648  0.1318745  -0.11249024  0.33028224  0.42486313
 -0.24160519  0.4809577   0.37479153  0.22328593 -0.03583651  0.35271952
 -0.35171846 -0.09492289 -0.10985456 -0.0349991  -0.2380065   0.17232761
  0.00358648 -0.22012408  0.00855265 -0.16349605  0.07268523  0.17978376
 -0.27816647 -0.15329552 -0.00968182 -0.17993155 -0.03605131 -0.11770114
  0.04489942 -0.14876395  0.19789548 -0.23288345]
[ 0.21683444  0.07183515  0.20187692 -0.13602924 -0.58585364 -0.51722085
  0.19325401 -0.15493605  0.04171683  0.4625674  -0.4339354  -0.802384
 -0.19186938 -0.51567143 -0.63738865  0.0888012   0.40540403  0.09765512
 -0.0582178  -0.02308361  0.26864374  0.24718606 -0.12013629 -0.40063155
  0.11017348  0.03670987 -0.15259656  0.02356503 -0.00180243  0.08946137
  0.20806746  0.6851991   0.13358267  0.49603692  0.61586684 -0.21585473
  0.48536614 -0.10798623 -0.07735536  0.3746693 ]
[ 0.21290597 -0.11700035  0.5036256  -0.36808687 -0.11950063 -0.16349377
 -0.33745146  0.04377745  0.2880612  -0.20871831 -0.3396181   0.15829664
  0.11226799 -0.05353473  0.17573497 -0.35853222  0.08785174  0.17598902
 -0.29171103 -0.3861813  -0.12070582 -0.01491978 -0.2214453  -0.28126383
  0.15840185  0.01862121 -0.06291033  0.03989684 -0.18556596  0.43214744
 -0.24961486  0.3267202  -0.24450915 -0.52450037  0.1462693   0.24925154
 -0.27311406 -0.13233471  0.18986464 -0.5705564 ]
[ 0.30444235 -0.07892169 -0.22756329  0.0629942  -0.00756507 -0.09647322
  0.67474395 -0.23530109 -0.14233018  0.03370855  0.02696465  0.18049695
 -0.11834092 -0.34283012  0.10109495 -0.48152053  0.28814763 -0.13932642
 -0.2680768  -0.11366374 -0.23463283 -0.10502665  0.5843328   0.23979293
  0.14183097  0.08272596  0.21527858 -0.07842205 -0.31913406 -0.11725782
 -0.4505886   0.12106693 -0.0456844   0.34638914 -0.04528823  0.68672854
  0.18017624 -0.21701312  0.02076606 -0.3731385 ]
[ 0.22692072 -0.16017261 -0.84612334  0.580809    0.24289459  0.20118351
  0.11973337  0.17373958 -0.2671756  -0.15242465  0.50214887 -0.0391605
  0.13111788  0.11392035  0.11741778  0.767584   -0.46204397  0.07654665
 -0.38698736 -0.05097626  0.5184433  -0.12419676  0.1696154   0.05851463
 -0.0224924   0.575565    0.0112818  -0.079584    0.24974917 -0.42741835
 -0.5008904  -0.22362459  0.26155323  0.20011161 -0.17559594  0.30787727
 -0.14290988 -0.2672793   0.14396814  0.03523824]
[ 0.31288972 -0.15979141  0.8144025  -0.22030817 -0.2333803  -0.27372336
  0.21386711 -0.25863042  0.4844315  -0.18301606 -0.3199499   0.3500192
 -0.02193272 -0.20561136  0.3735541  -0.3067618  -0.00669334  0.6470807
 -0.07903156  0.21826169  0.39209893  0.07298566 -0.18174139  0.10284165
 -0.90443295 -0.7002724  -0.26293826  0.03648601 -0.49912542  0.51427317
 -0.21037292 -0.1925975   0.86888343 -0.34147885 -0.12702483 -0.26206878
  0.3352104   0.5197804   0.21323393  0.2729743 ]
[ 0.27358642  0.18746293  0.40353826  0.04155891 -0.44791788 -0.82259434
 -0.18878375 -0.5531997   0.38995808  0.41973707 -0.7146359  -0.7990766
 -0.04261445 -0.35751212 -0.7272338  -0.54319537  0.45518944 -0.06150303
  0.17320561 -0.02510149  0.29892716  0.05870731 -0.10457864  0.13090605
  0.17686835  0.08178312 -0.237248   -0.04767821 -0.04398824  0.01300195
  0.01238655  0.51078373  0.04597913  0.21285896  0.64858    -0.12077134
  0.39795986 -0.084618   -0.04622367  0.02720434]
[-0.23288408 -0.18728484  0.14035386  0.32950574  0.24843797 -0.06070026
 -0.5100842   0.02093125 -0.4307853   0.06771325 -0.17276584  0.08917595
  0.47184414 -0.0599267   0.17062677 -0.5571015  -0.21992274  0.19515005
 -0.14574869 -0.38713798  0.10275005 -0.09332009  0.5569738   0.12781902
 -0.47617006 -0.20903926 -0.16575819 -0.27016467  0.54688925 -0.38648778
 -0.09458089  0.18332604 -0.41124052 -0.6168772   0.10530073 -0.55552775
 -0.26585358  0.19114098 -0.4470008  -0.09231737]
[-2.3498166e-01  2.8326762e-01  2.7879274e-01  1.6862951e-02
 -2.8989953e-01 -8.6189814e-02 -4.6604209e-02  7.2351143e-02
  1.6741422e-01  8.8804543e-02 -1.0675587e-01  8.3668336e-02
 -3.0108401e-01 -1.4000604e-01  7.3904574e-02 -3.8884120e-04
  2.2322223e-01 -3.7616998e-01  3.2873806e-02 -4.3948047e-02
  2.3904166e-01  2.0743901e-01 -2.9132878e-03  3.4281576e-01
  1.5398780e-01  1.8593778e-01 -1.4945778e-01  4.6923794e-02
 -3.8703421e-01 -2.6617360e-01 -9.4381854e-02 -5.1337332e-03
 -4.6675834e-01  2.9061732e-01  2.3930947e-01  2.5640401e-01
  1.6492975e-01  1.1239509e-01  2.2653194e-01  8.9412212e-02]
[ 0.23673917 -0.25772133 -0.4598311   0.12754542 -0.32818508 -0.5541417
 -0.13866322 -0.3056796  -0.2928058  -0.31272328 -0.24159606 -0.17570989
 -0.01455858 -0.21479027  0.05358971  0.04132104  0.02273305 -0.10229579
 -0.0855283   0.03176282 -0.3475308   0.12498304  0.27382478 -0.24210614
 -0.15226638  0.20742427  0.1190893  -0.17488095  0.28858954  0.12834099
 -0.5586575   0.31598052  0.38830048  0.00246089  0.14876759  0.20384951
 -0.1662537   0.22838517  0.10504121 -0.37893367]
[ 2.70114988e-01 -2.65109241e-01 -2.21804708e-01  1.79745466e-01
 -2.21893620e-02 -2.34555721e-01 -7.90615529e-02  5.16279861e-02
 -5.14692720e-03 -2.96345711e-01 -1.70471463e-02  1.35410234e-01
  1.88921988e-01  9.57135409e-02  1.00737505e-01  2.05685526e-01
  1.79451585e-01  1.89998895e-01  2.25726813e-01 -5.62048018e-01
 -1.55918092e-01  2.22844334e-04  4.56441790e-01 -3.31961900e-01
 -3.85303736e-01 -1.95679069e-02  8.52564499e-02 -1.05464924e-02
  2.77666390e-01  2.37183601e-01 -2.34251708e-01  8.67364407e-02
  1.01553008e-01 -1.18628241e-01 -2.29971603e-01  2.78372932e-02
 -2.24227435e-03 -1.08117878e-01  1.37124643e-01 -1.56767234e-01]
[ 0.23252167  0.25167993  0.22449386 -0.27296656  0.12281999 -0.12523843
  0.00632909 -0.04055934 -0.4238587  -0.18421856  0.02758424 -0.08537593
  0.16370557 -0.3222902  -0.24296771  0.07801408  0.08484093 -0.13873428
  0.25315022 -0.10680877  0.05456765 -0.0449689   0.08626562  0.10378581
  0.7059016   0.08538576  0.21370746 -0.07991985 -0.6227092   0.02974397
  0.19975267  0.23051567 -0.46453965  0.11510217 -0.10253581  0.23721004
  0.3914157   0.28211635  0.10985409  0.14171413]
[-0.08998311  0.196       0.25498345  0.38869926 -0.44238365 -0.03250462
  0.07304378 -0.2804458   0.3771153   0.02492693 -0.5474578  -0.4703504
 -0.16510437 -0.26861995 -0.4589921  -0.29028216  0.32264942 -0.0188146
  0.34601435  0.31286237  0.09379538  0.26578557  0.18011047 -0.76363856
  0.08787309 -0.04361027 -0.11504955  0.24079767  0.07873475 -0.05529815
  0.19024403  0.45179823 -0.27993354  0.08251826  0.43218628 -0.13593623
  0.0533034   0.26412895  0.14661758 -0.3749827 ]
[ 0.33405694 -0.09071931 -0.38423717  0.13025    -0.49554268 -0.19390656
  0.03241411 -0.14621316 -0.17216943 -0.09865221 -0.35905862 -0.05471585
 -0.00709567 -0.47020426 -0.15373808  0.21090458  0.29385686  0.17706956
  0.20431344 -0.07021785  0.16881062  0.09105419 -0.09145042  0.02510463
  0.18393731 -0.03469576  0.16260903 -0.16389021  0.01934679 -0.07875855
 -0.18748906  0.31141323  0.24127853  0.3241918   0.3800079   0.16475639
 -0.05899536 -0.16093852 -0.14509341  0.5093602 ]
[-0.06756852  0.20412078  0.10636871 -0.30309606 -0.0576678  -0.06416869
 -0.0870582   0.00141231  0.2100027  -0.11143956 -0.26718178 -0.31752333
  0.29824495 -0.0309581  -0.22204305 -0.71583605  0.07210647 -0.04508035
  0.07921675  0.19782963 -0.15308326  0.21117182  0.6066207   0.24675286
 -0.2577869  -0.3078193  -0.03539712 -0.03343106 -0.5653111  -0.367959
 -0.35194394 -0.05767778 -0.15754326  0.21389212  0.28224784 -0.19600551
  0.3828881   0.46311158  0.22759074  0.06312378]
[-0.41122508  0.5118581  -0.3573766  -0.3729025   0.25182724  0.17454508
 -0.05951041  0.12702571 -0.35676005 -0.01934957  0.3310248  -0.13936268
  0.19802365  0.02515461  0.0150529   0.10457028  0.2296976  -0.10333485
  0.33137158  0.6897986   0.26471248 -0.34391937 -0.31562448  0.7267699
  0.39223152  0.34546068  0.09747109  0.13955379 -0.25022608  0.07259777
  1.1744204  -0.09269889  0.08549246 -0.11125105  0.0830179  -0.83547395
 -0.00889654  0.14426489 -0.44446656  0.7661756 ]
[-0.2222417   0.23102625 -0.46341404 -0.04921937 -0.06258924 -0.02784986
 -0.5452171   0.01889322 -0.22173648 -0.17649692 -0.01609313 -0.22119695
  0.34579724  0.01265539 -0.1840713  -0.04604661  0.42322913  0.05647864
 -0.33453655 -0.00708613  0.53048056 -0.21404497 -0.04118593  0.07041569
  0.09656419  0.10388114  0.01278336  0.06447677 -0.02833074 -0.1915034
  0.32335484  0.46207362 -0.26954925  0.18978381  0.16118519 -0.11518025
  0.1548592   0.14174724  0.12784798  0.74643147]
[-0.22863202  0.3063646   0.01109416 -0.09588494  0.0127763  -0.01057173
 -0.07296672 -0.12250835  0.12338128  0.07175929  0.0240316   0.12755671
  0.07514389 -0.17858735  0.16065818 -0.3509809   0.01250473  0.10925171
  0.00594086  0.11743173 -0.14590603 -0.24059562 -0.0151048  -0.00659512
  0.56622976  0.398179   -0.09364449  0.23814878 -0.40618318  0.18772344
 -0.3002531   0.18568161 -0.57693434  0.27022558 -0.18645144  0.16897592
  0.13689968  0.18509035  0.40583387 -0.5509991 ]
[ 0.1654497   0.01296928  0.08613203  0.1658939   0.02135937 -0.24411994
 -0.293705   -0.21809706  0.3375801  -0.04517987  0.08653161 -0.08658444
 -0.26369038 -0.17067797 -0.05282171  0.00862972  0.12774025  0.12522204
 -0.00549964  0.4843461   0.26516587 -0.06012592 -0.5758163  -0.3453565
 -0.27213886  0.01065246 -0.18334875 -0.1610791  -0.30712193 -0.05533393
 -0.6622027   0.05911356 -0.13295107  0.47989446 -0.00535119  0.69677377
  0.196828    0.2110006   0.5363422  -0.05560593]
[ 2.0335149e-02  3.2852131e-01  3.4882192e-02  9.0825493e-03
 -3.2783332e-01 -3.4565240e-01 -2.2110336e-01 -2.1730438e-01
  3.0441718e-02  1.4977026e-01 -2.6923752e-01 -6.5891689e-01
  1.9646264e-03 -5.5318046e-01 -5.1973271e-01 -1.2845881e-01
  3.4938017e-01 -4.1804731e-02  3.3280379e-01  5.5335626e-02
 -1.0258859e-01  1.4428452e-01  1.0779493e-01 -2.5851604e-01
  3.3378530e-01  1.0222394e-01 -6.4329535e-02 -8.6502574e-02
  3.9686967e-02 -3.8212255e-02  2.4960166e-01  3.9739379e-01
 -1.2544015e-01  2.1446200e-01  4.8112163e-01 -1.3108616e-01
  2.4025975e-01 -3.3725832e-02 -2.5142911e-01  4.8497459e-06]
layer 3 Activation
tanh
layer 4 Dense
40 20
[-0.13979919  0.04947037 -0.39331385  0.03640601 -0.06233347 -0.09677925
  0.28907588  0.130346    0.28185886 -0.11139084  0.0925208  -0.16887306
  0.15048555 -0.18633825  0.19631353 -0.09634098  0.04662835 -0.00472245
 -0.22902134  0.07766028]
[-0.183016    0.04899355 -0.23936419  0.00454591  0.05601399 -0.14382428
 -0.20695698  0.02990483 -0.01591092 -0.20107973  0.02128017  0.296736
 -0.10939249  0.2156603   0.21213289  0.25763825 -0.1816065  -0.13843377
 -0.2676873  -0.15276478]
[ 0.05824187  0.05815725 -0.24738738 -0.21465254 -0.10810195 -0.19035837
 -0.33782122 -0.58766    -0.26298803 -0.2523373   0.15502383 -0.2138912
  0.31152746 -0.00080064  0.19157144  0.04422903 -0.30257073  0.33753565
 -0.41618407  0.24494123]
[-0.16421515 -0.14952852 -0.14433946 -0.05778762  0.28552777 -0.19308192
  0.33723718  0.08419944 -0.13827233  0.27140722 -0.01106461  0.02956203
 -0.11122076 -0.17431584  0.00129512 -0.00771147  0.08944735 -0.1495133
  0.25382057 -0.128545  ]
[ 0.31003758 -0.06084193  0.2832518   0.1384986  -0.15712844  0.03185732
  0.15040118  0.29983553  0.42074463  0.47907355  0.16564487  0.3417223
  0.42036235  0.2957417   0.07702811 -0.0792565   0.16557379  0.32778305
  0.19550352  0.16527903]
[ 0.40457177 -0.23944207  0.23478991 -0.12485422  0.13110353 -0.18100795
 -0.17577238  0.27865946 -0.02110146  0.16213621 -0.21321166 -0.16560663
  0.4919149   0.2440569  -0.04205039  0.09163925  0.11889172 -0.19519441
  0.00232454  0.20196125]
[-0.1455526   0.03353272  0.2988486   0.00798377  0.06283934 -0.08127907
 -0.08225038  0.19021805 -0.05121526 -0.01565388 -0.1902437  -0.16684932
  0.10678673 -0.26633972 -0.39303032 -0.04333639 -0.14159384 -0.08756506
 -0.18716712  0.08927368]
[ 0.25975072 -0.23783612  0.15261617  0.09767652 -0.24190572 -0.19984558
 -0.23896934  0.2944769  -0.13841334  0.2856685  -0.22553363 -0.03320509
  0.40278986  0.15850204 -0.13095611  0.16516921  0.2703241   0.27443507
  0.25227365 -0.13373758]
[ 0.3326965   0.03248999 -0.22380993  0.22351332 -0.17301713 -0.21161103
 -0.3349504  -0.27401343  0.29459327 -0.32423398  0.04934138 -0.04334619
  0.14817576 -0.35971805  0.23376182  0.18473543 -0.1903061  -0.15006523
 -0.29791152 -0.08819996]
[-0.36669788  0.18079923  0.08162305 -0.10968107 -0.08899587 -0.30652413
  0.0524277   0.00964573  0.01596216 -0.2855893  -0.16309586 -0.2484261
 -0.15303773  0.24758926  0.29176638  0.17046465  0.27416784 -0.08301046
 -0.10275851 -0.11112915]
[ 0.2900853  -0.24854381  0.00471707  0.21797234  0.10282424  0.26928475
  0.31958327  0.45645556 -0.07444366  0.16523671  0.13061504  0.0066474
  0.42762253  0.04064367 -0.39823258 -0.1934499   0.00754871  0.13628705
  0.1375605  -0.12937911]
[ 0.624214   -0.10070449  0.46991944 -0.15357058 -0.03622985 -0.08581913
  0.3040064   0.18012285 -0.11319917  0.41652277  0.10609879 -0.11480286
  0.56700087  0.25290415 -0.4265555   0.01144948 -0.00169581  0.05244111
  0.00133313 -0.1598082 ]
[ 0.17807242 -0.04181506  0.21219844  0.12651116  0.29155126  0.23296751
 -0.00568139 -0.213194   -0.06904808  0.17958738  0.00586023  0.0886418
 -0.13585785  0.43449026  0.28911385 -0.04019418  0.2584434  -0.10849715
 -0.02415715  0.09374145]
[ 0.31718406 -0.2646195   0.00284153 -0.17901123  0.14053567 -0.14751185
  0.19367601  0.19841182  0.13097197  0.42978162 -0.08676115  0.3146503
  0.2744742   0.04231571 -0.13189666  0.14928906  0.08574336 -0.077085
  0.02997168  0.18378171]
[ 0.50300896 -0.23444849  0.24764362 -0.14152229 -0.20718141 -0.04370131
  0.07223856  0.08431324  0.28325036  0.43198907  0.01401155 -0.17692766
  0.3080173   0.13685058 -0.24657458  0.11681425 -0.0769663   0.1782621
  0.07850609 -0.12837279]
[-0.13756461  0.08962782 -0.20101103 -0.3398865   0.15051377  0.06819277
  0.14809684  0.5877255   0.05968293  0.34842858  0.2431639   0.06175625
  0.24754429  0.05731418 -0.45013428  0.03076789  0.13378681 -0.00220461
  0.23366712 -0.00225229]
[-0.14939342  0.40083155 -0.10235479 -0.10657679  0.02733161  0.14041302
 -0.27363938 -0.07742718 -0.10877048 -0.31998116  0.02622745  0.07538442
 -0.39694872  0.03427709  0.3798889   0.4667912  -0.00675453  0.18301763
  0.03036053 -0.1363347 ]
[ 0.08885473  0.203156    0.09261572 -0.02136982  0.17211947 -0.26611242
 -0.20890695  0.04203656  0.1336597   0.21562152  0.13536651 -0.11484186
 -0.24469978 -0.10307892  0.20710345 -0.03864416 -0.13690636 -0.19410507
  0.10542361 -0.23067044]
[-0.31574202 -0.01709031 -0.14300005 -0.08710271  0.03227579  0.21282397
 -0.03936196 -0.19917032 -0.3031836  -0.21581781  0.10403626  0.00706201
  0.01477972  0.15078275  0.02184006  0.03504289  0.05128255 -0.11801633
 -0.15193866  0.07610573]
[-0.20937483  0.02445344  0.0399715  -0.00716243  0.18972275 -0.33414727
 -0.24397609  0.28457305 -0.16003366 -0.00900041 -0.3341257   0.07356905
 -0.22021021 -0.42034924 -0.05639547  0.03653459 -0.263123    0.0359763
 -0.19111833  0.11024674]
[-0.10681894  0.0485374   0.059089    0.14997762  0.10406482  0.20158595
 -0.06407797  0.27711642 -0.01396219  0.04699944 -0.05209467  0.2271766
 -0.36682257 -0.06142984  0.20651712 -0.27624935 -0.21586016 -0.24446921
 -0.29797322 -0.17250456]
[-0.01318248 -0.2371376  -0.4097851  -0.11691356 -0.4120724   0.27809697
  0.03429575 -0.11414189  0.01060544 -0.12462429  0.06528011 -0.27417564
 -0.26404202 -0.08660074 -0.23177874  0.16910079 -0.10180173  0.00776375
 -0.16343617  0.25107062]
[-0.2219687   0.14445953  0.11972426  0.46292472  0.12003505  0.31878382
  0.29563087 -0.36387476 -0.31980816 -0.00206173 -0.02560525 -0.19408226
 -0.17742918  0.46472985  0.04938692 -0.08778775  0.29904097 -0.1569115
  0.13170803  0.14009283]
[ 0.3096416  -0.01377094  0.41491964 -0.06726283  0.10391311  0.00221885
 -0.04426148  0.00836771 -0.10839149  0.11708324 -0.1805805  -0.23928575
  0.3784509   0.39050722  0.4262195   0.13039492 -0.18582574 -0.04895318
 -0.1217173   0.13113117]
[-0.20029527  0.229487   -0.17044239 -0.09780094 -0.30634418  0.16364908
 -0.04820027  0.13942821  0.14502615 -0.55601484 -0.22932     0.24143673
 -0.16224279  0.3599363   0.16308214  0.2579304   0.00069268  0.3498363
  0.367135   -0.0178322 ]
[-0.35433292 -0.25634995 -0.02035755 -0.1290231  -0.1851115   0.16223896
 -0.03430314  0.53804684  0.28057408 -0.2730965   0.23923466  0.31777894
 -0.17225102 -0.13799687 -0.09636854  0.24573329  0.08597776  0.35075614
  0.6579361   0.0619327 ]
[ 0.18778436 -0.09042517  0.00580778  0.13748412  0.0383049  -0.18748653
  0.21164814  0.16637866 -0.39118162 -0.05823475  0.07500227 -0.02834068
 -0.06842269  0.05019641 -0.17127368 -0.08419585  0.01105233  0.06941592
 -0.10463329  0.14879093]
[-0.07794236 -0.27366143 -0.00801881 -0.00977484  0.01184653  0.15810682
 -0.01138214  0.0077407  -0.15183735 -0.00717681 -0.08774025  0.17738882
  0.23102912 -0.11869261  0.01736865  0.17584452 -0.42929748  0.15474099
 -0.28456482 -0.14492649]
[-0.11153182 -0.2187411   0.11141114  0.0343857  -0.13319293  0.35447028
  0.38295043  0.07533167 -0.22165416  0.36149052  0.24335714 -0.2755417
  0.08402216 -0.15677887  0.19435547 -0.27265498  0.4279515  -0.31201512
  0.41236728 -0.03192248]
[ 0.25558785 -0.16867827 -0.30713725 -0.09749662 -0.09531966 -0.08945487
 -0.03595738 -0.06694367 -0.10565338  0.1443988  -0.11883774 -0.01710751
  0.44286624 -0.31414378 -0.04165155  0.05507096 -0.38720724 -0.1152361
  0.1590367  -0.33502203]
[-0.23211098 -0.14907685 -0.3433145  -0.21705815 -0.18284513  0.13240318
 -0.39549175  0.09351891 -0.36257738 -0.34631038 -0.23014887 -0.16284835
 -0.1992664  -0.02017614 -0.21602371 -0.04152725 -0.23588125 -0.1774627
  0.41340768  0.03348844]
[-0.46244493  0.04390952 -0.41535252  0.29652536  0.24035236 -0.14616631
 -0.28620315 -0.10594177 -0.29906976 -0.3939837   0.1759986   0.0302889
 -0.1467271  -0.4690785  -0.24257067 -0.01933565  0.2783252   0.09475857
  0.22715922  0.12155161]
[-7.69525766e-02  1.06766962e-01 -1.05665676e-01 -3.15705169e-04
 -7.17413351e-02  1.06256165e-01 -1.31132826e-01  2.90679753e-01
 -4.33168203e-01  1.08053535e-01  6.56424612e-02 -1.94091290e-01
  9.27859843e-02 -4.83571202e-01  4.95961942e-02 -2.90239424e-01
  3.57650727e-01  2.07871152e-03 -9.96375903e-02  1.85822099e-01]
[-0.3649725   0.249819    0.05045362 -0.00547875 -0.17907682 -0.2600702
  0.19364664  0.3357917  -0.09921063 -0.36941102  0.19104928  0.1730192
 -0.366966   -0.04203086  0.3344739   0.17428955 -0.33406216  0.03497641
 -0.07322654  0.12716945]
[-0.38008007 -0.01180663 -0.3196625   0.06886912  0.07990527  0.03415328
 -0.30164894 -0.06093157 -0.07356564  0.00404275  0.10655598  0.22243279
 -0.35157788 -0.17130716  0.2737554  -0.0470467   0.30961663 -0.2996933
 -0.19593428  0.08454208]
[ 0.26549792  0.05410931  0.03980582 -0.35734117  0.22033045  0.10144661
  0.28211486  0.21960492  0.1948845  -0.23378581 -0.12993465 -0.15038769
 -0.05413073 -0.33697534  0.03668622  0.00312992 -0.24663924 -0.08881595
  0.17654742  0.10988683]
[-0.38901815  0.39129895 -0.08498798  0.08571766 -0.1030452  -0.33621567
 -0.31095502 -0.02134592  0.18905476 -0.442886    0.08388357 -0.11341912
 -0.06693909  0.02203837  0.28958935 -0.2372695  -0.38229954  0.3119407
 -0.34078717  0.18605039]
[ 0.0149914  -0.07780109  0.01800654  0.08742735 -0.16999543 -0.2296473
 -0.20453419 -0.17773557 -0.31452623  0.13290723  0.13179001  0.17255013
 -0.06477665  0.09766095 -0.34669003  0.18777221 -0.02297937 -0.32816342
 -0.31591102 -0.07177018]
[ 0.13440837 -0.01721696  0.11879417 -0.18038371 -0.09464961 -0.40863752
  0.33246484  0.00382614  0.20380107 -0.16765888  0.18506931 -0.06329292
  0.06454935 -0.162818   -0.23794757 -0.25811565 -0.27052882 -0.05617717
 -0.15150383 -0.07282273]
[-0.24774596  0.2001624   0.07141436  0.288396    0.07654184 -0.02150572
 -0.35617143  0.4209373  -0.11802823 -0.1533496   0.05490974 -0.20968343
 -0.01892805  0.1990605   0.19274211  0.07851855  0.01573892 -0.23714337
  0.01978442  0.01463353]
[-0.4510868  -0.01766939 -0.05396545 -0.03898458 -0.06185113  0.06433096
 -0.13626064 -0.00201532 -0.0722438  -0.28152782  0.05338728  0.05057387
 -0.29111823 -0.02392074 -0.01082818 -0.00479775  0.12892394 -0.0453702
  0.09190469 -0.04818586]
layer 5 Activation
tanh
layer 6 Dense
20 1
[-0.32219583]
[-0.27400798]
[0.16382073]
[0.03090369]
[-0.00419192]
[0.01552298]
[-0.09537009]
[0.22413518]
[0.01450873]
[-0.22454427]
[-0.02270197]
[0.00994154]
[-0.25248793]
[0.15953228]
[-0.13415731]
[0.01748477]
[-0.00381021]
[0.00318444]
[0.06519742]
[0.03145213]
[0.03982224]
