layers 7
layer 0 Dense
20 20
[ 0.0067813  -0.07596945  0.0448667   0.18725866 -0.02041747  0.39825916
  0.04825153 -0.01732449 -0.01832057  0.04751161  0.23987125 -0.30548695
 -0.6065883   0.05250859 -0.12898377  0.12950447 -0.20830214  0.31293705
  0.10100555  0.23753104]
[ 0.08669166 -0.43933782 -0.73555887 -0.23168151 -0.81166625  0.34109855
 -0.14095093  0.0456452   0.26987612 -0.7118495   0.2651285   0.46213105
  0.16856173  0.43994063 -0.5755817  -0.09761382  0.14597118 -0.02496338
  0.03217227 -0.27272874]
[ 0.15146708 -0.46919018 -0.84277624 -0.49680665 -0.3650643  -0.03090153
 -0.40665665  0.13117135 -0.01625004 -0.41108978  0.03958951  0.31938416
 -0.21471296 -0.09205864 -0.01236555  0.02804467  0.21421324  0.30722672
  0.14889172 -0.2463216 ]
[-0.00545225  0.08909573 -0.18394652 -0.16288882  0.1807724   0.06767821
  0.25987238 -0.20839009  0.04622086  0.15703924  0.1794442  -0.04364427
 -0.5045132   0.08943856  0.02148663 -0.40807503  0.23543909  0.0112379
 -0.08861359  0.36531627]
[ 0.34122205 -0.3563715  -0.05616477 -0.0513287  -0.01070586  0.21704178
  0.09215394  0.53080595 -0.35810512  0.15191185 -0.0295918   0.44791272
  0.01849989  0.00800794 -0.00064592 -0.3849759   0.2400065   0.4348314
  0.00722384 -0.00114563]
[-0.26197225 -0.13820766  0.9985912   0.06172215  0.370288    0.01499192
  0.46370178 -0.14449814 -0.18722256  0.85539585  0.02589053 -0.10914932
 -0.29685453 -0.2638734  -0.09351984 -0.81147605 -0.2817548  -0.07146643
  0.08820621 -0.02946064]
[-0.17151819  0.03895523  0.3222787   0.6814305   0.54955214 -0.27064338
  0.34442008  0.10062749 -0.45194754  0.45493588 -0.06422021 -0.4537193
  0.3112298   0.00605807  0.26483542 -0.28794158 -0.15488999 -0.37485257
 -0.221407    0.61188954]
[-0.19442862  0.42457289  0.18187869  0.06015787 -0.03012469 -0.09219051
  0.39563414 -0.40589464 -0.09567163 -0.3103051  -0.49346593 -0.435133
 -0.08472861 -0.11800888 -0.01260086  0.3806315   0.10608461 -0.09343423
  0.06294565  0.28832674]
[ 0.39083827 -0.32001385 -0.3745207  -0.24784334 -0.39667666 -0.2667514
 -0.5412572   0.33276895 -0.13624103 -0.301442    0.2856823  -0.397019
 -0.20730051 -0.14497495  0.03955305 -0.28868648 -0.32468197 -0.16042788
  0.45862     0.12849496]
[ 0.32346553 -0.501724   -0.22831385 -0.26161623  0.270829    0.0443912
  0.26197618  0.13098572 -0.28345904  0.4077496   0.3183717   0.3845907
 -0.37793866 -0.21201277  0.22872262  0.06868358  0.07660189  0.16396496
  0.16877541 -0.46478918]
[ 0.04176091  0.00986789  0.4449201  -0.3327538   0.04793147  0.15963317
  0.4352251   0.24527629 -0.03075885  0.03719754  0.24080922  0.27271757
 -0.19194415 -0.36465925 -0.14574084 -0.0592909   0.42405623  0.48013508
  0.26846388 -0.39274517]
[ 0.00755373  0.04471684 -0.47304922  0.20442729 -0.2873575  -0.41969267
 -0.6786019  -0.22673932 -0.36852694 -1.0727844   0.63901436 -0.40848634
 -0.6399339  -0.5256377  -0.00534947 -0.29509348  0.06653491  0.20199624
  1.0060385   0.7593576 ]
[-0.18050337 -0.13250996  0.6187121  -0.19527574  0.28719     0.21318312
  0.4284919   0.16741863  0.488464    0.47700366 -0.48798144  0.28818908
 -0.09798919  0.26704207 -0.06842609  0.40235722  0.25559616 -0.16712704
 -0.5375626   0.02781729]
[-0.2919862   0.26567596 -0.31968465 -0.01415333  0.37149116 -0.23852706
 -0.32422167  0.430986   -0.3000773  -0.10321168 -0.08164996  0.06997686
 -0.18884459 -0.17933194 -0.36992508  0.43251252  0.48433572 -0.30071613
 -0.20047814  0.13763636]
[ 0.01482571  0.27396163 -0.45050982 -0.23619017 -0.3556171   0.03604495
 -0.14404969 -0.18058652 -0.19280627  0.00532308 -0.1780432  -0.06694762
  0.208049    0.1405524  -0.10059498 -0.11020532 -0.5683722  -0.6612891
 -0.03115325  0.3404504 ]
[-0.05334152  0.32115608  0.27838457 -0.27967378 -0.3077893   0.08242587
  0.7415733  -0.4159891  -0.05517527  0.0117609  -0.57177424  0.35103536
  0.15003598 -0.2587333   0.23104098 -0.14387955 -0.31716302 -0.08973172
  0.26431638  0.77893883]
[-0.39707354  0.21253811  0.24442573  0.20199613  0.11093286  0.22037725
  0.10709111 -0.2978322   0.31562534  0.5247982   0.44362167  0.21215153
 -0.14326951 -0.13814701  0.237791    0.18295528  0.12571451  0.44334394
 -0.09487697 -0.42861027]
[-0.20104443  0.2580679   0.07577893  0.11877111 -0.7708674  -0.0875373
 -0.22937429  0.09326217 -0.24971642 -0.11934216 -0.2263144  -0.255391
  0.6411791  -0.33011252 -0.17139366  0.02297655 -0.45878044 -0.13441814
  0.17139319  0.40695915]
[ 0.12652381 -0.18498097  0.12404912  0.3356747   0.09241837  0.22448602
  0.08081167 -0.13096261 -0.19285047 -0.22232758 -0.28665617  0.19063595
  0.07704514 -0.4231059   0.08724385  0.16806343  0.02337771  0.3996211
  0.10949533 -0.07296681]
[-0.59202474  0.48083293  0.42365584  0.16116169  0.5562785  -0.4483213
 -0.01896776 -0.2719233   0.14789957 -0.05178493  0.15060218  0.0088477
  0.03188891  0.52477014  0.10444738 -0.01417278  0.00578469 -0.01140709
 -0.24764171 -0.66130286]
[ 2.96321642e-02 -8.19967538e-02 -1.38909504e-01 -7.69763291e-02
 -9.91857611e-03  1.36961922e-01 -4.35091890e-02 -2.57289521e-02
 -6.01992793e-02 -9.44312960e-02  1.47294728e-02  4.14790120e-03
 -6.02656081e-02 -6.24882942e-03  7.53920665e-03 -1.03913605e-01
 -1.13540910e-01  1.59097672e-01  2.51339912e-01 -1.95833447e-04]
layer 1 Activation
tanh
layer 2 Dense
20 40
[-0.00199045  0.21383701  0.23918082 -0.4600947   0.21145436  0.33568558
  0.18201225  0.09473839 -0.10990466  0.2907418   0.08757555  0.24670978
  0.03825581 -0.28568363 -0.4770247  -0.1329428   0.3074658  -0.11036493
  0.15954126 -0.05695272 -0.01811073 -0.09921145 -0.35230777  0.27230066
 -0.12683585 -0.00661289 -0.10149641 -0.06315378 -0.14956047  0.2953479
  0.16421829 -0.13053575 -0.16478178 -0.24183518  0.32689956  0.1328627
 -0.20910919 -0.17272264 -0.16103135 -0.13727619]
[ 0.08173878 -0.17200491 -0.15664005  0.2741105   0.14156783 -0.36340728
  0.12586902 -0.31716788 -0.19213156 -0.11721185 -0.25869063  0.1619871
 -0.13300304 -0.01082621  0.05018264 -0.26758906 -0.15509042 -0.12370949
  0.16185391  0.25286976  0.13360927 -0.3223784   0.2153898   0.19909045
  0.22366026  0.19202358  0.0712479  -0.1902762   0.03071724 -0.13445957
 -0.10503514  0.13234171  0.13745216  0.2957631  -0.2942826   0.2613716
  0.09884702  0.24598642  0.08266765  0.18144561]
[-0.10196921 -0.23033455  0.14296477 -0.11925586  0.18719257 -0.41279888
  0.03913285  0.58215714 -0.3219327   0.00506212  0.26196817  0.21425097
 -0.24761856 -0.26443523 -0.14741413  0.10197885 -0.43856442  0.03993052
  0.11582913  0.10028568 -0.13206361 -0.05698258 -0.29563233  0.27910104
  0.30684304  0.32364336 -0.3694329   0.3289779   0.16007245  0.18988462
 -0.29056114 -0.07910223  0.12597571  0.11959046  0.20239738  0.0036004
  0.24980278 -0.23954682  0.07359993  0.23786095]
[-0.03075424 -0.06741215 -0.3153225   0.10122233  0.01837973 -0.08054414
 -0.11552361 -0.2095733   0.29241893  0.1148959  -0.12492453 -0.16102412
 -0.23570532  0.03056848 -0.11678405  0.24715593  0.06758416  0.04408486
 -0.2745235  -0.11782596 -0.02416479  0.01806715 -0.30506265  0.10341986
 -0.11088665 -0.12707438 -0.16552818 -0.08472345  0.20701437 -0.24338974
  0.08798567 -0.11340877  0.09761401  0.37366652  0.14035441 -0.12923107
 -0.04291932 -0.03838601 -0.18684758  0.19100216]
[ 4.3063001e-03  7.1806014e-02  1.5193854e-01 -6.4822361e-02
 -2.5944570e-01 -1.8570162e-01 -1.6340014e-01 -3.7136070e-02
 -2.8785825e-01  5.5509530e-02  3.4774244e-01  1.2708753e-01
 -1.4053860e-01 -2.2104149e-01 -2.5945419e-01  9.0074100e-02
 -3.4414363e-01  3.7615123e-01  1.9124489e-01  1.8041943e-01
  2.8839508e-01 -4.9655586e-02 -4.9214638e-03 -5.3033024e-02
 -1.4643395e-01  3.7768051e-01 -4.8698250e-02  2.8846863e-01
 -9.6831791e-02 -5.2438471e-02 -2.4849926e-01 -2.2819622e-01
  3.7876025e-02  4.6262879e-02  7.3640116e-02 -1.2698494e-01
  1.6387814e-01  3.3560404e-04  2.3706932e-02  3.4471944e-02]
[ 0.01904401 -0.12898214  0.1361094   0.10055528  0.03532651  0.02444891
  0.13113043  0.36880934  0.2512308  -0.16929993  0.258059    0.17604752
 -0.0652099   0.01106559 -0.03120477 -0.1135608  -0.33319706  0.20401715
  0.44476315 -0.29801008 -0.22542578  0.06421608 -0.41735327  0.01883654
 -0.05370676 -0.15055405  0.00506975  0.2573624   0.12740482 -0.22987132
 -0.15009642  0.20640849  0.08084235 -0.35261932  0.31429714  0.24286102
  0.21388163 -0.14087868  0.1991866   0.06040757]
[ 3.95466611e-02  1.64979547e-02 -3.01273704e-01  1.37937352e-01
 -2.61429846e-01 -3.45744967e-01 -9.61029083e-02  1.68921113e-01
 -2.58049071e-01 -1.34732291e-01 -2.16742158e-01 -9.01414827e-02
  2.93878317e-01 -2.31684282e-01 -9.09992307e-02 -1.68914080e-01
 -1.13552712e-01  2.66930401e-01  4.43993241e-01 -2.12310135e-01
 -1.12051703e-01  5.61586879e-02 -1.18375607e-01 -2.29084462e-01
  5.87653778e-02 -3.00608784e-01  1.85976326e-01  1.15200154e-01
 -3.29051375e-01  9.58908424e-02  1.72364563e-01  1.43863648e-01
 -8.09423104e-02  1.21908866e-01 -1.43572048e-04  1.06806450e-01
 -2.95694262e-01 -1.60033733e-01 -3.59408408e-02 -2.11196005e-01]
[ 0.22756256  0.3181926   0.38797587 -0.31924456 -0.0691944   0.25026625
 -0.14323227 -0.12589742 -0.07727151  0.02680357 -0.15744437 -0.17397875
  0.38414672 -0.00871043 -0.13841347 -0.1360547   0.20508936 -0.20152439
  0.07215868  0.01076926  0.04778497  0.18068174 -0.0794727   0.20542923
  0.19577852 -0.28184718  0.3537358   0.0835251  -0.23721904 -0.12219195
 -0.01454434  0.072579    0.25044358  0.05453683  0.33251745  0.23434381
  0.17859074 -0.13655505  0.0339895   0.12179706]
[-0.04249373  0.10517697 -0.09105173 -0.06610321  0.06336822 -0.340677
 -0.23126638  0.10075048  0.1085523  -0.08126461 -0.07707465 -0.09011563
 -0.05481562 -0.27521363  0.08864089  0.08045183 -0.1548694   0.05884117
 -0.2663068  -0.07533904  0.17420769  0.08629538  0.06878345 -0.1024631
  0.10366923 -0.17722753 -0.27276853  0.0136719  -0.30278492 -0.27238083
 -0.17532605 -0.30094332 -0.08784088 -0.15153089 -0.24520251  0.09568721
 -0.15241772  0.24723129  0.06037208 -0.20058662]
[-0.13866375  0.29153898  0.11048341 -0.187344   -0.12469297 -0.00473543
  0.09125423  0.39922488  0.21395144 -0.005563    0.02137361 -0.26147342
  0.2813722  -0.33914712  0.04182928 -0.0645832  -0.01918959  0.1277919
  0.07014453  0.09087963 -0.11518075 -0.07191681  0.05713624  0.01390756
  0.2947086   0.24852961 -0.14325818  0.28869578 -0.22633013 -0.18049176
  0.07056252  0.28946325  0.32163486 -0.22766137  0.21351135  0.18238465
 -0.30205274 -0.01495402  0.10513615 -0.04277765]
[ 0.30432805 -0.20226319 -0.26132295 -0.23886673  0.20874356  0.4730616
  0.26478297  0.26997814  0.07246759 -0.05655156  0.06800541  0.1320169
  0.19387387 -0.18010521 -0.2752859   0.31353194  0.23637678 -0.336296
  0.12619866 -0.45822343 -0.07201837  0.22450612 -0.38811362  0.1987168
 -0.03921252 -0.04681893  0.16583607  0.28324124  0.195813   -0.11996886
  0.19463947 -0.00143695  0.14324461 -0.01909718 -0.0903184   0.10948183
  0.0710773  -0.12528095 -0.16215965  0.01945223]
[-0.20484115 -0.24926665  0.12032131 -0.34919912  0.47509253 -0.27052477
  0.17333943  0.31935915 -0.13091905 -0.36338848  0.09876649  0.23335281
  0.30878997 -0.21707734 -0.39640304  0.35830507 -0.01673754  0.3696266
  0.43312207 -0.01229896 -0.03434556  0.04223489 -0.24401218  0.19131888
  0.37468535 -0.2577576   0.0936254  -0.30479974 -0.07178388  0.28484133
  0.257      -0.14561222  0.03250059 -0.05818139 -0.02844725  0.35794848
  0.4258935  -0.08065695  0.07506272  0.0229672 ]
[-0.14304085  0.2575117  -0.00918191  0.05780719  0.02555764 -0.1208958
  0.08950062  0.20171404 -0.14430377 -0.1439082   0.0006793  -0.12667662
  0.12379492  0.18133411  0.05557019 -0.07132767 -0.09759069  0.17732519
 -0.005863   -0.3317784   0.18242149 -0.2627072   0.36754376  0.32808504
 -0.33771783  0.3229049  -0.16406728  0.25077817 -0.2698824   0.12405899
  0.04315698 -0.11844599  0.21252714 -0.15535855 -0.00261125  0.21848878
 -0.03913461  0.24674618 -0.32359424 -0.09111637]
[-0.02747911 -0.25055066  0.12891601  0.32439566  0.03479615  0.16569364
  0.06083846  0.21204704  0.02882706  0.10720094  0.2208968  -0.08877745
  0.02318497 -0.2955774   0.14654385 -0.24171554 -0.52793705  0.35368252
 -0.29442215 -0.4212285   0.1746236  -0.00144373  0.5343693  -0.01809082
 -0.21282719  0.00330199  0.17534827  0.07897072 -0.21782587 -0.20579313
 -0.08144882 -0.00689362  0.227538    0.01283969 -0.03292162  0.22349107
  0.04994192  0.22512914 -0.09831868 -0.3172192 ]
[ 0.30053118 -0.31122485  0.00982712 -0.4919159   0.01597421 -0.00367905
 -0.3603836   0.08264562 -0.30852658 -0.14855699 -0.1042941   0.07360165
  0.11496702 -0.20185721 -0.12810293 -0.02552291 -0.15742706  0.23761895
 -0.17150438 -0.01562706 -0.12063047  0.16793568 -0.18703061 -0.10414407
  0.16188489  0.285047    0.21559674  0.14276466  0.01331552  0.04055018
  0.06570826 -0.13312586  0.13546918 -0.06839837  0.12157714 -0.08292754
 -0.01768327 -0.17250326  0.32623836 -0.04092715]
[-0.349974   -0.26871642 -0.38000637  0.03691816  0.10699605 -0.078558
 -0.03129447  0.1329365  -0.40282178 -0.10181855  0.15705831 -0.20154169
  0.24067065  0.03748649 -0.0709915   0.09658559 -0.5253426   0.10396817
  0.09663828  0.4228788   0.35519624  0.22147438 -0.18101156 -0.03017724
  0.05047584  0.12387139  0.11819513  0.30073193  0.2683099  -0.15744558
  0.13952951  0.13348368 -0.04596275  0.45321378  0.19200975 -0.0267085
  0.11568005 -0.01582439 -0.02729916 -0.12411842]
[-0.2596926  -0.13780585 -0.1057396  -0.33593753  0.09830569 -0.1534517
  0.05202919  0.3077285   0.16762134 -0.18832472  0.05546144  0.17565286
  0.35450464 -0.00535227 -0.09657699  0.02856622  0.1956501   0.15391606
  0.08580995 -0.21615633  0.4079606  -0.20610322 -0.10299733  0.05152347
 -0.09977401  0.05187652 -0.16758253  0.0699974  -0.06207253  0.13155437
 -0.21455787  0.12074381 -0.3715677   0.31329784  0.15303329  0.0312004
 -0.12477644  0.08061188  0.08034121  0.2642811 ]
[-0.06762911 -0.11381085 -0.13889688 -0.3151345  -0.20789453  0.1021271
 -0.17638917  0.3675432   0.11235191 -0.19763903 -0.21698017 -0.28881103
 -0.01254768 -0.34162608  0.21054062 -0.2661214  -0.1137676   0.13232169
  0.07830361 -0.22635315 -0.13385734  0.06043206 -0.24986504  0.13335815
 -0.13798486  0.03455768 -0.01634182 -0.1837534  -0.2064961   0.21141714
 -0.04389684  0.16659221  0.13064003  0.03992943  0.20438316 -0.2810553
  0.16047138 -0.36728886  0.04352766  0.17694232]
[-0.0984529   0.12747838 -0.17130086  0.30044582  0.225862   -0.07901986
  0.02793644  0.16894579  0.28653318  0.2851482  -0.23861046 -0.06750415
 -0.19389242  0.01437422 -0.27093852 -0.07943392  0.32907313 -0.25614542
  0.04939711  0.0594528   0.14346164 -0.04454975 -0.0938892  -0.25750163
 -0.13231194 -0.20235378  0.07642625 -0.10427117 -0.08527389  0.06499892
 -0.03334916  0.05931836 -0.12612106 -0.26144835  0.06367341  0.17244273
 -0.3320404   0.05667233 -0.10383877 -0.02504741]
[-0.07548472  0.36220342  0.08071849  0.16155386  0.15792114 -0.04458385
 -0.02786429  0.03311214 -0.2701274  -0.11981216 -0.04142653  0.24991532
  0.29099706 -0.12346692 -0.25421134  0.16041298  0.36189437 -0.42058828
 -0.2274855   0.11568154  0.20450005  0.29201788 -0.3043058  -0.02976929
 -0.090113   -0.02109348 -0.13070185 -0.1906565   0.02694686 -0.0133301
  0.09082378  0.21347104  0.0015461  -0.03985139  0.0083583  -0.1632581
 -0.07976802 -0.0487314   0.1836294  -0.02206871]
[ 0.01806502  0.10730498  0.02581871  0.09287575  0.07953112  0.07095509
 -0.0148031   0.11342115  0.0424001   0.13220283 -0.04876719  0.04924073
 -0.08874076  0.07736915  0.00946291 -0.01507411  0.13464189  0.01511191
  0.0456127  -0.15424441 -0.16687228 -0.01473374  0.09460479  0.03385738
 -0.01759751 -0.08085272  0.00902812  0.02782583 -0.02991801  0.05278945
  0.01690055  0.02334562  0.05430993 -0.04914413  0.02417402  0.05154059
 -0.02986266  0.03887771 -0.0218736  -0.02214568]
layer 3 Activation
tanh
layer 4 Dense
40 20
[-0.13538252  0.08911581 -0.02630093 -0.18999258  0.20900105 -0.28373927
  0.13026431 -0.40820774  0.2382313   0.18088318  0.03789528  0.17424212
  0.01995335  0.02116735 -0.10279272 -0.13380574 -0.13603051  0.26088554
  0.31332386  0.05314135]
[ 0.10291995 -0.06363394  0.1951121   0.07909007 -0.19549148  0.03821836
  0.02573703 -0.21853994  0.16677274 -0.32714376  0.0343688   0.12135655
  0.13418733  0.21529983  0.04843708 -0.13882262 -0.09738997 -0.36115822
  0.29117772  0.3149667 ]
[ 0.20410436 -0.19760707 -0.00408945  0.30603695  0.1054829  -0.06094667
 -0.00085762 -0.22000536  0.27487355 -0.16690503 -0.1074202   0.07291605
  0.33301687 -0.21832985  0.28161287 -0.17837965  0.07138363 -0.19647337
  0.33417258 -0.16224247]
[-0.11343887  0.2948373  -0.08574813 -0.22075722 -0.1814418  -0.25013095
  0.24376185 -0.00418577  0.14199185 -0.38656193 -0.16138949 -0.05351891
 -0.42008087  0.09671903 -0.31316093  0.13193372  0.06486095 -0.21189566
 -0.13863973  0.2850738 ]
[ 0.04970074  0.1751617  -0.17749692 -0.096219   -0.02551286 -0.2539689
  0.24272011  0.05590917 -0.20888379 -0.03138895  0.17713226  0.08324337
  0.24509113  0.03757848  0.12655503 -0.18234786 -0.15177162  0.04322373
  0.29114217  0.16994356]
[-0.13413166 -0.01078987 -0.29097715  0.13986827 -0.12220562  0.0976471
 -0.30991706 -0.38163754  0.2454511   0.19291298  0.03470383  0.2908435
  0.31626093 -0.02066061 -0.15240315  0.15818463  0.07228737  0.20553525
  0.36437595  0.0335195 ]
[-0.18313363 -0.42846236  0.1566357  -0.16655773 -0.18349679  0.37483245
  0.20920154  0.11852378  0.18076959  0.00927316 -0.20651175  0.205241
  0.12122986 -0.15789163 -0.1453309   0.3205098   0.12031849 -0.14831251
  0.1411554   0.25077102]
[-0.30481923  0.15683238 -0.22638354 -0.06707726  0.36254615  0.11209702
  0.27067897  0.14400163 -0.40857044  0.03197286 -0.07734339 -0.03330629
 -0.08688468 -0.28449017 -0.14200898  0.2621577  -0.23121242  0.00847273
 -0.3052411  -0.1884534 ]
[ 0.18170913 -0.30232385  0.11549553 -0.04712366  0.09582055  0.19623092
  0.2535097  -0.22619656  0.11976525  0.04789383 -0.21592823  0.08120847
  0.3085852   0.01242007 -0.14953807 -0.18475713  0.35945037  0.29438272
 -0.01214124 -0.12146086]
[ 1.5040833e-01  1.5446931e-01  3.9681494e-05 -1.0293787e-01
  2.0196233e-02  2.6818600e-01  1.7493029e-01 -2.7275291e-01
 -5.2534025e-02 -8.2805865e-02  6.2987573e-02 -2.7356249e-01
 -2.1928991e-01 -2.3367305e-01 -8.1002742e-02  1.0735521e-02
  2.0707096e-03  1.7694210e-01  1.5512632e-01  2.3191099e-01]
[ 0.0607507  -0.11788426 -0.127293    0.13501072  0.27723506 -0.15017867
 -0.19077253  0.31665954  0.2542134   0.21644144  0.19091733 -0.26107764
  0.2491986   0.15509197 -0.18402712 -0.28585184 -0.3297759   0.02588641
 -0.10121445  0.01320003]
[-0.03923106  0.11027926 -0.1759358   0.00355527  0.0812965   0.22598107
  0.20843501 -0.03005798 -0.262187    0.01500064 -0.18174791  0.07502671
 -0.13182472 -0.24730718  0.00805306  0.08805288 -0.08244282 -0.10939362
  0.04045842  0.22564605]
[ 0.06792427  0.01455765  0.16535547 -0.29780594  0.01481366 -0.25517738
  0.26284423 -0.0894767   0.26653102 -0.13863619  0.0323055  -0.15794136
  0.32233176  0.29575813 -0.10787795 -0.15057896  0.23158273 -0.30788288
 -0.2610643   0.030121  ]
[ 0.2695893  -0.14011258  0.00588486 -0.33515084 -0.36871928  0.13420986
  0.21099748 -0.12346925 -0.22591415 -0.27078924  0.22594216 -0.06771261
 -0.09845176 -0.16555434  0.26187605  0.01135809  0.20598136  0.08242167
  0.28997198  0.05448206]
[ 0.03477988  0.24013138 -0.2779377  -0.03548087 -0.08937919 -0.1642397
  0.07280393  0.32867685  0.24068978 -0.34531757 -0.04409055  0.20140389
  0.18342495 -0.1574615  -0.28608578 -0.14496869  0.05580437  0.08715624
 -0.12256797  0.17952575]
[ 3.2376807e-02 -1.3919458e-01 -9.7324289e-03  1.6497405e-01
  8.5106352e-05 -1.4290076e-01 -1.8307737e-01  1.0963823e-01
  1.7610427e-02  1.4669438e-01  1.6661564e-01  1.4186729e-01
  4.2461395e-01 -2.2413553e-01  1.6897874e-01 -1.2509714e-01
 -2.6697540e-01  1.3151705e-01  6.4710714e-02 -3.4531172e-02]
[ 0.12473253 -0.05201972 -0.0363837  -0.18161198  0.11881779  0.25868118
  0.302095   -0.41813612 -0.10350854 -0.08454312 -0.16650838 -0.05523984
  0.13937713 -0.05300665  0.02095505  0.18617892  0.07240868  0.05534451
  0.07581567 -0.17461482]
[-0.3599671   0.15223503  0.05284851 -0.202155    0.33759212  0.15976572
  0.01932659  0.03490506  0.14972968 -0.13972385  0.10568763  0.21006066
 -0.07552568  0.0398379   0.3060334  -0.19223972  0.23515414 -0.22290541
 -0.10877848 -0.17759183]
[-0.30512714 -0.07040396 -0.1471915  -0.21125408 -0.1051125  -0.21839562
  0.3038465   0.1462238  -0.37872875  0.09865296 -0.26468074  0.16022533
 -0.0820621   0.05981066  0.22961773  0.15425532 -0.2571086  -0.28526923
 -0.21899973  0.09457204]
[ 0.32740757  0.26704738 -0.02627608 -0.17857623 -0.20347239  0.10686031
  0.18812242 -0.07692256  0.3721339  -0.1068455  -0.36036614  0.31451806
 -0.33321896  0.1875203   0.04176384  0.24971287 -0.07099526 -0.09898093
 -0.14374116 -0.09053065]
[ 0.07345257  0.00112493  0.09853153 -0.22330862 -0.30864754 -0.25296348
  0.09915259  0.15712349  0.24995092 -0.2796044   0.1497594  -0.01494699
  0.35119542 -0.33980718  0.02810131 -0.07573151 -0.25949472  0.09790095
 -0.22972654 -0.19819611]
[-0.11662843  0.2589491  -0.18287805 -0.1197339  -0.26558894  0.2229363
  0.06475206 -0.10286934  0.28173146  0.25973102 -0.10930596 -0.18038134
 -0.25546926  0.23626773  0.23430893  0.18388599  0.09305248 -0.25426292
  0.21402441  0.03796297]
[ 2.81757057e-01  2.14900285e-01 -2.66469389e-01 -2.96903551e-01
  1.15593724e-01 -9.03052762e-02 -2.83348024e-01  3.36653352e-01
  2.05061793e-01 -3.96537185e-01  1.34675026e-01 -1.43143103e-01
  1.03576273e-01  3.03615868e-01 -3.59055042e-01  1.49037376e-01
 -2.29878470e-01  7.71160267e-05  3.65692198e-01  2.91596621e-01]
[ 0.1060617   0.26775533 -0.23161322  0.19959433  0.15097979 -0.02874793
  0.07880056  0.17020427 -0.25934175 -0.21638334 -0.3060608  -0.05668437
  0.4146236   0.24654824  0.14300798 -0.05741242  0.12965144 -0.05823119
  0.2541877   0.04929022]
[-0.22340634 -0.16398133  0.34499297 -0.1367957   0.00971823  0.24751726
  0.14314194  0.28848103  0.18338682  0.28548285 -0.22130345 -0.01337167
 -0.11077064 -0.196544    0.18225783  0.00310461  0.04130432 -0.18658996
  0.16353878 -0.34312603]
[ 0.25815517 -0.02199813 -0.09749155  0.16209003  0.1553763  -0.103328
 -0.22337113  0.10406319  0.10630223 -0.15561163 -0.06897699 -0.10079136
 -0.27105126 -0.15600635 -0.16833334  0.06358161 -0.257571    0.2317559
 -0.0917859  -0.29689687]
[ 0.1373276  -0.23646824 -0.17546515 -0.18760873  0.08085121 -0.0598594
 -0.17213263 -0.16908576  0.3059302  -0.14880781  0.2788605   0.06294855
  0.09158031 -0.21057197 -0.13241874  0.06010188 -0.02750211 -0.20976228
  0.02236528 -0.1891402 ]
[ 0.10875127 -0.3244704  -0.14635631  0.24600755  0.14914216  0.06132165
  0.24194863  0.23218936 -0.06129074  0.23822261  0.11020077  0.17395277
 -0.2237698  -0.03179181 -0.04019319 -0.13889845 -0.11482492  0.04048705
  0.13753636 -0.14043762]
[ 0.34635347  0.01679624  0.04231491 -0.03752443 -0.17442605 -0.15673399
  0.11313636  0.07673652  0.15945013 -0.14697213  0.12522766  0.05412605
  0.10960735 -0.171386   -0.0123161  -0.01151351  0.07624574  0.2228528
 -0.05441576 -0.14584969]
[-0.17624228  0.14334817  0.24018146 -0.1105084   0.20022187  0.08720558
 -0.33598077 -0.1786557  -0.45159817 -0.14954203  0.16970937  0.25707388
  0.16745192  0.1310421   0.09658185 -0.240396    0.003888   -0.01278532
 -0.2514045  -0.29832473]
[ 0.02575802 -0.17354377  0.01772455  0.28250197 -0.27656528 -0.2888158
 -0.24487768  0.17355205 -0.16275033  0.09550949 -0.15569954 -0.16445829
  0.25460383  0.26664087  0.0593123  -0.1852418   0.08509481 -0.04999576
  0.33884323  0.30726123]
[ 0.1625511  -0.06786521  0.16547781  0.10063803  0.2061691  -0.16147648
  0.17798987 -0.15281586  0.02482508 -0.05861252  0.16979977  0.08455814
  0.14951655  0.08995295  0.02873133  0.1029209  -0.06021862 -0.24640934
 -0.06885311  0.06579086]
[-0.23061115  0.14413229  0.28401178 -0.3870501   0.18957329  0.1740085
  0.22409578  0.12574443  0.07979748 -0.14502062  0.255198    0.24130625
 -0.08191548  0.2578355  -0.36794332  0.06523144 -0.11107627 -0.06412924
  0.31983122 -0.16693465]
[ 0.24912222  0.30619797 -0.09116834  0.18732433 -0.20864731 -0.08664412
  0.1949051   0.09568787 -0.1704112  -0.12000676 -0.10303647  0.32346174
  0.1749355   0.19166595 -0.21265136 -0.05354006  0.04928669  0.19981387
 -0.52326477  0.02463988]
[ 0.15024135 -0.0586004  -0.23953244 -0.180961    0.17130785  0.01617355
  0.00963329 -0.11661132 -0.15529694  0.31990182  0.09632505  0.00569513
  0.10966472 -0.0884284   0.3654522   0.09447333 -0.19721273 -0.15694876
  0.15986809  0.04983942]
[-0.01762202 -0.1745597  -0.14711475  0.08720512  0.32729864  0.1724993
 -0.22024888  0.33374268  0.08837468 -0.02496644 -0.08496732  0.01550304
 -0.05358087  0.30844918 -0.19303182 -0.16143158  0.00450012 -0.32062405
  0.42491952 -0.01436401]
[ 0.11579967  0.03776039  0.21362266 -0.06793835 -0.07322261  0.32979703
 -0.0954684   0.0962172  -0.10176416 -0.04348569 -0.16049808 -0.05156781
  0.2565158   0.30775568  0.09762092  0.24306135  0.15358958  0.01485936
 -0.1574474  -0.28360885]
[ 0.21821962 -0.11707262  0.20399703  0.24310647 -0.09982679  0.21427402
  0.05537515  0.16222377  0.23802494 -0.22899608 -0.29324707  0.26438725
 -0.04775634  0.28052258 -0.2842481  -0.12538761  0.22493887 -0.09787107
  0.17844838  0.13273187]
[-0.07633177 -0.01289549 -0.18623725 -0.15193294 -0.01388059  0.3187961
 -0.17648354 -0.16356958  0.40613762  0.29276383  0.22267748  0.23493075
 -0.330278   -0.22156098 -0.0229646   0.04886382 -0.01024977 -0.03130712
 -0.09240918 -0.23818187]
[ 0.19293632 -0.1881462   0.139319   -0.16004096 -0.26540136 -0.04642092
  0.33164528 -0.08439013 -0.22615732  0.19516933  0.06225704  0.06121607
  0.23055905  0.09830794  0.01742947 -0.26993063 -0.01586061  0.19463046
 -0.17157361  0.10423085]
[-0.05487396 -0.06746531 -0.02246551  0.04824455  0.07689378  0.06609213
  0.00897869 -0.02716322 -0.14861092 -0.06541916  0.02551265  0.02236668
 -0.0453224   0.01397779  0.00887907  0.00723278  0.07519666  0.01465532
  0.01780725  0.06649532]
layer 5 Activation
tanh
layer 6 Dense
20 1
[-0.11351647]
[-0.07979272]
[-0.00626929]
[-9.643426e-05]
[0.14178948]
[0.01456238]
[0.02119652]
[0.10316165]
[0.11269063]
[-0.23089373]
[0.0198474]
[-0.00167811]
[-0.07894908]
[0.05396917]
[0.2433723]
[-0.00129283]
[0.02120928]
[0.17408785]
[-0.10442286]
[0.11972368]
[0.08684941]
