layers 7
layer 0 Dense
20 20
[ 0.12350274  0.14997245 -0.18227234  0.40743047  0.31558558 -0.33196416
  0.2214549   0.21254753  0.3430807   0.05150759  0.3102111   0.32998538
  0.07271171 -0.06598904  0.7634385  -0.18972751  0.24293391 -0.14285861
  0.1037758   0.2702957 ]
[-0.05485913 -0.2358573  -0.00715518 -0.14141968 -0.02864674 -0.09850729
 -0.28333327 -0.21533807  0.3036334   0.17984068  0.16844392 -0.10244018
 -0.14156123 -0.37173975  0.32770824  0.24576741 -0.25572369 -0.32019275
  0.1423114   0.14024013]
[ 0.27606267  0.13680834  0.08893475 -0.07203412  0.3653428   0.17359471
 -0.06155667 -0.02809998  0.12202114  0.06337208 -0.27846053  0.2182352
 -0.26547062  0.02432463 -0.3824278   0.00895947  0.0837166   0.31795317
  0.3657447  -0.12680018]
[ 0.03645418  0.6577805  -0.2772001   0.39349717 -0.06220014 -0.24040551
  0.19863446 -0.00490314  0.513703    0.0971126  -0.18390287  0.16077137
  0.13564122  0.21177413  0.588809   -0.3967208   0.02697162  0.06034334
  0.02071968 -0.0795222 ]
[-0.39331746 -0.19903801 -0.46638113  0.16864857  0.01536331 -0.31758115
  0.09469333  0.0239253  -0.16721551 -0.7051116  -0.27114475 -0.19771817
  0.24498348  0.12756026 -0.05704451  0.30989075 -0.42088723  0.19371586
 -0.03975266 -0.0325709 ]
[-0.11700612 -0.32972518  0.15960413 -0.01973009 -0.19945574  0.3541717
  0.30718094 -0.37959236 -0.33056712  0.16507703 -0.14373027 -0.37014505
 -0.15955268 -0.2249551  -0.3852597   0.3018809  -0.1631093   0.10412049
 -0.07950658  0.15037203]
[-0.20182164 -0.11590102 -0.01744914 -0.25956675  0.13937318  0.3692559
 -0.20902391  0.09559768 -0.19682084 -0.0687077   0.3244502   0.26107407
  0.01240742 -0.30095267 -0.29508537 -0.0577246  -0.17278957  0.27396697
 -0.3638998  -0.31133205]
[-0.3687552  -0.74528027  0.28907776  0.07845891 -0.3693616   0.32797948
  0.18755884 -0.3612749   0.04158611  0.30280638  0.0077857   0.08542325
  0.17621006  0.34887376 -0.44626078 -0.3293821  -0.39275706  0.32277364
 -0.15232745  0.21796498]
[-0.23540278 -0.23842615 -0.26455742  0.75402504  0.6263043   0.6236107
  0.33660275  0.42307362 -0.37503836  0.08164393  0.1899842  -1.0658598
  0.02736227 -0.1240996  -0.10536187  0.07042942  0.30107382  0.612822
 -0.00690512  0.24612796]
[ 0.03759363 -0.12712598 -0.0742318   0.3668561   0.3099404   0.2805641
  0.40512055 -0.26040936 -0.26251504 -0.01057627 -0.4960056  -0.26299712
 -0.21162207  0.46818385  0.42244256  0.04258575  0.15922415 -0.03763881
  0.5603487   0.08806725]
[ 0.14846756 -0.10133168  0.24350975 -0.05776089 -0.30322778 -0.3188098
 -0.64732105 -0.2055013   0.24774012 -0.00631855 -0.3847582  -0.09055085
  0.40869942 -0.3031932   0.28967735  0.2697143  -0.00124978 -0.506615
 -0.25724542  0.07204739]
[ 0.11574504 -0.43038562 -0.45125157 -0.8173933  -0.8797561   0.26065865
  0.2318696  -0.2713201   0.43640843  0.8257626  -0.37996602  0.16757786
 -0.48200026  0.06941978 -0.94825584 -0.168943    0.4658217  -0.09399077
  0.3913519  -0.9590129 ]
[-0.07169906 -0.50226074  0.7000188  -0.31486693  0.4778429   0.09247167
  0.420585   -0.2549667   0.99260217 -0.39854947 -0.30959848 -0.22725923
 -0.12048755 -0.17529488  0.45416966 -0.00200477 -0.6893485   0.68403745
  0.23894052  0.02058418]
[-0.29720616 -0.09230309 -0.19357537 -0.3802218  -0.02021748  0.07840935
 -0.2194042   0.4120669   0.6881466  -0.26663706  0.7711276   0.89443934
  0.89796567  0.06060212  0.19351883 -0.3571611  -0.527352    0.0939458
 -1.0259514  -0.91458714]
[ 0.24942192 -0.09579671 -0.49493483  0.41557926 -0.46597657  0.51954544
  0.7706201   0.5815671   0.3888634   0.09968266  0.3911441   0.6742045
 -0.40171623  0.91692275  0.19048607 -0.31643498  0.32191595 -0.60920423
 -0.32491818  0.53486806]
[-0.33847442  0.04280717  0.40656093 -0.520439   -0.5149988   0.33100486
 -0.1356     -0.6891632   0.59299195  0.47876704 -0.29324088  0.83290213
 -0.38096952  0.36936983  0.66708076 -0.42499688 -0.1112965   0.24432321
 -0.0530071  -0.3653937 ]
[ 0.27671865 -0.44420603 -0.45236945 -0.47452933 -0.11428292  0.11502098
 -0.36602372  0.02401883  0.05242184 -0.35827854 -0.314221    0.14442866
 -0.3195128   0.24322139 -0.33879638 -0.17428745 -0.23434834 -0.26864368
  0.24455711 -0.20069288]
[ 0.14129259 -0.06194642 -0.6384743   0.26389083  0.24209347 -0.40622738
 -0.291715   -0.34426025  0.17679733 -0.14196987 -0.77712244 -0.45044556
 -0.7821008  -0.16025746 -0.06334703  0.7479468   0.2481626   0.00270813
  0.72483     0.7186573 ]
[-0.71118194 -0.13836423  0.6958621  -0.6400152   0.25023237 -0.01633907
 -0.37419185 -0.705198    0.20210525 -0.44353718  0.21536727 -0.8600388
 -0.31314775 -0.20802394 -0.04463123 -0.32546973 -1.1893219   0.8150994
 -0.06610177  0.16119024]
[-0.06753007 -0.321957    0.53742975  0.28298986  0.19015546 -0.05228926
  0.44211343  0.6044898  -0.11734111  0.06686653  0.33177695  0.10244387
  0.6713865  -0.6643025   0.33111936  0.43211982  0.03037304  0.0168281
 -0.27949944  0.2874669 ]
[ 0.3388498   0.45197278 -0.04909303  0.09694777  0.00133745 -0.16433316
 -0.11824798  0.00451979 -0.08020413  0.10168224  0.08467163  0.2062947
  0.15857834  0.09439334  0.18147533  0.0584147   0.14162306 -0.24221843
 -0.3204733  -0.06444014]
layer 1 Activation
tanh
layer 2 Dense
20 40
[ 0.40996477  0.1660508   0.36657834 -0.61379975 -0.27865025  0.36473677
  0.2849467  -0.41589674 -0.52797997  0.49374577 -0.01067793 -0.37954706
  0.090605    0.14953288  0.19818513 -0.12203451 -0.840566   -0.4123247
 -0.1602366  -0.30765814 -0.32837448 -0.7192531   0.39616546  0.49051633
  0.1263387   0.6804893   0.07796291  0.11359567  0.5287958  -0.338104
  0.03188713 -0.39023438  0.52207214 -0.28944176 -0.47308308  0.4002238
  0.46243733 -0.37036756  0.03316141  0.45800754]
[-0.3468253   0.19181873  0.33497825 -0.01407844 -0.00248394  0.05098265
  0.01632953 -0.4325604   0.05261756  0.08488195 -0.18547419 -0.3953367
  0.24222696  0.18147855  0.6727788  -0.34251094  0.26234293  0.2804226
  0.17805752 -0.2545903   0.02093875 -0.01590007 -0.516452    0.35569942
  0.5570204   0.05809564  0.5199955   0.20136572  0.29754886 -0.21045819
 -0.35281348  0.39866018  0.49714765  0.43373907 -0.01967884  0.475395
 -0.12439574 -0.37848687 -0.16909568  0.6105594 ]
[ 0.01368676 -0.2931202   0.32705635  0.28701842 -0.11955121 -0.30761552
 -0.40342993 -0.42485598  0.44744983 -0.3297341  -0.5350874  -0.15981357
  0.32062435 -0.29670328 -0.40597442 -0.17838775  0.20410933 -0.34930736
  0.28045222 -0.41693938  0.04728502 -0.2662744  -0.31703696  0.13628349
 -0.11974576 -0.12511496  0.03793433 -0.07412111  0.02522745  0.17538331
 -0.04120745 -0.01702442 -0.14594176  0.29969248  0.63438135 -0.2539466
 -0.06045856 -0.2722628   0.14747202 -0.27019614]
[-0.5159781  -0.03711005  0.27391088 -0.23835146 -0.84165037  0.8295628
  0.26212177 -0.3432347  -1.1186832   1.0592965   0.32381982 -0.82013035
  0.07038046 -0.5795399  -0.23038532 -0.42173883 -0.24787974  0.3610422
  0.3565751  -0.01732643 -0.5876963   0.07944957  0.4949522   0.6136565
  0.61811495  0.16474918  0.2583426   0.10628361  0.542444   -0.6448469
 -0.41539282 -0.34923095  0.20565277 -0.02918989 -0.5604279  -0.2536087
  0.748734   -0.82643735 -0.33229557  0.5571009 ]
[-0.84284633  0.16613795 -0.01568859  0.3182037  -0.41824877 -0.20908979
 -0.51282024 -0.03515427 -0.17314859  0.15758605 -0.5467825  -0.37081006
  0.34665817 -0.402654    0.12854211  0.1639334   0.6512666   0.6072093
 -0.02361108 -0.7857113   0.05990047  0.22879104 -0.78434837 -0.4615499
  0.14186274 -0.23956709  0.34371394  0.02113509  0.46942666 -0.39484742
 -0.50658315 -0.3324035   0.11311536  0.4364003   0.63871056 -0.05864437
  0.10858941 -0.44974542 -0.638485    0.3567435 ]
[-0.18633227 -0.31728736 -0.4826147  -0.08273301 -0.06844249  0.1430646
  0.19981712  0.44013926  0.2282331   0.04502447  0.14202583 -0.04085247
  0.02146939 -0.04965819 -0.07329501  0.1767125   0.23202278 -0.0808107
  0.562102    0.57607746 -0.15592216  0.19998264  0.18763702 -0.40882352
  0.1236667  -0.28064305  0.2324072  -0.42751327  0.05097193 -0.3663082
  0.10457411  0.1531317  -0.4246905   0.03651807 -0.03070088  0.1834508
  0.20087406 -0.13981308 -0.00995552 -0.27894196]
[-0.17876813 -0.47722933 -0.23288547 -0.08727818 -0.08908895  0.39129877
  0.48731375  0.60687566 -0.4555734   0.49244398  0.06675411 -0.40278512
 -0.02204755 -0.1531329  -0.4289278  -0.64253557  0.07057729  0.40234685
  0.6496933   0.55350316  0.2888706  -0.14059202  0.47913074  0.2091868
  0.1449992  -0.17982638  0.2428729   0.08057624 -0.0317813  -0.32386586
 -0.02285787  0.02792053 -0.48884922  0.25612676 -0.29653668 -0.31072938
  0.33772975 -0.34610167 -0.10028572  0.09518522]
[ 0.12919864  0.5342626   0.29219595 -0.8102518   0.26911592  0.09514721
  0.10858901 -0.39472064 -0.84345865 -0.02092959  0.16728851 -0.2620986
 -0.22851725 -0.5739207   0.24316418 -0.1809032   0.26561585 -0.13283895
  0.25426808 -0.05026869  0.34272793 -0.56700116  0.31073672 -0.22858596
 -0.02216981  0.07496342  0.2681647   0.5019789   0.07149714 -0.6833656
 -0.61962634 -0.23687923 -0.15867859  0.2390656  -0.2393139   0.64053744
  0.5260358  -0.6474127   0.11070798  0.17629816]
[ 0.42827582  0.07269966 -0.00867099 -0.1059747   0.44402647 -0.09295799
 -0.14268987  0.18605609  0.2725325  -0.45436075 -0.1255954   0.22945143
 -0.39167184  0.23651583 -0.4224857  -0.12650223  0.09569804  0.08303079
  0.18356988  0.24006625  0.32522374  0.17901704  0.07575026  0.27018297
 -0.221974   -0.17171603 -0.052384    0.06942578  0.00374573  0.36852324
  0.20892708 -0.0073164   0.10460554  0.4190416   0.2701006  -0.15226117
 -0.04366057  0.10064452  0.07403292  0.0844666 ]
[ 0.02281802 -0.05029778 -0.39254415  0.10473277 -0.12036514 -0.1474942
 -0.12269065  0.19156563  0.05014545  0.4629164   0.44706947  0.33867222
  0.03151538 -0.03760909  0.03087096  0.02752598 -0.16572723 -0.13670018
 -0.07152122  0.12332027 -0.2240392   0.12917471  0.4111515   0.60456413
 -0.19010533  0.24248052  0.13265081 -0.7110375   0.02864304  0.1692595
  0.12724154  0.00502199  0.380043   -0.3530565  -0.08988281  0.06775037
  0.02632757  0.35041845  0.3140858   0.19536051]
[ 0.289298   -0.12645623  0.18523827 -0.00318344  0.8283623  -0.18597859
  0.16845298  0.1996136  -0.39192796 -0.19270496  0.38557556 -0.12240653
 -0.68498236 -0.18688488  0.4006849  -0.00521539  0.6612197   0.3283143
  0.28261542 -0.2423303   0.35294685 -0.10618206 -0.04043277 -0.29584625
  0.05294358 -0.24924421  0.17281744 -0.1998791  -0.3606708  -0.58323646
 -0.4666131  -0.2534697  -0.00783496  0.2161689  -0.33654425 -0.18150146
  0.05121385  0.03583664  0.06001374  0.08172147]
[ 0.6860915  -0.17483482 -0.57458574 -0.11994995  0.6641656   0.7185952
  0.64004284  0.5260616  -0.16328363 -0.3102874   0.53336173  0.31784946
 -0.26983067  0.52460504  0.22097342 -0.6648578  -0.07139689  0.12320471
  0.00827609  0.6562777  -0.26219723 -0.17796005  0.55488616  0.69176245
 -0.38424233 -0.27225038 -0.3878861  -0.23648918 -0.17133947  0.08373162
 -0.217041   -0.41275042  0.7379733  -0.42214215 -0.78691185  0.5080798
  0.12074839  0.3560911   0.2651369   0.1848354 ]
[ 0.12573431  0.0051411   0.47960195 -0.49154586 -0.22349545 -0.18654878
 -0.62863964 -0.5617674  -0.3039064   0.29862037 -0.5594129  -0.6887042
 -0.7068858  -0.8804655  -0.00445043 -0.7259741   0.0253438   0.2594394
 -0.22514482 -0.46350625  0.5881358  -0.5194378  -0.62869483 -0.09277371
  0.01524014 -0.06251665  0.21064371  0.34411144  0.74072725 -0.16566741
 -0.40509623  0.20461394 -0.1654486   0.23511116  0.34494787  0.2964146
  0.16113637 -0.52203083 -0.2083555   0.24121042]
[ 0.25242364 -0.0315123  -0.568958    0.01639182  0.2720683  -0.04142511
  0.3670678   0.57525754 -0.10999326 -0.1891287   0.49645418  0.25376365
  0.07996643  0.4608215   0.18715514 -0.14914192  0.08569823 -0.0363941
  0.17142504  0.47102562  0.02240041  0.56463474  0.29751712 -0.6463964
  0.179158    0.17142135 -0.1809954  -0.09412303 -0.193147   -0.26057088
  0.33670262  0.34373024  0.27460226 -0.30167505 -0.57676893 -0.05036259
  0.21810044  0.2016854  -0.22647457 -0.01344108]
[ 0.12633345  0.0676752  -0.08982538  0.34716317  0.18353455 -0.08344208
  0.24591063  0.32862443  0.25750452  0.12881772 -0.28616333  0.00452192
  0.26083767  0.47659874  0.37329212  0.17699197 -0.09046475 -0.04859423
 -0.4029321   0.25582266 -0.13057551  0.01656738  0.42059878  0.533001
  0.3748145   0.4454807   0.09098458  0.17106593 -0.34632057  0.0233179
 -0.0090112  -0.06384165  0.3309609  -0.21179768 -0.44351125  0.30180284
  0.07944134  0.14418226 -0.37266016  0.20523636]
[-0.12669669  0.47888348  0.26585102 -0.43441877 -0.3489067   0.04042159
 -0.09824176 -0.6364718   0.08255698  0.209716   -0.02829209 -0.28497013
  0.4271374  -0.13461447  0.06262166  0.32462937 -0.7382557   0.10211416
 -0.29708678 -0.43617254  0.11289999 -0.37226766 -0.19258974  0.05070073
  0.17160116  0.27815118  0.17830914  0.11835734  0.44665834 -0.06225259
  0.18608148  0.4091467   0.26228246 -0.4319403  -0.09564397  0.20870946
 -0.14593633 -0.284033    0.11218754  0.0425619 ]
[ 0.20926927  0.16666098  0.20372407  0.07958353 -0.44386625  0.24879476
 -0.09713984  0.01415231 -0.5467395   0.53875005  0.17705432 -0.66732204
  0.40744844  0.2598626   0.04631231  0.38779694 -0.7854596  -0.14139116
 -0.06576491  0.39521655 -0.18021868 -0.3568642   0.70556915  0.5414394
  0.3257882   0.40610254 -0.26977056 -0.09840256  0.2981633  -0.04381748
  0.5004632   0.1129603   0.1525152  -0.11630608 -0.31422144 -0.23035076
  0.5884524  -0.39996642  0.2036402   0.12186386]
[-0.40021697 -0.42386147 -0.18746786  0.23321253 -0.05840414 -0.8615959
 -0.09501445  0.29592556  0.22423466 -0.1825065  -0.28233758  0.22099636
 -0.36780453 -0.58543074  0.11355385  0.33428475  0.68923306 -0.05849392
  0.05162054 -0.2681399   0.17130187  0.3773568  -0.31929398 -0.34434447
 -0.6696551  -0.5318525  -0.06302799 -0.05839657 -0.31698874 -0.07672598
 -0.24405889  0.11469541 -0.57123464  0.4716492   0.5284233  -0.5124674
 -0.03866185  0.24887054  0.28119513 -0.69208074]
[-0.46808714 -0.02769456 -0.09605365  0.42594728 -0.6148424   0.35783863
  0.01972682  0.20835921  0.1972885  -0.1053505   0.26660323  0.08017552
  0.39182746  0.34433132  0.2856465   0.48362532 -0.19397205  0.04871776
 -0.16453409 -0.15309031  0.08113932  0.30745205  0.34167853  0.3551473
  0.12903473  0.00673425  0.05893465  0.35687143  0.09104802  0.4007568
  0.4413364  -0.28673917  0.00333397 -0.39873594 -0.00150065 -0.3437421
 -0.2372841  -0.09266247 -0.36529586  0.07563049]
[-0.9224056  -0.04499969  0.29248226 -0.15089338 -0.53298926 -0.12212114
 -0.03660497 -0.27506378 -0.20136274  0.5760837  -0.29620957 -0.3148514
  0.07598622 -0.38065657 -0.3846867  -0.2098839  -0.4147562   0.2815472
 -0.35608807  0.16111901 -0.26146996 -0.12473569  0.38805303  0.37224954
 -0.36432076  0.30527124  0.20741199  0.60734195  0.29089466  0.32612655
  0.01571064  0.1957906  -0.15141435 -0.08124603 -0.00185891 -0.30586553
  0.37689376 -0.6717312   0.4627963   0.34878433]
[-0.10566429  0.16836326  0.436101   -0.16390075 -0.19550805  0.1865097
 -0.04131227 -0.14731511 -0.02816326  0.2258929  -0.08385164 -0.20432834
 -0.05672644  0.00384426  0.36368844 -0.24566284  0.17060949  0.41060606
 -0.07257986 -0.202853    0.24181418 -0.05631072 -0.22283863  0.29207802
  0.36746854  0.1889746   0.3792109   0.35598338  0.14188528  0.04949879
 -0.19359513  0.10076866  0.12600498  0.17225821 -0.0918658   0.14621827
  0.07647656 -0.24790598 -0.3651678   0.4283473 ]
layer 3 Activation
tanh
layer 4 Dense
40 20
[-0.43391246 -0.14773591 -0.4591817  -0.16387413  0.2535324   0.0538687
  0.03232189  0.21209264  0.10262789 -0.16257441  0.48405477  0.49576706
  0.21470623  0.62180173 -0.0627825  -0.54351807  0.44547585 -0.48423937
 -0.37962753 -0.14202878]
[ 0.02390613 -0.32179683  0.20012988 -0.34597412  0.35626414  0.2079773
  0.4853532  -0.02743883 -0.0585628  -0.039033    0.18781674  0.0426193
  0.5210876   0.3049369  -0.08337033 -0.19372275 -0.09167389  0.27325785
 -0.3199899   0.6556308 ]
[ 0.2837931  -0.40914288  0.13219744 -0.00176153  0.3210187   0.14736393
  0.66542923 -0.29623887 -0.47899127  0.25299388  0.30462447 -0.06687864
 -0.4049985   0.4625995  -0.02289363 -0.24294378 -0.15144423  0.3556053
 -0.08036137  0.6899438 ]
[-0.06362496 -0.30335215  0.01666083  0.28880662  0.04693991  0.4271924
 -0.1525753   0.34723872  0.43312898 -0.09167911 -0.02412186 -0.28591377
  0.54220724 -0.17446919  0.34625238 -0.00536431 -0.34676245 -0.1911814
  0.13284932 -0.43634537]
[-0.6877091   0.09451802 -0.64032906  0.04039111  0.21470086  0.28929278
  0.21860331  0.29985386  0.28866792 -0.4047161   0.6318468   0.19405888
  0.3071976   0.53510183 -0.08828026 -0.12300276 -0.01261461 -0.60162425
 -0.14067303 -0.42235863]
[ 0.28031453 -0.56852543  0.13773544  0.3143342   0.42254502 -0.60505843
 -0.01855602 -0.15782712 -0.32987735 -0.40904495  0.33762905  0.18640713
  0.2788102   0.34870154 -0.41600698  0.30850703  0.11138322  0.03858355
  0.40703267 -0.2697264 ]
[-0.15331247 -0.30031052 -0.0090743   0.13144526 -0.04244772 -0.13562107
 -0.06299599  0.02735089  0.06852242 -0.4629533   0.40261707  0.26364192
  0.39898816  0.59372306 -0.24263978  0.36851358 -0.0681238  -0.28504112
  0.12380998 -0.40717244]
[-0.28938612  0.1784958  -0.13669494  0.13499554 -0.4411909   0.12675036
 -0.3735933   0.2902808   0.7615609  -0.32148674  0.47706708  0.25734004
  0.5708192   0.28394097  0.28836098  0.04002351  0.12296145 -0.00081771
 -0.13743599 -0.7515426 ]
[-0.4276369  -0.04560613 -0.12904039 -0.14991866 -0.21550894  0.56404483
  0.21184665  0.13755801  0.19649507  0.5643613  -0.6297262   0.0148368
  0.22894914 -0.3141181   0.3207849   0.14033811 -0.47572717  0.1007324
 -0.4552936  -0.27901244]
[ 0.7657486  -0.4895397   0.29624245 -0.3036738   0.29198915 -0.40020278
 -0.33801082 -0.5715591  -0.5844294  -0.66929114  0.00579416 -0.37095118
 -0.42151856 -0.3039986  -0.11060851  0.55280584 -0.11244178 -0.19184998
  0.71668625 -0.24334791]
[ 0.1978862  -0.39798844  0.13319528 -0.12776773 -0.27413085 -0.230523
 -0.3223378   0.02143002  0.15441315 -0.01446095  0.5166214   0.32465833
 -0.11567085 -0.02126459 -0.24565923  0.5517466   0.3174104  -0.2562181
  0.2759566  -0.45138052]
[-0.5185837   0.9270607  -0.57561773  0.25384364 -0.44904616  0.4447908
  0.28426045  0.31024992  0.58774745 -0.00111265 -0.346916    0.12013381
  0.617246    0.16511078 -0.01318541 -0.565535   -0.06844883 -0.7236544
 -0.41244084 -0.18137962]
[-0.19982816 -0.12480334  0.07702622 -0.22891107  0.43477142 -0.01271302
  0.2709266   0.16299845 -0.26404393  0.00812376  0.09188214  0.12064392
  0.00613017 -0.10075957  0.3296447   0.11528398 -0.43785602 -0.00827259
 -0.29370245 -0.2933325 ]
[ 0.27843598 -0.12993674  0.33181518  0.030401    0.08944476 -0.18315633
 -0.32392263 -0.03003209 -0.30585548  0.45909142 -0.17587607  0.07324182
  0.17819797 -0.08258369  0.14005634 -0.27891716  0.18549016  0.6620948
 -0.0238995   0.05449873]
[-0.01806387  0.04289848  0.5599066  -0.40454823  0.23500958 -0.39772213
 -0.08622328  0.4680987   0.29129434 -0.09022715  0.37897483  0.38676184
  0.4069576   0.4623641   0.4145365  -0.26256007  0.28194624  0.32238758
 -0.03106946 -0.07076921]
[-0.28447372 -0.41449076 -0.6761543  -0.23953427  0.01002022  0.53870916
  0.5351029   0.27279902  0.23112296 -0.16357274  0.06108155 -0.25450143
  0.48316422 -0.5296621   0.2845914   0.03398278 -0.4164795  -0.38517115
 -0.43581337 -0.02667848]
[ 0.16758443  0.1810413   0.03468768  0.8604315  -0.3242017  -0.28914422
 -0.46202794  0.41434836  0.41907802  0.21849443  0.12305154  0.33186933
 -0.2709502   0.13657817 -0.02070314 -0.49558103  0.5091533   0.22719559
 -0.07943134 -0.10369032]
[ 0.20816508  0.17833076  0.22303894  0.11570464 -0.04377441 -0.42738813
 -0.01419704  0.28583974 -0.03928455 -0.02378215  0.1382746   0.283883
 -0.34305233  0.12078973 -0.15143119  0.2339992   0.4945749   0.49777782
  0.398875    0.14527874]
[-1.8844491e-01 -5.8890700e-02  1.8344033e-01  1.9612981e-01
 -1.4064471e-01 -3.5250080e-01 -5.8236003e-01  1.9680056e-01
  1.3498396e-01  1.3722587e-01  1.3802794e-01  2.0428173e-01
 -4.7493505e-01 -3.8407487e-04 -2.2608645e-01 -2.4716396e-02
  4.7293323e-01  2.1273813e-01  3.1745398e-01 -6.3796401e-01]
[-0.01557297 -0.5383058  -0.5753413   0.37189314 -0.10363091 -0.25554493
 -0.38602027  0.02731595  0.15234739 -0.36967403  0.4857181   0.20548053
  0.23271902  0.17134194 -0.47376922  0.1910267  -0.0091279  -0.26075014
  0.06159573 -0.3831332 ]
[ 0.14552487 -0.1714178   0.1752404   0.31285205 -0.1729255  -0.07172062
  0.23256646  0.11951817 -0.16273804  0.38233545 -0.16282907 -0.15751033
 -0.2915785   0.5582483  -0.00881503 -0.38671637  0.3570925   0.13194695
 -0.41037259 -0.00580612]
[-0.24165168  0.00598597 -0.35522085  0.4009435  -0.34350467  0.20594384
 -0.1270656   0.31239003  0.53728724 -0.22758152 -0.06873143 -0.02400964
  0.1274561  -0.00175029  0.07082297  0.28639895 -0.3801049   0.02433604
 -0.288378    0.01873119]
[ 0.33294988 -0.22249046 -0.51556134  0.2864003   0.14142644 -0.11968024
 -0.25706297 -0.1091396  -0.13892473 -0.5743128   0.49738067  0.4457627
  0.34942096 -0.13569006 -0.4058712   0.2907268  -0.43867958 -0.52120036
  0.38266858 -0.40284598]
[ 0.10219645 -0.18507245 -0.27207363 -0.4262162   0.5276544  -0.16888164
  0.5121193  -0.13485682 -0.44433752 -0.23162585  0.18066543 -0.27728447
  0.255136    0.24058934  0.37095752  0.38524854 -0.20538479  0.15127972
 -0.35917056  0.37637135]
[ 0.44217843 -0.21645401 -0.36442167  0.12350983  0.19708851  0.19624017
 -0.08619925  0.06287114 -0.02651605 -0.43105826  0.06448613 -0.13470532
 -0.0301626  -0.25913352  0.00240731  0.57897574  0.10086016  0.4337244
  0.09368293 -0.10373695]
[ 0.35643092 -0.19231738 -0.02326919 -0.0847147   0.44174904  0.16111815
  0.10280491 -0.42586175 -0.37959608 -0.13765576  0.01505289  0.05741749
 -0.28623188 -0.30775303 -0.02562144  0.24876891 -0.099521   -0.1068589
  0.42717642  0.26830998]
[ 0.06085967  0.04651343  0.18137176 -0.13805522 -0.14590277 -0.07165999
  0.01988069  0.15510626 -0.14772958 -0.18002865 -0.02198207  0.31649455
 -0.14300317  0.10006317  0.17760691  0.3808715   0.2752819   0.6259778
 -0.14309727 -0.09075559]
[-0.10799161  0.01705801 -0.24665014 -0.2653868   0.6131235  -0.08567956
  0.39076254 -0.24822968 -0.34577027 -0.07518317  0.34076458  0.04609057
 -0.32501784  0.17536628  0.17959955 -0.02764105  0.10958108  0.36255077
 -0.13482866  0.44245747]
[ 0.22855853 -0.63681924  0.48145875 -0.4598174   0.5002225  -0.18429297
  0.14213486 -0.42625472 -0.2949555  -0.22590709 -0.00780166 -0.32886422
 -0.62395    -0.1950059  -0.21931715 -0.07161188  0.2473721   0.05771032
  0.38988534 -0.17609017]
[-0.23943885 -0.17312774 -0.36073077 -0.45206484  0.08031917  0.7243043
  0.35012203 -0.13031937  0.12904912  0.26968887 -0.4952617  -0.3084584
  0.49033728  0.1507545   0.31868222  0.16405837 -0.06271899 -0.1437443
 -0.2193887   0.17215618]
[ 0.17300762  0.11694775 -0.48328817 -0.30456123  0.25433508  0.42658275
  0.11138958 -0.27260515  0.29233631 -0.17194971 -0.22343273 -0.5117727
  0.28726354 -0.33044806  0.06869146 -0.00576516 -0.4306972  -0.5111336
 -0.00458073  0.06068857]
[ 0.16966785 -0.28710604 -0.33375674 -0.11663873 -0.10375579  0.2942686
  0.33054644 -0.02878273  0.18035908  0.10893402 -0.21818401 -0.30960885
  0.19920954 -0.1853037   0.5277648   0.07739656 -0.0715116   0.17881031
 -0.13178863  0.3325062 ]
[ 0.3250772  -0.08802981  0.58005565 -0.38010803  0.2611535  -0.16016127
  0.13334948 -0.16918352 -0.5382132  -0.19374448  0.39286026  0.06149769
  0.32591036  0.6010052   0.24337116  0.30577636  0.33475748 -0.05783563
 -0.06579268  0.2979247 ]
[-0.02967701  0.36367384  0.19095857  0.0506256  -0.24180566 -0.18151891
  0.28213927  0.16412175 -0.1525029   0.24726894  0.04676485  0.02940261
 -0.25936726  0.21474673  0.19164947 -0.14066362 -0.01987009  0.41929367
 -0.11695912  0.53042847]
[-0.50367534  0.18787333 -0.07964414 -0.05546518 -0.39059904  0.94846153
  0.01968762  0.14538728 -0.11802357  0.3489459  -0.56274575 -0.29026404
 -0.23976217 -0.20832904  0.19149132 -0.34803632 -0.31565878  0.19640866
 -0.2946307   0.36530426]
[-0.20768748 -0.3702658   0.29373717 -0.20711266  0.4205253   0.16542532
  0.3002712   0.354298    0.08685213 -0.34808666  0.3890264   0.42904693
  0.26606357  0.6921561  -0.20585322 -0.16615267  0.37008554  0.28441238
 -0.10999268 -0.33826375]
[ 0.5042007  -0.26945952 -0.0940658   0.25386485  0.21590257 -0.83463687
 -0.42145333  0.11624841 -0.49270803 -0.5009231   0.80503154  0.05315765
  0.06057038  0.2619339  -0.4741548   0.23974909  0.3433144   0.14798899
  0.51330084 -0.01104733]
[-0.4309493   0.4917626  -0.4373195  -0.18568057 -0.50344896  0.08149265
 -0.10406224  0.21221435  0.21620332  0.60883796 -0.610564    0.17293547
  0.18417436  0.11239978  0.28980225 -0.22802852  0.15248258 -0.60816634
 -0.3337898  -0.05014246]
[-0.01026346  0.09906326  0.14083222 -0.06691746 -0.07212089 -0.0475424
  0.02472892 -0.23376907 -0.1622519   0.08451477 -0.05992179 -0.03369704
 -0.05185854 -0.13350925 -0.48586488 -0.24936894 -0.07547478 -0.21387707
 -0.12545569  0.21031588]
[-0.15502617 -0.320976    0.36575544 -0.3326201   0.11055788 -0.31943253
  0.47710755  0.1758372  -0.19451275 -0.09380563  0.24742642  0.15052159
  0.24962243  0.4648596   0.21808194  0.4344296  -0.2070916   0.57728344
  0.20816097  0.07078935]
[-0.03489032 -0.14840484  0.18257245 -0.15067796  0.10780474  0.02740458
  0.11972368  0.19005072  0.03266343 -0.1228217   0.00114309  0.05130485
 -0.01783083  0.27378857  0.24589123  0.14047831  0.08284283  0.4930189
 -0.09578294 -0.10046931]
layer 5 Activation
tanh
layer 6 Dense
20 1
[-0.79943043]
[-0.8137332]
[-0.5802007]
[-0.49139562]
[0.9146346]
[0.80746514]
[0.590079]
[0.5650749]
[0.9664167]
[-1.0196359]
[0.8429023]
[0.7761269]
[-0.07191599]
[0.43843147]
[0.5653818]
[0.8026503]
[-0.7219314]
[-1.1052068]
[-0.93802494]
[-0.5741711]
[0.7434326]
