layers 7
layer 0 Dense
20 20
[-0.45739555  0.03348918 -0.07103939 -0.5983251  -1.4904885  -0.36344624
 -0.60921466  0.4319743   0.48091304  0.43479845  0.06725448  0.1590764
 -0.29651907  0.5520697   0.33711842 -0.5514954   0.32138523 -0.1534063
  0.11292049  0.6578354 ]
[ 1.7973689   0.54307115 -0.8652896  -0.9678751   0.14553812 -0.4268182
  0.33546668 -0.48696995  0.37799644  0.81701493  0.26354477  0.97206384
  0.19011962 -0.9263562   0.31788087 -0.24480966 -1.4403439   0.72575074
 -1.056463   -0.21215278]
[ 2.296634    1.0743818  -0.9864345  -0.879565   -0.4234512  -0.28028956
  0.76929533 -0.2898045   0.5250973   0.8054091   0.7538625   0.5505118
  0.23612086 -0.87235665  0.6559963  -0.17209579 -1.4557828   0.6252342
 -1.3618393   0.04556267]
[-0.27528474 -0.1353931  -0.83968735 -0.428782   -0.599127   -0.63667893
 -0.01227565  0.39900318  0.18310799  0.3601949   0.27207765 -0.5019214
  0.03328788  0.32824048  0.13541844 -0.38934273  0.14536119 -0.20400275
 -0.2843764   1.1872451 ]
[ 0.230884   -0.6539084  -0.6166354  -0.27006653 -1.0888273   0.08146562
 -0.56874776 -0.6908715  -0.07707167  0.7429046  -2.014119    0.3385847
  0.49246496 -0.42213973 -0.29669458 -0.21315134  0.33360526 -0.48772332
  0.00317069  0.2558549 ]
[-1.7435157  -0.79663634  0.13042407  0.63584703 -0.06790811  0.8238663
 -0.16613957  1.416062   -0.24980304  0.56305856  0.6688832  -0.8033655
 -0.22294782  1.1339208  -0.39122498  0.20389068  1.2048712  -0.30217424
  0.11261364  0.22423117]
[-1.5758594  -1.0485449   0.5581144   0.2827738   0.18165688  0.44686887
 -0.64932406  0.95778394  0.17924644  0.566592    0.75574577 -1.2673378
  0.03995648  1.0909673  -0.48106587  0.0819845   1.5534918  -0.36337188
  0.7070864   0.6938833 ]
[-0.69558936 -0.5866059   1.4620342   1.2201104   1.0311074   0.9614526
 -1.4247586   0.53319585 -1.1150645  -2.3401787   0.8718132   1.1306852
 -0.26219362  1.6090511   0.4455602   0.46410978  0.39962825  0.4184817
  0.6151538  -1.979628  ]
[ 0.7094429  -0.33090484 -0.05628246 -0.41022822 -1.3907629  -1.0585477
  0.06007572  0.09144039 -1.1321446  -0.31247732 -0.28946552 -0.56666046
  1.7112415  -0.6008629  -0.55722356 -0.38528922  0.43390346 -0.883735
  0.34895244  0.6990249 ]
[ 0.6082449  -0.14848727 -1.2263769   0.7546245   1.5571846   1.8775809
 -0.83268696  0.5789961  -0.8011738  -0.7025434  -0.33255148  0.25689736
  1.2161264   0.03846851 -0.98163223  0.08595543  1.3276864  -1.1582265
  1.2459284  -0.14406492]
[-0.8232904   0.44119805  1.1970043  -1.4418688   0.7843091  -2.2318249
 -0.9055359   1.0951271  -1.4636424  -0.48364127  0.8851748  -0.4771579
  3.416787    1.67376     0.44011694 -2.4089947  -0.1775046   1.6859779
 -0.14863172 -0.48779476]
[ 2.0571113e+00  4.0101504e-01 -1.0982184e+00 -1.2081546e+00
 -1.9814354e+00 -3.0751212e+00  1.9542712e-01 -9.2016125e-01
 -1.0205842e+00  4.9004488e-02  1.1650844e+00 -1.2313720e+00
  1.7441536e+00  2.2432008e-03 -1.1543999e+00 -3.7402394e-01
 -1.5783691e+00 -1.9047633e+00 -5.6544149e-01  1.0656476e+00]
[-0.8405745  -1.397089   -1.502735    2.1219857  -2.5947475  -0.33015501
 -0.4990245   0.03299221 -0.770305   -0.63139373 -2.6752381   1.6009569
  0.14960872 -0.7693832   1.0377647  -0.31266966  2.4112372   2.2747543
  2.7224813  -1.0092655 ]
[ 0.2649448   0.27056253  0.7155815  -0.51765615 -0.78292465 -0.81348884
  0.04287845 -0.608758    0.4943245   0.2993264   0.86509484  1.937253
 -0.16266958 -0.5952727   0.21446201 -0.20615335  0.6880561  -0.21471684
 -0.07257464 -0.06120398]
[ 1.8829556  -3.6318185  -0.4897308   0.7963553   0.3042686  -1.0683978
 -1.3561082  -1.6217359   1.8093705   0.94296664  0.3755577   0.7943959
 -1.0765414  -2.4192467  -0.5154584   2.164825    0.7881516  -1.6185179
 -0.44898176 -0.01630797]
[-0.4106967  -0.07665228  0.04510471  1.3903848  -2.5265622  -1.3846327
 -0.16682768 -0.30997583  0.11776578 -1.1994605   3.9724987   2.3122694
 -0.41469046  0.48260832  0.83172756  0.00741684  3.108989    1.271037
  0.89956844 -0.5652335 ]
[-1.762642   -0.975988    0.8730734  -0.97431976 -1.5932149   0.6012198
 -2.977023   -0.32394496  0.69230866 -0.6227878  -0.9725184   1.4546596
  0.5443435   0.7103264   1.3816134  -1.0331233   0.12480633 -3.0912895
  0.00473296 -0.318571  ]
[-1.1497979   0.07468197 -0.0694646  -0.21188256 -0.4570236  -0.609294
  0.2105416   0.27503204  0.2770489  -0.5660777  -0.83778155 -2.3228269
 -1.1896633   0.6766764   1.1083751  -0.15847722 -2.995503    2.3547678
 -0.592343   -0.0286204 ]
[-0.36860195  2.6370425  -0.8277968   0.0397822  -0.14384083  1.6537821
  0.897893   -0.3420415  -0.2697624  -0.54409236 -0.851256   -1.0160408
 -1.2017217   0.20519222  0.8010838  -0.00319341  0.4225158   0.17624095
  0.2736418  -0.20720784]
[-1.6163639  -0.26424184  1.6584774   0.47652224  0.3797964   1.7333158
 -2.8449295   2.1484804  -0.14492212 -1.6424874  -0.2235789  -0.24366067
 -1.2427833   2.1926322   2.039439   -0.44526938  0.24823959  0.45729446
  1.05329    -0.67207754]
[ 0.41965908  0.6682607  -0.6528079  -0.38474047  0.22766227 -0.21366508
  0.9029483   0.18151134  0.5451838   0.9341209   0.5512282  -0.9277445
 -0.21636648 -0.2514318  -0.15549108 -0.09636477 -0.6701799  -0.03768801
 -0.7306681   0.9392298 ]
layer 1 Activation
tanh
layer 2 Dense
20 40
[ 0.16941357 -0.45535505 -0.09147517  0.6985196  -0.06656078  0.24142799
  1.2233367   0.44942138 -0.33074754 -1.0758795   0.47167143 -0.84326464
 -0.22213773  0.05587382 -0.17782313 -0.08375248 -0.20235488  0.39328513
  0.77664495 -1.426824   -0.5232242  -0.62032425 -0.40038565  0.9184766
  0.01542064  0.8471978   0.2048818   0.9741797  -0.58989614  0.8934161
 -0.11007184  0.34664562 -0.05728856 -0.06382448 -0.559219   -0.08398163
 -0.37151274  0.63521326 -0.79964906  0.5353517 ]
[ 0.02978263 -1.1639801  -0.18220678  0.22244902  0.7222999   0.9923059
  0.666043    1.0702931   1.5043089  -1.3755056   1.0538552  -0.2847501
  0.7305232  -0.23531576  0.20051327 -0.11238967  1.497736    0.07306503
  0.2902883   0.39659697 -1.3374577  -1.5290394  -1.0851618   1.1008079
  0.40216893  0.3472004   0.21775497 -1.5265315  -0.23376745 -1.6138251
  0.90468097 -1.3184316  -0.21275859  1.4498764   0.62904793  0.01635117
  1.1323345  -0.03482961 -0.6787181   0.7863235 ]
[ 0.46211168  0.5818892   1.7585794   0.44051036  0.89535505 -0.4683592
 -0.9977466  -0.1918317   0.70103914 -0.5298237  -1.1081431   0.83327246
 -0.8517567   0.9254964  -1.2408495  -0.5588423   0.2643529  -0.48307753
 -0.47153595  0.5292328   1.1331319   1.2606355   0.8976173  -1.0466952
  1.0388732   0.24809363  0.159932   -0.54198945  0.47865403 -0.19148776
  0.18535617  0.41480282 -0.60591656 -0.5716069   0.05075202 -0.67531496
  0.43774518  0.17674166 -0.22306462 -0.2129736 ]
[ 0.27597615  0.5603765   0.06526242 -0.39204842  0.50469226 -0.5574439
  0.36517546 -0.22808616 -0.41269374 -0.9906488  -0.57724327  0.593883
  0.06024769 -0.6971326  -0.58708775 -0.20148598  0.10645823 -0.25423574
 -0.07109307 -0.51253307 -0.37800583 -0.00419446  0.48813903 -0.29646456
 -1.6581475   0.5717893  -0.10971832  0.35882896  0.00532845 -0.63665587
 -0.25768125 -0.26862046 -1.3078992  -0.3751044  -0.6461529  -0.7090778
  0.71078867 -1.5232238  -0.9165452  -0.7676795 ]
[ 0.08565152  0.6921485   2.4528115   1.3940088   0.19773953 -0.5279014
 -0.63262236 -0.3238343  -1.8300894   1.0201979  -1.5252637   1.1670532
 -1.665339    1.9142209  -0.36960262  0.06952149 -1.9358101  -1.4836564
  0.9078442   0.18811907  1.2732614   1.4295865   0.89027345 -1.0399884
 -0.24520262 -0.4260607  -0.84856665  2.1170142   1.2810878   1.4693046
 -1.4245147   1.186183   -1.1312298  -1.8825458   0.8073388   0.02671954
  0.10187446 -0.17044853  1.1245672  -1.0108024 ]
[-0.06690346  0.9034864   0.6317634  -0.3376424   0.5214501  -0.08706914
 -0.19660498 -0.47488627 -1.1275343   1.1526482  -0.6408999   0.80503154
 -1.0997766   0.9967282  -0.25722024  0.04345708 -1.5998195  -0.813415
  0.34768417 -0.37259105  0.00868018  0.33693862  0.3291054  -0.33687234
 -1.240677    0.19334799  0.45029598  1.0387129   0.3782504   0.15641521
 -1.0127884   0.83385634 -0.23430333 -0.6027655   0.5662266   0.02229676
  1.1776087  -0.5173061   0.3497591   0.23556574]
[-0.1107572  -1.4354789  -0.7805798   0.6163268   0.8740276   0.69952255
  1.7722676  -0.3150863   0.27813277 -1.5916573   0.6869915  -0.9066515
 -0.2835331   1.0289395   0.2890048  -0.04283642 -0.09880682 -0.1136267
  0.56359935 -1.1659029  -1.5366933  -1.2498564  -0.8528385   1.286973
  0.7295387   0.49616617  0.5721946   0.35324773 -1.1948456  -0.01488062
 -0.14804672 -0.6790949   0.16167018  0.59841526 -0.62214714 -0.33179718
  0.05271807  0.7058003  -0.41100162  0.78099424]
[-2.02804744e-01  8.16755593e-02  7.06902385e-01 -1.33500814e+00
 -5.66086769e-01  4.73104298e-01 -7.64803112e-01  6.89793468e-01
  5.91491461e-01  4.89732742e-01 -2.77015358e-01  3.46477389e-01
  3.31706107e-01 -4.87933815e-01 -1.69425815e-01  9.45206881e-02
  3.32291096e-01  2.51110435e-01 -2.11669207e-02 -5.41874324e-04
 -6.02384470e-02  1.00740805e-01  1.60370737e-01  3.56985450e-01
  1.04328024e+00 -5.25023751e-02 -4.84503806e-01 -1.08231997e+00
 -2.53971785e-01 -5.87985635e-01  3.49821866e-01  1.23382136e-01
  8.52924526e-01  3.83288115e-01  1.27753735e-01  2.50521988e-01
  7.03200459e-01 -1.30466330e+00  2.37424672e-01  1.75581232e-01]
[-0.18580489 -0.18133093 -1.1938952   1.6244386  -0.27765688  0.4115296
  0.03529777  0.23361668 -0.2352838  -0.73781604  0.22745962 -0.18669951
 -0.19832914  0.06931529  0.12159875  0.13003986  0.15121114  0.31493396
 -1.4793079  -0.38337058 -0.74255687 -0.15510061 -0.06159665  0.5168844
 -0.39432216 -0.5034972  -0.08468816  1.1444055  -0.16856639  0.5260956
 -0.7196912  -0.02447723 -0.27473527  0.00989877 -0.2892855   0.03041742
 -0.8593005  -0.6013457  -0.40062496  0.48096842]
[-0.12016675  0.07778174 -0.78766173  0.252291   -0.20587403  0.46785763
  0.9327058  -0.01527963  0.46519664 -1.3337638  -0.06796198 -0.28998154
 -0.7912536  -0.12687449  0.04127141  0.29343805 -0.07099605  0.24067204
  0.31667748 -0.10525861 -0.85009646 -0.22322641  0.5252537  -0.10064106
  0.39982095 -0.45128784 -0.23292097  0.9837458  -0.66350394  0.5294574
 -0.36443478  0.44695115 -0.02018343  0.06281566 -0.78680474  0.51567334
 -2.1347115   0.30858725 -0.17902598  0.54979616]
[-0.43118456 -1.6846483   0.3254645   0.65878487 -0.11593437  0.7172332
 -0.39081222  0.74300647  0.262879   -0.4355058   1.1614367   0.28426832
  1.3864948  -0.9965627   0.5837468   0.34993827  1.3707215   0.34996694
 -0.72320634 -0.11725493 -1.1136988  -1.3988316  -1.565955    1.3659604
  0.8583678  -0.03716024 -0.0259101  -0.8957231  -0.961466   -0.5912469
  0.7879841  -1.4236467  -0.5863293   0.22964652 -0.67182344  0.43481505
 -0.86881274 -0.23622198 -1.2852527   0.2168266 ]
[-0.01175617  0.24398509  0.3071574  -0.16481635  0.69301385 -0.15844344
 -0.20966257 -1.964736   -1.3179803   2.3798852  -0.9511843   0.8828895
 -1.6214848   0.46839193 -0.7921578  -0.27664366 -1.0737146  -0.596854
  0.49783012  0.24035469  0.7302114   0.53011703  0.73160785 -0.8279697
 -0.9082787   1.105271   -0.23637924  1.282685    1.1236587   0.47609067
 -1.6290296   1.1194235  -0.78137684 -0.8074784   0.2540459  -0.31304035
  0.3235592   0.77035224  0.4846227  -1.0678774 ]
[-0.0478629  -0.76617116 -0.0500232  -1.6752299   0.317354    0.3785868
  0.88319755  0.66101766  1.2398779   1.2343266   0.6072525   0.102083
  1.0252085  -1.2303318   0.12133626 -0.10216295  0.01589024  0.5000889
 -0.10363852 -1.140963   -0.56919336 -0.66316384 -0.98826563  0.3962446
  1.2518814   0.68413836  1.1512353  -0.8414117  -1.4288249   0.02718633
  1.0233073  -0.2860327  -0.13734354  0.46700984 -0.8878045  -0.48387393
 -0.73539656  0.2742153  -0.24935697  0.15049656]
[ 0.32214645 -0.55592775  0.58500755  0.03129732 -0.34508023 -0.38841325
 -1.4298944   0.33051983  0.4623643   0.40473115 -0.37079012  1.2683423
 -0.6075817  -0.15494631 -1.0272619   0.02457164  0.05734917 -1.6640218
  0.1231971   0.85145766  0.23872657  0.18792093 -0.3969781  -0.8497926
  0.03777307  0.6789163   0.2683695  -1.3132944   0.7273628  -0.8459844
  0.9154483  -0.76848453 -0.7331369  -0.1631018   0.9167606  -0.19714323
  1.5873909  -1.1659466  -0.2410705  -0.60704327]
[ 0.01364421 -0.279158    0.03144724  0.03654376 -0.0927448   0.2446091
 -0.47672    -0.0989451   0.06714284  0.3179034  -0.09731074  0.525509
  0.81769496 -0.00676642 -0.25663656  0.08898889  0.1572889   0.59157896
 -0.67057776  1.2754141   0.41921264  0.57761824  0.26583156  0.5391751
 -0.3021988  -0.09722669  0.05433029 -0.4744253   0.6804079  -0.23550496
 -0.05869212  0.69855386 -0.33420792 -0.66801506  0.32887757  0.13549125
  0.72569877 -0.71147966  0.05420076  0.43664044]
[ 0.2708224  -0.66348195 -0.40169838  0.9432477   0.4612695   0.09391055
  0.40905613 -0.13347559 -0.35399574 -0.8656705  -0.0624285   0.07481088
  0.2896063  -0.37842625 -0.64388657 -0.18498254  0.23917104 -0.5729479
 -0.36611918 -0.15396984 -0.40469462 -0.08078687  0.04831241 -0.04421635
  0.00189657  0.3205853   0.42477787  1.0961115  -0.0887754   0.392713
 -0.9274658   0.22250134 -0.15807575 -0.5614131  -0.85566294 -0.08938889
 -0.70524716 -0.21197471 -1.2173964   0.43190408]
[ 0.16771722  0.7546053   0.05740471  0.27493912 -0.01421691 -0.82365954
 -1.0004333  -0.7897891  -1.1544844   0.90777373 -0.55013514  0.9163719
 -1.0126934   0.50517035 -0.3426396   0.25011656 -1.0566406  -0.712741
  0.53260744  0.99829966  0.4559501   0.18687631  0.5052754  -0.64266825
 -0.8813319  -0.08787639 -0.42693374  0.90744674  0.77686566 -0.4893101
 -0.6773824  -0.18502957  0.85875505 -0.15487641  0.83275586  0.34056127
  0.29453012  0.12184494  0.07318322 -0.63152456]
[-0.0852761   0.71516     2.2038796   0.46615312  0.36833733 -0.56116927
 -0.8335863  -1.2934289  -1.0861504   1.1541992  -1.0869627   0.05058963
 -1.359567    1.799606   -0.8014412  -0.05507162 -1.0248013  -0.9020939
  0.97704387  1.081698    0.6834316   0.8723598   0.7266129  -1.138047
 -1.5632403  -0.15011512 -0.57624185  0.97582704  1.6290692  -0.08821459
 -1.1465718   0.7556682  -0.2596486  -0.9695839   0.91312975  0.19839653
  1.0701637   0.41997463  1.0997126  -1.6988758 ]
[-0.10804112  0.30095676  0.29156604 -0.4000349   0.3373495   0.35158935
 -1.048603   -0.23672926  0.10001166  0.1153487  -0.35177368  0.78330296
  0.5823652  -0.5340038  -0.1703529  -0.1258897  -0.2236887   0.05691051
  0.20131022 -0.1214419  -0.39890647 -0.09156349  0.45718902  0.10504171
 -0.8674031  -0.44967964  0.16641593 -0.09867796  0.5256105  -0.5793466
 -0.09609208  0.08129379 -0.48363385  0.61160034 -0.14321847  0.18256986
  0.44684407 -0.30275446 -0.4395539  -0.31921464]
[-1.8112484  -1.1880231  -0.9446919   0.40141472 -1.4287771   1.132806
  0.08267918  0.8425801   1.4525378  -0.5784794   1.8445313  -0.3901011
  1.6366055  -1.0661896   2.0305932   1.8657781   0.4075515   1.2767456
 -1.0354393  -0.41358066 -1.1929369  -1.6227772  -1.3212053   1.7209477
  1.4129802  -1.8302569  -0.88312733  0.09445433 -1.7729586   0.35363406
  0.5991351  -1.0908997   0.87381524  1.9315095  -0.32713968  1.8616592
 -1.4183826   0.37334883 -0.2584527   0.8335937 ]
[-1.2567722  -1.3413429  -0.68995565  0.24213965 -1.1133876   0.56542885
 -0.02599716  0.64611095  0.65675694 -0.580882    1.5393177  -0.42200068
  0.6729714  -0.54132396  1.2084475   0.9942362   0.35449862  0.98692733
 -0.78525835  0.08339304 -0.8421989  -1.0945977  -1.0534921   1.1152693
  0.83151317 -1.1482701  -0.65685636  0.08373097 -1.1881315   0.01777614
  0.44384328 -0.7411963   0.8196734   1.0713693  -0.7191659   1.302866
 -1.3506424   0.42690924 -0.08961638  0.38593057]
layer 3 Activation
tanh
layer 4 Dense
40 20
[ 0.86479104  0.92677575  0.22360606  0.6575958  -0.6320107  -0.3833279
 -0.40639743 -0.5308348   0.7413241   1.1235362  -0.30828455 -0.47925946
  0.43084854  0.21029046 -0.42683232 -0.11089864  0.49672717  0.49723148
 -0.0338744  -0.73454374]
[ 0.46036506  0.1454213   0.85087115  0.45359805 -0.05203172 -0.95692277
 -0.3466485  -0.58268607  0.78136194  0.4985227  -0.6144249  -0.387541
 -0.9214917   0.39894047 -0.16606744 -0.04766455  0.50596863  0.31158534
  0.18024811 -0.38709983]
[-0.13711877 -0.22233273  0.69151336 -0.24211942 -0.12475876 -1.8357902
 -1.3642931  -1.7321265   1.1395341  -0.76893264 -1.200396   -1.4456009
 -0.24485394  0.48100713 -1.012382   -0.8841037   0.8819728   1.5132811
 -0.04172749 -0.87094754]
[-0.3165945  -0.71974236  0.14387463 -0.14701858  0.35527557 -0.29820764
 -0.15380517 -0.35978276 -0.5050495  -0.3891932  -0.3266518  -0.32598084
 -0.0012585   0.10202035  0.13919833 -0.21205202  0.3870526  -0.07075133
 -1.1592648  -0.27545026]
[-0.1105296   0.48313838 -0.01255381  0.47404787 -0.891736    0.14764045
 -0.07587638 -0.33367455  0.28826874  0.4665781  -0.36318755 -0.2530255
  0.80344677  0.24852897 -0.22766745 -0.04331249  0.5433492   0.50150394
 -0.8864427   0.02304008]
[-0.22491744 -0.5729455  -0.00473797 -0.33932677 -0.01743502  0.21811311
  0.03977645  0.33027297 -0.5308517  -0.21173152  0.06595039  0.10806945
  0.5504823  -0.2843743   0.46036658 -0.0659548  -0.03164737  0.12167592
  0.4049668   0.01875401]
[-0.06284434  0.18204117 -0.27845788  0.11895066 -0.4516698   0.32743722
 -0.27645448  0.21628612 -0.4468076   0.48401222  0.13464858  0.47486714
  0.87969816 -0.8942241   0.6875599   0.53721607 -0.17759158 -0.39221513
  1.0694166   0.3101835 ]
[ 0.15723827 -0.24684604 -0.5539855   0.09556428 -0.11552651  0.32737443
  0.58495015  0.39599612 -0.9559694   1.0135825   1.1633835   0.862132
 -0.24983704  0.46916506  0.98994195  0.87755126  0.06013582 -0.5859017
  0.19329871  0.84864765]
[-0.13554724 -0.3973635  -0.47382808  0.02403057  0.02036178  0.9826034
  0.40004784  1.9541936  -1.2420789  -0.28885883  1.0551968   1.1781749
  1.041297    0.21893778  1.1162584   0.8764367  -1.0084299  -0.5716709
  0.5486203   1.2318832 ]
[-0.663634   -0.673848    0.67585635 -0.30027708 -0.03634199 -1.1860684
 -0.93137795 -1.4033382   0.829916   -0.7056774  -0.9942483  -0.9691284
  0.1892815  -0.01351681 -0.926511   -0.5709647   0.52220047  1.034197
 -0.62461424 -1.2768224 ]
[ 0.04300831 -0.15876971 -0.7501939  -0.58101004  0.22647752  0.7542494
  0.4866419   0.28162405 -0.7624059  -0.04492814  0.8633156   0.8397524
  1.7526132   0.13561785  0.66994256  0.73692495 -0.919792   -0.9260851
  0.43218032  0.65016955]
[ 0.5217221   0.30846104  0.4788094   0.07138313  0.0339363   0.10163728
  0.2635802  -0.6799356  -0.28405505  0.1302766   0.30614758 -0.08543623
 -1.0021921   0.5307687  -0.5858403  -0.21519855  0.27710122  0.5131884
 -0.9553622  -0.77870655]
[-1.10908955e-01 -6.87121227e-03 -6.54096365e-01  1.49345800e-01
  2.84698427e-01  1.16864371e+00  1.20484221e+00  1.40582669e+00
 -8.22556376e-01 -1.03869778e-03  7.79393494e-01  5.18884599e-01
  8.04263473e-01 -2.52936427e-02  4.28052068e-01  1.61856353e+00
 -4.39793378e-01 -9.63731468e-01  4.96510178e-01  8.99563432e-01]
[-0.5749222  -0.6373452   0.7754833  -0.36457682 -0.4323926  -0.9608374
 -1.1793822  -1.5939056   0.32415262 -0.65518785 -1.2159243  -0.97992134
 -0.5774999   0.44240814 -0.61100113 -0.803367    0.4510079   1.0510747
 -0.7721624  -1.2006903 ]
[-0.6803656  -0.46517032 -0.18675569 -0.82380897  0.2746829   0.35471863
  1.0171856   0.33810636 -0.74084616 -0.7842343   0.5676764   0.7363356
 -0.71420187 -0.2699581   0.4026485   0.8579534  -0.62684053 -0.11396579
 -0.05267296  0.3551836 ]
[-1.0131401  -0.91301304 -0.39090526 -0.8471669   0.75037885  0.33111212
  0.9403628   0.76225054 -0.44091856 -1.3210475   0.53617513  0.82808226
  0.3602731  -0.262673    0.6362515   0.31181577 -0.62828654 -0.58766603
 -0.05520241  0.552511  ]
[ 0.21298192 -0.68268156 -0.79615045  0.17201038 -0.15298006  0.5871179
  0.52072144  0.52829343 -0.39804542  0.79699415  0.35655433  0.13370863
  0.7963521   0.1704624   0.26103655  0.43783697 -0.2268538  -0.6896416
 -0.50970095  1.0274881 ]
[-0.32702076 -0.50438696 -0.09181219 -0.793474    0.55539566  0.0500521
  0.6084197   0.5370493  -0.39554012 -0.50703925  0.46805027  0.56538963
  0.78985053 -0.46882647  0.395091    0.17636555 -0.40196484 -0.43854174
  0.27248514  0.33628857]
[-0.0417399  -0.00764688  0.07948473  0.10926316 -0.10514823  0.30696875
 -0.42273316 -0.2853128   0.36352414  0.16225801 -0.63627666 -0.1416396
 -0.00950794  0.36035007  0.23437922 -0.39201862  0.30998775  0.7361921
  0.8009241   0.04626798]
[-0.41968215 -0.10149812  0.34458563 -0.6913132  -0.16492648 -0.8899553
 -0.49419823  0.01694529  0.5316304  -0.6582473  -0.32998335 -0.45679152
 -0.48464936  0.34417444 -0.43619382 -0.46269512  0.38362405 -0.00511535
 -0.772726   -0.27998248]
[ 0.00294324  0.07066497  1.0433844   0.0078248   0.00518658 -0.7694119
 -0.02995424 -1.0504991   0.601398    0.34804696 -0.4718208  -0.5449035
 -0.49695224  0.69109863  0.23286967 -0.05276913  0.61428046  1.1339993
 -0.35477084 -1.001887  ]
[ 6.3557993e-04 -1.6384584e-01  1.4055507e+00  9.5118411e-02
 -2.0626214e-01 -8.6725658e-01 -7.3984301e-01 -7.7424157e-01
  7.6126266e-01 -2.0134413e-01 -1.0964283e+00 -1.2071462e+00
 -1.3949802e+00  3.6128542e-01 -1.1162219e+00 -3.9031208e-01
  7.5588292e-01  1.0974232e+00 -6.0754079e-01 -1.3270303e+00]
[ 0.2511236   0.6578969   0.60213596  0.34569797  0.05581253 -0.73094046
 -0.73195624  0.3381714   0.55544907 -0.07281889 -0.89574003 -0.22321075
 -0.01289801  0.04457363 -0.91969657 -0.71893597  0.5354032   0.33633292
 -0.05366159 -0.6094136 ]
[-0.28648335 -0.5257242  -0.781603    0.11440822 -0.3137446   0.95113605
  0.69827676  1.1809727  -0.59698313 -0.0961985   1.0205185   0.8090106
  0.7337002  -0.9246209   0.5980395   0.8224677  -1.1167635  -1.1955996
  0.8629226   1.1015909 ]
[ 0.04804188 -0.11693666 -0.9372165  -0.08311955  0.2802843   0.77088714
  0.7150372   1.2282556  -0.9791647  -0.35154134  0.7641914   1.2487448
  0.9139046   0.18045631  1.375138    0.57747686 -0.9146496  -0.3972346
  0.647826    1.0565727 ]
[ 0.08606229  0.22239725  0.13779463  0.28146017 -0.7504644  -0.43017316
 -0.7547689  -1.0905875   0.35016048  0.56324124 -0.5195977  -0.98409486
  0.647105   -0.19777156 -0.5062002  -0.97556     0.56836855  0.7141855
 -0.34273833 -0.83286154]
[ 0.23038287  0.5038495   0.18289086  0.19515666 -1.1091801   0.13759334
 -0.23338105 -0.7513035   0.3181305   0.09146585  0.0794839  -0.35586306
  1.0456346  -0.85947424 -0.10779319 -0.5782036   0.37357983  0.3300631
 -0.44338346  0.00925165]
[-0.03178355 -0.8762229   0.7858286  -0.17924687  0.07352741 -1.0952107
 -0.57909155 -0.80506     0.5953668  -0.7993385  -1.0915395  -1.0325719
 -0.4988965  -0.01912336 -1.4106929  -0.4150502   0.713447    0.55401886
 -1.1542299  -0.94215286]
[-0.0957739   0.44243762  0.58014625 -0.07853345 -0.27292916 -1.356476
 -0.90679896 -0.716678    1.1220559  -0.08422378 -1.8431733  -1.5668589
 -1.0509514   0.81454355 -0.8236741  -0.94412714  1.4048392   0.7408835
 -0.4787507  -1.2124135 ]
[ 0.05064957 -0.6573632   0.6401043   0.14509365  0.01365114 -0.03551784
  0.20425542  0.24937154 -0.13344897 -0.90947896 -0.193219    0.11198292
 -0.28545815  0.0292536  -0.06734211 -0.46099922  0.01786587  0.4054245
  0.0620468  -0.5156094 ]
[ 0.03545536  0.19857791 -0.5144846   0.01976472 -0.27593508  0.64864683
  0.29565257  0.09950163 -0.40869802  0.08316249  0.9003756   0.69534695
  0.5566943  -0.06173965  0.6480851   0.5492136  -0.49533752 -0.46138072
  0.9413977   0.25616416]
[ 0.07691535 -0.3054971   0.5174974   0.04340457 -0.37420377 -0.3401678
 -0.10225153  0.10405409  0.31334364 -0.16299234 -0.46893492 -0.46595874
 -0.8279818  -0.25792706 -0.84656274  0.10856528 -0.3611589   0.30200684
 -0.11493235 -0.6667251 ]
[-0.02344334 -0.22363135 -0.29202384  0.02707338  0.42506257 -0.14477395
  0.03138409  0.33751163 -0.04299561 -0.667563    0.03168618  0.6424483
  0.8477837   0.07994966  0.07170318  0.3591381  -0.10315138 -0.35757476
  0.82030463 -0.19870675]
[-0.36052316  0.00680188 -0.44516677 -0.84505993  0.75485086  1.3281054
  1.0478703   0.11482743 -0.8715337  -0.51635736  0.7424692   0.75777376
  1.4884241   0.37910935  0.5675847   0.88805276  0.00241752 -0.43469176
  0.30672777  0.986735  ]
[ 0.2973844   0.4338226   0.23313044  0.30641416 -0.2035049  -0.339229
 -0.34898013 -0.483621    0.42876318  0.30881125 -0.12510042  0.39542842
 -0.02160848  0.14870982 -0.12666374 -0.32505193 -0.0825146   0.23812355
  0.25831965 -0.37073016]
[-0.727708   -1.0635864  -0.46315548 -0.82333875  0.5534448   0.50747436
  0.90928525  0.56485987 -0.75459564 -0.9591133   0.5469679   0.40791306
  0.3493101   0.05819157  0.6981553   0.36263743 -0.3465042  -1.0094755
  0.23199143  0.62457776]
[-0.00201442 -0.42645139  0.51786363 -0.22363433  0.33959162 -0.8006982
 -0.4428282  -1.0385355   0.877836   -0.02298446 -0.39521274 -0.8079958
 -0.21157482  0.4198937  -1.4173719  -0.55508757  0.68785834  1.0922422
  0.27556422 -0.627516  ]
[ 0.03545815  0.41153434 -0.04110775  0.08937535  0.30067143 -0.4166578
 -0.53971136  0.09463625 -0.35014352 -0.25765634 -0.16546012 -0.1495882
  0.6939495  -0.56311893  0.06419414 -0.03975978  0.1010239   0.08819118
  0.7944762   0.03570938]
[ 0.39725524 -0.16407388 -0.06603526  0.12264241  0.24388368 -0.4699464
  0.19599247  0.12264428  0.2212704  -0.08906691 -0.07639972  0.4645687
 -0.66967165 -0.17289603 -0.40282574  0.51171976 -0.16299902  0.630924
  1.1011482   0.23104534]
[ 0.24337351  0.25618136 -0.45480523  0.3528137  -0.22955498  0.22860734
  0.4616239   0.29465726  0.34017074  0.50769943 -0.11529342  0.27679074
  1.4032333  -1.1736263  -0.00444779  1.1843117   0.2928979  -0.79499483
  0.32936215  0.4154276 ]
[-0.55571437 -0.76470083 -0.16115205 -0.36869383  0.57639074  0.29295167
  0.63112056  0.82440346 -0.35464936 -1.1193731   0.598469    0.6183753
  0.5320194  -0.32955974  0.19497195  0.03997653 -0.43681177 -0.55845463
 -0.217375    0.64736396]
layer 5 Activation
tanh
layer 6 Dense
20 1
[-1.1033926]
[-0.99352145]
[0.31079745]
[-1.0523987]
[0.60043687]
[-0.46034846]
[-0.4835943]
[-0.6847802]
[0.38886732]
[-0.9974402]
[-0.77953047]
[-0.74209195]
[0.26526007]
[0.1097217]
[-0.53457445]
[-0.31689313]
[0.5271217]
[0.5152059]
[-0.20697616]
[-0.5761253]
[1.6265931]
