layers 7
layer 0 Dense
20 20
[-0.2567111  -0.13550472 -0.06719735  0.16222203 -0.16001692 -0.19847494
  0.15184905 -0.17025056  0.11668281 -0.20375103  0.29115164 -0.02069416
  0.18811575 -0.30255324 -0.16395721 -0.39812955  0.31301764 -0.05275742
  0.22713459 -0.06473031]
[ 0.23988369  0.31442288 -0.00366123  0.40145594  0.331373    0.750837
 -0.23191272  0.15597124 -0.43797523 -0.0967463  -0.19932495 -0.36827272
  0.00788205 -0.10535502  0.3133375  -0.34552678  0.17503051  0.14855728
  0.09387914  0.45894107]
[ 0.22454086  0.5290813   0.24913521  0.3121118   0.5043535   0.67752725
  0.12327686  0.21367233 -0.03925002 -0.28914595 -0.43638626 -0.22417498
  0.15577933 -0.04235318  0.1186923  -0.31472367 -0.22972345  0.21123683
  0.50157297  0.37215337]
[ 0.02508853  0.29633814 -0.27780226  0.11351915 -0.02800053 -0.23810415
  0.02951154 -0.26389715  0.13966516  0.12420481  0.00578942 -0.03981926
  0.13695109 -0.34532222  0.09021123 -0.17533983 -0.1305553   0.10289735
  0.20109552 -0.14553225]
[-0.3238472   0.07456701  0.27204084 -0.21196309 -0.24583706  0.25499117
  0.29443488 -0.5722505  -0.2915428  -0.20397677  0.23571922 -0.20733318
 -0.10214526 -0.39132306  0.09474076 -0.20689072 -0.24493167 -0.15025173
  0.15915506 -0.136205  ]
[-0.12881947 -0.16141194 -0.07860369 -0.68200284 -0.43895307 -0.15584709
  0.28497308 -0.37486723 -0.10279199 -0.01110408  0.35627708  0.36691976
 -0.34352553  0.34980655  0.01558792 -0.24344997 -0.19641535 -0.18146724
 -0.28671923 -0.5005852 ]
[ 0.15189722 -0.24264488  0.31075212 -0.3293027  -0.5415592  -0.16889709
  0.20232818 -0.30850285  0.32733586 -0.1910486   0.3377885  -0.06397804
 -0.43795756  0.56529915 -0.24362758 -0.08648311 -0.15080519  0.50595367
 -0.266797   -0.6813253 ]
[-0.39726052  0.06686302  0.05109892 -0.2081595   0.2178748  -0.34750864
  0.18165743  0.26593515 -0.22094195 -0.2661282   0.16878465 -0.00973202
 -0.40662336  0.417453   -0.13631153 -0.10392691 -0.11015734  0.25545704
  0.23291272  0.321524  ]
[ 0.34414315 -0.2886789   0.48532978 -0.21676657 -0.49621937 -0.0419023
 -0.12161659 -0.12527081 -0.20284441  0.43276525 -0.19006488  0.06915345
 -0.23481278  0.45372567 -0.11221597  0.22784668  0.18739894  0.13858706
 -0.27350745 -0.20323654]
[-0.49540812 -0.3052207   0.39468354 -0.5342738   0.09589257  0.2994759
 -0.36791956 -0.410635    0.19636321 -0.49837294  0.00729887 -0.33244362
 -0.48489287 -0.57950145 -0.2759207  -0.19780585 -0.36146966 -0.14326556
  0.18964262  0.0867281 ]
[ 0.09479409  0.18454905 -0.22767171 -0.442966    0.49963883 -0.04429291
 -0.17261212  0.22237255 -0.3069436   0.39579448 -0.26497963 -0.47214887
  0.50999767  0.536395    0.3669754   0.5323947   0.30978167 -0.5290432
  0.08152729 -0.02628505]
[-0.32584378  0.1822473  -0.26365432 -0.1506134   0.33639848  0.37992066
  0.01009871  0.15021664 -0.21859705 -0.15384433 -0.11884471  0.18523228
  0.38796768  0.5108818  -0.10679119  0.00502325 -0.3468105  -0.14086542
  0.76659364  0.5450045 ]
[-0.15777354  0.14110631 -0.26462415  0.14469557 -0.31326643  0.15320867
 -0.29629079 -0.06724831 -0.05994331  0.16595355  0.11547724 -0.3410323
 -0.12400825  0.21609291 -0.28089228 -0.2525063   0.22022362  0.26305506
 -0.3118921   0.25962076]
[-0.27746442  0.10256406 -0.17995504  0.42026475  0.15514655  0.09493048
 -0.49536481 -0.08023797 -0.08750021  0.12179551 -0.00638821 -0.21228689
  0.05147698 -0.21554513  0.20088585  0.15798116 -0.2158764  -0.20245019
 -0.32710063  0.08785149]
[ 0.3573708   0.08741841 -0.34741387  0.5223616   0.10352707  0.39401874
 -0.09444264 -0.21381223 -0.25785115  0.37759233  0.052604   -0.42528185
 -0.06507371  0.03102862  0.00416087  0.24543041  0.24754389 -0.30731806
  0.14625898  0.02229169]
[-0.36155766  0.00956992  0.15855004  0.86668414  0.06091354  0.59961194
 -0.22273889 -0.19987284  0.32045057 -0.49752027 -0.31444532 -0.27892783
 -0.07260891  0.38604996  0.31081265  0.65404695 -0.5172487  -0.04643831
  0.29443246 -0.00325082]
[-0.23382159 -0.33379874 -0.3137288   0.3752081  -0.02148522  0.27904055
  0.08716162  0.00193238 -0.12347227  0.1270314  -0.03294344  0.18843445
 -0.2394923  -0.59931654 -0.29513058 -0.14132875  0.38757685 -0.11345278
  0.18781301 -0.04631393]
[ 0.6734396  -0.3877339  -0.06972154  0.24133366  0.81643677 -1.6745416
  0.3171667   0.5876794   0.37956014  0.43983734 -0.2497781   0.7538312
  0.38375342  1.4527587   0.27585632  0.14460307  0.60882205  0.4399557
 -0.08740223 -0.10831565]
[-0.92323554 -0.6648941   0.8119326   0.10981179 -0.4061399  -0.6485633
  0.3353643  -0.45723346  0.51957357 -0.32652178 -0.23105575  1.0720567
 -0.16775468  0.487052   -0.6879091  -0.8693728  -0.8183779   0.62402284
 -0.07574005 -0.9456651 ]
[ 0.339121   -0.41564113 -0.53690875 -0.07862167  0.11211625 -0.3983386
 -0.14310832 -0.12185054  0.4101583  -0.27889445  0.22860609 -0.5327727
 -0.59194493 -1.1789128  -0.7259258  -0.85324156  0.41290712  0.23000643
 -0.9404455   0.6023927 ]
[-0.00065267  0.03024533 -0.11553109  0.10159471  0.08255039  0.13098513
  0.01580457  0.13231966  0.01330575 -0.05481378 -0.01528146 -0.03062879
  0.16347353 -0.04937009  0.10910111  0.01208054 -0.01244688  0.12085832
  0.04259974 -0.02515935]
layer 1 Activation
tanh
layer 2 Dense
20 40
[-0.14005324  0.21438603 -0.34528795 -0.19493578 -0.02239513  0.0313261
  0.05124153  0.13825947  0.21829596  0.11969255  0.12840298 -0.03915441
  0.02478457  0.14792721  0.17403214 -0.32444102  0.06076522  0.21356642
 -0.01584797  0.0913621  -0.1734196  -0.01715347  0.29506147  0.13376302
  0.16963434 -0.04368224  0.02040409 -0.10379928 -0.17105511  0.2203436
 -0.17167665  0.09506287 -0.09051757 -0.22328655  0.24922602  0.39204472
 -0.0203696   0.2249775   0.04614837 -0.28368944]
[ 0.13189447 -0.08113874  0.22894493 -0.18556038 -0.1770724   0.25523475
  0.00169542 -0.42009607 -0.2822135   0.05213135  0.14012532 -0.11320847
 -0.10367025 -0.35044202  0.05835824  0.30669144  0.11289661  0.31618547
  0.11095682  0.00484177 -0.10216651  0.0298799  -0.04300871 -0.35170078
  0.12339177 -0.24988112  0.11270739 -0.34181902 -0.22316983  0.00460287
 -0.01019454 -0.09505513  0.14036569  0.09219051  0.24939482  0.35762936
 -0.23860219 -0.27743867  0.10289823  0.12521222]
[-0.00124845 -0.38046876  0.1440644   0.31124792 -0.34416455 -0.01237263
 -0.03008208 -0.02574353 -0.26319146 -0.05993339 -0.00169298  0.0549043
  0.2824863   0.10692848  0.14043686  0.04294482  0.14116183 -0.05272441
 -0.02809913 -0.13460124  0.15989159 -0.20260105 -0.37656763  0.04805497
 -0.25836095 -0.01766349  0.04709035 -0.11542205  0.18938395 -0.12361149
  0.16983981  0.10143607  0.09102074  0.2233921   0.10640569 -0.23035248
 -0.29644772  0.26210517 -0.01881718 -0.01991729]
[-0.2401988  -0.20219776 -0.14682469  0.09143808  0.36934534 -0.05695566
 -0.1116637  -0.11820203 -0.03585199  0.13986118  0.04600462  0.36200717
 -0.0207427   0.12042364  0.04567618  0.46021178 -0.06555999 -0.3344244
  0.06696596 -0.15120596 -0.165374    0.20347752  0.25359195 -0.04814372
 -0.35183612 -0.03362606  0.30371433 -0.187765   -0.15336666 -0.07602865
 -0.10300119  0.137853    0.01944055 -0.02900262  0.13703924 -0.00709723
  0.23279676 -0.13251737  0.10435386  0.12062828]
[-0.21467236  0.22029391 -0.17446034  0.21449067 -0.12246028 -0.20717391
 -0.09051552  0.07315396  0.06553837  0.24446869 -0.01198442  0.00970578
  0.00484172  0.14610027 -0.01740049  0.32553592  0.21171966 -0.11223042
  0.18199328  0.15519229  0.14126313 -0.11891796 -0.08360978 -0.20160148
 -0.37320134 -0.23098937  0.20526257 -0.20388055  0.01803491 -0.06221979
  0.060714    0.16964209  0.09716268  0.04870628  0.05891589  0.12438378
  0.23767938 -0.11871583  0.15025693 -0.03275564]
[ 0.05913826 -0.52570206  0.43604025  0.15900098 -0.35497773 -0.21617314
 -0.19637902 -0.5877063  -0.29478025  0.3127457  -0.04192247  0.29285738
  0.46758607 -0.1511571  -0.33821177  0.520213    0.2106      0.36669195
 -0.16612126  0.11177468 -0.3869177  -0.04248907 -0.01153031 -0.04658736
  0.4311217  -0.2014225  -0.17398259  0.07035077  0.02612734 -0.04268406
 -0.17590123 -0.07162137 -0.19574597  0.19043776  0.32298052 -0.36794853
 -0.12096228  0.13308604 -0.08346529  0.48901054]
[-0.09471412  0.02190688  0.07271744 -0.16931425  0.45157358 -0.07535582
  0.15064722  0.22572786  0.17558762 -0.08297504 -0.31808215  0.32868156
 -0.03145284  0.16167764 -0.09274893 -0.11023893  0.3466512  -0.00296348
 -0.0133095  -0.34886238 -0.01288704  0.2373227   0.18823572 -0.02815286
 -0.32881972 -0.24847707  0.03541881 -0.04657834  0.35996005 -0.09291003
 -0.34310502  0.37061968  0.07351709 -0.3927467  -0.22659242  0.02840739
 -0.08086497 -0.28573674  0.33401316 -0.24530296]
[-0.37920323  0.23314779 -0.19540742  0.00812936  0.10534985  0.11017495
 -0.26706767 -0.03295681 -0.15803607 -0.18806747 -0.00979279  0.13299088
  0.258873   -0.16803543  0.29335913 -0.0197358   0.01106165 -0.03950619
  0.14344    -0.30120954 -0.2511462  -0.09396788  0.35060623 -0.1948071
  0.03958414 -0.23690957  0.12850586 -0.01760568  0.0105719  -0.01075964
 -0.26484    -0.05139998 -0.05427562 -0.17921145  0.05620598 -0.06593982
  0.25802094 -0.09586313 -0.10566729 -0.05873991]
[ 2.90548652e-01 -1.57183677e-01 -1.54969022e-01  1.85889170e-01
  4.66341004e-02  2.77516078e-02 -1.58572361e-01 -1.12060264e-01
 -1.02976903e-01 -2.13792831e-01 -1.22005962e-01 -8.65637958e-02
 -3.12671065e-01 -1.26900598e-01  9.58676636e-02  8.73009581e-03
 -5.68605103e-02 -8.94079879e-02 -1.34031385e-01 -1.50309533e-01
  3.22869271e-01  1.15953125e-01 -4.15728092e-01  5.38662001e-02
 -3.55144173e-01 -9.01570820e-05 -1.60996139e-01 -1.75719187e-01
  1.65614888e-01  1.16833836e-01 -9.45862234e-02 -1.60738736e-01
  3.99236083e-02  1.94180042e-01  5.27574681e-02 -1.95513427e-01
 -1.08755551e-01 -3.55730504e-01  1.65490136e-01 -1.01124384e-02]
[-0.01741898  0.28506887 -0.32812035 -0.12120884  0.2106715  -0.2896349
  0.25056183 -0.0182005   0.03532355  0.14838624 -0.1138368   0.0251087
  0.12373526 -0.26381075 -0.05829414 -0.03421437  0.04872489 -0.10640626
 -0.0263231  -0.00266396 -0.2334895   0.2269218   0.2560983  -0.13788888
  0.1139587  -0.0943412   0.00344264  0.12094535  0.02274665  0.06626509
  0.30227906  0.08225506  0.01958059 -0.3572071   0.19586036  0.29542342
  0.02598497 -0.31758994  0.13717012 -0.14236617]
[-0.06598411  0.22325261  0.09525665  0.41679493 -0.08223703 -0.0129311
 -0.17090577  0.1025463  -0.19165348  0.08348178  0.03525556  0.24118878
 -0.12300288  0.04160227 -0.01228998  0.15687884 -0.00053417  0.07263552
 -0.26450044  0.08549892 -0.12473802 -0.06368725 -0.38405025  0.13400467
  0.09540708  0.15730694  0.01618876  0.09795894  0.12164338 -0.05301802
 -0.17755073 -0.11084164  0.02404273  0.3070152   0.13946499 -0.11486924
  0.2212507   0.00326758  0.12083352 -0.05495491]
[-0.25408134 -0.47840884 -0.27538183  0.30700734 -0.02557697 -0.25643224
  0.02368936  0.16197024  0.17416273 -0.53046215  0.11060937 -0.14487346
 -0.23119026  0.30176502  0.16589677  0.14651257 -0.01465527 -0.46915817
  0.21884228 -0.25281963  0.341014    0.34738484 -0.0326231   0.37923935
 -0.43577754 -0.35704145 -0.32383734  0.00074971  0.4376539  -0.349442
 -0.3607175  -0.08558386 -0.08694547  0.320471   -0.29505682 -0.18113692
 -0.00055631 -0.12946272  0.04281279 -0.14036389]
[-0.21565294 -0.20861532 -0.37728658 -0.28322327 -0.07642069 -0.15337607
 -0.1255948  -0.2998793   0.1316733  -0.28967106 -0.10923415 -0.11008864
  0.1430631  -0.15722111  0.16340724  0.15076695  0.01958004  0.02587867
  0.17465213 -0.02371677 -0.12587619  0.16173998  0.3819728   0.01270347
 -0.05363029  0.09342746  0.25767905  0.13373072  0.05092456  0.1302805
 -0.2736496   0.26461956 -0.2963271  -0.39826676  0.09032589  0.31629637
  0.3131508   0.05697948 -0.13648878 -0.02797896]
[-0.19652307 -0.3341656   0.04539005 -0.15281959 -0.2613057   0.24425858
  0.29217505 -0.7509107  -0.10746691  0.19700922  0.37028962  0.3278779
 -0.09719495  0.37447488  0.02524691  0.2731212  -0.24562302 -0.20504117
  0.18785243 -0.18385963  0.02330736  0.28996572  0.39838675  0.12039328
 -0.32853055  0.12258478  0.40160567  0.1373386  -0.04142099 -0.08170591
 -0.10751428 -0.01139654  0.00096167 -0.0566335  -0.10161018  0.03147734
 -0.08974782 -0.28353506  0.21789464 -0.18269043]
[-0.25687775 -0.05420035 -0.4555296  -0.4148836  -0.11743136  0.10515325
 -0.12476366 -0.23122977  0.06091092 -0.12656726  0.3373623   0.18505159
  0.18758509  0.03184899  0.24401502  0.23229496  0.05007476  0.23423278
 -0.10013094  0.10457862 -0.1070382  -0.26062995 -0.02518468 -0.08172382
  0.15389366  0.10815187 -0.01419501 -0.15924363 -0.10554545 -0.04110999
  0.2117922  -0.24405196  0.16350916  0.01278331  0.35317123  0.16520068
 -0.09015836  0.3285805  -0.24114755  0.13185343]
[ 0.15463361 -0.08310652 -0.52761614 -0.48230663 -0.10830093 -0.09608183
 -0.04778047 -0.62614673 -0.13153422  0.15082687  0.4057151  -0.000629
  0.39983156 -0.0545071   0.04512146  0.2312935   0.03038521  0.5538533
 -0.02099385 -0.12869833 -0.03778188  0.00668284  0.4900792  -0.24650438
 -0.01273419  0.04857844  0.06258921  0.20845714 -0.2752273  -0.03095842
 -0.28538826 -0.26690763 -0.06218129 -0.01786327  0.24928856  0.42275587
 -0.19824587  0.4111433  -0.3702214   0.01302681]
[-0.06245138  0.25115415 -0.04439195 -0.28523898  0.13080905 -0.28178266
 -0.30285907  0.2180803  -0.02965329  0.22218622  0.09253066  0.05106902
  0.01654269  0.11925196  0.13906097 -0.39753506  0.25992754 -0.00451271
 -0.02963329 -0.17736615 -0.01958011  0.03799791  0.00493677  0.12493841
  0.2861954   0.19532077  0.09404077  0.05999282 -0.10111307  0.29492065
  0.05105733  0.00403625  0.02752625 -0.32837197 -0.16518523  0.0491218
 -0.06477291 -0.0611691   0.03167039  0.09474844]
[ 0.17456459  0.04537477  0.2228388   0.07490222  0.10846113 -0.05347524
 -0.1301737  -0.04201268  0.01226608 -0.02699355 -0.1849485  -0.08608133
 -0.16925655  0.27532312  0.07828774 -0.34975672  0.06290107 -0.36089504
  0.05865616 -0.20563915 -0.04856076  0.20365481 -0.26138604 -0.17166407
 -0.35489607  0.09405307  0.00056308  0.17020741  0.08077391  0.00444176
 -0.23246321  0.18935315  0.25302783 -0.28197184 -0.07204173 -0.05134344
 -0.062115    0.19070777  0.19828686 -0.18384089]
[ 0.27511606 -0.31127784 -0.17628978 -0.03335615 -0.34397027 -0.1380227
 -0.1947069  -0.1643946  -0.16968258 -0.24356833  0.18500856  0.38278008
 -0.09849088 -0.06660987 -0.24431586  0.59379226 -0.20480283  0.15165648
 -0.32878947 -0.16030088 -0.15171981 -0.1409034   0.28817967  0.1727671
  0.02009765  0.04291318 -0.04350679 -0.1627051  -0.22575735 -0.13335603
 -0.21409827 -0.09236244 -0.21912074  0.07434935 -0.5376298  -0.14390069
  0.20939772  0.05215498  0.04558475  0.00960482]
[ 0.0234036   0.33419222 -0.07280833 -0.15792824 -0.21689603  0.1354626
  0.13826226  0.12406225  0.09863841  0.32144532  0.09173538 -0.16148701
  0.30548558  0.25305882 -0.09324951 -0.10635225  0.22158802  0.0451522
 -0.13001081 -0.3170518  -0.32938266  0.20382555 -0.1832943   0.11593536
  0.04393993  0.17255874 -0.24864975 -0.29808834 -0.2877503  -0.13154767
  0.15531534  0.01253089 -0.25510657 -0.09202199 -0.08332492 -0.16912825
  0.14679307 -0.21197975  0.29065502  0.07512517]
[ 0.00616903 -0.0428776  -0.1467206  -0.05039408  0.06548856 -0.095984
  0.01773315  0.04831543  0.02324765 -0.08508628 -0.05742581  0.06644584
 -0.04849535 -0.05807751 -0.01077578  0.2594808   0.01000249 -0.0243395
  0.00975359  0.1102237  -0.06448764 -0.01638479  0.11679249  0.10307416
 -0.09222884 -0.08263866  0.04715233 -0.03859268  0.22388811 -0.05192664
 -0.02758193 -0.00555354  0.03197053  0.02809948 -0.01367415  0.14580397
  0.05408792 -0.02614766 -0.05845736  0.07829686]
layer 3 Activation
tanh
layer 4 Dense
40 20
[ 0.22237672  0.09699514  0.06060546  0.11283191  0.0216782  -0.02024708
 -0.37830722  0.22087826  0.06192883 -0.19718726 -0.01358799 -0.18275952
  0.0190706  -0.16294149 -0.14226933  0.3180312  -0.2725144  -0.00213719
  0.17824173  0.16077763]
[-0.15910928 -0.11902479 -0.3580623   0.02902022  0.11346324  0.2965906
 -0.48215404 -0.08182542  0.20585023  0.03669679  0.06352013  0.0527336
  0.31960887 -0.05176713  0.08217894  0.16047631 -0.04081266  0.3784365
 -0.01805021  0.05731506]
[ 0.24415219  0.00135087  0.21008769 -0.0764867   0.07001579 -0.05230961
  0.06255443 -0.09417599 -0.29355267  0.03844779  0.1906429   0.25450388
  0.22502846  0.10485093  0.1122257   0.3530777   0.05163258 -0.21271515
 -0.2928753  -0.11241321]
[-0.3022395  -0.23861028  0.30579597  0.10187667  0.2694844   0.23512669
  0.4526637  -0.10824862 -0.27784818  0.1152846   0.19564646 -0.02374294
  0.24000418  0.04282915  0.27499732  0.26387772 -0.37631297 -0.24461266
 -0.22871628 -0.11364846]
[-0.10420252  0.1535035  -0.21379426 -0.11415018  0.0636638  -0.11543502
 -0.09323256 -0.11048301  0.04807148  0.26553422 -0.18664019 -0.27180278
 -0.23501308  0.04652625  0.03218728 -0.01064116 -0.23031491 -0.01663272
 -0.02671313  0.06095287]
[ 0.1639686  -0.01823434 -0.19083326 -0.22397213  0.00705299 -0.32274958
  0.18942268  0.28406233 -0.15078059  0.03468378 -0.24584983  0.06285653
  0.4024953   0.24204902  0.11052885 -0.08594908  0.13459145 -0.2285026
 -0.17270578 -0.04092222]
[-0.13440092  0.20202786 -0.23799936  0.08058134  0.32668442  0.06466525
  0.26426592  0.13692796 -0.2613994  -0.17901742 -0.1113615   0.01796866
 -0.07799575  0.16691492 -0.04323488 -0.06529823  0.17245401 -0.15909664
 -0.02908013  0.03226201]
[-0.33573365  0.12926802  0.20601873  0.06629477 -0.09130321 -0.14906365
  0.03029472  0.27031332  0.35824323  0.30341497 -0.05081424 -0.17513257
 -0.1247244   0.30355495 -0.09721495  0.17922121 -0.39556167 -0.12145896
 -0.14982724 -0.15118895]
[-0.29030406 -0.18476419  0.00985077  0.10108629  0.10800809  0.02926999
 -0.11088677  0.05231727 -0.21895808 -0.21589918 -0.02865423  0.22143917
  0.00989179 -0.13424398 -0.0353918  -0.05019668 -0.11440571  0.1533881
  0.19126527 -0.22998211]
[ 0.33059457 -0.18227099  0.17160073 -0.11576557 -0.18756217  0.20379531
 -0.27636245 -0.05777915  0.26912487 -0.23875578 -0.26097605 -0.22061306
  0.04187079  0.11304833 -0.27044815 -0.18663546  0.4047335  -0.18880682
  0.1853316   0.00435524]
[ 0.47286218 -0.13501415 -0.15088297  0.02554592 -0.11506437 -0.01711099
 -0.19648543 -0.10779171 -0.30481324  0.27162534  0.06297546 -0.112857
 -0.01126819  0.01639424  0.00770802 -0.09839272  0.3195358   0.06128944
 -0.07211288 -0.41713408]
[ 0.12986018 -0.19130753 -0.00277405  0.16624327 -0.04827094  0.20043842
 -0.11197358  0.08823521  0.12869222 -0.1104591  -0.13291606 -0.1442203
 -0.3333719   0.06881298  0.14797083  0.06858245  0.2514426   0.17282054
  0.11508325 -0.08169964]
[ 0.27553245  0.11050022  0.05274639  0.03846015  0.08263117  0.03613842
 -0.35495463 -0.08646322  0.26362607 -0.19019264  0.24235667 -0.20422927
 -0.1987813  -0.11491461 -0.06322767 -0.13785946  0.16549495 -0.19077255
 -0.15140532  0.21796681]
[-0.06536807  0.11701832  0.09579171 -0.15629011  0.10367401  0.27217662
  0.92335624 -0.02184668 -0.1589474   0.106592   -0.25010332 -0.29705527
 -0.17614067  0.26009667 -0.1173794  -0.24334836  0.18226969 -0.25443554
 -0.2791088  -0.17993923]
[-0.03442066 -0.2594618  -0.22810951  0.18292958  0.11228007 -0.1561879
  0.21231592  0.07966653 -0.22654423 -0.15882607 -0.11391312  0.1430974
  0.20163254  0.1941181   0.2671175  -0.21898729 -0.19014728  0.19482708
  0.3229985  -0.29282647]
[ 0.17878701  0.00077364 -0.02720001 -0.05475055  0.17093033 -0.24497378
 -0.23048697 -0.04986661  0.09466254 -0.19183503 -0.15341142  0.28521663
 -0.28550142 -0.27295423 -0.11305764 -0.37889406  0.22198889  0.04936966
 -0.21870492  0.06822788]
[-0.10279414  0.22047149 -0.18824777 -0.14754206 -0.03402797  0.14612843
 -0.41346622 -0.20632492  0.18545283 -0.01154922  0.15689844 -0.00409712
 -0.04857169  0.05227048  0.07358778 -0.10857304  0.21805511 -0.00226104
  0.21511568 -0.0061172 ]
[ 0.29865384 -0.12857051 -0.36529008  0.01003187 -0.21594062 -0.06055452
 -0.49981645  0.2698396   0.2618351  -0.23663183  0.12060467  0.143493
 -0.20906489  0.21056    -0.3451156  -0.01235617  0.14829512  0.0048387
  0.25256658 -0.00541622]
[-0.23565185  0.19370657 -0.2567883  -0.18643175  0.12866478 -0.08254483
  0.34043255 -0.2339565  -0.15396301  0.01969943  0.31590775 -0.19441147
  0.1939752  -0.16411361  0.1575946  -0.24906638  0.11454728 -0.01723643
  0.1415515  -0.17208366]
[-0.11464495 -0.07987505  0.02107255 -0.21117789  0.1970277   0.0187054
 -0.45407686  0.11872872  0.40165976  0.1070146  -0.08157866  0.20160037
 -0.15447369  0.05924282 -0.469521   -0.16262412  0.12120456 -0.03355638
 -0.19848493  0.1175499 ]
[-0.12206176 -0.06816953 -0.02568565  0.04941805  0.00714103 -0.31489012
  0.40048036  0.05417844 -0.27875727 -0.20081533 -0.16415215 -0.07461216
 -0.11441557  0.06420809  0.18491322  0.25936684 -0.04503871 -0.03129046
  0.03963031  0.07525524]
[-4.95848653e-04 -5.93969151e-02 -1.56632021e-01 -1.11483082e-01
  1.76800266e-01 -3.05795610e-01  6.44075572e-01  5.42417914e-02
 -5.70583008e-02 -8.70824978e-02 -2.11869523e-01 -1.63787425e-01
 -1.20497994e-01  1.52469128e-01  1.97348390e-02 -1.73843265e-01
  7.26244897e-02 -1.78187147e-01  1.19842619e-01  1.14122979e-01]
[-0.01455642 -0.24616136 -0.34681073  0.10103815  0.18193577  0.11421395
 -0.37353462 -0.03053492 -0.02883842  0.01401717  0.06468371  0.2626695
 -0.11644071  0.23569857  0.26013327 -0.44838578  0.38622326  0.39066935
  0.41817772  0.15914194]
[-0.36468127  0.10503978  0.21852465  0.13435374  0.08166925  0.14637631
  0.42801142 -0.06817231 -0.22145563  0.00180163  0.00156319 -0.16635042
 -0.13380712 -0.08475798  0.0877424  -0.15819004 -0.25030655  0.00954879
 -0.02446171  0.2685781 ]
[ 0.24533255  0.35449    -0.11898234  0.00132972  0.11672242  0.31891984
 -0.5443697   0.07719916  0.37847075  0.04409846 -0.2755208  -0.01064243
 -0.17438628  0.28708458 -0.34523478  0.22072287 -0.1151036   0.01889207
  0.18432054 -0.36078727]
[ 0.07695312 -0.05795094 -0.02938358  0.18173838 -0.212681    0.25122416
 -0.33698654 -0.09466065  0.14304458  0.05007682  0.1219213   0.16277589
  0.14734599 -0.24971952 -0.22999097  0.04730354 -0.10440299 -0.18134624
  0.00887184 -0.09991749]
[ 0.023436   -0.14648166  0.08765337  0.16467215 -0.01264572 -0.18621112
 -0.03974804  0.1856094  -0.0030936  -0.03084714 -0.03044006  0.19593446
  0.09461512  0.07438077  0.20072675 -0.14199243  0.30685195  0.23612146
  0.13558574 -0.22775209]
[-0.08375018  0.04807273 -0.12795345 -0.09980679  0.14840095  0.27159795
  0.06285127 -0.05469282 -0.32083672 -0.18875423 -0.3866065   0.23560297
  0.01874007 -0.11584602 -0.08466484  0.09579203 -0.1742493  -0.04597942
  0.26571882  0.0534214 ]
[-0.2679985  -0.33718127  0.13797611 -0.22979917 -0.09178186 -0.16716744
  0.1196142   0.21323891 -0.30793428 -0.0756055  -0.12907529 -0.32461965
 -0.24353696 -0.16176529 -0.13298121 -0.0089015  -0.08428888  0.05738242
  0.03221463  0.37215787]
[ 0.09607029  0.04621728  0.12074031 -0.34991264  0.1494045  -0.0822998
 -0.19792591 -0.41659823  0.3036969  -0.38577598 -0.0192266  -0.15936898
 -0.016912    0.25224492 -0.18475835  0.13632338 -0.10962328  0.27401397
  0.19137439  0.20688587]
[ 0.16395749 -0.09771233 -0.07746956 -0.02799883  0.10904269 -0.13350852
 -0.29105073  0.03464783 -0.02245093 -0.12812272 -0.38688332 -0.11954374
  0.15274481  0.4267571  -0.4204077   0.37907     0.10971343 -0.17464642
  0.00208649  0.0180851 ]
[ 0.1492331  -0.46224713  0.14079362 -0.15858017 -0.07510508 -0.09471083
  0.1511364   0.2814116   0.18569954 -0.2709837  -0.17514797 -0.09033722
  0.10753526  0.15103877  0.04371076  0.015339   -0.05001108  0.10722043
  0.08679398  0.282359  ]
[-0.12206143 -0.13832362  0.07078929 -0.02474069 -0.06188419  0.05533704
  0.34978613  0.0641949   0.03971669 -0.221547    0.04239913 -0.31046417
 -0.11654168 -0.11789057 -0.02396139  0.16307126 -0.02542377  0.0761203
 -0.02428937  0.00111679]
[-0.19654436 -0.11194555 -0.09427884 -0.00936112  0.43473348 -0.24075209
  0.12406119  0.13383925  0.03869412 -0.06850564  0.16722806  0.16834591
  0.09108052 -0.12150165  0.07063413  0.2519773   0.05361446 -0.21928844
  0.00252779 -0.03850463]
[-0.02640379 -0.00337626 -0.08037767 -0.0947914   0.10402341 -0.11683507
 -0.17868692 -0.20892684 -0.19974415  0.02571861  0.2028074   0.10089496
  0.31308094 -0.13359451 -0.1577521  -0.00375954  0.31516892 -0.0774757
 -0.09101588  0.02510405]
[-0.22075756 -0.0246712  -0.19570224 -0.26194382  0.17060442 -0.19532534
 -0.40076792  0.24281202  0.33635557  0.35571945 -0.13762179 -0.30597758
 -0.3068687  -0.2605911  -0.21820019  0.00135625  0.14210226  0.36735803
  0.542625    0.3120693 ]
[-0.2915043  -0.10124832  0.07898295 -0.07256854  0.14865425 -0.11913148
 -0.02822167 -0.35872504  0.27106225  0.13286877 -0.04354773  0.10819599
 -0.17830053  0.28407174 -0.34743953 -0.01423253 -0.10709236  0.12363287
  0.15316987  0.08756546]
[-0.04938358 -0.23372658 -0.18588702 -0.04121138 -0.11088941  0.16896379
 -0.58517176  0.12427989 -0.15154389 -0.02274198 -0.12932234 -0.24836953
 -0.00534051 -0.15032151 -0.14567709  0.01155026 -0.02421871  0.05666811
  0.35672194  0.15585704]
[-0.02202419  0.03539363  0.21554808 -0.04824774 -0.26547518  0.04803173
  0.45782146  0.28505504  0.21813188 -0.20783259 -0.02698491  0.16717756
  0.11538052 -0.01769884  0.3508051   0.02719677  0.1422084  -0.09251327
 -0.30659303  0.16642255]
[ 0.04499292 -0.2977977  -0.05926694  0.02416669  0.05923391 -0.08752723
  0.06057168 -0.04972282 -0.00213222  0.06964891 -0.2044764   0.10712378
  0.20332491 -0.26466566 -0.18656772 -0.17337862 -0.14052065 -0.15731142
 -0.07699201  0.03968321]
[-0.09741374 -0.03440125 -0.03040943 -0.01398031  0.0354171  -0.18861742
 -0.00902003 -0.01450185  0.07840743  0.0064791  -0.00306114  0.01378153
 -0.02580328 -0.00387147 -0.05205705 -0.00415116 -0.04381462  0.14244996
 -0.02485398  0.03795588]
layer 5 Activation
tanh
layer 6 Dense
20 1
[-0.16425936]
[-0.00598132]
[-0.16436858]
[-0.00895031]
[0.01279155]
[-0.0341737]
[-0.04700626]
[0.00214031]
[0.04453799]
[-0.00029901]
[-0.00718282]
[-0.00534211]
[0.08204705]
[-0.00324395]
[-0.06275738]
[0.09962257]
[-0.07691401]
[0.20254654]
[-0.13949928]
[0.01458259]
[-0.001205]
