layers 7
layer 0 Dense
20 20
[ 0.29729548 -0.33071664 -0.10241456  0.75734806 -0.32869202 -0.3366702
 -0.9183566   0.09088016 -0.29831973  0.42791393 -0.14474694  0.45137239
  0.8295307   0.73172075  0.24915339 -0.2824687   0.30178514  0.55414987
  0.15197422  0.62049156]
[-1.1273315  -0.41098836  0.0809553  -0.03658601  0.4211025   0.4409459
  0.12695614  0.27121237 -0.3024147   1.1239387  -1.1774633   0.07824299
  0.23144397 -0.06821054  0.27228522 -1.1182833   0.07899286  1.0593024
 -0.79510915  0.5952744 ]
[-1.4212198  -0.5352352  -0.1791341   0.02814     0.76213837  0.23383914
  0.13792776  0.04290184  0.04188583  0.62851274 -0.91455173 -0.04771682
  0.21981476  0.56142527  0.03750966 -0.68463415  0.04585556  0.7977513
 -0.16290422  1.3501816 ]
[ 0.16591018 -0.38717696 -0.588697    0.19848199 -0.4713081   0.00645762
 -1.1421396  -0.22297609 -0.07345482  0.27859992 -0.9312443  -0.05650883
  0.23969193  1.0603436   0.33590716 -0.34430757  0.5639273   0.5735732
 -0.33140114  0.61424917]
[ 1.4889458   0.22302553  1.1793382   0.829956    0.11748981  0.34729505
 -0.24571171 -0.26480737 -0.39606255  0.12592146  0.8432154  -0.08008438
 -0.35778278  0.02488132  1.2788424  -0.6015475  -0.31428957 -0.38057488
 -0.12909397  0.39058965]
[ 0.97488785 -0.1518629  -0.30332974 -0.68029946 -0.82028824 -0.2520842
 -0.4766638  -0.49068743  0.66460925 -0.7677847   0.5428346  -0.31957397
  0.25707406  0.3325378   0.09463684 -0.06935616  0.3919599  -0.5584376
  0.76514995 -0.97783357]
[ 0.90887874 -0.11802005 -0.43349764 -0.70483804 -1.2521328   0.05136673
 -0.73935264 -0.16708538  1.0464634  -0.9610726   0.42163646 -0.34548238
 -0.15594406  0.06682745  0.44400778  0.3708077   0.41584596 -0.20146431
  0.23947044 -1.0941457 ]
[-1.1534363   0.34755662  0.2584525   0.53847975  0.9399924  -0.27272433
  1.505227    0.20605081  0.26866063 -0.5391656  -0.12132597  0.5192834
  0.3611932  -1.3182684  -1.4886491   1.5888425  -0.28085148  0.31652412
  0.26035187 -0.65709007]
[ 0.15841153  0.56928444  0.17573729  0.01130757 -0.673255    1.6925902
  1.0254936   0.07922096 -0.13230051 -0.38601473  0.7726209  -0.46788427
  1.1175758  -0.52440834  1.1746997   0.47362038 -0.44386265  1.3027
  1.3397732  -0.32251748]
[ 0.7139869   0.16184866  0.3581415   1.120635    0.17667428  1.249056
  0.6935694  -0.78273785  0.56228364  0.78402287  0.33698952  0.85463625
 -0.7130484   0.12335759  0.28452227  0.3117592   0.9112167   0.4502508
 -0.31268948 -0.8787939 ]
[-0.06998447 -0.11078006 -0.22599034  0.0176947   0.03395909 -0.03111272
 -1.7764235   0.59347063  0.14463976  0.5065568  -0.55209845  0.413468
  0.463404   -0.07257789  0.02260401  0.66294223  0.34019727  0.3055861
  0.21734938 -0.8252372 ]
[ 0.368836    1.3050425   0.77803546  0.5249429   1.8307751   0.10710405
 -0.37620488  0.39730558 -0.03363859  0.6302722   0.69361645 -0.46438968
  0.3814032   0.6593706  -0.29537106  0.7939917  -0.03617864 -0.55615366
 -0.69255877  2.9228709 ]
[ 0.32187235  1.1958691   0.5695889   1.2438569   0.7522549   0.34411237
 -0.70930684 -0.21198103 -1.1073519   0.17529346  0.6013711  -0.6563597
 -1.5319695  -0.49456903  0.14667012  0.18445688 -0.3755487  -0.78817
  0.0732317  -0.9395867 ]
[-0.349762    0.21545768 -0.89316505 -2.2711108   2.8824046  -0.7826545
 -0.38836548  0.27310398  0.53881717 -0.7728417  -1.8422099  -0.7675206
  0.26967052  0.09363654 -0.4381449   0.1306949  -0.16582072  2.4544175
  0.41312742  0.40350094]
[ 1.5378495  -0.49193206  0.6963687  -0.10264026 -0.37762266 -1.7859542
  1.1804346  -2.1819003  -0.9308356   0.771046   -0.11746635  1.7628037
  0.9588652  -0.30322933  0.5085964   0.00856731 -1.4583318   0.7564664
  1.1652421   1.4534217 ]
[-1.0726547   2.9381566   0.511765    2.0307586   3.0764744  -0.4839907
  0.60242563 -0.02086882 -3.104097   -1.250648    0.01574504 -0.9551139
 -1.5519384  -1.59855    -1.280004    1.6046977  -3.3749173   0.22515342
  2.643236   -1.1262504 ]
[ 1.2318467  -0.50633854  0.6662876   0.84453124  0.71381724 -0.42238647
 -0.5680075   0.6463831  -0.26031154  1.0736928   0.6914284   0.6844311
  0.14129753 -0.30083746  0.08510985  0.2512356   0.4518111  -0.66350895
 -0.936657    1.1559851 ]
[-1.1116114  -0.20069234 -0.1614791   0.6611971  -3.611617   -1.7509072
 -0.75945866  1.2643872  -1.2062128  -0.34278533  1.1118364  -0.20055182
  0.456631    0.4976006  -0.0447754  -0.8649497  -0.41754553 -3.1060119
  0.23460472  1.0697995 ]
[-1.7097107   0.39152887 -0.509177   -0.27463704 -0.21052803  1.8977848
  1.9459051   1.0638595   1.9153175  -0.5356972   0.6057775  -3.4814124
 -1.0187      0.34380725 -1.6087998  -1.3991237   1.2946572  -0.8470275
 -1.160738    0.36396438]
[-1.3252507  -3.391844   -3.1896741  -1.2466702  -2.7244449  -1.0655708
  1.3181953  -0.23171541  3.3041153   1.3052365  -2.870748    1.3728427
  2.5664287  -1.1933366  -0.7336032   0.9854747   3.110305    0.79532766
 -0.4445846  -1.3498306 ]
[ 0.01835436 -0.50397295 -0.42289078 -0.56063724 -0.5148085  -0.31934088
 -0.4089157  -0.19601561  0.18756492 -0.02462159 -0.451961   -0.0246804
  0.1753662   0.6089531   0.3135083  -0.70218766  0.3890861   0.06883411
 -0.10810428  0.26680395]
layer 1 Activation
tanh
layer 2 Dense
20 40
[-0.98101413 -0.40866914 -0.13215546  0.494001    0.47805277  0.2862287
  0.9352219  -0.4835196   0.8364673  -0.5612108  -1.3826829   1.7505466
 -0.25637528  0.57006335  0.45226339 -0.63184375 -1.0474061   0.03620373
  0.23770271 -1.4706237  -2.0781057   0.1286021   0.2986391  -0.62129366
 -1.2593485  -1.591229   -1.3015051  -0.31650668 -0.15629622  0.5986008
  0.46857306  0.33602685 -0.15318404  0.19694415  0.14936772 -0.7102147
  0.30801618  0.15419452  0.21409646 -0.37786135]
[ 0.37058854  0.20853426 -1.4569105  -0.51241994 -0.6431238   0.26778948
 -0.3640924   0.4615892  -0.619266   -0.09542664  1.1236069  -0.5999582
  0.01293618  0.8015579  -0.79047924  0.16612442  0.12464696 -0.12036968
  0.16288002  1.0193903   0.35645896 -0.46996513  0.9808388   0.61261
  0.91293454 -0.2612721  -0.8491706  -0.7014801   0.41231164 -0.23909098
 -1.6798055  -0.45161083 -0.2963405  -0.01905053 -0.01001542  0.1726782
 -0.24841146 -0.31874073  0.37397453  0.23057273]
[-0.34818834 -0.01197834 -0.88752216 -0.6932905   0.6519548  -0.12808016
  0.33076617 -0.05219518 -0.08296522 -0.39988372 -0.37618232 -0.13155209
 -0.20851764  0.524634   -0.31452146 -0.02787153 -0.48331314 -0.17062378
  0.15853392 -0.34202793 -0.51212156  0.06837665  0.6369827  -0.04331417
  0.00694891 -0.7870071  -0.90266675  0.15214531  0.5084592  -0.11974821
 -0.12508433 -0.45013812 -0.31963515  0.02381516  0.6663996   0.01033716
  0.04622532 -0.34849748  0.19230945  0.40517697]
[ 0.2472808   0.05218821 -0.28663373 -0.03739434 -0.44007415  0.07983083
  0.22373784  0.5251095   0.47408754  0.4939673   0.13082784  0.58941257
  0.2850222   0.9251544  -0.2799313  -0.27707174 -1.0442901  -0.58536094
  0.1086427   0.37192366 -0.6892621  -0.5458074   0.51312965 -0.03432313
  0.13758199 -0.33095923 -1.0984629  -1.1424043  -0.09500828 -0.15893842
 -0.3949143  -0.08077807  0.26073024  0.03571845  0.13988373 -0.0303226
 -0.3895903  -0.03664878 -0.5840808  -1.0167605 ]
[-0.28039798 -0.07879418 -0.6701725  -0.07956178  0.5887066   0.2003019
 -0.37431726  0.8956521  -0.5737334  -0.27706173 -0.41375992  0.74095225
  0.63309926  1.3898125   0.18877168 -0.72802204 -1.6039213   0.8025059
 -0.11658487  0.17817864  0.07411911  0.9661321   0.30465442 -0.09050339
 -0.07203382  1.006165    1.0235626  -2.030963   -0.6829135  -0.7763889
  0.31573188  0.8340876   0.42964625 -0.1568735   0.5707054  -0.40640828
 -1.122416    0.34751433 -0.0448063  -0.9938639 ]
[ 0.17842004  1.2335958   0.01326427 -0.16465396 -0.92300606 -0.1837644
 -0.18440178  0.63093984 -0.6148938  -0.3630361   0.98081267 -0.8830149
 -0.5852635  -1.1093693   0.29524142  0.5961138  -0.04723112 -0.3200586
 -1.1484298   0.67622364  0.6237302   0.8829559   1.1400869   1.8654634
  1.2756848  -0.01963317 -1.007467   -0.35603735  0.12012921  0.6278188
 -1.1744963  -0.12372473 -0.29451594  0.4331529   0.8199342   0.5937023
  1.6867311  -0.16803357 -0.24870692  0.76286864]
[-0.59976184 -0.28083533  0.62893283  0.39670464  0.5570196   0.72705966
  0.86150336 -0.08246099  0.37607875  0.7652159  -0.47259325 -1.1482234
 -0.64639086 -0.9438848  -0.3991214   1.0282589   1.5601267  -0.797702
 -0.28871664  0.20817086  0.31999362 -1.0350173   0.9719168  -0.5881918
 -0.08219208 -0.1026582  -1.4609687   1.3222756   0.099079   -1.0101998
  0.03251406  0.36264464 -0.60459775 -1.0050904  -0.36325297  0.91113377
  1.100022   -0.1589709   1.4592927   2.0131598 ]
[ 0.26640284  0.9828167  -0.3518386  -0.7148795  -0.7776571   0.56398416
 -0.5681214   0.78004193  0.08913562  0.3127456   1.0773677  -1.3725966
 -0.51715386 -0.8806641   0.31834704  0.6094726   0.9819137   0.69917804
 -1.5007684   1.0698915  -0.2707907   1.2354699  -0.66431075  1.845004
  1.0538381   1.635337    0.8664744   0.28741333  0.40144077  0.38687977
 -0.7197271  -0.32342765 -1.0325782  -0.31579795  0.74639684  0.65697294
  0.11736318 -0.6150648   0.22931644  1.1967309 ]
[-0.72502524  1.7107472   1.8286484   0.9421825  -0.38569188 -0.09847792
 -0.63702357 -0.24169855 -0.8151677  -0.14389023 -0.55120355  0.40809336
 -0.5400402  -1.387273    1.1838319   0.07156017  0.3650806  -0.04395917
 -0.93361175 -0.07926035  0.73827815  0.51250553 -1.0317255   0.6105365
  0.41201416  1.4871637   0.89910185 -0.21742314 -0.28320378  0.14107834
  0.6741854   0.33171266  0.3561012  -0.44447476  0.76084036  0.31128713
  0.9488384  -0.02887538  0.0742723  -0.03546447]
[ 0.26393485 -0.7183728   0.33225304  0.82175744 -0.10922565 -0.4320397
  0.32562867  0.19402495 -0.2430362  -0.39018866  0.33243746  0.36850402
  0.28343272 -0.0079436  -0.63236004 -0.0304016  -0.3190842   0.11549732
  0.3699854  -0.2989065  -0.26259282 -0.5863097  -0.35484415 -0.3111778
  0.07469074 -0.21722639 -0.42381665  0.5171239   0.08790395 -0.17078994
  0.5392323  -0.7003166   0.11481503  0.5090334   0.01660187 -0.64266276
 -0.01052705  0.05420299  0.13455276 -0.16362092]
[-0.61550075  0.38518125 -0.6592438  -0.8883132  -0.26312795 -0.01961055
 -0.1895497  -0.45387402  0.78101957  0.42254847 -0.59044456 -0.0441785
 -0.5996945   0.4034401  -0.1157137   0.60374355 -0.436875   -0.0657452
 -0.05002296 -0.3795174  -0.19617502  0.16247685  0.52022696  0.24325152
  0.43682402 -0.3406357  -0.636446   -0.696348    0.44623128 -0.4691827
 -0.30336675 -0.24291682 -0.3139371  -0.02712496  0.11626316  0.86059415
  0.55932736 -1.5280099  -0.26029074  0.5514552 ]
[-0.13317436 -0.9985445  -0.2797811   1.8457108   0.72160476 -0.09010389
  0.8881793  -0.83629483  0.6086407   1.2113668  -1.3538848   0.6827439
 -0.315126    0.02676153 -1.544864    0.29353225 -0.736392   -1.217583
  1.6785085  -2.5459738  -1.2308687  -0.37462556 -1.0977914  -0.7788821
 -1.9439323  -0.83096576 -0.60597223  0.45705166  0.7554185  -0.0353699
  1.0071108  -0.53399324 -0.70146674 -0.38465348 -0.46269515  0.5188744
  0.11986841  0.46199784  0.5953563   0.4754474 ]
[-0.19533211 -0.36369643  0.5898477   1.1576728   0.68183047 -0.26486185
  0.20327577  0.8916387   2.159786    0.5661087  -0.19904697  0.0063975
 -0.310101   -1.509724   -0.48427895  0.66682345  0.5793046   0.25401968
  0.32845333 -0.80552447  0.12186314 -0.32366395 -0.84560066  0.31344476
 -0.79416555 -0.14943658  0.36717647  1.348296    0.18006742 -0.5207753
  0.7181743  -0.7793694  -0.6663378  -0.01092355 -0.5256472   0.4900704
  0.2516828   0.33206573 -0.39983603  0.19258212]
[ 1.5436946  -0.54066926  0.30980957  0.21979603 -0.5154864  -1.3739612
 -0.6740855   0.0290163  -0.43723986 -1.1186297   0.45707202  0.2822076
  1.3435897  -0.1858136   0.8302445  -1.3792228  -0.5935202   1.2941806
  0.16815609 -0.01277507  0.4706385  -0.4400359  -0.5704452   0.4594436
  0.31885698  0.2925992   0.36279154 -0.43337446 -0.95208347  1.8074692
 -0.81277436 -1.2086344   1.2374575   1.320454   -0.66072613 -1.2257077
 -0.1404905   0.69881123 -1.1614739  -1.104503  ]
[ 0.03568439 -1.0104896   0.54345596 -0.30198285  0.40016776 -0.6994182
  0.6391889  -0.15749754  1.2307216  -0.27292398 -0.5696126   0.5011765
  0.13639058  0.20927592  0.44146997 -0.5704244   0.10338397 -0.03454604
  0.11901778 -0.5258679  -1.2177895  -0.32088172 -0.4403138  -1.1804206
 -0.2530186  -1.0183061  -0.32273686  0.02570473 -0.8065484   0.2156674
  0.2432457  -0.15473826  0.7493221   0.14108622  0.00878554 -0.12669325
 -0.02405221 -0.07857744 -0.30863988 -0.35943228]
[-0.7141558  -0.59170485 -0.35738936  0.2947139   0.31843582  0.49533933
  0.91438603  0.5020369   0.96878487  0.10986523  0.1266964  -1.083959
 -1.0940083  -0.19229582 -1.0689911   1.0762308   0.45987108 -1.0277449
 -0.0462143  -0.3622289   0.06065956 -0.6518135   0.69210863  0.20679475
  0.24095115 -0.62484175 -0.6964091   0.4064784   0.506082   -0.67779315
  0.7649191   0.4736323  -0.54192823 -0.97964865 -0.49835813  1.0711257
  0.01874112 -0.42230034  0.55025584  0.39040408]
[ 0.7701951   0.4918308   1.7308507   1.9539485  -0.44305444  0.0638086
  0.10130592 -0.6255929   0.11167443 -0.42910865  0.49731407  0.5773901
  1.1935712  -0.9252681   0.8985801  -0.68716484 -0.60343367 -0.5537365
 -0.57733     1.1157842   1.1653848   1.24357    -1.2119375   0.7223996
  1.0465156   0.33229792  0.41917834 -0.30368027 -0.9509471  -0.04574678
  0.6931111  -0.24018073  0.95889735 -0.3141243   0.6145466  -0.21918403
  1.4158869  -0.11646856  0.3111946  -1.0977337 ]
[-2.8788869e-03 -8.0389547e-01  5.1348794e-01  4.9777964e-01
 -2.9494002e-01 -1.3390252e-01  2.1111080e-01  1.5906870e+00
  1.0589339e+00 -3.1408277e-01  8.9944607e-01 -9.4422334e-01
 -5.3064734e-01 -1.4878384e+00 -3.4966302e-01  4.2807254e-01
  1.2715222e+00 -4.2161337e-01  7.7350378e-01 -1.4815177e-04
 -7.6068485e-01 -6.9961649e-01  1.0559913e+00 -5.2598160e-02
  4.6011043e-01 -1.0299578e+00 -1.3117840e+00  1.7392790e+00
 -5.2081102e-01  5.2402353e-01  4.3652740e-01  4.0719768e-01
 -1.5370807e-01  6.8502325e-01 -7.0535576e-01  1.9724086e-01
  7.4715322e-01  1.1525880e+00  6.4820357e-02  6.3606399e-01]
[-0.836923   -1.3582906  -0.73316914 -0.31272423  0.7752455  -0.0375594
  0.37461984  0.29214025  0.2983865  -0.04066997 -0.39300993 -0.23784487
 -0.34071898  0.3915711   0.48813677  0.4222032   1.0410048   0.41222873
  1.0983168  -0.96102875 -0.27186546 -0.8342865   0.20492575 -0.6075773
 -0.684505   -0.5805971  -1.1147345   0.30982447 -0.59557    -0.9354443
 -1.0318784   0.3154191   0.41703746 -0.66725683 -0.8729444   0.82035285
 -1.373488    0.3065329   0.12182798  0.4868114 ]
[ 0.49725294 -0.11073767 -0.38663998  0.08228407 -0.21412277 -0.4012157
 -0.7199659   0.87198013 -0.34255818 -0.5158012  -0.89964145  0.51695997
  0.6998079   1.2146147   0.47922    -0.9764848  -1.5906693   2.3254712
  0.11016198  0.02709675  0.19324848 -0.93231964 -0.7779135  -0.9572173
 -1.0665565   1.0079935   1.6330239  -0.4702165  -1.1463798   0.40626416
 -0.0170439  -0.7132058   0.6545108   0.6358044  -0.2648342  -0.8704821
 -1.3889952   0.78978866 -1.19306    -1.8456622 ]
[ 1.3695172  -0.22147639  0.3313007   0.06890012 -0.629814   -1.3941998
 -0.74165267  0.06704533 -0.45832902 -0.8854114   0.4278091   0.36719295
  1.1519226  -0.09218113  0.6603035  -1.0980893  -0.6332501   0.9720229
  0.1768826   0.11712804  0.32419276 -0.7627153  -0.7839067   0.506181
  0.27729702 -0.09828655  0.55970794 -0.08727304 -1.0236895   1.3506508
 -0.5820033  -0.89802206  1.1156281   1.2830613  -0.32407373 -0.99106777
 -0.19123372  0.5038957  -1.1810913  -0.8051016 ]
layer 3 Activation
tanh
layer 4 Dense
40 20
[-0.4631863   0.05597316  0.26980725  0.10790578 -1.019637   -0.4537061
 -0.40228373  0.8269966   0.34660324 -0.51839685  0.0915416  -0.15088223
 -0.26432505  0.33530894 -0.7792547   0.39334992 -0.7265733  -0.5479518
  0.5299001  -0.37180254]
[-0.22633508  0.54649514 -0.7347581   0.4461766  -0.26429507  0.36754885
  0.989003   -0.15447535  0.19227444 -0.08105627 -0.66370684 -0.5904419
  1.1480545   0.2836744   0.07757504 -0.1686494  -0.19213164  0.14378694
 -0.30235013 -0.10481646]
[-0.24441962 -0.5488543   0.58887064 -0.33990726 -0.05724949 -0.19164722
  0.37339193  0.34607035  0.5589547  -0.49250615  0.33102673 -0.23684074
  0.07400978 -0.3065986  -0.3824141  -0.72164387  0.4490269  -0.50175136
  0.5510947  -0.12567465]
[ 0.52759725  0.30076978  0.17492361  0.06236808  0.5162941  -0.13685456
 -0.12861694  0.7172907   0.38594583 -0.2629092   0.45975634  0.7985779
  0.04038054  0.268938   -0.5587158   0.5560477  -0.6648566  -0.31305188
  0.3990892   0.4385106 ]
[ 0.22626445 -0.42978758  0.2530009   0.6321009  -0.1301209  -0.28381938
 -0.30481607  0.11560478  0.02639     0.14386036  0.5397255   0.38715398
 -0.8127139  -0.01354765 -0.03789809  0.29449016  0.35348386  0.18191603
  0.19642964 -0.06704791]
[-0.1505465   0.11527647 -0.60765445  0.26491305  0.7975735   0.3661625
 -0.2861584  -0.563152   -0.63201696  0.2634423  -0.45676237  0.43121505
  0.31144938 -0.27351913  0.56711555  0.1801722   0.81724745  0.32814473
 -0.6622779   0.9833361 ]
[ 0.3112983  -0.75322986  0.9281817  -0.23162095  0.24665646  0.09591383
  0.7077274   0.0330109   0.04066283 -0.2155859   0.45651597  0.19905195
 -0.13250303  0.28079382 -0.09072343  0.4613321   0.3585467   0.3037464
 -0.31449923  0.45629257]
[-0.40708685  0.48023874 -0.77032924 -0.44557104 -0.0987825   0.5750323
  0.55816764 -0.31229877 -0.25126484  0.20962174 -1.0646145  -0.02374005
 -0.2164849  -0.08803365  0.18989807 -0.33972344 -0.186031    0.73264897
 -0.3596119   0.03126801]
[ 0.20411336 -0.5733375   0.38828084 -0.1984237  -0.06453234  0.49658528
  0.10945137 -0.44340593 -0.11941128  0.34740168 -0.14964348 -0.26760462
 -0.59430367 -0.5444015   1.02076     0.3777053   0.34033468  0.22046962
 -0.6421392  -0.6052741 ]
[ 0.23363042 -0.3535174   0.17529583  0.7108029   0.23986425  0.42786562
 -0.22139502 -0.72653985 -0.6378206   0.48934275 -0.07210995  0.00580487
  0.22304888 -0.1261555   0.7603921   0.1307396   0.48561487  0.04747996
 -0.8173086   0.05007791]
[-0.70413715  0.9035964  -1.3622627  -1.8705983  -0.253524   -0.25321552
 -0.52645     0.02079176 -0.2778688  -0.4284493  -0.62926656 -0.56700534
  0.5009408  -0.02527917  0.03460529 -0.6012346   0.11137936 -0.10217065
  0.3546303   0.17852533]
[ 0.34139305 -0.11009841  0.31134874  0.6452209  -0.01225615  0.03143275
 -0.38459992  0.65098405  0.14286904 -0.18270078  0.4067378   0.49979508
 -0.30208007  0.94546086 -0.4604296   0.67020166 -0.76213086  0.04005365
  0.21498053 -0.146894  ]
[-0.13143435  0.1994308  -0.05624582 -0.6515743  -1.4243423  -0.90579253
  0.07778028  0.7177417   0.847586   -1.011475    0.06039478 -0.0428603
 -0.15278308  0.21788041 -0.65852153  0.05493353 -0.58567727 -1.4621636
  0.58719456 -0.18866566]
[ 0.8556218   0.7547113  -0.2309558   0.07175971  0.17215072 -0.41594937
 -0.03352047  0.8749328   0.3457287  -0.43001547 -0.7769975   0.9565229
  0.49701434  1.2986146  -1.0039529   0.03021348 -1.2334187  -0.015335
  0.22846127  0.38480502]
[-0.21664351  0.60784847 -0.56085324 -0.47351024  0.00749477 -0.5897004
  0.42010444  0.47349408  0.50801027 -0.6100228  -0.6757474  -0.24212795
  0.59234935 -0.11024254 -0.19655925 -0.69682884 -1.1298962  -0.40723118
  0.40443817  0.2555337 ]
[-0.51115006 -0.02797588 -0.42359248  0.5207742   0.81922597  1.1013638
  0.01781825 -1.1128001  -1.2580099   1.5692285  -0.09636794 -0.1930769
  0.23269548 -0.7233592   1.3424286   0.04847309  0.9538914   0.9488987
 -1.0850954   0.7165482 ]
[-0.6076941  -0.73282605  0.6744807  -0.92600656  0.39419964  1.0442095
  0.60046434 -0.61619425 -0.61654764  0.6055001   0.128854   -0.71613306
 -0.37217635 -0.9231722   0.74443847 -0.26497963  0.76827925  1.0629393
 -0.72252077  0.11380631]
[-0.13463615  0.6545588  -0.43164465  0.14621478 -0.04083392 -0.67855436
 -0.30360812  0.35505703  0.14701799 -0.54388523 -0.9129321   0.8112936
 -1.5520873   0.9169837  -0.52388185  0.38487306 -1.2049075  -0.56814456
  0.3435771  -0.17799449]
[ 0.48046914  0.04802001  0.72216845 -0.09941308 -0.5009868  -0.38738486
 -0.6993664   0.24769263  0.3479735   0.11449281  0.9082775   1.2173268
 -0.7527153  -0.33718476 -0.04350542  0.44300115  0.10234737 -0.21573557
  0.20003645 -0.74700207]
[-0.88590544  1.2262661  -1.0682287  -1.55944    -0.95914537 -0.23241799
 -0.2990345   0.7298384   0.29382843 -0.29977545 -0.04251988 -0.79009384
  0.3862127  -0.46993434 -0.09258506 -1.2566599   0.39147165  0.09197515
  0.57354814  0.22686464]
[-0.16385655  0.13998441 -0.22459672 -0.00189073 -0.71753985  0.0054993
 -0.62679553 -0.02443053  0.45703393 -0.26229224  0.17501788 -0.09134993
 -0.614466   -0.3019473   0.03237903 -0.8168578   0.5139081  -0.6372445
 -0.18056959 -0.25514042]
[ 0.31804085  0.4975835  -0.04730023 -0.40015143  0.24374951 -0.23220134
  0.8805763   0.56545407  0.2338285  -0.3987791  -0.54384947 -0.8308134
  1.1390831   0.04475651 -0.27494192 -0.59140074 -0.14748815  0.02985991
  0.8986648   0.24666905]
[-0.32651675  0.5972943  -0.7117128  -0.17903139 -0.4697829   0.5318441
 -0.5662466  -0.63024044 -0.48804858  0.61186177 -0.02109886 -0.3116281
 -0.11858618 -0.7878779   1.1970421  -0.19727635  0.95205575  0.8020543
 -0.41407004 -0.07721572]
[-3.8854095e-01  3.4817821e-01 -9.1962647e-01  4.1508600e-02
 -1.4921174e-04  5.0990117e-01  1.2485760e+00 -2.0043573e-01
 -5.3693187e-01  4.3463877e-01 -9.8246539e-01 -1.1213716e+00
  1.2213444e+00  3.2553875e-01 -9.2950128e-02 -5.0809115e-01
 -4.2227387e-01  5.3866518e-01 -7.5553578e-01  2.1722591e-01]
[-0.5197179   0.73946816 -0.91596067 -2.251628   -0.1290489  -0.5069368
 -0.53117687  0.7312886   0.5491473  -0.27587965 -0.02803602 -0.3221507
  0.01483965 -0.440259   -0.02577477 -1.6834126   0.46565554 -0.35650048
 -0.04471039 -0.0537837 ]
[-0.36644092  0.83428013 -0.93907464  0.15792994  0.12593348 -0.43729734
 -0.05948333  0.21929984  0.21879758  0.03658264 -0.27763635 -0.6001716
  0.21844766  0.7158126  -0.1886463  -0.3416433  -0.57045746 -0.09366122
  0.41960907  0.49021053]
[-0.2946529   0.62836134 -0.57624876  0.06797532 -0.12324111 -0.26692656
 -0.52921474  0.12906834  0.14732997  0.02103984  0.02621468 -0.2515049
 -0.12538673  1.5957925  -0.6152354  -0.023174   -1.1695307   0.12103202
  0.19266629  0.28870043]
[ 0.2511803  -0.5172261   0.7307854  -0.7839703  -0.2316274   0.32629642
  0.04759026 -0.24426058 -0.6245496   0.78274953  0.59551233 -0.07123603
 -0.7951446  -0.8786318   0.73009366  0.27536395  1.0546509   0.581596
 -0.73229814 -0.21480528]
[ 0.24760054  0.0453125  -0.25782424  0.39444107  0.48959917  0.3612515
  0.415716   -0.48119053 -0.33202904  0.4850038  -0.8087239   0.20726371
  0.12351471 -0.2165882   0.3961325  -0.10046009  0.8238169   0.6700679
 -0.5973606   0.23555452]
[-0.57076955 -0.08446697  0.368887   -0.56490237 -0.97455096 -0.47703546
 -0.16652705  0.37507117  0.5561176  -0.7781049   0.48869768 -0.09333815
 -0.1644507   0.7683359  -1.0630502   0.43303058 -0.7148915  -0.6492684
  0.29877594 -0.35957378]
[ 0.8163427   0.5103466  -0.26123825  0.79744124  0.9995087  -0.27929088
 -0.8339347   0.09243141  0.3118568  -0.14770293 -0.3674043   1.2306174
 -0.1504516   0.38382947  0.17803487  0.42281115 -0.15337792  0.07194849
  0.47035065  0.26421928]
[ 0.05971933  0.18838234 -0.41953513  0.30135533  0.93445224  0.45296997
 -0.23716705 -0.2309135  -0.38335192  0.27295843 -0.25684837  0.11914977
  0.39229888 -0.24740891  0.6776571  -0.23101757  0.3023824   0.74355245
 -0.68018186  0.7838056 ]
[ 0.06959982 -0.22973984  0.22742435 -0.67799795 -0.54964465 -1.087425
 -0.4287658   0.29450426  0.5275042  -0.3574006   0.4807603  -0.15786076
 -0.14671925  0.36740425 -0.5332676  -0.37295467 -0.87185854 -0.8368288
  0.50012505 -0.24196154]
[ 0.10482854  0.26875353  0.30500254 -0.85136455 -0.46152565 -0.24502264
  0.308205    0.9170694   0.37429413 -0.3851341   0.32776135  0.24054724
 -0.3726389   0.10144278 -0.78592676  0.03268067 -0.74744874 -0.36109784
  0.38702866 -0.59591186]
[-0.02301857  0.62232214 -0.03089988 -0.11543666  0.16217475 -0.20022832
  0.5183231   0.0170545   0.62969136 -0.27538303 -0.2876772  -0.19296007
  0.38568598  0.1596773  -0.06412544 -0.419751    0.42083907 -0.06684813
 -0.06068775 -0.10238916]
[-0.25714675  0.05424152 -0.22279884  0.0767878   0.8177668   0.8236791
 -0.25072256 -0.7075864  -0.83944523  0.47422332 -0.2718119  -0.32350683
  0.5129563  -0.28479978  0.661639    0.25590456  0.4364579   0.9403679
 -0.67779356  0.6815134 ]
[ 0.07221457 -0.37183425  0.27281818 -0.3915458   0.11620364  0.5412962
  0.61306643 -0.12356626 -0.45634046  0.04347716 -0.08160388 -0.41065386
  0.9563848  -0.72059095  0.30605072 -0.26108333  0.8030216   0.8281499
 -0.4943964   0.21800952]
[ 0.10725486  0.11766241  0.09480593 -0.16002148  0.10378259 -0.35362566
 -0.7079895   0.02866304  0.06909357 -0.0945093   0.42440632  0.1514721
 -0.67931324 -0.04364692 -0.2548544  -0.37696522 -0.35898957 -0.28761202
 -0.23441727  0.05479409]
[-0.03068755 -0.19678602  0.27418768  0.2346358   0.84181607 -0.13381307
 -0.6784246  -0.11349496 -0.36958754  0.36338067 -0.06989005  0.34058842
  0.32525378 -0.2959174   0.11769476  0.1723838   1.1028373   0.3384134
 -0.10949519  0.99655294]
[-0.9322318  -0.13860273  1.0102335   0.44912544  0.39105058  0.3428847
  0.32631484 -1.5156137  -1.3396481   1.5124122   0.08029312 -0.6721741
  0.3682654  -0.697411    1.0001795  -0.13999248  1.1845118   0.9489865
 -1.2066479   0.06889296]
[-0.3980764  -0.22556981  0.27191252 -0.18680742 -0.48348176 -0.20987543
  0.15450267  0.6669149   0.1580878  -0.56916356  0.30072707 -0.19684476
 -0.12422007  0.50044507 -0.74205387  0.1316328  -0.6146873  -0.43106493
  0.29540464 -0.35305518]
layer 5 Activation
tanh
layer 6 Dense
20 1
[-0.11842614]
[-0.05776685]
[0.124703]
[-0.07676159]
[-0.60727805]
[0.13118024]
[0.10195917]
[-0.34181234]
[-0.19666755]
[0.19762065]
[0.10910281]
[-0.10379028]
[-0.0977353]
[-0.5304951]
[0.47283095]
[-0.00507658]
[0.5383426]
[0.12794614]
[-0.094005]
[-0.77875894]
[1.1200137]
