layers 7
layer 0 Dense
20 20
[-0.4365002  -0.00662221 -0.00970278 -0.18209743 -0.01815602  0.15457001
  0.44525138 -0.22774541  0.31510347 -0.32233867  0.31499216 -0.23945168
 -0.23551093 -0.36329803 -0.4212807   0.23316623 -0.06284058 -0.36321
  0.33209842  0.28339237]
[ 0.1659633   0.358133    0.21990286  0.34896958  0.23374932 -0.42909783
 -0.28667918 -0.44304597  0.02960971 -0.3213037   0.02926156  0.24961016
  0.2720586   0.25050563  0.16762199 -0.22725977  0.38685352 -0.33919808
  0.26771706 -0.41100758]
[-5.2116732e-03  2.2712989e-01  7.1285136e-02  1.2683211e-01
  5.8685414e-02 -2.9478636e-01  1.3401982e-01  4.1980334e-02
  3.3111230e-01  1.4230956e-01  4.8638010e-01 -7.2529204e-02
 -4.4948284e-02 -2.5409734e-04  6.5144412e-02 -3.0005985e-01
  6.5664746e-02  2.9291213e-01  4.2403239e-01 -1.9233163e-02]
[-0.15997194  0.16809812  0.25376266 -0.24990506 -0.10284182  0.09135801
  0.22183006 -0.16063224  0.20757042 -0.33145946  0.03757292 -0.121258
  0.4242121  -0.28678575 -0.04674481 -0.11036534 -0.28812993  0.3120838
 -0.04334002 -0.24218845]
[-0.08534427  0.0854093  -0.02191613  0.19737224 -0.30619586 -0.3074059
 -0.09588537 -0.11885677  0.25210977  0.08017773  0.02148982 -0.25934643
 -0.25208008  0.30439797 -0.04987928  0.29330337  0.05929129  0.2757375
  0.2715807   0.09783462]
[ 0.14307365 -0.3178287   0.2382062  -0.07845578  0.1462722   0.2682852
  0.00723832  0.31529337 -0.24604832 -0.37552255 -0.30875883 -0.37530527
 -0.25224498  0.14590168  0.20533992  0.4125323   0.3335818  -0.17266236
  0.15770777  0.09391166]
[-0.22023043 -0.33908325 -0.2843348   0.10785064 -0.21793315  0.24812736
  0.39494267 -0.17503685  0.27359957 -0.00659057 -0.12986259  0.18484399
  0.292919   -0.2700224   0.29265487  0.18478961  0.35687202 -0.31509972
 -0.3207821  -0.03093836]
[ 0.12803856  0.10583787  0.02438192  0.39519313  0.29523697 -0.2347998
 -0.01346978 -0.12791884 -0.13503309  0.21885301 -0.07854155 -0.16180351
 -0.39212376 -0.23593453 -0.17400655 -0.02563352  0.20948133 -0.04408399
  0.28138     0.12754728]
[-0.18063396 -0.04308651  0.14253849 -0.35242125 -0.24102306  0.199368
 -0.1297367   0.29463062 -0.0629639  -0.0710874   0.16974284 -0.1956906
  0.1412144   0.14256372  0.02672912 -0.00766608 -0.18188886  0.11788338
  0.17449194 -0.18999743]
[ 0.2519994  -0.16510703  0.08901589 -0.12256767 -0.3403439  -0.08967316
  0.04432973 -0.38167912 -0.41623273 -0.3043677   0.06591041 -0.1065516
 -0.35690433 -0.39083165  0.36293155  0.44856992  0.03196187 -0.34797937
  0.19295785 -0.09366948]
[ 0.05424907 -0.16641127 -0.40310422  0.17735738  0.09904718  0.06728049
 -0.19488904  0.48154202 -0.22694185 -0.1910902  -0.05117616 -0.23547995
  0.11207433 -0.18227223  0.30196008  0.4356533  -0.43997332 -0.51897466
 -0.10148954 -0.17416516]
[ 0.03843602 -0.1271921   0.23097795 -0.03017669 -0.12308783 -0.37130722
  0.09267956 -0.21745884 -0.05799276 -0.20227005  0.4224297  -0.3486158
  0.03595128  0.09560314 -0.0484713   0.01672781 -0.2798498   0.28405163
 -0.06909741  0.37032056]
[ 0.2213274  -0.080971   -0.10662407  0.31956527 -0.01053822 -0.16115637
  0.00110746  0.02315486  0.03139757 -0.26018178 -0.26707882  0.38842732
 -0.24320623 -0.10695048 -0.07112397 -0.00170977 -0.07448269 -0.10887126
 -0.52606946  0.3296391 ]
[-0.22175238  0.3627489   0.27215323 -0.19212261 -0.10208075 -0.1428186
  0.27468643  0.0008713  -0.01921705  0.03454685  0.32014954 -0.27506754
 -0.23024179 -0.22359116  0.23622505  0.0569719  -0.16058315 -0.2933129
 -0.02507828  0.02990538]
[ 0.1815667  -0.03167187  0.00326899  0.25055167 -0.2276946   0.08829777
  0.0798665  -0.23894303  0.2871843  -0.15959214  0.241999    0.13756807
  0.14921531 -0.21292761 -0.17145333  0.22060545 -0.24074568 -0.38728404
  0.1773945  -0.40458506]
[-0.20325793 -0.02622836 -0.30755106  0.03600324  0.29404178  0.05695413
  0.09527419  0.00831772  0.29773825 -0.12936182 -0.13580859  0.13173854
  0.12075514  0.0345138  -0.18889351 -0.22247286  0.1194974  -0.30370027
  0.40616712  0.41232237]
[-0.00385101 -0.03829799 -0.3335958   0.2799182   0.05609395 -0.0323828
 -0.33104596 -0.02275729 -0.0278322  -0.27251437 -0.281425   -0.31522167
  0.273371   -0.33598393  0.34565264  0.173262    0.2726452  -0.17161056
  0.07847515 -0.18505694]
[ 0.07108661  0.17411779 -0.17470843  0.28151745 -0.40484807  0.12466755
 -0.06899805  0.12320894  0.35971063 -0.07386763 -0.508185    0.21675323
 -0.258731   -0.07262968  0.07145003 -0.09391882  0.05042489 -0.03642427
 -0.2969756  -0.09508645]
[-0.18688133  0.05671941  0.1640733   0.04260026 -0.19801337  0.39017916
  0.40958887 -0.15590455 -0.22981074  0.08815077 -0.12600361 -0.01221002
  0.12293731 -0.30459324  0.21737027  0.01594836 -0.19920048 -0.17733368
  0.35275733 -0.26060936]
[-0.02023665  0.22802958  0.23425986 -0.02518363  0.0696454   0.35519373
  0.18835172  0.20752265 -0.25975317  0.15640976 -0.18345854  0.14989638
 -0.3486163   0.25916812  0.5253342  -0.34989783  0.28358746 -0.04528006
  0.14030567 -0.18435775]
[-0.02169368  0.04985963 -0.01477583 -0.01954908  0.00931916 -0.09189964
  0.01761444  0.02392961  0.06416378 -0.13158952  0.08962707 -0.04262457
  0.00202983 -0.08375751 -0.12759538  0.00949829  0.04217526 -0.03235541
  0.08531679  0.04640299]
layer 1 Activation
tanh
layer 2 Dense
20 40
[ 0.33167598  0.06782355 -0.1220367   0.2356468  -0.20652878 -0.01218409
  0.08054725  0.02578925 -0.22188742 -0.06845344 -0.09981369  0.06378221
 -0.14461346  0.09084911 -0.21402776  0.13188082  0.13913025 -0.17156532
  0.21115367 -0.369613    0.01044512 -0.13368289  0.2173553  -0.12807344
 -0.28284624 -0.05568367  0.05878286  0.06528907 -0.0053338   0.01628417
 -0.11326371  0.15705712 -0.06568526  0.19695026 -0.00320678  0.13536853
  0.20026027 -0.12627892  0.14059547 -0.1506627 ]
[-0.1643712   0.22327106 -0.17332266 -0.01992544  0.0933442   0.22326808
 -0.21306275 -0.2679655  -0.2844696   0.09868654 -0.16591072 -0.29288524
  0.24457344 -0.00462821 -0.16355023  0.32261017 -0.32923678  0.03723123
 -0.0338208   0.04600474  0.2995437   0.02477221 -0.0896201  -0.05451833
  0.19503132 -0.30253303 -0.317242    0.14629507  0.20456998  0.2440241
  0.19966543 -0.25911155 -0.2730526  -0.14672779 -0.1436779   0.24285616
 -0.03657148  0.0594569  -0.08722755  0.20661101]
[-0.08947279 -0.15978104 -0.05688272  0.3052974   0.1710131  -0.05578682
  0.19042616  0.16484925  0.29205462  0.20458186 -0.06252588  0.21237068
 -0.27711853 -0.07696693  0.10865068  0.10373894 -0.02645548 -0.14382736
 -0.00977301 -0.20547798 -0.19196583  0.09250218  0.04032031 -0.3548553
  0.03601323 -0.04572564  0.01289798 -0.07312269  0.2590146  -0.14279737
  0.01640172 -0.26283985 -0.30603644 -0.01354755 -0.26391208 -0.28040963
 -0.1532403  -0.11830363 -0.2208822   0.3085229 ]
[-0.29295364  0.3282741   0.22205047 -0.2511677  -0.43100962  0.24297436
 -0.23109676 -0.00604013 -0.19994886 -0.14611195 -0.00290794  0.13173048
 -0.00685218  0.286123    0.2918724   0.20474598 -0.18583298 -0.18492985
 -0.20086429  0.17092623 -0.24300842  0.10326604  0.02403556 -0.24832945
 -0.29275912  0.16128868  0.18863446  0.14557645 -0.21374631  0.23021549
 -0.05966816  0.18679488  0.22139046 -0.07553399 -0.0599502   0.33761823
 -0.08023003 -0.07354701  0.19879718 -0.24257234]
[ 1.83376536e-01  8.22550356e-02  2.79907972e-01 -1.59736171e-01
  7.19501749e-02  2.30015919e-01  2.39499044e-02 -1.53527021e-01
 -1.14112176e-01 -2.83849955e-01 -2.39650562e-01  1.84537306e-01
  3.10223643e-02  8.86215419e-02  3.46133336e-02 -2.22749263e-01
  1.11995086e-01  3.16782981e-01 -1.47669148e-02  1.22760005e-01
 -2.34757125e-01 -3.25769037e-01 -2.36107357e-04 -2.54468769e-01
 -9.08374265e-02 -5.31301200e-02 -6.36237785e-02  2.04901189e-01
 -7.14350343e-02  4.91367280e-02 -2.12914810e-01 -1.84123054e-01
  6.37657270e-02 -2.88583070e-01 -1.34923562e-01  1.61911055e-01
  7.75449499e-02 -3.68240997e-02 -2.80133868e-03 -2.33544126e-01]
[ 0.04887346 -0.24220555 -0.03806772  0.05805665 -0.0929338   0.12119853
  0.2115015   0.1784484  -0.07612389  0.15938675  0.23282327  0.1252219
 -0.11698296 -0.03808824  0.14748067 -0.05912038 -0.2667516  -0.177478
 -0.04841182  0.10143092  0.3191775  -0.10089125 -0.16839066 -0.00273117
 -0.20328385  0.2135234  -0.25969934  0.24128394  0.03417231  0.00661305
 -0.02067453 -0.08458095 -0.24047439  0.11610587  0.20031703  0.29432306
  0.0591557  -0.04157252  0.01591281  0.30073795]
[-0.02855105  0.14725202 -0.07778934  0.20548508  0.42770594  0.06759721
 -0.2445942   0.06634647 -0.22853757 -0.03458077 -0.27657938 -0.23584981
 -0.1879519  -0.10112598 -0.03963227 -0.23601423  0.26143175 -0.23140992
 -0.15499966 -0.06484872  0.15554182  0.09314543 -0.15910484 -0.1581284
  0.1222182  -0.13653779  0.14032374  0.16714606 -0.01456348 -0.32423696
  0.03455375  0.0619333   0.26804766 -0.1341867   0.32969812 -0.18580559
 -0.00931207 -0.23571222  0.22794133 -0.19013064]
[ 0.22849327 -0.2599057   0.23736726 -0.23616186 -0.30264097  0.0294529
 -0.20884065  0.08908737  0.09073102 -0.08378692  0.18546112 -0.03020564
  0.04899089  0.00970666  0.28769597 -0.08859252 -0.02468395 -0.08738294
 -0.21122849 -0.3215826   0.280865    0.12056791 -0.04353433  0.052257
  0.150705    0.0141679  -0.10356268  0.36090472 -0.24714369 -0.04740403
  0.2593098   0.25878245 -0.08553715  0.10934381  0.10881895  0.24809809
 -0.18621905 -0.05037204 -0.05670479  0.22707857]
[-0.18956332 -0.27711576 -0.01292913 -0.0393493  -0.15623152 -0.05949542
 -0.29088846  0.13738492  0.25792065 -0.2673596  -0.20529838  0.0198993
  0.06365623 -0.35976103 -0.18713962 -0.07608686 -0.03924749  0.09903584
 -0.29864848  0.0830024   0.30320457  0.12058829  0.21618174  0.4129432
  0.15208149  0.15954892  0.15592363  0.09278081  0.0734063   0.20690143
  0.0039411   0.13317034 -0.01004069  0.0087242  -0.37066567  0.12239543
  0.01241558 -0.24210322  0.3228131   0.05128915]
[ 0.2134268  -0.3291464  -0.13561215 -0.2303501   0.06735858 -0.17919788
 -0.06111304  0.07629801  0.1953852   0.04978134  0.21806413 -0.18064006
 -0.05557856  0.24868783  0.2279369  -0.08156469  0.17380026 -0.09475889
 -0.29201588  0.05367788 -0.13610998  0.17878625  0.06054232 -0.295589
  0.11591396  0.09034118 -0.34644964  0.14091145  0.23655196  0.10901372
  0.03114824  0.02179364  0.14888111  0.17591418  0.30349767  0.2664955
  0.15859406 -0.22720693  0.06632561  0.29391873]
[-0.06333002  0.09103259 -0.00339171 -0.07271624 -0.16301681  0.03994801
 -0.17810166 -0.19853304  0.2692698   0.19844835 -0.11232191  0.2544473
  0.05980207 -0.00743502  0.00722678 -0.3541479  -0.118499   -0.02158581
  0.01988783  0.02110946 -0.20725407 -0.08287925 -0.20683499 -0.13707764
 -0.13314238  0.06420348 -0.10259493 -0.3929403  -0.19550867 -0.3688557
 -0.1882989  -0.06434172  0.24801888 -0.2517329  -0.14261307 -0.07902554
  0.2017537   0.03005301 -0.08067247 -0.15420415]
[ 0.13225543 -0.01250202  0.03659845 -0.25864422 -0.07771302 -0.01727984
 -0.20329586 -0.23097077 -0.35406008 -0.28124723  0.1304178  -0.28564772
  0.17404874  0.17373909 -0.31840402 -0.106556   -0.11364585 -0.08477457
 -0.2672117  -0.05239936 -0.17847835 -0.0279869  -0.325452   -0.11323655
 -0.2694083  -0.19033243  0.17280959  0.31885657  0.1691847  -0.1952665
  0.15252432 -0.1877615   0.22664852 -0.24667789  0.15406525 -0.29269347
  0.12001497 -0.03540603  0.08302898  0.23710963]
[ 0.14114182  0.21097177 -0.02281075  0.10739443 -0.03958695 -0.08465003
 -0.08083601  0.14195663  0.26037642 -0.19702719 -0.07286417 -0.09403092
  0.2907388  -0.0183799  -0.18218236  0.19483241  0.16516629  0.23491646
  0.21380392  0.2617456   0.26946133  0.3134745  -0.20273873 -0.22930138
 -0.0112559   0.22187921 -0.1094404  -0.08994224 -0.23217082  0.3027191
  0.18854435  0.13089913 -0.16291597 -0.11538787  0.00967958  0.01148241
 -0.24205635  0.25893542 -0.1616044   0.20808306]
[ 0.02472027  0.32036397  0.16558045 -0.2596527  -0.17715481  0.06044112
 -0.03664131  0.21152212 -0.04981213  0.12326998 -0.33841679 -0.17574774
  0.3697756  -0.02774591  0.23367825  0.01698357 -0.12974836 -0.01389822
  0.15501913 -0.02801602  0.06918076 -0.17803454 -0.04107834  0.2615248
  0.16200508 -0.28320363 -0.03378946  0.1286426  -0.04098473  0.05817668
 -0.19512212  0.34401092 -0.08532455 -0.04480627  0.01751493 -0.23992436
  0.20182678  0.13590062 -0.12409496 -0.02379962]
[ 0.24863537  0.32491633  0.09747658  0.07988899 -0.07475846 -0.07107112
 -0.13617057 -0.16558264 -0.11317167  0.01409754  0.21924967  0.16437191
  0.05650496 -0.04671078 -0.31057566 -0.02221643  0.2903836  -0.00214491
  0.01352462 -0.22327428  0.22927415 -0.21110013 -0.17568791 -0.20057788
 -0.10112842 -0.3096215   0.14777516  0.08782907  0.21725163 -0.24587528
 -0.31776613  0.03960703  0.22079901  0.10183641  0.01273586  0.19909531
  0.15701316  0.01882784  0.27210167  0.03069681]
[ 0.0576261  -0.10561054  0.27014878 -0.25943828  0.08536722 -0.19534482
  0.05059259 -0.10760192  0.21807444 -0.16504197 -0.08826753 -0.16430616
 -0.18658605  0.1397584   0.04361475 -0.1257159   0.05902233  0.05648378
  0.13826326  0.04208625 -0.23402178  0.30028152  0.10703568 -0.34855184
 -0.03633406 -0.29913667  0.04898712  0.06073419 -0.11347646 -0.17386605
 -0.12483492  0.10447932  0.00077675  0.10639196 -0.3732088  -0.17779864
  0.12386651 -0.01616124 -0.034449   -0.15015572]
[-0.2516871  -0.27342835  0.14099674  0.23469938  0.21380353 -0.09152985
  0.07312308  0.07021061 -0.03330211  0.07831518 -0.12414189 -0.18159229
 -0.07478034 -0.16493951  0.02452148 -0.01943291 -0.21293603  0.3250825
 -0.14875764 -0.05957409  0.08137897 -0.02854509 -0.10110637 -0.280294
  0.23110116 -0.18616867  0.18645123  0.05191316  0.2641219   0.18628012
 -0.07573422 -0.15606523  0.11499456  0.02232289 -0.12049584  0.28646117
 -0.06202195 -0.02029778 -0.15571871  0.08319893]
[-0.05677772  0.03843896 -0.22216764 -0.16251786 -0.19848369 -0.20076427
 -0.27335814 -0.1428633  -0.02557876 -0.20623387 -0.24407819  0.11826586
  0.13282043 -0.07763079 -0.08762068  0.32613745  0.26472262 -0.119931
 -0.3415379  -0.20658644 -0.14760438 -0.16373314 -0.13391554 -0.01132173
  0.20542379  0.06962466 -0.07882996 -0.05359192  0.0995888  -0.00530418
  0.15128532  0.13791543  0.17809424  0.11969571 -0.07901431 -0.22410053
  0.2912877  -0.22862189 -0.22562042  0.0165239 ]
[ 0.16059808  0.08940382  0.16819978 -0.08926018 -0.29376283 -0.12791543
  0.06834262  0.11156154  0.24186674 -0.13495885 -0.12910992  0.1701516
  0.01747333  0.0814423  -0.02762241 -0.28818998  0.06271975 -0.07325515
 -0.07327939  0.16254763  0.04775565  0.11094224 -0.17678986  0.24298082
 -0.12031665 -0.10253738 -0.21335556  0.15410343  0.19253588 -0.06229786
 -0.03040372 -0.30550516  0.1855503  -0.23557816 -0.05027599 -0.24195392
 -0.19288261 -0.2136066  -0.10385736  0.08070134]
[ 0.34778285 -0.06325176 -0.04096782  0.19371448  0.20485292  0.02555625
 -0.20171796 -0.3075939   0.22961482 -0.01043283 -0.18154424 -0.19892044
  0.03485119 -0.2257917   0.19461311  0.0343418  -0.15764296  0.03187531
 -0.1359228   0.03090265  0.03380825 -0.2715047  -0.08700234 -0.20333353
  0.10032485 -0.23392369  0.33519357 -0.08099177 -0.35804603 -0.21259683
 -0.02280019 -0.17401159  0.08047964  0.24830803 -0.04634017 -0.21530125
  0.2778802   0.3180384  -0.16030902 -0.2237276 ]
[-0.03591689 -0.0134476   0.00233509  0.01185138  0.0929063  -0.01175456
 -0.05559466  0.01825534  0.01229114 -0.01483659 -0.03524247 -0.02107265
 -0.04377761 -0.05009485 -0.01115299 -0.03835617  0.00703504 -0.0055464
 -0.01169285  0.01643807  0.04919124  0.01396462  0.01737965 -0.00229544
  0.02681801 -0.00252424  0.00754179 -0.08302073  0.0265409  -0.03147538
 -0.01017411 -0.02077972 -0.02207869  0.00894404 -0.0682529   0.00761866
 -0.00886696  0.01952168 -0.00127918 -0.001804  ]
layer 3 Activation
tanh
layer 4 Dense
40 20
[-0.16758291  0.1599133   0.14441967  0.27505267  0.20176171  0.24601403
  0.01507219 -0.280593   -0.1374223   0.03314175 -0.20736323  0.12015732
 -0.09871332  0.09167578 -0.07970959  0.20596941  0.29603553 -0.06651855
 -0.01293769 -0.08324955]
[ 0.12773311  0.32213426 -0.04115414 -0.18094276 -0.03771315  0.14697115
  0.0723997  -0.06727865 -0.22261806 -0.22416908 -0.27022237 -0.22222874
  0.15241745  0.10739484  0.01014277  0.3308237  -0.30258787  0.25703332
  0.07114302 -0.04859108]
[ 0.0612181  -0.15671185  0.16660546 -0.13616648  0.10115602  0.15543756
  0.1329691   0.00326922 -0.0775332  -0.05778513  0.2093761   0.2984137
  0.2763525   0.32506263  0.26199278 -0.14071062 -0.23128402  0.0581273
  0.16836418 -0.10410368]
[-0.12347934 -0.04337779 -0.11489026 -0.04061465 -0.07984827 -0.3712356
  0.12382957  0.00127619 -0.1891028   0.08081023 -0.25360835 -0.1445901
 -0.0689348   0.11664928 -0.23447178 -0.15442708  0.23152758 -0.13294382
 -0.38205755 -0.04048913]
[-0.24464957  0.2529803   0.21421063  0.32663646  0.2329621  -0.13176648
  0.0199181   0.22165778  0.07301585 -0.09106041  0.25995737 -0.2607366
 -0.19740225 -0.09595501 -0.00520262  0.05424741  0.0381833  -0.32392758
 -0.1364248   0.09789594]
[-0.03314555 -0.23145899  0.26505673 -0.24779505 -0.3159493  -0.11942469
  0.31292215  0.17903554  0.29228333  0.17280985 -0.2541773  -0.00151992
  0.18159617 -0.23493803 -0.29476148 -0.25909057 -0.14422342  0.08023588
  0.01898824  0.1540122 ]
[ 0.23051983  0.06349126  0.14627197 -0.18467812 -0.27080646 -0.14085929
 -0.05118833  0.09763604 -0.3114661   0.22307943  0.16110209 -0.24681647
  0.18986169 -0.22474402  0.04327618  0.1528542   0.01479619 -0.3164834
 -0.08486997  0.1098106 ]
[-0.13115238 -0.19086877  0.200796   -0.03730422 -0.26029134 -0.06957921
  0.24411088  0.22116044 -0.03916766 -0.01003288 -0.10717181 -0.26302332
 -0.15142727 -0.16474336  0.00752467  0.25640658 -0.28047046  0.03469894
 -0.16831394 -0.19356559]
[ 0.33379024  0.04499195  0.20509717 -0.15527397 -0.2752301   0.3333938
  0.1554975  -0.22577061 -0.08928889 -0.17844677 -0.22123171 -0.24257535
 -0.17166269 -0.06243761  0.04525027 -0.11059852 -0.02791988 -0.28404087
  0.0438219  -0.1700312 ]
[-0.06701018  0.10198027  0.02314042 -0.08408538 -0.0067993  -0.14783245
 -0.14081363 -0.22766747 -0.244938    0.1531048  -0.00410189  0.05389917
  0.28724587 -0.2565916   0.2772817   0.03819189  0.10385869  0.21008527
  0.02367508  0.03972201]
[ 0.07248933  0.26151016 -0.07488642  0.00925379 -0.13258445 -0.09610157
  0.2854747   0.24086033 -0.1164377   0.01713695 -0.15584987 -0.15961242
 -0.10639177 -0.11682495  0.00224758  0.14856943 -0.25320438  0.0179489
 -0.01875298  0.14291716]
[-0.05553748 -0.30081612  0.03557957  0.04338564 -0.00317895  0.18423492
  0.08883979 -0.14836414  0.11944202 -0.09932876 -0.27264524  0.13258372
 -0.1900862   0.04437496 -0.03432875  0.04940156  0.0718775  -0.2368787
  0.23715152 -0.15749688]
[-0.30681697  0.09062591 -0.1804849   0.098277    0.19111013  0.09255592
 -0.09200079 -0.03428795  0.25387198 -0.2840922   0.09508134  0.228842
  0.33685836 -0.22199929  0.08892493 -0.18201552 -0.25329262  0.09261379
 -0.14282256 -0.18347669]
[ 0.1613569   0.18561931 -0.28276652  0.26775053 -0.09566072 -0.1527446
  0.09094029  0.01573361  0.11472388  0.266876    0.06539738  0.07920745
  0.07091731  0.24690309  0.15573873  0.01777247 -0.10198131  0.13423878
  0.22159803 -0.17665762]
[-0.1145091   0.21578264 -0.07208695 -0.25795883 -0.18618515  0.16436785
 -0.04931286 -0.2321978   0.27625164  0.01281821 -0.18984957 -0.10244656
  0.280144    0.02659305 -0.07157949  0.1583895   0.14731373  0.05673741
  0.28993657  0.20183615]
[-0.07198563  0.26331517 -0.15612021  0.12581156 -0.1074707  -0.16082892
  0.10579973  0.23659381  0.03677253 -0.24701889 -0.33439973 -0.08941823
 -0.16896634 -0.01402094  0.18699636  0.31641394 -0.36114648 -0.11823209
  0.1981615  -0.29410514]
[-0.0431737  -0.10887525  0.06623023  0.0275704  -0.14797807  0.23000744
  0.1281913   0.20109653  0.07987248  0.26706946  0.16564265  0.07550783
  0.05460284 -0.22170879  0.18320814  0.15972571 -0.17075783 -0.10718954
 -0.32302743 -0.0901318 ]
[-0.02447361 -0.1131186  -0.11582509 -0.21293417  0.17235962  0.02082505
  0.05149338  0.19384179 -0.03573315  0.23171306 -0.19269793 -0.12899348
  0.05358125  0.17997636  0.1329144   0.08488283 -0.21786001  0.10774118
  0.27210084 -0.03650224]
[ 0.10699727 -0.2828258   0.01626022 -0.23306496  0.254354    0.34207737
  0.12218938 -0.23080377  0.01051273  0.03810116 -0.28289276 -0.20555584
 -0.28375766 -0.08586341  0.04322878 -0.08877796 -0.20723778 -0.00239686
 -0.3046603   0.11384311]
[ 0.12422167  0.05627407 -0.27766535 -0.1977535   0.12858728  0.20385848
  0.14950652 -0.27946028  0.14432745 -0.18901585 -0.18806446  0.21358278
  0.15902022 -0.08143625  0.27606723 -0.03215343 -0.11956363  0.2091411
  0.23602127 -0.13371244]
[-0.199523   -0.05111751 -0.02454727  0.25816858  0.21427073 -0.19509532
  0.22723886 -0.2700007   0.03440619 -0.00932384 -0.01059184  0.33462328
  0.04860814 -0.04452919  0.19741455  0.18373919 -0.22634824 -0.13883278
  0.04890576  0.07586735]
[ 0.07346798 -0.21392927  0.04214687 -0.3855145   0.32564583  0.19956744
  0.06759346  0.09118025 -0.12500095 -0.00479197 -0.09526201 -0.15744148
  0.13388927  0.0778673   0.2595405   0.05537079 -0.26935562  0.14052026
  0.1360084   0.34248343]
[-0.11613246  0.15578075 -0.10893968 -0.11731283  0.19247667  0.2022813
 -0.35982856 -0.13966486 -0.1719503  -0.25185552 -0.36404213 -0.11268637
  0.24082975  0.3028891   0.04437961  0.28646415  0.12135427 -0.11921622
  0.0418902   0.11359376]
[-0.06384873 -0.23449753  0.20391974 -0.2780991  -0.3792484  -0.08042046
 -0.12794282 -0.10420861  0.09609751  0.20317033  0.12548818 -0.31735733
  0.07270512  0.00155854  0.35763416 -0.00904449 -0.1748888   0.00896373
  0.28846738 -0.139707  ]
[ 0.1764801   0.11322416 -0.15691115 -0.00593515  0.12485085 -0.18499988
  0.18210241 -0.20572156 -0.04368308 -0.23567612 -0.22649081  0.15941556
  0.13598733  0.13999811 -0.02292671 -0.05623324  0.17418426  0.23324865
  0.08902241 -0.18772846]
[-0.1604112  -0.3552465  -0.07370608 -0.09225616  0.09472998  0.18210126
 -0.15479982 -0.06800897  0.2300463  -0.1339754   0.16360192  0.23442423
  0.18075211  0.01127525  0.13046561  0.20407914 -0.17979306  0.05988291
  0.00838394  0.03595364]
[-0.00259466  0.0658606  -0.03753958 -0.04858727  0.17162341  0.12811634
 -0.14744453  0.32690257  0.04507566 -0.18069017 -0.26297697 -0.30289108
 -0.23344392  0.18246102 -0.28937334  0.09042972 -0.15707198 -0.08814272
  0.19244188  0.20777857]
[-0.1546529  -0.02857294  0.11618686 -0.10794892 -0.28237724 -0.0297603
  0.08432597  0.18326475  0.19580896  0.14121531  0.25405613  0.18939503
  0.07992356 -0.13013297 -0.08494632  0.03691971 -0.08273736 -0.12843421
  0.08409407 -0.05506267]
[-0.19902365 -0.02685496  0.10731553  0.01481203  0.28789562 -0.42028484
 -0.14511424  0.1494514  -0.23073272 -0.21013965  0.0546205  -0.03298842
 -0.10284415 -0.13582136 -0.04031373 -0.11827894 -0.12349876  0.03146092
  0.20461872 -0.15271011]
[ 0.15129213  0.17511377 -0.17878896  0.02413011 -0.2383144   0.03884709
 -0.25230542  0.02429551  0.0936163  -0.18835823 -0.04872411  0.27694914
  0.05792999 -0.15601489  0.2310153  -0.11910685  0.26066035 -0.15674654
  0.04104985  0.15941104]
[ 0.0190524  -0.09347706 -0.10192992 -0.20790991  0.24429132  0.02599754
  0.10051049 -0.14148946  0.20152035  0.21293685 -0.08688027 -0.02636732
  0.1237736  -0.16324508 -0.21975543 -0.23235565  0.14444347 -0.10080573
  0.03701537  0.2598572 ]
[-0.03611213 -0.10248783  0.07009176  0.17262636  0.31788525  0.3117221
 -0.2338309  -0.05136242 -0.16532843  0.1322003  -0.26054132  0.29841125
  0.22399667 -0.25770986  0.2956297   0.17321223 -0.20109478 -0.10535748
  0.21164016  0.11774724]
[-0.2696479  -0.01058694  0.17011441 -0.20315361  0.10020975  0.24021484
 -0.01248585  0.00809959 -0.23112969  0.07016543 -0.20329216  0.04087698
 -0.03169363 -0.15331843  0.03203161 -0.33506674 -0.23479946 -0.22528519
 -0.17161694 -0.16245413]
[-0.1835828   0.1686891  -0.15832993  0.17307353  0.13804562  0.03291193
  0.1044365  -0.1209055  -0.19119819  0.26481786  0.10820003  0.02154509
  0.17327389  0.35513368 -0.18701884  0.25080642 -0.43801096  0.34785724
  0.03829103  0.14652531]
[-0.06440438  0.14761192  0.30677083  0.17153005  0.27532443 -0.13048461
  0.3005476  -0.06486821 -0.05417937  0.06322171  0.22612251 -0.12343483
  0.06803527 -0.18004711 -0.11867653 -0.26641104 -0.21903081 -0.05388126
  0.00510013  0.12720507]
[ 0.24305019  0.22230574 -0.11748227  0.04515535 -0.14770052  0.09910538
 -0.17964926 -0.1220855  -0.12759489  0.11065615  0.16656506 -0.09362973
 -0.02026005  0.2549671   0.07358082  0.256929    0.20689902 -0.07615463
  0.18918736  0.01860251]
[ 0.07771425 -0.20977673 -0.24717453 -0.26816246 -0.13826253  0.20734705
 -0.23597719 -0.28587446  0.14001152 -0.0063059   0.19643678  0.04000293
 -0.02527133 -0.03407098 -0.27733746 -0.16588701  0.12901141  0.01597062
  0.20435704 -0.30535856]
[ 0.02034127  0.15628645  0.19391517  0.08527716  0.03663504  0.30857593
 -0.03745107 -0.13129054  0.05305522  0.28248757  0.21721946 -0.2873233
 -0.20413907  0.2966432   0.01851381 -0.06250502 -0.00263134  0.26909453
  0.1319385   0.16319309]
[ 0.14804363 -0.17529266  0.19606893  0.06767081  0.08720171 -0.00065086
  0.09932711 -0.0271059   0.18610746 -0.1242917  -0.1769646   0.16701691
 -0.12925564  0.08195991  0.11183622 -0.09980065  0.1426354  -0.17133221
  0.04729262  0.00470143]
[-0.2396864  -0.13534127  0.19855294 -0.17041905  0.24991289 -0.06337083
  0.26261955  0.08078152  0.31246644 -0.26737776  0.20421809  0.30413473
  0.30757028 -0.08019315  0.28899467 -0.03165278 -0.1506478  -0.0960618
  0.19818196 -0.12449282]
[-0.00211539 -0.00381873  0.01419493  0.00378058  0.02666966 -0.00613841
 -0.00065235 -0.00036488  0.02172396  0.01165268  0.01558806  0.00219818
 -0.00525199  0.02332766  0.00351672  0.01652511 -0.00015185 -0.00812482
 -0.02141247 -0.05537181]
layer 5 Activation
tanh
layer 6 Dense
20 1
[0.23563509]
[0.42711806]
[0.37777713]
[-0.4009449]
[0.26394847]
[-0.35842928]
[-0.3672773]
[-0.09672841]
[0.41923898]
[0.2662278]
[-0.18833701]
[0.41324687]
[-0.28370017]
[0.0101718]
[-0.22062413]
[0.32633194]
[-0.1353525]
[0.02951525]
[-0.3485961]
[0.00589596]
[0.01957991]
