layers 7
layer 0 Dense
24 20
[-1.7909579   0.17647061  0.68809146  1.16114     0.3717388   1.0990046
 -0.36215764  1.7738824   0.72944826 -1.0918717  -0.7068392  -1.6099455
  0.35631874 -0.7918618   0.977397   -1.3003892   0.12443127  1.5675181
 -0.9885884   0.6608879 ]
[-0.33223185  0.17241326  0.01636541  0.51617146 -0.16298646 -0.03533316
 -0.5716932   0.72200763  0.21432711 -0.31521744 -0.49379364 -0.18361486
  0.5519873  -0.32771787 -0.30059874  0.5462457   0.0785779   0.11387318
 -1.004153   -0.2918585 ]
[ 0.07109403  0.51498604  0.53444946  0.2229714  -0.4323403   0.3389635
  0.05205535  0.17682084  0.5039263  -0.17994113 -0.39323923  0.02392284
  0.40349236 -0.3367757  -0.16228561  0.49698097 -0.18933485  0.3032809
 -0.59783167 -0.42322707]
[-1.1815904  -0.07383986  0.34640628  1.4948326   0.74454397  0.9128809
 -0.60533726  0.5878052   0.10854343 -1.0141274  -0.8319006  -1.1755656
  0.79792684 -1.0168537   0.69331545 -0.65799063 -0.61214226  0.8697367
 -0.73727405  0.3183383 ]
[-1.274103   -0.99158317  0.3931155  -0.02690008 -0.64143664  0.05076766
  0.43009585  0.9932223   0.86110276 -1.1024837   0.32693714 -1.0776793
  0.3194906  -0.07540576  0.64953035  0.07940918  0.56062484  1.4285433
 -0.23173346  1.2617749 ]
[-0.26478082  0.33767113 -0.24161488  0.59260577  0.4364489   0.06823637
 -0.24721526 -0.23378642 -0.01883465 -0.45156267  0.10243838 -0.21162347
 -0.25050965 -0.23713858 -0.08850698 -0.28384548 -0.61920893  0.43672642
 -0.13326065  0.18064302]
[ 0.07823556  0.10054211  0.19197556  0.3713622   0.22922836  0.03854149
  0.00076917 -0.63291925 -0.17603339  0.12799439  0.16102803  0.15200946
  0.00938321 -0.6306874   0.3073222  -0.6157152  -0.11319065  0.08777191
 -0.05233652 -0.31094214]
[ 1.4848033   0.14556825 -0.857595   -1.3551673  -0.45569986 -0.4241996
  0.5726325  -0.8965201  -0.85060894  1.3211992   0.7473933   1.4374493
 -1.0204611   1.1219329  -1.0456737   0.25163552 -0.03040263 -1.3149369
  1.2254875  -0.52831   ]
[-0.42541003 -0.32377064 -0.10850512 -0.2515886  -0.37513834  0.14403804
  0.5683879   0.44676927  0.25516576 -0.73009527  0.5187481  -0.87366736
 -0.23521805 -0.26713762  1.0202398  -0.23354602  0.5380739   0.34166428
  0.40248942  0.38295233]
[ 0.07411886 -0.3294919  -0.98128134 -0.4795169  -0.64579755  0.29806542
  0.46542537  0.15072383 -2.0278735  -0.02989071  0.28138018  0.14420824
  0.0737725   0.02546236 -0.81562173  1.6275518   0.02345191  3.5991912
  0.09025976  0.6926006 ]
[-0.6799963  -0.47013587  0.46529058 -0.79732406 -0.7756238   0.94777316
  0.52798855  0.87362796  1.1635875  -0.16159365  0.05706991 -0.37135616
  0.05179781 -0.08306191  0.18752001 -1.4971197   0.49472362  0.08260693
  0.01596518  0.91770345]
[ 2.296994   -0.36106253 -0.7995985  -0.8705139  -0.45939216  0.81342566
 -0.43406987 -0.5394965  -3.3772843   1.4612837   1.0208944   2.2513294
 -0.7826063   1.2051631  -0.0550885  -1.1211973   0.21259102 -1.1096747
  0.78757715 -0.74532133]
[-0.28088588 -0.676195   -0.44942442 -0.2925151  -0.4678627   0.09830102
  0.4645238   0.6760728  -0.02879594 -0.44702366  0.11495193 -0.6755423
 -0.49522924  0.23054071  0.6431369  -0.003701    0.5368336   0.16443019
  0.21181792  0.34131595]
[ 0.37439996  0.6533049   0.8190163   0.04125844  0.7488084  -0.29131448
 -0.35482937 -0.48381764  0.39943603  0.641965    0.02826377  0.2874876
  0.4544727   0.27860975 -0.0456891   0.03769618 -0.6954345  -1.2892375
 -0.05748031 -0.5396697 ]
[ 1.8372762e-03  1.9521882e-01 -1.4861223e+00  6.6769612e-01
  1.1661752e+00 -5.1345077e+00  5.5180657e-01 -2.1483335e+00
 -2.6066568e+00 -5.5570966e-01 -7.8133710e-02 -2.5579774e-01
  1.0667997e-01 -6.5968877e-01  6.3347526e+00  6.1612182e+00
  3.2351407e-01  3.1266379e+00 -1.1175695e-01 -7.1053785e-01]
[ 2.3141184   1.4126215  -0.68825805 -1.1871531  -0.2740316   0.02239213
 -0.65624654 -1.0690308  -2.9947708   2.0235329   0.8840666   2.5980546
 -0.45146206  0.8051738  -1.5920925  -0.3537314  -0.56613165 -2.1506941
  1.0989686  -1.4782501 ]
[ 0.16991201 -0.07180417 -0.05737688 -1.2166314  -0.6627528   0.2389174
  0.5892837   0.1921255  -0.702137    0.01298826  0.5579339   0.00843331
 -0.5385633   0.29238552 -0.21527924 -0.450846    0.6010938   0.35853776
  0.547648    0.33111808]
[-0.4400396  -0.70588994 -0.06489918  0.48602504 -0.79653674  0.39462814
  0.5611057   0.20977777  0.31163803 -0.74694836  0.15734418 -0.8160581
  0.11325885 -0.265816    0.2563932  -0.44676858  0.24464354  0.2950453
 -0.22669165  0.7160802 ]
[ 0.85717314  0.8300087   0.1677995  -0.21385734  0.4990009  -0.21668214
 -0.44178662 -0.75650525 -0.82229304  0.9124642  -0.16416316  0.8101605
  0.14235298  0.07461089 -1.1476041   0.4557477  -0.53325224 -0.38835767
  0.21248278 -0.6433114 ]
[ 1.6882598  -0.37189695 -0.96574706 -2.1379247  -0.40082157 -0.00284818
  0.18192214 -1.0949271  -2.479192    1.3452504   1.0796701   1.7248884
 -0.40387514  1.4054326  -0.62939847 -0.3656032  -0.11714001 -1.3227499
  0.7735621  -0.6072255 ]
[-0.45848015 -0.78172624 -0.27913648 -0.2029244  -0.22589074  0.1278055
  0.6531408  -0.07878689  0.525969   -0.15852527 -0.03457788 -0.21124616
 -0.39057893 -0.12114819  0.37909347 -0.08375107  0.47001702  0.11325631
  0.38004038  0.25658864]
[-0.772173   -0.874992    0.42638376 -0.5227873  -0.85324013 -0.40063146
  0.6105185   0.83491576  1.1285803  -0.33826295  0.03523128 -0.7362538
  0.16739851 -0.27727777  0.3041115   0.1322899   0.1797642   0.6279195
 -0.10157879  0.87575597]
[-1.1334962  -0.72680295  0.0895642   0.5776517  -0.28560522  1.4425132
  0.1392587   0.50210154  0.48456788 -0.7261311   0.05590921 -1.1931247
  0.0852029  -0.49447766  0.55245525 -1.208501    0.6739984   0.25053146
 -0.08106631  1.283191  ]
[ 0.22551304 -0.6073601  -0.6961238  -0.3738531  -0.7332796  -0.17729287
  0.34366152 -0.02988878 -0.02836546 -0.31360215  0.5814891   0.17958128
 -0.27649623  0.578484    0.510869   -0.3900619   0.76898116  0.00718739
  0.25073212  0.55650306]
[-0.5207641   0.27996743  0.44660458  0.96546257  0.5913275   0.30405575
 -0.50978285  0.35156634  0.31200275 -0.3250168  -0.46950313 -0.5128178
  0.570455   -0.63373566  0.1797145  -0.09392084 -0.3632039   0.4165452
 -0.5903887  -0.05073949]
layer 1 Activation
tanh
layer 2 Dense
20 40
[ 1.1364185  -1.328911    2.076978    0.43987957 -0.20652595 -1.6116651
  0.6000275  -0.94506145 -0.5229236  -0.26129964  0.89441496  1.0424557
 -1.2623558   2.0215797  -0.98457426 -0.6885364  -0.23207852 -1.0877289
  1.2598164   0.62902486 -0.76260555  0.5365321   0.16241114 -1.1089536
  0.6550488  -0.25195172 -1.2090576  -2.0061963   0.573677   -1.1099162
  1.6005876  -1.4697962  -1.6370085  -1.5276011   0.9119911  -0.3217782
 -1.4050938   0.43428403  1.3235368   0.8829963 ]
[ 0.43564874 -0.77549285  0.5176657   0.35800266 -0.34079814  0.40190998
  0.01818601  0.11161038 -0.2469904   0.0022673  -0.76413774  0.19958049
  0.40568802 -0.28906995  0.51520354 -0.55408174  0.43117788  0.3253871
  1.1924756  -0.26166674 -0.2599871   0.15359482  0.0314684  -0.7536537
 -1.3600175   0.22584078  0.47314164  1.1553335  -0.9478714  -0.15025936
  0.66789615  0.5392696   0.3666093  -0.45243114 -0.25402713 -0.75562066
 -0.20752776 -0.37329862  0.24379537 -0.5594216 ]
[ 0.14281431 -0.6130473   0.2583501  -0.614329    0.767433    0.27113125
 -0.45700777 -0.45337084 -0.6440214  -0.11623674 -1.2968324  -0.11125106
 -0.02590141 -0.70330346  0.88584965 -0.59096473  0.21560885  0.1888548
 -0.07033531  0.24408148 -0.31160706  0.18087147  0.39298385 -0.19718836
  0.51318973 -0.17642397  0.4398157  -0.6543514  -0.3510601   0.7939177
 -0.32114613 -0.1310654   0.46891025 -0.2988983  -0.06932457 -0.72025555
 -0.75570434  0.24471007  0.21291071  1.0302463 ]
[-0.47464192 -0.25009817  0.31753898  0.24068601  0.15294497  1.0947598
  0.8495951   0.6728185   0.08892978  0.6372061  -0.70371336 -0.3885368
 -0.27882466 -1.0044217   0.19158578 -0.23789898  1.0778401   0.40713727
  0.9485636  -0.32820034  0.78899354 -0.95401376 -0.59847224 -0.3786591
 -0.36261937 -0.8107129   1.0471202   0.5971338  -0.5094891   0.00865984
  0.76147985  0.6871143   1.0903534   0.56829566 -0.8001772  -0.26861563
 -0.01621308 -1.2360287  -0.6631574  -0.9531561 ]
[ 0.9525855  -0.74913204  0.37004992 -0.94344735  0.23618263  0.19449976
 -0.90308297 -0.39146292 -1.1298162  -0.5823665   0.40530655 -0.44695944
 -0.05048884  0.10962424 -0.6475567  -0.6517194  -0.999788    0.08428292
 -0.05033401  1.0822014  -0.4154743   0.45271996  0.669534   -0.44385937
  0.5276798   0.475494   -0.47123507 -0.37816176 -0.01578944  0.13773909
  1.5042703   0.49302882  0.12333359 -0.6009691   0.0253041  -0.5129836
  0.10801822  0.7871659   1.1178015   0.28909087]
[-0.65577614 -0.9623574  -0.46766075 -0.3089714   0.06164582  0.15640536
  1.2242005   0.5891023   0.4909986  -0.26896632  0.6765439   0.8637354
  0.8747802  -0.4077248   0.77001536  0.14109774 -0.40124595  0.17606683
 -0.5086444   0.41987655  0.06308359  0.12990782 -0.16678329  1.1109456
  0.28540817  0.46934724  0.42643827  0.09188013 -0.28924263  1.0563006
 -0.11526433  0.07489803  0.14603554  0.33668688 -0.49177474  0.21760282
 -1.2450489   0.3445006   0.24800478  0.6188334 ]
[ 0.6346318   0.07801762 -0.19557796 -0.9217712   0.39471105 -0.61433244
 -0.59081835 -1.121746   -0.23365499 -0.6704358  -0.05190044 -0.92835313
 -0.4208038   0.4753266   0.06877007  0.0771234  -0.75043195 -0.4436628
 -0.0661049   1.1780761  -1.149847    0.59218025  0.96171975  0.02230906
  1.2164297   0.45309153 -0.4403009   0.14814255  0.72243416 -0.01275817
  0.16710474 -0.19267954 -0.59840876 -0.61716837  0.3631574   0.13133988
 -0.05273537  0.7774651   0.4445381   0.7802984 ]
[-1.0004289   0.09098712 -0.72347236 -0.07901734  0.5547765  -0.56247395
  0.7125663  -0.08335822  0.09320102 -0.07725964 -0.4956041  -0.4454306
  1.0361177  -0.31334943  0.48358065  1.3714163  -0.3676663   0.7289577
 -0.51385367  0.1427301  -0.19770256  0.1308471  -0.06159336  0.23208019
 -0.34492126  0.36398232  0.51242596  0.8791642   0.5603606   1.0451616
 -0.38401335  0.35876313  0.12019476  0.24446999 -0.3887385   1.4787397
 -0.26794386  0.1342215  -0.6154786   0.59808326]
[-0.75492734 -0.27395076 -0.79934543 -0.04288968 -2.0867107   1.0837722
 -0.85659313  0.8251891   0.24593191 -0.08437676  0.05707293 -0.1685516
  0.8855655  -1.0005556   0.87571603  0.5353787   0.21353348  0.82004446
  0.37127104  0.5013087   0.46159962 -0.26796964 -0.06192125  0.3981623
  0.60297537  0.03361002  1.1007665  -0.21641885  0.05758484  1.6192389
 -1.0098367   1.2050934   0.82644516  0.41531947 -0.978138   -0.12878872
 -0.27583897 -0.64104646 -1.3860705  -0.10621875]
[ 4.1312033e-01 -6.6987222e-01  9.2592508e-01 -1.3206146e+00
 -4.4871099e-02 -4.1258141e-01 -3.5605822e-02 -1.0197605e+00
 -1.4541055e+00 -6.3639265e-01 -9.0084988e-01 -2.9579231e-01
 -1.3296284e-01  3.0635813e-01 -1.1035662e-01 -4.8783100e-01
 -2.9696688e-01 -1.1111952e+00  3.6149362e-01 -1.1346325e-03
  3.7776366e-02  4.1460273e-01  8.7525606e-01 -1.5102745e+00
  4.4039890e-01  2.1549165e-01 -5.9917629e-01 -1.4457644e+00
  8.3366789e-02  2.7621916e-01 -3.4775203e-01 -6.5141600e-01
 -1.2794073e-01 -9.6760523e-01  4.3360618e-01 -1.2093366e+00
 -8.1362242e-01  1.8485934e-01  6.7371148e-01 -6.2871978e-02]
[ 9.63806033e-01 -4.14860368e-01  3.83688569e-01 -1.41989255e+00
 -2.97252089e-01  4.30297889e-02 -1.54993689e+00 -6.59051478e-01
 -6.73869133e-01 -1.20057046e+00  5.33553131e-04  2.87575498e-02
 -3.89656752e-01  4.51079994e-01  8.76552224e-01 -3.87826294e-01
 -1.22731555e+00 -8.64760160e-01  8.13724026e-02  1.20950365e+00
 -1.22235358e+00  1.05485022e+00  1.59270740e+00 -6.21100843e-01
  8.01711261e-01  8.80482495e-01 -4.30671811e-01 -8.83657455e-01
  1.01495005e-01  3.18544179e-01  7.00985014e-01 -7.97090828e-02
 -2.67251730e-01 -9.34621871e-01  7.89779603e-01 -5.82559824e-01
 -4.30192947e-01  1.39782727e+00  4.96233344e-01  6.74015760e-01]
[ 0.7276232  -1.5160046   1.446915    0.5023838  -1.0038273  -1.5704235
  0.26310474 -0.4995676  -0.22833775 -0.09668598  0.46685988  1.1853765
 -0.9229054   1.3167789   0.11566554 -1.1119878   0.29143825 -0.17302702
  1.392381    0.4644445  -0.66552335 -0.00975377  0.15363103 -1.2299274
  0.67342174 -0.50648314 -0.8322402  -1.3050408  -0.20255363 -0.7200958
  1.3307567  -1.7444282  -1.4313847  -0.9338951   0.554322   -1.1535957
 -1.6562362  -0.0038011   0.828921    0.6560873 ]
[-1.17003679e+00  5.23995459e-01 -8.11672390e-01  1.20319271e+00
  1.29139364e-01  3.95408832e-02  8.83576274e-01  3.43742967e-01
  5.81281722e-01  8.05749238e-01 -1.76479399e-01  2.71654636e-01
  2.71229185e-02 -3.82950932e-01 -7.77770638e-01  1.08691227e+00
  1.65694523e+00  1.38300109e+00 -7.84133747e-02 -1.19370449e+00
  9.32725668e-01 -7.57354200e-01 -7.58851111e-01  1.96306393e-01
 -3.81660521e-01 -9.39431012e-01  6.82764828e-01  7.36509621e-01
 -1.75896063e-01  9.37801600e-01 -1.13082394e-01  2.23170151e-04
 -6.38983846e-02  5.67793727e-01 -8.58961761e-01  9.49740469e-01
  4.55509365e-01 -7.67775714e-01 -5.93809366e-01 -5.47828913e-01]
[ 0.04700838  0.7048838   0.4821165  -0.7760731  -1.0664371  -0.1856871
 -1.7189102  -0.78912646  0.10996331 -0.15878351  0.42756513 -0.15341118
 -0.14675541  0.3915609   0.02606253 -0.21704839 -0.18294367  0.59941834
  0.5968741  -0.08588223  0.2523521  -0.05040025  0.18896446 -0.554734
  0.23001507 -0.03638264 -0.47238645 -0.21738754  0.6220824  -0.44900444
  0.79381454 -0.11199094 -0.348629   -0.34355748  0.9160356  -0.01322419
  0.96649724 -0.32723686 -1.1941761   0.00236469]
[-0.46665373  0.3782969  -1.0830134   0.03206795 -0.40342128  1.2865707
 -1.144453    0.820908    0.31630966  0.26712468  0.36075914 -2.5458462
  0.8889169  -1.3680805   0.37481374  0.03835895 -0.02905414  1.0872986
 -0.70700294 -0.26689082 -0.33739477 -0.00627485 -0.38657355  1.1437961
  0.3749404  -0.14495967  1.2807634   0.7555275  -0.10204225 -1.026581
 -0.41773978  1.4434059   1.3651918   0.39273492 -1.8303112   0.6774429
  1.01301    -0.564854   -0.9530167  -0.0254176 ]
[ 0.4602463   0.5662479   1.145819   -0.17729141  0.4240323  -0.75156534
 -1.3692771  -0.63082486 -0.46098706  0.10887223 -0.34944558 -0.8264348
 -1.5354179   0.7616493  -0.11049867 -0.3610866   0.25036237 -1.1877781
  0.38331637  0.1932505  -0.39714408 -0.49193412 -0.15013541 -1.0914091
 -1.0830275  -0.4399577  -0.6849715  -0.97772604  0.29569477 -1.7005244
 -0.22091743 -0.8035391  -0.8372098  -0.38589337  1.0783421  -0.51843655
  0.8543689   0.18392809  0.42797643 -0.0426758 ]
[ 0.6257704  -0.01305145  0.03286759 -1.0154294   0.74142206 -0.48581448
 -0.45769152 -1.1611385  -0.32101566 -0.75397515 -0.10315689 -0.5118
 -0.15983394  0.69002986  0.02922136  0.36541417 -0.53025395 -0.34342486
 -0.42595044  0.75061834 -0.93574876  0.60170627  1.2075622   0.10648322
  1.2322774   0.7025745  -0.20309645 -0.20319673  0.6356571   0.00955693
 -0.15630934 -0.25138375 -0.34884405 -0.8393194   0.19233929  0.016795
  0.24850854  0.90706205  0.06210955  0.6745793 ]
[-0.69525355  0.7782377  -0.9308414   0.1323726  -0.01435986  1.303225
 -0.4231777   1.1445819   0.84853536  0.27663216  0.22805436 -1.2845962
  0.9035073  -1.492407   -0.05500143  0.0615489  -0.0287206   0.90741503
 -0.23646739  0.36666077 -0.09150067 -0.03568702 -0.45015     1.0752949
 -0.03774012 -0.06125227  1.4297562   0.597248    0.10981085 -0.90245914
 -0.98203164  1.5423715   1.3747008   1.0949819  -0.4739405   0.33506936
  0.5322811  -0.5361819  -1.2431432  -0.22440681]
[ 0.7434802  -0.47665527 -0.08845443 -0.52765435 -0.9851681  -0.51862186
 -1.0873098  -0.07705211  0.20151842 -0.5716794   1.1731703   0.45781764
 -0.26662844  0.41357642  0.5756151  -0.09422576 -0.49540505 -0.57993203
 -0.06026354  0.5304864  -0.87186176  0.74388134  0.3004624   0.46867627
  0.82590586  0.37074926 -0.7463017  -1.1274105   0.00868319  0.05598396
 -0.08445439 -0.41984552 -0.78966624 -0.49611902  0.06442145  0.34902155
 -0.8070964   0.76762193  0.9175114   1.6922768 ]
[-0.36432365  0.99042434 -1.1678911   0.34332666 -0.90797764 -0.53616965
  0.23005478  0.33329636  0.6243262   0.01766428  0.11058999  0.03503084
  0.44104522  0.43945083  1.5881734   1.658531   -0.2133038  -0.8395984
 -0.95882386 -1.1602033   0.23080306 -0.2643653   0.2833767   0.24140419
  0.06217296  0.18520887 -0.5924005  -0.00222033  0.71713066 -0.19699836
 -0.5914604   0.33197856 -0.26926282  0.13975635  0.29503062  2.0689683
  0.74341226  0.11604765 -0.11073488 -0.09459696]
[-0.5574939   0.49733046 -0.3582222   0.8642668   0.9188631   0.05553107
  1.2636799   0.20487982 -0.08963368  0.48736823 -0.5485488   0.07323533
 -0.3775759  -0.07777351 -0.7503591   0.657588    0.60879403  0.16060583
  0.06514577 -0.8873129   0.9538334  -0.6844969  -0.6093979  -0.3391429
 -0.639831   -0.44075903 -0.10919981  1.001738    0.16399758  0.03208862
 -0.30954224 -0.19438665 -0.01948756  0.57402253 -0.2958505   0.51769614
  0.426554   -0.41268742 -0.19424146 -0.72455645]
layer 3 Activation
tanh
layer 4 Dense
40 20
[-5.2909094e-01  4.0203047e-01 -4.4255391e-01 -1.7670381e-01
 -4.6242049e-01 -8.5193849e-01  8.3164650e-01  1.5148482e-01
  7.9959953e-01  1.7822896e-01 -5.2711433e-01  6.4956975e-01
 -4.4475257e-01  1.0960312e+00 -4.8120040e-01  8.4734637e-01
 -2.5412757e-05 -6.6230571e-01  9.4347006e-01 -6.9936879e-02]
[ 0.1780569  -0.323803    0.0744293  -0.32976878  1.2336221  -0.03275036
 -0.83859605  0.3321765  -0.7731597   0.4006369   0.5706116   0.10746787
  0.66956013 -0.9835245   0.46238473 -0.7816482   0.17351443  0.04312317
 -1.607184    0.3008511 ]
[-0.08968314 -0.15737149  0.61664927  0.976027   -0.50123686  0.30038315
  0.6036243  -0.5063768   0.25604695 -0.8890884  -0.05552614  0.31360754
 -0.72462064  0.90834093  0.02681524  0.61731476  0.36400074  0.79204464
  1.1196823   1.289221  ]
[-0.07159239 -0.86565673  0.4712448  -0.2353869   0.8965457   0.9642934
 -0.9729481   0.6872058  -0.24340463 -0.66389614  0.02362216 -1.1266117
 -0.3207309  -0.5222226  -1.0349247  -0.11343386 -0.21806291  1.0232807
 -0.06153013 -0.2589821 ]
[ 0.52144563 -0.9465017   0.28997132 -0.56396526  0.3572456  -0.05032948
  0.13916954  0.63718116 -0.0024494  -0.32260728  0.05062974  0.15345147
  0.12300235 -0.4427634  -0.16996938 -0.3410725   0.0688115   0.7975577
  0.23614897 -0.33361918]
[-0.24118833 -0.9221713  -0.16841526 -1.7156695   1.3169429  -0.487884
 -0.744512    0.1999686  -0.855046   -0.14529967  0.05587318 -1.040684
  1.4088451  -0.7855501  -1.8296407  -0.72936666 -1.5902784  -0.30305013
 -1.163079   -1.3735253 ]
[ 0.25397053 -1.4619685   0.8914889  -0.54681057 -0.01870692  0.13736479
 -0.61851335  0.52915794 -0.3798866  -0.6572874   0.06526742  0.07067513
 -0.10002328 -0.7934224  -0.37479812 -0.02615925  0.05531232  0.7464645
  0.536918   -0.5593471 ]
[-0.09465157 -0.5681406   0.0601679  -0.19357224  1.1708791  -0.19847062
 -1.6137255  -0.24259637 -0.95039546 -0.18419133  0.21135084 -1.636872
  0.5858106  -1.1344259  -0.87501633 -0.8248598  -0.4888351   0.47267237
 -1.1799732  -0.05912264]
[ 0.22400275 -0.41901883  0.3249453   0.5918666   1.3367116   0.5535423
 -0.36417603 -0.59499335 -0.1430794  -0.8123902   0.02110065 -1.1127236
 -0.02666743 -0.03468569  0.03055259  0.07352949 -0.0058141   0.2657055
  0.31784138  0.6240286 ]
[ 0.37138358 -1.9586601   1.25602     0.02196132  0.94431114  1.0948815
 -0.42963585  0.52883404 -0.6005585  -0.99787873  0.87665975 -0.79840165
  0.285367    0.2130779  -0.2953065  -0.18296304  0.01317021  0.95784396
 -0.17363974  0.27593786]
[-0.47094396 -0.5024144  -0.2360623   0.2713646   1.527965   -0.14546573
 -0.26024693 -0.68491894 -0.2375394  -0.5633223  -0.17870472 -0.69371647
 -0.3412491   0.05338906  0.21240266  0.2438082   0.91921824  0.11158085
  0.1889481   0.38432065]
[ 0.3241281  -0.15704046 -0.18901852  0.48821285 -0.12290373  0.63376737
  0.34326637  0.94775504  0.22553138 -0.5998929   0.5008265  -0.22510052
 -0.34116513  0.7156272   0.06579959  0.8859293   1.0965712   0.17309853
 -0.15474427  1.2530996 ]
[-0.52382     0.70287067 -0.25435087 -0.18856262 -0.16047382 -0.2052594
  0.21643744 -0.560036    0.10910134  0.09596236 -0.52076447 -0.1179217
  0.05302506  0.38798907 -0.92959625 -0.39389297 -0.8599892   0.12651509
  0.3837524  -0.89095545]
[ 0.11815217  0.72442    -0.0482321   1.0613388  -1.1217687   0.05052365
  0.65718484  0.07531738  0.9738996   0.1785055   0.2400893   0.64338315
 -1.5322107  -0.19243748  1.8476588   0.80577725  2.0024333   0.7385949
  1.2844892   1.3534186 ]
[-0.7117926   0.96173525  0.17313983  0.5615856  -1.3218459   0.22104299
  0.93937343 -0.916688    0.7455919   0.08123587 -0.70405054  0.4142541
 -1.2914989   0.6453414  -0.5461765   0.52516913 -0.64729106  0.0715201
  1.1808677   0.14914122]
[ 1.183507    0.4238803  -0.05515918 -0.43930304 -0.18307312 -0.44403878
 -0.89363426  0.2279553  -0.1567758   0.5063239  -0.10099079 -1.1504277
  0.6829916  -2.5755448   0.23079272 -0.47650114  0.491894   -0.27342692
 -0.66797155 -0.18171187]
[ 0.7409906  -1.8740646   0.8441002   0.59253716  1.3347877   1.5501169
 -0.17419466  0.5503605   0.04981981 -0.9131916   0.6330772  -0.3988175
 -0.02522349  0.33148915 -0.33273953 -0.16576368 -0.04033158  0.7796797
 -0.01099098  0.27822527]
[-0.24111073 -0.8385492  -0.20374992  0.37584612  0.5207296   0.49337703
 -0.7030037   0.5789303  -0.9195676  -0.6077411   0.34059504 -0.58207434
  0.24771541 -0.686911    0.11845412 -0.9599772  -0.02540963  0.12110908
 -0.66676235 -0.3091661 ]
[-0.286444    0.49204102  0.45669603 -0.587909   -0.9222224   0.06311665
  0.51480484  0.2618051   0.51282984 -0.5397401  -0.20566797  0.29743558
 -0.84646183  0.9537378   0.3340817   0.40317252 -0.12312029 -0.03601049
  0.6869944  -0.59366375]
[-1.6199259   0.4676837  -0.21761657  0.6622451  -0.06406464 -0.7117739
  0.8706365  -0.912261   -0.16983373  0.39036447 -1.3840879   0.17291458
 -0.37143058  1.4006501  -0.21356586  0.22959724  0.5200395  -0.55959725
  1.1825794   0.26952255]
[ 0.61911553 -1.7750158   0.9407402   0.07928596  0.8949286   0.8584239
 -0.5600372   0.7850945  -0.8631363  -0.31972948  1.0982332  -0.81208575
  0.6201558  -0.49485818  0.20791166 -0.74005795  0.46645668  0.82555836
 -0.72342163 -0.07146883]
[-0.867018    1.2012577  -0.8657462   0.04707181 -0.76031554 -0.59469956
  0.38512728 -0.81726485  0.91868407  0.8780763  -0.8215486   0.15618551
 -0.28343096  1.4875174  -0.5161696   0.55396223 -0.0449284  -0.8169464
  0.04642298  0.05097316]
[-4.9140707e-01  1.5595238e+00 -1.2863882e+00  1.9917982e-02
 -1.1216488e+00 -1.3032629e+00  1.8762803e-01 -6.3550502e-01
  1.1977224e-01  8.7116957e-01 -6.0648191e-01  7.7488780e-01
  6.7669654e-04  3.3499250e-01  3.9351180e-01  3.8367167e-01
  5.9743136e-02 -9.5570427e-01  1.3284445e-01  8.5283309e-02]
[-0.71487164 -0.41685927  0.17602745  0.23885284  1.1353248   0.18647908
 -0.4007216   0.1330786  -0.5495967  -0.44073758  0.04803135 -1.1981028
 -0.04805991  0.8358556  -0.44792038 -0.13134561  0.3496521   0.10721938
  0.2676723   0.02502331]
[-1.5797964  -0.19729158 -0.43182352  0.3182838   0.70406747 -0.13868058
 -0.11312593  0.07490867 -0.43727857  0.5957964  -0.2768077   0.02988157
  0.01455247  0.36108485 -0.6123348   0.04309716  0.22906522  0.03239864
 -0.13137728  0.05974697]
[-0.71602184  1.3102309  -1.0283642  -0.19773    -0.43720827 -1.2184695
  0.3373049  -0.67477024  0.69690853  0.6814921  -1.1782926   0.24964215
 -0.09722246  0.1480793  -0.41941977  0.315619   -0.18285897 -0.8924353
  0.20413071 -0.00840225]
[-0.61495906 -1.7242056   0.15674953 -1.8841116   1.0394427   0.08592509
 -0.5622116   0.6445555  -1.5387065  -0.04138076 -0.1787315  -0.71362925
  2.1248329  -1.2295766  -1.6106952  -1.3063198  -0.67133933  0.2642992
 -1.0272106  -1.2630893 ]
[ 0.95455766 -0.10524281  0.12032496 -1.3561082   0.01119289 -0.4951069
 -0.6906647   0.96109915 -0.39883047 -0.19256571 -0.15868978 -0.41221946
  0.52817065 -2.1167214   0.18447505 -0.7999201  -0.31474677 -0.28617582
 -0.4197509  -1.2585143 ]
[-0.13293986 -0.07028197 -0.32244572  0.2210375   0.8373349  -0.01622619
 -0.6986235   0.09825339 -0.46581405 -0.00185282  0.7993831  -0.50044066
  0.89300925 -1.3859005   0.4161726  -0.82155955  0.30745938  0.04927957
 -0.93567514  0.57153124]
[-0.40612295 -0.06234974 -0.20548938 -0.32548612  0.41626713  0.10924222
 -0.31518662  0.7108607  -0.24851075  0.1409178  -0.35578847 -0.36679873
  0.11163078 -0.7627035  -0.5074313  -0.25836027 -0.01661134  0.1986392
 -0.21678074 -1.0846752 ]
[ 0.00522504  0.36259058  0.24599065  0.5538996  -0.30788326  0.6675229
  0.39687338  0.26061586  0.8466598  -0.08753023 -0.03902953 -0.27730778
  0.336243    0.12240044  0.328446    0.48791698  0.3869821   0.3674773
  0.46321768 -0.2855632 ]
[-0.34475583  0.00444744 -0.33817756 -2.014371    0.76064336 -0.3040935
 -0.5932424  -0.49056858 -0.33610478 -0.0138731  -0.23217246 -0.38350618
  0.85738885 -1.1592269  -0.974232   -0.521486   -1.6162379  -1.2445261
 -0.10836481 -1.9105259 ]
[-0.14714856 -0.77512413 -0.09323387 -1.1284239   1.3950067  -0.45263577
 -0.9765758   0.09985996 -0.6185797  -0.02667283 -0.27320722 -0.8958172
  1.503435   -0.08022492 -1.569276   -0.58780926 -2.381794   -0.01456993
 -1.0485982  -1.2752101 ]
[ 0.05996483 -0.9374308   0.29969174  0.09042844  1.0430639   0.5265578
 -0.49819022  0.08237597 -0.84276587 -0.5107099   0.20008518 -0.92380524
  0.15212032 -1.0099928  -0.15368828 -0.8928321   0.18050875  0.3112291
 -0.5580718   0.32071534]
[-0.20267394  0.8258636   0.05962085  0.63006663 -0.5739132  -0.255678
  1.1340859  -1.0261123   0.45618218  0.3223587   0.47613275  1.1825657
 -0.8679632   0.67782485  0.5362721   0.94540536  0.03415547 -0.47097442
  0.55905795  0.9812783 ]
[ 1.0535394  -0.07256892 -0.24706568 -0.40522608  0.45843175 -0.23153111
 -1.1621232  -0.02724246 -0.39085004  0.53553456  0.21395443 -0.8127721
  0.47388944 -1.7677804   0.1346004  -0.47506335  0.69806296 -0.59947133
 -0.51844287 -0.06202099]
[ 0.7335136  -0.22096102 -0.12029006 -0.01495373  1.0367919  -0.35847867
 -0.85604686  0.2616114  -0.732161    0.1371368   0.8324461  -0.39160317
  1.2550644  -1.3047521   0.5406672  -0.91338056  0.19817634  0.08828261
 -1.1549364   0.47282353]
[-0.3669729   0.89483875 -0.78893554 -0.33941293 -0.21749146 -0.8666313
  0.23624091 -0.6439125   0.10967564  0.9910712  -1.0087974   0.2917859
  0.01934054  1.2444654   0.6148439   0.5317969   0.6486632  -0.89974463
  0.13308616 -0.12578152]
[-0.16382846  0.92651516 -0.5119944  -0.35012072 -1.2584962  -0.5282253
  0.2623254   0.21096063  0.36662072  0.65884537 -0.4511216   0.5425734
 -0.47862807  0.48187634  0.6331362   0.4168998   0.72421193 -0.40526503
  0.2323724   0.08732451]
[-0.43063194  1.7020059  -0.43437335  0.1438907  -0.9257994  -0.60516304
  0.4787544  -0.6919047   0.39451748  0.392751   -0.42364025  0.6868585
 -0.78296584  1.3846565   0.4436507   0.5182043   0.5309826  -0.79454607
  0.68746966  0.2152872 ]
[ 0.9802632  -1.0972949   0.31052235  0.06227961  1.0183908   0.33993924
 -0.5377257   0.6610812  -0.01280094 -0.56114775  1.0719284   0.06750297
  0.8635374  -1.0747443   0.47857225 -0.61060244  0.36050183  0.5844472
 -1.0902008   0.22789863]
layer 5 Activation
tanh
layer 6 Dense
20 1
[12.748911]
[-12.474117]
[12.78709]
[9.97449]
[-9.476598]
[12.905233]
[9.488055]
[12.446453]
[9.419784]
[-12.9469595]
[13.130578]
[9.593352]
[-9.599256]
[9.232427]
[9.883757]
[9.326451]
[10.044286]
[12.972033]
[9.551582]
[10.1252]
[13.29954]
