layers 7
layer 0 Dense
20 20
[-0.26974896  0.00716936 -0.14147897  0.40821922 -0.2195963  -0.13604583
  0.08621494  0.11828766  0.15917635  0.151171    0.25839308 -0.30708626
 -0.34819564  0.579648   -0.2319524  -0.14655557  0.24135564 -0.25056672
  0.11050288 -0.28585333]
[-0.51840794  0.18517487  0.12352514 -0.16426958  0.48172244  0.2516556
 -0.52665514 -0.2525403   0.20376714  0.2904898  -0.60292494 -0.12285928
 -0.31162268  0.01571466 -0.1127127   0.3661645  -0.04733612 -0.0449689
  0.4849924   0.05933216]
[-0.04804319  0.10218338 -0.44632226 -0.10245743 -0.00854313  0.12045757
 -0.60199344 -0.02080297  0.0614537  -0.1554771   0.03288057  0.07508697
 -0.1610197  -0.15533921  0.28551385  0.05065309 -0.11827654  0.06613212
  0.13243878 -0.0119894 ]
[-0.21959527 -0.06766119 -0.30333504  0.18112522  0.24986894  0.01614097
 -0.2788323   0.13959058  0.3714562  -0.05180795  0.06317984  0.30016375
 -0.46400207  0.36608207  0.22689931 -0.09657713 -0.1677356  -0.16728626
  0.5155821  -0.2553855 ]
[ 0.268747   -0.32507816 -0.11372621 -0.24159342 -0.06035216 -0.36245543
  0.20829791 -0.12579723 -0.10249206 -0.03185742  0.10560682 -0.19513422
  0.17889044 -0.15416045  0.3944513  -0.16607466 -0.38853964 -0.2742042
 -0.01443843  0.20279773]
[-0.36225754 -0.20375843  0.47719735 -0.00324403 -0.04672865 -0.71959233
  0.57021743 -0.07631013 -0.3656194  -0.03524533  0.46668133 -0.02831021
  0.03250965  0.19518997  0.31093258  0.02391435 -0.12027778 -0.02779936
 -0.00458294  0.388175  ]
[-0.3193797  -0.28962803  0.24063478 -0.3910587  -0.21399535 -0.25718787
  0.5685634  -0.3960224  -0.41850525 -0.13035825  0.2603145  -0.10914243
  0.38024703 -0.35551906  0.01223264  0.19130912  0.4110389   0.11870913
 -0.20558874  0.458303  ]
[-0.01500623 -0.40454343 -0.17203099 -0.4978331  -0.22046652 -0.33476803
 -0.18668577  0.10130507 -0.259731    0.04912799 -0.3625095  -0.01338895
  0.17431524  0.4147329  -0.00655914 -0.16057135 -0.07275351  0.06374903
  0.13642581  0.06594442]
[ 0.0677292   0.3241334  -0.06191271 -0.32581523 -0.14910187 -0.3837753
  0.0810326  -0.04426449 -0.20887266 -0.06667848 -0.10416931  0.45627764
  0.6743339   0.28230438  0.07197565 -0.07827204  0.12889335 -0.11302039
 -0.2501247   0.52655035]
[-0.26174033 -0.07447582  0.20976499 -0.04891422 -0.03501515  0.05825921
  0.44121742  0.03631498 -0.14241847  0.40982988  0.3562618   0.03226921
  0.16001457 -0.16075812 -0.11806511  0.05463829 -0.19849907 -0.35362282
 -0.16697149 -0.0288983 ]
[-0.10706608  0.13634558 -0.5753899  -0.02909644  0.3137212   0.20032728
 -0.04026355 -0.01560945 -0.05660686  0.28593543 -0.43769565 -0.11136314
  0.3058643  -0.05690564  0.2527058   0.0667576   0.1536233   0.05522599
  0.19608988 -0.3261718 ]
[ 0.5205106  -0.19088405  0.76634836 -0.29134497 -0.26556447 -0.40577254
  0.01955522 -0.3157872  -0.6602636  -0.7628893   0.07476821  0.08696748
  0.50213724 -0.49296525  0.15826713  0.03676638 -0.08421214  0.46441472
 -0.2266934   0.16836031]
[ 0.3058033  -0.0702678  -0.02904454 -0.19518065  0.2012244  -0.2836257
  0.03931993 -0.12546283 -0.1439241  -0.3696899  -0.11875739  0.20222244
  0.2440232  -0.11437628 -0.01440415 -0.09503058 -0.05016364  0.23455314
 -0.0814319   0.29000258]
[-0.01638503  0.08525757  0.31363273 -0.11401862  0.09276354  0.11892149
  0.33306837  0.25078994 -0.20731977  0.5155046  -0.02821336  0.49595618
  0.08933219 -0.3476082  -0.12180054  0.0365395  -0.10931603  0.01911443
 -0.22964849 -0.14787452]
[-0.1030267   0.60087544 -0.22046562 -0.13438988 -0.19955397 -0.09641101
 -0.38804504  0.18374518  0.1487274   0.11897814 -0.47268406  0.08215356
 -0.24887514 -0.30704045  0.39669415 -0.1152068  -0.03053136 -0.25337705
  0.18203035 -0.08426102]
[ 0.11776972  0.10092653  0.58584595 -0.6190854  -0.18285306 -0.2744533
  0.11300517  0.3508272  -0.03978367 -0.4188507  -0.23180273 -0.3093064
  0.46153152  0.05351662  0.36455476  0.14461035  0.70547247  0.5548696
  0.13550805  0.5421623 ]
[-0.43434766  0.25689116 -0.08870099  0.86679304  0.01980914  0.8333115
  0.0166638   0.40378997  0.63370734  0.04137116 -0.31731886 -0.16854392
 -0.665531   -0.02381433 -0.3875118   0.0258328   0.2795326  -0.09151497
  0.09120905 -0.5187032 ]
[ 0.12256443 -0.60316986  0.4287936  -0.09980007 -0.15491353  0.24695557
 -0.24534127 -0.21040547  0.19701916 -0.948446   -0.87694085 -0.8427074
 -0.04260346  0.93765044  0.2808789  -0.09233275  0.5843592   0.55745554
  1.056902    0.2459667 ]
[-0.9178548  -0.13952945  1.4429908  -0.13984081 -0.35116622  0.15992698
  0.31520295 -0.49544755  0.1755922  -0.19844644  0.50335383  0.36453974
  0.14762725  0.85415155 -1.4549301  -0.56344306 -0.0341335   0.549404
 -0.05691363 -0.04374547]
[-0.561137    0.5797697  -0.98690915  0.7759324   0.09520321  0.10686944
 -0.86631715 -0.24034923  0.6268271   0.80068773 -0.14818193  0.63118774
 -0.30584124  0.66998154 -0.46562693  0.10724121  0.09804247 -0.44892177
  0.72972053 -0.5765783 ]
[-0.33068982  0.15081792 -0.04814754  0.20187147 -0.13553649 -0.01072632
 -0.07811739 -0.00644103  0.09745867  0.16896147  0.1446453   0.0523009
 -0.21776088  0.02654648  0.03572266 -0.03216576 -0.08831692 -0.0636151
  0.03309876 -0.06621142]
layer 1 Activation
tanh
layer 2 Dense
20 40
[-0.11513699 -0.09492394  0.12328424  0.00058048 -0.03142212 -0.10949828
  0.0338801   0.03419816 -0.04031735  0.05798881  0.25310022 -0.02104361
 -0.24176872  0.07293988  0.10384826  0.07140369 -0.43044555 -0.0076214
  0.11541962 -0.2788576  -0.03186756  0.29074693  0.02265793  0.10557724
 -0.14499548 -0.002921    0.13728938  0.06880043  0.24901168  0.39726022
 -0.1507625   0.2576516   0.20209156 -0.00641646 -0.19628453  0.27993575
 -0.03206166  0.18871346  0.22594343 -0.13731588]
[-0.04360234  0.09188579  0.19632605  0.14254846 -0.06421773  0.05638579
  0.00266847  0.12003049  0.05512172  0.05214532 -0.00689733 -0.23592201
 -0.02859301 -0.2902074  -0.10773529  0.02586883  0.32324436 -0.23638771
  0.06785329 -0.11592013 -0.43029323  0.11040331 -0.16379628  0.00106767
 -0.02220085  0.03136896 -0.15081878  0.01130525  0.28494927  0.06478085
 -0.13790512  0.19710413 -0.05524584  0.19196953  0.03681769 -0.20237112
 -0.03291762 -0.10359168  0.25130582 -0.12453388]
[-1.41977251e-01 -1.72501221e-01 -2.20959872e-01 -5.65508544e-01
  3.52644056e-01  1.00399010e-01 -1.90862581e-01  1.56562582e-01
 -2.16145247e-01 -1.55918926e-01  1.36129409e-01  1.09641314e-01
 -8.62060189e-02  9.26091820e-02 -4.96871956e-02 -1.93984374e-01
 -3.56978178e-01 -2.92024046e-01 -2.39601791e-01 -3.01332206e-01
 -3.35564315e-02 -3.87966186e-02 -1.18960410e-01 -4.54213843e-02
 -1.44134775e-01  3.68797928e-02  2.26988690e-04  5.11109605e-02
  1.18475445e-01  1.27476573e-01 -1.45686120e-01  1.04020298e-01
 -2.01923892e-01 -4.35872018e-01  1.74252689e-01  3.52568924e-01
 -3.03845942e-01  3.03307503e-01 -2.28323206e-01 -8.51572976e-02]
[ 0.22201909  0.11322044  0.03806255  0.45769012 -0.23723449 -0.05032253
 -0.11706326 -0.45469776  0.05779256 -0.22705047  0.01098839 -0.00516494
 -0.08602585 -0.17035335 -0.05330069  0.21086547  0.36568308  0.29863265
  0.21264546  0.15802735  0.00284155  0.23297158  0.09363366  0.09926917
  0.18531339  0.04981586 -0.38952437  0.04690064 -0.2968738  -0.33380175
  0.15810227 -0.17741317  0.11851764  0.22111541 -0.05766732 -0.38602784
  0.17032301  0.03944849  0.03249164 -0.34302813]
[-0.15762687 -0.12052485 -0.17882858  0.10222439  0.10897002  0.02083234
 -0.24321564  0.25456032  0.09248162 -0.19845086  0.1561217  -0.16794406
  0.05434425  0.10976245  0.14856637  0.06069091  0.02923988 -0.1292745
  0.17446283  0.11532979 -0.09683096 -0.2102795   0.01371258  0.24931566
 -0.02485486 -0.17390323 -0.28125855  0.14659533 -0.17215915  0.11776214
 -0.12277256 -0.05655526 -0.25287357 -0.02986097  0.13635284  0.18551734
  0.042827   -0.2664112   0.06729499  0.0229982 ]
[-0.14625067 -0.04252577 -0.00439922 -0.11946732 -0.20867407 -0.09049921
 -0.08300919 -0.25461403  0.09967148  0.20552649 -0.1492149  -0.12300476
  0.34720826  0.30778444  0.22014013 -0.10153111  0.07461908  0.09897688
 -0.16141884  0.17626907  0.20991354 -0.09871367 -0.03321761  0.2943997
  0.00096914 -0.14560048 -0.11911803  0.03029957 -0.13629815 -0.14427961
  0.11344449  0.21209076  0.21109818  0.38201717 -0.29858476  0.07784843
 -0.10643775 -0.03954657 -0.1730395  -0.07180037]
[ 0.29897782  0.12028441  0.18599738 -0.23035274  0.3548435  -0.1524111
 -0.02749958 -0.32862958 -0.15837201  0.05297087 -0.11541118  0.12441905
 -0.2504358  -0.1738157  -0.1012831   0.01015567 -0.2584236   0.13839605
  0.08999351 -0.15971947  0.085868    0.42931426 -0.17747647 -0.12765256
 -0.2658154  -0.23036098  0.3460995  -0.33153266 -0.21946183  0.32179886
 -0.20746897 -0.1348065   0.0471177  -0.08510676  0.09278177  0.05317695
 -0.05468106  0.00120077  0.2364017   0.02844247]
[ 1.71169460e-01  1.17870301e-01  8.00250471e-03  1.45102948e-01
  2.94888109e-01  1.14868127e-01 -2.05536392e-02  1.06269464e-01
  5.14749903e-03  1.13056771e-01  8.41080993e-02  1.08252382e-02
  7.31667876e-02  3.24394070e-02 -2.20986940e-02 -6.62870854e-02
 -2.58254051e-01 -4.59820367e-02 -1.03811792e-03  2.62524933e-01
 -2.29121849e-01 -2.83808053e-01  1.10640705e-01 -6.41863747e-03
 -2.07590193e-01 -1.44563429e-02 -8.30831826e-02  1.17444962e-01
  1.97986394e-01 -2.12298241e-04  5.78601249e-02  8.96245614e-02
 -9.33675170e-02 -2.06139579e-01 -2.84270048e-01  7.48997461e-03
  9.90639180e-02 -1.32675707e-01  2.06477806e-01  1.04559399e-01]
[ 0.15253931 -0.21563958  0.01162612  0.32793042  0.06227931 -0.22010468
 -0.31136298 -0.08727812  0.15062572  0.05434268  0.09076608  0.19414584
  0.2641898  -0.13790257  0.11079238 -0.05482671  0.04310528 -0.15852611
  0.04439344  0.10978701  0.12436121 -0.09018825  0.22615302  0.04251762
  0.15673925 -0.1046669  -0.24194984  0.07066908 -0.06868172 -0.34410962
  0.26322854  0.15704729 -0.23317245  0.11674143 -0.22120962  0.09263276
 -0.03527774 -0.18916564  0.01962427  0.03827248]
[ 0.08541059  0.22122157  0.63038206  0.23235552 -0.1876474   0.05752903
  0.27262285 -0.3806832   0.00298095 -0.36690715  0.38192818 -0.6270031
 -0.06662857 -0.41839322  0.3079769   0.04665226  0.49157667  0.12205772
  0.4869228   0.22659408  0.03637225  0.5815376   0.08792602 -0.11629681
 -0.2556367  -0.34500638 -0.28635806  0.22639602 -0.07531178 -0.25851873
  0.15464099  0.01014081  0.0379702   0.05168127 -0.17214239  0.01300509
  0.08102924 -0.10031897  0.00180453 -0.14325935]
[ 0.26341528 -0.03942927  0.32392198 -0.16462752 -0.00874309 -0.08765287
  0.28871402  0.10404165  0.14813282 -0.11022435  0.15033998  0.1272438
  0.0660935  -0.38972554 -0.06476891 -0.08437385  0.09978545 -0.0793987
 -0.19937216  0.21646783 -0.04254846  0.03452976  0.13086337  0.21270083
  0.20510116 -0.02650534  0.26066592 -0.15063398 -0.05702864 -0.17817855
 -0.0512361   0.31948626 -0.20405227  0.0290576   0.15186074  0.22044234
 -0.11188029  0.10436366  0.22974227  0.07448537]
[-0.01803269 -0.00674889 -0.12214654  0.10636605  0.19241473 -0.15966141
 -0.1132898   0.06833795  0.20913476  0.15593943 -0.16290984 -0.15008079
  0.16787837 -0.16328779 -0.0465611   0.04439728  0.22214776 -0.16427204
  0.1061382  -0.05911842 -0.0499582   0.06954358  0.00080572 -0.12645514
 -0.13030711 -0.25720096 -0.37653527 -0.11128931 -0.03650968 -0.28009045
 -0.06819029  0.03830874  0.1377304   0.00477962  0.11962768 -0.1696641
 -0.1643044  -0.1347009  -0.05483925  0.06741287]
[-1.52509108e-01  5.21354638e-02 -2.24289268e-01 -1.19607992e-01
  8.41467455e-02  6.31294101e-02 -1.51422843e-01 -3.01223565e-02
 -2.28354737e-01 -1.05597354e-01 -3.42858076e-01 -9.63903964e-03
 -3.07254076e-01 -1.00135304e-01  5.53853847e-02 -1.80764362e-01
  3.76119129e-02 -1.36591271e-01 -5.60777709e-02 -3.31647724e-01
  3.22957635e-01 -7.13031441e-02  1.39696166e-01 -1.48931056e-01
  1.55679323e-02 -3.51126432e-01  1.09618619e-01 -1.58874288e-01
  3.29461604e-01  2.48343766e-01 -2.72750622e-04  1.34983525e-01
  1.40955076e-01 -1.98567882e-01  1.15144201e-01  3.55424255e-01
 -1.96694791e-01  4.28096354e-02  1.11826912e-01  2.64905483e-01]
[ 0.28146088 -0.02544233 -0.13494763  0.5343167   0.10697991 -0.21124163
 -0.10807239 -0.44422433  0.21874784 -0.05154471 -0.03970068  0.02763578
  0.28436598  0.28741795  0.02946669  0.20458387  0.36493695  0.07509089
 -0.17582758  0.14554587  0.05543947 -0.24183655 -0.20713283  0.21925841
 -0.01953222  0.10898811  0.02319363 -0.07378104  0.31058502 -0.17947824
 -0.2782704   0.00211133  0.13324308  0.27521542 -0.17435013 -0.12578356
 -0.2823375   0.1854638   0.2557288  -0.20252144]
[ 0.11702728  0.14452536  0.27286553  0.0424397   0.0751247  -0.16655421
  0.3860565   0.13256806  0.09822316 -0.16176462 -0.11935272  0.3607684
 -0.08457369 -0.20897019 -0.38707137 -0.08615544 -0.5139126  -0.25529876
 -0.48873088 -0.24224848 -0.19626178 -0.08347967 -0.10431416 -0.08419222
  0.23785752 -0.11289668  0.27227235 -0.17822775  0.20457779  0.31378073
 -0.17844684 -0.04670043 -0.24750376 -0.07280768  0.378403    0.16416627
 -0.00822741  0.04455027  0.11615774  0.18627703]
[ 0.16496854 -0.09739821  0.00760465  0.17238338  0.17220187  0.16593495
 -0.1369271   0.03407175 -0.18701045  0.23005955 -0.02608353  0.04277365
 -0.13137677 -0.1526419  -0.02827384  0.1512313  -0.11947218 -0.08321438
  0.12640606 -0.2596132  -0.10539639  0.13790774  0.21966882 -0.25550213
 -0.05401406  0.11265354 -0.13549715  0.01573049 -0.1238512   0.12197336
  0.2723668   0.00393733  0.02570797 -0.18880448 -0.25201216 -0.19275805
 -0.11539047 -0.16125828  0.09661312  0.12093213]
[ 0.11829568 -0.16569532 -0.18551917  0.17816865  0.05555748 -0.10810516
 -0.06471127  0.15461017  0.12336234  0.00173312  0.2620278   0.19478685
  0.17797674 -0.03436406  0.07251646  0.12576447 -0.06148358 -0.24625894
 -0.01519122 -0.05076865 -0.08246543 -0.17585592 -0.24067351 -0.00321967
 -0.17498747 -0.07756765 -0.21540797 -0.24430825  0.10356025  0.18571357
 -0.12061718 -0.13437834  0.07042705  0.04958728 -0.21604049 -0.0252808
 -0.22492507  0.14068766 -0.1514626  -0.2037907 ]
[ 0.0545084  -0.0551741  -0.18072888 -0.28722915 -0.14900234  0.09984238
 -0.15288003  0.0421583  -0.10541624  0.2366797  -0.14371185 -0.07169589
  0.19600374  0.348942   -0.2623988   0.24193762  0.07779087  0.10315178
  0.0776424  -0.22170106  0.48855495 -0.1756142   0.04578006 -0.00096278
  0.08187548  0.40984583  0.28201157  0.15677324  0.17641014  0.04595137
 -0.06515703  0.29345602  0.06225742  0.23423778 -0.1695501  -0.1818123
 -0.12478699  0.01437631  0.22334568  0.17537558]
[ 0.07237867 -0.21757452 -0.08973981  0.526513   -0.12324464 -0.02206094
 -0.28245443 -0.1057992   0.1439688  -0.12021217  0.08874986  0.01590974
  0.20108052  0.1855203  -0.17225295 -0.15584877 -0.12982035  0.13178137
 -0.07896443  0.4141078   0.21945745 -0.67863125  0.11152991  0.12043007
  0.02481392 -0.00129354 -0.09277269 -0.13558047 -0.15885344 -0.30550423
 -0.19760975 -0.12646447 -0.414657    0.11561232  0.00279265 -0.1524973
 -0.0326571   0.03087537 -0.22565877  0.19691114]
[ 0.11788623 -0.0364526   0.01513199  0.05718187  0.17411777 -0.12168289
  0.01030243 -0.02826608  0.36416343 -0.03002078 -0.30819952  0.19646497
  0.31527826 -0.23262408 -0.03674602  0.07269727 -0.23734592 -0.05546029
  0.06028462 -0.17171045  0.1216545  -0.1237338   0.00677898 -0.26172724
  0.2366677   0.12311164  0.311644    0.24876396  0.02007158  0.04508914
 -0.02516075 -0.18339556  0.0254714  -0.23903088  0.26038113  0.37600833
  0.10505275 -0.2604402  -0.0414053   0.11143686]
[ 0.2548329   0.17777896 -0.04455568  0.21747002 -0.09312458  0.09416739
  0.09180988 -0.20933299  0.06157788 -0.06487265  0.16657296 -0.09141486
  0.22401631 -0.19460723  0.04569713  0.15927823  0.2566882   0.01987199
  0.09530476  0.32327974 -0.09467684 -0.13520265  0.03557159  0.07842796
  0.03969144  0.1874489  -0.08578479  0.05176377 -0.1173788  -0.2142532
 -0.11859311 -0.0406285  -0.0957339   0.026579   -0.17767547 -0.15041848
 -0.02519451  0.01386389  0.03776699 -0.13368168]
layer 3 Activation
tanh
layer 4 Dense
40 20
[ 0.05803134  0.2013943  -0.17143425 -0.04955634 -0.13287954  0.01982344
 -0.07205951  0.08577289  0.300647    0.06061456  0.02610916 -0.1185002
  0.10917339 -0.09794411  0.1902012   0.24362984 -0.1600614   0.11855567
 -0.14663912  0.01558495]
[ 0.17754982  0.17314468  0.09453688  0.17486392  0.12615287 -0.06788804
  0.11287997  0.03980437  0.2677916   0.211256    0.22896437 -0.19669747
  0.1785021   0.04836947 -0.14556362 -0.11260842  0.18930125 -0.10289144
  0.156977    0.14799783]
[ 0.20959699  0.08764334 -0.07573657  0.06543057 -0.17174953 -0.34486145
  0.26663038  0.09427928  0.2157134   0.03683691 -0.00127662  0.21116734
 -0.21162683  0.2658631   0.1862146  -0.15114179  0.21941727 -0.09674127
 -0.0644192  -0.01273223]
[ 0.0498816   0.5601018  -0.27423024 -0.07379804  0.03973159  0.39477423
  0.13876002 -0.04529565  0.12113145 -0.314233   -0.24549356 -0.35573897
  0.17685334 -0.35103768  0.31143576  0.10626192  0.07453557  0.08138555
  0.12857465  0.02378548]
[-0.00714274  0.01769436  0.16377193 -0.01468534 -0.1125467   0.29888064
 -0.09719416 -0.25076377 -0.12800966 -0.11789818  0.07757937  0.17377362
  0.32096088  0.22885272 -0.1581629  -0.16647851  0.15330228  0.07566418
 -0.17671514  0.27414477]
[ 0.15976925 -0.10663261 -0.21747057  0.21015483  0.21403119  0.08087387
 -0.0396316   0.234689   -0.00245312  0.02562647  0.09049325  0.3115833
  0.1210006  -0.05063089  0.22748081 -0.2289826   0.11847846  0.01105252
 -0.07342988  0.07085299]
[ 0.01986021 -0.0181575  -0.13313745  0.15419209 -0.1304945  -0.17150572
  0.19026542 -0.04436747  0.14713866 -0.03163195 -0.19561654 -0.17709525
  0.16723956  0.00138451  0.03972434 -0.3007576   0.01536073  0.04378659
 -0.25834543  0.07445567]
[-0.034227   -0.22921994 -0.14719504 -0.11695718  0.024455    0.10769751
  0.23042367  0.12927145  0.25842196  0.25304088 -0.2437737   0.24515404
  0.02145931  0.10245594 -0.2627587  -0.24038467  0.21626803  0.17495151
  0.13043901 -0.19962485]
[-0.20848395 -0.07697061  0.04449003 -0.23769538 -0.03775704 -0.09763065
  0.1289093   0.07712147  0.05660413 -0.19899775  0.04352577  0.01238111
  0.2927073  -0.2238305   0.2952304   0.33069047  0.22445847 -0.10343676
 -0.0540267   0.21299377]
[ 0.23339505 -0.12595612 -0.1356553   0.24890773 -0.0796311   0.21609099
 -0.14357373  0.13814247 -0.21474454  0.11684653  0.0746382   0.32778507
 -0.09246804 -0.11058366  0.08282988  0.06959689  0.11764225 -0.11127035
 -0.01167187  0.12347677]
[ 0.17903227  0.11698505 -0.18947095 -0.24664885  0.06122776 -0.08925564
  0.01413273  0.07553531  0.08989129 -0.03309168 -0.06046779 -0.22441286
 -0.1411611   0.21319948  0.12140878  0.04721245 -0.17098945  0.06611501
 -0.21214691 -0.05600301]
[-0.17373455  0.11724979  0.1867368  -0.3244733   0.23570843 -0.02093832
 -0.20032641 -0.08653761 -0.2539122   0.03881533  0.02264026  0.26886374
 -0.21939546 -0.10070682 -0.16778184  0.24266596 -0.05640006  0.11386604
 -0.09701068 -0.20654446]
[-0.00113254  0.18191187  0.04341076  0.23771986 -0.21150297  0.20230442
 -0.21068972  0.1264824  -0.22197017  0.29084286  0.17196569 -0.18736497
  0.10824173 -0.20146492  0.0377724   0.04948737 -0.01931383  0.08893454
 -0.24793911  0.07045153]
[ 0.07061572 -0.23723155 -0.02291123  0.05625254  0.09877104  0.323347
 -0.12080022  0.16513497 -0.3149619   0.2829889  -0.12486202 -0.20291102
 -0.14921156 -0.29944235 -0.15949842  0.01399021  0.05625353  0.08743363
 -0.20253707  0.03349971]
[-0.28474185  0.11761869 -0.0810612   0.08961944  0.0036734   0.17142905
  0.22051333  0.25211668  0.01126893  0.11765327  0.22353452 -0.18034692
 -0.11158007  0.32563016 -0.15405394 -0.06990507 -0.11655223  0.04698278
  0.15663908 -0.18430814]
[-0.18236135  0.28578717  0.04384545 -0.18180549 -0.10037743  0.18807216
  0.12132867 -0.05071673 -0.05217286  0.26622212 -0.1591343  -0.11809503
 -0.09629676  0.19831887 -0.09899917  0.03848437 -0.17493531 -0.10197382
 -0.13451226 -0.19754589]
[-0.2187298   0.3995021   0.15108004 -0.03655046  0.22670464  0.13455419
  0.01701791  0.05220186  0.0240913   0.11278793  0.11493893  0.16056265
  0.24222088  0.14830196  0.33378193 -0.28955552  0.21361066  0.1579598
  0.34508276 -0.05156315]
[ 0.27724704 -0.10102675 -0.06390497 -0.06686325 -0.13361584  0.23673789
 -0.07633834  0.09501202 -0.2089209   0.11870032 -0.00145459 -0.05626149
  0.18558067  0.02317679  0.1919507  -0.24483879 -0.155128    0.05881834
 -0.07661273  0.17309193]
[ 0.16540888  0.00614351  0.05750347  0.24546748  0.1499735  -0.06195294
  0.08065096  0.07126627  0.12456714 -0.02865948  0.21269798 -0.14716707
 -0.13215923  0.20641406  0.20974194 -0.165954    0.12780008 -0.3882365
  0.16507895 -0.10639689]
[ 0.07269811  0.19206129  0.16845913 -0.12196063 -0.01166173  0.14242345
 -0.07246957 -0.04606772  0.31243128  0.18497175  0.01472225 -0.24314101
  0.27950287 -0.02300723  0.24310417  0.00111074 -0.04426015 -0.0517876
  0.17581356 -0.06189698]
[ 0.07011865 -0.11153184 -0.00825761 -0.15039144 -0.18288428  0.11720677
 -0.22706145  0.105978   -0.31608328 -0.03927895 -0.13959114 -0.049272
  0.17855278 -0.19374797  0.1361519  -0.34431398  0.04664266 -0.27138048
 -0.12773533  0.00695974]
[-0.06992884 -0.07432988  0.08389521 -0.12872334  0.14087336 -0.10447259
  0.02487539 -0.06260856  0.06874644  0.09605063 -0.13342142 -0.01969278
 -0.01151983  0.18312086  0.00759494 -0.39362496  0.27161318 -0.06354579
  0.19771315 -0.08209249]
[-0.18017243 -0.15460788 -0.14786759  0.01168652 -0.12945451 -0.03106523
 -0.07455669  0.05415045  0.11384359  0.20007852  0.0800464  -0.2977691
  0.24417524 -0.05447631  0.15624799 -0.26916766  0.14119853  0.10451446
  0.17643157 -0.10250691]
[ 0.10242093  0.14687821 -0.1729521   0.16278161  0.22366777  0.03278099
 -0.30717945 -0.2121091   0.106342   -0.04745817 -0.13818201 -0.22319983
 -0.24002525 -0.11709711  0.10038713  0.07466318  0.33157092 -0.18174805
 -0.0606782  -0.08302546]
[ 0.24920356  0.08572921  0.01544459 -0.03825075  0.25548586 -0.08098372
  0.02117293 -0.17912702  0.01425139  0.10138959 -0.18314984  0.08616889
 -0.07559504 -0.13061172 -0.03020467  0.05632769 -0.21142177  0.13327195
 -0.12029     0.17614914]
[-0.10449755  0.31348798 -0.13211668 -0.29540855  0.00773048  0.26620138
 -0.07511006  0.04843811 -0.10681618 -0.07851887  0.02536744  0.28535175
 -0.1000521  -0.11293466 -0.05782624  0.29159713  0.03975496  0.12937984
 -0.2317879  -0.01067828]
[ 0.00776038 -0.32729268 -0.19832648  0.10476357  0.33623114 -0.25245568
 -0.32582277 -0.0191489   0.23383024  0.08492584 -0.17183281  0.2547063
  0.03276537 -0.22505519 -0.06854686  0.08589607  0.23815405  0.32633534
 -0.07706336  0.12748145]
[ 8.5434601e-02  1.1175356e-02  1.6335578e-04  4.2094715e-02
 -9.8801926e-03  9.5180993e-04  4.6639606e-02 -1.3844219e-01
  1.4833745e-01  9.3963712e-02 -1.6475354e-01 -1.7939767e-01
  6.9605388e-02 -1.4901012e-01 -8.1207953e-02 -3.4986725e-03
 -2.3706585e-01 -1.5929748e-01  1.0323895e-01 -1.7373528e-01]
[ 0.00950797 -0.27001756  0.20931223 -0.22227032  0.19099449 -0.10128422
  0.21760847 -0.17348148 -0.10485394  0.13683017  0.29531908  0.06333192
  0.11999943 -0.14767168 -0.03705969 -0.1439069  -0.06231876 -0.1762733
 -0.27914342 -0.28903842]
[-0.22486253 -0.37494436  0.23347211 -0.04371931 -0.08813506  0.21353798
  0.00700905 -0.0439151   0.06910092  0.07766994  0.13204034 -0.1535934
 -0.01409576  0.26284286 -0.11378089  0.292463   -0.13244548 -0.23062678
  0.161975    0.0873457 ]
[ 0.05763753  0.04897308 -0.16945942  0.01953893  0.08557852 -0.21088772
 -0.00351611 -0.0181026   0.02211535  0.07820192 -0.08025475  0.01432775
 -0.3188921   0.03361733 -0.23785415 -0.27186564 -0.05504825 -0.0899175
  0.22431779  0.08784343]
[-0.16576254  0.02834954  0.01097078 -0.01341514  0.14513518  0.03158866
 -0.05242876  0.10456628 -0.20456727  0.09661034 -0.21867345  0.36293045
 -0.22140007  0.23954003  0.00716341 -0.0307089  -0.21647123 -0.05392291
  0.08164074  0.07469597]
[-0.07445315 -0.07303496 -0.04838957 -0.12119481 -0.03521067 -0.14410953
  0.22651514  0.1924993  -0.33890885 -0.30842713 -0.10412171 -0.00370712
  0.21014895 -0.01430894 -0.10551562 -0.43589142  0.21986847 -0.15831098
 -0.12469699  0.11897118]
[ 0.06882572 -0.14823766  0.1406932   0.18480349  0.23031305  0.11003662
 -0.07633656  0.09102938 -0.31730312  0.21128629  0.13463518 -0.0187585
 -0.24275254  0.0340534   0.25989142 -0.2233153  -0.16734141  0.00851092
 -0.02374162  0.09134813]
[ 0.20375852 -0.27774462  0.06357007  0.12920965  0.11711988  0.20545842
  0.22802466 -0.21059772 -0.18939324  0.07941355  0.08171865 -0.27117237
  0.06337375  0.25021264 -0.22256085 -0.0778451  -0.30584058  0.26308084
 -0.15055716  0.24896382]
[ 0.16412593 -0.24314223 -0.0788251   0.01567889 -0.0088592   0.18455276
 -0.30217355  0.08785353 -0.10259079 -0.1903029   0.02470205  0.1635965
  0.12018457  0.04270229 -0.08070569  0.11614848 -0.09840597  0.2543066
  0.01122796  0.17278123]
[-0.18821119  0.09730205  0.12930341  0.16167124  0.18791054 -0.30856216
 -0.07347369  0.25780225  0.09047697 -0.12387264 -0.21474296 -0.07458343
 -0.00838082 -0.05775563 -0.12219915 -0.07217689  0.07687052  0.05647882
  0.25822455 -0.20585717]
[ 0.21029766 -0.20228402 -0.24155988  0.09343299 -0.07462311  0.09456514
  0.03007006 -0.30051178  0.16862896  0.21129522  0.23267342 -0.09450226
 -0.20136933 -0.08698862  0.1990899   0.09874831  0.16752762  0.31272307
 -0.26072118 -0.07918669]
[-0.05144288 -0.11979304  0.10838588  0.00612939 -0.03660463 -0.02939349
  0.03275552  0.00463938  0.1939211   0.03893734  0.19619921  0.05148344
  0.28123334  0.13921346  0.27122256  0.02549112 -0.36299232  0.11663337
  0.11898489  0.13335659]
[ 2.58727968e-01  1.65479246e-03  7.61515321e-03 -5.37841395e-02
  6.33212328e-02 -2.92460978e-01  1.07475206e-01 -8.46242532e-02
 -2.29452252e-01 -1.49918403e-02  1.77578956e-01  1.42849714e-01
  9.20550823e-02 -1.03662183e-04 -1.95122644e-01 -1.13504659e-02
 -2.19391614e-01  1.02458835e-01  1.87427938e-01 -2.33055189e-01]
[-0.01243099  0.0966669  -0.0364737   0.02760278  0.05111383  0.00303807
 -0.08197749  0.02534916  0.07723127  0.07789188 -0.00046693 -0.07267602
  0.03241714  0.05953374  0.04704317  0.14898519  0.02904782  0.11758907
 -0.05697338  0.07455385]
layer 5 Activation
tanh
layer 6 Dense
20 1
[-0.00529611]
[-0.11209369]
[-0.0093408]
[-0.00806963]
[0.01478439]
[-0.04862568]
[-0.05583702]
[0.01717892]
[0.04068848]
[0.01244711]
[-0.00120208]
[0.05078121]
[0.0142149]
[0.10891327]
[-0.08567098]
[0.05166852]
[0.01328488]
[-0.00724639]
[-0.07271487]
[-0.00414052]
[0.11994486]
