layers 7
layer 0 Dense
20 20
[ 0.32463512 -0.2749163   0.60476106  0.19418944 -0.9874608   0.12832505
  0.54291534 -0.00118556 -0.07820685 -0.28256404  0.6323364   0.88906825
 -0.03226389 -0.01881961 -0.6841275  -1.0795163  -0.26718348 -0.21596733
  0.166114   -0.02454036]
[ 0.56953067 -0.3839543  -0.11168529 -0.00600475  0.21599509  0.25106427
  1.1809269   0.47277158 -0.49360853  0.8847799  -0.09793847  0.5606692
 -0.24311365  0.12055326 -0.50966203  0.27669212  0.05587163 -0.50033903
  0.61616987  0.5627211 ]
[ 0.614495    0.21739227  0.0476822   0.1553422   0.18321434  0.18471992
  0.54450446  0.49929115 -0.29769817  0.64243495  0.2542016   0.70169055
  0.22343425  0.22866409 -0.2547379   0.13531956 -0.41476396 -0.30303437
  0.53650767  0.16274388]
[ 0.54629445 -0.46862864 -0.09994186  0.10586189 -0.8534835   0.44356394
  0.0632735  -0.05934035 -0.4645478  -0.08745541  0.35268873  0.62698174
  0.03794353 -0.17459531 -0.65300345 -1.032515   -0.6825977  -0.15404539
  0.56911516 -0.1041698 ]
[-0.04636165  0.64641917  0.43818474  0.04760905 -0.26312652 -0.7413545
 -0.66560227  1.2372862   0.85317034 -0.9579644  -0.48363468  0.25546077
  1.1365674   0.04695282  0.25506058  0.33097255  0.1247234  -0.03547213
  0.03125655  0.37623984]
[-0.38674158  0.00598485 -0.6363206   0.19417252  0.00534598 -0.3853098
 -1.2207094  -0.22551821 -0.17957184 -0.72153014 -0.08840758  0.40033725
  0.43796933 -0.09292059 -0.10380889 -0.27686197  0.21310313  0.45064655
 -0.5132853  -0.08909218]
[-0.39398167 -0.0794915  -0.4338169   0.11381654  0.13773356 -0.29004544
 -1.1658691   0.05498197 -0.43793935 -0.7234977  -0.07503209 -0.05738635
  0.3655936  -0.36290735  0.23991717 -0.47549632  0.05488148  0.5016239
 -0.637762    0.05098992]
[-0.15272197 -0.32308915 -0.34591466 -0.22369596  0.20431967 -0.18869957
 -0.05224242 -0.62387913  0.4008372   0.383231   -0.64649034 -0.7555299
 -1.2159271   0.45714527  0.26123917  0.42108014  0.7128113  -0.2920133
  0.78038627 -0.20703723]
[ 0.59426844 -0.44201952  0.86533153  0.38497746 -0.44775754 -0.49205416
  0.49694324 -0.07887595 -0.23527439 -1.3553386   0.45678046  0.44883314
 -0.6375878   0.93909913 -0.2978107   0.41970485  0.24872032  0.03635229
 -0.24964944 -0.8776421 ]
[ 0.18301801 -0.53327984 -0.08863561 -0.28204745 -0.3600349  -0.36969423
  0.18738526 -0.27805835  0.19398269  0.08379609 -0.3399245  -0.12739214
  0.9698053  -0.16307713 -0.17976655  0.11085205  0.09944739 -0.06245262
 -0.63724697 -0.648056  ]
[ 0.39457738 -0.78128636 -0.6738951  -0.6408763  -0.00253981  0.3177735
  1.9881991  -0.4323759  -0.19281092 -0.6970556   0.80232936  0.23117198
  0.38161287 -0.8669228   0.0940384  -0.19308804 -0.04453898 -1.4242413
 -0.26315716 -0.9821616 ]
[ 0.44260398 -0.3699794   1.3696606  -0.8472235   0.0801212   0.28060153
  0.40996882 -0.6122844  -0.13402387 -1.1683784  -0.54973483 -0.10164701
 -1.0354855   1.2992941   0.18883395 -1.0019392   0.19028828 -0.470805
  0.23408224 -1.7669379 ]
[-8.0058625e-04  2.9367647e-01  3.5452360e-01 -7.5017059e-01
 -5.6190634e-01 -1.4338937e+00 -9.4489634e-01  9.8831582e-01
  7.9203504e-01 -8.1072682e-01  8.7214130e-01  8.6040896e-01
 -4.3268860e-03 -1.7456931e-01  2.8043342e-01  1.3350175e-01
  2.0806061e-01  8.5588717e-01 -5.2086789e-02  1.2293292e+00]
[ 0.15677303  0.75894547  0.4572757   0.6659805   0.34782395 -1.2128345
  0.07755412  0.06427138 -1.7215875  -0.42135444 -1.1641045   0.4640429
  0.58714247 -1.3195047   0.16469304 -0.16198783  0.0172507   0.80750746
  0.6092695  -0.19701616]
[ 0.02244946  0.76406395  0.6875467   0.708272    0.21791856 -0.00928865
 -0.61909455  0.4671381   0.32839912 -0.44418934 -0.9036735   0.24640171
 -0.34374756 -0.19778234 -0.00180708 -0.01260801 -0.0866705   1.4608376
 -0.20731758  1.201902  ]
[ 0.16352226 -1.23618    -0.27023762 -0.92686605 -0.9728849  -0.11239773
  0.0663714   0.859773   -0.32991186 -0.34006232  1.4577401   1.5179855
 -0.60870004 -0.11098758 -0.2243661  -0.29538998  0.34701064  0.8721981
  0.4683019   0.6057046 ]
[-0.5646888   1.0100605   0.46952674 -0.6091876  -1.5610919  -0.268905
  0.3644242  -0.5150919   1.0639157  -0.788992   -0.9942033   0.12146456
 -0.29929882  0.6682953  -0.2360343  -0.16432913 -0.15707698 -0.17869912
  1.6423849  -0.22845055]
[-0.76022375  0.17226231 -0.17361099 -0.47884429  0.446676    0.7794504
  0.11861185  0.6741465   0.12319899 -0.14324105  0.8981054  -0.30232733
 -0.96614623  0.6593982   0.02795641  0.19191112  0.03952057 -0.11884436
  0.47944     0.89228815]
[-0.05479879  0.30198455 -0.13016845 -0.45336428 -0.2554076  -0.4117726
 -0.25627357 -0.5116831  -0.5038503   1.4905834   0.2393047  -0.24303119
  0.23643012  1.2105742  -0.01445303  0.15670218 -0.38834396 -0.05702023
  0.6439994   0.55332774]
[ 0.60791326  0.22236599  0.14228424  0.4115367  -0.72082967 -0.04056976
  0.42795855 -1.0766122  -0.5892485   0.93516606 -0.6948226  -0.3414058
 -1.328158    0.63095176  0.13620153  0.47570175 -0.22493222 -0.1805383
  1.4185523   0.5270956 ]
[ 0.17260297 -0.29304194 -0.15053116  0.21670212  0.18172202  0.6086008
  0.39601928  0.1671177  -0.553077    0.3314764   0.9011462   0.41451213
  0.48053238 -0.4138456  -0.38460696 -0.550993   -0.39331743  0.2632622
 -0.5136718   0.04602046]
layer 1 Activation
tanh
layer 2 Dense
20 40
[ 0.02528292 -0.02801062  0.07561997  0.26887196 -0.10028483  0.3221191
  0.432115    0.00540865 -0.07936332  0.01451249  0.36267143  0.1966292
 -0.21700929  0.09735148 -0.86120385  0.2205741   0.44887573  0.58601797
 -0.3323668   0.05162973  0.07638118 -0.25383773 -0.03402073  0.6086777
 -0.20010795  0.05789347 -0.5942523  -0.15297955 -0.38966018 -0.4899598
 -0.41007912  0.28173682 -0.09221513 -0.05548409  0.00307411  0.36358923
 -0.10439097 -0.46165785  0.04574339 -0.09264068]
[-0.1267753   0.22452314  0.17305136  0.23685373  0.05173139 -0.34453663
 -0.43772477  0.41155332  0.35211244  0.68824345 -0.35307887 -0.7583083
  0.08318111  0.07480182  0.30722958 -0.12226833  0.12800598  0.51155007
 -0.07184433 -0.03693182  0.1267572   0.13342123  0.19054227 -0.29684544
  0.12780868  0.06095068  0.5847451  -0.00679712  0.63320845  0.14624155
  0.41899633  0.12305753 -0.18295647  0.08847966  0.35589027 -0.01670749
 -0.48199877  0.21659808  0.04446495  0.08807953]
[ 0.07729384 -0.51294357 -0.0765494  -0.2705971  -0.05976078 -0.29000857
  0.3728015   0.41492522  0.10148079  0.21364829 -0.24135958  0.00124061
  0.53664786  0.15763791 -0.4173857   0.15437517 -0.03666325 -0.63299716
 -0.5101857  -0.02187917 -0.29929096  0.09721781 -0.08344221  0.8546725
 -0.49910817 -0.2546621  -0.23871063 -0.26784003 -0.26690432 -0.55066884
  0.07650537  0.05222262  0.39110872 -0.50736016  0.2507249   0.07034203
  0.39571294  0.46276549  0.5734978  -0.01949608]
[ 0.2002626  -0.08086008  0.42712644 -0.21034013 -0.04016916  0.13630137
  0.15868178  0.12445462 -0.047103    0.02917108  0.20843235 -0.11959482
  0.3211813   0.2655531   0.6349685  -0.15138541  0.4927804   1.0277469
 -0.05602638 -0.08574159 -0.27210116 -0.18918344  0.27974695  0.06723261
 -0.29057604  0.11416666 -0.0512848   0.27832028 -0.10994808 -0.33201504
 -0.24736336  0.1124636   0.38756955 -0.39578146 -0.18272942  0.6175336
  0.20523733 -0.29520527  0.33138588 -0.24551447]
[-0.62493974  0.40296373 -0.15858434  0.24590483  0.06563393  0.36767647
 -0.57218784  0.17153172  0.09101637  0.34039104 -0.17585085 -0.3632653
  0.23461321  0.10087223  1.1274043   0.1200839   0.11227215 -0.58797944
  0.3217502   0.06953862  0.45428354  0.3706403   0.0129852  -1.06574
  0.20406057  0.41721547  0.5621523   0.06184945  0.74107796  0.5791765
  0.44615385 -0.4654094   0.1820413   0.17918605 -0.03901815 -0.09016134
 -0.6010059  -0.2520005  -0.23971146  0.09041457]
[ 0.14047372 -0.04854129 -0.59796077 -0.21344793 -0.77078027  0.4302637
  0.37326184 -0.29892638  0.3054146  -0.74112546 -0.09643643 -0.04236992
 -0.34640178 -0.08149046  0.26740146 -0.19850318  0.01150345  0.22351174
 -0.10813372 -0.30829054  0.12604317 -0.19852823 -0.00742515 -0.30926237
 -0.17800695 -0.58345914  0.19635043  0.09877252 -0.39615902  0.01166403
 -0.2580945   0.48479605  0.01796351 -0.44389722 -0.35487917 -0.11035067
  0.16022246 -0.09271509  0.15236592  0.17845897]
[-3.1858337e-01 -5.5375242e-01 -8.2176104e-02 -8.6016631e-01
  1.6926821e-01  7.5035788e-02  6.7532462e-01 -1.7138912e-01
 -7.9780275e-01 -2.9774550e-01  3.0372518e-01  9.9909723e-01
 -3.8281542e-01 -3.6667645e-01 -4.4244072e-01  7.5809520e-01
 -2.6656660e-01 -1.1101129e+00 -6.2158030e-01  3.9611256e-01
 -2.7189088e-01 -1.7063674e-01  1.6358332e-01  5.1490372e-01
 -3.0999169e-01 -2.1129372e-02 -1.0851101e+00 -3.0115956e-01
 -4.3608671e-01 -2.1362694e-01  7.3034905e-02  2.6822564e-01
  5.2438551e-01  7.3474601e-02  3.1537812e-03 -1.6868092e-02
  4.7884923e-01  2.4682587e-01 -8.9377165e-04  1.9372597e-01]
[ 0.01908835 -0.14767171  0.03575068  0.15720369  0.36108467 -1.0168649
  0.27123922  0.5216872   0.32637343  0.41331914 -0.83162504 -0.3182102
  0.5799183   0.4059454   0.42518088 -0.15488222 -0.10564358  0.4747674
 -0.05377397  0.12747195  0.5601078   0.941835    0.6490589  -0.43102813
 -0.3052808   0.31735358  1.0662801   0.3218903  -0.5255746   0.4341334
 -0.22598493 -0.18646973  1.4278585   0.09833802 -0.6702751   0.20507115
  0.46237373  0.4818315  -0.20711239 -0.9076343 ]
[ 0.24226695  0.19534977 -0.111613    0.92406285 -0.24027291  0.02796772
 -0.4840557  -0.16551323  0.07226324  0.133281    0.00754307 -0.96327835
  0.04815029 -0.08304708  0.36981308  0.239003    0.06657271  0.3404923
  0.51491904 -0.2164356   0.1507034   0.2340513  -0.13991512 -0.54694366
  0.05344757 -0.07365478  0.19356394  0.06981357  0.47271058  0.25116372
  0.25466764 -0.08143516 -0.00652179 -0.1058859   0.34710914 -0.64656186
  0.03413037  0.0613503  -0.41035995 -0.01782233]
[-0.20876625 -0.43554923 -0.51449686 -1.0103443  -0.8927303  -0.5713573
  0.9009033   1.0164877   0.14305058  0.27110922  0.205638    0.94807047
  0.1299854   0.68234336 -0.11288803 -0.49494666 -0.02209598 -1.0794979
 -0.69030493  0.04069589 -0.16548674  0.37922886  0.32485545  0.4440912
  0.03469589  0.0854594   0.04039512 -0.37685204 -0.49667877 -0.24361603
 -0.10945273  0.35373396 -0.79470265 -0.03763659  0.348923    0.46940127
 -0.28575054  0.04424286  0.24045646 -0.5534839 ]
[ 0.04966568 -0.5136417   0.04144339 -0.9838788  -0.22429016 -0.4192234
  1.0667992  -0.05600766 -0.41060042 -0.23876204 -0.13571702  1.2383329
 -0.45356348 -0.12556641 -0.23372638  0.12003169 -0.3004596   0.12523168
 -0.859195    0.00370256  0.06570669 -0.13975537  0.8734257   0.43000025
 -0.37293783 -0.37651232 -0.34864715  0.838344   -1.2055022  -0.46457458
 -0.7091866   0.11182697  0.457784   -0.6127788  -0.35099876  0.10773241
  1.4422926   0.17767246  0.27866456 -0.507252  ]
[ 0.3110971  -0.39661235  0.00805851 -0.3767832   0.03705154 -0.13274527
  0.7965212  -0.03513016  0.2205918  -0.12510622 -0.535682    0.48150548
 -0.05997734  0.03345235 -0.8327654   0.07957393  0.19679575  0.73875475
 -0.5465335  -0.11771586 -0.17835134 -0.2858986   0.34059632  0.8671583
 -0.23740484 -0.5243417   0.10451435  0.45462736 -0.6393132  -0.19240643
 -0.58917624  0.2209004   0.63537735 -0.66244954 -0.46251768  0.12175704
  0.33057594  0.01355883  0.67523897 -0.11766081]
[ 3.6822402e-01 -2.3722151e-01  1.9933864e-01 -1.5176158e-01
 -1.5342580e-01 -1.0464756e-01  4.1944858e-01  9.6249175e-01
 -2.5855330e-01 -5.6712294e-01 -5.9517357e-04  6.0237461e-01
  7.6445974e-02  6.1526340e-02 -5.4536575e-01 -5.3913397e-01
  7.9764359e-02  4.3171772e-01 -5.0726438e-01 -5.4833937e-01
 -1.5768518e-01 -5.4138970e-01  3.4457332e-01  6.2544084e-01
 -4.9218222e-01 -5.1547891e-01 -4.2714497e-01  4.1196734e-01
 -9.3442106e-01  2.7465728e-01 -7.4103272e-01  7.5173646e-02
  9.2874765e-01 -4.2799878e-01 -4.2743832e-01  6.7782211e-01
  6.5414399e-01  3.8394877e-01 -4.9898166e-02 -9.4990289e-01]
[ 0.13037744  0.3411414   0.4769955   0.05800591  0.40251106  0.22507262
 -0.895252   -1.0179874   0.27310133  0.26536956  0.59083706 -0.81423545
 -0.07616938 -0.4777709   0.02643434 -0.0361056   0.12298117 -0.2755418
  0.9491997   0.2246521  -0.04065634  0.06819515 -0.9022651  -0.40427315
 -0.04368366  0.03529379  0.01219704 -0.49053678  0.74352664  0.10161747
  0.20628028  0.25544757 -0.7309083   0.05911035  0.389044   -0.87949294
 -0.96211845 -0.04610411 -0.18929523  1.0958471 ]
[-0.41864023  0.28217623 -0.01165274  0.563301   -0.00451744  0.07341784
 -0.6365954  -0.49544945 -0.177185   -0.12566268  0.333527   -0.10051758
 -0.08763625 -0.08216597  0.03037811 -0.04686977  0.12946884 -0.7732802
  0.44436386 -0.23184577  0.16456227  0.11973818 -0.11650098 -0.25198478
  0.1835239   0.5747586   0.1582779  -0.3871436   0.34557387  0.18460953
 -0.03628631 -0.48081443 -0.12293576  0.4633922   0.20485786  0.3760589
 -0.1211265  -0.32208562 -0.22562444 -0.2199798 ]
[-0.48081517  0.52720803  0.21720274  0.6816617   0.21865293 -0.3669661
 -0.54360175 -0.15175909  0.00223523 -0.35866234  0.3336777  -0.08336705
 -0.22222641 -0.31427938 -0.3348326   0.01677483 -0.2206189  -0.6598704
  0.42166528  0.17745584 -0.174165   -0.16833517 -0.15481672 -0.27871725
  0.5032895   0.45245907 -0.18300597 -0.37963465  0.46582237  0.24804491
  0.09058638 -0.45828444  0.23433356  0.60835165  0.2697308   0.01849392
 -0.03934426 -0.4029919  -0.5655155   0.00334717]
[-0.17005943  0.21687785 -0.04460812  0.70815104  0.26484796  0.18873073
 -0.50099665 -0.15605551  0.12332875 -0.17850158  0.15570037 -0.34014475
  0.17141972 -0.18411882 -0.34075218  0.07827716  0.21147484 -0.430895
  0.08940408  0.21914795  0.32666737  0.18355724  0.11048581  0.04616518
  0.82591647  0.34215868 -0.25599056  0.10403836  0.3510463  -0.01224274
 -0.00617921 -0.14481376  0.29696113  0.4587884   0.16864052  0.2574483
 -0.2693458  -0.40247685 -0.28398296  0.10911824]
[ 0.4245601  -0.06823459  0.2975028  -0.39008802  0.46398214 -0.90487015
  0.26909015  0.553799    0.28956202  0.18834527  0.24007335 -0.2918248
  0.3405565   0.73969316  0.2345931   0.04604581  0.39563042  0.33833036
 -0.34763992  0.44821888 -0.2952106   0.7361707   0.4920916  -0.48008096
 -0.04135464 -0.22137414  0.13076648 -0.12587297 -0.34233797 -0.566668
 -0.15739065  0.3620364   0.48323974 -0.17914663 -0.34292334  0.40318602
  0.13754402  0.5514551   0.05695759 -0.95254415]
[ 0.19579302 -0.07698061  0.83401275 -0.0647607   0.57488817 -0.51738185
 -0.80836624 -1.174062    0.54885685  0.2295852   0.15623367 -0.82558775
  0.25986263 -0.55129755 -0.6671734   0.40165648  0.42140523 -0.58281916
 -0.39143834 -0.01611343 -0.05752026 -0.35625306 -1.1631489   0.08982307
  0.2982769  -0.2120711   0.34582883 -0.5863794   0.39742845 -0.6373386
  0.4316654   0.04954925 -0.64625186  0.04440007  0.42887565 -0.7154726
 -1.082298    0.22349532 -0.23677094  0.98421055]
[ 0.46003544 -0.6173525   0.361958   -0.4901242   0.02020658 -1.5277607
  0.83768535  1.0496471   0.45359913  0.77744645  0.22797236 -0.3876973
  1.2732217   1.0780482   0.43463537 -0.05060083  0.5079731  -0.81325036
 -0.91683346 -0.17385794 -0.3041941   1.0859219   0.0256674  -0.49526396
 -0.30331108  0.00290699  1.2534796  -0.20811445 -0.4629847   0.15175647
 -0.41131547  0.42653602 -0.05686001 -0.06296533  0.08613814 -0.12132456
  0.13125159  0.5968945  -0.20441367 -0.35942826]
[ 0.3132102  -0.23563065  0.00075664 -0.36538512 -0.21349297 -0.00921507
  0.43138355  0.1241865   0.0692587   0.06835323 -0.19604723  0.15836585
  0.02824186  0.1453929   0.26453614  0.01316082  0.01741051  0.56485045
 -0.28523025 -0.1068601  -0.11359624 -0.02998025 -0.0260565   0.07508723
 -0.45471066 -0.36831105  0.16022143  0.14587662 -0.54152113 -0.08817661
 -0.00742031  0.32537794  0.04180678 -0.5568544  -0.22821803 -0.16602728
  0.4013591   0.20839544  0.3208846  -0.02445492]
layer 3 Activation
tanh
layer 4 Dense
40 20
[ 0.04603171  0.06055332  0.5732594  -0.27887526  0.45381904 -0.23705122
  0.10150729  0.09498747 -0.05387504  0.11121507 -0.17822522 -0.46917972
 -0.07484163  0.08671786 -0.08759022 -0.13041262 -0.34831277 -0.06438746
 -0.11627188  0.06410276]
[ 0.07268973  0.23656698 -0.49865565  0.241818   -0.22552988  0.21980493
 -0.06275623  0.0619165   0.10381999  0.01355376  0.02845192  0.33153236
 -0.01016092 -0.15647948  0.1433005   0.43466625  0.16067606  0.36269596
  0.07862601 -0.16327612]
[ 0.34042162 -0.21350706 -0.42107368  0.3880832   0.02766742  0.01790491
 -0.21673743  0.2625998   0.28314584 -0.09913    -0.09339597  0.05345927
 -0.4175087   0.259531    0.00553871  0.19495882 -0.36501047  0.05258269
 -0.03720236 -0.24050285]
[ 0.41583052  0.6343715  -0.2252428   0.1464828  -0.41985333  0.95125353
  0.29502228  0.3109308  -0.05540916 -0.0725738   0.18435574  0.4672075
  0.0604427   0.08290424  0.4074716   0.59760195  0.43925178  0.10290782
 -0.10177674 -0.50681114]
[-0.00680883 -0.02287572 -0.33475813  0.2704839  -0.42350447  0.20410319
 -0.39723837  0.35498154  0.18370035 -0.12557764  0.21010166 -0.1845005
 -0.15741177 -0.16632284  0.06227895  0.20248581 -0.0382118   0.282079
 -0.05314847 -0.08216448]
[-1.0318594   0.44275302 -0.19189242  0.291826    0.1422944   0.17817785
  0.08666392 -0.6531493  -0.0685606   0.22558145 -0.07469991  0.37996355
  0.8664881  -0.07691065  0.6856319   0.5547603  -0.31307712  0.9650299
  0.10134642 -0.68940026]
[-0.00520187 -0.94585025  0.19614989 -0.00656084  0.2257399  -0.6592458
 -0.07695834 -0.03349293  0.298345   -0.00341642  0.02110855 -0.707388
 -0.02011634  0.03275783 -0.08281319 -1.0534943  -0.37007737 -0.16840917
 -0.27378777  0.9109836 ]
[ 0.00790634 -0.51059675  0.05569912 -0.01669476 -0.3388582  -0.44122893
  0.48971093  0.01864047  0.203538   -0.4128791   0.01060242 -0.28146604
 -0.26938334 -0.19587196  0.1137482  -0.5752724   0.1480362  -0.29783806
  0.10597857  0.36746007]
[ 0.4926384  -0.02342849 -0.04219541  0.05335852  0.14262539 -0.2047244
 -0.11454698  0.04434246  0.17917123 -0.32440233  0.0567674  -0.16097648
 -0.6530111  -0.11783704 -0.04498015 -0.02640294 -0.09775155 -0.4550984
  0.13059501  0.1365353 ]
[ 1.6587911  -0.1679495   0.295638   -0.089203   -0.05850602  0.9684217
  0.0556209   0.5794592   0.16928425  0.23163038 -0.04839721  0.02000973
 -0.7473431  -0.31814274  0.6457961   0.16992669  0.12066574 -0.28440353
  0.22746901 -0.2095747 ]
[-0.16668417 -0.25582767 -0.23924422  0.25837964 -0.08504571  0.24755885
 -0.3642526  -0.12037985  0.10600848  0.13299263  0.18436411 -0.10139338
  0.02908391 -0.06032903 -0.0642252   0.12378572 -0.30291688 -0.08573913
  0.14337488 -0.22705592]
[-0.6630472  -0.7796499   0.26928943 -0.03877719  0.02046651 -0.53810775
  0.04742844 -0.17643145 -0.15844634  0.57981664 -0.1071495  -0.5183443
  0.02367259  0.01322997  0.12748846 -0.8487795   0.02348431  0.67980367
  0.3019262   0.91525537]
[ 0.8862443  -0.19426087  0.04243642  0.16574724  0.17022769 -0.09180319
  0.02770681  0.47901058  0.15983191 -0.2000797   0.1037534  -0.2910228
 -0.35705876  0.0014325  -0.32662836 -0.06822502 -0.04117742 -0.5838369
 -0.10326619  0.08418308]
[ 0.21386653 -0.3457863   0.18898481  0.10544705 -0.0737003  -0.6518483
  0.16408782  0.22658788  0.06512497  0.0330084   0.00102379 -0.34293172
 -0.3302933  -0.03569269 -0.04165797 -0.4647938   0.20227884 -0.7176336
  0.36065573  0.23904684]
[ 0.37673107  0.25089884  0.19776182  0.19380642 -0.13706888  0.12649763
  0.3467504  -0.01964558  0.1587677  -0.54116654  0.0666284   0.3270399
 -0.3786331   0.16503298 -0.09050663 -0.06657275  0.33444768 -0.43588293
  0.18888368 -0.2743979 ]
[ 0.23154962  0.04878832 -0.44084096  0.5345713  -0.13983935  0.17965733
 -0.27628767  0.2980945  -0.36968184  0.13228294 -0.01897741  0.0472235
  0.19250382 -0.25854233  0.13063289 -0.11711267 -0.11954712 -0.11548378
 -0.07984554 -0.01216428]
[ 0.3839025  -0.15950151 -0.04360761  0.13140263  0.31764057 -0.11748307
 -0.13744488  0.4740754  -0.01834603 -0.22479604  0.06596412 -0.19002382
 -0.15487412 -0.16144527 -0.01728702  0.05140682  0.10488189 -0.26116848
  0.15568516  0.22324455]
[-0.07643085 -0.09969956  0.3485784  -0.6648199   0.5857521  -0.21774039
  0.25546446  0.1953898   0.4396794   0.15922534  0.07121522 -0.29732484
  0.12582101 -0.11751961 -0.63169616 -0.1101836  -0.42292258  0.45362315
 -0.20371552  0.02799325]
[ 0.21952316  0.3843087  -0.30468902  0.03954754 -0.22633     0.6227634
  0.2458483  -0.26006296 -0.22764634  0.22925425  0.29530716  0.74434656
 -0.07701699  0.17540425  0.5475875   0.649468    0.19797128  0.12916097
  0.16484322 -0.7372708 ]
[ 0.26847145  0.19197421 -0.28839302  0.5610413  -0.16387431  0.19768055
 -0.13192986  0.14585644 -0.02286576  0.08382756  0.17789452  0.12989981
 -0.21266986 -0.06891428  0.30709225 -0.00168809 -0.09297861 -0.01945596
  0.11720537  0.19943209]
[-0.3024715  -0.12563221 -0.25700665 -0.05128405 -0.21747197  0.47867194
  0.08004661 -0.15738486 -0.31652036 -0.04858429 -0.20500079  0.18906249
 -0.15280196 -0.14747898  0.15105456  0.03897442  0.28069693  0.11755227
  0.10544903 -0.00784515]
[ 0.518479    0.24539499 -0.34509656  0.20386183 -0.28002083 -0.13556561
  0.09952269  0.34614047  0.11868143  0.022125    0.04119191 -0.19715706
 -0.57515776 -0.05636574 -0.06371947 -0.2425882  -0.03426582 -0.49576154
 -0.14509176  0.04240132]
[ 0.08613811 -0.04387951 -0.26247868  0.00517447 -0.04801056 -0.40967783
  0.32316124  0.27491087  0.15319486  0.24225435  0.2787321  -0.42874566
  0.01838169 -0.13586992  0.07866992 -0.41318652 -0.02650535  0.17092283
 -0.18448292  0.17917097]
[ 0.15542088 -0.11536564  0.23077047  0.49501094  0.3861296  -0.13814214
 -0.1433721  -0.3158017  -0.14907946  0.24940613  0.20094255 -0.3405999
  0.36338    -0.00432875  0.2640373  -0.46361655 -0.06715413  0.4509121
  0.04467871  0.73024887]
[-0.35394558  0.44987106 -0.55156815  0.19936045 -0.37721908  0.22423953
 -0.39388353  0.3629385   0.01495054  0.14044166 -0.06904486  0.27943406
 -0.3006242   0.19453306 -0.16527288  0.34014988  0.18268664  0.30430016
  0.1272755  -0.24977387]
[-6.69984147e-02  1.05142973e-01 -5.41752398e-01  1.75605327e-01
 -7.17600226e-01 -7.66696259e-02  3.75286490e-02  4.21414852e-01
 -6.86059182e-04 -1.06444545e-01  1.17200404e-01 -7.23233446e-03
 -3.73529434e-01 -2.71747202e-01  3.80387204e-03  2.82022715e-01
  2.62532294e-01  5.72473817e-02 -2.70578861e-01 -2.92425454e-01]
[ 1.2082937   0.17790015  0.20090145 -0.89721304 -0.00381696  0.39489314
  0.26957595  0.9119603   0.29327974 -0.13023959  0.05390297 -0.09455504
 -0.9484156   0.03464768 -0.3693724   0.34139553 -0.20475253 -0.47302684
 -0.2646341  -0.07833827]
[ 1.2323111e-01 -1.1320110e-01  3.9737841e-01 -4.0647838e-01
 -1.2425247e-01 -4.6493345e-01  5.6522191e-01  1.6223441e-01
  1.0378340e-01  5.9378956e-02 -1.5113860e-01 -1.7086773e-01
  1.8927202e-04 -1.2571300e-02 -3.7629029e-01 -2.2439990e-02
 -2.5253052e-01  5.9362704e-01 -2.5158831e-01 -8.2130425e-02]
[ 9.9292628e-02  7.7991706e-01 -3.6924052e-01  2.8676498e-01
 -5.2947110e-01  3.3779281e-01 -3.2498807e-01 -1.9898927e-01
  3.8875791e-04  9.4742909e-02 -2.2663440e-01  2.7510348e-01
  2.8219229e-01  1.2069637e-01  1.3298640e-01  7.6160151e-01
  2.3296246e-01 -7.8717798e-02  1.5571459e-01 -5.6036615e-01]
[-0.15689749  0.21772484 -0.13059604 -0.3054192  -0.3840634   0.4574669
 -0.05307012  0.38887492  0.07512143 -0.21809453 -0.20170768  0.14994861
 -0.13125083  0.08062387  0.28252518  0.17993262  0.37432492  0.10913178
 -0.30048355  0.17680714]
[ 0.0809948  -0.00630055 -0.20895049  0.32750213  0.0901683   0.69929993
 -0.07836715 -0.2734924  -0.0936306  -0.02395219 -0.07149836  0.5645079
 -0.12764391 -0.20540255  0.35058752  0.45973903  0.03784959 -0.2580707
  0.36878395 -0.33919597]
[ 0.24599288 -0.3003361   0.40968397  0.1811699   0.31012714 -0.42459792
 -0.16286908 -0.17361973 -0.11300361  0.10197759  0.26749995 -0.3038596
  0.11352393  0.16830806 -0.03177486 -0.16713434 -0.29843584 -0.34575763
  0.25287104 -0.01661471]
[-0.00730354 -0.0196558   0.21119107 -0.45354018  0.01685725  0.02739366
  0.418057    0.3754624   0.19691898  0.10070597 -0.19157992 -0.20920622
  0.11294118  0.1467798  -0.07579673 -0.10096534  0.12160856 -0.04046663
 -0.16656093  0.14520237]
[-0.43103567  0.3371924  -0.61113673  0.3961459  -0.8321531   0.34690756
 -0.58783627  0.18796696  0.00314651  0.24168053  0.10548817 -0.11916989
  0.13343778  0.04601977 -0.24297541  0.27608415  0.39969304  0.21644908
 -0.15821998 -0.51789004]
[-2.5828007e-01  1.1104881e-01 -4.3162316e-02  4.8724566e-02
  2.1311862e-04  4.6756861e-01 -3.5279074e-01 -4.7339559e-01
  6.4256592e-03  3.6118116e-02 -1.4219774e-01  8.8336438e-02
  9.9168397e-02 -1.6855276e-01 -2.2088283e-01  1.5600611e-01
  5.7002264e-01 -2.1484789e-01 -7.6106712e-02 -2.1334925e-01]
[-0.39043063 -0.08722911 -0.3187673  -0.448239   -0.06656293 -0.74605876
  0.30664858  0.05640873  0.2602928   0.31439143 -0.10750321 -0.28998622
 -0.08872897 -0.19683298 -0.5550262  -0.4819736  -0.18374127  0.32896253
 -0.11364409  0.219412  ]
[-0.13455243 -0.8111143   0.22779375 -0.08951576 -0.07912826 -0.39675933
  0.3090922   0.4574335   0.21591868  0.27340746 -0.23930247 -0.4559856
 -0.09698399  0.3052246  -0.35236505 -0.61029196 -0.14011508  0.3351374
  0.10410576  0.3349703 ]
[ 0.34600338  0.06462526  0.6317717  -0.30127782  0.07234607 -0.21992004
  0.04631775  0.34151056 -0.00922692  0.07072908 -0.04528201  0.05355764
 -0.01355359  0.10102944 -0.14700101 -0.03886291  0.02699409 -0.18288727
 -0.08650969  0.10023162]
[ 0.49977055 -0.28503248  0.389788   -0.14394934  0.5258474   0.06476176
  0.43860936 -0.3537225  -0.27078664 -0.17128247  0.03958732 -0.18253224
  0.38382146 -0.32507965  0.348509   -0.19643496 -0.2203661  -0.06337399
  0.1830245   0.31372234]
[-0.23078279  0.39096448  0.15404046  0.47930282  0.05599191  0.15660039
 -0.35824558 -0.16107303  0.14265661 -0.31857237  0.17323126  0.477183
  0.32728294 -0.23428257 -0.03090368  0.20891424 -0.04448143 -0.20876367
 -0.07114735 -0.1840201 ]
[ 0.24545139 -0.09282845  0.38012978 -0.02809823  0.36010915 -0.06292613
  0.23489395 -0.0955314  -0.07197328 -0.02491549 -0.04347128 -0.06881713
  0.07971679 -0.01335296  0.03655681 -0.08517087 -0.21822323 -0.08375076
  0.08341888  0.13709256]
layer 5 Activation
tanh
layer 6 Dense
20 1
[0.07540122]
[0.37631002]
[0.63820976]
[0.15478338]
[0.53624874]
[0.14068878]
[0.18321128]
[-0.06778423]
[-0.01153927]
[0.01580083]
[-0.00771413]
[0.13771375]
[0.06046409]
[0.00518553]
[0.03731517]
[0.5820967]
[-0.13735566]
[-0.04163279]
[0.01533954]
[-0.3520334]
[0.29175988]
