layers 7
layer 0 Dense
24 20
[ 0.7140792   1.047372    1.1988646  -0.8955138   0.70373636 -0.998165
  0.38359782  1.5360947  -1.503685    0.6149616  -0.3547179  -0.9481538
 -0.16711178 -0.6466424   0.58001417 -1.6165218   0.5623741  -1.2286102
 -0.4721624   1.079226  ]
[ 0.6096343   0.62257934  0.29638195 -0.7267609   0.5366642  -0.24043676
 -0.15337518  0.59223294  0.00637118  0.5608962  -0.49142835 -0.46067795
  0.17745915  0.2245098   1.084563   -0.28604534 -0.09936117 -0.5961732
  0.29238397  0.2302434 ]
[ 0.25491443  0.33775377  0.2742173  -0.41459605  0.47425896 -0.2023042
  0.14793125  0.38658994 -0.48965576  0.16200255 -0.6684087  -0.34551492
  0.41066083  0.37160975  0.69277704 -0.56904954 -0.20004672 -0.00576232
  0.23991755  0.37610415]
[ 0.62811875  0.54514384  1.0928297  -0.21814103  1.0020756  -0.34106326
  0.76009685  1.0096648  -0.922976    0.8079385  -0.24713975 -0.86571085
 -0.6330575  -0.30110428  0.40533867 -1.153393    0.20252067 -0.9976488
 -0.42179465  0.41117436]
[ 0.03960152  0.9714636   1.4381539   0.3509632   0.59246826 -0.32693523
 -0.12842287  1.2655251  -1.1434757  -0.17988925  0.6974424  -1.0542254
 -0.00879477 -0.66836214 -0.35752177 -0.30371198 -0.30342248 -1.3450179
 -0.91048485  0.38862845]
[ 0.39601922 -0.08236375  0.37437403  0.2370846  -0.44853583 -0.11480618
  0.25121012  0.3466184  -0.42045358 -0.01279263 -0.62553996  0.21140105
 -0.54479307 -0.5113586  -0.14037383 -0.47992617  0.14436398 -0.1989755
  0.15027764 -0.18837474]
[ 0.16586356  0.25007892 -0.0218356   0.535151   -0.47905698 -0.3139599
  0.83701336 -0.04078837 -0.18655713  0.01828487 -0.49430987 -0.04974305
 -0.01991355  0.1022478   0.33011433 -0.12081289  0.11841105  0.37103823
  0.07262465  0.38184252]
[-0.8188725  -1.2497368  -1.0547808   0.7747663  -1.1615669   1.3096896
 -0.86815405 -0.98094255  1.5665504  -0.5711298   0.02102935  1.1533848
  0.86090183  0.7210133  -0.5196873   1.04756    -0.37526235  1.6467419
  0.76058626 -0.85532635]
[-0.30011418  0.277805    0.8919707   0.5918892   0.9098939  -0.31507114
 -0.76663804  0.20992722 -0.47711292 -0.23769672  0.12487929 -0.06617163
  0.12826581 -0.61055255 -0.18614507  0.2275055  -0.6607947  -0.7215213
 -0.75320154 -0.43190682]
[-0.24938741 -0.15917887  0.8631659  -0.05469118 -0.71845925  0.25923312
  0.18603456  0.14957894  0.10332304 -0.12503687 -0.36687514  0.61910766
  0.2661816   0.82626736  0.06749187  0.17486487 -0.19473752  0.00703064
 -0.31230906  0.06661939]
[ 0.11921226  0.3229297   0.03175902  0.29630902  0.9912949   0.26939955
  0.29926753  0.43503618 -0.64971244 -0.16844758  0.34848833 -1.3023957
  0.09981164 -1.4969826  -0.31578135 -0.11437259 -0.5609362  -0.81535494
 -0.505771    0.37258682]
[-0.54217136 -1.3126802  -0.5801674   0.2600203  -1.3863854   1.4842644
 -0.03952106 -1.8446816   1.8364534  -0.6572207  -0.2040819   0.49762005
 -0.02412988  0.30700412 -0.680614    1.5120703  -0.3294585   1.658539
  0.6276184  -0.660507  ]
[-0.17656684  0.31623977  0.37494403  0.2709573   0.23838197  0.10923748
 -0.39909163  0.09684367 -0.13966295 -0.06216707  0.22082457 -0.20032227
  0.80851585 -0.50134826 -0.37866306  0.04402636 -0.07138772 -0.5012821
 -0.6161368  -0.671868  ]
[ 0.31897    -0.1626851  -0.37287483 -0.4417273  -0.13552813  0.40927073
  0.4126582  -0.45279464  0.29081392  0.22206622 -0.41774833 -0.19488001
 -0.65939236  0.24407673  0.43834767 -0.00126222  0.02910961  0.49181423
  0.51812744  0.25371405]
[ 0.02265314  0.10794463  4.9440455   0.10961672  2.6420302  -4.275369
 -0.58976895 -0.07152549 -0.1684674  -0.00678074  0.5273789   4.388964
 -1.5160468   6.7168202  -0.5920637   1.1145608  -0.2547985  -0.13012095
  0.76846755  0.38419682]
[-0.28622505 -1.2638752  -1.9582554   0.09606584 -1.7949243   2.4779537
  0.5269668  -1.8900355   1.5164698  -0.82599413 -1.70338     1.3020823
  1.3715314   0.8132499   0.8780535   1.0723035   0.32466933  1.7798126
  1.3821799  -0.4733122 ]
[-0.43961143 -0.3239324   0.31998628  0.36065358 -0.65871906  0.81913227
 -0.2108283  -0.00481081  0.3335814  -0.23588309  0.71591663  0.07329316
  1.2156744  -0.07637054 -0.5243991   0.59038496 -0.26249135  0.2816226
 -0.25584722 -0.43554115]
[-0.15253703  0.20041366  0.23763978  0.05780138  1.0771272  -0.69189316
  0.06989551  0.54695594 -0.42218333  0.09190688  0.23276435 -0.22676356
  0.43951574 -0.7192278  -0.5307461   0.02257323 -0.5517415  -0.392437
 -0.6490095   0.19179735]
[ 0.08651058 -0.25286534 -0.6387335  -0.01078783 -1.344013    1.2651194
  0.939112   -0.7791894   0.47521213 -0.15419377 -0.8805502  -0.13374788
  0.49880612  0.11061184  0.7495759   0.14778563  0.24920954  0.47083354
  0.78787637  0.12317645]
[-1.1444515e+00 -6.0374486e-01 -7.7489495e-01  1.1340337e+00
 -2.9860756e+00  1.4941159e+00 -4.0538681e-01 -1.5412740e+00
  1.1364287e+00 -6.9129157e-01 -3.4765476e-01  1.3232586e+00
  1.6178677e+00  4.8064208e-01 -1.2637040e-04  1.2984314e+00
 -6.6169195e-02  7.9596454e-01  5.2474785e-01 -1.0293380e+00]
[-0.22592372 -0.27888337  0.22287816  0.3061866   0.142938   -0.30854592
 -0.8354628   0.6060851  -0.12779935 -0.5044561   0.9045036  -0.64415157
  0.18586716 -0.37936205 -0.49174437  0.09141725 -0.59148973 -0.00717479
 -0.585507   -0.04483532]
[-0.12438355  0.3740547   0.45063606  0.18041806  0.40744543 -0.10639907
 -0.2623507   0.62667435 -0.5158964  -0.088243    0.45568642  0.03315166
  0.1445044  -0.59989345 -0.2734618  -0.09739229 -0.47930723 -0.51152986
 -0.8251076   0.24456309]
[-0.4826296   0.36442804  0.79772764  0.28136966  1.657183   -1.3889271
 -0.85344535  0.77600896 -0.67463046 -0.46068257  0.43607393 -0.43175474
 -0.32610983 -0.8712618  -0.30023456  0.0297007  -0.23635055 -0.9824637
 -0.8624504   0.24495654]
[-0.7083934  -0.03043862  0.32452282  0.84606695  0.46274263  0.27933154
 -0.7238562   0.01165109  0.14759171 -0.23780656  0.3305536  -0.328458
  0.4185456  -0.04624741 -0.82935953  0.667385   -0.525208   -0.1828257
 -0.21814829 -0.25518173]
[ 0.4087775   0.448672    0.30032676 -0.4860214   0.35439336 -0.52515405
  0.5382857   0.31664625 -0.39452904  0.5190174  -0.4638227  -0.22785999
 -0.52846277 -0.10129664  0.5695779  -0.6926555   0.46036834 -0.37471366
  0.01977238  0.618449  ]
layer 1 Activation
tanh
layer 2 Dense
20 40
[ 0.7743456   0.37819433  0.35839224  0.08417095 -1.4943464  -0.75185335
  0.37075135  0.93514484  0.44549486 -0.11380696  0.44816884 -0.11774268
  0.03881417 -0.3690198   1.3373709   0.2935989   0.00759715 -0.26011524
  0.4188868  -0.17869644 -0.2940407  -0.02782056 -0.6511987   0.1412478
 -0.37871113  0.08664426  0.04326919 -0.39546847  0.06901782 -0.30612287
  0.19294226 -0.6234622   0.762998   -1.1158874  -0.08624323 -0.25545785
 -0.8446528   0.08148763  0.0781902  -0.28790298]
[ 9.28624094e-01 -1.02581866e-01 -1.07243732e-01 -1.97633535e-01
 -5.72778583e-01 -4.45514172e-01  6.25278533e-01  3.89413595e-01
 -1.65252879e-01 -8.52577150e-01  1.21349826e-01 -1.01753485e+00
  2.67657340e-01 -3.35115552e-01  1.16560614e+00  1.45163938e-01
 -1.83063805e-01 -1.08761005e-01  3.97128344e-04 -4.16233838e-01
 -8.37056458e-01 -3.46401304e-01  6.12272501e-01 -3.98001254e-01
 -1.12873209e+00 -5.82387686e-01  4.70362455e-01 -4.47473556e-01
  2.12569721e-02  1.44700661e-01  7.15159774e-01 -1.97423682e-01
  2.23405045e-02 -9.29762900e-01 -1.53197244e-01 -1.22677636e+00
 -6.78631142e-02  3.12120616e-02  1.07700549e-01 -3.39425921e-01]
[ 0.79849726 -0.05237469 -0.5053182  -0.04447156 -1.0646838  -0.20945849
  1.010704   -0.4092378  -0.12200383 -1.4968566  -0.05711801 -1.5156506
  1.020595    0.21873286  0.21171972 -0.03129032  0.69445574  0.37020794
 -0.12381516 -0.60108256  1.3275988  -1.3929762  -0.86500746  0.9943453
  0.6623457  -0.7656611   0.37291196 -0.01843303 -0.9220056   0.64219624
  1.3515127  -0.05774258 -0.2425869  -0.16850324  1.1325016  -0.13998121
 -0.03767223 -1.1657875  -0.06999771  1.0270184 ]
[-0.10065751 -0.8828806  -0.04499083 -0.60288876  0.53458893  0.33342722
 -0.54770696 -0.7636353  -0.36800703  0.32959023 -0.94759136  0.23515306
  0.07139323  0.86436325 -0.1437161  -0.62290967  0.21071395  0.17913404
 -0.7343487  -0.47341117 -0.5626235   0.61580527  0.0881153  -0.1346079
  0.46566427  0.5143057   0.03578342  0.5473822   0.19038104  0.05908169
 -0.55112183  1.0196761  -0.5780221   0.26044098 -0.5724023  -0.0338979
  0.33432433  0.04795647 -0.9491119   0.5390658 ]
[ 0.7398403   0.48957217  0.12773375  0.2762155  -1.2889323  -0.07778056
  1.2104015   0.14817835  0.22645715 -1.5351154   0.33679843 -1.6051008
  0.80915993 -0.05697154  0.3742041   0.1538578   0.6847061   0.17026012
  0.24178694  0.69279635  1.1706169  -1.454427   -0.855656    0.89756066
  0.9537874  -1.142625   -0.275775    0.07443672 -1.3043798   0.99521846
  1.4749086  -0.45493945 -0.037441   -0.35588476  1.18293    -0.21946761
  0.14041826 -1.5046259   0.17729907  1.0669432 ]
[-0.95364684  0.42518613  0.07826745  0.34113464  0.2714078   0.0466873
 -0.5354497   0.1375061   0.34454107  0.88484305  0.9017145   0.67462337
 -0.7774759  -0.18366358 -0.5805591   0.26917315 -0.605233   -0.4216676
  0.56049633  0.859503   -1.261093    0.9807137   1.0192655  -0.9797129
 -1.2187811   0.7608839  -0.13958432  0.1023275   0.6558637  -0.32385978
 -0.7400699  -0.66983175  0.0468237   0.40313673 -0.5210303   0.28883496
 -0.05522565  0.824317    0.354241   -0.6196215 ]
[ 0.85742307  0.24689244 -0.53447413  0.41138893  0.09670902 -0.25914422
  0.06096356 -0.14329885  0.15141647 -0.14446183 -0.15202123 -0.446858
  0.04014251  0.06913057  0.35405573  0.2390271   0.35283417 -0.92769563
  0.4629926  -1.2488221  -0.35788628 -0.17670532  0.04772997  0.09681315
 -1.036354   -0.41583967 -1.0649713  -0.34594485 -0.26822254 -0.42025435
  0.09673291 -0.22470455  0.37113833 -0.41170958  0.27208745 -0.70236033
 -0.2663611  -0.04454286  0.09254237 -0.2789833 ]
[ 1.2157966   0.12709574  0.01614629  0.5597221  -1.6447611  -0.79120934
  0.99002934  0.05209968  0.18346107 -0.70031965  0.5099122  -0.95714897
  0.6037808  -0.04653866  1.2999324  -0.21352646  1.3485352  -0.19636947
  0.4068419   0.40492415  0.69445705 -1.0479704   0.04909337  0.6637763
  0.09000053 -0.84928954 -0.30127102 -0.23395702 -1.2594447   1.8730814
  0.6413998  -0.31856713 -0.22535835 -0.98675704  0.9666576  -0.9704548
 -0.06713204 -1.0507356   0.08475585  0.9793974 ]
[-1.0448763  -0.21481799 -0.20468849  0.27913094  1.0413376   0.2692437
 -0.5244794  -0.23820297  0.05337961  1.3473964  -0.20559411  1.3047688
 -0.71877724  0.3659315  -1.1261426  -0.05914943 -0.7645855  -0.20824078
  0.11914937  0.16776292  1.1317546   0.97055817 -0.7906075  -0.07475704
  0.7998766   0.2910485  -0.7806707   0.0215738   0.31144473  0.2551482
 -0.48262385  0.10689519 -0.10330421  0.6051077  -0.32490927  1.5361593
  0.15217859  0.3025296  -0.17168732 -0.00846469]
[ 0.41711426  0.9713189   0.3524434   0.71530235 -0.19536251 -0.52239704
  0.7406851   0.89034295  0.2756648   0.15143144  1.3431803  -0.14628339
  0.16293566 -0.8790976   0.15684149  0.35585332  0.33393157 -0.37162784
  1.0695485   0.17256619 -0.12520634 -0.55306506 -0.25661406 -0.10679632
 -0.8496171  -0.21103063 -0.12080056 -0.23842628 -0.4630193   0.1185805
 -0.04176093 -1.1509119   0.76820487 -0.65221286  0.24004178  0.04832991
 -0.55247587 -0.18641353  1.2130864   0.16549644]
[ 0.19650249 -0.22985741  0.15597746  0.02219233 -0.15416649  0.22852555
  0.11303456 -0.01910431 -0.23552641  1.0505512  -0.08264294  0.44147974
 -0.6670374   0.16333477 -0.37090573 -1.0204619  -0.94639415  0.49657136
 -0.56233186  0.9739088  -0.04641317  1.0202966   0.6248581  -1.0835375
  0.1277197   1.0906571   0.9875916   0.3869378   1.2204216  -1.080758
 -1.3613893  -0.034339   -0.30598006  0.2730774  -1.2601691   0.45280856
  0.14104149  1.3082912  -0.2025076  -1.0938104 ]
[-0.23470362 -0.12743098 -0.01381964  0.14425881  0.39254257 -0.3695897
 -0.38933602 -0.31363106 -0.0532353   1.0871203   0.04263232  1.0605478
 -0.7620189  -0.00627744 -0.10120521  0.3076501  -1.3072     -0.09494834
  0.33872238 -0.6552213   0.6072205   0.98571026 -1.3428013  -0.68046075
  0.3703531   0.69815665  0.66525036 -0.29984656  0.6857673  -0.720255
 -1.1053767  -0.08148395  0.39884007 -0.72037756 -0.6857806   0.683935
 -0.1123225   0.87760633 -0.08687022 -0.7344582 ]
[-1.3413446e-01  9.8277920e-01  7.7657354e-01  5.9043920e-01
 -2.7468573e-02 -5.7305729e-01  3.6114135e-01  8.0226940e-01
  5.3286964e-01  6.4400651e-02  4.4377401e-01  4.9295560e-01
 -7.4427322e-02 -9.5149827e-01 -5.2466315e-01  2.7015062e-02
 -4.1069669e-01 -3.1988126e-01  3.1592932e-01  1.5699346e+00
  3.9327005e-01 -1.2593536e-02  7.7656060e-02  7.9189157e-01
 -9.6657044e-05  1.5194078e-01 -9.0575650e-02 -7.2141729e-02
 -2.7367032e-01  7.8956813e-01 -3.7998065e-01 -7.1911615e-01
  4.6283528e-01 -5.5708546e-02  2.4713287e-01  2.5412685e-01
 -3.9817607e-01 -3.7862408e-01  7.4148303e-01  5.1878047e-01]
[-0.27865356  0.16951014 -0.15860763  0.05449    -0.548084   -0.77392316
 -0.65963835  0.3895874   0.25591856  1.1928374   0.2568588   0.4954052
 -0.30519456 -0.4302917   0.15253541  0.07474371 -1.3840461  -0.22389926
  0.4703005  -0.48929936  0.69369197  0.96271    -1.0604049  -0.74422467
  0.45994043  1.0340599   0.93047994  0.04603025  0.70966077 -0.8945808
 -1.0029176  -0.16651906  0.09603361 -0.76120865 -0.88419086  0.41645932
 -0.2921145   0.9183989   0.2568049  -1.0557506 ]
[ 0.02325775  0.39979404 -0.21008036  0.11933443 -0.43408123  0.15805355
  0.21952441 -0.09945923  0.6961185  -0.3810696  -0.1068874  -0.13994521
  0.28300685  0.14028926  0.3372373   0.80418026  0.17884314 -0.36400434
  0.54113525 -0.62161934 -0.181628   -0.8902382  -0.43717375  0.0436125
 -0.06350057 -0.47270298 -0.84284735 -0.47372228 -0.9096468   0.4837534
  0.7041541  -0.35323486  0.21630678  0.01685714  0.79403853 -0.31635806
 -0.21809164 -0.4737427   0.18343633 -0.00110375]
[-0.09491335  0.4710387   0.24910258  0.58947635  0.77063805  0.18165402
  0.22127402 -0.16229092  0.44997275  0.14569747  0.21213792  0.5961538
 -0.336599   -0.01152066 -0.03293447 -0.14687899  0.0048844   0.18039973
  0.6108983   0.68046933  1.6736859   0.3354805  -0.5106661   0.5443604
  0.7124805  -0.12796499 -0.0347196  -0.19728693  0.01992334  0.7779977
 -0.34993467 -0.08550735  0.4749203  -0.50640905  0.06338724  0.9437382
 -0.32624543 -0.17242089  0.44171378  0.5358945 ]
[-0.1729092   0.2908969  -0.54590076  0.48349914 -0.26377836  0.42394498
  0.2337332  -0.45041916  0.29111645 -0.38368192 -0.03269409 -0.15288988
  0.19378206  0.07245717  0.38276303  0.68049914  0.5917653  -0.05139756
 -0.08821277 -1.1954187   0.04090039 -0.30049658 -0.26278666  0.16096328
 -0.06694508 -0.8636728  -0.7750027  -0.5288856  -0.41150302 -0.00664209
  0.16537592 -0.08600149  0.19252399  0.16544929  0.31589514 -0.10248362
  0.11492157 -0.04663053  0.39603442  0.10193814]
[-1.4486914  -0.26740548 -0.33663929 -0.36533934  1.2816983   0.28389898
 -0.8126695  -0.26236498 -0.02197403  0.9638695   0.20321353  1.4618436
 -0.43879476 -0.01311874 -1.1803771   0.21449439 -1.7694774  -0.04076817
 -0.13311023 -0.49764866 -0.57829434  1.0382015  -0.06691661 -1.3403798
  0.32912844  0.9320644   0.19766572  0.32212538  1.2336315  -1.3412575
 -1.0788497   0.04917151 -0.07376919  1.1884711  -1.464762    1.0476489
  0.38989422  1.4740489  -0.05899714 -0.979954  ]
[-0.15592688  0.2030919  -0.4474735   0.16418666  0.55775994  0.2920931
 -0.1310333   0.47448608  0.4649157  -0.3280154  -0.269621   -0.00676846
 -0.0151682   0.08196654  0.14920032  0.5264001   0.21518415 -0.19289283
  0.19028375 -0.45972046  0.5003719  -0.83120316 -0.7508567   0.4545543
  0.2268369  -0.6914797  -0.7259409   0.02794197 -0.7806643   0.42703512
  0.38346854 -0.48940322  0.5683423  -0.22511213  1.0730959   0.42651594
 -0.36812857 -0.6515434   0.5625624   0.39617687]
[ 0.37746072  0.9141478   0.38026622  0.39421386  0.6887789  -0.17398863
  0.36691222  0.60920984  0.5233559  -0.70395815  0.6079292  -0.8054709
 -0.06935456 -0.8115258   0.6279544   0.321739    0.61666185 -0.66222346
  0.48122236  0.07662588 -0.26402047 -0.69954944  0.53477323 -0.1867271
 -0.2206759  -0.65506226 -0.56289506 -0.5740167  -0.13035288  0.23594122
  0.41265047 -0.8540386   0.93289256 -0.94462055  0.502119   -0.5801495
 -0.6544789  -0.14155814  1.0592775   0.39581352]
[ 0.89218944  0.7152039   0.3514022   0.4752343  -0.11261395 -0.636684
  0.2305126   0.8531831   0.5830066  -0.26340222  0.56230754 -0.25068453
  0.01290661 -0.43314815  0.3744953   0.188339    0.08460405 -0.20100766
  0.6175916   0.19311829 -0.12564264 -0.24788512 -0.33153725  0.01510698
 -0.67864454  0.10199236 -0.05810765 -0.15301687 -0.32224706 -0.12382432
 -0.01486198 -0.7034058   0.8490035  -1.237401    0.3045749  -0.17713635
 -0.78588843 -0.08008571  0.8330341  -0.09654111]
layer 3 Activation
tanh
layer 4 Dense
40 20
[-0.9793566   0.27348682 -0.72708154 -0.08648393 -0.1902493   0.51800454
 -0.5554139  -0.15452844 -0.3700915   1.024953   -0.36449695  0.05770212
  0.3285772   0.14960338 -0.9004098   0.48478758  0.42524338 -0.7790489
  0.3076152  -0.07415351]
[-0.22983354  0.6788114   0.17415592  0.29968086 -0.73781943  0.17231911
 -0.7408267   1.3259255  -0.46593425  0.05178603 -0.24124981 -0.37869978
 -0.5935939   0.49134573 -0.16731188  0.42080906  0.20638515 -0.29997462
  0.67137605 -0.73712194]
[-0.33713558  0.37215838  0.29698563  0.22548032 -0.5406388   0.23671243
 -0.45458102  0.62491083 -0.10487904  0.23545183 -0.22485621 -0.42188352
 -0.5859357   0.4260903  -0.47903624  0.06854197  0.5250679  -0.6574955
  0.76438785 -0.9216762 ]
[-0.11989317  0.25909206  0.11381534  0.38706547 -0.25366572  0.40332606
 -0.29369932  1.0480548  -0.71738446 -0.06525299  0.03373444 -0.33389044
 -0.40972945  0.01428488 -0.5169537   0.53656816  0.17972948 -0.14954425
  0.5983482  -0.0665423 ]
[ 0.41746294 -0.38393682 -0.16213799 -0.01127397 -0.5207098  -0.18476191
 -0.15580717 -0.7018805  -0.35062653 -1.5638952  -0.93597656  0.30301324
  0.53610265 -0.02793545  0.49388328  0.32798836  0.711722    0.5788514
 -0.52352226 -0.034103  ]
[ 0.26189962 -0.22791176 -0.3723775   0.15642682  0.61710525 -0.53103924
  0.76134014 -0.9051751   0.4276274   0.21421964 -0.15147913  0.1999617
  0.7289711  -0.14460714  0.12772642  0.07272735 -0.00705842  0.33673596
 -0.47351438  0.4477326 ]
[-0.96365976  0.31322357 -0.8278438  -0.36202314 -0.6924051   0.22395527
 -0.2813698  -0.03097593 -0.50107175  0.17070028  0.12944365 -0.30031228
  0.14831708  0.04314643 -1.026901    0.8443016   0.39009216 -0.7032629
 -0.12059464  0.30632597]
[-0.44225425  0.20854743 -0.00503123  0.32459372 -0.5216192   0.15466964
 -0.5288218   0.6637912  -0.14944875  0.1069049  -0.28183392 -0.17973281
 -0.33673373  0.52322894 -0.1404253   0.1725127   0.36794576 -0.37623915
  0.651613   -0.6922579 ]
[-3.46430779e-01  1.18170924e-01  6.69893101e-02  1.02773599e-01
 -1.02471590e+00  6.93387926e-01 -5.57602048e-01  3.95344555e-01
 -8.32010210e-01  8.67216736e-02 -7.04908511e-04 -2.23333910e-01
 -4.32980359e-01  2.40710691e-01 -5.22320509e-01  3.71334732e-01
  3.72905821e-01 -2.23472565e-01  4.25900370e-01 -2.77999580e-01]
[-0.4622676   0.3042459   0.9691994   1.1845192   0.0925881  -0.01564012
  0.3464579   0.18906206  0.722852   -1.3071047  -0.40687597  0.14567085
  0.20261285  0.21754535  0.7548319  -0.6584327   2.1011965   0.22494055
  0.25487185 -0.05204287]
[-0.5239813   0.0672347   0.13452967  0.42267978 -0.5323248   0.32015908
 -0.41069636  0.82148606 -0.66794086 -0.00623915 -0.00355569 -0.40416437
 -0.60766935  0.761579   -0.52622014  0.22015901  0.4841671  -0.15275136
  0.69932306 -0.7619806 ]
[-0.51668555  0.1512101   0.9314768   1.003482   -0.10053236 -0.04455509
  0.02843937 -0.3992516   0.1971624  -0.23473337 -1.2378143  -0.17970768
  0.67437404 -0.31115025  0.14698328 -1.4517239   1.389109    0.43850982
 -0.08188871  0.20114289]
[ 0.0351169  -0.21379185 -0.47852716 -0.26645842  0.8204077  -0.305246
  0.24711256 -0.5018114   0.24761887  0.4488168   0.77343637  0.36960024
 -0.16027555 -0.2212656  -0.8248724   0.67046475 -0.18004662 -0.24290074
 -0.10614917 -0.11988275]
[ 0.09583946 -0.9551073   0.02139802 -0.32916632  0.48179808 -0.52087027
  0.7554712  -0.99426556  0.74771875 -0.2696831  -0.00836493  0.9352873
  0.45427525 -0.42696047  0.15231189  0.0783964  -0.4833332   0.16384995
 -0.45534378  0.79519653]
[-0.4772176   0.2750086   0.5755826   0.42751336  0.22421132  0.03023195
  0.5941778  -0.18925475  0.22794466  0.47075891 -0.03612377  0.04097207
 -0.13537963  0.04917303 -0.50915056 -1.258861   -0.32617798 -0.03330268
  0.08670303 -0.19427612]
[ 0.2545337  -0.06672157  0.7408152   0.27923682 -0.17907032 -0.10302589
  0.2387374   0.47312844  0.06942817 -0.59309936  0.13381815 -0.14228313
 -0.5190458  -0.15612642 -0.969331   -0.6218231  -0.04882667  0.4692988
  0.00752781  0.05269115]
[-0.77595943 -0.29517344 -0.49379408 -1.119661   -0.2782593  -0.5537381
  0.24731252 -0.31837466 -0.2565325   0.8173185   0.6746038   0.0690084
  0.27551    -0.28292602 -0.8302903   0.56649226 -1.0707058  -0.1516351
 -0.22848094  0.42702213]
[-4.5491774e-02 -4.8683164e-01 -3.9828178e-01  2.1660559e-02
  2.5130594e-01  2.3571122e-01 -2.4079090e-01 -4.9645822e-03
 -2.3639472e-01  5.3834921e-01  1.0403279e-03  1.5753341e-01
  1.2175080e-01 -2.5858748e-01  1.0494055e+00  3.3731404e-01
  1.9160153e-02 -2.5213259e-01 -2.3212709e-01  3.8588220e-01]
[-0.42284015  0.46236482  0.05485358  0.22875077 -0.33561382  0.27016288
 -0.7156858   0.6651044  -0.5437699  -0.11406443  0.14949802 -0.1865774
 -0.59860927  0.32830015 -0.5242303  -0.05611153  0.32172063 -0.30151665
  0.03112825 -0.8343287 ]
[-0.43926165  0.36120293  0.44487697  0.5343527  -0.4905073   0.49997848
 -0.79099244  0.7925062  -0.13563654  0.09111214 -0.56569993 -0.21745819
 -0.2166824   0.5645801  -0.3023424  -0.25519225  0.5173583  -0.6579836
  0.47041172 -0.9959926 ]
[-0.04861136  0.02620873 -0.8158102   0.23727587 -0.21976742  0.01721642
 -0.06145146 -0.5207779  -0.309145   -0.07233771  0.03330824  0.17215864
  0.961039   -0.20461826  0.23428333  0.8943819   0.48875132 -0.07776584
 -0.34052965  0.558228  ]
[-0.23602326 -0.4299446   1.218828    1.721651    0.94640106 -0.11764552
  0.09673623 -0.313426    0.38671613 -0.8059002  -0.7278964   0.14219788
  0.21430507  0.12256978  1.2382811  -0.26960918  1.3388252  -0.25068736
  0.46382445 -0.44825086]
[ 0.7531489  -0.10278548 -0.5202799  -0.23687604 -0.8683517   0.09117565
 -0.1817116  -0.3236072  -0.22909221  0.10157893 -0.17877541 -0.23896427
  0.94730765  0.02674722 -0.16025303  0.5761837  -0.14731613 -0.13429505
  0.08988781  0.21160711]
[ 0.05604217 -0.3343017   0.14877044  0.2639385   0.34266478 -0.05086051
 -0.01214211  0.011114    0.07517405 -0.55344045  0.83710444  0.17249241
 -0.11556516  0.00603781 -0.2309386   1.001288   -0.09276524 -0.55938834
  0.32340935 -0.22356172]
[ 0.6316442   0.02739405  0.44604504 -0.15356418 -0.0942912  -0.2235176
  0.19598208  0.15015581  0.37787575 -0.22454016  0.81249857  0.09280693
 -0.50062186 -0.28794494  0.25479645  0.24591102 -0.12385833  0.49077594
 -0.02607657 -0.11442924]
[ 1.182508    0.1192037   0.7993337   0.47500739 -0.6170865   0.36015928
 -0.44105074  0.22373888  0.3121933  -0.52325296 -0.14436883 -0.004578
  0.00803512 -0.18414365  1.5877981  -0.00682837  0.35626024 -0.43349153
  0.20450597  0.33330527]
[-0.5308562  -0.15834796 -0.06898096  0.4296607   0.00586656  0.14223324
 -0.14154547  0.85314745  0.07186627  0.6542137   0.5543857   0.12702782
 -0.5161618  -0.00687037  1.089197   -0.11299396  0.21632734 -0.18499622
  0.08474967 -0.10718738]
[-0.22131714 -0.02877039 -0.28619632 -0.4224627  -0.03099437  0.00213718
 -0.06563757 -0.6372355   0.4311316   0.53845686  0.59546196 -0.21310206
 -0.39497614 -0.07668228  0.44405863  0.77321887  0.34724882 -0.5534383
  0.3318644   0.27282354]
[-0.22013882 -0.17429663  0.18012606  1.3613143   0.0694187  -0.37281182
  0.3977253  -0.7000298   0.7679735  -0.00564779 -1.5812118  -0.02638458
  0.79687715 -0.09272186  0.35365537 -1.1212857   0.506503    0.8154916
  0.15028198 -0.02824952]
[-0.2228705   0.2507857  -0.15991473  0.11069939 -0.49206805  0.01299505
  0.00944176 -0.24055818 -0.16669396  0.78516114  0.22235017  0.08905564
 -0.06859265 -0.25000402 -0.7878795   0.33352873  0.41259715 -0.09776746
 -0.42719892  0.43793768]
[ 0.26126865  0.0981293  -1.0684016  -1.7023947   0.01062787  0.3455495
 -0.03866175  0.5876724  -0.9595487   0.5664872   0.7140348  -0.11135719
 -0.943756    0.14771283 -0.42651817  0.79438287 -1.6928924  -0.14427997
 -0.20081721  0.15781492]
[ 0.20090616 -0.572257    0.03298231 -0.08003828  0.5876144  -0.12907852
  0.80647486 -1.0529613   0.6821337  -0.28338033  0.05845472  0.2660835
  0.44350892 -0.23203528  0.0582075  -0.45354623 -0.3907377   0.07821096
 -0.6496205   0.61854225]
[-0.2540351   0.42183742  0.29590762  0.24228334 -0.68690485  0.35205787
 -0.5678393   0.6124081  -0.09272389 -0.27799845  0.11280631 -0.1615516
 -0.5029061   0.40600717 -0.53360724  0.2692496   0.23482977 -0.35214874
  0.37676713 -0.68400747]
[ 0.51483005 -0.1786556   0.3741702   0.2965781   0.5579275  -0.31087348
  0.16741636  0.02776156  0.56854224  0.20335428  0.48591945  0.04309127
 -0.13695504 -0.19746277  0.34063727  0.44332826 -0.5724309   0.39252052
 -0.38520113  0.28326544]
[ 0.2178858  -0.00878968 -0.7980073  -0.58285403  0.21306181  0.18617168
  0.01941905  0.34775802 -0.8566209  -0.05681287  0.81285924 -0.21685827
 -0.46616703  0.1537167  -0.69717324  0.9209975  -1.1230936  -0.26301077
  0.01825997 -0.27687803]
[ 0.08302098  0.3259978  -0.05622046 -0.20773423 -0.46470323  0.16160704
 -0.25869924  0.684391   -0.00956001 -0.5854113   0.53315806  0.07122643
 -0.6087536   0.28756255  0.32004544  0.03032426  0.6970322  -0.3913326
  0.46258307 -0.410091  ]
[ 0.40389323 -0.01762419 -0.22108139 -0.23422216  0.306199   -0.4040845
  0.6187805  -0.86186314  0.21130258  0.06258346  0.10632727  0.04403267
  0.4905931  -0.17944911  0.21252517 -0.16437301 -0.10446607  0.5590015
 -0.73347986  0.6598238 ]
[-0.37817642  0.18230897  0.8030646   1.2881428  -0.04445355 -0.20744646
  0.19810201  0.33780226  0.65491873  0.208162   -0.8625944  -0.39620823
  0.23821343  0.09978406  0.571541   -0.6427806   1.1978384   0.50365895
  0.27111375 -0.0188756 ]
[-0.27627727  0.57537997  0.1852604   0.28304383 -0.9820431   0.469583
 -0.81120974  1.0112104  -0.37822145  0.05795269  0.05321696 -0.84566265
 -0.6417108   0.46614403  0.01505236  0.17326322  0.26397288 -0.36853936
  0.37475502 -1.1266737 ]
[ 0.24610548 -0.4265637  -0.19206044 -0.0245758  -0.21087328 -0.18583257
 -0.17059739 -0.50056016  0.13863446 -0.19462425  0.72680265 -0.03010328
 -0.03237207 -0.21996306 -0.758557    1.2654103  -0.08569186 -0.48577467
  0.10083773 -0.08448602]
[-0.16912271  0.10644721  0.2011823   0.3299787  -0.45111188  0.18829234
 -0.61458766  0.59251773 -0.06794671 -0.09977558 -0.10405269 -0.20581496
 -0.20951065  0.28443676 -0.38037953  0.12406085  0.39937446 -0.21169394
  0.5027219  -0.7142077 ]
layer 5 Activation
tanh
layer 6 Dense
20 1
[0.07970255]
[0.09537169]
[0.5610771]
[0.8242601]
[-0.19675]
[0.13494954]
[-0.16806878]
[0.12528846]
[-0.0485813]
[-0.35502174]
[-0.16036996]
[-0.20131937]
[-0.11227839]
[0.5423678]
[-0.12502177]
[-0.2093404]
[1.0834138]
[0.16563636]
[0.63779825]
[-0.7021627]
[0.3458864]
