layers 7
layer 0 Dense
20 20
[ -0.36389591348934835 -0.1257136795604165 -0.4839651640386984 -0.5675757499906854 0.27642087669421 -0.12432070404081222 0.07144171993797263 -0.37390687342100926 -0.3265823023661041 -0.2944470651700844 0.11482467882525632 -0.7509177990293435 -0.4991337036769828 -0.011335952315564618 0.4378210482480756 -0.7116730631738817 0.17994371512606763 -0.704048651899877 -0.41109726273480757 0.7381854892149835 ]
[ 0.027809197373385167 -0.24974074637991894 0.2732657849503507 0.16505936340661229 0.17574748739770368 -0.09736490801962047 -0.26763883456214266 0.23876257837699458 -0.33566779432788013 -0.3065651878361314 0.22986500936550905 0.017651531166538694 -0.20252421909062385 -0.027003368536640752 0.3843661642522785 0.23953010823933638 0.23538909332904534 0.16917613335012777 0.004766058613268878 -0.34687184587624403 ]
[ -0.020209161530711315 -0.24846152081476042 -0.3565045613478163 -0.0473053071170766 -0.3038844636235563 0.133257099702301 0.13162207590834746 -0.0033146253899998044 0.10743665278046599 -0.08103333028331748 -0.21870150048580914 -0.38588100173019796 -0.3459256443380419 -0.2686103351805132 0.06167229697351214 -0.10441708846849594 -0.0956704068645072 0.19130673437070017 0.14136249679190407 0.15840591507920412 ]
[ -0.1826126308240534 0.26427789029827575 -0.04867519062391551 -0.24537805851469977 0.5480156547853856 0.004463237719842854 0.5954446787245361 -0.35502590188813465 0.07147554047213722 -0.2793175353609627 -0.20583066060600316 -0.27108209617059414 0.055773092983515835 -0.08485273855748711 -0.029020810760432815 -0.437907786406925 -0.02442716920218887 -0.18206668947351726 -0.5984693535965406 0.05003263594791154 ]
[ -0.7045322176142 -0.044569383377118126 -0.17027300196115558 0.01662764001900476 0.7789630185228508 0.30361537840574065 0.5124348618310146 -0.41105331656584276 0.20732810113796213 -0.31332984110967976 0.4213090138525287 -0.08318984987621848 -0.8604435671968589 -0.2519068874307709 0.2647524782215534 0.2732482505276432 0.5264413730837518 -0.5813838755816354 0.47889684920238546 0.008139455680995162 ]
[ -0.0006948426501188941 0.29010770612022446 0.17627288479757805 0.33291490950563174 -0.2676709344453768 -0.20826082743713728 -0.11517618757731894 -0.26463705704459123 -0.31524961092557724 0.0996445901631741 0.04323644297829912 -0.18424334827488983 0.015913051376448984 -0.17517147223053314 -0.23921839926916255 0.1724371894245683 -0.18007051630912763 0.13561187136992964 0.32173708508140275 0.10859563658854124 ]
[ -0.07926388558815976 -0.29423114579905146 0.21260795528112436 0.3293894387166966 0.12986053492394578 -0.36048745716635666 0.15321001139789642 -0.21128592806586363 -0.008234982328505882 0.3574761247904763 -0.08395032118532292 0.2124510217426047 -0.07841619112118225 0.19037931742897676 -0.3225851434333482 0.30977040971975817 0.2979871497519761 0.0438144367324871 0.34827192256905193 -0.16435750459695972 ]
[ 0.6387600736533482 0.22224674089900856 0.1124986202997443 -0.09168085017220405 -0.205249889510226 -0.007871877342267986 -0.07699589671276097 0.3868916945548326 -0.19645443026152395 0.45859048521782164 0.46181011704001335 0.663025530346635 0.17023374317475087 0.1400695533778239 -0.17392463382645312 0.42413984720584114 -0.018935722979229644 -0.2960084785137749 0.4285968600264158 0.006503878541646362 ]
[ 0.2975490491976066 -0.2450752798648809 -0.13039258591363007 -0.3033056636213379 0.5558661932725992 -0.09985633980855599 0.3417424274641974 -0.3478847277633244 -0.01980406944534101 -0.6102413006393521 0.5469249047360224 -0.09784817048997248 -0.72308049570371 -0.2999134306024731 0.47309352983155856 -0.27153769795563243 0.5088707490813041 0.13361261409545908 0.5197337700592297 -0.4071451848157677 ]
[ -0.1579543873481562 -0.6056064744653583 -0.143081553767461 -0.4433599911708003 0.32580132699032244 -0.4089411267346346 0.3820533426514862 -0.2511622713644698 -0.06469653412296561 0.19981474665250137 0.006151055670492152 -0.16833182722409307 0.11342137714942511 -0.12274812478424849 -0.11844589977694439 -0.3503083720720111 0.22066624127806259 0.367366267204357 0.17855027506019136 0.3648956437872824 ]
[ -0.044667862113228964 0.324182471719734 0.7054660471282164 0.6757394853289319 0.002882285795572999 -0.7873463430084778 0.4491844926999756 -0.03452453799793063 -0.09443666696359751 0.16735926519960448 -0.23413992637727385 -0.09591182358992488 0.4430016731015244 -0.7329381489749253 0.14330765534548318 -0.26365923662539303 0.20077355545179043 -0.0866688974151088 0.2906829720334987 -0.22156048069376844 ]
[ 0.1311575514480327 0.6426864608169017 -0.11452658435759518 -0.8317966078425847 0.15400289710308884 1.670996306796963 2.2122863036859126 -0.22341918932255372 -0.5072144658569534 0.01897085172498174 -0.0823627269737681 1.1606080923280095 -0.6103874757018687 -1.4594549958652696 -0.577835076198389 -0.2011821174007531 0.7736554369753029 0.2994551439111833 0.012475960814278871 -0.5160151604477671 ]
[ 0.5025637717224717 0.22248100660059267 0.4151293436745993 -0.6378421480063755 0.25377658170381673 -0.23160370460196042 -0.5199667515149806 0.22304626894422502 0.7451793136756296 0.5695159732550112 0.0785574214061417 0.20855271651990273 -0.68585933293659 -0.15245244688889 0.2970243346665261 0.4047970402631879 -0.06633367121369844 -0.3412673634523185 -0.2796471038343671 0.5481785097681166 ]
[ -0.38369259098296554 0.4294359904066733 0.12204622807455551 0.16002272731636166 0.4452847393982679 -0.5198080005514958 0.5943204980820421 0.5583278396498713 -0.34516074782331996 0.05918957752102151 0.021192492572561686 0.01762668704429201 -0.07286564484849171 0.5961424807742586 0.29376128271030577 -0.09187980405297776 0.47664928313537486 -0.3224617194564123 -0.1595557573484002 0.27280092144687246 ]
[ 0.0008884075707026548 0.13562290282154874 0.33420436992104696 0.0606642546558875 -0.050829701966594844 0.06449020034909794 -0.14554786946494283 0.01577002757119738 -0.6506122279979326 0.30308109064859734 -0.864096164572989 -0.25782623766686913 -0.4082291547165167 -0.1371809873860786 0.23355646273732322 -0.28647244763787605 -0.27451125577603264 -0.014976895581357508 -0.07776608960849321 -0.5133716868408481 ]
[ -0.10163058284064796 0.9593851245940295 -0.606106454695521 -1.3726702448584387 -0.801612528334047 0.3413216790524534 0.3000762643303028 0.8303868723038494 -0.49599572277786536 0.9326638484155682 -0.07149084580726141 0.9141286557156876 0.1829470848788892 -0.3221311276107605 -0.8919128561210389 0.7077967684763296 -0.23792422480452924 0.6980312128896423 -0.3401116711312864 1.1741336788863106 ]
[ -0.9031802984184423 -0.561718754642982 -0.6512190111890863 0.8557213465807287 -0.35181422331202983 0.1010522819603163 0.2812355882281476 -0.10007024386102754 0.5511324739345522 0.3461945832590483 -0.4550971077844999 0.033547945845730794 0.23692861852712538 -0.20434200033751074 -0.39608406244733096 0.3935898643883427 -0.47713954800931807 -1.5149087484838122 0.18975624860096027 0.7738224193896686 ]
[ 0.7987662095653741 0.37506384298777945 -0.14232192961833173 0.21852759677712913 0.1343446290525202 0.5269011323424425 0.08161055355197551 -0.7105187825720097 0.40131961556623724 0.32334208094123684 0.5733997107679009 0.2895247231662424 -0.6585292397217618 0.15433181263606827 -0.7608876466829726 0.05650340014396753 -0.37472706940854583 -0.3695280646384485 0.05808539692861538 -0.6685793513702399 ]
[ -0.3090788302061098 -0.25935510629748415 -0.37234207596559044 -0.7981199739190079 0.1345452032744172 0.5681779719840558 -0.13063186915919875 -0.2336712791553112 0.9776295029656592 0.19400423531440533 1.294282677731525 -0.15745309243393693 0.26887855386498644 0.7028391346899202 -0.20870618062591437 0.35849505522565417 0.7180425238274745 0.12343126136786636 -0.33672831887576105 0.0945561839730443 ]
[ 0.9132599799986277 -0.2897798947558626 0.45806336872931924 0.7635488086055695 0.0978919239142775 -0.6636584800864861 -0.9002358554456902 -0.789090998313607 0.8196161523618143 -0.3230082615624422 0.5287266297416907 -0.891697862832228 0.08634471724230398 0.6090052426884709 0.16864601717765423 -0.35863130794360043 -0.07901627823856983 -0.1045229742334011 0.08363393925139598 -0.5064094072548209 ]
[ -0.08443122390653542 0.09604977192666261 0.010265984809489679 -0.19189457919632133 0.24202302709170784 -0.024438488106620856 0.1099185864195627 -0.03430863756378336 -0.18394615652314958 -0.14607270254495155 -0.12219078041825238 -0.23928483607637463 -0.09807382042651776 0.06031651585589499 -0.05533175596602481 -0.09213818404181881 0.18317940429297347 0.15686391118277979 -0.19544057688014255 -0.0336429471212169 ]
layer 1 Activation
tanh
layer 2 Dense
20 40
[ -0.14225079341524777 -0.10818841242576437 -0.41652920499569807 -0.24891484851557946 0.16402221646176676 0.5950982498727381 0.4466314066337662 0.25969386893314245 0.6095278167993331 0.26991222893384237 0.36969605402194017 0.25336624488489984 0.30767645986800357 0.13750711356442522 -0.26204511858766644 0.08914985964624199 -0.37576989661033927 0.2559760573363232 0.21114084694442498 -0.2775130557915213 -0.14841935273344234 0.27292346879516255 -0.166978072288508 0.4673603535190178 -0.2569745933586957 0.26551655801996615 -0.2537876380453293 -0.005423411043735416 0.25179744526065717 0.017586918840337536 0.23830093441801034 -0.34644125513560464 0.3354238254480474 -0.08066503108581612 -0.23600162324252755 -0.43661238925344775 -0.22019115801484168 -0.4808320990028996 0.1628917554563812 0.007862555814667865 ]
[ -0.01768609511975541 -0.10685947257984166 -0.13548611399741659 -0.20513736738156876 -0.4118904069032864 -0.09911226234160102 -0.24350008043992563 -0.12818128343844704 -0.18444842506796869 0.2142730760324677 0.38473410179762507 -0.00827729273528883 -0.313342981518664 0.1409781848802751 -0.10974442985659036 0.4167692954798504 0.00011605944360821652 0.3632124078063604 -0.40087029507760735 -0.29232271539389143 -0.31134782819130147 0.43662768444563843 0.1335543412591406 0.00020914647053048383 0.3449339491998147 0.1593658615422963 0.29026930326310996 -0.1264672316110179 0.3098070941667575 -0.10179302348139475 0.27414381061405385 0.0021431592279781016 -0.08818116702207147 0.19326293863456176 -0.16799823580740475 -0.3819501053847369 0.33157344808908185 0.20813528413555815 -0.3208991812184575 -0.17056979262319916 ]
[ 0.31326037243095856 -0.3989389235067906 -0.03918545520694242 -0.16109424115011434 0.2766878354138482 0.25349430741710177 0.2980287963439153 0.2757662301849762 0.0734650778724662 -0.11792245545291519 0.5063494771261873 0.2587744224765455 -0.14884329134824972 0.4203548057497253 -0.17108952764588203 -0.04939734932708992 -0.09049461893615655 -0.2618395872588257 -0.1756326681924653 0.18630042944978298 -0.09521230408839898 -0.0008264124317341334 0.008300325409827829 0.08402722492381214 -0.14848789611238566 -0.39603571321008824 -0.5696275337149194 0.10982328455842394 -0.34938794257179695 0.02029873406149937 -0.13572992025559932 0.016241835674754 -0.09676762822159711 0.22895318419162017 -0.1164865773152361 -0.34906837769188676 -0.28506134837883 -0.46920220654851613 -0.0038486359118896406 0.3182621172020153 ]
[ -0.17877762059721397 -0.3178489558790673 -0.08328606170058964 0.17616188396331517 -0.2894383701028412 -0.4737501044390702 -0.18227214552329618 0.387618397934812 -0.9320977724774205 -0.49289039297506937 0.4235082709648434 -0.32857266063877394 -0.01417930100318731 0.4196351971113416 0.3383232784114058 0.42163390361791503 0.1715451977410642 -0.22751859320731765 0.29247817667054515 0.016418236255808474 -0.09635287872103246 -0.5617074412123146 0.0188012701479905 -0.20456389614028153 0.2654075483112484 0.10545453758825507 0.5939124662792395 -0.2942242859119135 -0.22879552558821725 0.3181758637206239 -0.2752399154546847 0.025519153912058043 0.44608814990355766 0.07980977787036447 0.0757343303871727 0.2359222355248682 0.03510875022200731 -0.2571468359456889 0.26163910509892335 0.12587546385603957 ]
[ -0.4691318061448763 0.09925001211731489 0.09374617008541182 0.20028579755101467 0.1108861161901387 0.10096625711987918 0.04780649280567439 -0.45538339477204376 0.6780905218720209 0.20790434238457445 0.3935409740507741 -0.11488702196590203 -0.08853824672420728 -0.20325812344467425 0.004437723384210057 -0.1962927638562085 -0.3337901524716056 0.06541977160623767 0.43533877601980686 0.3983997598121998 -0.16790112613536398 0.08848783657070697 0.09929187959835453 -0.022504267189406645 -0.15266030211736603 0.20990167241685856 -0.14116533642920334 -0.4318640333068377 0.03922948649960318 -0.39383877619383084 0.23048911769193237 -0.18243155395864083 0.40736770427745433 0.25460069511406447 0.5539613945852024 -0.45067390080014297 -0.5969073684255791 0.20916258412933003 0.13274441079635974 0.01866463360697156 ]
[ -0.19715500551480772 0.299081174589302 0.138390621608969 -0.36299104530915993 -0.05249829860530252 -0.5005469257954696 0.050212513772903526 -0.3992711611841185 0.03528300666508463 0.6625737320831485 -0.07855283090330276 -0.004670707532093102 0.055278884705618384 -0.5788804342808715 -0.1077759423550047 0.07737497056645475 0.5132394161513643 0.31647431904212164 -0.657738408882619 -0.2631635007960137 -0.06574685885919354 -0.0082112041851223 0.1599524353579752 0.5423635094197677 0.29045533696875164 -0.0368167406636424 -0.17588152074943952 -0.04026831010644821 0.18595389815142346 0.026223448620118432 0.5061883254940713 0.11455816054881479 -0.4808676304780888 0.07365860907835894 0.1895316968031744 -0.14359076422456943 0.5508530106840882 0.2576737723372704 -0.10940468018392975 -0.2335778807703823 ]
[ -0.2749040811782389 0.06183749342244272 0.19352079551146306 0.08888266357421022 0.17938046713430433 -0.12104390937492085 -0.005488438434877796 -0.7800113132216264 0.12950550929668195 0.24258046961075028 -0.2860857263282943 0.11093435752392208 0.09365026527450976 -0.5694824341728945 -0.6346392221580383 0.11778750372150812 -0.12191337916018356 0.009914151557077592 -0.5474847875052726 0.0785118195633067 -0.34157236845626077 0.6422577415419364 -0.36783341931655894 -0.44432542614928167 -0.08217104370999077 -0.24936393255105258 0.37943231350842177 -0.48466411319604036 -0.054995089308193794 0.21341119487455232 0.057245261576350265 -0.17888986516640615 -0.6352245686673715 -0.030236240946344483 0.5570993474583685 -0.30304735960736856 0.7194933337805955 0.11081529244899281 0.10376275378184037 -0.2221080582071937 ]
[ 0.4719428403766469 -0.06370151586555865 -0.006241369038591265 -0.16840480865920476 0.08258963215236019 0.38894301294065164 -0.31159540873169606 0.08683562505034145 -0.14901526606238202 -0.29555812116594854 0.08918572356917683 -0.11391923166173176 0.12166682554415051 -0.3236650971298136 -0.24908163912059303 0.46118211191546526 0.27956292457755827 0.14936985432481598 -0.2004900528781978 -0.48671692704307107 -0.2607114862945199 -0.3431108821053746 0.10821510773905633 -0.3883637059654954 0.2705974689490918 -0.38365363214861903 -0.2132098644114459 0.09379751741394471 0.37550441970632 0.4798004931841162 -0.1812202878423859 0.24502351274806236 -0.15075927494970096 -0.3133137651296074 -0.15407899412612042 0.29261013037265854 0.9250002518879896 0.2544448817532263 -0.12245842682671923 0.09524712382867756 ]
[ 0.32097159853092483 0.37398643389413827 0.21630910140903417 -0.37681969266153487 0.13354511583961692 0.5359409141350773 0.2944088846134547 0.5972465146687214 -0.03894354246484709 0.17233083081189052 -0.4946465548983887 0.04619446776184511 -0.2669784253873157 0.18851908659349004 0.8158633917517153 0.6037541376754713 -0.05463814989413239 -0.05070538781435606 -0.06828222376609866 0.381990991627174 -0.0050955032304285846 -0.49747256542595536 0.09079394162188299 0.24561365502909163 0.12105289024340109 0.3316866670560656 -0.11162037711670651 0.09824648705801982 -0.28843686749607206 -0.186393488478081 -0.2036388623064612 0.4220295662786865 0.7169081136059057 -0.19607789885355767 -0.23880242145273609 0.20550567717309548 0.12395396777152269 0.048743409703435436 -0.11722272570523973 0.23857864713599963 ]
[ 0.2442064990740892 0.20455560058704841 0.06495992710531683 0.0546758041661198 0.1344625552700676 -0.5059807743410356 -0.07490640937896424 0.3778870254528883 -0.36541307324480987 0.026166062546905035 0.20367668055826452 -0.3227754664552783 -0.32025179970922546 0.011645157186267458 0.18299919014774912 0.3859087772908818 -0.06506793851585806 0.17638260548565768 -0.6874359453456437 -0.34415439129012565 0.009698045268651092 -0.36969951618538793 6.000785401821297e-05 0.3174203351365984 0.17157026089451 -0.60110074201941 0.6618212307747011 -0.15688549221829456 -0.045851819945385265 0.2714145779767488 -0.356492084813732 0.25108798702093493 0.024545333147101344 0.11274983879886084 -0.19252528565790333 0.41969435744163036 0.7185233477660061 0.39803545020331066 -0.062276812873114644 -0.3950236279649515 ]
[ -0.03557305596446868 -0.23150094250275635 0.04755839037688163 -0.1580716004492525 -0.16761704988798423 0.7794635247929593 0.4812198064326874 0.34182541553131807 0.5862854644976104 0.3065337659475235 -0.14910522138860088 0.08157831098844286 0.11353090549456668 -0.10812932621664335 0.1365401186046353 0.04688395836527261 -0.014624902898934922 0.22871727685421184 -0.03488925454923221 -0.23335598941033467 0.39160891799154723 -0.2824496348001128 -0.2831327900244301 0.3447685588799465 0.3168132155619951 -0.19845862046940946 -0.42009488577113185 0.016566013428286723 0.1793586493375952 -0.003748795411178029 0.3523002669299474 -0.1537060033632819 0.31936682558785545 0.27684585082856406 -0.02135232887460376 0.1194305662265548 0.0863483462609776 -0.5161622545679283 0.20117916021922336 -0.24019123125774938 ]
[ 0.08090591004817216 -0.23168759770594843 0.30136243489660175 0.3116829035388653 -0.10222762089896897 -0.44885915805303106 0.2909754094786542 0.09464155210872598 -0.5579653777960808 -0.012871059816516673 -0.09316868812261182 -0.4983532709220835 -0.15036841180475363 -0.2441507451424049 0.2818741652002069 0.875892359186958 0.5493870962481939 -0.2183264631604191 -0.9607127007173261 -0.49971212240013724 -0.3213608129086314 0.05221522700234067 0.17203327680500585 0.14995153897074082 -0.2461617167094351 -0.7566663936682124 0.2843944289454748 0.1372474033689722 0.3818173502256644 0.482598743401435 -0.11379029124415226 0.07006989051585878 -0.2834302632330711 -0.454660602632601 -0.12508134137654894 -0.018480290525327587 0.48746984828359163 0.2941803449564281 -0.23176318936087953 0.1276594843468458 ]
[ 0.027802793486834506 -0.27121301069099085 -0.2804452380300694 -0.11570257668338997 0.09327934905914465 0.07542516508645575 0.07573653133135427 0.04634653263605734 -0.6350126461717537 -0.7583419395338663 -0.7708280404189392 -0.2899053944595247 -0.04185984728957099 -0.24035080979536164 -0.32604294038271253 0.07873069334352238 -0.16951524599985648 -0.39407202879791925 -0.04277751419626652 -0.3988364674823766 0.18907815210420795 -0.1756807226182839 -0.055718774585793836 -0.3543739665383789 -0.19497699790115994 0.19125780304901344 0.12604110786857073 0.3000269485264568 -0.08955683036115838 0.5103923840973973 -0.46439197578843383 0.1195763594167376 -0.017254467593353584 -0.1465342098771691 -0.38749630661465306 0.46635856975114565 0.03990794547326114 -0.49402199168060235 -0.0800422816933614 -0.2271508354610389 ]
[ -0.1382068612246717 -0.08601892535374012 -0.3502748608521846 -0.2823825907250509 0.09162273159585949 1.0000713628303133 0.4373859369089066 0.32501211576780475 0.16144674968109507 -0.0058571930585663325 -0.5078416403944401 -0.06206027197476152 -0.1106785773992049 0.0930052146483658 0.36754845338922254 -0.15406461471203267 -0.11027422676266693 -0.11894325263800234 0.7783833021279524 0.32021500661917673 -0.08236278700187899 -0.33635333855579896 0.24017153092893465 -0.10063904593841726 0.010797604408858259 -0.02808977089084401 -0.5146224404186672 0.0786768980754007 0.13746309346877947 0.12254425540157389 -0.26244755981413526 -0.1405160767727174 0.4772825950092081 -0.2046634003452385 -0.37055871706410776 0.36882253377119584 -0.27022319284543256 -0.19788160347287004 0.014225917779940502 -0.23564779551850126 ]
[ -0.09723354617924344 0.024514896036970605 0.3717112731598846 0.02015441148544718 0.23353223767694672 0.29052457261267434 -0.31222365344511915 -0.24263850627741065 0.18651584392193724 -0.5075910078488723 0.5333480750679939 -0.04698153218716442 0.16232644139585672 -0.035505580679316986 -0.05508808443111888 -0.03979161432942205 -0.23469213721955606 0.03813508448214354 0.6597970039539165 0.25152962358345965 -0.2179207843696059 0.04897019582021475 -0.16505375844823722 -0.3839492021662199 -0.23537454488477705 0.20145455920988087 -0.4852894361063523 0.2974456168066526 -0.45839695802571 -0.19759124667600503 -0.3697802072446594 -0.31896865308634387 0.18867398937014723 0.005237044063510118 0.37455389791865484 -0.19276106644956642 -0.2116839003725709 -0.07622520876923804 0.1259042079607475 0.12496514792674199 ]
[ 0.19725821935026772 0.1453662693506945 0.2959399889288149 0.19874055760124576 -0.25315205425442716 -0.012020314208106786 0.4463873757937624 -0.12318907535670216 -0.08802734853859669 -0.09060603680239494 -0.2523505500183756 0.057887724501166395 0.23436633385478597 -0.1496305465728271 0.22708807687601076 0.3455340061982827 0.3179119055473435 -0.2887497121028945 -0.7349096136150322 -0.1728646245672985 -0.3267652209860812 0.13148632950186848 0.18253979901555062 0.23459629700130574 -0.1905988538709648 -0.02278785578500987 -0.39606178164833433 0.2773610240622455 0.2639056640750748 0.7047129213719844 -0.3299168428422999 -0.21421480426197456 0.29072713405791645 -0.1286730211096891 -0.04039593011474204 0.41032012648711413 0.6514753658074655 0.3297400209419793 -0.11796985472971197 -0.09685802149153051 ]
[ 0.2344353785315752 -0.16805335719839098 0.2674881181908239 -0.19536820207452468 0.2454882428975429 0.7043050320756387 0.21148111523952928 -0.45929914370239905 0.3149184001873495 0.3103935051061769 -0.18766906973147343 0.22431813034867132 0.1147858955804721 -0.40221329894891683 -0.48670873228183625 -0.03726590233732219 0.1429845033847625 0.2657216344747864 -0.3749342595714968 -0.08778283022032822 -0.05526645401286381 0.19546923204026545 -0.0757098040474361 -0.262042976023322 -0.03155332327617464 -0.17688812475933255 -0.5516432372981953 -0.267356830107883 0.11291266621875157 0.006434002140224755 0.2469873252760194 -0.40608138350504475 0.19388971938180238 -0.211521448898896 0.23605562963547677 -0.5273235427408616 0.1592343791171863 -0.23245262088954596 -0.5039905351622771 -0.2193202686481759 ]
[ 0.0938464771002081 -0.20030178695705603 -0.5027750575388826 -0.2888879889601779 0.17208199448991632 0.5540415189966443 0.13613190420116245 -0.24247559195790597 0.3112351396297467 -0.23878133551782596 -0.6208558907626441 0.028516631127681203 0.11254556511163788 0.040138007789553114 -0.8284341284672394 -0.3887120341077556 0.16009345228039779 -0.11945634220443141 -0.12127162616689134 -0.17223707900488708 0.2911659964106045 0.6408106013955142 -0.37470905450209124 -0.30910917216602724 0.12825404419706402 -0.1837538903318443 -0.07926138824475124 -0.10939368571544851 -0.385630019859027 -0.11697707757065816 -0.09665501329578563 -0.2556663897373075 -0.501857757614424 -0.15801023720241944 -0.04901311934112966 -0.5532651593956625 -0.18097492910963542 -0.7286650516825595 0.20432529140201727 -0.3091985112734618 ]
[ 0.2827343433733041 -0.4202266647898291 0.38178122033036216 -0.20680421994980058 0.37181666919178874 -0.0735910912197702 -0.22606531460531148 -0.10116196355407522 0.14953122632273272 -0.3307271080138624 0.21063806122875064 -0.2917961254530011 0.1542511685056887 0.03919931587087424 0.16968306646521017 0.3984870688527526 -0.11556633093657603 -0.2994797892652238 0.11335115819118606 -0.32186773331215657 0.2547664391381846 -0.37101670920056645 -0.1652321478159593 0.11327716781625677 0.231948736017404 -0.3299328703764901 0.030769781362124077 0.2204872607086432 -0.09297313168742935 0.18394128926048856 -0.07207521053254315 0.03304971378331472 0.29093138194800516 -0.17413866852313148 0.1603721430449189 0.151023604361068 0.11541825100472095 -0.1791875050983432 0.03660904992395617 0.21198780554213328 ]
[ -0.051885441565961594 0.28751651933178557 0.10241825660359298 -0.5257541035469502 -0.19511423237274686 -0.680847431739312 -0.23344993323880572 -0.01754156868070234 -0.01840981958551019 -0.7135948465162705 -0.454202398005109 0.1009310664437243 0.3257175375736549 0.42284570626963897 -0.36688183439088895 -0.37625607365839503 -0.13273684451568668 -0.2164565461479525 0.06684696396116432 -0.019039155777944027 0.362763709825915 -0.020545371333695824 -0.06297105565159757 -0.3087887101056712 0.16852502826605972 0.004340931535754213 0.037822846091652276 0.462009381846139 0.19418849865702795 0.03440847945941498 -0.6368332306736415 0.04719367779509897 -0.30998921911712396 -0.1397214441188627 -0.7604903101326308 -0.19396386666440113 0.020998832696104298 0.24285629959763116 0.10773607526458574 0.18670818025806651 ]
[ -0.31390963211611933 0.029068351553900383 -0.09894251096418949 -0.004606913916498329 -0.017711911322702726 0.032813195623421075 -0.08367729356993613 -0.07414248182182806 0.23403481418882877 0.13006785407723517 -0.08997574521300988 0.25343213277161286 -0.1077529716265984 -0.06208141448105871 -0.16672257039244162 -0.3294237331919782 -0.12998033838412162 0.04516588056428916 0.18852277581702506 0.17593311529590025 0.0377567640770773 0.2541383332153244 0.012581874147486008 -0.018424585652133674 -0.010446258569136366 0.2913894733995151 -0.054323544248024505 -0.17546299034915835 -0.13507835705352544 -0.2852576301355639 0.12693976845830007 -0.10276345169629393 -0.08064583610108879 0.12764092978155692 0.21716105258338733 -0.2700799566266739 -0.267348515239649 -0.06440674300318107 0.17872692833157316 -0.06811593593631081 ]
layer 3 Activation
tanh
layer 4 Dense
40 20
[ 0.15321529157675445 -0.12020862342054792 -0.18888555963196033 0.10920619476779476 0.3852475793554242 0.209908805519158 0.1488226589149289 -0.25957338089649096 -0.09696479421727917 -0.10320303422903292 0.04752887414923524 0.28361025316673044 0.32813901048756644 0.08454225201862664 0.1186987271565812 0.08078108886306662 -0.3595096279402705 -0.08780560226632689 0.22066022863333964 -0.46156866085538023 ]
[ -0.007190868971574033 -0.3175325156871661 0.26613971256344526 -0.344092068890293 0.08529889733164445 -0.2046247053475637 0.12859118481843138 0.11513105518681895 0.25880913784840526 0.21791548559333276 -0.37770099347878167 -0.005894889815724135 -0.2608927825730601 -0.105448734059011 -0.21547618794878728 0.07565537570518344 0.041784935651409824 -0.09032594359620032 0.09566278693643178 0.5757392242033781 ]
[ -0.41154797392445136 0.190563675552722 0.17545093624819436 0.41464549571193676 -0.09349126044338336 0.18593660822188524 0.3796237844252585 -0.04771761293542376 0.009681128481052395 0.005775629179310892 -0.0189469726704633 0.28839847787458944 0.4291477758779096 0.13193472934640232 0.20503005250460354 0.13981597265677126 -0.34650694575895147 -0.30793492321694876 -0.11581487282183621 -0.33114252506607167 ]
[ -0.2331731095888683 0.07114858291442776 -0.09693023345430878 0.24669256443491794 -0.25101358634106646 0.1029391872110044 0.05405397315399696 -0.2430828842134368 -0.33127522475858945 0.24129914875404956 0.44331905374201996 -0.02919798104112605 0.07006288968414416 0.33499456295640745 0.019037012297675217 -0.09604049387760295 -0.0821490586655529 0.2272817724074464 -0.0475231439996641 -0.2625049953686221 ]
[ -0.1251711045528135 0.18483730501376722 -0.19932931802533435 0.033890660171104245 0.24566979314965592 -0.1407488031798468 -0.12658440849554264 -0.26393783726693676 -0.0906234851825399 -0.000568861976779162 -0.16290933964920443 0.04516389444050688 0.12392309448149723 -0.05115122927371925 0.27763959769254754 0.2713287989798069 -0.2787521474246163 -0.20409029380567972 0.20457140331647505 -0.2457338634378174 ]
[ -0.14920604778338797 -0.14943501323888025 0.051238991972337916 -0.2942521705967911 0.08266625165812913 -0.3976108561362367 -0.1925705831307878 -0.120714612515214 0.05447147582293788 -0.42838905927784987 -0.3557803413903044 0.44636185384067784 0.017713563510412804 0.06461339833340089 0.34905358965251093 0.4322213235484265 -0.05763317804611622 0.11965827763240712 -0.27602962125481456 -0.3154791721215825 ]
[ -0.1444860635438928 0.3006305832123768 -0.16697099389302983 -0.05865754621888902 -0.033411671264172084 0.23204396715057304 0.32842762546008175 0.22637803841336904 0.04936825462351976 -0.1940565612716018 0.01580222744060076 0.3122097410761072 0.37100613084835127 -0.14851008505383945 0.12678763736146803 -0.051654413454708246 0.3317801106046657 0.09234064596645689 -0.13532168948245837 -0.01183484177126261 ]
[ 0.31154274788932423 -0.16019186973432725 -0.41547439681161524 0.21498574466038875 -0.2308256570140266 0.3587321504756514 0.3661662798974653 -0.09257121305655969 0.3212852323201859 -0.24221325801583798 -0.24935453777953598 0.030186326706201885 0.3143580803442415 0.06235249111587616 -0.08858985683827075 0.5625281767952327 -0.043874543939763956 -0.1228542756481516 -0.21073659278691254 -0.24947466949019806 ]
[ 0.1445389884468252 -0.44006123165152816 -0.22019023365578033 0.02544227546214154 0.051602949209097755 -0.1263341969285867 0.07797069555593332 -0.03678373029667518 -0.23635140895650042 -0.044954809531166644 -0.049371406889797825 0.24133258257760137 -0.24449497628395514 0.05890575654453878 0.46887980064620705 0.14482650552854953 -0.0035756814518255933 0.15319963957749852 -0.3686815287986365 0.1498392342596348 ]
[ 0.06185875536050562 0.1977206459832119 -0.002565911701160255 -0.2352259937472334 -0.21681090608372441 -0.15134335449769623 0.34947020528489564 -0.2393456226670473 -0.3697234431432793 -0.10614287534890753 0.11785299509574407 0.23542101986532543 -0.31328487670025074 -0.11063290082376911 -0.02263536959758109 -0.012990225258191915 0.3310508053900529 0.051621377492212565 -0.5898220097777284 0.34922273534178666 ]
[ -0.15113986071008548 0.34671031448390704 -0.41230790082161495 0.5862509759456199 0.01918531281889449 -0.4417004659885484 0.061729554862264675 0.06842968717652684 -0.456023514285038 -0.011924968897648483 0.09110877140611678 -0.013277856740593872 0.04265054632003051 -0.13880577034894362 0.5646925325690322 -0.01685193440536239 -0.004692600391462674 -0.23850975937564325 -0.1280839775487296 -0.28204865835255993 ]
[ 0.18920109447042052 -0.24939841542198685 -0.25981386520228283 -0.34621698239784343 -0.1118507574899029 -0.16449644966975754 -0.06853022131657367 0.07190339232998101 -0.2117430733183812 -0.005115115720992098 -0.08322448870531608 0.252380408630287 -0.3873166479097266 -0.0032068721160112656 -0.040137231960997374 -0.05675096285616566 0.16598353215763145 0.00437155658243542 -0.19718712600644983 0.23734846469693083 ]
[ 0.07004454829298562 -0.3875895407447284 0.257080799177699 0.2480243252545253 0.15413797798679435 0.20671899477812553 -0.07908720791949035 0.13070825739767958 -0.4742507091498327 0.10412428972493125 0.23578731852727333 0.2374829742700993 0.01413645032165718 -0.05606128612228806 0.19330059595269808 -0.3811329681495869 -0.13842236467025223 -0.13088394870667472 0.07781213686312025 -0.30350700577237744 ]
[ 0.3853262634977895 0.12873210990650155 -0.45776195545962206 0.1632687125896639 -0.3872081333856728 0.301592855138789 -0.028304188674553494 0.11348869342776573 -0.17143746086941616 -0.08918372731169485 -0.35959664624674986 0.05775307489804278 -0.10801940639459524 0.1301693487724154 0.3638222300567806 0.43926874040434316 -0.22697743070906884 0.08361287878102638 0.026178544682783973 -0.1078799940328604 ]
[ 0.1590608367608892 0.3538124732022753 -0.5120705080607055 -0.261950269177437 -0.45647556684512136 -0.19688678472904236 0.42645590825748425 0.2691113158931402 0.248134120269163 -0.08348006575516499 -0.26970670399280605 -0.20731728069716196 -0.28505961310398953 -0.1653278883660251 -0.627959345748286 0.3472067785119541 0.16550788740234104 0.22268736242503012 0.3737903649666961 -0.16388559409302186 ]
[ -0.1311189430658358 0.5331973978000044 -0.2478418673853562 0.13600142165700194 0.2355659592101518 0.02452214204206592 0.5701792558443227 -0.2691182496373412 0.2581496875450428 -0.437316953855823 0.4275311662088927 -0.1609289093512591 -0.014160315395913139 -0.1440077399490863 -0.09373096839195147 0.13099246917744417 0.06627494067565055 -0.01703667003940117 0.17485315222292255 -0.7128163994241213 ]
[ -0.2327298315629219 0.19112432159211393 0.24810825321156615 -0.05286888384133423 0.21786544040744515 -0.010711786044399322 0.3025900287198731 -0.2295032583521731 -0.0276704661911527 0.18310792856894403 0.2371524509730094 -0.26130846604411945 0.39924145090798197 -0.15375284075509027 -0.2540092064397604 -0.2323376950995265 0.07105694257536482 0.04141479804973449 0.06513503093711104 -0.3647838624816132 ]
[ 0.16402672533688856 0.14199404853837527 -0.16768697029884239 -0.18646083282417655 -0.14440617365532923 -0.22852543426750302 0.16974109953190783 0.03653368883423996 -0.3048507389337306 0.07432702707277913 -0.148045158846427 0.11362829231212168 -0.30813931212108914 -0.046399696091513884 -0.18502475614116354 -0.20104219476437707 0.4337306755543777 0.20159121157228238 -0.058099749610052806 0.4254941205706119 ]
[ -0.4544792931191955 -0.17589927939099329 -0.18104812106494306 0.055057855695902706 -0.2351521851566653 -0.31193232673561655 -0.33451955785796655 -0.24462933276754753 -0.3107288337572398 0.2940835433187162 -0.3678112862150875 0.46340147701901296 -0.17876884340150012 -0.05423090064528574 0.27481885040174175 -0.01740923751152177 -0.1299039208405967 0.029610648397864137 -0.3527313381518293 0.07275382788446137 ]
[ -0.3643727485010167 -0.06243733992621718 -0.12138814445536329 -0.26293280571212985 -0.40185883512658077 -0.030329410320006127 0.03432612725597422 -0.04035174288652384 -0.2255536197203049 0.07739179022548684 -0.49091675131096424 0.006198780617344265 0.08781858981593899 0.20332356421052816 0.29172703162781755 0.44831767055472704 0.17892842927594366 0.2953136529851653 -0.4474598841695722 0.8685256034232934 ]
[ 0.2533940087934964 -0.05690935537647769 0.33544114467872865 -0.32592179367080204 -0.2298155509586838 -0.00847538611541588 -0.21833747655763613 0.006463056336592225 0.32585964581307225 -0.10086888317448682 -0.2031507890022 0.02654471578192493 0.1305816850041013 0.03303103751212492 0.05817483213221808 -0.017976976392616046 0.1444273573312624 0.2697998158269892 0.11410569223459417 0.5181341373879151 ]
[ -0.47326118696003744 -0.17226869665136416 0.0637232478341596 -0.1982501530717029 0.04503082622186843 -0.3985239506921294 -0.1742939029478228 0.17056881828708353 -0.37055162134048814 0.4879582119231453 0.37776956906012754 0.274909916998245 -0.3359129511487431 0.16572897036723927 0.33053802755607314 0.06610336147265017 -0.15465625562880486 0.10325192884374748 -0.49436490868999955 0.6277313030183328 ]
[ -0.2291984437209903 -0.02662247479233459 -0.20480024934921418 -0.42728223181974984 -0.198070203570838 0.06643961602359254 0.25855921084422406 -0.06113011361277471 0.1903508253373542 0.13377007397079893 0.1573341738376647 0.021921346547197944 0.12920953263386234 -0.09174501047631548 -0.08449968113734047 0.06446368887599531 0.29107983209928034 -0.09927141822609158 0.09665342622253614 0.040974327737082594 ]
[ 0.10586931159627273 0.2508397560026543 -0.1801053358533046 0.28016487351330577 -0.29641522463629666 -0.3881573668318607 0.39989832486498605 -0.2072048861827991 -0.13057544783509956 -0.24647325635780226 0.1247266357523065 0.2857639725650003 0.24341239852306737 0.23761213389635114 -0.1796239486840737 0.16863120029559034 -0.31380581202425234 -0.00840870445306112 -0.3292672524338848 -0.3112582971560852 ]
[ 0.4206954254071083 0.18247830526567285 0.17804554139150222 0.15406657754783415 -0.15102950828909967 -0.04837626127572731 0.2312919135272643 -0.04120580320492419 0.457867580166583 -0.17404291726020554 -0.21628631525525552 -0.22140809147638046 -0.0614499520385864 0.18997970306875256 -0.26244524145678555 -0.3981757996439591 -0.10791150627912849 -0.14579612046127843 -0.17173026167601263 0.458677816249786 ]
[ -0.20074216487738558 -0.30752832198635993 -0.10131736577546471 -0.4401884187479183 -0.3572689707236555 -0.027150834604520613 0.07911480913028149 -0.26553461218631047 0.36061809403788736 0.24830796684600343 -0.3595429308021399 0.3712627604412436 -0.487587923422132 -0.21965548618728756 -0.12516953662221914 0.46786352925618346 0.2934780572326191 -0.029158237550279863 -0.4920460543845529 0.8282138875997703 ]
[ 0.3179033643769255 0.45363902580540677 0.2541416445805475 0.07085466463932755 -0.2928382560268575 0.24734793334496533 0.05404714147525033 -0.06713802373950518 -0.451576177175815 0.2084427798243622 0.13888709843368677 -0.4103173391457437 0.021853260545480906 0.06125621622705329 -0.31879960167267996 -0.3164505459083178 -0.04659811158631589 0.2145963620575105 -0.13469207817692375 0.36978930713971764 ]
[ 0.3010361843865791 -0.12465415074194255 -0.20855555749691176 -0.18688392515950872 -0.11085517947893275 0.23255063209916585 0.004618610233737273 -0.13216308787791517 0.0801111050365574 -0.07071725538796034 0.016642054542428873 0.2578191021093265 0.42788186195173844 0.21385037477913085 0.027259966868283424 -0.07302407653648203 0.07973792191705859 0.12345389905268046 0.2621703295090825 -0.4811455652394545 ]
[ 0.13037231836415522 0.030357315015363824 0.30182611483235544 -0.44181795965189696 0.0019738399580431602 0.16822414267396116 0.39163570811264126 0.011479878534717332 -0.15456790942247609 0.0012944824888440716 0.4233155522792522 0.202764596302058 0.25724965512029035 -0.0404014064491466 -0.18306951446082376 -0.2986692284172067 0.23965957386880618 -0.25496648217919293 -0.05092266729464098 0.25578691769761497 ]
[ -0.1963123205132494 0.21353928800729988 -0.2709018242021092 0.13091471459911597 0.45227945666536357 0.31994993102132024 -0.015395826122338818 0.034322514082893746 0.4055479239686359 -0.38733260598426045 0.25434030073056935 0.12026906745917203 0.5275068518265409 0.053627832238731396 -0.12124195504855619 -0.1699155959303658 -0.5349541366645306 -0.04604236041106785 0.10400181189157784 -0.6566018279926643 ]
[ -0.19532696115566162 0.3062985681297459 -0.11396582243766622 -0.15565382864826247 0.04731951571392019 -0.3520409850672292 0.4008101506356197 0.21540236434895607 -0.458957887788954 -0.03387078806611517 0.3002617603986478 0.19116394499648579 -0.4717837796983912 0.131079403995273 0.13784334607307863 0.20468850676135739 0.2575938428891863 0.014829669811349115 -0.459935413414731 0.11916061351218175 ]
[ -0.015040880398376894 0.21889660721679172 -0.4000482252062058 -0.12405937481523198 -0.24682592786479024 0.21138863478658243 0.2958382207161008 -0.14998892929932325 0.011291339265077308 -0.054533973992349646 -0.19563570201699745 -0.2032293317466791 -0.09103386247145294 -0.04283110824309496 -0.1122369664157024 0.05190865211792294 0.14478789982423318 -0.09948495519739863 0.14558136385455323 -0.0023160055590936476 ]
[ 0.09012773376781986 -0.01633689650905616 -0.04761799751922168 -0.17459073715064377 0.23231523449728889 0.4669727604553048 0.018300745049786064 0.28126640987958773 0.39725739352033845 0.00463307508946192 0.12204805802848256 0.0801594360011065 -0.2855004542952804 -0.09657143830385954 -0.4163121860799186 0.27637788410706643 0.20002706726321265 0.23796164577805964 0.5517992119028875 -0.25243525571414327 ]
[ -0.1151596333167305 0.11871337102574163 -0.25830664027295325 -0.09777661498969227 -0.11366940585862807 -0.25206984240970304 0.04831098386887379 0.12677550624925069 -0.2998063429557816 0.27788765041458596 -0.19948706504381772 -0.03209276509079401 -0.3518504346767403 -0.09624820494309586 -0.04909343458324661 -0.11951724949949091 0.22634279812022154 -0.12317981609487527 0.04629567368190312 -0.026986731797488516 ]
[ -0.36919009458604185 0.2852883514004111 0.5487377654719336 0.11439892298763307 -0.1990172466159344 -0.40350085725224255 -0.15721879462698443 0.09964488037708041 -0.28284817605423557 0.24809157922246292 0.34645469110006366 -0.2063868157453694 0.20010158868695085 -0.1430639982313193 0.29144485752575205 0.1756429593810931 0.01540028746708726 0.09233245889949646 -0.25610272431655157 0.10935958242445662 ]
[ -0.05735666141251707 0.02308944067462576 -0.34617616269535084 0.22745381748816976 0.02130317694754232 0.2146029046004586 0.356915504963941 0.27830108002449955 0.6662143811002037 -0.20384912773973896 -0.08483041553235207 -0.27569960139343636 0.5155064804868886 0.29175847726231663 -0.23768536109588234 0.10771622863124755 -0.2602854007628461 -0.06899391130710475 0.42304004014535757 -0.48690997575706607 ]
[ -0.2829208012215956 0.16076445011862575 0.3762979022107183 0.058563823979288235 0.4029086153971538 0.3423920867281621 0.2741786176724349 -0.1613818614507406 0.3817147213321908 -0.28324952844974044 0.19207526971492664 -0.14515674499820483 0.20820835855802763 -0.10733186594503366 -0.44217721254145265 -0.40174576293520303 -0.10811629779059923 0.11490460671495785 0.14157214548015246 -0.3261934905948687 ]
[ 0.2783519325152792 -0.024375584863467217 0.3776950128354057 -0.30834887689481427 0.5121988931579361 0.16549631776753548 0.24673862150244497 -0.2329956501377112 0.15313369060418391 0.315762730093987 0.3487222054103043 0.02881584564674577 -0.22094084680347378 0.46665613810626655 -0.4773593773941542 -0.13879620086647917 0.3016957445163348 -0.07142450518127799 0.5643808265999953 0.3576245139639829 ]
[ -0.13119488974335858 0.04335679604599331 -0.06978119768810001 0.07915996149709284 -0.2038920416803039 0.025448829101606264 -0.2407643802464539 0.32374754400462874 -0.008987435377518904 0.0660291731519483 -0.35692791818257574 -0.14926112485662152 0.06316824050607127 0.2210539808409775 0.04736232618975851 -0.03359020895734757 -0.20678043689125664 -0.16867713260392314 0.005020267287218955 0.46488568615454534 ]
[ -0.15983133260060045 0.18238512576278562 -0.5875057073947824 0.48660718303324124 -0.030619722221005754 -0.018454877333484537 -0.11963892816306636 -0.2886886934275019 -0.15575377889186115 0.11438538067042393 -0.2707474770738826 -0.026092904024892494 0.15411233091191853 -0.1524189049265562 0.021282613160979756 -0.014761513753678481 0.034268135908137556 -0.15267514429509982 0.3835058014102222 -0.3771507447512004 ]
[ -0.04579792992438845 -0.14609419242287758 0.012965417621776786 -0.17134142624768817 -0.10436424788197228 -0.0736759050381413 -0.1833827929332386 0.024475528612149494 -0.011888734840336474 0.1220878133868291 -0.06687676999281256 -0.09284294177549526 -0.08388922826284338 0.027234265248874914 -0.031211301247030254 0.0335524304527312 0.10824608927486863 -0.04518287915569589 -0.21341565085440875 0.30743257906168464 ]
layer 5 Activation
tanh
layer 6 Dense
20 1
[ 0.17747537148403048 ]
[ -0.2544919590813645 ]
[ -0.06551492115969113 ]
[ -0.163984059195602 ]
[ 0.10756129054139942 ]
[ 0.32122697455476423 ]
[ -0.36688547433529917 ]
[ 0.025231476432537887 ]
[ 0.10757212646971946 ]
[ 0.28462548712857955 ]
[ 0.06545799441030721 ]
[ -0.26081826900504673 ]
[ -0.2084088520224588 ]
[ 0.005812426600132882 ]
[ -0.3659097679966012 ]
[ 0.04231414805578944 ]
[ 0.028706410264446192 ]
[ 0.0317121018144398 ]
[ 0.5130134342821482 ]
[ 0.18919130115303917 ]
[ 0.20981668529821515 ]
