layers 7
layer 0 Dense
20 20
[ 0.25695294  0.27145907  0.27866438 -0.21756442 -0.09560141  0.19344492
  0.31662765  0.38414875 -0.14717807 -0.08754265  0.30988693 -0.11094198
 -0.13980614  0.12362405 -0.20077457 -0.07891699 -0.01514934 -0.13966872
  0.63616556  0.0413821 ]
[-0.4884269   0.2604043  -0.13219063 -0.02570782  0.5073897  -0.27554935
  0.36781785 -0.25092652  0.08527372  0.08438882  0.24274157  0.16523132
 -0.38284853  0.18167007 -0.4959785  -0.19408858 -0.35608974  0.04919526
  0.20572688  0.38277847]
[-0.4374167  -0.39193207  0.13031074 -0.02648461 -0.12280874 -0.21810657
 -0.15001225 -0.10123701  0.16006152  0.2299502   0.23629004 -0.09781162
 -0.04459025 -0.32925463 -0.1127371   0.46732044  0.41451547  0.10622262
 -0.27600962 -0.24233842]
[ 0.44257978  0.18829602 -0.43273085 -0.2946945   0.1582877  -0.13683356
  0.24336497 -0.09190853 -0.33871245  0.34485212 -0.16779399  0.2871067
 -0.17765117 -0.05329334 -0.15858443 -0.02768038  0.10817023  0.20195556
  0.10833423  0.2385198 ]
[-0.25246271  0.3000056   0.07585543  0.02256495 -0.2213419   0.11301223
  0.08739738 -0.05572866 -0.11544947  0.1231262   0.22135387  0.25313237
 -0.21433504 -0.24611872 -0.32371706 -0.01516413  0.05092189  0.27556488
 -0.3227471  -0.03994643]
[ 0.2793624   0.23536487 -0.30981004  0.11651324 -0.47365165 -0.21036744
  0.16958009 -0.14370072  0.14521831 -0.0789169  -0.35532594 -0.16299796
  0.14309421 -0.25811252  0.29799992  0.19709451  0.06229505 -0.31220737
 -0.11416859 -0.27600253]
[ 0.3590994   0.08575308 -0.36178818 -0.04696554 -0.03464784  0.39526215
 -0.37586862  0.07905519 -0.02588198 -0.1408843  -0.32557452  0.36193198
 -0.21134585  0.05904869  0.6880026   0.24785048 -0.14991428 -0.2720188
  0.01421087  0.33184987]
[ 0.23164049 -0.5331319  -0.00545856 -0.03732051 -0.20216121  0.35835397
 -0.53419566 -0.05912129  0.09432698  0.17332491  0.12325235 -0.10760922
 -0.03119738 -0.0058605   0.3761761   0.0805736  -0.04129411 -0.00903723
 -0.10125647 -0.3931683 ]
[-0.023516    0.3792379  -0.5543176   0.16853191  0.16969754  0.42340687
  0.04603481 -0.35913453 -0.2530611   0.316007    0.3482867  -0.06329089
  0.20063029  0.5069344   0.11465281 -0.01213002  0.43124732 -0.2822687
 -0.18647316  0.57571375]
[-0.52758175 -0.09771521  0.17421639 -0.08687548 -0.26298484  0.3719077
 -0.22319649 -0.5861502   0.09775263  0.04419605 -0.591879   -0.05068168
  0.12319243  0.49220315  0.28058308 -0.0447691   0.24261457 -0.10719527
  0.33668494  0.14345899]
[-0.08247186  0.06792653 -0.33666626  0.07565849  0.31006134  0.16552775
 -0.13091525 -0.13732903 -0.17538626  0.00435367 -0.08549037 -0.00975263
  0.26542586  0.36273512  0.3332816   0.25927442 -0.3670706   0.20920692
 -0.37615454  0.19336542]
[-3.8146409e-01 -8.3939388e-02 -8.6582685e-01  3.1861797e-01
  2.4854983e-01  5.3127038e-01 -8.9502987e-03  4.6188203e-01
 -3.5677209e-01 -3.4520149e-01 -1.2738597e-01  6.2946719e-01
  9.5082551e-02  5.6009012e-01 -2.6832291e-01 -7.1682876e-01
  3.1625557e-01  5.6627715e-01 -4.2236826e-01 -5.6531234e-04]
[-2.3639469e-01  1.3047057e-01 -1.3055331e-01  4.2298660e-02
 -6.5325163e-02  1.3161635e-02 -3.3715218e-01 -3.5606605e-01
  2.6137897e-01 -1.6871046e-01  2.6375529e-01 -5.4225063e-01
  3.0286238e-01  1.1059342e-02  2.4989732e-03  3.6766803e-01
 -3.0678341e-01 -3.8962024e-01  2.7090410e-04 -8.6701937e-02]
[ 0.36246204  0.3220193   0.14979337 -0.15963402 -0.05730927 -0.28230137
  0.08675203 -0.06521162 -0.32071838  0.42402112  0.26747757  0.27594548
  0.41180086 -0.29184642 -0.01308591 -0.44160134  0.38311753  0.30978408
 -0.41397643  0.04971465]
[ 0.06154795  0.2870631  -0.05499506 -0.51522505 -0.1945774   0.0627643
  0.4006845   0.22806051  0.20313703  0.38901597  0.11177243 -0.17137063
 -0.29536852  0.06078949 -0.5420195  -0.27601957  0.27608368 -0.29102418
 -0.2876861   0.1606652 ]
[ 0.3214529   0.2673167   0.43188027  0.19515565  0.18509978 -0.24723668
  0.23819138 -0.19602656  0.01790454  0.11415845 -0.05587664 -0.35310003
  0.02020214 -0.38826415 -0.60163087 -0.04806301 -0.14370713  0.4047255
 -0.07230346 -0.06780549]
[ 0.27438715 -0.19558443  0.43483958 -0.28652394  0.15288337  0.18349831
 -0.03109278 -0.01900773  0.23762782 -0.25809416 -0.19514689  0.23539583
 -0.11691432  0.32079485  0.13893235  0.47637782 -0.4305458   0.17399962
  0.21810077  0.20141664]
[ 0.41242787  0.06079941 -0.36169997  0.34833992  0.11435116 -0.33414537
  0.06346151  0.29502884  0.03658208  0.339028    0.32109675  0.04794381
 -0.2748248  -0.02394249 -0.30559164 -0.18273142 -0.36978242  0.25129232
 -0.3958221  -0.01074344]
[ 0.46874475  0.17619927 -0.27985325  0.23637335  0.00915085 -0.3944609
 -0.24829482 -0.24181661 -0.38485754  0.41886768 -0.34228146  0.02465298
  0.40522966  0.49238938  0.38942063 -0.2885328  -0.20446007 -0.07116404
 -0.0584707   0.18557891]
[ 0.3453267  -0.09105127  0.03124088  0.01008045  0.17740841 -0.2151499
 -0.41535246  0.2602051  -0.21704963 -0.13924547 -0.02801646 -0.02866262
 -0.07725883 -0.24794357  0.66962504  0.13271397 -0.59661114 -0.12611243
  0.3730406  -0.48960364]
[ 0.01941636  0.07786933 -0.01985825  0.07729447 -0.01475654 -0.142712
  0.07899733  0.10392722 -0.15372764 -0.04455255 -0.10676827  0.086744
 -0.03708988  0.07890121  0.06160484 -0.12640217 -0.01645072  0.05683104
  0.08967673 -0.0597156 ]
layer 1 Activation
tanh
layer 2 Dense
20 40
[ 0.22788039  0.03127177 -0.2915919   0.03258832  0.06771056  0.2869757
  0.10790011 -0.20577219 -0.02882425  0.19867064  0.24076362 -0.38431078
 -0.34192967  0.17205708  0.03574437  0.15263997  0.07912391 -0.05293193
  0.30868763  0.09241373  0.12761645  0.08782837 -0.19084097 -0.09402294
 -0.07542147 -0.03016761 -0.3282165  -0.1034249  -0.00373001 -0.10692827
  0.26202193 -0.15036118  0.14199077  0.020305   -0.1185772   0.13524309
  0.24100485 -0.12479637  0.14317623  0.04562987]
[ 0.10538567 -0.01229362  0.1346874   0.22121437 -0.12313427 -0.10133477
 -0.03787836 -0.21331583 -0.14967461 -0.02881802 -0.22652042  0.03370252
  0.15365033 -0.277699   -0.03973495  0.19405201  0.26084378 -0.20744108
  0.29625514  0.27173504 -0.00954861 -0.02839678 -0.02895674  0.18439549
  0.32672954 -0.37646973  0.04911647  0.19023938  0.07307572 -0.18232246
 -0.16130611  0.01797731 -0.09564517  0.13804735  0.19434944 -0.21265772
 -0.23957501 -0.11902496  0.1766841   0.08612633]
[ 0.07652797 -0.18385017 -0.05066542 -0.18446366  0.00296372  0.32189867
 -0.06429846 -0.04105763 -0.25336722 -0.41057652  0.04766491 -0.07117084
 -0.12172001 -0.08895821 -0.1574212   0.30390725 -0.11907821 -0.06893579
  0.18906541  0.03538683 -0.11622962 -0.09941529 -0.27601233  0.3895339
  0.27271864  0.13840811 -0.04745397 -0.48515853  0.15514526  0.03270831
  0.44980577 -0.14615482 -0.25778866 -0.30144617 -0.15990517  0.01434968
  0.48406082 -0.273004   -0.21809003 -0.17718452]
[-0.3414945   0.06649756 -0.0993691   0.17921795  0.099017   -0.15490238
 -0.02919755  0.36351013 -0.074302   -0.23088841 -0.21149208 -0.06727932
  0.28337568 -0.18946978 -0.12224164 -0.03965288 -0.1760063   0.01982127
 -0.02538079 -0.04095962 -0.01501874  0.1426572   0.11141685 -0.09448733
  0.10219964 -0.01984792  0.00187804 -0.08372501  0.2087899   0.02981438
 -0.06091785  0.18478838 -0.05677526 -0.18536492 -0.4105089  -0.28850275
 -0.01732857  0.11745592 -0.12254991 -0.08591858]
[ 0.06726352  0.23775901  0.06992136  0.21279743  0.05163598 -0.07829267
  0.3154193  -0.2436642   0.28224698  0.2251284  -0.07760856 -0.03974867
  0.02603225 -0.14222471 -0.0976319  -0.20752437 -0.29601133 -0.27544123
  0.0363437  -0.02656497 -0.0268291   0.15183966 -0.18370694 -0.09178803
  0.2743173   0.16734916 -0.26786444 -0.22081955  0.13980177  0.39226347
  0.09451415  0.10501445  0.37671393 -0.01824659  0.12087273  0.28380615
 -0.1685146  -0.07888623  0.3316606  -0.2938832 ]
[-0.15293132  0.05066781  0.08922676  0.24399987 -0.00725678  0.09228743
  0.01910688  0.06038141 -0.08857667  0.08718707 -0.11611076  0.01708324
 -0.06329954 -0.02944154 -0.19781588 -0.3191533  -0.28826073  0.1822782
 -0.25288272  0.15613165  0.35241625 -0.22880986 -0.15477857 -0.18226673
  0.3063983   0.25986513  0.03580491 -0.09236781 -0.15369906 -0.12653798
 -0.19596127 -0.1348477  -0.15028426 -0.16396496 -0.05283448 -0.43102974
 -0.05066909  0.07703603  0.14241768 -0.06373889]
[ 0.25470805  0.17679477 -0.3707164   0.15880159  0.10947663 -0.19068377
  0.39595184 -0.23071992  0.19941472 -0.13271768  0.00924321 -0.09800962
  0.19010036 -0.05875323  0.39163917 -0.18372905  0.17159677  0.20185815
 -0.0943226   0.25939435 -0.45316628 -0.09492815 -0.14845678 -0.03878571
  0.33061665 -0.27702507 -0.1858765  -0.16560355  0.09289667 -0.1115087
 -0.17881201 -0.1499916   0.14533944 -0.288498    0.04718588  0.02907787
 -0.01150175  0.20543954  0.08512338 -0.112901  ]
[ 0.07788151 -0.1876239  -0.31309077 -0.31439695 -0.3089428   0.16006033
  0.06250452  0.23997732  0.14019215  0.31382048 -0.27145728 -0.36464012
  0.25039032 -0.2096515   0.08166473 -0.1715139   0.21998969 -0.03949175
  0.1729767   0.37179765  0.1091884   0.3461734   0.12041821  0.26717576
  0.1821958   0.12734641 -0.2528285  -0.17875284  0.10640432 -0.13286252
 -0.3174591  -0.1084385  -0.02973403  0.00511515  0.13206339  0.4551787
  0.16103572  0.17043467  0.5471646   0.25653434]
[-0.10586052 -0.02742819 -0.00837481 -0.0127483   0.15385926  0.23843583
 -0.2234317  -0.18831459  0.0278302  -0.07455946 -0.02286906 -0.04409886
  0.03862238  0.26830333 -0.00845597  0.26216185  0.08446937 -0.0821971
 -0.23389801  0.22603665  0.06866806  0.10365413 -0.0615366  -0.24533468
 -0.07800534 -0.13834764 -0.01965944  0.08147006  0.1158853  -0.1360602
  0.21704592 -0.27526897  0.12138846  0.00891953  0.07647695 -0.30186903
  0.14797752 -0.29696938 -0.19048625 -0.05939854]
[-0.17905127  0.2562545   0.00584411  0.20761862  0.08597091 -0.16442476
  0.02135879 -0.04445269  0.099237   -0.09352548 -0.11768608 -0.067688
 -0.27259848 -0.3134304   0.15616482  0.13143897  0.00264535  0.01841516
  0.39496124 -0.08229418 -0.08210144 -0.18570001 -0.01038898  0.26659077
 -0.01412773 -0.1462242  -0.10952523  0.08564574  0.13309774 -0.02582061
 -0.14965779 -0.15541698 -0.05318432  0.01562591 -0.15512854  0.370138
  0.09132386  0.04122254  0.01435406 -0.08972181]
[ 0.21027581  0.24870208  0.11446857 -0.27775624  0.10965912  0.15645434
 -0.26100466 -0.05286162  0.14044917 -0.04624331 -0.3404222   0.05082128
 -0.40338096  0.11606475  0.06045531  0.22016571 -0.04801848  0.02331166
 -0.1369324   0.11524079 -0.0549577   0.01917944  0.00423708  0.20942006
 -0.02707658 -0.15672189  0.0163523   0.09236798  0.12155002 -0.10471033
 -0.23508513 -0.26545087  0.01850914 -0.03396313 -0.18938246  0.11434909
 -0.02645488 -0.189856   -0.14963382 -0.07117429]
[-0.33344936 -0.24673252 -0.08633995  0.1689373  -0.17335352  0.00197036
  0.11791058  0.09275326  0.28789887 -0.06994373 -0.12922604  0.13151805
 -0.15807652 -0.1766391  -0.2643526  -0.21246669  0.37413794  0.01723854
  0.18616906 -0.15446806 -0.06851804  0.12550342 -0.1297619  -0.12211341
  0.04311679 -0.18745908  0.05987192  0.07590967 -0.08916105  0.05054336
  0.01059231 -0.3179011   0.13138862 -0.05205796 -0.10827015 -0.07577199
  0.14123476 -0.16247587  0.44862962  0.26617742]
[ 0.02572331  0.19169597 -0.02617506 -0.24802473 -0.07353394 -0.02476878
  0.10600219 -0.19345815  0.1071398  -0.008751    0.04337031 -0.09134231
 -0.08607604  0.05252459  0.12192862 -0.25339383 -0.4647864   0.18132327
  0.22757746 -0.10632756  0.13989772 -0.00093112  0.00178194  0.00308073
  0.05450328 -0.18923801 -0.06114506 -0.22224298  0.0477072  -0.12865898
  0.1786953  -0.1612625  -0.19591549 -0.1569946   0.08901265 -0.03333414
 -0.14441735  0.13547087  0.16297714 -0.06778618]
[ 0.14056198 -0.22545475 -0.05682205  0.3352867  -0.06301619 -0.13949563
 -0.27383795  0.23311642  0.10960758 -0.2540569   0.20187075  0.03368654
 -0.03877831 -0.17497812  0.34831166  0.03318296  0.19699287  0.2624886
  0.27309328  0.00573286  0.11433236 -0.12868558  0.24159943 -0.03088143
  0.0676282  -0.10049904  0.0376769   0.15938686 -0.07333184 -0.0171373
 -0.07356563  0.24576159 -0.03013243  0.19531098  0.23704006 -0.5366706
 -0.0808892   0.3138086  -0.02512958  0.22868568]
[ 0.30743033 -0.15674077  0.06518444  0.05128451  0.09065304 -0.03686185
 -0.345926   -0.0768025  -0.06514344 -0.1971607   0.3380909   0.20335223
  0.11316696  0.28728202  0.15195836 -0.17753692 -0.11660936 -0.12463968
  0.25522843 -0.31035534  0.3587538   0.27897832 -0.34129283  0.08591451
 -0.15466405  0.05443386 -0.23001917  0.09001483  0.2811199   0.05582596
  0.23241296 -0.21043587  0.06004337  0.06457299  0.20266628 -0.31398046
  0.21904811  0.1725721  -0.3051881  -0.20976253]
[-0.14695194 -0.20273149  0.04421829  0.02405228  0.18827404  0.2177708
 -0.25145626  0.23236004  0.21580948  0.0120244   0.25544763 -0.04286529
  0.16060303  0.11227103  0.17378157 -0.08848331  0.15257223  0.17189547
  0.14011903  0.0832459   0.03200397  0.17613736 -0.11486609 -0.31898433
 -0.26830778  0.27659148  0.25154275 -0.220753   -0.12305279 -0.02959079
  0.36527488 -0.22573249 -0.11743408 -0.10812506 -0.26125166 -0.406602
  0.17678635 -0.2120688  -0.02931841 -0.10796776]
[-0.08465368 -0.25062072  0.11415826  0.24485321 -0.01472875  0.10088211
  0.30192876  0.32780054  0.20120034 -0.03824215 -0.14570661 -0.04166066
 -0.15991566  0.0606329   0.21760543 -0.23740092  0.2391438   0.09586845
  0.01271852 -0.23287088 -0.186837    0.12369353  0.05044838 -0.3414829
 -0.08711775 -0.2853075   0.05144574 -0.14039303  0.10943722  0.16504629
 -0.39421043  0.22147931  0.06540418 -0.00616829 -0.21500239 -0.23558287
  0.06232699  0.11309704 -0.05452452  0.08772969]
[ 0.06892779 -0.1235831   0.13026144  0.1351401  -0.02440724  0.17543681
  0.24146952 -0.0406396  -0.04268549  0.11085843 -0.13510227 -0.01091281
 -0.13962218  0.24076608  0.16902737  0.08139139 -0.16846374  0.12870294
 -0.19552791  0.19812587 -0.04868116 -0.12536052  0.01253161  0.15574561
  0.02563504 -0.12908545 -0.00659057 -0.2778205   0.08663088  0.11506718
  0.11778645  0.08739717 -0.04260132 -0.21140058  0.20007846  0.16368307
  0.2675549   0.15399134  0.28879017 -0.26564404]
[-0.23912497  0.28987074 -0.07892755 -0.26825234  0.3532547  -0.278668
 -0.12525392 -0.09108914  0.23719488 -0.24131742  0.30408132 -0.19509463
  0.18705574 -0.28811938 -0.07996953 -0.18252863 -0.11544131 -0.08780214
  0.02777641 -0.36754286 -0.18983856 -0.10207748 -0.00388923 -0.17736441
 -0.4412013   0.18794596 -0.32586953  0.09097334  0.13463207  0.26139143
  0.33892885 -0.10237846  0.20841232  0.14475465 -0.01498806 -0.2428363
  0.0169498   0.45508876  0.2754738  -0.2160267 ]
[-1.1079556e-01  3.1788293e-01 -8.7852113e-02 -1.1432229e-01
 -8.4361605e-02  7.4880995e-02 -1.5124962e-01  3.7693912e-01
  1.0564946e-01  1.9353929e-01 -3.3976410e-02  1.0440886e-02
  2.0349906e-01  1.6562361e-01 -6.7819364e-02 -4.2271093e-01
  5.7742428e-02 -9.0805352e-02  1.6142690e-01  1.4963375e-01
 -3.1774983e-01 -3.8397990e-02 -1.7520659e-01 -9.4437838e-02
  1.5013957e-01 -1.9558378e-02  3.5904282e-01  2.8178871e-01
 -2.4629287e-02  1.4454318e-02 -2.7432358e-01 -1.7836340e-01
  2.6644072e-01  2.8610739e-01  4.2046506e-02 -1.3563216e-01
 -4.5021262e-02 -7.5560412e-05 -1.0589276e-01  3.7452006e-01]
[-0.0708971   0.0341547  -0.07864276  0.07724161 -0.04431086 -0.01164776
  0.03620399  0.01075628  0.15448707  0.12025658 -0.03591173 -0.19119206
 -0.04387927 -0.11489915  0.10386214 -0.05631956 -0.08475944 -0.04710632
  0.13152146  0.12879792 -0.07606303  0.06852695  0.0700601   0.12479863
 -0.06496877 -0.02112388 -0.05886197  0.06350851 -0.03543612  0.01215395
 -0.07937419  0.02836965  0.12814496  0.08931779  0.00905804  0.09693634
 -0.07211671  0.13644859  0.21770157  0.03594264]
layer 3 Activation
tanh
layer 4 Dense
40 20
[-0.19295847  0.1333199  -0.31989247  0.07519075  0.18976562 -0.14501859
  0.18841565 -0.21454147 -0.26021567 -0.09399506  0.2539818  -0.03250801
 -0.15448344  0.25507125  0.26489946  0.04092253 -0.01985245 -0.3225778
 -0.10063378  0.16298017]
[-0.27201885  0.24330282  0.00765862  0.01865988 -0.07487779 -0.08811265
 -0.28397372  0.23532441  0.13911211 -0.12381911 -0.06727421  0.3345438
  0.02821037  0.04343147  0.28735965 -0.2776193   0.180142   -0.290201
 -0.10524003 -0.18297304]
[-0.12353422  0.02361901  0.35025764 -0.05699278 -0.14338905 -0.04098872
 -0.40700635 -0.15624124  0.31148517  0.16628617  0.40556857 -0.2093537
 -0.22921607 -0.1432605   0.29797068  0.00135081 -0.06112627  0.16035424
  0.01075413  0.08950765]
[-0.13655667  0.11376313  0.31341133 -0.2158198   0.22694227  0.08090383
 -0.5022546   0.38375297  0.00832207 -0.27768123 -0.20150414  0.07642955
  0.1729032   0.12451521  0.14235124  0.15158378 -0.01254269  0.20278136
  0.0726089  -0.21447706]
[-0.08314167  0.1191637  -0.39398915 -0.0977963  -0.29031336 -0.10209081
  0.03325639  0.13624983 -0.07106023  0.02054161 -0.36084992  0.23077796
 -0.28820223  0.2652674  -0.07745384  0.00582655 -0.01566612  0.27645048
 -0.27884176 -0.12925391]
[ 0.13346599 -0.08304445 -0.19211607  0.33926016 -0.14883918 -0.16660556
 -0.14031084 -0.17372079  0.13883771  0.24078903 -0.09251615  0.07952452
 -0.25568062 -0.08077788 -0.00113823  0.3258679  -0.0013894   0.32906044
  0.06036317  0.18480477]
[-0.10205586 -0.26690966 -0.2358361   0.08896219  0.2736725   0.3002328
  0.16918322  0.04507086  0.20592628 -0.28474963  0.11446006  0.00959345
  0.28758484 -0.09587798 -0.15064768 -0.20597991 -0.14097342 -0.23763692
  0.11362982  0.07990269]
[-0.2305411   0.08608793  0.32417232 -0.07332054  0.28820705  0.17605957
 -0.19999906  0.28443184  0.08388921 -0.37613967 -0.11784533 -0.17724861
 -0.33828562  0.13044381  0.18074338 -0.2512478   0.14506358  0.38998908
 -0.14839631 -0.25681657]
[-0.08644401  0.19261296 -0.19770657  0.08640043 -0.14773284  0.05287407
 -0.03183643  0.35641572  0.05067894  0.00947414  0.1744165  -0.09356844
  0.2540881   0.1697864   0.00634651  0.06437431  0.06535695  0.12936997
  0.24455999 -0.18274271]
[-0.21828738  0.02036212 -0.13167207  0.27451593 -0.10665077 -0.17735124
  0.01581797  0.14729379  0.26983196 -0.15553561  0.09107435  0.10200109
  0.09450176 -0.19214185 -0.2074245  -0.29314128  0.09197421  0.01155925
 -0.00394777  0.2297518 ]
[ 0.20404504 -0.08024053  0.03479687 -0.30101386 -0.32599825  0.006325
 -0.18794829 -0.06008832 -0.06405801  0.36192855  0.00980122 -0.23700579
  0.19442165  0.20100702  0.08420458 -0.25914484 -0.22296642  0.159676
 -0.09007121 -0.3405936 ]
[-0.24385464  0.17332137  0.11499324 -0.24292442 -0.22040837 -0.25904182
  0.13944764  0.0572473   0.19982809 -0.00886463 -0.07128539  0.23681232
 -0.37274677 -0.22119606 -0.03263637 -0.12454985 -0.04836113 -0.04972072
 -0.14660208  0.08611099]
[-0.15689172  0.03351825  0.04023068 -0.34014723 -0.12772045 -0.30111596
  0.12946138  0.20674808 -0.15226357  0.274357   -0.09894889  0.21726994
 -0.01141863 -0.13062748 -0.18752256 -0.25108805 -0.36835557  0.29357627
 -0.03542851 -0.17766751]
[-0.25494638 -0.09290513 -0.01237084 -0.02978057 -0.15326406  0.13806778
  0.23124133 -0.40404376 -0.06419634 -0.12781513 -0.1971431  -0.12052199
 -0.22529909 -0.13687302 -0.18790749  0.06024507  0.17508917 -0.02519079
 -0.32251745  0.07065623]
[-0.00729551  0.17469391 -0.0607015   0.07338582 -0.00737     0.0479681
  0.11569584  0.27326533  0.02016692 -0.00305664  0.13327469  0.09239785
 -0.16246688 -0.17158455 -0.19857618 -0.05492758  0.03904304 -0.13798113
 -0.17894007 -0.27841708]
[-0.18902251  0.09811197 -0.18540965  0.0070584   0.16411525  0.24612424
 -0.01659266 -0.32250097  0.3213916  -0.24478312 -0.30233586 -0.05472007
 -0.1044617  -0.05523463  0.19592781 -0.23865066 -0.1851681   0.111678
 -0.3572024   0.05623296]
[-0.24760902  0.27692652 -0.11248846 -0.08430086 -0.07378127  0.06378682
 -0.02237162 -0.11648908 -0.12842618 -0.05686174  0.04135245  0.07354127
  0.5006463  -0.24723983 -0.28414816  0.20747283  0.20882331  0.15714706
 -0.02284429  0.09396165]
[-0.26622048 -0.19221088  0.19235677 -0.13920861 -0.04604255  0.11104869
 -0.35951284 -0.08740526  0.2516578   0.20600936  0.27803248 -0.09881669
 -0.08446985 -0.18529122  0.19686702 -0.19192177  0.14407045 -0.0108431
 -0.01955637  0.10241504]
[ 8.42385516e-02  7.33578354e-02  2.81306915e-04 -1.18976422e-01
  1.06636174e-01  7.77903870e-02 -2.75969040e-02  3.44710261e-01
  2.10844263e-01  1.73147187e-01  1.79143697e-01  2.53353000e-01
  1.95950851e-01  2.35679507e-01 -2.82603770e-01 -4.14429307e-02
 -2.55956709e-01 -1.29034161e-03  9.50052962e-02 -3.13051879e-01]
[ 0.24834435 -0.17193474 -0.28042334  0.34447092  0.04984749 -0.27183586
 -0.24219033  0.00146566  0.29478115  0.27684593 -0.04611026 -0.03369259
  0.28983343 -0.26767665 -0.16009632  0.19835873  0.33733517 -0.28749552
  0.31610024  0.06820025]
[-0.00408661 -0.23297551  0.22415112  0.183386    0.21614653 -0.15985157
 -0.07366964 -0.18023379 -0.19353947  0.30222225 -0.01903871 -0.2654394
 -0.33322597 -0.04931921  0.00927976  0.1056876   0.14112414  0.10761108
 -0.37756538  0.23000555]
[ 0.015378   -0.06436533  0.13865294 -0.13596126 -0.1837956   0.15616818
  0.20821436  0.12942314 -0.16881672  0.02668359  0.12577648  0.03528517
 -0.03806259 -0.10427786 -0.07413916  0.32934546  0.15422033 -0.21487775
 -0.20778827 -0.08566917]
[ 0.05591138  0.03966834  0.3486644   0.08364068 -0.24919823 -0.00625774
 -0.11601958  0.00898916 -0.15930866  0.1069611  -0.02217752 -0.08310811
  0.27598783 -0.2597944  -0.0488253   0.20064245 -0.05313776 -0.25727952
  0.21919182  0.20118186]
[-0.03979674  0.19820198 -0.29814228 -0.00742628 -0.09229864  0.25355107
  0.18613864  0.24077883  0.16434883 -0.30602813  0.03026724  0.23734763
 -0.3765717   0.23023728  0.11010582  0.04512319 -0.36337912  0.02519766
  0.01347343 -0.44013694]
[ 0.23463212 -0.18498707 -0.27898288  0.08991742  0.30093616 -0.05622879
 -0.05824112  0.2761308   0.05045987 -0.06095325  0.18706225  0.05105771
 -0.26573053  0.2160657   0.01302024 -0.16764475  0.28717798  0.21542495
  0.15293592  0.15827973]
[ 0.2869846  -0.15556349  0.00878741  0.00169187  0.04916519 -0.36421755
 -0.12074847 -0.28846744  0.14056258  0.1324813   0.09541598  0.14478382
 -0.37755725  0.22435829 -0.04780517 -0.02464092  0.2083688  -0.21570386
 -0.21921691  0.01393521]
[ 0.1368895  -0.1625194  -0.0734568  -0.22503397  0.05889716 -0.34655505
  0.00315271  0.24701516  0.11065263 -0.10830909  0.16988897  0.13837908
 -0.30367094  0.21259457 -0.12561837  0.2297906  -0.05750569 -0.29660904
  0.09324268  0.06771895]
[ 0.08733828  0.03381463  0.10566427 -0.14727329 -0.18897553  0.0280249
 -0.09925906  0.07988244  0.11202037 -0.01127305 -0.2962476   0.27448356
 -0.23074418 -0.02934329 -0.16909009 -0.10093427  0.28748426  0.15459158
  0.22854322 -0.16063993]
[ 0.1744546  -0.15744163  0.1250585  -0.0421225  -0.10258563 -0.11011982
  0.46805727 -0.10258511 -0.28717    -0.33605832 -0.14373289 -0.02122138
 -0.00542059  0.16016619 -0.24878377  0.05728675 -0.23714522 -0.25808898
 -0.129685   -0.02600433]
[-0.03746556 -0.24639273 -0.13484262 -0.2613848   0.18082538  0.08766659
  0.08442492  0.0097792   0.30749047  0.18366893 -0.19669951 -0.02837061
  0.13744624  0.06577021 -0.03762729 -0.30382377 -0.37150604 -0.13499634
  0.0925787   0.00217389]
[ 0.06135157  0.36906663 -0.23311013 -0.18787271 -0.2600981   0.06237426
  0.47137144  0.06093864  0.04120469  0.26381254  0.05845352 -0.14048861
 -0.3903227   0.2389969  -0.05512775 -0.04593664 -0.35645506 -0.15204357
 -0.3408752  -0.19453113]
[ 0.28430292  0.21182975  0.1123471  -0.20986241 -0.01289924 -0.20250762
  0.25819263  0.18308142  0.09889191 -0.10662384 -0.06837976  0.20653006
 -0.21857406 -0.01140522  0.11706197  0.33415315  0.08943798  0.01155387
  0.09639341  0.09063197]
[ 0.13236341  0.09036476 -0.3672247   0.15066428 -0.23776357  0.2614168
  0.12400287  0.2829393  -0.03870886 -0.23048352  0.15482453  0.16364944
  0.05797793  0.0488527  -0.19009528  0.13701601 -0.29320887  0.2933296
  0.01684675 -0.01479594]
[-0.3055733  -0.30498472  0.09864128 -0.08268863 -0.18719529  0.17329848
 -0.0908776   0.06521499  0.16310434  0.05017376 -0.14353743  0.0934277
 -0.1435476  -0.12554902 -0.05646297 -0.20816647 -0.23114085  0.16299553
  0.09001943  0.01731342]
[-0.15857996 -0.22171156 -0.10039505 -0.19907518 -0.03305932 -0.06288448
  0.33027855  0.02057117  0.23511654 -0.01260368  0.3096207   0.10645376
  0.20419309 -0.17378724 -0.10145343  0.2710244  -0.04071004 -0.20811537
 -0.2489568  -0.23369406]
[-0.08127785  0.04883101 -0.3119999   0.26290697 -0.20831716  0.3188454
 -0.01658199 -0.26086134 -0.07388809 -0.10541569  0.14591864  0.02492405
  0.37226918 -0.2122602   0.02795168 -0.24668036 -0.21611702  0.0361493
 -0.01787237 -0.33187374]
[-0.20892262 -0.19073154 -0.15345034 -0.06037803 -0.04189187  0.2644425
  0.31534675 -0.21614663 -0.04897329 -0.06534509  0.06473351 -0.27736434
  0.20241523  0.2070995   0.17182012 -0.02480815 -0.1192736  -0.16707626
 -0.06714712 -0.12433613]
[-0.1489667  -0.08178644 -0.05602555 -0.2544786   0.19720392  0.09199642
  0.07787765  0.28582397 -0.28324053 -0.02374659  0.23565191  0.25880483
 -0.13086602  0.11806821  0.1980342   0.11945756 -0.15723771  0.2424603
 -0.1186517  -0.21059364]
[-0.16835925 -0.19131938 -0.35191417  0.27315903  0.25275227  0.2819836
 -0.1018917   0.35269815  0.20282114  0.09380123 -0.04713634 -0.19600643
  0.22354533 -0.03928133 -0.26120737  0.2622417   0.0101958   0.19815765
 -0.22520304  0.13115288]
[ 0.33135477 -0.20747495  0.03380634 -0.01476325 -0.13760109 -0.17011875
 -0.14445731  0.10385166 -0.26381958 -0.1318495  -0.24637958 -0.05448142
 -0.16900584 -0.1328155   0.28417507 -0.29434454  0.00514623 -0.11534103
 -0.2279296  -0.23117703]
[-0.09470411  0.04471921  0.05804062  0.10861959 -0.0095924   0.11692328
 -0.0613244  -0.00385464  0.06099227  0.08824422  0.06698534  0.05493087
  0.2982636   0.07131154  0.04627291 -0.04595535  0.05051629 -0.0640263
 -0.00556406 -0.01851613]
layer 5 Activation
tanh
layer 6 Dense
20 1
[0.00531332]
[0.00602679]
[0.16583067]
[0.22620948]
[-0.02796713]
[0.03561966]
[0.02476821]
[-0.20979884]
[0.01448723]
[0.1317972]
[-0.01510009]
[0.10444473]
[0.23053151]
[0.13149941]
[0.0203059]
[-0.00058615]
[0.0176389]
[-0.03132364]
[-0.11281376]
[0.02644728]
[0.09824702]
