layers 7
layer 0 Dense
20 20
[-0.01707012  0.19591908  0.1389397  -0.04065325 -0.24054894  0.00639187
  0.01252041 -0.21854071 -0.0007407  -0.03190752  0.19636908 -0.10925441
 -0.20584773 -0.24581195  0.13333455  0.04198425  0.04861515  0.27895808
 -0.11259359  0.24960013]
[-0.01942912  0.23864526 -0.49369034 -0.1045027  -0.54954416  0.13720535
  0.12061568  0.5910942  -0.00126875 -0.3301841  -0.19250646  0.16032946
  0.1873614   0.7736927   0.06729703 -0.02363044 -0.00851775 -0.29912427
  0.11342072  0.24237686]
[ 0.24892826 -0.34753826 -0.3346559  -0.03336966 -0.5603275  -0.04314552
  0.05292064 -0.05105903 -0.10700303 -0.292792    0.32801992 -0.41545904
  0.01019003  0.748037   -0.5747996   0.5902275  -0.20764826  0.04840276
  0.18649104 -0.10864141]
[-0.2918759   0.16194423  0.29015607 -0.4138489  -0.02038196  0.4178075
 -0.2581082  -0.18984021 -0.3637392  -0.2878392   0.22468159  0.28764424
  0.02910914 -0.19667658  0.13185574  0.07207209 -0.35046685  0.05229128
 -0.19502158 -0.22907926]
[-0.3958569   0.48755178 -0.13441919  0.46748862  0.00556551 -0.3388996
 -0.11130178  0.3026404  -0.07814077 -0.14947022 -0.2717941  -0.03566562
 -0.0665957  -0.10720979  0.13658923 -0.09818763 -0.2409567  -0.09585708
  0.37530342 -0.08260297]
[-0.13336633  0.13416517  0.275712   -0.48527282  0.17988285  0.2274087
  0.4227031   0.08697993 -0.4413402  -0.3840976   0.08527585  0.04102089
 -0.19828238 -0.39456332 -0.14578265 -0.02186506  0.39457995  0.21019511
 -0.32688886  0.02368027]
[-0.09874289 -0.39373967  0.22390252  0.10155711  0.13666348 -0.13562599
  0.26770484 -0.1298549  -0.29788667 -0.43324235 -0.11702933 -0.08675972
 -0.11464599 -0.23359475  0.31633058 -0.22314876  0.41505125  0.34082603
 -0.2568967   0.14852992]
[ 0.26382643 -0.23040357 -0.22500814 -0.3234396   0.00282156 -0.15254979
  0.05980335 -0.4215522  -0.19392681 -0.32429212  0.09971774 -0.14275116
  0.09342702  0.08894448 -0.26870903 -0.14414586 -0.23837163 -0.0042369
 -0.20123169  0.07559876]
[ 8.75658989e-02  9.55966711e-02  1.21730082e-01 -4.36958641e-01
 -4.89430815e-01  2.36674219e-01 -3.18171561e-01 -2.82495618e-01
 -2.46438414e-01 -2.48925850e-01 -2.83980630e-02 -3.79795432e-01
  1.00227244e-01  3.13943834e-04  2.03316301e-01  5.36291301e-01
 -1.67940359e-03 -1.07790798e-01  1.30303830e-01 -1.12544045e-01]
[-0.4296834  -0.17421466 -0.417999   -0.18388776  0.2215049  -0.17021972
 -0.0969295  -0.80610484 -0.40826306  0.4735877  -0.49055758 -0.9082706
 -0.42729363 -0.4866997   0.24825388  0.2973929  -0.23760062  0.39135408
 -0.56423116  0.8002618 ]
[ 0.27283162 -0.48527458  0.33519098  0.44315028  0.38624573  0.85847235
 -0.21747999  0.41827062  0.1108686  -0.1237774   0.4739846   0.07406578
  0.44847807 -0.7636462  -0.6081639  -0.4255651  -0.1965485  -0.13676517
 -0.44569907 -0.2548678 ]
[ 0.34436294  0.27796224  0.41071758 -0.5778493   0.47930917  0.7745425
  0.45218718 -0.50128317 -0.37883094 -0.04088078  0.11604794  0.63813424
 -0.2091484  -0.09393509  0.22289339  0.01335446  0.15968893 -0.5617578
 -0.33828112 -0.39855868]
[-0.35158262 -0.05755087  0.3110918   0.32275742  0.11252557  0.09515668
 -0.01999125  0.31304926  0.10758027  0.6544503   0.04864117 -0.19386035
  0.35672268  0.10641731  0.33133385 -0.38922873  0.44288358 -0.2615507
  0.27436805  0.4448545 ]
[ 0.34318694  0.13908628 -0.18979369  0.09363997  0.12890658  0.09487556
 -0.08711044 -0.10639935  0.00413843 -0.30998302 -0.13964741  0.48422924
  0.04920338  0.44695958 -0.02662781 -0.4191496   0.3544133  -0.31078747
  0.3384668  -0.2674923 ]
[-0.21523647  0.32561812 -0.08070602 -0.4101812  -0.09672618 -0.06447567
  0.35371813 -0.01863496 -0.0311133  -0.23611572 -0.04410456  0.27127758
 -0.30735892 -0.01626141  0.4608789   0.23672344 -0.35121173 -0.11374064
  0.154454   -0.43109342]
[ 0.19722593 -0.21666853 -0.38558203  0.17764857 -0.10155351 -0.2672524
  0.13219744  0.7863639   0.15183833 -0.17594767 -0.22649302 -0.5753245
  0.12425931  0.33225808 -0.16184005  0.21004601 -0.35050896  0.7042817
 -0.23837179  0.3881917 ]
[-0.27642378 -0.15094733  0.15619005  0.11845651  0.26153874  0.26955426
 -0.20141743  0.12666291  0.49022982 -0.49689463  0.08862007 -0.02849094
  0.11761943  0.12877268  0.0623145  -0.14847575 -0.37642375  0.31910467
  0.51327556  0.3693182 ]
[ 0.13832745  0.44372866  0.26001495 -0.10818025 -0.29035372  0.33237234
 -0.28170085  0.24766536  0.42190555 -0.16031064  0.14338034  0.4935508
 -0.01400182  0.4597367   0.23018351 -0.12525758 -0.11464886 -0.3276339
  0.12368049  0.04276731]
[-0.2856577   0.07145925 -0.07791443 -0.31156537 -0.13756554  0.01557146
  0.12701091 -0.1785916   0.05824526  0.01896927 -0.00349698  0.04017467
 -0.40691578  0.09956943  0.34683436  0.22238003  0.16408698 -0.29886183
 -0.07257575  0.06578524]
[ 0.29088384 -0.34570548 -0.03917485  0.22914211 -0.06549638  0.14108002
 -0.4737105  -0.26303813 -0.21443912 -0.36718562 -0.14001845  0.14433232
 -0.28133443  0.4575512  -0.21851602  0.24713984  0.02908278 -0.01112002
 -0.43643743 -0.35483035]
[ 0.00967646 -0.08415724 -0.02907297 -0.04782966  0.05137423  0.07566738
 -0.0003676  -0.05715138 -0.03967594 -0.05014074  0.08977646 -0.06020539
 -0.00873112  0.01570934 -0.11614984 -0.14378123  0.03048478  0.06111571
  0.04487327 -0.0852723 ]
layer 1 Activation
tanh
layer 2 Dense
20 40
[-0.08371943  0.12917934  0.13290426 -0.2950014   0.10754909  0.16735649
  0.14302626 -0.18762782  0.0780682  -0.16922328 -0.04880659  0.37650114
  0.20192645  0.30376843 -0.07554778 -0.26350093  0.0342937  -0.01394462
 -0.17942837 -0.3065518   0.09785446  0.03692591  0.28598687 -0.04730489
 -0.08978367 -0.04673815  0.20351668  0.29863584  0.23299927 -0.28307334
  0.0545848  -0.18003277  0.18209845  0.07754076  0.3815032  -0.28660113
 -0.2743166   0.04936498  0.29893133  0.2528307 ]
[-0.14686604  0.1864287  -0.00734912 -0.03890756 -0.14439063 -0.14161791
  0.02620234  0.19595039 -0.15202427  0.01600798 -0.23296258 -0.06503376
 -0.03162937 -0.1636178  -0.31227902  0.2828378  -0.22408539 -0.1988493
  0.3637777  -0.15022571  0.10117804  0.32420042  0.21427245 -0.04909058
 -0.26152134  0.2896075   0.01050465 -0.0833971  -0.21206488  0.20997941
 -0.13991152  0.04361156 -0.13089266  0.12052178 -0.25439337  0.18928199
  0.1740642  -0.0407461  -0.35003984 -0.0503786 ]
[-0.01753607  0.3975473  -0.11230844  0.00540688 -0.29503784 -0.45677632
 -0.02537663 -0.30542248 -0.18582967  0.15327199 -0.04081371  0.0992164
 -0.27013183 -0.19305247  0.12090901  0.0646213  -0.0312177   0.26410538
 -0.21794835  0.05134474 -0.3119309  -0.29033598 -0.25107172 -0.16169281
  0.04513151 -0.02266304  0.2610306   0.13821511 -0.09197071 -0.14475282
 -0.06185297  0.09536465  0.116095   -0.26406282  0.08513958 -0.16013838
 -0.06479786  0.32478854 -0.21290594  0.29667288]
[-1.82041183e-01  2.06180230e-01 -1.62011400e-01 -2.86157131e-01
 -3.04843187e-01 -3.29396695e-01 -4.79383096e-02 -3.43603045e-02
  4.68087733e-01  1.01069361e-01 -4.92881089e-01  1.23608403e-01
 -7.51019120e-02 -3.13972682e-01 -2.63206717e-02 -1.46715313e-01
 -2.88561910e-01 -3.46807599e-01 -3.87989104e-01  2.66513407e-01
 -1.41636699e-01 -5.76063991e-02  3.45768064e-01 -2.02097014e-01
  1.14765234e-01  1.65429100e-01 -1.31417010e-02  3.57800514e-01
 -4.09014702e-01 -1.35636449e-01  1.21024646e-01 -3.11996564e-02
  4.46982354e-01  3.24036121e-01 -2.32513502e-01  2.23849714e-01
 -2.07942503e-04  1.99349210e-01  1.84290469e-01 -4.97628808e-01]
[-0.01654414 -0.29044428  0.1058936   0.02533181  0.0052188  -0.1509711
  0.04296684 -0.06548903  0.48233113 -0.04412094 -0.16102499  0.11830307
 -0.09630158 -0.03089692 -0.4265877   0.0692119   0.2587033  -0.39351037
  0.20398845 -0.17942871 -0.40406466 -0.00204694  0.1372246   0.29728094
  0.5796732  -0.17216206  0.10377614  0.07683761 -0.07466643 -0.11753602
  0.46170825  0.18174586  0.09031462  0.18002634  0.07652046 -0.41415378
 -0.03838511  0.19032171  0.12611541 -0.28052685]
[-0.1225799   0.23719664  0.2370235  -0.09491556 -0.02701781 -0.49247304
  0.0289953   0.02480801  0.3361611   0.35742202  0.12736991  0.07369316
 -0.07263715 -0.1886389   0.00883145 -0.13999793  0.16413143 -0.03683612
 -0.2497638  -0.00246657 -0.11621752  0.1062635  -0.24680042  0.14920323
  0.28855783  0.636313    0.323769    0.25145316 -0.01220428 -0.05385379
  0.18762319  0.268332   -0.02844653  0.1128094   0.22403845 -0.23230807
  0.13706987  0.47526613  0.28299743  0.21951713]
[ 0.27153012  0.11135156 -0.11271023  0.13357438  0.05406656 -0.04445837
  0.05177343  0.04572795 -0.33980182 -0.19497044 -0.20129016 -0.28155866
  0.2782422   0.25256497 -0.04241059 -0.19843349  0.2887121   0.20169012
 -0.2515513  -0.00123617 -0.18907778  0.15572992 -0.00657423 -0.01913633
  0.01292286 -0.17264222  0.00357393  0.33261245 -0.0744906   0.4277087
  0.07163246  0.4826229   0.25147098  0.03052803  0.0963655  -0.21170723
 -0.00095811  0.04703118 -0.20139055  0.2520938 ]
[ 0.06956041 -0.10677703  0.2465575  -0.25414065 -0.22994995 -0.517243
  0.14428498  0.24492987 -0.2392929   0.13905764 -0.452125    0.3130324
 -0.24012718 -0.43018302  0.32287845  0.17428185 -0.3208851   0.1545065
  0.31764877  0.09621841 -0.1843572   0.47487912  0.17287265 -0.19303405
  0.07356221 -0.02453195  0.40033695  0.39628482 -0.58923477  0.29862207
 -0.06112663 -0.42272612  0.37965816  0.18915874  0.09475274 -0.2126334
 -0.0113379   0.18635319  0.5110127   0.0396602 ]
[-0.193008   -0.14107166 -0.30822054 -0.20891973 -0.1677199  -0.37573314
  0.05572198 -0.09116906 -0.17228228  0.11780342 -0.25527185  0.12106494
  0.21239392 -0.14654063 -0.08413332 -0.2558709  -0.30031967  0.30589378
  0.09645858  0.20920709 -0.23915221 -0.05299624 -0.03264692 -0.32463884
 -0.15088563  0.17419004  0.09824461  0.3967836   0.0206196  -0.09467042
 -0.35567632  0.01022483  0.23078957  0.06780744  0.1051938  -0.14047888
  0.09361172 -0.14473416  0.10077109 -0.00979503]
[ 0.1964025   0.07838169 -0.29071116 -0.17444435  0.21805811  0.2568134
  0.25943342 -0.05231448 -0.1531041  -0.19464086  0.29301965 -0.3026107
 -0.10123089 -0.40554193  0.15379857  0.10717589  0.09759793 -0.52208203
 -0.15646659 -0.00057285  0.2383515   0.36304     0.20720537  0.43032908
  0.11478901 -0.11420187  0.11240634 -0.15475187  0.28008127  0.13673699
  0.26455835  0.27592316 -0.15467255  0.03851118  0.0568957   0.29439238
  0.15450576 -0.32134143  0.19863659 -0.11807659]
[ 0.1617324   0.31831405  0.0527977  -0.2021573   0.11877454  0.02196239
  0.29171893 -0.3298932  -0.27175713  0.05738782 -0.1486908  -0.09226917
  0.00642345  0.25338253 -0.18319474  0.1143398  -0.06195408  0.08931188
  0.05235402  0.14680052  0.00430863 -0.0476402   0.35878477 -0.17320225
 -0.0304513   0.18245713  0.17535996  0.0941664  -0.23458362 -0.17568786
 -0.00202183 -0.15866616 -0.02317087 -0.05388816  0.10356641  0.06173493
 -0.00438738  0.20859425  0.2653548   0.09806368]
[-0.3427427   0.27828488  0.06444853  0.25098974 -0.18888494 -0.37997046
  0.13348112 -0.1667605   0.3689824  -0.00824259 -0.17432113  0.3506839
  0.22314012  0.13805601  0.00993051 -0.01836659 -0.36657488  0.17265692
  0.38361365 -0.36337352 -0.1477177   0.0085717  -0.2050309  -0.15647143
  0.35037947  0.40346077  0.3244007   0.03699773 -0.05268625  0.49671808
  0.3761299   0.14231001 -0.03971013 -0.17137519  0.11866152  0.20001802
 -0.23527615  0.02289453 -0.2122637   0.1137314 ]
[-0.20208602  0.10479976  0.17829631  0.17330289  0.2302816  -0.43310377
  0.24336296 -0.04291653  0.04893134  0.04061167 -0.14156438  0.2951084
 -0.15594834 -0.22152714  0.28984565  0.01866464 -0.17021476  0.00450982
  0.04062558  0.10633874  0.07206931  0.00369579  0.26748538 -0.12932011
 -0.0017829  -0.01024325  0.15413976  0.00148152 -0.2690404  -0.3154516
  0.10000219 -0.1669881   0.16205117  0.00958301  0.33037856  0.10182142
  0.21213955  0.33513197  0.08349127 -0.36294574]
[-0.05129471  0.00149275  0.01667069 -0.27378604 -0.02735812 -0.02878624
 -0.23506746  0.301696   -0.25428846  0.30793178  0.09663281  0.02442167
  0.27629155  0.15085703  0.31005862 -0.21000461  0.07319745  0.30175605
  0.20163243  0.14373602 -0.15152897 -0.13024406  0.0969944  -0.42453623
 -0.45977852  0.23181647  0.28405485 -0.15870339 -0.31781724 -0.15466298
 -0.28823736 -0.00394694  0.26903906 -0.16323678 -0.14789169  0.00898035
 -0.1071591  -0.11116714  0.21957052  0.16634578]
[ 0.07290689  0.21557401 -0.00487893 -0.20549788  0.23077755 -0.18124987
  0.14552121  0.01296626 -0.17291859 -0.09275535 -0.12554817 -0.01928436
  0.30327272 -0.22430274 -0.03643826 -0.23942223  0.01014604  0.21343014
  0.37187853 -0.01062672  0.25877333 -0.06592614 -0.34707844 -0.04598412
 -0.05240699 -0.30011472 -0.23676321  0.1349515   0.38028526  0.23551819
 -0.21113306  0.16512495 -0.10683534 -0.03027697  0.05487     0.05345042
 -0.1160989   0.09794593 -0.38579857 -0.13291962]
[ 0.02461207 -0.3103279  -0.01987012 -0.35867473  0.06854858  0.08386466
  0.0431802   0.26310155 -0.5560427   0.00670551  0.49081042 -0.13940026
  0.17968664 -0.0976809  -0.09761319 -0.04866839 -0.01005688  0.38366777
 -0.16157198  0.13822651 -0.13140844  0.15648949 -0.13218096 -0.08491769
 -0.30762702  0.07820781 -0.331653   -0.10507031  0.11405035 -0.03730223
 -0.42443934  0.07680295 -0.27575326 -0.06693055 -0.08150731  0.26170528
  0.29270735 -0.09194842 -0.1599295   0.2541964 ]
[ 0.17560138  0.1136      0.12977815 -0.05497544  0.22153825 -0.1121192
 -0.21254884 -0.2430044  -0.21269277  0.26985753  0.08267538 -0.21873797
 -0.30262277 -0.19897825  0.24915704 -0.23497239  0.01592052 -0.19806285
 -0.14736156  0.06925099 -0.07858033  0.0470571   0.13466339 -0.07511448
 -0.2007499   0.39612356  0.16259304 -0.10908019  0.00133277  0.5027353
  0.12804267 -0.07924871 -0.00980252 -0.19008994  0.01290068  0.23226124
  0.05429807  0.22459234 -0.271857   -0.17185387]
[-0.09653508 -0.5388414  -0.04650018 -0.34208566  0.26283124  0.22698115
 -0.0868694   0.3039752  -0.237508   -0.25694755  0.0645721   0.29603523
 -0.1411563  -0.13911656  0.19197139 -0.09748346  0.12934382 -0.03913431
 -0.4252922   0.02599804  0.21749501 -0.16468182  0.43528026  0.30683365
  0.12322957 -0.7620876  -0.39384732  0.08065549 -0.47671148 -0.49616557
  0.14741717  0.05265753  0.25475466  0.08864355  0.08351401 -0.02334446
 -0.0382878  -0.30428138 -0.15997064 -0.09815796]
[-2.3553391e-01  1.5047340e-01 -1.9571641e-01  3.2288158e-01
  1.5630986e-01 -3.4864433e-02 -6.0377624e-02  2.4351047e-02
 -3.1791824e-01 -6.4635918e-02 -6.3692376e-02  1.5261748e-01
 -8.5437603e-02  8.5687764e-02  3.1845006e-01  3.7839496e-01
 -1.7820166e-01  1.6075806e-01  4.9093473e-01 -1.2174509e-01
  1.4602028e-01  2.0622692e-01 -2.2277091e-02 -7.6441400e-02
 -1.7169651e-01  5.9115428e-02  9.5176332e-02  3.6087590e-01
 -1.2996696e-01  2.9104155e-01 -1.7155272e-01 -2.6232219e-01
 -1.0241219e-04 -1.6532381e-01 -1.0133054e-01 -1.0119263e-01
 -2.7000448e-01 -1.2745140e-01  3.1344926e-01  1.6459927e-02]
[ 0.458707   -0.45469642 -0.06155634 -0.30884078  0.1684778  -0.07339834
  0.3179011   0.23680145  0.06854686 -0.17063683 -0.09326345 -0.33723697
 -0.08574703 -0.08178632 -0.31038973  0.04231494 -0.23515366 -0.13956076
 -0.03315328  0.27073976  0.21781442  0.12116419  0.07515529  0.09212826
 -0.03024179 -0.21034244 -0.04508927 -0.2498998  -0.0735552  -0.27520373
  0.15091965 -0.08473686  0.33209372  0.2851694  -0.2225305   0.16967137
 -0.14233442 -0.087094   -0.0300741  -0.13812377]
[-0.03322367  0.03069089 -0.00208453  0.01978508  0.02953205  0.04530474
 -0.06579757  0.01184592  0.06174603  0.0032203   0.04314687  0.00366423
 -0.01422424  0.06857329  0.05072672  0.0014338  -0.02209545 -0.03845537
 -0.02091966 -0.06110089 -0.01148408 -0.05779549  0.03859993  0.02471996
 -0.01768749 -0.01070183  0.00750402  0.00269059  0.00429643 -0.02295909
 -0.01773289 -0.04335936  0.0398483  -0.01226088 -0.00759005 -0.0146453
  0.02173158  0.01516146  0.06755768  0.02747443]
layer 3 Activation
tanh
layer 4 Dense
40 20
[ 0.20843221  0.01708916  0.2882687  -0.11818893  0.2298282  -0.3143671
 -0.38919958 -0.0287242   0.07539491  0.17677912 -0.14501171 -0.14035708
 -0.02966278 -0.13896096  0.21075915 -0.13437821  0.05866816 -0.23368861
  0.22299612 -0.19989574]
[-0.0900285   0.21874824 -0.19181666  0.2261885   0.10879998 -0.37364072
 -0.25496557  0.20822324  0.31320935  0.02397321  0.23569363  0.21648514
  0.07753786  0.32496834 -0.3098339   0.11788084  0.2312228  -0.06928343
 -0.02764293 -0.11872459]
[ 0.14731441 -0.02923254 -0.16144559 -0.10774925  0.2866713  -0.1788185
 -0.3106288  -0.10004709 -0.22009614  0.3288404   0.1785867   0.2568166
  0.04397889  0.05154141  0.02588563 -0.29683807 -0.18258975  0.057957
 -0.14672628 -0.18159193]
[ 0.17963316 -0.04372216  0.27624395 -0.0981259  -0.2742765   0.08079333
 -0.03026503  0.2117543  -0.16136307 -0.01194025 -0.09412401  0.20551172
  0.07800299 -0.06332234 -0.07572892  0.038846   -0.3213633  -0.01328019
  0.05155716 -0.289543  ]
[-0.10785898  0.03575059 -0.12268058 -0.22162126  0.30201268 -0.11426783
 -0.14565313 -0.19906728  0.19884641  0.16485134 -0.11995081 -0.04840945
  0.07086848  0.25106925  0.10150081 -0.0617802  -0.23260777  0.144051
  0.03788033 -0.08559509]
[ 0.20857391 -0.33563074  0.22681639 -0.08118974  0.16454627  0.2164569
  0.27584553  0.07874604  0.23144384 -0.12611723  0.21039219 -0.19885814
  0.25785762 -0.3286043   0.12269101  0.24556322  0.2273281   0.01274126
 -0.06216628 -0.03792335]
[-0.2663918  -0.19747494 -0.10182051 -0.09130333 -0.1633472  -0.1566965
 -0.17742895 -0.02887763 -0.0379865  -0.06986928 -0.30683547  0.17406176
 -0.22495383 -0.03162715 -0.14930546 -0.16430442  0.0435851  -0.33505094
  0.31143472 -0.05052092]
[-0.11922682 -0.06627087 -0.01130406 -0.15767182 -0.14548177  0.03001286
 -0.11258325 -0.06792014 -0.2271613   0.23061931 -0.36066803 -0.18215677
 -0.18646605  0.14240247  0.05571102  0.00788733  0.03576539  0.19242214
  0.21195033  0.00428332]
[ 0.18783005  0.34414804  0.10219395  0.11780709  0.07002063 -0.31241113
 -0.31031144  0.25995156 -0.2992911  -0.23112448  0.3768255   0.12476572
 -0.02913704 -0.24875493  0.14577542  0.17425989 -0.01829155 -0.07068368
 -0.28065345  0.46428874]
[-0.02635994 -0.09288307  0.07266478  0.30473602  0.08724172 -0.0762689
  0.25295916  0.10355679 -0.2242517  -0.34077325  0.14968961  0.09759142
 -0.09615545 -0.16217227 -0.09683145 -0.2947953  -0.16505577  0.11718885
  0.1076991  -0.20617388]
[ 0.1168364   0.19779894 -0.18723185 -0.16095063  0.29119784  0.14309248
  0.13147922 -0.02212801  0.2395386  -0.2806162  -0.12533306 -0.30408397
 -0.06288245 -0.06190836 -0.12079214 -0.10105138 -0.01822599  0.20468381
 -0.40133622  0.04433252]
[ 0.03841799 -0.11539941  0.05979215 -0.04103988 -0.10448492  0.24551094
  0.42887294 -0.06703325 -0.33600956  0.30060482  0.28802088  0.27893883
  0.22608526 -0.1129792  -0.1499688   0.23009694  0.0341711   0.15416597
  0.14801994  0.21776746]
[ 0.24316669 -0.15714061  0.16942132 -0.00463351 -0.15720758  0.13345699
  0.16505814 -0.1880631  -0.21285184  0.15035722  0.1079184  -0.10856842
 -0.1399005  -0.2763587  -0.2500128   0.14126408  0.27922562  0.21041498
  0.19223537 -0.17785402]
[ 0.2321075   0.14079154  0.05405558 -0.01094632 -0.09546264  0.22928938
  0.14933291 -0.01541337 -0.13740431  0.15741207  0.3098266  -0.25026068
 -0.2966012  -0.2026981  -0.086236   -0.02635226  0.12504613  0.01610439
  0.0004209  -0.09841454]
[-0.05020466  0.19787063 -0.25679708  0.13097656 -0.14145362  0.01638024
  0.06985576 -0.09891926 -0.27149257  0.27419338  0.20468095 -0.1218445
 -0.2850317  -0.26336697  0.11261515 -0.17677264 -0.28197816  0.3807946
  0.2049693   0.11574291]
[-0.06960253 -0.01962219 -0.14968725  0.01840591  0.12904961  0.34641308
  0.18079329  0.23714346  0.09550691 -0.04043407  0.06589836 -0.19144924
  0.0501698   0.08430655  0.06294147  0.32741955 -0.23126803 -0.30450514
  0.19142751 -0.38712838]
[ 0.17757706 -0.0589538  -0.02213746 -0.16239223  0.04520024  0.18084684
  0.13255227 -0.34634307  0.16457337  0.11292242  0.20695661 -0.29682708
  0.08046472 -0.17293498 -0.25603727 -0.04495251 -0.21345495  0.02119127
 -0.1052238   0.2163527 ]
[ 0.16955635  0.09724519 -0.39991534  0.17359525 -0.36606202  0.3297435
  0.36302605 -0.18480888  0.09229299  0.2881182  -0.17006749 -0.17953934
 -0.11994161 -0.30695918 -0.21204281 -0.22574805 -0.20917085  0.19055948
  0.31196415  0.06546777]
[-0.25442404  0.03775256  0.16374055  0.40842688 -0.09539065 -0.26659858
  0.21092667 -0.2724909  -0.01397039 -0.1788971  -0.2235811  -0.0494622
  0.19635355  0.11425318  0.00164219  0.0581957   0.18551844  0.27685672
  0.25669855 -0.18836924]
[-0.27703437 -0.03734307  0.16483332  0.05082447 -0.25316614 -0.07137664
 -0.35348132  0.16490886 -0.28175917  0.02483329 -0.11522358 -0.26642248
 -0.23978937 -0.24697836  0.18964797 -0.14208779  0.24343053 -0.04122023
  0.02203751 -0.19011809]
[ 0.13973348 -0.12015092  0.03025267 -0.20690952  0.3481696  -0.10449422
 -0.15118992  0.2057743   0.00389076  0.14552055 -0.4960579   0.01877319
  0.13305557  0.1395969  -0.04042928  0.23490116  0.14214319 -0.06216652
  0.10994102 -0.37193793]
[-0.2993583  -0.31083137 -0.35305497  0.26874822 -0.24434799 -0.18202169
 -0.00137677  0.04864143 -0.23857722 -0.2598434  -0.2665758   0.25025275
 -0.22328097 -0.03930675  0.21674037  0.27298722 -0.16420135 -0.2244407
  0.1293416  -0.13092223]
[ 0.22969224  0.15069672 -0.10248514 -0.0260368  -0.11977967  0.22776094
 -0.0712074  -0.22548735 -0.12159488  0.09312249  0.1256167   0.04734246
  0.00584877 -0.09990385  0.02347518 -0.18776453 -0.05154143  0.20230204
  0.20046167  0.4133525 ]
[-0.13786757  0.01227529 -0.0572406   0.06542638  0.41195253 -0.27866223
  0.00172983  0.28423545  0.3259548  -0.25806534 -0.17931408  0.02025994
 -0.13664366  0.09131087 -0.33720788  0.02925563  0.20668326 -0.40724128
  0.20399866  0.27097282]
[-0.25378582  0.03673153  0.07471906 -0.14136681 -0.22094223 -0.05339155
 -0.06801455 -0.1881688   0.2192968  -0.05673045  0.020716    0.14238648
 -0.1660075   0.35586813 -0.07071184  0.06108294 -0.14072701 -0.3500394
 -0.12986645  0.23950732]
[ 0.16870551 -0.1567521   0.12190764  0.2798025  -0.31090924 -0.10545371
 -0.07468362  0.16480859 -0.07756077 -0.1159697   0.01097697  0.35592887
  0.12928912  0.24303365 -0.40887278 -0.32808703 -0.36516368  0.2513128
 -0.2097874  -0.25653788]
[ 0.01889265 -0.1196215  -0.24708366  0.3776141  -0.03034285 -0.15941086
 -0.1751357  -0.17950158 -0.02878807 -0.24197544  0.07087568  0.27835047
  0.26362815  0.00697365  0.3079555  -0.2591499  -0.15518576 -0.04807914
 -0.07205013  0.16813727]
[-0.2783904   0.09035911 -0.18755879  0.13023438 -0.14092034  0.3908513
  0.26129717  0.1314022  -0.16892256  0.33024076  0.2727467   0.17306904
  0.10950278  0.1583979   0.23728538  0.0976678  -0.16790114 -0.02389198
  0.29216266 -0.32418743]
[-0.14988525  0.24785921  0.33618975 -0.28376237 -0.05329511 -0.39036605
  0.17826064  0.34721914  0.2660938  -0.37330246 -0.04908885  0.10967968
 -0.21732177  0.23219825 -0.3438113  -0.152677   -0.04283086  0.15189232
 -0.3800383  -0.19362813]
[-0.15046585  0.11854689 -0.25644198  0.318782   -0.15660489 -0.3123648
  0.1961572  -0.28560433  0.11966782 -0.03798877  0.17769746 -0.034341
  0.06492904  0.40253314 -0.20850004  0.26457816 -0.07265662 -0.15646592
  0.0016169  -0.43069497]
[ 4.2580999e-05  3.7425885e-01 -1.3767809e-01  1.4975193e-01
  2.6449969e-01 -2.8336936e-01  1.5943076e-03  2.9191932e-01
 -2.7681443e-01 -1.2259046e-01 -3.5546299e-02  1.6293931e-01
  2.7280999e-02 -1.3302184e-02  2.4825179e-03  3.4946412e-02
 -3.8354209e-01 -7.7813104e-02 -7.2980665e-02  3.5940060e-01]
[ 0.19190446  0.27669272 -0.03874774  0.09605588  0.03260528 -0.24753375
  0.04829377 -0.14349844  0.1247286  -0.09768031 -0.26858988  0.04423314
  0.24847773  0.18448798  0.11427019 -0.0159866   0.09007946 -0.24431287
 -0.18858117 -0.14015722]
[-0.09685861 -0.33575037 -0.33697927 -0.27764097 -0.2996491  -0.10978797
 -0.1257362  -0.22485268 -0.24148771 -0.17785493 -0.0687649   0.01226516
  0.2858483  -0.19614498  0.35656092  0.23986988 -0.07108828 -0.07259761
  0.0463863  -0.1523685 ]
[ 0.09184823  0.15674882  0.16478892 -0.14991127  0.04413966  0.18846925
  0.05742567 -0.14883178 -0.24338987 -0.16243666  0.14443274 -0.01518687
 -0.01209811 -0.2577639   0.17223553  0.11711898 -0.06012379 -0.22297086
  0.22175203  0.37486702]
[ 0.28724557  0.1080519  -0.21174248 -0.05207308  0.22018375  0.22061245
  0.02373918 -0.3753631  -0.10426994 -0.18973818  0.1624961   0.13646708
 -0.21539885 -0.14111876  0.17566773 -0.22481741 -0.20159437 -0.04246368
 -0.20716009  0.14584643]
[ 0.00821817 -0.24012846  0.15795985  0.08612954  0.03699779 -0.2478982
  0.05070226 -0.04132883 -0.17086966  0.24471854 -0.29330635 -0.30035648
 -0.19619201  0.2025518   0.04116625  0.01489278 -0.21787448  0.10060842
  0.0818954  -0.18776178]
[ 0.06498434  0.37240893 -0.07278196  0.02763048 -0.1264629  -0.19504917
 -0.18405609 -0.12038874  0.36215016 -0.01596973 -0.27325445 -0.08949309
  0.147348    0.14351249  0.04108243 -0.2744342  -0.0393387  -0.17188343
  0.1230604   0.29134884]
[ 0.00148031  0.19655532 -0.20181477 -0.15610203 -0.14210151  0.08726818
  0.21048503 -0.15850735  0.13441613 -0.19091442  0.33019584  0.35763583
  0.03636165  0.17030922 -0.21596538 -0.4172319  -0.24408229 -0.15915884
 -0.16138628 -0.17889628]
[ 0.23053126 -0.02974269 -0.01927324 -0.01208992 -0.28442344  0.305199
  0.03912134  0.03847167  0.17438807  0.35421813  0.293636   -0.13811557
 -0.10837315 -0.24348655 -0.00631009 -0.03204488  0.20262744 -0.19396044
  0.13329566  0.25728354]
[ 0.3902496  -0.2205056  -0.13327399  0.14668149 -0.31304216  0.11423706
  0.4170697  -0.2502436   0.1448416   0.00580502 -0.18782297 -0.0800823
  0.12738821 -0.03182099 -0.2552427  -0.15578544 -0.159646   -0.1478337
 -0.16292071 -0.10156576]
[ 0.03824673 -0.00615904 -0.03797745  0.00438778 -0.02621017 -0.04180913
  0.00771206  0.0475179  -0.0074878  -0.04142962  0.01432449 -0.00574527
 -0.00812911  0.11910851 -0.00046594 -0.00573728  0.00552865 -0.03814944
  0.05714388  0.01161641]
layer 5 Activation
tanh
layer 6 Dense
20 1
[-0.4100096]
[0.14912729]
[0.2684677]
[0.37839252]
[0.19023429]
[0.11176009]
[-0.144551]
[-0.22053722]
[0.15320402]
[0.12573533]
[-0.37576354]
[0.45174176]
[0.01450347]
[-0.34950942]
[-0.2693262]
[0.18303852]
[-0.21043877]
[-0.3098368]
[-0.24586265]
[-0.19704139]
[-0.01083544]
