layers 7
layer 0 Dense
20 20
[ 0.04404134 -0.3181705   0.11576865 -0.5260365  -0.19790605  0.27976036
 -0.92546725  0.27210018  0.08324911 -0.520873    0.00414161  0.00210927
  0.1635378  -0.21245846 -0.3496716   1.0687696  -0.40785974  0.35622016
 -0.21209109  0.38862357]
[-4.8844814e-01  9.4586217e-01  1.3686220e-01  8.7954557e-01
 -3.2725027e-01  4.1794416e-01 -8.4274478e-02 -3.7674698e-01
 -4.3754035e-01 -3.9871945e-04  8.4941089e-01  3.6988762e-01
  3.1550875e-01 -3.4834722e-01 -1.9656582e-01  7.6361465e-01
 -5.4319537e-01  8.6099732e-01 -1.4634547e-01 -3.8286254e-02]
[-0.38692307  0.38342518 -0.04495796  0.62974966 -0.4839353  -0.16960973
 -0.01209528 -0.08677743  0.00824044 -0.2875357   0.2585573   0.44087967
  0.11827839 -0.35453004 -0.298546    1.2462882  -0.8258913   0.27833262
 -0.20820026  0.11072036]
[ 0.30396667 -0.00637002 -0.16951123  0.11725067 -0.07583601  0.51704454
 -0.6835809   0.18071741 -0.03867927 -0.26166806 -0.76209366 -0.30409592
 -0.03380748 -0.37234655 -0.6976682   1.4952195  -0.03752607  0.36027005
 -0.6295594   0.15732434]
[ 0.23635073  0.56160986  0.26616824 -0.31233102  0.12099183 -0.08736597
 -0.5418518  -0.9716828  -0.06873298  0.26798236  0.20433503 -0.72822475
  0.57669324 -0.05294347 -0.8083794   0.40732095  0.7797979  -0.30457366
 -0.33806998 -0.6014623 ]
[-0.20798251 -0.864754    0.10172804 -0.8740179   0.3265446   0.06333908
  0.21197774  0.33541948  0.45776176  0.26058462 -0.96466196 -0.56061417
 -0.34826124  1.0482917   0.18685924  0.01942883  0.6854788  -0.40368745
 -0.2839406   0.15447994]
[ 0.05291613 -1.0694288  -0.14259852 -0.35589078  0.04129256 -0.38243905
  0.15572308  0.33634722  0.13956329 -0.00497546 -0.34487402 -0.17328066
 -0.09985825  0.5379534   0.10739167 -0.48501953  0.7008026  -0.38125074
 -0.4048048  -0.216738  ]
[ 0.4184022   0.12509552 -0.02270605  0.39207357  0.53452003 -0.03133715
  0.6852456   0.6746994  -0.37381208  0.5394574   0.17552309  0.95864516
 -0.89582723 -0.04951114  1.3055978  -1.3203402  -0.2666178  -0.49948224
  0.7160198   0.314972  ]
[-0.26252374 -1.2918708  -0.5613845  -0.691629    0.5883204  -0.50541586
 -0.8322865  -0.15435173 -1.4978696  -0.19458935  1.0894446   0.5916386
  0.7080471  -0.5679996   0.10549427 -1.0568607   0.9515937  -1.4091985
 -0.49784726 -0.5337411 ]
[ 0.34726456 -0.43067288  0.21643518  0.58339393  0.24116276  0.19097213
 -0.6780579  -0.5498666  -0.31226215  0.27246338  0.69197476  0.04493217
 -0.3747187  -0.05815341  0.09696296 -0.7755245  -0.42620552 -0.14912125
 -0.10490223 -0.04752896]
[ 0.55484027 -0.3589097   0.08673254 -0.30755562 -0.9190733  -0.12973858
 -0.27561638  0.1218373  -0.72214764 -0.78100085  0.03824144 -0.80622715
  0.1825554   0.17134005  0.4395637   0.03961898 -0.05723901  0.46491396
  0.03220939  0.2598938 ]
[ 0.23355496  0.9322142   0.449568    0.13843112 -0.78280383  0.46577686
 -1.6962674  -0.1718874   0.64326155  0.05839877  0.13478535 -0.37903818
 -1.8253816   0.7399627  -0.21259983  1.8870487  -0.26147392  0.78216743
 -0.3118035   0.47258994]
[ 0.24779126  0.24530047  0.5759955  -0.31911966 -0.46988732 -0.4495823
 -0.25492868 -0.24830715  0.4907199  -0.1801126   0.33554783 -0.4075792
 -0.10665033 -0.4170505  -0.43745518 -0.05612927  0.01183446  0.7664592
  0.5965882   0.46286097]
[-0.3256049  -0.26793817 -1.7070874   0.4197244  -1.4207233  -0.78811216
  0.97786516  0.55718285  1.8956988  -0.15187153  0.94200397  0.4860419
  0.64413685 -0.23666747 -1.1228708   0.6084206  -0.2834954   0.4164745
 -1.3295645  -0.23842093]
[ 1.1747326  -0.06116781  1.0892507  -1.3321751   0.02411847  0.16718674
  0.6624777   0.40876105  0.95362806  2.0760465   0.54506993  1.0910668
  0.23772879 -1.8109822  -0.8004346  -0.59007245 -0.47516507 -0.33521938
  0.12449899 -0.9698586 ]
[-1.4893857   1.4689949  -0.66872627  0.549094   -2.0642238  -0.9872036
  1.5500233   1.8412482  -0.18886653 -1.8745328   0.77968884 -0.25025803
  0.77253574 -4.1397314   1.3105768  -1.9739964   1.3764007   1.141013
  2.5563643   0.53631836]
[-0.19350488  0.66098803  0.61160004  0.48946235 -0.7420265   0.6011748
 -0.4761075  -1.0587274   0.62353027  0.11081871 -0.5066506  -0.23692362
 -0.6465687   0.60885984 -0.36613733  0.07339713 -0.72073203  0.76748306
  0.10659105  0.28876716]
[-0.43744463 -0.254964    1.276917   -1.0367924   1.3923506   1.3171502
 -0.02811149 -0.6040267  -0.74822134  0.26698205 -2.0146575  -0.45158565
 -0.6105899   0.34006667  0.42084086  1.0188143   0.7500686  -0.47888544
  1.0082734  -0.39847842]
[-3.6560214  -0.32692367 -1.5856625   1.4788156   0.5006032  -0.3234612
  0.13205054 -0.9691403   0.19623767 -1.3818828  -0.9238159   0.23033017
 -0.2910463   1.1493686  -0.61108613 -0.01610916  0.12137356 -0.374318
  0.34146196  1.5371679 ]
[ 1.6118672  -2.9398644  -1.3758913   0.26319933  2.0708282   0.40955535
  0.42190728  1.0258411   0.6309324   1.6181794  -0.96654046  2.9753172
  0.80984783  1.4997035   1.4205645  -1.5991846  -3.4626844  -1.1934376
 -1.8095251   0.4420997 ]
[-0.05727804 -0.16801322 -0.06992885 -0.18587229 -0.06330858  0.1298675
  0.10167627  0.04040593  0.16907237 -0.45303655 -0.2815344  -0.07515442
  0.08495803  0.05401442 -0.2572036   0.5276064  -0.00442636  0.11055069
 -0.18900572 -0.03389486]
layer 1 Activation
tanh
layer 2 Dense
20 40
[ 0.6257087   0.40462038  1.1229048  -0.23064458 -1.0225044   0.19753811
  0.8640868   0.74580324 -0.8120386   0.34134257 -0.786375   -0.07696034
  0.68600214 -0.04327659 -0.87184405 -0.40337366 -0.3676538   0.12276656
 -0.16864716 -0.9315434  -0.39086166  0.9826083  -0.43379515 -0.10142076
 -0.66861475 -0.81892663  1.1454346   0.01399974 -0.7004211   0.06677824
 -0.41006744  0.46221292  1.4330585  -0.00309776  0.01113595  0.01891957
  0.2357878  -0.65742916  1.6261703  -0.6413598 ]
[-0.42939046 -0.2967269   0.21122497 -0.02233869  0.7506597   0.09466829
 -0.517043    0.99723434 -0.5190894   0.23457085 -0.56542575  0.8740739
  0.22607131 -0.45997548  0.6093908  -0.69197136 -0.35563612  0.12393624
  1.0822501   0.38018382 -0.60893685 -0.22429477 -0.86720353  0.51239836
 -0.30264294  0.81054723 -0.31440488 -0.8228952  -0.36715066 -0.1317554
 -0.21219142  0.5729905  -0.7074941  -1.0660896   0.11833134 -0.6968139
  0.68467885  0.57227397 -0.7162595  -0.13255638]
[ 1.1764219   0.30501023  0.8587048  -0.32773703 -0.06514402  0.03270911
  0.28430146  0.19244765 -2.3810763  -0.2758014  -0.7856128   1.4838386
  0.03804925 -0.28634375 -0.4171604  -0.24377035  0.09452054 -0.83867043
 -0.05807856 -0.48997134 -0.31167218  0.539536   -0.639694    0.31751844
 -0.06950036 -0.43037573 -0.16686422  0.14376052 -0.8454908  -0.36020976
 -0.1725249   0.03413952  0.6401383  -0.22824116  0.16021617 -0.22591063
  0.3928186  -1.0147828   1.3045545  -0.24918398]
[-0.88101274 -0.40592334 -0.23005736  0.18566272 -0.8949005   0.19481589
 -0.4959452   0.36589536  0.83626187  0.7561314  -0.11980581 -0.42837965
 -0.70243686  0.18553233  0.48133355 -0.39516282 -0.34658736  1.1693816
  0.7639979   0.6078915   0.09546077  0.31291726  0.40761545 -0.5521074
  0.59695613  0.8758134   0.48923036 -0.7815111   1.0562726  -0.17542845
 -0.19574666  0.11285932  0.27121314 -0.19027662  0.06568643  0.20876509
 -0.09600192 -0.142345   -0.6912048  -0.36338654]
[ 0.69561356 -0.7137612   0.5915611   0.05855758 -0.6896522  -0.55652845
  0.3486009  -1.4648985   0.3260232  -0.52301353 -0.40686592  0.24457593
  0.14493935  0.29789874 -0.01615677  0.80543876  0.70744246  0.07156671
 -0.99691457  0.23597667  0.889428   -0.20208219  0.42840382 -0.43655494
  0.3364641  -0.12749478 -0.4845925   1.0570621   0.09261592  0.43097475
 -0.37265155 -1.209709    0.35100055  0.7152967   0.02973821  0.1096154
 -0.16254975 -0.01142287 -0.16489547 -0.04939771]
[ 0.15941155  0.2607738   0.1052117  -0.21436292  0.34820795 -0.10446324
  0.19296761 -0.01878829 -0.10771503 -0.23867649 -0.25024635  0.0989226
  0.18998444 -0.08688545  0.15172349  0.0084524   0.04495186 -0.7133375
 -0.5853137  -0.09160744 -0.03016834 -0.4185466  -0.3006687  -0.16145921
 -0.1719058  -0.37999508 -0.09964705  0.45471218 -0.23262766  0.34821022
 -0.26786134 -0.09472287  0.29872996  0.11560474 -0.01946678  0.05198767
  0.11688071 -0.16370885  0.41380394  0.5175739 ]
[-0.08424067 -0.19320863 -0.6665075   0.29109487 -0.2514229  -0.34197778
  0.06323162 -0.13612527  0.188859    0.71034366 -0.5857924   0.45524487
  0.40495175  0.12255207 -0.5610179   0.0702858   0.19040208  0.04583253
  0.3618283   0.79202676 -0.3617289   0.14805342 -0.43749717  0.40410337
  0.37702855  0.08370288 -0.21906406  1.0945256  -0.42142373 -0.36308977
 -0.2533551   0.3515669   0.24100728 -0.71762973  0.11919378 -0.7299208
  0.26880348 -0.29242012  0.13762502 -0.7365938 ]
[-0.24377254 -0.45224115 -0.8123079   0.17875692 -0.13199131  0.17339782
  0.25197965 -0.8024718   0.61680025  0.56093687 -0.7710739  -0.65712553
  0.7597516  -0.16728367  0.20616312 -0.8233617   0.5069002  -0.3816813
  0.74538785  0.14190347  0.11369278 -0.4157396   0.48140955  0.06389084
 -0.12533024 -0.442409   -0.2775543   0.801425   -0.18370834  0.12079626
 -0.02365891  0.20019561 -0.5599032  -0.5236952   0.00845769 -0.62145084
 -0.12010006  0.48225498  0.3480724   0.3128078 ]
[-0.69434226  0.38555568 -0.63314563 -0.07826145  0.88654304  0.00737597
  0.09628645  0.47390008  0.0311526  -0.06235111 -0.7368615  -0.37729064
  0.26305598  0.07701227 -0.03552949 -0.5953793  -0.12986463  0.22144029
  1.1084702   0.12380485  0.12341344  0.4757656   0.09021839 -0.64580595
 -0.2646708  -0.07001623  1.3493171   0.6061116   0.30774304  0.01792526
 -0.19237484  0.1984844  -0.04720433  0.534863   -0.15670152  0.1904928
 -0.05535901  0.31580323  0.6369808   0.10334166]
[ 0.47133598 -0.24699374  0.2750594  -0.0157021   0.19559926 -0.16355227
  0.08656457  0.1558059  -0.64888346 -0.501504   -0.8369161   0.40731344
  0.2048036   0.04675398 -0.05225351  0.03694374  0.41702098 -0.31614536
  0.69257945  0.04239845 -0.10010359  0.06922694  0.45979336 -0.9371871
 -0.20670578 -0.37900084  0.48467144  0.32882366  0.68176633  0.2001813
 -0.28140575 -0.08077463  0.29300046  0.28908244 -0.7469837  -0.08512238
 -0.23416154 -0.43203792  0.6883874  -0.00504416]
[-0.8093674  -0.27404255 -0.22481075 -0.3720324  -0.35985538  0.2553528
 -0.02751734  1.1749152  -0.678605    0.48508042  0.3979041  -1.4665525
  0.21154936  0.07080998  0.8076867   0.5424505  -0.03734642  0.9659475
  0.8371231   0.26637977 -0.7971887   0.7515028  -0.59465194  0.50245816
 -0.22355057  0.7152254   0.9344006  -0.41736776 -0.99473387 -0.85836023
 -0.28884825 -0.7361145  -0.01217517 -0.17381844 -0.10212252 -0.3649589
  0.54302573  0.31951603 -0.97794145 -0.1293742 ]
[-0.4921735  -0.59233654 -0.63659924  0.25527307 -0.26369086 -0.6187461
  0.2665608  -0.22517395  0.6334149   0.06237475 -0.31171155 -0.9051669
  0.8505492  -0.09963228  0.00370442 -0.12043356  0.7659246  -0.2789611
  0.5009383   0.50524074 -0.13740398 -0.12841119  0.25346363 -0.7066059
 -0.02132146 -0.31500527  0.28333864  0.64071363  0.0547855   0.35345358
  0.00845701 -0.8638706   0.26843566 -0.09138921 -0.5748851   0.03452945
  0.00915465 -0.14761901 -0.00773816  0.25951797]
[-1.0466363  -0.14059435 -0.5350519  -0.14350462 -0.15021174  0.12227162
  0.1987103  -0.16754545  0.8774522   0.1557543   0.39572406 -0.54236543
  0.2691732  -0.05198031 -0.9601019   0.35214686  0.11362648  0.09417949
  0.5038134   0.12683181  0.7853983   0.50769705 -0.4699274   0.18542282
 -0.04317835 -0.20299913  0.22103587  0.6164238  -0.02883497 -0.11360273
  0.08834469  0.17519462 -0.254015    0.11548828  0.30844134  0.17750023
 -0.05081967  0.2027904   0.24266148 -0.2012057 ]
[ 0.83598244 -0.3663255   1.1270199  -0.42887846 -0.02081305  0.29277253
  0.00716369 -0.41631788  0.7254369  -0.6807833   0.06557199  0.01916692
 -0.8794618  -0.23258726  0.73350775 -0.5815867  -0.6259971   0.35440844
 -0.8497457   0.02995744  0.18209663 -0.5849392   0.90963703 -1.1165266
 -0.0175785  -0.41083863  1.0698644  -0.8612581   1.5594783   0.10217442
 -0.7092969   1.1863347   0.04672131  1.1959313  -0.27139524  1.1520075
 -0.4064486   0.41062146 -0.26145908  0.28064826]
[ 1.057398   -0.5966614   0.24671932  0.77041197 -1.523657   -0.7528613
 -0.06280371 -0.904793    0.02441089  0.6605471   0.09409224  0.04514022
 -0.12145606  0.11575159 -0.39070097 -0.09397591  0.3822129   0.31630954
 -0.55499893  0.80389184 -0.06806535 -0.27883777 -0.00608241 -0.14060816
  0.05881385 -0.03967775  0.21391086  0.04199402 -0.7515595   0.32474014
  0.23950008  0.05351275  0.14496714 -0.01095219 -0.56658363  0.00517431
  0.01633865  0.08240096  0.0855781  -0.77444965]
[-0.11099965  2.33313     0.5505825  -1.2129226   1.8958273   1.5754364
  0.52687806 -0.23721407  0.2388946  -1.1637087  -0.5844393   0.2535268
 -0.46416807 -0.036166    0.5743718  -1.3290762  -1.1921107   0.47144964
  1.1052284  -1.8105965  -0.45702657  1.1665981  -0.82848966  0.15362301
 -0.90285975 -0.8312241  -0.3700259  -1.0813818  -0.7076613  -0.27243897
 -1.6081814   1.8194306  -0.22590017 -0.0085004   0.85616636  1.2827039
  0.86049265 -0.13084073  0.42570537  2.384961  ]
[ 0.03003103  0.16649072  0.36565    -0.02672659  0.2813997   0.54746425
 -0.3155378  -0.25797617 -0.20842242  0.20397367  0.5990171   0.09029739
  0.00529548 -0.13880302 -0.43073994  0.22787465  0.11118355 -0.4273537
  0.2717215  -0.66409135  0.05652622  0.07239415 -0.48303762  1.1524292
 -0.07706372  0.25388166 -1.5468389  -0.33346602 -0.7075363  -0.5396778
  0.1270385   0.547367   -0.35774088 -0.17240229  0.20955172 -0.7781881
  0.14636485 -0.00721183 -0.6718909  -0.02241135]
[-0.47756115  0.28627765 -0.4265076  -0.159962   -0.12495833 -0.21329963
 -0.29321447  0.3545592  -0.37172475  0.34011364  0.01888449  0.09507817
 -0.6963346  -0.04636932  0.21761796 -1.446803   -0.45751125 -0.502028
  0.51074123 -0.15505664  0.02889851 -0.22426738  0.06158416  0.05594632
 -0.13903047  0.34541208 -0.19513899 -0.5697168  -0.45478708 -0.10451663
 -0.58623075 -0.00514211 -0.12511025 -1.031276    0.14181623 -0.36026415
  0.15932494 -0.21459478  0.12303925  0.18459053]
[ 0.6900359   0.27228132  0.05570367  0.07747352 -0.33497944 -0.30724254
 -0.3542627  -0.3786319  -1.200374   -0.00330076 -0.04992355  1.0625281
 -0.05500481 -0.23626131  0.3186286  -0.01529873  0.11109372 -0.9450896
  0.2133017   0.06046832 -0.32141316 -0.58456576 -0.1985328   0.05135761
 -0.20246592  0.8201029  -1.2257289  -0.26825276 -0.21385916  0.18152773
 -0.34594652  0.09756967 -0.13758937 -0.51156133 -0.19622642 -0.3360205
  0.26380536 -0.2929535  -0.366446   -0.23950398]
[ 0.20401478 -0.10073274 -0.20679268  0.07123126 -0.21420474  0.0789623
 -0.25979766 -0.2444339  -0.03722035 -0.22842807  0.5204294  -0.48746872
 -0.09312366  0.06218923  0.43416384 -0.11434777  0.33677778 -0.29082894
  0.4549741   0.06562256 -0.17780185 -0.16485189  0.28514773 -0.03756094
 -0.0159035   0.58412665  0.37235758 -0.1997074   0.24041554 -0.12242673
 -0.04537797 -0.4034592  -0.25800538 -0.10239752 -0.1504321   0.33186927
  0.28244618  0.21333893 -0.2527696   0.65755737]
[-0.9978239   0.40187854 -0.0341331  -0.68205774  0.15853074  0.472013
  0.5304733  -0.7317814   0.5873719  -0.16088147  0.01093205 -0.2682371
 -0.11509258  0.29615533  0.10310519 -0.10048851 -0.14610717  0.54882944
 -0.6996931  -0.49658096  0.11711571  0.45013765 -0.6133645   0.37650257
 -0.1900403  -0.32513294 -0.873263    0.08734318 -0.7989071  -0.02493063
 -1.0001239   0.18257095 -0.28114438 -0.19094999  0.35870326  0.42201874
  0.27318874  0.0649469   0.2233488   0.5812329 ]
layer 3 Activation
tanh
layer 4 Dense
40 20
[-0.3812493   0.22635056  0.14934465  0.1765306  -0.14913628 -0.07401121
  0.06866001 -0.43845102  0.8210395  -0.2652996  -0.6331858   0.5604588
 -0.13810174 -0.20583753  0.19757642 -0.22773664  0.08773711  0.39174384
  0.14331445  0.21205287]
[ 0.03418674 -0.29434702  0.25726035 -0.2830581   0.5474766   0.1991822
 -0.75700134  0.6282998  -0.18264745 -0.17620343 -0.35382286  0.872978
  0.22132646  0.16290243  0.69178474 -0.8077879   0.5195597  -0.33921254
  0.65472937 -0.23605826]
[ 0.5034063   0.06020912  0.23953825 -0.12865554 -0.04313023  0.10828441
  0.43799904  0.0250442   0.09895726  0.31203422  0.05562592  0.05301274
  0.1608133   0.04194997  0.5657405  -0.7898974   0.33082002  0.7085644
  0.01817303  0.18799452]
[-0.22294201 -0.01990401 -0.00826719  0.06818532  0.20361343  0.0266504
  0.27820337 -0.27598262  0.03078241  0.10919536 -0.02439542 -0.02355033
 -0.45820415 -0.08697892 -0.6138642   0.28195262 -0.4825199   0.20748761
 -0.39465165 -0.07554445]
[-0.05400337  0.42603314 -0.17088048 -0.19330429 -0.0035742  -0.6734696
 -0.5883998  -0.790221   -0.6854986  -0.85092545 -0.56054837  0.44272783
  0.6269577   0.1708863   0.80544025 -0.59681046  0.3667981  -0.52093446
  0.27369913 -0.22538574]
[-0.15714781 -0.09442094 -0.01150702 -0.190505   -0.00416225 -0.07332487
 -0.2647746   0.3426062  -0.36048263 -0.4656901  -0.26449078  0.24804042
  0.46791703 -0.27229363  0.06947589 -0.38246414  0.34333378 -0.51632375
  0.2839151  -0.10353719]
[-0.34733322 -0.24915871 -0.10686519  0.18290189  0.04346858  0.30157372
 -0.36227617  0.34663224  0.83252424  0.15214865  0.19383381 -0.3223805
  0.391664    0.26156852  0.37806398 -0.17213123 -0.28253767  0.23779371
  0.2957517   0.2644639 ]
[-0.2683101   0.68192804 -0.00502626 -1.1518848   0.5777082  -0.44195288
 -0.293792    0.3717989   0.0338862  -0.66104275 -0.48103872  0.60782355
  0.03248082 -0.3186875  -0.00937986 -0.19552563  0.16324766 -0.19134761
 -0.0763045  -0.25477326]
[ 0.69502074 -0.02777265 -1.0146523   0.9801072  -0.3256658  -0.83978754
 -0.4497827   0.54285485 -0.69259524  0.16085579  0.4471333  -0.5730368
 -0.37854955  0.04493118 -0.9157446   0.2584276   0.06159877 -0.35890448
 -0.1255624   0.07453342]
[-0.24609214 -0.26961106 -0.15469512 -0.46407318  0.07283463 -0.17059563
  0.09644757  0.85214746  0.03964849  0.03753736 -0.16455995  0.0914086
 -0.73880464 -0.12943771 -0.8053734   0.24093159 -0.24887195 -0.11882408
 -0.58291024 -0.2517158 ]
[ 0.72647905  0.5697225  -0.525135    0.03010729  0.5542361  -0.20126167
 -0.06365971  0.00345614 -1.1303346  -0.040136    0.04100401 -0.18957901
 -0.31146842  0.20269951 -0.7064399   0.22205384  0.11832011 -0.3009862
  0.04338889 -0.19849096]
[-0.17022467  0.33743942  0.66539556 -0.01676119  0.13091701  0.30818355
  0.36831442 -0.21610057  0.27299598 -0.39816624 -0.5333121   0.02195727
  0.47894755  0.42037678  0.36238578 -0.65668017  0.21407486  0.5148163
  0.22186662  0.27728757]
[-0.9145509  -0.05904202  0.22319357 -1.2521616   0.2549646   0.43690127
 -0.28218853  0.50394106  0.30394977  0.17073183 -0.295579    0.01435568
 -0.4108428   0.09328088 -0.49535006  0.17562316 -0.36288142  0.05085772
  0.08543088 -0.1964498 ]
[-0.04363418  0.02465867 -0.25908437 -0.14282835 -0.23820885  0.22801872
  0.02869918  0.28542694  0.40058336 -0.04041429  0.1230277  -0.18945137
  0.29923987 -0.38903555 -0.2541747  -0.13961613 -0.21880518  0.13532397
 -0.38106188  0.1351975 ]
[ 0.21368442  0.15970913 -0.54150975  0.7150895  -0.3657517  -0.30240023
 -0.22985363 -0.3579314  -0.6315487  -0.42214918 -0.12050752 -0.52590275
  0.37272313 -0.05218711  0.63388664  0.14556023  0.25560492 -0.45863798
  0.10411178  0.17464985]
[ 0.5972345  -0.19009161  0.05539344 -0.44484833  0.06037825  0.65456575
  0.53571934  0.50267303 -0.21469104  0.2496632   0.4933726  -0.78501546
 -0.44099504  0.03347529 -0.48434582  1.0781481  -0.32222733  0.07126562
 -0.62666625 -0.09865477]
[-0.0074488  -0.3553372   0.12667254 -0.357782   -0.4076593   0.33509853
  0.28555143 -0.11748932  0.6255141   0.500176   -0.2281781  -0.5027081
 -0.16428612 -0.06205413 -0.44814828  0.87334657 -0.48358265  0.66003996
 -0.07452216  0.12037724]
[-0.08681252 -0.3316446  -0.91491175  0.6875143  -0.57522625 -0.37183246
 -0.09651238  1.1378655   0.02321627 -0.26057714  0.17219864 -0.59327525
  0.40444604 -0.21523476  0.13997436 -0.12827496 -0.07954232 -0.15966435
 -0.3016401  -0.19976187]
[-0.78771675  0.12817733  0.12960194 -0.03270987 -0.2675844  -0.9162626
 -0.30483007  0.6974385   0.47112405 -0.42626053 -0.76241505  0.28686687
  0.10681362 -0.25044113  0.3578353  -0.03491006  0.11817988 -0.21500657
 -0.08744529 -0.5139165 ]
[ 0.05348313  0.33513093 -0.17976801  0.19768699 -0.31562397 -0.09824332
  0.1338323   0.04367286 -0.4220003  -0.17278253  0.19866654 -0.4242092
 -0.46904665  0.11732088 -0.83270055  0.8186334  -0.22807065 -0.22453433
 -0.46576425  0.05801607]
[ 0.15867774  0.11328851  0.0330383   0.47022778 -0.89813924  0.01811116
  0.14635178 -0.6039741  -0.6824248   0.31333145  0.13089888 -0.26374426
 -0.09120975 -0.4220088  -0.08462942 -0.13280848 -0.14826345  0.45286024
  0.13650711 -0.21703093]
[-0.12952074 -0.7081716  -0.06492548 -0.7689554   0.2000056  -0.08684154
 -0.06435232  0.7347549   0.31967083  0.2512152   0.13145663  0.70246303
  0.6675139  -0.4548116  -0.17617737 -0.4618153  -0.02012688 -0.18270248
 -0.0457626  -0.238219  ]
[ 0.01856647  0.21479759 -0.17880766  0.5736075  -0.43145585 -0.3940978
  0.1879916  -0.94594055 -0.38296792  0.06147553  0.4671133  -0.27532434
 -0.18698838 -0.14584655 -0.01549618  0.07412799  0.06138374  0.02431466
 -0.08243445  0.02049597]
[ 0.19766669  0.00467698  0.00607731 -0.02996271  0.65615886  0.26363936
  0.08348399  0.42155913 -0.06147732 -0.00452174 -0.52517444  0.56149083
 -0.23869266  0.1250974  -0.48943785  0.11469156  0.12401699 -0.407593
 -0.277451   -0.07874016]
[ 0.21609165  0.14053968  0.1176992   0.0656155  -0.24027188  0.26657555
  0.33296442  0.15748706 -0.1737846  -0.24558051 -0.08508895 -0.03565137
  0.0773906  -0.32780334 -0.24515843  0.33203152 -0.6107517   0.38061708
 -0.47275546  0.17722967]
[ 0.6447332   0.6824769   0.48593116 -0.600639    0.03145608 -0.2916122
  0.18647054 -0.17358312 -1.0766634  -0.35127097 -0.23211935  0.39087418
 -0.6854025  -0.03526722 -0.22666954  0.09638828 -0.0768497  -0.39555228
 -0.15936568 -0.22203068]
[-0.8048363   0.20937409 -0.05186051  0.86351246 -0.2716411  -0.9236054
  0.1789674   0.29576164  0.9174438  -0.5587726  -0.17987868 -0.10823767
 -0.22902147 -0.1203327   0.1803069  -0.4295173   0.30144364  0.5204312
  0.10055501 -0.27196097]
[-0.8175056  -0.51958126  0.2762872  -0.13006091 -0.1847906   0.74802697
  0.08550259  0.20048635  0.6678161   0.65673906  0.34795862 -0.09469616
 -0.02004154  0.09682635 -0.43839762  0.36684406 -0.4649069   0.53869843
 -0.02439651  0.0708756 ]
[ 1.0370646e-02  9.6782219e-01 -5.2203149e-01  4.9132344e-01
 -7.1470445e-01 -9.3705016e-01  7.8882062e-01 -9.5473683e-01
 -2.7942711e-01 -5.6159180e-01  1.2862496e-01 -1.4768675e-01
 -2.3751029e-01 -4.2663997e-01  3.3169881e-01  5.4645387e-04
 -4.2184565e-02  3.1355780e-02 -2.9802933e-01  2.2420622e-01]
[ 0.19690889  0.03851486  0.3499828   0.11861777 -0.3061319  -0.2730083
 -0.3001237  -0.5083568   0.06747478 -0.0515877  -0.01901302 -0.4747555
  0.00291505 -0.14671429 -0.12959598  0.16165821 -0.11537264  0.32113984
  0.20894402  0.29877776]
[-0.25441912  0.2002489  -0.06254511 -0.42385635  0.11269965  0.0601149
  0.53881586 -0.5035915  -0.19337392  0.09960022 -0.19941355 -0.37086415
 -0.7721058  -0.37281606 -0.5900436   0.4750845  -0.32721192 -0.01209929
 -0.31291494 -0.14360894]
[ 0.13310732  0.4134808  -0.43508285  0.22172181  0.25630802 -0.4475543
 -0.36504868 -0.2520166  -0.33926395 -0.539195   -0.24683572  0.9302863
  0.5981428   0.14493783  0.60115737 -1.1207124   0.36810145 -0.40044498
  0.37938443 -0.29856893]
[-0.31093267 -0.27161202  0.20585504 -0.20333152 -0.12831654  0.08656524
  0.28751615  0.54441714  0.67315143  0.11477599 -0.10571559 -0.01039781
 -0.11116299 -0.05392286 -0.11566012 -0.63938457  0.10625636  0.4335226
  0.11869887 -0.21953669]
[ 0.10798706  0.1902216  -0.07858443  0.54746187 -0.31675997 -0.53506756
 -0.19801643  0.06692189 -0.32749715  0.23301993  0.4115578  -0.32249898
  0.4798221  -0.6335645   0.51288885  0.21555614  0.18053292  0.19585879
  0.135799    0.11647063]
[ 0.09557892  0.26690164 -0.21741256 -0.09796075  0.04615338  0.35419786
 -0.30541715  0.23177867 -0.08540346 -0.09733655 -0.12615097  0.636616
  0.21304843  0.31387052  0.07090768 -0.15371127  0.21913712 -0.05492343
  0.24719803 -0.02757313]
[ 0.3009264  -0.2647065  -0.22242932  0.3838355  -0.52293575 -0.10597118
 -0.26008797  0.17101558 -0.34115118  0.42163336  0.37222493  0.13311584
  0.7315172  -0.4102364   0.34438896 -0.529934    0.57583743  0.10347711
  0.10246665  0.04808173]
[-0.01682007 -0.29634455 -0.05555063 -0.42557603  0.2955837   0.22852023
 -0.32862478  0.5157001   0.33651266 -0.2516574  -0.2785486   0.13937558
  0.26064026  0.4502444   0.28926075 -0.04328568  0.1294067  -0.33256137
  0.40912393 -0.10705994]
[-0.12306258  0.39316487 -0.3701091   0.727671   -0.03088694 -0.51578885
  0.15705004  0.37102324 -0.8596056  -0.1513838   0.04013298 -0.4624874
  0.22632526  0.03500721 -0.15405108  0.3725575   0.12226258 -0.3750341
 -0.1641987  -0.00597828]
[-0.4768812  -0.51354015  0.4612367  -0.24192052 -0.57384    -0.03934682
 -0.3030516  -0.34011737  0.68809575  0.28148574 -0.08466792  0.34395936
  0.31537464  0.01933712  0.08797203 -0.7826412   0.20679049  0.3496369
  0.24669358  0.13233283]
[-0.1528677   0.33098915 -0.04181368  0.28291556 -0.00445739 -0.15743618
 -0.32616803 -0.23923671  0.18721324 -0.34908295 -0.0927563   0.5185937
  0.99918944  0.09312255  0.5151303  -0.38678497  0.20817019  0.02201488
  0.00997531 -0.05147153]
[ 0.35808405 -0.23368092 -0.0777074  -0.60292417  0.10068239  0.37238407
 -0.20929265  0.42440003 -0.15336211  0.00634989  0.26267907 -0.08347098
  0.6676738   0.15002845  0.37350288 -0.27335945  0.12543303 -0.22347495
  0.10671414  0.14066826]
layer 5 Activation
tanh
layer 6 Dense
20 1
[0.06852131]
[-0.13282001]
[-0.04511265]
[-0.00231948]
[0.14522594]
[0.08430299]
[0.03233574]
[0.06447195]
[-0.08100069]
[0.15776464]
[0.16605291]
[-0.05443431]
[-0.22840825]
[0.02027396]
[0.00688481]
[0.17946543]
[-0.01745121]
[-0.15938523]
[0.024378]
[0.01648955]
[0.3445066]
