layers 7
layer 0 Dense
24 20
[-0.71184605  0.6926062   0.3208145  -0.6507769   0.01150825 -0.87054765
  0.7579266   1.0447845  -0.21292932  0.8906648   1.6322844  -1.4201301
 -0.44676316 -1.1797104   1.2411884  -0.14860074 -0.10749722  1.1980575
 -1.2901727   1.2338117 ]
[-0.7177941   0.407052    0.648486    0.27998242  0.02280089 -0.3273613
  0.14004412  0.49243134 -0.42450655  0.6782354   0.26545504 -0.07075822
  0.13153915 -0.3035747   0.39399415 -0.00693698 -0.66937715  0.6621831
 -0.27540702 -0.23653804]
[-6.2951559e-01  9.2397398e-01  4.6465704e-01 -2.8693676e-01
  5.5757552e-01 -2.1493714e-01  3.7901261e-01  2.9061261e-01
 -4.7384858e-02  8.4332889e-01  5.2519423e-01 -7.7025026e-02
 -7.8176142e-04 -9.6341002e-01  1.8969141e-01 -8.4087297e-02
 -6.0531837e-01  3.4201163e-01  6.2751390e-02 -2.3530802e-02]
[-0.60365     0.5696863   0.51712626 -0.5061157   0.5645912  -0.6145528
  0.5434054   0.5835028   0.22299689  0.804551    0.9326145  -1.1251934
 -0.22589098 -1.2425414   0.84430945 -0.57460046 -0.5214235   0.9112706
 -1.2158891   0.56957775]
[-0.5150987   0.17496823 -0.6309716   0.84513015 -0.8617387  -0.67984974
 -0.5807782   0.62484676  0.8789116   0.1863663   0.9122229  -1.0851291
 -0.7122089  -0.8802342   1.0503359  -0.69230276 -0.6069569   0.18120964
 -0.8719057   0.65001374]
[-0.47433946  0.31616578  0.5632819   0.09669733  0.51065683  0.48542905
  0.5234899  -0.21194732 -0.8263416   0.5207334   0.627237   -0.67589813
  0.41758105 -0.02207704 -0.5359274   0.01594066  0.13446583  0.89029276
 -0.3075497  -0.7179175 ]
[-0.22946544  0.18451366  0.2822189   0.04402627  0.8562696   0.05318449
  0.3394732   0.18192501 -0.30126044  0.10472751  0.47610343 -0.22991034
  0.51112574 -0.28698325 -0.18864824  0.1411283   0.09477028  0.7665542
 -0.2761303  -0.34392607]
[ 1.469      -0.7180592  -0.69450307  0.22852832 -0.732571    0.9789391
 -0.89058787 -1.0836892  -0.23801665 -0.62110275 -1.8490839   1.218447
  0.15449725  1.4341836  -0.97617495  1.2664683   1.223277   -0.8259792
  1.5542461   0.07506592]
[-0.4036116  -0.5553403  -0.10391082  1.181269   -0.8668889   0.04418114
 -0.6921452  -0.38383096  0.5110261  -0.48339382  0.10233112 -0.46636394
 -0.74972486  0.05771937  0.31603703  0.09435056 -0.13121997 -0.46320477
 -0.4446392   0.4909547 ]
[ 0.42782864  0.1129075   0.22267026  0.5442585  -0.6718146   0.26632679
 -0.726986   -0.07528283  0.39159042 -0.20901985  0.19702779  0.72006524
 -0.25575617 -0.34380457  0.37712228  1.5674337   2.4118025  -0.2183506
 -0.41891265  2.9306371 ]
[-0.00580724 -0.14727713 -0.5104909   1.1129199  -0.7266741  -0.25723425
 -0.8952843   0.03453142  0.363177   -0.65340567  0.4917071  -0.16626754
 -0.7848367  -0.29913968  0.46972957 -0.967493   -0.40401432 -0.5244577
 -0.49581513  0.7349933 ]
[ 0.5013631  -0.72096944 -0.18701772  0.21986178 -0.6269104   1.000483
 -0.42031378 -0.9727153   0.09626798 -0.68524736 -1.8019646   2.8248446
  0.7195294   1.0674999  -1.8616778   2.8467164   2.7987063  -0.40893534
  1.343559    1.3900067 ]
[ 0.32271215 -0.47826236 -0.63624364  0.82214224 -0.90028244  0.01007635
 -0.746347   -0.4614418   0.65748334 -0.3516773  -0.12183558 -0.21887216
 -0.36591622 -0.15245797  0.23680831 -0.07129634  0.33554152 -0.3065564
 -0.08776361  1.0165415 ]
[ 0.6095327   0.40123087  0.718098   -1.1770201   0.57284933  0.6711451
  0.7189165  -0.33651552 -0.777278    0.32130015 -0.15946163  0.1580221
  0.48053813  0.42001885 -0.02655693 -0.30587742  0.39853194  0.77585506
  0.23459761 -0.79787636]
[-0.40386453 -0.07489311  0.10239702 -0.00268468  0.35109016  0.27292997
 -0.2911804  -0.0559201  -0.37965092 -0.11909413 -0.6979333  -0.37097213
  1.1208754   0.6157441  -0.9025043  -0.8090386  -1.4042361   0.13591164
  1.4106839  -0.38549587]
[ 2.012687   -0.93305635 -0.33555135 -0.36878297  0.446277    1.4972246
 -0.81210446 -1.3023435  -1.2895772  -0.87230265 -2.1618097   2.839498
  1.4292198   1.8674597  -2.7586434   2.3856711   3.542707   -0.6560947
  1.9720188   0.5242198 ]
[ 1.4941086  -0.86314696 -0.5857502   0.8990561  -0.46656853  0.14847043
 -1.0003905  -0.6503845   0.4785129  -0.73267514 -0.30025047  0.2950516
 -0.09311353  0.3709538  -0.0599546   0.7782333   1.0713843  -0.4496187
  0.01851375  0.8552084 ]
[-1.0316786  -0.02806078 -0.31029826  0.52863544 -0.43618396 -0.18373775
 -0.07312879 -0.05014516  0.70560175 -0.22324634  0.15096207 -0.45209754
 -0.53705484 -0.03812802  0.3438177  -0.10822537 -1.4816277  -0.46339574
 -0.23523311 -0.19990216]
[ 0.44654408  0.34545863  0.7014233  -0.8843368   0.53626895  0.5697902
  0.35213417 -0.37355852 -0.9703091   0.47346762 -0.48186085  0.4151622
  0.4185024   0.5232383  -0.59742934  1.3557267   0.48574758  0.35679898
  0.2792648  -0.12772922]
[ 3.2468004  -0.75849813 -0.55612123  0.37665114 -0.5658487   1.0928187
 -0.736799   -1.1135656   0.0154278  -0.6109132  -1.0719335   1.7319483
  0.5301315   0.9922885  -1.000207    1.6486292   3.1950645  -0.5889603
  0.63628703  1.0793287 ]
[ 0.36398044 -0.64602333 -0.54958093  0.9629212  -0.59718454 -0.25684294
 -0.7249061  -0.32908326  0.5435142  -0.3070661   0.35586366 -0.01661629
 -0.32620287 -0.36338395  0.5241857  -0.25021908  0.11811364 -0.30256194
 -0.1273074   0.31958735]
[-0.00996578  0.02433503 -0.78106815  0.6923367  -0.47272488 -0.13894433
 -0.63445085 -0.01453334  0.7717733  -0.38110575  0.50864834 -0.6700483
 -0.50217545 -0.45706376  0.20585428 -0.46256074 -0.41350764 -1.0791067
 -0.26031595  0.3720845 ]
[-0.8145406  -0.10245142  0.11234956  0.91038877 -0.66778284 -0.36409637
 -0.6746056   0.18726985  0.43944344  0.4198965   0.742245   -0.76401275
 -0.44909513 -0.808063    0.945514   -1.5104206  -0.9578703   0.49023917
 -0.8973589   0.4153857 ]
[ 0.1393908  -0.72019804 -0.62843525  0.8182328  -0.5838908   0.07237695
 -1.0636288  -0.3965877   0.04499358 -0.2406728  -0.2986226   0.32135928
  0.13544905  0.29441354  0.19669272 -0.17212361  0.5393765  -0.79457057
  0.30258554  0.08872699]
[-0.75769746  0.74765754  0.5354827  -0.5802324   0.52946717 -0.35815585
  0.7573716   0.548423   -0.16499352  0.61042625  0.6489915  -0.57959145
 -0.09099865 -0.4890061   0.34094152 -0.5059215  -0.64608467  0.7685796
 -0.50864303 -0.1888315 ]
layer 1 Activation
tanh
layer 2 Dense
20 40
[-0.81459814  0.3526984   1.0115134   0.10167453 -1.1231076   0.7804538
  0.9071523  -0.42303142  0.18279156 -0.9440861  -0.64933664 -0.88776594
 -0.26890287  0.28535053  0.72772986  0.1743083   1.0342228  -0.9000524
 -0.8134511   0.9479952  -0.37554878  0.9903479   0.986643   -0.8067303
  0.04298624  0.77942705  1.2642099  -0.62961596  1.0616258  -0.68443704
 -1.363222   -1.0492439  -0.41691363 -1.071757    0.2166472   1.0559138
  1.0567355   0.10222584 -0.81627315 -0.67479247]
[ 0.9504235  -0.69736093  0.10133798 -0.07779178 -0.20384146 -0.42829698
 -0.04107615  0.7146171  -0.37110054  1.0728493  -0.23741901  0.04766368
  0.7102993  -0.9958064  -0.18766728 -0.7362697  -0.7991383  -0.13152741
  0.46275273  0.09957146  0.2674593   0.33670187 -1.0437793   0.08867802
 -0.67457795 -0.8909902  -0.43919685  0.85381687 -0.47509024  0.0989645
  1.1465696   0.16124262  0.49436703  0.00918797  0.49566954 -0.6226227
 -0.7076335   0.16951752  0.6649621   0.10941128]
[ 0.5553408  -0.7323082   0.43741396  0.62066776 -0.09819544 -0.19886047
 -0.7046367   0.72471327  0.24197835  0.74198437 -0.06903739 -0.27534238
  0.3067228  -0.54104924 -0.49057382 -0.47759315 -0.5652258   0.2002417
  0.03830485 -0.1656868   0.22022854  0.05024303 -0.2655367  -0.02305
 -0.47872633 -0.56807667 -0.47087172  0.51224834 -0.3228314  -0.27837342
  0.20635974  0.6780385   0.4930432   0.02727433  0.27489656 -0.80870503
 -1.0222646   0.12080552  0.26947108  0.4062227 ]
[-0.6679908   0.45952684 -0.8008252   0.05088799  0.44726574 -0.02158854
  0.2873692  -0.8463257  -0.500236   -0.44962105  0.46275282 -0.21724637
 -0.2749768   0.34810695  0.6013908   0.59288186  0.5603001  -0.05662937
 -0.59322846 -0.40152428 -0.92173856 -0.68559057  0.48811287  0.34274143
 -0.25900927  1.0298933   0.0855633  -0.28229114  0.17733127  0.23772542
 -0.37909552 -0.3497651  -0.71163     0.28746375 -0.909664    0.50915647
  0.41597065  0.6523803  -0.76133084 -0.62193227]
[ 0.8381371  -0.18256013  0.16129264  0.03307268 -0.6812522  -0.07541855
 -0.5123216   0.73724216 -0.6754528   0.19190279 -0.22717124 -0.7085839
  0.11054251 -0.01275813 -0.26958385 -0.42668784 -0.39194044 -0.37617117
  0.08528659  0.3067872   1.2155567   0.619781   -0.50092787 -0.5289019
  0.41210145  0.18237716 -0.38081896  1.0785375  -0.44374904 -0.9509126
 -0.02426334  0.6204672   0.8643773  -0.5563154   0.33066347 -0.6085524
 -0.47600767  0.03012181  0.80952746  0.7172852 ]
[-0.49074873  0.3573285  -0.01569584 -0.5170403  -0.7984392   0.14921461
  0.39712214 -0.60597116  0.8292718  -0.20644811 -0.6902904   0.86787134
  0.6703876   1.2552774   0.27100238 -0.08071768 -0.76258576  0.31704998
 -0.01172802  0.78322744  0.48130822  0.70377517  0.2526355  -0.03998167
  0.88436896  0.25575253  0.37435886  0.35338745 -0.14546564  0.11189036
 -0.04438577 -0.3890071  -0.26878    -0.9681138  -0.46374977  0.41972777
  0.10637745 -0.16050392 -0.40612435  0.60599965]
[ 0.61824363 -0.2645235   0.5162846   0.04831346  0.16123548 -0.88881415
 -0.9605804   0.83646375 -0.242215    0.28045434  0.050234   -0.22183572
 -0.45000607 -1.0172104  -0.70360273 -0.7129497   0.13481958 -0.31575164
  0.89612097  0.29614004  0.41605535  0.14521523 -0.6325416  -0.5237196
 -0.02165215 -1.0932424  -0.5683963   0.82863647 -0.726861   -0.72702295
  0.41032082  0.593414    0.9133765  -0.39200658  0.14795989 -0.4778465
 -0.5105907   0.00507013  0.7905998   0.9239343 ]
[ 0.38058957 -0.77745914  0.13107592  0.26032338  0.575583   -0.44606602
 -0.4957365   0.5442277  -0.16015367  0.64940095  0.17587529 -0.39400017
  0.08321426 -1.3955357  -0.5209017  -0.62530893  0.15532427  0.118004
  0.52847695 -0.45228103  0.25101352 -0.39383683 -0.5729709   0.27134764
 -1.3139952  -0.592783   -0.4907031   0.29711518 -0.15866266  0.21965075
  0.98734605  0.74736905  0.30864558  0.3796352   0.34716323 -0.67637074
 -0.6220552   0.44916886  0.571982    0.4668774 ]
[-0.32068038  0.26966536 -0.47503424  0.8058038   0.7388734   0.39983517
  0.75350267 -0.2012742   0.203612   -0.27221403  0.95948493  0.7723763
 -0.24937226 -0.09124427  0.14732416  0.4220899   0.45582393  0.12227759
 -0.5280433  -0.7210845  -1.1555353  -0.6367933   0.28631017  0.48897806
 -0.99040663 -0.0291034   0.4557148  -0.71881175  0.12317783  0.41313618
 -0.3433733  -0.97968465 -0.53903013  0.96114624 -1.166331    0.51039565
  0.22057977  0.49930948 -0.22477174 -1.1038933 ]
[ 0.8199548  -1.0951954   0.39287606 -0.50453424  0.09072392 -0.67259336
 -0.43366188  0.67619526  0.8705101   1.219997   -0.35388076  0.32028317
  0.54107    -0.55952805 -0.57708627 -0.9929916  -0.70640105  0.23789793
  0.43936357  0.3308254   0.3180707   0.01532461 -0.7035388   0.10668074
 -0.18706183 -0.83102995 -0.6607947   0.9555453  -0.5423759   0.31549132
  0.7378207   0.6007079   0.5251499  -0.11492302  0.7267424  -0.28181434
 -0.5898849  -0.46400338  0.8274598   0.26689035]
[ 1.2787081  -0.50677913 -0.93034226 -1.2884526   1.0897774  -0.9586146
 -0.7787893   0.5509976  -1.3494657   0.70669645  1.1783751  -0.01622927
  0.5068187  -0.43873534 -0.9355929  -0.17691472  0.7844257   0.32348078
  1.4901775  -0.7300164  -0.926834   -1.1585076  -1.2540175   0.9549418
 -0.17241114 -0.36380064 -0.7402148   0.5963976  -1.3767774   0.57192385
 -0.00369546  1.3618352   0.60130733  0.57309127  0.59286547 -1.5987982
 -1.7680854   0.60602355  1.4008287   0.13690685]
[-0.851483    0.2044097   0.98784167  0.06932686 -1.0951103   0.19752036
  0.72686505 -0.93859243  0.21153611 -0.75238043 -0.5272017  -1.61418
 -0.69250005  0.818049    0.78238165  0.6518491   1.2604144  -1.101401
 -0.85585755  1.0251794  -0.24006307  1.195635    0.7871569  -0.9471285
  0.47754866  0.10548446  1.037752   -0.4687262   0.6679746  -1.5988257
 -1.3913028  -0.78170407 -0.631419   -0.9180031  -0.309608    0.6754393
  0.9960314  -0.6766089  -1.0003848  -0.46402395]
[ 0.27792826  0.60952264 -0.38585174 -0.09193305  0.47921348 -0.09447476
 -0.37395012 -0.799345    0.38456893  0.57617754  0.27119067 -0.37328184
 -0.18999831 -0.01366006 -0.657766    1.47813    -0.7151383   0.7844517
  0.31423718 -0.02053514 -0.17016397 -0.71414936 -0.40666437  0.321296
 -0.6416036  -0.57822764 -0.03398656  0.35828698 -0.31417397  0.44059873
 -0.20526381  0.22217521 -0.95022017  0.9176556  -0.6208955  -0.6436745
 -0.13290238  0.34914497  0.36043686  0.9193802 ]
[-0.61306995  0.6063747   1.009318    0.7418116  -0.77644765  0.3629602
  0.24140735 -0.6347217   0.5263498  -0.78581256 -0.2789284  -0.533999
 -0.7012408  -0.03182541  0.53367454  0.13832906 -0.42685848 -0.47588158
 -0.7287618   1.0682325   0.6650928   0.7779202   0.5718655  -0.861868
  0.07134977 -0.08412391  0.51097345 -0.36494818  0.5547449  -0.65868485
 -0.16926952 -0.9385313  -0.5140615  -0.5957227  -0.7271036   0.9694847
  0.8507605  -0.06357893 -0.6642984   0.0791501 ]
[ 0.7136435  -0.631838   -0.1236596   0.06855244  0.21662383 -0.49168503
  0.05252771  0.6638751   0.0230935   0.9588143   0.9595279  -0.06532072
 -0.11275534 -0.40096176 -0.52510756 -0.79701096  0.6621873   0.3993814
  0.852951   -0.8514374  -1.369834   -0.5428539  -0.4174612   0.01394992
 -0.13592158 -0.12561412  0.15161774 -0.30132484 -0.47680694  0.4619199
 -0.0853494   0.3980123   0.9197828   0.6042025   1.3791052  -0.4023905
 -0.5623452  -0.36108118  0.7020461  -0.9634635 ]
[-0.47718468  0.11566441  0.39943433 -0.03786526 -0.8799928   0.47418323
  0.2415344  -0.13972957 -0.40423238 -0.46988127 -0.28978327 -0.8660683
 -0.37714285  0.2947145   0.59017396  0.19350779  0.8590638  -0.8147593
 -0.20896155  0.8901086   0.3505362   0.83396155  0.41890946 -0.8128312
  0.03818471  0.22939983  1.2923334  -0.7606668   0.32818174 -0.49576634
 -1.2743514  -0.4445394  -0.07343042 -0.5310032   0.44960043  0.6603611
  0.6591835   0.04132123 -0.49252176 -0.8001236 ]
[-1.1713717  -0.14542967  0.67277485 -0.2520077  -0.8390816   0.68832165
  0.86401826 -0.15034926  0.5037924  -0.9499394  -0.52116287 -1.2233481
 -0.0943543  -0.0527145   1.2098426  -0.02757976  1.5823723  -0.55451727
 -0.9737772   1.0274352  -0.14452006  0.8105577   1.0511688  -0.82572055
  0.15603185  0.86682296  1.4629292  -0.83844066  1.0760212  -0.7785827
 -1.6473454  -0.79436874 -0.4894726  -0.8067593   0.16869107  0.978151
  1.2299281   0.03341578 -1.2576913  -1.0762506 ]
[ 0.5108628  -0.53333014  0.4272282  -0.78263175 -0.30680352 -1.099263
 -0.7728689   0.5813127  -0.6611187   0.6747965   0.04833735 -0.33415842
  0.34924638 -0.43632954 -0.6238892  -0.7256851  -0.07482929 -0.26397
  1.1672654   0.10630485  0.21435583  0.43592596 -0.7851518  -0.16754155
  0.05705933  0.12494925 -0.06420606  0.7157874  -0.14373033 -0.68757117
  0.607617    0.25483477  0.41856    -0.39854538  0.5605313  -0.11656446
 -0.42474496  0.22377747  0.03851785  0.6276175 ]
[-1.1658765   0.4258993   0.7610229   1.1293148  -0.49109778  1.0558382
  0.5051457  -0.81234443  1.1227304  -0.46853834 -1.5642148  -0.81816965
 -0.3801661   0.19216251  0.97184515  0.92937696 -0.577737   -0.37703398
 -0.64002264  0.5890301   0.92583156  0.571628    0.89715266 -0.56786186
 -0.47313282  0.7399652   0.82293016 -0.5691361   0.87670374 -0.26446697
 -0.31433398 -1.0319031  -0.07023545 -0.566836   -1.5994244   0.9648796
  0.99866974  0.07870659 -1.1174935   0.21782596]
[-0.00303693  0.17565757 -0.56046855 -1.013535    0.47126353 -0.19318564
  0.19811675  0.12525924 -0.5536531  -0.24690777  0.4885524  -0.2260955
  0.26080355  0.22673374 -0.39745837  0.06446481  0.13684331  0.3489656
  0.26723394 -0.38295883 -0.7768378  -0.4838156  -0.15365452  0.512556
  0.7971291   0.3973168  -0.3788268  -0.10362081 -0.57056034  0.37792954
  0.20292208  0.42269418  0.12385705  0.55238146  0.77913994 -0.6947465
 -0.28490382 -0.806432    0.06683815 -0.33448118]
[ 0.69724876 -0.68808764  0.2831217   0.0429954   0.06753147 -0.48853788
 -0.6197617   0.6643545  -0.1567856   0.6740755   0.12963833 -0.5651537
  0.09500067 -1.0219291  -0.560633   -0.5221401  -0.28436896 -0.00896433
  0.6164193   0.0353714   0.14445193  0.15487589 -0.78075755 -0.04787221
 -0.46563742 -0.6443916  -0.27664408  0.441419   -0.40732136  0.25992703
  0.65581864  0.5129096   0.46802548 -0.04620348  0.41039848 -0.59481233
 -0.7323237   0.19503152  0.5744328   0.29833558]
layer 3 Activation
tanh
layer 4 Dense
40 20
[-0.33463144 -1.3871202   0.5555564   0.571443   -1.3012708   1.1185839
 -0.83468693 -0.71881706 -1.2237468   0.56845224 -0.8446986  -0.34164035
  0.7861255   0.9687171  -0.8637219   0.6308051   1.3716305  -0.61362296
  1.0736226   0.96259207]
[ 0.32178345  0.5266081  -0.01363428 -0.40382576  0.30078316 -0.6576247
  0.581899    0.5871238   0.41786218 -0.5989624   1.2599134   0.152282
 -0.581294   -0.78862846  0.2975385  -0.8148638  -0.4432047   0.6520839
 -0.75546426 -0.65765184]
[-0.5243102   0.03589271  0.53738916  0.25407907 -0.59322363 -0.22883955
  0.5120445  -0.26881927  0.02323446 -0.48521778 -0.32156315  1.3407911
  0.05381277  0.33051798 -0.02245668  0.13832936  0.42361763 -1.0988754
 -0.10460296 -0.13931975]
[-0.23837118 -0.2663816   0.12534413  0.2542062   0.08914435  0.09120264
 -0.06106091 -0.2002324  -0.2829916  -0.24945569 -0.19289841  0.38237524
  0.3864796   0.02576025 -0.08039507  0.21748824  0.42477992 -0.12191505
  0.02811148  0.17446266]
[-0.43135676  0.29186353  0.08454196 -0.14832921  0.35460347 -0.13914137
  0.3121201  -0.53681386  0.4202206  -0.15721548 -0.1978585  -0.38683948
 -0.00325398 -0.05757067  0.11550976  0.27470294 -0.8388074   0.49436238
 -0.5547462   0.294161  ]
[ 0.22706836  0.28864864 -0.62044173 -0.44839445 -0.04825155 -0.67267007
  0.6142524   0.4402265   0.6631387  -0.12282552  0.6651152   0.47434008
  0.0090604  -0.7769111   0.20201606 -0.30343953 -0.1884617   0.9597043
 -0.41324046 -0.09228197]
[-0.548542    0.58929694 -0.16370972  0.11699712 -0.04734389 -0.7001699
  1.0455272   0.02139622  0.6131991  -0.7231559   1.417511    0.42396063
 -0.6319748  -0.765313    0.8475236  -0.2767484   0.5143909  -0.19073115
 -1.1545304  -0.6607821 ]
[-0.8268043  -0.80633134  1.3369151   1.4044917  -0.53677505  0.98714405
 -1.3159928  -1.0590302  -0.84860957  0.6641783  -1.1471494  -0.21264198
  0.9381415   0.83723265 -0.73624265  1.5197265   1.1459826  -1.2825264
  0.5537451   0.90037745]
[-0.10360924 -0.35815227 -0.9147592  -0.01390057 -0.21736115  0.40987685
 -0.29314613  0.2868986  -0.14065154 -0.26320243  0.13960148  0.320498
  0.21912281  0.09915752 -0.11932158  0.04497795 -0.2634248  -0.4368995
  0.35329205  0.6086369 ]
[-0.12862225 -0.56580704  0.06914771 -0.49183536 -0.04380867  1.2313678
 -1.4788934  -0.7017061  -0.7032372   0.57876474 -1.3458579  -0.43028903
  1.1245416   0.7313921  -0.77098614  0.44706815  0.28271613  0.18800083
  1.0623221   0.6241772 ]
[-0.33505437  0.07210808  0.55875474 -0.15322748  0.23783085 -0.01471327
  0.2535088  -0.5058135   0.20204522 -0.12513405  0.17811356 -0.12876149
  0.23172376  0.17679799 -0.02899211  0.250272   -0.80505544 -0.31782132
 -0.36706194 -0.28929704]
[-0.13469267 -0.3080002  -0.5385757  -0.33256522  0.36697492  0.20007938
  0.07164264  0.80924183 -0.0988417   0.72878647  0.09664993 -0.72284245
  0.53570056 -0.2991725  -0.58920175 -0.9582242  -0.23293611 -0.43890485
  0.13320652  0.32147247]
[-0.0856047  -0.08980186  0.13917583 -0.14648652 -0.4936066   0.4394063
 -0.55387574 -0.1881671  -0.6221205   0.31060037 -0.4136668  -0.1108846
  0.01439837  0.06081815 -0.16886145  0.2980799   0.08240988 -0.5190047
  0.44879332  0.3187837 ]
[ 0.27859738  0.5258385  -0.52194476 -0.7618829   0.3913167  -0.6643105
  0.3317158   0.41237977  0.43160084 -0.06523643  0.76106143 -0.2579846
 -0.8034963  -0.7221671   0.84240353 -0.20215404 -0.22391215  0.53423667
 -0.34302473 -0.6960771 ]
[ 0.00887385  0.8013299  -0.40561187 -0.23595573  0.06030519 -0.8608073
  0.94928825  0.07676297  0.41533488 -0.8064568   0.48332435  0.7595942
 -0.94495827 -0.9314423   1.0274888  -0.74484783  0.13040298  0.6545256
 -1.0225463  -0.5065561 ]
[ 1.1448874   0.82204056 -0.6250963  -0.7980709   0.5932987  -0.8825214
  0.8273926   1.2071123   0.90919024 -0.6093606   0.8330995   0.06088485
 -0.8222277  -0.8142913   1.206157   -0.98017627 -0.2691389   1.195642
 -0.803024   -0.9609414 ]
[ 0.10802133 -0.505883    0.66985303  0.70678884 -0.4533435   0.65308475
 -0.04940139 -0.6553278  -0.41365677 -0.30943838 -0.53859615  0.9467179
  0.12185851  0.57331157 -0.36962023  0.16853906  0.06450421 -0.51453567
  0.1774719   0.5711392 ]
[ 0.3171217   0.00077206 -0.5034007  -0.36339504  0.1565196  -0.2844871
  0.3390909   0.26143903  0.5990928   0.25730297  0.10817312 -0.5291348
 -0.05364709 -0.00936121  0.09831454 -0.13857023 -0.43327802  0.17685892
  0.1510909  -0.1450315 ]
[-0.30943608 -1.1635326   0.53641564  0.45637992 -0.7906052   0.7911858
 -1.1603553  -0.08397633 -0.8323038   0.9361371  -1.1130012  -0.50223386
  1.0280099   0.8720992  -1.0306318   0.58966553  0.4272284  -0.65584093
  1.2882581   1.0681711 ]
[ 0.46958777  0.04786669 -0.50746584  0.08610909 -0.14846256  0.17638673
 -0.19145025  0.11755344  0.40366697 -0.08398665  0.4008109   1.0530237
 -0.2752745   0.0378563   0.40163183 -0.4216976   0.29637942  0.16160546
  0.08755719  0.05667941]
[-0.49549815 -0.13132918  0.22222276  0.17747688 -0.3123584  -0.2270969
 -0.58213526 -0.32612976 -0.16049872 -0.06677537 -0.30128223  0.8534172
 -0.03212072  0.04694819  0.3493222  -0.06981871  0.7161842  -0.19537646
  0.5953997   0.31737188]
[-0.32185715 -0.03054625  0.23888958  0.4102227  -0.34239376  0.02091528
  0.26100174 -0.21897684  0.03695636 -0.4717225   0.31212273  1.6125281
 -0.05224968  0.04375868  0.5370396   0.13614577  0.64670175 -0.9286099
 -0.1295755   0.02671292]
[ 0.18978041  1.2301841  -0.82783234 -0.6273655   0.81025386 -1.250861
  1.3857344   0.19599703  1.1252513  -0.8271628   0.78663015  0.5301023
 -0.6441397  -0.6115523   1.3272834   0.08581824 -0.85516804  0.60458064
 -1.4785982  -0.6702109 ]
[ 0.45293236  0.07973382 -0.3054716  -0.725266    0.5666207  -0.46660766
  0.43206134  0.25204507  0.48569915  0.38706338  1.0669138  -0.30415574
 -0.27885532 -0.7467008   0.36330485 -0.20526214 -0.6265391   0.24333869
 -0.4943216  -0.17812052]
[ 0.11162881  0.34546152 -0.5968452   0.21554038  0.38815936 -0.40179387
  0.7752663   0.28754878  0.43270162 -0.6432956   0.7947221   0.34068242
 -0.40003583 -0.47370616  0.6122275  -0.39242855 -0.11056641  0.45450154
 -1.1925989  -0.37332016]
[ 0.07737463  0.10771495  0.10931274 -0.21758904  0.4732345  -0.4673438
  0.3900658   0.17100231  0.22543597 -0.16175248  0.40016645  0.37085295
 -0.30271828 -0.5151324   0.6145151   0.17969659 -0.07364152 -0.12217934
 -0.6937078  -0.20510742]
[-0.02483814  0.40734905  0.34039238  0.15814452 -0.10276959 -0.5470834
  0.7770763   0.4679746   0.39593664 -1.0272939   0.08356652  0.67100716
 -0.7354282  -0.4381267   0.6184322  -0.13486804 -0.54810864 -0.42958817
 -0.07301038 -0.21154256]
[ 0.04026293 -0.58976287  0.2367947  -0.06433934 -0.24990295  0.94494575
 -0.73903525 -0.2410557  -0.515186    0.60232276 -0.20191692 -0.3160934
  0.22805496  0.17326175 -0.5633111  -0.2978862  -0.22550951 -0.5127909
  0.616911    0.6386349 ]
[ 0.77079314  0.47831836 -0.13643089 -1.1528864   0.6638901  -0.8120961
  0.08471431  1.6995956   0.55004627 -0.01471361  1.1559483   0.18382625
 -0.330984   -0.6538027   0.12589094 -1.3821379  -1.2153922   0.6810355
 -0.3608906  -0.8261937 ]
[ 5.9311795e-01  4.3190438e-02 -1.8421118e-01 -3.8966954e-01
  3.6356530e-01 -1.5712641e-01  1.4115204e-01  5.6514478e-01
  3.4365302e-01  7.0368987e-01  2.0084436e-01 -7.0947117e-01
  1.6896993e-01 -4.1780053e-04 -5.9599954e-01 -6.0127455e-01
 -4.5340589e-01  3.4589347e-01  1.1671270e-01  1.0766707e-01]
[-0.07505495 -0.11272273 -0.16015415 -0.6203207  -0.49686316  0.20204854
 -0.7219723  -0.6068688  -0.5224153   0.5448241  -0.9819001  -0.37722713
  0.32263651  0.6323359  -0.60203946  0.45557952  0.8011082   0.21007001
  0.17670412 -0.20221317]
[-0.5330369  -1.1267463   0.28116333  1.0424337  -0.9973661   0.9620238
 -0.3628192  -0.6785437  -0.9778043   1.1539192  -0.81443673 -0.4985634
  0.7042788   0.8932999  -0.6537774   1.1025529   0.5513749  -0.843123
  1.0555617   1.0783976 ]
[-0.7473624  -0.85632247  0.56735086  1.4370304  -0.27263567  0.8666155
 -0.88017404 -0.92589116 -1.0144069   0.695573   -1.1764392   0.10448474
  1.242805    1.0017399  -0.9837703   0.90884984  0.78668624 -0.8058672
  0.50048965  0.9075654 ]
[ 0.1020515   0.03180006 -0.33860713 -0.23140092  0.0079275  -0.2257934
 -0.1010863   0.14659415  0.44835746  0.38700423  0.2253008  -1.1239896
 -0.2861139  -0.44361755  0.28403458  0.4275304  -0.42950645 -0.02523132
 -0.33459508  0.03208506]
[-1.3050103  -0.10223246  1.0692617  -0.11633968 -0.3362357   0.0634631
 -0.16150329 -0.9731194  -0.30612808  0.58856374 -1.0802821   0.02959083
  0.4063319   0.46879193 -0.19729464  1.2465694   0.65975416 -0.45499316
  0.33246994  0.01079809]
[ 0.82239616  1.1713738  -0.62567735 -1.3018672   1.2281325  -0.87555426
  1.2677642   1.8064859   1.180229   -1.2529811   1.6957974   0.73379767
 -0.98363405 -0.87701017  0.9617252  -1.2321043  -1.3374641   1.0892732
 -1.2158189  -1.1501273 ]
[ 1.1403526   0.8916446  -1.5862768  -0.72296476  1.7227094  -1.0855577
  0.9863324   1.7021368   1.2327356  -0.73982406  1.1153553   1.1273905
 -1.19708    -0.7340923   0.85224074 -0.8796515  -1.0725343   1.3299271
 -0.9684595  -1.0502998 ]
[ 0.01366714 -0.20514672  0.68526286  0.31095526 -0.603813    0.29703653
 -0.48394614 -0.41921473 -0.15344016 -0.24469182 -0.31976494  0.12419397
 -0.08789129  0.26329687 -0.29686567  0.08221148 -0.33956894 -0.1802978
  0.1912256   0.51888216]
[-1.0863318  -1.1298817   1.0465875   1.2123511  -0.9584535   0.9964614
 -0.6230667  -1.5806565  -0.90426403  0.6785052  -1.2625453  -0.46650726
  1.2227265   0.9580808  -1.0822179   1.2462317   0.8857568  -1.2876852
  1.1511813   1.368229  ]
[ 0.404675   -0.54627883 -0.26406145  0.17737514 -0.3188737   0.36601618
 -0.5716613   0.3533756  -0.45830932  0.60002774  0.0041336  -0.4759262
  0.28903088  0.16042656 -0.395533   -0.07757219 -0.25740328  0.29929966
  0.13970894  0.9619433 ]
[-0.14237705 -0.67788506  0.37763718  0.37197044 -0.2077832   0.47797674
 -0.9724526  -0.21449521 -0.47039992 -0.14269502 -0.6621322  -0.25897768
  0.37123102  0.34898    -0.46713755  0.6145488   0.07119194 -0.7728691
  0.29985955  0.3921807 ]
layer 5 Activation
tanh
layer 6 Dense
20 1
[0.7143088]
[0.68344927]
[-0.75649226]
[-0.76454675]
[0.7727722]
[-0.6121322]
[0.582137]
[1.0297288]
[0.7268789]
[-0.6783796]
[0.7421261]
[0.45284685]
[-0.65071374]
[-0.7645826]
[0.6843172]
[-0.83955765]
[-0.88378674]
[0.8199954]
[-0.64076495]
[-0.6740327]
[14.469037]
