layers 7
layer 0 Dense
20 20
[-0.10977332 -0.25503492 -0.09649652 -0.26903647 -0.25384435 -0.03386288
  0.3480388   0.25393882 -0.25481647  0.17278373  0.01442856 -0.26215917
  0.01171381  0.20404558 -0.14388444 -0.04241245 -0.02812144  0.24296664
 -0.31081107 -0.27627876]
[ 0.02580592 -0.22762153  0.23428066 -0.29392236 -0.23317027  0.04980423
 -0.28770176  0.29717907 -0.28113735 -0.13353223 -0.36783624  0.30531955
  0.16835342  0.28399426 -0.22980437  0.40905112  0.21077172 -0.11027355
 -0.1897876   0.21504724]
[-0.3503137   0.26170182  0.09552038 -0.02734677 -0.03350393 -0.07797855
 -0.01255483  0.3545706  -0.2620119  -0.19604525 -0.17525892  0.3249854
 -0.11016151  0.16988002  0.31161308 -0.12500337  0.05924167 -0.23245364
  0.12734741  0.26569742]
[ 0.33382937 -0.11319805  0.368075   -0.3539865   0.21274772 -0.3374238
  0.15396315 -0.13318577 -0.22403723  0.17694347 -0.22716749 -0.2429873
  0.18650015 -0.21601908 -0.08936647 -0.09844092  0.21779372 -0.16545531
  0.17472455  0.05262949]
[ 0.21968748 -0.07065649 -0.02668051 -0.28265417 -0.20354842 -0.11482456
  0.30103952 -0.08966491 -0.19938773 -0.04545373  0.02925491  0.07719417
  0.06766464 -0.10356104 -0.03320231  0.16462184 -0.20608906 -0.2811831
  0.08373129  0.27572098]
[ 0.34301198 -0.13913204 -0.26331198 -0.09167964 -0.29948643 -0.23231211
  0.0303113  -0.19347416  0.17600252  0.24892204  0.40526938 -0.46908808
  0.00788562  0.04931262  0.09532814 -0.3850345  -0.15325761  0.20357727
 -0.14381422  0.33446634]
[ 0.45137215  0.18870267 -0.04654893  0.10533044  0.12053256 -0.02442623
 -0.0461884  -0.1309023  -0.07397079 -0.09456313  0.15825608 -0.4881534
 -0.33120683  0.35383475  0.2232775  -0.32732138  0.22465155  0.11651053
 -0.3221839   0.27744725]
[-0.19559428  0.2229513  -0.37785503  0.06892005  0.3046908  -0.11358824
  0.33131808  0.01315636 -0.41091272  0.08066282 -0.17666729 -0.09674008
 -0.11197735  0.09987571 -0.34864914  0.08822045  0.25066453 -0.00140687
 -0.25968948 -0.02075376]
[ 0.10858048  0.3851161  -0.30133358  0.25843063  0.24687769  0.2080152
 -0.15339386 -0.06569789 -0.26210213 -0.24668886  0.22841124  0.05955158
  0.17131945 -0.10048634  0.15539911 -0.0697356   0.0289386   0.12491987
  0.11083331  0.13093229]
[ 0.50781333 -0.02554567 -0.15144573  0.37758327  0.31992185  0.21370727
 -0.09101357  0.29682904 -0.4780094   0.15160437 -0.32639837 -0.11094859
  0.22742946  0.3087697   0.11052723 -0.1395239  -0.17266357 -0.3074904
 -0.05846366 -0.43054184]
[-0.20086023 -0.26885775  0.3046217   0.1443248   0.48985213  0.00835686
  0.16229859  0.22008832 -0.28083524 -0.32767367  0.18812118  0.42474088
 -0.16438843 -0.13694453 -0.45641145  0.5103503   0.2534272   0.15718989
  0.28807703  0.11867989]
[ 0.5222388   0.6849791   0.06939267  0.46621016  0.27681392 -0.07767255
  0.3209181  -0.45305076  0.07433206 -0.19245924  0.01508346  0.3708205
  0.19972843  0.0162315  -0.11801327  0.17537579 -0.10080571  0.16427597
 -0.20832169 -0.02719405]
[-0.05200835 -0.2687272   0.21063088  0.05781369  0.03400898 -0.18554914
 -0.25776795 -0.31035915  0.41757795 -0.65253055  0.2348569   0.05780405
 -0.06297945  0.37467942 -0.11798395  0.14319879 -0.25439295  0.17413053
  0.27721137  0.32160455]
[ 0.1536583   0.11296153 -0.20522301  0.39581782 -0.17485449  0.191425
 -0.03977546  0.26501516 -0.25864697  0.17726573 -0.15186156 -0.29621458
  0.15870173  0.05326088 -0.19164523  0.4521408  -0.01608078 -0.41829163
 -0.29836208  0.11986913]
[-0.06220168 -0.2820531   0.10262866 -0.13819513 -0.3903974   0.30252963
  0.23123652 -0.0142733  -0.23200074  0.30586308  0.25140163  0.3085596
 -0.0517139   0.20019397  0.21430172 -0.02714792 -0.26591715  0.06121458
  0.27517384  0.3107255 ]
[-0.09372491  0.4729051  -0.36112505  0.12766539 -0.43958482  0.17133003
 -0.29549658 -0.58574134  0.5318081  -0.13073848  0.19540198  0.4000377
  0.21219845 -0.34359205 -0.127222   -0.57088584  0.18162823  0.14230649
 -0.23412672  0.00384769]
[ 0.04207944  0.22063465  0.4865154   0.02278256 -0.0756155  -0.36857024
  0.04974516 -0.0777987  -0.5097216   0.06379499  0.2899063  -0.33986974
  0.3744832  -0.433369   -0.43748537  0.5208788  -0.07003891  0.29711977
  0.27382204 -0.1113672 ]
[-0.53690094  0.6790619  -0.391003    0.07609767 -0.4520665   0.34358478
  0.34212053 -0.5629368   0.6802693  -0.0340783  -0.19354667 -0.3301578
  0.24505079 -0.04878773 -0.31135264 -0.62039196 -0.67122537  0.28772083
 -0.55138147  0.37206808]
[ 0.78199184  0.29432905 -0.00989475  0.18878625 -0.4504266  -0.27593577
 -0.19663888  0.0381649   0.5561121  -0.15246093 -0.5509545  -0.8651134
  0.03239629 -0.4534769  -0.06627133 -0.5006793   0.20977212 -0.5403914
  0.00912962  0.03928835]
[-0.36726472 -0.63663423 -0.48179257 -0.30538172  0.16174005 -0.07847692
  0.03412788  0.22021623  0.00134123 -0.33691838 -0.45063326 -0.4567362
  0.31992203 -0.3303123   0.25678924  0.27995536  0.34234646  0.37536126
  0.293769   -0.1785875 ]
[ 0.00074431 -0.05434795 -0.00692127  0.01206346 -0.01866044 -0.02113235
  0.02186223 -0.00110346  0.09907036  0.02854307  0.04123463  0.0045478
  0.0316033  -0.0034841   0.02714835  0.00289429  0.06266777  0.04055331
 -0.02537108  0.03496915]
layer 1 Activation
tanh
layer 2 Dense
20 40
[-0.12992601  0.12528025  0.09202226 -0.0985175   0.00710067  0.09311824
 -0.23437734  0.15350439 -0.09871756  0.15855752 -0.14087433 -0.28137648
  0.31056225  0.09080651  0.11796042  0.12389612  0.41948014 -0.00889007
 -0.24917954  0.12470455  0.25119346  0.1779768  -0.1806942   0.2209976
  0.14558455  0.07382999  0.1713424   0.06989305 -0.25219038  0.31422195
 -0.07764824  0.1681363  -0.15172619  0.02433372 -0.36926696 -0.07713115
  0.09710343  0.17244895  0.1425912   0.15177774]
[-0.276998    0.1449181  -0.13616025 -0.3029158  -0.5031951   0.17048052
 -0.15691514  0.5106816  -0.27954948 -0.13528594  0.41050595 -0.5416474
  0.2683773   0.31897512 -0.00922795  0.15171725 -0.1521824   0.10769323
 -0.1564095   0.2402128   0.22393648  0.00132428 -0.5761832   0.31206506
  0.536494    0.124817    0.1559589   0.00336917  0.02230213  0.09272558
 -0.25495967 -0.05670151  0.12675737 -0.30139786  0.23682988  0.20737082
 -0.09675433  0.23947297  0.09789092 -0.1783997 ]
[ 6.12405986e-02  1.71784714e-01 -1.68009400e-01 -5.70793003e-02
  2.47094631e-01  3.26899849e-02  3.51834260e-02 -5.87859079e-02
  2.94678152e-01  3.25641423e-01 -2.71352500e-01  6.40018880e-02
 -1.25039190e-01 -2.06351608e-01  1.23359986e-01  1.41818464e-01
  2.63518095e-01 -1.54845700e-01  1.09276071e-01 -8.62200111e-02
 -1.02327220e-01 -2.19536096e-01  1.44139281e-04  2.28386328e-01
 -6.88003600e-02  5.78428917e-02  1.51120098e-02  4.81172018e-02
 -2.58783298e-03 -3.07701752e-02  2.55706966e-01 -1.64001614e-01
  2.10899904e-01 -1.31685778e-01 -6.74924627e-02 -5.24726771e-02
  9.94376838e-02  1.06031843e-01  1.26116529e-01  2.93196201e-01]
[-0.22044274 -0.12937987 -0.07981995 -0.24755782 -0.02056773  0.11166298
  0.00496087  0.15820125  0.11942569 -0.08073226  0.13093273  0.11346024
  0.49850938  0.2346455   0.18276873  0.20170659  0.12875257  0.09692398
  0.12488209  0.20252328  0.18207657 -0.20763965 -0.3727555   0.34286973
 -0.05219566 -0.20975761  0.28109327 -0.44330233 -0.01185364  0.06403132
 -0.15700248  0.0553364   0.23812115  0.01058211  0.03695671 -0.06120083
 -0.35563716 -0.05303131 -0.26469117  0.07645994]
[-0.28005233 -0.2124044   0.18713911  0.146548   -0.01184146  0.16542494
 -0.28250536 -0.27445364  0.34748548  0.02393166  0.3986683   0.08390836
  0.10891801 -0.03115192 -0.18371709  0.04356156  0.09790877 -0.05846027
  0.11466347  0.17719263 -0.30990317 -0.16415055  0.16843504  0.06209932
 -0.28479356  0.20922984 -0.34411123 -0.37182263  0.10835005  0.01769705
  0.276094   -0.19915226 -0.10568745  0.22363503  0.02872402 -0.32834688
  0.10317073 -0.08672378 -0.17400223  0.26442483]
[ 0.01050818 -0.03008535  0.24899414  0.23755676  0.32592273  0.02672276
 -0.31738    -0.2101785   0.12190882  0.23315482 -0.33704382 -0.01686359
 -0.0630984  -0.16707835 -0.20833369  0.05222766 -0.14581086 -0.28766403
 -0.18611148 -0.05765457 -0.16766527 -0.21494791  0.23955292  0.0439517
  0.1467104   0.07585236  0.14492546 -0.21935096 -0.14040503 -0.18292594
 -0.01831956 -0.11669733 -0.1392281   0.17403156  0.11804731 -0.24431399
 -0.04891828 -0.05262981  0.08035825 -0.21384335]
[-0.29186553  0.24912514  0.1751956   0.24080263  0.23250335  0.00217319
  0.06026118  0.00143611  0.26641667  0.3072703   0.14733787 -0.37259445
  0.07980187  0.185974   -0.14359444  0.11781698  0.1802789  -0.2976104
  0.12193939 -0.04663269 -0.18841287  0.39871675 -0.5271715  -0.15330404
 -0.14607863 -0.21703048 -0.20823671  0.0982146  -0.20460969 -0.26079282
  0.16409272 -0.19510457 -0.00357559 -0.03212582 -0.01978662 -0.09411124
  0.18511546 -0.14775585 -0.0573833  -0.17378604]
[ 0.10387093 -0.41402993  0.12703152  0.24779223  0.02080932 -0.10511152
  0.3162249  -0.4053769  -0.1952151  -0.07642725  0.1062766   0.32433248
  0.5199968  -0.10395671 -0.04409703  0.21601908  0.12002134 -0.10582276
  0.12967452 -0.16812137  0.14640747 -0.07416128  0.5931633  -0.10752074
 -0.3476901  -0.23366877 -0.20740849 -0.34697577  0.1324914   0.0853368
  0.29556188 -0.29586118  0.4011171   0.23205459  0.09167223  0.250313
 -0.03188436  0.14361854  0.11672451 -0.02245958]
[ 0.06886879  0.25667685 -0.17161584  0.14978671  0.08426186  0.39802185
 -0.17749366 -0.17423497 -0.05989111 -0.3393302  -0.25782067 -0.38715264
 -0.41875032 -0.29708028  0.26213425 -0.3442509  -0.44325116 -0.30388573
  0.2806483  -0.19375561  0.19155973 -0.2837002   0.21617632 -0.02244776
  0.45857784  0.137117   -0.09677797  0.00398649  0.16168769  0.10907687
 -0.15698184  0.0595437  -0.20019443 -0.3882267   0.09693872  0.03877877
 -0.16810519 -0.14630787  0.06547345  0.1871484 ]
[ 0.03512824 -0.09197432 -0.24497414  0.21401714 -0.2334603  -0.26019475
  0.06488755  0.06477369 -0.18596596  0.24115847 -0.3230721   0.17268543
  0.22250377 -0.05762116  0.19710012  0.25020555  0.10873     0.24666935
 -0.1106984  -0.36370555 -0.13838246 -0.18569756 -0.27977607  0.05619403
 -0.08380026 -0.0668449   0.04064834  0.32953084  0.21068273 -0.1235139
  0.04188092 -0.2268541   0.2773545  -0.15451188 -0.09877973  0.1820009
  0.14987376 -0.05548177  0.20074078 -0.18673408]
[-0.23824829 -0.02938119  0.20778795 -0.01214589 -0.14197838  0.10788445
 -0.19159855  0.32899314 -0.08326601  0.22405444 -0.08100926 -0.09423728
  0.25046775  0.08397271 -0.00737777 -0.15696587  0.06925396  0.01488042
  0.1500438  -0.16608165 -0.00216058  0.20473191 -0.1667726  -0.3347805
 -0.07254849  0.20149511  0.20991538 -0.17131841 -0.07903282 -0.06722336
  0.18505394  0.27077165 -0.21641982  0.21511418 -0.17267989 -0.27357545
 -0.32533535 -0.2113364   0.03312422 -0.0192205 ]
[ 0.13794951 -0.169619   -0.11539586  0.16732375 -0.1918688   0.05387763
  0.17825179 -0.326706    0.27719912  0.12294973  0.02156669 -0.00880758
  0.32647964 -0.03282351 -0.09803445  0.42525586  0.21986562  0.01578816
  0.07397195 -0.27690533  0.20678854  0.02867842 -0.5118921   0.08367976
  0.2352019  -0.02780887  0.2153443   0.17017318  0.26447108 -0.10090561
  0.12749179  0.19210297 -0.23005821  0.01925208  0.30126277  0.09699489
 -0.02044468  0.232245    0.26434326  0.02070438]
[ 0.24773468  0.04737139 -0.15771852  0.01252414 -0.07865725 -0.12294757
 -0.00143974  0.3079487  -0.07075735 -0.18173    -0.1355658  -0.33158588
  0.07933047  0.00402731  0.26297268  0.23432936 -0.3001329  -0.01296746
  0.100054    0.18796971  0.18705331  0.23366039 -0.03868517 -0.29328778
 -0.01959307 -0.24564105 -0.06960709  0.12001111  0.38033321 -0.03628354
 -0.24217829  0.24009429 -0.30513015  0.02355802  0.00891331  0.07322836
 -0.07220551 -0.19812955  0.1119727   0.22394235]
[ 0.04529021 -0.19390766  0.02282135  0.22913958  0.18426245 -0.13397288
  0.15100199  0.13936125  0.28787503  0.16296639 -0.22981372  0.05473163
 -0.16957876  0.08881905  0.05185192  0.23989843  0.03037678 -0.11090127
 -0.02587252  0.07963284 -0.28193992 -0.27235174  0.17051469 -0.1791594
 -0.09464023 -0.10718416  0.1681879  -0.3517645  -0.16783197  0.29618445
 -0.19607991 -0.11914676  0.2550316   0.21963342  0.10397088  0.04851227
  0.03723783 -0.22180411  0.2269974   0.02601462]
[-0.06907926 -0.21235248  0.08792981 -0.04540329  0.23743254  0.23215419
 -0.10139357 -0.26892057  0.23548993 -0.2867346   0.0787507   0.10357372
  0.2560224  -0.17654839 -0.05581064 -0.2819388  -0.0294923   0.19323365
  0.1184669  -0.11874839  0.13003646 -0.24048229 -0.03094975 -0.06583702
 -0.2751902   0.03438218 -0.10339769  0.14038415  0.0828112   0.0906249
  0.17695276  0.1320403   0.10493747  0.06084796  0.2686746  -0.16321261
  0.11264668  0.00315176 -0.30198994  0.2070629 ]
[ 0.12192307  0.029261    0.13251404  0.23822142  0.25782704 -0.3927286
  0.04466633 -0.16744648  0.03445495 -0.07509919  0.02927988  0.31270725
  0.1625504  -0.07107702  0.24793631  0.096195    0.29469725 -0.02321136
 -0.33932176 -0.12639274 -0.1553152  -0.26743594  0.16254078 -0.3207607
 -0.23884003 -0.14036027  0.30684137  0.20295198 -0.03554352 -0.1590878
 -0.09629699  0.0235738   0.18296638  0.37292174 -0.11319514 -0.04317695
 -0.01592434  0.1663852   0.03932109  0.15536642]
[ 0.01056922 -0.2962974  -0.2632415  -0.07172514 -0.11213987  0.0705452
  0.3000857   0.21334329  0.08395749  0.12052929  0.21312332  0.22455694
 -0.15772533 -0.19965106  0.08821546  0.08870702  0.16075012  0.01918516
 -0.07948834 -0.17461008  0.013664   -0.35393173  0.33494833  0.16129458
 -0.21948308 -0.020052    0.11283956 -0.02662382 -0.13967977  0.11915192
 -0.03983753 -0.11146017 -0.11503413 -0.2632589   0.02442227  0.19637182
  0.08117294  0.24535814 -0.3583687   0.08346425]
[-0.34334537 -0.13817945  0.01403491 -0.13612714 -0.11890131 -0.2608799
  0.099347    0.00432914  0.37863508  0.30681947  0.13331942 -0.18133703
 -0.35017794 -0.07669492  0.19144581 -0.20095672 -0.42702705  0.25952563
  0.21989572 -0.08354517 -0.5030788   0.22637658  0.00720949 -0.10613046
 -0.1240238   0.26305965  0.18738034  0.26617438  0.18577553  0.30852485
  0.14244494  0.2730163  -0.11078946  0.38584584 -0.06243703 -0.35040945
  0.03221338 -0.0135635  -0.09761924 -0.24355319]
[-0.00717929  0.08987727 -0.2636066   0.3029617  -0.15558594 -0.03492668
 -0.03124068  0.04212826  0.06969211 -0.0712202  -0.10444771  0.25069445
 -0.09147914 -0.0028118  -0.19055109  0.21345395 -0.04925639 -0.03186383
 -0.27033535 -0.22100349 -0.42785192  0.04775644  0.01797566  0.27726516
 -0.37078676 -0.09619757  0.29272455  0.08557924  0.00262142  0.18946497
 -0.12377468 -0.25855187  0.25196552  0.22647533  0.02819077 -0.02700432
 -0.05586041  0.0491793   0.06302887  0.16235395]
[-0.2733885   0.10726023  0.2295418   0.09735689  0.07174215  0.21309999
  0.16923225  0.36697468 -0.04358621  0.2815328  -0.1229279  -0.3522166
 -0.2535369  -0.07464305  0.04751484 -0.04847584 -0.13731001 -0.01228762
 -0.13112348  0.17033981 -0.15144747  0.13238372 -0.37287056 -0.0275282
 -0.01025937  0.12954916  0.31261677  0.10473542 -0.05481093  0.03356222
  0.35940558 -0.01419481 -0.18387303 -0.43072155  0.02234829  0.17895335
  0.25675496  0.35512722  0.03600805  0.0831442 ]
[ 0.10476141 -0.0192077   0.01686768 -0.02057971  0.04515949  0.02157981
  0.06022013 -0.11011044  0.04926156  0.00730746 -0.09098164  0.09213983
 -0.01683191 -0.00471179 -0.02251446 -0.07868709 -0.01416806  0.03599615
  0.06089107  0.00336195 -0.1386266   0.02508485  0.06611189 -0.01943643
  0.00427235 -0.01655152 -0.02048727  0.06426046  0.04686601  0.01459694
 -0.0061872  -0.00292709  0.034785    0.00543335 -0.00222941  0.15646279
  0.09506211 -0.02430908 -0.03197696 -0.0304649 ]
layer 3 Activation
tanh
layer 4 Dense
40 20
[ 0.0654782   0.01647027 -0.30523476  0.05154638 -0.19687064 -0.14021622
 -0.2226269   0.20186345  0.01434908  0.22032626  0.31670246  0.31675607
  0.01115823  0.3966672  -0.04196464 -0.1398998   0.07169273  0.23405588
 -0.23446558  0.1096762 ]
[-0.0128482   0.02890674 -0.13530064  0.18807416  0.06663795  0.20336153
 -0.30036974 -0.2588447  -0.11335851  0.29226238 -0.17770743  0.03620349
  0.26072314 -0.16756362 -0.14581442  0.09421838  0.18074016  0.0022002
  0.22939649  0.26884457]
[-0.14415212 -0.31958467  0.13591866 -0.1403033   0.00591412  0.07744621
  0.08038399  0.07248209  0.24036933  0.17212039 -0.04675016 -0.0817026
  0.19124866 -0.2458752  -0.03643543  0.1935822  -0.1141885  -0.11841411
 -0.18198901  0.1865099 ]
[-0.22342908 -0.01652915  0.20109394 -0.0686285  -0.20109876 -0.31863445
 -0.3155228   0.19154035 -0.10229485 -0.14445454  0.27982652  0.18603395
  0.14586252 -0.00479464 -0.22504516  0.28634253  0.29638416 -0.1323986
 -0.33103302  0.32097957]
[ 0.22170377 -0.19549038  0.0574247   0.22017276  0.13652818 -0.32125783
  0.09187903  0.13258182  0.08608789  0.17553635  0.3505035  -0.02839413
  0.20321766 -0.35860455  0.00646883  0.33354276  0.02899099  0.3118429
 -0.33584788  0.17955361]
[ 0.30170998 -0.19404596  0.12307627  0.24244148  0.04926211  0.04761509
  0.4168934  -0.2525244  -0.19458619  0.30672055  0.16592324  0.0906862
  0.05410829  0.22627842  0.11572938 -0.21435004  0.19334272 -0.02251574
  0.23820402  0.12916078]
[-0.2753117  -0.21617639 -0.26173624 -0.01098958  0.27828255 -0.1345441
 -0.01308321 -0.04514505 -0.23832807  0.15890013  0.10499249  0.11840573
 -0.04842481 -0.01971553 -0.34142324 -0.14585698  0.19820307  0.34927127
 -0.2329477   0.22730668]
[ 0.1779665  -0.09558456  0.01298548  0.1263108   0.2847591   0.15527715
  0.19217685  0.13173777 -0.25766942 -0.16005829 -0.38065472 -0.08250833
  0.2485856   0.2703039  -0.08294067  0.12942985 -0.02125629  0.24934042
  0.18690749 -0.0618774 ]
[ 0.2171353  -0.10968455  0.10074729  0.10574641 -0.1327369  -0.23556383
 -0.00930179 -0.19835126 -0.17377627 -0.11790632  0.31086057 -0.18752338
 -0.09234588 -0.22044921  0.22276856 -0.12888488  0.2903887  -0.09846574
 -0.32261425  0.0258433 ]
[ 0.25648654  0.13416508 -0.27506772  0.0776082   0.18156832  0.21204449
 -0.35686672  0.3558447   0.29360917 -0.02056946  0.31335723 -0.26240504
 -0.1112101  -0.10408524  0.0978018  -0.32593194  0.08080092  0.3140574
  0.21126089 -0.13671882]
[-0.06708692 -0.34164658  0.23219661 -0.03745797  0.10576976 -0.12754172
  0.14689715 -0.29545975  0.1484943  -0.17389902 -0.07797652 -0.2986802
 -0.25081044  0.06817067 -0.02882229 -0.01830689  0.20197614 -0.19709471
  0.00200145 -0.12964968]
[-0.2853876  -0.21094286 -0.27693656 -0.08996876 -0.17199813  0.11933775
  0.14744712  0.16909644  0.20507105 -0.17051841  0.3379177   0.319014
 -0.24251527  0.06590517 -0.2821516  -0.08245534 -0.13514242 -0.26445153
  0.18652025 -0.07953496]
[-0.25535396  0.26188245  0.3190969  -0.22206938 -0.38183227  0.0215442
 -0.148578    0.21258666  0.1718406   0.16979481 -0.03319732  0.12055393
 -0.23590359 -0.11892804  0.03879737  0.13802487 -0.3265796   0.02166381
  0.10097948  0.08488696]
[-0.1081748  -0.10354448  0.26404136 -0.02739206  0.05723365 -0.09356089
  0.1804106   0.21410276 -0.0429975  -0.4522756  -0.15313528  0.19866136
 -0.0071907   0.01294101  0.19463155 -0.00856698  0.04598138  0.00089871
  0.22636989  0.14102499]
[-0.19420545 -0.0565056  -0.25577947  0.24821214  0.17241396 -0.12692729
  0.26025337 -0.13341342 -0.06608514  0.06945038 -0.16810894 -0.32065794
  0.08781563  0.23445123 -0.10900565 -0.2158885  -0.10508167 -0.10491225
  0.29696694  0.01113764]
[-0.25420272  0.04785924 -0.1315654   0.26308334 -0.2787397   0.02568738
 -0.30539152 -0.1308435  -0.28643084 -0.29126167  0.14720717 -0.31445998
 -0.28186563  0.17114381 -0.2735552  -0.23731405  0.00635684 -0.1578554
  0.24651016  0.07013671]
[-0.18284811  0.03911783 -0.02866252 -0.13774934 -0.3307284   0.00389548
 -0.12658139  0.28829536  0.26440343  0.3076878   0.27928963 -0.31605223
 -0.13287209  0.14148921  0.06531134  0.02785123 -0.15393388  0.00570222
  0.32960945 -0.02188984]
[-0.16144912  0.2272188  -0.06188051 -0.10789743  0.20656894 -0.2553689
 -0.19209208 -0.20213684  0.31090802 -0.22989711  0.01699425  0.08189515
 -0.02401802  0.00498914  0.23604001 -0.07409774  0.17892525 -0.11199149
  0.1966344   0.1378127 ]
[ 0.2334303   0.14067163 -0.20571937 -0.1473683   0.11119851  0.07669172
  0.26941866 -0.30713397  0.09411487 -0.08952893  0.18739085  0.18046123
 -0.00046204  0.07572542  0.09798744  0.14332728 -0.07844051 -0.04032076
  0.09481613  0.30760393]
[-0.1134475  -0.00248016  0.21341598 -0.10122432  0.0083844  -0.02515517
 -0.04883814 -0.37266457 -0.24188665  0.08664691 -0.3942271   0.07218402
 -0.1282448   0.01277396 -0.30586198  0.09005413  0.02155559  0.01737764
 -0.03782943  0.05916012]
[-0.08311173 -0.14234303  0.17123298  0.27604103  0.20279191  0.28945342
 -0.12027955 -0.0503182   0.27910972  0.05411305 -0.02010502  0.24996611
 -0.2167982   0.19967277  0.15982687 -0.19872817  0.04567614  0.2175532
  0.41352782 -0.23612885]
[ 0.12433272 -0.30988085 -0.14744937  0.1382699   0.14875875 -0.11933234
  0.01552996 -0.17404388  0.2410924  -0.29398853 -0.10911376 -0.11143892
 -0.09574751 -0.214476   -0.03005827 -0.18105634 -0.15260829  0.05339687
  0.28384578  0.17089513]
[-0.29452556  0.14817138 -0.14361005 -0.24996953  0.2917587  -0.07574552
  0.03976019 -0.0911792   0.07356914  0.2875108   0.21157962  0.05528836
  0.05584265 -0.14610311 -0.12221223 -0.22965518 -0.1602481   0.12110337
 -0.33681536 -0.29607147]
[ 0.10578457 -0.10224345  0.06739208  0.11155865 -0.15391041  0.15523249
  0.1954781  -0.13724194  0.21737754  0.00260447  0.10506523 -0.07730361
 -0.11919035  0.39034998 -0.13086411 -0.11404867 -0.13543516 -0.07863645
  0.2124624  -0.07440943]
[ 0.42273405 -0.21699987 -0.16614273 -0.1843417   0.1527864   0.16032551
 -0.20833643 -0.27998486  0.10988297  0.04676322 -0.1183022  -0.09703244
 -0.09242583  0.11860582  0.1928446   0.08477718 -0.00360566  0.18455936
  0.42969537  0.19559523]
[ 0.33226645 -0.2886834   0.04583304 -0.19358319  0.01046589 -0.08517081
  0.23739056 -0.2580585   0.22959638 -0.07467008  0.04179968 -0.27248877
  0.19111672 -0.02005447 -0.01742061  0.07925259 -0.23938918  0.16946356
  0.38044673 -0.04373414]
[-0.16834423 -0.26481834  0.15916587  0.14675668  0.06455677  0.08941936
 -0.11779933  0.06835372 -0.19499096 -0.02649168 -0.32144958 -0.25661737
 -0.01211537  0.14428087 -0.30120152 -0.04388963  0.23099856  0.04529672
  0.1232353   0.03724116]
[ 0.32760933 -0.0300162  -0.42839518 -0.16794714 -0.12953603  0.26422435
 -0.34508532  0.17901815  0.09661649 -0.13516502 -0.14002377 -0.17115062
  0.38605058  0.2913436  -0.21052894 -0.1176661  -0.18108727 -0.02966311
 -0.08967343  0.25450364]
[-0.0133807  -0.32040983 -0.08285346 -0.2665316  -0.08561411  0.2994898
  0.22874135 -0.06621975  0.14132139 -0.04066627  0.13999559 -0.05041708
  0.24293885  0.08697321  0.26605773  0.0667517   0.1461566  -0.3010149
 -0.03422112  0.18844089]
[-0.15715261 -0.07021029 -0.00655126  0.11649358  0.19248301  0.24956904
 -0.10268037 -0.09430256 -0.07617396  0.04835463  0.23351102 -0.03489124
 -0.01223804  0.01156651 -0.2558601  -0.06087665  0.19344649  0.09272419
  0.01665522 -0.04065605]
[ 0.3019831  -0.14137495  0.01101222  0.21152386 -0.1660092   0.1061838
 -0.02860116  0.23327862 -0.15239644  0.00837001 -0.11862036 -0.22881587
 -0.16655912 -0.02278677  0.03949831  0.25241214 -0.08994391 -0.03242628
 -0.24097034 -0.19116226]
[ 0.23401332  0.04387351  0.16422635  0.2478842   0.08731838  0.04107779
 -0.1745815   0.13799177 -0.2145345  -0.1483052  -0.08771622  0.12143347
  0.3119044  -0.12061517  0.2402649   0.08819474  0.20868635  0.10032605
  0.03325327 -0.04239399]
[ 0.13145536 -0.03771897 -0.015069    0.1348727  -0.21283504  0.15075758
 -0.11046591  0.27628326  0.15079074 -0.02357486 -0.03195842 -0.05024634
 -0.3492636   0.2223192  -0.33690655 -0.00580934 -0.02044075 -0.09074154
 -0.2729761  -0.23695362]
[ 0.03240547  0.17479749  0.07863075  0.25715292  0.25611728 -0.02693677
 -0.03479447  0.2359056   0.10486307 -0.22359602 -0.06076884 -0.04528569
 -0.13982695 -0.24463879 -0.18950832 -0.19678675 -0.05406264  0.06235737
 -0.19715215 -0.18303108]
[ 0.1917978   0.06269792  0.26903197  0.05150648  0.05002336  0.15390468
  0.03290897 -0.10365096  0.16238792 -0.12880094  0.21916638  0.2155378
 -0.1403083  -0.20324782 -0.20697816 -0.2352251  -0.06174342  0.11861046
 -0.00572327 -0.0889314 ]
[ 0.0463238   0.04173364 -0.27468142  0.23843765  0.12238179 -0.1089771
  0.32303527  0.02188614  0.30482337  0.21149138 -0.27620703  0.13536072
 -0.19405758  0.32909992 -0.05075247  0.16737133 -0.06905366 -0.00833711
  0.30399036  0.18667603]
[ 0.33821708 -0.126009   -0.28856683  0.25144598 -0.17775542  0.15092824
  0.27607822  0.31734923 -0.16972005  0.09947304 -0.08371639 -0.2152409
 -0.09255434  0.06259537 -0.13443972 -0.31229055  0.16363588 -0.03675108
 -0.23289296 -0.02451321]
[ 0.08504771  0.25595203  0.09714538  0.0064328   0.20074031 -0.22330515
 -0.10405023  0.2016188   0.1040094  -0.09648933 -0.16543257  0.2217202
  0.20840305 -0.10710527  0.22153771 -0.031799    0.10657073  0.2076365
  0.18823616 -0.14156112]
[ 0.07535715  0.14699529 -0.15173788  0.1633633   0.09255517  0.00826811
  0.00405703 -0.14478116  0.02974957 -0.06287331  0.2997022  -0.00972831
  0.23828436  0.23048924  0.11315986  0.21815996 -0.30908868  0.23625043
  0.23188251  0.35093576]
[ 0.02667879 -0.25315002  0.1367484  -0.2813155   0.20759052  0.00212186
  0.16342801  0.25699338  0.01505381 -0.04886762 -0.28715006  0.06866125
 -0.29192713  0.19246688 -0.3055841   0.15042543  0.24219163 -0.2606279
 -0.13949783 -0.00038887]
[ 0.05053298 -0.02201605 -0.06793196  0.01095979 -0.01926904 -0.00393977
  0.00615842  0.01730906 -0.00745086  0.03180193  0.03114994 -0.00633681
 -0.01151532  0.01744426 -0.00598177 -0.00897408 -0.00246261  0.01284413
  0.01715747  0.0238226 ]
layer 5 Activation
tanh
layer 6 Dense
20 1
[0.2813179]
[0.0025696]
[0.32755092]
[-0.09257203]
[0.30057633]
[0.01236075]
[-0.14632188]
[0.37564754]
[-0.16376208]
[0.34214005]
[0.35117245]
[-0.21670794]
[-0.3173245]
[0.1301967]
[0.03043091]
[0.00186491]
[-0.0011267]
[-0.1225082]
[0.32630232]
[0.30783466]
[0.00621221]
