layers 7
layer 0 Dense
24 20
[-0.10475359  0.3872955   0.79446447  0.01928689  0.9535893   0.19430123
 -0.17030472  0.56818634 -0.23094036 -0.12058257  0.652096    0.44994047
  0.75407755  0.0179007   1.4156291   0.64804727  0.12334602  0.54345125
 -0.08803699 -0.16157997]
[ 0.11236402  0.2149325   0.3430345  -0.0318873   0.08559451 -0.07449242
 -0.14890236 -0.17730816 -0.06475871  0.49969777 -0.00994011  0.26437974
  0.21332525 -0.09622543  0.22445354  0.09024781 -0.10388572 -0.05637062
 -0.15206052 -0.41650265]
[ 0.03108605  0.56838167  0.1614343   0.01362912 -0.12889251  0.02876917
 -0.04972878  0.08266653 -0.1659938   0.14772455  0.5553254  -0.23356053
  0.16227067 -0.29490423  0.5699943  -0.01511637 -0.11978325  0.00384273
 -0.06104397  0.2028588 ]
[ 0.13687246  0.72342867  0.30746514  0.47066337  0.59282875  0.43507457
 -0.32055974  0.13285632 -0.49826196 -0.21266918  0.74503744  0.2844289
  0.80015665 -0.11028639  1.0826832   0.04974047 -0.34534836  0.14646026
 -0.61084795 -0.6462997 ]
[-0.16886145  0.5069517   0.22166942  0.31987262  0.4069672   0.66561884
 -0.06188647 -0.34394446 -0.06609226  0.29305202  0.17061615  0.48295668
  0.8173174  -0.520037    0.8639603   0.5890777  -0.13507013  0.45504817
 -0.38900357 -0.82519805]
[-0.4705579   0.15022346  0.43809292 -0.3679638   0.18614727  0.1567252
  0.19631982  0.53753954 -0.00074711  0.03881643 -0.11742164  0.19689825
  0.10904306  0.21727239 -0.0451223   0.20511274 -0.02583198 -0.2530957
  0.27577594 -0.16252148]
[-0.23935984 -0.02866522 -0.05149023  0.04587342 -0.21718253 -0.01533998
 -0.17315763  0.4902877  -0.02361717  0.22047715 -0.1378905  -0.17701843
  0.2726016   0.08971936  0.32851693  0.06368438  0.04147086 -0.0408162
 -0.06561348  0.05997349]
[-0.17878857 -0.67234206 -0.7753396   0.01780767 -0.7993998  -0.517242
  0.1614694  -0.32454264  0.5520885  -0.15603335 -0.8837941   0.11776829
 -0.8731807   0.6049737  -1.4790143  -0.8221363   0.21796352 -0.6143669
  0.16704065  0.38033208]
[-0.30281788  0.34171668  0.23805471  0.12821637  0.3869485   0.5488056
 -0.16543213  0.13176167 -0.29023486  0.1797156   0.21698612  0.12487747
  0.22440071 -0.48293716  0.01540741  0.5191201  -0.06454284 -0.01217746
 -0.31502333 -0.24156503]
[ 0.30580476  0.09681787 -0.09901539  0.31419644 -0.04194644  0.3547141
 -0.16758324  0.07391462 -0.0397192   0.06583806 -0.14505585  0.31525353
  0.07761045  0.16303311 -0.06258859  0.3955569  -0.75266296 -0.21722122
 -0.2901768   1.1116542 ]
[ 0.2586768   0.40196705  0.40798652  0.22973514  0.27028045  0.20658156
 -0.26852757  0.00824111 -0.223182   -0.1822353   0.23822632 -0.13913162
  0.02284093 -0.43677735  0.5090301   0.65212804 -0.7610506  -0.09069694
 -0.05589111 -0.06594308]
[ 0.05398034 -0.52624595 -0.84156966  0.27856565 -1.0656922  -0.19278023
 -0.14157529  0.04245189  0.57699794 -0.42717442 -0.98751277 -0.3900197
 -1.3108867   0.84238297 -1.4764383  -0.30993825 -0.3610373  -0.2177512
  0.3291085   1.3717617 ]
[ 0.20855275 -0.0125394   0.14944533  0.50610757  0.26634532 -0.33333942
 -0.5043163   0.37523335  0.189676   -0.33689368  0.24099123  0.18291552
 -0.02450338 -0.47507888  0.3164335   0.27466598 -0.27671194 -0.07225223
  0.00276058  0.04499983]
[ 0.06458754  0.20957798 -0.34773517  0.04099382 -0.5987749  -0.5221563
  0.2606882  -0.15161721 -0.1385964  -0.14838967 -0.07056122 -0.25901675
 -0.18463773  0.04893454 -0.48736036 -0.08635346  0.14325804 -0.20071973
  0.05203563  0.09990305]
[-1.4047743e-01 -1.0539576e-01  5.3761548e-01 -1.4821924e-01
 -1.9269326e-01  3.2264596e-01  2.9075494e-01 -2.8319669e-01
 -2.4039354e-02  2.3388147e-02  1.6353081e-01 -6.8635941e-02
 -2.3076886e-01  2.0153770e+00  1.1258298e-01 -2.0000041e-01
 -1.3149458e-01 -9.9670619e-04  1.4711852e-01 -1.5531603e+00]
[ 0.7121811  -0.4280839  -1.0955914  -0.55191684 -0.89266646 -1.8871216
  0.2615446   0.08218321  0.46579513  0.31047514 -0.32606795 -0.15097685
 -0.9343685   0.30400702 -2.1090817  -0.6362585   0.30904287 -0.56116444
  0.63742995  1.2092147 ]
[ 0.02142093  0.11332665 -0.64308304  0.08863238 -0.00352207  0.21261254
 -0.08714707 -0.07503413 -0.14205919  0.06354968 -0.22909212  0.36704448
 -0.22253472 -0.00480492 -0.17259683  0.27965885 -0.54577875  0.3134977
  0.02082345  0.7716046 ]
[-0.4739129   0.43515494  0.3521449   0.36888856 -0.13859577  0.6229932
 -0.27304953 -0.16593261 -0.06934146 -0.27019724 -0.05434014  0.43550023
  0.28558016  0.13806441  0.3840443   0.38639125 -0.46178612  0.23979732
 -0.02135385 -0.38705087]
[-0.00802936 -0.181568   -0.75132287 -0.52953553 -0.01243161 -0.2993208
  0.16837677  0.68616974  0.05137555 -0.29181492  0.16795358  0.25639609
 -0.53625375  0.19102274 -0.54486734 -0.12716176 -0.01492136 -0.31472486
  0.32072392  1.29849   ]
[ 0.15995492 -0.3019443  -0.87597424 -0.41445407 -0.51669824 -0.24555323
  0.14342919  0.45809916  0.28050053  0.21546267 -0.78865594 -0.201322
 -0.7237642   0.7565562  -1.3993777  -0.581528    0.15241474 -0.21941729
 -0.16465478  1.5857809 ]
[ 0.15735684  0.38177526  0.06594232 -0.1297472   0.3520595   0.15031771
  0.06117354 -0.12273865  0.19454281 -0.2030536  -0.30931526  0.41120717
  0.2413922   0.1962176   0.360281   -0.06579746 -0.20875332  0.37210643
  0.27091035  0.10731471]
[-0.24703886  0.2733309  -0.00334134  0.37652856  0.20490757  0.30326265
  0.03736403  0.31716856 -0.13380349  0.14112644  0.1283241  -0.32028866
  0.2711729  -0.30203748  0.57308555 -0.05534667 -0.30678794  0.07499427
 -0.06560028 -0.63643044]
[-0.33956304  0.23586844  0.76843524  0.3917357   0.592954    0.18136986
  0.04212375  0.11466907  0.03083274 -0.00102733  0.18337241 -0.16435353
  0.20708431 -0.26869214  0.7995054   0.2758224  -0.24785252  0.06684875
 -0.03829348 -0.9130569 ]
[-0.33616558 -0.33548716 -0.4293262   0.10327109  0.05544765 -0.10029081
 -0.0940334   0.36898586 -0.2979973  -0.344707   -0.09025012  0.3782518
 -0.22057782  0.07698328  0.04314768  0.00360276  0.02640063 -0.22886676
  0.09367821  0.01345989]
[-0.04820196  0.22862396  0.4487435   0.01607089  0.2587291   0.12862901
  0.00697987  0.06031315 -0.11863018  0.02291979  0.36937517 -0.00894168
  0.25735837 -0.03788429  0.4577625   0.19643486  0.14802799  0.05703399
 -0.18133172 -0.20693348]
layer 1 Activation
tanh
layer 2 Dense
20 40
[ 2.5787908e-01 -1.9708535e-01  7.0199698e-02  1.2927324e-01
  1.1904466e-01 -1.8470990e-02 -1.6115557e-01  1.1060044e-01
 -4.4446820e-01  7.7413172e-03 -8.0152065e-02  2.4299914e-01
  5.7078195e-03 -2.9984806e-02  3.1718448e-01 -3.0385771e-01
  1.8520209e-01  1.7292699e-01 -9.3830399e-02 -1.3559647e-01
 -1.2673467e-01 -3.7988746e-01 -7.5771533e-02  7.8089960e-02
  2.6101565e-01  2.8988028e-02  6.4262904e-02  3.1386274e-01
  2.3237828e-03  8.2016319e-02  8.3405018e-02 -9.1681167e-02
 -1.2461931e-02  2.0017899e-03  1.0409953e-04 -7.3885649e-02
 -7.5104848e-02  1.0329098e-01  1.1594720e-01 -5.0922787e-01]
[ 0.21543264  0.24148068 -0.41993997 -0.3287406  -0.0510623   0.36615244
 -0.0479622   0.09026655 -0.31700715  0.1415399  -0.36596012 -0.096759
 -0.40433836 -0.79415905  0.31098723 -0.12814571  0.08147673 -0.18017745
  0.23984136  0.13052395  0.08248577  0.39783958  0.06315566  0.42534363
  0.15374896 -0.00831329 -0.29918358 -0.40273163  0.2984232  -0.04684632
  0.27195808  0.01263336 -0.1552307  -0.06934545 -0.17986491  0.20340593
 -0.14910156  0.15075153  0.12593862 -0.40818608]
[ 0.10105771  0.43221164 -0.26105478 -0.07141443  0.03555761 -0.16097939
 -0.2156561  -0.13426498 -0.3958186   0.45955184 -0.34264562 -0.03872227
 -0.3226091  -0.12132575  0.47250953 -0.10523761  0.32165667 -0.13272826
  0.058617    0.0199735  -0.03600327 -0.01448833 -0.04543131  0.65515864
 -0.1030763   0.22612756 -0.34611228 -0.336279   -0.37038663 -0.15788078
  0.17383191 -0.08430172  0.35651457 -0.16071396 -0.12302936  0.2493709
 -0.10078     0.2829589  -0.28179625 -0.38730177]
[-0.25913253 -0.3936177   0.02470755 -0.00086424 -0.04502539 -0.2592605
  0.04048317  0.12591751  0.06375117 -0.15266816 -0.45782742  0.12105942
 -0.33630663 -0.32537138  0.33822826 -0.08177912  0.05643846  0.10217606
 -0.13590893 -0.20794547 -0.20036732  0.17324463  0.18991445  0.2897545
 -0.10466547 -0.1672118   0.13941714 -0.23273818 -0.1506113  -0.158286
  0.07514923 -0.18287581  0.24141352 -0.02504213 -0.2392608  -0.20158465
 -0.3808575   0.00215937 -0.02405865 -0.11769007]
[ 0.08484463  0.4511662  -0.00634896 -0.23634522  0.43494394  0.23214623
 -0.61579746 -0.58561814 -0.12673263  0.14532526 -0.6631377  -0.09989112
 -0.285808   -0.9136674   0.34077874  0.31605902  0.43587106 -0.19677922
 -0.08968983 -0.01622398 -0.05059909  0.12197698  0.28298864  0.12440501
 -0.20557216 -0.00112078 -0.54004157 -0.2646608   0.42297333 -0.47736597
  0.36936054 -0.41891128  0.24700277 -0.35319835 -0.11174265  0.16544141
 -0.30671677  0.32724378 -0.4780223  -0.08868308]
[-0.22937973 -0.0701227  -0.03376728 -0.24580313  0.21017848  0.08396934
  0.23278448 -0.08047691 -0.09636685  0.0817709  -0.23149213 -0.1641611
 -0.32196918 -0.05864611 -0.00517371 -0.15138474  0.1871585   0.26806802
 -0.1498981  -0.0033189  -0.35898712 -0.100983   -0.04152955 -0.07734445
  0.01263148  0.10409089 -0.14484714 -0.3782754   0.37039772 -0.19143963
 -0.10632154  0.13779777 -0.07352087  0.04890252  0.22470596  0.05327643
 -0.06440277  0.07426096 -0.16135901  0.23024455]
[ 0.27543935 -0.14807571  0.0032643   0.07987796  0.05019606 -0.33295476
 -0.39747688  0.22464764 -0.05626897 -0.26455233  0.2674412   0.11258315
 -0.06058773  0.00909281  0.4462102   0.12242545  0.11680865  0.20439179
 -0.2386151  -0.3324989  -0.23299766 -0.20750602  0.24813136  0.031551
  0.03631385  0.43230718  0.12836778 -0.13957903 -0.3274791  -0.00422403
 -0.58103305 -0.10582182  0.1729582  -0.09321394  0.09058502  0.03065061
  0.18501472  0.07789674 -0.11304428 -0.33071455]
[ 0.10406913 -0.0126783  -0.19887732 -0.4972035  -0.029903    0.26489267
  0.21402791 -0.1611482  -0.14901389  0.04559086 -0.05799628 -0.06235945
 -0.1578216  -0.36585873 -0.00460203 -0.15264198 -0.08810597  0.07931507
  0.23702587  0.01177505 -0.14437994  0.22624044  0.18623741  0.4505661
 -0.0291008   0.10308981  0.07963568 -0.10505967 -0.01466584  0.12486161
  0.32200024 -0.27577978  0.06185031 -0.18878192  0.27056715  0.11731532
 -0.60483766 -0.08324527 -0.26759154 -0.03798831]
[-0.1662456  -0.18907923 -0.2914989  -0.12135053  0.12373466 -0.0243291
  0.37468195  0.25059086 -0.03711766  0.17547661  0.02868821  0.26274654
 -0.32747737 -0.13083744  0.09606467 -0.2271236  -0.08439142  0.08647364
  0.1738181  -0.04769016  0.03173848 -0.1812095   0.00837045 -0.0962811
  0.19602378 -0.02512566  0.310726    0.14873561 -0.2663711   0.25962758
  0.24243504  0.02252967 -0.13200808  0.1818579   0.12365744 -0.43476424
 -0.18185125 -0.02665493  0.28625086 -0.12343793]
[-0.08795732  0.00679528  0.1179195   0.0458895  -0.0291438   0.10710075
  0.10542516  0.0686943   0.48893434  0.05703446  0.00986414  0.17525676
  0.11105806 -0.16694283  0.1051239  -0.23573555 -0.06691726 -0.01959838
 -0.1487127   0.24133788  0.13165207  0.3024971  -0.13306731  0.31572005
 -0.16539763 -0.13214916  0.04161018 -0.10297681  0.21830454  0.01779421
  0.13890253  0.08807955  0.07160015 -0.24665302 -0.07043676 -0.19229007
  0.42176324 -0.10758151  0.17639782 -0.282289  ]
[ 0.46437106  0.5285265  -0.08554181 -0.14742269  0.34502307  0.140811
 -0.34149474 -0.26314527 -0.43384874  0.02189579 -0.25920674 -0.19582659
 -0.1543252  -0.6185735   0.25835425 -0.297896    0.04896321  0.02547848
 -0.08636653  0.0420547   0.06180764  0.31392586  0.09915576  0.2696845
 -0.23794983 -0.26592463 -0.7537476  -0.37409043  0.25128168  0.05981234
  0.5881171  -0.24885021  0.23600802 -0.246976   -0.11136013  0.30903468
 -0.26798913  0.25263926 -0.00767882 -0.3873074 ]
[ 0.2708346  -0.09841739 -0.01363836 -0.1011201   0.23836207 -0.1634181
 -0.38417542  0.08215788 -0.03834143 -0.04422891 -0.33398318  0.26694292
 -0.17884727 -0.18847232 -0.10342336 -0.19968121  0.08742039  0.18455637
 -0.25240234 -0.24073584 -0.13028401 -0.01345675  0.0413802  -0.0332487
  0.1998686   0.27696973  0.04144892  0.16683109 -0.09723491 -0.06264273
  0.2793159   0.07073173  0.09805395  0.08259052 -0.16901694  0.12708473
 -0.20798454  0.01393852  0.13865234  0.13833568]
[ 0.5144307   0.33012438 -0.43557775 -0.25175968  0.21526377 -0.07236194
 -0.6846727  -0.25803372 -0.34799442  0.63511467 -0.680178   -0.08655991
 -0.37953046 -0.4458231   0.4627728   0.07779431  0.3531697  -0.29028484
 -0.29509217 -0.03251047 -0.1650334   0.48533827  0.06654168  0.62999505
 -0.11750712 -0.20062385 -0.19945341 -0.4428359   0.15589577 -0.2163824
  0.40732455 -0.2618945   0.03046256 -0.23128907  0.04011013  0.21237569
 -0.0897394   0.17309085 -0.23366898  0.05588863]
[-0.2867921  -0.26386383 -0.16240089  0.33106214 -0.04853747 -0.3128355
  0.17668994  0.41025776  0.15879054 -0.49688342  0.01327324  0.20634076
  0.10130649  0.52877516 -0.01396993 -0.1029392  -0.00933726  0.00275155
  0.10682721  0.11749166  0.464317   -0.04082459 -0.30128002  0.04595596
 -0.0211962   0.08605659  0.0606502   0.13854922  0.23927286  0.2746806
 -0.12223254  0.22330995  0.04730079 -0.00430544  0.37561163  0.11385253
  0.36052954 -0.31970504  0.28731814  0.13150118]
[ 1.6606942   1.710971   -0.70808977 -0.12165377  0.50908107  0.73266554
 -0.7776756  -1.6284937  -1.4948155   1.4442866  -0.6487921  -1.150214
 -0.35770696 -0.59160566  0.9438411   0.86647975  0.8554775   0.04201061
 -0.546403    0.05565598 -0.60186356  1.24555     0.98903465  0.6979613
 -0.47857878  0.00941887 -1.1417985  -0.9934263   0.61142147 -1.0030271
  0.25868648 -0.8127952   0.74216366 -0.8806541  -0.5650384   1.0354363
 -0.314804    1.0492316  -0.8229855  -0.56286776]
[-0.13426866  0.14590771 -0.09238216  0.00871322  0.11155599  0.04792221
 -0.02550367  0.11605475 -0.01602941  0.4433266  -0.35343647 -0.24678451
 -0.41437933 -0.37949982  0.07172902 -0.07740489 -0.22616261 -0.14310136
 -0.05380197  0.09951938 -0.2838804   0.32664186  0.34238032  0.35932404
 -0.25970745  0.08302336  0.07290364 -0.2793223   0.12598939 -0.02742549
  0.1892658  -0.05477703  0.20724678 -0.16532269 -0.23799543  0.33644783
 -0.5674788  -0.16650707 -0.1023442  -0.02612734]
[-0.13247724  0.08191242  0.03857755  0.13219431 -0.0322847  -0.15274964
 -0.3030572  -0.2476772   0.06630989 -0.19706021 -0.61341745 -0.14438814
 -0.11985932 -0.20584472 -0.15945655  0.20859163 -0.04234193 -0.12670977
 -0.22470252 -0.04947824 -0.19034038  0.18060447  0.3412432   0.09198403
  0.08203759 -0.10484556 -0.0348393  -0.17411469  0.09066541 -0.27323714
 -0.26479506 -0.03898492  0.13554017 -0.00358535 -0.3643624   0.0247751
 -0.11759888  0.21530145 -0.10562139 -0.32852712]
[ 0.1241849   0.08516969 -0.11035204 -0.14427665  0.56667227 -0.43234864
 -0.23824559 -0.16728036 -0.12321626 -0.1099204  -0.3300905   0.212757
 -0.3961332  -0.05342098  0.13509528 -0.05670143  0.02301418 -0.1130037
  0.1805397  -0.08079121 -0.14265835 -0.21083932  0.18653281  0.04179745
 -0.13093404 -0.08339991 -0.161722   -0.15897559  0.05544475 -0.04846646
  0.41493195 -0.30222008  0.05070722  0.19907719 -0.2046868   0.06754778
 -0.43140432  0.20996875  0.14490147  0.2640724 ]
[-2.03603178e-01 -1.09948158e-01 -3.32643613e-02  2.90711224e-01
  9.80695561e-02  1.19056970e-01  3.47988158e-01  1.26058847e-01
  1.52124405e-01 -3.31592262e-02  4.86825019e-01 -3.57762426e-02
  4.46379155e-01  9.94065963e-03 -3.91969353e-01 -7.64655322e-03
 -1.07882231e-01 -2.21088980e-04 -1.96023166e-01 -2.70865788e-03
  1.08014140e-02 -2.47759819e-01  2.96213217e-02 -2.63497144e-01
  2.43218154e-01  1.28393888e-01 -1.99789256e-01  3.91847342e-01
 -1.66062027e-01  1.61305130e-01  2.06384093e-01  2.76238799e-01
 -1.23817831e-01 -5.80712631e-02 -1.41960502e-01  2.45504454e-01
  2.83047259e-01 -9.60576162e-02 -1.14682734e-01 -3.56842220e-01]
[-0.95211005 -0.70412153  0.68349946  0.23148304 -0.3085066  -0.11544788
  0.62766916  0.65400726  0.63105273 -0.93367445  0.23390114  0.77040344
  0.27398428  0.35968584 -0.542123   -0.6464357  -0.14963421  0.06460788
  0.01209     0.01186343  0.75843096 -0.5660733  -0.5721067  -0.6250157
  0.07614321  0.12060273  0.70119286  0.3794012  -0.1601195   0.5058834
 -0.17933673  0.6197975  -0.1905186   0.27452022  0.48526406 -0.70891833
  0.16763276 -0.6110236   0.31051928  0.6724252 ]
[-0.00871564  0.01240022  0.02080037  0.07390705  0.1411659  -0.2198263
 -0.15829407 -0.20629765 -0.16966578 -0.24376664 -0.22220607  0.14034177
 -0.14651223 -0.05198193  0.24572976 -0.08625002  0.12589769  0.04312542
  0.00708588 -0.00620807  0.07931688  0.03544936 -0.19262096  0.18465683
 -0.13347872 -0.14694895  0.1531181  -0.10706138 -0.07370584 -0.06996046
  0.11506058 -0.16681632  0.03971672  0.00043159 -0.03888862 -0.02945012
 -0.01003043  0.14639907  0.18108384 -0.02052681]
layer 3 Activation
tanh
layer 4 Dense
40 20
[ 0.5478677   0.01279174  0.09060179 -0.12189919  0.09707566  0.01604984
  0.18399464 -0.62204397  0.18444282 -0.1214936   0.25946286  0.3080286
 -0.49598092  0.37336168  0.33932453 -0.4983718   0.6441278   0.15999034
 -0.01786146  0.09862889]
[ 0.45258075 -0.43607166  0.10511831 -0.651181    0.33160427 -0.17217073
  0.19933128 -0.6075058  -0.04259193 -0.39067635  0.61486804  0.67670053
 -0.67916036  0.06893589  0.44945782 -0.37720093  0.41833416  0.18168788
 -0.27974564 -0.19315512]
[-0.35688177  0.29157498 -0.44844174 -0.0462906  -0.36855274  0.03448208
  0.11341393  0.22529393  0.23759544  0.508969   -0.5425885  -0.39342073
  0.17671692 -0.28243688 -0.04297794  0.3286619   0.10601401 -0.32332036
 -0.07622764  0.12700182]
[-0.29631087  0.73208916 -0.11717764  0.09716063 -0.14750874 -0.12966546
  0.23847179  0.02466617  0.3230599   0.5610326  -0.8490845  -0.19410859
  0.3600853  -0.27181765  0.12146881  0.22969699 -0.16036843 -0.02849088
 -0.08504274 -0.15572652]
[ 0.04320229 -0.21012165  0.3637142  -0.15654336 -0.09825544 -0.04164701
  0.33269486 -0.09558024  0.16567579 -0.4036936   0.28279743  0.23584943
 -0.6511928  -0.10648309  0.05839505 -0.2536955   0.32731164 -0.14495908
 -0.1480567   0.2092579 ]
[ 0.3988927  -0.0744583   0.2308469  -0.2167263   0.25911933 -0.09581501
 -0.11004423 -0.1671115  -0.01023917  0.08338759  0.22360113  0.00091052
  0.17022909  0.07027891 -0.1057039  -0.10076172  0.36412594  0.10340402
 -0.2319768  -0.01869684]
[-0.0554073   0.22964023 -0.21549155  0.13399117 -0.09628657 -0.17944975
 -0.11120409  0.17921032 -0.090887    0.33922338 -0.2187567  -0.02756288
  0.4020737  -0.3289759  -0.20447783  0.301691   -0.74814945 -0.06581171
  0.18590672  0.0249861 ]
[-0.23047054 -0.09616535 -0.35349622  0.21819443  0.06432727  0.12480879
 -0.09649564  0.23124032  0.07770392  0.17755054 -0.40929678 -0.33538306
  0.05774948 -0.06267106 -0.34913835  0.5692076  -0.7248068  -0.03116222
  0.21658905  0.15635364]
[-0.45477396  0.09747227 -0.34493306  0.15509562 -0.5483684   0.05886677
  0.02355279  0.6399729   0.05630348  0.6873918  -0.40627187 -0.37026054
  0.25968766 -0.2749688  -0.47228792  0.54136807 -0.0435634   0.11194929
  0.2632053   0.08382312]
[ 0.65999484 -0.22626534  0.20439339 -0.05899899  0.40399957  0.00551511
  0.17604344 -0.2659716   0.06555279 -0.4283855   0.50896394  0.06346375
 -0.20601308  0.2611182   0.4215322   0.02242322  0.43307137  0.16016163
 -0.51961654  0.09662665]
[-0.04798033  0.36916974 -0.32182273  0.07081664  0.33155698 -0.19404148
 -0.31963414  0.22236055  0.00332166  0.3782772  -0.14293712 -0.4606601
  0.2923752  -0.17478855 -0.0763988   0.22428796 -0.16779734 -0.21559833
  0.18030386  0.49842066]
[-0.3455901   0.17583601 -0.11139169  0.25422704 -0.37631088  0.09720792
 -0.07136542  0.6171836   0.22401564  0.20196043 -0.3280969  -0.25006726
  0.00336919 -0.44775206 -0.26430136  0.02375324  0.10979639 -0.11561307
  0.4435509   0.19704266]
[ 0.05456783  0.32702237 -0.1369974  -0.02838265 -0.36471534  0.19466685
  0.12116611  0.09029528  0.03220885  0.41303682 -0.16979598 -0.49135455
 -0.17034093 -0.3907719   0.04203506  0.06756806  0.1670666  -0.12183037
  0.24892591 -0.06950023]
[ 0.03245587  0.3492453  -0.45419922  0.23116727 -0.27035218  0.21537557
 -0.07594032  0.13483465 -0.00471732  0.50086    -0.36720744 -0.35077462
  0.2232366  -0.27221206  0.1352893   0.24057223 -0.39309394  0.0619884
  0.04681002  0.10431115]
[ 0.17068714 -0.38436794 -0.0293229   0.18617555  0.36875853  0.09443256
  0.23038687 -0.21657419 -0.32903874 -0.53069174  0.4988608  -0.02727391
 -0.35677546  0.11641231  0.11278965 -0.40410772  0.18407822  0.04891219
 -0.08887896 -0.08041403]
[-0.05409816  0.11313315  0.03194102  0.07642591  0.02394925  0.05538458
  0.26139122 -0.1479754  -0.1721612   0.08691356  0.05621882  0.3426872
 -0.26998964 -0.08583292  0.0749991  -0.35162094 -0.06269405  0.03682021
  0.26154968 -0.10038625]
[ 0.1415145  -0.18118036  0.4767773  -0.23111087  0.49932355  0.2410739
  0.06150747 -0.26123327  0.06420773 -0.5361193   0.2830082   0.5018824
 -0.9979105   0.13597369  0.2206104  -0.61625034  0.3331898   0.3222834
 -0.12374114  0.00576523]
[ 0.03611015  0.04729939 -0.14355908 -0.16320044  0.18216822  0.12854262
  0.09959269  0.02892821  0.21502438  0.48171338  0.04000263 -0.19147354
  0.54981524 -0.27541432 -0.03526866 -0.02438683 -0.4093885  -0.13760264
 -0.07066555  0.15898123]
[-0.25022244 -0.17651567  0.11432417  0.29195002  0.23350859  0.12508045
 -0.06029581  0.2595522   0.015708    0.48585594  0.0296888  -0.2861785
  0.70179003  0.33403876 -0.34312102  0.16372415 -0.51252586  0.189377
  0.22290905 -0.13616051]
[-0.20420319 -0.05001963 -0.10637025 -0.10443893 -0.02544923  0.04054958
 -0.18671495 -0.0236151   0.06947113 -0.02952795  0.06335469  0.08796202
  0.5378885   0.22969835  0.06394188  0.10994715  0.44406572 -0.09477352
 -0.30594766 -0.07697802]
[-0.23282778  0.54290557 -0.47367206 -0.19125727 -0.49804592  0.15976256
 -0.11505368  0.27507663 -0.00137779  0.13628674 -0.2701549  -0.08674082
  0.49787644  0.09266763 -0.122396    0.06087589 -0.03003925 -0.0289402
 -0.09578525 -0.00948673]
[ 0.16403453 -0.22515382 -0.00307123 -0.29999417  0.21768667 -0.07473551
 -0.25431472 -0.44823867 -0.37305778 -0.28180045  0.14417808  0.3401193
  0.3864733   0.23990004  0.10122846 -0.2653161   0.22320902  0.22788559
 -0.29271567 -0.40445653]
[ 0.11767527 -0.44916198  0.305035   -0.12954256  0.08694985 -0.09187125
  0.22630455 -0.12584022 -0.05799213 -0.3601936   0.5103367   0.24676603
 -0.43320805  0.03734082  0.0749107  -0.09828816  0.09520245  0.21509522
 -0.20713088 -0.07246135]
[ 0.17069864 -0.66297585  0.44301054 -0.5132194   0.13650206 -0.00435165
  0.3208251  -0.47609168 -0.21905065 -0.71673644  0.4950168   0.423617
 -0.02540358  0.28286678 -0.06302985 -0.16044754  0.36171976  0.11532304
 -0.3167745  -0.32732612]
[ 0.12174003  0.06952558 -0.1436321   0.2540619  -0.01678213 -0.14244248
 -0.04377782  0.18424088  0.23200507  0.06225035  0.04553505 -0.08073508
 -0.23816574 -0.36354864 -0.28435642  0.30418867 -0.13023917 -0.1430854
  0.05160853  0.30038628]
[-0.0842583  -0.22389665 -0.1295412   0.1767439   0.05832496  0.05468106
 -0.07265622 -0.01194181  0.155232   -0.2138965   0.05014188  0.1897641
 -0.19745359 -0.22360834 -0.14798597  0.10985042 -0.62226653 -0.10482235
  0.00996482  0.16476586]
[-0.15924905 -0.0060954  -0.25198063 -0.03743364 -0.17814793 -0.01332032
  0.18736221  0.5239039  -0.08321544 -0.22512947  0.0349017  -0.554721
  0.32966006 -0.4096171  -0.16217752  0.19708678 -0.09388155 -0.3052766
  0.07494237  0.29895556]
[-0.08671082  0.08909217 -0.16180594  0.15135768 -0.15993506 -0.08124269
 -0.11820332  0.3366509   0.511594    0.5672416  -0.27927858 -0.59408957
 -0.0122644  -0.214186   -0.28339756  0.08445626 -0.52701163 -0.33474338
  0.27812314  0.40159574]
[ 0.07064506 -0.02771242  0.32792887 -0.26740903 -0.3807428   0.177412
  0.12517793 -0.17209353 -0.11155395  0.08159813  0.03499708  0.24833314
  0.25763866 -0.12346543 -0.10538778 -0.3871937   0.07563764  0.10347588
 -0.11902404 -0.48144767]
[ 1.3108481e-01  1.0410166e-02 -4.7232121e-02  4.2412090e-01
  1.7622143e-01  6.0910378e-02 -3.3108953e-02  4.0444648e-01
  1.7642599e-01  5.9519064e-01 -4.2992368e-02 -6.1737120e-01
  4.4907248e-01  5.1676249e-04 -3.2658333e-01  1.1204829e-01
 -2.2756800e-01  2.2576246e-01  1.9769306e-01  3.5989013e-01]
[ 0.06797692 -0.20043208  0.19090565 -0.10657056 -0.2022941   0.02348923
  0.06907031  0.10783814  0.13472576  0.17462537  0.44630265  0.07270351
 -0.1768997   0.16989763  0.14536095 -0.12727375 -0.21221244  0.02962283
 -0.20790231 -0.10370201]
[-0.23414186  0.2957125  -0.4054397   0.21807325 -0.282663    0.24975191
 -0.12780711  0.4758979   0.33269748  0.6914942  -0.35842717 -0.55532753
  0.33100483 -0.1824188  -0.22154786  0.36048836  0.09332176 -0.2138564
  0.06034228  0.2085864 ]
[ 0.20298769  0.11083679 -0.06966051 -0.27380472  0.07622487  0.16021766
  0.32175598 -0.4132416  -0.3622508  -0.10433716 -0.16876759  0.08940585
 -0.5471292   0.34227085  0.01560275 -0.09152442  0.66751796  0.3391826
 -0.2595656  -0.16075946]
[-0.18334147  0.20861432 -0.09537186  0.21016935  0.08745485 -0.21271384
  0.04196228  0.47480825  0.0968391  -0.04704986 -0.15765062 -0.39436242
 -0.00874186 -0.05573348  0.08369959  0.37330145 -0.7941902  -0.21810928
 -0.05072653  0.2512578 ]
[-0.05321978 -0.07454989 -0.08169382  0.2928877  -0.12149253 -0.06801809
 -0.08821216  0.45691097  0.2293207   0.1306104  -0.34874016 -0.3524384
  0.33306688 -0.20161118 -0.38171658 -0.23742662 -0.46726128 -0.25022992
  0.00579234  0.35040542]
[ 0.12592293 -0.24084881  0.2539263  -0.5620591   0.08315751 -0.1659618
  0.01320341 -0.4161506  -0.09206103  0.04389703  0.1254283  -0.00239849
  0.04853057 -0.00726432  0.15208414 -0.5271858  -0.06537136  0.1672194
 -0.03548382 -0.39521328]
[ 0.00855413  0.2650746  -0.22360113 -0.0741161   0.15795632 -0.07031118
 -0.01531201 -0.19272384  0.24493112  0.03478927 -0.36119485 -0.24836479
  0.13865334 -0.1679655  -0.06048313  0.08109913  0.27850777 -0.35962275
  0.02336656  0.18828292]
[ 0.06136718 -0.51059407  0.23837772 -0.3413083   0.47192416  0.16513327
  0.068441   -0.39383712  0.20863383 -0.17727166  0.26353917  0.31638622
 -0.41427618  0.08371191  0.25511375 -0.2421882   0.20074488  0.13276075
 -0.08047599 -0.09926694]
[-0.03149707  0.07565145 -0.2715502   0.15707573 -0.13654934  0.02505506
  0.10157567  0.41157898  0.18900631  0.05403962 -0.43937808 -0.12023711
  0.05186749 -0.19749238  0.0908193   0.21289337  0.31796384 -0.1001256
  0.07130355  0.11254664]
[-0.3511457  -0.17238335  0.08094442  0.33763316 -0.4486323  -0.01469315
 -0.00610282  0.3729082  -0.18103786  0.07510246 -0.3544261   0.09747969
  0.00384116 -0.17660645 -0.15311672  0.05677158  0.59953123 -0.13956684
  0.04905174  0.21743982]
[-0.34016702 -0.00168211 -0.01282657 -0.0131905   0.10923122 -0.10675199
  0.07390807  0.0154836   0.08586106 -0.33292034 -0.12090283 -0.02580516
 -0.32074335 -0.02297161 -0.21519305 -0.07472154  0.00355373  0.02522319
  0.04671258 -0.19090623]
layer 5 Activation
tanh
layer 6 Dense
20 1
[-0.15558764]
[-0.03685184]
[-0.00362738]
[0.03019751]
[-0.00872209]
[-0.00559392]
[0.00503669]
[0.16304968]
[-0.00395505]
[0.00224441]
[0.00819358]
[-0.03928449]
[-0.03547983]
[-0.01730059]
[-0.08858123]
[0.16954185]
[-0.0513902]
[-0.04590727]
[0.0676967]
[0.05251589]
[0.80113983]
