layers 7
layer 0 Dense
24 20
[ 0.9281941  -0.49366274 -0.76164174 -0.1858247   1.231171   -1.3195819
 -1.3542756  -0.6789029   0.16454569 -0.74544525  0.41552255  0.16481853
 -0.8973174  -0.28948236  0.39805767 -0.5563224   1.2866486  -0.9159181
 -0.42927283 -0.03940731]
[ 0.11467159 -0.2000281  -0.27026364 -0.2620115  -0.11814711 -0.47597435
 -0.5942682  -0.06830209  0.08986124  0.0197323  -0.15067467  0.293763
  0.09836929  0.55688274  0.38286436 -0.27092806  0.5261225  -0.69961226
 -0.3175102   0.43020645]
[ 0.43026483 -0.53851694 -0.7226311   0.01584762 -0.01956349 -0.54150677
 -0.30304852 -0.28849447 -0.09275906 -0.07405034  0.18921281  0.592358
 -0.08060179  0.20078427 -0.08084039 -0.1500197   0.4888421  -0.23507631
 -0.63069344  0.6780842 ]
[ 0.75537837 -0.7947827  -0.15145127 -0.5455436   0.9065144  -0.44209424
 -1.0857625  -0.4114487  -0.50980234 -0.13418254  0.20990397  0.15380627
 -0.5851132  -0.21457796  0.45262444 -0.17899214  0.9378885  -1.0326581
 -0.43934372 -0.335602  ]
[ 0.67755556 -0.5504659  -0.6214507  -0.27854037  0.6676063  -0.54981434
 -0.88599247 -1.0056709   0.28258818 -0.5891676   0.6371614  -0.22360986
 -0.3000764  -0.7107236  -0.09047135 -0.63753563  0.15849303 -0.6852594
  0.17130975 -0.47115344]
[-0.1235775  -0.14804466  0.1438055  -0.13855664 -0.19344789 -0.02852922
 -0.01478349 -0.15346833 -0.15216802 -0.24049486 -0.26306325 -0.49302948
 -0.07429619 -0.41318798  0.36767796  0.07860415 -0.07874913 -0.15201858
 -0.15926893 -0.068749  ]
[ 0.15479429 -0.21188733 -0.09347463  0.10619321  0.02935447 -0.16758002
  0.03802359  0.25089    -0.30121806  0.18269043 -0.09766241 -0.14337623
 -0.4300997  -0.08509869  0.6906394  -0.3338358   0.16062391 -0.16225977
  0.17774068 -0.02522108]
[-0.8542178   0.7425125   0.26438364  0.44437715 -1.2726779   1.2708362
  1.3796762   0.3118432   0.21668099  0.7498078  -0.14984284 -0.3123018
  0.8133667  -0.05227472 -0.4232916   1.2544105  -1.3872856   1.5252562
  0.3537865   0.456093  ]
[ 0.3453348  -0.03079366 -0.38404498 -0.01681327  0.18684839 -0.46428758
 -0.23594947 -0.4962961   0.38831958 -0.4535709   0.4319078  -0.43465936
  0.04347047 -0.6634664  -0.62702763 -0.49930057  0.3120998  -0.5041641
  0.5154415  -0.18755011]
[-0.7872572   0.14766082  0.7606224   0.16996796  0.3350391  -0.18281631
  0.01509381  0.7372499   0.08619283  0.12760651  0.21472815 -0.05659195
 -0.04362819 -0.35853413 -0.35869575  0.3263404  -0.14754465  0.08616485
  0.24645694 -0.1603461 ]
[ 0.05854373 -0.32141936  0.33396205  0.10567284 -0.13194266 -0.39884862
 -0.66775215 -0.9434586   0.25059512  0.35004145  0.74977684 -0.00161556
 -0.9825484  -0.36683896 -0.37843254  0.0993298   0.2953543  -0.5725884
  0.16460374 -0.99145997]
[-0.9356908   1.0333554   0.8746497  -0.00718003 -1.5754874   1.6255236
  1.621917    0.69015056  0.52544653 -0.03455931 -0.09694754 -0.12531678
  1.0119591   0.3585367  -0.24884832  0.84140587 -0.7330169   1.2345233
  0.08335293  1.082536  ]
[ 0.52729446  0.13103944 -0.05121037 -0.14288457  0.26747236 -0.33452666
 -0.23290606 -0.7279839   0.55604625 -0.37847564 -0.04251237 -0.42192402
  0.01891234 -0.3233318  -0.3498416   0.02208605  0.2638038  -0.27938482
  0.29153994 -0.5245166 ]
[-0.51382965  0.1520065  -0.47504163 -0.18910608 -0.23550145  0.23632738
  0.4051178  -0.15206023  0.10838088  0.6176923  -0.58742464  0.27384174
  0.14709651  0.25260958  0.0773629   0.25526538 -0.2848268   0.5351538
 -0.0238516   0.5608934 ]
[ 0.604781    0.05264407 -2.2248535  -0.03551466 -0.39556786  0.11521602
 -0.3179466   3.0924263  -0.24832048 -1.9467634   0.1561515   0.25398064
  4.2895665   0.16935594  0.4104184  -5.4391823  -1.6224998  -0.57071877
 -0.28522494  0.37909958]
[-1.5752681   0.31936303  0.64551103  0.0553626  -1.476354    1.5100684
  1.7168053   0.57421696 -0.13281111  0.7210735  -0.9004965   0.1521355
  0.693614    0.782361    0.13954481  2.784227   -0.34234557  1.6617584
  0.24510433  1.2072396 ]
[-0.72303957 -0.18351975  0.0318519   0.25221655  0.04504648 -0.04267645
 -0.07275578 -0.47173113  0.28064445  0.06207363  0.00964681 -0.33269167
 -0.4534628   0.06663919 -0.4297322   0.13731745 -0.22031297  0.3566182
  0.59160644  0.188147  ]
[ 0.98930603  0.07168485 -0.16002631  0.03925348  0.22298536 -0.3166751
 -0.31631774 -0.3013009   0.31810394 -0.94652224  0.38807634 -0.19671786
  0.20357445 -0.50099856 -0.22530754 -0.19857664  0.3437737  -0.08176189
  0.27805632  0.34409755]
[-0.65778166  0.24175748  0.6625524  -0.19062759 -0.7374      0.43955916
  0.48024997  0.5938449   0.01815196  0.31372458 -0.64561045  0.4838798
 -0.14369744  0.34192914  0.44603533  0.8233144   0.05429578  0.6717225
 -0.23961918  0.67441446]
[-1.3460252   0.43394503  0.11160911  0.24555884 -0.5470942   0.6339954
  0.8843615   0.45755598 -0.04815409  0.80118185 -0.56720346 -0.06575924
 -0.7320272   0.30589566 -0.66840696  0.87471515 -0.9676137   1.2468252
  0.29606375  0.02357772]
[ 0.3379802   0.13819306 -0.28489947  0.4133248   0.530735    0.13404454
 -0.20559531 -0.05544935  0.34143004  0.17912266  0.15622899  0.09125166
 -0.33320028  0.00947013 -0.26982725  0.10556961  0.02014156 -0.42380923
  0.2692437  -0.55065864]
[ 0.01692729 -0.22957143 -0.60269517  0.16279207  0.52404934 -0.36112392
 -0.47307003 -0.14468028  0.3152991   0.04939034  0.12536007  0.01877735
 -0.20100981 -0.20249368  0.10662971 -0.5734012  -0.913759   -0.30354735
  0.18038237 -0.48012355]
[ 0.34976947 -0.08400431 -0.13863471  0.4455735   0.5355717  -0.30892086
 -0.63915265 -0.8716596   0.06613456 -1.1111258   0.36805412  0.04415537
 -0.1717705  -0.36582446 -0.23506942  0.01488537  0.36862695 -0.5340034
  0.18356638  0.12288674]
[ 0.10491163 -0.00125051 -0.13621476  0.24692856 -0.11289565  0.11860154
  0.22090441  0.10346275  0.40456435 -0.09564513  0.03493405 -0.43600607
  0.05267075 -0.462546   -0.38142148  0.02436701 -0.40062028 -0.14209358
  0.6093617  -0.01355924]
[ 0.28284004 -0.31591436 -0.184087   -0.30650482  0.26359427 -0.31127518
 -0.38673675 -0.05296677 -0.17060243 -0.15627824  0.07737825  0.22744998
 -0.13801749 -0.02103933  0.4296191  -0.3859817   0.4932048  -0.5131173
 -0.3723416   0.09270353]
layer 1 Activation
tanh
layer 2 Dense
20 40
[-0.43686086  0.33457616 -0.858885   -0.8887027  -0.26228848  0.14225948
 -0.02142289  0.58973455 -0.07295828  0.7335552  -0.25199053 -0.2400327
  0.49006397  0.3134107  -0.40279278 -0.33084366  0.49599224  0.31527433
 -0.13311239 -0.27663162  0.15498146 -0.6263544  -0.5394523  -0.5408499
 -0.7080085  -0.14769949 -0.33960044  0.80593127 -0.4874704   0.36347044
  0.5822089   0.17401338  0.4720917  -0.40458238 -0.794294    0.06786136
 -0.4592333  -0.87640005 -0.05687147  0.5662409 ]
[-0.02024101 -0.10964523  0.12730183  0.11590178 -0.00830278 -0.09911651
  0.20836668  0.55955666  0.03763051 -0.38757753  0.18813936  0.09763939
 -0.09704171 -0.14095703  0.2802843   0.421358   -0.01711279 -0.3631999
  0.04481352 -0.08674838 -0.10705833  0.21888018 -0.09269208  0.2049484
  0.56590164  0.19291994  0.50265455 -0.44680882  0.2391652  -0.670768
 -0.37500915 -0.33938766 -0.2694829   0.29907712  0.44478148 -0.10494038
  0.1947056   0.27332625  0.48188803 -0.1135905 ]
[-0.15847944 -0.3845955   0.3374595   0.19254944  0.59463084  0.00803153
 -0.35323793 -0.48315334  0.2748177   0.09508209  0.00704397 -0.21563204
 -0.50292385 -0.02617265  0.08884898 -0.33811083 -0.3487813  -0.00884763
  0.01216785  0.4415935   0.01373792  0.16421604  0.01261086  0.3975184
  0.2442264   0.11856163  0.3804466  -0.10443223  0.17623374 -0.07858282
  0.27398485 -0.55551815 -0.18120748  0.3475777   0.02805997 -0.28307498
  0.20398936 -0.10235584 -0.12589638  0.15762024]
[-0.22546847 -0.12997419 -0.01059191  0.15567705  0.04393894 -0.4635151
 -0.5147515   0.17671953  0.3371109  -0.04847077  0.12873556  0.477755
 -0.04769359 -0.2684851   0.05645367  0.32839632 -0.15702483 -0.16526027
  0.47569048 -0.12996982 -0.4069016  -0.28089857  0.48906744  0.17257847
 -0.11739536  0.15069138  0.12183344  0.03634434  0.4148503   0.09290413
 -0.13210942 -0.3480103   0.03229591 -0.27398095  0.19338836 -0.24393588
 -0.02541553  0.00062153  0.08833494  0.00515906]
[-0.17018309  0.47333488 -0.3925962  -0.17704691 -0.45674786  0.28873804
  0.03220432  0.5376376  -0.29449522  0.44042397 -0.1712114  -0.45869592
  0.32942474  0.6440759  -0.00886398 -0.02513126  0.45904428  0.2659104
 -0.22124667 -0.17441137  0.05476032 -0.37077683 -0.42715877 -0.6265091
 -0.19626683 -0.3974351  -0.47287408  0.12953086 -0.5252908  -0.06288718
  0.11623424  0.14955738  0.30498946 -0.25126293  0.05388     0.12269372
 -0.21420166 -0.25406304  0.25429234  0.4182759 ]
[ 0.24318233 -0.58144957  0.5784226   0.23470664  0.29031703 -0.44238144
 -0.46357507  0.0012189   0.00174012 -0.10414069  0.29481518  0.5672864
 -0.16861306 -0.2744179   0.13887277  0.07567117 -0.24637696 -0.07181163
  0.16125451 -0.16033919 -0.44370213  0.05895881  0.12241659  0.38005456
 -0.03806369 -0.10452008  0.20568964 -0.18054219  0.590581    0.12484618
 -0.34996745 -0.28021756 -0.08452367 -0.06466602 -0.0677806  -0.19711034
  0.3808418   0.15969722  0.19397578 -0.03694094]
[ 0.97265846 -0.9089852   0.7569575   1.0392518   1.4634917  -0.9117488
 -1.3058567  -0.728897    0.35446912 -0.5961027   1.109249    0.9786755
 -0.8864419  -1.2337673   0.5236809   0.43790781 -0.8767488  -0.9706343
  1.0844388   0.2567165  -0.8676783   0.7110678   0.880582    0.9212427
  0.78534997 -0.22660217  0.18858442 -1.0940735   0.80637455 -0.3273005
 -0.6239972  -0.1615354  -1.1514268   0.5202548   0.85899144 -0.35425252
  0.85136616  0.850211   -0.43408325 -0.9948646 ]
[ 0.37336373 -0.3612845   0.13652223  0.543345    0.50674117 -0.3152485
 -0.11552782  0.00428996 -0.05422154 -0.53197926  0.48394984  0.41391078
 -0.5722142  -0.47847688  0.6562164   0.6948291  -0.5566531  -0.34757015
  0.4079537   0.07698584 -0.17744397  0.4997155   0.3738506   0.46452904
  0.01105899  0.19400334  0.21725819  0.0194305   0.33079633 -0.18795618
 -0.70810777 -0.45115727 -0.27647766  0.52627575  0.07905913 -0.39648327
  0.4954584   0.62867707 -0.6013769  -0.29368544]
[-0.23263353 -0.126152    0.2318288   0.21595514  0.22529203 -0.55067855
 -0.33323434  0.04184938  0.09654906 -0.2786103  -0.08068986 -0.05082502
 -0.13189866 -0.01855701  0.27619195 -0.06479453 -0.13527556  0.11076483
 -0.10304377  0.08347198 -0.28590918  0.33917364  0.5146897   0.06186844
  0.30507028  0.06963769 -0.15249667 -0.28319305  0.32840285  0.03616464
 -0.21219707  0.34643805  0.25786215 -0.10027961  0.3226035  -0.02967445
  0.33393404  0.45250782  0.32262245 -0.32290885]
[ 0.24282889 -0.27987787  0.4666552   0.3333499   0.53156674 -0.45636111
 -0.20159994 -0.3562797   0.21759109 -0.33048913  0.06307656  0.42079753
 -0.2746743  -0.32511592  0.32091162  0.2805084  -0.18832824 -0.6815208
  0.35339946  0.3131157  -0.26622522 -0.29077622  0.33960578 -0.02672136
  0.39502355  0.39963785  0.34984294 -0.47138664  0.25224158 -0.17364053
 -0.23919982 -0.6541733  -0.08406013  0.20982894 -0.04029604 -0.37259942
  0.24601133  0.01588053 -0.14455986 -0.31326967]
[-0.1294403  -0.51747763 -0.4225677   0.02453893  0.18295796 -0.2628495
 -0.2855078  -0.18027408  0.3139168  -0.30774498  0.45522842 -0.26332062
 -0.04910056 -0.30775046  0.35370165 -0.0810246  -0.23719357 -0.4585129
  0.3163234   0.5056077  -0.23475918  0.16625042 -0.09769206  0.24116176
  0.10873686  0.4187609   0.46576324 -0.02567335  0.24111304  0.28516033
  0.1252178  -0.19715515 -0.28269792  0.2798934  -0.17820957 -0.23363808
 -0.09136783  0.19056052  0.00484733 -0.17644687]
[-0.10899244  0.2813659   0.29368374 -0.34870303 -0.17499661  0.38713363
  0.33152884 -0.00896287  0.19602138  0.07465079 -0.5192113   0.05947764
  0.14569905  0.51557046  0.09331729 -0.15696783  0.25909385  0.17232801
 -0.51061165  0.04745681  0.4422423   0.11702649 -0.7792182  -0.22341621
  0.30692422 -0.18625642 -0.15848221 -0.1129103  -0.3707546  -0.5827078
  0.22682309 -0.0923139   0.25573912  0.37040982 -0.03625261  0.03127158
 -0.00484964 -0.09997695  0.67197114  0.2262867 ]
[ 0.27249664 -0.40747747  0.05591608  0.7031434   0.47861147 -0.52552766
 -0.66747874 -0.59819907  0.48868972 -0.8020576   0.49403805  0.72082794
 -0.34598634 -0.5054018   0.27758753  0.9061187  -0.42129293 -0.7178369
  0.422495   -0.06353502 -0.60818243  0.52971065  0.5932163   0.73201966
  0.00233716 -0.01122401  0.08843706 -0.39331654  0.51222754 -0.01990822
 -0.62345636 -0.42895126 -0.37635     0.5267947   0.42580447 -0.53510654
  0.6342899   0.52926683 -0.562434   -0.682486  ]
[ 0.28312287  0.4538609   0.05444219  0.20690043  0.12738103 -0.04357171
 -0.03313671  0.03356482 -0.2539623   0.01038166 -0.36563736  0.21624228
  0.21026602  0.21882929 -0.33513004  0.22090346  0.19138952  0.3213426
 -0.02112434  0.1569737   0.01421173 -0.5128205  -0.01390559 -0.28525072
 -0.50708324 -0.11229989 -0.36381426  0.48495376  0.09226348 -0.22935997
 -0.17927824  0.0276014   0.4376323  -0.00574154 -0.4002526   0.13471356
  0.02417145 -0.19865164 -0.07741043  0.3728844 ]
[-0.25319582  0.5639842  -0.41402417 -0.32667306 -0.6859903   0.52837545
  0.41604516  0.41681367 -0.838185    0.41133806 -0.40125465 -0.22651976
  0.60068876  0.5545923  -0.5803869  -0.11816512  0.7007898   0.50659764
 -0.3112376  -0.5461188   0.36125726  0.10356711 -0.32502365 -0.48939627
 -0.50216645 -0.83753395 -0.64722407  0.7469733  -0.7856782   0.07296994
  0.04754081  0.1949315   0.03609349 -0.19036356 -0.11295146  0.28772393
 -0.18164936 -0.50215125 -0.14838853  0.6622582 ]
[ 0.6732974  -0.8779111   0.72224087  0.9151058   1.0697353  -0.73329866
 -0.6438789  -1.1851391   0.6325131  -0.83810323  1.0141933   0.8263
 -0.63165027 -0.9614386   0.79083693  0.34231898 -0.79341906 -0.5705903
  0.45676866  0.65255153 -0.72234124  0.40801305  0.5165952   0.5626186
  0.70839334  0.5586112   0.5955657  -0.8413401   0.6747054   0.11162351
 -0.22024472 -0.5880401  -0.80230725  0.31251124  0.44080302 -0.09593278
  0.6691403   0.96442825 -0.37047136 -0.77672344]
[-0.38550422  0.7557446  -0.08489102 -0.5585539  -0.5230654   0.6871718
  0.4996093   0.601623   -0.19238216  0.51629484 -0.6706931   0.00305631
  0.6365857   0.68711233 -0.37849948 -0.79901564  0.61375654  0.58680964
 -0.60484326 -0.6746572   0.4401868  -0.45999536 -0.3063402  -0.82299966
 -0.11663119  0.01200915 -0.21606174  0.35686612 -0.55866945  0.19043775
  0.7624766   0.13496223  0.34353986 -0.15965767 -0.11469246  0.52061707
 -0.08352567 -0.63546497  0.4685147   0.64648235]
[ 0.9200295  -1.0151676   0.8333269   0.8993459   0.9450516  -0.74462926
 -1.0289026  -0.43752572  0.58691376 -0.94607615  1.3264493   0.911861
 -0.7676275  -1.1662183   0.7429166   0.7599632  -1.2368008  -0.84326816
  1.060205    0.60592574 -0.75249803  0.8082164   0.77164906  1.1216518
  0.6805356   0.21459664  0.65633    -1.228224    1.0092016  -0.3862698
 -0.8854582  -0.7496505  -0.89172554  0.36099404  0.6198093  -0.64236
  0.86126924  0.63115233 -0.28813925 -1.0803865 ]
[-0.07046548 -0.46683544  0.17796527  0.52923137  0.24846072 -0.3947183
 -0.15898092 -0.30802795  0.37856218 -0.17088526  0.3135256   0.21450658
 -0.29899547 -0.5971519   0.6604583   0.07227642 -0.45364854 -0.33575684
  0.50345373  0.20135131 -0.21284734  0.7426893   0.2932434   0.503983
  0.5941188   0.15657988  0.41772354 -0.36960354  0.4557082  -0.2051597
 -0.09994812  0.3364877  -0.8366061   0.23057544  0.33293846 -0.3308214
  0.26688683  0.32610655  0.10759524 -0.3638031 ]
[ 4.6093640e-01  2.5397518e-01  1.5358500e-01 -2.2302273e-01
 -7.8556514e-01  6.3681714e-02  8.8818938e-02  7.8507566e-01
 -4.0852301e-02 -1.0631702e-01 -6.0256268e-04  2.9261658e-01
  4.1444817e-01  2.7181578e-01  1.8898215e-02  1.5367350e-01
  6.2704819e-01  2.8054067e-01  3.8665929e-01 -2.3952924e-01
  1.8810795e-01 -6.4546220e-02 -1.4358577e-01 -2.7068231e-01
 -4.4643110e-01 -8.7767646e-02 -2.3764515e-01  8.4837663e-01
 -2.0938145e-01  5.3205084e-02  2.4623978e-01 -2.3395891e-01
  2.5028545e-01 -1.0850650e-01 -3.2827350e-01  6.5191977e-02
  1.3265337e-01 -4.5489633e-01 -5.4668355e-01  3.8122979e-01]
[-8.15547013e-04 -4.93183024e-02  1.58867165e-01  3.43155935e-02
 -4.40390185e-02  5.59047870e-02  1.81457862e-01 -1.05391331e-01
  1.48144692e-01 -8.53627622e-02 -5.22552803e-02  1.54890075e-01
  7.43111745e-02 -8.11137185e-02 -2.87791546e-02  6.57388121e-02
  8.65391048e-05 -7.45066581e-03 -6.02440014e-02  1.57394603e-01
  8.70375633e-02 -1.07885525e-01 -1.92804769e-01  4.79893088e-02
  1.66031445e-04  1.63417280e-01  8.74605179e-02  5.40514989e-03
 -2.62565017e-01 -5.48792966e-02  1.40475303e-01 -2.35461622e-01
  2.29983568e-01  6.94930777e-02 -1.71553507e-01 -1.50718093e-01
 -1.07443267e-02 -4.54580560e-02  1.69265922e-02 -4.28004973e-02]
layer 3 Activation
tanh
layer 4 Dense
40 20
[-0.1695363   0.31589657  0.01034758  0.08035546 -0.33029833 -0.12030352
  0.46568584 -0.27064905 -0.325752    0.14551517  0.07647385 -0.08640522
 -0.17184249  0.13828337  0.41069663  0.43717685 -0.76354283 -0.67885524
 -0.0685351  -0.1408899 ]
[ 0.4749144  -0.85687995 -0.13301381 -0.41921416  0.33588886 -0.02545621
 -0.30599496  0.49883962  0.9655926  -0.11003044 -0.25459442  0.60743845
 -0.50136805 -0.43802696 -0.12462079 -0.48317972  0.09647287  0.58641213
  0.75451314  0.35154104]
[-0.40329346  0.61249995  0.04991686  0.07261045 -0.49615368 -0.38496867
  0.24907932 -0.40755698 -0.29558864 -0.15008499  0.08396643  0.01292852
  0.39041892  0.40025902  0.32318792  0.23378861 -0.20015545 -0.35411224
 -0.28481117  0.0024624 ]
[-0.29122686  0.36237127  0.3722874   0.17347227 -0.1795906  -0.18422844
 -0.13281843 -0.45910892 -0.0567806   0.45126954  0.19861123 -0.28430814
  0.17971972  0.36352944  0.2931642   0.35671216 -0.10185351 -0.02260438
 -0.5764203  -0.0902692 ]
[-0.43765002 -0.25443906 -0.16889304 -0.04005133  0.18729044 -0.42664066
  0.14295407 -0.24902755 -0.04658397  0.5060175  -0.04787118 -0.43975455
  0.18307747  0.05802216  0.08101868  0.27236965 -0.0198086  -0.40406054
 -0.05144781 -0.22262053]
[ 0.08917531 -0.3498766  -0.1349771  -0.28706655  0.6810883   0.15221678
 -0.9211608   0.13907911  0.42082867 -0.08643197 -0.2862193   0.21698837
 -0.20311567 -0.8217936  -0.3417149  -0.46956506  0.4237192   0.39301145
  0.45637575  0.13665138]
[ 0.59310657 -0.47333193 -0.13630028 -0.19844703  0.6855228   0.3880066
 -1.0571272   0.632769    0.29301184 -0.3745748  -0.56487334  0.2820449
 -0.16845609 -0.4480527  -0.09000902 -0.36639243  0.18426384  0.53233254
  0.07962001  0.14114146]
[ 0.30095142 -0.17989212 -0.0941089  -0.3520965   0.18915762  0.46816596
 -0.02250385  0.1856266   0.26373264 -0.21476822 -0.05707277  0.02466949
 -0.35822248 -0.33699223 -0.3659833   0.04372893  0.07586004  0.10465088
  0.06737395  0.05682036]
[-0.19626671  0.15126671 -0.01088903  0.28698197  0.20898439 -0.09163724
  0.43091714 -0.3498601  -0.3302692   0.23813996 -0.00122121 -0.0703489
  0.06607525  0.05008545  0.4911475   0.2910233  -0.42148194 -0.59092015
 -0.745819    0.01145436]
[ 0.22425495 -0.5949746  -0.34497702 -0.28747916  0.1625453   0.00646307
 -0.22153755 -0.11159732 -0.31345445 -0.4611523  -0.20527026  0.10046373
 -0.41345665  0.10485025 -0.2060793  -0.17013608 -0.08964409  0.40089342
  0.24516201  0.30066478]
[-0.5307215   0.59452     0.91351455  0.4008183  -0.5155669  -0.13251162
  0.00100328 -0.12177724 -0.5035783   0.44593608  0.32872277 -0.41987702
  0.50614583  0.04921483  0.04572977  0.54391766 -0.25276983 -0.42376107
 -0.63346064 -0.14950979]
[-0.17457683  0.03036024  0.40290976  0.23043884  0.10734323 -0.19376516
  0.6176205  -0.334265   -0.1822926   0.28110656  0.16696113 -0.14400725
 -0.08467294  0.06394702  0.04413135  0.0931883  -0.5119387  -0.4448335
 -0.4513782  -0.2866743 ]
[ 0.24391048 -0.23053308 -0.18399625 -0.0594552   0.08043208  0.2798962
 -0.2665229   0.43896842 -0.07429582 -0.48379996 -0.2685443   0.2589828
 -0.06041856 -0.44719273 -0.2872279  -0.14116572  0.34350398 -0.04766301
 -0.20661433  0.1935584 ]
[ 0.40064412 -0.4872355  -0.49059314 -0.5918449   0.5278869   0.54924715
 -0.59140617  0.47263756  0.55925137 -0.26592106 -0.32489535  0.47338668
 -0.64181364 -0.41081384 -0.04571463 -0.8326353   0.21889545  0.14059494
  0.607169    0.14215231]
[-0.35193616  0.26721707  0.46051523  0.3566056  -0.24843629 -0.07428127
  0.00597279 -0.40511352  0.0552887   0.4802224   0.26707482 -0.10251819
  0.4901492  -0.02629896  0.07091244  0.2463332  -0.0959343  -0.15894711
 -0.14564142 -0.01861051]
[-0.26569635  0.15936522  0.31528434 -0.2053041  -0.4826102  -0.35785565
  0.89056545 -0.3596733  -0.05406963  0.28978118  0.31150666  0.10905778
  0.29621524  0.2599825   0.23571119  0.19292635 -0.37677103 -0.19130167
 -0.25393775 -0.27109903]
[ 0.4762546  -0.48107544 -0.5633377  -0.41365004  0.6727393   0.37245402
 -0.7046096   0.14602599  0.45762298 -0.27325323 -0.25691795  0.6064227
 -0.5551602  -0.32351348 -0.24526107 -0.39501667  0.23977405 -0.12252244
  0.46611646  0.59913695]
[ 0.26867297 -0.5916676  -0.38128114 -0.32181552  0.49284294  0.25725344
  0.10195447  0.3515413   0.52625304 -0.43529359 -0.3513019   0.17197926
 -0.3665197  -0.3382425  -0.08040602 -0.39559177  0.06329445  0.21784493
  0.43794736  0.25343198]
[-0.36592406  0.41282374  0.13050051  0.16983537 -0.1548418  -0.33800095
  0.44360155 -0.6709829  -0.48988542  0.44663402  0.24230959 -0.3142677
  0.19771893  0.45138526  0.18905582  0.24981259 -0.32562983 -0.6623666
 -0.22243547 -0.1528692 ]
[-0.20929313 -0.12397269 -0.4089181   0.00877119  0.0819774   0.0069059
  0.1906162  -0.24556786 -0.33722618  0.14194703  0.08494841 -0.02972985
 -0.13737005  0.47898358  0.14087898  0.08480188 -0.48697945 -0.21773864
  0.05413298 -0.28662443]
[ 0.36518538 -0.30473518 -0.5900973  -0.20703287  0.4637126  -0.03564468
 -0.14230911  0.58747864  0.4274174  -0.6430207  -0.4964769   0.10389928
 -0.3303147  -0.37138543 -0.41184664 -0.48430514  0.11383802  0.48723593
  0.4040573   0.29830995]
[-0.02884487  0.07848913  0.4300549   0.12427043 -0.42823198 -0.13672659
 -0.05837365  0.22643733 -0.00316631  0.21623947  0.33467132 -0.1511046
  0.13702774 -0.02027167  0.12729308  0.20792875  0.04408295  0.1478665
  0.13693766 -0.02658076]
[-0.12380327  0.18562931  0.40622038  0.5187365  -0.10810547 -0.2697523
 -0.4216905  -0.65122247 -0.27607042  0.48832518  0.32773516 -0.19305749
  0.30506694  0.41660768  0.21165337  0.35125574 -0.34002927 -0.02207731
 -0.05515389 -0.21316363]
[-0.12065319  0.5726772   0.5598803   0.9532946  -0.36394098 -0.2500377
  0.18414775 -0.11728478 -0.29870412  0.4996679   0.5662229  -0.39280567
  0.8119553   0.21914725  0.20215425  0.9455389  -0.35533455 -0.20712493
 -0.61176485 -0.54390585]
[-0.36956447  0.6809819   0.13828553  0.29487085 -0.5057933  -0.16512331
  0.07155105 -0.2146094  -0.48126107  0.30408406  0.29440752 -0.28126752
  0.00077351 -0.28620043  0.06941652  0.35476035 -0.06372351 -0.20929226
 -0.6417665  -0.33118257]
[-0.30603355 -0.5604749  -0.42376655  0.22490665  0.29028785 -0.13895342
  0.30130464 -0.12125152  0.03871005 -0.1303656  -0.22629999 -0.10212286
  0.23148276 -0.03706127 -0.09507743  0.2735493   0.44040853 -0.2251373
 -0.03861195 -0.00386856]
[-0.16626295  0.2066674   0.25653395  0.2733139  -0.44878653 -0.01788716
  0.48945937 -0.2643018  -0.49753416  0.13273744 -0.04564624 -0.14702252
  0.47267526  0.3928425   0.2346295   0.38235044  0.02788801 -0.03656075
 -0.2415424  -0.31969848]
[ 5.55288315e-01 -7.71993995e-01 -5.65137148e-01 -4.75841641e-01
  1.90674111e-01  2.18579367e-01 -7.65895486e-01  3.56698990e-01
  2.69156188e-01 -2.89846420e-01 -7.16078356e-02  3.61718744e-01
 -2.00781301e-01  1.02685735e-01  1.30203684e-04 -2.22669393e-01
  2.97968667e-02  1.22717611e-01  2.95927823e-01  3.15017402e-01]
[-0.38698632  0.27948788  0.0974387   0.49332523 -0.07986908 -0.11125782
  0.00946259 -0.69799644 -0.19889393  0.2626189   0.32963344 -0.20735087
  0.31000838  0.42058638  0.04542935  0.503902   -0.2843602  -0.55349785
 -0.69533044 -0.3969993 ]
[ 0.07345896  0.15993579  0.29826373  0.4671845   0.01773209  0.11187458
  0.15052973 -0.5306544  -0.07387767 -0.15968649 -0.1476844  -0.10092517
  0.6060436   0.06095821 -0.28296608 -0.03151628  0.5852026   0.27791962
 -0.23559527 -0.04890776]
[ 0.25607657 -0.28801295 -1.0070122  -0.09692142  0.49495554  0.2913605
  0.07666953 -0.04803726  0.07492205 -0.41739208 -0.3679121   0.12234589
 -0.17428336 -0.17706501 -0.36543685 -0.3782012   0.04043472  0.1993157
  0.10050508  0.16651915]
[ 0.05738484  0.09173681 -0.07637459  0.25756443  0.27616796  0.48529035
 -0.3458447   0.7037658  -0.16183329 -0.24794433 -0.295179   -0.18066767
  0.5250939  -0.38488173 -0.4352155   0.10746595  0.46109182  0.521634
  0.05861412 -0.11698328]
[ 0.313155   -0.37977877 -0.57200134 -0.25814688  0.21853104  0.21157235
 -0.09699984  0.3078917   0.39101884 -0.37705407 -0.3129879   0.2912701
 -0.21665601 -0.06086815 -0.18329869 -0.15042202  0.1685546   0.19842301
  0.00359267  0.1294685 ]
[-0.21615455  0.2103841   0.20694897  0.00143407 -0.299039   -0.3202782
 -0.0130772  -0.39028978  0.0239789   0.24546011 -0.07193882 -0.04539564
  0.10501232  0.11167658  0.26494044  0.09372689 -0.2643925  -0.14207906
  0.2904638   0.02000592]
[-0.3336566   0.44236773  0.44235593  0.33233783 -0.5369833  -0.10415447
 -0.13155563  0.00857964 -0.11209153 -0.06019798  0.43986294 -0.02658581
  0.15141864 -0.21076757  0.58191997  0.3101943   0.12362933 -0.03736809
 -0.20933689 -0.22102618]
[ 0.01812532 -0.06938446 -0.2909166   0.03003914  0.27080852  0.15892738
 -0.60558987  0.49011403  0.06052897 -0.37853658 -0.14282154 -0.05811823
  0.00371749 -0.50354594 -0.27849412 -0.13435085  0.23080228  0.28135043
  0.2387685   0.03444368]
[-0.22312419  0.33177438  0.7031107   0.20498602 -0.36003226  0.02933492
  0.14704293  0.01866554 -0.17426977  0.28322902  0.14586285 -0.05093179
  0.24392179  0.12211123  0.24682336  0.2851597  -0.21315937 -0.12332866
 -0.44732776  0.03074159]
[-0.29837048  0.23126258  0.68649495  0.34441233 -0.5072738  -0.3979872
  0.28583235 -0.10577001 -0.00402463  0.6140687  -0.00846265 -0.45163754
  0.3335416   0.01978631  0.31039596  0.5711022  -0.13871178 -0.23879303
 -0.28515762 -0.22759952]
[ 0.1113314  -0.01681829 -0.19351637  0.38664427 -0.28088984  0.18190221
 -0.03770363  0.1721563  -0.11004168 -0.45790085  0.07312935  0.14145662
  0.26641026  0.08555335 -0.1334289  -0.28271803  0.14586459  0.19965714
 -0.20664617 -0.13244088]
[ 0.3867077  -0.32338634 -0.45578283 -0.541778    0.05278485  0.23826577
 -0.42946804  0.6959501   0.25968546 -0.47600994 -0.12167779  0.6388179
 -0.6722019  -0.5102753  -0.26296133 -0.41857946  0.1016945   0.2678155
  0.40179697  0.3088664 ]
[ 0.08353227  0.21821369  0.00340476  0.10237452 -0.23351628 -0.00382441
 -0.14043881 -0.05048957 -0.00748214 -0.09606882  0.19941546  0.05169663
 -0.02342444  0.06276989  0.13428944  0.17388631 -0.04319312 -0.07910382
  0.07116974 -0.02282901]
layer 5 Activation
tanh
layer 6 Dense
20 1
[-0.11299288]
[0.12886316]
[0.1339499]
[0.1624675]
[-0.0666681]
[-0.10641458]
[0.09607477]
[-0.06585878]
[-0.15618566]
[0.14231095]
[0.09721011]
[-0.191242]
[0.13958816]
[0.10291432]
[0.05310059]
[0.20771545]
[-0.08127654]
[-0.09357797]
[-0.18554991]
[-0.12862653]
[2.448263]
