layers 7
layer 0 Dense
20 20
[ 0.20241606  0.3301747  -0.05296024 -0.17757566  0.22858815 -0.26288137
 -0.27851263  0.38681024  0.33835375 -0.08233775  0.27425355  0.10357307
 -0.15661508 -0.37015867  0.3508096  -0.38089785  0.32093936 -0.32237753
  0.35070613  0.19918153]
[ 0.24584246 -0.09096103  0.00773669 -0.44079936 -0.01271692  0.2045036
 -0.3721754  -0.038537   -0.16628721 -0.05084838  0.46758178 -0.1464973
 -0.37400883  0.22497016 -0.30145967  0.13733795  0.03746775 -0.10999934
  0.06312413 -0.12644143]
[ 0.3327053  -0.30846307 -0.24580663  0.18487418  0.43280292 -0.2892927
 -0.09608705  0.23994108 -0.36556336  0.33227617 -0.0440281   0.3769017
 -0.25405043  0.18401997  0.20182185  0.26384798  0.28722602 -0.00550769
  0.18975748 -0.26930007]
[-0.08140916 -0.14803514 -0.05862382 -0.40858772  0.25476545 -0.31377038
 -0.18874732  0.15870275 -0.31628639  0.27160862 -0.21547528  0.07408541
 -0.06229584 -0.28121844 -0.06504006 -0.12606333 -0.1357035   0.27716947
  0.13003018 -0.18183921]
[-0.11338713  0.25252783  0.2298914  -0.40309474 -0.13803805 -0.092765
 -0.12437657 -0.15821314 -0.31652755 -0.3879734   0.26867467  0.01415055
  0.33760262 -0.27798676 -0.25375292 -0.13831735  0.05570073 -0.03529412
  0.08514134 -0.00111001]
[ 0.14197853 -0.17307396 -0.35353437 -0.15459347 -0.22290811  0.30127376
  0.00429977 -0.085883   -0.0857692  -0.30819878  0.01933502 -0.28752816
  0.22599445 -0.22986428  0.24419193 -0.23188697 -0.3483112   0.08164205
  0.25107014  0.06008143]
[ 0.1392131   0.3593703  -0.32127726  0.04177868 -0.07939593 -0.3300672
  0.11125632  0.08389883  0.14682189  0.20369753 -0.04926377  0.11696568
 -0.03826047  0.04541878  0.06773795  0.10838781 -0.180662   -0.16116104
 -0.07347491 -0.167972  ]
[ 0.16767487 -0.04684598  0.2645652   0.3169669   0.08462258 -0.1359835
  0.41571838  0.04962284 -0.11811966  0.35116798 -0.1217749  -0.1592129
  0.22979672  0.1011534  -0.08208316 -0.02968038  0.24062957  0.34344342
 -0.25128242 -0.15767454]
[-0.33421534  0.07986961  0.10952924  0.10893564  0.0656461  -0.24346757
 -0.25131133 -0.31098416 -0.04011001 -0.13892654  0.00178622 -0.17013405
  0.03677056  0.0263674  -0.38260257  0.03132649 -0.36940286  0.2985577
 -0.26816562 -0.24636817]
[-0.3437429  -0.0101084  -0.1884054   0.07698279 -0.15694997  0.5080024
 -0.09933132 -0.30329698 -0.623527    0.23602109  0.096082    0.26004022
 -0.00746657 -0.11253434  0.55179244 -0.0917416   0.70044357 -0.30430308
 -0.1368212   0.26697335]
[-0.1563039   0.03066822  0.14838096  0.60515285 -0.12777874  0.15344533
 -0.36967507  0.17206047  0.1368228   0.35898456  0.5579885   0.37766576
  0.12774989 -0.1570765   0.30120227  0.09227326  0.15286341 -0.43287575
 -0.19015327  0.18106939]
[-0.16217025  0.3562891   0.26157087 -0.08943366  0.27482677 -0.11494173
  0.28302184 -0.2787065  -0.05963179  0.19864324 -0.15756164 -0.30675715
  0.36592692  0.22303344 -0.4215048  -0.49959633  0.05660824  0.19765042
 -0.07369488  0.41643417]
[-0.07141603 -0.3249641   0.08982415  0.32124832 -0.18589166  0.07895926
 -0.0129749   0.20499289  0.12329334  0.198362   -0.13760749  0.10857913
 -0.05075363  0.0271943   0.3132259   0.18694317 -0.05329887 -0.12368862
  0.19274394 -0.14882542]
[ 0.12245207 -0.05352035 -0.11410362  0.13921334 -0.21815641 -0.20167695
 -0.39385018  0.00375426 -0.15577717  0.26203278 -0.17060943  0.31487224
 -0.12183467 -0.33775023  0.13993524  0.09816583 -0.08624206  0.25509125
 -0.26161212 -0.39209375]
[ 0.28818458 -0.23577443 -0.0180958  -0.50434107 -0.1525074  -0.22255689
  0.10677996 -0.17762487  0.1334495  -0.04605598  0.16264474  0.1572939
  0.31591922  0.0761517   0.03315443  0.13993722  0.41488674  0.04209463
 -0.12151565  0.3594689 ]
[ 0.11699966  0.01344004  0.38389033 -0.15877351  0.35790807 -0.03815213
  0.33495614 -0.33928573 -0.2240754   0.1372072   0.21888615  0.00276789
  0.09576586  0.16008367 -0.03062393 -0.30944258  0.0280313  -0.15700303
 -0.11668362  0.24737516]
[-0.14950001  0.0846903   0.20948501  0.07326505  0.2634873  -0.2315636
 -0.16695483  0.12755233 -0.23509997  0.33238247  0.05922787  0.32872602
 -0.39815807  0.30581746 -0.23840538 -0.15572135 -0.13219787 -0.25128493
  0.32548007  0.11609223]
[ 0.08559719  0.12279654  0.04430068  0.16039859 -0.23673993 -0.24576151
  0.13550913  0.21166927  0.5503847  -0.03389576  0.21290252  0.27207795
  0.47681233  0.3294177  -0.37797418 -0.05232153 -0.6980131   0.22324508
  0.065391   -0.31054172]
[-0.39723212  0.14599197 -0.26815298 -0.08593788 -0.5605559  -0.37184703
  0.667249    0.10247711 -0.31299514  0.01906505 -0.07552466  0.23884226
  0.13809353  0.028996   -0.18818904  0.00221877 -0.37176955  0.4928851
  0.10432807  0.17661186]
[ 0.24491629 -0.0514269  -0.2830858   0.46054962 -0.27402174  0.36309472
 -0.14407843 -0.2376274  -0.17619438  0.24006297  0.19232138 -0.03981505
  0.13691129 -0.10401315  0.48009926  0.4256403  -0.29943475 -0.20943482
  0.03745609 -0.36272702]
[-0.00068261  0.1020752   0.086118   -0.04090112  0.11540262 -0.0873592
 -0.07172451 -0.03532874 -0.06245785  0.02353399  0.03194852  0.01984635
  0.00559472 -0.00252056 -0.05658185 -0.09456601  0.04120176  0.01303125
  0.05050595 -0.01079506]
layer 1 Activation
tanh
layer 2 Dense
20 40
[ 0.22626305 -0.11564747 -0.33172527 -0.02731696 -0.02061033  0.20452616
 -0.2694701   0.10255992  0.18352307  0.05678948 -0.10066001 -0.09109136
 -0.04973195  0.11110152 -0.07269426 -0.17033261 -0.01826704  0.18974534
 -0.17162819  0.0516612  -0.20982699  0.18941505  0.01478144  0.22310789
 -0.22644563  0.16741565 -0.33668986  0.2679218   0.20299421 -0.27352148
  0.10954016 -0.13119163  0.15446657 -0.13671938  0.29558837 -0.0748695
  0.12264482  0.0126939  -0.16753262 -0.04264961]
[ 0.24914226 -0.10794602 -0.16856958 -0.0934296   0.04917839 -0.30529183
  0.03534542  0.18106161 -0.25741342 -0.17548963 -0.00906996  0.14873086
 -0.2178865  -0.0448097   0.09739079  0.02020368  0.17398801 -0.09459602
 -0.08319128 -0.19794527  0.2221301   0.2719683  -0.17731465 -0.0203692
  0.21753126  0.26759297  0.14274915 -0.1883898   0.07880036  0.07206019
  0.13662288  0.00265726  0.01633703  0.24473187  0.09486438 -0.01789619
  0.33542344  0.2671442   0.01125246 -0.16095382]
[-0.01862253 -0.04332848 -0.15120494 -0.10882616 -0.26378605  0.19652529
 -0.12515299  0.2991431   0.19253312  0.02730988 -0.20857924 -0.14908825
 -0.16491847  0.0839823  -0.02245756 -0.02970201 -0.03862639  0.22234842
 -0.30484417 -0.16802287  0.14159606  0.1352283   0.14870588 -0.2777
 -0.11488253  0.2642747   0.00296086 -0.15784778  0.21501878 -0.20876087
  0.29112568 -0.08566082 -0.19039188 -0.12619954  0.2915905   0.04019251
 -0.03179558 -0.05833274 -0.29868993 -0.1525504 ]
[-0.33949435 -0.30028757  0.46199733 -0.24210678 -0.28769585  0.17588736
 -0.28578842  0.22472581 -0.26397264  0.22751005  0.03652797  0.17197621
 -0.18518913  0.09332701 -0.10071544 -0.1689131   0.11268989  0.12780191
 -0.06820289 -0.08575796 -0.36100885  0.11298162 -0.44030988 -0.14644767
 -0.40639257  0.05785071 -0.05935483  0.23982146  0.06360156 -0.07380223
  0.29366717  0.10844424 -0.17125034 -0.21757318 -0.32780096  0.09765661
 -0.30955812  0.00522301  0.22575864  0.18939345]
[-0.27321637 -0.11294359 -0.09084059  0.227727    0.00945954  0.16839583
 -0.09247258  0.06681859 -0.20245963 -0.16209781 -0.25224563  0.10802053
  0.09100459  0.03096451 -0.16921136 -0.11774233  0.22331522 -0.01654711
  0.09333976 -0.06137032  0.20223606  0.04080098  0.3900929   0.2568588
  0.34443867  0.11228595  0.06533533  0.21419403  0.2450794  -0.22001934
 -0.28421664  0.04947148  0.01296313  0.29353446  0.09996171  0.23062527
 -0.06622371 -0.05758412  0.1034722   0.29048938]
[ 0.08999388  0.11341035 -0.23829629  0.01969469 -0.18424074  0.18648368
 -0.05895712  0.09372609  0.10429497 -0.09862369  0.19566633  0.12053263
  0.13636436  0.0284516   0.18700644  0.13720354  0.23319668  0.18172674
  0.15846701 -0.08321046 -0.13887386  0.12952562 -0.24662307 -0.01029109
 -0.17278053  0.0058607   0.21529149 -0.24820435 -0.09646997  0.09513951
  0.31429556 -0.24061006  0.15393323 -0.14667484 -0.12749247  0.00847892
 -0.02522052  0.31571746 -0.20802861  0.15154812]
[ 0.16248254  0.38455918  0.2558076   0.16836363 -0.13163969 -0.11268618
  0.10889335  0.24376547 -0.19814304 -0.23319262 -0.11737344  0.1663528
  0.15644775  0.03151795 -0.27313673 -0.09303326  0.01854996 -0.04319365
 -0.01583104 -0.20876187 -0.12233578  0.30704886 -0.19424833 -0.3779825
 -0.26110244  0.09251795 -0.12603994  0.19009836  0.3712876   0.11744518
  0.12787321  0.12927046 -0.30082512 -0.13962881  0.03318281  0.23458439
  0.23006079 -0.11048088 -0.09792809 -0.3159454 ]
[-0.01623659  0.16218837 -0.06657306  0.20325105  0.32060808  0.12122264
  0.1277976   0.1676511   0.14014257 -0.22067313  0.23663071  0.197615
  0.1862253  -0.05935366 -0.05596882 -0.04309489  0.10558247 -0.07923989
 -0.15815283  0.2391539   0.13569038  0.02411983  0.03642778  0.28834254
 -0.05466604 -0.07909294 -0.06951173  0.05920307  0.21647245 -0.28077328
  0.1849206  -0.22726035 -0.07886133  0.30360028  0.19904658  0.10862785
 -0.15346585 -0.19440323 -0.19504134  0.25321946]
[-0.10677921 -0.3611671  -0.21669403 -0.2810203   0.25013462  0.32351035
  0.1671011  -0.21405967 -0.06104445  0.19685833  0.27970257 -0.06083942
  0.05043562  0.0383902  -0.20164351 -0.02947214  0.06078713 -0.08050415
 -0.1251075   0.38887435  0.33042     0.29158416 -0.06735916 -0.04970732
 -0.14823166 -0.12902649 -0.21764156 -0.16046326 -0.23213601 -0.23304269
 -0.21675485  0.16211869 -0.33576348 -0.1140081   0.2819396  -0.12498017
  0.12887843 -0.20042647 -0.303138    0.08320089]
[-0.03151155  0.0725478   0.07640824  0.09249289 -0.2885819  -0.07163061
  0.06250155  0.19244522 -0.20204775  0.25921753 -0.14316954  0.17398328
 -0.1560473   0.16607857  0.07877877 -0.14718279  0.01125218 -0.06261127
 -0.17008285  0.05378979  0.10564344 -0.12315247  0.0123655  -0.12128303
  0.07436891  0.29822993  0.13423909 -0.01100816  0.20708908  0.03930581
  0.29923895 -0.05960622 -0.2235847   0.14412461  0.13765417  0.24109036
 -0.04453616  0.27624625 -0.29932326  0.0358041 ]
[-0.03409332 -0.30514967 -0.15632038  0.01769198  0.17353575  0.10558949
  0.18097404  0.11186921 -0.10176361 -0.06571098 -0.02850398  0.20420823
 -0.32345024 -0.260672    0.04300595 -0.2310758  -0.21617514 -0.0409285
  0.18606433  0.17674372 -0.0814219   0.24572895 -0.192851    0.14972062
 -0.073862   -0.24729353 -0.11830963  0.21393196 -0.2135973  -0.01591773
  0.10041322 -0.18371782  0.26947102  0.1990993   0.06925887  0.19786364
 -0.24872065 -0.02575089  0.24800304 -0.21208692]
[ 0.24241965  0.0110108   0.01785259  0.07038607  0.23410171 -0.16066642
 -0.06979816  0.143954    0.28451195 -0.02549246 -0.03740466  0.04461049
  0.1716469  -0.27993008 -0.26481578 -0.02063231  0.26132095  0.22449009
 -0.03314874  0.09350798  0.15592045 -0.20990899 -0.05867581  0.04664289
  0.10752396 -0.09489139 -0.04446     0.28676575 -0.10012616 -0.03748032
  0.14056447  0.11618883  0.09357889  0.21320193 -0.29539153  0.03403287
  0.33032152  0.08092849 -0.08867499  0.08338295]
[ 0.26242024 -0.19491424  0.26281655  0.08338168 -0.12093312 -0.08877368
  0.01265148  0.14291905  0.02638723  0.2469569   0.2236583  -0.4508647
 -0.23079076  0.14452349  0.31933    -0.23957926 -0.0310455  -0.1962183
 -0.3173531   0.1661613   0.04616189 -0.0419204   0.19834508  0.1927321
 -0.15288827  0.22278234  0.27688527 -0.02332322 -0.16585702 -0.04228671
  0.23126929  0.27298912 -0.13801113 -0.15482773  0.17639971  0.0195873
  0.21595865 -0.12295466  0.25102884 -0.25353894]
[-0.02913537  0.255577   -0.11910798 -0.16527383  0.24665958 -0.09560008
  0.12413669  0.04497368 -0.10241563  0.1968995   0.33886418  0.13392301
 -0.02418421  0.34570527  0.25430444 -0.01683002  0.17944676 -0.01030354
 -0.3423459   0.0527577  -0.3363984  -0.09345329 -0.30890805  0.2391014
 -0.22883974 -0.06990317  0.17157137  0.2438493  -0.03032129  0.16792664
 -0.27016783 -0.16149762  0.21383671  0.04903874  0.0430323   0.00271395
  0.32879955 -0.26220274 -0.07862587 -0.21462353]
[ 0.16317162  0.19347873 -0.10493148 -0.21803048 -0.31518206  0.1843064
 -0.21515632  0.03694806 -0.08371819  0.17057244 -0.2246379   0.25655648
  0.3021923   0.08884218  0.07619386 -0.00079951  0.16023421 -0.26071343
 -0.2017394  -0.05353023 -0.04447999 -0.29628068  0.28909776 -0.06493634
 -0.08345368  0.1694133  -0.31340504  0.04951686 -0.16795523  0.00361851
  0.19165821  0.25585705 -0.0278067   0.21272297 -0.02971097  0.04559905
  0.00695405  0.10185551 -0.39125404  0.05072218]
[-0.0266459  -0.13355207  0.01068423  0.32661957 -0.17862916 -0.12121418
  0.16878636  0.13447455  0.06698979 -0.28636882 -0.01110093 -0.34856683
  0.0610306   0.1129438   0.16721667  0.01964232  0.06484801 -0.32806683
  0.187942   -0.04234891  0.0733983  -0.09843018 -0.4052637   0.00676753
 -0.29843634 -0.2754246  -0.1080521   0.18272066 -0.06446261  0.1961042
 -0.01942352  0.06451909  0.2738128  -0.05092553 -0.08111609  0.29256442
  0.08182143  0.23271103 -0.13806812  0.26521865]
[ 0.05660032  0.2358587  -0.15445319  0.06285477 -0.5353117  -0.3382626
 -0.28372043 -0.3588242  -0.25105545 -0.2878766  -0.14540467  0.17536266
  0.04799876 -0.25529948 -0.19739209  0.31848326  0.10695378  0.02800832
  0.3573646  -0.05494381  0.05474396 -0.2837242   0.14921515  0.13756724
  0.14822505  0.15730871 -0.00657886 -0.05199951 -0.04524698 -0.13903455
  0.1584783  -0.2753446  -0.00267337  0.04885951 -0.48072693 -0.03594468
 -0.18587905 -0.11722248  0.20884779  0.31626433]
[ 0.11585442  0.3624053  -0.18264222 -0.22921613  0.19990967  0.36216196
  0.17123055  0.35594895 -0.3373268   0.11362656  0.31168127 -0.3300911
  0.24932829  0.21053141  0.10128007 -0.10253499  0.21747306  0.19632043
  0.10438729  0.16972141  0.27163357  0.05219235 -0.15716365  0.11844698
  0.09912479  0.11800989  0.3083426  -0.04057918 -0.04142651 -0.14518057
  0.02861186  0.28917757 -0.3291653   0.21545315 -0.06419232  0.2892044
 -0.0904814  -0.3239424   0.11096357 -0.04495665]
[-0.12136069  0.06213431 -0.18351531 -0.22833472  0.19451976 -0.27304476
  0.13141072 -0.1236329  -0.15689884 -0.01700003  0.3046053   0.27881858
  0.31445682 -0.18980446 -0.30096993  0.02644761  0.13842782 -0.23298225
 -0.11949027  0.25708592  0.21897762 -0.00365905  0.24191184 -0.03569246
  0.24939878 -0.19597371 -0.14915848  0.08454911  0.03093137 -0.11982039
  0.00661728 -0.13684078  0.01245337  0.29408428 -0.14514656 -0.2680704
  0.3007474   0.32265672  0.00379163  0.10255864]
[-0.22646615  0.29610175 -0.0766685  -0.13144462 -0.2787248  -0.5403519
 -0.34790358 -0.10714494 -0.08943906 -0.07576885  0.12105189  0.14505218
  0.3179841   0.2978482   0.2651107  -0.04893971 -0.15475026  0.23353425
 -0.03909693 -0.3126889  -0.03603482 -0.20133653  0.42239276 -0.19708848
  0.4226062   0.09788612  0.08932889  0.27257684  0.20404884 -0.20516258
 -0.1102523   0.09446792 -0.10607643  0.02760924 -0.26728112  0.10614673
  0.05756441  0.2732696   0.0673837   0.24677864]
[-0.03114206 -0.02764026 -0.2133268  -0.04934056 -0.02409592 -0.13484272
  0.00738581 -0.01372749  0.08509051  0.00827081  0.00360314 -0.0314685
  0.05265414  0.05004787  0.02666618 -0.02597748  0.02374269 -0.0106483
  0.06255747 -0.00182708  0.04127784 -0.04362801  0.19651552  0.05833617
  0.05084186  0.03985759 -0.02576789 -0.00264149  0.04064459  0.02115704
  0.00690314 -0.01784699 -0.02912319  0.03515654  0.03417665 -0.04103404
 -0.02230442 -0.00179729 -0.01474408  0.01726174]
layer 3 Activation
tanh
layer 4 Dense
40 20
[-0.26021966  0.18785374 -0.12416933 -0.18877566 -0.1100466   0.10813151
 -0.18577822  0.0902325   0.28994825  0.2804668   0.24555819 -0.06047533
  0.16673075 -0.02911291  0.00148506 -0.15672784 -0.08662377 -0.1534497
 -0.22905348 -0.11600464]
[ 0.1866224  -0.23815157 -0.24512848 -0.01521961  0.05874722  0.09294832
  0.00922182 -0.07964139  0.18156524 -0.17524861  0.32079902 -0.17706825
  0.30461735  0.26258543  0.08950882  0.25545955 -0.276498   -0.2893758
  0.04749045  0.23699744]
[ 0.07166761  0.11625876 -0.23400837 -0.18959495 -0.12039595 -0.00716191
  0.2397791   0.08139991 -0.05879167 -0.12243072 -0.22330469 -0.1227129
  0.13876708 -0.2557465  -0.30832285 -0.33502808  0.25431255 -0.06715796
 -0.04245371 -0.13228902]
[ 0.02211334 -0.17038111 -0.20664486 -0.26808053  0.09851444 -0.12598836
 -0.24535747  0.10847812 -0.29676846  0.14920168  0.06388381  0.01886173
 -0.27333933  0.09524412 -0.25826317 -0.06625255 -0.2808024   0.15964155
  0.20901562 -0.18743254]
[ 0.26771665  0.23746228 -0.02976243 -0.27985623  0.22514789 -0.04464625
  0.01290576 -0.29024228  0.02771072  0.09035362  0.1116628  -0.00971056
 -0.24846226  0.03208004  0.16084482 -0.00922327  0.07010755  0.19904463
 -0.22982082  0.01447052]
[ 0.07365718 -0.08735975 -0.02820272 -0.31575316  0.13554735 -0.19495034
 -0.13315333 -0.0540635  -0.16629137 -0.1709144  -0.21537532  0.36300448
 -0.11983253  0.2208497   0.09560116  0.24990007 -0.20436649 -0.25868383
 -0.27296588  0.21985194]
[ 0.03968604  0.04369049  0.1095143  -0.21426222 -0.17005736  0.32034656
 -0.02824182  0.02644158  0.14768925  0.01023702  0.15166983  0.19414704
 -0.10942128 -0.1266657   0.12850289  0.04293445 -0.22604331  0.12249599
 -0.38124695  0.2747179 ]
[ 0.07599367  0.01666663 -0.14425907 -0.24258594  0.1562474  -0.03057612
  0.17692797  0.01213431 -0.3042263  -0.20712273  0.04143825 -0.2104694
  0.03570157  0.00173093  0.1023398  -0.04361156 -0.18702522 -0.21778068
 -0.22741364 -0.24692324]
[ 0.3120639   0.10019901  0.19490601  0.31339246  0.08582677 -0.23267104
 -0.00107562 -0.0879379   0.26064175 -0.18751611  0.06819215  0.19569227
 -0.23578702  0.30203155  0.18497539  0.1463252  -0.13313267 -0.06209692
 -0.3472152   0.1752005 ]
[-0.19954862  0.26995435 -0.29438904 -0.22627781  0.1799885   0.11240082
 -0.01474994 -0.2279492   0.0899982  -0.0154773  -0.30054846  0.13130176
  0.08890509 -0.20107469 -0.2547284  -0.00756694 -0.04566008 -0.04229732
 -0.31113067  0.16325454]
[ 0.2658223  -0.14436328 -0.23924236  0.31381384 -0.27060336  0.21577524
  0.1185659  -0.30398616  0.24109851 -0.11771405  0.2597297  -0.00897689
 -0.25272158  0.10455679  0.08874493 -0.21578851 -0.286839   -0.0766538
  0.18058729  0.27151537]
[ 0.00265616 -0.21624397  0.24662611  0.14146852  0.25159135 -0.27511263
  0.14138433  0.24433525 -0.14636964 -0.15268524  0.2772276   0.06667946
 -0.02435802  0.27309325 -0.12499997 -0.15940396  0.02384713  0.1877561
  0.1397841  -0.11050431]
[ 1.7183658e-01 -2.9798239e-01  4.5707725e-02  3.3162594e-02
  3.0804661e-01 -1.4119051e-01  7.9927735e-02 -2.9807082e-01
  2.1916216e-02  3.2258493e-01  2.7308175e-01  2.0522729e-04
 -2.7427539e-01  1.1011169e-01 -2.7702796e-01  3.1350473e-01
 -9.2686638e-02 -5.7860129e-02  2.7404231e-01  8.5349098e-02]
[ 0.00890643  0.16790806  0.11953609 -0.03856285  0.21646805 -0.29669815
  0.2551812  -0.21496852  0.24229528  0.256197    0.11966985 -0.22475387
  0.10894762  0.22891413  0.11958148 -0.32053623 -0.09310739  0.01647322
  0.21617168 -0.04711922]
[ 0.11074818  0.22105876  0.15378256 -0.18212636 -0.15477611  0.11015095
 -0.25266457 -0.12248996  0.15844117 -0.07187065 -0.29131383 -0.02163153
 -0.15118366  0.20558757 -0.08747852  0.17008735  0.17752606  0.16463351
  0.12730004 -0.3002206 ]
[ 0.13878694  0.1482507   0.34853867  0.01923283  0.09522411 -0.27842048
 -0.164338    0.23717593 -0.11712997  0.2311597  -0.03063399 -0.10232379
 -0.03042122 -0.01360284 -0.11376479  0.21201403  0.03352401 -0.19643636
  0.06836103 -0.10008493]
[ 0.29672608  0.07035433  0.2980776  -0.18858182  0.22038038 -0.10854295
  0.13461821 -0.14060214 -0.12651905  0.166836    0.14030522 -0.16530517
  0.2422002   0.09306039 -0.29115015  0.18141504 -0.16053292  0.1689004
  0.29587206 -0.25353667]
[-0.01941164  0.1889865  -0.0233292   0.26358014  0.17996065  0.12181883
 -0.20570685  0.1866563   0.19674702 -0.29214156 -0.22255248  0.01503451
  0.09964769 -0.12456466 -0.19895478  0.00126632 -0.26432875  0.22681464
  0.00604111 -0.08358513]
[ 0.05925161 -0.14620732  0.19352114 -0.02034873 -0.1697724   0.14788939
 -0.04171862 -0.07800511  0.11488345  0.11345403  0.20567566  0.20780402
 -0.20829983  0.21666121 -0.04247466  0.2334953  -0.00902524  0.27026016
  0.11996448 -0.134963  ]
[-0.10241045  0.30203432  0.04709197 -0.05761242 -0.11272609  0.2229765
 -0.11183157 -0.14160326 -0.09482246  0.11340842  0.0405089   0.0225302
 -0.24937305 -0.20888697  0.09645138  0.1624974  -0.26719645 -0.26518378
 -0.22459349 -0.22778532]
[ 0.02080251  0.02826363  0.140912    0.15417147 -0.02206677  0.0293249
 -0.04636541 -0.10782608 -0.2594315   0.23944761  0.23681577 -0.13885501
  0.11701395 -0.04935773  0.17758538  0.15910731 -0.1558588  -0.00245884
  0.07715036 -0.0320166 ]
[-0.07151518  0.02123322 -0.1413531   0.09349199 -0.06562109 -0.01185871
  0.03934903 -0.32188395  0.2974853  -0.245688   -0.17645866 -0.30394772
 -0.09724615  0.09127035  0.07884914 -0.23494874  0.16570465 -0.10470474
 -0.22006352  0.04880504]
[-0.12658182 -0.28007722  0.12402673  0.370425    0.25859338  0.0756361
 -0.10071044  0.2500153  -0.11646697  0.26594833  0.10195656 -0.13922372
 -0.12024545 -0.11450649 -0.21085313 -0.17795204 -0.23853607  0.19599488
 -0.2543861  -0.20338634]
[-0.21082269 -0.01842095 -0.0472233   0.09587216  0.23819587 -0.02267921
  0.29399762 -0.08562832 -0.24477884  0.33299416  0.14037617  0.32573006
 -0.20634976  0.0046793  -0.20224844  0.14392759  0.11929059 -0.0856041
 -0.33214158 -0.134876  ]
[-0.01252911 -0.3253892  -0.05795817  0.212419    0.11356314  0.06537991
  0.04686212  0.18087605  0.07757298  0.08739685  0.23236822 -0.20747821
 -0.32209572  0.07639214 -0.13716035  0.32176602 -0.21381575 -0.0067034
 -0.11361977 -0.18332456]
[-0.00861304 -0.20404711  0.22971946 -0.10133591  0.09876983  0.244932
 -0.25572574  0.11043651 -0.22219801  0.13707578 -0.03965248  0.07107268
  0.17125116  0.06052974  0.02180521  0.03097405  0.02505705  0.14973053
  0.22760807 -0.20376217]
[ 0.05064335 -0.23266244 -0.00314567 -0.12099894 -0.2887868  -0.11523927
  0.35291922  0.02663357  0.10839389 -0.26892626 -0.36633387 -0.29264444
 -0.1223058  -0.23462617  0.04971235 -0.23154458  0.21795177  0.23082018
 -0.19738652  0.3251368 ]
[-0.07917907  0.17083801 -0.00746132  0.06659117  0.18389782  0.11560915
 -0.06159947 -0.10692607 -0.35863036 -0.08606125 -0.0816737   0.10642938
  0.02701849  0.0204573  -0.00369119 -0.2022939   0.04717305 -0.04643936
  0.02247873  0.27550042]
[-0.27076918  0.03668444 -0.34835723 -0.22890243  0.07137891  0.10641254
  0.00987634 -0.18584111  0.11870453 -0.16730309  0.04102466  0.15295169
 -0.09503811 -0.01416228  0.06971299  0.09067453  0.18152127  0.18326731
 -0.08687038  0.09346092]
[ 0.11918849 -0.15913953 -0.04697777 -0.02414766 -0.3681067   0.23863141
 -0.16670126 -0.0995165   0.0152513  -0.26493225  0.12237033  0.0808457
 -0.17051119 -0.10483741  0.2880178   0.11635131  0.03579559  0.24607274
  0.10208654 -0.0158072 ]
[ 0.26898253  0.3319279   0.04444785 -0.23913819  0.27151197  0.20300321
 -0.25785306  0.01168402 -0.17314821 -0.14252399 -0.26830247  0.2164339
 -0.03790073  0.08016488  0.09174796 -0.08889206  0.27905518 -0.15192099
  0.25921693 -0.26996568]
[-0.24956112 -0.2974987  -0.09617344 -0.3248437  -0.17575486  0.06784856
 -0.29509318 -0.10749599  0.00265993 -0.09569348  0.16977583 -0.0700015
  0.22260647  0.18882874  0.08637568  0.23348339 -0.23626482  0.03099823
 -0.19784853 -0.1361546 ]
[-0.09278291  0.30492848  0.2429261   0.09808138 -0.22755468 -0.02654112
 -0.24239282  0.29648805 -0.25045422 -0.20044881  0.00497141  0.13664882
 -0.32329652 -0.01957285 -0.00923394 -0.06567233  0.24321084 -0.13649073
 -0.08774567  0.17645915]
[-0.08171717  0.38334224  0.22814426  0.3025232   0.0954401  -0.09733314
  0.0632545   0.06884268 -0.07939521 -0.02572848  0.26045868  0.19053085
  0.2400591  -0.19773392 -0.13285199 -0.05046747 -0.33566475  0.36053398
  0.15885131  0.20453094]
[-0.00220881  0.07586464 -0.26365003  0.28245804 -0.07199799  0.0896333
 -0.17480746 -0.16399838  0.16606613 -0.02111568 -0.0665725   0.14028789
 -0.0810838  -0.03266825  0.1277012  -0.14765094  0.11476433  0.0846677
 -0.44840878 -0.03404583]
[-0.09543248 -0.11220266 -0.09839581 -0.26734877 -0.10699923  0.15107235
  0.22078751  0.2192725  -0.13545677 -0.02008245  0.2962434   0.10296556
  0.01049867  0.11028665  0.16497679 -0.00328825  0.0665385  -0.27613387
  0.13083375  0.20236762]
[ 0.32167944  0.03541139 -0.32183176  0.31389508 -0.21372356  0.12664345
 -0.0070872  -0.18110639  0.16731122 -0.05813091  0.06113962 -0.17446385
 -0.10742517  0.0836827   0.2009033  -0.1962646   0.11270171 -0.03753957
 -0.02587081 -0.11915179]
[-0.09447288  0.20998046  0.20258333  0.00145362 -0.26402414  0.32622018
 -0.01140864  0.00235966 -0.00878242 -0.2659659  -0.16057736 -0.20979139
  0.08752532  0.02491244 -0.00563891 -0.0423933  -0.16915233 -0.19187841
  0.34494072  0.04861896]
[ 0.2740389   0.07772953 -0.2409462   0.13144827 -0.08702478  0.0245417
 -0.18859982  0.11172035  0.14261615  0.04568455 -0.10745062 -0.06107521
 -0.01886041 -0.18963797  0.03284607 -0.3122827   0.12686114  0.25058785
 -0.25849915 -0.12271127]
[-0.01999713 -0.2263208   0.11310719  0.14586952  0.13412468  0.2424908
 -0.21315703 -0.21295281  0.29194114  0.19530688 -0.15381983 -0.12669049
  0.07996622  0.0645362  -0.16277681  0.3312888   0.08735301  0.01662859
  0.2866714  -0.00540226]
[ 0.00844829 -0.03702032  0.05511269 -0.00455435  0.0552072  -0.01727777
 -0.02950774 -0.07014763  0.04406821 -0.01966837  0.07643203  0.03345311
  0.02952932 -0.01987195 -0.04312836 -0.01247863  0.04167767 -0.02263335
  0.00363721 -0.05529273]
layer 5 Activation
tanh
layer 6 Dense
20 1
[0.04906294]
[-0.39152986]
[0.30326357]
[-0.17896973]
[0.12937684]
[-0.0119224]
[-0.06975635]
[-0.40789536]
[0.18883136]
[-0.36871406]
[0.29494104]
[0.26413026]
[0.01363473]
[-0.368151]
[-0.14933777]
[-0.29295844]
[0.00796454]
[-0.2558641]
[0.16681689]
[-0.18534231]
[0.0415548]
