layers 7
layer 0 Dense
20 20
[ 0.3346569  -0.31341922 -0.4689568   0.29210716  0.45555648  0.7034017
 -0.01521834  0.7372637  -0.84114164 -0.87108064  0.28541082 -0.7477825
 -0.4741899   0.78607404  0.34222096 -0.38405052  0.17936495 -0.81571686
 -0.16399643  1.223062  ]
[-0.00225144 -0.5590845   1.1881862   0.74761933  0.13494825  0.11844287
 -0.5528887   1.1370323  -0.50233436  0.98724556  1.0313382   0.6090341
 -1.1081563   1.3134738  -0.02649099  0.10361852  0.4279682   0.01807378
  0.7245735   0.21028882]
[ 0.29310137 -0.88318676  1.2771155   0.78052074  0.12353221  0.07017493
 -0.86841977  0.78859997 -0.12709804  1.4208714   0.5397637   0.82665104
 -0.88917524  0.6159187  -0.3440089   0.31537747  0.1582656  -0.18151258
  1.0087824   0.55362815]
[ 1.024702    0.12799011 -0.12685041  0.44617885  1.0761275   0.49649647
 -0.33997014  0.49773902 -0.29997346 -0.37284777  0.5596181  -0.34093598
 -0.1936516   0.79485655  0.5672284  -0.5543015   0.5433367  -1.0262953
 -0.46059164  0.868312  ]
[ 0.48265803 -0.12870724 -0.2236908  -0.05875797 -0.72456884 -0.643561
 -1.1980526   0.47145435  0.31169987  0.19358125 -0.07396704  1.4873412
  1.3358569   0.27127934 -0.62600344  0.5380154  -1.6049421   0.8681795
 -0.67167515  1.369186  ]
[-0.2239909   0.33002898 -0.23374598 -1.0736711   0.42392313  0.9771224
  0.6917769  -0.37931377  0.30886886 -1.4035891  -0.6231432  -0.8816901
  0.5402721  -0.26877746  0.28148884  0.03825577 -0.03727804 -0.28958187
 -0.5804581  -0.00813988]
[ 0.16582271  0.43268895 -0.29440928 -0.8007008   0.71916664  1.0849744
  0.43717766 -0.25172722  0.3810087  -1.1769077  -0.80118567 -0.2865932
  0.8622723  -0.36633715  1.0260674   0.41720048  0.11528597 -0.24879637
 -0.70731413 -0.18435314]
[-1.7083305   0.42351243 -1.5104414  -0.16282068 -1.4627292  -0.8138071
  0.627589   -1.8683988   1.1379468   0.8837876  -0.9136331   0.6084006
  0.64832145 -1.2630326  -0.36853907 -0.13210435  0.6191469   0.07261475
  0.5616907  -1.1700356 ]
[-0.5893338   0.9066024  -2.706906    0.92027223 -0.48905516  0.04406821
 -2.2335057  -1.4306794   0.06482752 -0.7413253   0.542574    0.112772
 -0.48389214  0.0859736   0.22406289  0.1904458   0.7909511  -0.20483613
 -1.2533126   0.325914  ]
[ 0.16551366  0.13800998  0.79799664 -0.89977634 -0.48437598 -0.2574993
  0.89879274 -0.06518589  0.19446364  0.08151005 -0.21193063  0.7043525
  1.1731325   2.251363   -1.0089275   0.09960196  0.19494265 -0.4364208
 -1.9481952   0.3982321 ]
[-0.30774146  0.71472     0.7315469   0.4197576   1.2062378   0.14678651
  0.7072129  -0.88644147  0.25180635 -0.4149045   1.41667     0.0016682
 -0.5513553  -1.0197595  -1.5674286  -0.34217384  0.4163077   0.53103703
  0.29229417 -1.1587344 ]
[-0.6728323   0.43530148 -3.6317132   0.78080666  0.4781319   0.25194612
 -1.2319959  -1.107724   -0.35925034 -0.19056872  0.3927202  -0.66840094
 -0.7770058   1.7527201   0.44837955 -0.58128756  1.4180491  -0.9409125
 -0.21114977 -0.9574716 ]
[ 0.68448544 -1.2138157  -0.15997931  0.87086827 -0.32332483 -0.40947288
 -1.3992188   0.87410486  0.7340557   0.15986045  0.1990168   1.2687104
  1.2494386  -0.43609974 -1.3249696   0.8435018  -0.6319894   0.1338044
 -1.2896984   1.3612604 ]
[-0.0430647  -1.5629332   1.1034553   1.564622    0.7580933  -0.28227597
 -1.273079   -0.01081754  0.4804793   0.46379766 -1.7018019  -0.6531561
 -1.4481419  -0.41764018  0.9944261  -3.593577   -2.0048785   1.8955418
  1.970493   -0.03613499]
[ 0.45507473 -1.1784605   1.0795215  -2.4696062  -0.80360126 -0.29655048
 -1.7585933  -0.7376834   0.47746232  0.17803852 -0.41480342 -0.39947638
  0.03554756  1.115267    0.8177151   0.18362927 -0.37733015  0.42694676
 -0.36310524 -0.25033367]
[-0.4980943   0.5135262  -0.8181494  -0.5098233   0.73034513 -1.0973892
 -0.44349745  1.5715312   0.7405337   1.0112942  -0.27620298  0.4343013
  0.37051925 -2.7068996   1.1582755  -0.85072535 -0.14543396  0.60194963
 -0.67706925  0.65935135]
[-0.03530342  0.67782587 -0.92385674  1.199179   -0.59689415 -0.2576475
  1.9135636  -1.1866966   0.02658993 -0.5966755  -1.1143044   0.20506753
  0.47282794  1.7388878   0.6808072  -0.40506366 -0.10898321  0.11769015
 -1.2427686   3.946368  ]
[-0.1633788  -0.16775618 -1.0981855   0.09129416  0.07313497 -0.17138068
 -0.17306146  0.26334518 -0.03000324 -0.41700456  1.1488844   0.38146964
  0.03750738 -1.8200024   1.1566688   1.2829149   0.9175398  -0.854375
  0.5690578  -0.0553547 ]
[ 0.62303114 -0.34480536 -0.8820114   1.8344314   0.12003459 -0.23000117
  0.66149586  2.0761828   0.00807092  0.24895558 -0.21288067  0.9436402
  0.7630596   0.4781955   0.84839624  0.8435874  -0.7517299   0.02706609
  0.19213913  1.2773011 ]
[-1.1968744  -0.886158   -0.28092638  1.7948416  -0.5623694  -0.26166674
  2.6915283  -2.8443053  -0.2869674   0.22222054 -0.762241   -0.9166128
  0.39565018  0.06361472 -0.87361753 -1.6123729   1.2796012  -0.7977532
  0.7189489   1.3361708 ]
[ 0.769971   -0.18932313  1.191986   -0.25228065  1.5704943   0.8867618
 -0.02051828  1.0037457  -0.8777573  -0.7158418   0.91518694 -0.58648354
 -0.6401592   0.4468691   0.41363582 -0.03275276  0.5701654  -0.90425986
 -0.05940438  0.2629264 ]
layer 1 Activation
tanh
layer 2 Dense
20 40
[-0.48354992 -0.35758293 -0.09103768 -0.33795878 -0.2546156   1.0269711
  0.1576773  -0.23278378  0.31249264  0.24771985 -0.28253186 -0.36710995
  0.02199562 -0.9226004   0.74062175 -1.2517463   0.38881615 -0.9744601
 -0.09492309 -0.013028    0.3533264  -0.23020455  0.24123406 -0.7565158
 -0.3134735   0.6259052  -0.18308662 -0.13485345  0.13768561 -0.47082415
 -0.08781622  1.0870237  -0.17060938 -0.32905212  0.7714561   0.715483
  0.27124178  0.04363238  0.89995813  0.13534817]
[-0.43506587  0.50829697 -1.6732615   0.28466654 -0.01510427 -1.0091923
  0.06046336 -0.12357978 -0.89845717  0.3563071  -0.15437216  0.00580569
  0.13116305  0.64218676 -0.54436386  0.11451928  0.32735127 -0.3513968
  0.23315698  0.23570587  0.17306212 -0.64623404 -0.16693999  0.42677283
 -0.15534963  0.5915956   0.3775063   1.5331194   0.1927687  -0.71808064
  0.28273466 -0.823266    0.49370924 -0.5300203  -0.8214451   0.3057573
  0.82927155 -0.46585697  0.28480345 -1.3783089 ]
[-0.08597997  0.7533387  -0.5523217  -1.6849773  -0.26400945  0.96981114
 -0.45981315 -2.1267874   1.368457    1.6371745  -0.41177523  0.01161346
 -2.3778121  -0.5189006  -0.11190998  0.7086811  -0.7733114  -0.8111079
 -1.9835114   0.2643045   1.6566918  -0.81192786  0.33019748 -0.7334771
 -2.044305    0.09629311 -2.0284078  -0.9133146   1.2719743   0.47201985
 -0.3668782   0.56630576 -1.4987373  -0.3921569   1.0460069   0.09274962
  1.0965232   1.2529912   0.42232603  0.4549323 ]
[ 0.25892735  0.00847773  0.14867665  0.07005012  0.2037652   0.2167106
  0.03196233 -0.2633344   0.66207373  0.25126624  0.27191874  0.6989987
 -0.7817034   0.69253725 -0.6584953  -0.376288    0.07466616  0.90682614
 -0.23071751  0.7845746  -0.8746665   0.8901932   1.2535207   0.5728866
 -0.3579698  -0.5311637  -0.33352652  0.53681594  0.11395512 -0.25990224
  0.546856   -0.26524666 -0.27223328  0.6213888   0.76290363  0.3315337
 -0.06012579  1.0176625   0.04764045 -0.19708924]
[-0.5359907  -0.27993634 -0.49383086 -1.245868   -0.47013816  1.0215552
  0.17468481 -1.2492274   0.7743121   1.1168307  -0.6308436  -0.73551565
 -1.0912989  -0.11666007  0.06433646  0.14011915 -0.8123577  -0.7342355
 -1.5192167   0.58433     0.99796265 -0.90643007  0.93909514 -0.7407057
 -1.0519474   0.630611   -0.70989287 -0.03381917  0.9402717   0.19235052
 -0.5118448   0.9090247  -0.74013984 -0.52246594  1.5040832   1.2653145
  0.86416173  1.358341    1.1132189  -0.06976134]
[-0.5428643  -0.83251244 -0.46021757 -0.45704287 -0.3912878   0.81669724
  0.20858103 -0.27314484  0.61684847  0.69847304 -0.5965158  -0.8170796
 -0.46765888 -0.2959626   0.28266567 -0.29834864 -0.25049546 -0.7863426
 -0.48366046 -0.23292491  0.6808044  -0.6983113   0.5928762  -1.1712211
 -0.3406611   0.7304564  -0.33713925  0.34292713  0.29955778  0.14442067
  0.15120326  0.55110276 -0.53933734 -0.6375845   0.21024579  0.24323463
  0.710429    0.8306115   0.9867697  -0.51397556]
[-0.6006224  -0.5454569  -0.2627384   1.5428991   0.16954014 -1.2452701
  0.29596162  1.0630819  -1.3489172  -0.40725014  0.78188527 -0.03928705
  1.7962981   0.7192039  -0.65360445  0.40593308  0.9213503  -0.22077109
  1.3314459  -1.2683781  -1.472731   -0.17081286 -0.7899801  -0.16558902
  1.2126901  -0.01269644  1.3400128   0.44495955 -0.39426205 -1.0947686
  1.4274523  -0.5153073   1.2396389  -0.6189721  -1.2291243  -0.6332758
  0.35627696 -1.0962964  -0.1769783   0.37144592]
[ 0.05784184  0.8706879  -0.26167917 -1.2497389   0.73213655  1.0584524
  0.21594428 -2.131552    1.85314     2.083279   -0.8785609  -0.361881
 -1.7675804  -1.200034    0.08250689  0.4205988  -0.71609336 -0.76509935
 -1.7057134   0.60645324  1.4628315  -0.20114711  0.91482073 -0.08452706
 -2.0968053   0.98110276 -1.3879447   0.10385906  0.18162015  0.04441716
 -0.5461023   0.7852723  -1.9239733  -1.1685578   1.1400687   0.5311536
  2.4491136   1.2194383   1.1117424   0.6236643 ]
[ 0.41069996  0.8771497   0.4863421   0.16070397 -0.0376086  -0.33751503
  0.11652262  0.60032874 -0.30770352 -0.9242986   0.52765006  0.8981346
  0.29134405 -0.49302408 -0.71360147  0.27447477  0.07147557  0.35832542
  0.2514978   0.12267101 -0.56651026  0.1413625  -0.15781976  0.45156395
  0.72247744 -0.9668831   0.10939726  0.02423643 -0.36652207 -0.25277287
 -0.08715738 -0.2679373   0.1143169   0.7188505  -0.44995835  0.18246055
 -1.0417265  -0.45248887 -0.5685923   0.7994875 ]
[ 0.705259    0.12241352  0.91773367 -0.04229172  0.1616381  -0.5003457
 -0.39460564  0.1988093  -0.06649524 -0.56007916  0.55636317  0.48180893
  0.08220802 -0.26180223 -0.15522502  0.29716584 -0.10168716  0.6268541
  0.4435703   0.1280461  -0.11344976  0.5181071  -0.20463738  0.41926122
  0.7301917  -0.18775472  0.17138784  0.01540144 -0.40935215 -0.3435707
 -0.25768453 -0.16028413 -0.06485218  0.7202498   0.06183148  0.41054407
 -0.23261052 -0.608224   -0.68937445  0.54510236]
[ 1.1978566e-01 -2.8512150e-01 -9.4271070e-01 -1.2533487e+00
 -2.4420489e-01  5.2829015e-01  2.9151067e-01 -1.1214056e+00
  1.1328163e+00  1.0945958e+00 -1.0136964e+00 -5.1912582e-01
 -7.8409863e-01 -3.4420794e-01  2.1135396e-01 -6.3418962e-02
 -4.9373633e-01 -9.2669308e-01 -8.4119743e-01  7.0980407e-02
  1.1266433e+00 -1.1397027e+00  6.7802995e-01 -6.7163959e-02
 -3.8009042e-01  5.3714520e-01 -1.2436097e+00 -6.5694988e-02
  1.1843272e+00  5.9583700e-01  1.2094558e-03  5.0663412e-02
 -5.8290440e-01 -5.8015674e-01  9.9138242e-01  1.6821693e+00
  4.5817439e-02  1.3990341e+00  9.0954304e-01 -8.6932987e-01]
[ 1.06210642e-01  1.33278772e-01 -1.08867764e+00  2.35863701e-01
  1.16462000e-01 -4.72208142e-01 -4.09127414e-01  3.00501436e-01
  6.58016652e-02  2.61700869e-01  5.40017784e-01 -2.38530293e-01
  8.79992098e-02  8.78879568e-04 -3.12017202e-01  2.40448043e-02
 -7.67529190e-01  2.15703756e-01  1.14939645e-01 -3.80940467e-01
 -4.77743804e-01  2.24883836e-02 -3.93433750e-01  9.28415537e-01
  2.44212404e-01 -1.52302295e-01  2.65346050e-01  5.53954601e-01
 -9.26582396e-01 -7.49056637e-02 -5.45935392e-01 -9.60703254e-01
  2.94755727e-01  3.76430675e-02 -4.01279598e-01 -1.07371360e-01
 -2.62609720e-01 -5.82552096e-03 -1.94028273e-01 -1.60581231e+00]
[-0.39686123  0.07679012  0.4016828   0.2998477   0.00391769 -0.10045814
 -0.78011376  0.09435227 -0.4974488  -0.3092604   1.0226941   0.15917177
  0.534104    0.15635732  0.16154708  0.43053967  0.05535525  0.01336431
  0.32130364 -0.98854667 -0.38854253  0.34519908 -1.0606867   0.685711
  0.923686   -0.06897962  0.49851698  0.02622436 -0.3546993  -0.24077229
  0.38363728  0.16078098  0.3211324   0.15194641 -0.40613067 -0.47257033
  0.12077826 -0.6536424  -0.85333574  0.46337008]
[ 0.3276233  -0.97092724 -0.06991653 -0.51788723 -1.008645    1.2264749
 -0.59304667 -1.7288269   1.2341428   1.6263833  -0.24956375 -0.3440851
 -1.6264213  -0.6494565   0.3330959  -0.6013746  -0.5418171  -0.5090595
 -1.5964899  -1.6730522   0.3112611   0.8734372  -0.25709492 -1.0962228
 -0.66140413  0.84863985 -1.0406021   0.4557231   1.5879356   1.2368321
 -0.11872485  0.6898116  -1.740286   -0.37215993  1.0601736   0.18071432
  1.822648    0.4973829   0.34194323  0.02284952]
[-0.8873909   0.1266134   0.6874992   0.5513181   0.00534983 -0.33963993
  1.4210417  -0.5455943  -0.73903066  0.24996147 -0.04635211 -0.24263482
 -0.34185517 -0.19172923  1.1876056   0.20739491 -0.10649809 -0.23903236
 -0.1706907   0.32210395 -0.01636471  0.2668714  -1.0594461   0.05228573
 -0.8392142   0.6359039  -0.11369672 -0.44187424 -0.81881654  0.39882538
 -0.56442934 -0.7450346   0.5354523  -0.28303465 -0.96484214 -0.51962364
 -0.16278993 -1.1353801  -0.35222477  1.2734895 ]
[ 0.7195846   0.08792622 -0.38567814 -0.8769815   1.3929741   0.9140481
  0.15785646  0.18361278  1.4157579   0.6922323  -0.10011265  0.04475221
  0.5639494  -0.35522974  1.33468    -0.45438716 -0.28744048  0.83196783
 -0.49160868 -0.38689715  0.6943901   0.5086795   0.02659491  1.4151214
 -0.43456197 -0.6912596   0.07740968 -0.5815559  -0.34857547 -0.01121747
 -0.2556431   0.65884477 -0.9886068   1.1541128   0.76488584 -0.04786281
  0.66236347 -0.03965143  0.72938275 -1.2210661 ]
[-0.40492463 -0.26808113  0.27929363 -0.20110048 -0.10429885  0.0363058
  0.7465626  -0.9996141  -0.09747358  0.19322568  0.14029936 -0.29729944
 -0.65904015  0.844978    0.11447956  0.06865687  1.0166419  -0.19328332
 -1.1120063  -0.41712248  0.5521226   0.02601315  0.3688997  -1.6604738
 -0.64591664  0.27151123 -0.88873583  0.9596499   1.0917552   0.6016656
 -0.07136723  0.00786152  0.06383066  0.36548695  0.2575846  -0.62389773
  0.77625257  0.57990974 -0.28454506 -0.06736173]
[ 0.00131737  0.4823861   0.51445585  0.3456675  -0.93579066 -0.12916723
 -0.8275461   0.30417752  0.29918692  0.1439547  -0.00572459 -0.09427056
  0.29170087  0.6793374   0.24030998  1.0452051   0.2497224   0.580865
  0.5173185  -0.09737469  0.23661208  0.22009619  0.2901825   0.6571371
  0.64216113 -0.2829689   0.18886758 -0.96140856 -1.2209543  -0.41819155
  0.20808321 -0.29310334  0.6179482  -0.02211791 -0.5335551  -0.7724121
 -0.48637837  0.194759    0.27760985  0.2303911 ]
[-0.41798192  0.16278614  0.05290705  0.7704587   0.29305437 -0.43430826
  0.48593098  0.5419725  -0.34503654 -0.39358    -0.15834032  0.08035049
  0.22103351  0.40031266 -0.647271    0.47844082  0.09348271 -0.307288
  0.38816553  1.7724786  -1.015085    0.31806567  0.2858867  -0.3214874
 -0.07639936  0.02162513  0.8680052   0.4081585  -0.14442207 -0.02458623
 -0.6984678  -0.77549535  1.2025957  -0.59931105 -0.16061303  0.5732822
 -0.5518388   0.12144157 -0.1436694   0.43068677]
[ 0.26949015 -0.36988342  0.6400651  -1.2480087   1.0211926   1.0130163
 -0.3778278  -1.0915358   0.9712121   1.3798287  -0.2735173  -0.30380028
 -1.5044514  -1.1787871   1.2911897  -1.1463013  -0.58483356 -1.0416621
 -1.1478734  -0.05193461  0.9166369   0.20762512 -0.04433323 -0.7504231
 -1.5015635   0.55776983 -1.587541   -0.00228075  0.94721407  0.3865154
 -0.03190664  1.2255017  -1.2793477  -0.43620813  0.9102544  -0.00301908
  1.7160832   1.0259789   0.23217379 -0.8103003 ]
[-0.55029774 -0.8200671  -0.26548308 -0.49248636 -0.26070443  0.8492345
  0.21547008 -0.45879954  0.5885502   0.8587614  -0.17578211 -0.8549148
 -0.39400443 -0.8285714   0.16283414 -0.21360227 -0.38375095 -1.0682489
 -0.5892902   0.0070808   0.5595006  -0.4513407   0.40919548 -0.9843602
 -0.51068234  0.84041715 -0.26262093  0.03599625  0.26958683  0.18501112
  0.32564434  0.92048866 -0.75262266 -0.91635686  0.49257016  1.3117639
  0.45759153  0.6171509   0.58322424  0.10000788]
layer 3 Activation
tanh
layer 4 Dense
40 20
[-0.01684026  0.16590668  0.10497569  0.528375   -0.09172848  0.37533265
  0.24402787 -0.2062815  -0.6377669   0.05201631  0.48222712  0.2044502
 -0.16243336  0.62905264  0.30403075 -0.21886413 -0.06770158 -0.34631428
  0.31143916  0.04822492]
[-1.1236057   0.3626032  -0.11315903  0.30427462 -0.21306285  0.9825291
 -0.27521083 -0.18431762 -0.34758857 -0.2981176   0.1268126   0.8998608
 -0.43365243  0.87659943  0.22480695 -0.19973275  0.18515348 -1.0692508
  0.54883844  0.5736393 ]
[-0.09936698  0.10042909 -0.39329684 -0.11633591 -0.42127138 -0.1893473
 -0.28636387 -0.01049687  0.14243059  0.61100495  0.13908544 -0.24272458
 -0.30496493  0.10889651 -0.13655663 -0.3019089  -0.12695567  0.6158208
 -0.44006345 -0.87832236]
[-1.0129488   0.65478003  0.35693577  1.2095218  -0.7976442   0.45983446
  0.26507217 -0.47782582  0.25649276 -0.56478614 -0.18270014 -0.4512627
 -0.5506075   0.04205233  0.11323008  1.1469775   1.0065974  -0.22499166
 -0.9505386   0.03042086]
[-0.7501444  -0.22039741 -0.11127385 -0.15926279  0.17874941 -0.8045894
  0.41797078 -0.47667843  0.14827491 -0.12359899 -0.33993778 -0.59572685
 -0.11610132 -0.13126655 -0.77639824  0.19511905  0.14778307  0.3992076
 -0.02745919  0.35467792]
[ 0.46669614 -0.40861553 -0.6336267  -1.253163    0.5412889   0.1667761
 -0.5466009   0.44299418 -0.2521236   0.5847257  -0.03602936 -0.20475513
  1.0536325   0.02950073 -0.25556707 -0.9386246  -0.35152158  0.1606314
  0.78995603 -0.08684479]
[-0.2226583   0.04573181  0.711487    0.03183158 -0.24196413 -0.6937737
 -0.45045865  0.15787962  0.27165145 -0.23018058 -0.6219914  -0.80972236
 -0.28738433 -0.10124518 -0.5510166   0.35274148  0.36160082 -0.50937134
  0.27846116 -0.17216332]
[-0.23220843  1.7794757   1.1809753   0.5566283  -1.0279338   1.1906514
  2.3568206  -1.7789601  -0.3371742  -1.590081   -0.14922352 -0.12065535
 -1.4375846   0.04805711  0.14366281  1.5712215   1.8780906  -1.1060357
 -1.9068191  -2.1081727 ]
[ 0.9475712  -0.38424245  0.19214931 -0.8390085   1.0564358  -0.8336604
 -0.39720494 -0.26825678  0.3229524   0.90301424 -0.22011039  0.1359638
  0.8394318   0.10814805 -0.2732518  -0.53687096 -0.25502616  1.5976101
  0.15355064  0.6467598 ]
[ 0.3693486  -1.592184   -1.4802433  -0.57374245  1.673195   -1.5031694
 -0.93310547  1.2424566   0.58933645  0.6677989   0.1895993   0.03762046
  1.1338794  -0.28938407 -0.5346936  -1.2054117  -1.677822    1.6145651
  1.4106067   1.8336444 ]
[-0.7421318   0.32746127 -0.33208835  0.57104295 -0.17772841  1.0204939
  0.29799598 -0.52249706  0.00249536  0.5116019   0.31631488 -0.36343166
 -0.28321838  0.4295907   0.23287389  0.37371126 -0.10993946 -0.05578995
 -0.29305208  0.41488668]
[-0.49254215 -0.02836846 -0.65241194  0.03368014  0.00962255  0.4266622
 -0.26645923 -0.12529281 -0.57115805  0.00535161  0.9734721   0.47767955
  0.01001453  0.33158475  0.66129524 -0.061485   -0.7419679  -1.1633269
 -0.0498329   0.47019598]
[-0.2235939   1.2981805   1.6582861   0.80301684 -1.1707196   1.2450006
  2.245943   -1.0267624   0.41982353 -2.2335246  -0.4210715  -0.07692346
 -0.8342815   0.20876202 -0.38649794  1.1506586   1.7274126  -1.5505267
 -1.578387   -1.211281  ]
[ 0.4220825  -0.14889956  0.31558388  1.157745   -0.07071486  0.872449
 -0.06992069  0.5170899  -0.54244536 -0.18173991  0.20288935  0.4311354
 -0.290189    0.29412505  0.38513908  0.30372962 -0.07614002  0.19736272
 -0.5981544  -0.02977742]
[ 0.01911196  0.05917884  0.02887704 -0.6171732  -0.02016697  0.5916244
  0.41312656  0.34393087  0.00187075  0.18412006 -0.26770204  0.32348463
  0.3520729  -0.00263384  0.3854362  -0.81139576  0.7205112   0.55758405
  0.2945944   0.10316321]
[ 0.01790027 -0.1677124  -0.65667737  0.5497572   0.21720245 -0.0064699
 -0.02978481  0.11908398  0.06612489 -0.0087477   0.00426454 -0.2760783
 -0.98209035 -0.58787316  0.50323683  0.68767905 -0.66918176  0.42632613
 -0.87748283  0.29369572]
[-0.30998617  0.6180512   0.71506906 -0.37643817 -0.22899365  0.08241066
  0.11505595 -0.29233444 -0.39507008 -0.06853637 -0.14485094  0.45945305
 -0.01192256  0.9947842   0.05556105 -0.17703909  0.51178056 -0.41343293
  0.6084265  -0.03896151]
[-1.146012    0.63052446 -0.3098874   0.22165035 -0.4385251   0.604272
  0.45802018 -0.33996204 -0.92964965  0.05386474  0.5676748   1.0432237
  0.30878508  0.9916211   1.0530431  -0.05454459  0.50614816 -0.48804456
 -0.3295076  -0.2042215 ]
[-0.69292754  2.2706199   1.9088621   0.90958965 -1.8173568   1.7937132
  2.1922438  -2.108534   -0.24138461 -1.7211032  -0.00910862 -0.04487168
 -0.8216614   0.67891836 -0.12337748  1.6319284   1.9559419  -1.659931
 -1.4636827  -1.4722594 ]
[ 0.54570633  0.6549666  -0.05392219 -0.34880543 -0.27107927 -0.04143413
  0.18055847 -0.5207351  -0.03126027 -0.24057649 -0.23064527 -0.3012316
 -0.5124529  -0.38216776 -0.06436359 -0.1978847   0.2131406  -0.25190508
  0.05349747 -1.0110644 ]
[-0.20270103 -0.8544809  -0.50739646 -0.49185747  0.7207169  -1.3045472
 -0.5491875   0.4323648   0.36291555  0.6748365   0.1557021   0.70871586
  0.25552016 -0.00590347 -0.10677155 -0.8025658  -0.79402363  1.1863846
  1.3200194   0.57690203]
[-0.12147655 -0.06761621  0.00570748  0.04452715 -0.16960151  0.25774476
  0.4799615   0.02471145  0.0039013   0.28021044  0.14373574  0.02072061
  0.5768514   0.4092002   0.32107475  0.5851677   0.32014838 -0.6711123
  0.03270258  0.21484704]
[ 0.76346034  0.48526573 -0.67260504 -0.46611175  0.03583194  0.09070134
 -0.26322672 -0.6613476  -0.77144855  0.60238606 -0.10864067  0.41315928
  0.9163464   0.02464432  0.05872418 -0.5108794  -0.8947097   0.03933389
 -0.16498359 -0.5407438 ]
[ 0.030816   -0.08899679  0.11260097  0.21531962 -0.38122147  0.6223572
  0.26323333  0.09142749 -1.3056823  -0.3409492   0.25341195  0.42579955
 -0.27931395  0.32773313  0.92392683 -0.31944394  0.8141834  -0.30531374
 -0.23168346 -0.6834863 ]
[-0.97180724  0.69844466  0.7513414   0.46102202 -1.5659467   0.62890077
  1.3916898  -0.8146309  -0.29683897 -0.20828559 -0.18119027 -0.03819748
 -0.6228196   0.8071336  -0.0262928   0.32572645  1.2201388  -0.79540694
 -0.79493713 -2.0668173 ]
[ 0.8884733  -0.09615077 -0.31693435 -0.2884878   0.7513629  -0.461614
  0.6877157   0.33848906  1.2972078   0.02332511 -0.73489416 -1.0539737
 -0.12080208 -1.3120472  -0.94081694  0.24093866 -0.043733    0.59749013
 -0.22895242  0.03089999]
[-0.56822604  1.1777004   0.18847093  0.3482754  -1.0727383   1.9021451
  0.9295665  -1.3000172   0.7308159  -0.8658711   0.04391117 -0.5956483
 -0.47280955  0.510759   -0.46034902  0.19181612  0.8106018  -0.9185293
 -1.6418399  -0.70195013]
[-0.20683874 -0.23231864  0.8824058  -0.24997544  0.17130224 -0.00107409
  0.23781031 -0.07042254 -0.037154    0.01653589 -0.14011525 -0.20581098
  0.05971804 -0.35914066 -0.23440164  0.3679013  -0.43562794 -0.2652987
  0.01169732  0.2036898 ]
[ 0.933483   -0.62576306  0.6019822   0.3624354   0.31647956  0.12074746
 -0.78708124  0.2683762  -0.27406847  0.8716971   0.0157929   0.4626774
  1.2524197   0.7144504   0.15775555 -0.533762   -1.0802207   0.45022646
  0.41855597  0.03107476]
[ 0.4793566  -0.1808059  -0.03693016  0.5524581   0.18321708 -0.8099059
 -0.17129607  0.42841846 -0.6461916   0.6513561  -0.19725907  0.00604222
  0.08274223 -0.99665546  0.33989376 -0.36949137 -0.48429587  0.34947857
 -0.5859423  -0.1977091 ]
[ 0.5386923   0.26601806 -0.4814976  -0.2684941  -0.01873645  0.14406784
  0.22090276  0.1368227   0.46111983 -0.519906    0.13762942  0.2257734
 -0.26819316  0.36659816 -0.01510104  0.08299247 -0.12991658 -0.41436058
  0.28758055  0.12993039]
[-0.02566176  0.28931656 -0.6504245  -1.3071961   0.26863855 -0.5518578
 -0.01159535 -0.05677293  0.69716954  0.23160906 -0.5718216  -0.6003822
  0.47761244 -0.47296718 -0.66650003 -0.5257767   0.22682646  0.37215254
  0.74185    -0.18313856]
[ 0.24220526  1.0835996   0.40778503  0.9632888  -0.85194755  0.8301051
  0.07645836 -0.97031903 -0.14252536 -0.719525    0.49876592 -0.28118306
 -1.1722264  -0.48776433  0.12770276  0.70892817  0.8833795  -0.519222
 -1.0078186  -0.53015643]
[-0.81875306 -0.31135932  0.28474954 -0.0446655  -0.2826013   0.6614967
 -0.3330448   0.20750526 -1.446944    0.42168283  0.8111409   1.0627851
  0.1580293   1.0063225   0.8682083  -0.17935577 -0.14289843 -0.68334633
  0.0212545   0.35826626]
[ 0.4418254   0.20250657 -0.6879064  -1.5070438   0.3594957   0.00899411
 -0.62476146  0.28141144  0.38847953  0.8438814  -0.23600525 -0.30890638
  0.94603443 -0.15332957 -0.6792656  -0.57546496 -0.16157919  0.63143337
  0.5431443   0.14216645]
[ 1.1243457   0.08475276  0.06759401 -0.64266914  0.05259676 -0.772206
 -0.42378527 -0.02161074  0.6772551  -0.2330576  -0.16807956 -0.62706083
 -0.08410238 -0.64415556 -0.4544309  -0.29796332 -0.46980625  0.18751442
  0.07592572 -0.02281816]
[ 0.22349441 -1.5166137  -0.16009006 -0.36102292  0.89054495 -0.21802114
 -0.96497136  1.0762261   0.3815605   1.3607668  -0.04879373  0.00782661
  0.8551386   0.5079754  -0.04866207 -1.0311162   0.5132323   1.5488436
  0.68859285  1.0811027 ]
[ 1.0401576  -0.38325918 -0.4225514   0.35923594  0.9365976   0.5166367
 -0.7050279   0.33735073 -0.12095518  1.1217842  -0.1642068   0.31966043
  0.38990265 -0.0840946  -0.00268667 -0.45035946 -1.022424    0.74072796
 -0.69991994  0.2611239 ]
[ 1.1526834   0.18803704 -0.34266815 -0.17318329  0.29116043 -0.60773027
 -0.01842026  0.34892365  0.12264695 -0.6932072  -0.63929343  0.19304277
  0.08343506 -0.707706   -0.06509304 -0.1643769   0.01298613  1.0216961
  0.58107126 -0.16141775]
[-0.51683056  0.24650183 -0.6037895   0.23699076 -0.8250273  -0.21213236
 -0.6101739  -0.44574896  0.06760827  0.4093544  -0.30743104 -0.41694734
 -0.3706821   0.01183997 -0.06262061 -0.5213582  -0.2695285   0.2358899
  0.02959911 -0.49026075]
[ 0.9175629   0.2905578   0.08637436 -0.20135628  0.16203961 -0.24515927
  0.6832384  -0.03678045  0.8242943  -0.20717369 -0.5741197  -0.9759734
 -0.17314273 -0.78227925 -0.71317863 -0.08559689  0.22351556  0.27219293
 -0.2637974  -0.4965154 ]
layer 5 Activation
tanh
layer 6 Dense
20 1
[0.72807235]
[0.7979225]
[0.5201211]
[0.38244626]
[-0.7930484]
[0.64432937]
[0.92589605]
[-0.8718215]
[1.779745]
[-0.7262859]
[-1.4769772]
[-2.0073485]
[-0.61653614]
[-0.58499324]
[-1.7895384]
[0.77056587]
[0.81797343]
[-0.65141815]
[-0.8016222]
[-1.1240822]
[2.0763958]
