layers 7
layer 0 Dense
20 20
[ 0.612632   -0.5206203  -0.05425136 -0.04256461 -0.15326601 -0.26141158
 -0.6292652  -0.40718678  0.31070524  0.02755322  1.1746073   0.43264148
 -0.62192756 -0.10870786  0.03896693  0.17143953 -0.46141332  0.12833902
  0.12292846 -0.10313061]
[-0.354465    1.6434506   0.03065705 -0.67553324 -1.1169883  -0.5144523
  0.2531336  -0.20186174  0.55334085 -0.08825741 -0.05513565  0.926139
 -0.5988605   0.09516531  0.8208604  -0.7828111   0.82109964  1.7775358
 -0.52198     0.36483362]
[ 0.08347583  1.527493   -0.29120195 -0.6793698  -1.0841168  -0.5688554
  0.58212703 -0.13448445  0.83825564  0.0835498  -0.44223365  1.2158923
 -0.12728867  0.25993168  0.6355844  -1.0424116   0.47174162  1.9198042
 -0.68434805 -0.0585632 ]
[ 0.5304787  -0.4144182  -0.09234205 -0.24784502  0.17602853  0.02226214
 -0.08503616  0.09625762 -0.289259   -0.34505442  0.7736603  -0.21208632
 -0.7698869  -0.05459246 -0.16148208 -0.26780543 -0.13413186 -0.19436337
  0.33121842 -0.53962207]
[ 0.27180243 -1.4540102  -0.2688571   0.46911952 -0.09485059 -0.08110116
 -0.11364563  0.99222     1.0732285  -0.88644737 -0.77861995 -0.6964832
  0.24978544 -0.00184846  0.1211218   0.34644666  0.53323334 -0.7173867
  0.3560685   0.6945853 ]
[ 0.4147637  -1.6245158   0.1481241   0.43966386  1.4373733   0.59682524
 -0.28336486  0.18286458 -0.4331884   0.7120783   0.15311073 -1.0832776
  0.04323507 -0.2765196  -0.8768016   0.717214   -0.92303866 -2.0085127
  0.8927346  -0.22130367]
[-0.06487767 -1.2502346   0.26390886  0.07310195  1.4394827   0.03250005
 -0.31587106 -0.01114619 -0.28727624  0.51905257  0.32350388 -1.0641735
  0.03957323 -0.27659738 -0.866311    0.7150912  -0.69632894 -1.8345724
  0.8828977  -0.4293903 ]
[-0.02540399  1.087434   -0.13651845 -0.18463005  0.01596581 -0.12385882
 -0.31401524 -0.39307258 -0.7816719  -0.01664165  0.2329657   1.0237641
 -0.3470923  -0.0339973   0.35358688 -0.07567875  0.11250244 -0.2211036
 -0.69393396 -0.09799651]
[ 0.8494585   0.5198294  -0.47479686  0.590729   -0.7090701  -1.1500546
  0.33937937 -0.5829501  -0.532595   -0.14307244  0.77132565  0.756863
 -1.9525838   1.4256972   1.1980026  -0.08444183  0.94583887 -2.485547
  0.0585262  -0.8392521 ]
[ 0.17791606 -0.7499987   3.4833596  -2.1834056   0.18126537 -0.2206645
 -3.9802558   0.45092165  1.743717    2.2128677   1.8488568   0.63668686
  0.649177   -0.01383566  1.7325392  -1.7029076   1.6424785   2.7893014
  1.2685566  -1.0371534 ]
[-2.5485945  -0.83969396 -0.7175592  -0.23809516  2.293822   -2.7029274
  0.4146863   1.9544822   1.6899239   1.6476612  -0.73326147  2.864904
  2.6467745   2.6517508  -0.8407556   2.3378232  -0.3677508   0.94475985
  3.349144   -0.55340946]
[ 1.5663806  -1.5397278  -0.6596538   0.6416776   0.6278352   1.0447521
  0.7610468  -1.6292604   1.02076     0.19443126  2.5246742  -0.5013062
 -2.2083097   0.1649366  -0.53585786  2.5268402   1.0136485  -0.19016838
 -0.9169381  -0.25480393]
[-0.4724327  -0.22176245 -0.24187776 -1.1877797   0.04282152  0.12259569
 -0.14129972  0.01435311  0.53616726 -0.05455076 -0.46628162  0.16240656
 -0.3038237  -0.46825162 -1.5171854  -0.5207028   0.72830296  0.5753127
 -0.01772477  1.0005645 ]
[ 0.30125225  1.1382715  -0.76161134  1.2477006   1.3075638  -0.2254489
  1.3967986  -0.74898064 -0.31912827  0.19192661 -0.45158032 -0.5715064
  0.11397603 -0.40331525 -0.10491971  0.03638565  0.14085868 -0.76241225
 -0.3004086  -0.9606956 ]
[ 4.1760096e-01 -7.0277208e-01 -4.9268392e-01 -6.3807034e-01
 -9.8328121e-02  5.7508594e-01 -2.3803383e-01 -9.7866285e-01
 -1.1015067e+00 -4.2376575e-01  1.3911911e+00 -2.3470969e-01
 -6.3102686e-01 -5.2173537e-01  3.3887539e-02 -6.2990618e-01
 -1.9137748e-04 -6.0872030e-01 -1.2144783e+00 -9.1752028e-01]
[-1.5741761e+00  2.7848548e-01  1.1286156e+00 -8.0974346e-01
 -1.2021188e+00 -9.2804164e-01 -5.3515273e-01  4.8230723e-01
  1.5143785e-04 -4.6757791e-02 -6.2711573e-01  6.8775916e-01
  7.8778696e-01  1.0074805e+00  2.1834474e+00 -1.5313904e-01
 -2.6923075e+00  1.0944686e-01 -6.2367606e-01 -1.4000832e+00]
[-0.39788517 -1.9822272   0.17890643 -0.2173745  -0.24834979 -0.5902425
 -0.7040846   0.5562108   0.68916696 -0.98148817  0.47969124 -0.62987953
  0.66123116  1.3774118   1.324685   -0.06576701 -1.3622713  -0.7966895
  0.8744218   0.6454349 ]
[ 0.38416904 -0.7976465  -0.61316174  0.45245403 -1.1862054   0.10402056
  0.6130617   0.05254909 -0.9766903  -1.7979596  -0.633565   -0.14859383
  0.17674841  0.47429305 -0.9099038   0.4558671  -0.76564246 -0.37214822
 -0.8616296   1.3921987 ]
[ 0.27042586  0.6377069   0.8049947   0.3098286  -0.9916244   0.9298654
 -0.20720251  0.3393707   0.41785148 -0.04530852 -0.92681336 -0.54625803
 -0.43905532 -0.14458719  0.47864613 -0.3073246   0.05814167 -0.18831141
 -0.5771297   1.9060907 ]
[ 0.09509393  1.2194904   0.58158356 -0.30522847 -0.08654898 -0.4158417
 -0.7954771  -0.5428054  -1.5542692  -0.5866218   0.33941513  1.4478416
  0.359852    0.26464117 -0.02794507 -1.5715485  -0.07853316  0.4069597
  0.44104874  0.7206505 ]
[ 0.21835038 -0.13513084 -0.08878469  0.13917075  0.08708953  0.43301004
  0.10991293 -0.23739241 -0.07659983  0.31878388  0.30331686 -0.2628828
 -0.14154957 -0.3557029  -0.20290005  0.1605706   0.06208149  0.54548657
  0.03632985 -0.27203387]
layer 1 Activation
tanh
layer 2 Dense
20 40
[-0.26166573 -0.9031209   0.5688004   0.45812404 -0.08322162  0.4495957
 -0.1304707  -0.3707788  -0.9573501  -0.06895636 -0.71282953  0.30633172
  0.28421745 -0.9122525   0.56011844  1.3802452  -1.2123781  -0.7041469
 -0.29944015 -1.0573388  -0.39277074 -0.82954407 -0.5642756  -0.2702485
 -0.3641205  -0.5191354  -0.78647256  0.32156602 -0.62113     0.34250364
 -0.54465574 -0.00916775  0.5130495   0.47023302 -0.5174487  -0.05823908
  0.3113754  -0.32093742  0.03500145  0.44080347]
[-0.43211663 -0.5227082  -1.0259924   0.10625952  0.36123708  1.0294014
 -0.3906976  -0.64484215 -0.71267027  0.22100109  0.48287904 -0.5270834
 -0.20476921 -0.10605424  0.9220398   1.1938295  -0.31543845  0.03560777
  0.5866676   0.78101456 -1.0690684  -0.63085437  0.75978523 -0.4015768
 -0.04659776  0.47153956  0.14464577  0.48225105  0.3600037   0.6164785
 -0.7872462   0.00178529  0.21845955  1.1881351  -0.40967414 -0.616635
 -1.0441186  -0.5910835  -0.10679987  1.3138962 ]
[ 1.255831    0.22674438  0.9936283  -0.5826074  -0.656686   -1.0682014
  1.2436713   1.20521    -0.21060786  0.67342025  1.4788129   0.4029579
  0.6658965  -0.32326886 -1.423975   -0.79393256 -1.0616434  -0.34405452
 -1.7494285  -0.91438174  0.5373066   0.7469534  -0.40630132  0.5543607
 -0.13735881 -0.0508498   0.52169716 -0.68787843 -0.4693544   0.00695613
 -0.7530155   0.23994604 -1.7572902  -0.18090093  0.20209034  0.817344
 -0.9620738   0.02735547  0.00920284 -0.15475416]
[-1.1209713  -0.16950402 -0.10299043 -0.111076    0.19157301  0.5131109
 -1.1674182  -0.3773265  -0.35256293  0.19416137 -0.6101544  -0.1544268
 -0.41809565  0.0437158   1.0647563   0.38062957 -0.65503544 -0.13801727
 -0.1723613  -0.4684815  -0.7419414  -1.070258    0.0062582  -0.6300342
  0.8021608  -0.14898992 -0.07507873  0.61250746  0.30638266  1.2146298
 -0.11621361  0.04031763  0.78145295  0.74731773 -1.2739474  -0.23715428
 -0.07506326 -0.21959756 -0.761051    0.6407917 ]
[-0.1652305   0.04274068  0.46993294  0.0706072  -0.19556564 -0.06909315
 -0.36223236  0.01992135 -0.11528169 -0.12012129 -0.8270362  -1.3744423
  0.76002437  0.27678993 -0.2270564  -0.66749096  0.53371704  0.76921207
  0.10382782 -0.48757687  0.14665757 -0.8143168  -0.4457253  -0.4928326
  0.8092925   0.28425378  0.970916    0.2400182  -0.18654473  0.38875794
  1.2624419  -0.7762441   1.8252238  -0.4727565  -0.14230894 -0.7356356
 -0.4319613  -0.3200768  -0.90467405 -0.44727778]
[ 0.28447163 -0.3934585   0.2698911   0.34586248 -0.43356895 -0.53780043
  0.4407431  -0.0602076   0.09289659  0.02130055  0.44701383  0.10778391
 -0.40225652 -0.04762088  0.23667493  0.71510506 -0.7128984  -1.3380889
  0.0135533   0.69706804 -0.12832873 -0.48418644 -0.2544225  -0.22151859
 -1.3651723   0.22668058 -0.13001972 -0.01431929 -0.17151974  1.0200597
 -1.0758345   1.196745    0.00859191  0.9765459  -0.5604683   0.33026472
  0.3458351  -1.1636053   1.2140083   0.5523734 ]
[-1.245943   -0.63002235 -0.09406657 -0.25410032  0.35026604  0.46689948
 -1.1327764  -1.5980693  -0.02838277  0.31083745 -1.6512378  -1.1055028
 -0.72296715 -0.1908902   0.6998461   0.6959831   0.05709518  0.30031848
  0.88660145 -0.3753317  -1.0091847  -0.53429323  0.32738283 -0.5086136
  0.78797126  0.23537928 -0.61520433  0.47381487  1.3626804   0.24948892
  0.67829716 -0.06924754  1.8802584   0.63271135 -1.0153618  -0.1105298
  0.32524312 -0.61995286 -1.0054485   0.9519116 ]
[ 0.7585722   0.0313727  -0.05483439 -0.3790849  -1.2287053   0.40172148
  0.6687832  -0.02012345  0.72027504  1.0375211   1.0222459  -0.11694551
  0.12351546  0.63883555 -1.0345566  -0.46838853 -0.12501998  0.28266847
 -0.6057409  -0.54018587  0.08283422  0.48318145  0.04947366 -0.10921025
  0.6798052   0.24221897  0.18211508  0.01609644 -0.04090912  0.38627675
  0.26200667 -0.3034731  -0.52231604  0.3408855  -0.09448227  0.17213087
  0.04880007 -0.04878969 -0.41982272 -0.19732627]
[ 1.091262    0.55427295  0.6724533  -0.5645239   0.11623631  0.872776
  0.24082658 -0.48758188  0.6479097   0.75769377  0.85677916 -0.88341147
  0.62509954 -0.0621008  -1.3802261  -0.672423    0.29176605 -0.4229226
  0.19213627 -1.1362258   1.2008164  -0.10484946  0.10553732  0.384959
  0.21435097  0.23397824  0.93532515 -0.23010606 -0.8314534   0.50936633
  0.5229464   1.0137106   0.1127966   0.1780873   1.021345   -0.39436066
 -1.23543    -0.60424745 -0.27750233  0.29849833]
[ 0.11423456  0.68958163  0.9329265  -0.21340103  0.81505454 -1.3235052
  0.5514003   0.47760358 -0.5575402   0.2386789   0.02869662 -0.0865137
  0.7540366   0.41565287 -0.33764654 -0.6424316  -0.46521392 -0.3207627
 -0.6295644   0.15766329  0.994897   -0.21292016 -0.3078943   0.4078508
  0.37160033  0.05923379  1.3091329  -0.16039266  0.5209974  -0.42196825
  0.22417198  0.38868567 -0.3824401  -0.6111666   0.4044727   0.6231485
 -1.2137665  -0.28559843 -0.48105004 -0.8383593 ]
[ 1.1831119  -0.6274842  -0.04045414  0.15563866  1.1798793  -1.5681121
 -0.21242179  0.29246914 -0.52081245  0.16752993  0.33674002  1.3366624
  0.9787052  -1.8695501  -0.14114456  0.1745189  -1.4098256  -1.0475423
 -1.2080265  -0.31823114  1.6008906  -0.08754196 -0.7190335   0.01197883
 -1.0849504   0.20977765 -0.45857397  0.9503161  -1.0533366   0.6328821
 -0.39314938  0.31287345 -1.1716608  -0.32689506  0.5597795   0.6843872
  0.7921954   0.71027315  1.1533931  -0.2892326 ]
[-0.19861402  1.1130735   0.05677006 -0.863547   -0.23841873  1.1507906
  0.9964511  -0.17103522 -0.69430035  1.0177196   0.23451228  0.6832868
  0.4144578   0.10787468  0.06527092 -0.2280243   0.10241196  1.5242628
 -1.7299072  -1.0820346  -0.4035376   1.2619367  -0.36356813  0.35866562
  1.4626205   0.2367368  -0.19686553 -0.67344695 -0.9555929  -1.1768169
  1.01761    -0.7250906  -0.29267138 -0.4409022   0.84100056 -0.7244616
 -0.81590635  0.8241916  -1.650539   -0.43014443]
[-0.5610726   1.4025381   0.20328215 -1.0704812  -0.76562744 -0.38103378
  0.6462018   0.25826132  0.7939879   0.35387444  1.1389943  -0.579935
 -0.57439226  0.8453732  -0.15123743 -0.9103357   1.134106    0.7626148
  0.01587089  0.4888203  -0.05372126  1.5253012  -0.13542031  0.346358
  0.45954454 -0.30850843  0.8037376  -0.56098497  0.27130654 -0.08988373
 -0.06476531 -0.88635737 -0.45024756 -0.8266897  -0.4936744   0.41779813
 -1.3499511  -1.0130528  -0.3499162  -0.27933258]
[-0.01491919  0.5934453   0.0964881  -0.49733245  0.5083235   0.30817315
  0.11084681 -0.40666515 -0.21940778  0.4086893   0.09874021  0.11432743
 -0.58960164  0.49572828 -0.59178716 -0.6296877   0.6159371   0.5931842
  0.11438712 -0.8307465   0.5201259   0.4200625  -0.21826404 -0.09353423
  0.8193699   0.26742452  0.39576998 -0.30036885 -0.28666836 -0.3812626
  0.23026355  0.03036194 -0.11666371 -0.16872287  0.9780495  -0.29550967
 -0.03912955  0.2697195  -0.81609106  0.11354174]
[-0.04266885  0.7322467   0.30783093 -0.06992342 -0.07758709 -0.52126145
  0.6724093   0.64436984 -0.810924   -0.0014415   1.139883    0.671456
 -0.2078046   0.5536508  -0.40127563 -0.23588935 -0.00523876  0.25091484
 -0.43280396 -0.47865978 -0.6745304   0.36308601 -0.17978695  0.26582274
 -0.18984216 -0.072859    0.23109068  0.1315498   0.09873572 -1.148361
 -0.29428482  0.68452924 -0.47041282 -0.34786436 -0.1081043   0.1903481
 -0.03674181  0.11663879  0.40787187  0.07944006]
[-1.1187861  -0.41879514  1.1164588  -0.24482532 -0.4980195   0.38804388
 -0.21948856 -1.2597889   1.0566816  -0.1266521   0.39798075 -1.0988333
 -1.4115125   0.24236739 -0.279883   -0.23028877  0.31580204  0.38902023
  0.61211747 -1.477969   -0.5051833  -0.42045385 -0.77331275 -0.07393744
  0.7102762   0.22937605  0.5105388  -0.01484829  0.2840876   0.4553706
  1.289112   -0.06402478  1.6127462   0.38284782 -0.3506794  -1.084958
  0.02108632 -0.70906854 -0.44095156  0.13953802]
[ 0.46036908 -0.2708005   0.39258966  0.1328391  -0.17221434 -1.0266259
  0.43451428  0.3086009   0.14769806 -0.61466    -0.4738107   0.25181046
  0.46233544 -0.10638031  0.05739977  0.21802431 -0.32589254 -0.32487318
 -0.29527393  0.48013368  1.3095137  -0.05928232 -0.2876904  -0.4343774
  0.15028813  0.15449356  0.23253281  0.11413065 -0.38160074 -0.42099282
  0.4767379   0.48887524  0.24827042  0.49357742  0.22545308 -0.3164094
  0.00832381 -0.9467523  -0.40872714 -0.6451896 ]
[ 0.7178255  -0.4078036   0.8496785  -0.02935247 -0.453137    0.24787632
  0.574983   -0.07213701  0.7027022   0.4121011   1.0181358  -0.55172396
  1.4120928  -0.48374626 -1.4556948  -1.5101666   1.0489063  -0.6477018
 -1.1001711  -0.0764069  -0.02219335  0.4903556  -0.3980393   0.4503155
 -0.65162444 -0.41842365  1.7055708  -0.06720207 -0.17064312  0.21352673
 -0.05966248 -0.21228239  0.07384289 -0.83363944  1.0645763   0.10674541
  0.19039167  0.5345171   0.69051874 -1.0879254 ]
[-1.0184548   0.96809196 -0.0997157  -1.454797    0.02354049 -0.23279673
  0.8158351   0.14647569  0.35657     1.5340686  -0.39974174 -0.5477049
 -0.50087816  1.5194373   0.38398415 -0.82295245  0.01470339  0.9384236
 -0.50820947  0.33471394  1.0755552   0.64274496 -0.1763108   1.0395824
  1.3280507  -0.34741533  1.7046773  -1.562773    0.3733997  -0.3366947
  0.46667373 -0.37866706 -0.11363908  0.36508054 -0.56370854 -0.10272852
 -1.1362514  -1.1529521  -1.1050984  -0.24318665]
[ 0.30398327 -1.7147237  -0.21308751  0.0563947  -0.88840604  0.25360328
 -1.0233576   0.9567256   1.1369253  -0.41521183 -0.37215412 -0.4863252
  0.95819455 -1.289266   -0.25547427  0.4544387  -1.7775031  -0.86246765
 -1.7321559   0.5763323  -0.14128268 -0.40391845  0.26379025 -1.0338023
  0.20419851  0.60863876 -0.5295384   1.3060731  -1.0805904   0.82560617
  0.19893444 -0.05694094  0.32112107  1.0847329   0.15026751  0.49382716
  1.8724153   0.47676164 -0.42888665 -0.02865753]
[ 0.0234474  -0.04571133 -0.27630353 -0.02009165  0.04390296  0.35974732
  0.37630022  0.24484165 -0.43782464  0.2858214  -0.26928785  0.24975216
  0.2382035  -0.25316682  0.14347711  0.2205587  -0.39115718 -0.33022746
 -0.29162303  0.1296569   0.21805166  0.2764017   0.6950384  -0.02325198
  0.09046787 -1.3006363  -0.05217994 -0.52922785  0.08751201 -0.29225916
 -0.30963412 -0.28562453 -0.12398559  0.12351459  0.07956339  0.14209013
  0.2596339   0.6796991  -0.37447205  0.49615684]
layer 3 Activation
tanh
layer 4 Dense
40 20
[-1.3931692  -0.14579794  0.1324616   0.5071526  -0.88071984  0.0094908
 -0.8603862   0.906436   -0.35275483 -0.55100197 -0.14703259  0.01190183
 -0.2799669  -0.42452762 -0.26804382 -0.33240893  0.17513512  0.0826875
  0.42854103  0.14134602]
[-0.4134184  -1.0513424   0.95295334  0.07413504  0.33831125 -0.19033335
 -0.3294645  -0.41070408  0.26587823 -0.05844624 -0.30879724  0.06198648
  0.14475974  1.1233965  -0.42824394 -0.16818422  0.89923495  0.33269998
 -0.61586833 -0.35860962]
[-0.02919914 -0.05453695  0.50064737 -0.00358415 -0.45433578 -0.6069718
 -0.56433034  0.24269538  0.2852555  -0.36460394  0.160528   -0.72470903
 -0.36676866  0.18198712 -0.77702594  0.1893324   0.4743004   0.1764114
  0.27800447 -0.1758723 ]
[ 0.10674106  0.47148418 -0.48380473 -0.08612892 -0.28985193 -0.35087296
  0.13359074  0.04724002 -0.39663598 -0.1474272  -0.2737562  -0.12157619
  0.16352166 -0.35499087  0.0875048   0.1574707  -0.22971047 -0.24297427
  0.02380241 -0.04575836]
[-0.32901853  0.50998193 -0.14245278  0.5950012  -0.64674413  0.5819524
  0.27420968  0.365714   -0.22177415 -0.07463613  0.08121076 -0.05619967
 -0.5232743  -0.1736984  -0.4707697   0.12089063  0.18290602  0.01924278
  0.21407408  0.39297682]
[-0.12429629 -0.5285332  -0.44754994 -0.37093583  0.5335016   0.05262437
  0.42622793 -0.10575175  1.0564663   0.21125352  0.21676163  0.24651858
  0.7949828   0.24552496  0.5546122  -0.3759395  -0.30390534  0.15470168
 -0.12362297  0.12050413]
[-0.22389068 -0.3156037  -0.0835738  -0.17260578 -0.34655392 -1.0570441
 -1.3474548   0.3807759   0.21055794 -0.13407356  0.01401103  0.13478327
  0.16680466  0.5830052  -0.38266364 -0.3079881  -0.20793131  0.27132568
 -0.00572046 -0.2878668 ]
[-1.8920912e-04  4.0496650e-01  5.5197027e-02  8.1513613e-01
 -1.2149777e+00 -2.6757243e-01 -1.4283784e-01  2.4233714e-01
 -3.1197661e-01 -8.3072335e-01 -3.1921989e-01  2.3384993e-01
  9.5735192e-02 -1.2442694e-01 -6.7348778e-01 -2.1375041e-01
  1.6624408e-02 -4.5944333e-02 -1.5655796e-01 -6.2724566e-01]
[-0.18647522  0.6531361   0.32352546  0.5940706  -0.7016689   0.8063061
  0.23419303  0.59257185  0.42301318  0.17256065  0.38661683 -0.3184211
 -0.17937618  0.23375887 -0.5001117   0.48037997  0.16539782 -0.16611785
 -0.06638169  0.02301483]
[-0.34228253 -0.5892607   0.6051861  -0.26655918 -0.12350538 -0.40450534
 -0.21350192  0.11823764  0.53940594  0.11673322 -0.15577163  0.02963883
  0.16353661  0.3473618  -0.31581348  0.15725245  0.713966    0.24997267
 -0.43217698 -0.348471  ]
[-0.7257072  -0.33429432 -0.2015309   0.06073597  0.34574494 -0.99113905
 -0.38132697  0.26872396 -0.01492493 -0.00629684 -0.8180112  -0.46704262
 -0.00739031  0.93659145  0.27449536 -0.6797807  -0.84402114  0.38116756
  0.64608425 -0.16183905]
[-0.2351791   0.252604   -0.49754012  0.60365367 -0.03057984 -0.60752547
  0.03130224  0.21679577 -0.08785556 -0.8039947  -0.1280926   0.56796986
 -0.1291849   0.16565557  0.4983447  -0.08713759 -0.43645865 -0.425323
 -0.21231338 -0.6230432 ]
[-0.47977355  0.57784975 -0.11422904  0.25711018 -1.2066619  -0.03862447
 -0.5218382   0.6089207  -0.411137   -0.5813089  -0.11851306  0.20497353
  0.11927845 -0.40417278 -0.55070835  0.448815    0.55728567  0.3255617
 -0.01990468  0.1788747 ]
[ 0.31061608 -0.80345905  0.9846638  -0.39013404  1.1949955  -0.25526854
  0.21937558 -0.34574416  0.6589913  -0.00699827  0.52424735  0.0810939
 -0.01955983  0.79009455  0.08819231  0.84967554  0.4276611   0.08922582
 -0.65299106 -0.76907194]
[-0.0248739   0.41122177 -0.7749653  -0.46069148  0.60990584  0.72302985
  1.0560256  -0.01293525  0.25784734 -0.03440667 -0.22216985  0.0501675
 -0.09541789 -0.15178747  0.1078529  -0.07708658 -0.2947979  -0.05375912
 -0.07121371  0.17345554]
[-0.3337134   1.1250718  -0.89392674  0.20048973  0.35391718  0.76324505
  0.5924323  -0.42698     0.00242636 -0.35831976 -0.26971313 -0.22194353
 -0.19880888 -1.5271803   0.6994891  -0.3156942  -1.0320582  -0.14086275
 -0.18399985  0.63195026]
[ 0.69296014 -0.39812884  0.5743412  -0.09308678 -0.20433375 -0.19998078
 -0.1775969   0.02986106  0.6226528  -0.16160493  0.7482066  -0.09968368
 -0.10863195  0.7355511  -0.3299245   0.9209828   0.7534538  -0.01292482
 -0.60214597 -0.21177761]
[-2.0605248e-01 -2.3801371e-01 -9.2311151e-02  4.2541940e-02
  2.3935045e-01 -9.0211606e-01 -2.2011200e-01  1.3470218e-01
  7.0752227e-01 -7.3040801e-01  8.0225503e-01  2.2774909e-01
  4.5298284e-04  3.1226861e-01  2.4652945e-02  4.6750832e-01
  3.3057961e-01  2.1626787e-01 -3.1594884e-01 -6.9745553e-01]
[ 1.0011222   0.07069807  0.35349214 -0.17735067  1.3821415   1.0097455
  0.97010034 -0.7562931   0.7302345   1.0153967   0.18220732  0.18131222
 -0.12859271  0.43076637  0.50297886 -0.03225186  0.01425474 -0.6685213
 -0.26891634  0.20235987]
[-0.41124988  0.112812   -0.52223814 -0.18820958 -0.12960154  0.1522035
  0.34839422  0.11429754 -0.71125764 -0.597863   -0.61027217  0.37448323
  0.16471508 -0.45822912  0.08701163 -0.45795792 -0.38213503 -0.18428195
  0.2806536  -0.30404747]
[-0.53531635  0.1786356   0.67385036  1.0579225  -0.88060856 -0.83916384
 -0.91568303  0.76123005 -0.63455254 -0.31201828  0.54216623 -0.03935995
  0.06565607  0.7468275  -0.50508356  0.20932588  0.3113897  -0.704759
  0.42383334 -0.4727018 ]
[-0.4293307  -0.4177335   0.6939685   0.17837012 -0.33478597 -0.7044248
 -0.37426612 -0.24862023  0.36202988 -0.43361646 -0.16869381  0.38015136
 -0.00450739  1.027733   -0.67996866 -0.36013222  0.12732382 -0.09520445
 -0.5028041  -0.8437307 ]
[ 0.15492085  0.04884841 -0.0196949   0.14126073 -0.20933926  0.07697712
 -0.06369513 -0.06454441  0.29675332 -0.05290116  0.01524383  0.35323107
  0.08585419  0.17797515 -0.00643779 -0.01721031 -0.25443205  0.09681131
 -0.08738952 -0.16039939]
[-0.09545814 -0.7093175   0.29323232  0.3255867  -0.01662866 -0.21267708
 -0.22954912 -0.19121805  0.09954397  0.13391455 -0.06501716  0.01329004
  0.07193462  0.20914398 -0.6769142  -0.10443905  0.17120716 -0.242085
 -0.1702421  -0.33382466]
[ 0.38687244 -0.22297479  0.34661493  0.13545273  0.3313777   0.01260885
  0.0725581  -0.59208715  1.1197621  -0.00784439  0.9944902  -0.03040664
  0.17199863  0.4463757  -0.03199087  0.5992327   0.8267391   0.16822794
 -0.5964843  -0.26503292]
[ 0.19081527 -0.02612079 -0.12073398  0.20356776 -0.02691401  0.30075723
  0.21624547  0.13364081  0.18978626 -0.21190827 -0.10552877 -0.27208218
 -1.072092   -0.18305063  0.47505406  0.19812633  0.42060506  0.47352257
 -0.12388109  0.53698266]
[ 0.34219024 -0.04236032  0.88719225  0.28715935 -0.31049126 -0.06002941
 -0.5960356   0.57500863 -0.24052614  0.31562105  0.29368842 -0.3851251
 -0.3466928   0.8313868  -1.1727428   0.2523474   0.35100693  0.11243432
  0.16020527 -0.08041536]
[ 0.3244712   0.9105987  -0.8804181  -0.11248319 -0.5798846   0.18122213
  0.2919884   0.46203586 -0.28856993 -0.353788   -0.3243737  -0.03751371
 -0.42973378 -0.5596201   0.46604985  0.02944841 -0.57971555  0.6442459
  0.2000274  -0.16778228]
[ 0.46470237 -0.69095975 -0.06434538 -0.29356873 -0.3580538   0.0425068
  0.19533007  0.02496606 -0.22957559 -0.15041883  0.04020222 -0.02620004
  0.27011532  0.26876384  0.2830858   0.51487166  0.38882384 -0.39025402
 -0.71174103 -0.15770341]
[-0.04719814  0.8796142   0.03455559  0.19927427 -0.07210796  0.21559444
  0.01481139  0.26615193 -0.32857364  0.29757947 -0.34281665 -0.5365652
 -0.09275211 -0.40581703  0.45146444 -0.24150574 -0.31549084 -0.3890655
  0.66965693  0.6161689 ]
[ 0.5473125  -0.19012794  0.23965803  0.00825412  0.19785056  0.8501147
 -0.3618059  -0.1583487   0.49070132  0.44966844  0.3893723  -0.45759234
 -0.54563826 -0.0572165   0.25347456  0.76465535  0.50258195 -0.08651816
 -0.7898819   0.60491616]
[ 0.02138342 -0.26779813 -0.17337729  0.12745877 -0.32283393  0.1578292
  0.12567168  0.11145927 -0.19179668  0.21291605  0.05733675 -0.3127413
 -0.4519463   0.41043934  0.1205304  -0.08369339 -0.4028203  -0.24914816
 -0.15947771  0.31519008]
[ 1.3852956  -0.21960494 -0.03567046 -1.1881465   1.0729951   0.59803355
  0.36793715 -1.41154    -0.33124134  0.7368263   0.7727814  -0.11189661
 -0.5341821  -0.68112576  0.16742119  0.56216383  0.18874227 -0.05949036
  0.0834746   0.4807229 ]
[-0.12275982  0.34780285 -0.58799595 -0.07004799  0.8804493   0.71243536
  0.9392803  -0.01122109 -0.30371773  0.6121718  -0.11625976 -0.26601002
 -0.23697308 -0.13784029  1.2204249   0.04851441 -0.78684247  0.03514001
  0.15123045  1.2109405 ]
[-0.33070698  0.07176683  0.41086912  0.68244237 -0.7896842  -0.6073385
 -0.32389075  0.52453494 -0.15220806 -0.35779637  0.25878918  0.15199648
 -0.23048952 -0.24777082 -0.09155086  0.2534572   0.3579682   0.54167104
  0.37689647 -0.4334865 ]
[-0.26264045  0.10129116  0.14635535 -0.13927568 -0.43551844 -0.03641659
 -0.12285689 -0.06704989 -0.31178355 -0.46709722 -0.24920158 -0.24677527
  0.32438618 -0.08949015 -0.47413108 -0.10174653 -0.23277909 -0.06683459
 -0.049824   -0.48439386]
[ 0.67573744  0.9760549  -0.29763272  0.8575854  -0.61746085  1.0061893
  0.11650795  0.41369313 -0.52663195  0.5453425  -0.01522477 -0.22870141
 -0.3686541  -0.70175505 -0.45402306 -0.45086402 -0.5801546   0.14817813
  0.97923183  0.6976368 ]
[-0.26607358  0.29929826 -0.40295416  0.5449832  -1.2429483   0.18416043
 -0.1165231   0.50252277  0.2358293  -0.8772593   0.05479417  0.49263442
  0.2882149  -0.4952293   0.05041149  0.20253395 -0.11058017 -0.01440961
 -0.23583527 -0.1279101 ]
[-0.77411246  0.19331078 -0.08396646  0.25990605 -0.07562383 -0.23775513
  0.01767529  0.39825928 -1.1247643  -0.46351272 -1.0455723  -0.21592818
 -0.09686522 -0.03101241  0.06868117 -1.2547942  -0.3812169   0.00528187
  1.0212663  -0.268119  ]
[ 0.07241896  0.10646027 -0.0892103  -0.09174004  0.35028678  0.17791794
  0.15081476 -0.09077688  0.06019     0.31419405 -0.12095539  0.22573467
  0.3210884   0.07253841  0.55970275 -0.19612336 -0.7581456   0.2567415
 -0.19020508  0.67558   ]
[-0.27098966  0.38648945  0.14096406 -0.40829232 -0.11996128 -0.1339075
  0.25796527  0.10466157  0.02038398 -0.07872102 -0.15765168  1.0897675
  1.6286038   0.15164901 -0.3395715  -0.17853937 -0.1502624   0.27156365
  0.03431269 -0.5290348 ]
layer 5 Activation
tanh
layer 6 Dense
20 1
[0.57551384]
[0.25919318]
[0.62222666]
[0.15264755]
[-0.24999358]
[0.44659027]
[-0.41107765]
[0.5729733]
[-0.4093007]
[0.3759142]
[0.5617025]
[-0.13099459]
[-0.22659105]
[-0.6003901]
[-0.22251055]
[0.4419374]
[0.25832883]
[-0.06537618]
[0.6030324]
[0.23186326]
[0.22749609]
