layers 7
layer 0 Dense
20 20
[ -0.15770526730018775 -0.27557069796281575 0.34361366197181137 0.2825870525854268 -0.06705458926540861 -0.013377463078879865 -0.13184334814140827 -0.2690851537742248 -0.1790425106957157 0.16536475855394564 -0.7106676185124702 0.15272575763168075 -0.4308588293810964 -0.1990275446472869 0.19274816723194324 -0.11592551261215163 0.0027940206170720423 -0.18723495488452005 -1.1077506966315294 0.5542664917636388 ]
[ -0.15254729338655115 -0.0541612633390714 -0.1542307805552328 -0.009286897968063793 0.09121322061329949 -0.11196240081084563 0.10097573101299062 -0.14683032979744748 -0.02253887831497575 0.2997178392549697 -0.16856803563128156 0.038582003099310834 -0.10472429619899976 -0.3612247146087295 -0.20225770213993718 -0.20939308206091375 0.18042636469647347 -0.32147557834707674 -0.05504542916566149 0.04592738347657756 ]
[ -0.1419669489896547 -0.22060081737204482 -0.3146716536429488 -0.09549209587523698 0.250160564434169 -0.2564601751483456 0.2166779207019186 -0.3868989228590582 0.28539294296515894 -0.3301280672133914 -0.08792510440383804 -0.13374823138132425 0.3831680908942711 0.2854324207797602 -0.24020487325751327 0.365562694833941 0.30518761020571816 -0.13030254923785653 -0.1877515216099762 -0.22094312809664596 ]
[ -0.3481068894640768 -0.3612108581620459 0.02434917614341634 0.05664921230447033 0.306728101958094 0.3303836507466558 0.06963236416905715 0.045962983948880994 -0.010488745293770927 0.4508317351367689 -0.5373946047776991 -0.46879826327392177 0.04202070335513417 -0.1861613495553429 0.24301639881297216 0.3720853266474932 -0.41747638629542894 -0.01583716142582403 -0.7471916939305595 0.7091465228610188 ]
[ 0.17200713379360627 -0.12392528012572405 -0.15145077485108857 0.6217881271527467 -0.005816907318785102 -0.09300245183369227 0.2215769778953048 -0.40764729833850905 0.0895795228849249 -0.21531500304291679 -0.4829175101880111 0.13099334691962158 -0.818829106156476 -0.21945910264951643 0.19140946335787573 -0.15892603869860608 0.43721293144078355 0.32459449525347817 0.6082107647438112 0.5665161021984753 ]
[ 0.14366487237762118 0.09587006746065792 -0.08227743083801232 0.08525245383554791 -0.2756699316217534 -0.3859089018018559 -0.18476229280334372 -0.09100294067922522 -0.3099000998026028 -0.18595402638551994 0.1398644687518409 -0.16235830676874674 0.005442196424392946 0.36823311683250654 -0.18418343799454256 0.27641768247900095 0.32085048933072285 0.37388724274116947 -0.1563326266637295 -0.13048944466947887 ]
[ 0.3273654091120601 0.18352907485931005 0.1281859593209779 0.2178952297181598 0.20936636489920435 0.2306805030828381 0.3376448621785902 0.2828758205524967 0.36257890652379954 -0.3699724903126704 -0.27841097477115123 -0.18304203033671584 0.2603295657328761 0.29090546191848116 -0.12529847069169736 0.22909017963563022 -0.35962607977139976 -0.10512340303695772 0.2505227775733421 0.3265714575604701 ]
[ -0.010099221500968446 0.898424777379536 -0.03827434610629078 -0.529057449543767 -1.3261022300231806 -0.036501462929792866 -0.050971192485299424 1.0284297484356073 0.7142172471357641 0.43471613358454614 0.3120074769257238 0.3585682655492093 0.34947867099557917 0.282481167466656 -0.438736876463126 0.3218635131365266 0.07164933473215127 0.16721999643822555 -0.20546734747482304 -0.7618745895136649 ]
[ 0.48803677172984344 0.03747661090919998 -0.10160017841053322 0.7764497172191028 0.467719237213725 -0.03783153015078324 0.07822021518933428 -0.2942238398146814 -0.4579796080244988 0.47086144823444165 0.024734448428034052 -0.23632568479990673 -1.1624934319911668 -0.4075810345447299 0.054535454237066676 0.5653781744448493 0.21754346599867122 0.4838471562125101 0.6810026014068672 -0.25560767003691454 ]
[ 0.14646278793471515 0.47521539024380066 0.10809204143668164 -1.4883273975386508 -0.44127413351452216 -0.43104274245593893 0.5297301485575427 0.298478871653715 0.06742160595349339 0.9141968657680605 -0.45243457103626095 0.08168440828804051 0.5938344563254357 0.5062368708063788 0.08605402602555134 0.32435380298492594 -0.8682268900956984 0.4445899865305858 0.05367558737604699 -0.23738137429914657 ]
[ 0.48518162097651363 0.600851214058806 -0.5198455716797883 0.6438430213676163 0.2942993704782403 -0.26313445067546287 -0.10331828557528096 -0.4398564503777273 0.602442011942799 -0.1351120151059279 0.5265762653746288 -0.8703241152802385 -0.5543798399308489 -0.7575446732351673 0.28754266300440545 0.4433303493051956 -1.5322387509753501 0.9479165120966293 -0.08256338686505824 0.21508580816054382 ]
[ -2.4529224203647804 -0.5086575913233538 -1.2881629049178656 1.1835847330317508 2.1068956403673775 -0.6053722314218489 0.6562296170930292 0.16423060880791374 -0.25944803169491304 1.59690073579459 -0.2049298044791731 -1.8645999478705368 -1.1185078476696284 0.8830969868324509 1.8645249913752857 -2.264720107715452 -1.0522607080547568 0.7263590703440053 -1.0726780155087754 0.3236931816743733 ]
[ -0.24828105643048848 -0.3172643567561354 -0.23706646338859552 1.01997796623722 0.6676704867283688 -0.2014157860651008 0.7275215759947725 -0.5163114105917849 -1.4717644288192335 0.9811650855353985 -0.22274206707838426 -0.6726067325966856 -1.1488629286669434 0.323277918227755 0.8017348596200082 0.2900571412149378 0.8913793152159165 0.6977195327391679 0.5815153597019601 -0.46396966056359235 ]
[ -0.3444864792618156 -0.1788996387729744 0.2606093746661697 0.1288320318666383 0.9885207671276607 -0.6225651368579356 -0.3616416176337248 0.32437772434124795 0.523649990644065 0.4453472650284064 -0.26641133849091847 -0.3031405567184774 -0.799650738355633 0.6833006427863194 0.21583321737672867 0.2939830753539838 -0.7544779249974588 -0.22191576611884228 0.2622207554597555 -0.3392053404762015 ]
[ 0.6163616814097083 0.484892674376129 -0.4007283150495277 -0.2793469232841949 -0.05621700929745913 -0.49906047632450246 -1.2282751100720037 -0.6607564428061804 -0.4232751701797764 -0.13902388439041785 0.8670863206216112 0.06872189797265567 0.13176551047718438 -0.5269059044737511 0.5277032459805847 0.41354087044937404 0.6708702664932041 0.35967472113983334 -0.2223970937437495 0.06261995656491512 ]
[ -1.4505915974258485 -0.5528190011471487 -0.8824832483547994 1.3787095733181114 0.18695052330422485 -0.39200701107970376 1.612017344614245 -0.7662973371127829 -2.865595528075824 1.187707647118049 0.19732103467751133 -0.5027010177671228 0.4134313931848151 0.23203486930989606 1.5922993368769498 -1.1437924609294692 1.918064900018767 0.5582142234580749 -0.7241640986501937 -0.340515440397977 ]
[ -0.05973505492377681 0.265909056250989 0.5623672655946075 -0.3329738962038527 -1.3438695797678863 -0.34607544267574897 -0.3629111596460886 0.7299555369290703 0.3838973131957411 -0.39680388524383337 -0.630579929985107 0.02358529761085503 -0.08666072883377757 -0.40642905758102615 -0.8244685622920227 0.2748912866518315 -0.36860382270232167 0.3406498901041372 -1.6430110328860446 0.4870443324036015 ]
[ 1.8216219300415044 0.07931972661984198 -1.658232470845693 2.5613138152869084 -2.2355573594551985 1.6377576011439923 1.0698281048983675 -0.2898331237648053 -1.819338182603281 -2.11031459275755 1.8877809625044661 1.3888132542616098 -0.49031015409608025 -2.4367509768516764 -1.3639182011855253 -1.2109337541077922 2.6163555891715555 -0.4644160448964633 -0.3364925586261293 0.24490528981665496 ]
[ -1.454124769796476 -2.123045073137014 2.2210783876084284 -0.9473530536914496 -0.8676446129062585 1.3307993367203907 2.615126910157045 1.3988687798248385 -1.5586589086875686 1.0422186568660396 -1.4405704585060872 2.2120762916504546 0.7781550195160293 1.4295826516539378 -2.0261886794475497 -0.8050234125275352 0.07119188905737497 -2.6013002337148223 0.6691820016811729 0.11605596183946408 ]
[ 0.47714390328868744 0.3431372114621386 0.7809818904819605 -0.3419771631334872 -0.6917641064246931 0.5682474954972004 -0.11968022763637283 0.28241949244324116 0.8126936002266613 -0.6339779131482589 -0.08896890177749991 0.6610035173234405 -0.10875069112370943 -0.4717470461378925 -0.11749072770236751 1.3415021467089514 -0.23536038673164622 0.09740829484988123 -0.40450194876543594 -0.4568379120880178 ]
[ -0.12586721736284462 -0.2740804336709349 0.06815234988428688 -0.11017277096454135 0.5543116827516296 0.13011755771514527 -0.01942018106697373 -0.3943144373016949 -0.17987300848147172 -0.10399744014944456 -0.18766953376565018 -0.1931603096154141 0.2740112015697282 -0.04252632834625007 0.25870071027127955 -0.10886476973942198 -0.2293319195358975 -0.3072580951707448 -0.16167537752195438 0.4178992856903129 ]
layer 1 Activation
tanh
layer 2 Dense
20 40
[ -0.02327666167944686 -0.5484629990875561 -0.9979780189804287 -0.0178393329428021 -0.3810242453517996 -0.8771293905325364 -0.024783411882113603 -1.3454942526026348 0.3387457538606709 0.2348061702373702 0.4794611605930401 -0.24447346646834098 0.9820029792330375 0.5832053603894499 0.044138593848739395 -0.8311056887111332 -0.24117507876592692 0.788205615346021 0.19470651859143603 0.31365035427991755 0.3699891140027536 -0.08867359284868026 -0.9189857494084838 0.005982001875437928 -0.4768557535161148 -0.2207929727870896 -1.2732869631774195 0.20522230419034038 0.5287077882765658 0.04875411246299813 -0.4676309941780425 0.09036228591235415 -0.6691090874607931 0.647263926939572 -0.3353294340500382 -0.27924176402201184 -0.546210173770157 0.2920834525506532 -0.9080300091300787 0.9736158691773668 ]
[ 0.08725793755494761 0.05773953598525793 -0.4511129070822477 -0.5052631531650833 -0.6502528684704434 0.20413543050863425 0.447935762301829 -0.28853980635149173 -0.1683790104787667 -0.06300052176499005 -0.10985358934654549 0.24683535414359437 0.1481556334217761 0.20199663968384565 0.4829420368919404 0.4305594968431953 -0.4016415520111779 0.010450988940729483 -0.31081076807897223 0.01770898641130407 -0.029305300395006964 0.45566465921928156 -0.6272839156030519 0.18966095524483015 -0.344350804854959 -0.2558434394787678 -0.135421874663675 -0.042217660522887925 0.0684913167970556 -0.2504234635641202 -0.3011435178670615 -0.07812041049779635 -0.2095610997587654 0.10153635568076849 0.34868059374393556 0.30104157446138824 -0.01806572998694638 0.0768967589519351 -0.5571671446681535 0.07128547220836895 ]
[ 0.47474030489869573 0.20197914448442209 0.2860180254239157 -0.5827894196010776 -0.21710586214836952 0.8812180051829018 0.2934432911651636 0.42528297021093364 0.04102393126723661 -0.306200283974435 0.6472702558287522 -0.3834686721571782 -0.18870394743944963 1.020305336722123 0.13753996571843663 0.27100184568567426 0.08256992572653739 -0.7988227568111328 -0.3899021997088837 -0.7264042530035439 0.5240117951921819 -0.026315680819491826 1.0996470827703744 0.8032728029881309 0.5458071185290646 0.07413723266681684 0.381221481123656 -0.4858116939050608 0.0060205076649818825 0.05968889036341869 0.5984938630836286 0.45668684980659174 -0.042355341872288975 0.9669202543993772 -1.404148685005876 0.5743632544457977 0.26894946005632 0.2336975692584283 0.4656442720643714 -0.5212620066895475 ]
[ -0.2221151764585278 -0.8923782761384972 -0.38373771509159027 0.9185660425268597 1.3578523819647976 -1.789543378394785 -0.011009184940545858 -0.5287177063292922 0.05402759246579225 0.2604378342381173 0.0747746664150681 -0.3823135303006198 0.5906802267285072 -1.1794634980709064 0.061070518946594196 -0.45193701066192665 0.43518896072347757 0.6049546745723657 -0.11749009349069767 0.6011751074679906 0.48554285492253385 -0.7544248835153428 0.0937578585567036 -0.9267477199965741 0.4257987779242555 1.0781250269159048 -0.30471053761773564 0.8724906079348079 0.6681393724937668 -0.18673646120196202 -0.7840797240531852 0.2940928542176353 -0.3421647417214629 -0.05208356929934855 -0.16760192818108863 -1.3623329293775814 -0.5318735717155658 0.19276500611379382 -0.6285019893553815 0.5879380934296049 ]
[ 0.1998711417861104 0.93111199334914 -0.07639329233769863 -0.43465079856269173 0.4216360762307582 -0.5825084090693289 -0.17043799739586843 1.2841117851710597 0.5303440536093398 -0.6425810794425776 -2.102057019016164 1.5720988608280617 -0.8657868183171219 0.5415973354707926 -0.18736919758544884 0.35723350128896536 -0.03907936150338286 -0.32309074888720724 0.09758751802872921 -0.5443039443514425 -1.9415736162612525 -0.46367310709229687 -0.1517484481474829 0.4319230667172394 0.8180388255006485 -0.5986052051998999 0.2883049971268298 0.4199837281622257 -1.5238901643834313 0.4318431229100408 -0.06170032440341035 -0.40591329599191517 0.529557698390488 -0.16226426547467704 0.6886242854122129 0.16675334782106743 0.3593507523131067 0.4119628637240852 0.004451553605809469 0.5143441396094824 ]
[ 0.22159515816033135 -0.8184334642693838 -0.6313842881386676 0.22693848807060843 0.47829186222752373 -0.0010969062320347629 -0.36716567013683565 -0.5069370756309179 -0.020305789413975414 0.3784940336103375 0.7835511473787206 -0.8128899680113664 -0.10960724175933069 -0.2378220703633615 -0.3664827750843587 -0.4629755811661322 0.6166253681379807 0.45718775198513345 -0.4839650836160894 -0.1289203031214444 0.27231217732044916 -0.32998660643364314 0.2425190490037086 0.306959788932413 0.2467006049158619 0.8402233747109759 -0.3082388155579227 -0.13023427239273397 0.140990473829451 0.16106147042381017 -0.087224853384804 -0.14829367704119115 -0.4318557614704616 0.40154239987780266 -1.0135428116456284 -0.7791255545575525 0.3253637578289156 -0.1274427380775121 -0.13684498224703634 -0.3732232306865536 ]
[ -0.04603406989496675 -1.2276912346106326 0.4005276160421564 0.9132296571057681 0.7226181063589683 0.13278790439308244 0.12664735932670104 1.2858399215790033 -0.2127706490190345 0.0008733815647782323 0.7100723215323909 -0.5716376931677961 -1.0277152809304162 -0.32296114998572534 0.36102718095896474 0.8001087321989813 0.556628625629617 0.056473709298441976 -0.8211504009735126 -0.17407065396736593 -0.2218090839638778 -1.1769564703376576 0.3469912278084708 -0.38261072116558514 0.8895274804812616 -0.36940075635007014 1.253282436030957 0.47160275681574176 -0.3976481708337275 0.14105401664223727 -0.005588346578606537 0.9606260589759235 0.8305908140351763 -1.3547975419815594 -0.35475915447877276 -0.44132868425709804 -0.05203382693057499 0.009286540231479233 0.5591482382039263 -0.0192020740988135 ]
[ 0.1774365868293649 -0.12947755881649667 0.46042260086109826 -0.08571773946331354 -0.18956698439824415 0.27501822964503914 0.14283121129902174 0.0951203483719174 -0.7183015651756157 0.770124975149744 0.1343102016908433 0.03827523648559319 0.6168463675848826 -0.4040441341596433 0.32115059768591364 0.25259269659663364 0.16853411620999934 -0.08230541494866316 -0.4527374375731577 0.0837253166408018 0.450991545393683 -0.13686729007298257 0.07945547469888306 0.10790256075325494 -0.08959076053407315 -0.06606141229476134 -0.3769605547338725 -0.19639224723581808 -0.10521372300227462 -0.46619184648002315 -0.4050424226185464 0.13237698191632882 0.4059431721547252 -0.07573549826045521 -0.1486995622611207 0.39568209579847835 -0.07793305507432917 -0.14203308478640453 0.1883757942476474 -0.3756200048659382 ]
[ 0.019335552870627593 0.924085892986203 -0.05845029569489033 -1.6416079808997452 -1.3760834611034904 0.8038737336044145 0.2899292085216907 -0.9705237184776162 -0.17264841424963193 -0.6285878538385902 -0.7937339591892908 0.8949791279712164 0.3562670834006915 0.7991687766683964 0.23686203744424422 0.03844337753521089 -0.6848434975125275 -0.08911642731928165 0.27729048869317713 -0.4060105947496495 -0.06907767933384157 1.5095412028362132 -0.3456256309821825 0.5804288257129683 -0.7747200437216033 -0.3589598306315813 -1.245608257575848 -0.7762077789137583 -0.40676053957738706 -0.1711959453471108 -0.06485471233469399 -0.5092867256712892 -0.7193029280843121 0.8388398730664455 -0.031859093124202584 1.0024968474776303 0.16599648320267163 0.07401051067981722 -0.3275825925347943 -1.2101976181300262 ]
[ -0.007563539763335486 -0.02158690060034865 0.6802815941761875 0.23008737801455212 0.07432681210003822 0.9656363444915986 -0.045358286914420565 1.073897828489846 -0.5779068321205394 -0.3100461502835828 -0.8738685047618299 0.6247606696242369 -1.4274869461941924 0.09811785276258587 -0.27465960161952957 0.7184462770097789 -0.4066504135956855 -0.4936028807294282 -0.24149035305517885 -0.39586496085476813 -1.0393753225859432 -0.10354294300937367 0.04728034975951554 0.5971523002039825 0.38931053799119913 -1.4940007511026783 1.1464633815381708 -0.31238692667707263 -1.009846887141886 -0.17994782274059512 1.0983787308589332 -0.150113730517069 0.3548106853172325 -0.13424375811334557 0.511640062878467 -0.036912835594155605 1.4141313263222732 -0.02451724591038916 0.5652141846086634 -0.45679457377291177 ]
[ 0.2539699096887716 -0.5136401476184174 -0.6848189193431296 0.34887892784911867 0.2773007434679225 -0.5043682848698154 0.4569927530160547 -0.0639414889930445 -0.4001383243838298 0.14082466216803657 -0.5668931693416261 0.41655390531349223 0.7715700168785931 -0.4961196384224737 0.3513702073407302 -0.02660578128747254 -0.1827634943769243 0.5028030632027359 -0.2713584979935845 0.8073012156833091 0.17824803650698276 -0.23418738829920868 -0.8845540900992274 -0.18528694068337942 -0.05101166410591235 -0.017237763663105938 -0.22383777878847677 0.06279493707491074 0.3578726058866194 -0.24091760158087802 -0.757594297931066 -0.45199310563002504 -0.1955547344451054 0.041050428766411594 0.7547982665540182 -0.3039522124295769 -0.2370279001481358 -0.2353929958979013 -0.31957189277078757 0.5109406836473016 ]
[ -0.012591823895928538 -0.8486519906683095 0.13659063550475692 0.45799489290926587 -0.00793374657704106 0.7208932043841512 -0.10475152934112467 0.20999617548225075 -0.5727367892350623 0.264783477440439 1.1914005266713945 -0.75275185474663 -0.07064707503560026 -0.13452384052483143 -0.049768555103587665 -0.23078497893140604 0.6034415988839993 0.12300871719827154 -0.8589434935901047 0.13608163960857153 1.1629007604000816 0.007213108942716422 0.06147272815498392 0.14141572985146236 0.294625469635909 0.08846506893882564 -0.21431200960918165 -0.1391883389363894 0.5506769776311417 -0.1548250639731442 -0.07180124847587363 0.14132970153544624 0.11419934211022165 -0.14443080192977018 -1.4421464368809374 -0.286183337990478 0.170673432485567 0.0003824966107655541 0.0862962460115544 -0.5179269101037676 ]
[ -0.5264236742005316 -0.5085994044069261 -0.3327984295140498 0.2061552644805944 -0.04723122978320096 0.8101096785114836 -0.3666319476684389 -0.10507707890412124 0.16611197410200249 -0.15494567948362334 0.46630202677526184 -0.44934460752735106 0.28939954735536316 -0.07336867429563503 -0.37925134320641113 0.33736118794779335 0.19551211687630424 -0.17295535986392602 -0.12892343414608265 -0.3835509614093874 -0.07076077429141754 -0.14636500007613837 -0.32742977796865563 0.14905690655924478 -0.29527691912870496 -0.07519525682264008 0.253634219660218 -0.6801630859928306 0.12671088184031343 0.2103073289526355 0.7336154229379674 0.044452054015183026 0.2162875889920362 -0.20282301589595284 0.026659049242265413 0.3806427816187604 0.5002864069785685 0.5071609259778668 0.6208597898345815 -0.033672744684303244 ]
[ 0.09286746953453948 -0.528122284504612 0.5162401341855283 -0.007440129884578513 -0.9726202731366564 0.8408002673163932 0.10671738149714068 0.8879337488263361 -0.8555244638606543 -0.6927633355784062 -0.5090925338919734 0.23072265631928154 -0.3236826100802489 -0.20510178868471288 0.3688582191707242 1.5385993857876759 -0.27073016770680164 -1.0983976852422057 -0.3752179587802847 -1.1951178007793524 -0.8935281001993081 0.64139752586009 0.6931345848932311 0.6463846062438966 -0.010862706016679448 -1.0228207012915065 0.604325202452047 -0.7598521966131742 -0.9010944903173983 -0.27853250483282027 0.9755938996226315 0.4852096463182559 0.20750950256322778 -0.46170656591768394 0.7586113917206107 0.3929404518273098 0.6722223548180364 0.046099999815868084 0.48544217568618375 -1.0459692033011387 ]
[ 0.021014133488388383 0.4453548885349716 -0.1869386889670287 0.422837698271451 0.00443328051845583 -0.6954362463938427 -0.39106849887923717 0.25880181226068494 0.4078554445028774 -0.27374103882918793 -1.140721799264258 0.5328442089392923 -0.8072171498047948 -0.09140753138463055 -0.3075209154635013 -0.2527542449130187 -0.4551459561100252 0.3203973829255134 0.36329768657389633 -0.31291551380951543 -0.9531014560272466 -0.24093730848767383 -0.23718424792411186 -0.2317414142754165 -0.16875799717478837 0.00035315155248874714 0.7757112735048238 0.7678673367370134 -0.6223920386049805 0.1431378492074964 0.00978316369494516 -0.47827296294918914 0.46495116111819523 0.23144486561847533 0.6351993047968754 -0.5070404555349147 0.3812847082640676 0.1077739818820479 0.1655099112697809 0.5357718972544292 ]
[ 0.29023720311942913 0.5519632011576207 0.110196937702162 -0.5716079848105243 -1.1171996937722752 0.21360225055778104 0.07269753498276518 -0.8534449415779546 0.13285264479892084 -1.5505810538542735 0.04277581952023943 0.4791290815716988 -0.07814258423697254 1.126871615622512 0.08805178658458528 -0.7559120687447296 -0.7608830178819527 -0.19987833127583696 0.9611024784362956 -1.235919729343426 0.11503187349533056 0.5648181924904804 -0.11283569849932962 0.676296023332724 -0.501704868105953 -0.6265058233781158 -0.711785250017722 0.18202643478245056 0.13858040329409785 0.05631299229465238 0.8310307111498754 -1.2178877117604414 -0.4501612144200924 1.2833281639033196 -0.9157615028921838 0.23322288348554143 0.651233366790406 0.03249167595500992 0.14353300542657146 -0.49941649072239425 ]
[ 0.284695035721026 -1.494680852328208 -0.5129141436690439 1.1483205569735955 0.6980308578630366 -0.6625207379857758 0.3047473060931353 -0.4648435202778033 0.2540310298982222 0.4280233756504711 0.7125736143942334 -0.9391078281544316 0.5099930005568154 -0.31750428629774125 0.445503580387433 -0.559092172498562 -0.016484774325541036 0.9833547594425002 0.29639331210241954 0.9100128345879114 0.7882568838225611 -0.9718293906604681 -0.826856812676391 -0.909553281583567 0.3292516132723906 0.6495952224804402 -0.37126208966525065 0.7348371122928041 0.6722725231871255 -0.13161818449165472 -0.6797153230279415 0.5084310514665451 -0.461562532464108 0.4903982912921357 0.0197630779141052 -0.5519092936183588 -0.10248226858052199 -0.2759377599634484 -0.4781822000766214 0.8002261533644691 ]
[ 0.04271499913155891 0.5401328301538458 -0.3502024666356596 -0.0700340018886523 -0.37056040676888763 -0.2157492650210594 0.3919934825912664 -0.37403784691881664 -0.28617111696621067 0.030871492651134202 -0.9344094603734695 0.5881619690400242 0.020725554266846413 -0.13019618777549094 0.5089511806385055 -0.3637549581750201 -0.7581170060053751 0.7877865386587645 -0.02226552889729609 0.6287540538595128 -0.2503781824203324 0.0810236984069663 -1.0662106759387355 0.05399786617964889 -0.6611316785747573 -0.47454905433375266 -0.5293479009601765 -0.14783833878989133 -0.5570881006916105 -0.37357329245806736 -0.5856426112605831 -0.6610357005722042 -0.4675202422106407 0.5579843182058607 0.46405513364235446 0.3547555214460748 -0.298793572725421 0.2046880851132869 -0.6911435680501667 0.6231813755865899 ]
[ -0.12592160754969364 -0.3943797697145955 0.5771817893999832 -0.2352660489719683 -0.2979031425203481 0.35904073027009514 0.5372753256743523 0.4475886803977366 -0.07080912011482027 0.39133828716358193 0.08852933130988487 0.20392767878858772 -0.3280397767535117 -0.6126763897019258 0.5470960325443712 0.8207594149900471 -0.6662083253466872 -0.20362523659407472 -0.43225544299836566 0.014890974579641583 0.343330089365705 0.45715297557540113 -0.297953208573859 0.029233778055577378 -0.4284228201245409 -0.633984715546499 0.6646248663684654 0.15014191974408433 0.14208656976322445 -0.5182233658116746 -0.0380144201622562 0.11286567343466397 0.2462703711579272 -0.2834627124604284 0.3832615934630599 0.16602451204443208 0.3812110020629523 0.18681823492073482 0.05819972691867557 -0.17692215922838964 ]
[ 0.23691409230061436 0.11258382371655702 -0.09185449163807706 0.36635970971838516 0.36965847432982435 -0.23789232115129563 -1.115603510766989 0.024917306745731508 0.38547954516132976 -0.5497908470894026 -0.5510494695173636 -0.39726040222028314 -0.13414235656814472 -0.07614557853484272 -1.355944489921671 -0.41897088587402126 0.6989670753943709 0.16973139561307876 0.686972066248599 -0.22952936534388857 -0.5132597468946916 -0.2750045341924887 0.4348719302232361 -0.1771728634747832 0.4965540625820603 0.7006884542483132 -0.15590532929447676 0.3251814088646545 -0.39747099508666245 1.0578614035681015 0.12526225851915365 -0.49652791824907444 0.1837108184579558 -0.1978437944350989 -0.1824855038795358 -0.2332478546353682 -0.2542137308381533 0.2792747977744645 0.4945456968815419 0.335536104277677 ]
[ -0.04460249674713278 0.05773894769761222 -0.04843387733991652 0.7393284811095495 0.43453175484128215 -0.1829361034569553 -1.3473049072035892 0.19993111121995827 0.5855190386983661 -0.19850909821198306 -0.4993987640855816 -0.09915361569434891 -0.1812508920025139 -0.5695594053052564 -1.2634578981552913 -0.11262613820034148 0.26653346877194356 -0.04219213229783057 0.2381246294604752 -0.027696647729044892 -0.7804444104605139 -0.5319499523786428 0.22531867693045216 -0.035762576889183086 0.681795408559043 0.37986759704253137 0.36530237831584467 0.2807527810627435 -0.3698143773978569 1.2529367823166822 -0.12601541403879746 -0.18768753756220996 0.4480590995035225 -0.25638925767989307 -0.1660841275656312 -0.5308456012331141 -0.1503712980960604 0.09121606565703282 0.22194201727580365 0.29325276200321965 ]
layer 3 Activation
tanh
layer 4 Dense
40 20
[ -0.003855944457655373 0.2557630054082239 -0.0008446819353771198 0.18725172264031917 -0.1309648993859691 -0.11706366840489217 -0.02315714656489021 0.002230202198454951 -0.09619747868854263 -0.06919711416876448 -0.19706242739453605 0.1042654337755938 -0.0028406333984645647 0.07192351402248066 0.10254326653921855 0.04508798047295778 -0.15819304242546386 -0.019993640938084367 0.06821305690779803 -0.12696050041667997 ]
[ -0.2996536013070745 0.7925782152620339 -0.8995246422675888 -0.3725953065111437 -0.27924522308119215 -0.40646360051463903 -0.21301538944700185 0.06159237191772248 0.1733027507274031 -0.1039387834375103 0.5615008342218649 0.5659190763632874 0.38370299371327604 -0.616960867356697 0.5005927098248594 0.09477445352857528 0.2736041916338682 0.059848514419823286 0.6867807414913417 0.35044272836049617 ]
[ -0.22079470843994117 -0.10063385830639443 0.0033170394259802267 0.6454935202144104 -0.2158949182479123 -0.2547184339022437 0.4256220661725054 0.45764226882279974 -0.20343219470993626 0.39359737390843047 -0.5588781392126534 0.33313434059449126 0.30606383081565003 -0.03155976965132235 0.24316719938840078 -0.3994132107789712 0.12025688092468273 -0.4129638171453276 -0.03395849585983869 0.05939085444449041 ]
[ 0.10624865777934901 -0.32348246837204714 0.8817324160541348 -0.4071616441554726 0.16616285665393762 0.07398490855844986 0.008589341007149311 -0.2240033628903253 0.2216466086235158 -0.05009479613585898 -0.15017397762215068 -0.4825726263949522 -0.16732012785766853 0.6221245904892099 -0.682456827338402 0.012387328504248151 0.04499962333497531 0.02046257078100735 -0.5101899700162557 0.10107847154916777 ]
[ -0.5116148210869959 0.31386600196774267 0.3785419587967372 -0.5680586632637618 -0.3299449170374612 0.37036384843877257 -0.16497683961131349 -0.2763160261062348 -0.0015295775827797132 -0.17709912485317333 0.07951174426148587 -0.39268180738041675 0.07318344112006235 0.010695516736625001 -0.2137024763622844 -0.4909652477755587 0.08581390797400838 -0.04292681093912513 -0.5424202049106754 -0.17159068692455512 ]
[ -0.3408144491843129 0.2713880628272819 -0.5361832475235001 -0.5890702421881205 -0.10629872885534046 -0.5439125152576182 0.45741968350241713 -0.028020668460665036 -0.7492154693267739 -0.2323170571150825 -0.575304082537911 0.9505088742267874 0.4313029427429353 -0.804881907459854 0.4612288759129384 -0.35015904417817245 0.36875041502935957 -0.030938968857693285 0.5441465659999597 -0.3729173682838731 ]
[ 0.4417563024641864 -0.13735235012846292 -1.1338334694968875 0.1168570989636982 0.6486428643921399 0.25893370623606715 0.08146773191013092 0.6612896502042269 -0.2704589370316093 0.08282212357816675 -0.5229542283355353 0.46990593730454455 -0.08016727664698205 -0.9837761350236375 -0.03009078707013176 0.17388436368982468 -0.2937988138484039 -0.19878036087738182 0.1964828219989418 -0.0711434798688936 ]
[ -0.6084349324985209 -0.36802515216371184 0.26497877449184076 0.045355320298990164 -0.057648501594036915 -0.14028194477251407 0.6217129741618699 -0.09937220839504908 -0.44325167308999736 0.37345036421360933 -0.3494335060300123 0.39702645976664536 0.464135603498283 0.24757509914137063 0.4792308528655559 -0.7414930490292647 1.0860587364292895 -0.3158678560137395 -0.2039956258227526 -0.3731452259153437 ]
[ -0.15812643373909424 0.2496774110496152 0.3248140697202282 -0.5711048563786553 -0.2403465627706807 -0.15511764901275385 0.06429396959412016 -0.15912096585087016 0.3209262038131975 0.15688634280786873 0.0828208216437337 -0.309240070208221 0.27755098154335367 0.5205282790908384 0.09083887913002049 -0.1258371047163416 0.2663244644949719 0.2989024180651059 0.18276546560373033 0.36776147247192253 ]
[ 0.3899898912150536 -0.787150848187457 -0.0745034976664638 -0.08735222000177734 0.3189037299313695 0.4435398000456014 0.2601544737780078 -0.0954273020279822 -0.10046148026951106 0.3758812042016294 -0.2683827073462132 -0.15477737356588003 -0.4060885599069554 -0.223860369049789 -0.23940548332746614 0.04877539122915169 -0.1789941044941819 -0.013141280137491586 -0.5819717382123789 0.04593357502918872 ]
[ -0.4346474276666378 0.21263921667156638 -1.2183620031464841 -0.321965335162743 0.934994394416198 -0.08080679925341744 -0.6969408152576346 -0.4709832518555122 0.152793641769692 0.14582757676213565 0.3477981876651837 0.3191737422477502 0.376168082679418 -1.0505911771975 0.21751359957332833 0.6167418647936447 0.34054362214742584 -0.7308541069841346 -0.06490058661649398 -0.8992108235610667 ]
[ 0.10194570890886936 -0.5963826250495894 0.6964368576171247 0.5104766075338261 0.2097426388506116 0.29855411102852797 0.2949871528303306 0.4314975790133701 -0.47305874371402545 0.3583037832070278 -0.46133982303306303 0.08611115209297512 -0.7636804809224831 0.7404754375578917 -0.13218003148385693 -0.26691823656946667 -0.472370674746631 0.6094649964268639 0.08754430860339196 0.665325237905461 ]
[ 0.23701254246906223 0.14375780657507795 -0.4300186953409303 0.3817398299866925 0.11095196718270066 0.46815062842148947 -0.25180692117375103 -0.38902066673163543 0.33910177680253706 -0.3959017484526358 0.04726233621830469 -0.06452967983525618 -0.3764390965167138 -0.2741503204674307 -0.4155050695103893 0.27852764125395013 -0.31447029719399766 -0.11456127167850666 0.41148152661280035 -0.6021059223498998 ]
[ 0.01945102550301398 0.19210603278720895 -0.2745567840586437 0.63876739516459 -0.511538967164799 -0.3060657611039088 -0.20091517475852191 0.8194118409956858 0.5962611813135041 -0.05479796778257371 0.08648623079424339 0.3585909684559456 0.14042468649884288 -0.3563094318975205 0.7858192005015431 0.4347442488729171 0.2538703089749393 0.18755209081028656 0.5359121291102339 -0.2821279616409645 ]
[ 0.4479728478433383 0.23598702186051115 -1.223371495440119 0.633739782890022 0.7070422922815166 0.34448317742227624 -0.03893111694352535 0.3354084313425054 -0.5366355665383158 0.16793491279766587 -0.6909841224568104 0.5668202407192311 -0.025860927002399364 -1.1549032717483105 -0.03966895079378837 -0.07810062956954521 -0.5588066284063482 -0.18937029078673795 0.17649872766445582 0.15875829206884096 ]
[ 0.06546247046763064 -0.6740381662888972 0.1691791826470718 0.46690158120967423 0.0734859697003658 -0.5842235022226604 0.2600479842738734 0.5529471901160706 -0.49923678614766365 0.4622148633356665 -0.12135400971170866 -0.13169498918739578 0.9044782099032711 0.22057349963013162 0.048926722783761464 0.16044792105980846 0.28875207389228746 -0.6456125100360265 0.12121748956543582 0.0067845894307812385 ]
[ -0.33966774445425585 0.7058442934656163 0.29939875405343 -0.282679739935948 -0.3876511991992443 -0.03485325055206389 0.1780984555576173 -0.5140611617404729 0.48243980753964416 -0.12863507669777244 0.06177244192652691 -0.17710426407830404 0.09563842391027635 -0.03619939821818417 0.035928058341947844 -0.14727307109294374 0.5065898638116749 0.010529871174637882 0.27199730638793823 -0.06057226132755353 ]
[ 0.15676067404146213 0.15270172347004282 0.1976379479756315 0.09677897638462117 0.3518876019374682 0.5700800280643888 -0.3486627792213899 -0.03072365511335632 0.8707745222679739 -0.4057064421601259 -0.11200213447482466 0.19128308048653564 -0.34588259308816893 0.0028190852462026245 0.20788043972956852 0.6499705789857879 -0.2979691960219554 0.20421846987881997 -0.12425762191737535 0.24711458543144324 ]
[ -0.12073703748439028 0.9494307834155682 -0.14310950442518966 -0.22967174585321254 -0.2867154829509906 -0.21120055880136795 -0.20077568151382802 -0.2460666387799291 0.17331443614057007 -0.5011608725883487 0.05569885268631775 0.35661919620034677 -0.03984585412989125 0.1248029774457981 0.12342662488926635 0.25073545753381116 0.08346555329604058 0.42165528622115805 0.13331289739868954 0.4877409264202796 ]
[ 0.22556852442589784 -0.20174998705601044 0.24145447196650605 -0.08277907833611324 0.6704243708121653 0.6322314453039001 -0.056800186702824496 -0.14384061548406446 0.5478993090186891 -0.6991223442540953 0.37599876018038675 -0.3168200822675214 -0.7214792958128202 0.31075935344924893 -0.39835959772201524 0.12647611547120322 -0.3088022125125124 -0.47913421831550956 -0.40272207212525624 0.4412506249252949 ]
[ -0.23891374881179922 0.510772742114056 -1.1681071772118201 -0.40404497672874873 0.7054419785712304 -0.26662034412250185 -0.3144579719355244 -0.057276461215128055 0.010347544571492884 -0.8777944521172492 0.3012616871973797 0.7432804199205132 -0.13134470872781648 -1.1450221877452313 -0.0711731769568996 0.423127923544925 -0.17128397710148766 0.08955387160847021 -0.19380560347848436 -0.5749840800709574 ]
[ 0.15548302982469514 0.07740000471941587 -1.0120662266058833 0.47913630360885967 -0.005474605971415016 -0.027932788601700176 -0.3447774898561957 0.42869635893831043 -0.11840365102765954 0.06245037559105191 -0.20772972260560282 0.7843673486137004 0.07772238921058025 -0.677211110152537 0.5828155853385245 0.21027444723851024 -0.04710524520374707 0.19201153919418928 0.19480204953307345 0.1746347792518837 ]
[ -0.47170902845316653 0.7436503493788726 -0.12264185128266207 -0.4450278264828006 -0.3090577492189434 -0.3207514054688705 0.6195744566324642 -0.15777430963494637 -0.4183590936519684 -0.05477804166828449 0.10825000074057974 0.24125993642065305 0.3053381307086174 0.05459385856723796 0.36041895527863643 -0.6065084972320406 0.5665114967915973 0.35453231664351326 0.4158944857574754 -0.052137372579542 ]
[ -0.06586521342190524 -0.11985879147773289 -0.05531860344401326 0.25329984951210177 -0.12182757543446082 -0.20581786140748537 0.29564519576340015 0.23670904084232602 0.04482733950579532 0.001979442134664693 -0.5425436635225469 -0.21377771567848844 0.01108395858681861 0.16924537937793788 0.5958645336738739 0.037712757150224006 0.045226828981997584 -0.0589675298741552 0.4226320894268879 0.16321957266691994 ]
[ -0.25852845075128245 -0.02075029620841588 0.3834900668145049 -0.11820485166477801 -0.02104257401158127 0.06523947178484997 0.1387553425657129 -0.22711573812215236 -0.4645981147411092 -0.2525268083893493 0.23199162163917122 -0.3977446709387841 0.2111805382202962 0.4445602997293641 -0.2284182232263811 -0.4981860478283272 0.22947986948521565 -0.03858841705208499 -0.13378797286708866 0.09301435613346565 ]
[ -0.04319116141430468 0.4494285227742867 -0.04129735627695484 -0.43626441668251714 -0.3363965140711932 0.4555425011789259 -0.14296030408859414 -0.4656489071713497 0.48785280740470044 -0.9508932284939973 0.1591085735181263 -0.027250197888053235 -0.27604169077545965 -0.28306617928431166 -0.5002825720414034 -0.11164517692719497 -0.001063689880226651 0.20702785953659134 -0.5789670032479062 -0.30916710878144515 ]
[ -0.709672867493896 -0.22109042294192657 0.22395417123354744 -0.045268451593263176 0.0742903564562549 -0.2847808483845863 0.5232587727794361 0.2781621420465855 -0.49716227137914026 0.09254778827108259 0.08848402302380366 0.08998411772928742 0.47495174907682236 0.32175822281743116 -0.026326185758090603 -0.650147497635079 0.6900426654386056 -0.05413537901644499 -0.37471755490835484 -0.13941417386299831 ]
[ -0.05025329556619444 0.12316858797437702 0.12221998863560088 -0.10146203573588368 -0.11173571924817864 0.0919592818167718 -0.12292264031744521 -0.12154244745647251 0.2824760595080864 -0.15716645996767703 0.39504455317094245 -0.19200283495647266 -0.21788224760335068 0.19872676477695708 -0.2587942104485482 -0.04845185122672795 -0.23126435742993678 0.20980337457213974 -0.15504093486123843 0.13156387194963443 ]
[ 0.1336456687183136 -0.07882231341524042 -0.8210298803759253 -0.019373592626592512 0.3356405465297797 -0.024466166850766684 -0.417355372851706 -0.24196156663228519 0.24423953567235998 -0.12358219930710511 0.4233045941983756 0.35259021379822736 0.3480524992007097 -0.48088452345407773 -0.3764931923512068 0.3247812558230146 -0.0416638444341977 -0.1962031104984207 0.03873068516376209 -0.16047298630528348 ]
[ -0.6237501554771158 0.15030160024686606 1.2497966691331253 -0.16631839721705757 -0.359560807238449 -0.403767364155299 0.1895338189319588 -0.35760445164982496 0.5598131274627723 -0.05591298881948885 0.6707166260888179 -0.6007972620698331 0.016512126674238816 0.8861863740285159 0.23421290746060427 0.1682826386358337 0.10467893453228738 0.23774423115722074 -0.15078190300147942 -0.25732445932495807 ]
[ -0.02689951618023299 0.3315829437787843 0.008320934727592351 -0.10867543311446516 -0.34521282898143124 -0.4827191285011743 0.23048370752021155 0.07932346365126439 -0.511696663985093 0.5861712386946796 -0.16553857599153787 0.018119416948545047 0.5822479849454134 -0.16979929065710278 0.43371554801084256 -0.26346690402177536 0.46988341514162496 0.2973747584262346 -0.4469904386822379 0.3429150000624221 ]
[ -0.11792674695573405 -0.3414935837269669 0.09116010058845263 -0.24705564924000525 0.055549376007550506 0.297952981009173 0.16225701874127546 -0.08807966696385151 -0.2241136194991975 0.5846532611720803 -0.5154216162774956 -0.7032833591944675 7.81824871625747e-05 -0.15646170667309187 -0.2729427406225338 -0.10864885765610095 -0.21750541825718575 -0.30555794247094764 -0.20823725005644034 -0.31998415183903234 ]
[ -0.2690652466933545 -0.2916404294875204 0.08053373073294703 0.0751118212387639 0.03400105442783899 -0.04730725390887021 0.3425310362126757 0.12029474280513881 -0.1690384185010354 0.0921090089921779 0.17430356060375554 -0.1824367736366461 0.07944674955323247 0.3386281667852873 0.1308732110360202 -0.2731082956533488 0.4540045345859892 -0.24838005279710346 0.03852911703463302 -0.29678831404494194 ]
[ 0.7987667394187772 0.17623782666629573 -0.45318973139587354 0.31348610972264046 -0.5834241339299533 0.10588014067477093 -0.27174501402577694 -0.16153536074101799 0.4191652364838357 -0.4977524518285186 0.17552224571852046 0.2165465842103837 -0.3909202695623123 -0.42474330892097 0.1467631679016205 0.9015573816616298 -0.11702877903838822 0.6554489924414384 0.4505139941284081 -0.000647069703562947 ]
[ 0.9240115233026518 -0.29623581489236617 0.10673613731617154 0.3320011224493743 -0.6457979306224441 0.20121511714760787 0.6676646387781092 0.47637075828457376 -0.5451507505474285 0.3135166042474571 -0.1462828134331019 -0.41674766902068566 -0.42416428632322023 -0.11284138954456298 -0.6459884111514357 -0.07450723859606803 -0.3480890062720178 0.9445386540197148 -0.002416283626701956 0.6619116582820999 ]
[ 0.10764982518893076 -0.05556848590959072 -0.13794770740823248 0.16362380584908198 -0.016705939508491235 -0.26314918018609335 0.015790285390678588 0.3064974725463488 -0.27952643708305425 0.21526323348349274 -0.22658597681909354 -0.13539562568511118 0.042445142085945735 -0.3243134854928465 0.33168949891809774 0.1288556051413431 0.06487527411956817 0.21985030748214426 0.22342855077770857 0.08037908466807447 ]
[ 0.17717175008719319 -0.2919725779653155 0.29212072560193264 -0.02928198978996761 -0.12359107280075454 -0.2579914451875633 0.2195516712654196 0.2771375184400706 -0.23046698501654103 0.23971463045120223 -0.4928176513684171 0.2013174496168648 0.279935254448608 -0.40804818660228764 0.3383974423843683 0.11977726627970325 0.11545925701432683 0.1883884501103035 0.008654766097171774 0.5198080851638314 ]
[ -0.04657472541772659 -0.13545348641968663 0.02683485153419729 -0.25626842712123016 -0.15622850132947508 0.01259570975291997 0.23865218917806533 -0.04639684137207129 -0.036270831195630834 0.08682704181968218 0.05915669270237888 0.0017845254565264537 -0.07653783639429786 0.02786825401233492 -0.07062178498560315 -0.10265153571353122 0.16606100932805762 0.04366534182631095 -0.22245748560890985 -0.042910482473615806 ]
[ -0.24269580196686802 0.3381126302872042 0.30310087562005894 -0.3733776250369 -0.12933549235574662 -0.16443830225770703 0.4592280331725952 0.1101376597709896 -0.6069706544231234 0.011822814946280702 0.008748978666979098 0.2794459763575859 0.44186333985023496 -0.0892752327062122 -0.08748021011985226 -0.3298862582220761 0.423960427658806 0.34675284303511594 -0.0842109397791169 -0.06702776918087926 ]
[ 0.4431568821891778 -0.40314733115379686 0.9219277072657052 -0.007943047536185223 0.12801010569942223 0.6000219934390235 -0.4497961063056622 0.19933720436639416 0.29391407311575607 0.49310427017935765 0.46819013877010024 -0.5230349744251211 -0.7838228593006016 0.5968500854119508 -0.44005174104593364 0.4137928094197835 -0.5918865575833376 0.18572668296007713 -0.22062236296175994 0.7358273331936096 ]
[ -0.399248848600662 0.0013966580166983684 1.0383328925954032 -0.2790630689732457 -0.456923362772037 -0.25761485835121856 -0.081439545641835 -0.4614343832777479 0.34240402249459473 -0.3191039086911612 0.4166621493481461 -0.25142215000097856 0.22348020346920447 0.878161122972967 0.1484070645367463 -0.016190016326048603 0.4068451920117153 0.1618915919891268 -0.09300453881670416 -0.0007444031997743537 ]
layer 5 Activation
tanh
layer 6 Dense
20 1
[ -0.9176615087110315 ]
[ -0.07153454874770505 ]
[ -1.2000829912751176 ]
[ -0.6061582544344702 ]
[ -0.7854848936926186 ]
[ -0.7229308994753897 ]
[ -0.8291789631977303 ]
[ -0.7425614008795846 ]
[ 0.7323612870494068 ]
[ -0.6388677825110838 ]
[ 0.5415724695636335 ]
[ 0.5706405692173837 ]
[ 0.6697179846640049 ]
[ -0.9879678362620685 ]
[ 0.5711540656630756 ]
[ 0.7746605695770797 ]
[ 0.7241174537684966 ]
[ 1.0445639398885194 ]
[ 0.6664603450398341 ]
[ -0.905012100391623 ]
[ 1.1506470315290516 ]
