layers 7
layer 0 Dense
20 20
[-0.06166068 -0.11853213  0.11741064 -0.17635803 -0.25082186 -0.17432126
  0.19803897 -0.10494956  0.4070662   0.34905496 -0.0149834  -0.2669569
  0.20239681  0.342245    0.0644314   0.2311566   0.37501374  0.4443886
  0.22849897  0.28947583]
[-0.01574955  0.12334572 -0.00664237 -0.27468294  0.14488913  0.3899949
  0.27350163  0.15018009 -0.3480463  -0.3652021   0.16576228 -0.25829798
  0.06583735  0.1545101   0.3301371  -0.3528758  -0.30831298 -0.16313782
 -0.277974    0.21178058]
[ 0.3398144  -0.05633502 -0.03194661  0.061044   -0.37628672  0.03340893
  0.2680829  -0.4507161  -0.3274758   0.30847755 -0.3061318   0.07748071
  0.05944326  0.32221982 -0.3353218  -0.05820168 -0.40621626 -0.30432093
 -0.21636222  0.24173996]
[-0.12552723  0.43333316 -0.11410566  0.22949512 -0.2565906   0.3620544
 -0.02794955  0.43150604  0.4217046  -0.0407808  -0.27517486 -0.208209
  0.21031442 -0.15739529  0.15288849 -0.04945726  0.16049351  0.2716808
 -0.17744309 -0.3252729 ]
[ 0.03574335 -0.05883282  0.21889386 -0.18658017 -0.32442656 -0.13625422
  0.00487265  0.18889064 -0.20061849 -0.2181997   0.2173236  -0.04417403
 -0.30174387 -0.18952546  0.2675299  -0.3764944  -0.35220104  0.07023063
 -0.07293893 -0.10804186]
[-0.28231364 -0.21205291 -0.31975296  0.1732059   0.01069569  0.1551056
  0.25163344  0.29090962 -0.17537591  0.20091414  0.32048497 -0.27105498
  0.17319132 -0.19498952  0.24145731  0.33376095 -0.20709902  0.15165271
 -0.02200527  0.29684252]
[-0.14898242 -0.05133251  0.11055514 -0.17042501  0.28011754 -0.2725935
 -0.19290581  0.21647145 -0.14655948 -0.333894   -0.07292577  0.00371244
  0.18110251 -0.16883443  0.04936572  0.19875973  0.06228045 -0.19835645
 -0.32349092  0.08115309]
[-0.1684491  -0.01152221  0.2760478  -0.16680996 -0.15755327  0.3321394
  0.1788042  -0.2262853   0.2977565  -0.07973605 -0.25050026 -0.27314702
  0.17187168 -0.0767732   0.30722484  0.00900076 -0.25793728 -0.3192324
  0.2881625  -0.32110757]
[-0.28177392  0.19048776 -0.26778984  0.20350903  0.20882827  0.3860389
  0.26145157 -0.04082499  0.0644995   0.21043874 -0.09988172  0.13312599
  0.1871067  -0.3166324   0.06564683 -0.03050073 -0.03264567  0.01283461
  0.20894098 -0.10469426]
[-0.31066528 -0.29252294 -0.26289368 -0.24518637 -0.2872066  -0.16952597
 -0.27564767 -0.04653765  0.25362322  0.32256377 -0.3943719  -0.19081776
  0.16981722 -0.03004676  0.42053708  0.08444794  0.04528129 -0.24354091
  0.3256456  -0.01245625]
[ 0.20293881  0.1542257   0.07515327 -0.3750789   0.06675646  0.25021598
 -0.18156372 -0.07428797 -0.19532497  0.19097619  0.28524417  0.28773198
  0.24134125 -0.12145434  0.06471997 -0.27105582  0.17373602 -0.42840457
 -0.09392289  0.18524548]
[-0.36109403 -0.15170762  0.00595532  0.00593037 -0.3282156  -0.17307973
  0.20058402  0.12769331 -0.3041538  -0.03709998 -0.10636447  0.02764586
 -0.15619174  0.36683905  0.42288423  0.48421943  0.04183701  0.18851021
  0.22929724 -0.45486236]
[ 0.29400736  0.14990129  0.23857388  0.21280438 -0.36219466  0.32545432
 -0.3815503   0.02275605 -0.16453367 -0.12890379  0.08124523  0.19696729
  0.413526    0.11854839  0.07009282 -0.15150373 -0.01070924  0.10059159
 -0.0488125   0.08515806]
[-0.31152204 -0.00883551 -0.32862556 -0.34583825 -0.01508635 -0.14094856
 -0.31727803  0.20009494 -0.27240837  0.29047805 -0.19961628 -0.30097565
 -0.04241489  0.04115889  0.22289015 -0.02290796  0.08558362 -0.21024898
  0.31363505  0.0666922 ]
[ 0.1052225  -0.07781544  0.02779121 -0.44801313 -0.21011879  0.43501303
  0.09077504  0.27415678  0.21840101  0.08100682  0.10535864  0.02688644
  0.08991548 -0.35611004 -0.12562455  0.00206863 -0.32320184 -0.04959243
 -0.14758337  0.18923496]
[-0.4153221   0.22260322  0.01918371 -0.1533926  -0.35994565  0.29322213
  0.04209    -0.0837132   0.19381028 -0.3067598   0.04541059 -0.1227921
  0.19602977  0.34682828 -0.28299654  0.45985946  0.18004821 -0.35393423
 -0.3787396  -0.06124673]
[-0.21754055 -0.14985804 -0.39149395  0.16265169  0.2777542   0.3501341
  0.07452109 -0.02692081  0.24981895  0.14396688  0.15949646 -0.37532726
 -0.28434193 -0.19161877  0.02511894  0.15039995  0.20786302 -0.2932554
 -0.29503638  0.3455056 ]
[-0.01025566 -0.03318622 -0.31478322 -0.11876815  0.28427264 -0.16967931
  0.41652635 -0.1443117   0.53273535 -0.30009007 -0.26563     0.3488889
 -0.07188024  0.7414689  -0.64949524 -0.03046367  0.18167755  0.5612123
  0.22536826 -0.20753628]
[-0.28477532  0.27792776 -0.44151884  0.15431361  0.37713134 -0.4132538
  0.1846972  -0.20490529  0.29524782 -0.15849721  0.2673807   0.30760044
 -0.11690094  0.07922573  0.46427843  0.5982627  -0.39920905  0.5110373
 -0.22619982 -0.38385358]
[ 0.3156254  -0.05392957 -0.27768505  0.33884227  0.19521382 -0.33346924
 -0.4358943   0.09634916  0.34886286  0.22382993 -0.05275063  0.1817322
  0.4053798  -0.2520453  -0.40007588  0.036729    0.0160836   0.28876323
  0.38911012  0.2521545 ]
[-0.03679389  0.06875569 -0.02197435 -0.09409172  0.06851576  0.03513252
  0.11519863 -0.00016716  0.01711967 -0.02149897  0.01174318  0.12161432
 -0.0301882   0.02422742  0.00635232  0.00374085 -0.00223775  0.07724092
  0.00368938 -0.03275694]
layer 1 Activation
tanh
layer 2 Dense
20 40
[-9.5884763e-02  3.1664509e-01 -1.6773936e-01  2.8026518e-01
 -1.7172661e-01 -1.0337308e-01  4.0462758e-02  2.0995772e-01
 -2.0725999e-02 -2.6632762e-01  7.9955883e-02  8.0049172e-02
  3.9964321e-01 -2.6583374e-01  1.4419070e-01 -7.5595067e-03
 -2.2415341e-01 -1.3291478e-01 -9.9983044e-02  8.9023225e-02
 -1.2114863e-01 -2.1129628e-01 -4.4248518e-02  2.1035337e-01
  9.3905270e-02  2.1464920e-01 -1.9897473e-01  3.0131260e-01
 -1.5406592e-01 -2.6526999e-01  2.3649973e-01 -5.9765995e-02
 -2.0334718e-01 -1.3269600e-01 -3.0364200e-01  1.6993810e-01
 -7.7874929e-02 -2.7439573e-01  9.1770198e-07 -2.8117099e-01]
[-0.03805796 -0.08883929 -0.20119517 -0.08543558  0.14589657 -0.26997045
  0.07271045 -0.31992444  0.17822143  0.0256335   0.10873531  0.11624683
  0.15761314 -0.26371917  0.09349086  0.23269793 -0.0172724  -0.24505956
 -0.07828479  0.1164947   0.0799342   0.2420728  -0.20974633 -0.10103774
 -0.03831461  0.23481932  0.02165737  0.2611484   0.18011248  0.01612242
  0.04544311  0.14748947  0.11047149 -0.30734125  0.13608913  0.17615299
 -0.22315106 -0.06616282  0.25558826 -0.01249755]
[ 0.25039613  0.3733228   0.04127046  0.01186382  0.26117808 -0.17621647
 -0.2044588  -0.06151945  0.06312568  0.26800552 -0.13541992  0.15645245
  0.29030573 -0.02591889 -0.0072852  -0.0354804   0.09861929 -0.0578846
  0.1049998   0.05702133  0.04668494  0.02173373 -0.20894831  0.05285394
  0.23931673  0.03302618 -0.0080328   0.16554363 -0.10524788  0.19523823
  0.23006693  0.1679734   0.2131042   0.2840073   0.01523241 -0.21861035
  0.29838902  0.30139115 -0.00333568 -0.16745226]
[ 1.29725412e-01 -7.64156133e-02 -7.04046041e-02  6.43567219e-02
  5.97619973e-02  2.78681815e-01 -1.78662375e-01 -2.17907533e-01
 -3.02139342e-01 -3.53405982e-01 -5.63588440e-02 -2.44980305e-03
 -1.09499887e-01  1.74099818e-01  4.57916334e-02 -3.87554169e-02
 -1.44578621e-01 -8.33549351e-03 -1.16443262e-01  4.51907814e-02
 -3.03278212e-04  1.40751809e-01 -7.08012283e-02 -6.50868416e-02
  2.66413242e-01 -1.62495255e-01 -1.87700555e-01 -2.92764246e-01
 -7.83977136e-02  1.62210196e-01  1.57162622e-01  1.22427106e-01
  6.88052848e-02 -2.54486412e-01  2.53168225e-01 -2.86306649e-01
 -1.70823783e-01  2.76969254e-01 -2.24093437e-01  1.48217469e-01]
[-0.28446168 -0.04766993  0.01626061  0.20747581  0.05797501  0.32178518
 -0.18246408 -0.24132162  0.11116576  0.05027755  0.03863397  0.13566878
 -0.06500435  0.13217124  0.10320469  0.03454827  0.12290954 -0.10618079
  0.10930835  0.01130254  0.00627752 -0.13183661  0.09377163 -0.14862981
  0.33675843  0.12258851 -0.08643845 -0.17977114  0.31681842 -0.03184865
  0.06154562  0.07830343  0.08579867 -0.10045646  0.2438942  -0.03716222
 -0.214797    0.22435084 -0.10919945  0.10996803]
[ 0.1857244   0.19080636  0.16248457  0.22613981 -0.18926369  0.27004164
  0.04921117  0.3341265   0.14509717  0.08303525  0.26822424 -0.24634436
 -0.23363721 -0.0482005   0.10070851  0.02027452  0.14860971  0.0792517
 -0.17246887  0.10823464 -0.33592317  0.15199682 -0.21724413  0.15106949
 -0.05321606  0.18906146  0.01436774  0.02564851 -0.02044286 -0.32493782
  0.13272661 -0.02094132  0.09867727  0.03556055 -0.3084356   0.0938305
  0.35030496 -0.01295245  0.11765993  0.25446057]
[ 2.8490138e-01 -2.6153636e-01 -1.7495325e-01  3.8558252e-02
 -2.5677925e-01 -4.4189545e-04 -7.8013577e-02 -8.6128935e-02
  2.5811163e-01 -1.1351156e-01  4.1250750e-02 -2.5879475e-01
  7.0389003e-02  2.6114237e-01  1.7113453e-01 -1.5365823e-01
  8.3706953e-02  1.3652916e-01 -5.2526224e-02  3.1578025e-01
 -2.2730749e-02  2.8183642e-01  2.7725455e-01 -1.0561306e-01
 -6.9568038e-02  2.5786468e-01 -9.1365173e-02 -2.7227283e-01
 -1.2642080e-01  9.4174951e-02  2.7508033e-02  4.6593958e-01
 -2.3748092e-02  2.4634081e-01 -1.5850180e-01 -2.2750093e-01
  2.1379031e-01 -1.4056839e-01  3.2975945e-01 -3.1279308e-01]
[ 3.03472430e-01  4.65431958e-02 -2.28886172e-01  2.39285991e-01
 -2.17591509e-01 -3.77540141e-02  5.05777523e-02 -1.44712180e-01
  2.05679491e-01 -4.29161899e-02 -1.06022097e-01  1.03369296e-01
 -1.17891818e-01 -1.47114590e-01 -2.96888143e-01  2.27558194e-05
 -1.27549395e-01 -1.45062566e-01 -7.50945508e-02 -6.35520220e-02
 -3.22787166e-01  1.82710007e-01 -1.12551944e-02 -7.43631721e-02
  1.47111043e-01  3.47238742e-02  6.40128106e-02 -1.33846700e-01
  6.23346195e-02  7.62484893e-02 -2.16285229e-01 -3.81120175e-01
 -1.84675217e-01 -2.03606471e-01 -1.62067220e-01 -1.01688668e-01
 -7.29051977e-02  6.83980584e-02  2.80586690e-01  2.63948590e-01]
[ 0.12801258 -0.10959606 -0.1695185   0.32034212 -0.22307336  0.0248318
  0.25311762 -0.36859915 -0.11006699  0.06359513 -0.1494339  -0.03570329
 -0.07704757  0.1032773  -0.11622737 -0.10082546  0.1857978  -0.17920347
  0.1910347  -0.23561274  0.00377286  0.22070017 -0.30319783  0.42763352
  0.23539166  0.02762422  0.32911175  0.07615358  0.26538026 -0.09607351
  0.02843094  0.12027968  0.1936956  -0.10815042  0.22472998  0.14518924
 -0.1234464  -0.04443079  0.12655476 -0.23103003]
[ 0.0989077  -0.03303049  0.01039992  0.2212242   0.1824199   0.07699195
 -0.09637272  0.31743518 -0.13597113 -0.2418094   0.07228994 -0.24215382
  0.0097162  -0.08613589 -0.14151311 -0.05683685 -0.21580313  0.17739241
 -0.20214942  0.00794753  0.09130931  0.35914463 -0.09679441  0.12452295
 -0.08496395 -0.17295085  0.30425492  0.10242084  0.00665542 -0.11194032
 -0.14683013 -0.35560426  0.1674683  -0.16282989 -0.07163534  0.09524512
  0.10148624 -0.25297642 -0.18403476 -0.0391222 ]
[-0.03090266  0.22384615 -0.28090566  0.184979   -0.04738811  0.24934326
  0.11008105  0.02639788 -0.24449024  0.03978619 -0.2782362  -0.01610764
  0.29122472  0.19640419 -0.24954368  0.0545877   0.08562458 -0.04531844
 -0.14750572 -0.2854084   0.25689906 -0.14620651  0.21665883  0.0902475
  0.24996273  0.15912372  0.17773466 -0.06831702 -0.12823881  0.21724297
  0.03569236  0.290689    0.07974622  0.2283788   0.18359426  0.2045349
 -0.18792488 -0.15105464 -0.07457551 -0.188753  ]
[-0.15255919  0.11638182  0.17760019  0.03403995  0.19505638  0.15440926
  0.18854044  0.16971663  0.32670966  0.13038833  0.0783929   0.27518564
  0.01353688  0.05591117 -0.1016713   0.0883284   0.10733875  0.04520557
 -0.30548504  0.1251631  -0.23469277  0.1871997  -0.04439799  0.08265916
  0.1683041   0.23149869 -0.12720421  0.33715087  0.19451377 -0.06603131
 -0.0389213   0.39309445  0.16097113  0.23872451  0.26833358  0.21612343
 -0.13465013  0.19315918  0.17282632 -0.05719037]
[ 0.16348079 -0.17679931 -0.14159974 -0.11899211  0.1106519   0.14185657
 -0.13510652 -0.15699242  0.19470663  0.01180081 -0.00271407  0.06891491
  0.1891473   0.17813934 -0.03524126 -0.20047913  0.30090845 -0.22053374
  0.2378784  -0.2610014  -0.20697278  0.22556226  0.1874311   0.13156006
 -0.0397289   0.18371725 -0.09910464 -0.27651998  0.16091073  0.1841288
 -0.06332421 -0.0649116   0.19212791 -0.06421446  0.14973867  0.01332146
  0.35443345  0.21987753  0.26278463  0.13503669]
[ 0.15838724 -0.2801392  -0.07260948  0.15143469 -0.22560456  0.19176626
 -0.00274335 -0.20936145  0.32016492  0.01348578 -0.10358387  0.13100256
 -0.2685096   0.09067582  0.20190641 -0.31578156 -0.38223574  0.0557057
 -0.06046901 -0.02729218 -0.1931475   0.2832708  -0.1947561   0.05028108
  0.36610055 -0.07617854  0.0022473   0.04624757  0.3072761  -0.28782114
 -0.21245192  0.29626375  0.11163916 -0.09202834 -0.23989484 -0.04091787
  0.20531422 -0.30727825  0.15542689 -0.10246116]
[ 0.0161773   0.09393984 -0.13073952 -0.3022885   0.00103262 -0.03041762
  0.0731903   0.10252674 -0.03562689 -0.03249564  0.3344791   0.1389711
 -0.05343151 -0.27858922 -0.15579061  0.20546864  0.19072655 -0.08437218
  0.05770648  0.17337885  0.266005   -0.21479645  0.22417061 -0.07448944
 -0.28137448 -0.01888455  0.18037273 -0.24827929  0.16454817 -0.21007429
  0.11349861 -0.29427022 -0.21461865 -0.26322624  0.2373234  -0.0461673
  0.27164188  0.12727526  0.21173403  0.36256132]
[ 0.29948252  0.17794274  0.08998627 -0.23436798  0.20148373 -0.3122923
  0.12932838 -0.24129744  0.24051522 -0.09786221 -0.08056823 -0.35562333
  0.11915627 -0.1535128  -0.07334752 -0.28612658  0.10942644 -0.23662971
  0.09139587  0.2368475  -0.09481582  0.322549   -0.15558393 -0.24620861
  0.18070915  0.02751898 -0.09544282 -0.17139797 -0.11119984  0.2727249
 -0.05199497  0.24656606 -0.26148155 -0.08340736  0.32666415 -0.14205009
 -0.2681651  -0.05450917 -0.00685723 -0.0962756 ]
[ 0.08841918  0.15676117 -0.01157637  0.02577682 -0.28427628 -0.1214592
  0.08015464 -0.28045022  0.2937218   0.15035595 -0.2513153   0.06716712
  0.1623744  -0.17341514 -0.03317563  0.19036242 -0.16779792  0.09311228
 -0.08766692 -0.04015621  0.09618556  0.29478517  0.21154793  0.02184006
 -0.3260009  -0.23611456 -0.06226785 -0.14064834 -0.11853852 -0.10547103
  0.14077191 -0.05936471 -0.13772328  0.14227471  0.12308829 -0.05907726
 -0.10238112  0.17063853  0.19664581 -0.3398979 ]
[ 0.22513814 -0.2830033  -0.06377918 -0.01392213  0.3179827  -0.09141383
  0.1302899  -0.18203643  0.246371   -0.11011172  0.29246584 -0.05110154
  0.10002553 -0.10058142  0.21679941 -0.3395439  -0.32473585 -0.07656571
 -0.16798605 -0.1385043  -0.0510134   0.27793664 -0.15562594  0.28693205
  0.19427112  0.07757221  0.24990413 -0.3344225   0.32831135  0.23049591
  0.07945873  0.24781048 -0.36994436 -0.08497769  0.31800884 -0.24351393
 -0.30295664 -0.01393017  0.21083212 -0.2882788 ]
[-1.4738043e-01  1.0680617e-01 -1.4300703e-01 -2.5314933e-01
 -1.0264086e-02  6.7356318e-02 -1.5173391e-01  3.2970643e-01
 -5.9263224e-05 -3.1087628e-01  1.2979634e-02  1.8799100e-02
  2.4374059e-01  4.2426039e-02  2.0176692e-01 -2.5919673e-01
  2.5742301e-01  1.4453121e-02 -1.4925934e-01 -2.5753567e-01
 -2.6360017e-01  1.6608357e-01  4.9964074e-02 -1.5527894e-01
 -9.4489589e-02 -5.0576918e-02 -2.4392879e-01 -1.2340678e-01
 -2.7396125e-01  2.1302494e-01 -5.3350400e-02  1.0084053e-01
 -2.2283173e-01 -1.1944534e-01 -1.4430173e-01  1.6033533e-01
  8.1899375e-02 -1.3617305e-02  1.7510296e-01 -2.3673347e-01]
[-0.28491718  0.17271031  0.29751888  0.3022253  -0.08406211  0.14509167
 -0.10200754  0.3282337   0.11390454 -0.23528022 -0.01990752 -0.18929939
 -0.15601364 -0.20681901 -0.1041496   0.2063839   0.10885724  0.27230096
 -0.00751951  0.3120155   0.08209556 -0.15512379 -0.03228602 -0.07935093
  0.13630666  0.20943475 -0.1164002  -0.31856427  0.16615559  0.14102085
  0.21490404 -0.32420284 -0.08192226 -0.04134568 -0.20458478  0.1275669
  0.24187084 -0.04329352 -0.3757739   0.04023229]
[-0.00474855 -0.05724203  0.01594041 -0.00715573 -0.00309095 -0.00050084
  0.03091008 -0.03912153  0.02020892  0.0278776   0.00220283 -0.04254093
 -0.01508878 -0.0216613   0.02604652 -0.0177683  -0.05691358 -0.01799328
 -0.0252376   0.00557166  0.03458378  0.06169214 -0.01786623  0.09413445
 -0.00243601  0.01970842  0.05406976 -0.01281212  0.03791858  0.00847637
 -0.06518155 -0.08748869 -0.02267249 -0.00549771  0.01912089  0.00117229
  0.01368264 -0.04431906  0.0440507  -0.02044103]
layer 3 Activation
tanh
layer 4 Dense
40 20
[ 0.24669541 -0.21668267 -0.04946003 -0.2662165  -0.0647783   0.18327971
 -0.26339164  0.04022162 -0.27895737  0.19547367  0.16516216  0.20484182
 -0.15826273  0.28901914 -0.09460401  0.03726531 -0.11866878 -0.080553
 -0.24395649 -0.02206097]
[-0.28582716  0.19085447  0.09854044  0.04534218 -0.21281649 -0.04662365
  0.388801    0.37045828  0.12758811  0.25723553  0.23130065  0.10834076
  0.11261079 -0.2755652   0.08565395  0.22190462 -0.1617493  -0.25806817
  0.13795461 -0.07003414]
[-0.05102889  0.02531456  0.02374901  0.27513888 -0.1355389  -0.1069029
  0.08613253 -0.08033337  0.22729047  0.19160642  0.3413029  -0.13963348
  0.1108104  -0.00839731 -0.23689465  0.2869638  -0.10625958  0.18031618
  0.11724541 -0.25184208]
[ 0.02784474  0.26327568  0.2546616  -0.2543301  -0.0599529   0.16115692
  0.263385   -0.1700912  -0.0048975  -0.06341445  0.21923138 -0.1654815
 -0.20661603 -0.06574729 -0.02484879 -0.0381038  -0.09683677  0.2107394
  0.23439518  0.3098584 ]
[-0.0878628  -0.04188573 -0.10430923 -0.3301011   0.19746172  0.14230362
 -0.19695629  0.11380853 -0.2250854  -0.00064318  0.04493515  0.24625272
  0.19672877  0.29951176 -0.08760179  0.30681136 -0.2616963  -0.23009987
 -0.05978283 -0.16202672]
[-0.21479705  0.2131741   0.11020248  0.19231263  0.26712492 -0.08213279
 -0.12045215  0.11274695 -0.15628485 -0.13082165 -0.28185624 -0.22801378
 -0.30804512 -0.16795297 -0.09030963  0.2997659  -0.2623761   0.0831474
 -0.06983493  0.28356656]
[ 0.03689862 -0.13502505 -0.13119586 -0.27056277 -0.06726994 -0.06235075
  0.08856851 -0.08113053 -0.07847739 -0.2561853   0.0732361   0.01263427
  0.02045905  0.07520675  0.16524701  0.3482814  -0.22284123  0.2746088
  0.21206197 -0.3490866 ]
[-0.18215464  0.12668025  0.26099092  0.24637084 -0.27142644  0.16120458
  0.13327362 -0.25558338 -0.12084115  0.21729282 -0.13312857  0.27379787
 -0.19898555 -0.0925042  -0.25073898 -0.09393435 -0.03000619  0.32308957
 -0.28300914  0.15463029]
[ 0.05107974 -0.23650303  0.15417887  0.15058522 -0.2396579   0.17320316
 -0.20386277 -0.25434402 -0.26801443  0.16001569 -0.02699286 -0.25722912
  0.15213817 -0.11276255  0.19834426  0.2184834   0.10860604  0.25477993
 -0.09539938 -0.02557819]
[-0.05357913 -0.1688151   0.11614455  0.23111276  0.26342732  0.02454599
  0.00849964  0.11716903  0.11871284 -0.13864602 -0.18106586  0.18870907
  0.07005684 -0.17628077 -0.09166522 -0.19562533  0.24122182  0.2395551
 -0.02154359  0.09055541]
[ 0.16559699  0.14577591 -0.06883915 -0.23463     0.08125931 -0.05931159
 -0.18270634  0.17332123 -0.36080977  0.0682364  -0.16599418 -0.04677385
 -0.14119467  0.2947103   0.1612103   0.08477054  0.11226236 -0.11056201
 -0.17611834  0.00704419]
[ 0.11684056 -0.08540631  0.12998189 -0.27016038 -0.2536337   0.04672084
  0.23405595 -0.21683823 -0.12620862  0.18761158  0.12402591  0.09175588
 -0.22790411 -0.07140136 -0.07941811  0.07912055 -0.12907268 -0.10744477
 -0.10702605  0.12876537]
[-0.09419658 -0.2133451   0.07591686  0.33261415  0.1681227  -0.08144632
  0.11276935 -0.03025544  0.2450395  -0.16134122  0.16812421  0.20201406
  0.24806632 -0.20175618 -0.12495679  0.13292441 -0.19148615  0.16750824
  0.23109631 -0.13478084]
[ 0.18109809 -0.07213954  0.18665075 -0.15134823  0.01028975 -0.21512005
 -0.2185224   0.28140748 -0.20003834  0.04297471 -0.17451069 -0.12904009
  0.02624776  0.01556575 -0.20676106  0.22281228  0.05463265 -0.17150417
  0.18902795  0.11256672]
[ 0.11844669  0.25788632  0.2446538  -0.2325047  -0.2425053   0.0225162
  0.22058193 -0.23207512  0.19888633 -0.24651895 -0.04723739 -0.36963803
  0.30417836  0.09852493  0.07510764 -0.23463851  0.19571252 -0.01592728
  0.04124144 -0.05076219]
[-0.17802784  0.07149872  0.03368445 -0.26433238  0.2791038  -0.02867608
  0.2886822   0.1866748  -0.03000166 -0.13060659  0.30473542 -0.06910858
 -0.05976509 -0.28857383 -0.21289954  0.04613789  0.16914865  0.03480722
 -0.1280857   0.23632315]
[-1.0151188e-02  1.8599147e-01  1.8621498e-01 -2.9655921e-01
  2.3307569e-01  1.0504700e-01  1.3263646e-04  2.5892749e-01
 -1.5031165e-02  2.2062217e-01  2.7458268e-01  2.7832699e-01
 -7.7083200e-02  3.1735438e-01  2.7215967e-01  1.2801717e-01
 -3.0197510e-01 -1.4951718e-01  2.9727343e-01  1.0816444e-01]
[-0.26667657  0.26619506  0.24755503  0.25450853  0.19032203 -0.11762617
  0.19104792 -0.19912402 -0.05511862 -0.00874351  0.01515179  0.22274253
  0.11203264 -0.2087768  -0.00121579 -0.03922103 -0.01067263  0.07769931
  0.26631886 -0.05688149]
[-0.3469189  -0.01530304  0.03326285 -0.19458552  0.12312153  0.23498438
 -0.20276125 -0.14426513 -0.06018909  0.2840038   0.11140554  0.156385
 -0.2107438   0.23412992 -0.08546154 -0.07157175 -0.23466891  0.21196668
  0.02053892  0.18254527]
[ 0.23313203 -0.05497775  0.11360736  0.22674322 -0.28813076 -0.29808396
 -0.03506605  0.22977598 -0.01870552 -0.20325705  0.24404262 -0.00285844
  0.14648858  0.23908138  0.24825911 -0.31912246  0.17865235 -0.14430743
  0.22481757 -0.18800975]
[ 0.23306781  0.26848593 -0.31510538 -0.2638243  -0.15400416  0.03030631
  0.0213912   0.16966683  0.04690073  0.23786317 -0.30823514 -0.2519102
 -0.08334637 -0.17737468  0.19576372  0.18517856 -0.13167149  0.34373283
  0.06749067  0.21038048]
[ 0.08634176 -0.12073021 -0.20056659  0.0683874   0.12621613  0.21362853
 -0.28742874 -0.02274307  0.2516054  -0.31761426  0.18112624  0.06804206
 -0.03576855  0.0638518   0.31309623  0.23637176  0.21700437 -0.1948528
 -0.21848455 -0.01295052]
[-0.2367227   0.00687599  0.22909072 -0.17854737  0.27191338 -0.01227657
 -0.28667346  0.20789105 -0.10641453  0.1597632  -0.28124037  0.01996888
 -0.08569788 -0.30523303  0.15486102 -0.14794253  0.11824362 -0.06392082
  0.10581037  0.26605052]
[-0.1937868   0.0764486   0.08592378 -0.05065464 -0.00891882 -0.01565165
 -0.22043695  0.13764949  0.13950717  0.02154941  0.21963054 -0.26278034
  0.32249135  0.17559144  0.2308805   0.2240145   0.09205498 -0.2158125
 -0.05812946  0.05822175]
[-0.09716602 -0.03924939 -0.06693524  0.18838887  0.08110018 -0.2521185
 -0.20052633  0.18702394  0.25773358  0.21084337  0.3097365  -0.41026184
  0.24946056  0.14246367 -0.29056028  0.16972016  0.09455125 -0.0407832
 -0.15862642  0.16233711]
[ 0.23675622  0.04783032  0.10147659 -0.17004853 -0.08368711 -0.30319914
 -0.11257757 -0.08407912 -0.25393072 -0.13722019  0.07692896  0.15832414
  0.17381899 -0.2204329   0.05035224 -0.13812143  0.00644306  0.10788198
  0.2685546  -0.11919314]
[ 0.01979098  0.29020524 -0.00834625 -0.11556646 -0.2779725   0.11581993
  0.15675636 -0.27599677 -0.16565332 -0.21433452  0.25200883  0.21339153
 -0.09126533  0.13781783  0.07112032  0.01602878  0.09982896  0.24633065
 -0.03500137 -0.27340254]
[-0.16629142 -0.28983548  0.09941819 -0.04705856 -0.02622567 -0.16464995
  0.3135223  -0.09946254 -0.02305659  0.06273257 -0.25881705 -0.27855423
 -0.18081881 -0.2081063  -0.09907717  0.07931209  0.19180238 -0.02411828
 -0.13123816  0.271261  ]
[-0.16683713 -0.24123889  0.16567333  0.2550731   0.14157867  0.25383902
 -0.39001906 -0.31504306  0.26602143  0.15722048 -0.21962798 -0.37562892
 -0.27344987  0.16738786  0.07501853  0.17925632  0.1171404  -0.08221066
  0.03663432 -0.07845777]
[-0.267241    0.22276781 -0.10283417  0.1037761  -0.05230753  0.10545327
  0.09683505 -0.03707863 -0.08710132  0.1860457  -0.25659785 -0.26889047
 -0.0545551   0.01731864 -0.26970348  0.00183545 -0.21747556  0.0915073
 -0.17306234 -0.18609872]
[ 0.10989654  0.05342231  0.08428512 -0.12941241 -0.23155321  0.10086776
  0.20845069 -0.19015084 -0.19986849 -0.03085152  0.1102862  -0.08214083
  0.00196401  0.21496017 -0.01798196 -0.09748258 -0.30500013  0.01455811
 -0.1609466   0.02269097]
[-0.38929182 -0.38118654  0.3651954  -0.21915309 -0.12709089 -0.09212183
  0.306285   -0.21695746 -0.21106876 -0.17463116 -0.25107867 -0.25743064
 -0.14096442  0.17206684  0.22432691  0.25401577  0.04313555  0.10435858
  0.19144209 -0.09765987]
[-0.06271258 -0.04841767  0.13348706 -0.24738298 -0.27724808 -0.24392399
  0.05852457  0.07127503 -0.22994882 -0.30506414  0.08966195  0.25773782
 -0.18246332 -0.05874042 -0.06255325  0.18959719  0.06310821  0.05764241
 -0.02907361  0.30590916]
[ 0.2482808   0.04681128  0.12218084  0.24576236 -0.13705285  0.22678551
 -0.15786937  0.2553865  -0.00193192 -0.19087741  0.0100559   0.13623871
  0.15689349  0.16437435 -0.03279818 -0.17143641 -0.0989813   0.22366077
  0.14405504 -0.00394788]
[ 0.1535159   0.25023016 -0.2973068  -0.1399169   0.22027211 -0.21085146
 -0.20809302  0.07189248  0.03477538 -0.08721651 -0.3338805  -0.27500048
  0.17824362  0.05339764 -0.07417528  0.17639932 -0.01918422  0.16924167
 -0.27100056  0.2889203 ]
[ 0.02034631  0.19478564  0.03304812 -0.08119469 -0.25968984 -0.32673794
  0.23920639 -0.09129409 -0.13816325 -0.13492364  0.23478891 -0.07875357
  0.26906976 -0.28329673 -0.00117412  0.18631159 -0.27804086  0.13737145
  0.14692095  0.02155246]
[-0.20223747  0.25374797  0.21034531 -0.18415771 -0.04023775 -0.01269232
 -0.1016802  -0.10388656  0.02989525  0.14335161  0.08314821  0.30028188
 -0.13100795 -0.10915404 -0.19697118 -0.00720961  0.23907481  0.05339646
  0.01265309  0.20640872]
[-0.11421429 -0.00856685 -0.17210817  0.19850214 -0.22243057  0.17792821
  0.25625473  0.16483161  0.16297731 -0.1969162  -0.15234993  0.16661982
  0.03726208  0.3031483  -0.16197054 -0.10124036 -0.16314359 -0.01300389
 -0.104095    0.17658064]
[ 0.08636712 -0.24694665 -0.1030407   0.23831427  0.35077482 -0.34966218
  0.2356654  -0.30909598 -0.18768272 -0.12536412 -0.16315863 -0.19755106
  0.18151939  0.34748152 -0.0861159   0.1755474   0.01705922 -0.25080484
 -0.08317817 -0.256088  ]
[-0.00155772  0.19186614 -0.10905068 -0.29302293 -0.1167827   0.20329489
  0.03003058  0.32944304 -0.23587708 -0.21818669 -0.24008073  0.358895
  0.05377368  0.14893594  0.13483763  0.20432808  0.15302971  0.16376232
 -0.15191999 -0.01429675]
[ 0.01884805  0.00957086 -0.01710899  0.00146192 -0.00288211  0.01673736
 -0.03104576 -0.01805674  0.02037227 -0.00488211  0.01558689 -0.03161828
  0.01235984 -0.02415778  0.00475048  0.00981594  0.01289175  0.00400272
 -0.01656108 -0.01931125]
layer 5 Activation
tanh
layer 6 Dense
20 1
[0.01852131]
[0.35683683]
[-0.48102593]
[0.12098816]
[-0.01957612]
[0.26645717]
[-0.23355986]
[-0.21311596]
[-0.26030925]
[-0.29024118]
[0.18559757]
[-0.3358992]
[-0.00126021]
[-0.30400005]
[-0.06584042]
[-0.00989934]
[-0.14083378]
[-0.24685569]
[0.41387472]
[0.25696903]
[-0.00978102]
