layers 7
layer 0 Dense
20 20
[ 0.34809312  0.06428105 -0.0063313  -0.3253611  -0.08807405  0.19547656
  0.31820786  0.16209893 -0.01782508 -0.21963969 -0.10452893  0.04070349
  0.03766178  0.2309603  -0.34237656  0.19960457 -0.22779116  0.07695125
 -0.14970253 -0.3509363 ]
[-0.42616546 -0.21658386 -0.03631837  0.30498424  0.13360012  0.15593156
 -0.28320536 -0.05929306 -0.18611526 -0.1481      0.2541948  -0.19096848
  0.06622574  0.00369801  0.31332913 -0.12847373 -0.30813637 -0.13814959
 -0.1769534  -0.05589598]
[ 0.05158561 -0.02314268 -0.46864933 -0.24456882  0.05487635 -0.01874787
 -0.36828896 -0.20382637 -0.46113816  0.25852564 -0.21176401 -0.19813578
  0.28191608 -0.17756535  0.15511344 -0.10330325  0.29010037 -0.20370059
 -0.06056168  0.16437277]
[-0.0296905   0.0256379   0.3432425   0.007975    0.01397296  0.04118641
  0.15454622  0.1144532   0.09950702  0.16754685  0.4446238  -0.03975843
  0.34589183 -0.14654163  0.36842248 -0.08603949  0.428221   -0.1254088
  0.19949542  0.03453195]
[ 0.29099828  0.13548595  0.223536    0.34053025 -0.29551876  0.3218973
  0.3757177   0.25366282  0.26549545  0.32301307  0.26000705  0.04062309
 -0.27831173 -0.16209275 -0.29438928  0.23255892  0.14775196 -0.25734338
  0.20892365 -0.03248513]
[ 0.2544248  -0.14062986 -0.02056527 -0.17890681 -0.13003357 -0.38701242
  0.1876954  -0.13681619  0.24959244  0.38101405  0.2517812   0.02555137
 -0.3455822  -0.08799787  0.3399329  -0.3977439   0.36513537  0.13411026
 -0.2523239  -0.4263655 ]
[ 0.11240209 -0.18517078  0.6946472  -0.20297463  0.09419064  0.08532798
 -0.15227538  0.0860972  -0.03365686 -0.25028226  0.01757071 -0.34319907
 -0.2725903  -0.40365916  0.20724295 -0.21659622 -0.18994732  0.02940054
 -0.10761117 -0.4068534 ]
[ 0.29387224 -0.03701481 -0.01855901 -0.23584393 -0.08216096  0.17364158
 -0.15862982  0.2569279  -0.21355939 -0.07138582  0.08660224  0.3333047
  0.31655475 -0.2749898   0.22805652  0.3128492   0.00107469  0.19489625
  0.01642365  0.303694  ]
[-4.2525936e-02  1.5497838e-01 -1.6492955e-02  2.6916817e-01
  2.2762489e-02 -9.5552416e-05 -4.3560326e-02  2.8793752e-02
 -2.5969738e-01 -8.1242686e-03  7.1247764e-02 -2.8362560e-01
  2.1378197e-01  6.3911088e-02  8.8435806e-02 -9.8138571e-02
 -5.4129370e-02  5.7247445e-02  2.7896675e-01  1.9826846e-01]
[ 0.22573236  0.30558318  0.02322977 -0.12992467  0.10950463 -0.01314855
  0.11169872  0.12225804  0.02226281  0.14562266 -0.29618868 -0.3036497
  0.22234102 -0.25419998 -0.18712664  0.11550421  0.1962868   0.21670106
 -0.26666486 -0.20848018]
[-0.01337498  0.32708728 -0.15721814  0.10014678  0.09171557 -0.315041
  0.34577298  0.4270162  -0.25253436  0.3427464   0.21176225 -0.23663321
 -0.08093958  0.22238241 -0.1285369   0.01873243  0.2376839   0.3460407
  0.15516765 -0.3781711 ]
[ 0.32088926 -0.25451446  0.23696604  0.19137453 -0.20584205 -0.02151021
 -0.20129578  0.165302    0.2651616   0.02442091 -0.25313872 -0.27836108
 -0.20597406  0.03238398 -0.09175263 -0.14788574 -0.34241933 -0.24066627
 -0.23307458  0.3469899 ]
[-0.14289352 -0.09324605 -0.05020265 -0.28099808  0.27471155  0.23256631
 -0.08342933 -0.22613584  0.10604209  0.1741319   0.1290578   0.21370482
 -0.09719229  0.42239872 -0.2905436  -0.2722407  -0.21163978 -0.0829009
 -0.03215204 -0.2662545 ]
[ 0.15389195  0.23700586 -0.32541403  0.4254021  -0.33349106  0.08946376
  0.21251267 -0.19014406  0.3091382   0.13009524 -0.2859469  -0.24744187
 -0.19261648  0.00138432 -0.021204   -0.3375356   0.09351808 -0.18314321
 -0.01860228  0.3241538 ]
[-0.16807906  0.20308287 -0.09901765  0.00266607  0.2616694   0.02946754
  0.18739837  0.5445303  -0.18625328 -0.26080203  0.1144805   0.18993169
 -0.0528829  -0.14834459  0.23095669 -0.12356321  0.12624705  0.03351386
 -0.24618326 -0.26762736]
[-0.07585818  0.41525185 -0.18605533  0.30455306  0.3730329  -0.24281259
 -0.34197044  0.26118633 -0.31120113 -0.39281392 -0.22049001  0.2913439
 -0.04515237  0.05636599 -0.06477492 -0.24859677  0.0442436   0.26997826
 -0.31690514  0.15221739]
[ 0.02352358  0.33454666 -0.14047809 -0.21209423 -0.10832314 -0.00669926
 -0.06732401  0.02449698 -0.38321012  0.08426881  0.05955947 -0.06325663
 -0.2287798  -0.11574345 -0.11752466  0.08526199  0.11336065  0.16075513
  0.04740714 -0.30766836]
[-0.35711917 -0.27341637  0.25125682 -0.29038385  0.06502835  0.20572948
  0.4967168  -0.30868757 -0.19111712 -0.4043762   0.07924869  0.01789203
  0.09250626 -0.2581724   0.14744055 -0.34030783  0.15577132 -0.1218262
  0.1149079   0.09330315]
[-0.34925234 -0.04761904 -0.17340656  0.03872797 -0.16859688  0.2718201
 -0.379888   -0.40081665  0.14764068 -0.27460885 -0.22674221 -0.03980087
  0.23653305 -0.3787487  -0.28878513  0.4217633  -0.03584031  0.2352154
  0.27126148  0.2642814 ]
[ 0.01457319  0.07409073  0.25310656 -0.15586421 -0.39285833  0.02772636
 -0.04637087  0.01704221 -0.08937009  0.2774397   0.1354711  -0.36630034
  0.0513546   0.40493155  0.14440367 -0.1601548   0.04862598  0.24392492
  0.29486227  0.1849901 ]
[-0.02505575 -0.10740574  0.10988218 -0.03996336  0.168771    0.05250949
 -0.03426646  0.07379773 -0.05889012  0.04602818  0.13026156  0.02613503
 -0.00566282 -0.06825744 -0.00298905  0.00701796  0.03358909  0.03079863
 -0.08791707 -0.07117498]
layer 1 Activation
tanh
layer 2 Dense
20 40
[ 0.10940605  0.01489676  0.04933693 -0.3636811   0.07829728  0.0134014
  0.00478945 -0.05674487 -0.07240821 -0.27016127 -0.19573966 -0.17582858
 -0.2659601  -0.03643795 -0.27641216 -0.12398512 -0.1775852   0.03431318
 -0.00827059 -0.06903461 -0.15067036  0.17183235 -0.11919248 -0.24948958
 -0.18481664  0.12951197 -0.09089085  0.10204569 -0.0577561   0.26418218
  0.32590896 -0.03746949  0.06193554 -0.37692013  0.18389992 -0.21777245
 -0.10697286 -0.34758177  0.1953914   0.0449973 ]
[-0.00151995  0.15928705 -0.05650329 -0.29352996 -0.03771154 -0.23369093
  0.12277778  0.02373599  0.18716851  0.10741487 -0.29712567  0.13876602
  0.12469465  0.1313686  -0.29681677  0.07260011  0.29618523  0.0600703
 -0.14372453 -0.12496138 -0.06416322  0.05745752 -0.01038888 -0.258781
 -0.21724525  0.17467465 -0.21326037 -0.23986687 -0.16995461  0.18555482
 -0.15613331 -0.0794639   0.3283523  -0.03691235  0.1458461  -0.14722449
 -0.1537908  -0.13247399 -0.15880938 -0.27506453]
[-0.13047819 -0.10677641 -0.18939899  0.25895837  0.11150558 -0.01102527
  0.1322992   0.10025766  0.09051122  0.21017717  0.01778189  0.2721629
 -0.01232446 -0.0012354  -0.00451404  0.10627948 -0.06617384  0.06357487
  0.18007715 -0.06434917 -0.16162784 -0.04924464  0.00643698 -0.15490125
 -0.23161739 -0.10355226  0.28937086 -0.06494764  0.17552479  0.15752783
 -0.1769272   0.2691223  -0.08904544 -0.26161882 -0.0672633  -0.20696533
 -0.03348634  0.2465176  -0.23766035 -0.12598826]
[ 1.32407203e-01  2.16629624e-01  1.02573894e-02  4.57871445e-02
 -2.83157736e-01  2.85539627e-01 -1.03288991e-02 -8.84378701e-02
  1.92641363e-01  1.39847741e-01 -1.35788217e-01 -2.33561873e-01
 -2.77858019e-01 -1.28724724e-01 -1.33246869e-01  1.21885009e-01
  1.17179215e-01  3.33140306e-02 -1.95563674e-01 -3.05650264e-01
 -2.68667370e-01 -3.34459633e-01  1.66062400e-01 -2.56899208e-01
 -9.57736894e-02 -9.46019031e-03  1.25508443e-01 -2.86809858e-02
 -2.43362144e-01 -1.15132026e-01  3.19768442e-04  1.42116934e-01
 -2.03711078e-01 -1.86650902e-01  3.28348838e-02  1.57652441e-02
 -2.71093577e-01 -3.02885380e-03  1.39504522e-01  2.83084273e-01]
[ 0.27158365  0.1715045   0.09311017  0.16240644  0.26857728 -0.06696558
 -0.26204953  0.29142204 -0.16652551  0.13308974 -0.30234742  0.15641427
 -0.1873742   0.13843875 -0.24945632  0.23185532 -0.0864837  -0.02951501
 -0.04046865  0.22764747  0.0427434  -0.09082174  0.16836216  0.24489498
  0.2873425  -0.20041558  0.12610397 -0.25828394  0.15402302  0.06938944
  0.19818744 -0.0109619   0.03261717 -0.16336519 -0.17103411  0.14878291
 -0.07062027  0.2191272  -0.22618973 -0.06919927]
[ 0.00790889 -0.05635707 -0.25139394 -0.15032281 -0.13655446 -0.08398332
  0.34087014  0.18985492 -0.3328628   0.19023173  0.26319388  0.08580057
 -0.27583078 -0.08996876  0.15411592 -0.0018907   0.13607717 -0.23597214
 -0.12663846  0.08359386 -0.24663615 -0.26359838  0.20543566  0.10137034
 -0.23034418 -0.28571558 -0.08209168 -0.10447022 -0.11650299  0.2402513
 -0.16770218 -0.2149693  -0.23543923 -0.28868437  0.1778532   0.20102178
 -0.00304746  0.11898343  0.00463593  0.2897653 ]
[ 0.03610659  0.00176691  0.22027625  0.05763115 -0.28375632  0.26049885
 -0.31694296 -0.16355036  0.09637211 -0.00870323 -0.25770754 -0.07920429
  0.19777785  0.18357848  0.0204013   0.23309393 -0.17400394 -0.20890512
  0.09121102  0.2802236   0.00262232  0.21086615 -0.07494319 -0.00885092
 -0.22607514 -0.12867193  0.2635356  -0.2363152   0.10275006 -0.16403197
  0.17974998 -0.1791291  -0.209065    0.07083859  0.12078318  0.1973786
  0.1306357   0.22576274  0.11169188 -0.06975245]
[-0.11824911  0.01015531 -0.26019353 -0.11121732  0.05220532 -0.34846848
  0.16683404 -0.00438952 -0.30743694  0.15211327  0.02998109 -0.24479394
 -0.0231816  -0.0857656  -0.01686239 -0.35676852 -0.10821243 -0.03760516
 -0.23526411 -0.0224241   0.20723298 -0.1585002  -0.17541379 -0.1781791
 -0.35994697  0.06584217 -0.20680317  0.27149287 -0.06008153  0.09531623
  0.04125566  0.20501682 -0.16989906  0.11497088  0.18149567  0.34097067
 -0.03140418 -0.3308453   0.04586242  0.2572216 ]
[-0.16310073 -0.07016271  0.16922349 -0.23896088  0.06394027 -0.2601054
 -0.10285995  0.10915758 -0.20226967  0.10992254  0.18304156  0.2853613
  0.04519799 -0.2032675  -0.03893346  0.05459719 -0.03867949 -0.19880684
 -0.29726148 -0.17308255  0.08449279  0.01441346 -0.01780568 -0.01450157
  0.31588933  0.10292763  0.02022048 -0.16082385 -0.11204676 -0.14654104
  0.0445901  -0.26658022  0.16970319 -0.11683476 -0.07201349  0.13569596
  0.04570748 -0.13257243 -0.04067946 -0.30891088]
[-0.17672436 -0.2998664  -0.33825734 -0.28250825  0.03072479 -0.12818839
  0.05743468  0.24064487  0.15899593  0.12737833  0.29317492  0.21185055
  0.3170646   0.03235518 -0.3240868   0.02603412  0.02438106 -0.11093416
  0.22892806 -0.04224335  0.14986347  0.05254909  0.22433542  0.17935166
 -0.08877845 -0.30316246 -0.14994593 -0.16836567 -0.0468301  -0.24028572
  0.00129225  0.16126806 -0.00061416 -0.11093216  0.1721599  -0.27282923
  0.09761695 -0.28483948 -0.04157323  0.19049104]
[ 0.07274012 -0.01364851  0.34073022 -0.02569808  0.06886301 -0.28062096
  0.03777004  0.16235583  0.2801385  -0.26789117  0.2761518   0.09056981
 -0.15181497 -0.09310503  0.04384987  0.1229272   0.10217328 -0.06379655
 -0.15665561  0.18569891  0.06864682  0.19595313  0.01781382  0.20286578
  0.17152232 -0.04811427 -0.1745153  -0.02400081 -0.35796037 -0.27489284
 -0.14316273 -0.003511   -0.0602426   0.0421898   0.00809263  0.3147331
 -0.04047918 -0.29236475 -0.01458197  0.23738162]
[-0.21400417  0.02023494 -0.14485656 -0.10202337  0.1015628   0.02618839
  0.20181751 -0.1858195   0.0192414   0.3130947  -0.04348871  0.09312962
  0.07631469  0.12849063  0.04280124 -0.10676371  0.01232965  0.04423657
 -0.23255716 -0.32513142  0.28098956 -0.16977029  0.25625905  0.10883979
  0.32063088  0.21018709  0.25300694  0.04363084 -0.32643804  0.21552403
 -0.3302827  -0.09095485 -0.07620873 -0.01343223  0.18748637 -0.15441582
  0.18666348  0.11426122  0.23991416  0.01172071]
[ 0.03753719  0.06079343  0.2283144   0.30229467  0.2989937  -0.09277005
 -0.00675587  0.02716435  0.2687212   0.22216162  0.32116923 -0.00353272
 -0.21008334  0.17753166 -0.02400385  0.02159154  0.06762422 -0.19746308
  0.32338545 -0.17693758  0.03943771  0.21037333  0.23731971  0.2542552
  0.22558607 -0.25271904  0.21449493  0.3121586   0.00141131 -0.20244011
  0.07830872  0.11989707 -0.12727812  0.19052641  0.20994262 -0.03374504
  0.05987977 -0.15623115 -0.27785343  0.195786  ]
[-0.30553067 -0.12086976  0.25028673 -0.16123746  0.14621668  0.00291349
  0.06464823 -0.22755638  0.09978609  0.11423436 -0.0355042  -0.1346615
  0.24920548 -0.2466384   0.10449724  0.03369991  0.24775618 -0.12933195
  0.06305628  0.00249177  0.11785055  0.02808518  0.20533377 -0.08173764
 -0.21234304  0.17348444  0.2812592   0.27265608 -0.07368729  0.2203552
  0.02700225 -0.22322594 -0.1563726  -0.05625935 -0.12192734  0.1756751
  0.03444138 -0.10865232  0.2919922  -0.1963253 ]
[ 0.10536636 -0.22007035  0.06772082 -0.19141585 -0.01895831 -0.11019415
  0.04678223  0.2596934  -0.10874237 -0.21772264  0.2276386   0.17614168
 -0.11894547 -0.2899705   0.07223239 -0.11995244  0.2227223  -0.08403494
  0.16453697 -0.25832912 -0.31451645  0.12688768  0.1315652   0.13178225
 -0.08893109 -0.12607138  0.11934549  0.05923481 -0.29673573  0.13095437
 -0.37522465 -0.10984956  0.21549535 -0.28124377  0.1274842   0.08464637
 -0.1465177   0.05906545 -0.067683   -0.25209647]
[ 0.1066162   0.06914082  0.3284591   0.0827764   0.23253687  0.20326987
 -0.02458232  0.308902   -0.2679643   0.09102498  0.09508526  0.12759522
  0.07143213 -0.17988361 -0.1848765   0.34410968  0.04257955 -0.29449227
  0.03231103 -0.10059148 -0.0800831  -0.23474285  0.2890014  -0.12201937
  0.13261227  0.02513356  0.27170986  0.19638649 -0.0072042  -0.08241913
 -0.2220821   0.17915134  0.18288088  0.31863937 -0.17536336 -0.33617905
  0.05887112  0.29714397  0.14324676  0.04534673]
[-0.24270406 -0.29105005  0.18630645  0.31264856 -0.03796622  0.13405932
 -0.0631787   0.14570057  0.10314713  0.13187966  0.01947726  0.26276055
 -0.13924298 -0.03182281  0.13366462  0.14422229 -0.20065857 -0.3157347
 -0.23271208  0.20387773  0.06429871  0.3301385  -0.24849792 -0.25504923
 -0.12416532 -0.25815624 -0.13380937  0.19858153  0.12755877 -0.05034472
  0.27953514 -0.00682132 -0.27160916 -0.08652937  0.03088806  0.38337266
  0.22383359  0.12861525  0.17866957  0.15251203]
[-0.1275477   0.01578779  0.10389108  0.08475377  0.03131167 -0.253091
  0.15645325 -0.04202013  0.25861275 -0.31384692  0.01849653 -0.07829326
  0.01577782  0.0597416  -0.066174    0.15507044 -0.02991171 -0.07137747
 -0.21539626 -0.10124338 -0.04576043 -0.15958036 -0.01067737 -0.23654705
  0.27916086  0.28281102 -0.01490054 -0.22930895 -0.0752008  -0.04123877
 -0.07795111  0.14204726 -0.11519136 -0.09047509  0.11702065 -0.26063198
 -0.09340762 -0.09450675 -0.3140705  -0.08375367]
[-0.11829959  0.10239786  0.16419837  0.222781   -0.26099443  0.19446996
 -0.2492038   0.30596584  0.01317956  0.12820914  0.03449795  0.15832552
 -0.2391055   0.18379487 -0.21007115 -0.19991316 -0.17848834  0.2264578
 -0.21690482  0.20569125 -0.07067498 -0.04536145  0.23829715 -0.2911177
  0.16258775  0.07075772 -0.00220927 -0.16863261 -0.15524459  0.04511651
 -0.25161454  0.29311547  0.2508143  -0.09498861 -0.04071213 -0.22568448
 -0.10210788 -0.26621583 -0.18311204 -0.08380463]
[-0.26511925 -0.05246089  0.1216701   0.27646777 -0.12637787  0.18801364
  0.14517531  0.09875497  0.00898467 -0.21068218 -0.10553605 -0.10844469
  0.28241044  0.301327    0.09873404 -0.17364118  0.04357355  0.08847539
 -0.01652672  0.04704961  0.06791892 -0.20880929 -0.15905818 -0.28647187
 -0.01632783  0.113773   -0.12493079  0.2615719  -0.18343607 -0.00852466
  0.2615196   0.27217484  0.05198319  0.21286595 -0.09886551 -0.20033655
 -0.09466033 -0.0066774   0.0278442  -0.25042063]
[-0.00230722 -0.05944019 -0.00436219  0.01052714  0.01263995 -0.02124218
  0.02722675  0.01152422  0.00468057 -0.00369771  0.0074018   0.04829758
 -0.0063443  -0.07192373 -0.00086049  0.03832092  0.00127221 -0.02201039
 -0.00118848  0.03374056  0.00781716  0.00259951  0.03564961  0.01531671
 -0.01859152 -0.00801277 -0.02432875 -0.00114483  0.05177579  0.00771944
 -0.02951069  0.02757644 -0.01011042 -0.0275988   0.01992101 -0.01810086
  0.01412552  0.00788193 -0.00472326  0.01396321]
layer 3 Activation
tanh
layer 4 Dense
40 20
[ 0.11190571 -0.15304273  0.09502102 -0.08082892  0.12908788 -0.18845552
 -0.1663267   0.1893114  -0.34422377  0.02884911 -0.1637852   0.17776515
 -0.17814001  0.02485437 -0.14481364 -0.27245754 -0.13183618  0.14307487
 -0.07938705 -0.1264375 ]
[ 0.19075046  0.29981107 -0.09233672 -0.0541952   0.23011647 -0.11879719
  0.2211044  -0.19249837 -0.01149835  0.07203501  0.08044215 -0.28031453
  0.00933514 -0.16100457  0.15657112 -0.0781204  -0.03334562 -0.1592675
 -0.2504412   0.08290429]
[-0.00733653 -0.26065862 -0.1623792  -0.01830791 -0.03797296 -0.32030016
  0.17966901 -0.27346513  0.20622422 -0.15524866  0.26135346  0.20463985
 -0.17503345  0.29891703  0.19910352 -0.07251015  0.18498623 -0.22608969
 -0.26053727 -0.19782642]
[ 0.0392058   0.14003056 -0.23917077  0.18438229 -0.3180455  -0.20140429
  0.06013992  0.25626945  0.0127686  -0.09874739 -0.05635398 -0.2386242
 -0.03292955 -0.268986    0.2789993  -0.08139587  0.14645173 -0.19358991
  0.10455127  0.29460213]
[-0.15005721 -0.1409205   0.09270475 -0.273261    0.3252156   0.00679541
  0.08365531  0.02001375  0.09352205  0.0892051  -0.13090122 -0.26342157
 -0.1285729  -0.23238644 -0.04155467  0.2979696   0.27464303 -0.24240655
 -0.25137    -0.10758789]
[-0.26316762  0.22354907  0.12542307 -0.10350179  0.1366609  -0.19202004
  0.2571586  -0.045508   -0.22214054  0.03049443  0.2526681  -0.09981392
  0.20110609 -0.01728528  0.23728776 -0.18345113 -0.20162755  0.26834035
  0.08269055 -0.1374742 ]
[ 0.22275455 -0.02802243  0.03245261 -0.07757848  0.26462212 -0.27275303
  0.13452587  0.06560338 -0.09287876  0.28397945 -0.13126525 -0.17410158
  0.02713326  0.13666865  0.3109769  -0.2648545   0.16426699  0.02914012
  0.25091475  0.06983614]
[ 0.3410309   0.04673794  0.23194112 -0.1192581  -0.1098496   0.10891184
 -0.08715557 -0.17145747  0.07544074  0.14494762 -0.06342132 -0.30352414
  0.23708084  0.16635016 -0.01219961  0.09084648 -0.07169709 -0.09297243
  0.12702455  0.22205813]
[-0.00474213  0.07457329  0.18669614  0.06653054 -0.32766968  0.18897435
 -0.0896204  -0.19489767  0.26059127  0.27582118  0.23344667 -0.2129081
 -0.12873504 -0.26850682 -0.05337689  0.1089982  -0.00759953  0.03259334
  0.34226865 -0.27378926]
[ 0.18722011 -0.23095514  0.29681873 -0.12304486  0.05053032 -0.26530448
  0.12389226  0.11256815 -0.29581872 -0.26166877 -0.06277809 -0.13904095
 -0.18375625  0.04478794  0.07914418 -0.15955359  0.01283762 -0.26816025
 -0.04240174  0.18376274]
[-0.29683954  0.27383816  0.10297999  0.11423445  0.19879673  0.14044182
 -0.03844021  0.13260508 -0.06745882  0.05852177 -0.1692043  -0.092414
 -0.21034183 -0.06352592 -0.0306353  -0.32021254 -0.16168752  0.08942565
 -0.04431592  0.22846965]
[-0.12794863  0.2278295   0.17530341  0.03430749 -0.09790996 -0.12485185
  0.13242373  0.07039674  0.08276781  0.06908791 -0.03621573 -0.12321126
 -0.09652478  0.06934141 -0.27163112  0.2615027   0.04240708 -0.07930211
 -0.28881887  0.2223804 ]
[ 0.07432143 -0.13598605  0.1691042  -0.08211353  0.05696523  0.2663368
 -0.07238807 -0.12507717 -0.19304752  0.06675558 -0.04891801  0.1294179
 -0.1713532  -0.23832852  0.14881723 -0.32377738 -0.0488667   0.03698606
  0.07505948  0.05328398]
[-0.1880806  -0.23214716 -0.07181831  0.21244349 -0.04050941 -0.26070753
  0.04573287 -0.27730253 -0.01971071 -0.32004535  0.03249379  0.323568
  0.00184999 -0.32227468 -0.06113199 -0.24224275  0.24234584  0.19930215
 -0.07691237  0.0556819 ]
[-0.04778107 -0.14768459  0.0020752   0.10316103  0.01815939 -0.1832082
  0.1654118   0.08115079 -0.05592551 -0.01177105 -0.10820755 -0.349556
  0.18023318  0.19200452  0.17510623  0.30924636  0.22761424 -0.13707438
 -0.36775196  0.23739317]
[-0.1459411  -0.2868004   0.23879172 -0.21366642  0.17623536 -0.12408554
 -0.07893308 -0.07347056  0.01748802 -0.16956235 -0.24792258 -0.19073008
  0.00856822  0.00172976  0.11227345  0.03332705  0.1412174  -0.16209903
 -0.05898635  0.01389438]
[-0.3267744  -0.04065865 -0.18106428  0.2049472   0.19596343 -0.11700482
 -0.14945517 -0.20207323  0.12331242  0.26368088 -0.29370323  0.26512325
  0.13167326  0.0286148   0.09469698  0.02718502 -0.10178769 -0.10929136
 -0.04903222 -0.15451126]
[-0.17557098 -0.24024741 -0.12650543  0.24140872  0.25643605  0.01580373
 -0.03819019 -0.0722506  -0.18257701 -0.22048272 -0.15600578 -0.00970444
  0.18120593  0.20994765 -0.20850189  0.24755198 -0.03900515  0.24331428
 -0.25915948  0.1505188 ]
[-0.21151417 -0.14419283 -0.03782091  0.11003762  0.1526447  -0.01654025
  0.137272    0.12655409  0.04433744  0.10054108  0.10727159  0.23384032
  0.09408244  0.22522882  0.29210567 -0.00705643  0.07840855  0.11843064
  0.24002995 -0.11729421]
[ 0.13232492 -0.01223541  0.15440322  0.13244057 -0.29771066  0.02607276
 -0.29497606 -0.08552714 -0.06662036 -0.16627021 -0.06889808  0.1835154
  0.1331462   0.1222846   0.06230501 -0.05588887 -0.11915605  0.01274656
  0.28151873  0.02353076]
[ 0.12927927 -0.00175144  0.07257447 -0.15471068  0.10804079  0.16187997
 -0.14029405  0.13340893 -0.02793327  0.33146453  0.20885713  0.04100242
  0.14749493 -0.00445066  0.22187416 -0.19586933  0.17964704  0.10924654
  0.02651124  0.20939855]
[ 0.10356025 -0.2671201   0.1443637   0.27339956 -0.29746538  0.05922592
 -0.15518486 -0.07410532  0.01684978  0.14954063 -0.16781738 -0.28045392
 -0.23630902 -0.12464148 -0.00493618 -0.06490689  0.30138406  0.07865188
  0.22380379  0.20154195]
[-0.22558661 -0.234695    0.27488855 -0.14083816  0.1884702  -0.33035898
  0.21995492 -0.10923113  0.01293906  0.20468578  0.09813533  0.19022028
  0.15149875  0.05762194  0.14866897  0.17237069 -0.06645581 -0.13826673
 -0.16774842 -0.22750117]
[ 0.28606677  0.10545237 -0.11985402  0.24993813 -0.06331486  0.21819255
  0.059346    0.11929949 -0.26540267 -0.24637978 -0.16506223 -0.11908843
 -0.01332224 -0.1653729   0.1339386  -0.19880666  0.04944235 -0.13918374
 -0.22278342  0.10938174]
[-0.18776695 -0.25270745  0.12922922  0.21061213 -0.15642698 -0.31641108
  0.21014044  0.0997472   0.05939316 -0.2349088  -0.07965074 -0.18454084
  0.21217787 -0.272437   -0.06623878  0.16470261  0.01527594  0.14657456
  0.2573257  -0.2234478 ]
[ 0.21293686 -0.15976316  0.11078086  0.17818515 -0.24389347 -0.18758169
 -0.363089   -0.22137007 -0.10281859  0.24591765 -0.11891086 -0.2510812
  0.18855813 -0.1969725  -0.15587623  0.0873338   0.13722768 -0.13469398
  0.21495633  0.1596676 ]
[-0.34437594  0.10511771 -0.22319044  0.25651726  0.25742123 -0.00090043
  0.3041454   0.1738973   0.2556143   0.13288029  0.2187982  -0.2001956
 -0.03137328 -0.30478612  0.01936153 -0.03011702  0.12961039 -0.14155506
  0.02870962 -0.1578145 ]
[ 0.14709033  0.23128052 -0.24326044  0.0269719  -0.33324993 -0.25042725
 -0.15052731  0.04318996  0.18567212 -0.09025269  0.01915426  0.24767993
 -0.04502804  0.3373439  -0.14218073  0.05269938  0.0448061  -0.16355397
 -0.03614387  0.16223595]
[ 0.25311166 -0.24859393 -0.22316025 -0.05886295 -0.23787768 -0.03557227
 -0.12909493 -0.0061016   0.29557416 -0.05992702  0.01229758 -0.16095643
  0.14610662 -0.22622691  0.13428904  0.33326668  0.15185837 -0.25924054
 -0.09505409 -0.245495  ]
[-0.11397267 -0.09631846 -0.13686177  0.20382988  0.14686827  0.00971292
 -0.09403067  0.08801851 -0.1365286  -0.04496013 -0.2586571  -0.19895689
 -0.18810102 -0.0732595   0.0643152   0.05696185 -0.10945471 -0.1509914
 -0.1241314  -0.2631287 ]
[ 0.12961148 -0.27564773  0.05114472 -0.02447883  0.27791134 -0.03319247
  0.02239675 -0.19724746  0.09118567  0.07263513  0.2805138  -0.07899084
  0.01850924  0.1923602  -0.23262942  0.07725005 -0.13542521 -0.14100367
  0.19389512  0.10745881]
[ 0.0619816  -0.18761247  0.00293322 -0.05410918 -0.20311898 -0.14309981
  0.21836615 -0.07005548  0.25336117 -0.09583326  0.09400982 -0.10686626
 -0.20401499 -0.19544579 -0.17825903 -0.20053601  0.25429913  0.27694574
  0.29526252 -0.15294795]
[ 0.32214713  0.03071453 -0.0232811  -0.2684768  -0.13445526  0.13754952
  0.06232325 -0.00066564 -0.03457229  0.18449292 -0.08260592  0.09473975
 -0.06404067 -0.17090896 -0.15769942 -0.14694971 -0.2550445   0.11580303
  0.09706023 -0.21259117]
[-0.2600616  -0.04683907 -0.08562303  0.07424749 -0.2433722  -0.12668908
 -0.07053038 -0.2771887   0.2297939  -0.07406919 -0.09927617 -0.21129979
  0.28721157 -0.04320672  0.24180512  0.21570928  0.06052561  0.15533303
  0.0742822   0.20363908]
[-0.3034246  -0.12328235 -0.21691066 -0.24746978  0.12210423  0.21630359
 -0.14981201 -0.10939951 -0.00206323 -0.04573859  0.09350985 -0.09123081
 -0.2594569  -0.08010314  0.19404396 -0.30715942 -0.02928793  0.12480377
  0.02239136  0.1534083 ]
[-0.3010424   0.13638932  0.01084341  0.14974491 -0.30472502  0.27217218
 -0.10208035 -0.06416214 -0.1422162  -0.29256856  0.28747284 -0.05579922
 -0.30548435 -0.03427462 -0.17377336 -0.05583433  0.13690706  0.2610679
 -0.27955925  0.2024781 ]
[-0.16305739  0.24974114  0.00886715 -0.24262339  0.1311225   0.1466116
  0.04383897 -0.21535076  0.26067355 -0.10396416  0.05743853  0.23717248
 -0.11912821 -0.20077498  0.24184296  0.1967077   0.14647725 -0.03934489
  0.30298716 -0.21428642]
[ 0.17496976  0.15318409  0.17064446 -0.08770586 -0.2423831  -0.25379866
  0.13688174  0.26749206 -0.21113673 -0.15662986 -0.22309856  0.07816318
 -0.00870898 -0.22496174  0.17960839  0.15344852  0.37238267  0.15746999
  0.18049374 -0.24966037]
[ 0.08265351 -0.09154733 -0.34561238  0.2157208   0.02994185 -0.19456539
  0.00614977  0.26502013 -0.32158345 -0.14057636 -0.35504076  0.08592844
 -0.16023578  0.05064993 -0.05383296  0.21576656 -0.10281852  0.21375231
  0.15549074  0.21445817]
[-0.19295259 -0.111908    0.34164923 -0.06614517  0.19064255  0.1414817
  0.1817278  -0.22881639 -0.23221816  0.04399369 -0.2115404   0.02959204
 -0.11555129 -0.0007043   0.3251086  -0.285528    0.1836448  -0.27183077
 -0.24609885 -0.15914093]
[-0.00557572  0.00212839 -0.00672656 -0.00857699 -0.01910471 -0.00224776
 -0.003503   -0.01756837  0.006174    0.01586024 -0.0188748  -0.01814998
 -0.01237384  0.00328042 -0.00280607 -0.0078985   0.00294678 -0.00892966
  0.005793   -0.01119844]
layer 5 Activation
tanh
layer 6 Dense
20 1
[0.12445514]
[-0.01345034]
[0.18844453]
[0.15772778]
[0.17226554]
[-0.23175664]
[-0.2859137]
[0.19443068]
[0.31876242]
[-0.07663873]
[0.03357652]
[-0.00095343]
[-0.24607396]
[-0.09996483]
[0.14127539]
[0.02499823]
[-0.26418394]
[0.21923646]
[-0.08007139]
[0.00592822]
[-0.00937499]
