layers 7
layer 0 Dense
20 20
[-0.8183865   0.26922405 -0.53170997 -0.28312236  0.2731807   0.04903691
  0.05823176 -0.30209023 -0.03136492  0.16563497  0.33938435  0.17436647
 -0.05849152 -0.2504321   0.26358953 -0.3468266   0.11871467  0.13930301
 -0.17747454  0.4000379 ]
[ 0.15964651  0.34590578 -0.18231001 -0.00647002 -0.202907   -0.07231012
  0.2633859   0.25093943  0.03499672 -0.29991966 -0.21642609  0.32145864
 -0.1831178   0.17320901  0.10329682 -0.11454695 -0.29626176 -0.01010007
 -0.33498326  0.16821897]
[ 0.165654   -0.13505518  0.06574398  0.16822618 -0.11502278  0.2904685
  0.30026382 -0.12743306  0.33348107  0.04169619 -0.04896614 -0.35091507
  0.15341067  0.15431398 -0.02479905 -0.1984292   0.1765607   0.00685868
  0.07713076 -0.13522953]
[-0.61895233  0.2868819  -0.05079925  0.20122978 -0.20697115 -0.08993517
 -0.0946817  -0.10413855 -0.28114894  0.28241885 -0.5252925   0.15306826
 -0.16575508  0.3482691  -0.17831564 -0.33740824 -0.06586701 -0.40197888
  0.17473935  0.21827297]
[ 0.24271667  0.11570952 -0.7119097  -0.27252096 -0.11249059 -0.18674742
 -0.04619965 -0.1783455  -0.20409217  0.2963924   0.07564662 -0.216625
 -0.02214663  0.13951728  0.39178485  0.2098437   0.24282931  0.14446223
  0.03559893  0.01388263]
[ 0.24124962  0.18312627  0.19530278  0.31976843  0.25282288  0.2638545
 -0.33191428 -0.0561735  -0.15716155  0.1675545  -0.3286037  -0.10361972
  0.20638329  0.02664945 -0.15301055  0.3484391   0.23098624  0.09256405
  0.07934073 -0.20108376]
[-0.3458319   0.05223051  0.3309464   0.0334819  -0.06881887  0.25460672
  0.13599199  0.04935184  0.10584491  0.17047942 -0.1627585   0.16147703
  0.11235344 -0.16657996 -0.12071133 -0.20599186  0.34478784  0.20826572
  0.29648447 -0.13495943]
[ 0.5297313   0.09577332  0.66776866 -0.14651994 -0.19880934  0.21329089
  0.4208307   0.09412643  0.08170373 -0.28754085 -0.09827454 -0.24794567
  0.02222278 -0.52591413 -0.02205838  0.17811885 -0.02288748  0.02562636
  0.3743384  -0.5131625 ]
[-0.05511817 -0.09834985  0.36613357 -0.05751497 -0.19123136 -0.04875167
 -0.06730453 -0.43469083  0.5500088   0.07176872  0.5194537   0.04326668
  0.48735347  0.01837557  0.01427952  0.19093761  0.20072703 -0.05492244
  0.33020547  0.4203251 ]
[-0.15347172 -0.14930959  0.12741618  0.7058289   0.46449476 -0.54838604
  0.14524193 -0.2058112  -0.28688538 -0.16384813 -1.0514638   0.11955797
  0.81631637  0.3711553  -0.14327455 -0.42090032  1.4485023  -0.10435753
 -0.33253178 -0.23751199]
[-0.13869011 -0.01076192 -0.22754343 -0.46732953 -0.09538738  0.09155781
  0.20118901 -0.03851153 -0.9967025   0.12767065 -0.5439324   0.6946884
  0.44344953 -0.18687187  0.36614516  0.34666547 -0.58174884 -0.24620727
  0.4342734  -0.13487956]
[-1.0078331  -0.47705525 -0.06769294  0.3202959   0.6935934   0.34600365
  0.31276578  0.48049468 -0.08770873 -0.4370521  -0.6560377   0.13336568
 -0.90310675 -0.7013845  -0.34773248  0.4583029  -0.26897538 -0.73272145
 -0.37914184  0.36364868]
[ 0.8690484   0.41573682  0.47666156  0.11928351  0.20980301 -0.48193565
 -0.20492633 -0.43042225  0.18362504  0.4835716   0.1504202   0.6356042
  0.34378174  0.23641604  0.15816781  0.31155044  0.29394466  0.49998382
 -0.07664616 -0.17788215]
[-0.09659561 -0.33246458 -0.01993794  0.33377972 -0.7820713   0.01015709
  0.20217256 -0.07841535 -0.38469946 -0.03682456  0.29272163 -0.21495916
 -0.51642597  0.16606018  0.00937977  0.08638602 -0.23023742 -0.1736519
  0.1881765  -0.24062265]
[-0.08476606 -0.00164761 -0.03391096 -0.3534493  -0.41463816  0.47672346
  0.23122437  0.10820859  0.4579874   0.02741398  0.2118573   0.4464677
 -0.28955904 -0.1747152  -0.01991299 -0.49123928  0.12699798 -0.17526802
 -0.6704706  -0.22292468]
[ 0.29770318 -0.2380652  -0.14051448 -0.52769345  0.4560412  -1.049034
  0.9746874   0.5877207  -0.22780119 -0.99869704  0.14108185 -0.32130045
 -0.15467028 -0.49983886 -0.50677085  0.9976972   0.22187316  0.6759365
 -0.29494056 -0.8216226 ]
[-7.42017090e-01  7.98062325e-01 -1.12818289e+00  4.18878011e-02
 -5.80983125e-02  2.22712472e-01 -3.21246803e-01  1.39626056e-01
 -1.65018469e-01 -1.68415502e-01  8.47155154e-02 -1.11665405e-01
 -2.89071858e-01  2.30011821e-01  1.86929509e-01  4.16268073e-02
 -4.05239582e-04 -6.74826682e-01 -1.59077764e-01 -3.14809978e-02]
[-0.03842041  0.8986353  -0.46168128 -0.98704726  0.9842321   1.057244
 -0.6209485   1.0284461   0.35395476  1.4206861   0.23481943 -0.07111824
 -0.13474363 -1.0704899  -0.20700325 -0.13087481 -1.0376699   0.98608524
  0.03239024 -0.36541244]
[ 0.13113713 -0.2870502   0.10197736  1.3365926   0.27963006 -0.6944378
 -0.4300358   0.6421533   1.0567211   0.21749818  1.0829042  -0.9021739
 -0.22203703 -0.4306494  -0.8328632   0.9099363   0.7195058   1.1768926
  0.76245767  0.00468462]
[ 0.46557868  0.81829226  1.3143058   0.8814709  -0.28150502  0.6598978
 -0.36127198 -0.28868157  0.11421704  0.71285754  0.29063943 -0.53965515
  0.2045324   0.4653537   0.4552204  -1.0966972  -0.41050872  0.22859375
  0.29271233  0.44535497]
[-0.23107369 -0.05491215 -0.10787144 -0.02003985 -0.02920551  0.10043564
 -0.06690667 -0.04191459 -0.05219577  0.14841358 -0.20819153  0.1266274
 -0.01885724  0.09503906 -0.14128225 -0.13684583  0.19229105 -0.17504403
  0.01753715  0.18732662]
layer 1 Activation
tanh
layer 2 Dense
20 40
[-1.1435524   0.25830948  0.10132585 -0.30629542  0.04774587 -0.20052704
  0.83363074 -0.22549428 -0.2971688  -0.17863712  0.15399815  0.65239793
 -0.5303637   0.06501266  0.19521783  0.1743739  -0.32843438 -0.5802238
 -0.19400202 -0.42753014 -0.49217921  0.22234958  0.33829284  0.4789853
 -0.4876911   0.5607286   0.29644805  0.6169467   0.5965841  -0.17510563
  0.1440308  -0.8234372   0.3163104  -0.80663884  0.7179222   0.37008145
 -0.6468046  -0.16612199  0.26362422 -0.22444971]
[ 0.5321509   0.14006875  0.063357    0.04393547  0.19125783  0.34582582
 -0.45462358  0.10717476  0.3988914   0.06141416  0.26624072 -0.08296818
 -0.2412266  -0.13884066 -0.06023913 -0.11831857  0.02135953 -0.31958517
  0.09207943 -0.07921637 -0.1481831  -0.02949989 -0.2609502   0.17199825
 -0.5805679  -0.1312044  -0.05759727 -0.47830027 -0.12454363  0.8587576
 -0.16626792  0.16268213 -0.08955161  0.07598634  0.1966842   0.18202087
 -0.38018662 -0.1986467  -0.3331272  -0.25209492]
[ 0.04431583  0.13669516  0.17064013 -0.48518398  0.29197273  0.41387957
 -0.0748415  -0.42483115 -0.00188701  0.43665147 -0.08079553 -0.22059664
  0.02613527 -0.32903102 -1.1290852   0.85549647  0.20261979  0.10340548
 -0.5512271  -0.13526107  0.22452447  0.03619326 -0.05656218  0.24113224
 -0.5130409   0.90935916 -0.3244387  -0.32933632  0.62410295 -0.22511753
  0.24222812  0.10492449  0.17407356 -0.46379638  0.5141232  -0.02738637
 -0.35179633 -0.9776044  -0.2130269  -0.38250792]
[ 0.40047026 -0.14323252  0.07368658 -1.4417282  -0.6503023  -0.40365732
 -0.59819764  0.6234951  -0.65169626 -0.04234093 -0.62407124  0.25031987
  0.02119225  1.3104346   1.1211687  -1.2183665  -0.8529257   0.20702192
 -1.0279647  -1.1050147   0.07740687 -0.3335046  -0.36736214  0.5707116
 -0.12855744  0.6636183  -0.78631264 -0.04708124  0.2656271  -1.5721372
 -0.422242    1.1014789   0.6872506   0.4909169  -1.0119587  -0.9836427
  0.32669693  0.05483738 -0.09219818 -0.503191  ]
[-0.34010178 -0.05773845 -0.80579066 -0.29589733 -0.2119789  -0.48527676
 -0.2522319  -0.02417504 -0.0444428   0.1926471   0.6148612  -0.2186266
 -0.2666622   0.09943981  0.49532008  0.11284539 -0.11520009  0.40089896
 -0.12113588  0.74028534  0.5409672  -0.1521164   0.03669213  0.44235215
  0.17653163  0.14246042 -0.5700319   0.43505105  0.07263156 -0.02886774
 -0.14963727 -0.40597188  0.4152599  -0.19843687 -0.21671632  0.23662992
 -0.493527    0.4217067  -0.17533283  0.19413705]
[ 0.10489362  0.0351586   0.20260109  0.5994077  -0.75303596  0.04217763
 -0.35313407 -0.4778492   0.74330616  0.1208985   0.39210817  0.10971694
 -0.10249033 -0.6654063  -0.18225378  0.6114345   0.42149135  0.03667544
  0.32557073 -0.84261334 -0.4687958   0.14521392  0.20480385 -0.16634804
 -0.93107176  0.29211652 -0.13361602 -0.26883206 -0.5016354   0.16257708
 -0.07159506  0.13984394 -0.06348976  0.13815919  0.14436442 -0.08765675
  0.27451485 -0.5951839   0.12139618  0.0970799 ]
[-0.4360773  -0.71761394 -0.1866284   0.00875102  0.56671387 -0.6099301
  0.25207803 -0.78943634 -0.23658235  0.27684897  0.58462936 -0.16801095
  0.0759272  -0.12945311  0.1152082  -0.06992764 -0.10693835 -0.15889862
  0.07571509 -0.0471208   0.17789812  0.24995433  0.3271238   0.16447116
  0.1075764   0.06637797  0.52992785  0.22931786 -0.29486713 -0.7701172
 -0.08052403  0.5911797  -0.3231465   0.00806976  0.2898461   0.16534792
 -0.37337646 -0.6475429   0.09565151 -0.12301749]
[-0.6679799   0.5266441   0.30501625  0.2784718  -0.72449666  0.3125217
  0.25719705  0.2668246   0.51325345 -0.19730021  0.15936382  0.66472673
  0.17696658  0.40555364  0.02621164 -0.51023316 -0.18741748 -0.52500117
  0.39896604 -0.13880774 -0.18965094 -0.52365345  0.55774766  0.33142716
 -0.13910858  0.23719144  0.1189582   0.26883748  0.06165832  0.80797535
  0.49411845 -0.821787    0.42672974  0.33613    -0.24669941 -0.6745448
 -0.12968794  0.07458567 -0.34819138  0.5120423 ]
[-0.20803633  0.43868265  0.02257226  0.03650053 -0.4340506   0.57675934
 -0.18888414 -0.48962417  0.63007945  0.45271146 -0.08511989 -0.08539397
  0.19596115 -0.3020216   0.6990532  -0.713134   -0.07789977 -0.31890458
  0.02220243 -0.15490107 -1.251421   -0.31973583 -0.4995953  -0.09584814
  0.21974394  0.30569702 -0.15899934 -0.42253914 -0.35729215 -0.23084912
  0.35234597  0.5191028   0.20147195  1.1302401  -0.08198518  0.11843064
  0.09865919  0.2314747   0.15586169  0.50611836]
[ 1.040511    0.6940167  -0.12467957  0.20074919 -1.2183814   0.23364583
  0.08252101  0.79613197 -0.00460777 -0.36699274 -0.17784172 -0.02393567
  0.08484738 -0.79905444  0.20442091  0.08013928 -0.37370694  0.4551188
  0.51577824  0.04840851  0.33213294  0.77146333 -0.7229442  -0.69112784
 -0.8637148  -0.30175564 -0.8879139  -0.40416244 -0.72050655  0.59929615
 -0.28896028 -0.34131655 -0.3441865  -0.44418773 -0.4618693  -0.94573975
  0.74667454 -1.449352    0.55432886  0.20678033]
[ 0.43425673  0.59020215 -0.02261024  0.4117573   0.42352965  0.35775822
  0.29155114  0.58113474 -0.42501375 -0.19376087 -0.58752525 -0.20043899
  0.2240254   0.20218875  0.2092177  -0.7636245  -0.6100952   0.82355493
 -0.00340937 -0.48237902 -0.5026856  -0.82290775 -0.26012367  0.05671813
  0.7153818  -0.06110436  0.15505286  0.3631246   0.28592876 -0.41749984
 -0.21546923  0.1693145  -0.49397054  0.38883865  0.2821809  -0.43652964
 -0.2763751   0.04536369  0.827656   -0.12731734]
[ 0.08772235 -0.36743936 -0.1647032   0.14124143  0.63985956  0.40479648
 -0.07064633  0.05732091 -0.0473162  -0.04924075  0.5027654   0.02315957
 -0.35444397 -0.13281623 -0.9703742   0.94136965  0.2452825   0.51416475
 -0.1919716   0.3073472   0.40007508  0.3921637  -0.30353191 -0.36210763
 -0.11394027  0.05462752  0.4587848   0.06718435 -0.09990318 -0.29967263
  0.40624368 -0.0536317  -0.17086977 -0.1444349  -0.2552169   0.47229627
 -0.05558128 -0.02209955 -0.13159102  0.08400138]
[ 0.1896371  -0.61413586 -1.0602527   0.46481988 -0.26716793  0.19836286
 -0.04296881 -0.29450172 -0.48805016  0.74225384  0.02702772 -0.21497776
  0.6482437   0.05622038 -0.7704106  -0.12080611  0.10416873 -0.25363714
  0.40489155  0.06159459  1.1817912   0.4848013  -0.49385023  0.31236675
 -0.04946218  0.2753225  -0.16557546 -0.04256395 -0.08848099 -0.02359166
 -0.09333697 -0.5218383  -0.5876361  -0.6940955  -0.12506592  0.2341821
  0.2914417  -0.54549825 -0.42237917 -0.23048553]
[ 0.27074128 -1.0225668  -1.0315961   0.3192411   0.8620257   0.5375153
  0.44760683  0.93211234 -0.1838233   0.1752156  -0.5658863  -0.81407523
  0.36559436  0.01251918 -1.2430159  -0.06656718 -0.2618335  -0.6844606
 -0.47586775  0.17418937  0.5868767  -0.15936032 -0.23060632  0.20674606
  0.8011573  -0.22891241 -0.01681077 -0.3843508   0.83390194 -0.18649146
  0.09629829  0.7442159   0.37466714  0.9467128   0.2987114   0.63734955
 -0.03841246 -0.30137926 -0.29993472 -0.64620984]
[-0.08557708 -0.4432608   0.2180861   0.3623629   0.10676105 -0.5287796
  0.16566645  0.25367218 -0.17537679  0.13967997 -0.4420391  -0.3284669
 -0.134566   -0.36090645 -0.4118001   0.7279301  -0.13459514 -0.2742981
  0.14784123  0.27671733  0.69859064  0.86706966 -0.22036843 -0.08616938
 -0.4501151   0.15772425 -0.06014071 -0.5391948   0.44191486 -0.13601063
 -0.06992628 -0.00920363 -0.6877064  -0.37926742  0.20270352  0.7874607
  0.16206528 -0.18281205  0.39873704 -0.5511606 ]
[-0.3800004   0.16349156 -0.2309024  -0.48585814  0.5446973   0.11083937
  0.26638168 -0.0506051  -0.17792352 -0.12693033 -0.3178436   0.05051116
 -0.45175704  0.25765404  0.6819893  -0.25993392 -0.1438174   0.15823415
 -0.19821492  0.5900053  -0.07724033  0.08081351  0.2326628   0.23543753
  0.13963838 -0.32695374  0.01127322  0.39732513 -0.13871482  0.03385422
 -0.04233219 -0.5945263  -0.06017175 -0.07330405 -0.02722933 -0.21564157
 -0.3076162   0.9166604   0.40562588  0.5086091 ]
[ 0.09185889  0.28449777 -0.51212454  0.12964265  0.6446307   0.48415652
  0.26338145 -0.2335749   0.01266298  0.3657872   0.19342801  0.27631024
 -0.28080335  0.36549515  0.30876178 -0.44993642  0.21631996 -1.0756198
 -0.42388216  0.08188297 -0.25175014 -0.08594065 -0.40347722 -0.06375892
  1.6088932   0.3009537  -0.04733205  0.07328056 -0.30477634  0.42134017
 -0.1058332   0.09211777  0.7355411   0.80475503 -0.46243507 -0.17689933
 -0.32186553  0.66073287 -1.312731   -0.26105058]
[-0.49627605  1.0993348   0.42306957 -0.25948572 -0.29689935  0.5116677
  0.29485863  0.1944108  -0.1181998  -0.23417382 -0.14918539  0.13759743
  0.0636804   0.6675759   0.7591174  -0.20827037 -0.25671     0.39307168
  0.3290929   0.14773275 -0.40292963  0.27299935  0.00115824  0.17509706
  0.03925824 -0.75236803 -0.39185297  0.17238043 -0.7873677   0.30688095
 -0.19633937 -0.04591579  0.16245535  0.5212662  -0.6216147  -0.7991732
 -0.23670156 -0.65435964  0.7095946   0.26982653]
[ 0.3913635   0.05071776  0.11034719  0.4576948  -0.20953755 -0.14580491
 -0.0923894  -0.251566    0.02627775 -0.32886386 -0.01620849 -0.5740861
  0.06719911 -0.24427211  0.12516448  0.20654969 -0.42804423  0.80281985
  0.31627816  0.21682012  0.19653942  1.0223408   0.2511542  -0.5002167
 -0.66971534  0.24368274 -0.49814248  0.3429325   0.13964151 -0.12409797
  0.2888578   0.16306119  0.00876244 -0.15892531 -0.06205001  0.22766633
  0.28051004 -0.6339446   0.26427487  0.14372794]
[ 1.1043774  -0.10432916 -0.11488623 -0.32127464 -0.23983331 -0.51790357
 -0.5893193   0.5861823  -0.5212475   0.510027   -0.72650576  0.24955781
  0.18707529 -0.26929402  0.23199841 -0.6741476   0.11337273 -0.12753096
 -0.00853427 -0.04639292  0.17350914 -0.16257595  0.02895652 -0.12718855
  0.01351673  0.05673579 -0.04009223 -0.33346984 -0.22794351 -0.31780463
 -0.19047727  0.2682457  -0.41677046  0.20305774 -0.04810836 -0.32531434
  1.3840299  -0.0038134  -0.0167945   0.19775742]
[ 0.8148664   0.0428623   0.04443957 -0.13056363  0.27027696 -0.34571895
 -0.2471091   0.5591032   0.18973121  0.06899032 -0.16719197 -0.34336752
  0.31948575 -0.20337167 -0.3361853   0.31434762  0.18855013  0.49758327
 -0.2062467  -0.11388762  0.2981669   0.03053359 -0.5808595  -0.2862553
  0.3494751  -0.37633148 -0.07852507 -0.43431512 -0.4439767  -0.27640006
  0.1345875   0.4668484  -0.04128237  0.41876438 -0.4827181  -0.3947524
  0.36392733 -0.53043544 -0.26023254  0.3242262 ]
layer 3 Activation
tanh
layer 4 Dense
40 20
[-0.3007337   1.038524    0.41769364  0.5289455  -0.05933614 -0.20680201
 -0.14648746 -0.20747314  0.00148061  0.02309331 -0.3248111  -0.12642696
  0.13029589  0.6776226   0.42749748 -0.85350263 -0.13501647 -0.03067765
 -0.48458156 -0.29531807]
[ 0.7042979  -0.41677234  0.34457323 -0.08737496 -0.08707148  0.5194939
  0.6356149   0.41281596 -0.5765802  -0.4199723   0.1705719   0.12059155
 -0.31799224 -0.5494972  -0.7469467   0.09522475 -0.30910367  0.22705731
  0.607105    0.02323446]
[-0.32742175 -0.2107545   0.21718799 -0.4066227  -0.29577243  0.20079081
  0.19396468  0.08061551  0.10343771 -0.5343831   0.07578177 -0.07055116
 -0.19242272  0.06232447  0.15552324  0.20273007 -0.02616041  0.40315256
  0.26608175  0.3713688 ]
[ 0.28680745  0.20910148  0.3300524   0.12732409 -0.4867046  -0.01557882
  0.15180479 -0.39302367  0.44776508 -1.1039665  -0.4911384  -0.25923225
  0.02691401  0.69062454 -0.29707548  0.41305348 -0.08692345  0.32265157
  0.19069289 -0.5393474 ]
[ 0.14541788 -0.3733937  -0.6026154   0.28673616  0.16403367 -0.21547098
  0.08802278 -0.04668404 -0.04627712  0.60935473  0.14428826  0.07194463
  0.43648648  0.61974233 -0.00603286 -0.12089598  0.61661357 -0.6276495
 -0.09664259 -0.4271492 ]
[-0.15101701 -0.45408505  0.26877877  0.174165   -0.11740528 -0.6191107
 -0.4329606  -0.41028717 -0.05715707 -0.3967403  -0.33734265 -0.00714494
 -0.53203243  0.161477   -0.01947284  0.43083608  0.12675883  0.38700673
  0.2748722   0.31646872]
[ 0.09413486 -0.96814626  0.466575   -0.38759676 -0.23965748  0.22198118
  0.21296723  0.22621672 -0.07461553  0.31768572  0.3768888  -0.05450458
  0.3745151  -0.54369533 -1.0431728   0.79566675  0.27154392 -0.32152182
  0.7104678   0.15547243]
[ 0.24644095  0.18439077  0.13809599  0.43745273 -0.05350123 -0.25982925
 -0.03398083 -0.57802826 -0.22374332  0.34986362  0.32348874 -0.41124105
 -0.21228269 -0.35529202  0.10484814  0.05332027  0.02025252 -0.01762043
 -0.20135234  0.2031966 ]
[-0.07366819 -0.03286393  0.38319233 -0.21275331  0.01917092 -0.6324653
 -0.29177764 -0.627376    0.18260251 -0.15415613  0.18648738 -0.16099712
 -0.11261708 -0.28067568  0.34597534 -0.2726429   0.16336495  0.00858356
 -0.3735166   0.2824011 ]
[-0.16761635  0.37836772 -0.39260113  0.45117798  0.19854343 -0.2908463
 -0.00451581  0.33435124 -0.56372154 -0.02090699  0.051603   -0.03579542
 -0.15292303 -0.4216311  -0.11028156 -0.354834    0.07488221 -0.6564407
  0.44672945 -0.38774914]
[-0.33605194 -0.37980074  0.15239966 -0.39202902 -0.00534928  0.7197529
  0.4104243   0.44755045  0.3618881  -0.14773898  0.18313697  0.586944
  0.43533778 -0.10225172 -0.69895226  0.14519957 -0.01941678 -0.0623032
  0.6426354   0.03733334]
[-0.07054507 -0.2639775   0.03322272 -0.07655989  0.36168754  0.46062613
  0.35453567  0.07004368  0.11354296  0.33708048  0.09089687  0.86504215
 -0.17590506  0.5834871  -0.22120503 -0.11080045 -0.10060096  0.34291744
  0.52131456  0.36869332]
[ 0.3703718   0.9664825   0.15884808  0.38542354 -0.30247128 -0.75363225
 -0.2614052  -0.8103552   0.20715383  0.4089663   0.14140816 -0.8605411
 -0.16904387  0.12684935  0.25354066 -0.18979217  0.01155466  0.31788975
 -0.85421073  0.08131548]
[ 0.53756803 -0.2176487  -0.4101891   0.3651099   0.3315208  -0.26817808
  0.04766046 -0.3433508  -0.15676893  0.71455294  0.2129907   0.11728602
 -0.0583836  -0.01475539  0.47058776  0.06405561 -0.5942404   0.54575425
  0.23518616 -0.1303635 ]
[ 0.04103783 -0.4909211  -0.18150662 -0.41307685  0.58825594  0.07624328
 -0.22893539  0.33393386 -0.7233764  -0.30589873 -0.08787668 -0.08926748
 -0.38967007 -0.60635126 -0.23543599  0.18633036 -0.2145706   0.12460085
  0.35677984 -0.0122932 ]
[-0.19273974 -0.57768726  0.32953197 -0.39289534 -0.42613208  0.51561767
  0.16736227 -0.32967493 -0.0280889   0.38720074  0.0319941  -0.48986647
 -0.39558697 -0.6368474   0.04856436  0.13303255  0.5103973  -0.09250495
  0.01344363  0.21589336]
[-0.06127351  0.3657823   0.2107055  -0.44912654 -0.28166938  0.34405068
  0.07825846  0.15740944  0.11772164  0.20590504 -0.20731093 -0.01641034
  0.17992862  0.28539777  0.9298489  -0.17675363  0.48121104  0.23698479
  0.07355172 -0.10498073]
[-0.6320132   0.30393282  0.18298316 -0.38562492 -0.20276141  0.08871064
  0.0134753   0.34615642  0.3363142   0.10036674 -0.09103553 -0.51271117
  0.29612797 -0.45227554  0.30535492 -0.60331464  0.05064504  0.15048966
  0.05869425  0.344976  ]
[ 0.2158353   0.1966196   0.3323912   0.5291057  -0.13620295 -0.22518794
  0.71874267  0.15044701  0.0645092   0.05255665 -0.3787453   0.30320957
  0.20742805  0.12347295 -0.6679456  -0.01816695 -0.35785377  0.3465898
  0.7014417  -0.00714253]
[ 3.1005096e-01  3.9872131e-01  4.8690280e-01  1.8063246e-01
 -2.6379335e-01 -2.6171526e-01 -7.8441165e-02 -6.4914691e-01
  3.7229961e-01 -3.5166189e-01 -3.0221564e-01  1.8603516e-01
  3.8160439e-04  6.8397981e-01 -2.6554382e-01 -1.2671414e-01
  2.1736985e-01  2.2972362e-01 -4.3409005e-01  4.8334930e-02]
[-0.01210947 -0.0228474  -0.28949532 -0.02531142 -0.2409144   0.7862054
 -0.2204086  -0.2934685   0.4121127   0.44370037  0.02169556 -0.17925239
  0.35478225  0.15308557  0.27362195  0.2117404   0.47790498 -0.5010505
 -0.23985729 -0.29040048]
[-0.15114008  0.09665272 -0.37284163  0.42347804  0.18430643 -0.4082563
  0.06777706 -0.04927068  0.5101319   0.3099367  -0.16580388 -0.5181954
  0.39293206  0.70886123  0.25605565  0.14951651  0.2584886   0.06241941
 -0.20734416  0.00968808]
[ 0.21383587 -0.72975874  0.01918553 -0.2563524  -0.3717485   0.65308696
  0.40263677  0.91645867  0.351127   -0.48501977 -0.34635398  1.1019707
  0.27296892  0.12495633 -0.33105454  0.22420157  0.23900962 -0.2386229
 -0.10685148 -0.06002484]
[ 0.00101378 -0.60147333 -0.1533951  -0.31690016  0.01236452 -0.4294838
  0.2613171  -0.12493478 -0.4841583   0.01428274  0.2853072   0.6425537
  0.23843782  0.10799584 -0.14147796  0.38293388 -0.06143166 -0.1610255
  0.19805539 -0.14595522]
[ 0.67606205  0.51135653 -0.27855876  0.96178305 -0.00582944 -0.7920681
 -0.4589485   0.32295972  0.07514776  0.17594182  0.16709824  0.11621601
 -0.2169951  -0.04891838  0.03102838 -0.01915954  0.27678877  0.27382818
  0.25660008 -0.22606814]
[-0.03040597 -0.33338723 -0.31426537  0.23961022 -0.47356278 -0.35629678
  0.05193927  0.69849616 -0.52833545  0.0835676   0.13419232  0.02218187
  0.20355327  0.13331132 -0.38207087  0.3230008   0.20941171 -0.5266802
  0.5525096  -0.4275596 ]
[ 0.18766952 -0.05278248 -0.198132   -0.19690257 -0.17245772  0.28766924
 -0.07238215 -0.17392235  0.09186203  0.33852035 -0.32345748  0.6465666
  0.6214603   0.42951614  0.26872578  0.4112764   0.51291424 -0.11079337
 -0.07699349 -0.1782703 ]
[ 0.21201521 -0.47227824 -0.20838472  0.03397322 -0.2215509   0.40651068
 -0.22468126  0.2714649  -0.11750438  0.00455269  0.1873123   0.6334754
  0.31246933 -0.11732005 -0.41293687  0.5075169  -0.33430567  0.27328146
 -0.11072569 -0.02417529]
[ 0.45574376 -0.66705185 -0.33532017  0.6830891   0.36737862 -0.21024619
  0.03324337 -0.0919295  -0.10291879  0.2239925   0.15350117 -0.09106906
  0.15062797 -0.04671263  0.09333646  0.24505596 -0.05172247 -0.2122902
 -0.06981846 -0.44114766]
[-0.1054206  -0.131968   -0.0154657  -0.07939538 -0.59908295 -0.12281062
 -0.13529201  0.03053787 -0.01260302 -0.6690723  -0.42509934 -0.07597142
  0.22080202  0.13957347  0.40432018  0.3464864  -0.4195079   0.34298098
 -0.20342569  0.5168389 ]
[ 0.1275964  -0.18162702 -0.12359432  0.07493673  0.08731465 -0.39076248
 -0.10047764 -0.35538682  0.31936395  0.33631507 -0.10417587 -0.02631594
  0.12239882  0.26397166 -0.3381929  -0.03211016  0.33808136 -0.03840911
 -0.15735847 -0.02179417]
[-0.51290137  0.6645898   0.03963125 -0.22881702  0.2342695   0.40078804
  0.23284179  0.08895887  0.46635804  0.42403173  0.03354585 -0.18188955
 -0.31098974  0.42228207 -0.4368681  -0.72493744  0.10641859 -0.04967179
 -0.00280274 -0.12763655]
[-0.08589205 -0.33239874  0.31713182 -0.699827    0.41121304  0.32399756
 -0.22862002 -0.00738407 -0.17299089 -0.19312426 -0.02088632 -0.41944277
  0.2084081  -0.5179297   0.12529911 -0.28886473 -0.1521258  -0.3503158
  0.39468762  0.38041365]
[ 0.12554157  0.12563759 -0.5508921  -0.42804366  0.25582755 -0.618899
 -0.2396652  -0.34246522  0.09142902 -0.074248    0.43842262 -0.05307955
 -0.20221391 -0.77280074  0.16844594 -0.5196079  -0.58131725  0.04159255
  0.3593497   0.12290529]
[ 0.22924335 -0.5054334   0.23608507  0.14034781  0.28810957  0.34532675
  0.06836589  0.3108686   0.18880312  0.3026927  -0.08162357  0.42544392
 -0.22379717 -0.02742472 -0.3578293   0.03142376 -0.3810113   0.27476785
  0.01928131 -0.15879993]
[-0.03560118 -0.14184755 -0.13601443  0.1656858   0.0737743  -0.30973166
  0.47600153  0.504959   -0.49093863  0.2921783  -0.5156509   0.30752295
  0.20280592  0.39380756  0.14385377  0.5305192   0.39356184 -0.20897101
  0.20177379 -0.38809133]
[-3.9594877e-04  4.9421248e-01 -2.7010676e-01  6.1887068e-01
 -1.6203013e-01 -2.1604380e-01 -2.2549437e-01 -3.7927794e-01
 -4.2178333e-01 -2.9035756e-01 -3.1413388e-01  8.3857805e-02
 -3.0457944e-01  4.3154573e-01  5.5036150e-02 -6.1550975e-01
  4.5951374e-02  7.1398087e-02 -4.6227437e-01  8.0059968e-02]
[ 0.51020783 -0.14495008 -0.85382944  0.4369039   0.26839837 -0.5548115
 -0.26152372 -0.36590394  0.28063866  0.08462441 -0.12843384  0.03488858
  0.3817511   0.21387555 -0.4803037   0.58228064 -0.08098578  0.02585211
 -0.46989667 -0.40997645]
[-0.09671504  0.11532889 -0.14542963  0.20058541  0.4981964  -0.23369133
  0.09391643  0.26883712 -0.15693258 -0.48150468 -0.08511798 -0.06174289
 -0.2926909  -0.20831731 -0.39007327  0.5067255  -0.10081233  0.07015331
 -0.09516891  0.22866842]
[-0.38883784 -0.16747695  0.49599957 -0.0087592  -0.450623    0.06007727
 -0.1807983  -0.11856955  0.22867066 -0.10281575  0.2130942   0.03434695
 -0.15518443 -0.41152605  0.09675001 -0.07645533  0.10452709 -0.07757418
 -0.5509224   0.21108413]
[-0.08555212  0.32786286  0.28513044 -0.22665994 -0.05571608  0.04444131
 -0.16636372 -0.18151225  0.00881777  0.00606184  0.19009888 -0.33655772
  0.01091055 -0.2973196   0.3162305  -0.29992875  0.12035476 -0.16415147
 -0.50448126  0.07976943]
layer 5 Activation
tanh
layer 6 Dense
20 1
[0.23400237]
[-0.9272647]
[0.38950488]
[-0.21316965]
[-0.6666482]
[0.29406226]
[-0.6498588]
[-0.55258656]
[0.4059053]
[0.39343444]
[0.90069443]
[0.58850354]
[-0.1438873]
[-0.5926809]
[0.327727]
[0.7192336]
[0.75325465]
[-0.630059]
[-0.31558028]
[0.75709975]
[0.29490787]
