layers 7
layer 0 Dense
20 20
[ 0.07942365  0.4791863  -0.39487857  0.48830292 -0.32995254 -0.3762727
  1.0957717   0.10873619  0.47371924 -0.39169943 -0.22684447 -0.1279154
  0.6866856   0.66926205 -1.46663     0.04575731  0.2011588  -0.03174919
  0.08330733  0.04672074]
[-6.6306108e-01 -3.0339828e-01  1.8162610e-01  5.9656352e-01
 -6.5311944e-01  9.6636242e-05 -5.8037961e-01  2.9072064e-01
 -2.2650327e-01 -4.0200388e-01 -2.5532749e-01 -5.9642124e-01
 -4.4915673e-01 -8.2837343e-01 -1.2726047e+00 -1.7388748e-01
  4.4631201e-01  1.0250560e-01 -2.7704421e-01 -1.3902763e+00]
[-0.32421628  0.35422924  0.6117318   0.5535097  -0.53235334  0.3304888
 -0.4063708   0.62023425 -0.80103767 -0.4809585  -0.3525006  -0.13599804
 -0.118583   -0.28620285 -1.0772429  -0.26839727 -0.09315807  0.03177106
 -0.21499677 -0.88952667]
[-0.26445192 -0.22787839 -0.31659934  0.83774036 -0.02631527 -0.510543
  1.1261009   0.21173404  0.0678152  -0.35818732  0.2278774   0.30776462
  0.6735713  -0.22747949 -1.6579413  -0.09673928  0.19466804 -0.36506194
  0.03568346  0.33678898]
[-0.01539596 -0.3956672   0.13658126  0.26535964  0.12742762  0.34729782
  0.4057938   0.6955911  -0.664552   -0.6790334  -0.26650184  0.42672667
  0.47122422  0.6972505   0.0612519  -0.3251788  -0.46153727 -0.00704832
 -0.20543888  0.92446417]
[ 0.44856617 -0.1397254  -0.90019757 -0.3178903   0.43596092 -0.43867746
  1.0030156  -0.1289794   0.6572444   0.6667898   0.64417773  0.504793
  0.39146155  0.00855449  0.5899251   0.77212626  0.26254475 -0.31977126
  0.7947861   1.9634652 ]
[ 0.36169556 -0.71077067 -0.33799848  0.03851125  1.0228006  -1.0059303
  1.2009263  -0.02977412  0.71211094  0.45581555  0.6216204   0.622874
  0.7068166   0.6370358   0.27223983  0.12982638 -0.08836651  0.29191136
  0.3206087   1.4989815 ]
[ 0.77806556  0.84587187  0.1978492  -0.7607661  -0.7368355   0.4708058
 -0.61975    -0.28718963 -0.03528198  1.20415     0.13452448 -0.44073352
 -1.0960191   0.25155413  1.0620947  -0.38234386  0.13625892  0.5759755
  0.56858796 -1.064506  ]
[ 0.65820557 -0.85439277 -1.454321    0.04292099  0.32326472  1.3893716
  0.8433073   1.2021891  -0.97748744  1.312961    0.04651438 -0.83123666
 -1.5419047  -0.30399993  0.6982158   1.3748221   0.33543083  1.3235997
 -0.63437575  1.0943804 ]
[-1.24957934e-01 -4.95500229e-02 -2.98899561e-02 -3.63250494e-01
 -7.28743315e-01 -3.82285088e-01  2.41886690e-01  4.59866792e-01
 -5.47275424e-01  1.98641106e-01 -5.50848961e-01  2.21691541e-02
 -4.32138801e-01  7.71156311e-01  7.35987484e-01  1.04259118e-01
 -1.94755703e-01 -5.82500536e-04 -9.80756506e-02 -1.50160357e-01]
[ 1.4085524e-01 -3.3407372e-01 -1.2084383e-01  2.1912487e-02
  1.3918203e-01 -6.5728432e-01 -1.2347024e-01 -2.8481919e-01
 -3.3783220e-02  5.1344246e-01 -3.8555843e-01  1.0134321e+00
  5.4095298e-01 -5.8683574e-02  5.3431857e-01  4.9913853e-01
  9.2983153e-04 -1.6694865e-01  2.4718188e-01  3.4713933e-01]
[-0.8403584  -0.011107    0.770595   -0.12220865 -0.8683205  -0.7327816
  1.4939708  -1.1625127  -0.43189263 -0.37497005 -0.9142682   1.372504
  0.3407046   0.26613078 -1.7024602  -0.7411801  -0.66933674 -0.17889717
  0.8451161  -2.4836893 ]
[-0.10823809 -0.10967725  0.9100606   0.29162347 -0.33780384 -0.4828464
 -0.49092028 -0.11684558 -0.0215883  -0.6632198   0.6637328   0.49218625
  0.18588185  0.4841595  -0.00860091  0.06441239 -0.45921826 -0.5721981
 -0.3327357   0.3439127 ]
[ 0.33766475  0.10875275 -0.72028315  0.9883066   1.2827616   0.24803057
 -0.82319117 -0.48752403 -0.5793581  -0.65752405 -0.32021338 -0.5908822
  0.08834907 -1.5683068  -0.6462701  -1.639719    1.8679798  -0.5265188
 -0.14974974  0.27958485]
[ 0.35822895  0.6817155   0.04210633  2.0413008   1.1599907   0.39934617
 -0.3535938  -0.8985524  -0.08261754 -0.36114642 -0.2875383  -2.8503027
 -0.458131    1.7409849   0.37225664  0.47796    -1.1409456  -1.0584314
 -2.4191754  -0.1983304 ]
[ 1.8078223  -2.1256056   2.4752035   0.69494575  0.10358082 -1.5335325
 -0.5110546   2.6694508  -2.0844424   1.4759971   0.36822504 -2.315662
 -0.43627584 -0.76550525  2.0997496   0.04143193  1.5606135  -2.3299563
 -2.2881346  -0.5288996 ]
[ 0.11553908  0.6810424   0.25119242 -0.14463973 -0.30770507 -0.9172061
  0.01512087 -0.3998904   0.41741976 -1.0186213  -0.35137454  0.52359396
  0.69929826  0.84705275 -0.32854992 -1.0343971  -0.8894621  -0.1286207
 -0.18613048 -0.20311902]
[-0.16677417 -0.5229413   0.49527633  0.1628944  -0.11724165 -0.05517781
  0.6496381  -0.38907623  0.5923142  -0.49113956  2.5314822   0.02341654
  1.352638    0.0206052  -1.1338699   2.0114183  -1.524579   -0.16152494
  0.57600033  0.29331627]
[-0.21138613 -0.35346755  0.6592215  -2.856199   -1.689681    0.05735783
  1.2037624   3.2162035   0.50674844 -0.6497266   1.3386208   1.5476605
 -0.79630554 -2.7858713  -0.13777578 -0.30485252  1.7551118   1.5862949
  1.3890105  -0.11416315]
[-0.30882987  3.6914911  -2.3727057   0.2711082   0.13845433  0.36779115
 -0.47196501 -1.2919443   2.993236    1.4359883   1.7949686  -1.3361348
 -0.44426185  0.48065737  1.1734763   0.9857336   1.3402131   1.7005101
  1.0815989   1.6321591 ]
[-0.36403286 -0.35423616 -0.11006675  0.28821987  0.1177649  -0.15461257
  0.20107265 -0.08857986  0.11572968 -0.17213112 -0.10814191  0.10694361
  0.48075116 -0.3046166  -0.44007394  0.08779569  0.16466606 -0.34301817
  0.08987986  0.07990368]
layer 1 Activation
tanh
layer 2 Dense
20 40
[ 0.55805624  0.35763782  0.36673245  0.36647698  0.11580658  0.45925865
  0.49327895 -0.45982888  0.30130023  0.24119209 -0.15896493 -0.35778812
 -0.8519047  -0.4260948   0.14530486  0.06585599  0.17796153 -0.26284593
  0.18818119 -0.07054415 -0.31110144 -0.47260603 -0.43467063  0.15129298
 -0.34681362 -0.43297118 -0.06145098 -0.5240535   0.03976743 -0.8401523
 -0.51790965  0.44206768 -0.03011873 -0.03219451  0.37934548  0.30007303
 -0.30406588 -0.12739652 -0.05652705  0.02519317]
[ 0.01451842 -0.89015234  0.7175218  -0.2592909  -0.5438789   0.5356502
 -0.20972264 -0.02044078 -0.63155854  0.45303166 -0.3238658   0.27497494
 -0.22775511  0.576922    0.05482166 -0.04373194  0.42944157  0.12988545
  0.0033488  -0.03072982 -0.47038335 -0.17531791  0.3745584  -0.9820932
  0.03208123 -0.01023023 -0.2476473  -0.01394299 -1.1025821  -0.95277226
  0.13765535  0.47495756  1.7985017  -0.19303466  0.428504   -0.06902185
 -1.276027    0.18650836  0.09498251  0.11014464]
[ 0.6044241   0.77873254  0.24676418  0.9748823   0.81379664  0.50688845
 -0.46484703 -0.18686637  0.6808204   0.03160433  0.2318427  -0.2980219
  0.35921177  1.0948333  -0.07563399 -0.86900014  0.6956993  -0.00954907
  0.22618532  0.42652154  0.26242936 -0.38828337 -0.50060415  0.43620768
 -0.12744778  0.75059444  0.354575    0.00369544  1.9067069  -0.38088006
  0.04828837 -0.13800763 -1.0970478   0.39243168 -0.35035506  0.02337395
 -0.6312426  -0.9875537   0.836458    0.12694456]
[ 1.2029421  -0.6898472   0.59100586 -0.15679017  0.32154393 -0.44642845
  0.4947893   0.577024   -0.2910354   0.6319179  -0.01319453  1.2753217
  0.08773659 -1.282      -0.5604162   0.33472958  0.15223233 -1.2495116
  0.27948278 -0.8684463   0.35347825  0.6725198  -1.1087003  -0.35111374
 -0.1577184  -0.66005844 -0.434297    0.59846354 -0.38845238  0.14100036
  0.07197994  0.28387183  0.17407699  0.3163164   0.14215913 -0.3240233
  0.3643824  -0.78524154  0.64397067  0.42706624]
[-0.13624907 -0.1978748   0.20079961  0.00496501 -0.5505887   0.28605556
  0.3432527  -0.72133404  0.2525392   0.18572147 -0.6065348   0.9209591
 -0.18067856  0.26440206 -0.21501337  0.49523023  0.5071793  -0.14281261
  0.31271198  0.123538   -0.20463237 -0.7988562  -0.22919136 -0.24167636
  0.45968267 -0.5267141  -0.04572146 -0.19889645  0.1658786  -0.17676127
  0.15743242  0.08223815 -0.46335122 -0.3316972  -0.01526891  0.01437042
 -0.18191545  0.09041997  0.45797724 -0.15409356]
[-0.39503673 -1.1043733  -0.2991429  -0.33687332 -0.6377922  -0.10530296
 -0.1115047  -0.33772674  0.4699304  -0.03612763  0.02589061 -0.3127082
 -0.06612733 -0.98756635  0.5019734   0.49264738 -0.0084001  -0.03762747
 -0.16840918  0.10128822 -0.23257941 -0.01153192  0.8265434   0.12632854
 -0.5132259  -0.43415084  0.58343667  0.55037814 -0.20644356 -0.34351376
 -0.04872416 -0.14831169 -0.20238873 -0.36371434 -0.17657566  0.28946033
  0.5350937   0.35134146 -0.34883723 -0.17917761]
[-0.09793999  0.6009244  -0.04070714 -0.35362247 -0.30220246  0.11320833
  0.03953824  0.27839917  0.06651102 -0.22938485 -0.09519244  0.2814836
  0.57560074 -0.14847387 -0.4981299   0.5325976  -0.68331593  1.0547844
 -0.2509642  -0.4106811   0.4072256   0.37198207  0.00768217  0.403997
  0.6135622  -0.2946672  -0.0209457  -0.17175968 -0.25945392  0.21311767
  0.7231984  -0.341046   -0.5057247  -0.47810018 -0.5398638  -0.3234131
 -0.13657877  0.16925578  0.56787664 -0.03969695]
[-0.17799625 -0.18869045 -0.6935131  -0.665144    0.8276455   0.22144164
 -0.23563007  0.19467013 -0.468826   -0.5521569   0.3202412  -1.4162173
  0.859089   -0.502563   -0.17926592 -0.799826   -1.4958122   0.1816074
  0.04141773  0.16931972  0.33147568 -0.39669904  0.42331773  0.6538265
 -0.27262184  1.015462    0.8322312  -0.03879495  0.08714192  0.46521956
  0.23322694 -0.40491015 -1.4550079   0.49823236  0.76556665 -0.05697631
 -0.43620914  0.3306107  -0.54388756  0.1005964 ]
[ 0.59971565 -0.1582045   0.73014593 -0.6623408  -0.2853866  -0.00737903
  0.0340093  -0.19275849  0.25987273  0.39229363 -0.15078166  0.488722
  0.21419132  0.26410472 -0.30324858 -0.33551544 -0.1865307   0.37727776
 -0.8100081   0.2917806   0.4172137  -0.18217576  0.14458768  0.3217723
  0.0833384   0.4856541  -0.1627908   0.47320274 -0.69627273  0.05242917
  0.17605217 -0.30830875  1.5661173  -0.70331025 -0.6202194   0.11356276
 -0.20974506  0.9990002   0.5700856  -0.21407598]
[-0.33858138 -0.24342774 -0.21887587 -1.2961692  -0.35561526  1.2911558
  0.38842526 -0.65938693 -0.34733218 -0.32065314  0.8611102  -0.7254192
  0.27027547 -0.31361192  1.1048265   0.03028942 -0.4419109  -0.71406657
 -0.111004    0.8581937  -0.67846566 -1.0974807  -0.39864326  1.2719474
 -1.157268   -0.22961032  0.00659303  1.5098581  -0.38965815  0.17518544
 -0.08995624  0.18898718 -0.30259785 -0.15426539  0.29886055  0.95598745
 -1.1034048   0.4741299  -1.6999135   0.15496099]
[ 0.7170926   0.55822057  0.44881535 -0.6858307   0.5812962   0.35973537
  0.22078529 -0.7903171   0.25289842 -0.05596271 -0.1251904  -0.47870955
  0.18325107  0.35365987  0.19261824 -0.53907907  0.6128554   0.18117854
 -0.1972526   0.19414726 -0.35059825 -0.28172716  0.24617587 -0.25412822
  0.05449366  0.61324275  0.2931581  -0.0468041  -0.9119744   0.18455863
 -0.57600254 -0.17656374 -0.41079062  0.00244451 -0.57118356  0.07760101
 -0.84152555  0.7405597   1.1816399  -0.7419486 ]
[-0.6807492   1.5515143  -1.4755523   0.5576266   0.34589547 -1.117924
 -1.0279616  -0.14876854  0.36505437 -0.32856512 -0.23254736 -0.17228743
  0.27888948  0.9654293  -0.4469654  -0.28405914 -1.1177808   1.9770032
 -0.8445713  -1.0845343   0.44315618  0.7630276   1.2472503   1.9146385
  0.73033935  1.136396   -0.9599439   0.80535424 -0.5361619   0.66166544
  0.36009774 -1.3753355   0.01840726  0.44303384 -0.56960434 -0.94288176
  1.0011021   0.7189983  -0.03030812 -0.18444464]
[ 0.4923639   0.1771775   0.295793    0.29747638  0.34027803 -0.9075511
  0.22547698  0.07149053  0.48240438  0.4768369  -0.6124393   0.40777013
  0.4127725   0.0161481  -0.77936375  0.16551329  1.1155335  -0.67363024
  0.24362433 -0.77085817  0.27477816  0.90551656 -0.1289131   0.50005776
  0.45331168 -0.3044592  -1.8822507   0.12244977 -0.44967073 -0.25185692
  0.4213867   1.00427    -0.21882293  0.30794868  0.0878516  -1.0149672
  0.82072186 -0.8679137   1.2485257   0.6686538 ]
[-0.08414721  1.2109889   0.57842636  0.4131914  -0.6742085  -0.14428033
  0.43814275  0.07007929  0.88905483  1.0899528  -0.4399226   1.277152
 -1.043283   -0.74076873 -0.20022748  0.3538999  -0.38615197  0.02430904
  0.24732858  0.00503144  0.05152958 -0.17658862 -0.19383818 -0.98222595
  0.20416869 -0.32274428  0.4334919   0.28040558  0.5472516  -0.7027804
 -0.21396528  0.60814977  0.58361447 -0.8252193  -0.7781669  -0.15259306
  0.1941811  -1.6434106  -0.1158993   0.33991006]
[-0.10800628  0.27169207  0.18870446 -1.1630751   0.84328073  1.4756951
  0.36317298 -0.24589138 -0.7114135  -0.36172533  0.7837654  -1.0933516
  0.17933479 -0.8138896   1.558376   -0.681181   -0.36371982  0.43576026
  1.0909662   1.5825843  -0.2777516  -1.3188621   0.42249686  0.27620673
 -0.83227175  0.59417284  0.8507686   0.5004843  -0.40696603  0.13240342
 -0.0396594   0.0805259  -0.2586385   0.58397865  1.57524     1.4922564
 -1.8176298   0.01695679 -1.9392505  -0.7596149 ]
[-0.26337478  0.6286046  -0.06965391 -1.5259424  -0.46093538 -0.39972833
  0.21247523 -0.13502328  0.3901084   0.50869256  0.12267265 -0.6698895
 -0.14888495 -0.5932338   0.39021227  0.23131981  0.35749674  0.14940475
  0.03391163 -0.1623567  -0.6867105   0.3133172  -0.28450513  0.16640088
 -0.5029084  -0.5852975   0.12107305  0.25915062 -0.8760019   0.4014672
  0.22216626 -0.43692833 -0.92614233 -0.07963181 -1.3835636   0.13944584
  0.28488538  0.575911   -1.6552525   0.25518206]
[ 0.28431433 -1.5810829   0.4000176  -0.28320286  0.29172763  0.23002894
  0.16045257  0.00182519 -0.92494    -0.860373   -0.10145346 -0.808523
  0.2831318   0.3711855   0.12028433  0.23659837 -0.43312144 -0.93704146
  0.20529342 -0.06996362 -0.19094275 -0.3075759  -0.35216612  0.5232118
 -0.3769023   0.02004788  0.09619183 -0.19442746 -0.19041179  0.36535722
  0.09295698 -0.18681191 -0.19194053  0.19372566  1.0460299  -0.06491102
 -0.19390209  1.0835224  -0.11810938 -0.45152342]
[-0.62934434  0.96471554 -0.5136525  -0.48642814  0.14165878 -0.44229347
 -0.25032735  0.45090282  0.25766516 -0.25616288 -0.27823904 -1.6047912
 -0.7434503  -0.01639379  0.1333137  -0.27955386  0.1509602   1.9031163
  0.2013046   0.2393769   0.3216936  -0.8598567   1.5360358  -0.40768966
  0.06937482  0.37162265  0.19669726 -0.51584184 -1.7309625  -0.18965323
 -0.3696568  -0.18292364  1.5854455   0.3065392  -0.06083763  0.26089746
  0.70351803  0.39772138 -0.05155185 -0.28111696]
[-3.2291022e-01 -5.5772227e-01 -4.7878364e-01 -1.6317444e-01
  1.3378634e-01 -9.5703706e-02 -5.5733413e-02 -1.4986345e-01
 -1.1152252e-01 -1.0590435e-03 -2.4061869e-01 -1.3855442e+00
  2.0882036e-01  4.2876416e-01  1.4503178e-01 -8.2668781e-02
  9.5604801e-01  8.6501479e-01 -4.3770269e-01 -6.5834266e-01
 -4.2370313e-01  7.6459861e-01  1.2630950e+00  1.3732934e+00
 -5.0061256e-02  1.8324706e-01 -5.2121007e-01  2.9032731e-01
 -5.5017859e-01 -1.2456257e-01 -3.6631173e-01  6.2497024e-04
  7.5691193e-01  3.7643659e-01 -1.2032010e-01  3.8251881e-02
  1.2775379e-01  8.3701456e-01 -5.5546254e-01 -1.0050042e-02]
[ 0.36709526 -0.18381925  0.21694267 -0.71094066  0.15160672  0.42001635
  0.5134245  -0.12845692 -0.9475319  -0.58487076  0.6594725  -0.5305829
  0.00346615 -1.3414834  -0.1923076  -0.21156733 -0.7348387  -0.2048128
  0.4910391  -0.3971418  -0.480875    0.44433397 -0.41060725  0.20788601
 -0.5866289  -0.26673383  0.22455041  0.45758995 -0.8436914  -0.00579517
 -0.48968497  0.2670397   0.40412694  0.45816842 -0.26135862 -0.4074291
  0.18311097 -0.41624573  0.05268627 -0.09760174]
[-0.38557705 -0.03723613 -0.31692293  0.20284067 -0.2841365  -0.73369575
 -0.08253     0.19397372  0.4032005   0.01317727 -0.3119873   0.34012333
  0.02908574  0.18315318 -0.7955862   0.09996945 -0.5685543  -0.4823828
 -0.18430464 -1.0503681   0.23387924  1.1238672  -0.32625097  0.10660604
  0.82099     0.19872977 -0.4966156  -0.4515224   0.11729706  0.4072957
  0.45738304 -0.5167287  -0.76576173 -0.1795736  -0.17138836 -0.8814016
  0.9480655   0.11199665  0.28157574  0.13597953]
layer 3 Activation
tanh
layer 4 Dense
40 20
[ 0.8264522  -0.28331506  0.3831172  -0.6704568   0.1309689  -0.02984473
  0.03748553  0.06494667  0.03296077 -0.2736994  -0.25901893 -0.6129717
 -0.29103634 -0.37277043 -0.05115216 -0.09508586 -0.00192932  0.11633729
 -0.12725763 -0.13606837]
[-0.71380603  0.4376512  -0.7643523   0.15723814  0.41933277 -0.33514446
 -0.04741575 -0.6098901   0.8331865  -0.86010814  0.04440765 -0.23454396
 -0.67266154 -0.746465    0.20867386  0.8343137   0.02270896  0.5294653
  0.13494739  0.5593384 ]
[ 1.2053295   0.14349958  0.08475997 -0.78190327 -0.13965377 -0.37351358
  0.5439742   0.05773113 -0.29189855  0.04670596 -0.26741236 -0.18659066
 -0.25746801  0.09534144 -0.35651082 -0.25946924  0.20798433  0.25170663
  0.00330274 -0.35505322]
[-0.35389504  0.47657865 -0.76966596 -0.69629604  0.11314011  0.4418415
 -0.30829412 -0.9182976   0.30145636 -0.5661479  -0.04157161 -0.92410856
 -0.05518171  0.05637203  0.15578693  0.60048485  0.12273468  0.5448716
 -0.37172422 -0.08530048]
[-0.465969    0.1478069   0.36422208  0.34100354  0.54230446 -0.19700737
 -0.18030733  0.29475257  0.40121874 -0.33507246  0.33942837  0.39721185
  0.45558217 -0.13111216  0.79985493 -0.01854823 -0.53451276 -0.19612516
 -0.02428814 -0.06396029]
[ 0.06966053 -0.836818    0.36759096  0.04915415 -0.83916616 -0.47502384
 -0.11812555  0.39965877  0.19164151  0.6943325  -0.14725739  0.25007743
 -0.38603118  0.17140211  0.19374254 -0.46881637 -0.2977426  -0.19497769
  0.5220763   0.5797834 ]
[ 1.1410911  -0.05221938  0.11597931 -0.15454593 -0.26490498  0.12764095
  0.0824705   0.33456394 -0.09865773 -0.23522006 -0.21758029  0.52917594
 -0.39610577  0.15894072  0.05091607  0.17681876  0.26402327  0.03601561
  0.55581355  0.13855632]
[ 0.29502884  0.47495443 -0.13960646  0.13854     0.4383912   0.0466498
 -0.43169883 -0.880435    0.2686745   0.07546211 -0.42375147 -0.1972375
 -0.12258472 -0.55777496 -0.17848341  0.22467713 -0.05053577  0.1480014
 -0.49729687 -0.0746012 ]
[-0.19810674  0.36961967 -0.12242003  0.19752082  0.28125057  0.28975868
  0.36530796 -0.1102123  -0.1275616  -0.713138   -0.04048809 -0.18384185
 -0.09047057 -0.09445512  0.28268552 -0.08292294  0.29034638  0.4164539
 -0.65977377 -0.20998414]
[ 0.14492273 -0.03212488  0.01880294 -0.08613067  0.05554872  0.32549435
  0.29696056 -0.01668962 -0.04186762  0.11999652 -0.41325745 -0.5236368
 -0.16601084 -0.5741932  -0.33602345 -0.25023478 -0.12885284  0.53286296
 -0.4030897  -0.08154485]
[ 0.10925449 -0.35835513  0.0193281  -0.09264703 -0.37347078 -0.23193823
 -0.6297879   0.0060995   0.17784828  0.4980576   0.14998713  0.28635073
  0.10060658  0.14886387  0.24827862  0.05799582 -0.13621289 -0.28673193
  0.29930663  0.54027677]
[-0.02295619  0.4063651  -1.3571221  -0.5362782  -0.10734465  0.42438602
 -0.20420404 -0.8346653   0.23954342 -0.5660026  -0.7763172  -0.35347164
 -0.6971012  -1.216803   -0.04180857 -0.10331053  0.08102491  1.0081271
 -0.10314864 -0.05720224]
[ 0.01265738 -0.42038798 -0.25058565  0.10974181 -0.14526848 -0.3837302
 -0.9557318   0.09139432  0.48732203  0.19785753  0.3322735   0.15893064
  0.21764524 -0.00176971  0.71553516 -0.2982768  -0.35327268  0.05615391
 -0.34208888  0.08796766]
[-1.1560907   0.30452275 -1.0407839  -0.24101067  0.1203851   0.1261018
 -0.13201505 -0.6082499   0.05800728 -1.0196719  -0.22111568 -0.6103471
  0.6555446  -0.98113364 -0.40579882  0.86222553 -1.0715395   0.35631955
  0.15358666 -0.28358558]
[-0.02050022 -0.3861472   0.16418564 -0.02847858 -0.7755176  -0.6781385
  0.13580343  0.40048084  0.57843226  0.5961403  -0.08032646  0.8858457
  0.14496957  0.6018139   0.35471997 -0.07120964  0.00157992 -0.31433356
  0.6065893   0.487759  ]
[ 0.614669    0.21610935 -0.13587622 -0.36805016 -0.02666895 -0.07417134
 -0.03236921 -0.01940454 -0.08254319 -0.07720408 -0.49249458 -0.07042378
 -0.3572284   0.14358027 -1.0297933   0.10984205  0.54603446  0.02732614
  0.01451814 -0.0099914 ]
[-0.16767083  0.10472396  0.17335598 -0.7773406   0.19442771 -0.0696677
  0.4966816   0.07619663 -0.41435975 -0.11474407 -0.05654149 -0.23052186
 -0.5713479  -0.15012053 -0.13715683  0.5614043   0.24342705 -0.05370616
 -0.15639018  0.3564026 ]
[-1.0948286   0.04551525 -0.3517529   0.1677915   0.38125822 -0.04591792
 -0.27362204 -0.38901547  0.5056073  -0.86407846  0.26278025 -0.46093506
 -0.15204842 -0.18873946  0.1272676   1.0664423   0.19798383  0.08570215
 -0.17890525  0.812674  ]
[ 0.6233266  -0.33334345  0.24488658 -0.25275174 -0.18790339 -0.4838733
  0.33692417  0.37883577  0.19675948 -0.00887275  0.12166212  0.31349236
 -0.1691287   0.09795515  0.05891902  0.34356582  0.00798152 -0.28342825
 -0.06702525  0.1831367 ]
[ 0.13788843 -0.92827725  0.4822094  -0.36155358 -0.35317552 -0.6616843
 -0.16748779  0.1114189   0.10712866  0.89091676 -0.24975833  0.5141268
 -0.35789847  0.03553451  0.379419   -0.14492255 -0.83402807 -0.48623025
  0.7320551   0.61753196]
[ 0.10064057  0.10778434 -0.09068862  0.30107927  0.34692472  0.25628373
 -0.6336795  -0.64506507  0.22196442 -0.4905009   0.02546967 -0.3512732
 -0.3231334  -0.18582585 -0.19001122 -0.20633313 -0.12042809 -0.07061449
  0.1032839  -0.31673393]
[-0.43930233  0.70656466 -0.65892327  0.36361238  0.8115455   0.8782214
 -0.11814392 -0.22024019  0.03277484 -0.80050087 -0.00820551 -0.13908826
 -0.579995   -0.18681125 -0.19519861  0.61418295  0.54887384  0.2775776
 -0.5950049  -0.4645519 ]
[-1.0135441   0.26750064 -0.34508464  0.11661395  0.09673798 -0.35439312
 -0.06179194 -0.09276925  0.06297053 -0.56983745  0.09282902  0.02285308
 -0.05180595 -0.13200726  0.45264387  0.56732994 -0.11667725 -0.14434227
 -0.11167318  0.84680253]
[-0.89208657 -0.35778826  0.16735749  1.2052937  -0.28748578  0.05168467
 -0.68583196  0.40317118  0.88027304  0.26986718 -0.19913563  0.3028169
  0.90629894 -0.02119624  0.88825977  0.34812143 -0.43477222 -0.5381092
 -0.016375   -0.12401714]
[ 0.02821532  0.18537949 -0.14720923  0.07800409  0.48312864  0.45946932
 -0.00931018 -0.47014913 -0.2202146  -0.5402657  -0.04129044 -0.9652106
  0.1723547  -0.23469052 -0.23225012  0.27535662 -0.27393365  0.29317755
 -0.28293052 -0.93452764]
[-1.0880464  -0.09284094  0.0294216   0.53794813  0.21665356 -0.4194866
 -0.231242   -0.05254386  0.26316816  0.00947692  0.41660413 -0.06451323
  0.43592602  0.2376854   0.6362142  -0.13003305 -0.4736824  -0.10874282
 -0.11103798 -0.38925147]
[ 0.3885192  -0.0336074   0.26353803 -0.19877438 -0.7249435  -0.278785
 -0.27576092  0.16712049 -0.17629312  0.550253   -0.10003316  0.46090692
  0.9060894   1.3166398   0.6315251  -0.4047243   0.12828407 -0.1857834
  0.1972601   0.14868928]
[-0.0459688   0.13721645 -0.1841495   0.19224037 -0.3707211  -0.4854719
 -0.40175396  0.34351715 -0.14761771  0.28877157  0.05422926  0.9782234
 -0.13963547 -0.4242404  -0.51987815 -0.44511288  0.31488147 -0.42419374
 -0.10232988  0.2050396 ]
[ 0.13069661  0.16639444 -0.62592316 -0.47088715 -0.25109804 -0.47364554
 -0.2845773  -0.6802573   0.447671   -0.30307847  0.21827336 -0.16779597
 -0.27841768  0.07358161  0.18220037  0.18606319 -0.32862583  0.23150365
  0.01461544 -0.23063731]
[ 0.05683745 -0.22245747 -0.48106948  0.00937878 -0.04096544 -0.17154098
 -0.6271864  -0.1541171   0.5273655   0.1154263   0.15562871  0.22450995
  0.20423014  0.258399    0.4561228  -0.24482194 -0.40689793 -0.09346328
 -0.02965786  0.15443414]
[ 0.42983395 -0.01129111 -0.48369467  0.15612888 -0.1942502   0.28012943
 -0.51515144 -0.04973329  0.21687526  0.33290228 -0.27013174  0.26516485
  0.19207938  0.13994381 -0.7583955   0.05049238 -0.10787737  0.09719773
  0.61172175 -0.41652855]
[ 0.59329206  0.08083148  0.14293401 -0.2908553  -0.07368489 -0.20542493
  0.4839196   0.1868398  -0.48902825  0.03584141 -0.18753287  0.2447588
 -0.55447704 -0.4207548  -0.1733496   0.16439864  0.6505102   0.05036039
 -0.2632406  -0.12532157]
[-0.05851325  0.26820344 -0.28117898 -0.7532605   0.06011927  0.3303292
  0.31043214 -0.47196692  0.3992703  -0.4737757  -0.35670364  0.18806966
 -1.2306274  -0.4550024   0.11062142  0.43052208 -0.86292404  0.6569957
  0.39912152  0.82703847]
[-0.43353513  0.43299007  0.21138729  0.15912299  0.2511038  -0.49793023
  0.11577175  0.14242913 -0.02466575 -0.15187389  0.4412033   0.60406065
  0.29803246 -0.17837548  0.5339988   0.38906768 -0.13090687 -0.18719421
  0.16847567  0.25151318]
[ 0.23188275 -0.6568245   0.28327578 -0.19955143 -0.4663738  -0.72994137
 -0.11855406  0.30448914  0.4840416  -0.0715505   0.0152418   0.2015945
 -0.3167329  -0.01134958  0.18023327  0.5050056  -0.2069423  -0.22003426
  0.2087598  -0.2431606 ]
[-0.1802066  -0.543553    0.22926329 -0.0113274  -0.82170254 -0.48796323
  0.18014166  0.5297511   0.45998406  0.5627993  -0.1260729   0.31401506
 -0.07094762  0.02770451  0.48525894 -0.24318638 -0.34504434 -0.24412344
  0.44070032  0.57867056]
[-0.14291798  0.80121857 -0.8061864  -0.00379726  0.64813334  0.70729953
 -0.2862432  -0.52580297 -0.49508354 -0.7123536  -0.45334384 -0.77997243
  0.20883714 -0.3448312  -0.4049705   0.7183618   0.1646529   0.14601074
 -0.25082022 -0.14738579]
[-0.38637844 -0.10508553  0.5838664   0.3948673  -0.13785449  0.01574211
 -0.46707878  0.48876515  0.25779966  0.4735042   0.5911934  -0.17530005
  1.6663957   0.94846064  0.3219872  -0.6033668  -0.47846967 -0.5407344
 -0.07560379 -0.49205637]
[-0.664608    0.76781297 -0.8211605  -0.6223112   0.8809216   0.14016046
 -0.18562572 -1.1407636   0.2154468  -0.84433913 -0.46658307 -0.6285595
 -0.0937939  -1.1298596   0.30895025  0.35142297 -1.226069    1.3452071
 -0.5214234  -0.33739403]
[-0.24120586  0.12225087 -0.00351266 -0.09774391  0.17944717  0.11079004
  0.3490892   0.20658088 -0.1250186   0.27461272 -0.18856123  0.18029569
 -0.49211547 -0.4894966  -0.38846457  0.0714197   0.05440041  0.17358829
 -0.11829554  0.04409968]
[ 0.493046    0.4080837  -0.6886229   0.33482605 -0.07105754  0.20255472
 -0.10400933 -0.06127265 -0.2717196  -0.5440156   0.13970456 -0.3621135
  0.8837213   0.08326744 -0.26894388  0.36115783  0.19648753  0.02244183
 -0.08841778 -0.3932994 ]
layer 5 Activation
tanh
layer 6 Dense
20 1
[0.02855764]
[0.03460538]
[0.4527736]
[0.13218072]
[0.0443898]
[-0.00516328]
[-0.03645654]
[0.07401183]
[-0.13774207]
[0.03421931]
[0.0685887]
[0.02459593]
[0.08611201]
[0.09153994]
[-0.04166456]
[-0.17280939]
[0.12159626]
[-0.09046732]
[-0.01943815]
[-0.11179012]
[0.5971763]
