layers 7
layer 0 Dense
20 20
[-0.56693083  0.10157058 -0.42496437 -0.4648863  -0.27279013  0.48400772
  0.93213856 -0.254213    0.06736407  0.6678499   0.10779496  0.0302042
 -0.40217704 -0.16412634  0.39951828 -0.56684935  0.34186393  0.04095598
 -0.334818   -0.66109806]
[-0.28297544  0.07253779 -1.4748583   0.70695126 -0.2452585   1.2999984
  0.08141046 -0.21760315  0.11805347  0.97903943  0.83622956 -0.6239174
 -0.28337857 -0.22288443  0.21337847 -0.38782775  0.18815579 -1.0314634
 -0.259852    0.2001147 ]
[-0.09148726  0.44237298 -1.7650936   1.1818836  -0.29444328  1.3575487
  0.6620764  -0.60686827 -0.31428066  1.4183815   1.0220355  -1.1107663
  0.03657313 -0.1214524   0.57490337 -0.5256029   0.25015885 -1.0173453
 -0.5462731   0.09360686]
[-0.46993375  0.43343592 -0.645572   -0.30244556 -0.53667295  0.13568474
  0.8599785  -0.14028072 -0.38760373  0.3624449   0.2608697  -0.25359756
 -0.232752    0.06085129  0.6806958  -0.355074    0.20338123 -0.639517
 -0.41686565 -0.02067913]
[ 0.38786617  0.56977904  1.0270222   0.35216895 -0.29784423 -0.12472783
  0.17711271  0.9612595  -0.45815825 -0.82199466 -0.66287655  0.22455627
  0.79788166  0.9829808  -0.26659587  0.24486788 -0.37990716 -0.3373648
 -0.32104045  0.6186272 ]
[-0.09818845 -0.03788539  0.35716498 -1.4889967   0.37236854 -0.64650166
 -0.14497201 -0.09240676 -0.7160798  -0.84701693 -0.46008882  0.6046007
 -0.30876407 -0.40354487 -0.18123148 -0.22566064 -0.04998962 -0.05067483
  0.20356095 -0.02683844]
[ 0.13845304 -0.26399523  0.09796881 -1.2867864   0.04395624 -0.9641116
 -0.4899461  -0.69804    -0.4323004  -0.13008688 -0.6302274   0.97244024
  0.02555595 -0.43743554 -0.0495585  -0.62949216  0.053166    0.09795167
  0.24280006 -0.33003736]
[ 1.1636214  -0.9700938   1.5851103   0.01921959  0.84203583 -0.85987234
 -1.540343    0.23146565  0.42751864 -0.39196685 -0.38466886  0.55870456
  0.68753934 -0.34094927 -1.0007637   0.10133447  0.733315    1.1616644
  0.85953736 -0.20829925]
[ 0.5301229   0.05876071 -0.16191877  0.6958788   0.46782473 -0.6934774
  0.55709374  1.8374305   0.07581268  0.2101894  -0.055885    1.3405762
  0.5487829   0.86338574 -0.31154895  0.06626629  0.64648765  1.4493682
 -0.41839463  0.14020275]
[-0.29811463 -0.42654398 -0.09692716  0.27765352 -0.8698285   0.28693694
  0.4821631   1.3025253   0.00851687 -0.41201445  0.64007384 -0.04213776
  0.06922211  0.91218275 -0.17917101 -0.7289104  -0.6778303   0.9824477
 -0.6131213   0.14478861]
[ 0.05612244 -0.08425332  0.26266578 -0.5577771   0.00423101 -2.466978
 -0.11261102  0.0794846  -0.93486327  0.82125187 -0.59813005  1.1965863
 -0.58826596 -0.6955409  -0.1094358   0.75004166 -1.0005913  -1.0182736
 -0.59049076  1.0600666 ]
[-0.02528744  0.61495364 -1.1594307   1.7865689   0.16319667  0.21207586
  1.3952678   0.00792355  0.5805609   0.52278286 -0.18212864  0.3820028
 -0.23370768  0.27210918  0.22227886  0.38339862  0.6616927   0.01637359
 -0.6569392   0.2738517 ]
[ 0.36983642  0.09428439  0.66815054 -0.28085807  1.6495954  -0.6875003
 -0.09996791  0.8325377  -0.5708608  -0.5923081  -0.77618736  1.2730714
  0.38585535  1.0780108  -0.7634328   0.13062108 -0.01067826 -0.11204889
  0.5546865   0.16690916]
[-0.20455013  0.47609723  0.5015116  -0.0963178   0.92938775  0.7850938
 -0.13825832 -0.91240233  0.31112352 -0.2817581   0.2880851  -0.92298365
  0.44354218 -0.28381062 -0.2603268   0.2990838  -0.13070554 -0.23621751
  0.37421423  0.16944098]
[ 0.12276357  0.28198645 -0.7528015  -1.3662453  -0.03992182  0.6783908
 -0.3238813  -1.6087683  -0.4622521   0.3776879   0.01520971 -2.6620376
  0.3405453   0.09084728 -0.20694141 -0.29325256  3.7375898   2.1986814
  0.2587236   0.9725525 ]
[ 0.31926244 -0.33766043 -1.1818101   1.2635214   0.38020423  1.0932956
  0.51093066 -0.49569276 -0.71957576  0.926983   -0.8660909   0.15718567
 -0.64236605  0.8258822   0.01119664  0.34939662 -0.6092448  -0.764432
  0.38430238  1.7909404 ]
[ 0.1974019   1.1813601   0.3754494  -1.0924022  -1.6020834   1.3643998
  1.0048269  -0.6920173  -0.08869588 -0.39747402 -1.2995381  -0.9601566
  0.68886757  0.42166388  0.00422929 -0.03852028 -1.2615035  -2.2826018
 -1.2930956  -1.1294705 ]
[-0.23686054 -0.33726108 -0.45023945  0.8956663  -0.53797764 -1.7642243
  0.35013276 -2.4299603  -2.1371946   1.2505485  -1.8652713   2.3159094
 -2.477211   -2.181018   -0.21123193  2.3461866   1.841042   -0.628451
 -0.89423484 -1.6362321 ]
[ 0.11788896  0.50383586  0.02459031  1.9523232   0.08640044  2.162756
  0.1071678   0.2923233   1.5015221  -1.2546006   1.0069824  -0.07549223
  0.2435014   1.2739886  -0.25268495 -0.988288   -0.6578944   0.17846459
 -0.00558623 -2.503957  ]
[ 0.2395705  -0.9300329   1.4091642  -4.8872304   0.05676638 -1.778035
 -0.45493647  0.10068975  0.5708275   0.13020098  0.6775598  -0.24108863
 -0.589066   -0.40801197 -0.5188083  -1.2591909   0.03693015  1.1810238
  1.3223338  -4.0079513 ]
[-0.7891066   0.38152856 -1.1662807  -0.00427611 -0.53951526  0.568145
  0.7141275  -0.53733516 -0.0841301   0.793664    0.5635073  -0.44643947
 -0.5493557  -0.2884444   0.7730284  -0.2714759  -0.04066373 -0.6651475
 -0.29170504 -0.03176174]
layer 1 Activation
tanh
layer 2 Dense
20 40
[ 0.04134233  0.04334493  0.6025335  -0.14151295  0.9832896  -0.7571039
 -0.5852311  -0.58551824  0.00951089  0.21183904  0.6716529   1.0342697
 -0.02977487  0.00271683  0.26695704  0.15304005  0.27238402  0.70959014
 -0.64975595 -0.4383855  -0.7407053  -0.7739019   0.48829815  0.52229404
  0.30704916 -0.15291317  1.1561251   0.5329332   0.67820734  0.6761434
 -0.25180542  0.72677356  0.66413915 -0.6353537  -0.5595144   1.0626487
 -0.6727149   0.92591923  0.44782805  0.41514713]
[-0.7052856  -0.06610338 -0.4877145   0.3294922  -0.5214003   0.22146817
  0.23019576 -0.05973755 -0.07285254  0.8873905  -0.35150144 -0.56175697
 -0.12224539  0.8604536   0.09604785  0.11987434  0.6646226   0.1420427
  0.66279835 -0.06245617  0.13257441 -0.46653527 -0.30878252 -0.76836395
  0.52826977  0.62667507 -0.09572676 -0.1470627  -0.18631043 -0.5069196
 -0.20642912 -0.41434878 -0.52925813  0.56627125  0.02296353 -0.14656208
  0.12639034 -0.05698588  0.10035641 -0.1154106 ]
[ 0.23961097 -0.8232996   0.8625791  -0.17369087  0.45308736 -0.5581142
 -0.2566105  -0.8642133  -0.72578126  0.73494124  0.25550595  0.32789806
 -0.61725754  0.1247237  -0.28131104 -0.10586642  0.29526842  1.4068618
 -1.34624    -1.3367105  -0.6768015  -1.0419607   0.24560088  0.73207355
  0.11997721 -0.3526276   0.31104746  0.3009963  -0.0026797   0.34260845
 -0.95949036  1.2079116   0.78140086 -0.84181523 -0.39687392  0.6305709
 -0.54740566  0.67376035  0.6264346   0.44954905]
[-1.5633973   0.76365244 -0.4120493   1.4040726   0.29462665  0.08018056
 -0.2173387   0.19362922  1.0425013  -0.09820882 -0.2290489   0.14598265
  1.3671312  -0.13234487 -0.6145573  -1.0669308  -0.49922785 -0.89317137
  0.05951324  0.63836044  0.53969955  1.1844119  -0.8641278  -1.0259373
 -0.08066438 -0.8058433  -0.80260235 -0.53426385  0.44426343 -1.0850315
  0.7749275  -0.40525925 -0.27474532  0.16424352  1.037075   -1.1262251
  0.20797229 -0.708608   -1.1253872  -0.8636274 ]
[ 0.04439837  0.0781889   0.4439705  -0.54085875  1.0228951  -0.16839392
 -0.31795126 -0.69373494 -0.41140413  0.15027526 -0.32156357  0.23800306
 -0.47283542 -0.05971208  0.38978246  0.39681432  0.11826182  0.7923203
 -0.11658412 -0.60437787 -0.7392868  -0.80346996  0.2847402   1.1350895
 -0.04169669 -0.3403705   0.59836406  0.7580699   0.05511642  0.35972363
 -0.5776372   0.69792104  0.4440653  -0.8350868  -0.52057445  0.56618094
 -0.41152608  0.72239184  0.4661738  -0.01826752]
[-0.5712963   0.39442632  0.02971867  1.1899655  -0.16323188  0.42337325
 -0.026692    0.01665494  0.22411087  1.0766071   0.15149981  0.04508631
 -0.5411908   1.0158186  -1.2603793  -1.3429346  -0.94018126 -0.15320675
  0.52244496  0.21273951  0.6541116   0.08724962 -1.0862434  -0.7606806
  0.13350913 -0.7664603  -0.86055505 -0.4456502  -0.48797014 -1.096511
  0.4721997  -0.6493214  -0.17474653 -0.04279997  1.237123   -0.9216685
  0.16445553 -0.83399343 -0.6671599  -0.91397345]
[-0.01655879  0.16522159 -0.5743977   0.65357757 -0.3476669   1.0022409
  0.3371118   0.57576805  0.1450952  -0.43931243 -0.3476274  -0.46994993
  0.04315729  0.23920593 -0.45508587 -0.16394252 -0.40808797 -0.77592176
  0.5780903   0.6535026   0.67540264  0.60201186 -0.61350065 -0.98114645
 -0.1789007   0.16193873 -0.7784453  -0.78588194 -0.2842175  -0.58463556
  0.42235988 -0.8238728  -0.5559492   0.73285186  0.89005846 -1.2355461
  0.84739333 -1.0062047  -0.74268174 -0.6855111 ]
[ 0.20589304 -1.0935721   0.51797587  0.15521789 -0.08647516 -0.47304815
  0.13884754 -0.83911014 -1.3357253   0.18482444  0.32590002 -0.16867112
 -1.6898785   0.32096806  0.7903297   0.6817571   0.6052727   0.89134175
 -0.30277944 -0.39687735 -0.78748685 -0.74771184  0.99638546 -0.3496692
  0.9635167   0.6136326   1.253227    0.60877526 -0.43446445 -0.3382459
 -1.2479872  -0.07812908  0.31270728  0.13009462 -1.1764225   1.1868914
 -0.2766197   1.257888    1.5627694   1.4324958 ]
[ 0.11565043 -0.90628135  0.11277803  0.08694709 -0.19163951  0.5684512
  0.2979403  -0.49595088 -0.6575989   0.7580656   0.44647285  0.15614994
 -0.29072472  0.6562249  -0.66193384 -0.07736199 -0.8454345   0.24671775
 -0.6606125  -0.5683566  -0.48811916 -0.31623462  0.23012692  0.3911771
  0.5782558  -0.36766437  0.24939594 -0.08910591 -0.22660625  0.22535227
  0.18525681  0.14644818  0.92932147  0.5722025  -0.34981635  0.25019524
  0.07974142  0.1093924  -0.05450957  0.8573702 ]
[ 0.34025285  0.67116666  0.02165463 -0.31646368  0.09200168  0.61507976
  0.00164405  0.02077071 -0.0523735  -0.83892274 -0.68207276 -0.08721519
  0.5868021  -0.32378873  0.5631948   0.2796796   0.03655716 -0.616832
  0.51444703  0.30851576 -0.15453835 -0.05692461  0.08060494 -0.29933235
 -0.31281304  0.48593336 -0.5135855   0.26935574  0.04492798 -0.07827727
  0.19953756 -0.6171902   0.09143096  0.47521767  0.18090795 -0.21697706
 -0.06228753 -0.06233667 -0.21565758 -0.83395904]
[-0.43231365 -1.0970889  -0.38276774  0.17507976 -0.60408324  0.2906192
  0.1886799   0.24811536  0.20301923 -0.00859394  0.14673112 -0.03645162
 -0.71378165 -0.21343899  0.02093737 -0.27429757 -0.90116626 -0.40034544
 -0.13454968  0.42594644  0.18333319  0.03217024  0.02852597 -0.2688641
 -0.45527205 -0.33609933  0.25958833 -0.38228866 -1.3745596  -0.07530908
  0.06769814 -0.63262933 -0.5562547   0.09472468  0.10664068 -0.33083403
  0.2824438   0.14472757  0.00740555  0.11424235]
[ 0.36464456  0.38964644 -0.380485    0.17278175 -0.00660967  0.12440308
  0.22534676 -0.01216909 -0.32261273 -0.13787703 -0.19817999 -0.2952537
  0.37687895 -0.88548523  1.5477097   1.1111135   0.86728334  0.20313238
  0.43020394 -0.21710959 -0.30789524  0.15392536  0.7303935   0.4020014
  0.09925765  0.61684483  0.55694115  0.25092012 -0.02463616  0.64128923
 -0.46052793  0.28764042 -0.02607508  0.39718017 -0.6511309   0.6312774
  0.14508136  0.61538076  0.25891718 -0.04266243]
[-0.6427067  -0.05502542 -0.03284184 -0.0665259   0.06511825 -0.18781273
 -0.11753431 -0.41322815  0.02576983  0.49442318  0.394789    0.4109869
 -0.697664    0.36138612 -0.03769401  0.13903426 -0.47745776 -0.12708601
  0.96103096  0.07467628 -0.29754576  0.30407527  0.16075511 -0.02651581
  0.32318553 -0.49302658  0.40139893 -0.15036002  0.3920569  -0.11815408
  0.16455302 -0.53125364 -0.25171867  0.3882644  -0.05115492  0.8469273
  0.27420542  0.5630708   0.4210664   0.76391417]
[-0.6959093   0.02736838  0.5261489   0.931824    0.9845254  -0.04091672
 -0.0326246  -0.17205814  0.06190615  0.8581333   0.80798936  0.41634127
 -0.07122473  0.57652336 -0.15821065 -0.11851352 -0.13357925 -0.34111115
  0.14518747  0.18794128 -0.22314197  0.21302103 -0.20243883 -0.22366323
  1.1534566   0.10489751  0.05875502 -0.03516821  0.1481674  -0.56047714
  0.06986549 -0.46657646  0.1696106  -0.01778315  0.29248217 -0.32976803
 -0.5488332   0.08080587  0.45191082 -0.0452996 ]
[-0.03396214 -0.08575181 -0.6371553   0.48355427 -0.8424547   0.92326343
  1.3034297   0.78645825  0.4731879  -0.5158274  -0.23613136 -0.9658413
  0.30316216 -0.39119917 -0.4382588  -0.14534721 -0.5367201  -0.79390484
  0.37314063  0.60282433  0.879927    0.4705336  -0.7724274  -0.599606
 -0.42274538 -0.4372562  -1.0514908  -0.53553116 -0.79564285 -0.5911743
  0.63067925 -0.34084737 -0.52003735  0.5137141   0.5676381  -0.861212
  0.806561   -1.0434146  -0.66046506 -0.9107148 ]
[-6.8754202e-01  6.9565165e-01 -2.4699064e-01 -2.9578385e-01
 -1.0394648e-01  5.7470530e-02  2.6730701e-01 -8.1275010e-01
  1.4603060e-01 -1.0495743e+00 -8.0737972e-01 -1.7095191e-02
  5.3640920e-01 -5.0556433e-01  4.3085116e-01  4.0899065e-01
  7.0594376e-01  1.2895727e-04  1.2517726e-01 -6.5439677e-01
 -4.2329642e-01 -2.3974402e-01  2.2490971e-01 -6.2450504e-01
 -1.2892580e-01  5.1723903e-01  6.4762361e-02 -5.4682437e-02
  1.0961329e+00  3.8007542e-01 -3.1735465e-01 -5.2067735e-03
  5.5444598e-01  4.1305605e-02 -1.0164788e-01  1.8395686e-01
  1.9665304e-01  2.3831140e-01 -2.5587094e-01 -3.9965007e-02]
[ 0.36151066  0.38389415 -0.2926289  -0.5099235  -0.0973652   0.5243142
  0.09880394 -0.01152985 -0.4491686  -0.07801057 -0.07054686 -0.16921104
 -0.67677     0.05850405 -0.23415786  0.25106308  0.9158231   0.5227696
  0.9922401  -0.0853541  -0.22704437 -0.72257644  0.71798337  0.42125598
 -0.8983801   0.20285419  0.61857176  0.31389058  1.2773975   1.0215808
 -0.00232311  0.00859497  0.13435107  0.41493395 -0.6583972   0.61667067
  0.2313075   0.39346313  0.04678228 -0.03541279]
[ 0.5677281  -0.5994673   0.48310453  0.4891939   0.74638367 -0.5627181
 -0.08291686 -0.48333466 -1.3185898   0.508732    0.7059492   0.00312709
 -1.3146333  -0.0832776   0.3970869  -0.34964642  0.8019645   0.49874994
  0.66954964 -0.27836573 -1.0562558  -0.75103647  1.2919301   0.5582398
 -0.30317262 -0.10923709  1.0831434   0.7177457   0.5710681   0.48865446
 -0.89170295 -0.14946096  0.7428236   0.3042455  -1.1288371   1.2539645
 -0.18734154  1.303962    1.1854439   1.0260985 ]
[-0.28483883 -0.46597144  0.21193483 -0.36008665 -0.31687835 -0.228857
 -0.46967798 -0.3918429  -0.06404892  0.30479857  0.6073843   0.24574564
 -0.06315443 -0.3222034   0.01350994 -0.06452779 -0.5530381  -0.19127886
  0.23840415 -0.214818   -0.2310603  -0.29326752  0.5314145   1.1101594
 -0.41972446 -0.9142355   0.35194463  0.23063123 -0.0299463   0.56131715
 -0.04823867 -0.03569341  0.2901385  -0.4069785  -0.25127274  0.5363368
  0.06168852  0.624482    0.16909285  0.3127625 ]
[-0.3925114   1.6082373  -0.32527867  1.4556817   0.16893823  0.29800138
 -0.0141526  -0.0960202   1.070128   -0.31314746 -0.262752    0.74096376
  1.5863856  -0.5743443  -0.59179497 -1.1753662  -0.3959593  -0.9412172
  0.30402684  0.5855302   0.5680931   1.0989419  -0.93779343 -0.78247756
  0.40908217 -0.04111949 -0.821071   -0.53382444  0.37344036 -1.1047152
  0.62405074 -0.4506519  -0.2211203   0.36449522  1.100477   -1.2114925
  0.11742111 -0.58633494 -1.257016   -0.8608689 ]
[ 0.13501507  0.07407551 -0.611497    0.26360145 -0.5602499   0.75123245
  0.70448095  0.66786504  0.48666316 -0.10681332 -0.33025122 -0.68427604
  0.3182159  -0.16282377 -0.28083897 -0.28806514 -0.28599894 -0.7179795
  0.35096693  0.54410833  0.7061488   0.5584901  -0.7620346  -0.7196661
 -0.43641266  0.05522716 -1.1088277  -0.4825447  -0.6236463  -0.4290587
  0.63629496 -0.5473907  -0.63829035  0.57818216  0.46193454 -0.7004866
  0.69532305 -0.62431175 -0.55508393 -0.8207145 ]
layer 3 Activation
tanh
layer 4 Dense
40 20
[ 0.36019626  0.4934813   0.9496373  -0.15179077  0.20116037 -0.20142177
 -0.10615151 -0.48997968 -0.45122832 -0.15592065 -0.35339963  0.3504546
  0.05061171 -0.3548237  -0.08157481 -0.07592291  0.10475671 -0.19017375
  0.02042967  0.17856316]
[ 0.2594847  -0.4370154  -0.1254145   0.64460576 -0.2243885   0.84611636
 -0.54442114  1.2476585   0.89204854  0.19523884  0.85462016 -0.11871663
  0.64342326  0.46749115 -0.52208996  0.18486992 -0.02701605 -0.0819661
  0.17750154 -0.126251  ]
[-0.33681557  0.17448558  0.20516789  0.03955479  0.11962075 -0.0131689
 -0.4828711   0.19158572  0.71129346 -0.11314776 -0.05287331 -0.35652304
 -0.22930624  0.34995434  0.08478576  0.6435904  -0.9349804   0.8216158
 -0.21160917 -0.91743284]
[-0.10866937 -0.81284106 -0.47840047  0.78476626 -0.76014435  0.11368094
 -0.42549255  0.5062443   1.3286977   0.3206583   0.9233333   0.17654853
  0.20900773  0.21577737 -0.85851324 -0.29317623 -0.18773352  0.678898
  0.7699689  -0.04694606]
[-0.62209105  0.20898286  0.6016404   0.36701238  0.48584458  0.00827634
 -1.3041316   0.11495399 -0.32815793 -0.13664258  0.31060332 -0.44603384
 -0.24639806  0.6697307  -0.06638432  0.5042421  -0.508816    0.6101186
 -0.04354012 -0.639201  ]
[ 0.67665696 -0.21068463 -0.31839585 -0.3463135  -0.03457025 -0.3596315
  0.27095237  0.3757442  -0.14974838  0.32579327  0.2311854   0.5153528
  0.60628873 -0.38908935 -0.3124836  -0.13571803  0.6041511  -0.09020121
  0.31987742  0.67415947]
[ 0.5757037  -0.04320475  0.04302462  0.16696416 -0.09990943 -0.22100015
  1.0285183  -0.10410649  0.148271    0.43591982  0.22487114  0.6139554
  0.35144526 -0.7059847   0.15098211 -0.3828601   0.3645364  -0.8639287
  0.15536328  0.58685553]
[ 0.02868827 -0.47255412 -0.32495338 -0.5232676  -0.30006868  0.9635763
  0.01512122  0.18611477  0.9196856   0.5834632   0.21808566 -0.06858853
  0.57149523 -0.15917659 -0.4163459  -0.04861736  0.17680024 -0.5615331
 -0.3037024   0.7924009 ]
[-0.08844164 -0.20686467 -0.37356248  0.7278853  -0.33001098  0.9430841
 -0.25911513  0.14272226  0.96285623  0.10107598  0.52438176  0.3111749
  0.12124044  0.02640611 -0.21615463 -0.09436122  0.495574   -0.18858454
  0.02231014 -0.14388531]
[-0.4058882  -0.06530616 -0.42036796  0.21228237 -0.00932121  0.16166878
 -0.9281179   0.48902643  0.00379492 -0.4941038  -0.41222465 -0.43241534
 -0.14157875  0.9277429   0.19362378  0.44021586 -0.11504718  0.26482055
  0.24181716 -0.49437797]
[-0.05318134  0.17775989  0.16084696  0.00679565  0.20181952  0.16951215
  0.17502806  0.11101513  0.6221941  -0.20455337  0.61345255 -0.26256973
  0.15884644  0.16449673  0.16731276  0.5000572  -0.21546182  0.30229446
 -0.27832654 -0.485777  ]
[-0.65195566 -0.07978875 -0.2346229  -0.24572416  0.23344837  0.3003908
 -0.8059679   0.30016068  0.15762769 -0.49781355 -0.04133656 -0.58859754
 -0.3975257   1.2564844  -0.09958272  0.22352181 -0.35217127  0.2662529
 -0.207469   -1.0670699 ]
[-0.5256029  -0.72982985 -1.0353075   1.4355258  -0.23305024  1.079116
 -0.71031666  0.5545123   1.1645596   0.65827763  1.2897438  -0.15990834
  0.42094845  0.05233852 -1.0450249  -0.19939968  0.08051249 -0.26995772
  1.0745955   0.08528788]
[-0.44837514 -0.0910604  -0.24934609  0.33745039 -0.12719202  0.3350981
 -0.8589408   0.30776635  0.10773575 -0.12959719 -0.32168907 -0.5173057
  0.07394647  0.454327   -0.2106123   0.39275151 -0.3224038   0.36673072
  0.30628657 -1.0392234 ]
[-0.27242     0.14755622 -0.21520492 -0.70105314  0.5234374  -0.4246982
 -0.3018795  -0.28922606 -1.0398321  -0.31618765 -0.1979494  -0.17996222
 -0.38216734 -0.04556095  0.06498711 -0.10485802 -0.13932505  0.36113328
  0.15427598  0.3107759 ]
[-0.12990324  0.46413583  0.20395257 -0.5404225   0.7492127  -0.6394479
 -0.09688066 -0.42490318 -1.0264218  -0.10622697 -0.33529598  0.27881917
 -0.12110423  0.10324377  0.34842592 -0.32812166  0.2506463  -0.07489438
 -0.13110794  0.48273224]
[-0.15505429  0.37395844  0.30941713 -0.67989415 -0.01207323 -0.43279716
 -0.11373813  0.6826965  -0.6219773  -0.45143828 -0.36574718  0.20750982
 -0.34869272  0.22066876  0.5911826   0.0675194  -0.20827614  0.1702769
  0.02354139 -0.27241513]
[-0.24834202  0.23153508  0.87967336  0.03842075  0.46545598 -0.15100208
  0.14274949 -0.1744312  -0.07670303 -0.400485   -0.9436582  -0.22024046
 -0.952314   -0.01823233  0.5150608   0.48374686 -0.9877756   0.20540158
 -0.06938946 -0.36305508]
[ 0.5080048  -0.06231467 -0.49843875  0.41329795 -0.0661708   0.00377946
  0.21305838  0.29514295 -0.44664893  0.1330412   1.0717025   0.7466133
 -0.13688157 -0.42773038 -0.12588334 -0.6074796   0.930011   -0.37435603
 -0.08111459  0.97399884]
[ 0.35553357 -0.29017174 -0.41931015 -0.14419533 -0.04137619  0.39078176
  0.46918282  0.06742306 -0.4519256   0.2865813   0.3642919   0.21153912
  0.26494166 -0.3374235   0.08088467 -0.5132813   0.2589204  -0.69529784
 -0.06552079  0.99299824]
[ 0.40367854 -0.77641565 -1.0550302  -0.25495028 -0.1100451   0.7806777
 -0.34899113  0.05953543  0.51986027  1.4330192   0.09296446  0.06320967
  1.0348091  -0.12812993 -0.29302034 -0.34519678  0.10101809 -1.1229358
  0.5193431   0.40649045]
[ 0.08905493 -0.9227604  -0.14266182  0.44809857 -0.44910094  0.42371097
  0.34603405  0.19958231  0.5027962   0.19974947  1.2637267  -0.18601544
  1.088139    0.25674003 -0.45010212 -0.2689638   0.4336256  -0.6961211
  0.02003067  0.03751589]
[-0.2721446   0.6375166   0.95999515 -0.80508274  0.66062814 -1.0684797
 -0.07852201 -0.03044618 -1.3390896  -0.5669791  -0.11740492  0.15669951
 -0.44356117  0.3945889   0.4451145  -0.031578   -0.2011541   0.41906226
 -0.29332447 -0.9685969 ]
[-0.17090435  0.9422556   0.8793761  -0.358831    1.0137438   0.03231255
  0.5089813  -0.30671152 -0.23856087 -0.8114623  -0.5864473   0.04021735
 -0.16742963 -0.07773599  0.6032559  -0.12413128 -0.37168756 -0.24798293
 -0.26676953 -0.10717907]
[-0.4744303   0.33793882  0.39977756  0.18669958  0.03218543  0.10259139
 -0.37980345  0.7139504   0.18336459  0.07642671 -0.02340671 -0.4513281
  0.23161979  0.5943013   0.0724852   0.30841136 -0.7256906   0.25105453
  0.1877312  -0.84851223]
[-0.3358186  -0.1384638  -0.04190563 -0.58218306 -0.21780212 -0.05859241
 -0.7069306   0.02232217 -0.06595263  0.35700712  0.35964864 -0.38004002
 -0.00781765  0.8039686  -0.2164523   0.06912082 -0.38340747  0.07581533
  0.13909906 -0.21786736]
[ 0.06691243  1.1221973   1.4767739  -0.5092856   0.8787089  -0.8287311
 -0.13911489 -0.03853682 -1.0942631  -1.2879242  -0.15682912 -0.02545475
 -1.1548845   0.67659175  0.8109847   0.17245391 -0.20520465  0.2806158
 -1.4806365  -0.52655715]
[-0.21260689  0.32056996 -0.26304266 -0.2778161   0.23017965 -0.62404144
 -0.5861938  -0.08454435 -0.643241   -0.01003212 -0.0926613  -0.2743439
 -0.2638926   0.39105916  0.17010078  0.1044847  -0.0916677   0.4215961
 -0.1510916  -0.21651405]
[-0.03054616  0.22702575 -0.3776839  -0.00924789  0.94694024  0.0663608
 -0.14558816  0.75717854  0.28856996 -0.15633756 -0.05705771 -0.15151908
 -0.4985539   0.5433009   0.6954733  -0.01729897 -0.2306539   0.442299
  0.17383227 -0.88598084]
[ 0.08744349  1.0004585   0.42496067 -0.6061684   0.8843584  -0.37028694
 -0.22136681 -0.12338679 -1.0647262  -0.3951802  -0.49578512  0.02518243
 -0.2308652  -0.25252312  0.528026   -0.09229941  0.21260692  0.11057387
 -0.7486487  -0.22865143]
[ 0.06066482 -0.10795408 -0.58596396  0.77101177 -0.41960195  0.7137233
 -0.19411506  0.02168913  0.1706726  -0.0594039   0.5268298   0.0501128
  0.5383963  -0.15292093 -0.27161044 -0.19628212  0.3479946  -0.5568544
  0.20684595  0.22984548]
[-0.2706368   0.46305385  0.21207038 -0.21520975 -0.20603102  0.1051951
  0.21126044 -0.060697    0.32180408  0.02832787 -0.7854637  -0.39203423
  0.05990787  0.07585155  0.4506385   0.2635858  -1.0985619   0.02219599
 -0.24151693 -0.49223298]
[-0.4343218   0.1408899   0.30258077  0.10014587 -0.08397407 -0.6506393
 -0.59597224 -0.21463972  0.63354087 -0.3274676  -0.14385688 -0.40192577
 -0.28856334  0.3945449   0.06861529  0.49399525 -0.5842182   0.58595043
  0.05884301 -1.1077951 ]
[ 0.41234505 -0.04986856  0.10938878 -0.48405275 -0.03094026 -0.31459597
  0.74867165  0.31851915  0.4085668   0.2108921   0.77995986  0.42251706
 -0.04139118 -0.43543094 -0.21035549 -0.18716694  0.56698173 -0.38587996
  0.29892913  0.7180476 ]
[-0.20274237 -0.61039335 -0.17014717  1.0294187  -0.5319731   1.4275434
 -0.52063155  0.099748    1.1224782   0.40697917  0.38332465  0.22649327
  0.80351096 -0.14409271 -1.3325284   0.03366262 -0.26468247  0.14506581
  0.38151348  0.24893384]
[-0.14141503  1.4893638   1.3511212  -0.7490779   1.0194167  -0.49701878
 -0.15809144 -0.6404871  -0.43100023 -0.40568015 -0.26450598 -0.12988193
 -1.8428961  -0.09331353  1.2757807   0.41873303 -0.2197501   0.36146173
 -0.8799344  -0.40654543]
[ 0.6964677  -0.33560923 -0.18619938  0.29147017 -0.4789638  -0.10404444
  0.9882279  -0.15848598  0.17225143  0.3911293  -0.09204171  0.51889086
  0.39113575 -0.83023846 -0.18586735 -0.37714505  0.58913267 -0.39417672
  0.39671254  0.87750983]
[-0.03766607  0.9730044   1.9078854  -0.19885375  1.2280823  -0.43195972
  0.02777996 -0.25872937 -1.5265204  -0.96082866 -0.41343236 -0.3401728
 -1.0679144   0.56813353  0.8794369   0.16062392 -0.14302409 -0.00548552
 -1.5636792  -0.29275092]
[ 0.345821    0.84505963  0.97177094 -0.6984457   0.5249062  -0.48131225
  0.36995775 -0.22620726 -1.0018517  -0.7898511  -0.6755718  -0.13141017
 -0.9385486  -0.38111752  0.32984453  0.20965305 -0.7396554   0.13359356
 -1.1117632   0.11056014]
[ 0.0265287   0.7146717   1.610842   -0.4866085   0.55586576 -0.44438422
  0.2586151  -0.08271702 -0.9402208  -0.57641536 -0.3636485  -0.2263217
 -0.01516004  0.24750827  0.936427   -0.02791013 -0.3416539   0.40958646
 -0.92775923 -0.00773074]
[ 2.8342560e-01  8.1171401e-02 -1.4247385e-01 -4.7582168e-02
 -1.2261411e-01 -8.3988474e-05  8.7549567e-01 -2.4522245e-01
 -9.3656786e-02  3.1195745e-01 -5.9877507e-02  3.3396602e-01
  3.6877495e-01 -6.4570129e-01  1.7664059e-01 -1.4001974e-01
  5.3982717e-01 -4.6547776e-01  9.2357419e-02  6.7779124e-01]
layer 5 Activation
tanh
layer 6 Dense
20 1
[0.55494505]
[0.4238772]
[0.3621785]
[-0.09483375]
[0.3049043]
[-0.35245913]
[0.6763986]
[-0.18355349]
[-0.11686611]
[-0.22840965]
[-0.35393474]
[0.3333623]
[-0.4116262]
[-0.5202925]
[0.457799]
[-0.25182363]
[0.21795762]
[-0.2568406]
[-0.6185175]
[0.17061803]
[0.8927711]
