layers 7
layer 0 Dense
20 20
[ 0.04599982 -0.04719321 -0.30332372  0.07113048 -0.03267996 -0.38209966
 -0.11163162  0.1837534   0.15888123 -0.0384639  -0.02743544  0.44003993
  0.35909018 -0.13749705  0.1347724  -0.04107956  0.13422914  0.09419423
  0.39319137  0.07447848]
[-0.07940911  0.07322985 -0.35979372 -0.24648531  0.23540612  0.35571858
  0.3624142  -0.06934074  0.00558365  0.06721359 -0.33278698 -0.01764459
 -0.09416693  0.32371387 -0.5319791   0.21999058 -0.1322399  -0.22425014
 -0.1389719   0.30978054]
[-0.3687242  -0.33581153 -0.3966309  -0.39951402 -0.38117126 -0.12138031
  0.39670697  0.5634366   0.42202634 -0.04849386 -0.21814507  0.529793
  0.10995393  0.33827412 -0.20011875  0.32936043 -0.34013447  0.00999153
 -0.19667998  0.3407792 ]
[-0.36802074  0.14646491  0.3091727  -0.13241684 -0.21704845 -0.3576754
  0.08707074 -0.16554284  0.01110468 -0.2131941  -0.01887041 -0.27746135
  0.14342369 -0.20893702 -0.15252434 -0.33013415  0.20680173 -0.19428103
 -0.21855783 -0.19968697]
[-0.12992735  0.3218525  -0.10576956 -0.0154119  -0.17653693  0.19882426
 -0.2184934  -0.18454991 -0.05167774  0.33413172 -0.09460715 -0.33887064
  0.15744056 -0.30690172  0.13655658 -0.0614162  -0.00548264 -0.33699745
  0.34396023  0.11658497]
[-0.20396407  0.3657705   0.32747516  0.35927552 -0.05595444  0.05304291
  0.18842012 -0.34699377 -0.19933018 -0.33868718  0.01489358 -0.28679633
  0.05240541 -0.28137514  0.32072163 -0.1084739  -0.4327218   0.44777498
  0.06053985 -0.46438035]
[ 0.08960837  0.34297857  0.0659089   0.37331897 -0.34942225 -0.35973486
 -0.286106    0.10508459 -0.10612474 -0.60847133 -0.06336047 -0.17020431
  0.54239017 -0.50657755  0.73885286  0.15971543 -0.2741911  -0.28383324
  0.16315137 -0.21594436]
[ 0.0215284   0.20514257 -0.12989844 -0.03143494 -0.06376133 -0.03527174
  0.33018106 -0.44764897 -0.55872667 -0.07836899  0.11447387  0.21467142
 -0.28133962 -0.40722543 -0.23511529 -0.3923414  -0.16910736  0.04410657
 -0.22215517 -0.43586093]
[ 0.10124732  0.15664281 -0.05488377 -0.17146824 -0.48345494 -0.47383103
  0.07980459 -0.02278201  0.01036408  0.10962326  0.05700674  0.01191065
  0.22878319 -0.11053328 -0.02446987 -0.3631746   0.13729088  0.04854964
  0.17313813 -0.39321393]
[-0.12901899 -0.25359195 -0.00353095 -0.177779    0.04141188 -0.63746685
 -0.10534223 -0.3970544  -0.2858763   0.06246559 -0.11658232  0.00981769
 -0.31776994  0.2836912  -0.6007366  -0.22469042 -0.23917224  0.15767221
  0.28958505 -0.26239794]
[-0.19683637 -0.28373665 -0.13812676  0.04941552 -0.04498534  0.2207615
 -0.13472575 -0.15720093  0.07856181  0.35071975 -0.00785024  0.11124243
 -0.23278503 -0.39110753 -0.10350434  0.19517495  0.34120136 -0.17564875
 -0.02356698  0.3353481 ]
[-0.2350191  -0.07793982  0.23860419 -0.5637096   0.85963833  1.2612514
 -0.13762686  0.4162681   0.65175307  0.71385574 -0.18696216 -0.1789745
  0.18739913  0.84902143 -0.26267555  0.20890012 -0.36342627 -0.16253237
 -0.22937123  0.6470867 ]
[-0.12137529 -0.16674513 -0.52033967 -0.05444266 -0.4639616   0.02439602
 -0.16077831  0.09210442  0.08489786 -0.07922109  0.01869871 -0.03918927
 -0.4467905   0.06822053  0.02071754 -0.31143835  0.16256578  0.16785623
  0.43345922  0.24407664]
[-0.10794503 -0.09784903 -0.26038826 -0.02020447  0.01487401 -0.40098587
 -0.03844186 -0.08376949  0.13308851  0.02310539  0.1359723  -0.15315534
  0.0336166   0.1574336  -0.08725864 -0.0661294   0.08130625  0.17780265
  0.17471562  0.14670187]
[-0.16849212 -0.2192383  -0.03876404 -0.00386024  0.08092153 -0.29926383
 -0.11202902 -0.08432228  0.2170664   0.561783    0.04727424  0.0519316
 -0.09677012  0.1769905  -0.18419977 -0.06348787  0.5147391  -0.09591921
  0.40817374  0.27851966]
[ 0.24092697 -0.41191268  0.05183218 -0.2102145   0.3649855   0.8169865
  0.11182299  0.24223135  0.33278117  0.5297301  -0.05300359 -0.4935161
 -0.48888773  0.15571094 -0.46105886 -0.24323258 -0.65188926 -0.61539227
 -0.2674772   0.37041992]
[ 0.07853194 -0.13336088  0.35869783  0.09866857  0.66188174 -0.10972133
  0.1255011   0.22294588  0.3520712   0.12054072  0.29030907  0.26823193
  0.04612701  0.20906758 -0.45970613  0.29988754 -0.07564051  0.31092244
 -0.38324806  0.09529969]
[-0.04302435 -0.2669517  -0.08409538  0.1866736   0.55302006  0.7273144
  0.51453894 -0.32699922  0.00948281 -0.0980896   0.06512564  0.30096868
  0.5266826  -0.8014526   0.42389157  0.6327891   0.50223315  0.5044517
 -0.8679338   0.2976253 ]
[-0.08007626  0.3592741   0.6762054  -0.05533086  0.81076396 -0.53026915
  0.15346326 -0.09588042  0.19171464 -1.0809845   0.8368709  -0.4099947
  0.5003421  -0.02846288  0.43438238  0.4682422  -0.83563346  0.8749987
 -0.4870761  -0.25469032]
[ 0.41655755  0.73816574 -0.05122594  0.6342692   0.03980127 -0.09516663
 -0.0124757  -0.38311082 -0.08953953 -0.67651355  0.51540786  0.5511085
 -0.03661789 -0.88118744  0.32342416 -0.34474003  0.6325883   0.57211304
  0.88435555 -0.85732687]
[-0.31842744 -0.12391357  0.01970189 -0.10268608 -0.17206967 -0.08110841
 -0.05662721  0.11214579  0.14017555  0.0551508  -0.10700656  0.07458971
  0.03410609  0.02664641  0.06619475  0.06576369  0.0365112   0.02921739
  0.03514104  0.03653411]
layer 1 Activation
tanh
layer 2 Dense
20 40
[ 0.14406998  0.16153325  0.18372686  0.13819619  0.19665398 -0.07133478
 -0.03129201  0.06348421  0.28931564 -0.25588456  0.0491416  -0.26274982
 -0.07960743 -0.04670484 -0.20568557  0.12397452 -0.1699165  -0.10029471
  0.15207395  0.24611196 -0.2129313  -0.20426364  0.09730779  0.02575178
  0.12563753  0.16635936  0.1179571   0.01029423  0.24230397  0.22147284
  0.267212   -0.00522406 -0.1475776   0.09284242 -0.20790277 -0.27650604
  0.0232358  -0.02580055  0.0332195   0.09446116]
[ 0.02390679  0.27615115  0.2660739   0.0634084  -0.54828215  0.14690147
 -0.09810424  0.15074082  0.03827336 -0.14687198  0.06660729 -0.06316342
 -0.17873976  0.17370112 -0.2000577  -0.10001642  0.01434493  0.1544498
  0.02567626  0.2654687  -0.07112758  0.07101306  0.21905264 -0.10500478
 -0.06483209  0.00606962 -0.07312721 -0.23374936 -0.0696903   0.00497372
  0.25543192 -0.08671785 -0.19313237  0.2096085  -0.00722419 -0.07532774
  0.18809702  0.26088    -0.11289024 -0.01649935]
[ 0.2471581   0.12007827 -0.338137    0.13639656 -0.12329546 -0.24534084
  0.15029639 -0.18087164 -0.21823019  0.30597094 -0.20682666 -0.01792727
 -0.10184681  0.12509234 -0.05774457 -0.11887188 -0.00728253 -0.12906738
  0.26752776 -0.37795997  0.00469672  0.01995655  0.2659868  -0.16608714
 -0.16789673  0.21728511 -0.16241866 -0.16460094 -0.19444297  0.19517834
  0.2617005  -0.09741691 -0.2062018   0.08265583 -0.0564121   0.08605257
 -0.15503761 -0.14366174  0.04015905  0.04444451]
[ 0.09084997  0.06991722  0.3220138   0.07766397  0.12404504  0.32179895
  0.01146312 -0.13472696  0.00482427  0.2176324  -0.08478125  0.21074337
 -0.12641922 -0.09021132  0.14736854 -0.04144871  0.06580485  0.02977166
 -0.23873949  0.21724764  0.06727112 -0.14094907  0.28985193 -0.17136797
 -0.15003532 -0.21655446 -0.15490924  0.16409184  0.16242045 -0.15062067
  0.26359826  0.15534163 -0.2236801  -0.29279453 -0.26502886  0.13670218
  0.1621297   0.04408423  0.12317317  0.05700512]
[-0.07619353  0.12425958  0.13197154  0.11754318 -0.10379768 -0.1222762
 -0.11726747 -0.12479834 -0.23060828  0.30154446 -0.2202365  -0.32925963
 -0.32183892 -0.3015496  -0.29678297  0.0372075   0.01961908  0.34661466
 -0.12340149 -0.13172445  0.21398756  0.01041231  0.2378105   0.1081328
  0.2312391   0.14747354 -0.04518517 -0.0481172  -0.03396219  0.09483138
  0.01077998 -0.23429951  0.29079244  0.27216756  0.23411825  0.10393558
  0.20261717  0.1933466   0.1924231   0.29750916]
[ 0.20879976  0.06127892  0.23925357  0.16629772 -0.01428168 -0.00136688
 -0.06457283 -0.06688038  0.13308205 -0.09570011  0.23935176  0.275165
 -0.05358575 -0.33475196 -0.00701661  0.04901148 -0.01524035 -0.13014442
  0.05361585 -0.34177718 -0.11174203 -0.20888652 -0.01344173 -0.16148674
  0.3580803   0.19533563 -0.30030158 -0.01559667 -0.11499953 -0.22966865
 -0.2259696   0.22986187 -0.02038226  0.09490561 -0.30247584  0.06926969
  0.25684395 -0.16454405  0.44503656  0.32539386]
[-0.15721016 -0.13378394  0.24030553  0.22855178  0.03308194  0.22196521
  0.2899648   0.02902249  0.0926726   0.15117693 -0.05956824 -0.20585927
 -0.17501442 -0.26462147  0.07238486 -0.22612293  0.08952413 -0.01498047
 -0.2226206   0.08450763  0.16752268  0.07974225  0.20174697 -0.11897756
 -0.03610216  0.03946089  0.06915274 -0.0367231  -0.06168593  0.10130951
  0.10589714  0.11053212 -0.0581408   0.18031053  0.04714414  0.17759687
  0.15891178  0.2059245   0.04859968  0.17406331]
[ 0.14205304 -0.07998014  0.18520266 -0.17999595  0.22344315  0.0596284
 -0.00361447 -0.20037422 -0.37864724  0.16137746 -0.19802193  0.30826628
 -0.09148822  0.2514925  -0.04836088  0.13109379  0.01951372 -0.18562578
  0.07773454 -0.31535652  0.09405585 -0.16410418  0.06243776  0.15649775
 -0.02503804 -0.3474478  -0.4319968  -0.15371768 -0.1833267   0.02880279
 -0.2691869   0.18163922  0.10668399 -0.23414855 -0.12823972 -0.09443975
  0.16061397 -0.07590047  0.30077586 -0.15739042]
[ 0.01994378 -0.29489267 -0.03672114  0.04601558  0.06497962  0.11123143
  0.15478443 -0.06156871 -0.02547575  0.27515584 -0.14207037 -0.27698252
 -0.07826338  0.20756936  0.1962052   0.10424101  0.28937146  0.14007774
  0.05911031 -0.3121195  -0.18270208 -0.10101423  0.01538031 -0.08958506
  0.186068    0.18410473 -0.33761865 -0.18969679  0.1337944  -0.01154517
  0.04555373 -0.06793296  0.1019531   0.00968803  0.20078154 -0.00170241
  0.18057102 -0.04660366 -0.04890779  0.4012576 ]
[-0.13055329 -0.3165582   0.05917735  0.06578375 -0.18832016  0.24012955
 -0.07056869 -0.03385873  0.03342003  0.0968082   0.26212174 -0.10093322
  0.17554809 -0.04724684  0.0545677   0.00430798  0.23478901 -0.14429738
 -0.04740623 -0.1501658  -0.17824951 -0.27742296 -0.4256352  -0.12495464
 -0.0744186  -0.0730268   0.21558303  0.3718925   0.19044007 -0.12320772
  0.04725453  0.15258494  0.2851214   0.12793271  0.03169152 -0.1460397
 -0.1729283  -0.11224567  0.09889779 -0.09931887]
[ 0.2391387   0.31310844 -0.09023186  0.15521556  0.03977164  0.2511181
 -0.14752449  0.2526075   0.10945784  0.00301648 -0.40306622 -0.3550625
  0.3545665   0.01327422  0.00928596 -0.3337475   0.22813123  0.07833069
  0.19526035  0.3392595   0.19716308 -0.01140546  0.6211627  -0.02078974
  0.22730963  0.09471791 -0.22097789 -0.3220625   0.20234767 -0.07340284
  0.17892812 -0.14921908 -0.01785003 -0.05939107 -0.2890093   0.09060837
  0.28832042  0.0623835   0.27673948  0.1130684 ]
[-0.04753738 -0.24418065  0.23044255  0.16810976  0.35452706  0.16803066
 -0.0259568  -0.45929986  0.13580804 -0.10348359 -0.04731143 -0.22762586
 -0.0179141  -0.20613278 -0.04340405 -0.11920341 -0.08253614  0.115748
 -0.2321839  -0.00189482 -0.081273    0.11115798  0.11983579 -0.07829855
  0.02114971  0.16734648 -0.03658819 -0.21280266 -0.23575638  0.05095506
 -0.06310251  0.28725392 -0.19655997 -0.04389761  0.05714266  0.03065313
 -0.29467767  0.12955917 -0.10556653  0.27918229]
[-0.09507623 -0.14750375  0.09287747  0.14481719  0.20853059 -0.26130813
 -0.02326327 -0.26161623 -0.24567598  0.16755939  0.00548904 -0.20917319
 -0.32399967  0.17209417  0.08451616 -0.11940825 -0.08128342  0.12020895
 -0.23763216 -0.09866022  0.26170224 -0.0914466   0.25999478  0.05526398
 -0.02542436  0.2842372  -0.03742529 -0.3132886  -0.15961324 -0.24541464
  0.05307926 -0.10213396  0.28038588 -0.10109408 -0.04575983  0.11800926
  0.04139093  0.21350841  0.16418374  0.13579799]
[ 0.06798296  0.21515018  0.13600035 -0.24055034 -0.2865056   0.33603808
 -0.3060955  -0.00621222  0.0765808  -0.28316027  0.3067515  -0.24044837
  0.33560652 -0.09152752  0.00678288 -0.00550878  0.13334653 -0.12116241
 -0.05675616 -0.7192679  -0.23533322  0.02251449 -0.45501482  0.04796498
  0.12611967 -0.3216845  -0.08374204 -0.18240014 -0.1312706  -0.2526476
 -0.31160393 -0.22720547  0.10015918 -0.22054379 -0.17777057 -0.2863603
  0.10572931  0.02671277 -0.15899031 -0.00611088]
[-0.02707435 -0.10983466 -0.39110455  0.02790561 -0.17423151 -0.09513758
  0.0431021   0.2673893   0.22947438  0.08417563 -0.27435237  0.14390732
 -0.29592353 -0.15272614 -0.03507915  0.03490173  0.15085252 -0.06203064
 -0.13867947  0.10994393  0.24752952 -0.08681176  0.33491197 -0.44198573
 -0.06145784  0.03825887 -0.15248394 -0.30581754  0.00633422 -0.02112026
 -0.17093882  0.29068643  0.2731139  -0.10891955  0.32781678  0.03372206
  0.09999002  0.00314704 -0.15050763  0.18816969]
[-0.21164055 -0.2613389  -0.2606084   0.27261925  0.32914042  0.01656585
 -0.06725176 -0.17015329 -0.06815157  0.2219157  -0.22048889 -0.17915407
 -0.29824942  0.28086802  0.16811897  0.24401116 -0.11181427  0.07018955
  0.13928664 -0.23848517  0.17159115 -0.1181004  -0.01799591 -0.14906493
  0.2313109   0.22520842  0.0302496  -0.26291078 -0.04195417  0.04253153
 -0.10867095 -0.07642789  0.10870562  0.20647252 -0.11611444  0.16103438
  0.16421524 -0.08970901  0.05886132 -0.00358667]
[ 0.0365272  -0.37946305 -0.1576687  -0.13220564  0.21946946 -0.31713364
 -0.15054671  0.18783025 -0.06756463 -0.07487736  0.02834365  0.38474736
 -0.00378649  0.07076533 -0.02077776  0.03225176 -0.26488006  0.06788814
 -0.08820642  0.28645465  0.14144425 -0.00396806  0.17353252  0.11445363
 -0.01326314  0.14141865  0.00306411 -0.20216161 -0.14484625  0.1153106
 -0.06507562 -0.16431448  0.06330492 -0.18973541  0.03863399 -0.09260463
 -0.11760543 -0.20140974 -0.23178095 -0.09393815]
[-0.08171999  0.01629127  0.09988414  0.11306853 -0.08344074 -0.1900385
  0.22691445 -0.2116352   0.06127322  0.16980243 -0.31545535 -0.33823743
 -0.2293276  -0.18191527 -0.16209592 -0.25758162 -0.12889957  0.22511636
 -0.16532388  0.1931854   0.04086477 -0.06749167  0.36315167 -0.17462252
 -0.19382592  0.22222945 -0.3214506  -0.285058    0.08359449 -0.11141203
  0.28749725  0.15767711 -0.04074131  0.1867632  -0.30105582  0.11559913
  0.10254966 -0.126253    0.12355505 -0.07770616]
[-0.2794402  -0.18779339  0.14407496 -0.15624276 -0.27080348 -0.07340608
  0.21136713  0.128788   -0.00413679 -0.11007939 -0.16892242 -0.24091569
  0.03027829  0.12996948 -0.05392386 -0.07008872  0.20356512 -0.1685969
 -0.05674776  0.30863017 -0.20554794  0.11226851 -0.23232965  0.12451633
 -0.3171338  -0.06593424  0.21390653  0.3128876  -0.11308721  0.05087136
 -0.15340038 -0.2470389  -0.2337651  -0.21309459 -0.11362468  0.1225003
 -0.16243526  0.04856135 -0.00100547 -0.33243194]
[ 0.01758828  0.04035728  0.10951569  0.1025901   0.12505941  0.19947594
 -0.07774635 -0.00859982  0.09220349  0.21358441  0.24545357  0.3482697
 -0.00618903  0.37348416 -0.2131593  -0.03211473  0.35048166 -0.08015887
  0.07273833 -0.35040045 -0.05076196  0.02747948 -0.5494818  -0.1701761
  0.2296993  -0.07750899  0.3217662   0.06142494 -0.02448298  0.09958877
  0.10952917 -0.20436953  0.08288354  0.08339731 -0.0858669   0.09160041
  0.14592582 -0.33233845  0.06807638  0.04268424]
[-0.01564233 -0.16297355 -0.0623989  -0.02928602  0.03807397  0.03240313
 -0.00936712 -0.09780513 -0.15501316  0.18986997 -0.06901714  0.08221705
 -0.07148575  0.14476153  0.0086787   0.08871839  0.19082001 -0.00738177
  0.07745345 -0.06791734 -0.04919659  0.03131925 -0.05943348 -0.00253181
  0.04317137 -0.1299838   0.05387611 -0.03733426  0.04336894 -0.07499599
  0.00243381  0.04443733  0.02343108  0.01612402  0.00224577 -0.00632752
 -0.07720391  0.0653842   0.10836466  0.08413465]
layer 3 Activation
tanh
layer 4 Dense
40 20
[-0.3647384  -0.15374154  0.07036687 -0.14118539 -0.42314246 -0.10818623
  0.2883138  -0.12097494  0.02970226  0.11059161 -0.07323192  0.04347718
  0.14513712  0.13635214 -0.33250448  0.27122703 -0.3332384  -0.1952234
  0.16901942  0.07411503]
[ 0.09689911  0.08813139 -0.22405365 -0.24409552  0.17631583  0.00088031
  0.16773535  0.25989908 -0.09272053 -0.34434143  0.20805013  0.13015781
  0.14471635  0.04054612  0.05854403 -0.1671747   0.07036443 -0.21381745
  0.22851005 -0.26814803]
[ 0.19064339 -0.21123031 -0.25636655 -0.12443833  0.01242545  0.11757986
  0.1858122  -0.06200227  0.17841685 -0.26870608  0.02682678 -0.25015742
  0.16570601  0.00815728 -0.0321044   0.07275983  0.17486341 -0.17382385
  0.01304579 -0.17838685]
[-0.06825459 -0.03447874  0.17735252 -0.13413905  0.18415488 -0.10294734
 -0.1366751  -0.1291685   0.31389895 -0.08724333 -0.192766   -0.09916656
  0.06890319 -0.03727617 -0.04879596 -0.24600036  0.01643565  0.132662
  0.04281908 -0.12222686]
[-0.09413661  0.23021722 -0.26049244  0.10600464 -0.28994435  0.04486513
 -0.07234479 -0.27302802  0.07607754  0.14756289 -0.16850801  0.03352889
 -0.1582565  -0.26900086  0.19174747  0.00973602 -0.04280886 -0.21189389
  0.06376855 -0.07731932]
[-0.14869396 -0.08139859  0.26828644 -0.03598073 -0.04015488  0.07774428
  0.3336869   0.11277311  0.16868381  0.30411294  0.0424785   0.20431693
 -0.22000977  0.15838762 -0.02160385  0.02838361 -0.02908345  0.10798574
 -0.12185971  0.13090433]
[-0.13102949 -0.05157323 -0.01711116 -0.18289757  0.09021605  0.16124731
 -0.00891335  0.19321136 -0.18409634 -0.00525702  0.10851869 -0.17343615
 -0.17091553  0.07501814 -0.05274254 -0.02520868  0.1603394   0.10794879
 -0.01332918  0.04761729]
[ 1.52357012e-01  2.28836924e-01  1.03217401e-01 -1.70547679e-01
  7.01140314e-02  1.93960711e-01  5.43485247e-02 -1.62553146e-01
 -6.63551390e-02  9.07049775e-02  1.63977504e-01  1.34657860e-01
  2.75019348e-01  6.73170686e-02 -1.26483798e-01  2.87396014e-01
  1.23095870e-01 -1.02252176e-04 -1.87112705e-03  6.00180067e-02]
[ 0.055391    0.20424327 -0.07150707  0.05453844  0.15169282 -0.07556769
 -0.09280666 -0.30408782  0.26754835 -0.24427713  0.00808618  0.2238813
 -0.02108709 -0.11511181  0.20199142  0.02529539  0.03278833 -0.16303831
  0.28691044  0.1574751 ]
[-0.14462322 -0.2603454   0.05495114  0.13167366  0.01041579 -0.02806068
 -0.2520515   0.04463954 -0.01544853 -0.0579296  -0.00512743 -0.29150993
  0.01545006 -0.11540508 -0.1655958   0.13359593 -0.0171833  -0.18609993
  0.13935487 -0.13254316]
[-0.04009695 -0.35096282  0.21449268  0.2005489   0.18243212  0.31894767
 -0.14943916 -0.12739305  0.26031673 -0.1381275   0.13804142  0.3027975
  0.10024288 -0.11094432 -0.17735557 -0.03482646 -0.18945025  0.28336716
  0.16686082 -0.01241293]
[ 0.30196553 -0.28501686 -0.0263391   0.16440484  0.22177537  0.27599162
  0.02175391  0.06588762  0.28227106 -0.2898864  -0.26786715  0.05341679
  0.31878027  0.02703831  0.02867587  0.00757727  0.29686612  0.34366852
 -0.21958269 -0.21862385]
[ 0.10347033 -0.12176702 -0.01702295 -0.04561682  0.29675683  0.28791806
  0.10002504 -0.13242304 -0.07479719 -0.08927326  0.21843725  0.16559127
  0.14472017 -0.23141979 -0.0176463  -0.04794155  0.12952538 -0.01556143
 -0.2533205  -0.30933812]
[-0.23609824 -0.24786173  0.15329835  0.10950385 -0.00332514  0.08095509
 -0.07867231 -0.2730693  -0.20930552  0.36161003  0.21707702 -0.30692637
  0.25434294  0.10888053  0.23008248  0.2151966  -0.1878574   0.13288961
 -0.07017998  0.2816465 ]
[ 0.3409593   0.17505611 -0.07070208  0.2044536   0.1114841  -0.02993201
  0.17260827 -0.09006482  0.2135108   0.11603286  0.00512225 -0.00501219
  0.15783261  0.2569624  -0.00131086 -0.20098458  0.04326063 -0.11105654
  0.06167292  0.17301138]
[ 0.26726323 -0.12795967 -0.08966414  0.09264121 -0.01723672  0.1004684
  0.01774543 -0.2199111  -0.22018681  0.07821558 -0.15913962  0.09811173
 -0.1886736   0.16598359 -0.18848392 -0.17734197 -0.25838223  0.08277544
  0.0272573  -0.06282739]
[-0.05594708 -0.23531225 -0.2748975   0.0893883   0.02471964  0.03965268
 -0.03727401  0.20588504  0.08260441  0.36286265 -0.03775463  0.0082963
 -0.07748049  0.10936707 -0.16245957 -0.2039479  -0.00627202 -0.09981404
 -0.21555534  0.2154848 ]
[-0.26894376 -0.07074491 -0.2125447  -0.0607893   0.240591    0.00318099
  0.29481003 -0.2796833  -0.14609711 -0.17581168  0.09768603 -0.27583733
  0.12718564  0.28129482 -0.2678114  -0.02814367  0.2690976  -0.10932904
 -0.03645959 -0.24190935]
[-0.13035735 -0.32649067  0.02039487 -0.05998798  0.07881249 -0.04231119
 -0.07606661  0.0663927  -0.06840382  0.08408679 -0.1534021   0.0618636
 -0.26124892 -0.0254961  -0.06123704  0.063033    0.19941069 -0.12890069
 -0.18256171  0.1575834 ]
[-0.4603702   0.42335254  0.19713907  0.40939558  0.07411599  0.4916546
 -0.08922002  0.2599863  -0.32683697 -0.16236661 -0.01509188  0.01474671
 -0.01596069 -0.08639322  0.14241894  0.09315776 -0.14108135  0.23550801
 -0.39927417 -0.01997188]
[-0.32083678  0.26223558  0.00847427 -0.22753778 -0.01437877 -0.16590369
 -0.01526971 -0.12262028  0.16419694  0.15550625 -0.2290266  -0.21948767
  0.07435631  0.2653623  -0.00766897  0.01541726 -0.08112546 -0.00551516
  0.25364572  0.26876128]
[-0.1242373  -0.24928659 -0.14408618 -0.04003088 -0.20643431  0.1180853
  0.15413962 -0.29638067  0.03743801 -0.05845726 -0.12661815 -0.03040872
 -0.20727056 -0.11873574 -0.33950818 -0.09970579 -0.16857122 -0.08097854
 -0.249467   -0.12067124]
[-0.33744842  0.0152664   0.27198178 -0.17758535 -0.01278404 -0.18079753
 -0.0143832  -0.25525343 -0.08572213 -0.20270182 -0.30991232 -0.24635312
  0.10066861  0.08365392  0.08136151 -0.22722708  0.19083458  0.01027086
 -0.03392547 -0.23595046]
[-0.09484997 -0.09425712  0.12518175  0.22236879  0.10316416 -0.1041806
  0.08985986 -0.25154406  0.15602878 -0.03033281  0.12544669  0.13049293
 -0.02871326 -0.13937567 -0.0987177  -0.06361016 -0.11790259 -0.3198073
 -0.3531064  -0.06016907]
[ 0.2816098  -0.08512203  0.17409028  0.11408231 -0.10685613 -0.30391467
 -0.17908433  0.11877505  0.1107849   0.1698036  -0.24580511 -0.21360907
  0.06652332  0.37290034 -0.03517268  0.02122326  0.2531744   0.10934013
  0.28629017  0.21845335]
[-0.29558763  0.07222822 -0.07312636 -0.03126426 -0.25492436 -0.22326046
  0.19379045 -0.23862329  0.20618542 -0.08902648 -0.3169637   0.2604067
  0.05899667 -0.02963805  0.15862252  0.08446465  0.07960425 -0.15505329
  0.18075362  0.07403215]
[ 0.03036323  0.21868649  0.09359507  0.17909487 -0.01215506  0.29272875
 -0.15426438 -0.16674857  0.25086147  0.11149432  0.08504376  0.2931783
 -0.04877257  0.2946863   0.03222997 -0.15306056 -0.26411813 -0.21626972
  0.13291192 -0.04014821]
[ 0.28069276 -0.01971931 -0.09798592  0.3251806  -0.22590937  0.08630858
  0.18233825  0.00126822 -0.01107662 -0.20591678  0.21232362  0.22476976
  0.13020451 -0.19819683 -0.09649982 -0.15808237 -0.2693278  -0.15909947
  0.1368109  -0.24682337]
[-0.0210433  -0.24124417 -0.03844788  0.07293511 -0.19808699  0.05356003
  0.1185917   0.03138598 -0.13762364 -0.2081264   0.06119639 -0.0251085
 -0.0724243  -0.11662321 -0.22307652  0.00434426  0.35079983  0.27839372
  0.06926589 -0.23698139]
[ 0.18756498  0.08579723 -0.08366998 -0.26210946  0.15232481  0.17023654
 -0.00605024  0.01186066  0.0507905  -0.13675514 -0.1812605  -0.0737094
 -0.00866211  0.06432491 -0.05887502 -0.16083914 -0.11109088  0.12650825
 -0.20345901 -0.00993335]
[-0.1725974  -0.16551189 -0.096798    0.06676603 -0.14012842 -0.2987592
 -0.27002758  0.19988869  0.23065792 -0.25390714 -0.22210136 -0.17479338
  0.21424967  0.01143172 -0.31330395  0.21211943 -0.04456171  0.16850081
 -0.08481408 -0.30493668]
[ 0.09723831  0.21782678 -0.01434812  0.13793772  0.16517262 -0.04484802
 -0.02255953 -0.31843308 -0.11193246  0.06110621 -0.12326784  0.02930457
  0.04440215  0.2575806  -0.00606786  0.07672078  0.2066554   0.12195981
  0.2247602  -0.0449614 ]
[-0.07434971 -0.33590788  0.24784136 -0.14776213 -0.15192035 -0.01592183
  0.08940633 -0.19316776  0.06436932  0.2090916  -0.20389524  0.09489112
  0.08163679 -0.25191328  0.10164427  0.03944848  0.01425404  0.04798651
  0.14117806  0.4345169 ]
[-0.11490043 -0.24986823  0.23652129 -0.15023834 -0.26843145 -0.01029543
 -0.13249066  0.08281811  0.14187753 -0.09452459 -0.23646653 -0.0972185
  0.03890092 -0.13697389 -0.3897549   0.09324118 -0.2851503  -0.08545119
  0.13719012 -0.14541042]
[ 0.21511379  0.11043299 -0.38040513  0.20974301  0.27517244  0.08946659
  0.00747313 -0.30745146 -0.01659922 -0.01117349 -0.02027078 -0.0917068
  0.03922252  0.02857126 -0.01000952  0.21928301 -0.23935306  0.39484128
 -0.0295978   0.10949313]
[-2.9511797e-01  1.6999778e-01  9.4343491e-02  4.5103569e-02
  2.8492203e-02 -2.7139518e-01 -3.9029233e-02 -2.9655546e-01
  3.7117440e-02  1.6816020e-04 -3.7688144e-02 -3.2471798e-02
 -2.1961024e-01  1.0845034e-01 -3.2161303e-02 -1.1637443e-01
 -1.4784919e-01 -2.1812004e-01  1.4304549e-01  2.0658817e-02]
[-0.296244   -0.12034814 -0.28684172 -0.3128203   0.09540974  0.13570632
  0.1744095   0.11044021 -0.15022334  0.34149757 -0.15283051  0.04754838
  0.23335725  0.02837208 -0.3477334   0.20916708  0.23177628  0.20066401
  0.23871621  0.2818131 ]
[-0.09563338 -0.17017093 -0.04828147 -0.05140118  0.18496253 -0.18736741
 -0.05642311  0.21433035 -0.31222686  0.14792317 -0.10954559 -0.31657916
 -0.17770246 -0.27345085  0.2824664   0.10438081  0.19618306  0.0362104
 -0.09385127  0.12993754]
[-0.1900258  -0.14442734 -0.05698988 -0.1207251   0.20225821  0.0064744
 -0.06436095 -0.14598024 -0.09347273  0.19005808 -0.09640117  0.00839908
  0.00064938  0.03475758 -0.25543585 -0.03736597  0.00931844  0.02434585
 -0.00069068 -0.01744498]
[-0.11881523 -0.18668075 -0.05222563  0.06581096 -0.11098443 -0.28969613
  0.09053172 -0.0947725  -0.11450086 -0.13009529 -0.24205153 -0.11447508
  0.24526264  0.07360755 -0.3673674  -0.15073171  0.19263236  0.25967985
  0.26222232 -0.25604805]
[-0.06674958 -0.0245847   0.02212365  0.10873558 -0.00601173  0.05141886
  0.03894694  0.03939344 -0.04130673  0.06394953 -0.07897593 -0.09482615
  0.00170561 -0.03547747 -0.04623076  0.06956092 -0.03346118 -0.10033268
 -0.05137672 -0.02581901]
layer 5 Activation
tanh
layer 6 Dense
20 1
[-0.08324367]
[0.06004796]
[-0.01043317]
[0.09949951]
[0.00400111]
[0.09048171]
[0.00575617]
[-0.02408752]
[-0.03131415]
[-0.05170662]
[-0.12198903]
[-0.07342788]
[-0.00306528]
[-0.03145806]
[0.00566674]
[-0.0015735]
[-0.02115008]
[-0.00340401]
[-0.09912871]
[-0.00219964]
[0.03901473]
