layers 7
layer 0 Dense
20 20
[ 0.2070357761687141 0.11949647540634435 0.42298386196099724 -0.16674110015672067 -0.05309774242040379 -0.4132834359922042 0.05443654012427003 0.4309690266808539 0.17230053282651803 0.1047603208230199 0.34657163246715705 0.16953330027063357 -0.30782368095214313 -0.4303333676671837 -0.1570954499957182 0.08891572683312175 0.14872780721019507 0.24867089214225394 0.059568372435010904 0.3110117679179854 ]
[ -0.23731465092924242 0.3652613795656797 -0.08124358914059483 0.2924999280617268 0.18787241177084116 -0.17231638506535135 0.05133823482176558 0.3390363763982399 0.13700899612025982 -0.3689810672860616 -0.2667923868459403 -0.06253603251700193 -0.059861259528880946 0.2205171959321053 -0.04069673241238553 0.2172767450829975 0.37501123941504055 -0.33707209721505804 -0.16991011955962854 0.22267038423058058 ]
[ 0.22597098692485193 0.004509997906834485 -0.29915264745795567 -0.14493728862789165 0.07501457796237616 -0.1972315722492311 -0.11246748929097969 -0.00997352346301639 -0.06215215538419733 0.2791266894070105 0.3769693588661993 -0.3262257014400224 0.24701639369944753 0.2923904757552782 0.04899691706989791 0.03351860267000288 -0.3733577668360206 -0.3593583675554447 0.16874805286816152 -0.34748031247898414 ]
[ 0.251129837404487 0.04553511170752585 -0.2741964297381058 0.31520065565199556 -0.25255253887471085 -0.28373567434351626 -0.2827820638554792 -0.37502628753898776 -0.2525649480350285 0.5297006719241498 0.1499494351893708 -0.2574672068954192 0.17286611784011355 -0.0972494363943718 -0.4546104994641476 -0.1905969552057724 -0.09620424950526783 0.02390457811898671 -0.14427986953584548 -0.4689494722820074 ]
[ -0.11744161324270057 0.17885693826557547 0.11807575124485577 -0.06542837589212391 -0.054504833604586 0.10566455272687925 0.12938998397109566 -0.15531106478756526 -0.7557698103122418 0.1802684211147245 0.4992404584437435 0.35520912042822805 -0.6743568402381308 -0.5195004783799706 -0.012825740436916401 -0.08334354465395867 -0.40196093766066715 -0.18034218638059926 -0.5274644766367698 0.5335711439897453 ]
[ -0.3830367521937248 0.2649749615402539 -0.3691191311306891 -0.36499717396691894 -0.12158976241004583 0.2927205113611373 -0.05117094774172137 0.17138877969478988 -0.014502138624689917 0.282265403852454 0.19930837409633065 -0.08405003629288568 0.21835969682444326 0.03378855315387832 -0.25146396626439965 -0.15961122837186348 0.3036525569910553 0.38460718744457656 0.28671472452153823 0.32251727045793194 ]
[ 0.24245895162749562 -0.1198431578524056 0.26009514284373664 0.24024300871893253 0.259984943548412 0.16011090272814288 -0.01707704751410031 0.3106672931006716 0.21329249366048647 0.31060139878017773 0.19917001789590283 -0.21444564880150974 0.28758158555244484 0.29856637572139044 -0.037278524738090166 -0.14979888044432962 0.3701155161792856 -0.057129745134202777 -0.21306964340435772 0.20412361607254534 ]
[ 0.17859637141917545 0.19354662145698123 -0.14673443160123242 0.009797653127297292 -0.23809338043793482 0.2980443081335101 0.30524142987130226 -0.26378571548835605 0.24291211614632585 -0.001861116945527663 0.21894843963296304 -0.10570701860055215 0.7221260449990803 -0.2449676872274901 0.2832896172877161 -0.02220579517444161 0.36163644989040017 -0.023769367017992284 -0.24559964310456514 -0.14355297519906382 ]
[ 0.38857803822508213 -0.1443212651585953 0.628706102600835 -0.00840961714146815 -0.0003699891506899343 0.33036621025588536 0.3436234492996353 -0.21076848907538254 0.1424470839786291 -0.4506963087157754 0.37332315952664274 1.1462042407689927 0.6545417086963039 -0.08173970545909119 0.3774442150279463 -0.022215850230583672 -0.46058808341218077 -0.372806399675687 -0.9084208855592102 0.7033010784838193 ]
[ 0.22025476178656625 -0.5457472739581217 -1.1718355231999997 0.4203054799475903 0.5528230803733684 -0.3731457875097015 -0.6215405042554333 -0.3429956751643674 -0.4674174109874427 -0.031048388482765546 -0.7336369711822512 0.11090309777796886 0.23842252969238759 -0.40330425496909966 -0.45730666581867857 -1.1703516176891557 -0.0008533587973832753 0.8053410890054128 -0.6849112343453317 -0.2953946242779075 ]
[ 0.7885441014489418 -0.787003641267237 0.19668537445910242 -0.44729196812373945 -0.6399580614631821 -0.19583632166573445 0.17773500295698494 0.6248676695314682 0.2178531593818033 -0.3413669066399668 -0.5143396941765418 -0.13940337186174837 -0.11910729320837027 1.006403389416807 0.5844625559545745 0.5007981139478793 0.8667390044067793 0.17696732923684938 -0.5924084382329382 0.28618807902062243 ]
[ -0.3465239514855757 1.1248963707061141 -0.6577116445964027 0.029323775797871123 0.38025578545202443 0.9904375608094366 0.07269232795397987 0.20872355474586413 0.6628717940694294 -0.5293214094207509 0.8411096244947862 -0.28870881679090904 0.12295408890612472 0.8173185669508656 -0.1407571580854815 -0.8267684160824016 0.8553369540611362 0.9743049924134274 0.0025092374620481975 -0.135798543129312 ]
[ 0.5227706314825173 -0.5552698352533884 0.13987742680437382 0.32219554652056626 -0.6431909303299695 -0.5003347369195874 -0.2505789120098674 0.41976976559491996 -0.4912672243867923 -0.609707178468253 -0.29024909992825826 0.23075099320165807 -0.04430695486609186 -0.21334311690774188 0.24478085387602064 0.4515853020499381 -0.07295103687136652 -0.08022711348859689 -0.24106330825225356 0.4495442156490145 ]
[ -0.10545090081637251 0.46626482634722427 0.2488465086961593 0.12548499128715795 0.08874557493911556 -0.0033525995193403545 0.3245162185237037 -0.3657075792812859 0.2861603650759863 -0.17788771511366244 0.31944656757753065 0.15766979960993124 0.16659308954334567 -0.060925349945060686 0.1789214843465267 0.5055538800830751 0.5382726342071272 -0.4365155818518074 -0.006346915793446057 -0.2821670526183492 ]
[ -0.7205014915963804 0.27230152028010157 0.4523306397715051 -0.009212067487529969 0.5780577925715571 0.2090920261312897 0.35761785951484165 -0.1518279177568345 0.22541960533529812 -0.008285066118756061 0.2065318978979279 0.47093311343626354 -0.12499633504956845 -0.27934054553616183 -0.22768425474218304 -0.2545560850997644 -0.26118554674212746 -0.4447568906855085 -0.036706243862147006 -0.0362057338452397 ]
[ 0.7073465980649772 -0.6240356775560992 0.33627187452428314 0.5432438088573495 -0.028339508431518463 0.1352449942081565 0.6038809649910382 0.37262235156028145 0.4464668585117899 -0.8020893592101476 0.42086417178188357 0.043270902419088354 -0.5612646448667439 0.0646588094311781 -0.25306403998901705 -0.1953450890085706 -0.08718933249861666 -0.3315867546385494 0.26561021252282474 1.1142425516418084 ]
[ 0.1419633347338793 -0.4079866097285772 0.16457748837124608 0.5000256167558492 -0.18688503082224225 -0.07889441202628099 -0.3755937612269979 0.009640294246919251 -1.2118163721830586 0.09759695759173499 0.9458999038870776 -0.03405442710403048 -0.5834741754868096 0.22067903254232424 -0.6838166429957977 0.05474527206681361 0.30959639555597185 0.49997274625045923 -0.007202118004985661 -0.03436281863318032 ]
[ -0.5973121493566838 -0.18360416456403647 0.9967275229804349 0.21811948355629376 0.1723672312142507 0.23307868210653504 0.007866282884479825 0.030033776383770232 0.0938894969028553 -0.5085029437306512 0.7384253798133606 0.06513794354123449 0.18840114185707277 0.5510321637756501 1.1070750085110008 0.8157122664237639 -0.07817658244452484 -0.5716680186840478 1.0117019585681393 0.22766533409427225 ]
[ 0.09440505165356161 1.043378078914278 0.02992499765191551 0.4268181744387625 0.6156163798181893 0.6654684853361296 -0.3611283245726618 -0.21031166662698048 -0.7985751190716739 -0.05763074551560566 0.5371442626201771 -1.0534396169850957 0.21710773565714922 -0.8174226868232131 -0.8778303503110938 0.010008281984937674 -0.5178954358167632 -0.39722878092835284 -0.1766540315550766 -0.4943535798885317 ]
[ 0.32757447737310097 -0.4129290440621454 0.2650834016417017 -0.1502289958674038 -0.31917851733735253 -0.4267147178051141 -0.4180067829057859 0.021061474513170805 -0.1547067263085151 0.7184457489871536 -0.7150267487508997 0.17147791451656533 0.8787915475546519 -0.4908647209243095 0.27244565596286063 0.4967590124358182 -0.5425255807191056 -0.14317420499121125 -0.3859552969124311 -0.18396831715632891 ]
[ -0.22535873465623796 0.021074333879656612 -0.19841984784600714 0.05367446022288114 -0.04885695189154827 -0.21604201528730893 -0.13491039629060383 -0.10107979540433326 0.0018231403530934221 0.2516802259788265 -0.04369850675900321 -0.15676091059911246 -0.24547413229106627 -0.04233662057322717 -0.29779965559351396 -0.005531950599383894 0.05817265048041678 0.010836417226119879 0.15714112117845436 -0.28628140946402364 ]
layer 1 Activation
tanh
layer 2 Dense
20 40
[ 0.3730630505541583 -0.5882175376196926 0.30251657197125437 0.06017745215445667 0.1521628563971553 -0.2511385052591106 0.2431208190601956 0.1977302764697779 -0.45330325679734046 -0.356434607254976 -0.19891829473505265 -0.5142083902975844 -0.2554753047783021 -0.07185411215485787 0.16647738355640004 0.18064029128941841 0.7077131775869102 0.0905003447666922 0.07867744269768086 -0.9434257725897488 0.062667512020803 -0.024056278038806295 -0.2281461019794632 0.13049642656900706 0.6173682888898614 -0.19019777184657657 0.17201303581495336 0.21620165086821866 -0.3650870470185266 -0.08916879338194157 0.02270356155012804 -0.2132740110124837 -0.1819410657425247 0.2000723080677004 0.2757537179464136 -0.02051919845391924 -0.4164831890660689 0.1666093291307866 -0.07245366365767536 -0.16077557704927276 ]
[ 0.037328036365357004 -0.057669495335755515 -0.3758963379419753 0.2706812267589181 0.29287100894320295 0.00952231953465488 -0.8191726877022011 -0.391938248075109 -0.09259403925379857 -0.1925251661333965 -0.05787039053607355 0.6568001259742532 0.27821115099538823 -0.3617716887639913 -0.12560027732105492 -0.358290374346498 -0.5330529851259208 -0.1264749914697538 0.30639100839676153 0.9685262698770467 0.24108777767653433 0.1234599557804975 0.1869117050169155 0.025002702308372468 -0.6174985088281885 -0.3507447905408721 0.5124253180736212 -0.5050350967333637 0.36264757894853406 -0.2526901310455801 -0.4196650133828258 -0.10609877176013892 0.36612828583820367 -0.2619452886855727 -0.3321029555230594 -0.044782672657845204 0.10085677774629798 0.3134098365412957 -0.33474288549126674 0.31203788718149394 ]
[ -0.5294607929788122 0.7832037487972363 0.003649689833706178 -0.37483023674774746 -0.3449908453789976 0.7173596985525192 -0.5748050652359682 -0.9955884988621255 -0.14786220686672633 0.4722295070124875 0.03453335044845925 -0.0009924629777959227 -0.022533451202961415 0.2893768655291264 -0.6005608224763238 0.36095372368884515 0.05795251116812162 0.4607192519525501 0.34224679517920353 0.17015770790452922 0.4860482851274775 0.3370405834718557 0.7119855377252816 0.28940249420713765 0.24270885198249356 0.5326821682836275 0.17402805568330582 0.48602680332476894 -0.5468752939836254 0.06850328327217907 -0.10741732060987659 0.12305770607972491 0.4903257785921756 -0.09492134592424298 -0.015200193918294417 -0.681420810876757 -0.2747180753183706 0.12476048438891096 0.5358065587844398 0.06410609505002667 ]
[ -0.189588250016346 -0.3888074023540306 -0.15103199707040174 0.1892253912569989 0.2893194758863437 -0.20015967391723316 -0.19085921433711384 -0.39214509795303537 -0.07928180321936512 -0.263384896476338 -0.04812299275742307 -0.25054776762057446 -0.10507296956587736 -0.37155034441417134 0.018241642341239026 -0.2092337337077275 0.24703414937520535 0.07175543855751663 -0.21638881994318723 0.002877398545744949 0.6642955976633383 -0.13858732133213195 0.23760947446550165 -0.2145650984863292 -0.2821001151686234 -0.29507431193754763 0.14678330117215616 -0.08603222905540135 -0.34355653587585716 0.32639574019247114 0.08272512397473769 -0.11282164366968675 -0.017165078782037164 -0.17742231045128343 0.24333776690372977 -0.3204810472045972 0.2319552503258169 -0.14387467945035118 0.27696461567073155 0.008048937937223758 ]
[ -0.08788112959707685 0.06075832558029 0.3459690392959339 0.1176697929436244 0.38369398044893804 0.030523355736574012 0.24427345891142052 -0.29931655329261453 0.20154839808365074 0.3704490297395209 0.3494370871410843 0.05388416457811432 0.22489989715146738 -0.0736664844735982 0.14580532488384176 -0.20856258568669636 -0.018571841925856522 0.23794366867229588 -0.3282863968029471 0.5706228324451608 -0.03174479433739076 -0.12535512757438266 0.352840179873693 -0.010292157070326442 -0.46934211876701576 0.09030186479363063 0.02883135882937442 -0.4408354317826095 0.09112377030061942 0.23497645032047362 -0.3252293752186511 0.1358108382998041 0.12208042098629339 -0.17652699125257548 -0.029168269738374573 0.23319810408615832 0.401887670338509 0.1649246444105184 0.22210197190990053 -0.3121056657140189 ]
[ 0.2923190382049315 -0.06734616417068841 0.09844375316575699 -0.41697864839573995 1.027168250480319 0.023017054803618008 -0.3773903885047259 0.2651169880308664 0.3644959902054918 0.4128479825420815 -0.05426318613891282 0.9491111270624447 0.6303528288954455 -0.3015479299644894 0.1286988410011579 -0.11043514896163008 -0.6217786331960292 0.18367534431299223 0.7276652127688612 0.9249850450579242 -0.02625403871725178 0.04035035209077204 0.6584260675098115 0.2340653912104254 -0.44814541603569713 0.6807083559870744 -0.43594703073880775 0.3670679028338332 0.23745271675775023 -0.15379983773953962 -0.1442232672162817 0.1294921671888607 0.022782264422289172 -0.5902268674140561 -0.2688897657780042 -0.08955068316947581 0.07691325377812794 -0.054675551735014545 -0.10824556838476747 0.4140297774823293 ]
[ 0.29148876038030425 0.022586975574599908 0.08975742966100565 -0.06620180659979737 0.07889262315552158 0.44134977279150583 -0.379804420355623 0.32239179833638926 -0.2996724937183866 0.09849178263330745 -0.15393850066366582 -0.13895512013860878 -0.1432647941393763 -0.412530126956754 0.07817492113506365 0.1858793185044132 0.3329345713726156 0.3675351344668613 0.3711443784828118 0.10296481800042384 0.19871175266887597 0.07975519882934712 0.5538881588943139 -0.012879566622865893 0.08308144636669758 0.40467252105098517 -0.1429438249585075 -0.08908466601772927 -0.38697031901594453 0.44592746313895015 -0.030286029581525875 -0.020468962268037294 0.147090387280867 0.2932673039258294 -0.01033190004859244 0.22133183193983447 -0.3048910988858421 -0.018568646250704795 0.28008177366028336 0.26753915723950705 ]
[ -0.060888298341484445 0.013554752621124964 -0.11928488631358955 -0.09513615154628412 -0.32192507339251575 0.04568613305661268 -0.3371111586438806 0.41322904538299554 -0.09764594744061894 -0.19342451755508352 0.20879250788330847 -0.49059871515863707 0.12645913959726926 0.11061030512377373 0.2536665487839657 -0.061460839330931744 0.35281222394036205 0.061792071701245954 0.2363218221545587 -0.3915273863956354 -0.02748217927115574 -0.2060636377538063 -0.06385882033203442 -0.2542101706997141 0.28580234568588864 -0.18440241021823411 -0.01012124187281735 0.19134920420128856 -0.11785348357614123 -0.2378966720266286 0.2745108748174101 0.03436896391839391 0.12201841814765585 0.2362591141002767 -0.21603345681656097 0.055918741825903714 0.017028643833712293 -0.058951131679622654 0.09998382933906015 0.1277561748417159 ]
[ 0.02960152534392246 0.6915716095079141 0.14105488325973423 -0.3022055731920072 0.3484485940658499 0.8017031264816671 -0.42660253935582804 0.5491840479122213 -0.20088072918446095 0.2693777791221252 0.12974545235681786 -0.005240952527069326 -0.007571452211205182 -0.2659925468235315 0.08385169834453442 -0.16681355292849384 0.11110971312546644 0.139014128023628 0.3528165111313824 -0.28569897658802673 -0.651010147961917 0.12295618682295721 -0.20914703659805942 -0.1036311382083338 -0.015923131018236416 0.35517637880793285 -0.4992111900241187 -0.25451900233132285 0.39211159630178477 0.3109360484569475 -0.162149660152883 -0.12354240122550253 -0.2947141165082069 0.012663225079220203 -0.6535602754758514 0.721246370345612 0.4940825121620149 -0.15035642955634174 -0.32771520416459377 -0.5896026296217715 ]
[ 0.0254733609831069 -0.0474001885919646 -0.105130182743408 0.07426330743504186 -0.5043605290857566 0.270983727710909 0.030258300668494654 -0.524333055943176 -0.3588105963538264 0.2969100279147834 -0.040474140646312946 0.5350827552118472 -0.33440377270981664 -0.021275358270397837 0.16953659522313003 -0.2889332115723294 -0.6340231184401308 -0.1610047074157662 -0.4465311555434916 0.08660911473889807 -0.11278365288949219 -0.23239707230082973 -0.4586168232917349 0.18383623146677716 -0.27857039671013045 -0.29808002517225524 0.645373364442481 -0.2592513604523154 0.6666132121576653 0.22627424988939004 0.3346285492296187 -0.037433869542138516 0.10889229096785207 0.1471743303476051 -0.05360045959435013 0.18931289233832332 -0.05085053887931259 -0.4402707332804793 -0.12880940500731491 -0.5451752919096937 ]
[ -0.2963102822350364 0.2973111302046601 -0.3624345548365421 0.22005476204164964 0.4118992137460399 -0.34429081890173807 -0.7957406400472933 0.15883398427819323 0.3786498566947181 0.28221333013118793 -0.2749456914573003 0.5151012303057576 0.3056683226896625 0.06440767585909075 -0.00746888959478823 -0.22421090327187732 -0.5693950614252657 0.29761225741810227 0.8148919356669498 0.6719628643482557 0.773070321900112 0.3727422665696877 0.7308885290984819 0.08666800547536047 -0.2957704612356956 -0.29218889724220665 -0.6713893614777109 -0.027611039686054464 0.11517718106072593 0.31688471000412893 -0.055630133382763985 -0.06921466937850923 0.32364081520718935 0.33745773732074985 0.08886392501604908 -0.21357013124121407 -0.3375168130578378 0.30515848955291286 0.1667689470070722 0.5710007366466572 ]
[ -0.3001583441732824 0.47395154971855896 0.038678423804534436 -0.40089106639708166 0.1545551086241121 0.5239388584583758 0.4857757266027644 -0.3511546272697366 -0.12971564940905936 0.3452500620461015 -0.11116356560046275 -0.3311193650884697 -0.3819927848515995 0.015419061576896657 -0.08800508129793731 0.08069891101330193 0.1904463094642091 0.5341935914079985 -0.4599868680083963 0.16706396653650937 -0.23046555978528926 -0.08554880076914649 0.45730247038858124 -0.031008164379627536 -0.0623218167467372 0.343093921921044 -0.03119227055195701 0.021005547458586665 -0.8242244528061933 -0.04191372630101781 0.2816118583687892 0.0685557663524097 -0.47962346953027896 -0.12378600681337722 -0.18971848992022705 -0.03745082206129612 0.29586109848288933 -0.27947912711776324 0.495846033498121 0.08564156920785157 ]
[ -0.19515705158717095 0.3543927638306149 -0.22336135902435936 -0.5538284174022033 -0.17830523064234574 0.238246972331224 0.45098233241917207 -0.167817523165764 -0.08270841874219827 -0.10054821963195767 0.008378675834271203 -0.07016533836454138 -0.36695792609104727 0.08573096277865958 -0.3008647852576255 0.04633101358285571 0.2943552719524447 -0.2867406855177687 -0.617809666266573 -0.5387325533692349 -0.6071849934563354 0.31421299960586224 -0.6915882062687834 -0.09415568756865754 0.02966895109199212 0.36506493647785887 0.7205906188407001 0.13197588277569172 -0.08042949642686924 -0.03532160907166855 -0.006824022181615673 0.2007087170642147 0.18050606712288314 -0.34098734155177063 -0.2231736260787401 0.06604401785667117 -0.05372747826431361 0.10264269209697824 0.21080724971176615 -0.12463008790369379 ]
[ 0.6074314144784919 -0.19521052582907542 0.19369146328167422 -0.22371976740874394 -0.03970858817815816 -0.07896438021051157 0.20108535180652307 1.1260386712036967 -0.22977536688059383 0.4045393382071943 0.10973469094523491 -0.326384399393319 -0.18676788248771586 -0.19299914326484127 0.48122460700097563 -0.03844110768896492 0.47498716307802324 -0.12472648649599766 0.7348813681555727 0.04423538865392419 -0.09673253749465871 0.11691049145989597 0.1609443608462778 -0.15534137228094388 0.023768329986455457 0.23733294934277593 -0.877790063979414 0.41801315678953743 0.22004333432146198 0.15776803257307714 0.15719904314374608 -0.034586826703039336 -0.5281055895690736 0.3568411946807411 -0.2967127749600973 0.671012629757876 0.26659723955184245 -0.26053056042848205 0.3858289711803635 0.3280344243743776 ]
[ -0.20264544327409667 0.7289981888761328 -0.3090789676562793 -0.4986704951321699 -0.2848004882840067 0.19903932860973048 0.36524966101245543 -0.02399377474246753 0.1801949843498632 0.18487130745477057 -0.17524139247483644 0.032472369590949214 0.354855236604354 -0.32730335143546335 0.5074362048417087 0.5907305215259743 0.05884118665846327 0.35091279087891813 0.2814886091299256 -0.5190559625884492 -0.4625412214749102 -0.10201953657417062 0.07409739397924808 0.07629245304182844 -0.010184645485127796 0.6249727079627233 -0.45844228515438207 0.42463796551278665 0.40223879164608556 0.41687808076476474 0.1306590593873157 -0.1897192759071332 0.14025393094848201 -0.21973806733808723 -0.3433147831302035 0.09699013838951587 0.26242361788153185 0.20107655361432458 0.11153382886774668 0.08617086216958607 ]
[ -0.504373078414391 0.5386302250776839 -0.11221489714172853 -0.6831162164458334 -0.546916429946936 0.8961497045738025 -0.2069328636125023 -0.37153794845236693 -0.4165189355241746 0.0570423534682488 -0.11823220219073395 -0.30930990526423374 -0.4891850202475771 0.22351539178740917 -0.6287206943780935 0.40114125695395186 0.30362566283071396 0.6799114524055092 0.2867710242738181 -0.6544152707750646 -0.5155871974064362 0.5025350359573078 0.12515985907580052 0.03043028251477888 0.6930388180680623 0.12571090238363042 0.4610445188551197 -0.006289824063918473 -0.22099120130087904 -0.4717456397036121 -0.3898685642317963 0.16246469570588293 0.44211977312434864 -0.5954743665594444 0.6805887067253558 -0.16004084863952509 -0.04018568106316675 0.13909270759661038 0.09748478752402104 -0.42871377939935224 ]
[ 0.7871765227266355 -0.03424795992821506 -0.259792706499515 -0.29170404890939144 -0.03396750528265735 -0.2812670311054795 -0.027815536597561037 1.2132213801537735 -0.48708726191762713 0.43602595595902865 0.12488219618044538 0.015256947235388545 -0.37345499698567486 -0.3591349172703205 0.4719474055244829 0.19785610105643095 0.4369005320702946 -0.3516912616634176 0.5946856451326048 -0.27859986486718163 0.1217954452790487 -0.11242251355455546 0.38528133345653887 0.2772467675494914 0.3638511815887443 -0.1788181650332566 -1.071068472361717 0.2935060400448804 0.6979899918683896 0.06129754912537737 0.41312441732602634 -0.2523915112165427 -0.25553543432716286 0.013567107156372507 0.005217173430199226 0.2721517414325738 0.3778434991881236 -0.43367806565236267 0.02736347400573819 -0.02635598082533486 ]
[ 0.5287610531063728 -0.8498492877452877 -0.23254976869050065 0.12115320089044582 0.37058886839219546 -0.9169820178474964 0.02839931380250902 0.5485466999117363 -0.03915512432585649 0.16154079189418546 -0.13404199725889845 -0.6529732771326792 0.1752310823326236 0.0815297927068615 0.7820558957224808 0.13656474295751084 0.2748553610183901 -0.44399279900733885 0.1706908912522614 0.018690386116049427 -0.1996697525736835 -0.08336104728924607 -0.0810674255354396 0.21581004971234174 0.07768344038046668 -0.24942043140178294 0.07403045365565532 -0.2870955550705294 0.09074054607183235 -0.1047308330337034 0.2650390181390298 0.27484884398814724 -0.1904470871294691 0.2823384745470165 -0.1286608889276697 0.38007553021457013 -0.14383955639213764 -0.056558272119811855 -0.1800659256920137 -0.1708085414772688 ]
[ -0.3898039393027868 0.2642584082588494 -0.26279352878906787 0.30172369387976117 -0.3065755732588118 0.3218504278548078 -0.7228687301613423 -0.03476793936513971 0.5978117644853729 0.0393040516755502 0.0939330752006436 -0.18795537743965116 -0.11801789084525713 -0.2713107770856272 -0.3166142423028743 -0.33641644763636136 -0.35570222859555767 0.12556121368053363 0.6297261668490298 0.27094830070365766 0.176769425090095 -0.22223542519327236 0.6717850659507625 0.2716411311429214 -0.1420208014883824 -0.4008248934445759 0.020931543562772333 -0.5160871285580291 -0.06371621129601684 -0.17424152858285433 -0.1039715058261236 -0.2674235015241685 -0.002043185840859667 -0.03800039461533459 -0.5049812379003435 0.07091819132287946 -0.3356378732427342 0.13970593073746343 -0.14720129059026357 0.12760285442299682 ]
[ -0.02382404520369038 0.48311271469836625 0.20272878506293276 -0.2867623110844573 0.3798822945876398 -0.36188765536221873 0.19671550705289215 -0.2113524515276629 -0.16577290259486788 0.02925375670387392 0.1857675772230123 -0.37130234577440685 0.12556806220664787 -0.22776435183992047 0.04884470970854763 0.6500788769893991 0.13170517916361396 0.5236517316205175 -0.2543678765320321 0.0905300733502321 0.15843395623767292 0.41281322173876944 0.6619484472089546 -0.0009253876162770646 0.1551521391165537 -0.11091735116687451 -0.5086342624413253 0.49907023737859413 -0.7083517164181907 0.17986454316121253 0.18461378698509234 0.2900196533293455 -0.18631731511088795 0.24354835976230668 0.5766496124710885 -0.37373727360359904 0.1816672358265732 -0.1091483536917921 0.5595061449471693 0.2952865880958692 ]
[ -0.10971472365114186 -0.056605654622593746 0.060765137634929606 0.18715438416325095 -0.26405759837748455 0.03060502403480777 0.005625869571422742 -0.13954579417636115 -0.09752868065010122 -0.2015912683935415 -0.2377925475899525 -0.07288735608510619 -0.2850930318541196 0.49596217324561265 -0.08637280197859024 -0.11857112376472263 -0.034787679602335364 0.05683607542209167 -0.10718022374567729 0.10169480408519453 -0.15459687258234706 -0.020707109280843544 -0.2867676209618123 -0.14401523559668228 -0.03342835268972464 -0.04671764637273302 0.1836614645520583 -0.4357849671444438 -0.02601511618596349 -0.1220223290384788 -0.06017321772473268 0.17340189558490762 0.04540418206948885 -0.07021705626247852 0.047470363711337796 -0.07576176723628948 -0.31074125853427564 0.11854567491096168 -0.04524335163073641 -0.19652492561108867 ]
layer 3 Activation
tanh
layer 4 Dense
40 20
[ 0.4569743591343987 -0.07474616436284928 -0.4686766359240416 -0.09912281002493994 0.2080306567141591 -0.44578008715963474 0.39422271635368866 -0.2996376455848378 0.1634273748785318 -0.3999477722890635 0.057204174916008196 0.1447071937354661 -0.17678029655221594 -0.2718875854364728 -0.2236063206417748 -0.10061224071316949 -0.06571907954562545 -0.3382526095401575 0.3348729496137974 0.12569277189096686 ]
[ -0.3942598955748599 -0.24348580835384423 0.21647979464491934 0.17769709035644896 -0.1718397167726235 0.2852605435514013 0.038581429310733176 0.392519012749041 0.46327846587015387 0.5566827012448409 0.021532767151323604 0.2827280078920734 -0.0426240296675393 0.12437428988030837 -0.2172343866176126 -0.21505188615379334 -0.1914722116844485 0.37556972716696807 0.18886603855281078 -0.8150253144096142 ]
[ 0.11749118850701083 0.14364168455605184 0.21161029049921776 -0.5089578696570823 0.25797726474299487 0.05715531159748686 0.17091614566274407 -0.0986504353967132 0.11292833557365162 0.1701898817608635 -0.29272779823684747 -0.1628562636644215 -0.10092286155488343 0.06655826052148413 -0.2690392301634283 0.13650303400948674 0.1700539530810861 -0.6882251680497073 0.08554720351448439 -0.0379045795788241 ]
[ 0.0624204490127545 0.17519905612068204 0.24629094025296575 -0.12605066004307605 -0.1688502840477877 0.07830161731659539 0.1601290894862565 -0.2824293880304415 -0.1596213287504816 -0.11172212755345858 -0.013776705150376595 -0.3016956806607176 -0.1393997978330837 -0.31471790800800814 0.1359610980040187 -0.04483937183864468 0.15991643051301105 -0.14287758688265967 -0.20946508790942164 0.4182452011881355 ]
[ -0.14163758427725756 -0.4156899594143113 -0.2158336303485291 0.13591491540915251 -0.18733134871272863 -0.22939552575891994 -0.005666604203563656 -0.03256706998095956 -0.4116816476652154 -0.569775476115732 0.4458806322449982 -0.07584085980121104 0.17831879481551485 -0.7929909566555893 -0.35709011615520575 0.2495520096648921 0.28925914182560875 -0.1534172831378497 -0.18641985799434455 -0.26513930534286817 ]
[ -0.6155793408840081 0.3789808117592617 0.02797361502819275 0.22300840591696017 0.20343635621864575 0.33175797476862573 0.20242396200687443 0.6080951001049612 0.6303725354192061 0.7011936446675557 0.31076427970775766 0.28842872081407217 0.22774579858224975 0.7900346460146732 0.03832123903341677 0.16538939587771717 0.13859882398237877 0.31818658866118893 0.4628228243871406 -0.19751299022496172 ]
[ 0.27355524567731665 0.3915137947006579 0.3815951277773878 -0.2934398532144063 0.33065349175082115 -0.3033428143632338 0.050128746490969225 -0.31550752190333364 -0.33189348592070406 0.1182772833668066 0.22734950330494688 0.6481605259616223 -0.4033215075305238 0.39752760096430273 0.1750346101698658 -0.010094980990564419 -0.21875744723721083 -0.5549892509257953 0.3729668676680554 -0.30808949993591994 ]
[ 0.16264076769638997 0.20154212031498656 -0.48005400710566537 0.14165665699249808 0.22608855227141078 -0.3134867387393112 0.3879258865975804 -0.3709530235113705 0.11337619014268377 0.33912254002191716 0.4673589264331436 0.2895872325133632 -0.38900126194929324 -0.5764907195117304 -0.2982495326058491 -0.12018885878198471 0.07297422184280661 0.008691766913500862 0.5563053331333765 0.08730257162752296 ]
[ -0.2976584470329264 0.07708147165526084 0.06648094450328172 0.05625554310860211 0.13173263253497305 0.03388045381878859 -0.26897079810745206 -0.03407090328883484 0.3323920787821608 0.20993229560466323 -0.35064841765346283 -0.3836382490113922 0.3538837067470018 -0.24903029909469182 -0.11240160080674291 -0.03785749888175263 0.29237674589841783 0.20357225807427248 -0.2660413517000458 -0.15662892066554904 ]
[ -0.1899731331461214 -0.27029095651548335 -0.04002696746142328 0.2069248791571249 0.14477134425518606 -0.31933714117639606 0.16599679341903412 0.12401230708111856 -0.004024344826808245 0.4440828225260545 0.44839131924014797 0.10934705697336732 0.19814662696772423 -0.1614484033927015 -0.23383066046713666 0.2655037990125581 0.07197396744729923 0.023353951796953626 -0.12147636902434324 -0.5998288856556201 ]
[ -0.14934951163898166 -0.09883506833084399 0.09933981733812669 -0.06576086823499229 0.048639284445563084 0.0059351847207504815 -0.06109029012412204 -0.005585039452379187 0.32760322658423263 0.0591813686103115 0.2256350535888539 0.02474226542334831 0.004693925635753444 0.12471840921316553 -0.04982658828283509 -0.014623944313224882 0.184868625218382 -0.02793319256931973 0.055372951765278185 0.2249864333218563 ]
[ -0.5641918918840353 -0.22380579055092786 0.16276290218719755 0.14436195051588122 -0.2279768307912282 0.40863080537354257 0.2823349541022039 0.524092688319182 -0.24155085093632747 -0.23397711922946404 -0.11062254973227886 0.1707684425999789 0.3117216191878651 -0.06990107654204947 0.19269931938856416 0.41627128333914265 -0.3340598933729383 0.06850510305460422 -0.22783200059299683 -0.3605431390478964 ]
[ -0.17265983441929889 -0.27211874405678266 -0.07792075016006403 0.4147385848519364 0.13713918184406676 0.1559297435411659 -0.12294208485289589 0.267597855730692 -0.4069784339396979 -0.43808292956748407 0.08063566151528911 -0.1607996407296139 0.2868949209009579 -0.6853070905945319 -0.30870766742626676 0.4580505103662819 0.2065794192932221 -0.08588253596667346 -0.19200652169015064 -0.16822326817008076 ]
[ 0.030892719644888617 0.5563497685568014 0.17407304609665672 -0.19228272305425964 0.030231761170447548 0.1767545695698775 -0.02752781306117905 -0.3087107778670727 -0.19821800420786131 0.032995857699296416 -0.184902459067353 0.20982773664063253 0.05780862936347622 0.20514215902468638 -0.08652596794209103 -0.4328307302312792 -0.00016604349701365955 -0.036776793227727055 -0.13488670929033955 0.1692256191041727 ]
[ 0.3976715952465477 -0.07941150693268378 -0.13081544194796282 -0.21659405349832 -0.04932490819047873 -0.03177542000888946 0.0955469249731868 -0.11311227003843949 -0.012647761295550347 -0.17706297420128167 -0.06537684412952215 -0.27888220043244855 -0.4307520177659608 -0.2623725526888976 -0.23432409434876325 0.07225207736092075 0.10524883276147402 -0.34489213793255064 0.17529736014105674 0.08021537055389728 ]
[ 0.29538008064609145 -0.12416103757013668 0.008840624627873904 0.11441653119938286 0.04285691945020803 -0.10695352229781092 -0.2771367425532834 -0.1015880579049541 -0.06239355557277759 -0.21109272564803483 0.23331375703152182 0.1836665581872926 -0.2557747259302282 0.3162437691663375 -0.45464367180138826 -0.07629836625227195 -0.37117162512659113 -0.16243113651609792 0.21195599075138197 -0.4550457823607175 ]
[ 0.2845170214327634 -0.028446995195866714 -0.20472635987090382 -0.2092547734789238 0.1915493789241382 -0.4682767626317347 0.19161681990387575 -0.05149065342389832 -0.2760877663949791 -0.0587527727178035 0.3379293423336528 0.060256794239870494 -0.5433100002838948 0.22346992958394843 -0.26770587648531036 -0.3843378860239125 -0.05360472232498349 -0.03642848745732821 0.22438057886885274 -0.2813732088060279 ]
[ 0.16460630229957945 -0.17230264106303764 0.03186754640183401 0.022627663967214988 0.19485712569921704 0.220520349111742 -0.3742998317709843 0.3782484454390681 -0.04535746170333883 0.4254259670797526 0.16033302567316007 0.1546761667901663 0.1752474736618839 0.3078452903737733 0.02031191141087683 0.15171533643207333 0.08206815501951834 0.32592661325749456 0.20204683120890257 -0.3373252491946424 ]
[ -0.765949900331608 -0.6354957690162631 -0.5573222100719435 0.45069391795657315 0.23937266523770223 -0.28893533318604975 -0.05369746675502165 -0.40909322912432233 0.5287062831173709 0.012923341643988295 -0.18594897440311295 -0.3323489861643671 0.07952031219288631 -0.8687546982218416 -0.3967667454525655 0.21857567368516173 -0.3447144270394675 0.1920373713070108 0.13248885818355507 -0.1982365220975281 ]
[ -0.005238899987827172 -0.09138242675383249 0.5171612575527312 0.1403451364040088 0.006925520926627748 0.47721384836765746 0.2146690844364161 0.19315835116106705 -0.3098396981928852 -0.17410213696674684 -0.08013662726202063 -0.22863526530802397 0.1898901613458606 -0.17566437918957895 0.0733998563908646 -0.07602174061017967 -0.19125882526904991 -0.1944517567968881 -0.45997321272424296 0.11197905098845914 ]
[ -0.24043595262399828 -0.31689280346469945 0.17939307587734998 0.1923627400319108 -0.2749698450905123 0.16489270582358967 -0.4431852750066663 -0.18395404149496428 -0.08793457817637906 -0.4322552071632662 -0.06596567876237387 -0.35653211603233015 0.11069163980369162 -0.5526774051972582 -0.38787373267744785 0.04852836625214356 0.16669924782491435 0.21930780287742813 -0.09270511119572337 0.098163948618243 ]
[ -0.2717747230243898 -0.11137244105135626 -0.21141889064906963 -0.11358368786572613 0.17403089058403637 0.1918207500855749 -0.17608481125883887 0.24232077984461736 -0.31730438043187675 0.06703891726619902 0.0244397867532336 -0.20122373285086081 -0.1990335540213316 0.39737844361927366 0.07728548942650694 0.2733182788486803 0.027043141346890776 0.4490010038715756 0.21218326396539647 -0.6084828846417074 ]
[ -0.6879393407534453 -0.18362333127907715 -0.20117405931774496 0.18505262084675048 0.17574931583219333 0.01827312515827076 -0.12464646989425471 -0.16600053320967287 0.40819969957425745 -0.4421966256333519 -0.04332660531090231 -0.3696097136752538 0.3656618675673146 -0.8214067773458623 -0.3867313075697521 0.13717001338158097 -0.4098397023195329 -0.1692889941693657 -0.19752060281553324 -0.5623388935965786 ]
[ -0.0009202367214810544 -0.18829025863562202 -0.0496925042131464 -0.06119206116691122 -0.11574060130359964 -0.12814090030015388 0.03842873119171356 0.22213080144008227 -0.2022119666610504 -0.2250028758075502 0.10710256863804923 -0.06318126881698732 0.040161635720256154 -0.15601903632970462 0.11091140366905491 -0.2618903961484966 -0.2912472850235189 0.05935566929507249 0.08427195023927224 -0.1440127043186152 ]
[ 0.49826086061094205 -0.09403270930976215 -0.36474950456714766 -0.4341382431184057 0.2742629579688539 0.20291803362861635 -0.08406018034645768 -0.2004820762814824 -0.1599192974164534 -0.07871856208201915 -0.051263661001178594 0.3246847568273834 -0.33184548278943127 0.464051208027539 -0.1018086863244509 -0.16338041246963161 -0.4025515509628282 -0.1933691434265326 0.10668132571877607 -0.04031766120204406 ]
[ -0.158370147714302 -0.32495893381289276 0.24174911288499656 0.3425193134059577 0.33657891129909134 -0.061085361870413225 0.22179230494675592 0.35814124356121313 -0.03208766960748962 0.2828665346490813 0.027257382958415663 0.4633062173862991 -0.23618135820061473 0.5120017239832626 -0.09014915712588774 0.2769964464719557 -0.1638791226670143 0.0454193040839297 -0.04668132021338855 -1.0050609222203615 ]
[ -0.03594310204334923 0.36489706620103524 0.14736867008127794 -0.24022090466050328 -0.5285835119786223 0.08954200247162321 0.059548383970144905 -0.03359572645470018 -0.006060585524762822 0.4796612582358369 -0.08971431357172172 0.47260655016002695 0.02156546118834411 0.43007462788038975 0.4587031441666187 -0.2290389807529533 -0.008291936262567749 0.2802743115150314 -0.2747935360545118 -0.05901338741072975 ]
[ -0.11324497833755179 -0.35162323905733583 -0.11567399545803267 0.16279228556206127 0.368501642656387 0.009134151116055768 0.025378306547749335 0.11092455119905645 -0.39634991661614394 0.039545239178628525 0.4815181560964092 -0.19638169559241747 -0.17025397937827397 0.049740257285033444 -0.3760651687733602 0.005222938398866138 -0.1822507738934531 -0.19836937691063986 0.08450315279308954 -0.27759551746495464 ]
[ -0.5488305076612743 0.13972203395063168 -0.3095313480943006 -0.234489954476124 -0.3737881724105618 -0.2881606278856867 0.22880561398939495 0.4741602908566955 0.20915617351050045 0.1407012468094763 0.03762921379735081 0.505884815028571 0.08595898780041143 -0.4153956579554445 -0.12431001264637202 0.3919123242579872 -0.028793308547541648 -0.07611537593215552 0.14720380435300817 0.43527948580211584 ]
[ 0.13131774880108651 -0.37335331130989335 0.11316780423390939 -0.12010410180987365 0.18738479041661488 -0.18988645744125865 -0.2075750392796944 -0.07368251169118727 0.3248515162809193 0.44355013265551757 0.4753801203927167 0.07771921423062289 -0.06732436855365294 -0.05988613866774331 -0.1396197294129078 0.10298045259248807 0.09425876624834094 0.05652917044171505 -0.2650012860794844 -0.3958105837282743 ]
[ 0.265149554848263 -0.2094427471844573 -0.07204176030653686 -0.29393836757180763 0.2805810280163345 -0.32547629209629453 -0.2022226990268453 -0.27432592260031513 -0.2230039358939222 0.031018546119572124 0.09891666034405888 -0.19236106507887624 0.014498103823790322 -0.290066455619289 -0.15374465195619247 -0.013791201790945706 0.10235883123996417 -0.4542451000672522 0.09246909704166346 -0.15703854411963342 ]
[ 0.1748828677513795 0.12319975517692244 0.13818273470102177 0.301749024823315 0.24644948392279586 0.10566841197782248 -0.05566553214376991 -0.12555859845992265 -0.29806780658344056 -0.03217678793860081 -0.4159354637500253 0.1700358384339599 0.06266114300168885 0.47581249240370566 -0.14270662528868225 0.23484789890805158 -0.004486778249157704 -0.10517954164494953 -0.27963964828090876 -0.2456347179283844 ]
[ -0.24582995329480137 -0.19016036091892566 0.07442809401492845 0.20627669616948316 -0.09688177636352918 0.34596765513947497 -0.1309590708069377 0.24821116834714335 -0.2340261579531869 0.07389696376641358 -0.44931860525172984 -0.007354913834144502 0.3267774732192752 0.24647412230172044 0.29156312940429 0.13223736755186627 0.03668803796595708 0.34643927779465344 -0.07431391987465 -0.055854864746368214 ]
[ 0.14262304173701906 -0.081661256064194 -0.3094188565625766 -0.6925931713209795 -0.10067643365572114 -0.3212749135175746 0.2818178192963427 -0.3259736902445597 0.13346827608464648 -0.39941950621969585 0.10801598686266822 -0.2606729113372359 -0.039256546439485826 -0.9302224656227318 -0.24305854506855534 -0.20112710491521274 0.23008476672615685 -0.2585667813641922 -0.17045584017046836 0.09641283659828179 ]
[ 0.20095204265292588 0.4025088698056965 -0.12907939654336437 -0.39657240412990685 0.2696733039154432 0.3377204701804419 -0.563222255212683 -0.06410247499073655 -0.3404284237211749 -0.7551581384394752 0.09182734631669895 -0.40132179553890224 -0.08403778826059437 0.21445623099084524 0.11036775260240657 -0.25133852692572034 -0.016255986860758336 -0.030807964406473 0.2096560916744345 0.17629084491034863 ]
[ -0.19267400041960248 9.482030621489124e-05 -0.1984560670880233 -0.03715575145254939 -0.1333716734023808 0.03942620304288818 0.271179307999046 -0.20226412305723626 0.3455066657192896 0.3106822029208081 0.2215849292247464 0.3755705479657215 -0.3461990701316464 0.0320274583078431 -0.09032037967707551 0.18498292545407338 -0.02432893862186615 -0.15818583695409 0.06919027546488629 0.03519805246939562 ]
[ 0.03956139937442173 -0.16779215971671155 0.07910699809892623 0.2628802558784544 0.1586183911955036 -0.003455208013761454 0.46602724524140754 0.16548804129252118 0.3306656197585236 0.09904845576969779 0.408191616385614 0.2719671904542554 0.043460145256247196 -0.00721292694883331 -0.1051929366092355 0.09900317036586312 -0.23062920916049026 -0.1239663737679791 -0.06278587359851014 0.04624107269954501 ]
[ -0.15261165695475043 0.1456278733512484 -0.022425115130277843 -0.12626290320052289 0.02166796993823969 0.24585473347855424 -0.12394931171217821 0.17084805688358215 -0.19219106893032573 0.028891055105447715 0.0015364833538563777 -0.0850114171106312 0.12331792181505806 -0.03760309212026372 0.14401510534931578 0.4122496737118629 -0.26918254824401666 -0.11475995340536746 -0.13098828488957992 0.2616171207988443 ]
[ 0.193965381158702 -0.03869713108625439 0.08905940931134576 -0.22944291568301745 0.174642878259925 0.14096030219848296 -0.018939590456291386 0.18453046324964895 -0.17733786662902287 -0.05753282174352561 -0.14598375646867784 -0.18366141516468623 -0.15573830618125392 0.12403396573523122 -0.3795055874135328 0.17533586112567434 -0.2702355113192413 -0.16039441360468384 0.14176600363054748 -0.16712249987894348 ]
[ -0.08503805231265758 -0.032378099124305 -0.008934946165144425 -0.06273532034235504 0.29008014579885977 0.03468499547531491 -0.16101412931103706 -0.1950779716311207 -0.2718160055427995 -0.21256801820206342 0.17338701097023138 -0.3520352774964075 0.35054655678878555 -0.29456911714058875 -0.0325327019920532 0.2728159075595828 -0.15100296464775625 0.07639534768968756 0.029947074361459634 -0.17212996504723055 ]
[ 0.14466469439598809 0.3283718837255361 0.10739809721542232 -0.12127501961947251 -0.030195415185493308 0.1284308258571865 -0.1607512564299674 0.04979113346638602 -0.15053372595391934 0.09320896765908336 -0.10954832179754324 0.15399463054565526 -0.03364628578944883 -0.6511403727808575 0.2524399222340011 -0.25270303509026615 -0.032631091897966494 0.12906436710156757 0.01899281609976075 0.44715742006370063 ]
layer 5 Activation
tanh
layer 6 Dense
20 1
[ -0.29301261154390745 ]
[ -0.21418743320146055 ]
[ -0.35679674745526174 ]
[ 0.011418271173831748 ]
[ -0.39031399927244936 ]
[ -0.26022614691135193 ]
[ 0.15525935857233525 ]
[ -0.28697170992531756 ]
[ 0.15459985736244447 ]
[ -0.17825960793428716 ]
[ 0.0025114655236770085 ]
[ -0.17395310592493166 ]
[ 0.30221053018290145 ]
[ 0.08337761474637195 ]
[ -0.3703174760601917 ]
[ 0.05092242569318273 ]
[ 0.04687253612007348 ]
[ -0.10535556783825084 ]
[ -0.31133791133539007 ]
[ 0.11736024765691097 ]
[ -0.018038018905791035 ]
