layers 7
layer 0 Dense
20 20
[-0.15960321  1.1183513  -0.41918373  0.10950033 -1.1075313  -0.10996062
  0.35927042 -0.00541235  0.11138728 -1.114522    0.0890723  -0.018549
 -0.51819336 -0.5766609  -0.3961308   0.26459312 -0.36765003  0.10362425
  0.09392186  0.3331032 ]
[-0.22086518  0.3263099   0.61933446  0.23509526 -0.6721896  -0.7696613
  0.15187053 -0.17287372  0.20399554 -1.2687801   0.8126315   1.1213342
 -0.06086694  0.41011065  0.22270855  0.7226915  -0.94488126 -0.97998077
  0.5149396   0.2196965 ]
[-0.04598349  0.10034645  0.5892899   0.60005087 -0.86416143 -0.52516365
  0.07656074 -0.12794729  0.26320854 -0.7815973   0.53689957  0.9601711
 -0.5237497   0.13451314  0.16743608  0.84219533 -0.6461499  -0.41582298
  0.4614534   0.58862644]
[-0.3703881   0.99155605  0.19539115  0.43697765 -0.86186224 -0.43212402
 -0.5864149  -0.40324894 -0.16901588 -0.891156    0.25905642  0.18544805
 -0.18823595 -0.5966965  -0.6121579   0.5747947   0.16890353 -0.4154726
 -0.37784883  0.7166732 ]
[-0.265432    0.07444721  0.7892633   0.01426887  0.45188335 -0.01961609
  0.36084202  0.161423   -0.3149439   0.0875809  -0.05914692 -0.07846079
 -0.35248205  0.9980645   0.17013775 -0.31803647 -0.4260602   0.14991012
  0.21949838 -0.7030697 ]
[-0.01197719 -0.3014027  -0.3722165  -0.00860493  0.73636574  1.037125
  0.08513602  0.5704858  -0.91221505  0.94743645 -0.19626743 -0.82330203
  0.4037224  -0.3719187  -0.9691438  -0.7506506   0.85694635  0.67333436
 -0.44545954  0.04144058]
[ 0.22344866  0.06417552 -0.13731244 -0.05684621  0.17953005  0.46466118
 -0.26889187  0.7164626  -0.84212995  0.7214448  -0.33399147 -0.71627975
  0.16154201 -0.18721487 -0.78806514 -0.3980659   0.60622877  0.7790731
 -0.49732035 -0.32748574]
[ 0.18913692 -0.7483585  -0.2868067  -0.5958695   0.85404086  0.2877679
  0.36925393  0.0474334   0.06487891  0.20116761 -0.19923845  0.22728959
  0.6876729  -0.55493873  0.28527027 -0.32024935  0.1591188   0.27231818
  0.20619684 -0.32275122]
[-0.293696    0.22058034  0.85796046 -0.82596743 -0.2465226   0.39454883
  0.8690233  -0.17892602  0.8292074  -0.30770168  0.32624158 -0.36391857
 -0.30640283  0.17530844 -0.1884981  -0.7650807  -0.64059913 -0.30128893
  0.44211343  0.19258676]
[-2.227299    0.10524746  0.21032378 -0.6450341  -0.10056825  1.1117923
 -0.33027416 -0.45522332  0.5417039   0.7747669  -1.3139337  -0.7192634
  0.15904185  0.38736057 -0.47348866  0.568988    1.5812951  -0.19001208
 -0.28063902 -1.0533926 ]
[ 0.8144345  -0.75228214  1.2524236   0.8049578   0.1507115  -0.30720285
  1.1454296   0.00588843  1.0379318   0.5502979   0.6059029   0.09859444
  0.04370074  0.9978581   0.8833317  -0.18835294 -0.9222258   0.03045535
 -1.450715   -0.3695883 ]
[ 0.37727156 -0.29506308  0.3237095  -0.17559226 -0.12495457  0.5229898
  0.4873189  -0.7185307   0.97406435 -0.9662164   0.27914172 -0.21484114
  0.11375376  1.0263702   0.00201924 -0.16358131  0.41491047 -1.9473052
  0.7376903   0.34674582]
[ 0.575269   -1.0036606  -1.4079474  -0.99688965  1.3816549   0.7051415
  0.6306005   1.2752107  -1.2472541   1.084033   -0.86590016  0.32113376
  0.52973443 -0.25300154  0.424318    0.16278763  1.1647631  -0.24521357
 -1.1524448  -0.73478645]
[ 1.005066   -0.42723826  0.08075563  0.4332404   0.38700646 -1.1438707
 -0.47016943  0.41943407 -0.19150549 -0.78805083 -0.47413108 -0.8742494
 -0.36718386 -0.4398629  -0.48660585 -0.00557291 -0.3617168  -0.18881944
 -0.5180528   0.541798  ]
[-0.49469584  0.8991382   0.17476672 -1.187547    0.45075205 -0.5852782
 -0.5348198   0.44478607 -0.14840345 -0.4894452   0.56848305  0.22830665
 -0.47968492  0.1231396   0.43729264 -0.09222034  0.28971657  0.06745787
 -0.12919465  0.44460672]
[-0.40109065  0.6104565  -1.7230998   0.39904007 -0.26600245 -0.84052485
 -1.3736798  -0.49143818  0.8162897  -1.3859954  -0.46113098  0.20399234
 -0.73000216  1.2558331   0.14643177  0.32129735 -0.93627775  0.13335496
  0.91827464  0.15218836]
[-0.5974189  -0.02753925  0.5282241   0.23358993 -0.80975205 -0.51644063
 -0.4540089  -0.91680527  0.5736235  -0.6701987   0.14243498 -0.20162003
 -0.5732765   0.03372123 -0.3363604  -0.6136113  -0.5629011   0.374772
  1.0079746   0.25390437]
[ 0.26672798  0.36028746 -0.03502633 -0.04981357 -0.1563111   0.24965827
  1.6813651   0.62146765 -0.68045664  0.47691754  2.6025252   2.8337245
  0.3752845  -0.6344256   1.0368463  -0.3766142  -0.9717194  -0.16519532
  0.24496058  0.4413343 ]
[-4.6219611e-01 -1.0427680e+00 -4.3526796e-01  7.0942312e-01
 -6.0005236e-01  1.0691507e+00  1.7763615e-01 -2.4024090e-01
 -8.9047229e-01 -2.5826362e-01 -1.2243127e+00 -4.2254114e-01
 -9.8665990e-04 -1.5092504e+00 -9.3158710e-01  6.7374951e-01
  6.9421327e-01 -5.0637776e-01  1.5313222e+00  1.1129457e-01]
[ 0.28013474 -0.0300161  -0.2510758  -1.304468    0.12332339  0.04442216
  1.2391653   0.47721994 -0.16939762  1.0791699   0.33359382  0.20807037
  0.8275946  -3.0362346   0.00501922  0.4612674   0.5954827   2.216366
 -1.3469695  -0.9012252 ]
[ 0.03774662  0.4243141   0.07924151  0.30355015 -0.30976093 -0.24298286
 -0.37824962  0.06587251 -0.07569246 -0.19758654  0.08989102  0.06297143
 -0.29156864 -0.19140038 -0.24979296  0.39157626 -0.15000845 -0.1826591
 -0.19206744  0.3312811 ]
layer 1 Activation
tanh
layer 2 Dense
20 40
[ 0.2986017   0.41797772 -0.6008479   0.65276915  0.7821253   0.23086894
 -0.10510962  0.24867748 -0.05006198 -0.19588396  0.6080527   0.5155841
  0.30009517  0.07049239  0.1410274  -0.841166   -0.15568303 -0.26237807
 -0.19781616  0.34836933 -0.6977791  -0.2361008  -0.17712171 -0.19285226
  0.612243   -0.3580704   0.10064158  0.00887523 -0.04275697  0.2317028
  0.53975916  0.04121211 -0.3686279  -0.04581739  0.03400861  0.11578683
  0.342994    0.8977579  -0.38962746  0.33638301]
[-0.3206077  -0.86096984 -0.38871396 -0.8406274  -0.8620071   0.6211574
  0.54157335  0.4819892   0.5701681   0.00970004  0.62081164 -0.20277284
  0.29744953  0.21569914 -0.15869299 -0.31574905 -0.11498087  0.81486917
  0.846385   -0.7127304   0.6195182   0.16577387  0.06065474 -0.37669498
  0.37117797  1.1068368   0.01464665 -0.31951988 -0.74257916 -0.47634387
 -0.05380273 -0.56688464  1.0996305   0.29223385 -0.2563527   0.39598626
  0.41975564 -0.58273757  0.88106656  0.43731636]
[-0.13515529 -0.06444301 -0.06071892 -0.46100998 -0.44901758 -0.23342028
 -0.50610095 -0.38481456 -0.14884356  0.48950523  0.28564975 -0.1167156
  0.4804626  -0.07238805 -0.1309803   0.04778994  0.02204655 -0.07597658
  0.0808997   0.09980771 -0.54644805 -0.0293399  -0.387213    0.4369661
  0.5966811   0.42472017  0.3376229  -0.83081776 -0.04870163  0.29002815
  0.21510941  0.01893265  0.2890952   0.17725487  0.31925887 -0.17861132
  0.2973759  -0.788242    0.06582849  0.7321066 ]
[-0.17683111  0.175049    0.02397067 -0.7712467  -0.98175776 -0.32409638
  0.17942621 -0.24062832 -0.01247459  0.71793365  0.15653758 -0.21337332
  0.06919318 -0.0796989  -0.9061798  -0.34506476 -0.0497672   0.40303606
  0.6818174  -0.45211914  0.02527582  0.2476985  -0.07519332  0.26212618
  0.18152517  0.37649202  0.03458266  0.28216258  0.33076403 -0.07422034
  0.31268796 -0.4879169   0.22162674  0.9655257  -0.5241537   0.18857569
  0.43390843 -0.66586643 -0.10542841  0.18814431]
[ 0.18356642  0.72010595  0.23054503  0.53750914  0.4368306  -0.1558571
  0.40822545 -0.2808003  -0.39843702 -0.12853055 -0.06707799  0.4749596
  0.16007873  0.18513873  0.3881207  -0.34444973  0.07580045 -0.68402416
  0.00529267  0.72541904  0.01462858  0.12106561 -0.15613522  0.12110851
 -0.2062358  -0.06875672 -0.2616408   0.459702   -0.05372242  0.18682332
  0.12934051  0.793977   -0.6593069  -1.3299298   0.30315492 -0.1910012
 -0.2025313   0.48476538 -0.65835273 -0.17720614]
[-0.27454475  0.0042944   1.1440609   0.22606067  0.15335467 -0.44587457
 -0.58274585 -0.24156144 -0.6043077   0.05705201  0.01113626  0.3141373
 -0.45546168 -0.00949165  0.2849784  -0.06601339  0.24810746 -0.33973634
 -0.6154767  -0.3166859   0.49163514 -0.3738048  -0.04002772 -0.33870125
 -0.4903244  -0.47975442 -0.15530695  0.413178    0.4255698   0.3296816
 -0.53713894  0.23846853 -0.17037874 -0.00974609  0.14101355 -0.33088568
 -0.53938836  0.2906517  -0.16121598 -1.0576258 ]
[ 0.5005465   0.5530828   0.6316554   0.5345291   0.5185351  -0.12037856
 -1.1177279   0.12170364 -0.1464673  -0.26318368  0.5333346   0.3152898
  0.10928123  0.14546391  0.6523329  -1.1268268   0.17478558 -0.35005778
 -0.5885551   0.31966847 -0.13783862 -0.28914914 -0.48713312 -0.17695342
  0.02488382  0.02349443 -0.33910587 -0.04835436 -0.1938239   0.34693962
  0.02561873  0.19603153 -0.11639272 -0.61003864  0.11309014 -0.55541193
  0.07943638  0.40376282 -0.47969815  0.05299596]
[ 0.40593225  0.07711735 -0.24679303 -0.06821655  0.11485875  0.6308044
  0.40891457 -0.23143114  0.11294785 -0.10524661 -0.01263063 -0.03683458
  0.02945907  0.0713795  -0.05789077 -0.26390085 -0.02984043 -0.10567629
  0.3375671  -0.13082461  0.56921965  0.39519152  0.46957955 -0.21657471
  0.32318014 -0.34787887 -0.19455631  0.17278697 -0.04108197  0.01195447
 -0.2522564   0.41356412 -0.1842688  -0.6948056  -0.2120119   0.29840988
  0.1847644   0.13918515 -0.01214364  0.09500904]
[-0.28532434 -0.5214125  -0.18075415 -0.11799909 -0.11122565  0.1126098
 -0.29493582 -0.37056231  0.09554196 -0.20641632  0.420532   -0.4296705
 -0.2855687  -0.40269738  0.3146653   0.41853163  0.46785182  0.25387666
 -0.12645823  0.04763206 -0.6437251  -0.35656372 -0.5587565   0.13886885
  0.7127992   0.33768338  0.26590925 -0.96036243  0.5194842   0.12535538
  0.2850347  -0.15787195  0.40369213 -0.08266057  0.03763222  0.30158165
  0.17415965 -0.36415678  0.17667007  0.726156  ]
[ 0.13355193  0.4876306   0.46698093  0.8084241   0.7643896   0.12632297
 -0.8139026  -0.35550606 -0.47146854 -0.560195   -0.4613948   0.26522678
 -0.02519117 -0.2166667   1.0066732  -0.3227501   0.52016497 -0.25911283
 -0.7891206   0.29115704 -0.11929492 -0.02010833  0.0077984   0.33688128
  0.31098542 -0.9920404  -0.36836448 -0.3584587   0.5903752   0.807869
 -0.12248717  0.27770513 -0.762229    0.09958413  0.25306213 -0.25793612
 -0.52699417  0.56148404 -0.41726777  0.06306063]
[-0.01926735 -0.42197844 -0.2915208  -0.21000546 -0.46046707  0.72345704
 -0.7824318   0.24607606  0.44580352 -0.37156117  1.0589672  -0.0050052
  0.5354699   0.87072045  0.03691136 -1.078704   -0.81910956 -0.42595997
  0.30399644 -0.2987161   0.49251065  0.5230693  -1.1625457  -0.19468176
  0.6678154   0.45275775  0.14474146 -0.06889028  0.43694887  0.08817291
  0.5416261   0.5351335   0.6552636  -1.003581    0.39149877  0.02156811
  0.88490874 -0.45431277 -0.39039823  1.167864  ]
[ 0.5149596  -0.13944238  0.07137511  0.3336287   0.2502739   0.5803946
 -0.05157909  0.6283009   0.27033073 -0.31079102  0.7477709  -0.1174492
 -0.26646686  0.24384679  0.32107952 -0.3825397  -0.16989274  0.3654786
  0.5005039   0.07633622  0.21149305  0.20712522 -0.2016444   0.1591492
  0.63484937 -0.68609613 -0.32158804  0.09790676 -0.40357926  0.45005876
  0.06692146  0.19008915 -0.4268211   0.6943164  -0.0059983  -0.06170325
  0.5432243   0.35220373  0.28809348  0.5361549 ]
[-0.17808518  0.7878024   0.03103676  0.16941409  0.4091293  -0.09042447
  0.46380723  0.08185082 -0.30670074 -0.40897712  0.35124528  0.37632775
 -0.15929052  0.0869132   0.10853737 -0.39427447  0.2579959  -0.14693972
 -0.51282585  0.48344707 -0.12417296 -0.0468613  -0.22922952  0.12174577
  0.19103254 -0.25647163 -0.25548992 -0.10256596  0.11990648  0.14392978
 -0.03825399  0.11851926 -0.46541137  0.14935945 -0.24264458  0.0922298
 -0.15659393  0.2067604  -0.03768476  0.3469089 ]
[-0.65687335 -0.55192965  0.07777581 -0.5634923  -0.7355553  -0.2399578
  0.469997   -0.44263753  0.13166316 -0.00711981  1.0669875  -0.09049244
  0.1111479  -0.08518517 -0.38506076  1.100256   -0.01580245  0.5326666
  0.53298026 -0.32556894 -0.5928976  -0.2408657   0.5218373   0.9478198
  0.9345843   0.11152574  0.10021897 -1.1673409   0.8460088   0.18732503
 -0.15942131 -0.14226688  0.23269558  0.6498003  -0.38723215  0.17156349
 -0.18361521 -0.22900628  0.65970844  0.8589403 ]
[-0.20249581  0.13417606  0.06779066 -0.04562399  0.15306498 -0.11166351
 -0.14641178 -0.5338942   0.32837304 -0.35346165 -0.0052221   0.09328897
 -0.48122105 -0.0505332   0.03045654 -0.04529697  0.09497523  0.08216996
 -0.01569546 -0.30639938 -0.75354046 -0.02704628 -0.0499878   0.45582145
  0.207387   -0.37563455  0.12579954 -0.26668128  0.41229185  0.1808423
 -0.04101012  0.45574003 -0.07618493  0.05685024 -0.03555357 -0.1110857
 -0.02405228  0.5268913  -0.09547434  0.32376882]
[-0.2339765  -0.08868446 -0.147597   -0.02897777  0.19103974  0.24835424
  0.6702386   0.5973914   0.44518426  0.08894949 -0.11175731 -0.3910288
  0.2018602  -0.3481657   0.03650499  0.02795875 -0.19806635  0.19511192
  0.2924316   0.12598263  0.6950641   0.4755556   0.63849914 -0.03831496
 -0.08872947  0.35051522  0.19749498  0.07197678  0.24758509  0.17833403
  0.21998544  0.2307375   0.06765167  0.2099395  -0.2347506   0.28790775
  0.01102636 -0.08520488  0.16150436  0.35823962]
[ 0.02618974  0.14103429  0.2982694   0.0242592  -0.01798832 -0.2789786
  0.24129389 -0.1965263  -0.11634952  0.15317479 -1.0553535  -0.37701866
 -0.8125033  -0.01966688  0.22392568  0.39582124  0.5348368   0.0802188
 -0.4724925   0.06986761  0.06512675 -0.23742186  1.0093052  -0.10987446
 -1.0854659  -0.01231991  0.186513    0.29790407  0.01812742  0.20700237
 -0.724259    0.33015388 -0.31038427 -0.18339305 -0.15083258  0.30585685
 -0.792396    0.1465823   0.06223156 -1.1242374 ]
[-0.05087808  0.05133968 -0.35416117  0.21954541 -0.07529639 -0.3301692
  0.34621307  0.2569909   0.38063586 -0.86962366 -0.36518696  0.05161955
  0.15125245 -0.35514906  0.26616347  0.17903942  0.28784293  0.07190072
  0.05739083 -0.6261228  -0.06363808 -0.0913995  -0.08057944 -0.3026107
  0.2536078  -0.36613306  0.1995424  -0.42941913 -1.4534364  -0.09975342
  0.03725271 -0.32838055 -0.0081124   0.16407806  0.16568868 -0.01767123
 -0.09488118 -0.06464763  0.13567863  0.5847984 ]
[ 5.3699434e-01  1.8996046e-01 -1.3909383e-01  5.6327458e-02
 -1.1012912e-01 -5.7149506e-01  7.2458170e-02  5.2575463e-01
  2.9839861e-01  2.5900066e-01  1.4066124e+00 -5.3250700e-02
 -2.4546877e-01 -2.8558072e-01 -3.6533165e-01  1.1594317e+00
  4.3148708e-02  6.6791922e-01  3.5508779e-01  2.4363804e-01
  5.4955077e-01 -2.7147043e-01 -5.9760535e-01 -2.6241332e-01
 -1.1079855e-01 -2.1188888e-04  2.8548986e-01 -9.3282208e-02
 -1.5140071e+00 -2.6646248e-01 -4.8452026e-01 -4.3893570e-01
  1.4639002e-01  1.0604272e+00 -2.9049459e-01  1.9301063e-01
  1.2507887e-01 -1.9604947e-01  2.5201139e-01 -2.5098121e-01]
[-0.3297036  -0.09481522 -0.06648339  0.06641937  0.02636232  0.07703579
  0.18597624  0.18880494  0.1332186   0.09669408  0.0530914  -0.14128977
 -0.0089047   0.3789177  -0.71732426 -0.49351275 -0.02607681 -0.3585491
  0.36856735 -0.02256529 -0.32571545  0.00120215 -0.35216215 -0.11541835
 -0.21569212  0.3303016   0.2288875   0.392993    0.32855654 -0.28474408
  0.28721642 -0.08533528  0.00922676 -0.03971562 -0.18715194  0.08377964
 -0.03443684  0.00589931  0.11857012 -0.4559974 ]
[-0.45460662 -0.3723834  -0.0821209  -0.40369263 -0.59760016  0.10824087
 -0.05158972  0.1435308   0.20134921  0.4346115   0.13740362 -0.02676827
  0.00678614  0.02759422 -0.39158824 -0.38716614 -0.19130854  0.25068048
  0.32051426 -0.44763964 -0.18594635  0.04573036  0.20210497 -0.03832654
 -0.11501672  0.148476    0.14253503  0.15430307  0.27310464 -0.03685788
  0.08279002 -0.2923561   0.32662007  0.5318799  -0.06151702  0.2935186
  0.3575383  -0.29840913  0.252268   -0.03533992]
layer 3 Activation
tanh
layer 4 Dense
40 20
[-0.30993196  0.17047696  0.06588419  0.01862436 -0.05127078  0.23498626
  0.3003969   0.19396299 -0.0188228  -0.07255409 -0.07961302 -0.2895737
 -0.2782501  -0.1835594  -0.5247551   0.34008294  0.24069633  0.3683436
 -0.11633135  0.3523888 ]
[-0.15024292  0.718083   -0.4589385   0.2186943   0.46479043  0.2568931
  0.30069542  0.2616712   0.08628866 -0.05824914 -0.23359282  0.45625144
 -0.49978325 -0.14424303 -0.34197444  0.7547366  -0.3053894   0.14221628
 -0.0311339   0.36091825]
[ 0.08577517 -0.1773539  -0.04172688  0.16756468  0.25063977  0.08872543
  0.41279903 -0.6130182   0.35664728  0.04170517 -0.4698336  -0.10519725
  0.3982344  -0.12316593 -0.17971586 -0.17979813  0.01763434 -0.5077017
  0.14078489  0.21347272]
[-0.14073195  0.31814378  0.08014625  0.29935578  0.31085148  0.46016324
  0.31809527  0.30473685  0.17407334 -0.15564172 -0.13662244 -0.03803918
 -0.46896344 -0.23328385 -0.5494038   0.33491716 -0.12849084  0.0655248
 -0.05886456  0.86430085]
[-0.2526374   0.515219   -0.01862733  0.40898323 -0.07590745  0.50267154
  0.58648235  0.07474556 -0.04956832  0.2022588  -0.01126274  0.21078794
 -0.46971834 -0.2389951  -0.46715173  0.33238482 -0.29620326 -0.06688996
 -0.13608728  1.0208402 ]
[-0.2035908   0.11459886  0.40227136 -0.13663726 -0.54128414  0.13416393
 -0.5705609   0.45117936 -0.44459063 -0.03684041  0.5611678   0.4000855
 -0.1184258  -0.19472302  0.19372207 -0.19283241  0.75404257  0.44191235
 -0.08614587  0.15131839]
[ 0.26671794  0.12128375 -0.13821045 -0.4836531   0.14523786 -0.34037733
 -0.06992772 -0.35872215 -0.07480974 -0.09225475  0.13866462 -0.10459903
 -0.27301356  0.14941512  0.5004377  -0.17515318 -0.46632057 -0.6574931
  0.09644061  0.2516271 ]
[-0.1610198   0.01679095  0.11569894 -0.0434756  -0.21253327  0.0324152
 -0.5842934  -0.01706983 -0.35930514  0.09223035  0.2728011  -0.07239711
 -0.5341706   0.7216892  -0.05291175 -0.26166305  0.11745106  0.0263302
 -0.01687756  0.38663548]
[-0.30639955 -0.2973588   0.20659928 -0.08048464 -0.1652454  -0.01920517
 -0.4685631  -0.36376277 -0.27701584 -0.14462285  0.3864957  -0.00305748
  0.08783599  0.17966473  0.14803782 -0.15476754  0.21032345 -0.2391794
  0.02198965 -0.36306185]
[ 0.09046394 -0.10552206 -0.03775353  0.12222302 -0.13244347 -0.24031778
 -0.29501197  0.06562617  0.26577604 -0.22959846 -0.03487513 -0.32577136
  0.31546706 -0.06920891  0.50596505 -0.15298328 -0.0395458  -0.3783546
  0.03819448 -0.35952976]
[-0.60121936  0.00743202  0.23385541 -0.6813191   0.02488808 -0.39957228
 -0.6693339   0.3054877  -0.17872106  0.00999116 -0.04493122 -0.14179493
  0.01406757 -0.33357078  0.00604753  0.2712858   0.4093313   0.33476818
  0.03343077 -0.01114453]
[-0.12430762  0.26595962 -0.1088886   0.06120932  0.08546344  0.16077541
  0.21566573  0.28682944  0.22545172  0.17798705  0.29709825  0.06437421
  0.24537292 -0.25163117 -0.24735837  0.58650297  0.04373462  0.26026416
 -0.04915484  0.15322009]
[-1.62002891e-01 -2.66150339e-04  1.35674417e-01  5.11064902e-02
 -7.75029212e-02  9.65619460e-02 -2.50436008e-01  5.22634149e-01
 -1.21177785e-01 -8.02387968e-02 -1.86973765e-01  3.14065009e-01
  2.19410971e-01  7.41665484e-03  4.39377688e-02  3.65512073e-01
  3.69050920e-01  3.25864971e-01  7.35781267e-02 -2.64840484e-01]
[-0.32788026  0.11596604  0.24652317  0.02597152 -0.05971982 -0.02479119
 -0.12953551  0.08976182 -0.24133544  0.25069174  0.04289998 -0.03634995
  0.35500512  0.04803735 -0.02629211  0.1595246   0.6815311  -0.01922805
 -0.14172947 -0.17221068]
[-0.06206077  0.12446274 -0.1060124  -0.11952884  0.07156526  0.42410308
  0.57937    -0.02685419  0.22765356  0.0931745   0.0585404   0.23162887
 -0.44297126 -0.3557532  -0.09014992  0.04671603 -0.09018737  0.39324602
  0.24819532  0.41230246]
[ 0.11136074  0.4310395  -1.076764   -0.9697504   0.37693426 -0.48268613
  0.27178755 -0.19634683  0.40330216 -0.3812667  -0.1359403  -0.5761576
 -0.26887175 -0.1571849   0.21001486 -0.16225588 -0.2601497   0.2755287
  0.3092131  -0.57789254]
[ 0.19275747 -0.05744351 -0.0993282  -0.05158181  0.00376923  0.05588323
  0.22737671 -0.16821526  0.4182628   0.06224728 -0.29530767 -0.23327276
 -0.39833647 -0.19496076 -0.17099333 -0.19771324 -0.42894778 -0.4093443
 -0.10671397  0.35980454]
[-0.04525194 -0.42387554  0.03533236 -0.24613747 -0.22537324 -0.17174718
 -0.486176   -0.5931353  -0.24565454 -0.04751861  0.2399375  -0.3805509
 -0.2148517   0.1323322   0.28095788 -0.69266796 -0.44210863 -0.02837087
  0.00880086 -0.56155616]
[-0.18461123 -0.15803252  0.05654531 -0.25034592 -0.06733879 -0.2979222
 -0.8150228  -0.21982318 -0.477232   -0.12151228 -0.05191376  0.0722659
  0.21560961  0.06456908  0.3998358  -0.17885888  0.01694419  0.05461044
 -0.28496948 -0.5164427 ]
[-0.03822068  0.38472325 -0.13181856  0.1370086  -0.02504599  0.23688672
  0.17166619 -0.10778864  0.00799295 -0.06358768  0.28243485  0.00988289
 -0.3865791   0.16223885 -0.14275542  0.36272812 -0.15853424  0.30446103
 -0.3162435   0.12387484]
[ 0.04502822 -0.12390082  0.11911139 -0.29564255 -0.38988942  0.18563527
  0.03177791 -0.45075333  0.24289742  0.48237628 -0.12657644 -0.06228137
  0.10360273  0.16464491 -0.00630828 -0.44006193  0.12501538 -0.6722593
 -0.32993346 -0.13967611]
[-0.07840568  0.19851027  0.10882989 -0.09134775 -0.2573498  -0.00528435
 -0.16565008  0.1787718  -0.3724689   0.10398257  0.5044605   0.48468783
 -0.07751922  0.30967033  0.42489684  0.16912045  1.0241784   0.5087636
 -0.05303181  0.03197796]
[ 0.6167128  -0.22551695 -0.32870182 -0.2342075   0.14847374  0.14718086
 -0.0960592  -0.6101218  -0.15978155 -0.23510806  0.13230816 -0.04444354
  0.24493113 -0.25390264  0.06289584 -0.55430424 -0.24878263 -0.12642443
 -0.0587947   0.06973071]
[ 0.15283145 -0.12277944 -0.10371999 -0.02983309  0.39975944 -0.03623686
  0.622408    0.11417913  0.08942216  0.18429714  0.3774218   0.13953657
 -0.04345565 -0.34856358  0.17231618  0.17676455 -0.3021887   0.91219026
  0.18794572 -0.44007057]
[-0.25519314  0.14026602  0.18741046 -0.2899377  -0.00945335 -0.04700336
 -0.5447657   0.35718822 -0.38872758  0.15481557  0.13755102  0.06707451
 -0.30487874  0.18875422  0.20532003  0.09229682  0.43282187  0.94145465
  0.10161553 -0.3433761 ]
[-0.2135012  -0.3175976  -0.20347552 -0.5448284  -0.41605267 -0.48879746
 -0.3361248  -0.04961764 -0.2020175  -0.14793159 -0.08529373 -0.11639494
  0.3388423   0.10936567  0.0790784  -0.3496664  -0.09635883 -0.12686409
 -0.11802605 -1.0422004 ]
[-0.06549592 -0.13962129 -0.03756471  0.04149211  0.11921407 -0.09456738
 -0.56307435 -0.17418489 -0.01479557 -0.19564274 -0.2675909  -0.15131935
 -0.08936858  0.23049858  0.1575799  -0.24848233 -0.23421091 -0.48565045
  0.0455991  -0.41073254]
[ 0.40687796 -0.11301827 -0.00259961  0.43163204 -0.1633332  -0.08905952
 -0.02738849 -0.3317549   0.08380036 -0.04072596  0.13365348  0.08844193
  0.10029451  0.07911448  0.05701169 -0.10150639 -0.20010981 -0.47839746
 -0.39683804  0.267414  ]
[ 0.673736    0.38316497  0.2370692   0.40575776 -0.12358822 -0.35520515
  0.3708302  -0.07125368  0.01568877  0.29214415  0.36572292  0.56620735
  0.00775665 -0.32628435  0.05455064 -0.21897614 -0.06092675  0.26425263
  0.20241262 -0.4452222 ]
[ 0.17924267 -0.11631652 -0.07177965  0.0905637  -0.22001866 -0.04248754
  0.42630506  0.27082798  0.06458867  0.34926707  0.10809748  0.15013549
 -0.28349507 -0.2827319   0.03052419 -0.18256484 -0.5506542   0.22635145
  0.3247657   0.21622783]
[-0.13225682  0.21782902  0.05066798  0.07659775 -0.37070197 -0.19977494
 -0.30460602  0.74138695 -0.48098534 -0.18390974  0.25511304  0.50042903
 -0.26285377  0.4118041   0.20554924  0.6574193   0.34499112  0.45436892
 -0.0066234  -0.16454619]
[ 0.2549018   0.15255533  0.13001303 -0.00464224  0.2588962   0.23318192
  0.57560474  0.12760445  0.28037354  0.62119067  0.09678957  0.00258456
  0.08529469 -0.10900158 -0.43148074  0.11366411  0.06971187  0.0924245
  0.11263824  0.29487246]
[-0.21249816 -0.7447162   0.5161836  -0.4101295  -0.07031247 -0.3945019
 -0.2046089  -0.12776269 -0.27631044  0.04511315  0.06373987 -0.12331129
  0.0870465  -0.02315693  0.19497561 -0.6435809  -0.02035525 -0.3363798
 -0.2895966  -0.63063896]
[-0.74307615 -0.34777883 -0.6467857  -0.609578   -0.2564512  -0.6691478
 -0.44707555  0.1007601   0.16653858 -0.66102266  0.25938123 -0.450649
 -0.15618314 -0.38621968  0.264824   -0.10857304 -0.46096572 -0.26173744
 -0.02355819 -0.7388578 ]
[-0.16675973  0.16525504  0.02378196  0.1230366   0.00624339  0.10316411
  0.49828306  0.6807907   0.17407764 -0.03415133 -0.3106627   0.17983492
  0.11516117 -0.10907124 -0.29811424  0.04968773  0.3355571   0.35254386
  0.203142    0.08172433]
[ 0.1844255  -0.13818733 -0.02601788 -0.07229476 -0.07560776 -0.16647187
 -0.56796867 -0.18052584 -0.32087526 -0.23812015  0.48298207  0.1338696
 -0.09900042 -0.03994766  0.20234735 -0.57949346  0.01156835 -0.19130985
 -0.06921384 -0.3733616 ]
[-0.39588276 -0.11220548  0.11449468 -0.05737581 -0.14915949 -0.31134272
 -0.45272535  0.38237986 -0.2286137   0.08337279  0.05176997  0.30559966
  0.04930647  0.27956575 -0.18877971  0.39011317  0.25523356  0.23173779
 -0.06688762 -0.16724813]
[-0.221595   -0.19647428  0.19522107  0.5675059   0.25347307  0.75444
  0.2860322   0.2097267   0.19800754  0.1567435  -0.39370966  0.1087072
 -0.0151087   0.02235123 -0.3754928   0.11243103  0.06556879 -0.313389
 -0.20809114  0.6288783 ]
[ 0.08029291 -0.35349393  0.22952658 -0.31150836 -0.1259835  -0.0199041
 -0.34110388 -0.6680276   0.00475553 -0.16906957  0.0886611  -0.14641473
 -0.16498439  0.1287059   0.12256917 -0.7361045  -0.2833179   0.01985307
 -0.18234737 -0.45569777]
[-0.24571565  0.23241156  0.16945574 -0.35652128 -0.1002505  -0.32031065
 -0.38036913  0.15162021 -0.26220387 -0.10491422  0.32583296  0.22954176
 -0.2125658  -0.1468815   0.13363552  0.09284688  0.5957384   0.67225945
 -0.11104313  0.12102709]
[ 0.20625071 -0.4995008   0.15936142 -0.06810623 -0.02241544 -0.16132526
 -0.0324403  -0.14224511 -0.1305339   0.02616761  0.0156462   0.09112293
  0.00490152  0.10546361  0.10852724 -0.3243084   0.09244284 -0.2727267
  0.02763029 -0.17330869]
layer 5 Activation
tanh
layer 6 Dense
20 1
[0.11083241]
[-0.19680554]
[0.11908014]
[0.2433962]
[0.00818632]
[0.13632792]
[0.02837479]
[-0.02793089]
[0.01109459]
[0.07928377]
[0.00326888]
[0.03992936]
[-0.02799197]
[0.00231213]
[-0.03741882]
[-0.08882251]
[-0.01502392]
[-0.00920986]
[-0.00613329]
[0.0391355]
[0.25619662]
