layers 7
layer 0 Dense
20 20
[-0.04020182 -0.14916092  0.37612042 -0.12553386 -0.34154952 -0.02112022
 -0.12810504  0.3538494  -0.3319244   0.31108463  0.17256775 -0.21535939
 -0.00224972  0.21003509 -0.10584123  0.05202607  0.12319817  0.15955035
  0.36053824 -0.0953052 ]
[-0.12762128 -0.1771349   0.6408858  -0.5027525   0.18298057 -0.34861344
  0.36304647  0.39673075 -0.43420726  0.11068289  0.03457036 -0.15008153
  0.34602192 -0.27208287 -0.12431488  0.47150394  0.32102877  0.44767594
  0.03355754  0.20971654]
[-0.23301466  0.21901144  0.5684071  -0.2328704  -0.36376104  0.13833302
  0.72131675  0.01201966  0.15418988  0.22978476  0.30160573 -0.55820525
  0.19796851  0.29346886 -0.35245198  0.1293715   0.63649     0.44120172
  0.08411384  0.13667867]
[ 0.24613339  0.19419475  0.33552456 -0.10791185 -0.10413636 -0.37415078
  0.10297979  0.48030692 -0.5328944  -0.02763376 -0.5385902   0.12648043
  0.5168385   0.3978943  -0.10702223  0.18060488  0.29413447  0.00375826
  0.14061406 -0.15189871]
[ 0.19993232  0.40556222 -0.35244954  0.11578771 -0.19716139  0.276364
  0.30545667  0.05343568  0.15082537 -0.44507658  0.08569514  0.35224375
 -0.19317424 -0.14977682  0.17699923 -0.43368962 -0.1832895  -0.19991487
 -0.04067415  0.14914095]
[ 0.39655307 -0.3849926  -0.6423211   0.41669953  0.21204701  0.4326738
 -0.2638996  -0.7024649   0.19106036 -0.11398099  0.2862982   0.4429528
 -0.4712674   0.17119953  0.48747042  0.18095432 -0.36475098  0.02748729
 -0.5373502   0.3119901 ]
[ 0.39766753 -0.17850469 -0.17354861  0.29942298  0.09501464  0.06710802
 -0.39234638 -0.11711095  0.14220873  0.01386136  0.03947595  0.0578502
 -0.4720645   0.18332231 -0.0191428  -0.28884152 -0.08432331 -0.36608362
 -0.13798906 -0.26769048]
[ 0.29160538  0.33143216 -0.13318235  0.14752556  0.17358905  0.381716
  0.05401652 -0.20143968  0.5271536   0.2976476  -0.16598509 -0.2647946
  0.30651903 -0.25910652  0.25311285 -0.39188075  0.01235088  0.20324238
 -0.04480301 -0.31849182]
[ 0.09527107 -0.23134126 -0.15464763 -0.16420853  0.39689648  0.09210204
 -0.32094002 -0.2343261  -0.00284388  0.28942648  0.27054068  0.35444376
 -0.25257057 -0.25713703 -0.12835528  0.11417251 -0.36124685  0.0165595
  0.27407977  0.10414547]
[-0.09190818  0.16542222 -0.157031   -0.4070282   0.111577    0.04073022
  0.54020286 -0.06242861  0.16260628  0.22821794 -0.13126701  0.23673473
 -0.03808496  0.14159164  0.09931143 -0.24615927  0.12087201  0.15557885
  0.01566849  0.3136292 ]
[-0.23495857  0.01764455 -0.00287431 -0.16889735  0.07191836  0.2084231
  0.21186796  0.07031801  0.05664715  0.1504998   0.40977806  0.27049267
 -0.28934816 -0.40045774 -0.36184457 -0.57825     0.09187439 -0.24118938
  0.17082644  0.16869254]
[-0.10588533 -0.05822465 -0.41530427 -0.6125802   0.08900665  0.47331423
 -0.8459361  -0.20871653  0.3581207  -0.48398295  0.1823645   0.19773433
 -0.29486623 -0.60408705  0.32259586  0.13651799 -0.25101766  0.04712799
 -0.56040996  0.19291262]
[ 0.12452234 -0.04740975 -0.00293668  0.22170714  0.54555327  0.23001277
 -0.07406972 -0.14028905 -0.10473481 -0.10054947 -0.04475557  0.02646925
 -0.08487615 -0.23901004  0.00858513 -0.02942127 -0.24738419 -0.17910434
  0.03664999  0.04766945]
[-0.03854311 -0.01661796 -0.1495926   0.14784387 -0.21490365  0.25226337
 -0.09417295  0.05711366  0.22906345  0.01872665  0.19326296  0.5069034
 -0.09421116  0.27574965 -0.01049433 -0.29393488  0.10660722  0.30742458
 -0.11563689  0.58696353]
[-0.09493691 -0.32689616 -0.39322877 -0.16382156  0.22910962 -0.12334409
 -0.13102713 -0.0717028   0.04185988  0.19474632 -0.19665845 -0.08310445
  0.03828129 -0.25411463 -0.33608973 -0.33688062 -0.10122958 -0.18836626
  0.05223902 -0.01119441]
[ 0.29173142 -0.06028125 -0.13449693 -0.03464847  0.25900126  0.1205429
  0.13634698 -0.03533432 -0.43922734 -0.54628986 -0.07382078 -0.58015496
 -0.45200658 -0.4332182   0.3247049   0.28953436 -0.17914183 -0.10121018
 -0.3460077  -0.15191539]
[ 0.04524456 -0.18116055  0.16044661 -0.6560369  -0.7291535  -0.44701228
  0.50682765  0.01172626  0.04880613  0.14214267 -0.04115091 -0.3148247
 -0.15641582  0.4367701  -0.17531916 -0.38079602  0.43757632  0.32389802
 -0.27093136 -0.20050827]
[ 0.27803594 -0.28297982  0.1493392   0.6904964  -0.3113314   0.09195621
 -0.7371543  -0.10277505  0.16353051 -1.3197663   0.30783597 -1.789105
  0.4825536   0.03161641  0.01375919  0.77786374  0.49754372 -0.05147546
 -0.15456395 -0.65051544]
[-0.50628036  0.67344767  0.7227769  -0.20157069 -0.09169063 -0.14635025
  0.5926794   0.2984998  -0.5222921  -0.06657325 -0.80439204  0.29059803
 -0.01659281  0.1724763   0.5890125   0.88942003  0.73645985  0.4872344
 -0.99134713  0.7626494 ]
[-0.06751538 -0.14287822  0.31993482  0.6681792  -0.58182895 -0.4155345
  0.4798782   0.05390111 -0.23138814  0.8557545  -0.17639315 -0.02747246
  0.9386636   0.2358777  -0.5108172  -0.30886135  0.28741935 -0.11874533
  0.88176966  0.15959175]
[-0.01113624 -0.01751168  0.09314657 -0.02644794 -0.1669144  -0.12026511
  0.16876452  0.05722144 -0.14814565  0.0888247  -0.17996606 -0.00281204
 -0.01693755 -0.05393398 -0.01865203  0.09517774  0.08863556  0.05910672
  0.02279764 -0.03043138]
layer 1 Activation
tanh
layer 2 Dense
20 40
[-0.10959759 -0.02869295 -0.07726982  0.08218173 -0.05576656 -0.12835012
 -0.01461444  0.01403661  0.14087416  0.04873597  0.22223847  0.10384759
 -0.14963876  0.01354289 -0.16009893  0.09906682 -0.25612977  0.06838099
  0.07869536  0.1945634  -0.12880622  0.1876367  -0.09329104 -0.16803752
  0.08134633 -0.09031872 -0.04522827 -0.0218014   0.17153007 -0.34207657
  0.20885928  0.17380473 -0.31478179  0.13787693 -0.10551199 -0.05023364
 -0.09285125 -0.1652435   0.14453273 -0.10486005]
[-0.16077244  0.0429155   0.23171371 -0.0117339   0.22500575 -0.48654592
  0.14439975  0.07178654  0.03517289 -0.24602823 -0.0103299  -0.20792256
 -0.09578428 -0.045424    0.2507478  -0.12307763  0.08572926  0.21921916
 -0.29499227 -0.13232298  0.08145098  0.00413005 -0.22129942 -0.13063046
 -0.35444674 -0.00716781 -0.12865858 -0.11065775  0.05320542  0.4476935
  0.1381013   0.22202197  0.2720371   0.2416073  -0.14737281  0.14996095
  0.34097147  0.1466987   0.01423068 -0.1982895 ]
[-0.14356415 -0.0812729   0.02335408  0.01595554  0.40450847  0.10781316
  0.1521154   0.11995496  0.29855955 -0.0120276   0.14055388  0.15896824
 -0.33180434 -0.30446428 -0.01056152  0.17226638  0.39046425 -0.24425198
 -0.30466264 -0.14687641 -0.23873349 -0.3162596  -0.33415058 -0.09034842
 -0.05276326  0.15818518  0.17303242  0.7436758  -0.00994974 -0.3287296
 -0.10877803  0.23393425  0.5366934  -0.34360227 -0.07385769  0.42173988
  0.20945783 -0.01940653 -0.2092748  -0.09310773]
[-0.37715673  0.18810542 -0.16822293 -0.16422911  0.06248855 -0.21981442
 -0.11676947  0.046867   -0.07898738 -0.29868704 -0.1542633  -0.15972443
  0.2068393  -0.0244792   0.34519905  0.08902423 -0.17760533  0.22084987
 -0.02636456  0.16602322 -0.21088435  0.13361067 -0.20386511  0.0934041
 -0.14046821  0.01398928 -0.10350898 -0.16562341 -0.28114825 -0.4076444
  0.16016643  0.0144445  -0.25769627  0.06459044 -0.01966769  0.08468276
 -0.31955558 -0.12371653 -0.28918037  0.05651973]
[-0.17478739  0.12552814  0.0551868   0.07284641 -0.33786818 -0.0864255
 -0.26750255  0.34721136  0.16452205  0.02045904 -0.27788416  0.09884115
 -0.34437642  0.4283367   0.06306223 -0.5521717  -0.00103963  0.27163804
 -0.21407051  0.05207181 -0.00603741  0.32925597  0.44216356 -0.21859238
 -0.4769141   0.08643585  0.38542983  0.08824197 -0.35849676  0.35014945
 -0.33546683 -0.6261423   0.17905565 -0.22505425 -0.16430014  0.05720764
 -0.16532984 -0.25948507  0.20327912 -0.2600267 ]
[-0.24400507  0.21422485  0.10393708  0.12788989 -0.17959331 -0.50935674
 -0.05674377  0.35763496  0.20350702 -0.23207827  0.1422845   0.10070327
  0.27119792  0.11214014 -0.10066923 -0.23263109 -0.08251897  0.2896286
  0.31301114  0.4078587   0.213708    0.32025847  0.1834285   0.10737733
 -0.17727205 -0.00603675 -0.12705955 -0.08449903 -0.27434644  0.2823525
 -0.10240293  0.04186559 -0.40925768  0.05526928  0.00955311 -0.3084809
  0.2274961  -0.18159129 -0.01412318 -0.1105984 ]
[-0.17342299  0.15176779 -0.22052968 -0.10633919 -0.01827691 -0.06421153
 -0.05093001 -0.32875112 -0.16401958  0.09964265 -0.36218923 -0.21148337
 -0.21722673 -0.23296855  0.01668699  0.28487206 -0.17320453 -0.30601868
  0.120613    0.2085731  -0.28062487 -0.3516351  -0.46972403  0.23469704
  0.13743643  0.21098413 -0.22571284 -0.01694376  0.00897512  0.23930629
  0.18543117  0.10853498  0.46431655  0.308586   -0.09096297  0.176594
  0.40950167  0.4302929  -0.26971912  0.20984188]
[-0.07393304  0.21320587 -0.26741222  0.1424242   0.34055185  0.48345816
 -0.22130178 -0.21238062 -0.10158546 -0.062465    0.17534623 -0.0668237
  0.12049338  0.18262139  0.11597016  0.24976526  0.3137896  -0.02240305
 -0.3170594   0.14825885 -0.09968366 -0.04883265 -0.15547849  0.16352923
  0.24832822 -0.12738681 -0.01365654  0.5193436   0.04110506  0.13351965
  0.2817011   0.10659736  0.10141399  0.28877407  0.12661003  0.3971314
  0.15314245 -0.02585935 -0.13398217  0.2695164 ]
[ 0.10561536  0.1594127   0.35823286  0.15163341 -0.21559073  0.04371018
  0.26692474  0.15934892  0.29284146 -0.11989611 -0.125896    0.28054738
 -0.11080714  0.35387963 -0.0865653  -0.13124087 -0.08115157  0.07047264
 -0.00749226  0.10627752 -0.03140179  0.04190585 -0.12306448 -0.4313659
 -0.1542889  -0.0337511   0.20985405 -0.28299895 -0.17301248 -0.20586716
  0.1572985   0.16209953 -0.09925265 -0.1663986   0.21124257 -0.2627104
 -0.02398368 -0.40921333  0.4049772  -0.36358678]
[ 0.21910062 -0.2284428  -0.4788516   0.1315267  -0.15969674 -0.07274587
 -0.09419948 -0.40886587  0.2951862   0.16704383  0.12666012 -0.10108884
  0.23334818 -0.22383112 -0.2868211   0.2318715  -0.15777838  0.27928638
 -0.12487005  0.1452991   0.13770314 -0.39861906 -0.42387366  0.22199297
  0.14086242 -0.13578191  0.07511748 -0.21157172 -0.17468561 -0.00211138
 -0.15761034  0.5307697  -0.15743051  0.3632123   0.15873623 -0.4457552
  0.09149203  0.5375518   0.1793251   0.22632204]
[ 0.12544951 -0.04500604 -0.03453179  0.21180597 -0.2267422  -0.35202003
  0.05717281 -0.00499581 -0.30915695 -0.06334202 -0.20543177  0.03813178
  0.05636725  0.13304734  0.11545822  0.09038177  0.1005443   0.11638768
  0.3417403   0.3846505  -0.13881505  0.18753341  0.019304    0.07886281
 -0.07010841 -0.04268856  0.3862638  -0.41617864 -0.09514759 -0.06492179
  0.13331853  0.14065298 -0.49697235 -0.08141936 -0.06962    -0.41415074
  0.00795107  0.04921762  0.2858102  -0.22724989]
[ 0.37413433  0.0126002   0.29608572  0.12935881 -0.14110824  0.17874782
 -0.32474348 -0.18244983 -0.1040979  -0.03037337 -0.18048958 -0.0033888
 -0.07466573  0.12735932 -0.28727618 -0.08363235  0.18662906 -0.07587624
 -0.47395647 -0.00820124 -0.0210133   0.36334044 -0.20272174 -0.15096207
  0.12313847  0.15124318  0.46517128  0.16353716 -0.38297984  0.8150171
 -0.59910697  0.21840718  0.42499095 -0.04778125  0.08418529 -0.17247926
 -0.08627202  0.4191421   0.08447356  0.3591524 ]
[ 0.3024904   0.09375376 -0.0372416   0.16638188  0.10702305 -0.02066449
  0.01972446 -0.26390788  0.03958334 -0.11601909  0.2801013   0.08860563
 -0.1023581   0.16320519  0.00080246  0.13879015  0.10851011 -0.00319099
 -0.19033046 -0.23118377 -0.32972038 -0.26530832 -0.09673803  0.13701431
 -0.28622198  0.35641485 -0.09335326  0.05988893 -0.09246629 -0.23359859
 -0.13426402 -0.10970448  0.00826178 -0.19497411  0.02224035 -0.0877956
  0.03288637  0.4193887  -0.20074399  0.09504889]
[ 0.01186707 -0.27359095  0.20885555 -0.21284917  0.04430725  0.39488584
  0.09961756 -0.03141327 -0.12186675  0.1559712  -0.17385834  0.21117984
  0.22605874 -0.32191148 -0.2399396   0.27810112 -0.0739936  -0.14703655
 -0.24709821  0.08438963 -0.21208529  0.05991315 -0.3605806  -0.0425233
  0.15140073 -0.03883845 -0.10093995  0.37886524  0.22893755 -0.07249153
 -0.07841329  0.33167747  0.15108934  0.27214837  0.2629269   0.47982788
  0.22468926 -0.13700134 -0.1445899   0.0908278 ]
[-0.04466893 -0.21172102 -0.31035295  0.11294928  0.26802102 -0.04483627
 -0.21379885  0.2764616   0.0861861   0.06153011 -0.3523841  -0.16140054
 -0.15961221  0.10238327 -0.16484195  0.02237216 -0.06359822 -0.08387744
  0.10096051  0.24205555 -0.07254636 -0.05563344  0.10779414 -0.23212086
  0.05762164  0.14459914  0.23242553  0.37154323 -0.11074162  0.00578769
  0.04559793  0.22437346  0.4182594  -0.10274985  0.13696991  0.24985032
  0.20913091  0.09048157 -0.23596665 -0.00701983]
[-0.11379585 -0.14218853 -0.18620877  0.02626953  0.517512    0.08188
  0.19733267  0.42060083 -0.2631141  -0.2952007  -0.13347882 -0.02734115
 -0.23676714 -0.16959174  0.20010875  0.04285828  0.3353173   0.20271485
 -0.0049993   0.04871302  0.12428741 -0.19383436  0.05007258  0.05004074
 -0.24480765  0.14550559  0.31715515  0.48243156  0.14705399 -0.1983505
 -0.4495311  -0.23441014  0.23083651 -0.39947957 -0.1933908   0.66702026
 -0.2821196  -0.3595906   0.04505672  0.2971341 ]
[-0.17502819 -0.24195425 -0.32708088 -0.05326468  0.58310646 -0.10097556
  0.32337832  0.03744683  0.27411446 -0.12627715 -0.3147438  -0.19947654
 -0.21861336 -0.13767213 -0.07750338  0.0612519   0.30214873  0.23862085
 -0.11018401  0.21722095  0.10550477 -0.14141083  0.08590247  0.01895201
  0.09478533 -0.08786524 -0.30277494  0.5299943   0.13701451 -0.07786502
  0.19844656  0.07787821  0.12070853  0.00429699  0.26306593  0.43411562
  0.00191276 -0.38735417 -0.36251768 -0.16273041]
[-0.01182461  0.03211017 -0.19211954  0.07885941  0.28975576  0.10136686
 -0.20402434  0.04841599  0.2917218  -0.22327358  0.27604973 -0.20117795
  0.24480337  0.12971199  0.19975504  0.12407931  0.2389548  -0.1352437
 -0.21527466  0.08959816 -0.04014748 -0.01141084 -0.20350097 -0.21562235
 -0.00590736  0.10683939  0.19257873  0.19213021  0.05579922  0.31364068
 -0.13646638  0.2735799   0.1577663   0.16911356 -0.15811266  0.23597984
 -0.17605029  0.03605205  0.28850713 -0.04808779]
[-7.87293762e-02  3.05723280e-01  1.41972348e-01 -1.89028829e-01
 -4.87609118e-01  7.52601698e-02 -1.82597667e-01 -3.49236637e-01
  1.53156459e-01 -2.29558975e-01 -1.32616237e-01 -1.72924623e-01
  2.25138158e-01  7.23740384e-02  2.40154296e-01  4.39594388e-02
 -3.03813219e-01 -2.59587973e-01  1.05724148e-01 -1.01420976e-01
 -2.60840803e-01 -2.03021556e-01 -4.14548591e-02  1.90689996e-01
 -2.13432359e-05  1.28313616e-01  2.06103012e-01  2.09939152e-01
 -2.89391011e-01 -5.05487442e-01 -1.18205380e-02 -1.84548512e-01
 -3.74318451e-01  2.49861069e-02  1.06234558e-01 -2.98185825e-01
 -1.07341304e-01  5.62058747e-01 -1.73850104e-01  6.86535761e-02]
[ 0.21608533  0.11108691 -0.00422356  0.01594865 -0.11944112  0.08786121
  0.19271784 -0.15374337 -0.19080865 -0.21153112 -0.31166384 -0.01474574
  0.05446476  0.13420853 -0.1644785  -0.09939905  0.06669005 -0.01613706
 -0.53859925  0.08936133 -0.03060382  0.2934059  -0.4200112   0.03967215
  0.08885257 -0.08953395  0.00804122 -0.02281649 -0.26249793  0.49594355
 -0.11082919  0.09947108  0.40752813  0.05028801  0.01370175  0.1709846
  0.18500216  0.38050708  0.27693608  0.09787959]
[ 0.09305957 -0.0404714  -0.06690435 -0.05272047  0.05896648  0.42640325
  0.04535472 -0.11527222 -0.05788178  0.02714812  0.07249938 -0.04231612
 -0.03058238 -0.10394171 -0.0209717   0.03582308  0.0964201  -0.03884681
 -0.17592052 -0.12275679 -0.08113956 -0.04895919 -0.07625305  0.14242011
  0.07174516  0.05201444 -0.06378751  0.17557323  0.16351078 -0.03259571
  0.03376158  0.12593397  0.05686167 -0.01659524  0.01969683  0.22985907
 -0.09967919  0.12221982 -0.15144515  0.05273014]
layer 3 Activation
tanh
layer 4 Dense
40 20
[ 0.243979   -0.17447372  0.05856789  0.11442263 -0.08358888  0.04960634
  0.00363091 -0.01567362 -0.1152862  -0.04970179  0.14604874 -0.2917135
  0.3378272  -0.05377135  0.2154944  -0.25006363  0.15269104 -0.00117262
  0.03716461 -0.16526127]
[ 0.1032231   0.07630087  0.25334474 -0.15684783  0.04320169 -0.15119387
 -0.21710095  0.03520319 -0.27519014  0.14053792 -0.03507553 -0.02751175
  0.26011214  0.14182222 -0.07645624  0.03237565  0.14467408  0.07421111
  0.02848977 -0.0433381 ]
[ 0.1979132   0.20296636  0.20316814 -0.12435041  0.12251906  0.22370173
 -0.36490026  0.29462603 -0.20766065  0.13007164 -0.29843464 -0.11220011
 -0.00250796 -0.00723451 -0.02466094 -0.04599502  0.11161305  0.2446041
  0.19243579 -0.14870644]
[-0.08719015  0.266815   -0.13662975  0.16447791  0.06027689  0.10550191
 -0.08985609 -0.01333812  0.15387605  0.24435095 -0.08788364 -0.1528852
  0.17239295  0.24994096 -0.12898476 -0.14132924 -0.10449842  0.20925546
  0.042225   -0.01953271]
[-0.34778932 -0.3116436  -0.21465763 -0.16893655 -0.34128466 -0.3489897
 -0.00926994  0.04021024  0.30492508  0.16634901 -0.15774477  0.06223466
 -0.38965026 -0.1635984   0.41728884 -0.10322978  0.27000293 -0.15912
  0.03107887 -0.10708342]
[-0.14668566  0.21332571 -0.22641069  0.31785408 -0.03583661  0.27157605
  0.35817185  0.04493011  0.24992123  0.104077    0.3525949   0.04993646
 -0.13268146 -0.17349899  0.25368527 -0.01962087  0.12593213 -0.09403019
  0.11035689 -0.01990544]
[-0.1746734   0.01973206  0.1704556  -0.06103916  0.1525859  -0.04813529
  0.10968485  0.18277466  0.11567319 -0.06282756  0.00076373  0.2915984
 -0.13074392  0.10161718  0.06239797 -0.16156872 -0.1661381  -0.47975364
 -0.2111313   0.1525213 ]
[-0.14405692  0.24251276  0.0362663  -0.31675738 -0.2524778   0.29076436
 -0.01273437  0.4085201   0.0042844  -0.13903095 -0.35713837  0.16130717
 -0.3083582   0.01002743 -0.00305181 -0.2965619   0.02216893  0.03372941
  0.10678104 -0.06550829]
[-0.1300928  -0.17456794  0.15269026 -0.23317581 -0.21955097  0.19229485
 -0.10318775 -0.1909409   0.0762264  -0.05948862 -0.14347477  0.32138684
  0.15819563  0.11225454 -0.36727846 -0.17466156 -0.25677732 -0.19174618
  0.19667901  0.0981489 ]
[-0.09090003  0.0153168   0.26240525  0.09310571  0.00743097  0.07340609
 -0.22381522  0.16715822 -0.10578821  0.10638974  0.28440183  0.25604197
 -0.14980069 -0.01245429 -0.04875749  0.00555765 -0.13676788  0.0052083
  0.086674   -0.25483105]
[ 1.6549593e-02  1.3533447e-02  3.7833616e-02 -3.1102994e-01
  1.1713970e-01 -6.2931612e-02 -9.8356299e-02  2.6252922e-01
 -6.6951595e-02 -8.6681284e-02  2.2957316e-01 -3.2905287e-01
 -3.2650419e-02  2.9310435e-01  2.1511727e-04  1.3384722e-02
  9.6785888e-02  1.8439987e-01 -1.7659566e-01 -1.3140361e-01]
[ 0.08807603 -0.15771182 -0.09681644 -0.13657485 -0.21023308 -0.15115558
  0.10594415  0.191201   -0.08285549  0.13766842  0.02162071 -0.00890022
 -0.05390419 -0.18519242 -0.14392312  0.02219389 -0.24987333  0.06105609
 -0.18984205 -0.2256022 ]
[ 0.04732619  0.14604598 -0.01388868 -0.08672598 -0.29528385 -0.07796109
 -0.09498193  0.02213484  0.02829116 -0.05780174  0.24635303  0.24406637
  0.33150002 -0.05735089 -0.30166    -0.10197967 -0.24081928 -0.09339762
 -0.19920996 -0.06706478]
[-0.20974079 -0.0985595   0.2553597   0.10265763 -0.206227   -0.12814376
 -0.17962272  0.2288946  -0.27240616 -0.35845375 -0.17262809  0.17343813
  0.26125672 -0.2728013  -0.2293896  -0.03910271 -0.14697984  0.16160455
  0.1118395  -0.29188016]
[-0.05486759 -0.11491111  0.08074757 -0.29235196  0.07209373  0.2792311
  0.0248103   0.300724   -0.19845945  0.2609391  -0.02907636  0.13568105
 -0.24984683 -0.19770716 -0.25446445 -0.12510666 -0.08509134 -0.03216482
  0.07515775  0.14082098]
[ 0.14347593  0.12162758  0.08810784 -0.09613639 -0.06989202  0.17305893
 -0.20449787 -0.23738456  0.23475853  0.3440892   0.30420282 -0.25326872
 -0.14689754  0.26459107  0.04268617  0.0646815   0.035949    0.22398697
  0.05441901  0.1645547 ]
[-0.24685025 -0.10361064 -0.20583463 -0.07973995  0.10186584 -0.17469786
  0.119847    0.26291025  0.05869924  0.20695703  0.14738828 -0.04557066
 -0.28739727  0.07123516  0.22981569 -0.28060174  0.33165777 -0.1333715
 -0.15905572 -0.087728  ]
[-0.1207554  -0.14952157 -0.02186422 -0.12676486 -0.31472373  0.29229143
 -0.2097662  -0.02680954 -0.06788632  0.16957538 -0.1569934  -0.01405817
  0.06419241 -0.03908525 -0.42327073 -0.00571869 -0.10344002 -0.44911608
  0.2383142  -0.12189461]
[ 0.04315072  0.21717978  0.23740126 -0.3547489   0.31110033  0.37145913
 -0.40785423  0.23590215  0.00082137  0.25069994 -0.14487332  0.04421142
 -0.26869085  0.15703164 -0.31549034 -0.00796494 -0.3850495   0.2028243
  0.05996722 -0.14810401]
[ 0.24714383  0.05368919 -0.03976084  0.13170382  0.37688616 -0.14747392
 -0.19829972 -0.08807672 -0.12947734  0.03018752 -0.18968959 -0.09844729
 -0.00793923 -0.1655999  -0.23762605  0.09231465 -0.0800548  -0.11200555
 -0.04167795  0.11224413]
[ 0.06819531 -0.20200673  0.00817609  0.17116721 -0.0483285  -0.10252523
  0.18595363 -0.05655055 -0.07656427 -0.17653053 -0.19081034 -0.27375
  0.22152454  0.02513042 -0.16681035  0.03790365 -0.23382095  0.10069186
 -0.52143455 -0.14080895]
[ 0.30004045 -0.00073129  0.25093317 -0.12960799 -0.3455537  -0.08794495
  0.20491321  0.39090684 -0.1581583   0.0466934  -0.5302507   0.2561044
  0.34846252 -0.16171159  0.08692781 -0.08802015 -0.06535986  0.03323279
 -0.02114814 -0.40959936]
[-0.17063564  0.19090222  0.23617399  0.00619965 -0.18515885 -0.22445454
  0.00730362  0.40272382 -0.20548579 -0.03246007 -0.04099708 -0.06820635
 -0.22345647  0.02847291  0.09629858 -0.29907474 -0.22048907  0.29441804
  0.24581942 -0.49422804]
[ 0.05907156  0.22123837 -0.22184321 -0.04801783  0.07860287 -0.16796005
  0.1282684   0.22962856 -0.15993902  0.03921662  0.10044062  0.10308012
 -0.03190782  0.19286337 -0.15944758 -0.07335462  0.11180329  0.07583553
  0.04361323  0.30049503]
[-0.07004188 -0.12071785  0.16516848  0.24440613  0.21857615  0.26035675
 -0.23052603  0.11773602 -0.01774983  0.11917455  0.17931673  0.15307985
 -0.18765974  0.23770323  0.25539154  0.09962938  0.24317892 -0.10565795
 -0.08967546 -0.05770463]
[-0.15210904 -0.13688093  0.15007694 -0.16164044  0.03880627 -0.0470606
  0.16119474 -0.16428703  0.01375575 -0.18166141 -0.11030449 -0.1893049
 -0.00529089 -0.02754039  0.15348648 -0.14691448  0.03240415 -0.08897606
  0.3154601   0.00193764]
[-0.17516366  0.1047431  -0.15153728  0.19879968 -0.08884557 -0.00322821
  0.2965472   0.26063576 -0.32915232 -0.09114623 -0.21190019  0.29524305
  0.15593088  0.07947264 -0.11968341 -0.11260111 -0.14276637  0.0832122
 -0.16369648 -0.27224007]
[-0.36332136  0.10334334 -0.3990377   0.05318188  0.17383787  0.10647055
  0.2528452  -0.15644151  0.20837092 -0.19721612  0.15124261 -0.13794613
 -0.2480322  -0.15324466  0.2717108   0.05133452  0.32168877  0.0207723
  0.14387289 -0.22981845]
[-0.08359463  0.27277017 -0.3505631   0.05703059 -0.17482735 -0.08633283
 -0.05207506  0.12646331  0.27411717 -0.05812063  0.15522194  0.21981558
 -0.3922835  -0.13605525 -0.10545152  0.04856317 -0.06758424  0.1655955
 -0.00988371 -0.03731411]
[-0.0889243   0.16135517  0.09686217  0.4231358  -0.06251816  0.06745196
 -0.12778835 -0.05255597  0.13626873  0.20098244 -0.41577318  0.1797197
 -0.0508107   0.07758654  0.23553741  0.09308556  0.11059948 -0.05679261
  0.27291456 -0.3003509 ]
[-0.15519373  0.02838334  0.2837298  -0.15985759 -0.19981818 -0.19441351
 -0.16959517  0.16850543 -0.16641629  0.2376122   0.2109726   0.24616604
 -0.33198756 -0.21191956 -0.40766442  0.23892169 -0.20778112 -0.11445708
 -0.02546426 -0.03799256]
[ 0.00519949  0.04227691  0.01586384  0.37271792 -0.01596278  0.05122732
 -0.20429002 -0.33110142  0.24608073 -0.10505755  0.12988846 -0.11741676
  0.35459325  0.1971176  -0.01239266 -0.06764001 -0.00081982 -0.18837337
  0.08832248  0.01629067]
[ 0.06866713  0.13695489 -0.1998544   0.28420365 -0.20740575 -0.05708572
  0.46888274 -0.27314478  0.21482934  0.11846565 -0.20382175  0.29094604
 -0.24767381  0.09314717  0.25494742  0.0159659  -0.01197018 -0.10875786
 -0.06323317  0.25961736]
[ 0.06398036 -0.1330039   0.1056177   0.2498356   0.15663451 -0.03848849
  0.18520813 -0.36394265 -0.18325308  0.1173844   0.18655632  0.12887414
 -0.09837874 -0.1677376  -0.21674305 -0.04639304 -0.2196817  -0.0727857
 -0.03817045 -0.10531787]
[-0.08936332 -0.21509267  0.01908432  0.14226106  0.19985937 -0.03145413
 -0.15336853 -0.04111375  0.05694277 -0.10711473  0.00557377  0.19524144
 -0.01300139 -0.23794007 -0.08278723  0.03566637 -0.01098514  0.03571022
  0.2075408  -0.10643541]
[-0.374009    0.21939036 -0.13743116  0.23398818  0.21030433  0.02641811
  0.27618966  0.30579758  0.23585121  0.11246008 -0.17959152 -0.13567708
 -0.10137283  0.20529725  0.38684273 -0.19821161  0.38701332  0.09753787
 -0.16572689  0.33711594]
[ 0.07343754 -0.08316123 -0.36409342  0.36285782  0.27647462  0.01585584
 -0.06128639 -0.21717918  0.16980767  0.22594151 -0.19391349 -0.24572901
  0.09396925 -0.22324063 -0.09391156  0.09314528 -0.00838827 -0.02108427
 -0.17883985  0.1990873 ]
[-3.6653966e-01  3.0258068e-01  1.3745253e-01  5.0252683e-02
  8.6804360e-02 -3.9396985e-04  1.4480327e-01 -7.8955047e-02
 -2.2857076e-01  1.1067492e-01  3.9579654e-01  8.5355341e-02
  2.6899454e-01 -1.7941562e-02 -1.6625652e-01 -1.2811396e-01
  2.1707214e-02 -9.5343359e-02 -1.2721056e-01  4.6804201e-02]
[-0.14462453  0.15688643  0.06486241  0.29415858  0.2955466  -0.1469488
 -0.09497762  0.01705151 -0.01175215  0.28287467 -0.10342432 -0.23273192
  0.27252376  0.19319233 -0.07404342 -0.10475711 -0.09496978  0.2064221
 -0.11543585 -0.22700253]
[-0.24481979 -0.17830108  0.09652117  0.2832326   0.27104467  0.01132868
 -0.12921351 -0.0056638   0.14404392 -0.2082408   0.1274919   0.11187287
  0.11525428 -0.16930985  0.37585598  0.18941525  0.3515443   0.30729854
  0.13096751 -0.0465552 ]
[ 0.00459701 -0.03472217 -0.0034373   0.0516788  -0.02918899 -0.01981677
  0.0671692   0.0593391   0.08912414  0.01820387  0.13014424 -0.00536001
 -0.13011557  0.02040424  0.04255835  0.07621535  0.06359945  0.12995939
 -0.00112269  0.01464305]
layer 5 Activation
tanh
layer 6 Dense
20 1
[0.1901629]
[0.01054412]
[0.25950357]
[0.12529853]
[-0.04320025]
[0.01097305]
[0.24010585]
[0.13702227]
[0.3536541]
[0.01845751]
[-0.23146228]
[0.01066395]
[-0.14379053]
[0.00595702]
[-0.29524124]
[0.00828764]
[0.37307727]
[0.01874649]
[-0.00578817]
[-0.22806899]
[0.03175224]
