layers 7
layer 0 Dense
20 20
[-0.05633274  0.14997908 -0.16747265 -0.16355008  0.32244188  0.04311983
 -0.00916197 -0.208249    0.39842692 -0.15241861 -0.44254363  0.09444951
 -0.20918658  0.12046901  0.10133574  0.4199558   0.32673496  0.37146312
 -0.15938449 -0.28066123]
[-0.5758641  -0.3961456   0.20502889 -0.5311336   0.4682897   0.39231622
  0.39715385 -0.01047795 -0.27750295 -0.33096364 -0.33966437 -0.09300026
 -0.42929512  0.0533586   0.2033648  -0.30431244  0.42136422 -0.62710345
 -1.0790645  -0.21973151]
[-0.3498317   0.10764971 -0.25907046 -0.04368151  0.6747893   0.06902931
  0.37594676 -0.19059081 -0.906326   -0.5497444  -0.46810362  0.6098254
  0.00859185 -0.5743577   0.47427008 -0.42880294  0.26652446 -0.5240442
 -0.756146    0.17733233]
[-0.07426324  0.29519078  0.4282032   0.0951877   0.36563265  0.34026346
 -0.1351735  -0.46620792  0.19388604  0.25113696 -0.50220877 -0.22384414
  0.01823188 -0.14314723 -0.34381524  0.02151046 -0.20883359  0.06252172
 -0.22216013  0.01970841]
[ 0.24038568 -0.5168497   0.21090533  0.03587794 -0.25230113  0.32647035
 -0.06617684 -0.04322625  0.04653078 -0.11711188  0.35741973 -0.00665537
 -0.25444403 -0.3502309  -0.04799318 -0.07112713  0.06595118 -0.5181237
  0.8815003   0.0684432 ]
[-0.37540546  0.109653   -0.09136893 -0.01707298 -0.5140027  -0.66016555
 -0.08572173  0.05766819  0.7752069   0.00860068  0.15376176 -0.5729428
  0.10185735  0.21111311 -0.61857706 -0.17961429 -0.7995048   0.66280377
  1.1315749  -0.14120492]
[-0.16295026  0.28614318 -0.01736161  0.19363359 -0.27401072 -0.54587716
 -0.46367544 -0.0137009   0.43860945  0.43961355  0.23807156  0.03545504
  0.26705799  0.08329571 -0.5761833   0.13800816 -0.23206931  0.3930053
  0.9830274   0.2068942 ]
[ 0.65590334  0.42756614 -0.42569733  0.4218152  -0.00818511  0.1963688
 -0.1672539   0.43480662  0.36453104  0.830909    0.11052957 -0.2403623
  0.18022963  0.8559517  -0.2006627   0.20170476  0.07768139 -0.18571314
 -0.58000815 -0.42512536]
[ 0.32397425 -0.48083395 -0.52530557  0.02357964 -0.0052092   0.2638809
 -0.30235437  0.6383902  -0.5132664  -0.12238146 -0.20247558  0.09013999
  0.16519417  0.49276936  0.26495188  0.17377345 -0.14225134 -0.22283006
  0.67149276  0.33420122]
[-0.45886388 -0.15251778  0.43963626 -0.31229264 -0.58155435  0.46536395
  0.1475673   0.7609863  -0.24509281  0.2428069  -0.32435298  0.13015422
 -0.3582173  -0.09218767 -0.15354498  0.57857156  0.69931215  0.60397846
 -0.8527017  -0.10681392]
[-0.11541086  0.12023129  0.30240047 -0.538844    0.4149367   0.9982172
 -0.04902638  0.9777837  -0.5634716  -0.1595842  -0.4681787   0.40569037
 -0.30766016  0.3843621   0.6886795   0.75006247  0.14406246 -0.06968863
 -0.65918034  0.5438764 ]
[-1.1745204  -0.16101113  1.2022483   0.13491668 -2.1580215   0.5691043
 -0.21173336 -0.08340832  0.24388583  1.2658244  -0.7223429   0.79962116
 -0.30326545 -0.2600957  -0.15518096  0.96755517  0.85752374 -0.6132791
 -1.6607491  -0.97130674]
[ 0.75816506  0.05787615 -0.15340313 -0.19038416  0.27801394  0.35380986
  0.44126758 -0.11691368 -0.51769155 -0.00749942  0.5482705   0.09801778
 -0.13461077  1.1615782   0.02402078  0.5878987  -0.07846171  0.12812644
  0.96662563  0.2401111 ]
[ 0.35282573 -0.00147553  0.33805066 -0.03606023 -0.03350818  0.12705277
  0.41800985 -0.7166513   0.8207459   0.092802    0.11422221 -0.17021424
 -0.08533432  0.13431065 -0.1993099   0.35541853  0.12316897  0.3904914
  0.5979746   0.09312288]
[-0.28181443 -0.31886396 -0.40372342 -0.13361235  0.60966545 -0.09756243
  0.6959852  -0.921694    1.0995249  -0.13172022  0.33935505  0.44256395
 -0.47756654 -0.108946    0.19020113 -0.7266175   0.19487031  0.32472932
  0.74710166  1.0216627 ]
[ 0.15383506 -0.21630858  0.16692694 -0.35531956 -0.88605213  0.5957439
  0.20507596 -1.1442963   1.5617872   0.72202444 -0.03213007  0.69545287
  0.0699914   0.45379022  0.37318522  0.6839819   0.467971   -0.56206006
 -0.21360281  0.12886277]
[ 0.17375918  0.7043127  -0.1515284  -0.2708051   0.5111752   0.26906034
 -0.84578556 -0.14582819  0.34919468 -0.27074617  0.19769755 -0.17412351
  0.350237   -0.22587706 -0.06257817  0.0629136  -0.24836236  0.22304522
 -0.04351224 -0.0644348 ]
[ 0.41394633  0.4419424  -0.5133917   0.6521187   0.50036174 -1.344037
 -0.11184752 -0.55112016 -0.5325098   0.40831125  0.00957594 -0.06063502
  0.6619647  -0.11394289 -0.03306606 -1.5906099  -0.4119621  -2.2299693
  0.20298047 -0.6923139 ]
[-0.07099476  0.5110342   0.06348538  0.9545753  -1.5152361  -1.4076377
 -2.1178355  -0.3142913   0.13236243  1.5329648  -1.3116329  -0.96146685
  2.2494648   0.19942856 -0.80865794 -0.14987147 -0.18274958 -0.24920534
 -0.02254702 -2.5167038 ]
[ 1.1765398   1.6102641  -1.0874088   0.31498003  1.9726715  -0.49809918
 -0.7685071   0.5263593   0.11167999  0.11702887  0.46930337 -0.73313487
  0.7166539   0.7896019   0.01095204 -0.0990468  -0.83236414  0.90352774
  0.07994045 -0.94290966]
[-0.40793496 -0.0539062   0.20294818 -0.04837589  0.03175017 -0.05298435
  0.10714953 -0.0998445   0.09405439 -0.14497529 -0.14676997 -0.04236127
 -0.07565499 -0.17467752 -0.13684362 -0.10788608  0.03223619  0.04875962
 -0.03606854  0.02364116]
layer 1 Activation
tanh
layer 2 Dense
20 40
[-0.3108385  -0.18524362  0.17468962 -0.20157029  0.0725058   0.3816904
  0.41673365  0.34303513 -0.86630213  0.34872636  0.1096012  -0.25614974
  0.3879921  -0.12316996  0.32802734  0.13758972 -0.08746158  0.2926592
  0.272741    0.3127069   0.22959635  0.71903557 -0.42224348  0.33997488
  0.25362536 -0.61958545  0.53787357  0.8832903   0.10681585 -0.0108098
  0.07266156 -0.2602955   0.1159281  -0.5789185  -0.12007995  0.3411572
 -0.17514521 -0.24296807 -0.37251627 -0.10765132]
[-5.56327216e-02 -3.73394281e-01  4.79668863e-02  7.38746375e-02
  2.53721476e-01  2.30738685e-01  2.32043654e-01 -2.74375826e-02
 -1.88509732e-01 -1.44882470e-01  1.77929744e-01 -1.68707877e-01
  2.72903979e-01  1.81774825e-01  2.61885300e-02  3.11910927e-01
  2.56168425e-01  4.52147812e-01  1.25425681e-01 -1.74000859e-04
  4.58743483e-01  7.16271639e-01  1.94736511e-01  2.82145709e-01
 -8.99021327e-01  3.79069299e-02 -1.23921916e-01 -2.54316390e-01
 -2.30783895e-02 -5.64206094e-02 -2.50117481e-02 -2.28254974e-01
 -2.78858300e-02 -1.07354850e-01  9.78103131e-02  4.85970646e-01
 -1.07817292e-01  1.07707545e-01 -4.01444584e-01 -4.33781520e-02]
[ 0.17949735  0.11904747 -0.12541875  0.06490962 -0.205624    0.04463243
 -0.5776123  -0.21111035  0.11691754 -0.24871865 -0.44226307 -0.22616012
 -0.77886826  0.11756822 -0.11626261 -0.06083849 -0.06126888 -0.46525487
 -0.10460436 -0.06087553 -0.00306854  0.05236     0.61260504 -0.32814267
 -0.08309307  0.37842238 -0.78807276 -0.63650084 -0.11782515  0.06406198
 -0.59088695  0.44907698  0.62159693 -0.1026383  -0.17973475  0.05546948
  0.40203464 -0.38396803  0.00099921  0.02262907]
[-0.18399341  0.03003877  0.09486248  0.33024833  0.2800522  -0.11938223
  0.33215243  0.03139414  0.0677259  -0.48874703  0.5102822  -0.05176575
 -0.01649884  0.1042304  -0.12338183 -0.05257965  0.08588443  0.16414005
  0.2941678   0.04982812 -0.02740396  0.23020469 -0.02075056 -0.04507083
 -0.1766789  -0.1971334  -0.11313305  0.46456873 -0.1945269   0.05603252
  0.8849853  -0.04032674 -0.5857398  -0.15802419 -0.11966694  0.39158264
  0.53178376  0.3121458   0.2465499   0.24812502]
[ 0.45008084  0.2751643   0.66933835 -0.08791434  0.1715179   0.21190093
  0.15244322  0.14623491 -0.8723766   0.13143428 -0.59483176  0.24313132
  0.33525676 -0.24208392  0.17234185 -0.16715457 -0.43252677  1.4603984
  0.39045992  0.6297389   0.36572245  0.8855762  -0.0791934   0.9339336
 -0.21575685 -0.4433461  -0.18007347  0.06171604  0.21468896  0.2033205
 -0.30987734 -0.3680985   0.2535878  -0.5771153  -0.36637107  0.4687394
 -0.42421547  0.08322842 -0.34843248 -0.27424532]
[ 0.38128397 -0.35109955 -0.7369133  -0.07217539 -0.25208336  0.10885207
 -0.17671001  0.06460162 -0.13374723  0.668523    0.3232514   0.21341562
 -0.26052633  0.18316786  0.5354255   0.13655807  0.18912764 -0.62000304
 -0.43275258 -0.48393264 -0.30706492 -0.42682776 -0.27068862  0.08851158
  0.5611235  -0.15669632  0.12319084  0.13833076 -0.17362474  0.28077003
 -0.5607077   0.26464     1.10465     0.25660035  0.04558692 -0.08486488
 -0.24797404 -0.07492228  0.13037063 -0.42056572]
[ 0.5936723   0.32580835  0.02865385  0.4144106  -0.4924154   0.1952845
  0.02420939  0.08825202 -0.41630378 -0.6493351  -0.39208204  0.42890882
 -0.29804003 -0.02220367 -0.14973457 -0.20222892 -0.12964891  0.40801919
 -0.10402076 -0.3006281  -0.21862976  0.25876093 -0.86413    -0.22544578
  1.2188158  -0.02458345 -0.18320082 -0.20160083  0.21238253  0.51838017
 -0.67485565 -0.2594093   0.5657568  -0.37630868 -0.42957285 -0.42719743
  0.32763618 -0.46796015  0.3856623   0.3061776 ]
[-0.20452258  0.2140094  -0.5225813   0.20316745 -0.09068464  0.54447377
  0.26813388 -0.04050325 -0.19406424  0.14073291  0.11769447 -0.03304254
  0.2585546  -0.5155949  -0.08757263  0.39500728 -0.26641676  0.4382277
  0.26644945  0.12504202  0.06055873  0.54771876 -0.25522855  0.23640338
  0.06249172 -0.49646458  0.782164    0.63566816  0.41835815  0.3603877
 -0.39149493 -0.3861612   0.47096014 -0.52253395 -0.16447711  0.38702908
  0.0382828  -0.17515516 -0.12335034  0.02400985]
[-0.12408999 -0.10064796 -0.15731467 -0.16302049  0.08803871 -0.32448977
 -0.07236896 -0.18806289  0.48471195 -0.4591561   0.07803953 -0.12217275
 -0.2862587   0.7595484   0.22271739 -0.17477436  0.3996479  -0.72472566
 -0.3066913  -0.15161845  0.00229979 -1.010431   -0.1723126  -0.6012546
  0.18358529  0.31068504 -0.15655975 -0.07067376 -0.21137461  0.23695515
  0.34604874  0.23206992 -0.11443751  0.4644435   0.22885506 -0.37608463
  0.38384992  0.01433747  0.2704646  -0.09569377]
[-4.66281027e-02 -3.62326771e-01  1.39530584e-01  3.98671180e-01
 -2.45614782e-01  1.75687447e-01 -6.40013218e-02 -3.20971727e-01
 -5.27438009e-04 -3.00581664e-01  2.79426992e-01 -1.16159573e-01
  2.22943842e-01  2.74573803e-01  4.17518914e-02 -2.64701307e-01
 -2.67536849e-01 -5.36573157e-02 -1.68686390e-01  1.06935371e-02
 -1.10534944e-01 -4.65260483e-02  7.92437911e-01 -3.60160559e-01
 -3.13472867e-01 -1.93985298e-01  2.29348585e-01 -9.19894055e-02
 -1.52735217e-02 -4.38156724e-01  3.07700008e-01  4.50177848e-01
 -5.13842031e-02 -2.43940428e-02  1.34958252e-01 -8.86533260e-02
  1.75215244e-01  1.50423795e-02 -7.81628340e-02  1.52280301e-01]
[ 0.09981211 -0.03022906 -0.3292333  -0.16396144 -0.0638271   0.17065746
  0.01050193 -0.16309239 -0.27429402  0.14419684 -0.19948736  0.29987592
  0.2520467   0.23800538 -0.01060603 -0.2683464   0.03954563  0.25421944
 -0.15521611 -0.09274379 -0.20173846  0.13328278 -0.32440245  0.09343185
  0.05061443 -0.04633596  0.5548917   0.12935561  0.25376803  0.28082842
 -0.02403528 -0.4179288  -0.4450695  -0.09433129  0.24263403 -0.11312065
 -0.22121513  0.0051963   0.13427506 -0.18645264]
[-0.09608932  0.0016262  -0.16915323  0.4231081  -0.07049981  0.1291164
 -0.60115653 -0.30658957 -0.18884173 -0.2486388   0.09477267  0.3017373
  0.03380638  0.37834448  0.02154614  0.11742298 -0.24126776 -0.31286633
  0.01161931 -0.37435222 -0.20665564 -0.01447571 -0.28616095 -0.19237767
  0.2066323   0.43065277 -0.16279262 -0.29388064  0.23727523  0.12158664
 -0.51870245  0.18437214  0.19371101  0.20855543 -0.24886116 -0.03896302
  0.36077514 -0.16821057  0.06520451 -0.11488964]
[-0.30924368 -0.32089126  0.03536878  0.03036421  0.38100883 -0.10161393
  0.6359492   0.7621443  -0.4736596  -0.28539893 -0.00216785 -0.14536682
  0.04693438 -0.08252454 -0.22591762  0.34676775  0.21597211  0.4187782
  0.3422835   0.6946231   0.5064853  -0.21997987  0.92666304 -0.05822895
 -1.0529519  -0.43982008 -0.13278231  0.1312822  -0.01472473 -0.6740971
  0.7781741  -0.02266946 -0.57597184  0.2906676   0.07431797  0.5940323
 -0.18515784  0.15775658  0.02354135  0.00852919]
[ 0.17901951 -0.22775738 -0.31934625  0.26056555 -0.05256319  0.17339155
  0.07073178  0.29060084 -0.5212059   0.47884917  0.15489839 -0.15202413
  0.41227278 -0.33263847  0.05119316  0.13831288  0.0574912  -0.12259727
 -0.1807535  -0.11319151  0.11390562  0.35908443  0.16843195 -0.04635322
 -0.04456788 -0.48075968  0.2103881   0.17654088  0.23567614 -0.05250695
 -0.37309247  0.33239368  0.31293082 -0.36081943  0.26283002  0.07952768
 -0.07697511 -0.10790701 -0.04509892  0.00504195]
[-0.15033011  0.1913424   0.09386762 -0.08220255  0.15733165  0.01540297
  0.03932953 -0.01733167 -0.00722622  0.23745672 -0.09436727 -0.09318443
  0.73291874  0.00081843  0.32648465  0.26452547  0.08578208 -0.33590937
  0.08749337  0.04239425 -0.2452503   0.09301076 -0.46973094 -0.27920023
 -0.06750313 -0.03314614 -0.12513736  0.0843273  -0.32232314  0.31062588
 -0.07738747 -0.1393733   0.505051   -0.2790006   0.26160258  0.07006267
  0.09021584  0.10631774 -0.27410156 -0.06787533]
[ 0.0196995  -0.60135573 -0.4307792  -0.02224798 -0.10082184  0.0103728
 -0.7811307   0.14128819 -0.41767526  0.6957244  -0.08667111  0.09217507
 -0.51132387  0.4961004   0.59829414  0.47689798 -0.24304815 -0.60212874
 -0.39413208  0.04834864 -0.2158341  -0.06855855  0.22498174 -0.12345009
  0.08858432 -0.64756596 -0.02706437 -0.16774681 -0.28679958 -0.3339156
 -0.8990441   0.31018355  0.8280903  -0.07244701  0.42825836  0.00261936
 -0.1069049  -0.4556437  -0.08498131 -0.30084106]
[ 0.12507446  0.2192849  -0.4178597   0.18816315  0.07253408  0.17574674
 -0.17429745 -0.4525336   0.13941944 -0.2264638  -0.03357808 -0.02938822
 -0.45256025  0.19308089 -0.02978875  0.12585276  0.07060187 -0.44368392
 -0.4955255  -0.23393895 -0.47994858 -0.09169804  0.09420107 -0.21128263
 -0.021075    0.15948339  0.14338475 -0.33261126 -0.2036655   0.06963756
 -0.52868044 -0.04152882  0.28028575  0.05411656 -0.01152008 -0.18944104
 -0.00419794 -0.22684944  0.26375172  0.35538563]
[ 0.46268523 -0.32888803  0.1138298  -0.09242029 -0.06572676  0.311729
 -0.22451569 -0.14357066  0.05976751  0.07683697 -0.57563597  0.18100579
 -0.5557005  -0.2140701   0.35379323  0.3467298  -0.35752764  0.3870401
  0.40503296  0.09428035 -0.29121572  0.70365655  0.22371192 -0.0787881
 -0.5745128  -0.4999289  -0.12108234 -0.10942636  0.27216476 -0.3395641
 -0.9737754  -0.00947856  0.771584   -0.5450449   0.12820457  0.33182678
 -0.25875124 -0.24032356  0.05233187  0.06968995]
[ 0.16754597  0.2567912   0.05740013  0.29044634  0.1630325   0.31185424
 -0.07074096  0.46601704 -0.35090208 -0.10947756  0.0141672   0.04647411
 -0.11415701 -0.26919958 -0.19432308  0.15924387 -0.29026785  0.9926444
  0.42154294  0.47676662  0.09045997  0.8322467  -0.01598438  0.39976773
 -0.1110307  -0.66965187 -0.06086526 -0.04253607  0.32769343 -0.2383166
 -0.430933    0.05155588  0.16388245 -0.34642044 -0.23200612  0.27421328
  0.25881276  0.10832348  0.10348042  0.06218316]
[ 0.3489992   0.3408333  -0.2914191  -0.54613525  0.17829432 -0.3565428
 -0.19960673 -0.75591826 -0.1900479   0.60328144 -0.68123657  0.2883324
  0.12454138  0.2837697   0.1749145  -0.8678718  -0.18195368 -0.15855679
  0.253365   -0.22860494 -0.39519042  0.21282035 -1.5162095   0.02418694
  1.307142    0.01606685  0.18589026  0.35627112  0.05047529  0.84649754
 -0.5182903   0.09047215  0.69824934 -0.01922538 -0.7075578  -0.86661756
 -0.27253675 -0.12351445  0.50728804 -0.28424504]
[ 0.12463945  0.03989174  0.2959633  -0.13428137  0.0090476  -0.23971714
 -0.35538676 -0.4675714   0.13183525 -0.09331029 -0.27102745 -0.02114199
 -0.5326051   0.03151647 -0.03938264 -0.13891788  0.00812838  0.07113033
  0.0780888  -0.18340573  0.08491775  0.0051401  -0.0071204  -0.01243347
  0.02756861  0.724582   -0.69447845 -0.3338543  -0.16921374 -0.00221378
 -0.30949387  0.235552    0.3273322   0.1294263  -0.08292983 -0.07637873
  0.2159604  -0.05244173  0.06139835 -0.06262805]
layer 3 Activation
tanh
layer 4 Dense
40 20
[ 0.24597794  0.41725165 -0.19208658  0.01827538  0.34519798  0.17208685
 -0.15590331  0.13414721  0.09051225  0.24557318  0.38715133  0.18226318
  0.27521086  0.29337192 -0.10969634  0.4092483   0.15938067 -0.33455825
  0.4130732   0.19245026]
[-0.08382621  0.10458177  0.21643752  0.10136639 -0.10380538  0.23864254
  0.02305178  0.13635394 -0.16827124  0.02642389 -0.01675715 -0.07707829
  0.10819831  0.29357907 -0.06105232 -0.28682822  0.11809775 -0.32554862
 -0.1658575   0.2746604 ]
[ 0.10508339 -0.09069483  0.26636848 -0.44424996  0.07194738 -0.15668532
  0.3558071   0.05493089  0.23708788 -0.10078698  0.2148066  -0.00059181
  0.21390149  0.2908862  -0.21961516  0.35391253  0.04327916  0.11421691
 -0.2924606   0.01664493]
[-0.15802155 -0.22624157  0.31583825  0.0520938   0.17653558 -0.15821272
 -0.4067514  -0.2679983  -0.15352575  0.17897537  0.00280325  0.01402938
  0.4184496  -0.27554488  0.09622731 -0.11159735  0.05033202  0.5077095
  0.02404252  0.20865072]
[-0.01215458 -0.00420197  0.0017502  -0.3472129  -0.3361923  -0.10262135
 -0.05408254  0.2064058  -0.31650677  0.03877039  0.2526074  -0.33118573
 -0.3267151   0.05947877 -0.07726068  0.15384892 -0.1759279  -0.17833175
 -0.1661411   0.09834019]
[-1.2204347e-01  7.8295574e-02  3.0979037e-02  1.4519231e-01
  2.7119750e-01  6.2768623e-02 -4.6859166e-01 -2.2858600e-01
 -1.3244805e-01 -3.8216296e-01 -1.1313672e-01 -1.6653793e-01
 -1.9651766e-01  1.1385507e-01  2.0833869e-01  4.4070788e-02
  3.1380135e-01  1.7912589e-01  8.4825538e-02 -3.5767443e-06]
[ 0.00822694 -0.17475003  0.23881128  0.09144787 -0.28772718 -0.25963914
  0.0813164   0.06882232 -0.17303888 -0.26827917  0.23889254 -0.3689308
 -0.23909606 -0.35546935  0.01773874 -0.24431016  0.0060997  -0.23411064
 -0.14486663 -0.15926017]
[-0.24006288 -0.23849884  0.4915692  -0.21771105 -0.41111618  0.03275049
 -0.31372395  0.00997991  0.06636783 -0.03730054  0.29153684  0.09626621
 -0.24874438 -0.34465283 -0.50295216 -0.30200768  0.14025614 -0.1239334
 -0.36641175 -0.02486857]
[-0.35437873  0.00710223  0.2212606  -0.13201776 -0.06020677 -0.01627227
  0.3102024   0.277723    0.13930833 -0.02828368 -0.48137072  0.11893676
  0.06426705 -0.21105996  0.50671214  0.20081916 -0.00870755 -0.04647421
  0.02758225 -0.13852155]
[ 0.12808214  0.01289984  0.16972429  0.12326021  0.25014305 -0.1629059
 -0.17012616 -0.2575984  -0.09618213 -0.19463122 -0.1585604  -0.3845243
 -0.7458867   0.16130446 -0.04594228 -0.02182085 -0.02293731 -0.1383616
  0.24889447  0.0128897 ]
[-0.0428066   0.11222064  0.14130935  0.14652961 -0.02410645 -0.28163704
 -0.09699907  0.39527273  0.06612175  0.21294649 -0.38078228 -0.10255245
 -0.32605577 -0.543998   -0.04086054 -0.47355342 -0.07036077  0.60490066
 -0.09267035 -0.00637292]
[ 0.11254323  0.44123998 -0.39874622  0.08588662  0.07905248 -0.16828927
 -0.14943077  0.1852097  -0.2791551   0.16950345  0.24055047  0.09111322
  0.09172864  0.02613041 -0.19949597 -0.0111512  -0.09138405 -0.45825738
  0.04014485 -0.09253204]
[-0.33327824 -0.00444974  0.02089672  0.22731756 -0.08918131  0.17913069
 -0.06996854  0.21658613  0.14142056 -0.05621232 -0.02547084 -0.15144254
  0.02453067 -0.47525302 -0.19536285 -0.31701195  0.26814502 -0.07052573
  0.27818957  0.12010228]
[ 0.15797035 -0.12458767 -0.11439168  0.08761805  0.36103392 -0.09944727
 -0.10380903  0.20084447 -0.05030995  0.4755402   0.02036385  0.3299866
  0.19183674 -0.2797611  -0.12698765  0.3584865  -0.31552607  0.02334401
  0.12741905  0.14431304]
[ 0.09122408  0.40865242 -0.31944215  0.28035077  0.4531019  -0.00861708
 -0.15340301  0.1713781   0.16436625 -0.45573127  0.14060387  0.20207904
 -0.24053316 -0.22871998  0.11227461  0.26635802 -0.11814792 -0.02338812
  0.32571608  0.04909881]
[-0.28997415  0.0412163   0.12722623 -0.2648508   0.14641026  0.17754892
 -0.1285212  -0.14814295  0.26785764 -0.5925336   0.20823249  0.42216495
 -0.38544443 -0.4088254  -0.08056671 -0.02269922  0.30479625  0.36068422
  0.0341031   0.06407   ]
[ 0.03842639 -0.06631691 -0.33548653  0.00711261 -0.1728746  -0.21389133
  0.0150989   0.12541896  0.1647461   0.14340661 -0.24248888  0.14770949
 -0.08968227 -0.09242518  0.0877309   0.15345138 -0.19484992  0.18996648
 -0.26102874  0.19861366]
[ 0.3643427  -0.5939462   0.246814   -0.47133172  0.21961397 -0.06097109
 -0.20939983 -0.18468569  0.28898832 -0.18982705  0.6553948  -0.27614892
 -0.1610185   0.6797855  -0.17529897  0.00950148  0.7018003  -0.02465915
 -0.61795646  0.09101815]
[ 0.21612526 -0.06431184 -0.05562872  0.07215623 -0.24981375 -0.09880205
 -0.02168308 -0.04624136 -0.03629539 -0.06629727 -0.12948757 -0.31423146
 -0.05118328  0.2645373  -0.29407153 -0.09306557  0.00088952  0.21760033
 -0.19410719 -0.23851058]
[-0.17760593  0.10918774  0.42426077  0.09026995 -0.5798605  -0.19911364
 -0.29735017  0.11954835  0.20687385 -0.04378253  0.37129736 -0.42053676
 -0.19087903  0.31185547 -0.18503477 -0.17457145 -0.06851     0.18676768
 -0.08039708 -0.11198181]
[-0.20184053 -0.4710851   0.09058568 -0.45440838 -0.4771477   0.22041492
 -0.0263452   0.2324831  -0.04393672 -0.32900548  0.14254561  0.02773608
 -0.22503613  0.28277978 -0.1806312   0.2073054   0.06702144 -0.02227196
 -0.04092545 -0.16399346]
[ 0.33183154 -0.26241386  0.12146509  0.3187454   0.5090647   0.08819529
 -0.21012637  0.23309387  0.08126946 -0.7758206  -0.03565955 -0.5654147
 -0.25097758  0.48177794 -0.07735928 -0.34056312  0.5118961  -0.02416205
 -0.21609692  0.2553804 ]
[-0.4054398  -0.18962374  0.43353128 -0.43127546 -0.04960961 -0.2914922
 -0.1854006   0.01449772  0.16035035 -0.24520794 -0.2279608   0.18081512
  0.4974863  -0.570538    0.21261962  0.2567331   0.21094367  0.62039214
 -0.38943058 -0.04794122]
[ 0.32454407 -0.10229646  0.23693271  0.26607406  0.01663882  0.04834556
  0.13576186  0.11170658 -0.21283361 -0.09498131  0.13962229 -0.2635535
 -0.56092954 -0.13610175 -0.3754482  -0.06098296  0.18341303 -0.00970151
 -0.12069241 -0.01745269]
[ 0.21002658  0.55021363 -0.32645172  0.43453318  0.32536677  0.1636614
  0.23184554 -0.07186745  0.04450517  0.525328   -0.2503431  -0.37884045
  0.12481608  0.27861357 -0.13832256 -0.5592433  -0.6139785  -0.8105363
  0.34677637  0.19944774]
[ 0.20068224  0.38901603  0.19361019  0.02423258 -0.0514953  -0.20827495
  0.6137576   0.12818064 -0.14597036  0.09472802 -0.35106847 -0.10694649
  0.29064617 -0.34115297  0.45874792  0.10156323 -0.30141175  0.02478384
  0.26819733  0.02010424]
[-0.38985834  0.31320357 -0.04616253  0.28963795 -0.09517422 -0.01606869
 -0.5347183   0.07604696 -0.20054409  0.06916752  0.23065145 -0.3713176
 -0.16640271 -0.28937128 -0.02697846 -0.40025455  0.4577387  -0.08670432
  0.25488222 -0.22258334]
[-0.18630102 -0.0682914   0.13259734  0.2197147  -0.14214556 -0.18757029
  0.06604183  0.2842262   0.32656407 -0.19118555  0.17819296 -0.37143764
  0.15663263 -0.4072867  -0.31680197 -0.4861121   0.50546753 -0.1740378
  0.40184253 -0.1877955 ]
[-0.19451162 -0.05095981  0.2550593   0.31489578  0.13633722  0.05299584
 -0.32959297  0.03064603  0.01958603 -0.22569709  0.18747853 -0.3827229
  0.01339749  0.13791457  0.0376853  -0.22407624  0.14994857 -0.46141002
 -0.01451557 -0.3035357 ]
[ 0.27501836  0.31587735 -0.323373    0.20270498  0.52688724 -0.30361035
  0.30926862 -0.11304983  0.14318946 -0.04775425 -0.33336896 -0.15389638
  0.26098573  0.5487203   0.29500088 -0.5150024   0.02394171 -0.54283375
  0.3113543   0.25872618]
[-0.34945977 -0.20323867 -0.07832288  0.1642813  -0.5182525   0.11966753
  0.2983388   0.06022928  0.05383652 -0.09348506 -0.19869417 -0.43928364
 -0.28048584 -0.46682855  0.1552503  -0.17878109 -0.46338725  0.22929281
 -0.6137695  -0.14763556]
[ 0.19453247  0.07840897  0.17409359  0.06252194  0.35851377  0.11600566
 -0.17309088  0.2377268  -0.05102115 -0.15231153 -0.28355053  0.25431582
 -0.13733032  0.09261116 -0.25084364 -0.03244561 -0.17719623  0.3143594
  0.00476792  0.16909117]
[ 0.4924481   0.03208834  0.10226535  0.36215514  0.63737327  0.24819651
 -0.04000087 -0.21884292  0.25902283 -0.25587976 -0.03477335  0.42699987
 -0.09142843  0.26160717 -0.14994395  0.15440795  0.5693856   0.21061842
  0.26570725 -0.03019765]
[-0.366631    0.07330664 -0.2880487   0.24185495 -0.00871875  0.16927962
  0.4758708   0.22729872  0.13694651  0.24709204 -0.06952686  0.22463427
  0.19580783 -0.44794556  0.00492676  0.37721717 -0.4848669   0.13920489
  0.13742122  0.22478473]
[ 0.07910788 -0.03957976  0.03300993 -0.35096994 -0.48351544 -0.2263426
 -0.2303618   0.05095617 -0.19406489 -0.08292186 -0.1407948   0.4474313
 -0.11429355 -0.24608168  0.22107896  0.06593364  0.01410067  0.3434249
  0.20552295 -0.15531991]
[-0.25506452 -0.5862553  -0.03947571  0.03912472  0.12642807 -0.23395987
 -0.12949914 -0.07005106  0.00640577 -0.2854107   0.2150419   0.22880928
 -0.23370503 -0.17731838 -0.19144659 -0.12681855  0.34869015  0.5232654
 -0.269892    0.09982823]
[ 0.20680763 -0.24723177  0.23193783 -0.17783815 -0.04373273  0.40354708
  0.15950067  0.03318963  0.16585909  0.23641083 -0.34020385 -0.10420817
  0.59276307 -0.13438159  0.29729825  0.16638446  0.07982618  0.08456799
 -0.1715295   0.0572957 ]
[-0.2643141  -0.08452092  0.29367837 -0.18753041 -0.21028626  0.15995122
  0.26894304 -0.03889266  0.21793586 -0.06519914  0.07938641 -0.18438074
 -0.14244857 -0.23388714  0.20677377 -0.14851166 -0.24623477 -0.00859833
 -0.30150008 -0.24287538]
[ 0.13868847  0.3356098  -0.26852158  0.35808215  0.12348443 -0.17685142
 -0.14610682  0.01225612  0.12020722  0.562144   -0.34194073 -0.16138849
  0.37313566  0.24228686  0.11953672  0.08524812 -0.06594539 -0.23701108
  0.03040593 -0.00663167]
[-0.08257962 -0.3809863  -0.23031235 -0.0181824  -0.29106507  0.21282303
  0.02072581 -0.16062145 -0.00575835  0.4825191   0.02049346  0.17705962
  0.3133032   0.01195693  0.11504886 -0.12634566  0.07440776  0.1206354
 -0.05087439  0.13011391]
[ 0.19636397 -0.25767568  0.02302    -0.39818618  0.11969793  0.09254824
  0.24421471  0.01332796 -0.00734766  0.00465279  0.00486466  0.08744302
  0.0995618   0.2202099  -0.01215631  0.15627043 -0.05647476  0.09956585
 -0.10169306  0.13341494]
layer 5 Activation
tanh
layer 6 Dense
20 1
[0.43654993]
[-0.10030922]
[0.06276067]
[-0.06061837]
[0.31202537]
[0.03187343]
[-0.3299386]
[-0.03875509]
[0.04314129]
[-0.22138792]
[0.33082134]
[0.39506337]
[0.30476806]
[0.43509105]
[-0.15206619]
[0.57255614]
[0.530992]
[0.37356782]
[-0.62642026]
[0.04759735]
[0.2012165]
