layers 7
layer 0 Dense
20 20
[ 0.5018352  -1.0192701   0.6714339  -0.15410955  0.5241906  -0.05876737
 -1.103208   -0.2501285  -0.57907015 -0.15056026  0.22048473 -0.6874489
 -0.56031966 -0.39370853 -0.0725067  -0.00463967  0.78672653 -1.1545395
 -0.36493784 -0.13449185]
[-0.41765594  0.27161402  0.34562367  0.8654369   0.11376942  0.26183003
 -0.2652138  -0.5695495   0.1722364   0.32366496 -0.04015979  0.6386339
  0.2459935   0.29368192  0.43512285  0.7224713   1.3198618  -0.15344913
 -0.45022583 -0.8556704 ]
[-0.25986755  0.3515337   0.34107953  0.9095939  -0.09486682  0.61151755
 -0.6103406  -0.48178807  0.6189456   0.58006436  0.46285385  0.08099683
  0.3876469   0.3373555  -0.02544015  0.6626542   1.3411373  -0.5356888
 -0.28728032 -1.074342  ]
[ 0.32036766 -0.30365062  0.09443966  0.17363778  0.81103075  0.2096628
  0.01819788 -0.20766222 -1.0020663  -0.03262779  0.46418822 -0.33801052
 -0.51723576 -1.0791354   0.03336307  0.13240322  0.2225869  -0.9008098
 -0.3480428   0.06003859]
[-0.01699691  0.10112471  1.4220052   0.6370111  -0.2897381   1.0617218
  0.61202043 -0.21720901  0.05321601 -0.5241901  -0.30674717  0.52016014
  0.33417523 -0.06411956  0.58151186 -0.56394464 -1.3925942  -0.65717125
  0.26722777 -0.42176855]
[ 0.33496827 -0.13337368 -0.4817031  -1.1551094   0.29324925 -0.6899806
  0.79180014  0.2716911  -0.00957577 -0.7211506   0.01077661 -0.45770088
 -0.1529554  -0.551738   -0.6298141  -0.31469387 -0.63870525 -0.22688839
  0.31261218  0.43280587]
[ 0.5564132  -0.663956   -0.05937669 -0.7939194  -0.4197929  -0.83101535
  0.22782205  0.35984817 -0.58142567 -1.0168045  -0.4356062  -0.51309466
 -0.02131081 -0.44044265 -0.37164035 -0.45687866 -1.110231    0.37035167
  0.47290614  0.32665634]
[ 0.20768537 -1.4960506  -0.9430687  -1.0470715  -1.0995685  -0.8333979
 -1.1345634   0.25423738  0.9328905   0.06319181  0.1400004  -0.9705208
  1.1210885   1.2400278  -1.0801508   1.3143619   0.42351726  1.0452105
  0.33423024  0.32060805]
[ 0.3577922  -0.46131387  1.416385    0.02750759 -0.32160217  1.1343838
 -0.80400985 -1.0063465  -0.01009739 -0.84305114  1.1573961   0.5547106
  0.12170622 -0.20925276  0.46943688  0.37740588 -0.07026752 -1.1820893
 -1.1050262   0.72089875]
[-1.6596537  -0.18575485 -0.6380291   0.25692272  0.26311764  0.638028
  0.7434457  -0.5638207   0.20345369 -0.9613703   0.6450206  -0.01506628
 -0.17432791  0.07943431  0.2683463  -0.67910844 -1.5264509   1.3909318
  0.9091035  -0.11134683]
[ 0.4630218  -0.9598932   1.2439481  -1.1098709   0.13391514  0.45485374
  0.5128917  -0.3271286  -0.15799291 -0.56759214  1.8168609  -0.05123188
 -0.21424669 -0.901508   -0.2713946  -0.8296492  -1.1148691   0.15671766
  1.6156445   3.9323494 ]
[ 1.724772   -0.08745752  0.42426965  1.031792   -0.8067076   0.5232501
 -1.1793938  -1.8642111  -1.006103   -2.0815382   2.4350467   0.641981
  0.01065619 -0.43530494  1.3398465   0.742778    0.934798   -1.3504968
 -3.2246199   2.3163748 ]
[-1.6079587  -0.29182976 -0.16104898 -0.75715846 -0.6837558   0.34432358
  0.17910576  0.37925076  0.976854    1.0480258  -1.0042939  -1.3152268
  0.90693486  0.34814918 -0.6963942  -0.36832806 -0.50896066 -1.2870613
  1.089854   -1.1685159 ]
[ 0.4415384   1.1732291  -0.15531763 -2.236218    0.21226269 -0.73441195
  0.13978688  0.3305457  -0.2604393   0.18774514 -0.1824819  -0.9256578
  0.5446239   0.04661871  0.4412436   0.0701329   0.26596943 -0.98583627
 -0.19233489  0.03364768]
[-0.67165434  1.1690493  -0.8392222   1.4434897   0.111725    0.4610715
 -0.07390261 -0.3749644  -0.0624116   0.3997106  -2.0443428  -0.16652082
 -0.22585735  0.2952336  -0.09907959  0.32976344 -0.26356846 -0.5263313
 -0.0561571  -0.8406566 ]
[-1.1065824  -0.22578324 -1.3976527  -1.0848944  -0.30438894 -0.7528894
 -0.6509997   1.4078718  -0.26873657  1.4460722   0.96124583 -2.6297426
 -0.34862486  0.3956818  -0.8418548  -0.37620562  0.55043447 -2.6586401
  0.5226566  -0.12177032]
[ 1.1365987  -2.6535468   1.6976666   0.48134795 -0.32790202 -0.5244282
 -0.35509655  0.87898105  0.40874806 -2.0107749   0.2852448  -0.20832276
 -0.34579682 -1.2311336   0.49430758  1.3202081  -0.16215555 -0.5344164
  0.34967247 -0.6252003 ]
[ 0.8470058  -1.2999237   0.11681823  2.00338     0.24273328  0.5078802
 -0.80052406 -0.02168332  0.1615325   0.49400717  0.27501047  0.9281158
  0.2416092   0.1918231  -0.5308381   0.6352588   1.1972197   0.24136351
  0.0088901   0.42740652]
[ 0.54545677 -0.20946978  0.5579495  -0.3925765  -0.06385168 -1.5676982
  0.47427204  0.8815737  -0.10857057 -0.83478117  0.8448701  -0.16057454
  0.13721436 -0.1036059  -0.21060482 -0.05857025  0.7959243   0.62725013
 -1.740422   -1.5049753 ]
[-3.2916358e-01 -2.0314755e+00  5.0728410e-01  2.1866021e-01
 -2.6852086e-01 -1.2995442e+00 -1.3333075e+00 -1.1395742e-03
  1.0444324e+00  2.7463844e-01 -5.2768207e-01  1.7444426e-01
  6.4615381e-01  1.2517689e-01 -1.1323858e+00  1.2715821e+00
  6.3998193e-01  1.3213608e+00  6.5938765e-01 -3.1912962e-01]
[ 0.05298264  0.78344554 -0.13913545  0.18591134  0.6630341   0.23193952
  0.27170536 -0.17746285 -0.6512819   0.07965347  0.08095744  0.3154468
 -0.90002596 -0.6073429   0.15049961 -0.5556885   0.02456482 -0.12764546
 -0.21636494  0.027607  ]
layer 1 Activation
tanh
layer 2 Dense
20 40
[-0.746839    0.5546379   0.0075671   0.77568144  0.6170073   0.16556545
 -0.70952517 -0.20117745  0.7396909   0.10397884 -0.03891009  0.21947402
  0.55868095 -0.5832781  -0.1328123   0.24228692 -0.77253455 -0.54917914
 -0.30019328  0.3153286  -0.38160455  0.22833756 -0.39578503  0.5146811
 -1.2910542  -0.43851545  0.34143528  0.2992808   0.06312928 -0.46345538
  0.5442416   1.3916339  -0.40491247 -0.01317696  0.27875826 -0.52268696
  0.02768564  0.8107403   1.0634385  -0.97495043]
[ 0.06629786 -0.6888804   0.61403674 -1.1293185  -0.5384605  -1.1241661
 -1.471106    1.6757274  -0.36640152  0.28624323 -0.23409565 -0.27201724
  0.3751804   0.32594818  0.3698345  -1.9126495   1.1390336   1.5164113
 -0.4618227  -1.4161748  -0.6657332   1.370943   -1.8098795  -0.06165329
 -1.0246392  -0.29857424 -0.8849226  -0.35932058 -0.27561283  0.03574249
  0.16447814 -0.08757736 -0.70995235  0.27086827  0.37308225 -1.4445221
 -0.02476773 -0.6797162  -0.46730414  1.4675056 ]
[-0.08571881  0.85138094 -0.5304925   0.7052465  -0.6143922   0.46012613
 -0.710709   -0.33392796  0.09934026 -0.19769818 -0.189955   -0.19796029
  0.23202434 -0.36682943 -0.23838532 -0.31429708  0.01279662 -0.16656545
 -1.6146601  -0.2936037  -0.1663999  -0.72243756 -0.5724546   0.2137794
  0.31260076  0.3184327   0.39197055 -1.365299   -0.16731285 -0.5760859
  0.31662533 -0.15732212 -0.90543777 -0.02497211 -0.2293197  -1.049147
  0.70298934  0.7787368   1.048632   -0.14952675]
[ 0.55120456  0.24215236  0.88840073 -0.503376   -0.8539344   0.4450037
 -1.179319    0.7871884  -0.53010875 -0.43835557  0.06360063  0.86480093
 -0.09856202 -1.2991877  -0.42200363 -0.18192053 -0.50401556 -0.2740593
 -0.3640444  -0.8418218  -0.83268327  0.5891141  -0.5771857  -0.43773708
 -0.2792966  -0.18106985  0.02508601  0.2497366  -0.41096324 -0.20445913
  0.78657156 -0.43512762 -1.2338384  -0.24832253  0.26686972  0.31802812
 -0.12741613  0.37239483  0.31711128  0.19417702]
[-0.20350906 -0.35869032  0.15451327 -0.14187081 -0.0234536  -0.67670166
 -0.6756283   0.52175504 -0.6044616  -0.90385365 -0.75470454  0.36923277
 -0.17297412 -0.19946928 -0.3944349  -0.4258621   0.51858985 -0.7793871
  0.00415391 -0.512725   -0.4619702   0.22865015 -0.60842115  0.01896397
 -0.8308205  -0.19112991 -0.48730063 -0.04728572 -0.845294    0.8818259
  0.3148773  -0.95037293 -0.7176437  -0.6511272   0.82450193 -0.85894865
  0.06524596  0.75721425 -0.00177536  0.30427653]
[ 0.96836793  0.48152488 -0.9610581   0.40499136 -0.8204275   0.8981491
  0.2830177  -1.1910219  -0.34788558 -0.16802382 -0.18157196 -0.20620058
  0.31579846  0.61338025 -0.2768386   0.18955582 -0.44238976  1.2676349
  0.4487742  -0.19288433  0.33860958 -1.1213733  -0.33347043  0.3183731
  0.6679183   0.58826715 -0.8839876  -0.97399294 -0.29067108  0.12941734
  0.01712415 -0.13026676 -0.1763006  -0.0304437  -0.17437907  0.28844604
  0.12265392 -0.573664    0.23889041 -0.29868674]
[-3.0609624e-02 -4.3487576e-01 -3.6781618e-01 -6.6617495e-01
  1.7621009e-01 -2.1229908e-01 -7.0493966e-02 -6.8420619e-01
  1.1552526e-03  3.3728670e-02 -4.0797066e-02  2.8474036e-01
  4.2149276e-01  9.8411751e-01  2.8128093e-01  9.0189934e-02
 -1.3874766e-01  9.2811328e-01 -1.7632067e-01 -2.0946196e-01
 -3.5053653e-01 -4.8589885e-01 -1.9709893e-01  4.3598622e-01
 -8.1967318e-01  7.3965639e-01  1.1764642e+00  1.8304548e-01
  6.8479575e-02  6.5944314e-01  8.1981272e-02  4.4573402e-01
  1.5242502e-01  2.8860083e-01  1.7784820e-01 -1.9647847e-01
  3.4198484e-01  3.9990509e-01 -5.6574774e-01  6.9299030e-01]
[-0.18122125  0.26812774  0.44901094  0.8257591   0.74399036  0.3210609
 -0.4736298   0.14389798  0.3952054  -0.00182207  0.05897995 -0.06182407
 -0.66904724  0.02523132  0.12007898  0.04818221  0.260365   -0.2759616
 -0.06898285  0.17496672 -0.01045392  0.57165223  0.39796534  0.0851471
 -0.19656572  0.22112975  1.3382077   0.7188374  -0.13094257 -0.96127486
 -0.39321172  0.34600937  0.06788317 -0.03073287  0.2934744   0.16226456
 -0.07710447  0.5592859  -0.231644   -0.3575883 ]
[ 0.41714513  1.0099003  -0.6100513   0.7778052  -0.28320777  0.82424074
  1.0503361  -0.7527448   0.6219895   0.9205627   0.6517222  -0.5109563
  0.38715157  0.4368912   0.17004246  0.6000462  -0.6065138   0.7240144
 -0.1911739  -0.01087748  1.0921115   0.1471528   1.1979501   0.09388042
  0.7974555  -0.17410628  0.14026952  0.09210227  0.7301296  -0.6846635
  0.00423509  0.5397534   0.9923004   0.3286869  -1.2729971   0.6082177
 -0.2175953   0.10485907 -0.45560253 -0.6983421 ]
[-6.8176880e-02 -1.2081395e+00 -2.9673478e-01 -1.6833827e-01
  3.3467478e-01  1.3797104e-01  4.4071868e-01  2.6161915e-01
  1.7492004e-01 -2.0418824e-01 -4.8755605e-02  3.9773273e-01
 -1.0794491e+00  2.2466572e-01 -1.4352110e-01  4.5447382e-01
  2.3463036e-01 -1.8355243e-01  4.0750095e-01  2.6179421e-01
 -8.9825056e-02  6.1649150e-01  4.3556094e-01 -1.7937656e-02
  4.8678508e-04  3.4650052e-01  5.6258106e-01  6.3441038e-01
  1.3447806e-01  1.3360562e+00 -4.6452245e-01  1.2922980e+00
  2.5610897e-01 -2.4610320e-01  1.4338152e-01  3.8923416e-01
 -1.5120054e+00 -1.2167195e+00 -4.1488445e-01  1.2523495e-01]
[-0.2684198   0.7183213   0.808867   -1.1044981   0.30956027 -1.3468051
 -0.21861863  0.263835   -0.02264131 -0.20060773 -0.0734143   0.00214945
 -0.06270874 -0.9774007  -0.2502175  -1.3760402   0.6124825   0.21417479
 -0.25047565 -0.35123998 -0.47250283 -0.6355239  -0.2046705   0.02591136
 -0.7018909  -0.22740178  0.22543967 -1.2110221   0.11392132 -0.11944965
  0.17651056  0.2061998   0.40335786  0.01692852  0.1758524  -0.9285708
  0.5026118   0.3128686   1.0879735   1.3746111 ]
[ 7.7266812e-01 -2.0982724e-01  1.3347868e-02  2.0495461e-01
 -1.7165469e+00  7.7701813e-01  5.4031396e-01  1.2900631e-01
 -6.8750799e-01  3.5401729e-01 -4.0007797e-01 -9.0657634e-01
  3.0595899e-01 -8.7274753e-02  4.9418274e-01 -7.0286530e-01
  1.7617007e-01 -1.7241970e-01 -1.1647977e+00 -1.3444812e+00
  3.0865955e-01 -8.5634047e-01  3.5828438e-02 -7.9601025e-04
  7.6952988e-01 -2.8910026e-01 -9.3535477e-01 -1.2890985e-02
  2.7553275e-01  2.7477702e-01  2.7196059e-01 -7.1630234e-01
  6.8432339e-02  5.7690039e-02 -2.5535902e-01 -1.0807899e+00
  6.6997659e-01 -2.3015128e-01  9.7490078e-01 -1.6959395e-01]
[ 2.82033831e-02  3.50674182e-01 -9.79562476e-02 -7.60206804e-02
 -3.94826740e-01  2.26218402e-01  4.28085059e-01 -6.80811465e-01
  3.90928090e-01  2.46240765e-01  6.69041336e-01 -6.60334766e-01
 -1.06693223e-01  4.69831564e-02 -4.60386015e-02  4.87948120e-01
  5.66931628e-02 -4.73558515e-01 -6.31817997e-01  3.55058074e-01
  8.58960390e-01 -2.25310102e-02  2.10401639e-01 -9.43863392e-02
  2.18031809e-01 -1.06149085e-01  9.89968300e-01  2.13059872e-01
  1.67917356e-01  1.61795411e-02 -7.60460086e-03  4.91320848e-01
  2.15915531e-01  5.19978404e-01 -3.57508808e-01  5.96259296e-01
  3.39272976e-01  7.70575367e-04 -1.77371308e-01 -3.32926840e-01]
[ 0.9338641  -0.3013101   0.33908468 -0.32307923 -0.3833946   0.47121292
  0.27598232  0.2341057  -0.16598429  0.42410004 -0.04498672 -1.0083618
 -0.5575316  -0.00815033  0.4138519   0.07096605  0.27247363  0.1327035
  0.5012996  -0.12286042  0.5266166   1.1317307   0.35363638 -0.45892206
  0.03166403  0.02793098  0.5828371   0.32877785  0.44529185  0.22283296
 -0.06276981 -0.27048963  0.46055824  0.5772439  -0.36996362  0.40702447
  0.1410407  -0.5860078  -0.5886546  -0.12841085]
[ 0.05288329  0.09664562 -0.334117    0.12648536 -0.24276537 -0.07960965
 -0.3563787  -0.4008797  -0.16634277 -0.23673731 -0.79969174  0.14113553
  0.6293657   0.5187061   0.02123683  0.16471569 -0.3303053  -0.3928863
  0.13854007 -0.06343915  0.05572631 -0.510077   -0.4186717  -0.24440026
 -0.30273652 -0.34659708 -1.0434178  -0.23912485 -0.4321895   0.28753653
  0.4689391  -0.7891185  -0.73298764 -0.51042145  0.23568405 -0.12662393
 -0.31065735  0.05237842 -0.25000414 -0.13206875]
[ 0.25119218  0.49996856  0.6492269   0.48473784 -0.06107534  0.03057714
  0.50407994  0.7337023   0.1360158   0.09625366 -0.06338402 -0.16011643
 -0.5610061  -1.142758    0.14452516  0.54781044  0.6182121  -0.58257115
 -0.41229457  0.28586054  0.14626434  0.46125373  0.16122997 -0.38153583
  0.19020525 -0.7998596  -0.37642503 -0.13648087  0.12239749 -0.743979
  0.04461645 -0.5484416   0.02990612  0.3675579  -0.48575962 -0.2189317
  0.23282476  0.5751186   0.45842567 -0.67658633]
[-0.56514084  0.1557665   0.6872205   0.7213595   0.7108123  -0.5104731
 -0.25053763 -0.42851424  0.749868   -0.02659897  0.00486543  0.6078881
  0.32895398 -0.8883013  -0.02945099  0.49546897 -0.0791193  -1.2754221
  0.28311047  0.32954946  0.08400419  0.53581405  0.03580821 -1.0290781
 -0.06230019 -0.70018786 -0.14905679  0.80127996 -0.20038427 -0.20621736
  0.22068605  0.38160652  0.04746502 -0.0179768  -0.05522967  0.32596952
 -0.38579172  0.05582321  0.2578562  -0.36963403]
[-0.09205494  0.43575406 -1.641405    1.2639667  -1.0620347   0.21236005
  1.5200902  -1.7773148  -0.26230776  0.3803188   0.45334613 -0.56697434
  0.16664594  1.2030795  -0.14559731  1.5341113  -0.44717988  0.45185092
 -0.32562312 -0.05721386  0.97446    -0.9661344   1.9342766   0.04793385
  1.2482561   0.39338982 -0.07774763  0.95034623  0.3497627  -0.89410746
  0.15672247  0.17997827  0.5660896   0.00859418 -0.4368955   1.216763
  0.6598578   1.9922805  -0.5208931  -0.7591849 ]
[-0.20153493 -1.2095913  -1.6713398   0.15044954 -0.81318504  0.9881376
  0.70121706 -0.79198027  0.42066836 -0.33121115 -0.04240768 -0.3520077
 -0.5952725   1.7535377  -0.35044256  0.12928335  1.2945107   0.94509363
  0.10268077  0.02478958  0.570285   -1.355063    1.1513834   1.2635576
  0.05496331  1.3803236   0.3942299  -0.7713277  -0.11463423  0.6195006
 -1.7924672   0.6954869   0.7020534   0.16357994  0.07142836  1.286332
 -0.08527447  1.0554311  -1.3756235  -0.12928405]
[-0.96879053  0.14446513  0.14856534 -0.6497213  -0.29743034 -0.82872146
 -0.227351   -0.0495527  -0.03910254  0.36288384  0.39296988 -0.59069896
  0.08203895 -1.1564059   0.50451547 -0.07288614  0.7498441   0.04475531
 -0.88438195 -0.47093913 -0.07093819  0.49683607 -0.66811883 -0.08924751
 -0.48923445  0.02150268 -0.27562746 -0.34232     0.18383247 -0.6121234
  1.0257355   0.54060274  0.2343709   0.16165785 -0.14095944 -0.9937702
  0.00575254 -0.00896767  1.594229    0.99817026]
[-0.26190743 -0.524318    0.45783728 -0.42540583  0.07451683 -0.9466895
 -0.76727337  0.792806   -0.42343566 -0.69988185 -0.4416254   0.35505435
 -0.31230116 -0.3607532  -0.35477838 -0.3868001   0.74021894 -0.5342319
  0.12361322 -0.3314276  -0.8515779   0.25542194 -0.6199564  -0.19118215
 -1.1312753  -0.18901831 -0.42627278 -0.08009882 -0.77498686  0.6093393
  0.2494791  -0.5858734  -0.9359541  -0.5620775   0.7786625  -0.59728
 -0.1516074   0.36220628  0.02441246  0.42347118]
layer 3 Activation
tanh
layer 4 Dense
40 20
[-0.26117823 -0.31483635 -0.08612266 -0.03741517 -0.24324587 -0.4111654
  0.28072724  0.04233128 -0.77739483  0.25615117  0.16404009 -0.22349682
  0.3702982   0.96409076  0.2125084  -0.03618739 -0.11853401 -0.05178087
 -0.18076803 -0.2065241 ]
[ 0.02448682  0.03076233  0.7506417  -0.55622447  0.4339563  -0.17929906
 -0.12093753  0.04958427 -0.03534077  0.30301404 -0.01784411  0.15343879
 -0.32425755  0.11889398  0.09580686  0.32713652  0.12452164 -0.05182985
 -0.08755321 -0.26222837]
[ 0.13055843 -0.23396528  0.50830954 -0.4320705  -0.5378932  -0.07925703
 -1.269661    0.19666182  0.21789178  0.2207765   0.24330446 -0.55481446
  0.54251975 -0.37076938  0.31419608 -1.0223018   0.49526435  0.10743222
 -0.06422788  0.37967208]
[-0.13051009  0.4850957  -0.8715617   0.17489399  0.18503559 -0.44071266
  0.5213315  -0.16921024 -0.72107     0.21694426 -1.0665681   0.6288787
  0.05062902  0.5300159  -0.05077279  0.6284287  -0.27150518  0.02104037
  0.06251741 -0.4312361 ]
[ 0.39836496  0.17143427 -0.20148028 -0.38697234  0.09738766  0.25573862
 -0.38333547  0.19498035  0.3849805   0.3667415  -0.50794166  0.2232128
  0.4617845  -0.81281155  0.08685011 -0.442222   -0.17324415 -0.08514589
 -0.02646611  0.0998502 ]
[ 2.3450217e-01  7.9928100e-01 -3.9338902e-01 -5.0580047e-02
  9.5089132e-01 -3.8999042e-01  8.9553583e-01 -1.0173111e-03
 -6.3954836e-01  1.2996472e-02 -6.5725863e-01  6.2736553e-01
 -5.4138690e-01  5.3732687e-01 -7.2015170e-03  9.9672979e-01
 -1.1040013e+00  1.4163621e-01 -2.7673462e-01 -4.9616802e-01]
[-0.10974087  0.9011123  -1.3569965   0.32973593  1.150582   -0.11171249
  1.9710357   0.12421413 -0.6907203  -0.27607176 -0.46489233  0.9015542
 -0.30422792  0.5445108  -0.04393546  1.0066708  -0.8458012   0.33228227
 -0.0594899  -0.21114224]
[-0.2518271  -0.57740754  0.7504315   0.17352137 -1.0530227  -0.19539654
 -1.051344   -0.1959807  -0.02038245  0.02076956  0.90180975 -0.7021191
  0.5991508  -0.259568    0.07671957  0.2584606   1.0835288  -0.13735695
 -0.01888053 -0.20869756]
[ 0.3799739   0.31566176 -0.30946344  0.41750735  0.6444433   0.11180048
 -0.03303759  0.1416483   0.74783623  0.11361286 -0.54415125  0.4496246
 -0.05776506 -0.48596764 -0.2820633  -0.13585687 -0.56770736 -0.10359542
  0.02198999  0.28672427]
[-0.5249991   0.5022332  -0.32958308 -0.06800061  0.4495866  -0.64620423
  0.12803182  0.7585806  -0.08988806 -0.5100194  -0.32208598  0.4130191
 -0.5064328   0.64574635 -0.19994533  0.2442317  -0.5090552   0.28035742
 -0.5174967  -0.74809664]
[-4.1438746e-01  5.7561052e-01  3.6545901e-04 -2.7629769e-01
  3.4016746e-01 -7.9781657e-01  1.7926314e-01  3.0325276e-01
 -3.1052040e-02 -8.3903298e-02 -1.3248208e-01  3.3537716e-01
 -3.9458501e-01 -2.5378135e-01 -7.0921338e-01  2.9374030e-01
  9.8419990e-03  3.1912416e-01 -7.8278536e-01 -6.3510299e-01]
[ 0.30874354  0.26005644  0.18546502 -0.06406422  0.06640144 -0.12974404
  0.14438835 -0.005227    0.0794263   0.02617543  0.5995776  -0.37427476
  0.42020315 -0.4651786  -0.16955778  0.7957734  -0.40203372 -0.08833715
  0.01373067  0.00572991]
[-0.34825987  0.2407001   0.14002204 -0.41939873  0.7453614  -0.29966232
  0.02445613  0.4324467   0.0086605   0.01556215  0.00142556 -0.06076607
 -0.36431095 -0.10894621  0.08198628 -0.33383828  0.13953756  0.30548257
 -0.2472971  -0.19550999]
[-0.20899922  0.10569149 -0.98974293  0.5503414   0.3260222   0.22095841
  1.0534116  -0.2685022  -1.2949685  -0.35366237 -0.1117639   1.4774209
  0.6450652   0.14285421 -0.27870274  0.37325385 -0.93548113 -0.04835561
  0.00751114  0.15683739]
[-0.17723604  0.11121633  0.14445949 -0.15143988 -0.1050484   0.04031887
 -0.27502048  0.1978634  -0.09925011  0.07265756 -0.2880334   0.26347882
 -0.52347803  0.30537003  0.1779893  -0.4268175   0.23296016  0.09293747
 -0.35781655 -0.05165573]
[-0.45184752  0.1284411  -0.7138445   0.2705941   0.2968196  -0.313198
  1.0057184   0.07272326 -1.0509033   0.6134215  -0.78787595  1.4986598
 -0.34377378  0.91278386 -0.9655364   0.22611302 -0.78830683  0.42564926
 -0.45392102 -0.77423286]
[-0.03840837 -0.12136939 -0.19362628  0.48580107 -0.30598786 -0.28510538
  0.05352049 -0.27308112  0.1818828  -0.16887139 -0.08254463 -0.08841407
  0.5193397   0.3026592  -0.1867877   0.06554703  0.11644449  0.2010869
  0.03226014  0.1920978 ]
[ 0.12103173  0.3598374   0.26284015  0.12063801 -0.0733979  -0.35030755
 -0.56652594  0.34240362  0.10447983 -0.5617709   0.17090587 -0.44669035
 -0.37559506 -0.01503561  0.12167792 -0.10644724  0.20864257  0.17943564
  0.06521809 -0.36352742]
[ 0.2594182  -0.34092513 -0.12548172 -0.30548447 -0.32574937  0.37134203
  0.00854489  0.05645989  0.16220137  0.3217609   0.10129924  0.32819298
  0.37295172 -0.3320637  -0.20931187 -0.47451386 -0.15171997 -0.25299066
  0.39694688  0.40533474]
[ 0.16608405  0.45316225 -0.20444198  0.09405396  0.06880265  0.09336971
 -0.29965928  0.04443748  0.18044515  0.34484258 -0.05864674  0.28032535
 -0.33337405 -0.35425806 -0.61214846 -0.38462064 -0.3456361   0.14296184
  0.12507883 -0.11013967]
[-0.29791278  0.6843497  -0.23511966  0.20688464  1.6055005  -0.5501005
  0.5128045   0.17846936 -0.28008622 -0.3699614  -0.34044617  0.56353766
 -0.6501765   0.07233908  0.18026276  0.5359175  -0.6122209  -0.02094742
 -0.37762222 -0.64107716]
[-0.13808618 -0.14648114  0.4227028  -0.28818232 -0.4076255  -0.7925257
 -0.78238255  0.28131273  0.4016354   0.29315913  0.30354032 -0.5730371
  0.19841498  0.36626312  0.12370265 -0.38901725  0.43592978  0.23858626
 -0.5715052  -0.23442508]
[ 0.17073151  0.7024631  -0.9107749  -0.28081563  0.41953126  0.02208174
  0.8326727   0.05781125 -0.8853401   0.14147158 -0.4030724   1.3056574
 -0.62777287  0.2674624  -0.95456016  0.38645193 -1.1350682  -0.14405422
  0.15242809 -0.27439937]
[ 0.12183493  0.05438735  0.01622568  0.33129787  0.53620595  0.41293013
  0.11868405 -0.36184287  0.0320874  -0.10144907  0.19485262 -0.11467055
 -0.06277651 -0.16693243 -0.00632808  0.45809114 -0.19867928 -0.2680504
  0.7503135   0.32078362]
[-0.4496435   0.7695529  -0.4306619  -0.26905993  0.6681895  -0.13547948
  0.888438    0.3899777  -0.9748854  -0.05762983 -0.25021797  0.619555
 -0.76335454  0.46841565 -0.36600298  0.64814407 -0.97011304  0.37606755
 -0.3021992  -0.6387319 ]
[ 0.08755894  0.01676979 -0.0743104   0.2664561   0.22883879 -0.2417451
  0.06094209 -0.1694018  -0.1285794  -0.18070742  0.42636424 -0.02150198
  0.05369179 -0.15321346 -0.5828551   0.45480722 -0.13773975  0.31436786
 -0.13658473 -0.2907653 ]
[-0.26311314  0.84025514  0.06583271  0.3075256   0.21213955 -0.37474012
 -0.04346542  0.06343731 -0.1959071   0.28459978 -0.18956926  0.6250829
 -0.01691068  0.43015105 -0.7106027   0.02320749  0.08060297  0.27715087
 -0.5402084  -0.86187744]
[-0.07488085 -0.00269895 -0.34050682 -0.32814398 -0.14307247  0.17224756
  0.7650998  -0.07326533 -0.0510246   0.6776506  -0.8120634   0.41791338
  0.43074846  0.26798594 -0.13574481  0.20444688 -0.5088353  -0.36918736
 -0.23233321  0.3587537 ]
[-6.7012769e-01  6.7215294e-01 -5.2735617e-04 -6.2288579e-02
  7.8098434e-01 -6.8838543e-01  3.2681966e-01  6.8941766e-01
 -3.3329627e-01 -8.4635951e-02 -2.5527927e-01  4.5950896e-01
 -4.9369833e-01  6.9357798e-02 -2.3976514e-01  3.2899132e-01
 -1.3895613e-01  2.6453176e-01 -5.8786672e-02 -8.2744813e-01]
[ 0.27634934 -0.596155   -0.37835488  0.11302352 -0.5375849   0.28504136
  0.10270824 -0.6508404   0.21319847  0.11660203  0.3505059   0.26391497
  0.4944013   0.04698268  0.28456214 -0.33208725  0.18681884 -0.27886
  0.2226577   0.5559715 ]
[-0.1523419  -0.10663591  0.5165996  -0.56086564  0.20245628 -0.37422672
 -0.04511675  0.09765501 -0.1492913   0.11157459 -0.03044894 -0.23104472
 -0.04376353  0.12535924  0.28013843  0.01331457  0.54940313  0.14789602
 -0.19961923 -0.23466052]
[ 6.4677551e-02  5.8002818e-01 -4.9277604e-01 -4.4777454e-04
  1.1888821e+00 -4.6742368e-01  9.0302628e-01 -1.3156506e-01
  4.2424068e-01 -3.9710873e-01 -4.2745230e-01  6.8074602e-01
 -3.7803042e-01 -2.7505949e-01 -1.4554530e-02  3.6692309e-01
 -9.0692365e-01  2.1636903e-01 -2.2722462e-01 -3.7807122e-01]
[-0.07538626  0.59898794 -0.04614378 -0.21718268  0.52635354 -0.17805137
  0.1779195   0.5303456  -0.27201194 -0.5314354  -0.2281683   0.57281256
 -0.5615791   0.15995128 -0.8811845   0.42976367 -0.538781    0.13450181
 -0.50233966 -0.43058017]
[-0.24310668  0.4118091  -0.20168208 -0.19543959  0.19148532 -0.788649
  0.4180585   0.36026937 -0.5832685  -0.14527729 -0.01364806  0.26864296
 -0.14088672  0.19147953 -0.2462247   0.34171012 -0.19521613  0.52067256
 -0.660822   -1.0806216 ]
[ 0.5703168  -0.69606537  0.31721374  0.03716403 -0.303829    0.5465464
 -0.4327535  -0.6989051   0.17258178  0.273965    0.35631955 -0.42504203
  0.8630149  -0.4382771   0.14101689 -0.42610368  0.30988982 -0.48907524
  0.44456378  0.65574646]
[-0.12124128  0.8023728  -1.4449552   0.28715348  0.80290776 -0.01475976
  1.1550049   0.05484495 -0.6925945   0.21261044 -0.61008936  1.2755327
 -0.29561388  0.65808624 -0.5519758   0.8515089  -1.9104632   0.21685424
 -0.40365642  0.04055029]
[-0.39407238  0.19664644  0.10192744  0.12961054 -0.03498534 -0.25264093
 -0.2419215  -0.03153758 -0.3443435  -0.2480949   0.06851054 -0.2293384
 -0.17561048  0.18544099 -0.17364237 -0.5363323   0.10956799  0.35631606
 -0.2932634  -0.69150305]
[ 0.09683064 -0.08045328 -0.81445336  0.5863965  -0.36602804  0.17987025
  0.47550943 -0.8528101   0.03774044 -0.23841429 -0.8892972   0.2599565
  0.29142982  0.35244575 -0.05279805  0.00969983 -0.5517001  -0.03212524
 -0.16162455  0.32858527]
[-0.10283407 -0.18704103  1.4856339  -0.07544845  0.12270445 -0.36657694
 -0.9548695   0.33848295  0.36710384  0.15740047  0.06012212 -0.6583459
 -0.49782264 -0.36138973 -0.15774463 -0.45219266  0.99666405  0.32139853
  0.01086916 -0.23569945]
[-0.2512417  -0.49791482  1.217738   -0.01709178 -0.662259    0.18277809
 -0.74564165  0.33966884  0.801785   -0.26706737  0.25611433 -0.5115607
  0.12211495 -0.74753374  0.00387305 -0.8874313   0.44263217 -0.03931323
 -0.02261969  0.11417976]
[ 0.2349867  -0.46885574  0.03672607  0.17515808 -0.5317355   0.37113237
 -0.4055185  -0.63029575  0.37454736  0.24705555  0.251252   -0.31059384
  0.38619092 -0.15013945  0.21044473 -0.31929487  0.17926683 -0.23221385
  0.19938174  0.515363  ]
layer 5 Activation
tanh
layer 6 Dense
20 1
[0.16045481]
[0.19767001]
[-0.5026777]
[0.17486082]
[0.0191781]
[0.3072666]
[0.5141627]
[-0.70003444]
[-0.3913695]
[0.18267405]
[-0.30777043]
[0.7517398]
[0.46845767]
[0.11592787]
[0.22745743]
[0.08012819]
[-0.3406688]
[-0.35893857]
[0.26037094]
[0.30925748]
[0.38883793]
