layers 7
layer 0 Dense
20 20
[-0.11110907  0.17417547  0.49985996 -0.53167135 -1.1361768   0.03479968
 -0.15525189  0.02612657  0.2986237   0.00655177  0.21104935  0.2848619
 -0.03400565  0.29081836  0.16406165  0.07705812  0.10540313 -0.4040169
 -0.3021832  -0.2767533 ]
[-1.1227013  -0.70100397 -0.27512783  0.58114165  0.04477847 -0.18909591
  0.4619328  -0.27890843  0.63788825  0.05618489 -0.2701796   0.26167423
  0.19386029 -0.06464495 -0.3450045  -0.3118769  -0.33319503 -0.23680322
 -0.17587231 -1.0747334 ]
[-0.5010384  -0.7107929  -0.25381032  0.35399726 -0.17993952  0.47564983
  0.06512548 -0.5164556   0.14691932  0.01863315 -0.4090288   0.10312578
  0.6667096  -0.09766298  0.17214367 -0.6174274   0.0936571  -0.54826266
 -0.35448477 -0.78665745]
[-0.177234   -0.22951591  0.3942488   0.1460809  -0.5015541  -0.05777019
  0.29333898  0.10999466  0.17182843 -0.4918007  -0.41447493  0.54070693
  0.02350323  0.23181099 -0.41610962 -0.1244057  -0.01081626 -0.08103739
  0.05765355  0.1315016 ]
[ 0.16056396  0.7322327  -0.06927203  0.02178698 -0.0952673   0.01316635
 -0.46200633  0.45993432  0.1345364   0.34338647  0.04218915 -0.01327695
  0.24348694  0.21507418  0.2574822   0.07538772  0.7437423  -0.00307268
 -0.1240747   0.11822712]
[ 0.22619008  0.52577525  0.868045   -0.25599292 -0.3342073   0.03199496
 -0.5651992   0.3096799   0.3904098  -0.00674948  0.29740432 -0.32780805
 -0.32065374 -0.2729776   0.00602366  0.34467712  0.3645477   0.26680425
  0.3104638   0.9631815 ]
[ 0.4380274   0.52230257  0.56458634 -0.56868845  0.2474853  -0.10517048
 -0.16222857  0.4248892   0.058176    0.2722259  -0.06014718 -0.2597292
 -0.09935134 -0.00555974 -0.16402052  0.27836558  0.22357452 -0.2518718
 -0.34790805  0.6813494 ]
[ 0.8976735  -0.5749105   0.17584862  0.42222217  0.5306839  -0.00113335
  0.67509073 -0.6946143  -0.36492586  0.06346767 -0.24231145 -0.3233593
 -0.3340491  -0.19355372  0.35867637 -0.2057823  -0.56240195 -0.10061318
  0.3254321  -0.03493654]
[ 0.42024335  0.07626236  0.06092677 -0.78258103  0.6342652   1.0492792
 -0.7267154  -0.72758245  0.23115698 -0.48096493  1.1538702  -0.08124284
 -1.3947918   0.04018433 -0.97870094 -0.81715    -0.18171391 -0.33021328
  0.83763325  0.16739812]
[ 4.4289249e-01  2.9610178e-01 -3.4677607e-01 -1.8894537e-01
 -1.3253552e-01  7.1337175e-01 -3.6705282e-02 -6.3997006e-01
 -1.6527829e-01  3.4634551e-01  2.4994071e-01 -5.1393950e-01
  8.2300121e-01 -2.5138634e-01  4.2466179e-01 -3.9155555e-01
 -5.7781505e-04  3.1938010e-01  1.5489699e-01 -4.5157489e-01]
[ 0.30093    -0.15671934 -0.00389752  0.13308653 -0.7870698   0.08423834
  0.12152322  0.7913125  -0.16774723 -0.2356349   0.04691428 -0.12605406
 -0.4098714  -0.5339755  -0.20826358 -0.11132244 -0.5101771   0.06833884
  0.14309467 -0.432787  ]
[-0.64108306 -0.214184    0.07030312  0.97124237 -0.8952024  -0.5646136
  0.28141382  0.27404264 -0.22065926  0.7512079  -0.8241324  -0.07448822
 -0.23353362  0.69261074 -0.07582684  0.11323143  0.7049121   0.34840167
 -1.0976619  -0.3085799 ]
[-0.22506493 -0.16143781 -0.3062745   0.61270493 -0.5986964   0.0972482
 -0.31288275 -0.17749348  0.28569803  0.2466937  -0.23503636 -0.10587285
  0.69534606 -0.35006738  0.501246   -0.02906714  0.38881293  0.6097091
 -0.18038061  0.01787443]
[-0.17970297  0.2279379   1.2472558  -0.19831096  0.74265605 -0.06001435
  0.45249635  1.1142144   0.06601357 -1.1453757  -0.1978489   0.5974754
  0.28003046  1.0506122  -1.4084735  -1.0100524  -0.24644622 -0.26284617
 -0.47202155 -0.46642217]
[-0.29919055 -1.0732241  -0.37544942 -1.2405026   0.03750497  0.96035814
  0.6057306  -1.1396047   0.58013964 -0.7392829  -1.1956036  -0.10576153
  0.1533559  -0.00329628  0.3876243   1.0427006  -0.94304925 -0.8858464
  0.31274632 -0.17953108]
[-0.13259578  0.33909485 -0.6547597   0.358728    0.740356    0.74941987
 -0.20826696  0.44518644  1.4919832  -0.29105437  0.13768527  0.1548479
  0.7347629  -0.9381696   0.6243575  -0.9840674  -0.18617375  0.3547173
  0.33568048 -0.29304522]
[-0.77404195  0.8276961   0.32881552  0.4405767  -0.6262619  -0.4580041
  0.6398759   0.60633624 -0.7912877   0.10714203 -0.9618325   0.47201744
 -0.20802963  0.47049868 -0.3426144   0.0919661   0.27277243  0.6413746
 -0.75531054  0.03736341]
[-0.2525881  -0.60335666 -0.7362743  -0.3414738  -0.00612467 -1.8745964
 -0.7803656  -0.47113138 -0.04902448  0.47557792  0.5871793   0.2617552
 -1.4617573  -0.86943257  1.0950048   1.9936677   0.54794616  0.577263
  0.65700805  0.69879645]
[-0.18864919  0.4259284   0.4083789   1.0542195   1.7163297  -0.82722217
 -0.47626537 -0.00296856 -1.1105539   0.80738455  0.5549391  -0.52285385
  0.10682008 -0.19010445 -0.4538684  -0.23236401  1.3185989   1.0389054
 -0.33063674  1.4319638 ]
[ 1.2205065  -1.0979506   0.49274614 -1.1761441  -0.06785817  0.6363131
  0.32747796 -1.871881   -1.4330313  -0.5324114   0.5025434  -0.6041586
 -0.40747443  0.06998406  0.10024978 -0.6935901  -1.0577286  -0.8094127
  0.8003454   0.2141231 ]
[-0.3013224  -0.09003048  0.23809524 -0.17013566 -0.19176729 -0.18056168
 -0.03928443  0.16082858  0.35566813 -0.13624132  0.1097547   0.29512164
  0.1785922   0.08199611 -0.08463296  0.29226342  0.00342228 -0.23036402
 -0.0677562  -0.18132015]
layer 1 Activation
tanh
layer 2 Dense
20 40
[-0.01692047  0.00831023  0.38274017 -0.44766232 -0.16608433  0.15349516
 -0.02414892 -0.5963369  -0.3691669   0.10693942  0.08169119  0.07009123
 -0.0146312  -0.21528727  0.42484     0.07819133  0.3476247  -0.47321638
 -0.08873574 -0.29068562 -0.2543047  -0.02915789 -0.11704977 -0.6007485
  0.1518913  -0.46652025  0.28807595 -0.11047856 -0.00547357  0.0595431
 -0.08652736 -0.22807777 -0.11041279 -0.23933077 -0.01043332  0.2057964
 -0.20162804  0.16800426 -0.2504987   0.3239125 ]
[ 0.08233642 -0.5519984   0.1149508   0.12041115  0.1748353  -0.543972
 -0.03287141  0.01726583  0.5209446  -0.07363123  0.12283115  0.3176568
 -0.02418563  0.12814055  0.1534752   0.68774974 -0.22953014 -0.02928542
 -0.00958994 -0.10328676  0.16819453  0.03933881 -0.28687418  0.17914876
 -0.40829054  0.16459887  0.2483981  -0.03566468  0.09644777  0.09400931
 -0.07625374  0.05901195 -0.00588972  0.06390832 -0.45888513  0.426894
 -0.34628564 -0.39884576  0.18296008  0.11192407]
[-0.06291841  0.25168017 -0.25431564  0.38970503  0.22137299 -0.11691649
 -0.18009983 -0.13845873 -0.23691356 -0.39271012 -0.1732897  -0.18120138
  0.18028136 -0.0214087  -0.16428477 -0.29054457  0.05012895  0.05874005
  0.34883356 -0.02569231  0.2188889  -0.5133      0.11266901 -0.5332657
  0.43590382 -0.02111438 -0.24904248  0.18125553  0.20117655  0.20924614
  0.04572357 -0.1540998  -0.04659184  0.0322299  -0.1569683  -0.10360558
 -0.11281064 -0.87564814  0.2111065   0.02264242]
[-0.08221355  0.02707209 -0.06703563 -0.21443431 -0.0392703  -0.51278996
  0.06172613 -0.16578108  0.0535202  -0.43637183 -0.00927481  0.03181343
 -0.4161455   0.56688416  0.7784991   1.8908297   0.06627978  0.22620228
  0.07531957 -0.25650764  0.3260012   0.45671803 -0.15093479  0.262483
 -0.13068216 -0.02001275  0.15082438  0.07298567  0.430915   -0.0246029
 -0.06514304 -0.02854481 -0.10933305  0.24485768 -0.20805407 -0.18660168
 -0.14991808 -0.41450673 -0.5773123   0.21701348]
[ 0.02933986  0.08140893  0.04637555  0.5437102   0.5494388   0.2575733
  0.16903256 -0.1928714   0.7854697   0.8350299   0.22669235 -0.47022262
  0.84562826 -0.33073607  0.7567145  -0.03287018 -0.45584333 -0.28844282
 -0.61017615  0.29636222 -0.3637956  -0.18469894  0.0098242  -0.69477415
 -0.01796392 -0.73783445 -0.0178232   0.06525485  0.63236445 -0.26498044
 -0.3087407  -0.26351565 -0.28545922 -0.7506117   0.47527176  0.23526007
  0.22141615 -0.8193455  -0.09252977 -0.7316641 ]
[-0.10923328  0.9836437  -0.09241035 -0.38351247  0.7127257  -0.06450165
  0.6540049  -0.47044876 -0.10623761  0.44832522  0.06096596 -0.71846515
 -0.3284892  -0.53978866  0.16662787 -1.3060131   0.8459434  -0.34884924
  0.08480541  0.2074971  -0.2650529  -0.6193186  -0.05247424 -0.52763164
  0.5104068  -0.1814758  -0.20298333  0.61194134  0.02775452  0.4633888
 -0.10203855 -0.0984825  -0.2851211  -0.5542245   0.24724495  0.07604837
  0.14812572  0.04707837  0.07032993 -0.10316382]
[ 0.04059357 -0.21755391  0.06538793 -0.4978538  -0.05792989 -0.62480104
 -0.13978647 -0.0582562   0.23527607 -0.22081019  0.02786296 -0.34993675
 -0.18999194  0.04790091 -0.20338841 -0.48150924  0.1103438   0.35974473
  0.08791223 -0.13847098  0.2114562  -0.546586    0.20256549 -0.35794136
  0.49558568  0.09147396 -0.09829282  0.08747207  0.29031184  0.21314153
  0.24695806  0.33715236 -0.20905638  0.12065478 -0.37868142  0.15499839
 -0.1597922  -0.5707699  -0.12954558  0.19484548]
[ 0.22398978 -1.0321256  -0.09901254  0.41965714 -0.29101446 -0.64066005
  0.02006838  0.33430487  0.6376319  -0.5747791   0.00700018 -0.36763874
 -0.0735137   0.0871788  -0.43724275  0.9219226  -0.20532858  0.64393646
  0.35499534 -0.3273768   0.33338743 -0.09887169  0.04586817  0.09071653
 -0.59456575  0.3635725  -0.01222255  0.06593654  0.4513201   0.11877096
  0.33702645  0.13831905 -0.60476875  0.5651224  -0.59893423 -0.27182084
  0.2814519  -0.6093641   0.35482767  0.25832736]
[-0.15008192  0.20996551  0.07590961 -0.01742311 -0.06587188  0.61161625
  0.1278403  -0.24625644 -0.58185285  0.07011788  0.27304867 -0.51699287
 -0.07513682  0.23167692 -0.12518787 -0.4737387  -0.32956785 -0.43686265
 -0.49956384 -0.1042114  -0.08023586 -0.35404912  0.28586605 -0.07122681
 -0.7545786   0.08196288 -0.06451736 -0.2439484   0.22549932 -0.39408374
 -0.10555775  0.21639253  0.45107952  0.13749567  0.19038518  0.08098593
  0.10589809  0.84647214  0.38127166 -0.21847928]
[-0.29966885 -0.0963741   0.15030587  0.04217494 -0.1448655  -0.37781963
 -0.02212799 -0.20733006  0.03493965  0.02703472  0.06544783  0.3964246
 -0.00816527  0.28437507  0.14352097  0.6702376   0.03484419 -0.18494953
 -0.25709328  0.18993333 -0.02497962  0.3193567   0.11914559  0.28508306
 -0.08898703  0.10103317  0.11851098  0.18882129 -0.14687425 -0.3253635
  0.39031503 -0.19631734  0.25760573 -0.17422909 -0.05469436  0.25449863
 -0.22039422  0.19005615 -0.07777835  0.06242799]
[-0.42660534 -0.31167057  0.30770278 -0.03373987 -0.5960782   0.74526525
 -0.25629357 -0.539777   -0.9493527   0.82329583 -0.20674768 -0.2706812
  0.559616   -0.0266983   1.33768     0.06781781 -0.7862378  -0.79972875
 -0.7071668   0.27620614 -0.51493955  0.3341731  -0.1711873  -0.22797611
 -0.15377629 -0.46823516  1.1835488  -0.2867044   0.9460713   0.2297202
 -0.1259836  -0.37447095  0.29561314 -0.6178512   0.6488915   0.38989013
  0.5118927  -0.09900046  0.0143145   0.30723882]
[ 0.1489462   0.09306279 -0.20611544 -0.05302254 -0.2729156   0.25094172
  0.21122167  0.15851274 -0.06776    -0.23023595 -0.2160095  -0.4683838
  0.2559331   0.24504589 -0.20349313 -0.43282083 -0.47703323  0.03202701
 -0.02376096 -0.04691542 -0.0940675  -0.29901546  0.2480611   0.08642369
 -0.33295202  0.07605508 -0.07419211 -0.23219158  0.00227865 -0.24673279
  0.04873408 -0.2390528  -0.02859609  0.55899745  0.00211584 -0.29703718
 -0.18243901  0.28923765  0.30690852 -0.13658425]
[ 0.12787485  0.03178943 -0.14013258  0.01357879  0.28505552 -0.17231207
 -0.14913179  0.18659426  0.334248   -0.1242996  -0.03845018 -0.2085785
 -0.5069607   0.13074744 -0.3136837  -0.0479324   0.54523104  0.08449563
  0.4701794   0.13146721  0.50315243  0.73099315  0.25027165  0.5905723
 -0.00112316  0.54565084  0.04920407  0.47703817 -0.53127193  0.11898588
  0.6502999   0.2394094  -0.09371734  0.4663372  -0.622092    0.3578667
 -0.3792193  -0.64248353 -0.22754316  0.13449915]
[-0.03404889 -0.0006409  -0.07650183  0.42782596  0.44359016 -0.17092462
  0.22862068  0.30235857  0.08339176 -0.40326375  0.02175346 -0.5192972
  0.20435603  0.1006404  -0.32442144 -0.4116843   0.04625113 -0.06794624
  0.20328017 -0.23890674 -0.12961766 -0.43012503 -0.09674031 -0.18641046
  0.3168043   0.20529932 -0.36035836  0.452693    0.10839228  0.14176352
 -0.04888976  0.3296574  -0.52121246  0.00160419  0.17356494 -0.1918002
  0.1706083  -0.40577996  0.12531896 -0.0382238 ]
[ 0.03697515  0.03776657 -0.15268187 -0.54668105 -0.48954588  0.45115104
 -0.6069029   0.15510303 -0.11203291  0.19739287  0.0188599   0.9697583
 -0.5243695  -0.07058813  0.00714334  0.08547956  0.3936144  -0.07776117
 -0.41756684  0.01761971  0.10735202  0.4388703  -0.19668181  0.6330605
  0.16302472  0.09584684  0.25350013 -0.66550785 -0.47591826 -0.18139574
  0.3471284   0.07495154 -0.13981102 -0.10356862  0.06970463 -0.19538175
 -0.2064825   0.31016913 -0.36721975  0.0400825 ]
[-0.05920666  0.04468677 -0.20433928 -0.02286041 -0.50876987  0.29667553
 -0.02782571  0.22928664 -0.20138547 -0.15769812 -0.3907874   0.7137161
 -0.540394   -0.16345793 -0.20040241  0.16397063  0.26111376  0.32638344
 -0.16010824  0.2943356  -0.16999778  0.15173288 -0.1628124   0.53818625
  0.08477934  0.3590084  -0.29071215 -0.13622837 -0.76376444 -0.47699037
 -0.06681629  0.0398496   0.6871342   0.48839504  0.2133705  -0.21902215
  0.0799902   0.2020212  -0.26449618  0.22071506]
[-0.09462349 -0.3469471  -0.3087532   0.8576535   0.16403645 -0.50338787
 -0.29104334  0.1972203   0.64960057  0.0770376   0.10567184  0.4630446
  0.06607711  0.24076247  0.39878076  0.4873425  -0.67265123 -0.27153632
  0.12330486  0.16269998 -0.06871387  0.6046071   0.18221171  0.571175
 -0.48007     0.4368611  -0.12855622  0.24719414  0.42548028  0.16668688
  0.20142925 -0.01093071  0.47660708  0.4690365  -0.18422997  0.06216205
 -0.24036281 -0.08609899  0.1291072  -0.09573837]
[-0.20562084 -0.24797128  0.1930074  -0.20243284  0.11694657 -0.26028314
  0.0955266  -0.09607914  0.01116807 -0.0943719  -0.00243451  0.16662768
 -0.20477943 -0.02992366  0.69751155  0.9148496  -0.63294065 -0.37730286
 -0.12812427  0.16777518  0.12423737  0.19158417  0.01935589  0.5895424
 -0.3003183   0.01848124  0.49421176 -0.23891664  0.34179997 -0.35618037
  0.15973037 -0.217689    0.27035204  0.09221032  0.00269421  0.35105753
 -0.18185444 -0.12022471  0.31017485 -0.00554325]
[-0.02919113  0.22426856  0.23734213 -0.33466375 -0.30564943  0.24528717
 -0.2307568  -0.16765068 -0.15923138  0.3796388   0.28205612 -0.00743302
 -0.03394566 -0.29571667  0.06634897 -0.34680003 -0.00473069 -0.10558615
  0.03014734 -0.04133251  0.35385817  0.31922463 -0.23886266 -0.1133707
 -0.01034109 -0.45907983  0.18577695 -0.40051866 -0.42133927 -0.04119004
  0.19503233  0.19130647  0.41926208  0.09818061  0.15200669  0.3133378
 -0.16565883  0.60299927 -0.36574185 -0.22125965]
[ 0.08535292  0.21582896  0.13777536  0.20648585 -0.10620189  0.00538997
  0.21029559  0.02383081 -0.06520291  0.08512764  0.3542238   0.17724338
  0.68471235  0.21071242  0.32930455 -0.09297906 -0.36471397  0.16731608
 -0.11293371  0.21351455 -0.11165536  0.11674339 -0.18733458 -0.10227694
 -0.17777893  0.15818195  0.2651316   0.1368919   0.29009482  0.02830987
 -0.01644742 -0.08098644  0.62956196  0.17188811  0.25516587  0.13868168
 -0.27255833  0.08384177  0.39323616 -0.04547866]
[ 0.16846418  0.07898866 -0.210678   -0.1901018  -0.18700393 -0.01965414
 -0.22893697  0.18662165  0.11729269 -0.15707162  0.0048542  -0.3612805
 -0.01546103  0.57062477 -0.14617547 -0.14410807 -0.45739058  0.3146546
 -0.13343875 -0.40049395  0.4452599  -0.16852598  0.2655139   0.02192863
 -0.6869613   0.43766066  0.08879694 -0.16241494  0.13897805 -0.44639745
  0.5223414   0.2531321   0.22971489  0.7423139   0.04267533 -0.22308034
 -0.54992384  0.52886117  0.3671057   0.04919111]
layer 3 Activation
tanh
layer 4 Dense
40 20
[ 0.03566996  0.03945189  0.13403863  0.07191662  0.23603755  0.28520373
  0.46641058 -0.2662415  -0.17486848  0.14398888 -0.13511956 -0.13829522
 -0.1424177  -0.1930645   0.1597014  -0.15254794  0.268758   -0.02602594
  0.018786   -0.3888215 ]
[ 0.12309512  0.18222265  0.06818964  0.06489076 -0.3242642  -0.10413777
  0.22180107  0.42738897  0.04246521 -0.13206632 -0.10295119  0.20103087
 -0.40361813 -0.4091807  -0.05739735 -0.09894695 -0.04258469  0.24287271
  0.18973453  0.04838077]
[-0.02630425  0.03869159  0.5047171  -0.04013636 -0.05581601 -0.07196543
 -0.2707627   0.0359752  -0.10032069  0.11539206  0.1731999  -0.06060433
 -0.26946637  0.27591088  0.03215567  0.24031721 -0.04095906  0.202029
 -0.01284766  0.12758988]
[ 0.09669454  0.01921566 -0.03456265  0.1424881   0.43285614 -0.07768094
 -0.22590819 -0.01842025  0.14096686  0.1915394  -0.26377025 -0.28374356
  0.61367613 -0.22863573  0.20607366  0.1050571  -0.05743797  0.00966341
  0.15281542 -0.4533194 ]
[-0.11456815  0.146684   -0.20701283  0.37966332 -0.19609113  0.02651689
 -0.19063245  0.15297946  0.27351987 -0.06038855 -0.10195091 -0.05698492
  0.12167396 -0.262852    0.40577006  0.06367542  0.02882207  0.05081685
  0.26154608  0.07436138]
[-0.03117384  0.18468508 -0.08613107 -0.1629462  -0.37737277 -0.22589387
  0.56298214  0.1359849  -0.32038817 -0.00205691 -0.00448238  0.436041
 -0.6823519  -0.03007841 -0.78887814 -0.02378935 -0.05978842 -0.04378665
  0.329703    0.07072878]
[-0.18406525  0.1405508  -0.0081213  -0.2581477  -0.09113219 -0.23630784
  0.44297022  0.17513524  0.18921392  0.02372436  0.09427051 -0.05450686
 -0.24959047 -0.2010355   0.2533453  -0.1502643  -0.21563756  0.08543186
  0.19402705  0.00955471]
[ 0.15843472  0.06123563  0.04232297  0.11796914  0.1498726   0.04904042
  0.5332696  -0.27425402  0.19258861  0.41431946 -0.553932   -0.07519291
  0.13939665 -0.12464882  0.21441835 -0.05293347  0.16579774 -0.08504642
 -0.38029417 -0.6636709 ]
[-0.21230513 -0.03589195 -0.15874949  0.424422    0.40723696  0.41851142
  0.23487198 -0.2863309   0.02275942  0.06310333 -0.3253853  -0.297046
  0.36537844 -0.16662365  0.33492276  0.17949593  0.01001594 -0.16053803
  0.07515831 -0.15380584]
[-0.19703051 -0.16892378  0.27360848 -0.13492513  0.06329938 -0.06434985
  0.4755331   0.39415008 -0.03851672 -0.03721193  0.0782898   0.16311137
 -0.6737207  -0.07759891 -0.11441982  0.46017733 -0.08114716  0.2007837
  0.58100677  0.25375655]
[-0.3031642   0.04214876  0.0051268   0.22808735 -0.08584877  0.17523363
 -0.1475234   0.25647786 -0.19866233 -0.03157355  0.05044552  0.00440998
  0.01280806 -0.30549303 -0.00557894  0.0359429   0.08541802  0.20691684
  0.20144211 -0.1126624 ]
[ 0.49321756 -0.1010458   0.07876313 -0.24730407 -0.40252548  0.2213015
 -0.29688263  0.02382037 -0.4957395  -0.36227483 -0.11464284  0.045742
  0.43384656 -0.14698951 -0.20945713  0.50510025  0.04798889 -0.0159297
 -0.6323406   0.09995931]
[-0.33849838  0.07679825  0.31579834  0.1134175   0.3932719  -0.38423496
 -0.6013516  -0.02333413 -0.13515395  0.15479752 -0.14577451 -0.11746464
  0.34822974  0.28303432 -0.18981728  0.1403123  -0.10458079  0.25513044
  0.30847958  0.10615136]
[-0.15678087 -0.0097885   0.00796291 -0.11388275 -0.07367101  0.18704298
 -0.33050525 -0.19788337  0.06259798  0.33053154 -0.00599577  0.09167331
  0.1485      0.31115982 -0.11228433 -0.11703784  0.44408318 -0.12681341
 -0.05249079 -0.34375697]
[-0.13696888 -0.17609815 -0.08619275 -0.03961864  0.3350985  -0.19103158
 -0.6074597   0.03011303 -0.00758665 -0.10455617  0.1494571  -0.07062589
 -0.14614303  0.71763253 -0.2063452   0.36071464 -0.07526288  0.14713582
  0.47051507 -0.14651431]
[ 0.49842727  0.20401338  0.18706469 -0.5558196   0.15547904 -0.01318338
 -0.2885128  -0.12202415  0.28921282 -0.35797453 -0.33221516 -0.38032833
  0.6089584   0.27957177  0.44872382  0.693665    0.42137    -0.08818633
 -0.8199489  -0.10747022]
[ 0.2772547   0.22440219  0.12097354  0.03037428 -0.51991534 -0.10186247
  0.2966107   0.22151887 -0.07541841 -0.37339693  0.02981258 -0.21775158
 -0.45514727 -0.34942198  0.26043805 -0.1548302  -0.1548305   0.10017706
 -0.01608006  0.31721777]
[ 0.19851673 -0.17128825  0.07550512  0.09329086  0.09735809  0.14101472
  0.3286982  -0.6710767   0.02279768  0.30555943 -0.27366072  0.00792942
  0.20115304 -0.1051216   0.29127046 -0.21014443  0.5166688  -0.06595735
 -0.2586428  -0.43928814]
[-0.11631832  0.21622176 -0.08650548  0.1619087  -0.1431998  -0.02136989
 -0.17373449 -0.4818005   0.15985462 -0.02202716  0.06909578 -0.31253994
  0.43861777 -0.08563397  0.36139333 -0.29109186  0.20689264 -0.01687586
 -0.1598913  -0.2576519 ]
[ 0.09998097 -0.02382045  0.22280571  0.26471144 -0.13546866 -0.29509094
 -0.48236117  0.12838124 -0.12402038  0.11987512 -0.22151048  0.03073134
  0.24585739  0.14597528 -0.07441208 -0.0724633  -0.15610969  0.1745493
  0.15686728 -0.24584915]
[ 0.16841981  0.18225507 -0.02647835  0.23423956  0.0092444   0.4520315
 -0.02465942 -0.28900713 -0.14870551  0.21115825  0.16110478 -0.03419806
  0.11344159 -0.09725784 -0.19998126 -0.149368    0.4833658  -0.25286403
 -0.24521634 -0.32967025]
[ 0.28189784 -0.12421358 -0.00763293 -0.15160707 -0.36999863 -0.13173883
 -0.26083145  0.23199677 -0.12990409 -0.02405046 -0.09090676 -0.12594916
  0.21614894  0.29285294 -0.4846522   0.24808569  0.12713745  0.06192342
  0.01073935 -0.20283715]
[ 0.01327707  0.06344433 -0.3080557  -0.05090919  0.16283098 -0.04934463
  0.24174784 -0.27901766  0.10760269 -0.20298089 -0.17587923 -0.0826367
  0.00793152 -0.16951364 -0.10895244  0.03049794 -0.12210187 -0.22168343
 -0.17089553  0.02676908]
[ 0.36802855  0.16202165 -0.12086307 -0.31653005 -0.2947063   0.3744479
 -0.03874505 -0.24997926 -0.37215123  0.21512102 -0.60366315 -0.14359261
  0.20553465 -0.1142083  -0.14748818  0.64502776  0.0907868   0.02074323
 -0.5524776  -0.05679454]
[ 0.31671005 -0.01193339  0.19920543 -0.20528987 -0.28542888 -0.52582407
  0.13949002 -0.10671575 -0.13159779 -0.7013903  -0.05680708 -0.16152816
 -0.09339499 -0.3661423   0.41420412  0.1368364  -0.34931645 -0.08772081
  0.19558665 -0.28147218]
[-0.2426125   0.10823885 -0.30667746 -0.25179383 -0.27762815  0.25984195
  0.02744205 -0.34318444 -0.06423727  0.84860885 -0.43313286 -0.09854237
  0.24859922 -0.3273551   0.20204705 -0.06449386  0.4221038   0.2475935
 -0.5718353  -0.17683822]
[ 0.03172962 -0.09274413  0.14599402 -0.01894327  0.07204289  0.10936058
 -0.8358738   0.19061735 -0.21891913  0.34121677  0.49269924 -0.17898186
  0.11165074  0.67574465 -0.38658997  0.4395492  -0.12315296  0.22435845
  0.1857095   0.05999444]
[-0.38811255  0.25148794 -0.06362115  0.23008247 -0.23996204  0.16153646
  0.03939576  0.16054678  0.26727805 -0.07760729 -0.08342811 -0.15908577
  0.33347806  0.07664002  0.47999543  0.01718111  0.12835924 -0.07893491
  0.183064   -0.2747699 ]
[-0.2292806  -0.11993508 -0.12248553 -0.00868649  0.18149701  0.10960925
 -0.36706725 -0.09919917  0.06829072  0.23916145  0.03995236 -0.11588886
  0.6727698   0.5111288  -0.04627174  0.16212706 -0.01686475  0.10551624
  0.43300462  0.03835243]
[ 0.04865977  0.07489442 -0.13854149 -0.14603822  0.08154247 -0.15681778
 -0.1404513  -0.10357811  0.01307542 -0.19846505  0.21025862 -0.34897313
 -0.00507763 -0.11017481  0.3208636   0.05960969 -0.24468105  0.1422979
  0.03437821  0.26907003]
[-0.18392563  0.03350634 -0.2796131  -0.22661364 -0.23276828  0.3867378
 -0.01690589 -0.12318236 -0.11475576  0.21579364  0.09346697 -0.09338668
 -0.01300318 -0.34915897 -0.3113615  -0.08251832  0.46726927 -0.28513622
 -0.20472014 -0.3868991 ]
[-0.02222651 -0.04977092  0.11379032  0.10692195  0.06294857  0.25192472
  0.52491397 -0.17166607 -0.08698345  0.01552993 -0.04803466  0.15294866
 -0.08251288 -0.42940238 -0.08360223 -0.20112586  0.3167589  -0.01424823
 -0.03808991  0.07053822]
[ 0.30951518  0.11793424  0.16667026 -0.13075598  0.16205876  0.2910809
 -0.4525742   0.0620289  -0.40057817  0.16052029 -0.2574021  -0.0121095
  0.36947367  0.15614985 -0.67469335 -0.17737618  0.22004567 -0.0123407
  0.25210735  0.01889272]
[-0.08376858  0.05278726 -0.1774232   0.21572353  0.02190264  0.38072374
  0.15713874 -0.08665871 -0.0041268   0.28816754 -0.22950983  0.03528712
 -0.08016424 -0.28685492 -0.10304313 -0.4153244   0.09745655 -0.19651651
 -0.44565523 -0.5286467 ]
[-0.03807525 -0.12848297  0.0062808  -0.3816881  -0.00174552 -0.0006854
  0.03966362  0.18793073  0.1057048  -0.28060505 -0.22280057  0.09628987
 -0.3813842  -0.19787042 -0.39691794 -0.00654585 -0.19536872  0.05895103
  0.26390588  0.3269107 ]
[-0.13059331  0.25343317 -0.03492072  0.1768246  -0.11988482  0.35578787
 -0.34169465  0.23126507 -0.09642203 -0.2384401   0.25046757 -0.00576994
  0.14536661  0.31021643 -0.14913304  0.2613848  -0.00604798  0.03507569
  0.19553512  0.23741008]
[-0.10867728 -0.13037996  0.05981459 -0.2814438   0.1027713  -0.32563967
  0.19889624 -0.26453277  0.11046673 -0.17911921  0.13441092 -0.03395401
  0.38209423  0.11439781  0.2558225  -0.08184152 -0.5179741   0.21608706
  0.15197806  0.1148048 ]
[-0.00090066 -0.26887393  0.03155529  0.04062228  0.0659757   0.0995625
 -0.1540402   0.16639167 -0.27847293 -0.25592324  0.23511754  0.34275502
 -0.25300172  0.07403808 -0.7525104  -0.61270666  0.14347644 -0.13186592
  0.24627815 -0.11243609]
[-0.06691978  0.1016193  -0.10343428  0.44559714  0.12472139  0.04305186
 -0.28627104  0.0538539   0.19294499 -0.03680405 -0.11803146 -0.06483189
  0.2086676  -0.02685624 -0.16002743 -0.22990108  0.32388732  0.10834168
  0.0228814  -0.11572514]
[ 0.06586975 -0.03303635  0.19869524 -0.13797225 -0.00788663  0.03346184
 -0.39358556 -0.5452548   0.05231188  0.2688626   0.29244646 -0.04484092
 -0.20713575  0.3325038   0.1186231   0.14492123  0.09596889 -0.00886653
 -0.29112348  0.13511541]
[-0.21688119 -0.10695168 -0.01197845  0.21999606  0.19539322  0.19152983
  0.02614165 -0.0143797  -0.04328377  0.29195708  0.07567306  0.10162179
 -0.12010597  0.12466168 -0.35364655 -0.24711898  0.07679857  0.07391102
 -0.22185211 -0.16626689]
layer 5 Activation
tanh
layer 6 Dense
20 1
[-0.03184059]
[-0.01907386]
[-0.0042715]
[0.0061554]
[0.0520329]
[0.00011945]
[0.04254448]
[-3.89762e-05]
[0.02122921]
[0.01143631]
[0.10212799]
[0.02959039]
[-0.03948142]
[0.0395645]
[-0.03522614]
[-0.0374487]
[-0.0059271]
[0.01407009]
[0.12566572]
[0.0145189]
[0.12435838]
