layers 7
layer 0 Dense
20 20
[ 0.7327674   0.5349507   0.08099384 -0.44759023  0.40749848  0.6014661
  0.5182086   0.3925665  -0.3791658  -0.5526234  -0.10430364 -0.6781137
 -0.05791762  0.41825426 -0.02699413  0.301395   -0.31389818  0.09365603
 -0.6502115   0.50170344]
[ 0.8472394  -0.33604962  0.78601027 -0.5023858  -1.0575014   0.18285988
 -0.2696964   0.8633111   0.38373914  0.14795862 -0.15262696  0.8787996
 -0.19603589  1.3465986  -0.93002015  0.03661544  0.08846036 -0.9705165
 -0.22169334 -0.8186273 ]
[ 0.6358064  -0.3307308   0.6350459  -0.78160036 -1.1873262   0.17618123
 -0.29897746  1.1669732   0.8352228  -0.02705285  0.29008698  0.80163
 -0.5671643   1.3869334  -0.49440676  0.27235863  0.39041808 -0.7200716
 -0.39436156 -0.4072322 ]
[ 0.8795945   0.44597104  0.38628286 -0.37278777 -0.09488066  0.3776608
  0.04775563  0.840134   -0.4714186  -0.0867582   0.1159954  -0.06894273
  0.11753082  0.3278536  -0.40303177  0.10654536 -0.57462597 -0.07192361
 -0.42670465  0.22562842]
[-0.85393643 -0.7025169  -0.17384562 -0.30849743 -1.0230985  -0.01315315
  0.586204    0.01846617 -0.33119905 -1.0916327   0.40627086  0.4090863
 -0.694712   -0.14515512 -0.35023424 -0.05611411 -0.12882218 -0.5572592
 -0.519125   -0.27023536]
[-0.48986608  0.7262681  -0.90261316  0.4710296   1.3854077  -0.38753203
 -0.28948072 -0.02456895 -1.0003499   0.44126233  0.26385927 -1.1389331
  0.3510829  -0.61453336  0.7236452   0.02523088 -0.36959085  0.66385895
  0.4213395   0.45422623]
[ 0.04470688  0.9925354  -0.28053978  0.40733388  1.1546317   0.29882056
  0.19335009 -0.08964562 -1.0065525   0.63534606 -0.1465352  -0.7979978
  0.18349163 -0.8272799   1.1181422   0.06741281 -0.3903686   0.5782651
  0.23090838 -0.24598534]
[-0.62465245 -0.5374468   0.02580782  1.1260214   0.11507823 -0.06419195
  0.02983714 -1.5417022   0.8817797  -0.08630031 -0.63344127 -0.64549303
  0.80403024 -0.47979975 -0.00397905 -0.14008245  0.33068365  0.82499653
  1.2339041   0.9372606 ]
[-7.1636599e-01 -1.0441523e+00  6.0206598e-01 -4.0279517e-01
 -8.1439042e-01  3.6831430e-01  1.0100940e+00 -7.6169169e-01
 -1.0146949e+00 -8.1523943e-01  8.0953258e-01 -8.6045277e-01
  4.9330242e-02  7.2524063e-02 -4.7943366e-01 -4.2912025e-02
 -5.1247907e-01 -7.4773876e-04 -1.9840916e-01  5.4711646e-01]
[-0.96214473 -1.4147226   0.91092587 -0.12468814  0.2905687   0.11112452
  0.96622676  0.7902144  -0.5223284  -0.23829702  0.52385795  0.2689673
 -0.4656351  -0.69396085 -1.1847317   0.56777173 -0.37514374 -0.6106321
 -0.30161783 -0.11754444]
[ 0.84120965 -1.3054532  -0.7391417   0.40237892 -0.8938916  -1.0584884
 -0.17797577  0.13990332  1.5872401   0.7082153   0.21232279 -0.9503089
 -0.93502885 -0.86847746  0.10639232 -0.49806058  0.21104124 -0.25084165
  0.20666112 -0.9600791 ]
[ 2.2775555   2.4414074   1.359827   -0.32857895 -1.7453982   1.6613551
  2.104774    0.15808374  1.6168886  -1.0302064   0.6016501  -0.04785044
  0.6494823   0.5271928  -2.4269407   1.2284967   0.08506998 -0.65491736
 -1.3291988  -0.02784407]
[-1.3354589  -0.8358607   0.03799009 -0.35730243  0.15207951  0.7559659
 -0.3225001  -1.0808954  -0.32802913  0.2530278   0.07164353 -0.84998834
 -0.3211337   0.41222286  0.42633775 -0.5834552  -0.63640636  0.06527454
 -0.3575208   0.15598595]
[ 0.5748855   0.5469886  -0.31591004 -0.09355482 -0.2614146   0.01388594
  0.24688253 -0.4928641  -0.37721226 -0.18613662  0.0756148  -0.31868413
 -0.45540655 -0.6515797   0.03977808  0.10436899  1.0312278   0.35282096
  0.2386355  -0.22409663]
[-0.84063846  0.7287462   0.15728669  0.4247718  -1.6662655   0.30705142
  0.4742656  -0.54104257 -1.8102889   0.04697253  0.76491135 -1.201626
 -0.3662933   0.1804494  -0.24130961  0.90609807 -0.46728393 -0.22801875
 -0.7738714  -0.9153842 ]
[ 1.0916239   0.46677426 -0.11631978 -0.07204734 -0.463329    0.4284703
 -0.88892156 -0.02052339  3.0003893  -0.18291627 -0.64812887  0.65329957
  0.95654994  1.9642195   0.23573151 -0.68265456 -0.9107504  -0.01247062
 -0.4698005  -0.7621958 ]
[ 0.7980218   1.1098188   0.68458813  0.02649576 -1.0262204   0.9416633
  0.8107899   0.88448787 -1.0656993  -3.4149709  -0.0772107  -0.13510107
  1.4588665  -0.382902   -1.3605005   0.4577644   1.0182086  -0.19279866
  0.7887682   1.5858055 ]
[-0.75365597  0.5962807  -2.3907743   0.4382329   0.03933913 -0.83065563
 -2.5900068   0.83766204  1.0637295  -0.14080295 -2.7441945   0.29440296
  1.828793    1.929965    2.0443633  -3.2126832  -3.1202068   0.41275555
  1.0070724   0.82602936]
[ 0.33480552  0.65448314  0.5571384  -0.72328544  3.7129738   2.1396708
 -0.2455349  -0.12035805 -0.28741464 -0.80125844 -1.6059219   3.2265942
  1.2138449   0.8943514  -0.3032088  -0.7612781   0.48668253 -0.01618726
  0.30325437  2.3192558 ]
[-0.99470156 -1.2934831   0.82598186  0.42797694  1.5299698   0.12248134
  0.76160294 -0.11082666 -2.437996   -0.429207    0.24162038 -2.994513
  0.6987361  -0.6818479  -0.09506581  0.15625614 -0.6931464   0.88172454
  1.1825927   3.6593037 ]
[ 0.5721181   0.30015814 -0.0592628  -0.4259489   0.20430616  0.08115175
 -0.07914081  1.029281   -0.08530585  0.30553082  0.23551536  0.28348166
 -0.4832297   0.38824168  0.08794534  0.18744019 -0.2083626  -0.05395724
 -0.54571384 -0.4723506 ]
layer 1 Activation
tanh
layer 2 Dense
20 40
[-0.16634145  0.7856685  -1.1610073  -1.2847513   1.469694   -0.5823818
  0.24980752 -0.23765993  0.8341669  -1.719725   -0.22319189  0.33944947
 -0.07888856 -0.01705831 -0.0251314   0.7325314   0.10807232  0.55874527
  1.114483   -0.56489307 -0.249083   -0.9029722   0.55863345  0.9171702
 -0.4893605   0.96226174  0.70894235  0.6952961  -0.29662818  1.1834788
 -0.24397181  2.0600004   0.6336188   0.27296892 -0.2517943   0.4680033
  0.74900675 -1.3762662   0.5577654   0.12013447]
[ 0.19821893  0.18694122 -1.0106686  -1.2591094   1.641856   -0.0715817
  0.3528101   0.46350688  1.0020963  -1.079217    0.2803325   0.21889667
  0.0882094  -0.3052772   0.5451039   0.20388825 -0.42744642  0.6979541
  1.1215694  -0.35961714 -0.02984079 -1.0852311   0.51146007  0.34305635
 -0.88685167  0.677011    0.728474    0.38076982  0.10974544  0.9598267
  0.35192788  1.1468717   0.24553074  0.53198606 -0.31038234 -0.2042224
  1.006327   -0.9240643   0.62978554  0.14119272]
[ 0.3548339   0.14914674 -0.14755072 -0.38480437 -0.50628114  0.5527182
 -0.7093124  -0.24741054  0.45552182  0.24985804  0.716682    0.81702673
  0.1217695   0.9793411  -0.4512104  -0.22281611  0.05482781 -0.07194547
  0.22179128 -0.03818702 -0.42397204 -0.14828394 -0.29850644 -0.29074177
 -0.1326433   0.412727   -0.3088267   0.01698852 -0.10032852 -0.59816355
 -0.01520475  0.14897412  0.5374317   0.23967382  0.8118587   0.423411
 -0.5831822   0.34267527 -0.29989636 -0.08670834]
[ 0.524766    0.154516    0.42359424  0.28469917 -0.06257296  0.68382347
 -0.01689683  0.45375594 -0.3386722  -0.0744106   0.15700793  0.31072944
 -0.04093087 -0.16193202 -0.05547114 -0.8507894   0.36009684 -0.02534257
  0.19842678  0.10547322 -0.34252587  0.1106909  -0.49904194 -0.6571374
  0.13372786 -0.5579499   0.33814272 -0.73301995  0.45652568  0.10981174
  0.18690653  0.12847951 -0.69289905  0.63202107  0.11890337  0.0673045
 -0.23811804  0.45972785  0.17204331 -0.4032981 ]
[ 0.3945557   0.4820184   0.48375723  0.63360375  0.2868201  -0.27366477
 -0.29648528 -0.48662537 -0.88421917  0.5843971  -0.29997033 -0.19350386
 -0.7605841   0.9779163  -0.13108383 -0.00155797  0.41942582 -0.65758973
 -0.30812594 -0.08302779 -0.41850358  0.7875317   0.20334867  0.23501582
  0.05034889 -0.26319492 -0.05345039  0.14747778  0.3489728  -1.0393492
  0.48543704 -0.45324814 -0.23112465  0.23332936 -0.7085123  -0.44690874
  0.5414131   0.33713883 -0.31612432  1.3759884 ]
[-0.283469   -0.37129268 -0.05544342  0.05397411 -0.60683376 -0.44114655
  0.18130039 -0.27250898  0.34388223  0.36486506  0.19534715  0.15688795
 -0.4439969   0.3543542  -0.29563802  0.07122015 -0.34466493 -0.40111396
 -0.17401975 -0.21687758  0.32950807 -0.89825284 -0.00134391  0.2452174
 -0.47718     0.7892408  -0.16832438  0.04228526 -0.66066706 -0.17648515
  0.19275454 -0.3196676   0.9424695   0.12008835  0.46686447  0.36563617
  0.24347039 -0.11931247 -0.01459022 -0.03604707]
[-0.06737375  0.7537178  -0.33960715  0.32444942 -0.394604   -0.11715733
 -0.50650334 -0.57853675  0.5861746  -0.13745652  1.3268164   1.00878
  0.66267765  0.89360476 -1.7177461  -0.44778067  0.1475212   0.29709658
  0.47577703  0.7671969  -1.0517263  -0.5216112  -0.12124719 -0.04636993
  0.4087716   0.8564326  -0.27141318 -0.23758236  0.24858326 -1.1300466
  0.919515   -0.13295968  0.02336708  0.78331286  1.5837233   1.174117
 -0.19206627 -0.02003235 -1.042551   -1.3812604 ]
[-0.6866867   0.46791208 -0.6963739  -1.0842265   0.3477662  -0.59862995
 -0.5326659  -0.35040453  1.2126406  -0.899789    0.11159014 -0.03343607
  0.28567395  0.2600334   0.5275054   1.0797025  -0.36998573  1.162412
  0.51155424 -0.6250728   0.78601265 -0.7080982   0.87414825  1.2103798
 -0.38896665  0.28772524  0.14078557  0.76571065 -0.6861067   0.13940568
 -0.18656534  0.56938624  0.5715247  -0.43609613  0.4813614  -0.19413722
 -0.00591943 -0.9219323  -0.06965502 -0.29027322]
[-2.54295068e-04 -1.40504584e-01 -5.20930409e-01 -8.49727631e-01
  2.73029715e-01  2.22608849e-01  5.03629267e-01  1.00036097e+00
  1.16707128e-03 -5.05727291e-01 -1.01473844e+00 -4.85219091e-01
  4.85996157e-02 -8.97854984e-01  3.98197532e-01 -2.65611827e-01
 -2.05210373e-01  1.05980694e+00 -6.46366626e-02 -3.23761940e-01
  1.05129969e+00  1.22346051e-01 -2.21735641e-01 -3.33327323e-01
 -8.38440418e-01 -2.47311562e-01  1.06819522e+00 -1.24791175e-01
 -3.32160741e-01  1.53966069e+00  2.24507861e-02  1.53773978e-01
  9.21907544e-01 -5.43317378e-01 -7.92658389e-01 -5.47643244e-01
  2.14873746e-01 -2.11528823e-01  1.12763190e+00  7.31208801e-01]
[ 0.34483624 -0.52928096  0.5877265   0.6104438   0.038877    0.39508426
 -0.52304673  0.07633321 -0.7158516   0.52876085 -0.6667207  -0.964862
  0.01320932 -0.01103016 -0.15165606 -0.07373958  0.2619645   0.26981032
 -0.48678845  0.09377479  0.4319346   0.94475985 -0.07276711 -0.05037715
  0.01368021 -1.0711066  -0.32537964 -0.13456105 -0.41861755 -0.3110493
  0.27080485 -0.1113647   0.01064331 -0.94386744 -1.3169264   0.63795024
  0.05222387  0.33590937 -0.1606382   0.27302492]
[ 0.23742698  0.22180499  0.12040491  0.2340533  -0.19327424 -0.15878348
 -1.3598399  -1.2528017   0.27307615  0.07672275 -0.04468147  1.1931225
  1.1338961   0.4909727  -0.08872095  0.14007084 -0.10154546  0.607681
  0.11357136  0.8246917  -0.59101295 -0.1968634   0.267859   -0.27561268
  0.82650524 -0.50945765 -0.9843274   0.26543394 -0.3556648  -0.4130429
 -0.07474639  0.14822114  0.7396554  -0.24024314  0.5457409   0.8913888
 -0.27910495 -0.17380892 -0.36798957 -0.9226651 ]
[-0.5995501  -0.02553495 -0.8511952  -1.3005842   0.11220396  0.1618016
  0.441785    0.64566994  1.1532311  -0.8856999   0.56438875  0.21143185
  1.0835595  -0.2637611  -0.14375055 -0.08241794  0.6476166   1.6017919
  0.3379441  -0.34823158  0.65881836 -0.8032415  -0.4166277  -0.02168007
 -0.5046955   0.9888954   1.0090957  -0.04628379 -0.4861538   0.78679824
  0.36227822  0.42657468  0.712409    0.90282315 -0.32601845 -0.36413455
 -0.08525427 -0.5209046   1.0981077   0.08902336]
[ 0.09997794  0.17343594  0.07158258 -0.07851751  0.5944237  -0.19847485
  1.0046355   1.1609285   0.05117606  0.45918477  0.05256893 -0.34203598
 -1.0871446  -0.26104262 -0.10766347 -0.00178317  0.2910735  -0.94452256
 -0.10475402 -0.61171734 -0.0027965  -0.18907401 -0.24792647  0.11115034
 -0.50559807  0.7532768   0.43171823 -0.5773608   0.7093185  -0.10979389
 -0.27526847 -0.39383453 -0.65633804  0.7074328   0.8546894  -0.42839378
  0.5856339   0.5829918   0.09241953  0.34922785]
[-0.45086384 -0.17733656 -0.8224333  -0.5535869  -0.01494716 -0.5018473
  0.30553856  0.42276472  0.43599567 -0.06707943 -0.14380999 -0.36672437
 -0.66804504 -0.31171417  0.6579227   0.5883874  -0.78977907  0.14343166
 -0.38720813 -0.2577389   0.70077014 -0.08742907  0.18703634  0.43186563
 -0.85607404  0.28622007  0.63815415  0.4214952  -0.8743098   0.10224598
 -0.50715655  0.04504318  0.5107494  -0.68137497  0.02306189 -0.2831119
  0.00979802 -0.01022001  0.4049141   0.25842816]
[ 0.1260885  -0.09849162  0.4714573   0.30756128  0.87051976 -0.27385786
  0.34134904  0.5400789  -0.2022875   0.17987736 -0.80049264 -1.2616643
 -0.13953212 -1.0773505   1.5113062   0.04559311 -0.07814465 -0.6348411
 -0.36297145 -0.26874882  0.8377489   0.5981422  -0.04894665  0.18217282
 -0.24730328 -0.665177    0.33514965  0.28885788 -0.5554579   0.94919455
 -0.7612227  -0.04413679  0.25017816 -1.0341922  -0.6180025  -0.2909284
  0.23347984 -0.32338798  0.5700546   1.0891042 ]
[ 2.9754892e-01  6.2973404e-01 -8.2164228e-02  2.4539207e-01
  2.3688617e-01  1.2940580e-01 -1.2568067e+00 -1.3217465e+00
  5.5759299e-01 -6.8680090e-01  1.0067528e+00  9.3137378e-01
  1.4424675e+00  1.2452269e+00 -6.2224621e-01 -9.1892771e-02
  3.1408954e-01  3.1264499e-01  7.8354061e-01  7.9674530e-01
 -8.5994256e-01 -1.6823462e-01 -3.1913444e-01 -1.1878882e-01
  7.8896773e-01  4.3112153e-01 -1.1564884e+00  3.0269131e-02
  2.7467346e-01 -4.8112739e-03  5.7679218e-01  5.6445909e-01
 -3.4408617e-01 -3.0033663e-04  4.9889106e-01  1.3221244e+00
 -8.9102432e-02 -4.6286607e-01 -7.5749147e-01 -7.0375198e-01]
[-0.02345673 -0.31336284  0.4656949   0.34853527 -0.6662314   0.5338403
 -0.29818234 -0.71257156 -0.45946515  0.6162598   0.19272766 -0.2729073
  0.23081502  0.22649704  0.17635898 -0.6259084   0.79072905 -0.04289558
 -0.42210168  0.98272455 -0.57744795  0.4205304  -0.12639908 -1.0232841
  1.6875262  -0.6160881  -1.0510759  -0.35307032  0.95415574 -0.6234728
  1.0705527  -0.28979152 -0.3851834   0.20399608 -0.21458565 -0.14471622
 -0.6299507   0.54864407 -0.54270303  0.5059962 ]
[ 0.7255591   0.12296993  0.08145455  0.18811034  0.08526689  0.6598409
  0.20264623 -0.09044233  0.02449084 -0.06248437  0.241117   -0.3928493
 -0.21128027  0.0410665   0.39147118 -0.5670286  -0.15279305 -0.38166434
  0.21150456  0.0910627   0.01275646 -0.04987928 -0.5227973  -0.6266103
 -0.14414288 -0.16493748  0.3423532  -0.31991956  0.24538682  0.42459252
  0.3606696  -0.4656347  -0.22868137  0.2517608   0.19949026 -0.14513202
  0.29195708  0.25415984  0.61755395 -0.1475232 ]
[ 0.61205196  0.6441529   0.4628431   0.05165511  0.35007328  0.6044715
  0.10709649  0.0973341  -0.7520644   0.35738236 -0.14027773 -0.6117228
 -0.43272    -0.32768288 -0.09928784 -0.791353    0.5007339  -0.6084762
  0.48839515  0.12869218 -0.10528637  0.4957781  -0.6271555  -0.7282913
  0.17014812 -0.30169904  0.08427675 -0.32562748  1.0122727   0.67781895
  0.38879058 -0.43468645 -0.6689034   0.603041    0.634563   -0.7861767
  0.08112349  0.54227275  0.59490854  0.38881654]
[ 0.8625741   0.7680207   1.0792377   1.6039932   0.20537823  0.50614494
  0.27637511  0.5895046  -1.0162888   0.71853477  0.11944414 -0.39237162
 -1.8335845   0.7335097  -0.5233095  -0.05974371 -0.14385168 -1.8138971
  0.3045124  -0.5195599  -1.2227198   0.42053664 -0.01307918 -0.40430048
 -0.4566903  -0.0716294  -0.43627393  0.13940877  0.6694618  -1.4537628
  0.06078561 -0.8504822  -0.810698    1.3052751  -0.12300094 -0.5509234
  0.5783315   0.6719987  -0.41404414  0.8894315 ]
[-0.72844297  0.18844108 -0.9123234  -1.0241059   0.2830195  -1.1616237
 -0.16868508 -0.39318198  0.8022804  -1.1828067  -0.02174581  0.0866465
  0.12672961  0.3390613   0.40386394  1.2370093  -0.6389143   0.75744295
  0.4725898  -0.39272898  0.52167207 -0.83693385  1.0246185   1.3158332
 -0.12160763  0.34307846  0.13741563  0.8391453  -0.5318025   0.20824032
  0.04894725  0.88186085  0.44476852 -1.0081015  -0.0290988   0.23101045
  0.30695966 -1.0003555  -0.059437   -0.14186208]
layer 3 Activation
tanh
layer 4 Dense
40 20
[ 0.00574193  0.26462895  0.6358467   0.40509954 -0.11197176 -0.01747477
  0.280589    0.05106277  0.2097294   0.07683591  0.14264284  0.3325193
 -0.5715106  -0.40232733  0.34431556  0.5315278  -0.26875958 -0.11917598
 -0.8723554  -0.14417298]
[ 0.541707   -0.271964   -0.1190216  -0.36207268 -0.14692082 -0.29643646
 -0.5109948   0.4629209   0.04465814  0.59493804 -0.09257513  0.17316489
 -0.02301052  0.05886522  0.5803572  -0.05646428  0.12281445 -0.09479756
 -0.25256765 -0.07100283]
[ 0.21486978 -0.18329664  0.46255627  1.1267039   0.03434782  0.24626805
 -0.24695598 -0.7145127  -0.3699503  -0.33653593 -0.2850535   0.63805693
 -0.24050419 -0.5834792  -0.60150284  0.5473218   0.31382906  0.00558393
 -0.49768537 -0.18821074]
[-1.6151716   0.42702627  0.27204016  0.43692094  0.09453084  0.8392867
 -0.8041543  -0.66575485 -0.8824095   0.33605936 -0.5274343   0.61704284
 -0.49325657 -0.33272466 -0.60839725  0.69494087  0.5545927  -0.33752474
 -0.14541979 -1.2335731 ]
[ 0.8673012   0.36594948  0.12463663 -1.0668857  -0.07268601 -0.5297985
  0.29812092  0.4370345  -0.35236272 -0.13368669  0.41185066 -0.3187982
 -0.00718788  0.20089175  0.62463087  0.0012775  -1.1236774  -0.62632614
 -0.20467977  0.19094142]
[-0.3035683  -0.18263406  0.5727113   0.6827022  -0.31354296  0.1894795
  0.04968219 -0.52297366  0.04345626  0.11487889 -0.06949347  0.62759143
 -0.9793136  -1.0146713  -0.4320982   0.2974028  -0.32069144  0.23395093
 -0.5603274  -0.32714456]
[ 3.3540586e-01 -2.2387115e-02  6.1801511e-01  1.2908942e-01
  1.7661653e-01  3.9299361e-02  9.2712778e-01  2.3417185e-01
  2.7475899e-01 -9.1553904e-02  3.8145795e-01 -3.1908005e-01
  4.4005670e-02  6.8142370e-04  1.1601687e-01 -9.9522585e-01
 -3.1324822e-01 -5.2195680e-01 -2.4509397e-01  1.9156164e-01]
[ 0.15139636  0.14214319  0.08176669  0.44615102 -0.0368614  -0.40777665
  0.3971442   0.34737998  0.40405867 -0.5297401   0.3077458  -0.01726812
 -0.22981673  0.13564676 -0.27294934 -0.06757715 -0.648102   -0.26906547
 -0.6647668   0.33888415]
[ 1.3130091  -0.72634447 -0.41466528 -0.52789605  0.15234219 -1.4423168
  0.13313095  0.71187973  0.9402738   0.12113728  0.6631233  -0.80519456
 -0.12003129 -0.10229872  0.56825745 -0.6529376  -0.5427965  -0.04907594
  0.38127843  1.0279008 ]
[-1.7531319  -0.41452998  0.28692302  1.0243428  -0.19037308  0.68472695
 -0.39728516 -0.7170076  -0.62623876  0.03860925 -0.05031678  0.6611937
 -0.7945515  -0.5562141  -0.9538405   0.48011371  0.29017907  0.08776961
  0.18969467 -0.83690274]
[ 0.6560272  -0.3067712   0.27966392  0.0469127  -0.80272144 -0.13306236
 -0.25048253 -0.02044792  0.41483068  0.1532967  -0.37980968 -0.28243148
 -0.77199745 -0.13378772  0.07718971 -0.4209478   0.05010978  0.05096209
 -0.42258668  0.09809503]
[ 0.6654047  -0.41739348  0.27935034  0.42979738 -0.23601653  0.07025447
 -0.03567352  0.23078193  0.5439111   0.0875081   0.00370473 -0.37350908
 -0.38717866 -0.75425273  0.51727873 -0.4655471   0.1335791   0.35612065
 -0.49036762  0.11491442]
[ 0.78018486  0.10531652  0.2676254   0.87776595  0.46541005 -0.74704987
  0.93297136  0.66675055  0.78289735 -0.08464539  0.22103098 -0.8933322
 -0.537519    0.05201911  0.30172727 -0.8452587   0.35968497  0.798253
  0.3502277   0.33151317]
[-0.17916217 -0.13231725 -0.0815087  -0.14210182 -0.14581561  0.2714336
 -0.96148866 -0.22667928 -0.4483286   0.27925023 -0.06286769 -0.03770706
 -0.6592441   0.57446486 -0.30899942  0.5018672   0.5917752   0.14604512
  0.19051792 -0.27702338]
[-0.21518989  0.45032272 -0.6795594  -0.29707748  0.3105383   0.0520892
  0.404461   -0.29817107 -0.2091453  -0.2716349   0.18907557  0.3914457
  0.76925117  0.55774826  0.13265966  0.38771632  0.14088324 -0.24513263
  0.24711508 -0.13374668]
[ 0.8425803   0.126363   -0.19264774 -0.82330954  0.03784525 -0.44278145
  0.35140765  0.41355535  0.16504568 -0.3447546  -0.01143043 -0.60440755
  1.529893    0.73977363  0.3220169  -0.3934185   0.51096034 -0.0445221
  0.43929446  0.30780372]
[ 0.15691888 -0.030278    0.32828072 -0.08154885 -0.38853335 -0.00997895
  0.02384992 -0.01621573 -0.10584464  0.26338866 -0.32624826  0.35402763
 -0.72893035  0.11674098 -0.22923267 -0.12631647 -0.2436211   0.2091985
 -0.48671094 -0.12482572]
[ 0.79646    -0.23442796  0.02339649  0.07075194  0.5607994  -1.1254556
  0.9161317   0.73753333  0.5482613   0.12174968  0.4243326  -1.0318638
  0.11357268  0.18341532  0.4935379  -0.9526135  -1.1755408   0.65892506
  0.5178503   0.70644873]
[ 0.8002309   0.19625203  0.05704804 -0.49338937 -0.26441458 -0.1508823
 -0.2260057   0.25540528 -0.21954289  0.24713595  0.16439794 -0.05184208
  0.4229607   0.12479348  0.24363285 -0.04951094  0.2830029  -0.0466446
 -0.05193492  0.22236246]
[-0.20869336 -0.21487933  0.07715496  0.37338722 -0.03156225  0.34515855
 -0.5528851   0.17530674 -0.04694629  0.12598477  0.14396651  0.19470847
 -0.36712128  0.20002997 -0.44340944 -0.44034898  0.34587353  0.2981873
  0.2673682   0.05525793]
[ 0.3566051   0.31468895 -0.7359501   0.65374255  0.0741067  -0.39503497
  0.31299707  0.5677019  -0.31866652 -0.7571337   0.19407116 -0.53035533
  0.11948429 -0.06320243 -0.5131639  -0.32480833 -0.1800749  -0.1111166
  0.1413368   0.05290989]
[-0.63148355  0.14378163  0.45390373  0.62903357  0.12577051  0.57472193
 -0.27753326 -0.1280823  -0.5608516   0.05252819 -0.02168398  0.48243484
  0.05347296 -0.0666641  -0.11887927  1.0431665   0.4837671  -0.15091445
 -0.51489544 -0.81539005]
[ 0.67581517  0.20940812 -0.20137608 -0.7115094   0.33163127 -0.44792017
  0.02355822  0.46734095  0.11025616 -0.32619953  0.11856695 -0.3937432
  1.2493056   1.2342916   0.41284212 -0.43958002  0.08365838 -0.35803345
  0.31229126  0.49418   ]
[ 0.650297    0.16447605 -0.8034935  -1.3911247   0.0605138  -0.46829808
 -0.24104075  0.63791925  0.03474305  0.01962842  0.26276854 -0.34177193
  1.9531845   0.7053099   0.7223813  -0.0478063   0.32552254 -0.17581852
  0.2875959   0.7106692 ]
[-0.3796895  -0.42717633  0.16954352  0.092306   -0.31520697  0.7313836
 -0.71944356 -0.18072039 -0.03263515  0.38199344 -0.21465631  0.02495946
 -0.02267122 -0.44643816 -0.07052507  0.18681662  0.2655514   0.46121055
  0.36612877 -0.91431624]
[-0.01898993  0.01491451 -0.30746084 -0.27945825 -0.24153061 -0.70270944
  0.05867222  0.55100733  0.63580155  0.08517159  0.09500118 -0.6906258
 -0.46388775 -0.01013424  0.07164978 -0.40855166 -0.60548717 -0.18202895
  0.2904983   0.9118801 ]
[ 0.38732943  0.6114556   0.17171465 -0.48528492  0.08327864 -0.63606846
  0.49042374  0.11323556  0.43002108 -0.7730849   0.2673661  -0.35690773
  0.5422082   0.19195065 -0.06870356  0.00274293 -0.44393528 -0.71832764
 -0.3759102   0.68211776]
[ 0.24694665  0.42220274 -0.5189152   0.03887012  0.49024913 -0.5888831
 -0.37232193  0.10538074 -0.10122371 -0.41034305 -0.39541805 -0.44090706
  0.7149898   0.233483    0.81142503 -0.18059607  0.5880857  -0.05062352
  0.69788206  0.5998268 ]
[ 0.5808238  -0.01512968  0.27201656  0.41719213  0.2260346   0.25501555
 -0.03067282 -0.49563965  0.00967942 -0.25334918  0.2989606   0.53387505
  0.06552882  0.26542413 -0.26626194  0.23987679 -0.4398121  -0.03538835
 -0.3627624  -0.75016755]
[ 0.88019353  0.58578527  0.30194306  0.49446756  0.15881276 -0.4701606
  0.8611965   0.44725817  0.64231366 -0.9125338   0.25454736 -0.13883853
 -0.2705532  -0.68481594  1.1226562  -0.40859315 -0.34008712 -0.01126672
 -0.0965896   0.7788452 ]
[-0.09497578  0.17218804  0.05216536  0.7927876   0.16630973  0.09464861
  0.09711701 -0.4320818   0.00835412  0.16132139 -0.13848534  0.13960855
 -0.79288864  0.86093515 -0.23274334  0.11395904 -0.16471337  0.0417126
  0.01974194 -0.20446788]
[ 0.971658    0.06294952 -0.1725036   0.16575086  0.4161482  -0.7933463
  0.70291317  0.47029987  0.39417773 -0.05350028 -0.13569707 -0.50166935
  0.3980976   0.40226796  0.65411305 -0.49921703 -0.14729415  0.04588524
  0.06641125  0.5771029 ]
[-0.4787196   0.24780436 -0.7093632  -0.63897276  0.16318817 -0.66771525
 -0.22018085  0.5359818  -0.0740782   0.10121008  0.1681015  -0.24302875
  0.37529686 -0.0404588   0.17493421  0.11488291  0.3402768  -0.24499671
  0.3975537   0.609859  ]
[ 0.23388495 -0.5987671   0.23915689  0.12599708 -0.13910328 -0.18819948
 -0.02620975 -0.10755803  0.501706    0.2370555   0.11661424 -0.00612157
 -0.44312522 -0.6549387   0.07893623 -0.27462107 -0.83119595 -0.12569915
  0.11944783  0.05118258]
[-0.83350116 -0.6609761   0.25770566  0.5255532  -0.6245769  -0.19537993
 -0.71095324  0.63385034  0.65572417  0.3858156  -0.28745997 -0.4522578
 -0.04792209 -0.39055488  0.33963025 -0.24774212  0.17235366  0.00465642
  0.14062211  0.76928395]
[ 0.17099516 -0.4227153   0.81863797  1.1038735  -0.13788478 -0.50241536
  0.12547798  0.46459758  0.6581621   0.2466393  -0.54366815 -0.51259845
 -0.76108515 -1.2127532   0.20042321 -0.05992178  0.58705133  0.5206355
 -0.24305272  0.13880765]
[ 0.17517333  0.25591335 -0.1890668  -0.39880717  0.64547384 -0.03119735
  0.31336856  0.19570725 -0.39239368 -0.23999332  0.15099645 -0.10346685
  0.3176382   0.54487216 -0.0017834  -0.1499193  -0.08834226 -0.4376611
  0.21777193 -0.27843374]
[-1.0841424   0.09980581  0.4039679   0.63669497 -0.28164187  0.4857911
 -0.1293779  -0.3499244  -0.36064056  0.06700046  0.01088469  0.520104
 -0.8338795  -0.20690997 -0.6685648   0.52597886  0.2025837  -0.11150774
 -0.266142   -0.13122149]
[ 0.44911543  0.5744586  -0.17278    -0.16351362  0.4105411  -0.64903605
  1.1402138   0.36074212  0.4011985  -0.54842377  0.3961271   0.23596898
  0.40062338 -0.57486165  0.0447433   0.09450649 -0.77686316 -0.508028
 -0.5221515   0.5435263 ]
[ 0.1857792   0.13624717 -0.50129473 -0.2445504   0.2083757   0.24359317
  0.01535191 -0.50581706 -0.6496617   0.12992118  0.36688825  0.41138324
  0.39827746  0.5211863  -0.58014756  0.6953534  -0.39215147 -0.57978445
  0.1864627  -0.6218966 ]
[ 0.06750964  0.22655255 -0.4780493  -0.98923874 -0.01247696 -0.32355243
 -0.28361037  0.21740198 -0.05267182 -0.2169557  -0.1345314  -0.25257352
  0.9540685   0.6794565   0.3691558  -0.26409692  0.35318974 -0.16058242
  0.3634162   0.3280502 ]
layer 5 Activation
tanh
layer 6 Dense
20 1
[-0.26147273]
[0.1556597]
[-0.48969823]
[-0.48719147]
[0.06743282]
[0.71236706]
[-0.2895315]
[-0.33950588]
[-0.12053024]
[-0.14312464]
[-0.03695896]
[0.45747915]
[0.629938]
[0.4970007]
[-0.5478617]
[0.27387008]
[0.2713196]
[-0.23624606]
[0.497126]
[-0.6550084]
[0.7227582]
