layers 7
layer 0 Dense
20 20
[-0.16851301  0.17965874  0.32160425 -0.26757273  0.10559038  0.90019536
 -0.66386753 -0.1147524   0.37330887  0.6440786   0.09455425  0.11387531
  0.25116277  0.18792377  0.14181031 -0.06681979  0.30818096 -0.13076386
 -0.07602349 -0.27667364]
[-0.56131995 -0.10568986 -0.31201822  0.4190981  -0.34376875  0.46779996
  0.23223582 -0.03475648 -0.30770642 -0.41480303  0.04038919 -0.10682398
 -0.2089973  -0.21300039  0.16863722 -0.42745367 -0.33265445  0.18028764
 -0.04577577  0.32721755]
[-0.37306213 -0.09465755 -0.07064212  0.36384907 -0.14223935  0.5203197
 -0.33631843  0.3441493  -0.08325966 -0.26441216  0.24925354  0.38388675
 -0.15537341  0.02693169  0.4891763  -0.34759277 -0.63413334  0.04953387
  0.09656977  0.07601038]
[-0.08801004  0.04472455 -0.17099723  0.29277357 -0.35542822  0.9422617
 -0.2133549  -0.10046049  0.4398403   0.0399429  -0.06761468 -0.37211466
 -0.08332334 -0.14388068  0.11193361  0.08892109  0.36769575 -0.27325585
 -0.01246842 -0.4495301 ]
[-0.16348092  0.3397836   0.23824976  0.325356   -0.26903158 -0.02632329
 -0.17197771 -0.3341969  -0.10051076  0.6145822   0.2795561  -0.0107377
 -0.16125356 -0.03634916 -0.12251863  0.30827647 -0.04693459 -0.15846968
  0.3943464   0.11836657]
[-0.08537646  0.22320223  0.6800043  -0.38737735  0.6004479   0.00923981
 -0.15287927  0.44292903  0.30879015  0.46898225  0.00652134 -0.14102161
  0.23824549 -0.2879093  -0.12155695  0.3041117   0.06581464 -0.25779808
 -0.23831807 -0.06417516]
[ 0.0032094  -0.45889342  0.4542259  -0.56983876  0.4031805  -0.7019645
  0.04341131  0.3115491   0.18345837  0.27989408  0.03886978 -0.24906741
  0.18402421  0.1721529  -0.3042376   0.62160623  0.27597374  0.0897994
  0.11408621 -0.35030767]
[ 0.40318796 -0.01353299 -0.10364682 -0.17815086 -0.47314286 -0.711593
  0.95527184 -0.2846993   0.31264004 -0.35756636 -0.04261605  0.51012367
  0.33049738 -0.03435231 -0.66590047 -0.05629755  0.305141    0.42188242
 -0.5985018   0.07143673]
[ 0.6025801  -0.6080374  -0.9108969  -0.16966243  0.90223145 -0.67269516
  0.30763012  0.48285198  0.08985122 -0.4685449  -0.37015462 -0.69740707
  0.09456876 -0.52175045 -0.00430758  0.39000246  0.65145123  0.99984586
  0.5949714   0.39591464]
[-2.2719319e-01  2.9075062e-01 -3.1063995e-01 -4.1195396e-01
 -1.5568937e-01 -5.3990370e-01  2.0116198e-01 -1.5697414e-01
  2.0993939e-01  2.7235359e-01  5.2680507e-02 -1.0751499e-01
  2.7396310e-02 -2.9711062e-01 -1.2198919e-01  1.4355105e-01
 -1.2049599e-04  9.5070608e-02  6.2527394e-01  3.8815346e-01]
[-0.38308522  0.02639609 -0.59403974 -0.6079259  -0.22246462  0.34162584
 -0.167023   -0.5360686  -0.15581746  0.42187798  0.11927278  0.03216857
  0.31273982 -0.17643853 -0.30088732 -0.43864655 -0.11827893 -0.48357737
  0.01215093 -0.27106932]
[-0.433692    0.5411803   0.89754087  0.8858127  -0.88125145  0.5430913
 -0.02394819 -0.23998052 -0.38248476  0.00772749  0.46856093  0.8289512
  0.21899469  0.03500786 -0.05137279 -0.6083075  -0.73563576 -0.37136343
 -0.41564035 -0.14154713]
[-0.11844639  0.47450688  0.03204688  0.46601006 -0.14488903  0.20145792
 -0.138328   -0.01153457 -0.36250484  0.12281381  0.19817883 -0.08355271
 -0.47026104  0.36472708  0.28507927 -0.00821267 -0.20622961  0.05828956
  0.474192    0.04240887]
[-0.23583929 -0.91308683 -0.16108207  0.12805603 -0.6857839   0.28324386
 -0.3958276   0.27852243  0.5168924  -0.11189945 -0.5437468  -0.7447652
 -0.17035447  0.80925715 -0.35682517  0.25382417 -0.02657203 -0.3458624
 -0.6871804   0.6831748 ]
[ 0.6141258   0.91886216 -0.6857366   0.68241954 -0.54933935  0.16988584
  0.4279784   0.13989916  0.02470197 -0.7437856   1.0546467  -0.5503717
 -0.19252002  0.07104279  0.56068903  0.24290444 -0.29689157  0.50531775
 -0.60422385 -0.822759  ]
[-0.8865549  -0.60809416 -0.8766152   0.73740745  0.03361123 -1.2177892
  0.2704871  -1.236017   -0.8425196   0.35266978 -0.12350867 -0.36148253
 -0.7162889   0.50519985 -0.1903522  -0.2190975  -2.011621    0.6857374
  1.1135609   0.59328645]
[-0.4442453   0.4765942   0.43761507 -0.13375409 -0.5686272   0.02697573
 -0.2860581   0.1336842   0.417849    0.36347708 -0.18794534  0.5295913
  0.545744   -0.01064439  0.20092194 -0.0583339  -0.51499224 -0.5671808
 -0.18204156 -0.2762603 ]
[ 0.1314016   0.7829146   0.85222805 -0.5017549   0.9760959   0.41059035
  0.1511169  -0.26728678 -0.616532    0.13764143 -0.03600006  0.35532248
 -0.23322894 -0.74931896  0.45842886  0.32994384  0.36033687 -0.42391178
  0.0905482  -1.0496795 ]
[-0.16478942 -0.88038933  1.2970258  -0.42096832  0.64455277  0.39469317
 -0.3654416   0.50453854 -0.21540101  0.23931758 -0.9879625   0.6710285
  0.46448445  0.38526902  0.42814788 -0.41925436 -0.17463899 -0.2405668
  1.3968964   1.4911596 ]
[ 1.6807358  -0.35549426 -1.3474799  -2.0726743   0.19286463 -0.9965972
  1.3464109   1.1453103   0.8624408  -0.18368901 -0.5000988  -0.02165978
  0.3693319  -0.2745775  -1.1371369   0.80649525  1.4584789   0.73396814
 -1.4527682  -0.1308589 ]
[-0.16490583 -0.05169747  0.12037709  0.08050524  0.11018263  0.32624525
 -0.24382363  0.18020126 -0.08276106  0.14827803 -0.00309256 -0.10808771
 -0.20082144  0.0363453   0.17751381  0.04389853  0.08415125 -0.11081585
 -0.01827113 -0.14500296]
layer 1 Activation
tanh
layer 2 Dense
20 40
[-3.48488390e-01  1.62746176e-01 -7.26323605e-01  4.79238689e-01
  2.03495547e-01 -4.15012181e-01 -1.19839638e-01  4.97668097e-03
  3.48891616e-01  7.36560896e-02 -7.79005885e-02  5.30328274e-01
  7.91012272e-02 -2.14773878e-01 -7.01138228e-02 -3.07767808e-01
 -4.06921893e-01  2.25445092e-01 -4.23315912e-02  2.81613410e-01
 -1.13906845e-01  7.59342387e-02  1.67385504e-01 -5.94400346e-01
 -5.99725485e-01 -2.43567258e-01  4.06795114e-01 -6.25941728e-04
  1.78774938e-01  4.35236990e-02 -1.68277308e-01 -4.28370744e-01
 -5.28756008e-02 -1.60413176e-01  3.00165236e-01  3.86523865e-02
 -3.04892659e-01 -4.04895023e-02  2.34691381e-01 -2.35512406e-01]
[ 0.06788164 -0.4482197  -0.47145262  0.17206627  0.11814103  0.08932364
  0.361262    0.32638773 -0.11750178  0.36047634  0.01368567 -0.5492336
  0.61021286 -0.24352364 -0.2363994  -0.08377476  0.30065528 -0.5644651
 -0.12020393 -0.14449666 -0.02512443  0.79780024 -0.08010878  0.00712276
 -0.21894191 -0.65407187 -0.17343937 -0.24762292 -0.6209878   0.42870423
 -0.32177985 -0.4151434  -0.15865684 -0.1603977  -0.42198431 -0.20290406
 -0.80704886 -0.8119792   0.29219672  0.15746506]
[-4.62957611e-03 -9.50739026e-01  1.75880678e-02 -8.70653272e-01
 -3.44221443e-01  1.10173799e-01 -1.87959313e-01 -2.52391279e-01
 -2.50509739e-01 -5.00115514e-01  6.35188539e-04 -2.56707102e-01
 -3.24330449e-01 -5.18227778e-02  3.07104170e-01  7.23842919e-01
  2.12065428e-01  1.91287808e-02  8.85105804e-02 -9.65498239e-02
 -1.35045782e-01  1.69243395e-01 -7.53446937e-01  7.52455413e-01
 -1.10539041e-01  5.70905566e-01 -3.70580554e-01 -1.22703589e-01
  2.53910311e-02  7.92205036e-01  2.23955184e-01  4.82126743e-01
  5.11121213e-01 -7.29211643e-02  5.27351648e-02 -1.97350490e-03
 -5.72591484e-01  1.03939705e-01 -4.34935130e-02 -2.07035288e-01]
[ 0.30274418  0.11990044 -0.33379906 -0.57746696  0.20324199  0.17635392
  0.0084696  -0.30928317 -0.5560381  -0.12248787 -0.14033023  0.06257121
 -0.42892635  0.6015976  -0.11631376  0.47478893  0.6590939   0.39171538
  0.41430613 -0.3258961  -0.3992265   0.5541024   0.30878502  0.05402418
  0.07256365  0.61838996 -0.20426308  0.33318144 -0.71152055  0.58228445
 -0.14379677 -0.18429413  0.0530004   0.0239458   0.10293174 -0.62381345
  0.27475998  0.34037003 -0.7726479  -0.23415484]
[ 0.12990123 -0.3613957   0.32154328 -0.32120937  0.21694146  0.06537211
  0.04038004 -0.28501943  0.5671778   0.16130376 -0.15506613  0.2922216
 -0.08235568 -0.9147196  -0.21600291 -0.23144087  0.02662805  0.51321125
 -0.04745879  0.33380607  0.04985883 -0.42962098 -0.01564115  0.01969891
  0.10764839 -0.03570385 -0.36817014 -0.4949923  -0.10710745  0.10936446
  0.07484894 -0.2973075   0.4123551   0.00472568 -0.11801757 -0.39007416
 -0.11447086  0.16362917  0.51525635 -0.31710798]
[ 0.21489565  0.00725123 -0.05477997 -0.15840237 -0.13521501  0.13447262
 -0.01037763  0.59448516 -0.4301163  -0.6495812  -0.17926013 -1.2250891
  0.53307176 -0.14861245  0.00421597  0.4773966   0.00752118 -0.34749508
  0.00707383 -0.26499698 -0.47678313  0.24947001  0.09757932  0.03210575
 -0.14716169 -0.21360883 -0.4098991  -0.27256382  0.06646679  0.65072024
 -0.20634641  0.14451516 -0.2604908  -0.40440425  0.3790008   0.0781634
  0.3289758  -0.08809834 -0.26401705  0.17750399]
[-0.01019982 -0.18125744 -0.38912502  0.43922615  0.16780977 -0.30813769
  0.35056832  0.02102601  0.12431012  0.38596278 -0.04523109  0.69546556
 -0.2528933   0.05971904 -0.43561244  0.03820935 -0.50604755 -0.31364065
  0.2514218   0.28427437  0.2289112  -0.1370643  -0.1534568  -0.0740926
  0.00988686 -0.0300022   0.15207411  0.04061531  0.13924293 -0.5350265
  0.11053023 -0.4883973  -0.14180842  0.13695413 -0.03561445 -0.1548414
 -0.39925185 -0.05010241  0.26719135  0.18647243]
[-6.21267520e-02  2.59153515e-01 -1.22874886e-01  1.16293103e-01
  2.10971311e-01 -4.55378667e-02  9.70610902e-02 -3.37858737e-01
 -6.19135574e-02 -2.22982973e-01  2.88676517e-03 -3.24543893e-01
  2.43189231e-01 -3.90406349e-04 -1.02956995e-01 -1.76030293e-01
 -4.61499482e-01 -1.11025665e-03 -4.39674526e-01 -1.33758798e-01
  1.35996535e-01 -3.51781040e-01 -1.55011833e-01  8.69737705e-04
 -4.18861806e-01  2.04679489e-01  4.34904307e-01  1.63217157e-01
 -3.79189663e-02  3.05519789e-01  2.08722070e-01 -1.86934292e-01
  6.14425652e-02  7.26832300e-02  2.66059816e-01 -6.92956522e-02
  1.93632945e-01  1.89535305e-01 -1.30026685e-02  3.52054760e-02]
[-0.239037    0.3496667  -0.8655288   0.24827074 -0.07278355  0.02381876
  0.15346697  0.16844109 -0.01247712 -0.35775772  0.05313951  0.27373958
 -0.04288306 -0.1343766   0.1471472  -0.23637757 -0.14569418 -0.29689744
 -0.2648666  -0.12941216  0.34022686 -0.11780643 -0.06398238 -0.01896648
 -0.34948152  0.26191714 -0.11902525  0.255801   -0.17201781  0.15972532
  0.07414791 -0.01116567  0.30859554 -0.09679104  0.2229365   0.01436246
  0.30229208 -0.08367241  0.06550252  0.12031537]
[ 0.04614042 -0.0290938   0.23187034  0.20882086 -0.12172263  0.02891793
 -0.18390143  0.28307658 -0.29784223 -0.19472805  0.19627799 -0.3104701
 -0.17956391 -0.3600949   0.3387889  -0.12942755 -0.34234318  0.17445892
 -0.03544318 -0.14388746 -0.11055177 -0.07423645 -0.14119631  0.10637304
  0.34702528 -0.15548289 -0.48318624 -0.30406174  0.44627756  0.06201162
  0.36780056  0.0210209   0.5562778   0.46791723  0.01606458 -0.04420492
 -0.24483314  0.34299204  0.15205625 -0.20230049]
[ 0.01770427  0.15124835  0.28086844 -0.06180637 -0.02447118  0.2729918
  0.44783804 -0.14206654 -0.32569334  0.6892948  -0.205355   -0.37556562
  0.12946424  0.1897475  -0.3384346   0.07261472  0.08775401 -0.30758047
  0.02429204  0.21297598 -0.2485291   0.57167727  0.5592544  -0.14295338
 -0.14294094 -0.33479485 -0.22978498  0.09281984 -0.3626612  -0.14379154
 -0.18515575 -0.38098025 -0.007022   -0.04193881 -0.18030004 -0.09670322
 -0.22760165 -0.11035307  0.19804332 -0.07986262]
[ 0.07505733 -0.7013966  -0.04873265  0.18781736 -0.1530463   0.42275047
 -0.03461834  0.08952059 -0.07572632 -0.28694862  0.32530174  0.28572464
  0.03326837 -0.25662118  0.06055102  0.31670102  0.31710172 -0.08299962
  0.37211895  0.4437063  -0.02478833  0.19249654 -0.5737532   0.01658868
  0.22704609  0.279426    0.28779802 -0.09275265  0.19959    -0.36160156
 -0.08520506  0.5912902   0.28402117  0.2857803  -0.31904292  0.2969007
 -0.5526724  -0.07573437  0.79292864  0.05707226]
[-0.07726204 -0.10824745  0.07993419  0.07999617  0.05537145  0.15230154
 -0.04997605  0.03012381  0.19990267  0.04670119  0.13848843 -0.14508496
 -0.00600876 -0.15543084  0.2314898  -0.22026944  0.0866462  -0.31883296
  0.09192986 -0.04121881  0.09938516 -0.19193907 -0.5698963   0.05818013
 -0.08818728 -0.13135514  0.38303554 -0.04491434 -0.25965434 -0.2790909
 -0.20661241  0.28026897 -0.18498227 -0.15673222  0.05829069  0.14691094
 -0.024267   -0.04482116  0.32260957 -0.12555373]
[ 0.00678417  0.14726426  0.00165781  0.23942097 -0.2601224  -0.09108219
  0.08280087  0.07958441 -0.39733234 -0.1091774   0.02895379  0.2700979
 -0.06477917  0.4456393   0.20002656  0.18751533  0.0240588   0.18078649
  0.30452007  0.09132161  0.06015006  0.21522051 -0.06227148 -0.04500064
 -0.04147208  0.05629679  0.44931123  0.9274826   0.409412    0.05720507
 -0.10407569  0.08462457 -0.10595541  0.06290076 -0.29331282 -0.10423508
  0.5564657  -0.208606   -0.291026    0.15931806]
[ 0.11380401  0.17776491  0.3237441  -0.2871562  -0.15693322  0.24496813
  0.26268616 -0.08251008 -0.29568434  0.16407046 -0.12866697 -0.2738115
  0.30040818 -0.1627712  -0.2278748   0.1185965   0.19857544 -0.15664856
  0.12589857 -0.24084486 -0.08804208  0.05482975  0.06426168  0.08325852
 -0.0342734  -0.09992087 -0.16992486 -0.11126    -0.21396136  0.10627849
  0.1860519  -0.14628331 -0.06595594 -0.04991375 -0.0083864   0.00653025
 -0.09663746 -0.13036813 -0.09994509 -0.13126433]
[-0.1829131   0.1415174  -0.36272264  0.19333561  0.10761508 -0.14224476
  0.00716247 -0.14476505  0.13801004 -0.19772029  0.15761518  0.1813775
  0.16899721 -0.01044763  0.22420561 -0.07104432 -0.08472249  0.09340663
 -0.26454797  0.09835565  0.0791762  -0.1147674   0.2631237  -0.21975525
 -0.29751652 -0.2984525   0.03764794  0.1441087   0.09975004 -0.18296081
  0.05694428 -0.45767152 -0.180628   -0.04112947 -0.19496323 -0.14567283
 -0.45495552 -0.04441015  0.04106871 -0.04105551]
[ 0.18305518  0.2426658  -0.73690766  0.38737112 -0.15169296 -0.2229515
  0.06099334 -0.18601032  0.26697496 -0.02069178  0.09038492 -0.24911065
  0.37391862 -0.71000695 -0.01585174 -0.3487463  -0.6721735  -0.04453492
 -0.3645312  -0.08200762  0.21958718 -0.5321902   0.12465621 -0.183887
 -0.5111246  -0.5596133  -0.14586024 -0.09490167  0.46240646  0.10316165
  0.10906    -0.14500381 -0.28000215 -0.44660476  0.09547311  0.17710137
 -0.26924646  0.34588748 -0.04284731  0.01497096]
[ 0.03864519 -0.05285231 -0.21834388  0.07566861 -0.18883593  0.19871964
  0.19914824 -0.37167475  0.4751375   0.33482698  0.1825205   0.14122258
 -0.26807663  0.405358   -0.4502215  -0.37040874 -0.04986492 -0.0842722
  0.19673201  0.09315719 -0.12570916 -0.1766561   0.10789365 -0.19699542
  0.0487739   0.05741033  0.16158034  0.11410356 -0.06180278 -0.13416424
 -0.20662147 -0.50180596 -0.2851049  -0.09008278  0.03530508 -0.4850315
  0.00122876 -0.04257762 -0.20534733  0.14319329]
[ 0.17929323 -0.03593466  0.28877872 -0.38981435 -0.35779828  0.08774196
  0.09446842 -0.00290471  0.5026348  -0.02658992 -0.01930807  0.14178681
 -0.37706727 -0.44114074  0.12804946 -0.32883447  0.17424649 -0.00877342
  0.33487764  0.37582085 -0.15196697 -0.09733322 -0.1464202  -0.0102476
  0.38226488  0.9435576  -0.52944857 -0.44675717 -0.09986116  0.11316118
  0.17041156 -0.40157875  0.282282    0.22324097 -0.1955228  -0.27120754
  0.01193242 -0.00646835  0.22648135  0.15129654]
[-0.21544352  0.3240937   0.56889766 -0.08370611 -0.03603689  0.29889482
 -0.29234296 -0.10121513  0.36068082 -0.24648069  0.33487004  0.30709913
 -0.6475966   0.2876428   0.241985   -0.3876119  -0.04135864  0.35834104
  0.05084219  0.20749225  0.08295406 -0.48051286 -0.2061938   0.69897157
  0.21795358  0.767862   -0.11397026  0.3112066   0.08371437  0.27278993
  0.2809926   0.5496998   0.12688182  0.74303573  0.11606926  0.43544206
  0.30312708  0.27547747  0.03963336 -0.3636648 ]
[ 0.12550336  0.24553435  0.29650405 -0.11534055  0.05194274 -0.00105795
 -0.07130418  0.01565124  0.0708575   0.02288924 -0.17954364 -0.2602522
  0.22698301 -0.3286296  -0.01278398 -0.03568515  0.11503649 -0.12651768
 -0.22094968 -0.12765095 -0.0656003  -0.08966696  0.2581827  -0.1219217
  0.15903494 -0.10884749 -0.21024244 -0.21152224  0.1009513   0.22156055
 -0.10826549 -0.18911865 -0.2179267  -0.22450842  0.2112206  -0.10982973
  0.2875996   0.00311233 -0.20133877 -0.05859068]
layer 3 Activation
tanh
layer 4 Dense
40 20
[-0.055866   -0.1472349   0.08514063 -0.02268255 -0.10312485  0.06785375
  0.05371526  0.05162154 -0.00393622 -0.2272775   0.26540503 -0.19339725
 -0.26268476 -0.20575215 -0.13372406 -0.1711237   0.09990755  0.0509837
 -0.40869924 -0.12823316]
[ 0.1813509   0.20548752 -0.41550764  0.17076533  0.03432254  0.1900433
 -0.45395517  0.15714628 -0.15729229  0.222055    0.28148535 -0.10522844
 -0.12039789  0.33301178  0.03550667 -0.33784398  0.0026765  -0.44015706
  0.12906542 -0.08731196]
[-0.19868432 -0.00212583  0.14012372  0.3732734   0.19318335  0.21851127
 -0.06715617  0.43985444 -0.0610634   0.25727242 -0.18987252 -0.21020761
 -0.18125843 -0.16581982 -0.08429053  0.19449966  0.09870794 -0.23535936
 -0.6155225  -0.19924715]
[-0.19661036  0.4041254  -0.34311765 -0.49132714 -0.05703078  0.0307283
 -0.31474006 -0.4431098   0.10772375  0.3766559   0.16742547  0.15025565
  0.29566994  0.08490256 -0.13170256 -0.4474229  -0.6665138   0.10295222
  0.46940318  0.03084513]
[-6.6591777e-02  1.8969543e-01 -2.1961348e-01 -2.1597525e-02
 -1.8399926e-01  2.8310138e-01 -9.9989749e-02 -1.4392477e-01
  2.1462673e-02  1.5813921e-01 -1.1133194e-01 -6.2810026e-02
 -5.0853356e-05  5.4638845e-01 -9.9018306e-02  4.8968185e-02
 -1.6457804e-01 -7.8151219e-02  4.9540949e-01 -1.9368833e-01]
[-0.07829423 -0.12776479  0.13399108  0.21789913  0.23789835 -0.0110938
 -0.11495198  0.29076824  0.06942341  0.08435732  0.02237252 -0.02665307
 -0.4874457  -0.20052245  0.24939543  0.35871828  0.17899531  0.21457061
 -0.32577834  0.07261791]
[-0.1720443   0.13209547  0.04633991 -0.01645706 -0.1073128   0.37211275
 -0.25680172 -0.11912956 -0.10997459  0.08230279 -0.11883208  0.02160637
 -0.14046828  0.11963785  0.09121572  0.13266939 -0.06210336  0.16783728
  0.19623749 -0.04421402]
[-1.04258746e-01  1.04615912e-01  1.50401101e-01  2.16047823e-01
 -1.62323892e-01  1.40528157e-01  2.19739527e-01  5.00612669e-02
  2.33501539e-01  1.26189478e-02 -7.17035122e-03 -6.01071715e-01
  1.90029621e-01 -3.30807507e-01  2.18784392e-01  2.38571703e-01
 -1.97814539e-01  1.77503899e-01 -1.89640123e-05 -1.90566018e-01]
[ 4.5459461e-04 -1.4792927e-02 -1.7090148e-01 -6.2267106e-02
  1.8483968e-02  3.3364794e-01 -1.8868634e-01 -1.7099017e-01
  1.2725584e-01  3.7723830e-01 -2.3053961e-01  5.6534541e-01
 -2.7990729e-01  1.4881963e-01 -2.4614465e-01 -1.3618767e-01
 -2.3773602e-01 -2.7217731e-01 -4.9986735e-01  5.8958285e-02]
[-0.22960693 -0.26662874 -0.23632126 -0.23152398  0.1221546   0.4599498
 -0.29967856 -0.01918847 -0.11431705  0.4343334   0.11723588  0.54120123
 -0.00267617  0.12499782  0.34034592  0.04500759 -0.11150531  0.40728766
  0.27940387 -0.02711636]
[-0.20128852  0.06284741  0.15906265 -0.15667348  0.3851141  -0.13900618
  0.08540608  0.10724126 -0.04602475  0.34246588 -0.17107764  0.12431323
 -0.13012709 -0.21547784 -0.05932463  0.19345996 -0.00235149 -0.07150776
  0.3772014  -0.01950867]
[ 0.2065552   0.3144571   0.01154729 -0.09142293 -0.05805231 -0.22908628
 -0.52255476 -0.34024617 -0.27078024  0.46688348  0.27520683  0.57223266
 -0.1207471   0.00925371  0.15196411 -0.09869435  0.06825956 -0.04602991
 -0.0049529  -0.2390658 ]
[-0.17802304  0.05463211 -0.10065613  0.15428077 -0.12286555  0.36954027
 -0.12582462 -0.02948437  0.18236543 -0.16649956  0.28636777 -0.3994873
 -0.08132295  0.26542205 -0.11906541 -0.32019192 -0.21585466  0.23604994
  0.05204835 -0.07163292]
[ 0.07773338  0.46441615 -0.21747535  0.13494013 -0.11055715 -0.4882887
  0.03768563  0.42804477 -0.16789639  0.18851382 -0.21230431  0.2060312
 -0.13040142  0.12074529 -0.23326114  0.16250536 -0.28411502  0.42924103
  0.43660584 -0.05067893]
[ 0.1056394   0.21942411  0.10384504  0.10945936  0.0855194  -0.3252347
  0.20074064 -0.01417222  0.16276617 -0.09519077 -0.44508255 -0.53238654
  0.0031157  -0.3254918   0.1178146   0.07373074 -0.16441475 -0.3846526
 -0.37470743  0.13676466]
[-0.22046687  0.01164043  0.3240112   0.00943708  0.1606812  -0.12600629
  0.1658472   0.06794471  0.03626315 -0.22682247 -0.06165246 -0.2802504
 -0.08188029 -0.15579355 -0.09481686  0.16837323  0.4192506   0.3288756
  0.01784852  0.18275921]
[ 0.16432814 -0.3443163  -0.0769906   0.38276932 -0.0930036   0.19721334
 -0.0401506   0.28476468 -0.00773481 -0.15084864 -0.18333949  0.05077021
  0.070196   -0.16396114 -0.17006059  0.16366838  0.32389674  0.26375192
  0.16229792  0.1397991 ]
[ 0.17997676  0.03937263  0.11116567  0.21288338  0.13151446 -0.27306682
  0.19132839 -0.16678527  0.05751308  0.05489023 -0.0467917   0.11869536
  0.19139451 -0.2990279  -0.06754576  0.15241891  0.3074462  -0.28468883
  0.09583404  0.2143671 ]
[ 0.19145644 -0.02133792  0.3576581  -0.03566192 -0.09040139  0.03078477
  0.23797998  0.01215756  0.06332059  0.3131583   0.10597344  0.21942337
 -0.04486791 -0.06414401  0.20005062  0.3367439   0.12170622  0.27361596
 -0.0741713  -0.01077163]
[ 0.15068702 -0.01025588  0.16672401 -0.03268145 -0.04879794 -0.05635435
  0.18615457 -0.11233327 -0.20992075  0.22596297  0.22129154  0.21729699
  0.09002856 -0.16559675 -0.26184365  0.16945842 -0.23594174  0.16467357
 -0.32075247  0.26051122]
[ 0.04744088  0.34990957  0.14621828 -0.17298533  0.04003112 -0.0353344
 -0.09132095  0.10683329  0.05039578  0.27095523 -0.30429158  0.10959255
 -0.10749911  0.07285479 -0.12824596 -0.3266104  -0.19094254 -0.08814989
 -0.12831458  0.07830567]
[ 0.06360637 -0.36520857  0.14487177 -0.3306742   0.0461344   0.23631826
  0.05214386  0.27594432  0.00641113  0.11376791  0.07382967 -0.44393796
 -0.00430421 -0.10873704  0.09601302  0.4764762  -0.24760209  0.26689515
  0.32634655  0.01809808]
[-0.23814547 -0.3409374  -0.22835928 -0.1471092  -0.1660009   0.25765815
 -0.63589585 -0.24617162 -0.23743746 -0.02148871 -0.12378421 -0.1459355
 -0.00408727  0.4508748   0.52914244 -0.36759043  0.2510305   0.08742192
  0.07157737 -0.16873471]
[-0.24580574 -0.23913927  0.4175792   0.10528476  0.21384914 -0.34277645
  0.28879902  0.41333544 -0.0623464  -0.13629293  0.13025375 -0.02542474
  0.24088138 -0.10852502  0.12389035  0.15658182  0.39487988 -0.37046587
 -0.172828   -0.06499965]
[-0.02596084 -0.22767471  0.3602151   0.23268719 -0.01581522  0.3014084
  0.30976284  0.33697468 -0.26743364  0.4079105  -0.0656071  -0.10358126
  0.10859163 -0.6040859  -0.14992137  0.23129825  0.33224088  0.01608001
 -0.29436812  0.08454951]
[-0.12172447 -0.09249389  0.16870138  0.28251246  0.11055183 -0.20957226
 -0.04077353  0.1713734  -0.12631321  0.094941    0.20866023  0.5039839
 -0.06873712 -0.16500594  0.04244819  0.4149075   0.55484444 -0.15067738
 -0.33203116  0.05166949]
[-0.4118878   0.4370988   0.02366988 -0.11263665 -0.0343655   0.12976989
 -0.17975909  0.01910483  0.18695457  0.33829072  0.17640671  0.25089493
 -0.0676467   0.3752562  -0.05088208 -0.00579832 -0.09850153  0.0793218
  0.5014634   0.11258905]
[-0.22789782  0.27762032  0.08100244  0.20142403 -0.04709543 -0.3364972
 -0.30575117  0.06795871 -0.05535384  0.22721262 -0.22908048  0.08721541
  0.23347858  0.42910555 -0.15419501  0.03838519 -0.1443857   0.2572908
  0.29819742 -0.19032618]
[-0.09681271  0.11111017  0.07501867 -0.26619774  0.12275898 -0.33568648
 -0.24426512 -0.28812173 -0.1499757   0.12928797  0.11875696 -0.3361158
  0.27021217  0.00668777  0.1532308  -0.22903767 -0.03152684 -0.07946871
 -0.24612603 -0.12501654]
[ 0.13897681  0.19494778 -0.07308204  0.22026879  0.04836588 -0.05318195
  0.2098491   0.3149494  -0.21334533 -0.46894178  0.26177925 -0.13878043
 -0.04581631 -0.19712025 -0.20663802  0.29342297  0.35593328  0.0520919
  0.04420227  0.16839196]
[-0.04509464  0.16927305  0.21861665  0.02159644  0.31514743 -0.31882286
 -0.00447905 -0.07956094 -0.12674981  0.07798989 -0.25098094  0.05155847
 -0.13743308 -0.22940978  0.27474704 -0.0398537   0.15914604 -0.12889214
 -0.2286155   0.23868074]
[-0.20510933  0.15479317  0.26620033  0.19655782 -0.09911087 -0.56508726
  0.6124209   0.42330942 -0.1448868   0.01309367  0.07435662 -0.36667696
 -0.11005538 -0.52674544 -0.24086212 -0.08151828  0.29000497 -0.42356336
 -0.20758922 -0.10602099]
[-0.05117479  0.02048626  0.40036392 -0.13772526  0.31077644 -0.22671653
  0.38528237 -0.1430388   0.04922576  0.07920092 -0.29927897  0.13141337
 -0.21551357 -0.6301824  -0.13991979  0.07882901  0.09055785  0.0369857
 -0.2992633   0.2673615 ]
[-0.14533949 -0.17485657  0.2737943  -0.14263284  0.19275358 -0.21987405
  0.07592431  0.12885189  0.15168759  0.33250424 -0.21057367  0.13138327
  0.25551173 -0.22279167 -0.13330016  0.20781791  0.24047543 -0.2841098
  0.11958218  0.12064662]
[-0.10000916 -0.02263666 -0.22725749  0.25729835 -0.28955722 -0.07329145
 -0.37509254 -0.00944403  0.15665361 -0.24662885 -0.0800528   0.04749413
  0.14564581  0.23375902 -0.08628923  0.04320094 -0.26833653 -0.22782151
 -0.0797369  -0.10758447]
[ 0.14591475  0.22883171  0.23223448 -0.09966413 -0.22374354 -0.19484505
  0.31309724  0.04363946 -0.24179038  0.15972194  0.02630085 -0.20648055
  0.27853096 -0.09946793  0.19037458 -0.01658797 -0.2754941  -0.24870294
 -0.05079191 -0.11177503]
[ 0.04644004 -0.43156204 -0.02301751  0.12035213 -0.13078451  0.07727053
 -0.17946759 -0.12905489 -0.13926464  0.13111848  0.14851654  0.24836095
 -0.02111251  0.01435984  0.10292339 -0.31320572  0.36288172 -0.2186854
 -0.29374173  0.12455869]
[ 0.12943691  0.06385869 -0.18877774  0.29083106  0.15265425 -0.28410262
  0.27047962 -0.1978295  -0.00281417 -0.17830512  0.02652671  0.19459507
  0.0128427  -0.12660486  0.09145176  0.0687014  -0.22930719 -0.19020444
 -0.17632356  0.17183086]
[-0.07599942  0.2857214  -0.03907626 -0.31673265  0.16869435  0.1149359
  0.23778787 -0.23651831 -0.15596434  0.24164382 -0.0806548  -0.24248265
 -0.18021768  0.06906004  0.05797338  0.17582469 -0.31619006  0.22198878
 -0.32925445  0.28099626]
[ 0.1519222   0.11001801 -0.05802384 -0.07213309 -0.08245594  0.15536556
 -0.16898984 -0.09554689 -0.07221249  0.12746212 -0.05147316 -0.23732422
  0.10717458 -0.14399979 -0.1002105  -0.18627363 -0.16019681  0.31191713
 -0.13468486 -0.05371125]
[ 0.00070253 -0.16170098 -0.15476356  0.17098269 -0.05563161  0.26412046
 -0.20320232 -0.11812486 -0.04745296 -0.00229294 -0.01216111 -0.10800084
 -0.11494806  0.09725753  0.01219886 -0.16049357  0.14256126 -0.15697731
 -0.27007484  0.06565078]
layer 5 Activation
tanh
layer 6 Dense
20 1
[-0.01271888]
[-0.10282323]
[0.00545906]
[0.05416645]
[-0.00937579]
[0.13793744]
[-0.03767697]
[-0.09477613]
[-0.00746452]
[0.13750789]
[0.01593893]
[0.12783712]
[-0.02320143]
[0.02208458]
[-0.00985576]
[-0.101142]
[0.05951602]
[-0.14054936]
[-0.10638998]
[0.00030843]
[0.11433753]
