layers 7
layer 0 Dense
20 20
[-0.1428202  -0.05914403 -0.01237656  0.45231628  0.03466641 -0.27530205
  0.20760816  0.13468069 -0.13235888  0.00550988 -0.21649623  0.26539835
  0.20114502  0.34353104 -0.11812165  0.02754088 -0.03362579 -0.00408815
 -0.5023342   0.36262164]
[-0.66734517  0.31436038  0.22616082 -0.10045768 -0.39867634  0.12422439
 -0.20064361 -0.29000267 -0.04856082 -0.57113665 -0.34105647  0.27549902
 -0.34051663  0.31596887 -0.03064571 -0.8371755  -0.11641207  0.125434
  0.03873257  0.6703728 ]
[-0.61189145 -0.28099093 -0.07121017 -0.50592417 -0.27513307  0.43129313
  0.11601772 -0.04599036  0.3492044  -0.1065609  -0.13657673  0.01495303
  0.13659835  0.5146701   0.1000609  -0.56278193 -0.01034512  0.49762356
 -0.09456301  0.648245  ]
[-0.11791736 -0.11009903  0.37652993  0.18981002 -0.00418954  0.3095563
 -0.15916568 -0.08334362  0.53019536  0.17593789  0.50533164 -0.26730078
  0.24186774  0.43313736 -0.08999935  0.09501685  0.18967381  0.0402461
 -0.8091604   0.6082679 ]
[-0.11971765 -0.04689318 -0.12440641  0.19000682  0.5596065  -0.04089278
  0.13403444  0.5413854   0.26592138 -0.276516    0.05818387 -0.0942473
 -0.2701625   0.35668385 -0.21770178 -0.0007149   0.38696024 -0.02537917
 -0.16452847  0.06359451]
[ 0.45097828 -0.15311015  0.08573783 -0.01801177  0.2666832  -0.3332808
 -0.06450717  0.3576958  -0.26153854  0.05087    -0.28766447 -0.8358198
  0.3601145  -0.52827567  0.1937119   0.49498695 -0.2745391  -0.56225854
  0.36719048 -0.427542  ]
[ 0.17928909 -0.19786753 -0.02493058  0.27094555 -0.1295448  -0.09833666
 -0.2695262   0.46998867 -0.11165289  0.16242416  0.18490374 -0.5723337
 -0.03874461  0.1781826   0.2955238   0.5374989  -0.14009161 -0.31148687
 -0.04226679 -0.07558427]
[ 0.3369106  -0.03005873 -0.40110672 -0.3059311  -0.04753597  0.20114392
  0.439897   -0.524063   -0.26321468 -0.35077637 -0.11223222  0.11897912
 -0.05723859 -0.12688825 -0.1778327  -0.76458967 -0.600217    0.49234384
  0.6500471  -0.6143067 ]
[ 0.6605067  -0.83284533 -0.33487323  0.53587496 -0.45832026 -0.3217737
 -0.3408127   0.5417874  -0.02864997 -0.3369321   0.26599845 -0.7219494
  0.8389408  -0.9447407   0.43521252 -0.7646602   0.1817626  -0.27972633
  0.5197316  -0.5591118 ]
[ 0.36290732 -0.38963088 -0.5599374   0.16562214  0.52926123 -0.11521962
  0.35569933  0.44372526 -0.24435923  0.18407238 -0.40998346 -0.07598738
  0.03689795 -0.29232794 -0.40649322 -0.32525754  0.18057925  0.07770192
 -0.28844383  0.04671436]
[ 0.3983621   0.18281788 -0.5099478  -0.25948998 -0.1533678   0.09993337
 -0.06842788 -0.16767535 -0.45472467 -0.00583924  0.06607444  0.18579043
 -0.04235287  0.37659758 -0.05038011 -0.2526041  -0.22356308 -0.27249268
  0.21089071  0.4251946 ]
[-0.37737566  0.25784847  0.09666535 -0.3702228   0.4434972   0.6523856
  0.97416705 -0.85171396  0.8267455  -0.06220848 -0.14397958  1.3330016
 -0.31040075  0.6784631  -0.2995989   0.3589123  -0.4127804   0.3033438
 -0.4426683   0.07872705]
[ 0.15020113  0.40675843 -0.3714384  -0.38587284  0.09853238  0.5230002
 -0.36907327  0.275688    0.4170066   0.18454556 -0.25015905  0.20343508
 -0.44288707  0.31762934 -0.2544512  -0.03768167  0.42565736  0.13052118
 -0.13744509 -0.06053508]
[-0.45824474 -0.02913066 -0.7668915   0.10657831  0.12531595  0.74859923
  0.36840457  0.13541491  0.64646435 -0.10210114  1.2305827  -0.6668747
  0.5765006   0.53750086 -0.36914274 -0.3079036  -0.9791481   1.028466
  0.07026673 -0.06200757]
[ 0.14154676  0.49109527 -0.33193088 -0.73343813 -0.7426211  -0.1743846
  0.98698354  0.07248896  0.38745376 -0.78211653 -0.37304243 -1.1225048
 -0.1427396  -0.6713065  -1.0913951  -0.37608933  0.8489673  -0.8031208
  0.09471264  0.01129751]
[ 0.6500898   0.60054845 -1.2111492  -0.7194841   0.20149146  0.19942467
 -0.9690164   0.5829879   0.31161195 -1.8072766  -0.5787431   0.11771798
 -1.2773316   0.5901179  -0.6768053  -0.36095756 -0.00319706  0.26918316
  0.15144074  0.0718124 ]
[-0.3957692   0.14813614  0.2199199  -0.08237146  0.00788184 -0.11858939
  0.8612138  -0.5580749   0.20467252  0.46496055 -0.19927166  0.49188682
 -0.14591023  0.03072919 -0.05053673  0.50843066  0.13035642 -0.12342588
  0.04757304  0.12291484]
[ 0.13547195 -0.12102771  1.8898213  -0.4486334  -0.09429979 -0.5412752
 -0.8411641   0.31569478 -1.1643946   0.07675495 -1.0040172   0.017332
 -0.77280563 -0.23874885  0.01708601  1.042327    0.7168439  -1.2688526
 -0.47482938 -0.05067448]
[ 0.10161199 -0.6276792   0.2497191   1.0952418   0.8798171   0.69812727
 -1.4700819  -0.198453   -0.0315985   0.4424234   1.2603617   0.6860611
 -0.47936296 -0.52974945  1.3325673   0.65195477 -0.72325295  0.87047917
  0.27902758  0.12974462]
[ 0.5694553  -0.12609953  0.6082661   0.6326287  -0.8488247  -1.5235871
  0.9499689  -1.2826641  -1.872278    1.2543589   0.32029095 -0.21258838
  1.8723334  -1.2560575   1.2444197  -0.2940206  -1.1294606  -0.94048613
  0.35787717  0.08661348]
[-0.24140933 -0.00981941  0.10654238  0.08844482 -0.13682799 -0.04732417
 -0.10709267  0.0501482   0.20969655  0.01672428  0.22752194 -0.10561273
  0.01932413  0.07938195  0.13169482  0.20905818  0.00640768 -0.13473305
 -0.27918112  0.199959  ]
layer 1 Activation
tanh
layer 2 Dense
20 40
[ 0.13314173  0.21605754  0.28950232 -0.0539477  -0.10628354  0.02993612
 -0.16724692 -0.05412426  0.3573573   0.21766734 -0.01579715  0.18047856
  0.26610354  0.08403236 -0.22450356 -0.03145032 -0.02398647 -0.12605242
 -0.10505887  0.21804002  0.03602327 -0.27303055 -0.24685249  0.1343714
  0.49483427  0.25098997 -0.14388755 -0.5151926  -0.0926789   0.1770611
 -0.12498569 -0.18062031 -0.17932945 -0.11365572 -0.08251158 -0.20726848
  0.11712803 -0.07087427 -0.12709735  0.04939035]
[-0.19852974 -0.09354588  0.24959423  0.2529453   0.14834419 -0.0082068
 -0.17439555  0.06054256 -0.35720104 -0.36967856  0.01850127  0.42080775
  0.0560342   0.38930553  0.05716795 -0.02401932  0.37542915  0.0512658
  0.13993743 -0.25969318 -0.03457126 -0.19202447  0.43611217 -0.34191015
 -0.30522004 -0.12533662 -0.02857777 -0.31669617  0.0944574   0.05641031
  0.02552409  0.00106504  0.06724679 -0.27701434 -0.01538083 -0.07074966
 -0.00701544 -0.26205403 -0.06767622 -0.6266219 ]
[ 0.6942437   0.33400875  0.12222335 -0.2667744  -0.5082926   0.04401293
  0.02212661 -0.11820424 -0.12552808  0.30524024 -0.1546003  -0.6263954
 -0.26334277 -0.78970313  0.00585302 -0.3323518   0.549435   -0.32025996
 -0.2066082   0.16675135 -0.14910035  0.38066554 -0.17111152  0.80298996
  0.21020558  0.12510048 -0.18658009  0.20191267 -0.6837227   0.16519153
 -0.4366774  -0.01352115  0.15528145  0.4537396   0.2886902  -0.11883885
  0.39649484  0.25878736  0.0841325  -0.21921316]
[ 0.4077436  -0.05127435 -0.3674434   0.09995309 -0.07310748  0.17423481
  0.3779773   0.22172357 -0.1554562   0.35981905  0.29962444 -0.23920362
 -0.2854203  -0.39203528 -0.23352201  0.20877343 -0.333762    0.19386865
  0.4544398   0.20453385 -0.01258255  0.15578477 -0.6541432   0.39138788
  0.21097945 -0.10285372 -0.49018386  0.7767937  -0.58298385  0.04135815
 -0.18007323  0.25967535 -0.3158785  -0.29947197 -0.08918254  0.09913548
 -0.0625274   0.16025494  0.19521183  0.11064634]
[ 0.40010053  0.2124671   0.21339175 -0.03728754 -0.5085495  -0.10427622
 -0.0948443  -0.003641   -0.06681889 -0.34747973  0.13933769  0.04193634
  0.2174776  -0.4928435   0.02683428  0.5590879  -0.30638552  0.12580973
  0.32681394 -0.47542387  0.12529428  0.06722334 -0.38603684 -0.05539655
 -0.10117917 -0.06695001 -0.15547572 -0.05307755  0.08232191  0.04767277
 -0.19414626 -0.1617896  -0.26001102 -0.01213609 -0.27505404  0.05971058
  0.20423433 -0.01681752 -0.7470651   0.10208045]
[ 0.29865333 -0.28532737  0.16694912  0.18829592 -0.45889887 -0.2940172
 -0.16086483 -0.18794598  0.04806985 -0.4164731   0.01238632  0.46770725
  0.4259141   0.07954273  0.15028352 -0.04948461 -0.02309132  0.22152983
 -0.02749437 -0.39130747  0.11404355  0.0082886   0.19202617 -0.36788896
 -0.5408538   0.14175488  0.72786635  0.20811588  0.6252876  -0.20323294
  0.42704016  0.047051    0.04358946  0.01826216  0.01884178 -0.12829047
  0.29868332 -0.29108816 -0.3141856   0.21490479]
[-0.42610794  0.72449696 -0.23258999  0.19954626  0.26158082  0.06869388
 -0.00441553  0.14058706 -0.39829928  0.0684611  -0.22870255 -0.07861136
  0.24868628  0.71646506 -0.26433697  0.21080539  0.4707625  -0.47002873
 -0.17356339  0.57062674 -0.22761257  0.36851922  0.47683084 -0.42347395
  0.13844958 -0.39201936 -0.18995175  0.569618   -0.65463334  0.16996722
  0.72803974  0.03762246  0.49674135 -0.01630711 -0.21240543 -0.38017592
 -0.22921439 -0.03343498  0.30080232 -0.3963259 ]
[-0.16918826 -0.02772404  0.39862984  0.28477517  0.14466625  0.14690964
  0.06659858  0.0144926  -0.16702843 -0.46438238 -0.10046453 -0.08592763
 -0.05085317 -0.00506871  0.11012528 -0.02670746 -0.21773864  0.20641743
  0.0777181   0.21131605  0.26454166 -0.34596506 -0.26237038 -0.05249676
  0.18960275  0.30460528 -0.3630973  -0.29674384  0.7150699   0.23980787
  0.28744516 -0.28690878 -0.38600108 -0.09657272  0.22247277  0.0840487
  0.2915876   0.01966552 -0.15997031 -0.13160205]
[ 0.36548787 -0.04997152  0.02533999 -0.12384112 -0.20004411 -0.1429494
  0.33534372 -0.41576183 -0.09814437 -1.0548376  -0.16629593 -0.0127166
 -0.42076215  0.21124087  0.18216273  0.5111701   0.11993675  0.26725143
  0.5245147  -0.20592727 -0.18324226 -0.00365553  0.2187615   0.0435999
 -0.54849815 -0.24221137 -0.03309739  0.7106307   0.55719453 -0.08081161
  0.9290005  -0.49187845  0.18788533 -0.2161852  -0.1807456   0.18499656
 -0.29848155 -0.34626463 -0.76854426 -0.51760745]
[ 0.27253827  0.22871538 -0.0432896   0.1546638   0.0118145   0.1754481
 -0.18741961 -0.3122809  -0.41859686  0.44181177 -0.05762611 -0.28154957
  0.07145116 -0.12744163  0.11576614  0.28862965 -0.08913964 -0.05535762
 -0.0734602   0.37563202  0.17750803  0.13018823 -0.20571549  0.20579767
  0.09636462 -0.0921167   0.15468179  0.07428148 -0.79941237  0.18610336
 -0.3594193   0.47045463  0.02809122 -0.11290124 -0.26522142 -0.40312302
  0.20816614 -0.27292785  0.27202663 -0.09188806]
[ 0.18646382 -0.40901998  0.08669116 -0.09853991  0.517218    0.23024051
  0.5454922  -0.41315517  0.2016785   0.3622885   0.2822837   0.07719645
 -0.09487314 -0.12885019 -0.41114944  0.3166008   0.05926881  0.36150354
  0.7743676  -0.14597665  0.40634134 -0.10815391  0.12235    -0.04307069
  0.39255163 -0.30812502  0.8219395   0.9996347  -0.27942988 -0.3466025
 -0.5421768  -0.29641727 -0.21365227 -0.48747358 -0.4506647  -0.34914872
  0.01118238  0.03443269  0.16345999  0.23907806]
[ 0.8177995   0.15825969  0.18456645 -0.01048539 -0.9328463  -0.16672125
 -0.08029475 -0.02912539 -0.23832993  0.13782258  0.01382476 -0.06978947
  0.08326514 -0.75304437  0.4820445   0.03011251 -0.24778646 -0.28917748
  0.0540368  -0.59935987 -0.25472215  0.23293556 -0.29834166  0.22638051
 -0.42233303 -0.4297593   0.619813    0.30450562 -0.25770032  0.20893496
 -0.31030422  0.573953   -0.08269691 -0.44258407 -0.02808697  0.20053177
  0.25122797  0.05110018 -0.72791266  0.8568875 ]
[-0.6675011  -0.13252784 -0.21371411  0.18127266  0.9153195  -0.07995385
  0.12903903  0.03756192 -0.227008    1.2804022  -0.05409894  0.4810425
  0.05753592  0.61590016 -0.32392505 -0.22718856 -0.2943537  -0.0811369
  0.04864645  0.87161845 -0.28736395 -0.37827793 -0.39058936 -0.23512913
  0.7735264   0.26965976  0.27224016  0.4576295  -0.5546528  -0.25709054
 -0.84566736 -0.322481   -0.06789388 -0.39049885 -0.69191086 -0.13290857
  0.26220918 -0.20881526  1.2996078   0.01292897]
[ 2.40605563e-01 -8.29838589e-02  4.01887298e-01 -2.91698456e-01
 -2.28804454e-01 -2.25685257e-03  3.33554029e-01 -1.48646802e-01
 -5.56614816e-01 -6.91291928e-01  1.07076176e-01  4.64460291e-02
 -5.29222608e-01  1.66945800e-01  4.01004553e-01  5.77446893e-02
  2.74620444e-01 -2.92064045e-02  1.40582025e-01 -5.01348615e-01
  1.72714725e-01  2.78163135e-01 -2.32903942e-01 -9.85192284e-02
 -4.81042624e-01 -3.78724962e-01  7.22717702e-01  1.37668625e-01
  7.14075327e-01 -1.89796627e-01  2.79860467e-01 -2.66092479e-01
 -2.77330309e-01 -1.18052185e-01 -2.25838318e-01 -9.42472252e-05
  2.44387556e-02 -3.81399356e-02 -9.61967468e-01 -2.39353508e-01]
[ 0.60751486 -0.13986555  0.12829627 -0.17729916  0.29707137 -0.22693393
  0.36751482 -0.136439    0.02954766  0.26975477  0.1990299  -0.4174602
  0.04988239 -0.17716768 -0.00527035  0.09458451  0.09965492  0.07218523
  0.4727995   0.6117532   0.0448141   0.34285986 -0.42866898  0.56292766
  0.6336475   0.17208134 -0.15280992  0.4799968  -0.3864717   0.11312088
 -0.84777266  0.3277479   0.36891532 -0.01880458  0.19079015 -0.30129746
  0.33389384 -0.2639578  -0.05704044  0.12707911]
[ 0.3210627  -0.08362507  0.3284168   0.02303278 -0.2651221  -0.17992386
 -0.16488765  0.34404472 -0.37697858 -0.0675591  -0.00682467 -0.3906148
 -0.38621044 -0.28032804 -0.11929854 -0.36115044  0.44541308  0.13962625
 -0.02574421 -0.0952583  -0.00260481  0.2996185  -0.3729844   0.5910585
 -0.00568361 -0.2975556   0.02911865 -0.08517034 -0.20097077  0.14117235
 -0.25484282  0.22158702 -0.11704202 -0.09003802  0.10700876 -0.14791514
  0.27683452  0.23161986 -0.5486705   0.07972474]
[ 0.12885036  0.26969805  0.508744   -0.3020044   0.00784461 -0.615375
 -0.6972692   0.15757671  0.17457326 -0.74940705  0.08204801 -0.7885109
 -0.24451235 -0.6053429  -0.13769904 -0.27806467 -0.03531752  0.09859901
 -0.12159929  0.24578287 -0.06936409  0.15633191 -0.07730409  0.07535879
 -0.21038413 -0.06877016 -1.2466168  -0.6765268   0.5367519  -0.14597286
  0.74167305 -0.0929645  -0.6481442   0.30213937  0.0030203  -0.055843
 -0.72770274  0.26421472 -0.1893084  -0.599508  ]
[ 0.02255074 -0.6464388  -0.21004304 -0.21631242 -0.14656958 -0.08950112
  0.689059   -0.5479174   0.20870458 -0.34453827 -0.28725845  0.42424116
 -0.10350475  0.23733602 -0.18079948  0.7371662  -0.02091668  0.73415506
  1.1639732  -0.57756144  0.4485354  -0.27553898  0.40624055 -0.04803854
 -0.3438769  -0.15166517  0.6369845   0.6510644   0.33970916  0.28364784
  0.04552331  0.15097398 -0.0992306  -0.5863355  -0.25990885  0.07701017
  0.57530546 -0.43089792 -0.5191947   0.00364914]
[-0.3194947  -0.19015127 -0.06567214  0.6566382   0.12825741 -0.13980302
  0.04217088  0.17659013  0.06801777 -0.03393063  0.12901172  0.31926936
  0.7168959   0.06767326 -0.33585012  0.00828472 -0.27107847  0.18562093
 -0.06962713  0.07817175 -0.05923601 -0.15766878  0.18945284 -0.11547042
  0.45058256  0.11175961  0.1484901   0.0586648  -0.14213753 -0.21533254
 -0.04839402 -0.2303427   0.788466    0.11141904 -0.1920718  -0.0074709
 -0.26201138 -0.0508347  -0.07331993  0.37307817]
[-0.0735307   0.21225281  0.10228534 -0.65323925  0.07728395 -0.18762903
  0.18526052 -0.06805278 -0.47175092 -0.10643033 -0.1096098  -0.43800068
 -0.6344864  -0.17895018  0.39054236 -0.02454968 -0.08192942 -0.21796086
 -0.09089885 -0.12820016 -0.11749484  0.19476412  0.03407935  0.16382991
 -0.0375721  -0.3373825  -0.17804702  0.30953744  0.07247736  0.26921663
 -0.26459628 -0.10706141 -0.8172379  -0.13123262  0.06227284 -0.11750878
 -0.14974536 -0.11759831  0.0550434  -0.32877365]
[-0.07648648  0.00406392  0.10333426 -0.59271115  0.09812472 -0.05218494
  0.06171046  0.03939252 -0.22460508  0.13182214 -0.13366838 -0.3355569
 -0.49434325 -0.20420605  0.37550434 -0.159121   -0.06317445  0.0572644
 -0.178949   -0.08296826 -0.1065817   0.2436614  -0.2974274   0.20555198
 -0.12552579 -0.11498781 -0.079816    0.05776932  0.29461145 -0.00178068
 -0.19881956 -0.14662014 -0.68797755  0.06407326  0.10685003  0.00555661
  0.10664695  0.07832636  0.1235151  -0.5751208 ]
layer 3 Activation
tanh
layer 4 Dense
40 20
[-0.09977651 -0.25556624  0.09304368 -0.07098743  0.37204182 -0.18593796
 -0.11385979  0.32827306  0.0195135  -0.25244355 -0.19319719 -0.30764532
  0.07759663  0.3403172   0.19825375 -0.13415577  0.316487   -0.10644118
 -0.05954779  0.27953172]
[-0.19333875  0.35010323  0.31272     0.00852578 -0.24834208 -0.26253286
 -0.16627653 -0.20107707 -0.00363096 -0.2894974   0.01696972  0.08935592
  0.15764709  0.02019892 -0.21046735 -0.17896299  0.03059219 -0.03668724
 -0.00932907  0.07152734]
[-0.13577092 -0.02798062 -0.17155008 -0.35559702 -0.07050476 -0.24860893
 -0.04439948 -0.18249042 -0.30414718  0.63159597  0.10005916  0.16464968
 -0.30308384 -0.04516711  0.00558392 -0.04637134  0.11342304 -0.19295686
 -0.04586341  0.04912123]
[ 0.03184818 -0.09988822 -0.14646135  0.4223635   0.10075812 -0.18084036
 -0.02442476  0.13622701  0.4041186  -0.00801675  0.09771985  0.13937211
 -0.15371081  0.19686775 -0.07406204 -0.09686459 -0.49417824 -0.12710492
  0.11194138 -0.7514013 ]
[-0.0812602   0.14583595  0.20883003  0.26315913 -0.28699     0.51071703
  0.10745612  0.36070403  0.1743064  -0.3576849  -0.18002635  0.05215135
 -0.2645522   0.10379063 -0.16041955 -0.19644098  0.06404299 -0.16171487
 -0.0723725  -0.23925701]
[ 0.05601951  0.00352889 -0.02130613  0.1076382  -0.01735146  0.05520341
 -0.15930405 -0.05402321  0.09869838  0.234463   -0.2064667   0.2915455
  0.09949101  0.28802565 -0.145137   -0.22062504 -0.02073992  0.36010286
  0.30544463 -0.10107757]
[ 0.00673391 -0.4224235  -0.35538432  0.2618004  -0.04483852  0.38825908
 -0.01943032  0.00084268  0.05532777  0.4414183   0.05944603 -0.30517638
 -0.05558804 -0.1571974   0.43528003 -0.19402461  0.08423073  0.1571588
  0.16765846  0.00818847]
[-0.24674882  0.28030643  0.12621236 -0.24739838 -0.08530121 -0.04447686
 -0.5092912  -0.06710307  0.07126024 -0.5214658  -0.2537717   0.19707265
  0.052404   -0.15491293  0.10021924  0.35100716 -0.21174793  0.13378279
 -0.04129487  0.0621822 ]
[-0.31725076 -0.27014345  0.03019053 -0.06885506  0.20211008 -0.08397505
 -0.08852811  0.578465    0.15872163  0.06001658 -0.2162231   0.12328967
 -0.03757063  0.14986022  0.27078772 -0.0739812  -0.3455083  -0.02769394
 -0.0614796  -0.09135686]
[ 0.25070587  0.55130386 -0.03648051 -0.1600988  -0.01838304  0.25775266
  0.1499976  -0.19010021  0.41203797  0.43943083 -0.0783513  -0.25102422
 -0.05058751 -0.06595572  0.06165349  0.22743219 -0.24776037 -0.07849956
 -0.06841667 -0.52304184]
[ 0.17493518 -0.00464476 -0.10154721 -0.06509757  0.19944717  0.00213822
 -0.26324806  0.1886293   0.22506863  0.21853894 -0.04598618  0.09511432
  0.39531264  0.16718975  0.08961595 -0.20601107 -0.07074937  0.26257062
 -0.16440588 -0.16886625]
[ 0.01855771 -0.26036853 -0.0984951   0.36030713  0.04373362  0.06618351
  0.3662851  -0.08643918  0.19608667  0.0201549  -0.37606534  0.1779324
  0.14662233  0.19118218 -0.02882228  0.0618056  -0.363235   -0.19213204
  0.09364024 -0.5870845 ]
[ 0.22901459  0.12697166 -0.00832226  0.45802996  0.263585   -0.13169901
  0.22445112  0.23249163  0.5383203  -0.39364803  0.12862976 -0.06752983
  0.02175087 -0.17263107  0.04059528  0.02217619 -0.49375314  0.26513433
 -0.02286899 -0.525189  ]
[ 0.00633363 -0.20340464 -0.15199651  0.32476157 -0.32672504  0.20303613
  0.04127885 -0.34807888  0.02591899  0.12865889  0.00962809  0.21963388
 -0.04816318  0.00212427  0.3035771  -0.00685493 -0.28300163 -0.11235451
  0.16542564 -0.6780355 ]
[ 0.22621351 -0.06948113 -0.05414957 -0.2928754  -0.23245533 -0.00274668
  0.03713954 -0.5501287  -0.51188666  0.21737789 -0.03789466 -0.23849936
  0.0061218  -0.07287775  0.09962658  0.05818292  0.25428358  0.27360636
  0.0472977   0.13906507]
[-0.00198842 -0.20830695 -0.03138262  0.1254011   0.26753366  0.05519794
  0.44438177  0.02560832 -0.08755957  0.34752575  0.16982086  0.03893063
 -0.02062174 -0.14706814  0.09087871 -0.095406   -0.00552079 -0.15258661
 -0.19546783 -0.3205751 ]
[ 0.07738893 -0.1276111  -0.05102703  0.16091003  0.00692525 -0.2611102
 -0.48061034 -0.27605885  0.10611651  0.00115193  0.294978   -0.16365463
 -0.38777497 -0.15619801 -0.16750664 -0.1095655   0.48211604  0.1771197
 -0.12125102  0.28144297]
[ 0.2352881  -0.2761943  -0.20088197 -0.13433747 -0.13330838  0.43822888
  0.41252553  0.51836014  0.05530071  0.3446666   0.21828696 -0.25971034
 -0.0237358  -0.36119592  0.2845019   0.04577437  0.26640195  0.30356422
  0.14972137 -0.04528621]
[-0.06782761 -0.21871105 -0.003023   -0.17273623  0.30349967  0.3633992
  0.4792724   0.13398859  0.12121037  0.364632    0.20769736 -0.2625117
  0.10265216 -0.04187908  0.06543412  0.09276386  0.15142882 -0.19044751
 -0.07566482 -0.30075872]
[-0.02250004  0.3503589   0.09251393  0.14949073  0.02001827 -0.07652523
 -0.1924005   0.5105775   0.4857286  -0.0532257   0.18820998 -0.03465422
 -0.16365498 -0.18765424 -0.11236958 -0.06602617  0.21452764  0.04106537
  0.03034137  0.02370515]
[ 2.4534263e-01  6.8251742e-03 -3.6584511e-01  1.5373272e-01
  3.1826091e-01 -1.3117908e-01  4.2144912e-01  1.9999456e-01
 -6.0092146e-04  7.4420553e-01  3.0694997e-01 -2.7235875e-01
  2.4295753e-02 -2.8162107e-01  3.2503188e-01  8.9593731e-02
  8.1620522e-02  1.4789936e-01 -4.1852575e-02 -6.5952778e-01]
[-0.23030771  0.17561583 -0.03875028 -0.28625202 -0.01022917  0.03163082
 -0.48947427 -0.3941969  -0.10982237  0.2976908   0.37314487 -0.43919078
  0.09383599  0.16810335  0.10035861  0.20919116  0.12386511 -0.1891696
  0.06501821  0.47915965]
[-0.37225887 -0.24630105 -0.10718936  0.08671626 -0.01262132 -0.47091898
  0.18558715  0.23324807  0.26638836 -0.02843565 -0.06916883  0.11806051
  0.01629022 -0.17304642  0.34446755 -0.35189894  0.00933263 -0.02602211
 -0.26117763 -0.25494835]
[-0.01210763  0.09031732  0.02882387 -0.2547857   0.30628845  0.01035201
 -0.24608272  0.33326218 -0.00501655 -0.0704489   0.2204691  -0.5249187
  0.0390631  -0.02983651 -0.06924627  0.18378088  0.21947415 -0.07378133
  0.18884389  0.74131036]
[ 0.068887    0.16429223  0.00453753 -0.15611573 -0.07731328  0.30388376
 -0.3507235   0.3002382   0.48346883 -0.02464074 -0.43233612  0.1559873
  0.08979067 -0.1443162  -0.23825327  0.07267729  0.12806481 -0.17149568
 -0.05526857  0.07143421]
[ 0.31499475  0.10367746  0.09744095 -0.10185509 -0.04304319 -0.17814042
  0.00272915  0.36793596  0.28844646 -0.1250113  -0.15435943  0.44487566
 -0.02978328 -0.1425312   0.03360089  0.04923804 -0.18776338 -0.2219547
  0.3807097  -0.27296212]
[-0.06971146 -0.39230257 -0.26371488  0.16978142  0.14089146  0.21884677
  0.09801552 -0.6465397  -0.03164052  0.8038463   0.17792523 -0.06068173
 -0.19679138 -0.3563109  -0.18213968  0.18307027 -0.3154242  -0.22357889
  0.16574576 -0.65626204]
[ 0.1119749  -0.37767535  0.18194564  0.39852932  0.0515043   0.39004862
 -0.21366198  0.01369583  0.2653268   0.11802806 -0.1091786  -0.19803838
 -0.03891147  0.01579405  0.01479321 -0.19520985  0.59775305 -0.14915429
 -0.06003595 -0.01916861]
[ 0.03513606 -0.10429827 -0.09048295 -0.14013623 -0.2605635   0.58587104
  0.5969057   0.08850918 -0.7087021   0.64317966  0.12729874 -0.00469008
 -0.04346616  0.12355405 -0.15004493  0.11603843  0.21956076  0.1972653
 -0.08321699 -0.11231444]
[ 0.20286143  0.04358807  0.19894992 -0.2036586   0.04167773 -0.18888046
  0.08833811 -0.06524722  0.05758614  0.00843943 -0.07496858 -0.23821475
 -0.05438349 -0.01784321  0.14876698  0.01812381  0.03616607 -0.30318686
  0.09891397  0.19474298]
[-0.2088776  -0.50042564  0.34594506  0.4049436  -0.18105629 -0.6297054
 -0.41453427 -0.41458908  0.00123046 -0.6806023   0.43899563  0.38554734
  0.02439422 -0.2009566   0.0317203   0.15710536  0.5089352  -0.03940481
 -0.19387119  0.00236615]
[ 0.34527206 -0.09734581  0.21854694 -0.12400089  0.6544836  -0.29017347
 -0.24088845 -0.40355158  0.1489702   0.15223296 -0.03170809 -0.09758621
  0.18233688  0.06476088 -0.0833462  -0.20477316 -0.19645147 -0.03536394
  0.12349418  0.27786413]
[-0.19878535 -0.37576252 -0.14157805  0.2917205   0.32082224 -0.09436046
 -0.15016605  0.1233239   0.30137742 -0.4005642  -0.11384311 -0.2254904
 -0.07496766  0.18434665  0.14932637 -0.07980476 -0.3087386   0.1709016
  0.18322794 -0.23594184]
[-0.30220336  0.11504846  0.38845798 -0.16732654 -0.06967169 -0.23705752
 -0.22640571  0.10712083 -0.08656007 -0.00719153  0.36514956 -0.08707191
 -0.2723785  -0.11359909  0.01675656  0.19498248 -0.10596009  0.07075279
  0.01649986  0.36499855]
[-0.01123221  0.00286825  0.05599677 -0.3108812   0.01965249 -0.26756474
 -0.13371181  0.04790628 -0.01815269  0.25827727  0.0693406   0.10284982
 -0.01881892 -0.1180181  -0.28369778  0.0982781  -0.07099406  0.08531935
 -0.02796681  0.27938786]
[-0.25342005 -0.07548399  0.02312782 -0.19007349  0.0833649  -0.02335559
  0.11564706 -0.03705188 -0.40556616  0.07604435 -0.0992221   0.15925606
 -0.11235604  0.13678022  0.01468193 -0.17235991 -0.14500497 -0.06061897
  0.21705228 -0.2937173 ]
[ 0.3926513  -0.23784359 -0.31110042 -0.29376563  0.19739598  0.02414896
  0.10188094 -0.1556964   0.24222884  0.36927575 -0.21169013 -0.3881575
  0.08287475  0.18696494 -0.14564887 -0.08154272  0.04761833 -0.06983388
 -0.09265839  0.25179785]
[-0.2101171   0.01641354  0.33223107 -0.36034563 -0.06006745 -0.29216325
 -0.47886676  0.12276693 -0.08863062 -0.39995164 -0.03004003  0.00371115
 -0.06927436  0.1476209  -0.41327313  0.15713955 -0.11986139 -0.03232977
  0.25794926  0.41825607]
[ 0.3573382   0.31588277  0.14825782 -0.25227588 -0.4832122   0.46439406
  0.05768659  0.16142158  0.3159229  -0.336988   -0.12579617  0.4723238
  0.08346038  0.18788777 -0.05181323 -0.00662037 -0.21903783 -0.05013603
 -0.02159149 -0.28060305]
[ 0.33868825 -0.17149867 -0.08052729 -0.12230646  0.53070164 -0.08695948
  0.14317617  0.18906614  0.35748988 -0.11106632 -0.40314955 -0.11338191
  0.22109035 -0.01793009  0.19797967 -0.03195367 -0.3285057   0.0261233
 -0.33317778  0.02972899]
[-0.07200982  0.14949031  0.02513098 -0.18441583 -0.20477533  0.16256402
  0.08830322 -0.17191891 -0.19469523  0.12251955  0.02867171 -0.0862947
 -0.00860764 -0.03592499 -0.09372673 -0.00869731  0.17283656 -0.03367485
  0.06821889  0.2196687 ]
layer 5 Activation
tanh
layer 6 Dense
20 1
[0.02520658]
[0.25084952]
[0.01244646]
[-0.19395347]
[-0.14902154]
[0.17868622]
[0.1381794]
[0.12535302]
[-0.16555996]
[0.10841195]
[-0.02188434]
[0.00587586]
[0.01328131]
[0.00979017]
[-0.01124338]
[0.01801062]
[-0.34668365]
[-0.00462772]
[0.00340221]
[-0.0511873]
[0.16170345]
