layers 7
layer 0 Dense
20 20
[-0.23942652  0.35087413 -0.19063856  0.12357229  0.09578427 -0.23263629
 -0.43625438  0.22486441 -0.18720709 -0.23396967 -0.3745746  -0.15976286
 -0.12905134  0.12199177 -0.43137518  0.10401419 -0.07898328  0.01238945
  0.01295996 -0.17564103]
[-0.40331733 -0.41690847 -0.27335307  0.24379571 -0.4552866   0.4272662
  0.0908972   0.57717407 -0.01276737  0.4066229   0.0730426   0.22738239
  0.15645379  0.12842646  0.18959284 -0.08020189 -0.72904015  0.11161993
  0.48255485  0.15688717]
[ 0.10806547 -0.09660649 -0.0804356   0.15540749  0.21496394 -0.02953773
  0.6920702   0.04906968  0.36125553  0.3043558   0.24775946  0.02150914
 -0.4208721   0.38412014  0.38824657 -0.29680616 -0.12401754 -0.13534068
  0.16376087 -0.05446613]
[ 0.01639681  0.10348951  0.21779808  0.32421473  0.27264187  0.04606372
  0.06670769  0.05233612  0.17362195 -0.03336627 -0.54446036  0.10110389
  0.06538191 -0.3900789  -0.28377277 -0.02470346  0.09847609  0.24444894
  0.3647599   0.1153817 ]
[-0.08800725  0.5657469   0.2284573   0.14704059  0.07577746  0.21850187
 -0.03569509 -0.35211417 -0.22134547  0.31766522 -0.1300239   0.07255348
 -0.26136532  0.22990775  0.12318908 -0.02483197  0.21551143 -0.08875305
 -0.27641633 -0.18231964]
[ 0.50278074 -0.09762852  0.09175012 -0.27519193  0.3225415   0.04292258
 -0.7678994  -0.24061716  0.2439557  -0.04039617  0.07715526 -0.2909041
  0.53675944 -0.07405569 -0.08596556  0.29064125  0.45550513 -0.01529772
  0.22882214  0.10653162]
[ 0.32231385 -0.19913869 -0.40369534  0.17375469  0.10063897 -0.01649723
 -0.37143466 -0.27625477  0.26211226 -0.31459773  0.13904883 -0.22010766
  0.60351574 -0.2980552   0.4477631  -0.14259863  0.16658719  0.32766515
 -0.49357674 -0.33681044]
[-0.04453638 -0.17417265 -0.23299077 -0.30073154 -0.17788148 -0.20974177
 -0.2372145  -0.2933418   0.03022596  0.20300652  0.25822258 -0.23092152
 -0.13735431 -0.27143526 -0.05501849 -0.2857934   0.10931213 -0.03634843
  0.22852252  0.05940368]
[-0.31377485  0.47773162 -0.42113358 -0.42087764 -0.17799124  0.42585522
  0.28271168  0.1377117   0.5085949   0.5679411   0.27339286  0.05304461
 -0.15190141  0.01959168 -0.6464374   0.56643087  0.45772785 -0.47098505
  0.05937297  0.4736002 ]
[-0.00632036  0.33019492 -0.23992404  0.07998547 -0.11060262  0.8174377
 -0.5274308  -0.17755862  0.16536231  0.70097566  0.20018351 -0.9588343
 -0.40220866 -0.36494637 -0.21554942 -0.01475272  0.06883807 -0.5288583
  0.509816   -0.26496884]
[-0.39157224 -0.0343513  -0.49714568 -0.5780497  -0.43534046  0.09303636
 -0.39248505 -0.31102428  0.21364428  0.3435819   0.3344607   0.48250094
 -0.15300831 -0.10796563 -0.3343196   0.01449944 -0.05131508  0.0404777
  0.43246543  0.23156504]
[ 0.0919606   0.7307888   0.47867852 -0.24273974  0.48993516  0.91758734
 -0.03186859  0.02836403  0.97540176  0.30560815 -1.109411   -0.02777277
  0.15778837  0.3001001  -1.4651346   0.7150068  -0.07430793  0.11241038
 -0.4392684  -0.04783874]
[-2.27371201e-01 -2.77011931e-01  3.26823443e-01 -1.03822805e-01
 -2.77728856e-01 -3.80518381e-04  1.11765817e-01 -5.86104453e-01
 -1.77484930e-01  7.48817846e-02  1.27478734e-01 -2.05438435e-01
 -1.98727459e-01 -4.45083112e-01  2.73356140e-01 -4.51210976e-01
 -5.73365211e-01 -3.31835061e-01  1.15545511e-01 -2.71608323e-01]
[ 0.4611015  -0.5434978  -0.06019792  0.05313658 -0.18356827 -0.57552856
  0.4646892   0.01026034  0.54865664 -0.7040729   0.21875843  0.43970987
  0.23297337 -0.02424661  0.0624704   0.17167492 -0.21931918  0.45855153
 -0.5318064  -0.19440155]
[ 0.37432626 -0.30279422  0.04397548  0.22268584  0.34978285 -0.20026891
  0.4439174  -0.10832117  0.31340405 -0.00191217 -0.26504084  0.0996604
 -0.08549174 -0.30691558 -0.08018851 -0.32286248  0.23958498  0.12363116
 -0.16704106  0.07589432]
[-0.07792751  0.05145507 -0.40351117 -0.48597643 -0.5448675  -0.2600553
  0.5371772  -0.13016243 -0.12843353  0.18213667 -0.6828211   0.34794492
  0.03038517 -0.22084785  0.06740613 -0.2062609  -0.16331454 -0.1041837
  0.4876477   0.5248782 ]
[-0.28402454  0.020815   -0.22936943  0.10520539 -0.07286061  0.04148979
 -0.75971895  0.162679   -0.24794948  0.0268638  -0.04035749 -0.18162665
 -0.11891132  0.24969585  0.3189073  -0.43578848  0.05554392 -0.09830398
  0.26101798 -0.3865747 ]
[ 0.07615402  0.73938805  0.31167307 -0.25724986  0.5226321  -0.4125351
 -0.30647463  0.18293941 -0.30029187  0.41818368  0.09286141 -0.21241593
  0.20353095  0.09503117  0.4605941   0.4135238  -0.13449587  0.18566377
 -0.23688778  0.4004233 ]
[-2.0816550e-01 -9.6646979e-02  5.8343571e-01  2.5710523e-01
  3.9073455e-01  1.4084476e-01 -2.3261552e-01  3.9330083e-01
 -5.8901799e-01  1.1152284e-01  3.9532834e-01 -4.5342603e-01
  2.1405483e-02 -5.7218573e-04 -1.1338387e-01  1.8567102e-02
 -8.0542192e-02 -5.5613494e-01 -2.9555061e-01 -4.0395266e-01]
[ 0.06904778 -0.60178924  0.15667726 -0.28595045  0.26728278 -0.53790444
 -0.7040107  -0.09789975 -0.36687136 -0.05662807  1.0170017  -0.02990841
  0.41681504 -0.09475338  0.08926072 -0.04377279  0.15233018  0.42185733
  0.46825197  0.1074698 ]
[ 0.09378885  0.07057232 -0.00218602  0.10957216  0.13824253 -0.22500373
  0.16233493  0.14679423  0.01624178 -0.17170534 -0.2885365  -0.09051507
  0.0799812  -0.05308336 -0.04980225  0.05069074  0.16596597  0.16747227
 -0.05897993  0.12670606]
layer 1 Activation
tanh
layer 2 Dense
20 40
[ 0.23951866  0.15399218  0.04640178 -0.20077412 -0.18621913 -0.02139217
 -0.37988034  0.27340525 -0.03313444 -0.27654138  0.19858079 -0.06015312
 -0.10138907 -0.08346556 -0.10023692 -0.09145791  0.1785757   0.05141805
 -0.17801933  0.25897086  0.251476    0.38793302  0.1637349   0.13045496
 -0.10838061 -0.09040888  0.01745989  0.14828587 -0.12347551 -0.18728676
  0.23419483 -0.30383056 -0.22382046 -0.1119866  -0.19916832 -0.03896672
  0.01636788  0.07309081 -0.13692635  0.24729781]
[-0.23810394  0.05047276 -0.4302386   0.18300895  0.07383871 -0.28076574
  0.06706276  0.08086324 -0.10783228 -0.20243758  0.15477574 -0.11342892
 -0.40028113  0.23135345  0.39236036  0.17849347  0.24044555 -0.13500091
 -0.08037531  0.2418808  -0.03473246 -0.4657476   0.27538717 -0.26916453
  0.2900774   0.20272295  0.14556871 -0.24081507  0.04580233  0.20954883
  0.31208777  0.11786743 -0.07325592  0.43613777 -0.22790894 -0.5447554
  0.19964111  0.5077691  -0.19968979 -0.3499194 ]
[ 0.01096843  0.22046666  0.23959239  0.09496439  0.47442132 -0.08555935
 -0.08103031  0.05855446 -0.1629148  -0.25135463  0.15506561  0.18551444
  0.01837854 -0.39543337 -0.1377986  -0.07186651 -0.16041215 -0.20989637
 -0.26199722  0.45023775  0.05433738  0.16529195  0.19854304  0.1637129
  0.36475486  0.14906755 -0.21623775  0.31279352  0.12613276 -0.15031968
  0.13953929  0.04063191  0.05434766  0.21801743  0.01158664  0.18127215
 -0.21118504  0.05899014 -0.13855608  0.04908579]
[ 0.15106158 -0.3451525  -0.05818996  0.20442802  0.264914    0.17245422
  0.24535564  0.15024143 -0.18967462 -0.30483264  0.22323906  0.01558977
  0.08806621  0.0016113  -0.33088103 -0.18324868 -0.29812983 -0.2230394
  0.00372319  0.37960535  0.32149854 -0.24464276 -0.36294755  0.07861936
 -0.05078067  0.14964     0.34256396  0.34809893 -0.18977202 -0.12333955
  0.30949402  0.14094739  0.19410026 -0.10840518  0.07673083 -0.08316887
 -0.06385873  0.19196534  0.10776304  0.06014057]
[ 0.04212167  0.09022211 -0.22375251  0.16225833  0.03148868  0.0055972
 -0.09468011  0.2308903  -0.14075269  0.07806793  0.2802256   0.11537969
  0.09118244 -0.398256   -0.4631656  -0.3065069  -0.27893272 -0.02738436
  0.11237856  0.07018497  0.35418066 -0.06625713  0.20081374  0.11731135
 -0.04170437 -0.5319659  -0.29107434 -0.12433384 -0.36701256  0.33754706
  0.04250735 -0.5437733   0.39508885 -0.05939823  0.18156768  0.01494111
 -0.17009135  0.3676112  -0.17145887 -0.10942922]
[-0.40252417 -0.03925725 -0.17319992  0.2915051  -0.256861   -0.44546285
  0.19529651  0.17983852  0.15112251 -0.0080069   0.27322984  0.10971491
 -0.04221814  0.2568744   0.8362435   0.38424262  0.17705777 -0.20603685
 -0.05775775 -0.1820381  -0.33080024 -0.34682664  0.16304594  0.10661241
 -0.08628245  0.20729886 -0.221891   -0.17954378  0.25540966 -0.00437789
  0.11594757 -0.38704318 -0.24782982  0.26214358  0.15886886 -0.4263751
 -0.16471776  0.3651312  -0.2380169  -0.2847607 ]
[-0.06032966  0.21382572 -0.10327782 -0.07239439  0.24883105  0.5009436
 -0.10087834  0.10451677 -0.12334313 -0.8132909  -0.19414668  0.413473
  0.2503938  -0.21720082  0.1410954   0.01188743  0.5519784  -0.09719386
  0.0182303  -0.31943664  0.46828562  0.0970998  -0.3118469   0.21329875
  0.0245703   0.51255524 -0.00141392 -0.22374924  0.06422831  0.07966283
 -0.2263491   0.49958706  0.4127543  -0.13133095 -0.29269123  0.6920359
 -0.05662166  0.18008457  0.28484625 -0.01936326]
[-0.00087266  0.12115072 -0.01063195  0.02033963 -0.26490375  0.13535851
 -0.00544284  0.1113299   0.0648515   0.0815619   0.06002903  0.28432447
  0.0850312  -0.22403166 -0.18021955  0.2832286  -0.12532371  0.23519301
 -0.19437787  0.07361191  0.21728213  0.24709249  0.2403962   0.37310654
  0.13230434 -0.05175907  0.15371183  0.35529265 -0.12311405  0.00573384
 -0.20957622 -0.01905232  0.20031229 -0.08002966 -0.03719373 -0.11964685
 -0.05185002  0.00585084 -0.47525746  0.15913036]
[-0.1720759  -0.16155809 -0.16786715 -0.41926366 -0.06179042 -0.17518163
 -0.21420027 -0.06689416 -0.30014136 -0.0731529   0.31808704 -0.30736965
 -0.10588469  0.30229324  0.12786223  0.05629118  0.38482758  0.31483167
  0.12574327  0.16811042  0.3191179   0.1444279   0.06811035  0.24530938
 -0.3033605   0.28524312  0.19469662  0.08741607  0.13381422  0.32241777
  0.03693863  0.17477962 -0.2630514  -0.5578166   0.32331634 -0.08871331
  0.03415877 -0.23569313  0.1160345   0.18417004]
[-0.33836854 -0.07078177 -0.22247083  0.1668295   0.26711425 -0.12399622
  0.13837671  0.06989338  0.41706982  0.12590761 -0.13465606 -0.2649564
 -0.00575649  0.35277483  0.19424167  0.29230276  0.02743356  0.23068634
  0.0820528  -0.35609365 -0.03698165 -0.5149961   0.5303822  -0.03890589
  0.16729505 -0.3377178   0.17261334 -0.39791772 -0.03612315  0.09219222
  0.09641248  0.13827546 -0.19197711  0.42913693  0.356383    0.15037538
  0.15067063 -0.00372614  0.20717737 -0.18641672]
[ 0.4300237  -0.12243304  0.27323195 -0.04274825  0.01865633  0.04696303
 -0.17507571  0.26418918  0.09322643  0.2377822  -0.10854736 -0.1538306
 -0.15016553  0.31481972  0.21292372 -0.00423276 -0.29355478  0.07397968
 -0.29338244 -0.24663576  0.05681575  0.31629413  0.03553908 -0.87397724
  0.22460526  0.0949861   0.18929288  0.09341209 -0.09736966  0.3123741
  0.06674618 -0.21144296  0.16201776  0.18759133  0.15002184  0.26450256
 -0.26630676 -0.5190624  -0.07561647  0.00141876]
[-0.03839372  0.24647133 -0.07127402 -0.0864365  -0.50028664  0.1760332
 -0.10500699 -0.21531723 -0.03170311 -0.10380217 -0.3028931   0.04682913
  0.07919393 -0.08509671 -0.39804214 -0.31401914  0.31733808 -0.01614102
 -0.28177038 -0.39029196  0.21201062  0.06299929 -0.34609976 -0.21662802
  0.1987461  -0.01816946  0.31613097  0.12232152 -0.26921606  0.06583525
  0.22371688  0.17730379 -0.05523955  0.308938    0.20738764  0.4408984
 -0.01134694  0.10632702  0.05186654 -0.1229783 ]
[-0.3627243   0.272566    0.22189072 -0.00529581 -0.21861015  0.3071938
 -0.1045514   0.26615062  0.08875211  0.19321479 -0.10105982  0.12630095
  0.12932843 -0.279562   -0.5125491  -0.08233052  0.30033842  0.10606784
 -0.41914096  0.35275957  0.08691845 -0.04341614  0.00981665 -0.14783248
 -0.20424463  0.14869784  0.11506672 -0.05060105 -0.10480397 -0.06461368
  0.2598957  -0.39818028  0.25847012 -0.19166428 -0.12339695  0.06193717
 -0.08080474  0.32220566 -0.06616858  0.10193535]
[ 0.01164248 -0.1562976   0.20576881  0.17628969 -0.3813797  -0.06080493
  0.27812502 -0.17518698 -0.157791    0.04380423  0.05005402  0.15468031
 -0.27023154  0.12925516 -0.08731006 -0.1329424   0.18043321  0.00240895
  0.16062708  0.06297854  0.17516224  0.11273176 -0.04222244 -0.26707426
 -0.02985239 -0.16684443 -0.01658909 -0.16806118  0.26377183 -0.13112006
  0.16919053  0.2753739  -0.13233116  0.51550716 -0.10930636 -0.17738023
 -0.25421238  0.06955563 -0.26681426  0.12904106]
[ 0.35472557  0.16970672 -0.01098461  0.1596229  -0.08895002  0.15502243
  0.02155689  0.29238808  0.28260067 -0.0898982  -0.04221657 -0.15297885
  0.08080417 -0.570777   -0.34896535 -0.11736725 -0.01008472 -0.07009107
  0.1441781  -0.24845137  0.31916866  0.25120157  0.04480231 -0.3425915
 -0.30629697  0.0743201  -0.02121521 -0.2530688  -0.04528313 -0.21377753
  0.10303616 -0.29602575  0.202873    0.26841885  0.35670257  0.1023521
  0.15579188 -0.6609021   0.45454213  0.236013  ]
[-0.41206288  0.29059914 -0.00479744  0.4841898  -0.30916741 -0.35654363
 -0.3586505  -0.3611728  -0.22661413 -0.13621625  0.2557133  -0.16650353
 -0.12773894 -0.19136684  0.29238865 -0.06795241  0.33753014  0.47064254
 -0.22059545  0.00625762 -0.04789878  0.18480107 -0.04972873  0.3990924
  0.07409501  0.2774958  -0.15508103 -0.33439094 -0.26986253  0.16178374
  0.08782203  0.13374928 -0.06297078 -0.57547474 -0.14938042 -0.31215268
 -0.11439032  0.1978706   0.18821336  0.12180494]
[-0.1891121   0.1939823   0.20464048 -0.26111463 -0.1529277  -0.21023417
  0.07409712 -0.2178705   0.13631843  0.05055699  0.14117348  0.08443259
  0.16655129  0.24445674  0.09923215 -0.16591124  0.10135898  0.1454159
  0.18760839 -0.23410788  0.16648306  0.00861315 -0.09547284  0.07353015
  0.23896374 -0.03627015  0.06434833  0.16098732 -0.12062992 -0.06765179
 -0.22146885 -0.23446393 -0.09454646 -0.26412898  0.1965903  -0.36064908
  0.09698981  0.3464394   0.5055841   0.08528008]
[ 0.00167565 -0.13519397 -0.20496297 -0.14928257 -0.12856252  0.2804586
 -0.05526154 -0.2070402   0.2122767  -0.00271014  0.06043268  0.24670681
  0.35937086  0.08035223 -0.3833813  -0.19057289 -0.12115385  0.19805957
  0.02747677 -0.08620564 -0.05864656  0.22901362 -0.08467004  0.03105042
  0.02434181 -0.07169317  0.00599704  0.26708043 -0.2246336   0.15145206
  0.18142371  0.04702657  0.2455265  -0.08004994  0.03022319  0.48506185
 -0.12182743 -0.03618996 -0.17106977 -0.11769906]
[ 0.15025657 -0.3202712   0.12634169 -0.3487867   0.25367352 -0.2665179
 -0.03379222  0.10332237  0.3527666   0.68929696 -0.24536471  0.13716865
  0.00146776  0.02499848  0.17833933  0.22929879 -0.43681988 -0.2242991
  0.35366228 -0.30759776 -0.32826552 -0.23742978  0.09597971 -0.04242696
  0.10650529 -0.3208459   0.06924891  0.13649617 -0.23245807  0.01015075
 -0.24021007 -0.34946975 -0.23842874 -0.43144536  0.08855139  0.02370834
 -0.14515148 -0.13370846  0.20571084  0.0893338 ]
[-0.29121715  0.24816564 -0.2398876   0.16467144 -0.19005112 -0.2507827
 -0.27952373  0.16237438 -0.17449434 -0.29486975 -0.35690555 -0.00776125
  0.34358066  0.25045264 -0.18135002 -0.25813255  0.18904068  0.34255978
  0.06110712 -0.25804722  0.20026116  0.06826424 -0.2123976   0.15689476
 -0.16934873 -0.00852596  0.04908807  0.31134596  0.1940867  -0.2054524
 -0.15659022 -0.14354709 -0.2976296  -0.10996902  0.14718679  0.02088721
  0.10031877 -0.43326676  0.20506151  0.17721248]
[-0.06043715 -0.07468322 -0.14391181  0.24736993 -0.12007118  0.07519326
  0.01477351 -0.01487026 -0.19197416 -0.03066211 -0.03190413  0.35945606
  0.01037258 -0.21832655  0.01647977  0.00528459 -0.07050718  0.02863012
  0.07036465  0.00575972  0.13478678 -0.04214796 -0.15296975  0.47065726
 -0.07556918  0.19943552 -0.01799546  0.11945019 -0.04901677 -0.09738602
  0.0379046   0.0386065   0.12950344 -0.3293089  -0.32356596 -0.0800594
 -0.02229928  0.20780286 -0.01096333 -0.00986668]
layer 3 Activation
tanh
layer 4 Dense
40 20
[ 0.20381635  0.27497038 -0.32802662 -0.21844403  0.26551032 -0.20907721
 -0.2415862  -0.10691356 -0.4268802  -0.13745514 -0.41949353  0.00568294
  0.21087079 -0.30577874  0.10058171 -0.41173065 -0.12153433  0.26220658
  0.14176458  0.15624277]
[ 0.11477923  0.34077945 -0.25694478  0.04601131  0.07053786 -0.2204607
  0.1276749   0.14729607  0.06064869 -0.1505475   0.37559515 -0.2837838
  0.25292182 -0.00636623 -0.19450022  0.11579078  0.11206765 -0.1578443
  0.14773113 -0.11650789]
[ 0.15448456  0.09798817 -0.15005597 -0.06695771  0.17512795  0.06560928
  0.20383395  0.08260931 -0.20972344 -0.3543206  -0.44045162 -0.09690616
  0.02580533 -0.24133267  0.14745978 -0.27093336 -0.19002935 -0.16591248
  0.3733045   0.01445733]
[-0.21615255  0.26605773  0.01279629 -0.27147585 -0.08229561 -0.05453492
 -0.00149649  0.30097643  0.23704398  0.20205216  0.18575609  0.20145781
 -0.14504217  0.07843777  0.24853563  0.36252537  0.24355516  0.20015149
  0.08612196  0.02346768]
[-0.2682594  -0.2608271   0.37658063  0.19159134  0.08814958 -0.05631098
 -0.11285163 -0.00233677 -0.17617336  0.04842186  0.1693675   0.31574598
  0.21119258 -0.1010249  -0.17615008  0.08632504  0.3077941  -0.1357058
 -0.24380425  0.00819471]
[ 0.3224031   0.12317891 -0.06208305  0.3284904   0.03610346  0.00665218
  0.18558414  0.04974394 -0.15114845  0.12347353 -0.09539992  0.18231425
 -0.13922614 -0.18444428 -0.28655753 -0.21586527  0.240643    0.2519472
 -0.1385795  -0.13704307]
[-0.09569773 -0.23258443  0.02054778  0.03408005 -0.22596055  0.2263614
  0.18280585 -0.28599352 -0.23620598  0.21506453 -0.12526993  0.34462693
  0.22405985  0.23823819 -0.18600152  0.21943429  0.16731961  0.19858004
 -0.22104108  0.30521706]
[-0.0817151   0.06375186  0.11202485  0.18213303 -0.04362767  0.03833341
  0.15925965  0.09747005 -0.06759007 -0.14413705  0.04065041  0.05517194
  0.11824042 -0.11567905 -0.23043524  0.19300383 -0.24488825 -0.19597481
  0.30268064 -0.04163004]
[-0.31595403 -0.2588512   0.06069318  0.12621982 -0.06937203 -0.12163883
  0.28300267 -0.1683229  -0.14855592 -0.18755169 -0.22960117  0.31223077
  0.09945158  0.15752997  0.02598019 -0.08814883  0.01671013 -0.17621028
  0.02041588  0.03772539]
[ 0.02996499 -0.1386993  -0.00526122  0.12889484 -0.00914588 -0.16764058
  0.02702307 -0.3353262  -0.15711711 -0.3515069  -0.30694392 -0.19609693
  0.2570787   0.2708811  -0.02925272 -0.22651123 -0.4651764  -0.2650844
 -0.20634872  0.14410502]
[ 0.13054301 -0.2819311  -0.20259456  0.29474357  0.1262901  -0.03161164
  0.14902021  0.27433255  0.3661884   0.04721093 -0.14726725 -0.21157233
 -0.14475875  0.31155857  0.18895794  0.20770165 -0.01339333 -0.14450805
  0.27567375  0.11359073]
[ 0.22006227  0.2534836   0.36864766  0.12747653  0.17449439 -0.08506753
  0.09995348 -0.19827172  0.19605449  0.01944453  0.25887626 -0.22008699
 -0.2851576  -0.15134706 -0.19537413  0.05538741  0.27092874  0.10971121
  0.04853277 -0.24663694]
[ 0.22665738  0.03631083  0.10758425  0.14930376 -0.256208    0.04449995
  0.08918089 -0.33464003 -0.07235529  0.25538662  0.10508024 -0.31682703
 -0.34813884 -0.22353514  0.12517102 -0.2713555   0.21743263  0.1117907
 -0.02859324 -0.2008212 ]
[-0.19048782 -0.1987759  -0.14562517  0.15816458  0.01818396  0.16129644
  0.1999767  -0.13834536  0.215307   -0.23840919 -0.10484461  0.11844952
  0.23576763 -0.17464794  0.34178075 -0.26104748 -0.20515895 -0.4002447
  0.07362921  0.13431811]
[-0.18432918 -0.31225988  0.03860321  0.11582353 -0.1293897   0.16204542
 -0.24468158  0.18692738  0.325663   -0.02249685  0.27091172  0.39142495
  0.26106116  0.03600153  0.04892834  0.00392926 -0.4024493  -0.12151934
 -0.09763781  0.23773235]
[-0.21684052 -0.27177218  0.13227108 -0.22405162  0.09193762 -0.16378635
 -0.06195425  0.0558714   0.21800572 -0.05398544  0.19122756  0.45721772
 -0.06728663 -0.07771929 -0.14533195  0.21125096  0.06174295 -0.28941283
  0.05215194  0.07444811]
[ 0.30335495  0.15507144 -0.41598293 -0.10597456 -0.0169994   0.05859235
 -0.02219632 -0.11846561  0.16103151 -0.2848383   0.28605366 -0.2193312
  0.03765687  0.02464155 -0.05906363 -0.07898588  0.2742393  -0.23129664
 -0.09656649  0.19038399]
[ 0.18828605  0.10087574  0.04160583 -0.08091234 -0.0750067   0.14710301
  0.25286135  0.23509336  0.23800665  0.04391748 -0.16267274 -0.36928388
 -0.24395365  0.14591733 -0.15102689 -0.07731658 -0.2991591  -0.14266896
  0.22035028 -0.20509517]
[-0.11872772 -0.07754005  0.20903103 -0.10880406  0.28755668 -0.11125483
  0.12069532 -0.47893974 -0.06673855  0.3291683  -0.1160934   0.0149295
 -0.08277324 -0.08751988  0.10742064  0.03840154  0.01152185 -0.14490503
  0.06949124 -0.02722634]
[ 0.36136732 -0.23590322  0.30714992 -0.05452182 -0.18424866  0.08933637
 -0.02501283 -0.10256449 -0.0800283  -0.3057012   0.04488086 -0.26337698
  0.31364185  0.1769006  -0.01847536 -0.11456417  0.06631214  0.21562111
 -0.02575169  0.1709354 ]
[-4.2299228e-04  5.0695968e-01 -3.1296366e-01 -8.2902707e-02
 -1.4971513e-01  7.4608028e-02  2.9398931e-02 -1.5415262e-01
  1.1157799e-02  1.5358832e-01 -2.1850659e-02 -4.9933401e-01
 -1.2187765e-01 -3.1246355e-01  7.5433567e-02  1.3968362e-01
  2.1166453e-01  1.2942946e-01  1.4250898e-01  1.4950004e-03]
[ 0.52766824  0.42017964 -0.369208   -0.19998503 -0.25993565  0.22126044
  0.31375217 -0.03310362 -0.18547003 -0.13108897 -0.3015309  -0.14655948
  0.15320227 -0.09828433  0.17098801  0.03380786 -0.27867404 -0.18305038
 -0.19022766  0.03080304]
[-0.34667006 -0.43781972  0.18486516  0.07282123  0.08933011  0.18180874
  0.2860854   0.30256847 -0.17149886 -0.16836187  0.04529873 -0.10567245
  0.11400328  0.20208256 -0.24193822  0.37783578  0.10205862 -0.03209371
 -0.03148144  0.2600746 ]
[ 0.30825612  0.02206066  0.49021146  0.00640653 -0.10322485 -0.1058304
  0.174313   -0.27049258  0.36369854  0.27007237 -0.18464583 -0.4191185
 -0.02525115 -0.2595009   0.20492852  0.00624415  0.07057504  0.01304964
 -0.14617644 -0.04018617]
[-0.23759513  0.13372076 -0.0784003   0.13433997 -0.2304572  -0.1913173
 -0.17961194  0.11055882 -0.05263934 -0.20809132  0.01261551  0.3748564
  0.11094268  0.22275932  0.11554731  0.24074015  0.13850154 -0.15947407
  0.01302268 -0.30950236]
[ 0.2258951   0.02709996 -0.21289419 -0.22668132  0.24049361 -0.0881118
 -0.1436247  -0.17854881  0.16924658  0.24583189  0.41522267  0.38538122
 -0.12251347  0.09466539  0.190745   -0.0953382   0.01559433  0.29021528
 -0.22431397 -0.03515804]
[ 0.10487774  0.2950063  -0.13096204  0.29030553  0.16641773  0.04165767
 -0.33565333 -0.06730516  0.02355822  0.14738367  0.00665456 -0.0295784
  0.04512694 -0.2486641   0.18518528 -0.24789663 -0.09586618 -0.14586964
 -0.06181548  0.12575935]
[-0.15071344 -0.06079354  0.19306973  0.26878676 -0.29087496  0.02186529
  0.03708798 -0.21620746  0.08055166 -0.17559111 -0.28037465  0.20366777
  0.0600538  -0.01510096 -0.18055864 -0.11478787  0.34515134  0.2672627
  0.03686268  0.10895085]
[-0.0375893  -0.27483696 -0.22819413 -0.05045827  0.05203059 -0.22017202
 -0.17409214 -0.09552816 -0.06192916 -0.1984511   0.20703904  0.30896783
  0.36802647  0.02639778 -0.14383486  0.2079144  -0.12871763 -0.18022838
  0.23967268  0.27480367]
[-0.08109076 -0.03251167 -0.28797615 -0.0172128  -0.30851385 -0.1374649
 -0.125645   -0.12005704  0.06955909  0.04599562  0.22198917  0.19304976
  0.04327655 -0.04909863 -0.27055663 -0.17073098 -0.09096429 -0.08211938
  0.1296293  -0.06665255]
[-0.01200832  0.00442122 -0.04497628 -0.03304499 -0.21039008 -0.29291466
  0.09145825  0.11560246 -0.08948804  0.09350332  0.14448267  0.01986048
 -0.00661195 -0.01088718 -0.28635657  0.18145251 -0.04862128  0.20773037
  0.09814982  0.00516248]
[ 0.1825158   0.12264413  0.18838239 -0.07206415 -0.07051199 -0.2592781
 -0.15316051 -0.03167111 -0.01980227  0.34321624  0.29286668  0.23247755
 -0.05112235 -0.27767396  0.06588754 -0.25417858  0.3897763  -0.08658047
  0.13272862  0.02483811]
[ 0.24902476  0.30664358  0.2262964   0.3495154  -0.03213216  0.06857238
 -0.06472418  0.03022919 -0.16983335  0.23397103  0.0331056  -0.12026507
  0.16095378  0.10682479  0.1597395   0.29970363  0.23689654  0.2981783
 -0.00882277 -0.01909448]
[ 0.02713185 -0.20503092 -0.3949572  -0.24238485  0.1913999   0.17466532
  0.16873035 -0.02107284 -0.46062884 -0.12735249  0.4285172   0.5461676
 -0.03584585  0.25506043  0.17076889  0.5166872   0.217749   -0.03359928
  0.07425046  0.04792857]
[ 0.22810335 -0.23268723 -0.3371958  -0.19977018 -0.0212532  -0.19818707
 -0.31155318 -0.28726324 -0.24636547  0.19368686  0.01657205 -0.05880573
  0.29914767 -0.22117873 -0.22729857  0.20630686 -0.14888592 -0.30145773
  0.02373549 -0.22478296]
[ 0.1933023   0.44581306 -0.0299662   0.14154118  0.2852734   0.11331657
 -0.07719072  0.17317194 -0.17639688 -0.17239699  0.17829265 -0.05503315
  0.20785977 -0.24823269  0.08687044 -0.40484416  0.1570919  -0.1508898
 -0.14334922  0.1822861 ]
[-0.02855169 -0.32147694  0.00767553  0.30839047 -0.15909185  0.04225032
  0.22096705 -0.14266121 -0.19197163  0.51504487  0.08811669 -0.11886086
  0.0433694  -0.18390569 -0.2466381  -0.12285341 -0.0870591  -0.14672053
  0.3756141   0.1031075 ]
[-0.1131893  -0.22436297  0.0931535   0.35088965  0.02427379  0.09681913
  0.2193353  -0.27267683  0.2193805   0.40013868  0.13805841 -0.1667427
 -0.0238517   0.09672527  0.02065454  0.38553092  0.12380477  0.29066098
  0.11870559 -0.12812302]
[-0.2018764  -0.05967174 -0.36090344 -0.0736685   0.22629778 -0.02486912
  0.12505192 -0.10442211 -0.08422143  0.43453276 -0.1529759  -0.19885987
  0.02521005 -0.13520512 -0.15250932 -0.18953848 -0.20432113  0.04745181
 -0.20391057  0.25494677]
[ 0.38718706 -0.04450509  0.026037    0.02052175 -0.11003439 -0.3291487
  0.03885495 -0.09403221 -0.11326192  0.0273166  -0.0683113  -0.53619653
  0.03843523 -0.13655265 -0.27884385 -0.34880885 -0.15818004  0.16396938
  0.13920489  0.22380474]
[-0.10045336  0.24835093  0.14640525 -0.03234915  0.14300801  0.00898451
 -0.05013186 -0.0078563   0.06221467  0.06901139 -0.01383326  0.04216881
 -0.2133264  -0.0211661  -0.07170825  0.04660343 -0.04934504  0.12058651
 -0.02713291 -0.04939789]
layer 5 Activation
tanh
layer 6 Dense
20 1
[-0.21062349]
[0.18228042]
[0.10874765]
[0.01825759]
[0.01872909]
[0.00108921]
[0.01213897]
[-0.02746445]
[-0.23854366]
[-0.04973055]
[0.02938758]
[0.11335375]
[-0.01176404]
[-0.24254152]
[-0.02096431]
[0.147409]
[-0.24650876]
[0.26834887]
[-0.00597922]
[-0.02869063]
[0.12371155]
