layers 7
layer 0 Dense
20 20
[-0.2975706  -0.00076602 -0.0967774   0.20125213 -0.14407472 -0.16158164
 -0.17166409 -0.06574318 -0.2577557   0.02441979 -0.20528457 -0.18270274
  0.15158466 -0.12062562 -0.00166514  0.30259278  0.08954334 -0.23824142
  0.34291878 -0.30675414]
[ 0.30832797 -0.24428298 -0.24411519  0.324139   -0.6010914  -0.05602602
  0.17221113 -0.19599761  0.29418337 -0.29969165  0.13399956  0.06291747
  0.30207723 -0.0053539  -0.32935917 -0.02835279  0.14903367  0.36840466
  0.00437645  0.20845161]
[ 0.22682856  0.14164187 -0.21345529  0.2110233  -0.6021182   0.17348611
 -0.01013234  0.12287971  0.31033328  0.02069767 -0.13174696  0.44933644
 -0.24453808  0.1591154  -0.03757389 -0.39337695 -0.29746646  0.34283787
 -0.10137018  0.07700606]
[ 0.3567411  -0.20196645 -0.19645584  0.09789133  0.0626526  -0.0177109
 -0.27973655 -0.33499163  0.19059251 -0.07832627 -0.01827877 -0.05312467
  0.28140014  0.1120993   0.11283045  0.11386606  0.04033893 -0.09923252
  0.01125792 -0.07673662]
[ 0.0346965  -0.35480016  0.02809244  0.21888041  0.02965653  0.21928795
 -0.19012009 -0.15269038 -0.29968515 -0.29857382  0.29009497  0.20863202
 -0.29877627 -0.3679324  -0.31518823  0.07217296  0.2106028  -0.27755323
  0.27834475  0.04799726]
[-0.18550412 -0.19760731  0.22765237 -0.25689095  0.01935471 -0.25060353
  0.1414087  -0.43734646  0.09598478 -0.04699129 -0.07226675 -0.05459648
 -0.2892935   0.36239633 -0.18228903  0.38017172 -0.3494669   0.13279329
 -0.04212421  0.5146109 ]
[-0.30390778  0.45624563  0.6264513   0.22197346  0.3660041   0.20833583
  0.32136044 -0.462661   -0.30081192  0.0366164   0.11596438 -0.3411637
 -0.0346034  -0.26006997  0.03781045  0.28630292 -0.16168667  0.03537788
 -0.3259652   0.06615343]
[ 0.07140259 -0.09709833 -0.34554836 -0.01832518 -0.03833192 -0.41702875
 -0.07440147  0.1523251   0.31920117 -0.36842087 -0.3648998  -0.48911577
 -0.09067613 -0.1063838   0.2597766  -0.34845436  0.11997861 -0.4842612
  0.17437604  0.37016565]
[-0.28048584  0.2741588  -0.14792013  0.11632047  0.35795325 -0.13956875
  0.26804152  0.2027918   0.01360527  0.11028133  0.12837984 -0.22184253
 -0.3834719  -0.0922831   0.02996991 -0.13570416  0.06311899  0.17648135
 -0.09112068  0.1514253 ]
[-0.01192302  0.36338705  0.09485502 -0.15433122  0.23780185  0.16799815
 -0.24463828 -0.15489182  0.22052853  0.26071018 -0.08184344 -0.24118835
  0.02377364 -0.26133457 -0.25286353 -0.21709019 -0.23795758  0.2222072
 -0.19669816 -0.10796054]
[ 0.18670923 -0.23137249 -0.18333428  0.11468302  0.01791902  0.04993708
  0.33394584 -0.07492642  0.0583737   0.00321109  0.3307157  -0.10913932
  0.19438432  0.33496022  0.370357   -0.09798846  0.20081553  0.31556875
 -0.23866181 -0.1298486 ]
[ 0.085962   -0.35266173  0.12988402 -0.33422595  0.04655976 -0.2971544
  0.36101335 -0.04472559  0.6285086   0.5232922   0.22893044  0.04837568
  0.1006684   0.29718477 -0.01191163  0.00244948  0.028945    0.27946436
 -0.24293156  0.02911882]
[ 0.44485977 -0.07124507 -0.04257931  0.29196915  0.1506512   0.23232764
 -0.09098311  0.18419543 -0.4075913  -0.36918497  0.05368996  0.23567036
  0.36124203  0.09754696  0.04368456  0.02859118 -0.05822384 -0.46854505
 -0.3827999  -0.12767313]
[-0.28911194 -0.38311812  0.39471072 -0.3452949   0.03476362 -0.044046
 -0.06134197 -0.35044423 -0.2976159  -0.48525432  0.26579005  0.4298923
  0.21710658 -0.339683   -0.12337222 -0.12024967  0.3616202   0.3173835
  0.02696047 -0.01702283]
[-0.1181113  -0.2486986  -0.30741307  0.20727779 -0.37701392 -0.30020693
 -0.12710701 -0.20988561  0.11602633 -0.0103945   0.20138517 -0.10151647
 -0.32774165  0.12407148  0.26196325 -0.08922753 -0.05160716 -0.13426019
 -0.04527855 -0.10308   ]
[ 0.0859919   0.49236757 -0.3621069  -0.00726487 -0.2684606   0.36742035
 -0.8097278   0.22099611 -0.1935287  -0.22209485  0.10393287  0.24564
  0.47505543  0.02838059  0.07103187  0.23634087  0.4178688  -1.018858
 -0.46395496 -0.42436266]
[ 0.00156735  0.10975394  0.23848517 -0.02847658  0.05143011 -0.21055885
  0.63772166 -0.07867337 -0.02652661  0.37859738  0.02605753 -0.21856971
 -0.14720662  0.06512183  0.0643482  -0.16635507 -0.15823565 -0.20308082
 -0.18539324 -0.07358508]
[ 0.24510852  0.36871976 -0.0346936   0.1122851  -0.2838782   0.02263121
 -0.11595598 -0.14958487  0.37841392  0.45906433 -0.1038343  -0.04179699
 -0.02422963 -0.36292315 -0.1975987  -0.08788896 -0.2854469   0.27624202
 -0.01917242  0.12369775]
[-0.30756778 -0.27682486 -0.05802384  0.07030287  0.04518552 -0.1661433
 -0.26680025 -0.05313801 -0.05402741 -0.08196212  0.30237418 -0.15015768
 -0.19327646  0.07705939  0.36969846 -0.11563931 -0.14810571 -0.07878494
  0.25479543  0.21276598]
[-0.4562906  -0.13172002 -0.20216979 -0.2684016   0.3794273  -0.17655075
  0.6159929   0.29156107 -0.0553521   0.10565254 -0.19754714 -0.11374219
  0.02802068  0.4157432  -0.05908104  0.21628338 -0.14142309  0.00790942
  0.38658214  0.23882827]
[-0.02332     0.03072415  0.0131858   0.09345996 -0.06702659  0.04347996
 -0.07145268 -0.08677807 -0.04741258 -0.08300968  0.09353504  0.20051914
 -0.05163464 -0.03206368  0.01713719 -0.01261311 -0.01047641  0.01868
  0.00850163  0.03178849]
layer 1 Activation
tanh
layer 2 Dense
20 40
[ 0.27445248 -0.2558869   0.2530222  -0.07549193  0.09322668 -0.16709562
  0.08384391 -0.18640834 -0.06778751  0.04108048  0.21079378 -0.17387953
 -0.04580491  0.28277394  0.01188043  0.22888198  0.17937788 -0.119428
 -0.04905418  0.15944983  0.0666875   0.07993915  0.22682497 -0.0163679
 -0.229105    0.25884378  0.13774434  0.25271136 -0.14582466 -0.11749067
  0.1814752   0.24844664 -0.08804458  0.20019418  0.03182323  0.2043996
  0.08562845  0.1796122   0.0035112  -0.08743521]
[ 0.19355598  0.40369996  0.20981428  0.15653732  0.02508542 -0.01227882
  0.01082332  0.03827079 -0.2112255   0.0907198  -0.09233078  0.01511382
  0.0346496  -0.23234813  0.12662907  0.3138226   0.03163655 -0.07254355
 -0.11294255 -0.09445399 -0.1288121   0.08197085  0.24007183 -0.04617764
 -0.30677104 -0.11467591  0.30452365  0.12516738  0.03254626 -0.08879539
 -0.03061478  0.37915376  0.19658728  0.11663623 -0.08421657 -0.23891363
 -0.16496602  0.12970227 -0.12146682 -0.27174795]
[-0.15095942 -0.33292192  0.05633046 -0.0008074   0.22518334  0.23918508
 -0.21202539  0.00638452 -0.20196815  0.02939074  0.10311378 -0.10269994
  0.05863696  0.19718388 -0.18328431  0.09929102  0.17364703  0.07584604
  0.23052384 -0.15457398  0.27755302  0.21400489 -0.11112995  0.14611676
 -0.20499898 -0.16396189 -0.12330775 -0.25082263  0.11981331 -0.19689174
  0.325932   -0.33743832  0.14632574  0.03959108 -0.11587109 -0.12216426
 -0.07169467 -0.2394139   0.27713713  0.07650626]
[-0.08206382  0.2042602  -0.24994318  0.20933859 -0.09260407 -0.3407515
 -0.06347626 -0.1831464   0.16376802  0.0571956   0.04893379  0.18129942
 -0.05647654 -0.20718594  0.02636542 -0.19828089 -0.01972422  0.17686225
  0.02408283  0.07507586  0.29521516  0.25234836  0.3440535   0.08799251
 -0.1441024  -0.00762381  0.11402873  0.326554   -0.23215167  0.05232319
 -0.11940133  0.13800365 -0.21202675 -0.23021449 -0.15522528 -0.30370402
 -0.08826621  0.00853038  0.28994834 -0.27571154]
[ 1.4208397e-01  2.4815108e-01  1.4679547e-01 -1.5024273e-01
  1.6241534e-01 -1.2896606e-01 -4.0881775e-02  3.3699922e-02
 -4.5948595e-01 -1.6758194e-02 -1.2328948e-02  1.4514090e-01
  1.8384105e-01  1.1134888e-01  2.0150247e-04 -5.3783782e-02
  7.1050294e-02  3.1509572e-01 -2.3729590e-01  8.7683342e-02
  1.2734443e-01 -2.1123664e-01 -1.3397132e-01  3.0083293e-01
 -3.7429005e-02 -1.0374021e-01  2.1160506e-01 -3.7189326e-01
  2.4003966e-01  6.2203370e-02 -3.7708125e-01 -2.4826777e-01
 -5.8835045e-02 -5.8724951e-02  2.1769957e-01 -1.7672446e-01
 -1.9168796e-01  4.0076804e-01 -9.6822612e-02  2.1585082e-01]
[-0.12418932 -0.35299236 -0.15964209  0.07804407  0.24676667 -0.24876301
  0.00399236  0.18307461 -0.26102     0.01803086  0.10839302  0.10546064
 -0.26341864  0.03547515  0.2952412   0.24016637  0.00443203 -0.01677974
 -0.19755585  0.0218803  -0.15662454  0.00808289  0.3124821   0.06546038
  0.14792767  0.08698785  0.04780905  0.09477168 -0.24422441 -0.027529
  0.12711896  0.12001868 -0.10557347  0.12035391 -0.23665267 -0.05733672
 -0.20793687 -0.13579932  0.19524291 -0.20880008]
[ 0.08484496  0.41687718  0.2028438  -0.27323648 -0.10567638  0.28537226
 -0.02968363  0.10849158 -0.51364595  0.07218003  0.13054976 -0.04612067
  0.21737975  0.01963795 -0.30598465  0.33336416 -0.1658585   0.11310223
 -0.10528989  0.10699382 -0.26623014 -0.2631635  -0.5313528   0.10421098
 -0.15420063 -0.11412992  0.34034008 -0.20002398  0.14835829  0.03988836
 -0.25905654 -0.10883287  0.10329688  0.07027525  0.05913866 -0.12041754
  0.21066909  0.26544538  0.27487248  0.07718695]
[-0.15226853  0.27192822  0.23894095 -0.20111205 -0.01075686  0.2350222
 -0.18831591 -0.07926416 -0.13245259  0.27732533 -0.30111477  0.01787724
 -0.05926057  0.02726517 -0.16661258  0.19906244  0.08832762  0.08261412
  0.07671411 -0.02147492 -0.07913769 -0.20923188  0.00363072 -0.26433098
  0.18070328 -0.25032294 -0.13905783 -0.17808522  0.15730004  0.14373788
  0.01643505  0.28545326  0.23651393 -0.04895736  0.36457148 -0.2420658
 -0.23376706 -0.23478615  0.03905342  0.34087455]
[-0.03739841 -0.26035583  0.23047264 -0.22101174 -0.1783206   0.07343601
  0.03989247 -0.11152793  0.06592711  0.24092582  0.05372341 -0.03139032
 -0.00438608 -0.06006187  0.10859371  0.22959992 -0.04248716  0.385455
 -0.22522883  0.19512475 -0.17088066 -0.1036969   0.22840954 -0.08400694
 -0.25838733  0.22979002 -0.03579245 -0.11773489  0.13341656  0.10162377
  0.08538448  0.24660474  0.25814566 -0.22688946  0.23664191 -0.260155
  0.28758252 -0.03126742 -0.21587288  0.23119344]
[-0.10607877 -0.21193282  0.02215304 -0.17625356 -0.3210106   0.2344126
 -0.10803808  0.19483    -0.30888987  0.20100784 -0.01177916 -0.06535927
 -0.06736723 -0.14165504 -0.27030078 -0.27779046  0.08877573  0.28733993
 -0.11970854 -0.11900213  0.17488492  0.28699747  0.01068718 -0.15552786
 -0.19333512 -0.2210159  -0.18359365  0.24483292 -0.05109769 -0.08219805
 -0.06763725 -0.17528601  0.10099641 -0.04482968 -0.03714039  0.24475187
 -0.04817874  0.14516914 -0.03452163 -0.0996673 ]
[ 0.18659164 -0.17978449  0.0121793  -0.17824456 -0.09920121 -0.03618938
 -0.05740967  0.11939553 -0.15867972 -0.26562616 -0.24027026 -0.03867825
 -0.22690268  0.16572486  0.27045152 -0.22884257 -0.07772394 -0.08426166
  0.24850748 -0.28291228 -0.1622578  -0.30955917 -0.07186091  0.1781249
  0.1544717   0.01870505 -0.32201692 -0.23113921  0.19038925  0.17095979
 -0.10898079  0.05850995 -0.2342571  -0.16799632 -0.23803556  0.14630663
  0.23648211 -0.03548601 -0.20650731 -0.16627215]
[ 0.04505615 -0.01682789 -0.25838083  0.25377426 -0.16427828 -0.19615103
  0.28421348  0.20944753  0.07477085 -0.0815125   0.21380515  0.18011938
 -0.1480371   0.20527239 -0.15454178  0.10434131 -0.02650947 -0.10673663
 -0.14804168 -0.09700231 -0.08513831  0.13135281  0.13213025  0.0210878
  0.1358714  -0.19578978  0.03923875 -0.13524261  0.2301511   0.22583337
 -0.06362361 -0.09585538 -0.14593208  0.02063148  0.1210193  -0.31910896
 -0.20350263  0.28003275  0.22272754  0.198462  ]
[ 0.06120336 -0.0490008  -0.2072853   0.06156396  0.23832645 -0.17593975
  0.06193223  0.33694103 -0.33882943 -0.07891846  0.2733069   0.12754431
  0.10554004  0.16126555  0.34034285  0.03721442 -0.2842555  -0.35491914
  0.02783413 -0.05070116  0.23038301 -0.14291784  0.3085003  -0.16421273
  0.1245735  -0.18810384 -0.251128   -0.13586015  0.04221132  0.03535594
  0.17495908 -0.08423013 -0.13196734 -0.18492645 -0.10584646 -0.24097715
 -0.19806246 -0.22265632  0.20838569  0.18465006]
[ 0.05745929  0.09469626  0.21561271  0.05979502  0.29799902  0.2768807
  0.25633955 -0.08528159 -0.08818039  0.18609054  0.25590774 -0.03028292
  0.06448159 -0.2860866  -0.13489538  0.04609265  0.11011393  0.0865489
  0.04218808 -0.13803759 -0.26939702  0.196836   -0.01765883  0.20672555
  0.02105983  0.07002842 -0.23809218 -0.01314908  0.06651557  0.3100359
  0.101196   -0.1330316   0.05926492  0.11180736  0.17879882  0.0415995
  0.08115757 -0.14125071 -0.25213605 -0.03628535]
[-0.37150347  0.13779517  0.4084381  -0.03114834  0.32054055  0.13135578
  0.11018588  0.07259825 -0.07358112 -0.06510795 -0.00134427  0.3023326
 -0.09087799 -0.20000711 -0.0516044  -0.17351654  0.01089086  0.13646355
 -0.02549221  0.15581608  0.04374466  0.13945758 -0.20812364  0.12811515
  0.14020558 -0.00946494 -0.01550736  0.11396086  0.01027691 -0.1927905
  0.07779065  0.18071254  0.06878692  0.1873659   0.12906931 -0.21239136
 -0.27244344  0.11601537 -0.07295717 -0.39217803]
[-0.21166448 -0.26167583  0.01993981 -0.12871651 -0.27190644 -0.02341614
 -0.20694935  0.2708784   0.15131016 -0.3207011   0.19081736  0.18504971
 -0.2185802   0.2745845  -0.2081553  -0.20323513  0.26550436 -0.31205174
  0.11213796  0.20085578 -0.01248956 -0.18253694  0.20946038  0.28219432
  0.15783708 -0.04118701 -0.0810208  -0.23559001  0.24167342  0.09430037
 -0.00244473 -0.10761252 -0.27910346 -0.19689621  0.09217881 -0.18139488
 -0.1797239  -0.16320442  0.03243077 -0.1169029 ]
[-0.08909982 -0.23660043 -0.19857912  0.24014804 -0.27664    -0.23926021
  0.03259723  0.10575241 -0.3183627   0.00111324  0.395567   -0.19170669
 -0.05474268  0.19144507  0.15039726  0.22769026  0.04724828  0.225074
  0.31696126 -0.2723224  -0.10815566  0.03930744  0.23554847  0.24840012
 -0.01436263  0.11875188 -0.04683324 -0.10253631 -0.15565288 -0.15700874
  0.17732929 -0.31884876  0.1071875  -0.07336061 -0.14376417  0.16907357
 -0.02773624  0.08022863 -0.17122366  0.04903177]
[-0.06421218 -0.19597283 -0.26656392 -0.08548187 -0.27120447  0.01356874
 -0.13885163 -0.13662975 -0.02713758 -0.21214609  0.05242964  0.22755769
 -0.27085012 -0.07637516 -0.3050459   0.14378224 -0.07171886 -0.00468757
 -0.04577544  0.3595184   0.01744999  0.14292465 -0.15867211  0.00617133
 -0.12758364 -0.02761172  0.2628464   0.06007001 -0.25586092  0.05866514
  0.01895536 -0.03613368 -0.19852215  0.02724849 -0.23074278  0.08114336
 -0.14484155  0.10975265  0.22557624  0.20926668]
[ 0.24390678  0.00645912  0.13057907  0.15757333 -0.09881796  0.29029325
  0.18095656  0.07269899  0.16999175 -0.04355603 -0.0519235  -0.00536439
 -0.16798154 -0.16263793  0.12647125  0.07031063 -0.25522998  0.2552505
 -0.29794806  0.0421931  -0.02103516  0.03862776 -0.14144532 -0.07769448
  0.09180384  0.01390794  0.04824051  0.14785023 -0.05152149 -0.19569984
 -0.11122197  0.18496236  0.00964122 -0.07326125 -0.10617588  0.02417443
  0.11092429  0.02417538 -0.20952734  0.35573304]
[ 0.1216734   0.29788914  0.25815508 -0.22742759  0.25610524  0.31238613
  0.00333289  0.20530276 -0.15175274  0.07850946  0.04756599 -0.02713812
  0.05521296  0.02279266 -0.23010308  0.19674772  0.14306591 -0.05805535
  0.05869059  0.27920642 -0.14993551  0.06534346  0.22721714 -0.13753311
  0.13229959  0.17519659  0.17348115 -0.2072711   0.06514775  0.19021365
 -0.16352826 -0.33916503  0.08040399  0.05540171  0.26318803 -0.04175144
  0.16686998  0.10102865  0.3072644  -0.01475221]
[-7.05690607e-02 -1.73406765e-01 -1.98667906e-02  6.54248446e-02
  7.67859863e-03 -1.23753707e-04  6.34097606e-02  5.95376976e-02
  2.35307757e-02 -6.50336742e-02  1.79631114e-02  1.16452808e-02
 -1.83558881e-01 -1.34967584e-02  1.79418772e-02 -6.41742423e-02
 -2.34890375e-02 -7.26167262e-02  1.09334573e-01 -1.56589858e-02
  2.19834708e-02  4.52254862e-02  7.85295218e-02  1.90785918e-02
 -1.75862934e-03  6.48384243e-02 -1.01572774e-01 -1.59906596e-02
  6.41554827e-03  3.10957059e-02  4.36041020e-02  2.41380166e-02
 -1.18018374e-01  2.50767427e-03 -3.89856808e-02  3.49580906e-02
 -2.56325607e-03  2.83739362e-02 -5.30035459e-02 -2.40070045e-01]
layer 3 Activation
tanh
layer 4 Dense
40 20
[-0.18947303  0.08548267 -0.13042922 -0.11250581 -0.17509359 -0.0019664
 -0.15561928 -0.20068821 -0.00650588 -0.15528972  0.02242507 -0.06179151
 -0.27116427  0.16936333  0.18070625 -0.02954523 -0.12485132  0.17304508
  0.10850801 -0.2691266 ]
[-0.06487831  0.08363117 -0.18677452 -0.15657866 -0.25013688 -0.08097058
  0.32888052 -0.00725355  0.01948288 -0.15615623  0.26645887  0.23899652
  0.34937534 -0.11591115  0.19358325  0.00134525 -0.04294804  0.17754886
  0.33478835  0.2586186 ]
[-0.173611   -0.06792393 -0.1223095   0.2922558  -0.26836732 -0.29604667
 -0.28125888 -0.2157639  -0.16435793  0.06100571  0.31613025 -0.32965377
  0.27675274  0.11171947 -0.14898762 -0.1014024  -0.2626008  -0.00818882
 -0.14588277  0.2812612 ]
[ 0.16784172  0.07668538  0.23548989 -0.05136992  0.28791937 -0.00801119
 -0.20133303  0.17353436  0.11350676  0.19541092 -0.04497506 -0.13010725
  0.06033193  0.07249635 -0.19144237  0.2640268   0.24965449  0.14588591
 -0.23364326  0.07349942]
[ 0.13778587  0.04144008 -0.153436    0.25621155  0.03638786  0.03812474
 -0.23040564  0.14508122  0.14456002  0.21225953  0.05887661 -0.22133417
  0.2351171   0.04230429 -0.07972719 -0.09573004  0.20512192  0.16108504
  0.13776883 -0.19874237]
[ 0.20549347  0.01900024  0.09688483  0.00271611 -0.03760512  0.08661726
 -0.12068745 -0.06780119  0.08798101  0.08447521  0.3786349  -0.09216817
  0.392949   -0.16557826  0.04498616 -0.2538363   0.12395918 -0.23935974
  0.18605125  0.23456594]
[ 0.07852231 -0.16643216 -0.27352458 -0.06755789  0.22737527 -0.04862555
 -0.11778955 -0.06236709 -0.31850576  0.042841    0.10186968 -0.09951518
  0.00979294  0.04504767 -0.4009798  -0.07056733  0.00957109  0.18550377
 -0.36081064  0.15618202]
[ 0.23562692 -0.04192472 -0.07247488 -0.15673976 -0.00517579 -0.28216064
 -0.26804295  0.29922363  0.19176173  0.06442872  0.22874321  0.25937352
  0.0348813   0.29568124  0.13684617  0.1738443   0.2647059  -0.14247909
 -0.09180527  0.07572175]
[-0.31993413  0.09376861  0.24758959  0.202241    0.12963222  0.12268726
  0.03399297 -0.09782539 -0.28232577 -0.17570387 -0.25935656 -0.18410061
 -0.07937523 -0.12296978  0.20261765 -0.28726676 -0.243077    0.19127244
 -0.0966908  -0.02184326]
[-0.27018934 -0.21279949 -0.20314343  0.04051916 -0.14141922  0.04863479
  0.07711888 -0.25655177  0.16219965 -0.08271486  0.15406215  0.3275637
 -0.13174781 -0.2817291   0.08314349 -0.26445445 -0.28416985 -0.1963285
  0.38923675 -0.08009604]
[-0.14491124  0.25939453  0.1720727  -0.26384684 -0.07751254 -0.0340794
  0.19489877 -0.33457518 -0.18226148  0.24115936 -0.13156004 -0.1733192
  0.05927739  0.07931447  0.17448618 -0.01710423  0.14633815 -0.23403482
 -0.15489596 -0.2618286 ]
[ 0.12598711  0.02475212  0.1348047  -0.20704633  0.07712886 -0.14771786
 -0.28585926 -0.11709335 -0.25900346  0.1869672  -0.11296166 -0.25315383
  0.00769116 -0.13743097 -0.51919466 -0.17722033  0.04231391 -0.13747732
 -0.18017666  0.14902893]
[ 0.08896697 -0.05599015 -0.11595591 -0.02659606 -0.2809169   0.06631857
  0.05981785  0.24857002  0.0399928   0.07034675  0.24733578  0.20948309
 -0.23625109 -0.23480159 -0.06467909 -0.2809665  -0.18747623  0.14899224
  0.2634706  -0.02552828]
[-0.17799985 -0.26322648 -0.08572561  0.18885052  0.11154901  0.15759122
 -0.34171954 -0.00260648  0.16832022  0.01505334 -0.15079938  0.00280636
  0.11512096  0.14044254 -0.2035169  -0.10505217  0.15973125  0.2503223
  0.10358889  0.11821707]
[-0.2512241   0.2462886  -0.17902575 -0.18519734  0.01970056 -0.27500165
  0.21581039  0.03899637 -0.17283212  0.31801564  0.11150649 -0.14774755
  0.19509889  0.17779908 -0.13809878  0.22811203  0.0073001   0.09686807
 -0.18698971 -0.0494232 ]
[-0.00309692  0.03739642 -0.08344508  0.12839095 -0.05216897  0.10720948
  0.11283041  0.21907067 -0.0726293   0.07600357  0.08159214  0.21641989
  0.22599624 -0.25637493 -0.03296426  0.29820698 -0.16022265  0.21052536
  0.17298414  0.30428302]
[-0.33996674  0.23109016 -0.09080984 -0.11462601  0.14036691 -0.2371922
  0.17590658  0.07418472  0.06767794 -0.03238179 -0.06616291  0.07094838
 -0.09495315 -0.21214333 -0.17519726  0.12382595 -0.05378539  0.06183641
  0.23680176  0.11009566]
[-0.08871473  0.09888802 -0.13506755  0.2596881  -0.25489116 -0.30835727
  0.14230695  0.19408245 -0.2644483  -0.22751991  0.2927905   0.1181993
  0.1843386   0.15775335 -0.00741991  0.0412824  -0.14198373 -0.10198097
  0.17273614  0.09168623]
[ 0.29954776 -0.2601012   0.11937767  0.23062778  0.08254957  0.03034836
 -0.24516751  0.09197712  0.0424481   0.04094779 -0.06830557  0.2808049
 -0.21253957 -0.10438652  0.0747366   0.0224921   0.18376343  0.31386676
 -0.0966648  -0.273307  ]
[ 0.16231671 -0.22496742  0.15758385  0.12037543  0.00165989  0.12427155
 -0.05993224  0.1305203  -0.24295276 -0.08854233  0.30875242  0.01291914
 -0.10203723 -0.04413831  0.25340456 -0.21019717 -0.31663096 -0.08998904
  0.13859698 -0.06432816]
[ 0.05249856 -0.11997701  0.35447654  0.10685098  0.17772496  0.3458138
  0.0561701  -0.23366997 -0.14983463  0.18061033 -0.08786324 -0.2390843
 -0.08647184  0.24507065  0.14024541  0.33361492 -0.14760071  0.11618505
 -0.16453578 -0.19335715]
[-0.0960627   0.20522127 -0.2981336   0.0924252   0.00818754 -0.10256709
 -0.0920555   0.12588826 -0.17955415  0.18963346  0.24981093 -0.06881149
 -0.1100317   0.3337583  -0.2288928   0.20266415 -0.06667196  0.0663045
 -0.21987113  0.29765114]
[ 0.28535667 -0.28259254 -0.18888155  0.20657448  0.30742887  0.3228772
  0.05201034  0.2696511   0.04551164  0.2140647  -0.18167034 -0.28094158
 -0.1603654   0.20836762 -0.3712607   0.12285776 -0.20405741 -0.01479509
 -0.10385193  0.31342927]
[-0.21913894  0.23746526 -0.13369827  0.12869683  0.08663829  0.16024874
 -0.1616328   0.1755048  -0.00308404  0.18588485  0.09017339 -0.263721
  0.10732709 -0.04984762  0.17669566  0.17953612  0.17522082  0.16779128
 -0.01816521  0.07162715]
[-1.7557503e-01 -3.9858203e-03 -1.4032574e-01 -3.0698171e-02
 -1.3222517e-01  8.5309066e-02 -4.2225368e-02 -2.5090939e-01
 -1.5922283e-01 -9.1172919e-02 -1.3356225e-04  5.1320575e-02
  3.6508483e-01 -1.9590487e-03 -1.6245607e-01 -1.4808537e-01
  1.4723939e-01  3.8079965e-01  6.8248101e-02  3.7940007e-02]
[ 0.21186528  0.43669116  0.10368022 -0.24161986  0.16190447 -0.07323198
  0.13340853 -0.28503817  0.16312496 -0.02807025  0.07813054  0.0877018
 -0.25203827 -0.03639669  0.11788139 -0.01595139  0.09681138  0.04658117
 -0.06266402 -0.18883118]
[ 0.08425096  0.16677211  0.22849572 -0.11003809 -0.24743928 -0.00614514
 -0.19129515 -0.13706172  0.28811964 -0.07309572 -0.26868638 -0.15892196
  0.12980103 -0.17665067  0.21485062  0.00826721  0.03734074 -0.17672011
  0.3321522   0.15780617]
[ 0.09408242  0.05787002 -0.2231064   0.18833543  0.18861626  0.21182996
 -0.10963655 -0.22487217  0.19649503  0.15085128  0.1607523  -0.19311921
  0.20398985  0.12662381  0.25935146  0.24783574 -0.1526527   0.10271239
 -0.18331856  0.06380996]
[ 0.31136793  0.23477462 -0.06137278  0.11826673  0.14009467 -0.24046141
 -0.20660897 -0.1659441  -0.12476742 -0.2807693  -0.26514366 -0.25442803
  0.17645447 -0.18758003 -0.09993784  0.16244838  0.21517128  0.2607241
 -0.03003503 -0.10253936]
[-0.13692492  0.25507352 -0.2541704  -0.08836371 -0.01660817 -0.11988626
 -0.20585798  0.13344938  0.02004493  0.01845819  0.1088978   0.04989678
  0.0588175  -0.01587777  0.01631522  0.22237737 -0.07896824  0.178023
 -0.17391181  0.01392789]
[ 0.00519785  0.23663054 -0.17659333  0.33176368  0.09112081  0.11641768
  0.19095623  0.2597424  -0.10850693 -0.2924439  -0.17228517  0.14201401
 -0.09802087  0.22361057 -0.01503027 -0.02179479 -0.21892835  0.22592174
 -0.35140082  0.34246916]
[ 0.2789195  -0.12969719 -0.09895809 -0.15294804  0.25191727 -0.27803347
  0.18945591  0.2769952  -0.05828851  0.1430708   0.2867901   0.1908369
  0.11997177 -0.11975875 -0.3022206  -0.06328394  0.00986472 -0.2055329
  0.30801925  0.2372127 ]
[ 0.16398506  0.03178115  0.24600278 -0.01689185 -0.25220978 -0.2175327
  0.11903661  0.31345007  0.06804797 -0.08034364 -0.03116671  0.02789847
  0.1481942  -0.13194405 -0.02755857 -0.17775005 -0.14414564 -0.3320867
  0.17741004  0.07445684]
[-0.10367227 -0.15313381  0.22335273  0.05205636 -0.21594957 -0.29084396
 -0.00355049 -0.16650297 -0.13998218  0.01684377 -0.14732236 -0.24286193
  0.31149378 -0.09414963 -0.16344722 -0.04996527 -0.2578121  -0.17055796
 -0.13823253 -0.22218668]
[-0.03642225  0.16321807  0.20937559  0.2671576  -0.02870309 -0.109167
 -0.17608893  0.18749218 -0.29303557  0.10422847  0.23044218  0.04742702
  0.25462463 -0.26039362 -0.22580235 -0.21756102 -0.00169869  0.00907193
  0.207238   -0.1591242 ]
[-0.01314362 -0.23933767 -0.07258099  0.10381261  0.08699677 -0.07769664
  0.13731682  0.19265427  0.3007695  -0.14768234 -0.13283151 -0.15113162
  0.12374493  0.24568743  0.27813995  0.19648324  0.0967034  -0.18773767
 -0.20510256 -0.24572821]
[ 0.18564662  0.1949661  -0.18025719 -0.2377699   0.20703484 -0.29320577
 -0.26338652  0.10762529  0.2904828  -0.23039593  0.07471929 -0.17273833
 -0.21261011 -0.09432966  0.14932606  0.16639127  0.00682168 -0.24239849
  0.2029548   0.08996724]
[-0.08418183 -0.16164567  0.1841314  -0.04397891 -0.00098535  0.18688855
 -0.23677795 -0.04249491 -0.06587387  0.02747795 -0.2208595  -0.2052933
 -0.01525762 -0.20809959  0.19107194 -0.08591386  0.22768585  0.01243729
  0.35907775  0.01895014]
[-0.08342696  0.08301    -0.1573604   0.26607054 -0.05345516 -0.0037049
 -0.02834876  0.2876996   0.13296957  0.1057553   0.05910833 -0.00641509
  0.2207712  -0.2790197   0.1550707   0.22590733 -0.15477027 -0.02590108
  0.27748916 -0.22498064]
[-0.13199317 -0.2206234   0.274272   -0.02886596 -0.30272985 -0.19287422
 -0.22326379 -0.19827393 -0.32709658 -0.2011887  -0.10283371 -0.02263019
  0.1912698  -0.10761081 -0.16903056 -0.2841444  -0.1383206   0.17796382
 -0.11500101  0.31017476]
[-0.04606675 -0.05120792  0.05149385  0.03461648  0.02709575  0.05679115
 -0.02236975  0.00828276 -0.05206589  0.00075572  0.01872473 -0.02678395
 -0.06101725  0.01772986  0.04577531  0.05616691  0.04621238 -0.05236002
 -0.08794811  0.04119008]
layer 5 Activation
tanh
layer 6 Dense
20 1
[-0.02008343]
[-0.01619112]
[0.0115982]
[0.0006492]
[-0.30170137]
[0.1727719]
[-0.02732085]
[-0.00437399]
[-0.11829077]
[-0.24956182]
[0.19344862]
[-0.03766296]
[-0.16843249]
[-0.31030536]
[0.01069763]
[0.17808239]
[0.23675655]
[-0.19958185]
[-0.31495547]
[0.00540999]
[0.03940699]
