layers 7
layer 0 Dense
20 20
[ 0.40050167  0.2614691  -0.22094016  0.2833141  -0.15746187  0.34970644
  0.5392741   0.01922807 -0.24292575 -0.01102516 -0.26576614  0.17305763
 -0.20472416  0.26495266  0.178441    0.06483445 -0.03135947 -0.08333404
 -0.16275504  0.3139476 ]
[ 0.4056313   0.33106217 -0.15805902 -0.15699726  0.33858642 -0.1395532
 -0.07026799  0.36642066  0.06636593 -0.19026062  0.41552457  0.23908003
  0.02787406  0.45161325  0.09834477 -0.15301579  0.06584291 -0.21171226
  0.5019203   0.20688337]
[ 0.22694503 -0.22316444 -0.4405298  -0.09411637 -0.3176757   0.08339123
  0.65194553  0.5222074  -0.07380436 -0.49587268  0.14290813  0.2265158
 -0.18098268  0.2413457   0.02143441 -0.15252094  0.08529557  0.12359479
 -0.09587225 -0.13825375]
[ 0.14699362 -0.39594892  0.32982296  0.11618528  0.00425881 -0.24288957
  0.08947419  0.08920932  0.1220145  -0.10706321  0.22291547  0.2954171
 -0.01274981  0.05779876  0.07823357 -0.11676743 -0.30696723  0.16578475
  0.16972974  0.01829745]
[ 0.33812228 -0.27207002  0.1152968   0.21650401  0.07512833 -0.29859748
  0.04774949 -0.0275109   0.12609753  0.02757916  0.1458308  -0.27655044
 -0.17307997 -0.16976614  0.05293855 -0.04417095 -0.04920312  0.0637785
  0.25863025  0.10804833]
[ 0.01023035  0.23751678 -0.19186369 -0.06707767  0.22757532 -0.21499805
 -0.19624817 -0.28721312  0.2963092   0.09464744 -0.38618717 -0.39024934
  0.17821987  0.19544633  0.41301167 -0.1550722   0.20209873  0.3663925
  0.03243244  0.06889956]
[-0.11200396  0.28905725  0.06172026  0.02573946  0.2949981  -0.20992804
  0.1474721   0.03897434  0.04040669  0.06380674 -0.16541499  0.09693953
  0.13522135 -0.15110603  0.40347388 -0.3151167  -0.20287631 -0.21776776
  0.02200827 -0.5394131 ]
[-0.34174633  0.1718006   0.2845023  -0.06533244  0.3040531  -0.31269574
 -0.02450215  0.19933435  0.36751276 -0.06855477  0.01050178  0.20970029
 -0.21039437  0.17454998 -0.01720739 -0.11890148  0.3515952  -0.03281869
 -0.28253868 -0.3466905 ]
[ 0.0894728   0.04848252 -0.30625322 -0.2410719   0.09256362  0.11781693
 -0.04118589 -0.3523896   0.3087557   0.08378057  0.5110395   0.02133503
 -0.235154    0.22014688  0.00608053  0.33468288 -0.22387293  0.13396436
 -0.45493734 -0.18870713]
[-0.20976676 -0.06979425  0.1294697  -0.19104001 -0.44492933  0.0760008
  0.34189913  0.33200008  0.1914526  -0.3412474   0.17576252 -0.40696687
 -0.05173711 -0.0984335   0.02763071  0.43445843  0.17702222 -0.03809174
 -0.00404385 -0.27702564]
[-0.24299514 -0.11081238 -0.1480539  -0.25133038  0.10373093  0.18723676
  0.18058024  0.28687835  0.00529243 -0.277678    0.1447164   0.04285434
  0.00579078 -0.28941828  0.26084858 -0.20186602  0.12851448  0.20080851
 -0.08739551 -0.30384955]
[-0.31073615  0.03613486  0.36531022  0.1953045   0.36560783  0.49336466
 -0.4468137  -0.3950758   0.07067892 -0.28576764 -0.04617815 -0.20884155
  0.21188678 -0.37423718 -0.03236632 -0.2540082   0.10256118 -0.30268967
 -0.01811529 -0.56616646]
[ 0.22726719 -0.28428286  0.17886183 -0.3081074   0.22762597 -0.17241155
 -0.3832705  -0.36418566 -0.08820096 -0.06167884 -0.0184202  -0.02620926
  0.09187561  0.06842556 -0.02823773 -0.3806392  -0.14977162  0.01421687
 -0.19653694  0.31852984]
[-0.02169502  0.33608913  0.48877347  0.22515005 -0.13762248 -0.15928623
  0.00299201  0.20469515  0.01917547  0.36835915  0.08306904 -0.1853438
  0.00901061 -0.29554644  0.42297658  0.531382    0.03942944  0.4063319
  0.1922171   0.24779475]
[ 0.4463913  -0.0680652  -0.0548618  -0.33859122 -0.13350047  0.23369443
  0.49068257  0.33778948  0.21807858  0.1016179   0.09653705  0.14735802
 -0.09129444 -0.44647247  0.34367535 -0.2740601   0.04768478  0.12347529
 -0.21174183  0.27319577]
[-0.02633972 -0.28920183 -0.30542868  0.14662498  0.37579018  0.34257162
  0.154093    0.04898001  0.11887585  0.2755639   0.10251339 -0.46977624
  0.39948246 -0.17612825  0.02699484  0.0895244   0.13979004  0.06839893
  0.2602103  -0.20947412]
[ 0.22989348  0.2563151  -0.33478564  0.31618595  0.14590001  0.25639552
 -0.12183158  0.184858   -0.2812667  -0.43376353 -0.06794406  0.454959
  0.20781083 -0.24003464  0.24327742 -0.11157607 -0.0561111  -0.3179833
  0.31368387 -0.20867966]
[ 0.72734755 -0.7025407  -0.7123784   0.09959833 -0.27368283 -0.562263
  0.55735725 -0.8519469  -0.19696005 -0.08814127 -0.28454855  0.38621774
  0.6988505   0.46228597 -0.0581423  -0.18459734 -0.24609621  0.59848833
  0.44947842  0.28749692]
[ 0.17977604 -0.28729773  0.637807    0.6602839   0.08178978  0.4234163
 -0.7502487   0.04751469 -0.14699203  0.46538624  0.24604692 -0.5679885
  0.38769183  0.93570054 -0.68089455  0.07588695 -0.11188881 -0.76087415
 -0.08310238 -0.04845593]
[ 0.2547579  -0.08250619 -0.31543753 -0.01587665  0.00632126 -0.34935164
  0.53076303  0.4091246  -0.1310485   0.01557491  0.06779268  0.4035867
 -0.2993237   0.38734138  0.00632495  0.32429582 -0.04684526  0.26163477
  0.4920864  -0.22067602]
[ 0.10668023  0.02678936  0.0367677   0.12085324  0.04390086 -0.02926001
  0.2056626  -0.05110662 -0.09819771 -0.11492616 -0.09158573  0.06541605
  0.04785357  0.1454269   0.03146277 -0.00548152 -0.00686406  0.09547225
  0.01322286  0.00480857]
layer 1 Activation
tanh
layer 2 Dense
20 40
[ 0.01391601 -0.03410084  0.14570878  0.18297477  0.04718959  0.06067538
  0.3429871  -0.04957998 -0.05715315  0.25301546  0.27760518  0.18187723
 -0.21650958 -0.34904116  0.18566558  0.00586914  0.23948766 -0.09685395
  0.20178163  0.15798746  0.1939454  -0.02407739 -0.010635    0.20181684
 -0.12540309 -0.12247714 -0.13178293 -0.10839108 -0.2767459   0.00649917
 -0.12669927 -0.12635683 -0.08819529 -0.17587456 -0.02822153 -0.19999778
  0.21314016 -0.09780065  0.15202527  0.37186497]
[-0.262568    0.2232387   0.29164568 -0.3858361  -0.20923458 -0.23001426
 -0.08250383  0.09450173  0.12927492 -0.16236323 -0.20220126  0.13788028
  0.40447593 -0.20003524  0.1796688  -0.10324653 -0.1481537   0.25652748
 -0.4121768  -0.04353465 -0.00139584 -0.1269066   0.16868538 -0.32782128
  0.20952697 -0.04445957 -0.1933151  -0.0611896   0.07161705 -0.03973824
 -0.18724751  0.48986036  0.41252923 -0.01688967  0.00381495  0.36951375
  0.15305403 -0.08508828 -0.10938772 -0.32523695]
[-0.19138286 -0.20230082 -0.60290325 -0.37092307 -0.25137743 -0.06190614
  0.2907173   0.09834374 -0.08352548 -0.2718746  -0.3327392   0.26042652
  0.08991009  0.16197458 -0.2011421   0.16954945 -0.0526338  -0.11183008
 -0.3987067  -0.17043027 -0.27412626  0.11559866 -0.04707403  0.00824041
 -0.25401193 -0.25326416 -0.2978503  -0.05487879 -0.18507107 -0.02539163
 -0.25083044  0.4533034  -0.3541866   0.34931374  0.16450547  0.07650599
 -0.06387139 -0.21495782  0.09031306 -0.19516611]
[ 0.1651106   0.1040488  -0.24515688 -0.10635941 -0.00501251 -0.08870824
  0.15405707  0.45947218 -0.06363383  0.03783807  0.06496421  0.27354372
 -0.36184722  0.38886574 -0.1882253  -0.30841884 -0.13967992 -0.19739805
 -0.0723972  -0.3328268   0.12541802 -0.03332942 -0.23850316  0.21913804
 -0.33035412 -0.0903341   0.29770908 -0.03806008 -0.18307641 -0.03466371
 -0.06614199  0.25151077  0.1075693  -0.06759988 -0.2247427  -0.19939926
  0.00734233  0.27547967 -0.14547144 -0.11567008]
[-0.23062398 -0.06621529 -0.1893338  -0.25312138 -0.06874851 -0.21159613
 -0.2142772  -0.18612137  0.07851909  0.2235695   0.07960332  0.00152777
  0.06193874  0.14285281 -0.02731106  0.2575068   0.17484747  0.28670546
 -0.13071246  0.10946168  0.09953922  0.10110379  0.07931509  0.16311285
 -0.15050404 -0.21139733 -0.04560323 -0.08309141 -0.28905755  0.22460388
  0.0630549   0.01839234 -0.09466044 -0.19887833  0.19730209  0.07845399
  0.02047113  0.26515663 -0.16411997  0.01607457]
[ 0.22465287 -0.21897689  0.11011751 -0.26080704 -0.12751582 -0.23506553
  0.27561647  0.16986884 -0.07377934  0.14824408 -0.07975883  0.17775208
 -0.11675811  0.23751496 -0.13418263  0.22665772  0.0289122   0.2299588
  0.02745538 -0.15115657  0.35790548  0.1577983  -0.13754193  0.00884434
 -0.29054552 -0.2597578   0.24387947 -0.13089043  0.14179766 -0.1911182
 -0.22554964  0.10905047  0.16855912 -0.09571484  0.23535578  0.242018
 -0.11442532  0.07306513  0.25082642 -0.3347644 ]
[ 2.84061164e-01 -9.85851660e-02  1.17948294e-01  3.23665410e-01
  2.17657700e-01  1.11623175e-01 -2.31078360e-03 -3.22372615e-01
 -2.74022788e-01  5.22723019e-01  7.01749250e-02  1.89094455e-04
  2.68971413e-01 -7.99877048e-01  6.58175707e-01 -1.90195292e-01
  3.25391352e-01 -2.18207344e-01  3.57250273e-01 -2.64204144e-01
  1.29548430e-01  4.13604021e-01  9.37410444e-02 -1.78979322e-01
  3.96025091e-01  1.29792700e-02  1.36843413e-01  2.18657285e-01
 -6.95782900e-02 -3.78640369e-02 -8.90034959e-02 -2.70160496e-01
  4.60851282e-01 -6.22858778e-02 -1.15644306e-01 -3.69235694e-01
 -2.97059029e-01 -2.21561521e-01  9.59941223e-02 -4.32806879e-01]
[-0.11633176  0.12581468  0.05779814 -0.4283232   0.16347271 -0.04624747
 -0.29557902 -0.05075983  0.3119745   0.11802406  0.17999469  0.2524199
  0.45829636 -0.45965078  0.07597685  0.13295364 -0.05411811  0.1605602
 -0.01745198 -0.09182346 -0.2367724  -0.3372401  -0.11399485 -0.23648529
  0.23542646 -0.144953   -0.02185481 -0.11661    -0.07521979 -0.14953056
 -0.31084278  0.4253112   0.11893896  0.39756745  0.2500561   0.08355916
  0.05269958 -0.11102843 -0.14177944  0.21972904]
[-0.21967782  0.09756638 -0.15232606  0.35079038  0.10437496 -0.23542225
 -0.12079807  0.02395525  0.10736256  0.12670188  0.06790791 -0.24285856
  0.19891374  0.05197903  0.00162892 -0.03879302  0.02153493 -0.12642534
 -0.2423784   0.24324913  0.06063323  0.21397921  0.19004245  0.2723944
 -0.15596578 -0.05252011 -0.14110419  0.10222439  0.23177826  0.10590915
  0.20939814  0.21128277 -0.35060897  0.05352557  0.2521051   0.11500568
 -0.19809629 -0.22120376  0.03710538  0.02003785]
[ 0.01223948 -0.21964167 -0.14404619 -0.00180901 -0.02195186 -0.07575039
  0.08268704 -0.1294739  -0.07976431 -0.03584814  0.0842027  -0.18064372
 -0.11463059  0.36068475  0.03159088  0.11788032 -0.32110468 -0.0101491
 -0.05443612 -0.0445107  -0.10774122 -0.12191558 -0.10081491 -0.02004702
  0.2476942   0.17032894 -0.03990591  0.05900906 -0.2818913  -0.15731752
  0.032989    0.2063106  -0.14204603 -0.20768496 -0.10859552 -0.13800688
 -0.09671585  0.18934041  0.03188767  0.05557492]
[ 0.14089309  0.2386121  -0.07737482 -0.25570697  0.1147753   0.14490317
 -0.20291068 -0.27847067  0.19972377 -0.39611298 -0.10945793  0.07571276
  0.24828292  0.20052786 -0.17146881 -0.05444194  0.08854469  0.13726099
 -0.03914995  0.06408795 -0.13244294  0.20823726 -0.13839224  0.0645294
  0.12101493  0.09662786  0.34061772  0.12131339 -0.15389432 -0.07258628
 -0.19496468  0.48957333 -0.16489331 -0.27060866 -0.2031821  -0.16993935
 -0.1909328  -0.13440885 -0.30385423 -0.06079662]
[ 0.08958425 -0.29362032  0.28084534 -0.187643    0.44638246 -0.02561629
  0.18133277  0.1389069   0.26557687  0.4462601  -0.11023865  0.00333406
  0.40716213 -0.43872884  0.0419043  -0.32295176  0.10834066 -0.3540938
  0.21442403 -0.05682845  0.20533966 -0.20423055  0.1634659   0.23445486
 -0.16448638 -0.00150872  0.40805358  0.19395453 -0.24834025  0.24931431
 -0.03830528 -0.43785146  0.39314222  0.3271132   0.06519496  0.14434819
 -0.00219855  0.00680098  0.20369403  0.16929403]
[ 0.1845149  -0.21687792  0.16048212 -0.11248484 -0.02669489  0.02206977
  0.17314191  0.03302558 -0.08438201  0.1025671   0.1847948  -0.05720611
 -0.3216677   0.01044666  0.09652849  0.00407301  0.2433982   0.06724229
 -0.12572289  0.09461188  0.15682904  0.0432212  -0.04632866 -0.00602523
 -0.18300945  0.0355649   0.22847277  0.12219829 -0.11192178 -0.06023297
 -0.25178894 -0.24888766 -0.11117125  0.1191348  -0.07652427  0.00297556
 -0.11548302 -0.03569298  0.06648645  0.21642622]
[ 0.00192311  0.09711883  0.24650605 -0.12906271  0.06270574  0.19235504
 -0.00967333 -0.02867379  0.2448445  -0.03780051  0.05829584  0.31345415
 -0.04001554 -0.30785435 -0.24273618 -0.22712255  0.32970974  0.12990315
  0.2629117  -0.0329767   0.13397413 -0.26240572  0.17895862  0.20136227
  0.09307124 -0.1593259   0.04678115  0.11389905 -0.19277982  0.04799588
 -0.37253353  0.19952317  0.18835184  0.05075423  0.1481716  -0.05841097
  0.03037106  0.02516969  0.2070507   0.51915693]
[-0.23465335 -0.09512277  0.21614824  0.01943919  0.09429453  0.16413623
 -0.11475016 -0.02511212  0.16328508 -0.10299865  0.33907107 -0.01778327
  0.304364    0.07552829 -0.12322649 -0.33655772 -0.02577626 -0.02247935
  0.3797301   0.20985682  0.12959164  0.09049065  0.37475958 -0.11755662
 -0.34004226  0.10887272 -0.00940048 -0.06863402  0.03288078  0.31057996
 -0.03023282 -0.34897476 -0.14594655  0.03757304  0.185708    0.02095829
 -0.3450227   0.02741189  0.06711468 -0.31357253]
[ 0.18560608  0.04699146 -0.51202345 -0.00264449 -0.5022018  -0.25256634
 -0.19346687  0.24345648 -0.41746056  0.05600749 -0.09146139 -0.13748443
  0.13786198 -0.14441733  0.08362423  0.35080874 -0.1663276  -0.17339097
  0.03012263  0.17693514 -0.23711921 -0.08964796 -0.3540674   0.20161799
  0.09424462 -0.37609324  0.23575751 -0.09047769  0.39229122  0.1697258
  0.10552199  0.5668741  -0.16339545 -0.20166679 -0.07225851  0.24881007
 -0.09459893  0.02125111 -0.2556926   0.0715273 ]
[ 0.30969808 -0.149388    0.18552141  0.23192236 -0.27217844 -0.13699028
 -0.1175566  -0.0188613   0.26556838 -0.16651659  0.14615044 -0.22575475
  0.18882413 -0.08120205 -0.06906589  0.13292524 -0.20804305 -0.12173661
  0.10574094 -0.21675293  0.02921252  0.19327012 -0.06916375  0.26452553
  0.24107668  0.15892127 -0.10423776 -0.2885658   0.06922483 -0.20696601
  0.0706415   0.17155465 -0.15643854 -0.1637655   0.3807131   0.3686068
  0.11142968  0.03854729 -0.20053099 -0.15215875]
[-0.09723408  0.06845988  0.61061907  0.11808713  0.37774003  0.07458461
 -0.34363064 -0.26518548  0.34980837  0.5033622   0.35950473 -0.07254829
  0.07525936 -0.27104077  0.44705528  0.09072928  0.08769946 -0.04784023
 -0.00301147  0.3271347  -0.12945776  0.37892023 -0.2190549   0.35360476
  0.17580639 -0.01506806 -0.03819373  0.10178252 -0.20169139 -0.2859455
 -0.04971297  0.09330782  0.30376405 -0.01332239 -0.04014137  0.25272644
 -0.1590076   0.17783302  0.16835113 -0.10530396]
[ 0.28981778  0.08808675  0.33039403 -0.29006037  0.34739017  0.18491663
  0.36312297  0.4709951   0.17562494 -0.10025063  0.391538    0.39327458
 -0.2130178   0.07964249  0.10110891 -0.3905471  -0.07491271 -0.1585326
  0.31751564  0.08940154  0.24053366 -0.23434551 -0.01979212 -0.06731202
  0.01339956 -0.25703952  0.1125285  -0.10664111  0.10832601  0.04673424
 -0.10397837 -0.3396135   0.4717568   0.13781889  0.01036037 -0.27077132
 -0.08860607  0.16653109  0.21259819  0.12056884]
[-0.1611322  -0.14453383  0.3417486  -0.01303973  0.2017372   0.1177746
 -0.23706587  0.00148236  0.08503917  0.05510023 -0.07407527 -0.11222031
 -0.11233712 -0.14971124 -0.07601424 -0.19068941  0.07402927  0.06382107
  0.10639706 -0.08661197  0.01380551 -0.0637437  -0.22864734  0.07411484
 -0.14457455 -0.2539377   0.27504998  0.08633056  0.21096545  0.18135817
 -0.06839986 -0.30603197  0.3890127  -0.15083386  0.0091873   0.00915776
  0.21459435  0.21975286 -0.19038533  0.266812  ]
[-0.02513905  0.04151274 -0.00395302 -0.09430935 -0.02081312 -0.01280595
  0.01917709  0.00338093  0.01878973 -0.00726256  0.0154722   0.028541
 -0.04956368 -0.15884954  0.02813112  0.01282752  0.00428654 -0.0116834
  0.17530397 -0.04995392  0.10022201 -0.14782356  0.01160119 -0.04369058
 -0.01679085 -0.03420416  0.15936318  0.02743831  0.02597478  0.06108006
 -0.01387988  0.01011143  0.03298407 -0.05406624 -0.05469448 -0.05086182
 -0.1947229  -0.10502005  0.00430455 -0.00759715]
layer 3 Activation
tanh
layer 4 Dense
40 20
[-0.00279319  0.03717967  0.00509693 -0.15489076 -0.08313483  0.18606901
  0.27383468  0.29236063  0.05498729 -0.01346807 -0.09251689  0.3267617
  0.23143806  0.11637076 -0.22343609  0.10835817 -0.01713831  0.24220574
 -0.08319741  0.13107482]
[-0.04628006 -0.16429801  0.08875372  0.16443828  0.00642607 -0.01544142
 -0.13095945  0.19910215  0.2691999  -0.00295477  0.07641561  0.15706627
  0.20839506 -0.16367756  0.12523587  0.06292686  0.03576167 -0.23126411
 -0.19247572 -0.18160103]
[ 0.33420342 -0.00134028  0.1845044   0.08676311 -0.16520058 -0.23670834
  0.08192904  0.38499302 -0.41741577  0.09052783 -0.20788035 -0.15626214
  0.00858271  0.28171912  0.13742565  0.15552425  0.24542761  0.16384321
 -0.05950512  0.18787293]
[ 0.3219701   0.3255652  -0.2167129  -0.01876004  0.14173092 -0.0231273
  0.06691162 -0.01693116  0.17914715 -0.22635329 -0.19513135 -0.28117678
  0.24919485 -0.11771786 -0.33723325 -0.03349315 -0.01755116  0.30570528
  0.10628095  0.17002022]
[ 0.2927773   0.06405186 -0.14434089  0.27613756  0.10039886 -0.11286975
  0.05020579  0.30048537 -0.1725269  -0.24185435 -0.22247733  0.15847918
  0.08828113  0.26567772 -0.26123765  0.2699349  -0.15289451 -0.19543393
 -0.25196102 -0.13999939]
[ 0.13533016 -0.14653526 -0.11244224  0.2209002   0.18687265  0.03309609
  0.08684794  0.35120156  0.02938202 -0.04926996 -0.00065934  0.16470106
  0.24571814  0.1854625  -0.09639233 -0.06741749  0.22532676  0.28812507
 -0.09526681 -0.22039317]
[ 0.04345236  0.03197536 -0.06305832 -0.32344684  0.2291489   0.06684435
 -0.31914714  0.34641865 -0.0946312  -0.21419334  0.18193878  0.17056458
  0.05999316 -0.03616613  0.02847032 -0.06460547  0.08383025  0.16801241
 -0.28893265 -0.14060646]
[-0.01882456 -0.210727    0.29322228 -0.37025207 -0.15445405 -0.0326245
 -0.17531879  0.3294578   0.16787419  0.08722106  0.17899863  0.276909
  0.06876789  0.14236495  0.2294594   0.04355415 -0.4035707  -0.19859403
 -0.03714753  0.08318231]
[ 0.21369778  0.01932039 -0.23792036 -0.03281005  0.06737579  0.29346535
 -0.02990815 -0.07708941 -0.17160709  0.05439795 -0.02150987 -0.24083105
 -0.0489921   0.33562228  0.22135991  0.24781471 -0.11851382  0.2048012
  0.17399696  0.12616628]
[-0.22818021 -0.09243657  0.0712006   0.2500879   0.3416423  -0.2562845
 -0.08652677 -0.00945015 -0.48694074 -0.2838397  -0.42630848  0.07300121
 -0.05277002  0.18930615 -0.03222669  0.21321927  0.20430322  0.16144432
  0.10200441  0.08802918]
[ 0.23350789 -0.03272065  0.01006291  0.06332742  0.10764733 -0.16985153
 -0.27235165 -0.11829365 -0.3185565  -0.04947754  0.13861947  0.02767838
  0.06393007 -0.04037693 -0.11559455  0.2570752  -0.4424018  -0.39078367
 -0.18867977 -0.10587718]
[-0.00260403 -0.2504237  -0.09749775 -0.3929429  -0.002636   -0.19431077
 -0.30787915  0.06381199  0.19453128  0.09673268  0.18445452 -0.19794752
 -0.22429393 -0.13756254  0.02889379  0.18284523  0.23064019  0.37411848
  0.04687413  0.02357821]
[ 0.27659684 -0.28607008  0.14917229  0.1207794  -0.16690725  0.21987875
  0.22088027 -0.2892475   0.1181226   0.0411803  -0.3205342   0.22427435
 -0.03314706  0.211453    0.14116801 -0.02867551  0.2588215   0.19911717
  0.14037865  0.29513812]
[-0.2624533   0.33757684  0.17083554 -0.31326398 -0.16415821  0.12904723
 -0.17947708  0.03826348 -0.10764993  0.21657683  0.39893192  0.07475962
  0.168683   -0.23047374  0.09072522 -0.24078107 -0.06091342 -0.10805104
  0.24881475  0.33399737]
[ 0.17412275 -0.08475602 -0.0300289   0.05268979  0.07603605 -0.09218711
  0.3148665   0.15462713 -0.32023707 -0.03802845 -0.3413775   0.06475123
 -0.14267588  0.27603033  0.09527516 -0.1526503  -0.03851356 -0.2288773
 -0.02463473 -0.11084166]
[ 0.18470822  0.10094345 -0.00084849 -0.05296584 -0.04963949 -0.17372645
  0.3276417  -0.25678518  0.2684033   0.2855871  -0.00064647  0.07990801
 -0.04331478 -0.30193427  0.21816762 -0.4093254   0.09093488  0.14911741
 -0.22072825 -0.06755769]
[ 0.3194299   0.06992484 -0.23712689  0.00749434  0.1087485  -0.05196294
  0.07937073  0.19146772  0.08033436  0.01557177  0.11826953 -0.03132569
  0.23493934 -0.16049066 -0.25108752  0.25587127 -0.08184144 -0.3157511
  0.13995829  0.10632048]
[-0.2119102   0.12592682  0.13210915 -0.18437266  0.13288613  0.03743257
 -0.19284229 -0.01253148 -0.13424517  0.3916927   0.13751645 -0.20975688
 -0.14191356  0.19638835 -0.1661098  -0.19896178 -0.26923257  0.36336833
 -0.08278938 -0.06324662]
[ 0.19369306 -0.1230591  -0.3604858  -0.18348213  0.27129456 -0.12179462
  0.17549106  0.17112717 -0.12336608 -0.06242671 -0.290382   -0.23869513
  0.04773173 -0.0285787  -0.09191589  0.19129156 -0.14649475 -0.05320103
 -0.21472992 -0.01549348]
[ 0.26548553  0.2779266   0.2933993   0.11460375 -0.28432453 -0.28387162
 -0.28738272 -0.239002   -0.04518591  0.08530971 -0.08877162 -0.20725963
  0.10416405  0.18110481 -0.06416997 -0.2117144  -0.01585177 -0.20074432
 -0.21774718 -0.27139702]
[ 0.12771626 -0.20562941 -0.14418435 -0.02901861  0.20033567 -0.22941437
  0.2656105   0.36001033  0.1984264  -0.16514187  0.13268547 -0.21676283
  0.24852012  0.19936545 -0.19766057  0.31360644 -0.23820135 -0.26228273
  0.0782541  -0.01973373]
[ 0.06288311  0.1444531  -0.3206899   0.23459627  0.12911096 -0.12674958
  0.15114626 -0.02315323 -0.24935664 -0.31541544  0.3167638  -0.01420023
 -0.14904395 -0.31365123 -0.10563648  0.02858135 -0.00961811 -0.24354835
  0.26547357  0.10814218]
[ 0.01618033  0.04050633  0.27014646  0.20908836  0.22266091 -0.11719289
 -0.05411831 -0.12970988 -0.19934468 -0.01583504  0.16785818  0.16425253
 -0.01906656  0.2765343  -0.25411016  0.0388498  -0.30406627 -0.1891741
  0.16496588 -0.1261615 ]
[ 0.08832593  0.34993818 -0.26658186  0.09572469  0.35387495  0.22575624
 -0.11334541 -0.00634426  0.12789752  0.05016147 -0.23027684  0.04143701
  0.30047286 -0.19370067 -0.19684593  0.2757272  -0.02263119 -0.17832272
 -0.05891149 -0.18275937]
[ 0.01816917  0.12866774 -0.14689872  0.31137568 -0.10683066 -0.20701754
 -0.17683302 -0.2745349   0.21339871  0.15571308 -0.22477062 -0.17373739
  0.16978511 -0.16201587  0.07913667  0.27662382  0.32710394 -0.20134506
  0.05914888  0.27385435]
[-0.06092823  0.20744495  0.02827085  0.26135123  0.21214586 -0.34847128
  0.08671042  0.02622654  0.01364028  0.12302253 -0.05211474 -0.04082417
  0.3112607  -0.13068856 -0.24535042  0.08913094 -0.0067252  -0.04656228
 -0.2209332  -0.03480805]
[-0.268632   -0.20457259  0.16688158 -0.28229654 -0.21156467 -0.22168186
  0.18999077 -0.04424028 -0.12626089 -0.06179225 -0.26837018  0.14279291
 -0.10026833  0.02539059 -0.02738833  0.05527863  0.2772111  -0.28095993
  0.12326327  0.0183382 ]
[ 0.38593245  0.05585437  0.03448099 -0.22758771 -0.29997298 -0.09741939
  0.06949175 -0.20078455 -0.10724287 -0.10840982 -0.08594226  0.0518385
  0.1655776  -0.18092155 -0.17383946 -0.15173216  0.05064613  0.01153735
 -0.06019449 -0.19413464]
[-0.27777022 -0.22304572  0.18468252 -0.01503715 -0.06802705 -0.11564615
  0.19960642 -0.23778586  0.0111953   0.04911886  0.04255385  0.191096
  0.01912951 -0.41683936  0.23205984  0.03424887  0.05292704 -0.22553952
 -0.00380014 -0.22375311]
[-0.04934014 -0.13496391  0.01047125 -0.14225256 -0.04089283  0.10294904
  0.12967743  0.2887709  -0.08403764 -0.11872721 -0.20657486  0.02559918
 -0.03516475 -0.15536024 -0.04452871  0.03709101  0.05089214 -0.1783845
 -0.33634245 -0.13511248]
[-0.2054887   0.16756971  0.08489514  0.24268596  0.05815694 -0.22640234
  0.1611334   0.2157205  -0.19389378  0.26379624  0.03091545  0.25658208
  0.2779992   0.15844724 -0.21270473  0.02928191 -0.0547277  -0.2770195
 -0.21455082 -0.0332415 ]
[-0.40181705 -0.26615557  0.24930015 -0.0488531  -0.29008943  0.3637018
 -0.08931009 -0.44892213  0.43127123  0.09389997  0.03745475 -0.26221508
 -0.39942792 -0.299053    0.24543281 -0.25656465  0.01302318 -0.12732376
 -0.26492363  0.05886954]
[ 0.20344514 -0.166188   -0.01035114  0.09512064 -0.06453322  0.01986092
 -0.04314804  0.05268417 -0.45730677 -0.17817675 -0.33948478 -0.16530727
  0.30438417 -0.09202687  0.25760967  0.41023812 -0.2958124  -0.25792652
  0.12171685 -0.0105535 ]
[-0.05119845 -0.0516222   0.2230621   0.14546706 -0.16670446  0.18433787
  0.2947743   0.0850277  -0.05437771 -0.1389543   0.00983674 -0.29263628
 -0.2667276  -0.10891385  0.18673055  0.16465765 -0.07100248  0.07563153
  0.06147065 -0.16111653]
[ 0.11415387  0.15530816 -0.23267098 -0.02999945  0.11526154  0.24570106
 -0.00655718 -0.20449395  0.19054908  0.28494626  0.02714682 -0.2665767
 -0.2242507  -0.15597819  0.02707819 -0.18928371 -0.02626143  0.2370395
  0.18797457 -0.0776202 ]
[ 0.24462564  0.07111519  0.27943286  0.4471204  -0.2176686   0.18997648
  0.09552767 -0.3174121   0.2151066  -0.2218922   0.13491648  0.2049237
 -0.06973375 -0.1838664   0.34364954 -0.06373297  0.05573834  0.12568927
 -0.28803888 -0.22825478]
[ 0.03213601  0.23510322  0.2608138  -0.22564696  0.04584396  0.06849888
 -0.0965982   0.09814904  0.08860168  0.23938695  0.02055975 -0.11877676
  0.08808251 -0.11318958  0.17446944  0.14600791 -0.13393006  0.22776626
  0.08471995 -0.10324509]
[ 0.10059956  0.14320645 -0.2863359   0.03376631  0.01039311 -0.07347464
 -0.1165221   0.03493223  0.02626806  0.18465133  0.23884605  0.20639117
 -0.18232462 -0.19113408 -0.11082963  0.26996478 -0.21362285 -0.11117621
 -0.21532242 -0.19536397]
[ 0.32453388 -0.04745865 -0.27335364 -0.16417365 -0.2062293   0.07635613
  0.15335888 -0.0143841  -0.12331106 -0.22552006  0.1057967  -0.3249461
  0.31044346 -0.16210058 -0.21088865  0.28645492 -0.11259666  0.11628153
 -0.0434007   0.16030446]
[ 0.13250448 -0.25828016  0.31734443 -0.05257597  0.06887918 -0.0301699
  0.04129326 -0.18034445  0.19564596  0.13904889 -0.32484838  0.02554293
 -0.04587114 -0.1999391  -0.13603751  0.00078516  0.01486451  0.09251572
  0.0490744   0.16328634]
[-0.00237871 -0.06310289  0.01001592 -0.02622606 -0.00080924 -0.02511771
 -0.0040306   0.03611558 -0.0404023  -0.01655708  0.00162731  0.00054962
  0.04384617 -0.08645471  0.00514688 -0.02846018 -0.01502722  0.00735671
 -0.01581331  0.00766818]
layer 5 Activation
tanh
layer 6 Dense
20 1
[-0.15538879]
[0.26214463]
[-0.10969712]
[-0.12999208]
[0.04188751]
[-0.12702107]
[0.07541457]
[0.13228567]
[-0.17221405]
[-0.22907622]
[0.19874564]
[-0.04021704]
[0.07931323]
[0.00563475]
[0.23128116]
[-0.22906448]
[0.01350716]
[-0.01230746]
[-0.00165762]
[0.00741748]
[-0.00990715]
