layers 7
layer 0 Dense
20 20
[ 0.27884233 -0.0688679  -0.12645143  0.0804252   0.12182585 -0.10620721
  0.57588845 -0.04712002 -0.10115281 -0.08546644  0.13768968 -0.02040085
  0.07983694  0.0268731   0.17136332 -0.3288418   0.19295901 -0.02184841
 -0.08138967 -0.18192549]
[ 0.03775815  0.43016723  0.33731842 -0.1240671   0.10554007 -0.56030184
 -0.12477443  0.26515356  0.00756156  0.13699079 -0.37890702 -0.35025024
 -0.05734057 -0.17847852 -0.4002846   0.13767539 -0.2564615  -0.43031096
 -0.01210594 -0.06752928]
[-0.4565299   0.2968742   0.4834764   0.30138645 -0.01814771 -0.5674199
 -0.53146976 -0.15643308  0.15888749 -0.17959438  0.010511    0.2973315
  0.0934368  -0.49315235 -0.35061142 -0.25003096  0.39227244 -0.06779276
 -0.10449149  0.22888975]
[-0.350198    0.32055852  0.3288266   0.15122908  0.28685993  0.16028285
 -0.15050085 -0.01964483 -0.04056336 -0.26361325 -0.278105    0.19992822
 -0.12763971  0.03390422 -0.01771399 -0.1903844   0.21729752  0.10766231
  0.14637484  0.40604103]
[-0.17411418 -0.11526249 -0.03438331  0.23560499 -0.24073948 -0.05686926
  0.14179148  0.2336433  -0.04801713 -0.15505445 -0.29951587  0.33083642
  0.14441472  0.32671782 -0.4653758   0.01006832  0.04220416 -0.33931383
  0.14238892  0.47962478]
[-0.04788189 -0.02663928 -0.0305583  -0.31380138 -0.2148542   0.08798476
  0.47230965  0.05981307  0.19696972 -0.3498023   0.13772982  0.07127231
 -0.01940777  0.16660576  0.24147193  0.04228704 -0.00950798 -0.02831353
 -0.3236041   0.25291014]
[ 0.0215553  -0.392625    0.18205623 -0.27067396  0.3543068  -0.10751189
  0.49831548 -0.23075622 -0.25183663 -0.26363203  0.3386703  -0.1429113
 -0.10002542 -0.17469712  0.14013319 -0.44483507 -0.27793214  0.5694069
 -0.25579894 -0.03243739]
[-0.12966515  0.3105995   0.21399987  0.01799506  0.18344797  0.02123005
 -0.5226597  -0.22831787  0.20227574 -0.44213426  0.236873    0.08885475
 -0.13186432 -0.25020918  0.45083618  0.29505974 -0.33750945  0.0701439
 -0.45678818 -0.23942956]
[-0.19283555  0.14399037  0.5794782   0.10600868  0.6569372  -0.23467563
  0.43348676 -0.02610012 -0.07999094 -0.29973993  0.07138259  0.04555326
  0.09572195  0.10563635  0.00660114 -0.27995133  0.68936306  0.19901723
  0.47633126  0.61460406]
[-0.14666082  0.02239226  0.31602982  0.01775946 -0.06104432  0.06854977
  0.02700827  0.5191892   0.20177194 -0.32999972  0.0006102  -0.07505035
 -0.04563278 -0.00615447 -0.05484428  0.19713509 -0.29545948  0.09797677
 -0.30919737 -0.20283745]
[ 0.11522213  0.12028829 -0.20230024 -0.20950621  0.3159892   0.32935324
 -0.08802839 -0.04822459  0.17565557  0.10579897  0.30881688 -0.0777902
  0.6138261   0.04792347 -0.17306979  0.22743565  0.20474616 -0.33592707
 -0.03612157 -0.15838718]
[-0.03359054 -0.47673833  0.6136214   0.7011948   1.0359906  -0.48637784
  0.6176335  -0.09472851  0.3480422   0.03807616 -0.71630067  0.16752753
 -0.00258407  0.28933412 -0.5761197  -0.7430298   0.8250138  -0.5035127
  0.74817264  0.44977218]
[ 0.02658873  0.21187538 -0.7636977  -0.5258121  -0.25811604 -0.09454893
 -0.05907037  0.16712998 -0.21308379  0.2668255   0.41668668  0.16221763
  0.23605631  0.17671123 -0.13379912  0.20892292  0.02812348 -0.11209403
 -0.65562904 -0.43370977]
[-0.18888022  0.1920224   0.11292431  0.08657995 -0.01738876 -0.21896036
 -0.22651741  0.10286859 -0.13234259 -0.0175641   0.05742051  0.25899714
 -0.08520117  0.13561897 -0.21744552 -0.23483133  0.0929338   0.24752274
 -0.39372954 -0.06756736]
[ 0.07580168 -0.22438222  0.43163013 -0.40369335  0.25211912 -0.1517849
  0.24725245  0.35197243 -0.34382698 -0.1808635  -0.03662874 -0.12291635
  0.29045016 -0.08083445  0.02737905 -0.00866481  0.2880859   0.27071336
 -0.5667838   0.10663599]
[-0.0836624  -0.14099608 -0.15836897 -0.47536612 -0.74754393  0.10013357
 -0.20030391 -0.34931132 -0.06110585 -0.10106758  0.57754636 -0.24857551
  0.2503132  -0.13693824 -0.3091104   0.6230826  -0.4594634  -0.2988281
 -0.23285408  0.01039837]
[ 0.35162    -0.16601567  0.30107576 -0.28836262 -0.24896973  0.37021852
 -0.35475472  0.0139966  -0.23374555  0.04526889 -0.41608703  0.25462136
 -0.5582709   0.1608422   0.39674106  0.21020359 -0.08538374 -0.16548331
 -0.13027345 -0.17576884]
[ 0.00422862  0.13589688 -0.18924586  0.27089378  0.07526976 -0.14039853
  0.1538209  -0.19372617  0.41018945  0.02703517  0.43728945  0.20696229
 -0.1510807  -0.13946915  0.3085203  -0.28075784 -0.11432158  0.30171618
  0.04777403 -0.2169348 ]
[ 0.37419918 -0.06759265  0.20178954 -0.09012124  0.17764045  0.32897118
  0.23008607  0.1808933  -0.25613618  0.03815244 -0.09934807  0.0139898
 -0.36629888  0.3322134   0.08715312 -0.13976504  0.20717655 -0.05901659
 -0.293199   -0.05590067]
[ 0.14941171 -0.18287596 -0.16092359 -0.34722278 -0.3532658   0.60376275
 -0.00368476 -0.17223483 -0.3213405   0.02323339 -0.05843419  0.10542071
 -0.6268871  -0.75427616  0.50393814  0.45575535 -0.32895368  0.6105144
 -0.21878818 -0.12373324]
[ 0.0031197   0.02705426  0.050266    0.08129901  0.00246226 -0.02018158
  0.21245754  0.11787707  0.06684986  0.02446085  0.0189514  -0.03516529
  0.04356647 -0.16184446 -0.00984448  0.03328257  0.05052046 -0.10656487
  0.14531277  0.04147915]
layer 1 Activation
tanh
layer 2 Dense
20 40
[-0.13910297  0.2152051  -0.03492796  0.24661852 -0.05389427 -0.00590524
 -0.0201895   0.15144537 -0.06591719  0.00156322  0.22568765 -0.26397264
 -0.06126154  0.15185983  0.01541782 -0.15075174 -0.17561631  0.02312136
 -0.03406805 -0.06644722 -0.18482436 -0.16512838  0.04543344 -0.15069905
  0.14760734  0.22160943 -0.16762023  0.08140919  0.22710347  0.41186333
 -0.24234852  0.13506022  0.15649745 -0.044556    0.2000811   0.15272236
 -0.23633769 -0.07611814  0.02358538  0.276141  ]
[-0.17332397 -0.06529418  0.3023969  -0.22850353 -0.02701606 -0.04939698
  0.06991899  0.14068253 -0.01808657 -0.08600628  0.20406641  0.06584526
  0.08861665 -0.04267996 -0.03376847  0.1509651  -0.19178939 -0.345333
  0.02093103 -0.048809   -0.26117632 -0.21151452 -0.08828337 -0.11063974
  0.19455467 -0.21937522 -0.20361084 -0.07361247  0.04234311 -0.08686831
  0.03361394 -0.20474787  0.0848757   0.10232754 -0.14376289 -0.20250094
  0.07607065 -0.06815863  0.09277112  0.12503381]
[-0.03993193 -0.10648558 -0.10214689  0.2119193  -0.32262987  0.15531808
  0.04262088 -0.1357876   0.02950659  0.21893308  0.1463668   0.13965498
 -0.3337921   0.07122031  0.0907892   0.06346589 -0.11835583 -0.35285425
 -0.07774977  0.12686981  0.32786173 -0.10631675 -0.08028068 -0.11546403
  0.23694204 -0.10926349 -0.15531611 -0.15118757 -0.1439065   0.0181555
  0.03772404  0.02611133 -0.00785691 -0.00139524 -0.06833975  0.1896348
 -0.05359276  0.12987866  0.11470011 -0.05249895]
[ 0.15663512  0.01635733  0.02287493  0.35761955 -0.16904324  0.15690574
 -0.19232008  0.11986264  0.00668316  0.13404892 -0.2388561   0.01855179
  0.12829275 -0.01489584  0.26017094  0.07063364  0.06632145  0.22067738
  0.18919064 -0.185368    0.2650891   0.1975007  -0.06832036 -0.08491106
  0.05760085 -0.07658783  0.06921621 -0.05049374  0.07974591 -0.04850993
 -0.21819939 -0.3857239  -0.07336233 -0.06301867 -0.05785715 -0.14560144
 -0.17775512  0.07360934  0.03919381  0.19068822]
[-0.12301426  0.00343206  0.14643523  0.17064895 -0.14284359  0.03776234
 -0.16146007 -0.08071482  0.03637189 -0.11638756 -0.16440214  0.06205245
 -0.10687351 -0.07351906  0.27731934 -0.0017257   0.05255589  0.21102937
 -0.06821101 -0.08618628  0.13064833 -0.1266858   0.05224454 -0.21935327
 -0.17171784  0.21752933 -0.02730216  0.05859724  0.09146667  0.3170437
  0.04367073 -0.01334984  0.04114135  0.1171862   0.10511037 -0.03416313
 -0.27778456 -0.17469959  0.0906468  -0.08353724]
[ 0.15071978 -0.09683947  0.14466771  0.14479193  0.06944206  0.04114275
 -0.10463575 -0.06102471  0.11789358 -0.09553743 -0.22631043  0.34056222
  0.01540345  0.09708142 -0.17360973  0.29001126 -0.17124748 -0.09227663
 -0.07852154 -0.08633475  0.001028   -0.03751346  0.14128542 -0.15630215
  0.04683104  0.04552889  0.08255857  0.00806189 -0.07573238  0.15055428
 -0.05543787  0.31903365  0.06804133  0.04486363 -0.3162563  -0.16831394
  0.22292487  0.30402872  0.2759504   0.14605297]
[-0.12852637 -0.12824124  0.07598515  0.21207544 -0.30617648 -0.04421611
 -0.1189984  -0.24458763  0.27517098  0.29375082 -0.08294972  0.09697857
 -0.02531962  0.1112901  -0.07572283  0.30579093  0.04519928  0.21358117
 -0.13763383 -0.1507073  -0.07743702 -0.2523422  -0.09437805  0.17289484
 -0.17961931 -0.2177483  -0.18006319  0.14312895  0.1396352  -0.11106928
  0.11212911 -0.2883578   0.01222188 -0.0270419   0.2607472  -0.0439127
 -0.12594892  0.06621824 -0.07425743 -0.11128759]
[ 0.23540437 -0.24710122  0.13188075  0.25325543 -0.03356145 -0.04533754
  0.02076346 -0.06025498 -0.09475171 -0.22236034 -0.05653061 -0.16012372
  0.24347821  0.18053883  0.12838587  0.06123309  0.00687773  0.16013186
 -0.05041747 -0.11859263 -0.05598596 -0.05340303 -0.13380302 -0.30055732
  0.07453988  0.10009445 -0.08629522  0.00409372 -0.11867921  0.10507907
 -0.13524158 -0.09931111  0.02857906  0.11110219  0.09531529 -0.05985586
 -0.08547655  0.06112406 -0.03384941  0.08395096]
[ 0.00946506  0.13677584  0.15357172 -0.1499985   0.0683434  -0.28786922
  0.06417885  0.08704732 -0.07908139 -0.32161906  0.15695636 -0.15949643
  0.15320288  0.07045095 -0.16894083 -0.08125955 -0.1091061   0.19210823
 -0.15635708  0.21793799  0.07016923  0.08485752  0.08075152 -0.19048962
  0.0754777  -0.31538236 -0.19057776 -0.24515349 -0.101623   -0.09955321
 -0.15360913 -0.10223866  0.11206842 -0.01584809  0.13883549 -0.02443046
  0.08237007  0.25688374  0.09977462  0.12514229]
[-0.1288944  -0.17474228  0.101744   -0.10670622 -0.16182916  0.05907817
 -0.04417892  0.10761938  0.03057254 -0.3521374   0.11545036  0.08198109
 -0.04017333  0.05161237 -0.30677757  0.11783294 -0.23181029  0.10078758
 -0.1742501   0.36685193  0.16263662  0.17003624 -0.02309895 -0.11714919
  0.04722791  0.03380351 -0.10506804  0.00779525  0.04416734 -0.03686112
  0.11562016 -0.01659103  0.10542583  0.02705657  0.11237188 -0.0346035
  0.14691901  0.19386916 -0.11710094 -0.16889992]
[ 0.09844042 -0.12017661 -0.11846428 -0.20530164  0.24302463  0.21829394
 -0.15582688 -0.19078428 -0.18501468 -0.21595965  0.04243825  0.08548982
  0.27062482 -0.26267138 -0.21230364 -0.18311821 -0.12511386  0.07108505
  0.05242898 -0.09185249 -0.33404046  0.2753423   0.22920282 -0.3074869
  0.14203784  0.18216926  0.2590753  -0.03794928 -0.15228282  0.27840325
  0.08572993 -0.2082479  -0.23489949  0.17003262  0.11861549  0.01007947
  0.03849555  0.15888718 -0.08515727  0.01689256]
[ 7.7231184e-02 -6.5515175e-02 -3.0897753e-02  8.7186210e-02
 -2.6588383e-01  9.6188344e-02 -5.8575358e-02  1.8320337e-04
 -1.0469615e-01 -1.7326976e-01 -2.0757447e-01 -2.2391578e-02
  3.1391297e-02 -2.0524908e-02  2.8460482e-01  2.1399094e-01
 -1.5504783e-01 -3.5059825e-02 -2.3283094e-01  1.7592755e-01
 -2.1124792e-01  2.3625562e-01  4.0434904e-02 -1.2028030e-01
 -2.2386606e-03 -2.8037113e-01 -7.4628890e-02 -2.1797289e-01
  1.2280478e-02 -1.1259729e-01  9.7729266e-03 -8.9087583e-02
 -2.1576208e-01  1.8074638e-01  2.1057289e-02  6.0092539e-02
 -4.4847187e-02  3.7529033e-02 -5.9123822e-02 -2.0473903e-02]
[-0.19312423 -0.09478333  0.03004561 -0.34431344 -0.23609915  0.0044251
 -0.08934305 -0.00951302  0.126434   -0.36311227 -0.15360925  0.11759573
  0.41551983 -0.00482314  0.19681711 -0.03636504 -0.04842583  0.25933498
 -0.06632422 -0.31133685 -0.10594867  0.11619683 -0.01660183  0.01782875
 -0.03152674 -0.05169901 -0.01527615 -0.2997823  -0.17097764 -0.08397312
 -0.05033566 -0.33082893 -0.22084774  0.082724    0.11225143 -0.05689564
  0.2260007   0.00929084  0.381728   -0.03752565]
[-0.00246609 -0.07992481 -0.25749767  0.02372634  0.10007608 -0.28796235
 -0.18853295  0.26376656  0.0695792  -0.04088555 -0.02951383  0.10161344
  0.0735748   0.01009304 -0.28591645 -0.20975617 -0.15829352  0.1360768
  0.0320521   0.21879344  0.25667393 -0.2510907  -0.20761256 -0.1916155
  0.08976207 -0.10221519  0.12853417 -0.13603613  0.03645103 -0.07707497
 -0.13648663 -0.28502655 -0.19066982 -0.11705483  0.14978246  0.17696805
  0.00925722  0.14726059 -0.24093007 -0.2878089 ]
[ 0.17830348  0.01878078  0.02645849  0.26436076  0.11325262 -0.09928258
  0.1935226  -0.05218063  0.1502259  -0.090276   -0.11513809  0.22629432
 -0.00745141  0.36340073  0.18609807 -0.21722378 -0.36856306  0.09880756
  0.19696344  0.24430898 -0.07674129 -0.11012852 -0.22294703 -0.04748663
  0.13824196  0.14481997 -0.06015958  0.03343403 -0.16023059  0.02792519
 -0.2710163  -0.0250596   0.09953687  0.08037692 -0.2653752  -0.11647011
  0.00472164  0.30444166  0.26678595 -0.35316816]
[-0.22893098  0.17797878  0.18154068  0.24188419 -0.07508191 -0.09297773
 -0.19518107  0.1885466   0.14240906 -0.09125866  0.11648452 -0.12125029
  0.00928678 -0.01243111 -0.31175685  0.09934156  0.03441257  0.00050292
  0.01255067  0.18410568 -0.21303678  0.02105879 -0.22120093 -0.02719267
 -0.07609674  0.4133909   0.11035904  0.1804899   0.19965099 -0.27507675
 -0.16454324 -0.08602019  0.14058772 -0.1292657   0.2612602  -0.12818646
 -0.3038991   0.04326946 -0.11046165 -0.27342212]
[-0.09188887  0.16783905  0.04139687  0.2194696  -0.1004874  -0.03404151
  0.13224934 -0.14928529 -0.21888493  0.24644256 -0.08955586 -0.31544018
  0.24513236 -0.0652365  -0.17672478  0.001638    0.0191912  -0.21998274
 -0.13894632 -0.21993242  0.2232853  -0.04899333 -0.04368348 -0.17918727
 -0.29317254 -0.328085   -0.13908803  0.12644088 -0.04517312 -0.24662688
  0.17687812 -0.07150739  0.2551855   0.02125765  0.13880825 -0.25495148
  0.17073716  0.16225494  0.52282184  0.19918664]
[-0.08248302  0.03589284  0.234789    0.10269889  0.24967502  0.03517963
 -0.15986851  0.02461716  0.05258492  0.18286341 -0.2007469  -0.20365342
 -0.3217892   0.20213282 -0.3125444   0.19996852 -0.19669677 -0.02452125
 -0.0847077   0.07220551  0.17120716 -0.22000271 -0.2252609   0.15158491
 -0.09509102  0.0704219   0.02797319 -0.21452232  0.02744343 -0.10523659
 -0.1571812   0.21371418 -0.20516564  0.1239945  -0.05705493 -0.02993428
 -0.07788115  0.27914247 -0.16886166  0.21460061]
[-0.30702665  0.03790452 -0.33118248  0.05120446 -0.3515532   0.17357855
  0.06069782 -0.0457806  -0.09658998  0.24283604  0.28164342 -0.14260441
  0.2891201  -0.0694715  -0.17083323  0.04953302 -0.14296609  0.20780349
 -0.03526504 -0.249988    0.3494088  -0.19630581 -0.36508587  0.00945564
 -0.29548308 -0.18899202  0.22377741  0.04221808  0.01480162  0.01106645
  0.10886078 -0.49253643  0.10170253  0.20699352  0.0102884   0.29251292
  0.10474446 -0.2284847   0.37118748 -0.12738442]
[ 0.11895446 -0.1215293   0.07479677  0.037482   -0.22901087 -0.15709227
 -0.2130263   0.07347505  0.26457584  0.10002561 -0.16908002  0.1023905
  0.3285613  -0.130074   -0.07922734 -0.12258735  0.28368667 -0.06138543
 -0.22972794  0.02620954  0.23384352 -0.13769305  0.1797529  -0.19022475
  0.20576313 -0.2699021   0.13028708  0.22836    -0.22726119  0.01033831
  0.06325531 -0.06545807  0.01400139 -0.3273342  -0.12968291 -0.07501528
 -0.10535387  0.19542843  0.21303196 -0.10065256]
[ 0.00506757  0.04307235  0.00879732  0.03160711 -0.22228013 -0.09499162
  0.06905707 -0.03399162 -0.03640514  0.05367012  0.01833015  0.02822408
  0.17458478 -0.01833222 -0.03177719  0.03198478  0.04176386  0.04654608
  0.03504688 -0.04955513 -0.02377052 -0.07574473 -0.00080615 -0.00936109
 -0.0748218  -0.05251737 -0.01510147 -0.09192497  0.17839427  0.03611581
  0.04349289 -0.06040102 -0.03110545 -0.04869261 -0.02565239  0.01144212
  0.01468622 -0.05081882  0.11920129 -0.00796717]
layer 3 Activation
tanh
layer 4 Dense
40 20
[-0.00433333 -0.1242324  -0.22581944 -0.14652663 -0.03512384 -0.17396559
  0.19452223 -0.04995972 -0.15111767 -0.02371292  0.2409168   0.15149765
 -0.25299537 -0.16885544  0.15782616  0.11249988 -0.07345845 -0.12978825
  0.09952567  0.00250315]
[ 0.23586561  0.2753278   0.3295369  -0.08003328  0.26922542  0.0747906
 -0.21609743 -0.04575856  0.02102439 -0.04083444 -0.02772988 -0.23073067
 -0.03496074  0.1742757   0.13178512 -0.00612896 -0.0785352  -0.03664307
 -0.03654468 -0.14349192]
[-0.308227    0.2068656  -0.09133355 -0.02408701  0.08114786 -0.03397739
 -0.09854537 -0.03719744  0.01626515  0.24993333 -0.14459716  0.14606829
  0.09949069 -0.03701716  0.10279705  0.20665216 -0.1310103   0.03191745
  0.03160966  0.28640378]
[-0.16816595  0.05034956  0.0126034   0.24299799 -0.07732547 -0.45574048
  0.10308717  0.29876316  0.08738238 -0.10216872  0.0591135   0.124768
 -0.18656828  0.16589907 -0.14215237 -0.04899881 -0.17677578 -0.12421289
 -0.271877   -0.1763017 ]
[-0.15601501 -0.07685605  0.18611875  0.17279351 -0.11100668  0.15873252
 -0.17846279 -0.16059679  0.16276535 -0.03669805  0.05094544 -0.17953959
  0.14655362 -0.40990916  0.07604269  0.31987566 -0.27618566 -0.07198528
 -0.22427367  0.09082075]
[-0.05434364  0.10879868  0.20901561  0.12941317  0.00607558 -0.08691344
 -0.10373724 -0.26866376 -0.06013764  0.06876406  0.02055847 -0.02158907
 -0.1072622  -0.11703932  0.01065098 -0.35532048  0.17867051 -0.00149847
  0.03646766 -0.0559384 ]
[ 0.23377457  0.03245368 -0.19509293 -0.01070016 -0.03273259 -0.1135117
 -0.04766019 -0.12319327 -0.02077853  0.07758088  0.24447101  0.25977048
  0.08324999  0.1671744  -0.05451947  0.23738337 -0.21052697  0.08332935
 -0.05288199 -0.01048137]
[ 0.31101686  0.11512978 -0.08781797 -0.00462224 -0.1232396   0.1738395
 -0.14295736  0.28690693  0.20563927 -0.14630577 -0.13188408  0.06919965
  0.20893124  0.16069706 -0.04301888  0.20883496 -0.3209868   0.01852083
  0.07164574 -0.03340892]
[-0.01516615 -0.01954076 -0.00711079  0.12559985  0.26375225 -0.06605305
  0.14058343  0.02953017 -0.00338514 -0.04770097  0.231409   -0.00917887
 -0.0060832  -0.21694061 -0.19141157 -0.23145851 -0.03949155 -0.18762885
  0.00799497 -0.02178781]
[-0.05652206  0.22811711 -0.24643067 -0.05749739  0.14624573 -0.3308481
  0.2698992  -0.06834392  0.04011307  0.19436862 -0.04411794 -0.15565507
 -0.3597072   0.2756728  -0.15518384  0.08927525  0.22469667 -0.07946593
  0.1829895  -0.07952825]
[ 0.14173892  0.0089053  -0.18774772  0.05819666  0.23461127  0.01128106
 -0.03966347  0.05635235 -0.19537023 -0.02251016  0.18602224  0.28276193
  0.11267115 -0.09279573 -0.01860806 -0.12602445  0.19295606  0.05305544
 -0.20502275 -0.1997735 ]
[ 0.17459492  0.15185855 -0.08295615 -0.27621198 -0.09318343 -0.07248866
 -0.15243033  0.28896776 -0.1003366  -0.22163282  0.09558138 -0.06468213
  0.0720318   0.09210113  0.05132383  0.267532    0.12263089 -0.01243262
 -0.05412813 -0.32102218]
[ 0.17249596  0.16693546  0.05153118 -0.12712228 -0.13593976  0.3350198
  0.1635093  -0.29842842  0.00491624 -0.17686664 -0.05457843 -0.0083415
  0.28815022  0.27419773 -0.12476854  0.04117161  0.07501153  0.13006528
 -0.07369792  0.02866047]
[ 0.02687917  0.0897296  -0.28030598  0.28940925 -0.17343856 -0.2851279
  0.03230409 -0.21716093 -0.11020283 -0.15497528  0.2608751   0.01073929
 -0.21210976 -0.01085272  0.10490502  0.20770344 -0.18762513 -0.09599736
  0.05686796 -0.00599789]
[-0.17931938 -0.20528966 -0.18443498  0.08550963  0.21872419  0.1130683
  0.15699399  0.13110758  0.00668793 -0.35273495 -0.22613707  0.39387208
 -0.18377817 -0.05794081 -0.15368332  0.11748498 -0.13692595  0.24893872
 -0.22990733  0.18833476]
[ 0.21794342 -0.15060492 -0.0665445   0.01724556 -0.23653872 -0.1796141
  0.09320202 -0.05372909  0.08747485  0.11541969  0.08390938  0.0087024
 -0.11802571  0.22098385 -0.03136299 -0.13300711 -0.03711243 -0.11100303
  0.18666022  0.20209542]
[-0.22235121 -0.09423797  0.13821319  0.26846987 -0.20233037  0.14741261
  0.2707473  -0.24056062 -0.02826412  0.2602529  -0.03914278  0.20382534
  0.04598293 -0.02130891 -0.12051233  0.05624688 -0.2068838   0.19126715
 -0.1635597   0.04497408]
[ 0.04129798 -0.07235671  0.00491128  0.15751691  0.17536455  0.14180018
 -0.19342352  0.2563229  -0.01909148 -0.05998178  0.13343023 -0.22358339
  0.17519964  0.10389445  0.3475691  -0.27518862  0.27161404 -0.06426183
 -0.15095584  0.08233643]
[ 0.19313776  0.0651792  -0.16640139 -0.05534478 -0.00096029 -0.06883968
 -0.22494502  0.00352088  0.07397415  0.26666698  0.27186388 -0.04929122
  0.13387413 -0.0655784   0.25159064 -0.27601707  0.21525648  0.26766425
 -0.01270909  0.20214587]
[ 0.20062548 -0.1111392  -0.04493069 -0.10360721 -0.32910362 -0.19555219
 -0.23286529 -0.01948438 -0.13476753  0.04390375 -0.17182823  0.05442815
 -0.27624536 -0.21021946  0.08982648 -0.12527911  0.11936203 -0.17474523
  0.16381955  0.04403831]
[-0.33910888  0.06805512 -0.03789863 -0.10114169 -0.11727306 -0.04787469
 -0.20984626  0.05723104 -0.04908308 -0.08043483 -0.13723928  0.00529698
 -0.24570656  0.2931435  -0.14019325  0.12149137  0.16068004  0.08211576
 -0.2193927  -0.03448376]
[-0.06157833 -0.14740959  0.12107513  0.08757884 -0.22576034  0.16815142
 -0.22328666  0.04060503 -0.12466778  0.05823534  0.21105874 -0.16344778
  0.2088063  -0.2521944   0.08604906  0.2972432  -0.00724547  0.04211091
 -0.0508687  -0.2287582 ]
[ 0.3136834  -0.03957821  0.30955818  0.10249728 -0.10851318  0.1319374
 -0.21962935  0.11876281  0.12866348 -0.1506651  -0.02428883 -0.13162532
 -0.08938967  0.13041921  0.17484288  0.05348661 -0.06257058  0.11285777
  0.16969335  0.15080573]
[ 0.25285885 -0.2425609   0.09579462  0.09984699  0.0072627  -0.02669449
 -0.20297563  0.17072943 -0.15445936 -0.08607077  0.1888599  -0.15808806
  0.07946908  0.04775937  0.08848683 -0.13202183 -0.18387355 -0.2043676
 -0.09148305  0.01665517]
[ 0.1419091  -0.01485156  0.24456298  0.1019031   0.08153135  0.02011348
 -0.12541604  0.03292206 -0.08365732  0.3091004   0.27569848  0.09588376
 -0.0469466  -0.22000732  0.14488935 -0.24435015  0.00831838 -0.01484639
  0.1815194  -0.01715527]
[ 0.290625   -0.21193607 -0.29743823  0.00800102  0.24368775 -0.02669845
  0.13060173 -0.16338186 -0.31868488 -0.3377464   0.15942705 -0.03165764
 -0.14850034 -0.22584905  0.20439298  0.06626914  0.09333462  0.08090086
  0.1363722  -0.00696497]
[ 0.26500762 -0.10338652 -0.20992075 -0.29385278 -0.01576696  0.18175298
 -0.14381598  0.06697135  0.21540202  0.09249187 -0.04800141  0.05071788
  0.1334052   0.06136391  0.35954717 -0.23482217 -0.04218851  0.03255056
  0.03046576 -0.07571787]
[ 0.13101675  0.03029959 -0.11712473 -0.00129314  0.03674005 -0.17003155
  0.05878147 -0.19775726 -0.1848177   0.06544577 -0.10245121 -0.11300484
 -0.1495975  -0.10618981 -0.33737364 -0.1961846  -0.08760657  0.17441407
 -0.26671538  0.15611686]
[ 0.16574703 -0.03591713 -0.2965678  -0.06551158  0.03470933 -0.13256828
  0.07673431 -0.16912451 -0.19381616 -0.0482447  -0.0190435  -0.11409324
 -0.12756707  0.14598858  0.00453723 -0.04806317  0.27785075 -0.09008411
  0.1636743  -0.19108541]
[ 0.3015145  -0.27352792 -0.1869515   0.02491391  0.0803728  -0.11532346
 -0.24478917  0.10471144 -0.15101594  0.17874238  0.0934921   0.04464402
  0.011309    0.07490461 -0.11686935  0.20918481  0.13895829 -0.05204374
 -0.1388017   0.12218791]
[-0.06761377  0.11945539  0.11967862 -0.0326612  -0.0526068   0.13730495
  0.05167203  0.10636198 -0.0448818  -0.20525378 -0.29988253 -0.12934242
  0.02034932  0.2273076  -0.14880411  0.22851841 -0.19713761 -0.14556116
  0.21869317  0.00199722]
[ 0.23842679  0.16965994  0.20907998 -0.22320308  0.09693591 -0.26677647
  0.04016933  0.41616824  0.0087748  -0.09501436  0.32600766  0.0253076
  0.0681625  -0.35824448 -0.08811562 -0.0412528   0.16849177  0.18289301
 -0.15617704 -0.07697219]
[-0.179613   -0.09358666  0.18304165 -0.09919711  0.03464019  0.08929969
 -0.06525967  0.01448796  0.239455   -0.22413635 -0.14444365  0.1448924
 -0.14030904 -0.02043441  0.00165358  0.16434418 -0.20408161 -0.33620995
 -0.12501669 -0.06446013]
[ 0.05749391 -0.10326477 -0.26690117 -0.07785702 -0.19495565 -0.04588334
 -0.02968319 -0.01388932 -0.04894029 -0.23360081  0.05474484  0.18195042
 -0.08859494 -0.00219027  0.01103331  0.32685104  0.28554356  0.02932762
 -0.06018021 -0.06006652]
[-0.12603784 -0.14690547 -0.18586402 -0.27469513 -0.08299372  0.24976845
 -0.03853589  0.16047017 -0.26963052 -0.08176687  0.07177021  0.08062773
  0.19668956  0.0982815  -0.11391101  0.18847276 -0.1543881  -0.03854995
 -0.02230675  0.09880126]
[ 0.13853845 -0.06637666  0.02925818  0.06242278  0.03969584 -0.14508697
  0.07657102 -0.19029762 -0.01324735  0.03223464 -0.15349413 -0.10131311
 -0.24967925  0.11476323 -0.13446753 -0.17571431 -0.02337438 -0.13551304
  0.08517365  0.09967781]
[ 9.1670141e-02  4.7578890e-02 -3.4944498e-04 -6.4055294e-02
  1.6028304e-01  1.2751077e-01 -2.3429041e-01  1.4664859e-01
 -2.5366262e-01 -2.5980842e-01 -1.0364014e-01  1.4696479e-01
  4.0818584e-01  2.1982488e-01  3.8845692e-02  9.9219466e-03
 -2.2888030e-01  1.1245186e-01  4.4161834e-02 -1.3143824e-01]
[ 0.12870105  0.17592455  0.12248524  0.11928756  0.25310695 -0.18409967
 -0.19271109 -0.02185843  0.16823958 -0.03319732  0.04855806 -0.10735389
 -0.11667696 -0.03354674  0.10862768 -0.02127994  0.23059186  0.34393567
 -0.01926542  0.01670719]
[ 0.03836789 -0.12578058  0.09722344  0.18966857  0.19078083 -0.0799022
 -0.02717083  0.24131314  0.0451333  -0.05805549 -0.21510138  0.01473221
  0.10126119  0.17017157 -0.3770885   0.02684899  0.03600875 -0.25499818
  0.04311179  0.13129903]
[ 0.20694464  0.10012785  0.10577141 -0.09295508 -0.09747259 -0.05858718
 -0.19404398 -0.14517668  0.0246016   0.12406735  0.05743236  0.35290012
 -0.06590199  0.28735188  0.283445   -0.17480196  0.01752647  0.10625838
  0.1143368  -0.1062175 ]
[ 0.01126642 -0.14224795  0.04450094  0.00634433  0.06267774 -0.12128799
  0.0948647   0.01736887  0.00328194 -0.06137458 -0.07505327 -0.10562517
  0.12816314  0.065555    0.06002933  0.05367977  0.0262532   0.01293154
 -0.01655444 -0.13073574]
layer 5 Activation
tanh
layer 6 Dense
20 1
[0.07724722]
[0.00652587]
[0.04372225]
[-0.01643087]
[0.01044295]
[-0.11319051]
[0.07586815]
[0.02381556]
[0.00980524]
[-0.00814829]
[-0.06101732]
[0.01395405]
[0.12582196]
[-0.14944936]
[0.07601146]
[0.00826629]
[-0.00704209]
[-0.00475739]
[-0.0189582]
[0.00770443]
[0.11732539]
