layers 7
layer 0 Dense
20 20
[ 0.02915125 -0.00854228 -0.27764735  0.0802208  -0.2449941  -0.02612386
 -0.07098471 -0.5668103  -0.26505506  0.49133834  0.17511342  0.28046578
 -0.22809608 -0.33813822  0.24335444 -0.16486968  0.00789643 -0.50998145
  0.14509386  0.28482363]
[ 0.32804495  0.26302373  0.11338246  0.36881465 -0.18768443 -0.38210225
  0.3471135  -0.2044702   0.24032623  0.10107088 -0.08212808  0.08624288
 -0.35981768 -0.0526067  -0.0375196   0.350312    0.3469652   0.19920069
 -0.376042    0.24646938]
[-0.32816252 -0.36451182 -0.2617491   0.12687016 -0.17307362  0.16675234
 -0.33576572  0.03323525 -0.04417697 -0.3308388  -0.08137771  0.24829537
 -0.26462436  0.24128038  0.18707353  0.34384227  0.35772103  0.3631819
 -0.02125895 -0.04585487]
[-0.25149554  0.07851449 -0.15854402 -0.11471464  0.13513903  0.2601793
 -0.00129778 -0.7312292   0.28565264 -0.17957054 -0.27345985  0.17828467
  0.19890496 -0.19623022  0.01526509  0.43277225  0.05024426 -0.368016
  0.36457464  0.24791904]
[ 0.02851694 -0.05006842 -0.26320398  0.41376284  0.10486723 -0.30688626
 -0.26442102  0.47266018  0.04667034  0.06971205 -0.06003516  0.38838795
  0.29107717 -0.07860677  0.03475745 -0.16109201 -0.53077227 -0.5220987
  0.21578789  0.00174536]
[-0.17656349 -0.1934222  -0.19000316  0.03496319  0.15299892  0.37152237
  0.19620568  0.09096327  0.20063686 -0.1760957   0.11125711  0.3648566
 -0.28476822 -0.119932   -0.01577049  0.00503415 -0.10447553 -0.37964252
 -0.00981712  0.0150798 ]
[-0.29226726 -0.37979376  0.28352642  0.31619203 -0.01577041 -0.38060015
  0.09789202  0.3846931  -0.33494723  0.15736997 -0.29906362 -0.12827334
  0.19310236 -0.3708327   0.14250207  0.33097363 -0.03233865 -0.30960238
 -0.01798102 -0.00143459]
[ 0.37684527  0.02800443 -0.1007391   0.19119732 -0.05612473  0.20713212
 -0.16368248  0.26939395  0.21301134  0.02518227 -0.21166022 -0.10692031
 -0.19422127 -0.16009502 -0.0089471  -0.23397455  0.37638882 -0.03309747
  0.30971763  0.24969265]
[ 1.136843   -0.52665263  0.28362054 -0.10155397 -0.11130439 -0.543265
 -0.5507589  -0.00135268  0.10515767  0.08298623  0.6094391  -0.5490223
  0.68896824 -0.3585644   0.02797291  0.3085655   0.09417593 -0.5417441
  1.0926294   0.84883714]
[-0.7581923  -0.87024987 -0.7151392   0.09644407  0.79509014 -0.8297937
 -1.2953128  -0.20263924 -0.03357891  0.07083396 -0.27171707 -0.08090571
  0.4930095  -0.7405667  -0.6065753   1.4693127   0.37773478 -0.1865298
 -0.8723804   0.8273861 ]
[-0.95960045 -0.48887748  1.132226   -0.50215864 -1.2476295  -0.9654633
 -0.54712737  0.06223457  1.2637373   0.0912471   1.5291795   0.54151297
 -0.4496634  -0.59866667  0.36135504  1.286058   -0.53192747  0.19888036
  0.28752768  1.0059743 ]
[ 0.46616837  0.45633802  0.6639322  -0.46874097  0.3478662   0.07162011
  0.5733943  -0.62013     0.4065162   0.0520658   0.81776834 -1.0841253
 -0.01084072  0.4698622  -0.8132995   0.04061766  1.0441372  -0.66167337
  1.0421369   0.46405965]
[ 0.36634555 -0.7644333  -0.53979945  0.20875187 -1.136142    0.5916049
  0.03017784  0.33396822 -0.45880648  0.19253348 -1.0223708   0.43906775
  0.532574   -0.13363451  0.34184656  0.1464241  -0.62528837 -0.6443309
 -0.7999348  -0.4288981 ]
[-0.2143581   0.7805516   0.21771273 -0.84389365 -0.11264322  0.7033181
  0.3866585  -0.3331556   0.05817486  0.15357104  0.5163473   0.37114397
  0.3687022  -0.22442502  0.3911292  -0.24327011  0.03805241  0.12786777
  0.00241081 -0.41822413]
[-0.06153076 -0.7217566  -0.14388248 -0.25865856  0.47476807  0.17044002
  0.19610687 -0.22914957 -0.40805182 -0.93430734 -0.667258   -0.40492204
  0.5619243   0.02410727  0.32215583 -0.6347714   0.27394822 -0.5043798
 -0.4765616   0.07446846]
[-0.44109994  0.5823773  -0.18039423 -0.68622696  0.83099174  0.4990924
  0.17510743 -0.50698036  0.374237   -1.1672231   0.6751905  -0.5301112
 -1.0148098   0.53679657 -0.5371104  -0.2637553   0.91962063 -0.3644699
 -0.23382747 -0.20379025]
[-0.1165401   0.38550246 -0.42567986 -0.3523473   0.25764972 -0.09246881
  0.30650428  0.4418551   0.1438484  -0.2640822   0.06359923 -0.37720144
 -0.10080773  0.34460205 -0.28286737  0.44099778 -0.3802875  -0.63959056
  0.1192365  -0.30328977]
[ 0.87567693  0.14185256 -0.11169253  1.1697209  -0.6437957   0.04566499
  0.38058877  0.51342744  0.212566   -0.3295975   0.61271983 -0.5322469
 -0.5872253   0.8087529   0.660107   -0.7937259  -0.56915504  0.3374101
  0.5543926   0.02677285]
[ 0.79262805  0.68223095 -0.98841184  0.76767516  0.6273621   0.84388745
  0.48619178 -0.3443808  -0.7999913   1.1095674  -1.119223   -0.62510735
  0.01758499  0.2293623  -0.6823312  -0.6236488   0.16002245 -0.1676583
 -0.01334845 -0.80433065]
[ 0.12584649 -0.72661144 -0.3418692   0.30307364 -0.5123691  -0.02972031
 -0.06030191 -0.4307255  -0.31142387  0.5891651  -0.74431765  0.33984715
  0.49722975 -0.54502285  0.5991726  -0.3849127  -0.5656923   0.102979
 -0.3527279  -0.17051698]
[-0.24063     0.09183738 -0.0601035   0.01007751 -0.03479902  0.11697362
 -0.1621987  -0.36217612  0.02320066  0.06195726  0.10309897  0.240271
 -0.05145941 -0.1180413   0.11635914  0.05700976  0.03274493  0.22914231
 -0.02009627  0.20951752]
layer 1 Activation
tanh
layer 2 Dense
20 40
[ 0.1380181   0.40437824  0.53522235 -0.7267316   0.05181425  0.01482654
  0.04181666  0.5438413  -0.63498765  0.36398882 -0.02408147  0.47511023
 -0.1166695   0.11505233 -0.32330477  0.29070765  0.56679565  0.54179907
  0.28583136 -0.34575164  0.22526574  0.03724341 -0.11904351  0.40232536
  0.3819276   0.07814093  0.01768277  0.61355245  0.3945163   0.61871815
  0.49329796  0.42354262 -0.30996904 -0.09203421  0.2165713   0.09227817
  0.12617354  0.7134423  -0.04221787  0.12440787]
[ 0.0996025   0.6001531   0.33649895  0.09752511 -0.17866972 -0.1636134
 -1.0586798   1.066339   -0.34106913 -0.24633019  0.50474954 -0.00675906
 -0.42926854  0.25301525 -0.6132819  -0.04937528 -0.05410885  1.110949
 -0.20564698 -0.82515204 -0.34591523  0.40707356 -0.9104081  -0.0445919
  0.6390181   0.11346266  0.04605037  0.31643337 -0.10454866 -0.02657871
  0.42420077  0.07916807  0.27656925  1.0469269  -0.04662165 -0.35046294
 -0.79177237  0.14571007 -0.17272697  0.63534427]
[-0.2200094   0.1253503   0.11517347  0.35422897  0.12151641  0.27720112
 -0.4864504  -0.70786625 -0.36608353 -0.18124093  0.25808316 -0.14105763
 -0.05516241  0.06135403 -0.76113343 -0.01419907  0.5234225   0.29631114
  0.1968003  -0.04387137  0.20605518  0.10390272 -0.49169987  0.3726816
  0.31334695 -0.5688192   0.06884521 -0.72990954 -0.30490464 -0.31678945
  0.34951162 -0.37359944  0.28553894  0.7558949  -0.13296202  0.06850941
 -0.11185626 -0.21156508  0.10544866 -0.46072108]
[ 0.2262387   0.05858555  0.5067297  -0.28069285 -0.21001504 -0.08741232
  0.28790525  0.13936985  0.13182405  0.48237813 -0.35671568  0.47705317
 -0.13757187 -0.10026844  0.13162819 -0.68399715 -0.05613529 -0.10090484
 -0.02601049 -0.04364502  0.22490142  0.02830789  0.42967296 -0.22470877
  0.21026002 -0.1092862  -0.5912105   0.24939764  0.32640487  0.17620964
 -0.23723456  0.08246697 -0.55331033 -0.8121018  -0.0843174  -0.2586588
  0.31161436 -0.09256115 -0.44867045  0.04066646]
[-0.25471574 -0.09185808  0.1596873   0.19578747  0.02786274 -0.97563636
 -0.36150187 -0.02959799  0.335933   -0.12102962  0.13256212  0.08342038
 -0.20012327  0.10514539  0.812678   -0.05360503 -0.7384002  -0.01278725
  0.1280226   0.23888892 -0.38929236  0.12072621  0.35805634 -0.25020874
  0.73792183  0.19378597 -0.3529105   0.5927562  -0.20225862  0.6595332
  0.14622357  1.009375    0.08314404 -0.5024638  -0.13772249  0.26232788
  0.04568374  0.31027332 -0.30960864  0.419129  ]
[ 0.07030082 -0.143114    0.18003759  0.22525442  0.01096721  0.25917011
 -0.29462218  0.20651123 -0.02755749 -0.31558895  0.11743678 -0.1895244
 -0.58569247  0.18175104 -0.5363196   1.0733027  -0.31655902  0.33482656
  0.14691073 -0.05406244  0.0668643  -0.03916023 -0.16899665 -0.17432623
  0.4989407  -0.17766835 -0.12425838  0.4873336   0.35532007 -0.16649844
  0.5926761   0.75369304  0.7200671   0.8068578   0.13536306  0.08287368
 -0.3792937  -0.31338194 -0.22066356  0.18271925]
[-0.2961904   0.36587507 -0.26224604  0.1487809   0.06425399 -0.18331915
 -1.0770112  -0.12901343 -0.520908   -0.2731681   0.20440657 -0.46367943
 -0.1500509   0.23141034 -0.08344618  1.0925319  -0.08634946  0.66846716
 -0.07676117 -0.24207552 -0.3368928  -0.29199588 -0.57753366  0.2785152
 -0.04288598  0.34971365 -0.11397768  0.6444432  -0.25612298  0.09355903
  0.41427395  0.11243405  0.81171     0.8519277   0.06458486  0.20123427
 -0.4282318  -0.2611014   0.3803159   0.20350114]
[-0.26171762  0.22049658  0.15453897  0.08994464 -0.2188657   0.15077524
  0.15012033  0.20929538 -0.08883897  0.10639437 -0.07971121  0.04873298
 -0.02816118 -0.5003146  -0.41520342  0.06267589  0.02438148  0.00438883
  0.0547143  -0.22571333  0.40055442 -0.562135    0.11109601  0.4529742
 -0.17072904 -0.21850687  0.07220709 -0.33368486  0.05215239  0.18491007
 -0.47600487 -0.2863358  -0.41773757  0.1596851   0.1317419  -0.32514077
  0.0555876   0.22365661  0.27790377 -0.38178748]
[-0.10691822  0.69331205  0.01237283  0.34800214  0.02789531  0.25048113
  0.14618784 -0.14286755  0.15603504  0.17724875 -0.27506605 -0.2267027
  0.6589835  -0.42869958 -0.19086647 -0.5817848   0.5227112   0.14515357
  0.28346884 -0.34289613  0.6447043  -0.05428082 -0.31983522  0.3225929
  0.14036825 -0.6494043   0.6285652  -1.1644633  -0.12802716 -0.26830223
 -0.50288534 -0.8675082  -0.6206023   0.06080027  0.22912034 -0.58879733
  0.16281524 -0.24594425 -0.02067376 -0.5655891 ]
[ 0.04124701  0.52506906  0.34064493 -0.3718657   0.1069987   0.12312012
 -0.25006872  0.04941611 -0.19841966  0.4195356   0.21248576  0.35322696
 -0.49833536 -0.34351215 -0.07709824  0.43844354  0.20113052  0.1490122
  0.09041246 -0.49244255  0.21537155  0.2222589   0.1433165  -0.2712484
  0.2857253  -0.3519826  -0.4697797   0.02071899  0.61302733  0.01810387
 -0.11058627  0.24259736 -0.24265066  0.08838339 -0.02003145  0.10164385
  0.43348792  0.36545235 -0.45085132 -0.09576173]
[ 0.13453074  0.724317    0.4571209   0.21511714  0.25121048  0.96219087
 -0.08608854  0.3678681  -0.10591478  0.13114749 -0.19345497  0.10327981
 -0.02591674 -0.30908373 -0.95379704 -0.87365985  0.6704659   0.4803373
  0.05397714 -1.0762665   0.74149    -0.07549745 -0.7184835   0.59280485
 -0.48562872 -0.61162907  1.0381569  -0.8861767  -0.01601981 -0.7560386
 -0.4854225  -1.2672389  -0.85344505  0.6044181  -0.22062857 -0.7966465
  0.01688307  0.34096897  0.10841254 -0.06262515]
[ 0.2989389   0.5004993   0.6667391   0.5018566   0.505359    0.1978278
  0.39553198  0.7095916   0.04558754  0.27858832  0.47111893 -0.12831856
 -0.11816303 -0.4420135  -0.10308841  0.39662147  0.01478416 -0.32437405
  0.16851258 -0.12476141 -0.03338143 -0.21114984 -0.09209311 -0.48260543
  0.3483885  -0.10152709 -0.22977166  0.05834312  0.4107171  -0.42078766
 -0.23595755  0.3850394  -0.15871227  0.19467345  0.17375052  0.4701015
 -0.29218858 -0.5238208  -0.39222908 -0.13345356]
[ 0.01117156 -0.2020565   0.06731933 -0.01934111  0.28004438  0.25670654
  0.21904811 -0.07735922  0.2369465   0.42421216 -0.18566228  0.03110357
 -0.42422184 -0.37708902 -0.14697331  0.75402355  0.14957148 -0.48052424
 -0.22900599  0.9594603   0.17125638 -0.08396459  0.3601567   0.00332123
  0.16675599  0.12002468 -0.68423516  0.23760997  0.49057087 -0.01342911
 -0.18131955  0.04193803  0.1127205  -1.2571608   0.20093442  0.36213782
  0.5360063  -0.2894136  -0.23936552 -0.40373957]
[-0.6349244  -0.20244692 -0.42733917 -0.18938127 -0.10631231 -0.54855484
 -1.4109806  -0.14098799  0.18324673 -0.5903497   0.29788482  0.002224
  0.00266526  0.52344     0.2072702   0.20913887 -0.21844792  0.39698192
  0.11487211 -0.23157424 -0.6383145   0.12290762 -0.41397592  0.3431936
  0.36653665 -0.18919106  0.37797302  0.21774225 -0.44541076  0.24386753
  0.36336398 -0.12886316  0.30226922  0.43061483  0.06425125 -0.17240056
 -0.02377654  0.5757129   0.5243291   0.00181697]
[ 0.5994114   0.68767583  0.01112541  0.04655602  0.63630986  0.4880854
 -0.00153903  0.55741894 -0.7168641   0.68117553 -0.28220916 -0.29104745
 -0.76636887  0.1597321  -1.1937113   0.49234155  0.508193    0.63088447
 -0.13396676 -1.099781    0.6983439  -0.64374673 -0.1284139   0.5803256
 -0.2971587  -0.854737   -0.07312139 -0.1176612   0.882435    0.40868577
 -0.03898894 -0.14710727 -0.0893937   0.9046395  -0.11638283  0.3431264
 -0.02178419 -0.07549632 -0.4895657  -0.11731469]
[-0.21117708 -0.17177634  0.40259704  0.2537503  -0.31217423 -0.14665641
  0.16520105 -0.7917766   0.50675213 -0.02629371  0.37724298 -0.2763473
  0.4534748  -0.6066617   0.6348182  -0.56882596  0.0699488  -0.34494102
 -0.09406774  0.29464558  0.14830697  0.51300794 -0.10503221  0.1989264
 -0.2869761  -0.5367246   0.3236292  -1.2097538  -0.30563632 -0.57927954
 -0.64923656 -0.45090616 -0.36972198 -0.21122925  0.02715939 -0.450503
  0.27421838 -0.7003558  -0.72248596 -0.17795941]
[-0.24570054 -0.52237666 -0.20892619 -0.35548556 -0.34288228 -0.41879272
  0.02755202  0.13267297  0.2809307  -0.36556923  0.23675472  0.340681
  0.53726417  0.6514657   0.81827307 -0.59878486 -0.28950235 -0.46479863
 -0.04111157  0.6358425  -0.3563222   0.2670654   0.01025041 -0.2633721
 -0.0529685   0.41957077 -0.08932443  0.33539727 -0.4657737   0.3970977
  0.11790747  0.32388136 -0.24380088 -0.95333534 -0.04210545  0.24799241
  0.1614868  -0.11197017  0.6176816   0.43167555]
[ 0.10865211 -0.12367368 -0.0515098   0.09524906  0.08576363  0.18001114
  0.18353036 -0.29707572 -0.04322547  0.15711254 -0.13119777 -0.03562022
 -0.00754479 -0.00919832 -0.17683993  0.27386862  0.26910943 -0.27956787
 -0.09147666  0.23662768  0.19572261 -0.00172855  0.14651738  0.17233819
 -0.17442343 -0.17290048 -0.15818611  0.00670721  0.2397192  -0.03024169
 -0.2876706  -0.03957178  0.10475908 -0.23880716  0.18850581  0.10140184
  0.3150413  -0.24670291 -0.16469221 -0.19334134]
[ 0.13639027 -0.31347644 -0.16674411  0.04637236  0.0714756  -0.16655935
 -0.390873    0.44443053 -0.29677808 -0.43463886  0.19675943 -0.07106934
 -0.08580472  0.13623992 -0.12590455 -0.15186357 -0.09170657  0.46147907
 -0.22490129 -0.2253484   0.10966151  0.17927517 -0.3617014   0.44785684
  0.35130426  0.29951024  0.40230235 -0.07088344 -0.3509315  -0.2744583
  0.47366497 -0.60955846  0.04799042  0.55730003 -0.00837534 -0.07755119
 -0.30525863 -0.24008048  0.26435626  0.1537994 ]
[-0.04741057 -0.35950032 -0.4351898  -0.4928283  -0.00671698  0.39163628
  0.7367624  -0.8023708   0.13656798  0.04035395 -0.28838134  0.6019211
  0.18101867  0.29188484  0.3819895  -0.7692201   0.8116862  -0.14370061
 -0.22240032  0.30764958  0.23811507 -0.38336328  0.05777067  0.3418032
 -0.5680296   0.05919278  0.02655659 -0.6004782  -0.35895962  0.1311239
 -0.22691299 -0.7283091  -0.43603635 -0.09694764  0.17951763 -0.34778967
  0.17252791 -0.21540561  0.3087487  -0.09277499]
[ 0.5948637   0.17083219  0.2417684  -0.02230841  0.27477717  0.09782564
 -0.65758127  0.32168102 -0.05765777 -0.00298251 -0.17357548  0.26481482
 -0.075105   -0.18439038  0.11780763  0.20210342 -0.02674677 -0.13929865
  0.10590138 -0.18028544 -0.36805296 -0.30431223  0.32952052 -0.3573419
  0.0462321  -0.09938886 -0.3847421   0.05780371  0.10347283  0.06687726
 -0.26069206  0.11160153 -0.38465092 -0.17662598  0.26506853  0.10158286
 -0.14386544 -0.38446108 -0.6897171   0.04947904]
layer 3 Activation
tanh
layer 4 Dense
40 20
[ 0.00338858 -0.4195923   0.01494059  0.11480761 -0.08204468 -0.31668335
  0.05468839  0.01948949  0.21906857 -0.07995889 -0.14454278 -0.07376347
  0.04768129  0.00911842 -0.74164206  0.13976221 -0.04907852 -0.2785905
  0.10263549 -0.1526769 ]
[ 0.31625265 -0.18118824  0.31010312  0.03225053  0.386443    0.12977912
 -0.24624819  0.31967682  0.30501682  0.4442246  -0.791097    0.12895802
  0.00516    -0.4325664  -0.847205   -0.1334555   0.3371231  -0.31611907
  0.5118477  -0.13211662]
[ 0.12497308  0.1424225   0.04159283  0.00283362  0.39145058 -0.01721237
 -0.3029203   0.24678296  0.19040528  0.07164738 -0.47638977 -0.23164012
  0.23661594 -0.15827508 -0.29990283  0.3131703  -0.07527946 -0.02889498
 -0.08320503  0.19779147]
[ 0.09580919 -0.3724898   0.24054642  0.05655588 -0.23780105 -0.07686185
  0.1412759  -0.38157374 -0.28071326 -0.38883308  0.49394637 -0.04302029
 -0.3937581   0.06595821  0.21756704 -0.30043787  0.00821231  0.18405482
 -0.10353359 -0.08329394]
[ 0.32584432 -0.0183709  -0.0266294  -0.10503954  0.32864097 -0.4082224
 -0.30582985  0.07507496  0.1804193  -0.15352875 -0.2248656  -0.31053397
  0.19241196 -0.21858999 -0.26624608 -0.08927666  0.2708741  -0.03732726
  0.17864457  0.06838033]
[-0.01843529 -0.21628562 -0.10733239  0.23069726  0.4873634   0.27632198
 -0.05732555 -0.07734261 -0.23710296 -0.08428546 -0.27141067  0.38327244
  0.19178087 -0.60176134 -0.23628075  0.21667391  0.233023   -0.05774613
  0.19071023  0.15217614]
[-0.38645938  0.17962918 -0.28208455 -0.03312442 -0.3655385  -0.08597887
  0.2544461   0.26928145 -0.301823   -0.33703604  0.14433226  0.16986956
  0.11958153  0.29187697 -0.33692098 -0.065682   -0.38057235 -0.23891746
 -0.35358152  0.33873218]
[ 0.48179215  0.19729622  0.3709745   0.2881145   0.3564374   0.36574656
 -0.16630141  0.27474254  0.19628297  0.2573655  -0.531954   -0.1018014
  0.59927756  0.14391445 -0.51096046  0.13573302  0.42110154  0.10144394
  0.5044041   0.0947548 ]
[-0.30746692  0.07972297 -0.08832993 -0.17124668 -0.16583444 -0.07882562
  0.13813093  0.109479   -0.14150521 -0.01075681  0.43737888 -0.30293187
 -0.21742633 -0.39157283 -0.1298468   0.2824858  -0.32481867 -0.07849015
 -0.04825996 -0.00784445]
[-0.34137782  0.38214922 -0.05901649  0.07859159 -0.28057313  0.19338712
  0.3506282  -0.39370385 -0.29928303 -0.18923055  0.4439795   0.30588517
 -0.24917486 -0.18777648 -0.21874289 -0.17923562 -0.32792646 -0.11722182
 -0.04794827 -0.22428396]
[-0.02852475  0.20934016  0.10338351 -0.28343427  0.07609098 -0.04221515
 -0.23087198  0.03196941  0.09665173  0.00738926  0.31343415 -0.02886309
 -0.24146506 -0.18868569  0.5359264  -0.02024897  0.22575484  0.176573
  0.34752417 -0.2608811 ]
[-0.33460003  0.29204497 -0.16048461  0.3319364  -0.09138238  0.22078022
 -0.19382563 -0.02035481  0.00611946 -0.03806005 -0.3169904   0.12683187
  0.03647916  0.2134977   0.16341205  0.0229535   0.08878934  0.1337689
 -0.06440601  0.04440716]
[-0.5802119   0.20827897  0.18817824 -0.25879866  0.22672357  0.07079335
  0.01322573  0.00584197 -0.41113266 -0.16579415  0.439872   -0.17527182
 -0.22978419  0.1101158   0.21536756 -0.11522287 -0.31816152 -0.39236203
  0.14119002  0.13126658]
[-0.2402809   0.40226996 -0.04067272 -0.29579842 -0.08983222 -0.1581093
  0.13029967  0.18815888 -0.07217537  0.16469996  0.2647913   0.21798393
 -0.11981155 -0.10191972  0.39798352 -0.37525535 -0.39276353 -0.01516643
 -0.15261662 -0.13783357]
[-0.5103703   0.75010157 -0.49213764 -0.36722583 -0.48952517  0.08080005
  0.36173555  0.23392998 -0.02047398 -0.6689025   0.40362507 -0.24760707
 -0.44248343  0.29447186  0.23862274  0.46830016 -0.56831485  0.16429545
 -0.54168516 -0.64471364]
[ 0.24504489 -0.07007613  0.13369878  0.06149684 -0.01518107 -0.5325791
 -0.5290476   0.35257098  0.3883913   0.09971271 -0.40061063 -0.02276495
 -0.0215296   0.6687295  -0.37952194 -0.07318632  0.31679752  0.43285432
  0.15357788  0.12647934]
[ 0.3065998   0.09854501 -0.19913773  0.34762323  0.60097116  0.11884526
  0.1006854  -0.42269978  0.06455956 -0.08428964 -0.18894155 -0.05635558
  0.2880307  -0.32261348 -0.517344    0.05638681  0.33344463 -0.315176
  0.16167092  0.0564507 ]
[ 0.20084672  0.81909746  0.49209753  0.24766049  0.01535696  0.6924041
 -0.09894842 -0.22517358  0.10966317  0.5449305   0.41553837 -0.39929193
 -0.17511074 -0.28506634  0.36967018 -0.2846335   0.28485176  0.43763816
  0.55547047 -0.33875456]
[ 0.15726866  0.15847558  0.06188626 -0.24567449  0.19508302 -0.28237242
  0.00556242 -0.00404983  0.12133396  0.02738034  0.16340864 -0.08615534
  0.12411677 -0.11347633 -0.3009288  -0.06197886 -0.03538768 -0.12708335
  0.01213813  0.09239553]
[-0.5580277  -0.03271827 -0.32387605 -0.13871358 -0.51603186 -0.37552994
  0.75666    -0.0362594   0.06945107 -0.41532487 -0.14075182 -0.36137834
  0.15794368  0.36128306  0.18873341  0.3087192  -0.50763696  0.03633269
 -0.5122977  -0.3314052 ]
[ 0.37560618 -0.16132808 -0.2741597   0.43478778  0.41272247  0.0550722
  0.3719174  -0.6073844  -0.57602984  0.4253416  -0.38067916  0.34962
  0.20450185 -0.33733222 -0.78867644 -0.4323286   0.05582489 -0.5455892
  0.02359939  0.34408957]
[-0.04278652 -0.27463531 -0.11877442 -0.2147157  -0.24358416 -0.12574664
  0.34462878 -0.07362471 -0.23738818 -0.1413192   0.62427706  0.02163328
 -0.10622542 -0.1332272   0.46249795  0.01936485 -0.4165801  -0.0820977
 -0.20902045  0.08394819]
[-0.403307    0.10954936 -0.3905218   0.25813758 -0.4167829  -0.08087101
  0.33578297 -0.06050829 -0.09418105 -0.25226852 -0.35122     0.10155226
  0.20147184  0.556228   -0.27535915  0.18445519 -0.25194585 -0.45342508
 -0.18553801  0.07144573]
[ 0.03211014  0.4020325   0.3237738   0.08568315 -0.06042554  0.1560756
  0.391877   -0.28965104 -0.26364756  0.3291968   0.54087347  0.29251972
 -0.24451883 -0.01598766 -0.00265775 -0.18215422  0.00890452 -0.03276405
  0.24415725 -0.28614342]
[-0.06999664  0.23821454  0.12774393 -0.03055363  0.27702567 -0.24870676
 -0.07499585  0.1046925   0.06653292  0.10063691  0.09742912  0.09292553
 -0.34348533 -0.21956044 -0.04428601 -0.11874272 -0.1738856  -0.09975909
  0.16362555 -0.46457762]
[-0.33846253  0.14788082  0.25444835  0.04398761 -0.5326631  -0.26909658
 -0.2738965  -0.236996    0.18464518  0.07966803  0.13757724 -0.10929085
 -0.48193362  0.5678807   0.5243894   0.00707361 -0.3766055   0.03314232
 -0.22119784 -0.31636712]
[-0.04380947  0.44621778 -0.1409017   0.62822306  0.440487    0.2609643
 -0.13841146 -0.47747594 -0.4372479  -0.06457435  0.5557889   0.301883
 -0.23873067 -0.4947678   0.29326215 -0.36278722  0.20971622 -0.09684189
  0.6484019   0.4035121 ]
[ 0.49522638  0.3645809  -0.4667247  -0.021546   -0.30526653 -0.5423442
 -0.31612566  0.6222519   0.25191092  0.467842    0.02777029  0.30351296
  0.30365372  0.40247065 -0.4899954   0.28311205  0.10709818  0.25945586
 -0.39034277 -0.40417242]
[-0.3164248   0.08604784  0.05506188 -0.2985895  -0.4412758   0.10015409
 -0.07121792 -0.1307397  -0.0867628  -0.1312448   0.62649715  0.07732268
 -0.09212224  0.21792291 -0.02079929 -0.13730924 -0.23151426  0.2660835
 -0.25423026 -0.1388725 ]
[ 0.21798459 -0.25061095 -0.06532622 -0.18846224 -0.10386106  0.02452744
 -0.23523937  0.09240161  0.3534589   0.3083425  -0.44789392  0.13042788
  0.24418171  0.04884352 -0.32640812  0.29987732 -0.02270382  0.03173152
 -0.27048102 -0.18244895]
[-0.14702351  0.18225315  0.18214266 -0.14180925 -0.02695763  0.3478087
 -0.01411576 -0.23365107 -0.24838963 -0.02661808  0.40310314 -0.21629061
 -0.3403537   0.24487936  0.54870814 -0.4514426  -0.64328784 -0.2212701
  0.48537347  0.07666545]
[ 0.23851968 -0.06718639  0.4138623  -0.29899555  0.04806522 -0.6180414
 -0.37574378  0.20502852  0.53249276 -0.02457114 -0.13939564 -0.04869596
  0.40034994  0.4562095  -0.12114988  0.32725814 -0.15160307 -0.09925107
 -0.34037158 -0.7334823 ]
[-0.5112646   0.04787718  0.27389726 -0.36237916 -0.31522176  0.07178305
  0.13375892  0.08785674 -0.14321993 -0.5649264   0.5664459   0.0656972
 -0.33790806 -0.2518156   0.62454116 -0.5899241  -0.4290784  -0.14579883
  0.36901772 -0.11793654]
[ 0.5400711   0.24535659  0.5829617   0.11910511 -0.15810822  0.53177196
 -0.26648265 -0.6364809  -0.14477538  0.2574611   0.4409384  -0.13900289
 -0.35327965 -0.44253558  0.37851894 -0.2310666   0.67180526  0.5854242
  0.25231045  0.13717405]
[-0.03692647 -0.05218197 -0.1698411  -0.1782637  -0.00613272 -0.10329158
  0.073849    0.3217158   0.1118885  -0.00783215  0.06438124 -0.13592854
  0.18193379 -0.0223109  -0.38104296 -0.01333476  0.05259828 -0.09316424
  0.04023407 -0.22732547]
[ 0.1250492  -0.39241847 -0.33522627 -0.13382688 -0.19659188 -0.30208948
 -0.43361646  0.32691664  0.30404696  0.19844224 -0.342239   -0.30478275
  0.4108204   0.1929382  -0.21571195 -0.06849477 -0.0267444   0.1915641
 -0.11028722 -0.04502702]
[-0.17635833 -0.01090115  0.09068116  0.18208739  0.14290346 -0.00396747
  0.24601495 -0.11350752 -0.38445178 -0.10993991  0.2000268   0.10601561
  0.00700184  0.30505034 -0.13910986  0.00881614  0.00432484 -0.37413412
 -0.3956888   0.2920922 ]
[-0.08279623  0.2478551  -0.12543629  0.27828467 -0.1716489   0.08323116
 -0.1130682  -0.17039381 -0.08603644  0.5085334  -0.4689429   0.44086492
  0.01021079  0.1857544  -0.5520738   0.27669948  0.27675596  0.02870288
  0.12474933  0.09101795]
[-0.12669897  0.03464266  0.03370741 -0.07653864 -0.42405537  0.40614426
  0.263484   -0.14881521 -0.45770472 -0.22379205  0.52102137  0.48253337
 -0.35791445  0.16873327  0.29250807  0.08916756 -0.09920868  0.15712686
  0.10010539 -0.03662397]
[ 0.09312743  0.04171446  0.23093456 -0.16596676 -0.2658365   0.16244127
  0.05209737 -0.00722043  0.207767   -0.1345921   0.40587866  0.05678513
 -0.1946855   0.06746698  0.2196651   0.21081923  0.30402797  0.10589258
  0.17310697 -0.34250572]
[ 0.04108342 -0.41843414 -0.20428027 -0.09510929 -0.00801322 -0.2777248
 -0.13399771  0.13602224  0.3273682   0.324776    0.17041399  0.11041102
 -0.03888208 -0.14228919  0.11678541  0.19250098 -0.03681494 -0.07299396
 -0.02989123 -0.11764667]
layer 5 Activation
tanh
layer 6 Dense
20 1
[-1.9300214]
[1.2760739]
[1.8061788]
[-1.8239518]
[-1.896713]
[1.556767]
[1.7605125]
[-1.652201]
[-1.5044879]
[-1.5877037]
[-0.14653945]
[-1.6543597]
[-0.0132646]
[-1.9126341]
[-0.04648592]
[-1.9065412]
[-1.9251364]
[1.666776]
[1.860721]
[-1.3771704]
[0.9452013]
