layers 7
layer 0 Dense
20 20
[ 0.32675985  0.06879167  0.297737    0.12613252  0.07457915  0.05436748
  0.2726389   0.1358858  -0.16680364 -0.3550248  -0.17707269 -0.03928369
  0.17261651  0.19389284  0.11639505 -0.3192406   0.02312156 -0.32239094
  0.07635992 -0.18961132]
[ 1.33291751e-01 -4.15011227e-01  3.72129768e-01 -3.96851376e-02
 -2.83882111e-01  2.16724619e-01  2.50926036e-02 -2.77988732e-01
 -4.66579600e-04 -6.40061051e-02 -1.09204873e-01  2.45603457e-01
 -1.03161752e-01 -4.86218393e-01 -4.85105515e-01 -1.06900804e-01
 -2.57104456e-01  2.04353258e-01  3.26202214e-01 -1.65162459e-01]
[ 0.06015427 -0.407078    0.5933805   0.02906273 -0.71577     0.11782958
  0.1699076  -0.48982614 -0.4049487   0.01307698  0.472621    0.20039819
 -0.23254025 -0.4387652  -0.4659129  -0.5453414  -0.13470009 -0.03678383
  0.29676005 -0.10810512]
[-0.07801166  0.04818878  0.037204   -0.12745428 -0.2355364  -0.3543456
  0.11561961 -0.28141752 -0.35627744 -0.12327307  0.47574547  0.15121223
  0.36540008  0.02269596  0.20423755 -0.43966725 -0.4952489  -0.49288708
  0.09831015  0.2811348 ]
[-0.26706302 -0.38139036 -0.27720484  0.15660964 -0.24824819  0.25541526
  0.26455316  0.02048874 -0.35979798 -0.14573497  0.01904079 -0.19156644
 -0.1091762  -0.08654045 -0.0705658  -0.17635812  0.09386346 -0.19307995
 -0.03702531 -0.23381868]
[ 0.19739987 -0.01511948 -0.5160902   0.53182733  0.08510081  0.26828045
 -0.46715856  0.0543157   0.29368818 -0.08647814 -0.30742028 -0.43299207
  0.313383    0.38388255 -0.09409668 -0.04682548  0.13039108  0.17571117
 -0.43944862 -0.46964738]
[ 0.20712978 -0.19480404  0.04711648  0.6086155   0.32363775 -0.27001888
  0.10005509  0.3633938  -0.10749281  0.39655614 -0.21664493 -0.4091057
  0.20020908  0.07090961  0.156578   -0.1312124   0.08619192  0.10540842
 -0.46880943 -0.2081013 ]
[ 0.14086007  0.5282134   0.07865702  0.35866216 -0.08604918  0.32168004
 -0.5215972   0.15894146  0.00464765  0.43516687 -0.72890127 -0.11734436
 -0.07057904  0.31002593  0.08932803  0.61315304 -0.038268    0.5910297
  0.29273123 -0.12086369]
[ 0.31022274 -0.40311933  0.47516358 -0.15239036 -0.46134397 -0.6777809
 -0.09673589 -0.00370381  0.2528105  -0.4799134   0.29579136 -0.3623225
 -0.05113727 -0.01122135  0.33198687 -0.48716342 -0.50771713  0.39504564
 -0.0041326  -0.13611048]
[-0.16921833  0.0964119  -0.38324666 -0.21836625 -0.0067801   0.21314764
  0.06749628 -0.09459339  0.09313583  0.12454656  0.09263179  0.13966489
 -0.23296663  0.344802   -0.18512444  0.17103773 -0.16246878  0.06596737
 -0.17918162  0.29930246]
[ 0.08059298 -0.06457044 -0.08069899  0.14462532  0.41268703 -0.4157465
 -0.24098192 -0.4153128   0.16385789  0.13412993 -0.38034976 -0.01156122
 -0.3595819   0.15827622 -0.4467683   0.48813492  0.12858175  0.18710153
  0.03993074 -0.3334083 ]
[ 0.59445626 -0.2530351   0.6344486  -0.18420829 -0.45676878 -1.2283081
  0.28618968  0.26861873 -0.04197799 -0.4658518   0.75085884  0.19363873
  0.22101423 -0.28539157  0.7133331  -0.7311037  -0.70661193  0.00244307
  0.41411507 -0.10183294]
[-0.39182186 -0.4304628  -0.28957126 -0.11658631  0.44501668  0.54403764
 -0.3030356  -0.18358868 -0.24185178 -0.29688036  0.14456972  0.07735151
  0.1074874  -0.11106273 -0.13451265  0.43452024  0.2142464   0.12856257
  0.72675407  0.3720158 ]
[-0.1601359   0.14125943 -0.02704356 -0.27502358 -0.15653591  0.3406748
 -0.21926396  0.21887949  0.07939254  0.08085735  0.08237757  0.04312869
  0.14267085 -0.16000399  0.27108535  0.34845185  0.10235941  0.17112947
 -0.38895705  0.04063357]
[ 0.12991567 -0.13900891  0.36053735  0.16741408 -0.3076281   0.41866994
  0.14113577 -0.32456863  0.14601223  0.10846585 -0.13449721  0.00344891
  0.18109258 -0.42797312  0.25116137 -0.00652279 -0.16991684 -0.03978034
 -0.32573134 -0.10511731]
[-0.54347926  0.1837229  -0.52523106  0.28340256  0.5320873   0.6737754
 -0.16490003  0.12953083 -0.00852812  0.16191116 -0.13995276 -0.24743567
  0.09713703  0.07431145 -0.17822985 -0.14128695  0.29057968  0.40760913
  0.4382235   0.3118066 ]
[ 0.26904818  0.31208894  0.2403006   0.13702312 -0.2247437   0.13281941
  0.14115942 -0.27863103  0.04102104  0.11500262 -0.29552567  0.3099361
  0.05314862 -0.16131462  0.04710619  0.17402928 -0.14885367  0.14173134
 -0.5401186   0.26776266]
[-0.11194795  0.52120394 -0.17946118  0.45816216 -0.00676758 -0.18721525
  0.15156128 -0.2615445   0.03724637 -0.15883163  0.22751132  0.33160877
  0.382024   -0.11049806  0.24063246 -0.09680196 -0.20213671  0.0242157
  0.17758602 -0.1805551 ]
[ 0.08235025  0.17401166  0.14669475 -0.71963555  0.25428557 -0.26894644
 -0.05470445  0.6081406   0.04764816  0.05553205 -0.08040737 -0.05710111
  0.54122007 -0.03262021 -0.16207065  0.12686524  0.2387005  -0.15024737
  0.0120558  -0.40217945]
[-0.31026357  1.0694345  -0.450575    0.92667174 -0.09609562  0.43974826
  0.12656532  0.07939703  0.05157078  0.38703594  0.16336517  0.2752174
  0.18341784  0.27319548 -0.7016349   0.03312332  0.2012469   0.4041805
 -0.10954629 -0.4372894 ]
[ 0.12049799 -0.10335369  0.06617408 -0.0887782  -0.02673626 -0.13788837
  0.17468564 -0.01738939 -0.08982836 -0.2795085   0.17287448  0.07803684
  0.09605398 -0.14628662  0.03513575 -0.26170674 -0.16943498 -0.21448918
 -0.02057417  0.0109831 ]
layer 1 Activation
tanh
layer 2 Dense
20 40
[-0.26096052  0.19355728  0.27505893  0.11070456 -0.24357158 -0.20659414
 -0.08156054  0.14597423 -0.01705818  0.1544845   0.17864335 -0.0961014
 -0.02021815  0.22600056  0.20139505  0.16332832 -0.26755825 -0.06845215
 -0.32760543  0.16717269  0.18125534 -0.07726153 -0.2844826  -0.09350712
  0.10807359  0.02064354 -0.01801358  0.21901894  0.1923174   0.07093196
  0.27654344 -0.04707678  0.20348825  0.08360337 -0.31401944 -0.0112403
  0.2852835   0.08442882  0.05428212  0.0899705 ]
[-0.2945822  -0.26304695  0.5140537  -0.0015468   0.37417328 -0.14919442
 -0.09883246 -0.35711905 -0.14040786 -0.30078015  0.14613743 -0.22510809
 -0.40820676 -0.34325624 -0.01863597  0.01784145 -0.08152098  0.10926308
  0.13022988 -0.34131083 -0.38495064 -0.28201044 -0.25586325  0.07182016
  0.214723   -0.37088835 -0.12487379 -0.37657133  0.5316543  -0.01303866
 -0.01298249  0.27814832 -0.34108967  0.04033515  0.18271954 -0.01171284
 -0.10477649  0.04210725 -0.19862036  0.46774086]
[ 0.04656273  0.2645664  -0.13584416 -0.12042181 -0.10833696  0.33854315
  0.06155359 -0.15162775  0.05570806 -0.13530411  0.1028242  -0.173077
 -0.05314741 -0.09892114 -0.07014294 -0.00922835  0.00671294 -0.01845855
  0.04606626 -0.08465741  0.19287439 -0.03900343  0.12722108 -0.02923951
  0.01582699 -0.17371131 -0.28004494 -0.17516828  0.13863622 -0.15780519
 -0.26587585  0.3237139  -0.08958139 -0.14017029  0.2048795  -0.02717635
  0.07604108 -0.03695223 -0.2171097  -0.13756092]
[-0.32806507 -0.01447576  0.35861665  0.11560529  0.43130484 -0.27556053
  0.07729916 -0.36192983 -0.24303149  0.1331245   0.23655453  0.02832069
 -0.13681647 -0.31018066  0.06917477 -0.12407828 -0.10825645  0.23704532
  0.12219352 -0.10568672 -0.240947   -0.17095268 -0.39418903  0.28222558
  0.03795644 -0.19709003  0.3473549  -0.04763372  0.06750272 -0.554442
  0.3411314  -0.2026594  -0.01915451  0.20449914  0.0761475  -0.2720223
 -0.14245826  0.3988416   0.06730203  0.42332187]
[ 0.16065584  0.06680211  0.06527289  0.18233512  0.01746438 -0.24009688
  0.17634441  0.11472914  0.2994603   0.12491716  0.09255857 -0.21659853
 -0.22266333  0.0237493   0.1356384  -0.06840674 -0.05277769  0.2788592
  0.4940306  -0.12986796 -0.14259607 -0.04652025 -0.15213783  0.27509862
  0.00477786  0.08384198 -0.04486261 -0.14846143  0.0473454   0.05549604
 -0.09500799  0.01676992 -0.289576    0.02439243 -0.22466117  0.14240113
 -0.15761538  0.18238558  0.04954701  0.21010566]
[-0.09206719 -0.35357678  0.28343165  0.09572016  0.23295863 -0.22232366
 -0.32634053 -0.44404143 -0.2691209  -0.13134502  0.06492759 -0.21797515
 -0.29285777  0.0054928  -0.12003488  0.27660137 -0.4340102   0.453868
  0.15792395 -0.32661185 -0.55910325  0.22500637 -0.28832343  0.00382849
  0.0643038  -0.46369332  0.05473094 -0.18612678  0.37437132 -0.79662967
  0.52119654  0.27166298 -0.53560627  0.21751578  0.00267753 -0.13614592
  0.3727124   0.34893823 -0.20676102  0.3826701 ]
[-0.02406755  0.23093194 -0.22523369  0.12603001 -0.22160849 -0.08583987
  0.10349057  0.21254115  0.09983524  0.02666711  0.04808509  0.23535678
 -0.00807167 -0.10088904 -0.1454829  -0.39931983  0.01704195 -0.13489664
 -0.07427976  0.309315   -0.0914797  -0.22704054  0.02468365  0.20907304
 -0.19185801 -0.04846337  0.12742591  0.0444788  -0.15254045 -0.2172952
 -0.40885717 -0.09619043 -0.05905189  0.04192013 -0.06174364  0.36681098
 -0.346172   -0.15902308 -0.22413526  0.03389542]
[ 0.07933844  0.23322861 -0.29354382  0.04037463  0.070511   -0.17373966
 -0.40922207 -0.06188086 -0.03206746 -0.16910776  0.26138213  0.3505663
  0.2626402  -0.15965283  0.13015327 -0.22642249 -0.30501705 -0.0316124
 -0.18453789 -0.04113779 -0.09243987  0.2798584   0.1611442  -0.21395937
 -0.20316494  0.26732224 -0.06053048 -0.23773438 -0.05129955  0.3722475
  0.0348635  -0.15337376 -0.07936597  0.10009152  0.19327283 -0.09659575
  0.29010713  0.18688057 -0.17415546 -0.1806324 ]
[-0.09886339 -0.07517969 -0.18233298 -0.08711205  0.19712417  0.08392673
 -0.34726062  0.13724445 -0.1365627   0.2553268   0.24353275  0.10481871
 -0.25957313 -0.01370962  0.32521075  0.27492255 -0.1298718   0.01045803
 -0.33235162  0.13300174 -0.03665905  0.06270757 -0.2830008  -0.21356833
 -0.16788965 -0.196938    0.15572503 -0.06516464  0.2596544   0.27378973
  0.13908699 -0.00720465 -0.24759474  0.13877846 -0.13618523 -0.33734295
  0.37379968  0.1136684  -0.3636292  -0.19641925]
[-0.05774652 -0.36166626  0.32269236  0.18764418  0.42894608 -0.02138575
 -0.07654051  0.1948207  -0.15573154 -0.16143458 -0.19338499 -0.04782331
 -0.17963208  0.03857081  0.06706958  0.01578653  0.00262644  0.30340287
  0.43080315 -0.26210207  0.04030271  0.14920032 -0.32527557 -0.11084161
  0.18862022  0.05517102 -0.22199835  0.04437673  0.0159931  -0.11492036
  0.38809988  0.14305547 -0.25221485 -0.16118284 -0.08832047 -0.35854194
 -0.02121989 -0.18432274  0.08886515 -0.05767135]
[ 0.17271845  0.39102164 -0.09211823 -0.17990461  0.2562283   0.35473388
  0.33017275  0.27494866  0.13336518 -0.08828976 -0.34770685 -0.3538506
  0.32263994 -0.04860359 -0.07075833 -0.07639957  0.14215048 -0.22753738
  0.39925155  0.33339038 -0.09149722  0.14473127 -0.00901745  0.02701014
  0.1434564  -0.10934421  0.01906398  0.11502863  0.09953569  0.3362243
 -0.420616   -0.12998497  0.17710638  0.0013819   0.05280434 -0.03129499
 -0.23014146  0.15328883  0.33162895 -0.14250211]
[ 0.02858883 -0.20355268  0.04186752 -0.03671785  0.15121193 -0.17821196
  0.08799259  0.0206151   0.32601288 -0.03307671 -0.22828835 -0.20138796
  0.22596154  0.09394735  0.01898529 -0.23963988  0.18425252  0.10880298
  0.18564299  0.2586331   0.04951132  0.03771323 -0.08820313  0.09403265
 -0.02124577  0.17295213  0.10078162 -0.09011006 -0.04851377  0.05905817
  0.07462099 -0.08012836 -0.14544564 -0.40454456 -0.15932895  0.11092724
  0.11471525  0.05228447  0.32697508 -0.03526926]
[ 0.03809158 -0.02158852  0.00907873  0.2241948   0.1191397  -0.05924696
  0.21175975  0.00049495  0.4232146   0.23943569  0.12871066 -0.03329602
  0.03312194  0.02244915 -0.1761777   0.14982261  0.17504111 -0.22043546
 -0.19588204  0.26677194 -0.20605783 -0.01617017 -0.09324402  0.13051723
  0.30186218 -0.15580313  0.1630844  -0.16509736  0.01321789  0.2170095
 -0.07498309  0.2857384   0.21637812  0.11578833 -0.15358663  0.20634088
 -0.19184965 -0.09978405  0.178785    0.05567719]
[-0.22498022  0.13440937 -0.24001393  0.09509    -0.2520879   0.36341798
 -0.02423166 -0.27000406  0.03048962 -0.01603657 -0.17933093 -0.09378415
 -0.11301815 -0.19181663 -0.1535519  -0.03674641 -0.0395929   0.22063099
  0.42422545 -0.1424606   0.14965355 -0.03790105 -0.06373975 -0.16299513
 -0.2732132  -0.10102909  0.16236608 -0.14460835 -0.07937681  0.3422818
 -0.11141239  0.07214204 -0.04891213 -0.05245175  0.22920805 -0.33881292
  0.01292063  0.13585079 -0.03908943  0.0869763 ]
[-0.14274375  0.11372602  0.2515938  -0.01116464  0.11712917  0.07459916
 -0.02594112  0.2885084  -0.0513881   0.21721657 -0.02262053 -0.2741221
  0.16551973 -0.1536074  -0.08998578 -0.38604137  0.0241665   0.23543563
 -0.03940673 -0.11680292  0.09264845 -0.10188828  0.25643995  0.09675869
 -0.19017914  0.09638889 -0.04624433 -0.14432752 -0.14886777 -0.04643657
 -0.0381308  -0.00070919  0.26204973 -0.14638941 -0.20422275 -0.15370648
 -0.10202651  0.02252506  0.01622994 -0.254527  ]
[-0.06511185 -0.23515876  0.15693572 -0.03286399 -0.10141904 -0.00223589
 -0.28886017  0.16858377 -0.23315272  0.1547623   0.33135843  0.38056022
  0.00450042 -0.0698957   0.08306679  0.46323305 -0.32696858  0.40063864
 -0.2970547  -0.43083143 -0.26892892 -0.41142094  0.03468113  0.09678553
  0.38071057 -0.1025169   0.07540205  0.11969651  0.01238315 -0.12034729
  0.3735945  -0.1354234  -0.04809744 -0.13327271  0.36152124 -0.35083625
  0.27975786  0.16963314 -0.13169177  0.4343099 ]
[-0.29456273  0.03394019 -0.21373214  0.05731532 -0.20373584 -0.03507354
 -0.1588224  -0.20465812 -0.20114776 -0.07422746 -0.19576672  0.11606437
 -0.07790887 -0.05779551  0.0285964   0.05817293 -0.30308655  0.047918
  0.15982382 -0.1782522  -0.2757564  -0.11578201  0.05754364 -0.0033805
 -0.15863705 -0.0201808  -0.08750453 -0.30055726  0.16428068  0.2524685
  0.20865324  0.25179362 -0.13392577  0.12185808  0.01219393 -0.06563555
  0.10407907 -0.09364533  0.23133114  0.008529  ]
[-0.18670045 -0.3439576   0.19393009 -0.13306437 -0.10164677 -0.3541218
 -0.09291556  0.19994189 -0.20924835  0.06603151  0.46245983  0.209189
 -0.3309187   0.25873092  0.06023111  0.451279   -0.2303063   0.15490466
 -0.40697935 -0.27482194  0.00594475 -0.24830787  0.0497424  -0.20190838
 -0.23264883 -0.23056121  0.01440645  0.07596961 -0.32514784 -0.36623323
  0.24042328 -0.21466906 -0.17020614 -0.13978413 -0.2539137  -0.4526214
 -0.01727066  0.13843775 -0.4752516  -0.00552737]
[-0.12519175 -0.20782286  0.20502754 -0.03699371 -0.27222073  0.10282265
 -0.13848722  0.16367571  0.03805217 -0.17738089  0.2508591  -0.15054134
  0.20500214 -0.04205279 -0.08443923 -0.14117593  0.03697224  0.20317699
  0.17830738 -0.00052929 -0.17153989  0.00590848 -0.23274902 -0.24656703
  0.19097081  0.1330268   0.22141136 -0.18400998 -0.28036168 -0.11058159
  0.05864685 -0.2549922   0.28538895  0.11332262  0.23366576 -0.18543102
 -0.06150243  0.32523045 -0.28944817 -0.02113037]
[-0.20339404  0.04391376 -0.188995   -0.05545153 -0.11719999 -0.15235765
  0.12384156  0.0954788  -0.002634    0.11933223 -0.41808498 -0.18756111
 -0.00626566  0.33689296 -0.23613891 -0.02947185  0.01634933 -0.28788644
  0.46156842  0.34456977 -0.15756601 -0.31565937  0.16911894  0.27745357
 -0.25380158  0.05961874  0.1204834   0.03943469 -0.12822266 -0.46161112
 -0.355114    0.0702159  -0.1195389   0.17264152 -0.18299085  0.02048351
 -0.01146135  0.18486781  0.2594358  -0.09669653]
[ 0.19241749  0.13886072 -0.03792683  0.03328474  0.02925099  0.2564768
  0.24742138 -0.04250907  0.07503359 -0.04596473 -0.15208016 -0.13814601
  0.14125685 -0.03942166 -0.32015926 -0.2393493   0.2681967  -0.24560796
  0.23661804  0.2887649   0.05563933  0.05189197  0.08133387  0.07131202
 -0.020179    0.14468624 -0.06991392  0.05649067  0.06901239  0.104332
 -0.28744978 -0.0449151   0.05202559  0.12726371 -0.0287872   0.31580648
 -0.16917853 -0.23915567  0.22834544 -0.01804415]
layer 3 Activation
tanh
layer 4 Dense
40 20
[ 0.26008224  0.2773949   0.1868411  -0.09277226  0.2268246  -0.00864139
 -0.05363245 -0.11999001 -0.21336943  0.13123362  0.10800737 -0.30558512
 -0.06514615 -0.27162308 -0.32616034 -0.01123207  0.13572942  0.3982117
  0.126155    0.02771914]
[-0.18506478  0.01608058  0.07428045 -0.15779783 -0.2594864   0.20126686
  0.03603509 -0.19825815 -0.14299437 -0.15316159  0.34953746 -0.3669663
  0.40028143  0.1334866  -0.12097921  0.22820188  0.11189219  0.00238239
 -0.32562327 -0.07402546]
[ 0.02229966 -0.4101435   0.11165236  0.13260534  0.20729515  0.00952049
 -0.28668857  0.13835071  0.31178796 -0.41157076  0.15236859  0.0894495
 -0.17576659  0.20738927  0.01915927  0.18845929  0.1614967  -0.0384883
  0.18938617 -0.13449223]
[-0.01325445 -0.00169975  0.19409743 -0.20227005 -0.16735077  0.08646911
 -0.06778725  0.11626887 -0.03841056  0.14078593  0.2820243   0.0846573
 -0.021417   -0.04502439  0.08710986  0.07828738 -0.11961303  0.12060568
 -0.08012477 -0.11819997]
[-0.0251835   0.20217566 -0.3829008  -0.19993992 -0.35140133 -0.20627862
  0.15108676  0.13691106 -0.09578443 -0.08125851  0.30457103  0.0386841
  0.01702018  0.2726829   0.19298857  0.01711202  0.12132075 -0.18147087
  0.11038722 -0.28002796]
[-0.00366926  0.2728915  -0.06421612 -0.3267887  -0.05466113 -0.14434709
  0.07123408 -0.1903993  -0.18707892  0.15460147  0.26687518 -0.3050854
 -0.102631   -0.18048486 -0.01312174  0.16094702 -0.12215602  0.06651727
 -0.0640077   0.05836251]
[-0.15086752  0.06033871  0.24875039 -0.14528474  0.19709927  0.11202891
 -0.03251228 -0.11070654  0.08591336  0.378397    0.23933107 -0.08899432
  0.14227338  0.10990922  0.09146778 -0.24495383  0.04901264 -0.00693708
  0.05586035 -0.49154165]
[ 0.16456336  0.14416806 -0.13259554  0.19787525  0.03728834  0.14327577
  0.22369306 -0.22977549  0.24482132 -0.00284668  0.19734314 -0.12810129
 -0.0497529  -0.00110745 -0.30041644  0.24860977 -0.05832623 -0.1702098
 -0.2526251   0.19887145]
[ 0.03316454 -0.26025692 -0.02048797 -0.35873923 -0.17944255  0.11515146
 -0.22800516  0.26648042  0.08791903  0.04335382  0.16662407  0.04888925
  0.29952878  0.21445066  0.02281027  0.01466477 -0.12793612  0.23436137
 -0.28453323 -0.03239855]
[-0.0715391   0.12210453 -0.18595345  0.10055985 -0.04293913  0.02196878
  0.10550281  0.0297478   0.04558374 -0.18713886 -0.169056   -0.01926558
  0.26079753 -0.16493936 -0.06513847  0.11690519 -0.02705845 -0.197067
 -0.01931027  0.12447737]
[-0.0251532  -0.34918207  0.09892506  0.2040452  -0.26514196  0.2803548
  0.2581195   0.0696493   0.42484295 -0.18682694 -0.32835096 -0.05532816
 -0.42150217 -0.19966877  0.00186782 -0.16425478 -0.14544176 -0.20752542
 -0.03090604  0.20870845]
[ 1.45956874e-01  1.16007909e-01  7.26442486e-02 -2.57066824e-02
 -7.79251382e-02 -2.60641515e-01 -1.83136478e-01  4.45352867e-02
  3.09175372e-01 -4.43096384e-02 -3.47424895e-01  1.19815525e-02
 -3.76489729e-01  2.48105898e-01  1.51621765e-02 -2.25116070e-02
  1.06200255e-01  1.58945750e-02 -9.19515733e-05  3.39930624e-01]
[ 0.04486283  0.05134687  0.05995248 -0.06705213 -0.06337428  0.23775801
  0.1724292   0.18566564 -0.01080963 -0.00227043  0.0066504  -0.2564878
 -0.06289184 -0.06020191 -0.292415   -0.08948132 -0.07412345 -0.19752367
 -0.31003216 -0.13030428]
[ 0.05060007 -0.00140218  0.0852852   0.17272043 -0.16735156  0.15531301
 -0.03999327  0.00724257  0.03270651  0.01529352 -0.28996548 -0.07442075
  0.03841049 -0.29456127 -0.20343095 -0.02751708 -0.17507055 -0.28230393
  0.2044132   0.34763733]
[-1.84089243e-01 -1.03156142e-01  1.01345964e-02  1.64619565e-01
  2.21585751e-01 -2.20676996e-02 -2.56216079e-02 -1.18172206e-01
  1.99468121e-01 -9.60532501e-02  1.66392270e-02 -2.24563933e-04
 -5.24969585e-02  6.29453212e-02 -1.51412502e-01  2.29836833e-02
  1.68011114e-01 -3.30701560e-01  2.87268609e-01  1.02593526e-01]
[-0.24809341  0.02298577  0.10622224  0.12934408  0.09068346  0.24624175
  0.18147013  0.17221388  0.06077661 -0.21338837 -0.14568175  0.04753655
  0.06000094 -0.12799515  0.22089314  0.2559442   0.19762962 -0.13513881
 -0.15845636  0.44492725]
[ 0.06448993 -0.22700736 -0.15803158 -0.28702375  0.02734484 -0.32221752
 -0.11151209 -0.16801524 -0.13015448  0.03328239 -0.18084997 -0.01804775
  0.4601868   0.06630182 -0.11455111 -0.20472434 -0.2551586   0.14363274
 -0.2722148  -0.28956985]
[-0.20227672 -0.22198065 -0.25961834  0.31834325  0.23132561  0.0951671
  0.08073037  0.2850806   0.02743118 -0.28101215  0.12245499 -0.08378516
  0.03988778 -0.0688797   0.34133735 -0.06668077 -0.16819191 -0.11831877
  0.09263849  0.26714692]
[-0.12650305  0.00270094  0.25318205 -0.27146062  0.01318385 -0.30167085
  0.16840172  0.3268226  -0.38482693  0.0276138  -0.02182831 -0.2866246
  0.18901545  0.03292972 -0.14533474  0.22538333  0.24052438  0.1883876
 -0.22714742 -0.22908981]
[-0.15284336  0.05312621 -0.3093753   0.15152729  0.00779339 -0.23699431
 -0.14178635 -0.27063254 -0.3033176   0.35520932  0.21700807 -0.40672392
  0.14915991 -0.09465627 -0.36270007 -0.16343856  0.19423488 -0.04894524
 -0.17501421 -0.19124262]
[ 0.36951056  0.05250375 -0.2002617  -0.31571952  0.08393021  0.31827432
 -0.1591379  -0.3182021   0.2071471   0.23492627  0.00709071  0.00600879
  0.24473503 -0.14290196 -0.36163488 -0.14739448 -0.12991129  0.281811
  0.06402214 -0.07058521]
[ 0.2968125   0.12897348 -0.0045277  -0.2913491  -0.08743078  0.13057323
  0.00394697  0.08068026 -0.16298105 -0.15705623  0.19089463 -0.12405157
  0.15672256  0.10208574 -0.02691986 -0.17950334  0.08733623  0.25818548
 -0.14643325 -0.02619052]
[ 0.3304367   0.2707477  -0.01161957 -0.17951742  0.09631374  0.31640702
  0.07098912  0.00249358  0.01083258  0.01776562 -0.07889898 -0.19789757
  0.05995585 -0.20186193 -0.27252242  0.04387809 -0.03353039 -0.30605078
  0.12414567  0.20649028]
[-0.12231928 -0.01813019  0.09880909 -0.35293654  0.19809957 -0.12977998
  0.08321982  0.09225719 -0.19695932  0.12741941  0.38071933 -0.08668024
  0.20804322  0.07797132 -0.17304154 -0.23167613 -0.19313492 -0.07605433
  0.04802047 -0.06058306]
[-0.16117926  0.02380897 -0.05556701  0.08745526  0.15640989  0.12844063
 -0.23798603  0.12680069 -0.02847043  0.03672265  0.00930211  0.1821594
 -0.00901713  0.18763971 -0.10383777 -0.06234235  0.07983363  0.01037605
  0.15316518 -0.25791958]
[ 0.08645707  0.41010457  0.21621278  0.08008511  0.2708212   0.02669065
 -0.02271358 -0.04323862  0.03193573 -0.20984922  0.04815552 -0.20195724
  0.20274791 -0.240925   -0.28381175  0.1394644   0.17597453  0.00603878
 -0.16098346  0.02225623]
[-0.30059823 -0.06301026 -0.04399678  0.3172357   0.31847864 -0.19290948
 -0.1698525  -0.01850884  0.07914023  0.06582402 -0.27962247 -0.11544013
 -0.0473481  -0.19515754 -0.1175039  -0.11681275 -0.00280809 -0.15716389
  0.18530256 -0.1151414 ]
[ 0.08146119  0.16382313  0.05638354  0.18414666  0.1934385   0.08960959
  0.15177839 -0.00249936 -0.00365942  0.17132884 -0.0411505  -0.16656831
  0.12575868 -0.16888489  0.11941564 -0.15558128  0.18060671  0.13886571
 -0.06037756 -0.20723823]
[-0.25209868  0.08662847 -0.0138377  -0.33514154 -0.28809938 -0.14618151
 -0.00666342  0.02012238 -0.03107016  0.05044384 -0.08167379 -0.14551428
  0.21107294  0.21477577  0.04493612  0.11734353 -0.10526779 -0.00420012
  0.15989171 -0.2971946 ]
[ 0.09216051  0.3882034  -0.21234973 -0.23235245  0.24250636 -0.08584743
  0.09591857 -0.21290894  0.03252003  0.3110102   0.3088035  -0.08181654
  0.16258262  0.18560337 -0.2938831  -0.2124536  -0.1679532  -0.06019944
 -0.14290106 -0.15550363]
[-0.08381942 -0.16313425  0.24500507  0.39842236 -0.17635264 -0.2439585
 -0.05239084 -0.28943324  0.40033334 -0.27675286  0.08021052  0.16148171
 -0.20603848 -0.20646027  0.25989285  0.14424749 -0.08447505 -0.28204843
  0.31083485  0.33768034]
[ 0.2443887   0.07988696 -0.21345477  0.09474847 -0.05935026  0.0737938
  0.07988867  0.11864729  0.00094536  0.01657756  0.16988565 -0.03477396
  0.08015567 -0.09492759  0.07481521  0.07029875  0.05184506  0.10394261
  0.27829462 -0.22787397]
[ 0.01424108 -0.10588204  0.11504933  0.14531465 -0.13767399  0.03434653
  0.00245144 -0.32234293 -0.20904341  0.16440505  0.00799934 -0.36073965
  0.16364369 -0.31025198 -0.27897227  0.16402179  0.04180203  0.27985883
 -0.3743692  -0.03994485]
[-0.1967436  -0.08850841 -0.15519965 -0.29733187  0.18125346  0.13860351
  0.01305663  0.18701465 -0.22295071 -0.05886741  0.27233362  0.06053289
 -0.18322407 -0.21923889 -0.15267576  0.07484664 -0.01747451  0.17327246
 -0.17707841 -0.02604403]
[ 0.06666356 -0.098332   -0.07535322 -0.09200636  0.15841207  0.01234895
 -0.15358946  0.05656861  0.01848557 -0.2297974   0.11811338  0.11742509
  0.04469698  0.05907318 -0.18560995  0.23174866 -0.05758712 -0.24241707
  0.1424305   0.26264036]
[ 0.03723169  0.038411    0.17774257  0.094559    0.1726576  -0.16901238
 -0.0717596   0.03427091 -0.3786566   0.20334329  0.19726573 -0.27393788
  0.1905445   0.16623898 -0.19440477  0.22868845 -0.03467439  0.33239698
 -0.27608186 -0.38648334]
[ 0.06642019  0.1360612   0.0532568   0.24881648  0.14418648 -0.07525108
  0.30266768  0.06832371  0.3095994  -0.17860886  0.13881704 -0.1449331
 -0.02899347 -0.03802847  0.2454937   0.05402445  0.25740746 -0.3921592
 -0.17593096  0.32443163]
[-0.1171568  -0.23371094  0.13794972  0.24821681 -0.1107989  -0.19395316
 -0.15600325  0.0300026  -0.00984955 -0.12172662 -0.16976061  0.4336491
 -0.19225775  0.03229941 -0.054625    0.19436349 -0.2576604  -0.15669486
  0.1893577   0.17812577]
[ 0.2677168  -0.0412054   0.20891194 -0.42906252 -0.09301315 -0.00801722
 -0.2314276   0.24502347 -0.30279788  0.34470406  0.00955504 -0.15304893
  0.26898816  0.25150764  0.00308135  0.20490369 -0.17710687  0.00700624
 -0.18791899 -0.43164194]
[-0.344552   -0.04411768 -0.00978592 -0.12245668 -0.22999974 -0.29107648
  0.07769328  0.20034951 -0.2894019  -0.2632369   0.03116601 -0.04464735
  0.1352216   0.09014868 -0.02608371 -0.3002118  -0.32775888  0.13211954
  0.23517235  0.208656  ]
[ 0.03345459  0.03148481 -0.04146355 -0.16270591 -0.00828457 -0.03193476
 -0.03718296  0.04303577 -0.1707122   0.05774538  0.10262819 -0.11935269
  0.03601122  0.0634692   0.02895172 -0.00959908 -0.02272348  0.0285734
  0.04055787 -0.20551203]
layer 5 Activation
tanh
layer 6 Dense
20 1
[0.01350481]
[0.00532767]
[0.00669584]
[-0.41616]
[-0.01871143]
[-0.05531652]
[0.0206411]
[0.11337852]
[-0.3236229]
[-0.41587704]
[0.12803797]
[-0.01325042]
[-0.26413688]
[0.02137097]
[0.17280473]
[0.01024892]
[0.00328215]
[-0.13197227]
[0.13901322]
[-0.31221244]
[0.03550331]
