layers 7
layer 0 Dense
20 20
[-0.18716386 -0.18801373 -0.26194072  0.08405771  0.09386122 -0.13952425
  0.02239904 -0.11658333  0.16816816  0.21427263  0.24026191 -0.18783592
 -0.24392118 -0.01204068  0.27988982  0.31083712 -0.35752252  0.0089913
  0.3874994   0.25950173]
[ 0.03631896 -0.2136381  -0.04720362  0.1963807   0.20836425 -0.19979312
  0.41718024 -0.21179058  0.13630645 -0.23995171 -0.14387026 -0.18500121
 -0.16928995  0.06326849 -0.28472397 -0.02172793 -0.07973788 -0.16956617
  0.23288006 -0.3095814 ]
[ 0.12770224  0.35248762 -0.10227586  0.12637691 -0.05648129 -0.12205362
  0.26600468  0.49452788  0.5169381  -0.38700482  0.35208347  0.28722253
  0.04258806  0.01825088  0.2181213  -0.3644628   0.24832262  0.18430413
  0.29598457 -0.30160674]
[-0.21093616 -0.5577168   0.22358595 -0.11484911 -0.01788392 -0.1934402
  0.01952629 -0.23429798  0.09797351 -0.13344252 -0.33581343 -0.3753731
  0.03317438  0.20766771  0.0335555  -0.23866297  0.08823454 -0.07365549
  0.20736855 -0.14013301]
[ 0.40088454  0.05206392  0.09455862 -0.12236577  0.31396577  0.22549838
  0.25974742 -0.25854912  0.06948306 -0.2542569  -0.04318399 -0.16543457
 -0.02414075  0.04105349 -0.40329844  0.00687198  0.14689095  0.09874619
  0.1031557  -0.03591637]
[-2.79901832e-01  5.49569130e-02 -2.17147321e-01 -6.48176312e-01
 -4.34527725e-01  3.69996160e-01 -3.18175077e-01 -1.21787958e-01
 -4.75989848e-01  1.07751936e-01 -3.01551640e-01  2.32619420e-01
  1.48433242e-02 -3.69825482e-01 -3.05398315e-01 -1.67177618e-02
 -2.24606857e-01  1.30445114e-05  2.14255571e-01  2.61487842e-01]
[ 0.04217725 -0.03974792  0.21080208 -0.1750262  -0.02456084 -0.10212827
  0.03356704 -0.5798948   0.04220285  0.00932488 -0.39350247 -0.08448531
 -0.14119385 -0.20656136  0.36124003  0.45659578 -0.1717827  -0.22008821
  0.12625428  0.5357829 ]
[-0.15340476 -0.04574994  0.2933558   0.04782697  0.12777887 -0.37504402
  0.38403568 -0.08806101  0.25026008  0.01132254  0.05767959  0.28948325
  0.14795682 -0.17255664  0.11817031  0.28022245  0.07200976  0.00058256
 -0.33254525 -0.35119462]
[-0.15940298  0.01801974  0.04120913  0.11175618 -0.18193698 -0.21667346
 -0.23097754 -0.04800687 -0.2536938  -0.17704082 -0.25024608  0.3044622
  0.13344635 -0.5625203   0.05235791 -0.21246676  0.19663857  0.05951339
 -0.20051734 -0.08334672]
[ 0.1056295  -0.27048978 -0.16485178 -0.16783042  0.09599685  0.04863296
 -0.34143975  0.11590947 -0.12118644 -0.12775898 -0.26914757  0.1980639
  0.02055384 -0.17288175 -0.22066168 -0.25129795  0.03392842  0.3348619
  0.05613592 -0.09557579]
[-0.2612008   0.18155466  0.11997043  0.31763026  0.03091993 -0.04797461
 -0.1884731  -0.00056769 -0.09046104 -0.4089462   0.06829523  0.19442491
  0.34022215  0.01252066  0.07025918 -0.37276575  0.04599371  0.394354
  0.24471417 -0.03771517]
[ 0.27108467  0.3042785   0.11882246  0.299628   -0.16867536  0.5393261
 -0.35368255 -0.18476024 -0.00149754 -0.0668461  -0.26696452 -0.1450008
  0.19652323 -0.10748964 -0.30654836 -0.2233918  -0.42846835 -0.37621105
  0.07022002 -0.01454052]
[ 0.23917139  0.25621033 -0.54784185 -0.03149603 -0.00980471  0.08817513
 -0.24396129  0.17864233 -0.10150962 -0.07266697  0.27020693  0.04212691
 -0.08814568 -0.15156387  0.2053862  -0.28347957  0.34259272 -0.3213066
  0.2158109  -0.07534904]
[-0.15172935 -0.15363984 -0.3226462  -0.04483238  0.21306951  0.0055667
 -0.12693757  0.10142776  0.05270832 -0.12205532  0.07945551  0.00896269
 -0.10412092 -0.4447148  -0.20265238  0.09313036  0.06239179  0.17878744
  0.21577507 -0.16574763]
[-0.15393423  0.00270935 -0.00694274  0.10845304 -0.27662885 -0.14602281
 -0.22937217 -0.03522545  0.12334497 -0.16423586  0.41963318 -0.2031477
  0.34446877 -0.0894843  -0.019915   -0.23107229 -0.15801384  0.12758836
  0.33984232 -0.09247459]
[ 0.1846178   0.2478626   0.1491757  -0.10157083 -0.13060646  0.4840152
  0.12741603 -0.0683642  -0.02093556 -0.1980292  -0.33224723  0.39015996
 -0.0327151  -0.21313512 -0.3040252   0.16812131  0.18979824 -0.47146645
 -0.02005026  0.22072689]
[-0.31153506 -0.31189126  0.02328325 -0.1287321   0.05276721  0.26921502
  0.28503972  0.13477567 -0.26473483  0.07085807  0.17229104 -0.06106698
  0.20358181  0.5140454   0.03092609 -0.2601632  -0.0190938   0.15861912
 -0.13111739  0.2904505 ]
[-0.17507312  0.42814994  0.3456841   0.7267681   0.48781043  0.53662616
 -0.06185542  0.15186979  0.63118184 -0.28762174  0.30605575  0.17440481
 -0.42712948 -0.15293996  0.6967671   0.57849425 -0.73121476 -0.80366075
  0.10010938 -0.38313663]
[ 0.60922825 -0.6433806  -0.52266484 -0.39594886  0.95322675  0.9182933
 -0.46554548 -0.5913374   0.16651626  0.9064085  -0.47875842  0.2266309
 -0.20672822 -0.06456798  0.12224209  0.26167062 -0.36537504 -0.17740451
  0.2625619   0.7375098 ]
[-0.21806137 -0.30800065  0.1440008   0.13188583  0.23384394 -0.48085457
 -0.26700163  0.1685779  -0.10332257  0.51131904  0.08851476 -0.00386764
 -0.14391929  0.5079761   0.03500603  0.4434641   0.321293    0.622801
 -0.11179467 -0.5618976 ]
[-0.04734391 -0.12280381 -0.0497508  -0.06949104  0.12476204  0.03392315
 -0.03473108 -0.07092358  0.01958223  0.01147865 -0.01667434 -0.0185149
  0.00435966  0.08768574 -0.00046286  0.00959484 -0.06111692  0.00572867
  0.00073853  0.01996571]
layer 1 Activation
tanh
layer 2 Dense
20 40
[-0.20572293 -0.20262268  0.03556166  0.15259774 -0.30820104 -0.20921153
 -0.13743071  0.13539253  0.16048929  0.06080562  0.02974941  0.26763976
  0.3034767   0.29766515  0.22169106 -0.09045618  0.13191642 -0.15260164
 -0.12746678 -0.24226454  0.00267339  0.1482371  -0.3013527  -0.16384764
  0.07935702  0.1648217  -0.0632659   0.03954839  0.01725665  0.07868429
  0.05888522 -0.04723993 -0.10153301 -0.15043339 -0.25981835  0.16109106
  0.15246785  0.0766837   0.02703737  0.02584065]
[-0.3582107   0.32148165  0.00534416  0.09373838 -0.20493922 -0.033599
  0.04349581 -0.18540967  0.07195693  0.13004604 -0.12268095  0.18316443
 -0.21398485 -0.1465097   0.02211478 -0.22871457 -0.3729346  -0.09976152
 -0.07185934  0.24253628  0.02220804 -0.20867445 -0.03427386 -0.00843628
  0.3007431   0.24321163  0.08748338  0.10644226 -0.1929252   0.2654954
 -0.22467867  0.20330149  0.2714121   0.30633536  0.00653468  0.1710905
 -0.21002378 -0.16499552 -0.08094268  0.4688495 ]
[-0.04815168  0.11685633 -0.08287563  0.27324244 -0.05179579 -0.24256757
  0.0051146  -0.1170501  -0.19362783 -0.06159891  0.30537146  0.27875236
 -0.14067657 -0.15362483  0.2660854  -0.11919723 -0.18804573  0.08245317
 -0.02766592 -0.30142927 -0.05834242  0.01802713 -0.30328915 -0.220491
  0.28326476 -0.14611828 -0.25767082  0.01507569 -0.01020688  0.06424621
 -0.2602313   0.23176023 -0.02984192  0.25787976  0.3612941  -0.3045981
 -0.03486258  0.02688262  0.16631447  0.01508528]
[-0.31394738 -0.03260126  0.04295     0.16260426  0.02206733 -0.10645705
  0.23839512  0.15977633 -0.06586966  0.05942102  0.2577131   0.16694348
 -0.26368484 -0.08525484  0.09979376 -0.47171608 -0.12370545 -0.16086115
  0.25400454  0.1144401  -0.26421943 -0.14369145  0.03192503  0.11157295
 -0.14365096  0.00882337 -0.08933119  0.19655028  0.2555243   0.33123463
 -0.23610656  0.33609614 -0.21041876  0.17634383  0.00797486 -0.084355
 -0.0286654   0.14241064 -0.08221776  0.3402203 ]
[ 0.12443475 -0.14922187  0.15022983 -0.14611842 -0.3375201  -0.23705667
  0.04275544 -0.17298733  0.06700908  0.12000754  0.31247196 -0.09783973
  0.0950997  -0.01272666 -0.05360546  0.12139072 -0.16099928 -0.10465901
  0.0629916   0.05534531 -0.13708192  0.21019775  0.15347673  0.04569522
  0.13586043 -0.06071093 -0.1402437   0.30667824  0.38067272 -0.12086086
 -0.17791744  0.10754293 -0.05571222  0.00062198 -0.4056774   0.10795222
  0.06411134 -0.24239916 -0.03393857 -0.02729654]
[-0.06222802 -0.25763518 -0.15395409 -0.06241036  0.17397214  0.1783727
 -0.26018316 -0.38180858 -0.285203   -0.09639852 -0.3871401   0.26150203
 -0.13301815 -0.07469732 -0.07138749  0.03671237  0.02420365 -0.33872274
 -0.39393932  0.0419745  -0.00999736  0.11594079 -0.17902093 -0.24177168
  0.08067171  0.21456139 -0.12666723  0.2621875   0.00377155 -0.21355532
  0.14717832 -0.27693498 -0.20746157 -0.34718308 -0.12937076  0.02414096
  0.03584494 -0.20872791  0.1438832   0.2376466 ]
[-0.02641361  0.25577414 -0.1031075  -0.13616477 -0.1916911   0.13046156
  0.08651282  0.32686773 -0.26950336  0.22014822 -0.01238073 -0.22965789
 -0.20884117 -0.23169315  0.13156812 -0.12766437 -0.02477845  0.1373226
 -0.38741085 -0.10468864 -0.09943344 -0.02416706  0.00854461 -0.0465401
  0.19212008 -0.09002441 -0.2019755  -0.00536495 -0.07034989 -0.0432238
  0.13373806  0.30166668 -0.3144041   0.14387834 -0.27460575 -0.13990997
 -0.3535287   0.00339397  0.07463013 -0.08083251]
[-0.10925469  0.26683223  0.25250039 -0.17533736  0.19036503  0.3170624
  0.06637475  0.04400439 -0.01669906  0.08897343  0.15448013  0.12765
  0.01090303  0.07322076  0.1892289   0.0532079   0.04164872  0.17013872
  0.3194972   0.1669491  -0.25597706 -0.18662442 -0.28929335 -0.02453543
 -0.06986838 -0.36621392 -0.09255712  0.1917623  -0.06501727  0.274192
 -0.08665071  0.15515868  0.17116259 -0.21779728 -0.24216838 -0.10908251
 -0.26652715 -0.11244055 -0.02442634  0.18156707]
[-0.00564634  0.14694425  0.16167407 -0.14824711 -0.2545347  -0.32406673
 -0.09030862  0.11466871 -0.21553689  0.11306895  0.02124742  0.1334601
 -0.05060514  0.0117191  -0.0287389  -0.099319    0.29913136 -0.30287996
 -0.04582992  0.13465583  0.17877787 -0.10128016 -0.35987797  0.32660246
 -0.14954555  0.00559344 -0.04922708 -0.08406594 -0.20346937 -0.07061279
 -0.0247292   0.06312746 -0.25003755 -0.02115216  0.2494993  -0.36005208
  0.15285392 -0.28472492  0.03585988  0.19192865]
[ 0.32985863 -0.17814998 -0.00939768 -0.24761654  0.06490463 -0.25091568
  0.08155318 -0.06882327 -0.18088816 -0.12947258  0.26944876  0.20534003
  0.02403882  0.10125577 -0.21620132 -0.10968476 -0.0790378  -0.15419567
  0.3327258   0.0134988  -0.20589454  0.04220825  0.09970307 -0.18024334
 -0.10943969  0.21069597 -0.08152633  0.3074538   0.13739195 -0.28722998
 -0.03328595 -0.01695698 -0.17251322 -0.06170899 -0.07557381  0.31345996
  0.1830757   0.35994563  0.02056053 -0.16848637]
[-0.06008966 -0.19878939 -0.01217378  0.02489574  0.11026458  0.15340108
  0.21316776  0.21878864  0.21541959 -0.14278041 -0.2014492  -0.11275681
  0.09854499  0.03917734 -0.02636642 -0.05265078 -0.09743061  0.02788905
 -0.11524265 -0.21872762  0.1472626  -0.08342993 -0.14670417  0.04526466
 -0.25545174 -0.2535761  -0.37600884  0.09617937  0.15612629  0.04420316
  0.434161    0.2495916   0.22190216  0.03050343  0.18297209 -0.20123713
  0.05606074  0.16362008 -0.25332788 -0.019634  ]
[ 0.17298673  0.11803251  0.04056909  0.09380528 -0.06494829 -0.21033925
  0.03925388  0.15561265  0.02117271 -0.08651809 -0.20697345  0.10576683
 -0.34026566 -0.31780785 -0.02695824 -0.06127228 -0.00575128  0.12579402
 -0.19824247  0.10186408  0.25368646  0.17674506  0.1859922   0.19303131
 -0.10030822  0.3650788  -0.21966234  0.25476968 -0.19578162  0.25250337
  0.16446474  0.02121155 -0.0366078   0.1251132  -0.27403307  0.16924335
 -0.04962409 -0.32770357 -0.15135619  0.14972584]
[ 0.13120422  0.03195352 -0.12862761 -0.18107538  0.19632134 -0.205946
 -0.23317455  0.10309725  0.17832693 -0.11537836  0.08311991 -0.2519341
 -0.18846765  0.14573328  0.22932145 -0.04042977  0.08749861  0.06670427
 -0.24091317 -0.16538669  0.12980923  0.05388456 -0.0301461   0.14215164
 -0.23703513 -0.00909184 -0.16461232 -0.11094325 -0.09886464  0.30873904
 -0.06078963 -0.21254286  0.21224707 -0.11428382 -0.09773441 -0.21125539
  0.00944181  0.13266252 -0.11067316  0.07637998]
[ 0.00804279 -0.00460636 -0.11103218  0.10198104 -0.23985583  0.14407584
 -0.20259589 -0.11766338 -0.40463012  0.04472401  0.44078913 -0.18836695
  0.02484823  0.10124654 -0.24559356 -0.36700386  0.15910098  0.1860063
  0.33061358 -0.22221775 -0.08275861 -0.00299276  0.21285287  0.21574973
  0.1146856  -0.30153087 -0.45354185 -0.22334905  0.3353507   0.10114896
  0.39720783  0.3690551  -0.45081374  0.2248231  -0.22969702  0.06351968
  0.2770009   0.31245977 -0.25682804  0.13434201]
[ 0.06261193  0.17643268  0.12749946  0.17976838 -0.19415319  0.1957697
  0.3106335  -0.16804539  0.09538552  0.02578925 -0.09623409  0.1410697
  0.05824593 -0.06055008 -0.14993577 -0.50331974  0.15749191  0.13325696
  0.33661407  0.21091521  0.06884815  0.16431399 -0.17853796 -0.02976981
 -0.02824895  0.14077766 -0.11208577  0.05209188  0.287132    0.06569484
 -0.33358568  0.30943832 -0.46298718  0.13162445  0.12189774  0.09883969
 -0.13011284 -0.09427843  0.08594663  0.34585553]
[ 0.17965168 -0.2742246  -0.2163396   0.09330346  0.05785985 -0.09621252
  0.14789687 -0.31063107  0.30318385 -0.07534334  0.1771922  -0.01857899
 -0.14311703  0.06119095  0.09650753 -0.15365236 -0.28292102 -0.11872139
  0.38157716  0.18852621 -0.1111953  -0.05973303 -0.14414917  0.20965755
  0.00238427 -0.09998924  0.02111499  0.00594175 -0.01178214  0.0282551
 -0.2200028  -0.06585789 -0.059819    0.1000348  -0.05180813 -0.25390714
  0.19255647  0.14435002 -0.04069913  0.18983121]
[ 0.15771402  0.15234831  0.10697822 -0.29379803 -0.11638005 -0.05973656
  0.17504227  0.25149444  0.00065838  0.12077058  0.01279521 -0.21347654
  0.03171795 -0.12479679  0.12301758 -0.17168128 -0.19755085  0.12632965
  0.10419881  0.23871398 -0.1500286   0.25875652  0.13951467 -0.14351116
 -0.10588903  0.17476855  0.12129536 -0.21247488 -0.33761516  0.23083876
 -0.17894049 -0.14353533  0.14969622 -0.04019517 -0.2984344   0.2663359
  0.01350077 -0.2560253   0.09895854 -0.05123958]
[ 0.34469157  0.13515568  0.27462578  0.2019441   0.3155754  -0.15860736
 -0.3585668   0.30643123 -0.25820526  0.33022627 -0.06669068  0.12930575
  0.25578144 -0.07692356  0.12184651  0.16068533 -0.13665864  0.30377638
  0.18251303 -0.27537256 -0.1138366  -0.16176258 -0.06808903 -0.2676257
 -0.20523447  0.17393325 -0.1634128   0.04062209 -0.33629924  0.01398843
  0.05676463 -0.12103292  0.06618386  0.14363217  0.0429404   0.40829888
  0.10821354  0.26975635 -0.12207489 -0.30245528]
[-0.0774846   0.3148785   0.18496558 -0.18315268  0.08295408  0.15711959
 -0.1833742   0.0403996  -0.28176615  0.19305775  0.1753378   0.32058305
 -0.19005503 -0.08805338  0.20191447  0.03532185  0.363052    0.02761055
  0.2401283  -0.18319319 -0.10398177  0.22237438 -0.18471618 -0.14919214
 -0.15467851  0.18690494  0.32937133 -0.07208715  0.26035765  0.16015501
  0.18312375  0.11258794 -0.13717178 -0.06450164  0.03831647 -0.14244829
  0.15320338 -0.17742701 -0.10115902  0.01321724]
[ 0.13333529 -0.11629275  0.03708564 -0.14836623  0.21585315 -0.3619157
 -0.16814545  0.05273222 -0.24433799 -0.17608687 -0.30088043  0.263683
  0.20700754 -0.08278543  0.2941391   0.04874861 -0.037951   -0.02855446
 -0.0039559   0.07611039 -0.04228756  0.1478543   0.1507464  -0.12895586
  0.12844218 -0.18858138  0.27487502  0.26557165  0.17301503  0.2664938
 -0.04864115 -0.23665564 -0.06311582 -0.38367298  0.27731526  0.10469158
  0.35120532  0.1858581  -0.25013223  0.11003342]
[ 1.3677682e-02 -4.1350372e-02  5.4897759e-02  7.6882794e-02
  5.6898955e-02 -6.6497840e-02 -3.3119515e-02  2.8727736e-02
 -8.5868776e-02  1.0841246e-01  3.7450425e-02 -1.7609691e-02
  1.0010107e-01  5.9490860e-02 -2.3267163e-02 -7.6056242e-02
  2.5033148e-02 -2.8932728e-02 -1.4505290e-03 -1.7195618e-02
  1.9332428e-02 -4.9374200e-02  1.8292839e-02  4.5064107e-02
 -1.8258463e-05 -5.4623585e-02  9.5593743e-02 -3.9815962e-02
  3.8248751e-02 -4.7649320e-02  1.5791729e-02 -3.4540787e-02
 -2.5803549e-02 -2.4919005e-02  5.1304556e-02 -1.3535282e-01
  1.8072739e-01  6.5212056e-02  7.0703560e-03 -2.3998650e-02]
layer 3 Activation
tanh
layer 4 Dense
40 20
[ 0.31238294  0.08133075 -0.28265408  0.1648637  -0.29516217  0.21499836
 -0.1606561  -0.10414133  0.35250208  0.03312145  0.05028951 -0.2918683
 -0.05603287  0.20418203  0.10336025 -0.46333796 -0.23900679 -0.0362685
  0.21025605  0.1391576 ]
[-0.21766761  0.06961807 -0.01661532 -0.13090289  0.34293765  0.07112087
  0.0199135   0.23581326  0.21606572 -0.15944703 -0.10987666  0.09941613
 -0.0927588  -0.16535836  0.19912343  0.2586376   0.06479956 -0.21072842
 -0.14057715 -0.14674267]
[-0.09749536  0.26566574 -0.04916833  0.13097247 -0.03220751 -0.11727265
  0.15467611  0.11312267 -0.00310129  0.09564605  0.09657902  0.02545272
 -0.07787211  0.27159506 -0.09498293  0.089887   -0.03132619 -0.02120009
 -0.05551801 -0.02528303]
[ 0.16963862  0.18125692 -0.06735782  0.02363997  0.26619837 -0.03811405
 -0.11394648  0.05596996  0.06046119 -0.21834415 -0.05078013 -0.216507
 -0.13175607 -0.08627742  0.21462554  0.24181116 -0.32410946  0.08674885
  0.24826522  0.07070763]
[ 0.07049657 -0.12974146 -0.19374597 -0.185671    0.0433673  -0.29643396
 -0.00453215 -0.21020709  0.06942461 -0.19348308  0.16416521  0.39425436
  0.16441019  0.14566436  0.09431172 -0.06287906 -0.06631271  0.1084276
  0.1633883   0.27875522]
[ 0.11806677  0.2949065  -0.28830504 -0.3655055   0.12254205  0.21196568
  0.3197172   0.03604095  0.06964301 -0.10130043  0.18814416 -0.02799675
 -0.29892203 -0.08387714  0.18922807  0.14671776  0.32029903 -0.27854627
 -0.18793213 -0.14398664]
[ 0.14160463  0.02836251  0.28163916  0.25466207  0.19636388  0.20681192
  0.04857432 -0.14761077  0.18186566  0.33109862 -0.3464511  -0.33350778
 -0.36033106  0.2050568  -0.00602091  0.21538217 -0.0959822  -0.22370806
  0.14781815  0.1071774 ]
[ 0.0007394   0.03690563 -0.15072195 -0.29101282  0.21250144 -0.22615294
 -0.23999259 -0.29829127  0.06291229 -0.00466274  0.15479697 -0.00742933
  0.04764913  0.3011907   0.13471706 -0.16220601  0.04638335 -0.2068814
 -0.1858033  -0.10460021]
[-0.08780589  0.23108265  0.32068115 -0.00241953  0.26497006  0.04879136
  0.16739239  0.25981718  0.26237258  0.09591282 -0.00600504  0.0243084
 -0.37120232  0.18563566 -0.20239054 -0.03599609  0.26147646 -0.07977897
 -0.23533198  0.06029155]
[ 0.07982019  0.20932518 -0.28888896 -0.06311796 -0.00525288 -0.0511359
 -0.23309697 -0.25246018 -0.06934155 -0.21138261  0.10954173 -0.09447659
  0.04530368  0.261258    0.28736547 -0.23131424  0.29659986 -0.17938678
 -0.04233897  0.05887322]
[ 0.32104817  0.27162573 -0.0925265   0.1625682  -0.20053834 -0.1002934
  0.35209534 -0.1034284   0.25424784 -0.15158907  0.22196323 -0.41340905
 -0.35327435 -0.14657229 -0.2668327  -0.2468721   0.21013749 -0.26250705
  0.06694398 -0.12435525]
[ 0.11246035  0.25725052  0.19778533  0.10879907  0.0102655  -0.1470576
  0.03229129  0.09774637  0.04340954  0.0118798  -0.04146709  0.28950584
 -0.23859785 -0.34401602 -0.19323657  0.07062328  0.06436573 -0.25720185
  0.17809963  0.23595771]
[ 0.15326096  0.18149465 -0.18102992  0.09597352 -0.00109672 -0.09139459
  0.02424146 -0.17654885  0.30601227 -0.15204234 -0.0471139   0.1956178
  0.36603263 -0.0040874   0.22362083  0.14254427 -0.2507832   0.15245596
  0.22110416  0.22873145]
[ 0.24307962 -0.29084572 -0.08453308  0.12746207 -0.07953709  0.07018234
  0.29228163  0.21062624  0.12227944 -0.11948777 -0.10939755  0.06511139
 -0.00840232  0.10646573  0.21389483 -0.16014284  0.06472323  0.13850875
  0.01959169  0.19273074]
[ 0.00726574 -0.22529563  0.24619897 -0.10565802 -0.03564222 -0.27065712
 -0.27704597 -0.17812607 -0.19259964 -0.33672127  0.03479293  0.19827928
  0.04109365 -0.10114305  0.10819069 -0.15891394 -0.07893414  0.27058128
 -0.02695201 -0.25338382]
[ 0.09087858  0.04011033  0.15187225 -0.01255378  0.04457284 -0.27914166
 -0.14757557 -0.39816472  0.1997836  -0.0786905  -0.06139283  0.03667901
  0.34939027  0.15350656 -0.1498486   0.22886679 -0.19474539  0.15137927
 -0.12763998  0.09145459]
[ 0.31901982  0.295049   -0.11623053  0.2398425  -0.25271282 -0.24377535
 -0.21098204 -0.13341528 -0.21639748  0.05911807 -0.07119954 -0.21858507
 -0.05410583  0.16728675  0.11638816 -0.18625773 -0.1164773   0.06806205
  0.19634648  0.00233827]
[ 0.03070251 -0.23273435  0.1675727  -0.0546485   0.09533439 -0.30701664
  0.2876792  -0.19739668  0.33908656  0.00666357 -0.4287829  -0.14171535
 -0.06865189  0.00242514 -0.06377086 -0.19183137 -0.26769373 -0.18564382
 -0.15414985 -0.35447195]
[ 0.12406783 -0.198349    0.22258353  0.2797689   0.0329984   0.03889398
 -0.18081537 -0.1789776   0.24713658 -0.21428332  0.19132961 -0.00677894
 -0.1857307   0.23606579  0.19933082  0.06266175 -0.22165528 -0.26849487
  0.14948998  0.23225778]
[-0.22238834  0.18233857 -0.01332444 -0.10885101  0.2343634   0.08093461
  0.16782404 -0.02527364 -0.16899922  0.22712037  0.17903666  0.02410323
  0.14471701 -0.17806113 -0.29655302 -0.0253158   0.04640612  0.15953599
  0.07995063 -0.30608657]
[-0.00779911 -0.27111197  0.22104429 -0.03095789 -0.04240169  0.17051648
 -0.12908392 -0.18715854 -0.1121648   0.22900064  0.18517715  0.12164252
  0.10838258  0.02675787  0.22080342  0.04077682 -0.18141606 -0.2952293
  0.21928686 -0.24533282]
[ 0.14808448  0.29375878  0.02498095 -0.01037896 -0.2557255   0.18433964
 -0.03888037  0.21603872  0.2026404   0.35484716 -0.09736113 -0.02282293
  0.08537561 -0.02705587 -0.06068793 -0.27577353 -0.25157005 -0.10236759
  0.29508016 -0.02465895]
[ 0.08305766 -0.2769999   0.14584926  0.06599041 -0.10802548 -0.15429857
  0.175152   -0.22745727  0.17125428  0.04781826 -0.27471685 -0.10333351
  0.2251417   0.3114427   0.02230267  0.12771617  0.19305742 -0.41223997
  0.25330988  0.13795623]
[-0.12733021 -0.14312574 -0.12905046  0.20629711  0.41465035  0.11748886
 -0.32896248  0.14163077 -0.08775594  0.25514692 -0.1812731  -0.11162332
 -0.40142483  0.01753853  0.24121168  0.0473126   0.11183539  0.0933698
  0.09556389  0.23425747]
[ 0.22758211 -0.11780437  0.02801574 -0.18604912 -0.32563233  0.28409082
 -0.09244936  0.03037167  0.08147859 -0.1952793  -0.12356024  0.18115556
  0.01502853 -0.20517088  0.09231049  0.16850735  0.06669272  0.39667928
 -0.13335186 -0.13335083]
[-0.18886125  0.01565853  0.35462922  0.13766547  0.10162051  0.00354459
  0.01034966  0.30457956  0.30269346 -0.05703064  0.02014305 -0.17105685
  0.1285119  -0.23076299 -0.13380162  0.02870913  0.12698257  0.1637514
  0.2795239  -0.07431812]
[-0.17528188 -0.24067673 -0.12943868 -0.01626483 -0.22631507 -0.17249702
 -0.18980104 -0.24274358  0.21858129 -0.26611075 -0.20869651  0.3492207
 -0.15217665 -0.27408177  0.26253995 -0.12455446  0.11609386  0.29253674
 -0.02860443  0.2094854 ]
[-0.355718    0.13719156  0.15569827  0.05401868 -0.05394923  0.11496052
  0.13369556 -0.13989651 -0.1653706   0.07838381  0.07373487 -0.12992796
  0.22792701  0.14953807 -0.25404406 -0.19140491 -0.24026126  0.14747347
  0.12976655  0.06547245]
[ 0.05571391  0.17301841 -0.12063123  0.13714589 -0.3106763   0.12635006
  0.10151275 -0.28589374 -0.00379249 -0.24257171  0.2443148  -0.10746183
 -0.26113042 -0.44737962  0.27296916  0.15178335 -0.12819564  0.30737126
 -0.13671331 -0.04221373]
[-0.1403902   0.2598495   0.11380761 -0.24884208  0.24715587 -0.11283913
 -0.23692882  0.24617441 -0.11802784 -0.33843258  0.37069687 -0.1956007
 -0.09134876 -0.01920271  0.02674331 -0.1050118   0.11216833 -0.30451894
 -0.25563434 -0.2410155 ]
[-0.00554939  0.11441462 -0.16094123 -0.2740939  -0.16021429 -0.13662145
 -0.16873184 -0.09123237  0.01732059  0.03122042 -0.09140278  0.13236505
 -0.06495769 -0.1000461  -0.02213668 -0.02041036 -0.26850078 -0.217351
 -0.1702367  -0.07208915]
[-0.07856974 -0.27479005  0.09165808 -0.1449484   0.27340618  0.2653737
 -0.24171188 -0.23597074 -0.35207137  0.01832292 -0.10841434 -0.32125068
 -0.12513447  0.03857614 -0.23004197 -0.03920524 -0.03271517 -0.16862687
  0.09270684 -0.28909266]
[ 0.0908522   0.26593146  0.28697565 -0.25459984  0.39291224 -0.252012
 -0.27946538  0.00574952  0.0975554  -0.00591229 -0.06769767 -0.0639127
 -0.04486471  0.4198891   0.2244539  -0.01060779  0.13928945 -0.2692241
 -0.18203993 -0.14644115]
[-0.03253845 -0.0226674  -0.07394475  0.10157236  0.11060473 -0.00633508
  0.20019832 -0.04950576 -0.0107806   0.28623307 -0.01118686 -0.2915401
 -0.19294581  0.27393577 -0.23981628 -0.32519168  0.23893708 -0.20057724
  0.22874948 -0.13922583]
[ 0.09413145  0.01912974 -0.2599489  -0.1376841  -0.11657066 -0.2937747
 -0.1801098   0.14896032 -0.13658415  0.17778623  0.08153213  0.4670468
 -0.10890243 -0.21135688  0.3225133  -0.11376143 -0.1288259  -0.31935275
  0.24466367  0.24201979]
[ 0.1788157  -0.16188627  0.24946246 -0.0502455   0.16665885 -0.12094717
  0.29273576  0.21047683  0.39900145 -0.21761978  0.3231866  -0.228142
  0.20668232  0.05977957 -0.25123766  0.20292078  0.12521748  0.18975931
  0.04564285 -0.19826125]
[ 0.29891512 -0.21646453 -0.16548803  0.16683699 -0.32650074 -0.05997263
 -0.14295599  0.15414874 -0.08590629  0.25044662 -0.19192567  0.04959289
  0.10283336 -0.17522702  0.06574201 -0.09852661 -0.08821252 -0.29467985
 -0.0936916  -0.00747003]
[ 0.06406554 -0.18114223 -0.30585957  0.02288965 -0.20227407 -0.18288326
  0.24345538  0.09596418 -0.2370074  -0.3725549   0.16185793 -0.23388113
  0.18798622  0.09076026  0.12211691  0.28555918 -0.22522934 -0.27582794
  0.2545549   0.06501742]
[-0.2677536  -0.29675806  0.21498694  0.15351208 -0.30565497 -0.01642634
 -0.34638435  0.1333496  -0.06380349 -0.2939479  -0.11510303 -0.25210685
  0.16189694  0.22502439  0.11247849 -0.12827289 -0.01247995 -0.23824967
  0.42152026  0.06004037]
[ 0.13517447  0.2748248   0.17328824 -0.09879991 -0.03928607  0.23006341
  0.07420417  0.01603411 -0.2992271  -0.12919508 -0.18148984  0.10731836
 -0.32818893 -0.3000402   0.1505898   0.18844628 -0.02377183  0.2271306
  0.04740476 -0.22153778]
[ 0.00470831  0.00438153 -0.0809906   0.01116621 -0.05263513 -0.04221932
  0.00234408 -0.0135321  -0.04562057 -0.02495348  0.01809168  0.08302031
  0.00314333 -0.02777878  0.04223033  0.03781402 -0.00570186  0.00400645
  0.00401359  0.02474711]
layer 5 Activation
tanh
layer 6 Dense
20 1
[-0.03350572]
[0.03703934]
[0.2941765]
[-0.24496724]
[-0.12001526]
[-0.22546132]
[0.06761765]
[0.03266687]
[-0.19995977]
[0.14115041]
[0.00124098]
[-0.07628985]
[0.14249218]
[-0.12122862]
[0.1734724]
[0.00358675]
[0.04613546]
[0.05529823]
[-0.02350699]
[0.19016561]
[0.01060485]
