layers 7
layer 0 Dense
20 20
[ 0.17956477 -0.03046725  0.14917186  0.4279078   0.17927444  0.08130909
  0.1719699  -0.09400362 -0.16330937 -0.09607873 -0.52822405 -0.19557272
 -0.20777228  0.42350864 -0.19582832 -0.27971888 -0.19599134  0.20000668
  0.4733444   0.3092285 ]
[ 0.20333278  0.02480838 -1.008166   -0.04378811 -0.3260566   0.44959176
 -0.555025    0.83781517 -0.14961687  0.42927164 -0.31123012 -0.38401836
 -0.07998068 -0.18302809 -0.1633087  -0.31546816  0.06060447  0.25441116
 -1.0130994   0.27973834]
[-0.09495205  0.23376307 -1.1017873   0.35185677 -0.74289703  0.0117948
 -0.54362786  0.6622239  -0.19461499  0.58303386 -0.33894897 -0.56766725
 -0.79814863  0.17458758  0.47324827 -0.07224835 -0.0702339   0.08802133
 -0.8580406   0.05898689]
[ 0.31471756  0.30907875 -0.13132235  0.14218092 -0.07484434 -0.12388682
  0.3725701   0.33318788 -0.22419535  0.04003026 -0.49433765 -0.2165795
  0.00378024 -0.10325024 -0.13507213 -0.28268653  0.20769422 -0.17010206
  0.46533597  0.12886661]
[ 0.01969052  0.47726315  0.04946278  0.11932544 -0.62411755  0.67901844
 -0.2734307  -0.43002164  0.26174402  0.27473593  0.07919017  0.21126723
  0.38969484  0.03979098  0.43566048  0.06550322 -0.4379808   0.20132518
  0.28470844  0.33872327]
[ 0.21124518  0.06337164  1.1058891   0.17577535  0.4928707  -0.27262813
  0.34874246 -0.50424004  0.75832814 -0.11933116  0.51663786  0.39941564
  0.36396524  0.6372792   0.21164733  0.54790807 -0.43837643 -0.40403998
  1.0010649  -0.18239202]
[ 0.28498527  0.27736774  1.3795409  -0.2481578   0.4361247  -0.4416282
  0.83705306 -0.6585357   0.13501896 -0.7084398   0.28974396  0.28557262
  0.8117814   0.5903237   0.02870675  0.71643144 -0.17270462 -0.8554443
  1.2257142  -0.14651759]
[-0.16355903 -0.16771302 -0.30918646 -0.42119125  0.3168409   0.66292024
 -0.3023325  -0.24502707  0.11979178 -0.8171802   0.62502867 -0.17405117
  0.10503158 -0.06330547 -0.08043209 -0.15408961  0.24758165  0.8383167
 -0.43982303 -0.04260045]
[-0.11995049  0.22748476  0.6867266  -0.6162836  -0.5642517   0.25220028
 -0.47204784 -0.3637764  -0.08492365 -0.06780374 -0.16191973 -0.1765772
 -0.3170152   0.5146783  -0.02662802 -0.03328142  0.30123863  0.8396031
  0.39696854 -0.36628538]
[ 4.1391823e-01  2.1129523e-01 -3.1741023e-01 -4.1320404e-01
  2.3476276e-01  2.0538019e-01 -9.4215968e-05  5.5033070e-01
 -1.8911423e-01 -1.6997916e-01  5.4101411e-02 -5.2650906e-02
 -9.0971231e-02 -5.1205552e-01 -1.8481277e-01  1.0689644e+00
  2.6723498e-01 -7.1360908e-02 -1.1504813e+00 -4.5591292e-01]
[ 0.37267658 -0.1956196   0.14536738 -0.11611591 -0.27681404 -0.17023583
  0.96474713  0.24125867 -0.18736249 -0.39070225 -0.20658533 -0.2583398
 -0.17117251  0.12969962  0.0242489   0.79692394 -1.0149643  -0.07531834
 -0.507688   -0.39330816]
[-0.31092942 -0.26048106  0.16100615 -0.41297266  0.00391917 -0.7575653
 -0.910497    0.36269853  0.00725395 -0.58849144 -0.62689924 -0.2111592
  0.45233646 -0.40850985 -0.41461286  0.4784573   0.0931969   0.1339118
 -0.61130995 -0.6605972 ]
[-0.19868203 -0.12542807 -0.9319255   0.37718785  0.19555734  0.99527776
 -0.26911554 -0.4672874   0.0900232  -0.5935076   0.3493039  -0.20709197
  0.401896   -0.06410436  0.25087395 -1.0378534  -0.4105119  -0.46055323
  0.79730195  0.77179986]
[-0.65943754 -0.5698257   1.4173855   0.10956024  0.33229247  0.6065148
 -0.13211519 -1.1313871   1.0912688   0.89483565  0.43222982  0.70749724
 -0.4704265   0.01821291  0.729939   -0.8651069   0.20690879 -0.72369224
  0.09351441  0.7437544 ]
[ 1.3884612   0.7621386  -0.8676154  -0.00636534 -0.93641883 -0.9300999
 -0.15284899  1.5184898  -0.66062266  0.5519885  -0.44893143 -0.55251634
 -0.54195553 -0.8144759  -0.74220556  1.155838   -0.47305298 -0.21761936
  0.19148177  0.63625956]
[-0.11720126  0.6295888  -0.84857047  0.14333566  0.32817715  1.0751115
  0.80446684 -0.6959659   0.05992693 -0.96257603  0.55839163  0.37582105
 -0.43856555  0.6158279   0.8104419  -1.0097733  -0.09900194 -0.97053194
  1.4973643   0.11604257]
[-0.0549885   0.28825566  0.3051406  -0.06498561  0.12560353  0.17177227
 -0.0728404   0.16005096  0.39346617  0.55665725 -0.44597194 -0.28014538
 -0.17015561 -0.0035869  -0.46671015  0.08440352  0.36738232  1.5485361
  0.3579228   1.2742827 ]
[ 1.0064046   0.6737099  -1.1663903  -0.41001987 -0.912175   -2.7496667
 -0.5459089   1.169272   -1.2870753  -1.7742854   0.03049405 -0.27529168
  0.03496747  0.45173344 -0.866909   -0.13499281  0.04808605  1.6689348
  1.3979005   0.5954965 ]
[-1.1341654  -0.90078217 -0.04110696  0.15918289  1.002476    1.0354593
 -0.7293102  -1.3696696   1.202248    0.25418565 -0.0807872   0.9760195
  0.71753496  0.42157528  0.7636531  -1.2749672   0.7437464  -0.29283863
  0.05513399  0.01197235]
[ 0.08154743 -0.87364554 -0.4892685  -0.31668526  0.12990317 -0.0503361
  0.01833354  0.16159211  0.25624737  0.19048497  0.02299348  0.27576277
 -0.4784414  -0.1501171  -0.4931897  -0.32376006  0.742976    1.2741207
 -0.1224345   0.24467334]
[ 0.07665949  0.2624895  -0.09357172  0.22401412 -0.11157186 -0.41103336
  0.1656014  -0.02758514 -0.15199074  0.15073182 -0.09271315 -0.146333
  0.06603345  0.05768232 -0.03063592  0.06016819 -0.12409853 -0.4273044
  0.00533434  0.02270974]
layer 1 Activation
tanh
layer 2 Dense
20 40
[ 9.24177095e-02 -3.28233317e-02 -9.98887196e-02 -2.02768058e-01
 -1.60428986e-01  1.61468849e-01  1.03151605e-01  4.50109243e-01
  3.87753509e-02 -4.73097898e-03  1.13550179e-01  1.33070230e-01
  1.74720705e-01  9.73194391e-02 -1.16310706e-02  1.46697879e-01
 -6.55993000e-02 -2.48562079e-02  2.31901422e-01  2.79564653e-02
 -3.13252151e-01 -6.91363141e-02 -1.61559656e-01  1.96241409e-01
  8.12100992e-02 -2.89529473e-01 -2.07472548e-01  7.16275498e-02
 -1.96516477e-02  5.36876082e-01  1.17180012e-01 -2.27837220e-01
  3.72014016e-01  1.33229987e-04 -1.37500718e-01 -1.30992243e-02
  4.09655303e-01  1.16165981e-01 -1.22817472e-01  3.28221023e-02]
[-0.32188272 -0.29280388 -0.3396708  -0.68137467  0.10886497 -0.07175175
 -0.44165054  0.37848842  0.04333251 -0.05896891  0.08662824  0.12586762
 -0.35860574 -0.03979501 -0.360958    0.09947624  0.14847338  0.32480213
 -0.11097863 -0.17271492 -0.06232494  0.03478188  0.13469766  0.36373433
  0.0449165  -0.15761392  0.05594249 -0.16314167 -0.06219348  0.34582928
 -0.17791791  0.24376813  0.18032563  0.22152273 -0.21987341 -0.25360575
  0.22721423 -0.15191832 -0.1574822   0.51053697]
[ 0.38653773  0.26735055  0.10157898  0.6920536   0.10433728 -0.39226848
 -0.1444954   0.21003394  0.2903198   0.11953363  0.04930557  0.08982818
  0.061569    0.11626139  0.04488695  0.2310629   0.120188   -0.18613303
 -0.25580302 -0.41441807 -0.2590568   0.37854436  0.44843423 -0.92910427
  0.15597512  0.31664565 -0.58899754 -0.259046   -0.00895205 -0.7499821
 -0.28139198 -0.25392568 -0.5546169   0.23743236 -0.6447721   0.30043867
 -0.07544912  0.02788189  0.23263733  0.30302963]
[ 0.47426865  0.05342452  0.21601492  0.08602101  0.16437347 -0.08750675
  0.15191425 -0.12871891 -0.5201467  -0.16784082  0.02281759  0.42954022
  0.23224291  0.25695983 -0.01754039 -0.2335138  -0.23404305  0.05633999
 -0.46824786 -0.44890925  0.188993    0.090663   -0.17415681 -0.0617874
  0.06573     0.14103052 -0.19793236 -0.1344391   0.06316042 -0.34116474
 -0.24179168 -0.37069097 -0.1865244  -0.19770354 -0.0131478   0.19053699
  0.21742958 -0.23942108  0.48132288 -0.037465  ]
[-0.20972003  0.02940074  0.01091245  0.38611504  0.41001496  0.09922843
  0.1819972  -0.10119227 -0.29846328 -0.03237985  0.10765652  0.0683651
  0.15245041  0.04544238 -0.39265066  0.0863227   0.0566183   0.15219405
 -0.14676048 -0.36216214 -0.00883315  0.7701538  -0.01212254 -0.4568911
  0.02713293  0.36916822 -0.11248609  0.19914033 -0.05159336 -0.20206547
  0.01449264  0.07640988  0.19345666 -0.28185675  0.02163817 -0.32554767
 -0.2640441  -0.15131289  0.03270594  0.28051504]
[-0.03083745  0.2720586  -0.13900225  0.97204334  0.5362464   0.16457425
  0.3017236  -0.44362327  0.43706182 -0.55376536 -0.8000235   0.04207664
 -0.12243421  0.14721076  0.18566647  0.30573714 -0.02900182 -0.29113296
  0.19834426  0.03304153 -0.3880989   0.20677258  0.9962283  -0.7816259
 -0.16164415  0.74867177 -0.10660367 -0.2640156   0.16992792 -1.1359109
 -0.16174741  0.20284957 -0.83497006 -0.21080305 -0.43038216 -0.25169542
 -0.40857977  0.5638361  -0.12040769  0.7952232 ]
[-0.12131998 -0.27137354 -0.12549281 -0.11893643 -0.17512842 -0.17012061
  0.39924347  0.07217626 -0.18897921  0.14674798  0.25695086 -0.01024124
  0.00432147 -0.18608068 -0.4196386   0.03795972  0.09550258  0.2609718
 -0.37600645 -0.3994863   0.32914314  0.14163065 -0.21836542  0.08034024
  0.20265087 -0.33490354 -0.08145012  0.70934093 -0.02596748 -0.29114845
  0.29348013 -0.00798608  0.03433729  0.03223597  0.0243097   0.06268031
  0.218165   -0.1667155  -0.01447982 -0.2676209 ]
[-0.18957675 -0.07690799 -0.45017415 -0.64737415 -0.31225002 -0.10148395
 -0.09624267  0.28653458  0.2593636   0.13019846  0.17690574 -0.1670091
  0.09342466 -0.17533816 -0.1442611   0.13887794  0.10563546  0.14291686
  0.25538558  0.01431234  0.01730081  0.00380699 -0.0504742   0.32173824
  0.10053436 -0.47629005  0.37691534  0.6298022   0.29135504  0.49507463
  0.48337436  0.11041829  0.48578072 -0.02978778 -0.23210731 -0.13044547
  0.79895216 -0.3390896  -0.19280508  0.06797635]
[-0.13444668  0.22125068  0.20258376  0.4948732   0.5740097  -0.08791073
  0.2789964  -0.01317722  0.16637465 -0.05808558 -0.48853463  0.04247199
  0.25488994 -0.1100617   0.05034032  0.17877325 -0.09947773 -0.10509733
  0.55236894 -0.03172292 -0.13457619  0.1403181   0.04649159  0.01943701
 -0.20043752  0.6441627   0.00701525 -0.39688388 -0.0112493  -0.26078266
 -0.5677958  -0.26116377 -0.24013922 -0.16363281  0.03001158 -0.05251869
 -0.39385656  0.19727547  0.2460179   0.5231433 ]
[ 0.02776426 -0.10920874  0.5502889  -0.036484   -0.02687921 -0.12725137
 -0.05644847 -0.05142775 -0.25122327 -0.15020435 -0.05672421  0.15332277
  0.16998164  0.12682022 -0.03950334 -0.3218421   0.01145386 -0.24029471
  0.14212885 -0.12240883  0.45560187 -0.06456866 -0.6806824   0.15735388
 -0.14567699  0.20326094  0.28135937 -0.67669624 -0.338696    0.5043536
 -0.419575   -0.00599019  0.41601023 -0.25389037 -0.3306814  -0.02342379
 -0.55812424  0.00657336  0.07103758  0.28811562]
[ 0.3060541  -0.03506353 -0.56227505  0.06207966 -0.18678756 -0.34037355
  0.36025244  0.35032022  0.17778061  0.02140491 -0.10949329  0.01680526
 -0.06505994  0.19811176  0.26841736  0.37450418 -0.03667102 -0.19269826
  0.45339453  0.5884422  -0.24055997  0.24103937  0.58436847 -0.2553299
 -0.11889349  0.20088214 -0.15808631 -0.19552846  0.7210544  -0.15819027
  0.18186063 -0.09279693 -0.38563132  0.28714195 -0.38653514  0.11935162
 -0.20194758  0.69998693  0.19492856 -0.15468071]
[ 0.33294567  0.21415097 -0.03539402  0.6352097  -0.12645656 -0.35090673
  0.09084518 -0.13374439  0.3490667  -0.23077954  0.20096883 -0.01293706
 -0.08386043  0.14519331 -0.03877657  0.09456973 -0.08547126 -0.00512164
  0.11232114  0.11303359 -0.18783799  0.32220042  0.23459132 -0.08215252
 -0.07694314  0.23441845 -0.2077225  -0.33694798  0.34654266 -0.50721586
 -0.14113256  0.12158493 -0.6091667  -0.36661255 -0.17771074  0.06929821
 -0.19070384  0.31768912  0.05964783 -0.21771061]
[-0.25831246 -0.14945056  0.13876642  0.16326526  0.36390266 -0.24608438
  0.17346905 -0.11683128  0.10988945  0.00282996 -0.32446003  0.24928787
  0.02860797 -0.07105289  0.15743686 -0.05600687  0.18718658  0.07854687
  0.4216227   0.12938671 -0.28853133  0.02563213  0.04558812  0.10392468
  0.13506879  0.41087022  0.08208226 -0.53997076 -0.03695565  0.12160151
 -0.15047279 -0.07761366 -0.08492275 -0.14675184  0.16852637 -0.0156326
 -0.6305177   0.3516475   0.0996485  -0.20925374]
[ 0.06969257 -0.42035148 -0.22524981 -0.30200872  0.02380875  0.06387239
 -0.15058103  0.11011478  0.1043558   0.15173972  0.23476088 -0.04548732
  0.02541182 -0.38021567 -0.00197286  0.02413224 -0.15808256  0.29298174
 -0.15768994 -0.14478983 -0.14371878 -0.40187913 -0.30032215  0.3514694
  0.02432895  0.19785133  0.37220928 -0.28274906 -0.3313102  -0.07207027
 -0.09685183 -0.1404231   0.00262637 -0.20441814  0.2324519   0.08739033
 -0.39532924  0.09505101 -0.24288523 -0.4464225 ]
[-0.03937119  0.3537982   0.37242013  0.9314066   0.40553123 -0.6547672
  0.4246924  -0.11985886 -0.00203622 -0.20145732 -0.14059108  0.29624358
  0.06455561  0.05352979 -0.11609302 -0.14782533  0.04115802 -0.01340784
 -0.48442438 -0.22184125 -0.0743455   0.13410196  0.159352   -0.27285263
  0.24345358  0.41546804  0.09128786 -0.35037413  0.08354902 -0.63306063
 -0.4083676  -0.03585516 -0.89515096  0.03552417 -0.11239513  0.22620626
 -0.77370965  0.4120903  -0.09468331  0.11285859]
[-0.05069795 -0.35901973 -0.6671427  -0.35444373 -0.70667684  0.25850883
 -0.5093952   0.41786     0.18115972  0.3638198  -0.23051333 -0.33764917
 -0.30220807  0.12275563  0.39363968  0.02254979  0.0161039  -0.43571794
 -0.11280895 -0.09899998  0.13733259  0.88721     0.15227129  0.5027797
 -0.13650401 -0.9942184   0.38880798  1.0776473   0.3472932  -0.02212675
  1.5089475   0.4718467   0.20277576  0.54725945 -0.5716456  -0.01140077
  0.91464573  0.05335162 -0.47859854  0.4451589 ]
[-0.02595477  0.00996187  0.2782517   0.42091605 -0.07110588 -0.06162707
 -0.11870966  0.2648325   0.01189664  0.10394976  0.26866192  0.12960206
 -0.2628508   0.00057473  0.22248565 -0.07967645  0.16107345  0.19102518
 -0.19058707 -0.12157813  0.01088939  0.2270854   0.3148989  -0.4109224
  0.2817557  -0.03795131  0.10393211  0.45241326  0.0418657  -0.24130374
  0.13691296 -0.06109305 -0.20227991  0.25424358 -0.14642107 -0.02867496
  0.13345304 -0.02278394  0.00097059 -0.0965275 ]
[ 0.7550576  -0.02713624 -0.5588816   0.49083477 -0.21097714 -0.03086855
  0.40168914  0.10828038  0.1612741  -0.3378893  -0.09359239  0.13549405
 -0.11125481  0.25877503  0.28493378  0.00451792  0.09243176  0.5466763
  0.18175405  0.39926335  0.04205234  0.19559576  1.0389417  -0.17181902
 -0.16629013 -0.28057578  0.19469093  0.8897605   0.9238137  -0.72924256
  0.8637584   0.309877   -0.33727217  0.03520468  0.5614499  -0.2136573
  0.41279033  0.15011477 -0.2667957  -0.26521477]
[ 0.7912293  -0.2097684  -0.2977679   0.32558176 -0.46449223  0.20202693
  0.24351877  0.5275974   0.20761935 -0.09595884  0.49056193  0.25106287
  0.10507397  0.01788585 -0.2492067   0.2752226  -0.1547664   0.99230343
 -0.30224803 -0.08882765 -0.3281558  -0.6472699   0.15536857 -0.23158978
 -0.23208845 -0.04405895 -0.07224786 -0.06360512 -0.19376461 -0.5050873
  0.4014196   0.15692556 -0.26665393  0.36153904 -0.1868865  -0.4439701
  0.09169326 -0.04466093  0.05570491  0.16698731]
[ 0.431359    0.04852802  0.32463375 -0.5178151  -0.27568793  0.3997798
 -0.04636903  0.26945147  0.21079409 -0.20881593 -0.123889    0.20298854
  0.2380852   0.06487503 -0.28755063 -0.10082766  0.11291025 -0.14463502
  0.27453053 -0.12862569 -0.11716318 -0.85913956 -0.22121342  0.06371358
  0.18790488 -0.13251191 -0.11701208 -0.11880858 -0.11049327  0.0953538
 -0.1260218   0.23289461  0.20746595 -0.1593421   0.28322792 -0.01556138
  0.11451064 -0.04782737  0.35080534  0.08018606]
[-0.06935598 -0.14478417  0.22813591 -0.21121936  0.23531625  0.12061565
  0.0833022   0.07854962 -0.4771688   0.135197    0.31702554 -0.03350696
  0.11028278 -0.05145162 -0.28535634 -0.1675836  -0.08074185  0.19623166
 -0.88777983 -0.6143248   0.09712998  0.07251596 -0.34446755  0.18075538
  0.01856532 -0.21383283  0.03727667  0.0741135  -0.45332998  0.05624382
 -0.23322605 -0.01983888  0.32138357 -0.00528363  0.01846077 -0.08323396
  0.12997371 -0.35498565 -0.05542784  0.22023536]
layer 3 Activation
tanh
layer 4 Dense
40 20
[ 0.06628478 -0.23644583  0.2723904  -0.11719829 -0.18625498  0.05453218
  0.00061063  0.03154659  0.12646393 -0.0734515  -0.48398507  0.1056172
  0.27992404 -0.05431642 -0.4767479  -0.09773491 -0.15633565  0.03692814
 -0.283211   -0.14666824]
[-0.04598315 -0.1634931   0.02306129  0.1358574  -0.20926952  0.00374601
 -0.1967899  -0.13977641 -0.27970752 -0.13753551 -0.31181517  0.10055888
 -0.03805489  0.3665066  -0.22863543 -0.05110603  0.18556488 -0.13067447
  0.06373493  0.10089004]
[ 0.13507877 -0.4302755   0.20685273 -0.02709988  0.24227704 -0.17531335
  0.02881652 -0.26689908 -0.57188255  0.25967416 -0.37697738 -0.17072213
 -0.1954596  -0.04596781  0.88390505  0.12882486 -0.07145929 -0.00140499
  0.09075384 -0.10716216]
[-0.03859147 -0.20051728  0.05761414  0.11671687 -0.615475    0.19705488
 -0.31782225  0.2877699  -0.24146913 -0.10398943 -0.61596847  0.07875843
 -0.43021736 -0.29628867 -0.33335853  0.31649828  0.02843281  0.03672777
  0.24234253  0.23914333]
[ 0.0060367  -0.09944795 -0.07241108 -0.11951016  0.1476456   0.0665418
 -0.11419334  0.17703374 -0.47855645  0.09723091 -0.27191472 -0.12177495
 -0.13318501  0.20763229  0.25557467 -0.3289628   0.06847701 -0.25864735
 -0.13527086 -0.02274914]
[-0.1045374   0.21282099  0.04620411 -0.0798013   0.24471998  0.48470554
  0.0935292   0.10213075 -0.16817792 -0.04350358 -0.07820081  0.16423331
  0.12631257 -0.17786601  0.32666945  0.00737144 -0.12355687 -0.2658801
 -0.03712171  0.17772931]
[ 0.07804349 -0.5135163  -0.04341728 -0.249447   -0.3677962   0.11682701
 -0.0982212  -0.33916238 -0.06207924  0.19330165 -0.04438623  0.01618142
  0.01393993 -0.2116426  -0.16821845 -0.14999388  0.05755369 -0.22967021
  0.1361949   0.11088765]
[-0.1813544   0.22294222  0.2023495   0.09257273  0.45824027  0.18152319
  0.01883586  0.16544928  0.39242902 -0.18058668  0.2596502   0.09437414
  0.19780134 -0.16270187 -0.14557104  0.2708198   0.03963573 -0.08842067
  0.02484516 -0.25676465]
[-0.50870836 -0.00851471  0.1363662   0.04874903 -0.09429685  0.05877677
 -0.155274    0.0134448  -0.03923469 -0.28359717 -0.2779956  -0.03729561
 -0.11601284 -0.17201221 -0.39710715 -0.14468977 -0.08178053  0.07902062
 -0.09765663 -0.20151208]
[ 0.08545668  0.340372    0.18483694  0.10535596  0.16276163  0.04579661
  0.34259835  0.30400744  0.5856616   0.31518432  0.6406874   0.13566852
 -0.00380434 -0.13736886  0.06271794  0.17546324  0.00207599  0.21491751
 -0.01223574 -0.14554308]
[-0.1563239   0.33153027  0.03657749  0.18169014  0.00133722  0.13867176
 -0.11413002  0.08739439  0.19595234  0.18304656  0.2784649  -0.22707804
  0.3107393  -0.33288544  0.21965627  0.42952797  0.02943539 -0.22233853
 -0.18159403  0.23393956]
[ 0.23954138 -0.1668422  -0.18138452 -0.12184336 -0.13651629 -0.23171936
 -0.07075146 -0.01443198 -0.45802355 -0.01660175 -0.66978395 -0.02879391
 -0.13045818  0.30170834 -0.1335972  -0.16291615  0.17784756 -0.05371382
 -0.11989198 -0.1275309 ]
[ 0.2801632  -0.19542225  0.00774667 -0.14317709  0.00891564 -0.1133218
 -0.11641498  0.26725778 -0.31018376  0.14328212 -0.20143875  0.12160283
  0.03903802  0.3549782  -0.03452604 -0.00463874  0.00858911 -0.15924595
  0.18564115 -0.09153597]
[-0.14654759 -0.14198808  0.0068115   0.04022017 -0.08420617  0.05206637
 -0.10328664  0.19992511 -0.28719202 -0.02591611 -0.6697727  -0.04268389
  0.09987672 -0.11995867 -0.08094673 -0.13797934  0.33685943 -0.11372603
 -0.19421291 -0.03017822]
[-0.20036365 -0.09037309 -0.11378248 -0.19148998  0.02054482 -0.02890852
 -0.04516333  0.00679811  0.25853172  0.10226022  0.10362647  0.22289295
 -0.04451113  0.20241241 -0.50800085 -0.2579964  -0.06113266 -0.06774533
  0.0375136  -0.11730629]
[-0.19080126  0.00266253  0.24315053  0.04048585 -0.00700883 -0.0232434
 -0.17537327  0.25706255  0.04729351  0.05290264 -0.11492518 -0.23921594
  0.12414362 -0.05596582 -0.08040793  0.00542034 -0.10552236 -0.01364492
  0.05026851 -0.27791938]
[-0.07450622  0.12846561  0.13833144 -0.0024033   0.09055643 -0.04510048
 -0.01009828  0.23850529 -0.32026613  0.10781078 -0.38983843  0.11219178
  0.01811223 -0.24528101 -0.11556297  0.06494571  0.08684876 -0.03578358
 -0.26583004  0.15104324]
[ 9.3794493e-03  6.0372877e-01 -5.5829968e-02 -1.8551651e-01
 -4.9548376e-01 -2.3533490e-01 -2.8919592e-01 -9.4782434e-02
  1.6186619e-05 -1.4279234e-01 -1.3087821e-01  1.6030963e-01
  4.4059584e-01 -2.2705987e-01  1.6961744e-01  3.5851496e-01
 -1.1206987e-02 -1.6800167e-01  1.6309043e-02 -1.1709854e-01]
[-0.11966049 -0.36665598  0.05924572 -0.35149464  0.10282122 -0.21958569
  0.137964   -0.017396   -0.05608122 -0.22435671 -0.3130375   0.02548979
 -0.2721367  -0.07191364 -0.70764166 -0.34571996 -0.19452806 -0.11862718
 -0.02853998 -0.0049767 ]
[-0.24152227 -0.3552359  -0.11150439 -0.07266323  0.24520013 -0.08352811
 -0.07217833 -0.16469124  0.23784402  0.01287115  0.2938727  -0.03297526
 -0.36314437  0.13436237 -0.56412005 -0.36144876  0.12604605  0.11552358
 -0.19933233  0.26807266]
[ 0.07408404 -0.13779579 -0.02427639 -0.1244879   0.0453325  -0.19875807
  0.36216968  0.04957722  0.26880547  0.12600982  0.19145875 -0.11824962
  0.1948957  -0.40524966  0.10404821  0.1292126   0.10670552 -0.03458961
  0.02272774  0.16339758]
[-0.07913364  0.3870538   0.00736045  0.06891216 -0.690174   -0.33956268
 -0.41939223  0.3237525  -0.10684197  0.20568866  0.01015603  0.07534035
  0.02289445 -0.15878844 -0.39611694  0.14161962 -0.14800876 -0.03501673
  0.08260924 -0.39865384]
[-0.324458   -0.05395056  0.13684098  0.3473197  -0.43808815  0.06554453
 -0.3856628   0.19038598 -0.39786416  0.03660202 -0.2632661   0.24080794
 -0.10769197 -0.1677878  -0.59677905 -0.10842104 -0.05808047  0.08040012
 -0.05393149 -0.21929663]
[-0.00480056  0.23849185  0.12517124  0.04261529  0.04000255 -0.13701913
  0.3281688   0.12526587  0.4059443  -0.04635928  0.83670217 -0.04338793
  0.18549496 -0.23155414  0.19300413 -0.12502119 -0.09721358 -0.06554709
 -0.20595954 -0.01569582]
[ 0.19197743 -0.03221644  0.06947768 -0.16195673  0.05637152 -0.09916617
  0.13454972 -0.13704579  0.5008211   0.13052708  0.16862078  0.15002461
 -0.08499252  0.20465954 -0.1564051  -0.04487069 -0.08287288 -0.10471223
  0.07940067  0.04498955]
[ 0.10957754 -0.38711086 -0.12297792 -0.30192944 -0.40948933  0.11116057
 -0.3627225   0.2046114  -0.6303346   0.06407076 -0.26216975 -0.05417692
 -0.48874807  0.18628341  0.03091143 -0.3262666  -0.15557556 -0.20690714
  0.00849412  0.20521876]
[-0.00391376  0.03904368  0.10682756 -0.33819613 -0.0444351  -0.04391373
  0.33688194 -0.18485904 -0.02453911  0.18485604  0.3049872  -0.06418632
  0.05181762 -0.4161769  -0.00068173 -0.00426227  0.11436075  0.01908266
 -0.3823932   0.02773971]
[-0.05825246  0.41268206  0.0407841   0.03181925  0.49985623  0.00631087
  0.31080118 -0.25947666  0.56145555 -0.19768089  0.11768571  0.32804042
  0.1957263  -0.34120193 -0.20658211 -0.3005914   0.2160865   0.08383532
  0.31006768  0.2644299 ]
[-0.30007386 -0.08294816  0.15827532 -0.15755892 -0.26892424 -0.17664556
 -0.10902418 -0.08925576  0.25500688 -0.16014291  0.17853609 -0.12996058
  0.06322198 -0.42368868 -0.46854076 -0.3651407  -0.03384195 -0.05599423
 -0.27032563 -0.12038706]
[ 0.26744854  0.47018623  0.13828044  0.06065132  0.63866496  0.11389897
  0.2488039   0.21549666  0.23373026  0.00914863  0.6733229   0.19263189
  0.42239344  0.1880075   0.6729268  -0.17919463  0.05844325 -0.12576324
 -0.05033825  0.09146376]
[-0.00933109  0.3723153  -0.01736872 -0.05381303 -0.13531636  0.2682819
  0.3087408   0.03763521  0.3633962  -0.10784238 -0.15189928 -0.15218914
  0.2330412  -0.44084516 -0.48963994 -0.14386542 -0.0016742   0.1368189
  0.08605084  0.1582274 ]
[-0.2157038   0.13365242 -0.07338956  0.138776    0.19461054 -0.07878126
 -0.02179713 -0.23911153  0.06973683  0.02231435 -0.06974524 -0.12829281
  0.18039262 -0.13878824 -0.12601213 -0.13579443 -0.08710445  0.01120483
 -0.2864983   0.04902251]
[ 0.35882413  0.28311098 -0.3092411   0.01162798  0.7251476   0.11696793
  0.17101207  0.04674465  0.39614397 -0.08622682  0.34108648  0.01384869
  0.1912241  -0.01434816  0.6103774  -0.11555592  0.05411679  0.13834909
  0.11354022 -0.14546655]
[-0.10198819  0.22469425  0.00239359  0.0416244   0.1878509   0.19200587
  0.15121536 -0.04862392  0.38743305 -0.27365953  0.29646316 -0.05172854
  0.20866236  0.1326874  -0.23446506 -0.11639254 -0.15529205  0.1869582
 -0.13824856  0.22208592]
[-0.2800714  -0.0331707   0.24469727 -0.02456269 -0.03846035  0.27254105
  0.16625997  0.0005534   0.26002324 -0.02090825  0.37143466 -0.03707958
 -0.24629264  0.19111077  0.13293976 -0.29323742  0.01079722 -0.06816677
 -0.10068856  0.05224899]
[ 0.10098018 -0.01567503  0.1994049   0.04429924  0.03786126  0.11197469
  0.01657756  0.39247364  0.19754319 -0.01557627  0.47385237 -0.02536661
 -0.02978498  0.13944729 -0.08142218  0.20048244  0.29530245  0.24945444
  0.2613348  -0.03683029]
[-0.07136282  0.21586506 -0.13861147 -0.09562022  0.62786734  0.00969174
  0.36223713  0.05433897  0.64076513 -0.130746    0.15302816 -0.01900943
  0.47428432 -0.17471318 -0.3089674  -0.08302538 -0.17372479 -0.25621846
  0.12294701 -0.02339993]
[-0.35118732 -0.16386028 -0.10698356  0.1168455  -0.33365157 -0.23990001
 -0.2914657   0.14421535 -0.30696815  0.01165939 -0.09006508 -0.05170924
 -0.21650483  0.10670215 -0.3832415  -0.2501416   0.1561581   0.04392001
  0.07896969  0.251172  ]
[ 0.11103835 -0.18353261 -0.21302892 -0.06855325 -0.1136662  -0.1087848
 -0.14418998 -0.06312526 -0.39656624 -0.0429124  -0.02437641  0.11384668
 -0.21977733  0.33136964  0.1662999   0.06736472 -0.00249449 -0.07022689
  0.33282676  0.02417571]
[ 0.03635652  0.21221843  0.089505    0.25386292 -0.07607679  0.02706699
 -0.65261585  0.0403128  -0.51021105  0.0785892  -0.34100318 -0.01225046
  0.07142624 -0.22213991  0.08457347  0.03378957  0.03881972 -0.27912506
  0.02073106  0.0199082 ]
[ 0.11848561  0.1886232   0.03315038  0.00707579 -0.1854454   0.11127061
 -0.11198711  0.15099742 -0.21108168  0.06918765  0.06896834 -0.09811587
  0.2402792  -0.04955294  0.7281084   0.21125057  0.01356867 -0.02488944
  0.0541628  -0.03610947]
layer 5 Activation
tanh
layer 6 Dense
20 1
[-0.0248768]
[0.10568517]
[-0.00479418]
[2.8847484e-05]
[-0.1297635]
[-0.002195]
[-0.11230657]
[0.00041149]
[0.01886405]
[-0.00931591]
[0.01343009]
[-0.00941751]
[0.10593363]
[-0.00257457]
[-0.30977365]
[0.10771179]
[-0.00190936]
[-0.02120398]
[-0.02026192]
[-0.01496747]
[0.24813846]
