layers 7
layer 0 Dense
20 20
[ 0.21837437  0.40293315  0.07831266 -0.2965552  -0.63066185  0.2140156
 -0.15276344 -0.27311876  0.03594561  0.11555389 -0.33961433 -0.78756917
  0.34147137 -0.15577136  0.11814299 -0.28526482  0.4423304   0.05055214
  0.19247308  0.03205102]
[-0.13220662 -0.31367785 -0.05552647 -0.3769101   0.10764831  0.14407903
 -0.08627576 -0.35978433 -0.18607995 -0.05803227 -0.07328412  0.29453015
  0.31524897  0.07606953 -0.37999773 -0.15045774  0.27096313  0.15767914
 -0.14897071 -0.09901783]
[ 0.30448568  0.2666682  -0.35620075  0.17350078 -0.35191584 -0.07713217
  0.2885294  -0.12316829  0.3556658  -0.33050257 -0.05259711  0.12802368
 -0.1813243   0.27586913  0.31009823 -0.32823077  0.20194614 -0.28490496
 -0.1337918   0.21827471]
[ 0.5141783   0.47517964 -0.3541789  -0.00775758 -0.65930015  0.13682783
  0.06117588  0.37773126 -0.08950983  0.0657118   0.03207456 -0.14527161
  0.13068534 -0.4677277  -0.26313502 -0.35257378  0.6772071  -0.2062041
  0.05606465 -0.048946  ]
[ 0.6933483   0.31906468 -0.26331106  0.09715832 -0.30431837  0.08099053
 -1.187408   -0.23134075  0.25120294 -0.06379135  0.08824301 -0.14201452
  0.8933262  -1.1081085  -0.12868637  0.1584586   0.29054466 -0.0431894
  0.09887988  0.28825784]
[ 0.3220604   0.27050996  0.2661581  -0.04676968 -0.24289039  0.18963242
 -0.23999962 -0.08549264  0.17655784 -0.33486116  0.342301   -0.21491228
  0.06785494 -0.24506433 -0.07202515 -0.04952368 -0.27312046  0.09638947
 -0.24396051  0.01357707]
[-0.00087869 -0.12465468 -0.0371832   0.3294537   0.20453614 -0.19825329
  0.03014106 -0.30735087  0.23496753 -0.33915034 -0.17871812 -0.34075427
 -0.24039982  0.3200519  -0.10759014 -0.20659189  0.37080342 -0.22061469
 -0.36344483  0.267125  ]
[-0.35814828 -0.6934038  -0.04750674  0.4488988   0.70734566 -0.06349032
 -0.12985775 -0.56722116  0.1637255   0.6421742   0.45117778  0.8767758
 -0.44524562  0.9611635  -0.07357494  0.13766    -1.0244536   0.5466019
 -0.2788638  -0.12857339]
[ 2.027222    0.28474867 -0.37480795  0.65278715 -0.98356146 -0.5895678
 -1.0970565  -0.6555119   0.66175896  0.21454126  0.8004924   0.02265041
 -0.33852574 -0.55638707 -0.4452277  -0.7970348   0.46032804 -0.30027965
  0.12103517 -0.4427941 ]
[ 0.19477032  0.32227758 -0.8290046   0.30471337  0.06958352  0.2377556
 -0.00971023 -0.08262858 -0.1470346   0.01436498 -0.6844941   0.05081711
  0.30208036  0.20914856 -0.07315871  0.10233446  0.06110464 -0.01016689
  0.26210895  0.63035554]
[ 0.08473304  0.05042791  0.45398784  0.62035435 -0.00907104 -0.21570398
  0.03928628  0.7375212   0.55906487 -0.20873992 -0.46220362 -0.14293814
  0.1074082  -0.12529914  0.34414193 -0.65067285  0.13434437  0.25577092
  0.09271369 -0.05980524]
[-3.563202   -1.2572263   1.5050464  -0.36207     1.6930828   0.7064293
  1.7168896   0.43914834 -1.1553569   1.554683   -0.40603238  1.1723937
 -0.114216    1.6617067   1.6873299   2.0591035  -1.950913    0.48334098
 -0.5251324   1.162623  ]
[-1.4253068   0.58443755  0.13627245  0.40920833  0.09516735  0.9255164
 -0.86765295 -0.54310715 -0.01766997  0.70822847  0.44535697 -0.902425
 -0.5492902  -0.6724979   0.65654767  0.3503209   0.3717438  -0.98106086
  1.009192   -0.18571496]
[ 0.21792725 -0.10326341 -0.45221525  0.23523408  0.00642055  0.79716486
  0.01730682 -0.12368597  0.00539424  0.0835041  -0.49043998  0.07369342
  0.2852748   0.11256027 -0.23728816  0.07780144  0.0776394   0.12170812
  0.63157046  0.5854178 ]
[ 0.04515696  0.2575521   0.07163317  0.48073685  0.0902503  -0.43474832
  0.01954669  0.6638669   0.47275537 -0.1875582  -0.2642655  -0.10417464
  0.07310925 -0.19728735  0.4613976  -0.41527733  0.09823424  0.92222613
  0.751772   -0.03169838]
[ 1.3917307  -2.0565927   0.31397924  0.06300201  0.32499602 -2.275004
  1.2444797   0.66675377  1.1569295  -0.00978436  0.01917839  2.1750958
  0.12345205  1.5090681  -0.9564815   0.5046816  -1.8350787   2.038254
 -2.208572    0.9189617 ]
[-0.6430683  -0.24135013  0.19031021 -0.3802348  -0.31501773 -0.11709236
 -0.3336291   0.79387176 -0.17096382  0.7067331  -0.31209934  0.10160798
  1.0836754   1.2107741  -0.0853352  -0.01658884 -0.06678072  0.30916038
 -0.34467158  0.03244051]
[ 0.16564335  0.15620801  0.9936778  -1.2939006   0.05600959 -1.1704478
 -0.07740477  0.59816176  0.87029856  0.20560871  1.4007475  -0.21053392
  0.25439957  0.15279187  0.8769709  -0.46015704  0.05046137 -0.04965991
 -0.7169178  -1.1212461 ]
[ 0.0817173   0.06988022 -0.9109776  -1.2211033   0.08255903  0.5258744
 -0.05564873 -1.4899757  -0.4682974  -0.18220147  1.4456298   0.13481748
  0.18498775  0.02381258 -0.21091203  1.1527556   0.28776017 -0.77673596
 -0.7122767   0.5300544 ]
[ 0.64585423  1.3166777  -1.1327182   0.36153162 -0.0477367   0.77973926
 -0.58616006 -0.56587017  0.06961084 -0.15585338  0.3993911  -1.3190506
 -1.3874681  -0.9750663  -0.10992899 -0.9589877   1.5464562  -0.9706104
  0.8819339  -0.79793334]
[ 0.41747817  0.3930954  -0.1396933  -0.1949831  -0.2763698  -0.04316097
  0.23514153  0.21268101 -0.0101489  -0.44845995 -0.14034498 -0.49297333
  0.06489727 -0.52563626 -0.09616835 -0.00928438  0.56095684 -0.16022715
  0.22542995 -0.06888425]
layer 1 Activation
tanh
layer 2 Dense
20 40
[ 0.02379637 -0.95372623 -0.5894831  -0.38679466  0.21598776  0.50946337
  0.97895426  0.17948408  0.29875562 -0.27651468  0.5810698   1.4456158
  0.68565553 -0.0146294  -0.20127569  0.00439876  0.18824622 -0.1443298
 -0.46921524 -0.49598786 -0.42051244  0.31525797  1.74662     0.1592354
 -0.20939061 -1.574929   -0.14656489 -0.2650844  -0.22884509 -0.96258503
 -0.89923996  1.9337361   0.63912904  0.01336128 -0.20052022 -0.11719204
 -0.6630127  -0.6474501   0.81244034  0.4007602 ]
[-0.39330775  0.35190248 -0.2251651  -0.12841661 -0.0048909   0.16137892
  0.33999234  0.20995334 -0.67024815  0.3187618  -0.3085762  -0.19073366
 -0.49835208  0.53820217 -0.38483074  0.43013942 -0.348929    0.37663653
 -0.33558473  0.10013033  0.18436925 -0.4781349   0.6049667   0.09492142
 -0.5654844   0.32945445 -0.56366885  1.5371107  -0.41779307 -0.59875345
 -0.33213323 -1.4715803  -0.37095973  0.23970175 -0.25913998  0.16309215
 -0.5705973   0.14888522  0.12752734 -0.52637273]
[-0.4204799  -0.00989825  0.29875156 -0.23146962 -0.7028225  -0.20266269
  0.50237083  0.00654927 -0.5593042  -0.5078092  -0.23940013 -0.32532918
  0.10858929 -0.34723517 -0.0830379  -0.5069768  -0.46779075 -1.1376755
 -1.0329611  -0.10045955 -0.09655192  0.99651724 -0.70778865 -0.73824537
 -0.60023886  0.3958256  -0.15920088 -0.25457945 -1.2611978   0.5388449
  0.3939743   0.5784625   0.01125686 -0.49452734 -0.33603507 -0.472497
  0.10669342 -1.6047555   0.6779791   0.60859036]
[ 0.36756137 -2.0239086   0.18809532  0.7051938  -0.8105649   0.12650694
 -0.38452244  1.6619393   0.04058864 -0.2901202  -0.9445542   0.44856918
  1.0216864   1.370841   -0.06089723 -1.6463714   2.3508704  -0.7885467
 -0.24750091  0.30426842  1.239909   -2.9517677   0.39847964  1.598595
  0.38200602 -0.28422797 -0.15928867  0.4945193  -0.8243684   0.88506424
  0.21780714 -0.60342234  0.05808869 -0.21627983 -0.1592582   1.69291
  0.34622526  0.06519148 -0.8025854  -1.7114488 ]
[ 0.2801971  -0.3269586  -0.01079862  0.9410823   0.11521554  0.05355995
 -1.3419945   0.48069334 -0.14564687  0.26769876 -0.13109294 -0.4045864
  0.16172057  0.08845557 -1.0549397  -0.3561108   0.11327961  0.6336523
  0.6308421   0.16131745  0.14032799 -0.06814177 -0.64302474  0.2799267
  0.09638865  0.30016646  0.4018993   0.6045312  -0.03879378  0.9635009
  0.35100138 -0.8068009  -0.3231431  -0.04694528  0.18984522 -0.06166472
  1.4085705   1.3694468  -1.1584237  -0.29907775]
[ 0.7762157   0.34606412 -0.2499637   0.5299852  -0.3090937   0.24433605
 -0.30611557 -0.10754995  0.5891591   0.806775    0.473584   -0.43005255
  0.21709466  0.15148085  0.74981743  0.2718674   0.90890014  0.05508855
  0.59151953  0.5109531  -0.05373203 -1.2842704  -0.1277145   0.78984576
 -0.87588596  0.6199832   0.3250176  -0.5167534   0.5966881  -0.44343734
  0.02552212  0.96491563 -0.03801309  0.42301786  0.30268905  0.8170131
  0.33934897 -0.52567697  0.20257394  0.16028038]
[-0.1430798  -0.20867106  0.5757107   0.01996929 -0.36330917 -0.01028737
  1.2464529   0.16935736  0.12776534 -0.22315745  0.39263865 -0.7092145
  0.4741332  -0.49310222 -0.00666587  0.13654028  0.10323978 -0.5989236
  0.20921814 -0.23178852 -0.5379772   0.33749065 -0.3131286  -0.30682287
  0.33862326 -0.01578987 -0.16577694 -0.02734756 -0.05465151  0.30707502
  0.35163668  0.80875623  0.4067723   0.14934188 -0.24027742 -0.36935002
 -0.9717805  -0.05743448  0.9912527   0.6822346 ]
[-1.0240066  -1.1769161   0.01439796 -0.32256272 -0.4269198   0.07763444
  0.33905602 -0.25954485  0.04525464 -1.2848387  -0.3352187  -0.37087455
 -0.0215674  -0.66922724  0.9835748  -0.695216   -1.0689921  -0.6416046
 -1.0750009   0.25673792 -0.06695206  0.57988286 -0.25722885 -0.5006437
 -0.4193353   0.12252205 -0.36520475 -0.04531733 -1.6257352  -0.13634449
  0.0369883   0.03944177 -1.1809057   0.05165556  0.2962822   0.07548948
 -0.3148407  -0.13784036  0.1163156  -0.8179479 ]
[ 0.14056808 -0.06541827 -0.09010588 -0.21448044  0.8488425  -0.19497417
 -0.38184088  0.01205394 -0.18854034 -0.63589525 -0.8050794   0.5538801
  0.19453658 -0.65602565  0.10108428 -0.3641432  -0.22880305 -0.59509623
 -0.20740496  0.22159402  0.649979   -0.12739667  0.28448886 -0.21263546
 -0.53174514 -0.01649176 -0.2511161   0.25428072 -0.24104345 -0.48967105
  0.03670245  0.49995777  0.3008853  -0.5594294  -0.08110091 -0.79711896
  0.10862931  0.60865    -0.41461885  0.12177321]
[ 8.7772423e-01  7.4615282e-01  1.2854321e-01  8.2267441e-02
 -6.1866295e-01  9.5791169e-02 -4.5966545e-01 -7.7439077e-02
 -9.0040606e-01 -2.0530865e-01 -3.4926730e-01 -2.3224951e-01
  2.2285503e-01  1.1368818e-01  1.1397870e+00 -4.7451150e-02
 -5.1502270e-01  2.3307656e-01  8.3648098e-01 -1.1155015e+00
  2.7355927e-01  2.3822656e-01 -1.9100575e-01  4.5269579e-01
  1.5260428e-01  2.7986452e-02  3.8389727e-01  1.4213449e-04
 -8.6083680e-01 -1.3937951e+00  4.4173780e-01 -4.6308684e-01
  4.7908112e-01 -4.7739629e-02  1.3182098e-01 -1.2961565e-01
 -1.9429107e-01 -4.4260982e-01  4.1554627e-01  5.8784157e-01]
[-0.4523559   0.17083353 -0.47854978 -0.53831697  0.86466295 -0.16614598
 -0.18552184  1.5336841  -0.51850843  1.050893   -0.47835952  0.6340623
 -1.0276617   0.32339922 -0.667238   -0.10112453 -0.7605555   1.5735996
 -0.21357106  0.3958875  -0.7857873   1.7157524   0.66324687 -0.40568355
  0.52269727 -0.16823928  0.04012954 -0.43623337  0.7535325   0.45784053
 -0.17283164 -0.37557808  0.5112753  -0.8346402  -0.12000535  0.601896
  0.66161954  0.04579922 -0.7776437   0.83069277]
[ 0.06988645 -0.41503808  0.42492175 -0.38281322 -0.08262066 -0.34006953
 -1.8459344  -0.43922848  0.15078506 -0.21231341  0.16481727 -0.02034318
  0.22726749 -0.12048776 -0.8228529  -0.18577692 -0.2112632   0.30404022
  0.55983865  0.87477624 -0.32240668  0.67740226 -0.1364889  -0.20581087
  0.734038   -1.0384264  -0.40002903 -0.47198492 -0.7419945   1.4190332
  0.5685954  -1.0055321   0.3680235   0.30291596 -0.16265121 -0.27267006
  0.9179184   0.9365592  -1.0740026  -0.317944  ]
[-5.2828193e-01 -2.0963952e-01  7.1647877e-01  1.8707214e-01
  3.0099552e-02 -8.8152510e-01  1.3311105e+00  1.7559767e-01
  2.9249462e-01 -8.6416429e-01  8.2896703e-01  9.5789388e-02
  1.9410841e-01 -5.6599965e-05  5.6268410e-03 -8.0151945e-02
 -2.6026350e-01 -2.0488213e-01  4.4775659e-01 -2.0801632e+00
 -6.8407631e-01  1.0266168e+00 -6.7899518e-02 -6.6483194e-01
  5.7645732e-01 -1.2242088e-01 -3.2241407e-01  2.5477451e-01
 -1.1243960e+00  3.4880185e-01  7.3378319e-01  3.1327656e-01
  9.3672082e-02 -1.2096081e-01  3.9142389e-03 -3.7054577e-01
 -1.4113019e+00  5.9487772e-01  1.0826044e+00  8.9180723e-02]
[-0.00968269  1.112349   -0.05393834  0.639307   -1.1114081  -0.8573028
 -1.6395707  -0.10228997 -0.49080363 -0.04752484  0.4155086  -0.7189057
 -0.5207192   0.43675703 -0.5639388   0.08374599 -0.37034023  0.01196249
  2.1894588   1.5779161  -0.33878323  0.980621   -0.14370233  0.12507975
  1.518241   -1.659184    0.36110112  0.04347168  0.37664402  1.0542376
  1.2311435  -2.5344775   0.19407977 -0.23540097  0.06280032  0.45074484
  1.5018361   0.3526971  -1.3756413   0.29483962]
[-0.36359465 -0.08692714 -0.00303789 -0.72069407 -0.9238815   0.02897772
  0.28767043 -0.1309565  -0.25310323 -0.12899895 -0.8747408  -0.28381383
 -0.7661906  -0.6382759  -0.3857614  -0.8317429  -0.96307546 -0.37571114
  0.29250205 -0.08009095  0.5674385   1.0711244  -0.30405447 -0.89502335
 -0.41744193  0.7438983  -0.39975828  0.42570207 -1.0793575  -0.32319602
  0.03601163 -0.23911692 -1.0914775  -0.69095117 -0.13937002 -0.24783884
 -0.19015892 -0.3383448   0.19571647  1.4756372 ]
[ 0.12345165  0.8578367   0.53916734  0.04110297 -0.28034627 -0.10966661
  0.3080121   0.1365462   0.5125559   0.7338126   0.9084329  -0.47436804
 -0.29432958  0.3738033  -0.03681548  0.70816594  0.43921247  0.46216595
  0.23284315 -0.20861232 -0.63853204 -0.35201696 -0.62930924  0.5084494
 -0.21219212  0.20366848  0.58877695  0.7620393   1.3753785  -0.9065726
  0.57242376  0.01192756  0.05272769  0.04656078 -0.03808138  0.5824802
  0.10203769 -0.14392793  0.15553388  0.8317774 ]
[ 0.70159715  0.4757932  -1.1401856   0.10088518  0.2627596   1.3604685
  0.9543274   0.35993457  0.07031018  1.2811964  -0.85704905  0.9590289
  0.39043444  0.10591736  0.01547079 -0.2970954   0.6516589   1.8598943
 -3.0827003  -0.5587211   0.8946075  -1.2155708   2.0405104   0.6146569
 -2.1085992   1.1161621   0.25201273 -0.08267551  1.2367991  -0.90087086
 -1.9786304   1.6253421   0.861622   -0.3013431   0.3585064   1.7258418
 -1.0964705  -1.1647596   1.0792984  -0.31536457]
[-0.61040395 -1.1311046   0.246225    0.38569137  0.04956251  0.04541188
  0.29550266  0.05527835 -0.14588912 -0.96219283 -0.5468339   0.3418215
  1.334954   -0.09402159  0.46431044  0.22519206 -0.36943388  0.8847377
  0.69578105 -0.1063889   0.4941337  -0.24502487  0.12716769 -0.03850328
  0.67044073 -0.5841524  -1.1026928   1.4173424  -0.35894942 -0.15137252
  0.33527878 -0.47919038  0.47748643 -0.08753194  0.49487296 -0.08240353
  0.10491066  0.42275372  0.05369275 -0.55252296]
[ 0.21211472 -0.736924   -0.24412875  0.35210043 -0.9744737   0.10860036
 -0.25695956  0.0506965   0.00677103 -0.7136021  -0.06570917 -0.20540734
 -0.00199174  0.14891364  0.68126667  0.01281551  0.20115685 -0.41922745
 -0.1507022   0.16505149  0.76085526 -1.1581829  -0.15247206  0.21926177
 -0.3917898   0.4164338  -0.48781544  0.91210973 -0.63130945  0.46860218
 -0.05748578 -0.3943589  -1.0812932   0.07566783 -0.25170556  0.37964034
  0.30583364  1.386073   -0.34947065  0.73723423]
[ 1.3419162   0.33087274  0.00379653  1.1633527  -0.79280436 -0.28447464
  0.473903    0.10406674  1.1234257  -0.6454137   1.1228049   0.20033318
  0.8076034   0.9928934   1.2319711   0.42228177  1.5738907   0.2940085
 -0.3202239  -0.19143975 -0.15240736 -0.8218989  -0.24416453  1.234632
 -0.07499562  0.47694138 -0.1699336   0.03998813 -0.2580061  -0.5281395
  0.14998733  0.17614806  0.46338585  0.8601923  -0.25694215  0.0405391
 -0.44753432 -0.1328287   0.48589292  0.25907922]
[-0.322913   -0.21862605 -0.8653861  -1.1078502  -0.32166943  0.34701815
  1.3536645  -0.37666923  0.1050574   0.1863144  -0.08992738  0.8426056
 -0.4554596  -0.3640638   0.92611074  0.34685555  0.23439506 -0.01873171
 -1.2080541  -0.7809988  -0.27131468 -0.2822374   1.0803995  -0.38998535
 -1.4451928   0.38191384 -0.3784302  -0.04421806  0.39583108 -0.98238134
 -0.57926255  1.0882714   0.08838934  0.2353695   0.20570162  0.97991097
 -1.2577461  -1.8466468   1.5343024   0.31089512]
layer 3 Activation
tanh
layer 4 Dense
40 20
[-0.21357852 -0.57662565 -0.38820162  0.24240425  0.46843183 -0.17286798
  0.9636689   0.33753616 -0.08591696  0.41327494  0.564303   -0.08878329
 -0.24816471 -0.01634266 -0.38187176 -0.01648501  0.47729012 -0.34152293
 -0.42062798  0.35522443]
[-0.16155615  0.20884879 -0.44654208 -0.1633612  -0.10960609  0.31937867
  0.27404508  0.1301047   0.07761528  0.6542941   0.4373021   0.17352663
 -1.1673093  -0.19752567  0.10946251 -0.20175193 -0.35714823  0.4337441
  0.6388925  -0.22978462]
[ 0.19834323  0.54213274  1.3881962  -0.4943307   0.3433824  -0.15825894
  0.9121272   0.28228796  0.28290153 -0.14169237 -0.20481524  0.01237607
 -0.9712375   0.18457474  1.091938   -0.33131915  0.155633   -0.63821834
  2.4107873   0.30747604]
[-1.7662551e-01 -3.0007681e-01 -4.6349651e-01  2.7611527e-01
  5.3117049e-01 -5.7022157e-04  4.0757809e-02 -1.5444477e-01
  1.8469036e-01  1.0930581e-01  8.2354128e-02  2.2414009e-01
 -9.8366117e-01 -1.2338417e-01 -1.3019124e-02  2.1488848e-01
  3.8668236e-01  3.1675525e-02  6.9988662e-01  2.4038130e-02]
[-0.29576185  0.48254055 -0.63364595 -0.3614093  -0.3524028   0.5560541
 -0.37585992  0.18404035 -0.9344237   0.0250921  -0.34574696  0.30507594
  0.06677704 -0.4399535  -0.26878515 -0.422859   -0.00430932 -0.2722709
 -0.45158377 -0.20908971]
[-0.32939216 -0.31777042 -1.0010623   0.19457702 -0.5583508   0.7664432
  0.25059026 -0.5728856  -1.1040821   0.31719676  0.5801435  -0.20962672
  0.711001   -0.6186688  -0.64366144  0.36557114 -0.27600765 -1.2721081
 -0.64797515 -0.21996492]
[ 0.4029194   0.14666744 -0.9800126  -0.11775526  0.2855051  -0.31347042
 -0.95264685  0.24925466 -1.1745051  -0.37984726 -0.5946023  -0.43023822
  1.1353364   0.20982744 -0.9003226  -0.45220464 -0.9847557   0.8165583
 -1.0895293   0.02349698]
[-0.24950634 -0.05318878  0.39542222 -0.18412116  0.0326773   0.08693565
  0.7479776  -0.3017291  -0.29172912  0.19431181  0.22680058  0.06095688
  0.6005043  -0.1806034   0.11107373 -0.1561457   0.04480843  0.35974583
  0.6498051  -0.16321138]
[ 0.1117377  -0.0469179   1.1983483  -0.31057087  0.18304726 -0.40291128
 -0.94264036  0.168726    0.2911992   0.26596218  0.23709129 -0.2233387
 -1.0663655   0.23762664  0.29302037 -0.57036084 -0.1836322   0.51654166
  1.0805833   0.1871787 ]
[-0.48723587  0.56268215 -0.92255074 -0.3991214  -0.25048795  0.349412
 -0.7082172   0.25832158 -0.46780115 -0.0463923  -0.52114266  0.17730123
  0.5873072  -0.52454966 -0.68383026 -0.45241284  0.29247487  0.00626873
 -1.3343383   0.2786954 ]
[-0.3872972  -0.28500134  0.7069887  -0.04536289  0.46681246  0.36036012
  0.2185043   0.24948724  0.07698275  0.17265974 -0.00681595 -0.31548637
 -0.21251851 -0.3022632   0.51104873 -0.25380355  0.01944935  0.08281545
  0.6478406   0.3861201 ]
[-0.20241612 -0.14583263 -0.67171204  0.05489231 -0.43368277  0.22581531
 -0.30919564 -0.44664618 -0.8251696  -0.03320871  0.08197429 -0.24130554
  1.2323425  -0.27466986 -0.8964446   0.20139186  0.11772039  0.80388683
 -1.8710058  -0.4333791 ]
[ 0.1520922  -0.43655843  0.6805402   0.35505775  0.3842025  -0.41237608
  0.04248161 -0.12999943  0.10187928  0.17863046  0.2724105   0.21452683
 -0.6895896   0.4416363   1.1222283   0.28111348  0.21431792  0.350028
  0.61223614  0.36149898]
[-0.30573323 -0.5140636   0.08644907  0.5057483   0.1151989   0.09550018
 -0.5867751   0.09970704 -0.6271558   0.24320808  0.2803664  -0.09652864
 -0.22295535 -0.02330224 -1.0466429   0.31864366  0.15412284  0.4708702
 -0.35405046  0.21668978]
[ 0.10888254 -0.00484086 -0.13573226  0.14316972  0.27003467 -0.42608094
 -0.80606085 -0.00915612 -0.3737061   0.10996428  0.20009665 -0.29806513
  0.80555516  0.19836336  0.24801901  0.20495525 -0.3739087   0.96207607
 -0.6077011   0.15529254]
[-0.09375066  0.09070646  0.7628077  -0.44348457  0.24751808 -0.15296255
 -0.37391278  0.15604095  1.1484818   0.01954582  0.16385612 -0.15814753
 -0.6649266  -0.0503903   0.5905626  -0.46429062  0.04918778  0.07182612
  0.85994244  0.48813143]
[-0.1698261  -0.16354658 -0.4876644   0.04776699  0.16112073 -0.36938053
 -0.11308887  0.44183907 -0.03861437 -0.01059749  0.15116383  0.12472397
  0.09044976 -0.15939625  0.36805093 -0.21216227  0.19512133  0.27904105
 -0.4806549   0.03513311]
[-0.15227513  0.21508566  0.45536107 -0.18643361 -0.4805118   0.37745026
 -0.07776505  0.19604771 -0.8558489   0.4433182   0.19591938  0.12701619
  0.72400576 -0.29989544 -0.3464718  -0.08303818  0.20080577  0.8575992
 -0.9497015   0.07606972]
[ 0.03273278  0.01270424  1.2476786   0.15417752  0.09344336  0.22473425
  1.0063401  -0.02011749  0.678715   -0.53217065 -0.26001528  0.06694653
 -0.8964301  -0.06143903  0.45679304 -0.09944603  0.14693628  0.20012838
  1.433603   -0.23283425]
[-0.54257834 -0.546472    0.88164866  0.04063786 -0.17765908  0.5607872
  0.78257465 -0.55808365  0.97263825  0.40423596  0.40603736  0.57679385
 -0.9628451  -0.43933013  0.82105464  0.18658459  0.81371605 -0.94636303
  1.2571616  -0.1144371 ]
[ 0.49490157 -0.34261483 -0.4992693   0.4099332   0.5393997  -0.3685419
  0.16623086 -0.6112944  -0.04700229 -0.1367798   0.160458    0.38825452
 -0.31718466  0.50382876 -0.29943997  0.5156301   0.03533749  0.27507582
 -0.09704782  0.02218812]
[ 0.47749355  0.6584789   1.5665612  -0.6114031  -0.50632596  0.73910123
  0.23814902 -0.33699822  0.89651805 -0.5491086  -0.594107    0.36843172
 -1.4225035  -0.20546094  0.3231286  -0.5030608  -0.02284023 -0.34027964
  1.8813378  -0.57601124]
[-0.6307615  -0.2590518  -0.06070626  0.48908085  0.08746959  0.43809772
  0.09331121 -0.2330811  -0.43177408  0.18645246  0.34154454 -0.45337218
  1.5075414  -0.19321164 -0.74694985  0.42671013 -0.31445107  0.12381152
 -1.3325351  -0.32857832]
[-0.01968199 -0.93273854 -0.8352549   0.2752908   0.43668538 -0.34591097
  0.04126704  0.1904366  -0.20151925  0.9476787   0.4119655   0.46164542
  0.62529963 -0.10075928 -0.9319948  -0.5317509   0.34944412 -0.37724766
 -0.47301114  0.41171306]
[ 0.45069265  0.08311605  0.6969579  -0.07462259 -0.02821037 -0.21423985
  1.6723393   0.09890932  0.5783147  -0.38716486 -0.15083784  0.3451036
 -0.7363884   0.00216929  0.69853085  0.02819051  0.4740304  -0.439831
  1.1923323  -0.02556404]
[-0.4282089  -0.63649195 -1.8923959   0.59571433 -0.6318403   0.6614381
 -1.2537838  -0.49339688 -1.8473451   0.10361101  0.22499542  0.09933431
  1.6839111  -0.4087024  -1.4577283   0.49620655 -0.00511735  1.2899477
 -1.4698663  -0.31296757]
[-1.01511076e-01 -1.80032119e-01 -4.70455140e-01 -1.14995487e-01
 -4.62105572e-01  2.58914143e-01  8.55572522e-01 -4.97707985e-02
 -2.20772877e-01  1.35247365e-01  2.97878813e-02  8.39999244e-02
 -2.67158419e-01 -1.54852495e-01 -6.75356925e-01 -1.12920359e-04
  1.81439519e-02 -3.27728838e-01  2.07653381e-02 -2.04780385e-01]
[ 0.05927245  0.04851464 -0.54685736 -0.02900292 -0.19449171  0.16859859
  0.18218584 -0.08711599 -0.6959607  -0.16217168 -0.17887726 -0.03490799
  1.1534663  -0.05051383 -0.5082697   0.04704704 -0.21434106 -0.15533915
  0.1864016  -0.25279328]
[-0.26263323  0.51180416 -0.65869105 -0.39758834  0.09228138  0.34615105
  0.16817127  0.33104178  0.06085528  0.42282856  0.21515214  0.09818786
  0.23562436 -0.29993093 -0.6274286  -0.31174365  0.27362016  0.54604834
 -1.2765424   0.31855303]
[-0.28850144 -0.35171938  0.43165115  0.5907633  -0.16086589  0.0637951
  0.6428948  -0.40484664  0.58044285  0.29999933  0.261186    0.69727874
 -0.9327506  -0.2910969  -0.12376686  0.49854508  0.81766593 -0.99544406
  0.97727895 -0.2353648 ]
[ 0.43014637  0.62301534  0.7502289  -0.41976473  0.3120645  -0.39315277
  0.9986888   0.51815534  1.5083433  -0.16196153 -0.4155293  -0.02392442
 -1.2554415   0.55530214  1.672003   -0.48023078 -0.06027796 -0.27581075
  0.60246795  0.3864101 ]
[ 0.26657012  0.69313204 -0.78639406 -0.5607259   0.5380552  -0.5772491
 -0.9632333   0.5143086  -0.789694   -0.54595953 -0.37433326 -0.74496937
  0.7221017   0.44578677 -0.15642609 -0.2092893  -0.8308545   1.1906903
 -0.7518249   0.34304616]
[-0.304789    0.02346258  0.35223803 -0.24825719  0.01454506  0.35665685
 -0.33086094  0.3084084   0.5931222   0.21743277  0.09121217 -0.2675919
 -0.6732167  -0.34912696  0.33848163 -0.31252012 -0.01158071 -0.06994399
  0.17451487  0.11821736]
[ 0.17185338  0.36197346  0.7342958  -0.14543623  0.59565175 -0.24712685
 -0.31371656  0.37172806  0.71039563  0.05432166  0.16602542 -0.15738536
 -0.5560952   0.17057732  0.9515175  -0.13178909 -0.47162548  0.84186417
  0.94224524  0.25748572]
[-0.20840831 -0.14608012 -0.48218867  0.05668897  0.03964762 -0.10186786
 -0.5640082  -0.03734661 -0.29445446 -0.23286355 -0.01690937 -0.43466866
 -0.36011252  0.11297099  0.15711229 -0.18121745 -0.238153    0.39672416
 -0.15916482 -0.14644854]
[-9.2892714e-02  6.8416029e-02 -1.2053770e+00  6.3102238e-02
 -6.7753606e-02 -6.9173053e-02 -5.5694407e-01  6.5423526e-02
 -3.9190665e-01  1.5837854e-01  2.0608182e-01 -8.4489072e-04
  6.6055572e-01  2.0355247e-01 -7.2363174e-01  9.9851806e-03
 -1.0119052e-01  6.5404373e-01 -1.1687367e+00 -2.1742509e-01]
[-0.26479426 -0.04077675  0.8730577   0.5198265  -0.52308637  0.5271972
  0.9905657   0.01671445  1.1019073   0.11214195  0.5608724   0.5916772
 -1.121503   -0.2895096   1.0285605   0.3630601   0.7249988  -0.6654198
  1.4129899  -0.3831177 ]
[-0.4096666  -0.1929423   0.4199356   0.23353343 -0.4115704   0.16571411
  0.7818759  -0.21722192  0.742653    0.13235639  0.48534086  0.7036433
 -0.62011033 -0.3384503   0.42286217  0.30272502  0.32487002 -0.42201906
  0.6090368  -0.19843724]
[ 0.49396414  0.17137703 -0.73323107 -0.14503527  0.5859135  -0.30046383
 -0.8628097   0.559993   -1.0886797  -0.46334776 -0.16577701 -0.86004484
  1.142063    0.37886855 -0.69604725 -0.33790526 -0.7110674   0.5963233
 -0.85481834  0.4179943 ]
[-0.326714    0.3836248   0.22480121 -0.33264253 -0.31914547  0.4639557
 -0.66204864  0.15044525  0.03326938  0.04265894 -0.2847268  -0.18464014
  0.2080697  -0.37433907  0.13277698 -0.44577911 -0.16484919  0.56243503
  0.10519072 -0.17815201]
[ 0.35788092  0.30165863 -0.81728756 -0.20088622  0.27215397 -0.3276804
 -0.71158147  0.30919862 -0.840316   -0.314621   -0.3295766  -0.42932624
  0.84622246  0.19085348 -0.7174252  -0.21583185 -0.46443078  0.6118194
 -1.089771    0.15866159]
layer 5 Activation
tanh
layer 6 Dense
20 1
[1.1369241]
[0.87684107]
[1.356339]
[-1.2066953]
[0.9957195]
[-0.94232863]
[-1.0682466]
[1.1211795]
[1.8042037]
[-0.9909644]
[-1.1221915]
[-1.5077666]
[-1.5847732]
[1.069509]
[1.2081928]
[-1.0526392]
[-1.0831943]
[1.1636912]
[1.1868726]
[1.1864458]
[0.94612837]
