layers 7
layer 0 Dense
20 20
[-0.5045723  -0.41522935 -0.3158639  -0.00210887 -0.6467767   0.21987621
 -0.2180067  -0.14031029  0.17625116  0.22950105  0.08904327 -0.38759968
 -0.19411421 -0.7782368  -0.40118307  0.46057692  0.2843696   0.4578053
  0.07378098  0.61794096]
[-0.36026636 -0.56883514 -0.5500553  -0.74373275  0.9276416   0.32943574
  0.62273973  0.02607357  0.78737116  0.17867468  0.03056675 -0.86657906
  0.16610822  0.4995631   0.40207762 -1.2820842  -1.0678631  -0.3013572
  1.4136072   0.4817299 ]
[ 0.32960248 -0.52027714  0.05348531 -0.88649654  0.78503704  0.1327622
  0.4044879   0.5990784   0.6258498   0.56636167 -0.30868754 -0.9894864
  0.24762896  0.33192536  0.479365   -1.0114721  -0.9410993  -0.47078535
  0.94685173  0.660817  ]
[-0.3506876  -0.06148203 -0.3377812  -0.5400597  -0.11887994  0.17456771
  0.34897694 -0.05555762  0.32944846  0.39200938  0.1168137  -0.21595989
  0.03835469  0.08189959  0.13295703 -0.30038393  0.7191928   0.24117132
  0.33862382  0.88851523]
[-0.7453156   0.25903073 -0.7685868  -0.03995495 -0.4710542  -0.01878789
  0.19226016  0.17245522  0.14479217  0.44679126 -0.36193785  0.17348899
 -0.48307595  0.245729    0.9407055  -0.7196316  -0.06308423  0.56267554
  0.1292606   0.45568955]
[-0.10006293 -0.3120582   0.27601075  0.18166277 -0.6554181  -0.17531928
 -0.9715182  -0.48401314 -0.40486673 -0.17431988  0.38566384  1.5651348
  0.35687813 -0.36861008 -0.7122908   1.2095895   1.59877     0.24453884
 -0.8683844  -0.77794516]
[-0.17116426  0.41262218  0.4959855   0.3307214  -0.48697504 -0.18461226
 -0.40763727 -0.3083632  -0.0238547  -0.24561392  0.13066117  0.9456911
  0.5822709  -0.7054179  -0.17367816  0.76779634  1.0189859   0.34329712
 -0.6341885  -0.73582315]
[ 1.0152389   0.8097      0.915434    1.3495234   0.759966   -0.6861206
 -0.57637614 -0.92149854 -1.453925   -1.4960448   0.83788437  0.3723414
  0.18012021 -0.59192383 -0.5060851   1.5181695  -0.0044625  -1.4964186
 -1.5509425  -0.5389445 ]
[ 0.30989456  0.21907811  0.9729796   0.47410628 -1.0180117   0.5648817
  1.3567617  -0.18925455 -0.9682759  -0.18089549 -1.4679027   0.6005167
 -0.31737489 -2.8910947  -0.25388846  2.1155782  -1.1893191  -0.75835854
  0.12337309  0.526839  ]
[ 1.4166715  -0.05082177 -1.7337061   1.1717117   0.6480439   0.56794685
 -0.4809113   0.5440413  -0.19657451 -0.96660745 -0.260925   -0.3373275
  0.12794927 -0.84273887  0.4834638  -0.6621822  -0.05717976  0.5565413
 -1.3780442   0.9984539 ]
[ 1.0055526  -0.06480646  1.101794   -1.0996227  -0.20566396  1.1151766
  0.45382968 -0.341472   -0.11179247  1.5380524   0.6041791   0.5013098
 -0.15721108  0.934903   -0.13516875  0.8466626  -1.8613826  -0.7450779
  0.60992956  0.6170471 ]
[ 0.6371422  -0.14844105  1.174342   -0.07545766  0.456388    0.4659388
  0.62063324  0.6131104  -0.5430476  -0.78160286  0.25079575  0.03529669
  0.25439033 -3.1612341  -0.5504451   1.4268242  -0.14629304 -1.0360365
 -0.745603   -1.0701995 ]
[-0.8316969   0.18746434 -0.81643796 -0.31567797 -0.8667262  -0.68074894
 -0.00905792  0.07727097  0.8427914   0.8543847  -0.6640867  -1.5740412
 -0.6510318  -0.81917447  0.9866899  -0.7291974  -0.16086435  0.7162398
  0.4938488   1.7774494 ]
[-2.096903   -0.05519162  2.269464   -0.6754739   0.17078409  0.8922561
  0.41268837  0.73617697  0.19920345  0.5412738   0.67138284 -0.05343391
 -1.0265914   0.7244438  -0.7500589   1.5498064   1.3532406   0.01703214
  0.9479163  -1.2455287 ]
[-1.1683861  -0.19025996 -0.10214601 -0.06894779  0.10688262  0.5623512
  0.32446223  0.09358966 -0.08296495 -0.82103455  0.22837785  0.9661402
  0.15698172 -0.3654626  -0.18824962  0.16382559  0.30776915  0.5348234
  0.52593094 -0.20266904]
[-3.2768066   0.1423917  -1.76565    -2.2540872  -1.9451802   0.18513119
  0.10656274 -1.2262245   1.2498974   0.79976094 -1.4115834  -2.8277376
  0.7699849  -0.49141452  1.3329576  -0.5178353  -0.65764445  0.73481196
  1.6763154   3.2190096 ]
[-0.36968625 -0.00648115 -1.1400223   1.5381829   0.8354295  -1.1088495
 -0.82942396 -0.25806418  0.5598023   0.49606168  0.62452996  1.5893031
 -0.05537686  1.0467299   0.74764085  1.319215    2.1002693   0.24529687
 -1.2966615   0.98364186]
[-0.23887266 -0.20904046  0.61126715 -1.0407761  -0.4555441  -1.6715398
  0.9580289  -0.8884993  -0.02682989  0.33647168  0.2863943  -0.08733237
  0.19439667  0.09504966  0.08201811 -0.5186388  -0.93267083  0.05421139
  0.03338572  0.00691259]
[-0.24316666 -0.1483192  -0.32152203  1.0418612   0.50079536 -2.6630135
 -1.4707932   0.8337931   0.44837216 -0.6818393  -1.134883   -1.252521
 -0.09681863 -0.79292053  0.84608257 -0.64120203  1.8419636   1.3356143
 -1.3706546  -0.30066893]
[ 1.0321374  -0.21300687  0.40292236  1.3580327   0.47509184 -0.5454093
 -1.4578551  -0.72332066 -0.48888442 -0.9231356   1.8415629   1.0495737
  0.80167305  1.0370195  -0.93751204  1.2579552   0.96816766 -0.4896491
 -1.6907043   0.5026635 ]
[-0.10035324 -0.3648008  -0.12673576 -0.78848726 -0.05417817  0.5203846
  0.12253468  0.12906732  0.6826514   0.32191643  0.03340441 -0.17718138
  0.00323074  0.28486326 -0.30481207 -0.6934291   0.21770123  0.57494766
  0.52073693 -0.00188622]
layer 1 Activation
tanh
layer 2 Dense
20 40
[ 0.59844637  0.45529684 -0.02353379  0.04928035  0.06859503  1.1259474
  0.24766186  0.22671779  0.0360962   0.22116278 -0.5663609   0.01299907
 -0.33561978  0.30390084 -1.2494804  -0.24522702  1.4465474   0.27879918
 -0.12982048 -0.1042397   0.05592382  0.7604292  -0.12012151 -0.21403064
  0.13867071 -0.75043756  0.23296131 -0.20095487 -0.65963006  0.2755585
  0.15139285 -0.27150995  0.650546   -1.3966482  -0.26723015  0.49224326
  0.33621797 -0.0539309  -0.10640331  0.1104076 ]
[ 0.36186934  0.39152253  0.15031001 -0.06196924 -0.27125007  0.12239834
  0.15677948 -0.1658697   0.39932907  0.28766847 -0.37343156 -0.0839349
 -0.26578352  0.23743646 -0.49986175 -0.02814465  0.1750462  -0.19583237
 -0.23566473  0.07631692 -0.10993476 -0.20912683 -0.385519   -0.02394301
 -0.2868195  -0.09950096  0.20673943  0.25647768 -0.09570947 -0.29057366
  0.02229197 -0.12592874  0.13524656  0.1456799   0.06184268  0.20175205
 -0.1523522   0.20838545 -0.01075971  0.12866329]
[ 0.7419213   0.5537277  -0.77102554 -0.12339642 -0.22736937 -0.5747435
  0.00353242 -0.77304375  0.18142241  0.3379294  -1.3185904  -0.04949917
  0.01554146  0.22203837  0.6777655   0.17219861  0.70421296 -0.20383352
 -0.0396878   0.07048352 -0.32536668 -0.7313623   0.21485598  0.1785295
  0.06026667 -0.7794258  -0.17964502 -0.2544675  -1.1441784  -0.03035469
 -0.4485801   0.06739243  0.15032941  0.47255936 -0.0384996   0.123917
 -0.03638691 -0.18723717 -0.07981011  0.13930304]
[-0.7849241   0.06471442  1.6620721   0.28865504 -0.05969869  0.38662395
 -0.32616293 -0.41524318  0.37080348 -0.27676073 -0.15281431 -0.3759475
  0.05288944  0.12546347 -1.1552194   0.2395857   0.25878197  0.23806393
  0.46736905 -0.01830226 -0.24465522 -0.8492648   0.30995947  0.39754552
  0.10931384  0.830694   -0.18235505  0.1628429   0.9855508  -0.11773635
  0.00216991 -0.22068582 -0.3195027  -0.28737837 -0.18423009 -0.44881934
  0.08470509  0.25856116 -0.24650507  0.033913  ]
[-0.43126407  0.26518476  0.55513257  0.14288554 -0.0531575  -0.32623073
  0.38607004  0.39098048  0.23539446  0.28074297  0.21496311  0.02135931
 -0.2633102  -0.31666824  0.03424751  0.21036568  0.69144523  0.04893874
  0.20791945  0.05722759 -0.07091901 -0.17595144  0.01615069  0.20173253
 -0.36226666 -0.12911402  0.06175432  0.09918223 -0.42282325  0.13262004
  0.0120108   0.04614876 -0.15089576  0.2572332  -0.1234482  -0.26167545
 -0.29469943  0.14754613 -0.2544326  -0.20155989]
[ 0.5263773  -0.61308986  0.07598293  0.19751744  0.13834745 -0.35250264
 -0.13390931 -0.286446    0.01812233 -0.20630267  1.5794652  -0.1848192
  0.30479842 -0.1868538   0.853111   -0.09871988  0.49776068 -0.06825797
 -0.23117866 -0.10756962  0.59367543  0.2680074   0.42904913  0.41083223
  0.12124118 -0.3291695  -0.276699    0.14222243  1.1070638  -0.05262065
  0.42662475  0.05588898 -0.27124286  0.14075984  0.04439618 -0.17235492
  0.07829054 -0.242382   -0.46666574 -0.22656058]
[ 0.30809903 -0.35202703 -0.15776402 -0.0306696  -0.31593487 -0.3898629
 -0.17310824 -0.03888383 -0.16861601  0.33791992  0.2005997   0.32477337
 -0.1386095  -0.05643472  0.21775061  0.05111435 -0.17928748 -0.22785479
 -0.34129062 -0.13681896  0.14298408  0.12684265  0.21167192 -0.2885215
  0.12761089 -0.32493395 -0.39521515  0.10694822  0.00853314 -0.06758502
  0.1696904   0.13993967 -0.07273869  0.5889466   0.03374347 -0.01953617
  0.02180672 -0.14674869  0.1628681  -0.09541737]
[-0.7573319   0.13148205  0.07498653 -0.24115607  0.05842349 -0.39272535
 -0.4146825  -0.43430144 -0.19552045 -0.23026933 -0.16728735  0.5169261
  0.02033641 -0.29815775  0.04753118 -0.21273328  0.03569469 -0.04705767
 -0.07829773 -0.2914296  -0.19501333 -0.07667574  0.54391605  0.0568851
 -0.01110463  0.19095922 -0.14316976 -0.03100827  0.03499411 -0.26383767
 -0.02251956 -0.0263848  -0.04043618  0.41217768  0.3696407  -0.0308876
 -0.3832499  -0.03273788  0.43411222  0.15894303]
[-1.70534253e-01 -3.48710874e-03 -5.60801983e-01  1.53032780e-01
  3.07275027e-01 -3.24856400e-01  2.52055764e-01  1.06887996e-01
 -1.07111812e-01 -3.24279517e-01  6.71182796e-02 -2.11162478e-01
  1.59061521e-01 -1.39495030e-01  3.64206638e-03 -2.75334418e-02
 -5.61259806e-01  8.58795643e-02 -1.99940503e-02 -1.44257188e-01
  2.29631793e-02  1.91798985e-01 -3.02754253e-01  2.11926743e-01
  1.73153341e-01  6.66911621e-03 -5.70828840e-02  5.17022163e-02
  8.85589495e-02 -1.40308902e-01  3.78134072e-01  5.15649095e-04
 -8.45377743e-02 -2.11991891e-01 -6.34315237e-02  6.02598749e-02
  1.35430396e-01 -3.33055079e-01  3.53675336e-01 -2.97939837e-01]
[ 0.36006173 -0.54652745 -0.6242105   0.16336055 -0.00354538 -0.22558783
 -0.5016928  -0.24730505  0.20488271 -0.24938546  0.6082072  -0.29649937
  0.25206193  0.12438387  1.0015718  -0.14065164 -0.14897579  0.22968392
 -0.19525948 -0.44172192  0.4807357   0.34791768  0.15907198 -0.08984879
 -0.06945663  0.88072574 -0.13688949  0.18329582  0.5692693  -0.1081251
  0.13798434  0.24393411  0.14167786  0.3706165  -0.38971934  0.31608456
  0.28568745  0.24236776 -0.32729515 -0.04719773]
[ 0.68295646 -0.15596026 -0.8145569   0.359879   -0.02960943 -0.1201308
  0.02796027  0.05630562 -0.01883443  0.09735937  0.4174998   0.1596594
  0.26842704  0.21106067 -0.5292188  -0.0376412   0.53670627 -0.35419074
  0.368926    0.0582238   0.36655107 -0.17966229 -0.11498096 -0.08104927
 -0.25687614 -0.8868034   0.5971563   0.17789364 -0.515944    0.33152255
  0.1167819   0.02260683 -0.10186841  0.4305291  -0.17404194  0.44207317
 -0.06433201  0.20520078  0.06851345  0.1636356 ]
[ 0.13840935 -0.20650841  0.32963005 -0.07706902 -0.22580063  0.5342891
  0.01415064 -0.13702069  0.49368313 -0.01070454  0.23115236 -0.2858498
 -0.27939075 -0.3012241   0.25107142  0.04889154  1.465648    0.07332122
  0.04815998  0.35300553 -0.0659961  -0.9763153   0.04041058  0.57061976
 -0.09850825 -0.16714352  0.59195435 -0.18444628 -0.31027034  0.03291623
 -0.29181856 -0.17081256 -0.05623572 -0.46683016 -0.5059209  -0.37343934
 -0.57529074 -0.13820907  0.02172986  0.39139444]
[ 1.4693093e-01  1.3904108e-01 -4.5646602e-01 -3.0481756e-01
  5.5524748e-02 -1.3202164e-01  1.1715625e-01  1.7309318e-01
  3.3501849e-01  2.8343725e-01  2.2603306e-01  1.5975457e-01
  1.3673735e-01  1.5234548e-01 -2.8033096e-01  3.8858706e-01
  2.5141457e-01 -2.9420984e-01 -3.6398165e-02  3.1360355e-04
 -6.5505065e-02 -1.2196155e-01  1.1621495e-01 -2.4359131e-01
 -7.2534300e-02 -1.5947528e-01  3.2315814e-01  2.0439538e-01
  1.5154165e-01  8.5742190e-02 -2.3529211e-01 -1.2095589e-01
 -1.1746512e-01  8.3540529e-02  2.1339944e-01  7.8665413e-02
  1.5303580e-01  2.2206123e-01 -4.5882374e-01  4.3193254e-01]
[-1.4523402  -0.79263854  1.2571362   0.04889034 -0.0035493  -0.21227477
 -0.29352596  0.64621556 -0.20358457 -0.02593806  0.919518   -0.19760361
  0.3366786  -0.44353738  1.1521295  -0.08389734 -0.5618059   0.11942219
 -0.00837103 -0.37979248  0.3056107  -0.45093125  0.18135856  0.29993248
  0.30751893  0.02799122 -0.5180872   0.06757287  1.1575396   0.16221987
  0.53648883 -0.00393945  0.03552085 -0.26139945  0.15566364  0.09252033
  0.19211392 -0.11004201 -0.22117385 -0.4453652 ]
[-0.27102804 -0.0822787   0.42345893 -0.08380041  0.15001541  0.57882565
  0.0075545  -0.3251237  -0.47855586 -0.01384002 -0.53906125  0.01905063
 -0.01871724 -0.12613401 -0.03472234 -0.31366345 -0.39364964  0.12884775
 -0.34279573 -0.10794072 -0.24404772 -0.22650059 -0.0927313  -0.08892702
  0.17186445  0.7618087   0.14937599 -0.14188787 -0.2814763  -0.1707061
  0.16226994 -0.28315964 -0.08706687 -0.47938615 -0.16316608  0.05490418
 -0.14089887 -0.02446007 -0.0923988  -0.23435429]
[ 1.3408408  -0.37742883 -0.35683298 -0.21447872  0.07155973  0.91372436
  0.13103601  0.4717365   0.14753388 -0.289884   -0.6336483   0.29509613
  0.00342988  0.01416631 -0.8749759  -0.25124046  1.676189   -0.14825615
  0.2539497  -0.15473093  0.37972295  0.00421278 -0.15645568  0.02149296
  0.0447971  -0.7430106   0.15908076 -0.11435853 -0.18925285  0.00825839
  0.01901357 -0.07699545  0.2950264  -1.049097    0.06817262  0.28542194
 -0.413634   -0.37318188  0.0519768  -0.24962121]
[-0.8476485   0.15565607 -0.4177511   0.10572138 -0.1795619   0.5765678
  0.13290545  0.2903639   0.12722026  0.08614593 -0.647198   -0.3278071
 -0.13835593  0.17353159 -0.81289846  0.01083654 -1.0376217  -0.29174727
  0.3059636   0.11753153 -0.35763562  0.49218976 -0.13835166 -0.1339413
  0.22941461  0.20209493  0.27195558 -0.08477575 -0.27464205 -0.03844832
 -0.14000174 -0.22441275  0.20411955 -1.7153381  -0.4274919   0.12216572
  0.2300542   0.04155075 -0.08737896 -0.11240603]
[-8.4120697e-01  1.6259545e-01 -4.3909800e-01  9.3120314e-02
  2.2728711e-01  9.1657210e-03  4.4617382e-01  8.1501395e-02
 -1.9430207e-01 -1.4852554e-01  6.5174833e-02 -2.8587082e-01
  2.7862915e-01  3.8709635e-01 -1.1144475e-01 -9.7220518e-02
 -1.0122435e+00 -1.0585385e-01  1.5889661e-01 -9.8712295e-02
 -1.3485217e-01 -7.6282293e-02  1.9647117e-01  5.7156563e-02
 -7.8620785e-04  7.1374483e-02 -4.5695774e-02  1.2201157e-03
  3.6119729e-01  6.9118634e-02  1.6948976e-01 -5.6765735e-02
  3.3842802e-01  7.6128520e-02 -1.9038108e-01  2.7318427e-01
  4.2973995e-02  2.5508720e-01 -8.8743083e-02  3.3097770e-02]
[ 8.61108124e-01 -3.77684891e-01 -1.45855570e+00  6.19451590e-02
  8.88060108e-02 -5.96885383e-01 -1.83550268e-01 -1.33004352e-01
  6.23353757e-02 -5.70318140e-02  7.47736692e-01  6.69209734e-02
  5.98141402e-02 -3.89391094e-01  1.25131273e+00  3.95850604e-03
 -1.38244963e+00 -4.19048071e-02  2.87635196e-02 -2.03124195e-01
  2.45404899e-01  7.61696517e-01 -2.22073942e-01  8.52493569e-02
 -4.25614938e-02 -6.81902409e-01 -1.37181925e-02  1.25915289e-03
 -8.05391371e-01 -7.79163465e-02 -3.37819189e-01  2.22853214e-01
 -9.77014080e-02  7.68398225e-01  1.88147664e-01 -1.10587016e-01
 -1.21367820e-01 -2.37342820e-01  2.55380034e-01  1.33431684e-02]
[-0.28341362 -1.1186012   0.88192445  0.0186036   0.03334055 -0.28519145
 -0.5882192  -0.57641196  0.08257952 -0.13487558  0.78402925 -0.42550814
  0.14190337 -0.06982294 -0.26767167  0.08328012  0.38848057  0.2588809
 -0.32790744 -0.60711175  0.14851344  0.7530595   0.21713842  0.10429456
  0.16297273  0.63904333 -0.278262   -0.06224599  1.4037309   0.11340053
 -0.05951048 -0.10580686 -0.33865538  0.04024459  0.17901014 -0.05017826
  0.18383218  0.30419987 -0.0420806   0.21363623]
[-0.45462346 -1.3082345   0.09494296 -0.02334189  0.47049224 -0.5042435
 -0.3271089   0.42259383  0.06800671  0.1284208   1.3490925  -0.26586217
  0.2993073  -0.45486504  0.59562635  0.27656376 -0.5203486   0.41834053
 -0.14673086 -0.18812475 -0.08524876  2.114987    0.19560155  0.28429815
  0.46440235 -0.40472266 -0.48252425  0.22613564  0.8907285  -0.00661199
  0.08691037  0.38425082 -0.5123159   0.281456    0.08240899 -0.45418817
  0.17934623  0.10808988  0.06097082  0.03135455]
layer 3 Activation
tanh
layer 4 Dense
40 20
[ 7.44799450e-02 -1.14266366e-01 -1.17288303e+00 -1.62777066e-01
 -6.70822114e-02 -3.39333266e-02  9.23805162e-02  2.27421115e-05
  2.07259238e-01  7.41523653e-02  9.31261554e-02  7.31942430e-02
  5.66740260e-02  1.51523888e-01 -2.31242642e-01  8.30601752e-02
  9.74612832e-01 -4.27350730e-01 -1.43236488e-01 -1.81400090e-01]
[-0.28925875  0.02770101 -0.18149437 -0.0325883  -0.11105733  0.11530378
 -0.09149179 -0.1669527  -0.11385046  0.15726778 -0.11839874  0.11947217
  0.1814825   0.2016218   0.23293526  0.15274337 -0.3969555  -0.25327536
  0.07812755  0.11318796]
[-0.09024268  0.02785857  0.8516612  -0.04364586 -0.06294676 -0.12050767
  0.19146334  0.09594597 -0.03792746  0.01887875  0.12881838 -0.0403997
 -0.04458092 -0.17032413 -0.11340915  0.20291953 -0.98985004  0.6110315
 -0.767969   -0.10571366]
[ 0.00984196  0.08183055 -0.05855345  0.08413321 -0.00237392 -0.17066987
 -0.1316739   0.03686251  0.02408251 -0.07980727  0.04318827 -0.04133279
 -0.0519367   0.09797574  0.0681917  -0.08779182 -0.02711317  0.06723975
  0.00021653 -0.1431759 ]
[ 0.27959466  0.07489409 -0.11224483 -0.03072484 -0.08290657  0.08927606
  0.0901018  -0.06922705 -0.09102794  0.12097896 -0.13344316 -0.08053564
  0.15485653 -0.06457622 -0.07420318 -0.18399328  0.07493132  0.11291831
  0.02028594 -0.00031528]
[ 0.11690132 -0.05216504 -0.21087962 -0.29949763 -0.02342171 -0.11399312
  0.04007014 -0.24039657 -0.10468961  0.13282849  0.06700409  0.05305029
  0.07092985  0.09710005  0.09903197  0.11755341 -0.51919657 -0.38655832
 -0.34334856 -0.02400635]
[-0.12411395  0.0520312   0.01912084 -0.15752774 -0.09434243 -0.02092438
 -0.06651632 -0.3605059  -0.0339567   0.10883748 -0.02181189 -0.07465754
 -0.1089166   0.12595798 -0.25891465  0.15249756 -0.16714522 -0.01358885
  0.10278711 -0.23103547]
[-0.01230443 -0.01585055 -0.0364345  -0.24608986 -0.18369168 -0.20297512
  0.05736021 -0.28897527 -0.1987606   0.00558126 -0.0069045   0.0285506
  0.07744159  0.10761299 -0.0006978  -0.11347187  0.21458231 -0.18513489
 -0.22402582 -0.14283198]
[ 0.02445401 -0.0414093  -0.11014562  0.00296824  0.0718901   0.05714312
 -0.03864062 -0.24362853  0.10648105  0.01019203 -0.06337943  0.26639587
  0.10313859  0.00373655 -0.07122235  0.22933434  0.19149034  0.16086175
 -0.01191319  0.17747186]
[-0.29264817  0.00649167  0.14060691 -0.16710263 -0.05082953 -0.05515406
 -0.09408578  0.09610439 -0.05916189 -0.10087866  0.01634289  0.02184475
 -0.04657733 -0.0277697  -0.02496153  0.0512541   0.02183649  0.08361622
  0.03091507 -0.08989802]
[ 0.32200563  0.03493423  1.2212868  -0.1043662   0.01658204 -0.04196485
  0.0706351   0.28330493 -0.07179471  0.17814994  0.11623619 -0.27986768
 -0.04543704 -0.24093343 -0.16387461 -0.16949806  0.21142247  0.72017676
  0.35911626  0.0371766 ]
[-0.02909051  0.17670779  0.10391665  0.03869297 -0.14562622  0.18735139
  0.17780416  0.01084188  0.14640103  0.02047883 -0.05638525 -0.0423213
 -0.20205308  0.2391365  -0.11236455 -0.06770698 -0.1097475  -0.12623282
  0.21636163 -0.28565872]
[ 0.44293156  0.01167286 -0.11659994 -0.00695118  0.09265426  0.08346833
 -0.01264655  0.21194592 -0.09941418 -0.06841282 -0.1429479  -0.02127607
 -0.08557919 -0.15135412 -0.06527106 -0.2417835  -0.00712904  0.00808521
  0.03742397 -0.04921586]
[-0.01932673  0.11167204 -0.11902217 -0.11794268  0.14917205  0.0537915
 -0.04160521 -0.15885706  0.0893831   0.09960801 -0.107597    0.11633004
 -0.05936628  0.16597037  0.02208743  0.09833018 -0.12125248 -0.02973088
 -0.08547543  0.04813486]
[ 1.0976423e-01  2.3200868e-02  1.4238961e+00 -1.3410333e-01
 -5.4294209e-04 -2.7402025e-01 -1.0621028e-01  1.8950710e-01
 -2.3794077e-02 -1.9178189e-01  4.7124889e-02 -8.3326004e-02
 -1.8938616e-02 -2.2461715e-01  2.0704225e-01  4.9360961e-02
  1.1456565e+00  1.2875291e+00  1.1530591e+00 -4.8581041e-02]
[-0.07678271  0.08078617 -0.05551755 -0.08080405  0.06588465  0.00440114
  0.10782715  0.02836341 -0.10503968 -0.03846429  0.12948956  0.06067213
  0.05164924  0.05048819  0.01150824 -0.2009856   0.09899731  0.21063426
 -0.04238217 -0.1615665 ]
[-0.13194421 -0.05365731 -1.5616901  -0.01741484  0.1111866   0.10920674
 -0.08005655 -0.29481307 -0.18521042  0.03765676 -0.19464085  0.53740954
  0.08607212  0.1653194  -0.02918068 -0.06565822  0.5424882  -0.95381176
 -0.8133688  -0.05223289]
[-0.01065111 -0.02417872  0.07725036 -0.04525074 -0.0985446  -0.01607321
  0.15003791  0.07481398 -0.15796417  0.18353635  0.05119504 -0.00693719
  0.29790828 -0.11801434  0.25629976 -0.20166157  0.08069989 -0.08807121
 -0.05181308  0.01556317]
[ 0.13756971  0.01038925 -0.12346895 -0.1371288  -0.29576075  0.05835693
 -0.00966127 -0.22121146 -0.23685637  0.1397052  -0.34712115  0.31258637
  0.18767916  0.11029194  0.01016194  0.0428069  -0.10349857  0.2060269
  0.09252378  0.21518274]
[-0.21310413  0.06925365 -0.0275647  -0.28923947 -0.00468919 -0.05112283
 -0.08554039 -0.22506838 -0.12212187 -0.07525067 -0.21105763  0.14007571
 -0.12184807  0.05025662 -0.07631587  0.25428182 -0.16681224  0.15332292
  0.04097925 -0.15705629]
[ 0.38756597 -0.03962695  0.08241542  0.00846309 -0.07692931  0.11213103
 -0.12161193  0.18312073  0.05778744 -0.1318023   0.02659831  0.04520787
 -0.14247438 -0.11201363  0.06314187 -0.16524352 -0.14628933 -0.14500989
  0.01224024 -0.2542437 ]
[ 1.85951799e-01  2.52441317e-02  1.35425055e+00  2.30991185e-01
 -7.96819851e-03  5.03377058e-02 -4.27356717e-04 -2.87855025e-02
  1.64566468e-03 -8.74261707e-02  5.86679811e-03 -2.04196796e-02
  3.95792909e-02  1.15297556e-01 -1.37241229e-01 -2.91724920e-01
  8.18478167e-01  8.77264082e-01 -4.58310634e-01 -1.85161948e-01]
[ 0.21522313 -0.02740928 -0.03181389  0.16302094 -0.20278539 -0.01910293
 -0.05404198  0.14446558  0.03880018  0.09053142  0.02913473 -0.02372046
  0.06580807 -0.00741271  0.14150931 -0.06922468  0.03061002  0.18370958
 -0.07737888  0.15281397]
[ 0.05399426  0.02590015  0.00477248  0.02089087 -0.04211345 -0.1649743
 -0.03046281 -0.04475276 -0.04481574 -0.04517908  0.14893855 -0.02168467
  0.09751126  0.25176066  0.23282222 -0.20674346  0.04647093  0.09015047
 -0.09043056 -0.04585153]
[ 0.24317083 -0.07744836 -0.06261273  0.01797665  0.01478038 -0.0344647
 -0.00389786 -0.05063809 -0.03588471  0.21166867 -0.07823937 -0.19003941
  0.12553042 -0.02266998  0.13849187 -0.11830789  0.13907982  0.04748368
 -0.03560652 -0.00278546]
[-0.00559263  0.08762771  0.23914331  0.05660131  0.24508357 -0.02607035
 -0.09322295  0.04315779  0.00123685 -0.13436979  0.14118494 -0.20175445
 -0.05055935 -0.05327344  0.24258234  0.15356863 -0.45765534  0.17768762
 -0.03760715  0.0366572 ]
[-0.29383767  0.0237332  -0.14800988 -0.12587216  0.10636056  0.28208178
  0.07403686 -0.15908374  0.07259244  0.01624076 -0.16469613  0.18344638
  0.036998    0.2571788  -0.04686744  0.1941737  -0.12745854 -0.0916089
  0.10944794  0.13214451]
[ 2.4604928e-01  1.7844407e-02 -7.7224396e-02  2.7302686e-02
  1.1561357e-02  1.2063603e-02 -4.8746541e-02  1.1312301e-01
 -1.0011583e-01  3.8675327e-02  1.2129072e-01  5.2040055e-02
 -1.2443534e-02 -1.1130352e-01  9.9698558e-02 -2.7851975e-02
 -2.6016071e-02  1.6747986e-04 -7.9103224e-02 -2.0307347e-01]
[ 0.25579485 -0.03679982  0.79148835 -0.04591338  0.05087754 -0.13953033
  0.06017393  0.33139226  0.18060617  0.08826987  0.14051129 -0.77667713
  0.23683028 -0.14354344  0.27062452 -0.06038032 -0.3808442   0.93554544
  0.01391886 -0.06509165]
[-0.02731544  0.02285945 -0.08259003 -0.06037809 -0.17795941 -0.01115911
  0.01390882 -0.09162503  0.00403447 -0.1192456  -0.08887497 -0.08288264
  0.15318875  0.07978991 -0.0290687  -0.00459681  0.07545801 -0.04694273
  0.03072765 -0.13764147]
[ 0.20776528 -0.08157416 -0.00895721 -0.02945644 -0.18276079 -0.04287624
  0.0123481  -0.11415011 -0.02447399  0.1209337   0.12314279 -0.3279285
  0.09957379 -0.18751267  0.17684679 -0.11104509 -0.01641681 -0.09804122
 -0.08437473 -0.02806482]
[ 0.2017112  -0.15235364  0.0016859   0.01345511  0.06588876  0.0276939
 -0.05734849  0.1040911  -0.0262594   0.10578828 -0.0265777  -0.04603812
 -0.00559582 -0.04924122 -0.03071857 -0.15121509  0.17675343  0.0887302
  0.04998608  0.04774733]
[-0.04016069 -0.06872635 -0.00456684  0.02139044  0.09300201  0.05414039
  0.02631915 -0.24969535  0.03652253 -0.04557509 -0.02988916  0.09351619
 -0.2165105   0.18609624 -0.06489778  0.10139355 -0.13503589 -0.06476168
  0.05158697  0.09208667]
[ 0.07376503 -0.11228197  0.55682635  0.09067009  0.03736021  0.19588369
 -0.05916196  0.37393078 -0.0759812   0.01247045  0.0620336   0.16917902
 -0.08164452 -0.19068316  0.03627395  0.0089508   0.77792346  0.6113108
  0.941392    0.10878212]
[ 0.1370292  -0.03644098  0.17843673  0.05092278  0.10092485 -0.01960878
 -0.20314111  0.23707615 -0.11437356  0.2118462   0.18816333 -0.02691924
 -0.06995077 -0.10949896 -0.2114395  -0.01159812  0.05675034 -0.06246801
 -0.00306969 -0.06202802]
[ 0.00713318 -0.07136577 -0.04398895 -0.10977844  0.03498621 -0.14735262
 -0.07105851 -0.03901447  0.1168804  -0.12400588 -0.00324978 -0.13712892
 -0.17141342  0.03820172 -0.04703536 -0.00712989  0.07748866 -0.11905613
  0.00263473  0.02089471]
[ 0.02317155  0.03319364  0.01880619  0.03256212 -0.14895138  0.03464817
  0.0226259   0.23742737 -0.10323573 -0.14433351 -0.08597218 -0.15239364
  0.0060607  -0.08326165  0.0618665  -0.00624562 -0.04891356  0.00297786
  0.01852332  0.03921057]
[-0.31547144  0.05710178 -0.01965954 -0.05777814 -0.04675661 -0.18242255
 -0.03159747 -0.01962635 -0.2350375   0.0597406   0.01162296 -0.00248515
  0.0993626  -0.20598598  0.01314403  0.23692504  0.09807591  0.15013199
 -0.10552989  0.21138264]
[ 0.05084245  0.06747609  0.02129577  0.06309915  0.04777989 -0.17258775
  0.02976182 -0.11079341  0.2993812   0.1064877   0.14979906 -0.03676372
 -0.10209636  0.03251262  0.08977398 -0.06945179  0.07349928 -0.14875437
  0.08448156 -0.04351557]
[-0.15689044 -0.01084667 -0.05132223 -0.04113787  0.13485165 -0.0105699
  0.05581464 -0.0298783  -0.04603929  0.07295625 -0.21936701  0.12956035
 -0.01450767  0.05107166 -0.19041255  0.32354724  0.23905952  0.10363785
  0.05948452  0.09720711]
[ 0.08271459 -0.09005121  1.3012625   0.02637708 -0.09883938  0.0423363
  0.0307663  -0.0857593  -0.04893443  0.01220044 -0.0987189  -0.00319608
  0.14956659  0.00243386 -0.03425599 -0.33999342  0.72706974  0.47171852
 -0.4748607   0.03367176]
layer 5 Activation
tanh
layer 6 Dense
20 1
[0.01919721]
[-0.01807077]
[-0.51984644]
[-0.00433623]
[0.01246834]
[0.04232339]
[0.00195315]
[-0.00873009]
[0.03697031]
[0.00499251]
[-0.02597276]
[0.03807209]
[-0.01186114]
[0.00605844]
[-0.01191983]
[-0.02532192]
[0.09663037]
[-0.17639259]
[-0.12892058]
[-0.01371851]
[0.72534055]
