layers 7
layer 0 Dense
24 20
[-0.9782901   0.4574032  -0.4455787   0.82084733  0.40597597  0.9201036
 -0.67326695  0.1963181   0.20244661  1.3068336  -0.35490608  1.013623
 -0.04718887 -0.6325402  -1.2022151  -0.14625256  0.9090407   0.6468806
 -0.60575074  2.0803065 ]
[-0.55690414 -0.5989883  -0.08109822 -0.47564417  0.07412975  0.15578277
 -0.77417254 -0.13867463  0.00533683  0.30426818  0.2938435  -0.04723901
  0.0391174  -0.34402156 -0.3445531  -0.0812107   0.6256661   0.42104053
  0.28743878  0.84081006]
[-0.48974714 -0.57408977  0.03093148 -0.42044148 -0.40947798  0.6979865
 -0.92159796 -0.3938082   0.6007102   0.02104303  0.35570893  0.12676914
  0.05284516 -0.50863713 -0.3076262   0.02650514  0.6779156  -0.03169722
  0.42206377  0.35884795]
[-0.5100678   0.40765306  0.02482415  0.3631081   0.1646054   0.79831594
 -0.9795884   0.3915733   0.3734176   0.6089353  -0.29918936  0.50286007
  0.03718622 -0.96950436 -0.90615493 -0.16549541  0.6067788   0.7909688
 -0.21129516  1.164721  ]
[-0.24236225  0.29682308 -0.87276685 -0.31607294 -0.00405461  0.3655047
  0.04631747 -1.0185895   0.66087157  0.5110517   0.2220569   0.43861303
 -0.15585169 -0.14796056 -1.1431274  -0.5415366   0.01956772  0.64198226
  0.17153595  1.0249723 ]
[ 0.31661573 -0.17264171  0.18429078  0.30634004  0.19021994  0.16907315
 -0.7095643   0.77287674  0.15830314  0.15672457 -0.13630639 -0.17591678
 -0.6708284   0.05810902 -0.46790397  0.09704351  0.07669447  0.10393643
 -0.8270429  -0.095208  ]
[-0.00158218 -0.22805966  0.58916855  0.4035701   0.34179214  0.18974993
 -0.36171964  0.54971206 -0.03868462 -0.2374297  -0.07690272  0.3703244
 -0.4876635   0.17317884 -0.07452388  0.38418165  0.12391808  0.17801997
 -0.15491816  0.00187653]
[ 0.28010747  0.22755888 -0.1547353   0.16619778  0.23203953 -1.1556334
  0.89130837 -0.212654   -1.3959248  -0.87939066  0.2829477  -0.6227809
  0.9764448   0.7165747   1.4180611  -0.33212224 -1.2801754  -0.78940135
  0.20117584 -2.061052  ]
[ 0.22951946  0.17373788 -0.40552825  0.14563902 -0.05161467 -0.36684036
  0.4425166  -0.18876788  0.30887845  0.39022213  0.6829225   0.5229276
 -0.14000294  0.06994653 -0.5826816  -0.0721362  -0.37868097 -0.17551608
  0.7253293   0.7342176 ]
[-0.6090309   1.4769071  -0.13361672  4.032303    3.650817   -0.13438426
  0.27252108  0.9165173   0.6777509   0.2350684   1.1366286  -3.4583921
 -3.6990886  -0.11684199  0.8432801  -0.58395284 -0.1553317   0.23021069
  0.3643708  -0.34159207]
[-0.13817053 -0.3743316  -0.6415417  -0.06204703  0.2668025  -0.03867967
  0.11876776 -0.5632646   0.01835164  0.5925394  -0.09593911  0.6005714
  0.45094576 -0.06360482 -0.60545397 -0.24430163  0.06507675 -0.08352734
  0.63608456  0.6483265 ]
[-0.22641002  0.33065757 -0.29449168 -0.281297   -0.9440435  -0.4449836
  0.84707713  0.06949597 -1.7574446  -1.5319611   0.3986234  -0.43763912
  0.6849004   0.59003067  1.4011322  -0.5621708  -0.72973    -0.8958598
  0.28011236 -2.629059  ]
[-0.04905502  0.52919614 -0.56738126  0.47449377 -0.12933435 -0.50675094
  0.38053438 -0.5774778   0.01864888 -0.01464871  0.46144566  0.6619574
  0.49333036  0.1410821  -0.55917865 -0.49914774 -0.4091574  -0.01501457
  0.58805794  0.42408502]
[-0.0316117  -0.57489324  0.15174118 -0.8487903  -0.66697615  0.0326971
 -0.12013458  0.18532264 -0.758448   -0.43222106 -0.67124486  0.6251982
  0.668008   -0.38674787  0.20222338  0.01473827  0.07152674  0.04385108
  0.05273334 -0.70161283]
[ 0.5952318  -1.7403071  -0.09579226  1.4332556  -0.5462913   0.17746688
 -0.09341037  0.39516523  0.48217246  0.42078996  0.06526275 -1.2212877
 -2.2810018  -0.15992273 -0.7694338   0.27303955  0.27431867 -0.1512483
  0.22968468  0.00392088]
[-0.05202985 -0.51626176  0.4734008  -0.07236314 -1.3773075  -0.81892747
  0.71982384 -1.0892069  -3.1384     -1.5169355   0.72001433 -0.36002627
  2.138113    1.0381016   1.7417948   0.09036921 -0.601374   -1.1878996
 -0.34517786 -2.7594507 ]
[ 0.18490279  1.4517995  -0.43326622  0.7720909   0.65408814 -0.59221387
  0.5879473  -0.7389147  -0.9436752  -0.08827207  0.5295281   0.24383654
 -0.05196541  0.55675596  0.28310418 -0.23097435 -0.5923841  -0.6255714
  0.51470286 -0.38529903]
[ 0.24876817  0.23642589 -0.6509412  -0.86021274 -0.8951831  -0.11620091
  0.17808062 -0.2759553   0.4327066   0.27894983  0.37473273  1.0677047
  0.4791279  -0.19028813 -0.8424067  -0.37550357 -0.02387897  0.35439244
  0.5061991   0.45451012]
[-0.00398015  0.09725369  0.19817585 -0.34429052 -0.16021861 -0.45452586
 -0.1298044  -0.07419263 -0.60516775 -0.79295605 -0.3538665  -0.11818748
  0.52482325  0.205033    0.87042165  0.28619295 -0.06321511 -0.21909276
 -0.25076804 -0.8523761 ]
[-0.42241457  2.890761    0.31212696  1.8145103   1.148963   -0.5278316
  1.1069907  -0.02310138 -2.701021   -1.3181809   0.31899402 -0.28725737
  0.7377293   0.8379161   1.5866873  -0.5346052  -0.78469414 -0.5248422
  0.3016151  -1.529366  ]
[ 0.3829651   0.39898217 -0.22609958  0.05522875 -0.01808982  0.16371587
  0.54445547 -0.22884735  0.07138207  0.03249783  0.33200118  0.58881384
 -0.4337254   0.06036379 -0.09410042 -0.20393205 -0.32247448  0.09759857
  0.5332505   0.32753012]
[-0.00977121 -0.01919895 -0.50691503  0.40954155  0.522118   -0.20368399
  0.48806575 -0.8050953  -0.30100572  0.35031688 -0.15705353  0.7309122
  0.03004233 -0.10235039 -0.63041925 -0.23650882 -0.10116567 -0.10384228
  0.785658    0.5803648 ]
[ 0.28134742  0.8594601  -0.5109185  -0.69796497  0.9935704   0.16050425
  0.09894606  0.5262277   1.2792662   0.6717933   0.95446336  0.18014412
 -0.97744787 -0.16323255 -0.8118105  -0.34339777  0.09827892  0.4204582
  0.06791794  1.0567635 ]
[ 0.023361    0.22069868 -0.553492    0.48123762 -0.01668921 -0.61627936
  0.33121684 -0.00523077 -0.13262148 -0.3986284   0.5762008   0.45682314
  0.2611266   0.3895505  -0.11319391 -0.20181064 -0.26421514 -0.6152767
  0.39172807  0.19212191]
[-0.24909054 -0.26569262  0.07495655 -0.09464617 -0.12198063  0.6066931
 -0.75033295  0.4110011   0.40791002  0.4043693  -0.5176598   0.01528977
 -0.1996432  -0.62938756 -0.5192297   0.2133351   0.6735145   0.42392254
 -0.39512083  0.5699987 ]
layer 1 Activation
tanh
layer 2 Dense
20 40
[-0.12098201  0.72379935  0.04601485 -0.12417497  0.04343354 -0.9596137
 -0.6579689   0.2030186   0.99434507 -0.91640884  0.25289488  0.82951295
 -0.1878768   0.21718617  0.86215556 -0.35218048  0.12328544 -0.4244973
 -0.15814435 -0.4174228   0.37661654  0.06515441 -1.3792742   0.4106667
 -0.18529403  0.06672457 -0.92286736 -0.06106066  0.08360244  0.47303015
 -0.77897096 -0.13355651 -1.0211513   0.5726013  -0.04587988 -0.11115909
  0.3595625  -0.17338696 -0.8523714  -0.01691802]
[ 1.2876809e-01 -3.3826247e-02  9.5186435e-02 -3.4119137e-02
  2.7973858e-01 -1.5106530e-01 -1.7355010e-01  3.3125234e-01
  1.7364073e-01 -4.1968513e-01  3.6388958e-01  3.3115515e-01
 -3.2617118e-02 -2.1453270e-01  1.0980136e+00 -3.3294356e-01
  1.5725917e-01  3.2758516e-01  4.8847112e-01 -5.4519254e-01
 -4.0764019e-02  6.6089064e-02 -2.8945020e-01 -3.9098720e-04
 -2.9932028e-01  1.3854311e-01 -4.4283417e-01  6.2237665e-02
  8.9246869e-02  6.1784470e-01 -2.3477650e-01 -3.9101744e-01
 -2.0588563e-01  3.9997187e-01  1.6044047e-01  1.6673753e-01
 -3.3812025e-01 -6.7322984e-02 -4.0603161e-01  4.0379327e-02]
[ 0.27198166 -0.39863443 -0.00788949  0.1201949  -0.23015986 -0.2148066
 -0.40789056 -0.7592845  -0.52523357 -0.05794537  0.5934831  -0.02362129
 -0.08970688  0.14217612 -0.12956986 -0.1390417   0.09016326  0.00531907
 -0.15086384 -0.06212647 -0.43807876 -0.12975764 -0.01995756 -0.24083747
  0.33349988 -0.5151436   0.27001354 -0.53242844  0.33739653  0.2531462
 -0.03935013 -0.13264339  0.15749663 -0.44131058  0.33451596  0.11466065
 -0.10174505  0.5875691   0.09571063 -0.46624348]
[ 0.57916087 -0.01897473  0.41889387  0.43372247  0.3643866  -1.3805312
 -0.7949756   0.49965435  0.39941952 -0.5877201   0.3299074   0.30177307
 -0.7176261   0.81334907  0.5039021  -0.4429252  -0.7653515   0.6311274
 -0.1790948  -0.15505406  0.07646125  0.5538252  -0.31738657 -0.20771053
  0.8770568  -0.1996346  -0.35483363 -0.708472    0.49835217  0.5585384
 -0.39944163 -0.6003919  -0.95188457  0.17986569  0.48465958  0.65872854
  0.30817866  0.33565494 -0.1612595  -0.80941784]
[ 0.4484576   0.03300908  0.13513939  0.49266192  0.7085494  -1.0580778
 -0.3410276   0.2856852   0.55316734 -0.5899531   0.24177028  0.2658244
 -0.62480927  0.6379765   0.55602497 -0.29389948 -0.56255543  0.33149445
 -0.02167242 -0.18005896  0.05670094  0.4242838  -0.53185344  0.13598534
  0.45987275 -0.77986777 -0.30458862 -0.513654    0.40475145  0.5388138
 -0.06688961 -0.33324605 -0.725914    0.43824762  0.27800357  0.39357752
  0.21306108  0.5629636   0.1776095   0.01924663]
[ 0.22827324 -0.5220475   0.1150851   0.33805555 -0.5768069   0.31282055
  0.45224628 -0.08947267 -0.5907125   0.11495053  0.4981215  -0.00447214
 -0.28989637  0.02053469  0.40281266 -0.45948005 -0.2683868  -0.09017742
  0.40001634 -0.7806433  -0.09165758  0.3963059   0.11482925 -0.2989393
  0.32694772 -0.48092604  0.36776847 -0.55831236  0.21992822  0.1032915
  0.19878595 -0.2678194   0.36486503  0.27659705  0.48549652  0.4557816
 -0.05054269  0.07752492  0.3233517  -0.53447104]
[-0.46261615  0.23756023 -0.56388557 -0.80010945 -0.3882536  -0.6450526
 -1.0084113  -1.1131034   0.8533416  -0.72260916 -0.3856282   0.7583134
  0.5133358  -0.6618691   0.36865783  0.04275388  1.1304977   0.14489606
  0.38280776  0.07744458  0.16163643 -0.8937237  -0.6485394   0.6761005
 -0.7974178   0.71582335 -0.70905185  0.05767576 -0.3258967   0.34279624
 -0.44099692  0.30579618 -0.8703965   0.03711821 -0.591542   -0.2505282
 -0.40845582  0.0637579  -0.5498728   0.427764  ]
[-0.2883824   0.6204324   0.357228    0.16736804 -0.0605954  -0.71516323
  0.16489848  0.17605476  0.5655353  -0.22474854 -0.12069084  0.6245181
 -0.04932366  0.28914195 -0.13476677 -0.28324565  0.04978799  0.542244
 -0.20476353 -0.81734973  0.19868125  0.04900671 -0.6851769   0.53796524
 -0.25362346 -0.3833045  -0.58171725 -0.25479373  0.01679504  0.294243
 -0.4770751   0.38262883 -0.44566643  0.03618613 -0.9808673  -0.42733374
  0.32222643 -0.55975926 -0.38888252  0.12086702]
[ 0.30871353 -0.13683754  0.5297836   0.79750687  0.4196116  -0.8064546
 -0.27761784  0.5403591  -0.24036692 -0.4115129   0.4241911  -0.09133153
 -0.7530432   0.7755279  -0.38756615 -0.28369352 -0.3764161   0.36922345
 -0.3505356  -0.21506777  0.37324956  0.4256953  -0.4581024  -0.05632962
  1.0080948  -0.6231342   0.09239803 -0.68109804  0.5042962   0.6546046
 -0.42681465 -0.27147824 -0.17874205 -0.22729295  0.35042015  0.6859853
  0.06185932  0.92679757 -0.13491745 -0.65583205]
[ 0.26834327  0.16740642  0.38132158  0.14219037  0.1886908   0.22919185
 -0.03846394  0.5715207  -0.40904137  0.46306553  0.6872981  -0.14278056
 -0.03861469 -0.09139156 -0.33943674  0.11428425 -0.45646012 -0.08403467
 -1.1619827   0.4316742  -0.3666559   0.19897914  0.67451936 -0.5762874
 -0.21376702 -0.35803363  0.4117313   0.0050212   0.28071126  0.72947294
  0.2510848  -0.6889841   1.1764135   0.12580274  0.52158344  0.2231149
  0.00928378  0.6800163   0.41562918 -0.4073769 ]
[-0.17330784  0.34765688 -0.3724003  -0.14676887  0.6982199   0.08739346
 -0.16180916  0.10277501  0.5170394   0.25376108 -0.80842197  0.09402631
  0.14229284 -0.10212163 -0.4387575   0.22297251 -0.29127395  0.37140056
 -0.16022566  1.0018191  -0.13730825 -0.0563352  -0.02627248  0.22210972
  0.31292558  0.6483497   0.07530464  0.16661966 -0.4471072  -0.02075922
  0.4122055   0.00390342  0.22508748 -0.2780103  -0.32469222 -0.46062025
 -0.1083928  -0.09518322  0.15256561  0.32723576]
[ 0.6975907   0.47239822  0.6224464   0.62788534  0.24635836  0.25802615
 -0.01675477  1.1516142   0.27762374 -0.9530041   0.71215683  0.36698508
 -0.48921433  0.42731944  0.98770475 -0.71937853 -0.9216384  -0.26030448
  0.7593794  -0.40319583  0.4646943   0.44000158  0.15670088  0.09454168
  0.5948175   0.9173914  -0.1814244  -0.3283815   0.3960553   0.05620351
 -0.48914275 -0.16712548 -0.38915157  1.7492539   0.144112    0.4032188
  0.91227597 -0.26072663 -0.50180715 -0.33419722]
[-0.7082748  -0.74794453 -0.518034   -0.5849109  -0.20154893  0.59454197
  0.21777053  0.04289074 -0.10497152  0.28462064 -0.00251176  0.02046534
  0.47215    -0.35201278  0.7299466   0.50602925  0.49093714 -0.48659864
 -0.01831631 -0.1382413   0.02235954 -0.67023     0.06924193  0.20797819
 -0.10282201  0.507826   -0.2293355   0.71923083 -0.21885502 -0.21328495
  0.04023845  0.21313842  0.28390846  0.33821073 -0.2667468  -0.51979727
 -0.41977686  0.16516608 -0.03411413  0.15640683]
[-0.22809711  0.10033531 -0.05094396 -0.48117486  0.1726168  -0.5239981
 -0.5247828   0.02698756  0.40685028 -0.73191655 -1.0672667   0.61356604
  0.5420887  -0.4753237   0.45586964  0.3641864   0.04256107 -0.6611658
 -0.16897433 -0.18940195  0.6140066  -0.19196504 -0.6310748   0.566662
  0.24076535 -0.10170057 -0.47188577  0.23215865 -0.11898457  0.15590452
 -0.35288256  0.27783808 -0.2950957   0.06861817 -0.23942195 -0.2865695
  0.04260655  0.21468315 -0.2834076  -0.2503683 ]
[-1.2551086  -0.06742939 -1.3216584  -1.4276124  -1.1192755  -1.0205286
  0.0931526  -1.2516224   0.00786675 -0.48636603 -0.23424907 -0.09418502
  1.0409331  -1.2686989   0.47881347  0.13058464  1.2784877  -0.06855213
  0.9302394  -0.40952465  0.5114118  -1.1132438  -0.40914828  0.65476733
 -1.0702267  -0.81270826  0.00180456  0.9127711  -1.5928926  -1.3087772
 -0.15414928  0.90611345 -0.01497808 -0.84993756 -0.4982389  -1.1332438
 -1.023438   -0.8997126  -0.01921152  1.0800362 ]
[ 0.22636107  0.47720698  0.1028946   0.31152222 -0.8751824  -0.34119144
 -0.12252324 -0.39656863 -0.5017263  -0.23202051  0.56731886  0.2181598
  0.1396165   0.01375631  0.19878618 -0.8265822  -0.5191372   0.17545477
  0.14088851 -0.7328599  -0.65453404  0.15203413 -0.25381422 -0.19372691
 -0.11492103  0.20950514 -0.18744573 -0.5373965   0.29437226 -0.12803613
 -0.01437981  0.03928085 -0.23720752  0.20430997 -0.27263147  0.13771436
  0.18986046 -0.58032745 -0.22114027  0.38085887]
[ 0.58734137 -0.3244778   0.41952845  0.3420178  -0.18506955  0.2447984
  0.748302    0.40949008 -0.8511374   0.51759887  0.50719106 -0.5479038
 -0.23247668  0.11575066 -0.0627912  -0.15034631 -0.20112081 -0.04835256
 -0.3469579  -0.40191314 -0.16649984  0.46062443  0.66925377 -0.2828084
  0.6701652  -0.4348073   0.51993316  0.05654513  0.37571523  0.20686258
  0.2982877  -0.40233007  0.44878453 -0.03632094  0.13542192  0.46507016
  0.49720502 -0.20021886  0.5480481  -0.48093703]
[ 0.24164028 -0.08126803  0.3959277   0.19385774 -0.57907856  0.09763186
  0.36423868 -0.63133687 -0.6642824   0.06089596  0.99861914 -0.13926324
 -0.05108522  0.39049008 -0.11051357  0.1068396  -0.7528888  -0.33173993
  0.12035508  0.02063871 -0.62526214  0.11704523  0.02503833 -0.20366262
 -0.07224704 -0.86118263 -0.212988    0.07152587  0.07123207  0.13512391
  0.4448208   0.1795596   0.4147482  -0.4224209  -0.3589899   0.2837932
  0.26061013 -0.2615848   0.5403865  -0.15041657]
[-0.49322566  0.7958247  -0.30467832  0.05749728 -0.08599862 -0.07869154
 -0.5204516   0.24306825  0.5758491  -0.3653694  -0.787416    0.12942587
  0.38400525 -0.3555581   0.42579898  0.16016418  0.13369958  0.22049235
  0.16135532 -0.00268946  0.36878833  0.04534319 -0.01136821  0.29380417
 -0.16021048  0.8499771  -0.26327622  0.383803   -0.4393411  -0.09153913
 -0.18944022 -0.25218272 -0.60457337  0.04175939 -0.33649102 -0.49880815
 -0.23305379 -0.6120383  -0.35590324  0.24090613]
[ 3.0579343  -1.180737    3.8975558   3.5162115   1.2621572  -0.05892483
 -0.65570927  1.413624   -1.1394621   0.12499718  0.37509474 -0.5245232
 -3.8846118   4.02921     0.38609847 -1.4150276  -2.8665764   1.4668479
 -2.4113097  -0.17211697 -1.6326171   2.8854628   0.3699227  -1.109668
  3.4719985  -0.8874077   0.60499656 -2.2598279   3.8940277   1.8624096
  0.91162777 -1.2318568   0.7544399   1.2262355   1.6310991   3.2641003
  1.6037368   2.6534946  -0.11843264 -2.740178  ]
[-0.04859304 -0.5136228  -0.23370278 -0.02447997 -0.03134327  0.7606893
  0.67887735 -0.0384331  -0.5304306   1.1262358  -0.05995445 -0.640945
  0.22469999 -0.14350894 -0.6631699   0.1828884   0.01077361  0.3200205
 -0.08658524  0.45690012 -0.31667832 -0.11231474  0.77563065 -0.27196503
  0.21165045 -0.13197276  0.51082456  0.1744814  -0.06739318 -0.40898854
  0.5824902   0.07429743  0.5604416  -0.7205555   0.30874312 -0.12570028
 -0.1392972  -0.10888691  0.712969    0.09806708]
layer 3 Activation
tanh
layer 4 Dense
40 20
[ 0.23778343  0.43261367  0.562325   -0.15615122  0.4608206   1.0858892
  1.111065   -0.39021552 -0.10116994  0.04186446  0.488022   -0.9423408
 -0.10822123 -0.16091938 -0.04657345  0.82994455 -0.39990038  0.08370406
  0.02812643 -0.8201156 ]
[-0.06193163 -0.1958441  -0.72846913  0.46724468 -0.8662532   0.4750989
  0.330115   -0.06413133  0.6631645  -0.627304    0.6653972   0.7219226
 -0.36260593  0.42493883  0.62518746  0.22961903  0.9159015  -0.6030705
 -0.1290051  -0.08796644]
[ 0.41729227  1.970501    0.4124388   0.15057887  0.24244173  0.9222282
  1.0146792  -0.6133835   0.25329039 -0.5950123   0.02819951 -1.1422234
  0.16705653 -0.54001516 -0.23603551  0.70797443 -0.17859656 -0.19930287
  0.24278715 -1.5798513 ]
[ 0.6653593   0.8272858  -0.01581137 -0.11471204 -0.08572556  1.4694554
  0.8805946  -0.8641657   0.00290137 -0.14910583  0.60310245 -1.1191825
  0.04248587 -0.20156452  0.06127578  0.7016394  -0.11524276  0.19511868
  0.620936   -1.3046687 ]
[ 0.99222875  0.17417069 -0.18383536 -0.08496964 -0.18081792  0.24184918
  0.00152095 -0.65894103 -0.19447924  0.27081886 -0.12268466 -0.54176706
  0.1961108   0.3399144   0.03917066  0.560212    0.7945724  -0.01594898
  0.08477283 -0.3196945 ]
[ 0.44721374 -0.35217726  0.20543861 -0.6583441   0.10896785  0.11262532
 -0.16887438  0.33463657  0.05452406  0.4593869  -0.3116563   0.23676614
  0.34497124 -0.83445954 -0.4242652   0.1121214  -0.7397052   0.12377963
  0.6386608   0.3470009 ]
[-0.13579378 -0.6513868   0.5708071  -0.5126544   0.52543706 -0.04812434
 -0.13537809  0.26539415 -0.7154091   0.57593113 -0.99624604  0.05561975
  0.5568252  -0.37396377 -0.7041179  -0.18045895 -0.6243791   0.72205436
  0.3217449   0.0928868 ]
[ 0.476794   -0.05611244 -0.36054653 -0.06543581 -0.23307298  0.2583418
 -0.00581681 -0.6554366  -0.01579042  0.01017428 -0.30186832 -0.26655495
 -0.08576299  1.126606    0.28457946  0.48105377  0.41170436 -0.12410147
 -0.1700005  -0.41392004]
[ 0.307565    0.3179154  -1.5589013  -0.07032078 -1.7546027  -0.8593878
 -0.42107278  0.2880428   0.31608728 -0.3181708   0.59081036  0.7467247
 -0.12804112  0.84409374  0.36119094 -0.9268137   0.9274925   0.13253908
 -0.12641838  0.4139338 ]
[ 0.23250099 -0.30335486  0.7215861  -1.1751726   0.29987612 -0.08627532
 -0.01105461  0.38629192 -0.532488    0.4864583  -1.1389192  -0.17401658
  1.1514028  -0.82465696 -0.65610766 -0.25302568 -0.807697    0.80405015
  0.81143075  0.31827053]
[-0.00220069 -0.0038486   0.7270329   0.70700884  0.37602508  0.7767464
  0.6241569  -0.43848404 -0.60519534  0.66423225 -0.31404307 -0.40806216
  0.09354659 -1.0257714  -0.30412182  0.28518018 -1.0464616  -0.01511715
 -0.15984833 -0.44051242]
[-0.5781347   0.27415934 -1.2814963   0.9382301  -0.8197152  -0.20951496
  0.43522274  0.19202541  1.0736494  -0.64657867  0.81314415  0.5254702
 -0.6160928   0.48927954  0.46133274  0.02446646  0.9564385  -0.4602203
 -0.5665984  -0.11953606]
[-0.5021233  -1.3935927   0.08408512  0.17263128  0.16722858 -1.1847667
 -0.4235847   1.1057705   0.06829894  0.5909446  -0.12335114  0.77293956
  0.05205161 -0.05136841  0.1326582  -1.1103331   0.17412543 -0.01357374
  0.01041361  1.5893574 ]
[ 0.81530124  1.3156834   0.73562723 -0.11631979  0.6244721   1.7316858
  0.981497   -1.509593   -0.2545457  -0.6994584  -0.29692355 -1.3626304
  0.18064417 -0.25321776 -0.06249488  1.0494996  -0.2745064   0.11502989
  0.34955654 -2.2391834 ]
[-0.5262817  -0.12476896 -0.96309006  0.35159218 -0.8794566   0.28363127
  0.52727395  0.02063889  0.02791442 -0.4280454   0.2758259   0.11866651
  0.08658313  0.40462822  0.39173326 -0.31283215  0.14979336 -0.09288452
 -1.0823046  -0.55260825]
[ 0.26506537 -0.08794186 -0.2148596  -0.05757527 -0.28416923  0.03362601
  0.0080347   0.34184504  0.15530534 -0.23093279 -0.0316793   0.53818303
  0.2578107  -0.7614555   0.2797694  -0.4841113  -0.10872368  0.16706009
  0.2489431  -0.07485694]
[-0.8071736  -0.301891   -0.5178235   0.12518841 -0.62377584 -1.2952076
 -1.1654495   0.9587631   0.04235561 -0.08815759  0.03244262  1.5630329
 -0.12166557  0.4916292   0.03314361 -0.480159    0.906797    0.24903312
  0.14855026  1.0473173 ]
[ 0.8033972  -0.04947741 -0.13174896 -0.02611388  0.15684418  1.0286312
  0.521657   -0.52298313  0.27262282  0.16370119 -0.4635991  -0.30697113
  0.29417747  0.49051416 -0.16140462  0.8749327   0.5009798   0.10367814
 -0.31838024 -0.0444451 ]
[-0.46550733  0.07113986 -0.30772212 -0.3140452   0.5343495  -0.20226918
 -0.18379194  0.5873888  -0.23872586  0.1556478   0.12819198  0.41347075
  0.08808468 -0.30776376 -0.1014054  -0.38325885 -0.69560933  0.04264875
 -0.38816956  0.14361833]
[ 0.06136141 -0.37460515  0.9992084  -0.48596376  0.4591224   0.11837094
  0.3214951   0.38271374  0.38367015  0.24301197 -0.17733356  0.07802285
 -0.03844902 -0.8444389  -0.04165086  0.10533156 -0.55897856 -0.11026365
  0.5089733   0.3133847 ]
[ 0.17924713 -0.4549685  -0.81004524  0.61504173 -0.88237387 -0.3550423
 -0.3610174  -0.15238403  0.17999475 -0.25491953  0.20640942  0.60849124
 -0.94738954  1.1174365   0.3509011  -0.1745597   1.4166946   0.21106152
 -0.76326627 -0.29081807]
[ 0.45461252  0.19315548  0.14612591 -0.33830783 -0.20953172  1.4909043
  0.98997545  0.18345909  0.19077559 -0.08697094  0.42366326 -0.9111596
  0.072801   -0.19193973 -0.15652254 -0.15964654 -0.918163    0.02684494
  0.3263576  -0.26981398]
[-0.21345872 -0.30550227  0.59664434 -1.0106893   0.47740716 -0.03260457
  0.01720399  0.35331604 -0.7596081   0.71405375 -0.89373845  0.1306536
  0.319461   -0.672144   -0.42073894 -0.06601127 -0.8718354   0.9034714
  0.5475732   0.16781141]
[-0.08595528 -0.25203234 -0.22788881  0.35114926 -0.35941955 -0.74836385
 -0.4013139   0.5006224   0.7673779  -1.2089554   0.17323935  0.63026196
 -0.784466    0.80297464  0.69844306  0.12000351  1.1702572  -0.950976
 -0.7450046   0.28205585]
[ 1.4082508   0.47791702  0.4292299  -0.3714504   0.6361739   0.43190077
  0.549255   -1.7015015  -0.03698752  0.32136068 -0.5450481  -0.8993947
  0.48059702 -0.08814617 -0.40150207  0.6608081  -0.08870062  0.22337875
  0.21586482 -0.49262145]
[ 0.12069149 -0.32362622 -0.18099675  0.2261158  -0.10691568  0.74585176
  0.43129173 -0.25259367  0.21537507  0.09794061  0.09246207 -0.09638532
 -0.28642514  0.07356493  0.5580555   0.50456727  0.00854553 -0.748391
  0.0789766   0.6814639 ]
[ 0.24578035 -0.15254432  0.56912404 -0.7306983   0.49248025 -0.00473799
 -0.10360134  0.12870026 -0.90936035  0.5626127  -0.6135476  -0.18662629
  0.6099183  -1.0052378  -0.6618669  -0.16430156 -0.5998932   0.75929147
  1.1953361   0.36556506]
[-0.5344635  -0.35724947  0.14174557 -0.21094273  0.36524147 -0.58698064
  0.04491044  0.37679532 -0.19889274  0.04869266  0.1053886   0.7520923
  0.2800973   0.16743474 -0.07645611 -0.7442062  -0.16748658 -0.13415304
  0.04232618  0.21716422]
[ 1.1192143   1.6873809  -0.07631996  0.12717122 -0.13860904  1.5435077
  1.1753803  -1.0930525   0.305563   -0.48730138  0.38448733 -0.66795015
  0.18640848 -0.6514822   0.57934755  1.2954013  -0.38583946 -0.239851
  0.10022388 -1.3539442 ]
[ 4.2737490e-01  6.0140097e-01 -1.7660469e-01  3.9231092e-01
 -4.7350791e-01  7.4495280e-01  4.0413165e-01  8.1596851e-02
  1.6697003e-01  9.1164740e-04  3.2732338e-01  1.9445373e-01
 -3.2974100e-01  6.3805360e-01  2.7093452e-01  3.7365717e-01
  3.3000332e-01 -4.2890549e-01 -2.4242699e-01  9.8415196e-01]
[-0.36235186  0.309577    0.55020195 -1.1721277   0.7599367  -0.07946903
 -0.18638077  0.15247518 -0.41166034  0.3561172  -0.34865054  0.42296848
  0.76091963 -0.7102267  -0.7851336  -0.0177267  -0.6008804   1.053457
  0.9524612  -0.1544083 ]
[-0.05767716 -0.09388648  0.17276596  0.04789213  0.268517   -0.39633277
 -0.7341462  -0.12090763  0.36247483 -0.88659155  0.15416677  0.16367987
 -0.22644141  0.8400791   0.4189538   0.41700011  1.1140045  -0.34922048
 -0.0631234   0.21727517]
[ 0.35253304 -0.16905628  1.1448914  -0.33354986  0.95549566  0.30717137
 -0.01310642  0.4265547  -0.4274574   0.67048776 -0.8422708  -0.05584146
  0.20772868 -0.79313505 -0.6043065   0.38248554 -0.6364971   0.32817024
  0.8623606   0.48124057]
[ 0.17143662  0.21158148 -0.5072103   0.2752832  -0.41438887  0.01648928
  0.18894604 -0.37816775  0.03053463 -0.2526379   0.17692462 -0.27435
 -0.4868699   0.5700695   0.21904892  0.29582834  0.44957006 -0.08175138
 -0.26117414  0.15630935]
[-0.05281594  0.01848332  0.29199013 -0.47533786  0.482025    0.2969426
  0.9272899  -0.48435023 -0.6212837   1.1654109  -0.38860705 -0.80153203
  0.22942418 -0.7360627  -0.27855757 -0.06884076 -1.072221    0.6138544
  0.16403098 -0.08521319]
[ 0.01906022  0.41775426  0.81659585  0.0100932   0.8306493   1.4283292
  1.1102632  -0.13701075  0.03229843  0.09711974 -0.27125844 -0.7279486
 -0.3910069  -0.21752709  0.16515     0.4988353  -1.4290575   0.03944976
 -0.36229068 -0.44777402]
[ 0.80649465  0.07897853 -0.23212346  0.14660627 -0.7312316  -0.00214819
  0.03883877 -0.19242099  0.01438625  0.19696444  0.38537404 -0.44442338
 -0.15981309  0.2744008  -0.22646296  0.01298755  0.18735398 -0.09142293
  0.37889087 -0.2128737 ]
[ 0.29480284  0.40475637  0.11034807  0.46488574  0.02943653  0.56475013
  0.1377018  -0.07919531  0.08211164 -0.2426268  -0.33687302 -0.36355552
 -0.39702132  0.19536434  0.4690484   0.3619134  -0.1984722  -0.28897208
 -0.40747607  0.06653148]
[ 0.34765106 -0.17088315  0.34336966 -0.79901785  0.4314401   0.55450255
 -0.2551179   0.33410853 -0.7083021   0.69999903 -0.46474662 -0.00419765
  1.4247533  -1.1474787  -0.7623585   0.00330402 -0.502307    1.0277274
  0.64117324  0.36820787]
[-1.1120753  -0.10800771  0.11829798  0.13253465  0.24693772  0.03565127
 -0.50878364  0.4458789   0.12232086 -0.0709524  -0.2693463   0.12006322
 -0.17947832 -0.45325089  0.08106669 -0.01985094 -0.14883877 -0.06448057
  0.05417724  0.645197  ]
[ 0.04424406 -0.43146703  0.5673654  -0.98661757  0.18086669  0.09708446
 -0.05756345  0.3016282  -0.23949382  0.61260706 -0.55880225  0.07090905
  0.59517485 -0.6433928  -0.2753702  -0.16064522 -0.6033993   0.6906729
  0.8523603   0.43130195]
layer 5 Activation
tanh
layer 6 Dense
20 1
[-14.197769]
[-14.609374]
[8.873692]
[-8.98886]
[8.760616]
[-14.4803095]
[-14.393308]
[14.404385]
[-8.870867]
[8.916673]
[-9.042752]
[14.61736]
[8.905906]
[-8.702818]
[-8.77401]
[-14.216377]
[-8.612904]
[9.051958]
[8.74401]
[14.796172]
[9.465668]
