layers 7
layer 0 Dense
20 20
[-0.15621312 -0.00531671  0.22142367 -0.04786602  0.26336914 -0.31848317
  0.07408822 -0.04388195 -0.10186862 -0.2809673  -0.02331506  0.16657738
  0.1042283   0.06423189 -0.05976445 -0.2361368  -0.14340802 -0.13794744
  0.17012584 -0.26070613]
[-0.40147173 -0.18098561  0.29616836  0.35551688 -0.01012634  0.27800146
  0.1058206  -0.1546037  -0.23167086  0.6448022   0.2618084   0.1761659
 -0.37568718  0.21417192  0.00178824 -0.22795756  0.3002938  -0.01283352
 -0.18332143 -0.50322   ]
[-0.24895552  0.23541993  0.47934458 -0.33596322 -0.3385343  -0.37343794
  0.10587231  0.04131767 -0.51406205  0.5482149   0.42035413 -0.06704267
  0.06414063  0.13542403  0.13414998  0.2933884   0.05357311  0.5234365
  0.23626421  0.1296381 ]
[ 2.7758658e-01 -4.2716730e-01  2.8287071e-01 -5.7838835e-02
  2.8486559e-01 -2.5193220e-01  2.3511395e-01  1.2360972e-01
 -7.1133725e-02  2.1982318e-04 -2.0339261e-01  2.7448601e-01
  2.7357191e-02 -5.9376773e-03 -1.7879654e-02  1.6653743e-01
 -4.5077810e-01  5.0989944e-01 -1.7074074e-01 -3.6992395e-01]
[ 0.28362983 -0.13467523  0.07035788  0.12896526  0.1090077  -0.44322744
  0.0895127   0.37614587 -0.32538116  0.47304976  0.1438759  -0.18646714
  0.2574374   0.06393112  0.03281008 -0.20424025 -0.21024062  0.3778025
  0.33654684 -0.07250968]
[ 0.31200287  0.30769646 -0.23540996  0.28203794 -0.12108985 -0.01111125
  0.341923   -0.13132937  0.30437443  0.09059504 -0.02292128  0.18196757
 -0.15511036 -0.4002921   0.35233694  0.05267724  0.24091414  0.4085061
  0.15818419  0.03547914]
[ 0.28215522 -0.19511539  0.306019    0.08077698 -0.23649146  0.38084635
  0.09626916 -0.12819386 -0.17759182  0.09260435 -0.22357957  0.17111309
 -0.08159603 -0.28719816  0.34654048  0.19623144  0.17658164 -0.21754315
 -0.08946583  0.29287812]
[-0.2210172  -0.00388986  0.00107708  0.11363246 -0.13636784  0.04530281
  0.19011037 -0.3793233   0.34464243  0.313283    0.08369015  0.22643258
  0.1742652  -0.22486304  0.35958743 -0.13536224  0.0506594  -0.5461052
 -0.1363175   0.25487864]
[-0.19829401 -0.46363404 -0.16152005  0.16511463  0.01213121 -0.2993356
 -0.05591959  0.02915092  0.0410645  -0.10842227  0.07794971  0.33437058
  0.36365274 -0.36304703  0.0200412  -0.11207634  0.2503384   0.18365847
  0.38670516  0.1530946 ]
[ 0.29923475  0.16911863 -0.02232724 -0.05886058 -0.10872041  0.06526522
 -0.14033976 -0.13365376 -0.31628376  0.23032695  0.342934   -0.05096606
  0.24919121  0.11685301 -0.04336033 -0.21915685  0.16665965 -0.06622435
 -0.0451009  -0.23778354]
[ 0.29779205 -0.09875309  0.24596788 -0.15856083 -0.19070487 -0.17481788
 -0.22436705  0.19827804 -0.12035768  0.19548723 -0.12526919  0.13738051
  0.22081788  0.31494048  0.17482732 -0.3682378   0.22103845 -0.24599335
  0.03592593 -0.12478238]
[ 0.37948814  0.18862328 -0.14315216 -0.3189742  -0.4366986   0.31616494
 -0.16721167 -0.07498313  0.36856607 -0.08324042  0.14451878 -0.17154086
 -0.14951529  0.00420788  0.20219663  0.34819987 -0.31069818 -0.41521928
  0.33548456  0.7429649 ]
[-0.4725506  -0.10982352  0.4857243   0.03081081  0.23549268 -0.49724853
  0.38149706 -0.08720233 -0.02115139 -0.00843173  0.09776021 -0.5232223
 -0.30057964  0.30650398 -0.4478638   0.25895354  0.03255574  0.25505555
 -0.11874831 -0.07525834]
[-0.55097127 -0.16380863 -0.19644691  0.23408149  0.2695409  -0.08790545
 -0.03047366  0.12555796 -0.22262989 -0.01468673 -0.135502   -0.5132618
 -0.01158242 -0.21194482  0.31185254 -0.15313601  0.14107488 -0.05395154
 -0.10203583  0.04792643]
[ 0.0439916  -0.14377451 -0.03492797 -0.25560945  0.01383497  0.04612383
 -0.06842159 -0.14562632  0.23692568  0.15782972  0.08280336 -0.05257308
  0.22891769  0.0808971  -0.25906423  0.10542203 -0.0798825   0.02199919
  0.28301296 -0.10195667]
[-0.46534285  0.49797165  0.623789   -0.23156723  0.02369321 -0.70756525
  0.20311977  0.5733912  -0.78714514 -0.09312473  0.620709   -0.5226541
 -0.28426188  0.6007929  -0.7726893   0.39478996 -0.32571682  0.4538025
 -0.05447232 -0.858436  ]
[ 0.0299839  -0.53317326 -0.40238833  0.05285276 -0.02609651 -0.04598965
  0.19714762 -0.4531116   0.5166925   0.23578554  0.02479392 -0.01168922
  0.3142915  -0.50285715 -0.30245548 -0.21183822  0.01844863 -0.317706
 -0.2455436   0.173036  ]
[ 0.35922933  0.24920337  0.1640308  -0.25285897  0.18805996 -0.19493279
 -0.24400632  0.09281024 -0.1325543   0.29293424 -0.1749438   0.2176197
 -0.06386489  0.03887319 -0.1064576  -0.07357948  0.21171027  0.06387205
  0.28281975 -0.09337271]
[-0.2464066  -0.28934503  0.26309934 -0.26674914 -0.03900876 -0.08321859
  0.10053606 -0.21306983  0.18664117 -0.16384423 -0.34603637 -0.00934907
  0.11588547  0.27643576  0.03892689 -0.00349055  0.08150279 -0.15265612
 -0.35227013 -0.21696761]
[ 0.18989043 -0.3822349  -0.08812112 -0.09599712 -0.42935756 -0.02201556
  0.00469137 -0.24539314  0.43585855 -0.33060986 -0.3439672   0.23717107
  0.46270847  0.15715179  0.1932366  -0.1358831   0.02029459  0.12670857
 -0.30964586  0.3066377 ]
[-0.01715741 -0.03924226  0.03620708 -0.04243825  0.02849716  0.00243981
  0.02597516 -0.02463137  0.00604925 -0.06734832  0.00357228  0.00487919
 -0.03311211  0.12397359 -0.01930607  0.04533343 -0.11706913  0.16220339
  0.07056727 -0.04746831]
layer 1 Activation
tanh
layer 2 Dense
20 40
[ 0.28377587 -0.10968526  0.14968197 -0.13565168  0.14891884  0.02386482
 -0.19244742  0.00621973 -0.11254619  0.02840248  0.10172429  0.341684
  0.02908611  0.13319385 -0.13656694  0.10136563  0.06212401  0.17866059
  0.0325662   0.09265409 -0.24495709 -0.09332106 -0.12556276  0.29085606
 -0.20696424 -0.1399404  -0.2148575   0.12770948 -0.10541165 -0.33695552
 -0.03167016 -0.25751907 -0.25187278 -0.10996798  0.10281239  0.10792927
  0.19994126  0.01010174 -0.10099539 -0.01209693]
[ 0.01595727 -0.19025555  0.2687644  -0.17804879  0.29134864 -0.33107752
 -0.03866475 -0.15041034 -0.12246147 -0.16540751  0.01000534  0.03944344
 -0.35207254 -0.19570576 -0.1274092  -0.06183134  0.12530793  0.04628361
  0.14122021  0.03355931  0.11496145 -0.19817477 -0.18303819 -0.21178332
  0.278486    0.20787479 -0.01258071  0.2626062  -0.0989081   0.22793745
  0.02298317  0.19863681  0.17554113  0.06637358 -0.0960722  -0.00382797
  0.18788186 -0.12967063 -0.23440865  0.072064  ]
[-0.01716017  0.28507265  0.16936316  0.14559154 -0.038181    0.04055387
  0.03460109  0.06530039  0.10123509  0.16620943  0.00775907 -0.28996798
  0.10791848 -0.29207566  0.16775163  0.2898263   0.02408232  0.24254404
 -0.04331876  0.02815059  0.20013393  0.01042474 -0.13692693  0.0763229
  0.09444882  0.0723832  -0.12921636 -0.17889073 -0.29126054  0.20968808
  0.2733105  -0.13977495  0.04834249  0.15991984  0.08824944  0.07771408
  0.11746281  0.02329458  0.07473623  0.16149254]
[ 0.04660078 -0.06282075 -0.2792023  -0.06025766 -0.08844264  0.33511475
 -0.21783656 -0.30778918 -0.1501127   0.03080855 -0.21913143 -0.18759377
 -0.2507149   0.09557086  0.22350831 -0.2794839   0.18941727 -0.1888727
  0.22715995 -0.01338488 -0.21919952 -0.09220407 -0.08975013 -0.25532675
  0.27681908  0.14360534 -0.28549162  0.16908489  0.15423143  0.07549439
  0.31761593  0.11238642  0.22724006 -0.09490188 -0.07930937  0.26439422
 -0.01989131 -0.29601488 -0.30017117  0.14248069]
[ 0.44480643 -0.12570468  0.39887556 -0.12762281  0.3094091  -0.34446895
  0.2788453   0.04859407  0.28567067  0.07503155 -0.21524365 -0.306323
 -0.21337485 -0.07219043 -0.18369499 -0.10779678  0.22806887 -0.14371577
 -0.03108323  0.18233849 -0.19888353 -0.05976377  0.08234242  0.1753168
  0.12141357  0.27703395  0.23644714 -0.268459    0.18515581 -0.13732357
  0.12218887 -0.170547   -0.25745314  0.17338297 -0.3231729   0.36899394
 -0.15913858  0.02420473 -0.12648435 -0.10685269]
[-0.0586078  -0.16902614 -0.31163323  0.11742918 -0.18395483  0.0548051
 -0.24274105 -0.00959407  0.07885031 -0.19207421 -0.21172756  0.23371668
 -0.06396724  0.03121172  0.23208505  0.04344577 -0.01515459 -0.22396809
 -0.09255188 -0.11030056 -0.12121074  0.06982271 -0.17277764  0.14522012
 -0.14426479 -0.03793     0.08050492  0.03613641 -0.02443425 -0.0789946
  0.05932803 -0.25398114 -0.08517098  0.01945064 -0.12435262 -0.01026155
 -0.13961299  0.11676186  0.22303323 -0.18420334]
[ 0.05048875  0.07343493  0.10781612  0.21560474 -0.13119578  0.04103453
 -0.24373487  0.09175016 -0.02676276 -0.09593948  0.08802591 -0.05745687
  0.2240491   0.19614673  0.08265568  0.17537917  0.12327193  0.28204584
  0.23103799 -0.14389476 -0.03847267  0.16865394 -0.2788257  -0.06376964
 -0.05458704  0.15113223  0.10492886  0.01393598  0.00550466  0.17330779
 -0.2439222  -0.16049731  0.08658066  0.1237789  -0.28271875  0.32343343
 -0.07715878  0.1735046   0.07105911 -0.07238512]
[-0.06565842  0.15682697  0.12456448  0.11595006 -0.11880054  0.08875141
 -0.157446    0.31789774  0.05088957 -0.23485862 -0.09384383 -0.02684233
 -0.33880654 -0.14430846 -0.18153657  0.15702724  0.15692794 -0.25347298
 -0.10986523  0.00146277  0.16199754  0.08976615  0.1220363   0.21042633
 -0.14852202  0.12447774 -0.17765747 -0.24878825 -0.15552132  0.05541478
  0.10396415 -0.32446423 -0.30638763 -0.19130394 -0.13047266 -0.09691039
 -0.00316181 -0.21733955  0.23866022  0.3683436 ]
[-0.2968297  -0.19469711 -0.29233894  0.12923452 -0.06891812 -0.08863664
  0.19200268  0.10925122 -0.36508274 -0.06764327 -0.22778144 -0.19974726
  0.32919618  0.22016442  0.15026231 -0.21093717  0.19443452 -0.18245089
  0.22062103 -0.1693582  -0.16177256 -0.08599942  0.3636738  -0.13003604
  0.0424569  -0.13510367 -0.02083022 -0.23505923  0.23933253 -0.2429024
  0.23280157  0.03587915  0.10697371  0.14501196 -0.08801237 -0.2028712
 -0.201765   -0.20429999 -0.2787505   0.03006284]
[ 0.13195299 -0.16995205 -0.2534571   0.12627317 -0.11277519 -0.213685
  0.04603705  0.02809797  0.00434014  0.03767819 -0.00561822 -0.02024002
 -0.13260137 -0.1532816   0.04722476 -0.2654342   0.08863983  0.1749399
  0.30715284 -0.12418786 -0.11352851  0.04349105  0.12097369  0.22195686
 -0.10331588  0.13323295  0.06626541 -0.01738245 -0.12163699 -0.3126238
  0.01260175 -0.17492051  0.18616696  0.12186408 -0.1075517  -0.1777943
  0.30459884 -0.22070764  0.23253246 -0.17345276]
[-0.3068537  -0.22074953  0.18540525  0.0404853  -0.24593225  0.13628994
  0.3089334   0.21899405 -0.2427897  -0.06758704  0.28750506 -0.28011152
  0.21539998 -0.1556931   0.10702617 -0.09533045  0.11799306  0.29949135
 -0.09697291 -0.08048289  0.16482212 -0.02347055 -0.17447956 -0.1662132
 -0.23170269  0.1056645   0.20366955  0.16964523 -0.23390558  0.22648491
  0.10226994  0.09848387  0.08363722 -0.32462257  0.1741785   0.2668875
  0.11806912 -0.22883357 -0.14430901  0.07661071]
[-0.06144672 -0.27247125  0.18613863  0.14344005  0.29972547  0.00155456
  0.14617965 -0.18925337  0.23687007  0.03889342  0.026282    0.3355802
  0.34012556  0.11548784 -0.18362026 -0.15189509 -0.27130514  0.191623
  0.17414069  0.17265494 -0.21142273  0.22733751 -0.18792771  0.04253767
 -0.09428807  0.15400521  0.19143958 -0.14078781  0.04421338 -0.11855588
 -0.0123187  -0.13149294  0.0589565  -0.08489912  0.42972025  0.01902865
 -0.15349703  0.06536503 -0.2112182   0.23187722]
[-0.13358119  0.08486439 -0.00516566 -0.18407433  0.14467499  0.1736232
 -0.2924758   0.17855667 -0.26748577 -0.11870642 -0.18167493  0.0755282
 -0.01959093 -0.05598293 -0.27947587  0.12834992 -0.00304997 -0.21496983
  0.10010629 -0.15468538  0.1223577   0.216033    0.2869951   0.19046727
  0.24310245  0.15553845 -0.33609873 -0.06712405  0.3179103  -0.09281233
 -0.15043989 -0.02906227 -0.00106661 -0.16871344  0.2565392   0.13442564
 -0.04484102  0.13783358  0.08742926 -0.24800186]
[-0.29608828 -0.09858769  0.0158087  -0.00774197  0.17545138 -0.13008693
 -0.23684993  0.04795744  0.20686854  0.12459344 -0.06191868 -0.16563952
 -0.15226214 -0.21487573 -0.14275767  0.150541    0.05019084  0.26986152
 -0.1317648   0.24727276  0.03038714 -0.21451105  0.17431442  0.09105259
 -0.30930352  0.06442885 -0.15142463 -0.12586667 -0.16802505  0.3709177
 -0.00809978 -0.1867653   0.1789698   0.08713485  0.15654722  0.23982568
 -0.00210956  0.23243384  0.09441629  0.10558261]
[-0.02251254 -0.17541185 -0.07958124  0.37580603  0.08817925  0.19937621
 -0.10378438  0.14837152 -0.2503618  -0.1752893  -0.23100814 -0.25609645
 -0.11713672  0.20067666 -0.05618048  0.05209098  0.15601954 -0.3081982
  0.2899154  -0.17672825  0.02928795  0.16764213 -0.10612637  0.01688743
 -0.11500808 -0.27433074 -0.18974726 -0.22468588  0.24461378  0.07028285
 -0.03496509  0.00302232  0.1731091  -0.10198628  0.420051    0.14617813
 -0.26589686  0.15347278 -0.19173746 -0.31704172]
[-0.16630025  0.2706336   0.11515659  0.0687677   0.26302272  0.07822885
 -0.02666303  0.2208801  -0.00466936  0.10045836 -0.06606148  0.14597322
 -0.21318492  0.34896523 -0.12817024 -0.26280436 -0.02499446 -0.08166674
  0.08543991 -0.14803042  0.02027916  0.20317915  0.05563084  0.0778081
 -0.20880336  0.13775079  0.04086146  0.00049047 -0.11159072  0.28175703
  0.13025379 -0.14337838 -0.28892115  0.28594872 -0.06912618  0.23350438
  0.10932543 -0.21346809  0.33402938 -0.01267475]
[ 0.16264512  0.04696072  0.07849923  0.09980007 -0.35883975  0.11476083
  0.04249913  0.2085735  -0.3040613  -0.02242414  0.04964588  0.01334587
  0.10940918  0.00868212 -0.1047874   0.0513907   0.15604486  0.3007621
  0.33929545 -0.09829828 -0.20588048 -0.07612259  0.3793921   0.17937551
 -0.19562288 -0.32429796  0.17707145  0.0314875   0.26145846 -0.03813354
  0.0100068  -0.06495766 -0.11047311 -0.0232942   0.18515384  0.11102178
  0.02763195  0.18715204 -0.1429553  -0.42665336]
[-4.9246944e-02  1.5742482e-01  4.0588024e-01 -5.5622976e-02
  4.3037689e-01  8.3659418e-02 -1.3396245e-01  1.4600746e-01
  1.7074679e-01  1.2288526e-01  9.5576487e-02  3.6522970e-02
 -7.4471556e-02 -1.3444801e-01 -3.5538688e-01  3.4235948e-01
  7.5684577e-02 -2.8904047e-02 -9.4501764e-02  1.0004255e-01
  2.4117567e-01 -7.8580499e-02 -3.8796654e-01  2.4545790e-01
  1.9703628e-01 -9.8394774e-02  1.6777328e-01  3.4391421e-01
 -2.3030052e-01  1.5095279e-01 -2.8410444e-01 -1.0310192e-01
 -7.6060198e-02 -2.7676761e-01 -3.4208304e-01  2.2254694e-01
  2.8704211e-01 -1.9485743e-01 -3.3877766e-01  2.3314322e-04]
[-0.3769932  -0.03074317  0.01717098  0.20416096 -0.03653256 -0.17827395
 -0.17136762  0.01795188  0.21036786  0.1200926   0.00751878  0.04058341
 -0.23808601  0.03386829  0.2923991   0.24815682 -0.09837105  0.0131726
 -0.20364493  0.25078544 -0.3650326   0.01134928  0.19129486  0.01474827
 -0.10436843 -0.30089238 -0.09932364  0.01899771 -0.19968481 -0.28799427
 -0.01955973 -0.13617797 -0.10415022  0.19282886  0.16058035 -0.23700297
 -0.16259806 -0.0647199   0.02790574 -0.05719464]
[-0.14521682 -0.18090656  0.04374192  0.05237041 -0.32612187  0.34513262
 -0.0545556  -0.26582763 -0.41840404 -0.09911967 -0.2369801  -0.00554143
 -0.20057516 -0.02971349  0.3421736   0.11387537 -0.11963125  0.07261069
 -0.01939777  0.06860062 -0.26745024 -0.25164792  0.37491983  0.08080366
  0.08575736  0.19006695  0.01717629 -0.1267187   0.10227097 -0.26488551
 -0.27640736  0.18436858 -0.1191091  -0.12985933  0.01518209  0.01742532
  0.05252157  0.16840602  0.10320355  0.03173498]
[ 0.06606842 -0.02020328  0.21724352 -0.05083786  0.29676864 -0.08285143
  0.03165812  0.10812166  0.25102845  0.08561345  0.04015952  0.01982165
 -0.01013392  0.02077199 -0.13220516  0.06753585 -0.03223578 -0.03535921
 -0.12052511  0.07510071  0.0155646  -0.04913717 -0.22193411  0.00256471
  0.01733894  0.04226752  0.01602981 -0.0183983  -0.04190108  0.01429251
  0.02720476 -0.14493982 -0.04183795  0.09095654  0.03912394  0.11022702
  0.00396135  0.01497322  0.04107658  0.11909988]
layer 3 Activation
tanh
layer 4 Dense
40 20
[-0.08590956  0.04066347  0.01847665  0.12392125 -0.31096646 -0.10096515
 -0.10308074  0.09080134 -0.03460121 -0.05465654 -0.02867984  0.23933654
  0.09242441 -0.25839472 -0.02997415  0.25066614 -0.02670853 -0.24331984
 -0.23894759 -0.26316312]
[-0.00211187 -0.1983675   0.03454079  0.08369474 -0.09029244  0.28128853
  0.15694323 -0.16838978 -0.2153907  -0.23405862 -0.20663655 -0.2338666
 -0.17664042  0.35502353 -0.14351986  0.08637876  0.27239478  0.03308219
 -0.06465155 -0.26244763]
[ 0.03297987  0.32988247  0.21194267 -0.1025117  -0.25372654  0.12210639
 -0.10409527  0.2077343  -0.17086048  0.11190531  0.18219645 -0.06689814
  0.05370589 -0.05919432  0.06636854 -0.2770794   0.1245416  -0.05811376
 -0.1212651  -0.30367282]
[-0.13966112  0.08158153 -0.23453055 -0.05038481 -0.08653443 -0.21071129
 -0.14799744 -0.20455146 -0.1591518  -0.19600359 -0.13952336 -0.17846364
  0.18629432 -0.31473115  0.19125034 -0.26804107  0.16791077 -0.12009011
 -0.12351374  0.26616278]
[ 0.23492092  0.23060623 -0.21110587 -0.15997769  0.11537205  0.17150564
 -0.0013818  -0.09247661 -0.27430865  0.00236592  0.3256236  -0.12632592
  0.16811033 -0.19044358  0.00492599  0.10769253  0.0570328  -0.15777686
 -0.2543941  -0.25909558]
[-0.2514781   0.2635398  -0.06862029  0.30203113  0.15844259 -0.12717828
 -0.19376546 -0.1765152   0.04197119 -0.20982035  0.02534678 -0.02865181
 -0.18630913 -0.311619    0.01730478  0.26227194  0.06472451  0.12355389
  0.23155685  0.00988306]
[-0.23531868 -0.30571344 -0.25451088 -0.12769945  0.19614628  0.14927647
  0.12159108  0.15996394  0.00211111 -0.06670783  0.14183423 -0.22080508
 -0.06493042  0.16495246 -0.31101373  0.11388241 -0.20040408 -0.1386718
 -0.24879184  0.18973185]
[ 0.1757222   0.15938227 -0.11131596  0.07874954  0.214002    0.1225189
  0.3221874   0.09455351 -0.28392884  0.05244218  0.21981126 -0.3135212
 -0.27882138 -0.15001746 -0.2833381   0.2343472   0.20383227  0.26253286
 -0.17090009  0.08617408]
[ 0.23176977  0.09310281  0.1537632  -0.21902329 -0.16082391 -0.04034853
  0.06076532 -0.34601238 -0.10646747 -0.22887371  0.09346044 -0.23174696
 -0.04032309 -0.13727707 -0.12195525 -0.20858736  0.18599777 -0.07764429
 -0.37775636 -0.24483739]
[-0.1094567   0.17252617  0.15067174 -0.04655568 -0.00799747 -0.17217119
 -0.14216733  0.27676654  0.0751431   0.12381294  0.01209771 -0.23002124
 -0.32557696 -0.08878563  0.19901694 -0.16466647 -0.1334344   0.2624383
 -0.21990821 -0.1715117 ]
[ 0.08494796  0.10785726 -0.23117666 -0.2508643   0.22067381 -0.04629865
  0.09914317 -0.01501368 -0.08911049 -0.0678648   0.25434384  0.06419922
 -0.20835304  0.04237383 -0.09492712 -0.10290827 -0.32511538  0.23434453
  0.16927324  0.0819557 ]
[ 0.22308327 -0.1846458   0.16866307 -0.18281265 -0.03047748 -0.129217
  0.04299539  0.00660299  0.08107652 -0.07738467  0.23626249  0.03579857
  0.19106843  0.0923413  -0.17990264 -0.06669852 -0.31068766 -0.10312004
 -0.18473937  0.07485259]
[ 0.2476049   0.18112044  0.10372853  0.21379584  0.29575595  0.2306726
  0.06682227  0.01802808 -0.11812905 -0.04696546 -0.20000969  0.24230334
  0.06875473 -0.02899266  0.2724102   0.33253112  0.07233935  0.01650824
 -0.16129886  0.21161132]
[ 0.14979717 -0.2424054  -0.05052972  0.16966148  0.3016159  -0.13556406
  0.29939678 -0.08363262 -0.01351687 -0.22808932  0.25368416  0.2353587
  0.00320934 -0.01951726  0.34378362 -0.11165798  0.03235332  0.07816093
 -0.23653643 -0.11156849]
[-0.06923284  0.2597945  -0.1751416   0.13441719 -0.16836628  0.0360474
  0.2041838   0.14820386 -0.02461159  0.16843823 -0.2919501   0.23012741
  0.00437525  0.01288304  0.29760426  0.05422202  0.254259    0.23988341
  0.04249349  0.14364044]
[-0.12766176  0.14424138 -0.04768845 -0.1752786  -0.00872876  0.06380745
 -0.11052258 -0.10954752 -0.30355033 -0.11965469  0.23272288 -0.014442
 -0.01346845  0.220345   -0.05092852  0.05228983 -0.06184413 -0.2391564
 -0.19771403  0.06508426]
[-0.3289993  -0.1524614  -0.3007045   0.26167387 -0.0355268  -0.1778379
 -0.27610645 -0.03159264 -0.10412429  0.1654644  -0.2772821  -0.24777097
  0.07686163  0.24160925  0.03264432  0.06647351 -0.02117555  0.03650013
 -0.22208582  0.10926245]
[ 0.17305373 -0.29046535  0.21530947 -0.20480755  0.20014691 -0.30095276
  0.10406234 -0.2104849   0.07212259  0.13902465 -0.1178214   0.03127411
 -0.15003864 -0.17844646 -0.2654608  -0.04984529  0.12081614 -0.07498442
  0.2407818  -0.06205165]
[-0.06531604 -0.31431538  0.21907456  0.0709729  -0.2355875   0.21919598
  0.07110617 -0.01072068 -0.00437427  0.02831806 -0.10919082  0.38951147
  0.13487913 -0.11449122 -0.11386064  0.13156123  0.00979574 -0.16641702
  0.24603005  0.27547213]
[ 0.2494616   0.35088646 -0.26633224 -0.07098464 -0.08269721  0.13456838
 -0.21987234  0.10453787 -0.264807    0.02139906  0.153821   -0.2595599
  0.0106768  -0.2371777  -0.13381271 -0.07907814 -0.08274184  0.08294182
  0.02368103  0.01302692]
[ 0.02783883 -0.21400622 -0.2669502   0.13832143 -0.00619108 -0.2106549
 -0.11392328 -0.22697064  0.22955981 -0.26483047  0.27049974  0.02858612
 -0.02152964  0.16180111 -0.17880294 -0.01635901 -0.12016068  0.34460995
  0.28523162 -0.33293453]
[-0.07114284  0.02253022  0.32981694 -0.00140206 -0.19887403  0.33842638
 -0.06417478  0.03766812 -0.17051047  0.18568936  0.16140842  0.12800401
 -0.17863248  0.02665592 -0.24656574 -0.01403891 -0.2798285   0.11001249
  0.02791571  0.23218073]
[-0.14107192  0.07740376  0.06366477 -0.25378272  0.2744416  -0.02611703
  0.1606234  -0.21878748  0.3018589  -0.25895452 -0.33235255 -0.05132521
 -0.05581409  0.2346029   0.26696163  0.15879393 -0.06436801  0.07278091
  0.12478072  0.3331395 ]
[ 0.2065066   0.07306913  0.2544968  -0.04949642  0.19835958  0.02430497
 -0.16004656 -0.17434451  0.14270373  0.00606722  0.23014826  0.15196311
  0.10206746  0.04570905 -0.10083865  0.1257277  -0.2773691  -0.1575466
  0.3006803  -0.04015119]
[-0.3767518   0.20831601  0.27540734 -0.07289875  0.15169778  0.26386645
  0.11029695 -0.0654916   0.0534769  -0.26800403  0.19083697 -0.09034389
  0.00201413 -0.28874594 -0.2972489   0.07392127 -0.22069275 -0.2863641
  0.21989512  0.15319614]
[-2.8622243e-01  2.5306118e-01 -3.7562761e-01  6.6093214e-02
 -3.1686711e-01  1.8176496e-01  2.0888123e-01 -6.6897705e-02
 -2.1799929e-01 -1.4390041e-01  1.9074042e-01 -2.2959069e-04
  1.2947145e-01  1.3054773e-01  9.8247848e-02  2.4185625e-01
  6.2858336e-02  3.8900530e-01 -2.0912950e-01  1.2910406e-02]
[ 0.13642745 -0.1529373   0.05451936 -0.18491828  0.12390096  0.19365975
  0.06265791  0.04458521 -0.1444838  -0.26365164 -0.22315575 -0.2218042
  0.3630144  -0.1422341   0.25682274 -0.15374884 -0.0698307  -0.24583678
 -0.13093829 -0.14325865]
[ 0.07626343  0.18994105  0.00637648 -0.1858735   0.25851515 -0.05325432
  0.01457879 -0.20140785  0.15647802  0.15548898  0.08366252  0.1846728
 -0.00539505 -0.23926905 -0.16409114  0.0461642   0.02779492 -0.03917994
  0.14855532 -0.24229193]
[-0.12406576 -0.12124638  0.09768485  0.03745468 -0.22053154 -0.0415416
 -0.16277212 -0.2466454   0.3504119   0.01581324 -0.27214915 -0.01461858
  0.43626782  0.0147234   0.04037118 -0.03683741 -0.27057746  0.20739304
  0.09455756  0.07627688]
[-0.2471255   0.1800292  -0.2528307  -0.04917514 -0.14933772  0.24612384
  0.09650218 -0.02896778 -0.1031903   0.15927735 -0.20999485 -0.15337366
  0.03043492 -0.23777576 -0.32600442 -0.14485382  0.15078762  0.04983077
 -0.15232438 -0.32397658]
[ 0.23414671  0.22520454 -0.25979534 -0.01340395 -0.03880127 -0.17388518
 -0.20132896  0.03282325 -0.23691016 -0.02178287 -0.06852732  0.0821417
 -0.3092113  -0.03212874  0.04452775  0.2935431  -0.13712318 -0.20000093
 -0.11982021 -0.0504447 ]
[-0.27354646 -0.13464703 -0.14065622  0.16709633 -0.28017625  0.17533316
 -0.31444335 -0.20896736  0.22310214  0.08989213 -0.10424581 -0.13235341
 -0.1393089   0.07341911 -0.10196528  0.14781784  0.09286918 -0.2704025
  0.23612814  0.15425435]
[-0.00089727 -0.09517115  0.03581229  0.18383382  0.29130504  0.17888168
 -0.29228526 -0.07728226  0.21796273  0.00175164 -0.23557518 -0.15866557
 -0.29760143 -0.24144162 -0.26687616  0.17425403 -0.10452727 -0.1776314
  0.12025086 -0.15074782]
[-0.26067343 -0.04366332 -0.21211733 -0.02062426  0.0311273   0.09844458
  0.04602576 -0.1791131   0.13066518 -0.03323621  0.1828053   0.04129909
  0.05323385 -0.0957887   0.2680917  -0.16523105  0.04853848  0.23613942
  0.09267266 -0.27318937]
[-0.23990986  0.18341552  0.15677498  0.01137253 -0.24093026  0.25631326
  0.2085599   0.12920418  0.15412444  0.16798723 -0.11808293  0.2391533
  0.30375463  0.26046604  0.1794871  -0.04832331 -0.24962384 -0.32569227
 -0.24394023  0.19170305]
[-0.34757656  0.00173498 -0.00523767  0.24749772 -0.10349485  0.0521611
 -0.12202961 -0.2924992   0.07999669  0.18099576  0.21537423 -0.16484986
  0.16416004  0.1213273  -0.21446118  0.19053292  0.04173886 -0.14355868
 -0.21738353 -0.28975317]
[ 0.04477542 -0.23387568 -0.05428752 -0.24343057 -0.22265272 -0.09659585
 -0.18171418 -0.2701949  -0.26930508  0.10434531 -0.20685168  0.14416392
 -0.00517892  0.10323668  0.04018194  0.02894796 -0.20717083  0.11599813
 -0.277928    0.16980582]
[ 0.22169502 -0.07885952  0.15288495 -0.17298967  0.00556368  0.25954303
  0.11897442  0.33296782  0.04767522 -0.20120919  0.22296771  0.17550485
 -0.267715   -0.11608136 -0.04436484 -0.03351384  0.01567374  0.12434521
  0.15219238 -0.0254823 ]
[-0.21043767  0.18873684 -0.26547575  0.23750193  0.23780657 -0.11401905
  0.35374922 -0.2372245  -0.22709823 -0.26371622  0.15856172 -0.07501803
 -0.25642633  0.04857657  0.02746264  0.24827221 -0.14989263  0.2052152
  0.10665427  0.10450566]
[-0.1600509   0.30900872 -0.15679003 -0.12265128 -0.16528893 -0.1023436
  0.19702882 -0.25344804 -0.17900838  0.1636864   0.37157977  0.31453314
 -0.04848719 -0.02143073 -0.1039958   0.18171269 -0.08419771 -0.24102922
 -0.1678955  -0.2182151 ]
[ 0.03302134  0.04067358  0.02200491  0.01606446  0.02003122  0.02679332
 -0.01169661  0.02827999 -0.00825808 -0.0269551   0.09555055  0.0057905
  0.04992297  0.03999759 -0.01235867 -0.03641909 -0.08843002 -0.02546043
 -0.06984362 -0.04396801]
layer 5 Activation
tanh
layer 6 Dense
20 1
[0.13825314]
[0.09414856]
[0.01919802]
[0.2070972]
[0.03987641]
[0.04614278]
[-0.00659523]
[0.00378742]
[0.2723412]
[-0.04435304]
[0.33661753]
[0.10862081]
[0.01147816]
[0.00665629]
[0.04565274]
[-0.05924238]
[-0.01598115]
[-0.03803751]
[-0.24110721]
[0.2852379]
[0.0368805]
