layers 7
layer 0 Dense
20 20
[ 0.25558645 -0.08679597 -0.2387175   0.1550465   0.09105856 -0.27146396
 -0.03617531  0.17416587 -0.25934827  0.17018123 -0.13391282  0.14464456
 -0.375052   -0.29760265 -0.16947886 -0.22034287  0.00578106 -0.35346967
 -0.39841944  0.1547675 ]
[-0.12313633 -0.16106583 -0.3544887   0.00546273 -0.09795719 -0.00501871
 -0.13943471  0.20169616 -0.30750093  0.0866382  -0.46688032  0.24452628
 -0.09092142 -0.24573933 -0.1960008   0.24069887 -0.41854262  0.24705243
 -0.2747476  -0.03100164]
[-0.3049333  -0.17911775 -0.624104    0.6216349  -0.5231658   0.5182912
 -0.34220338 -0.4775352   0.1898279   0.21012323 -0.50869846  0.05911669
  0.27985966  0.267138    0.21239285 -0.17913882  0.15468201 -0.20472813
  0.46663576 -0.05986844]
[ 0.02445668  0.02836882  0.24493843 -0.18355194  0.32304254 -0.04090034
  0.14064473  0.07267116 -0.25794306 -0.05183912  0.25206318 -0.07181777
  0.1196315   0.34433162  0.31868586 -0.12508167 -0.15388358  0.24314746
 -0.21975249  0.08992915]
[ 0.24192074  0.3868087   0.2841258  -0.27258888 -0.2662447  -0.02355206
  0.15468808  0.33882436  0.301916    0.1359527   0.09053221 -0.22188458
  0.16985185  0.16247004 -0.29337123  0.03865217  0.08864587  0.1631736
 -0.23561442  0.19267035]
[-0.36433154 -0.01972464  0.8506956  -0.4686631   0.5712545  -0.24794367
  0.2128757   0.36738652 -0.27794185 -0.2453195  -0.24508871 -0.1412208
  0.13160662  0.0391825   0.28385162 -0.02497642  0.42055458 -0.2043456
  0.2488977  -0.05522717]
[-0.18852709  0.15177381  0.18091635 -0.61920834  0.4278748  -0.03087915
 -0.1816752   0.23766564 -0.11339497 -0.22616646 -0.03922389  0.09730292
 -0.28768465  0.25486624  0.4684958   0.01387981  0.02240616 -0.13943294
 -0.23285729 -0.3990558 ]
[-0.35027444  0.03497585 -0.27012038 -0.24267492 -0.03179614 -0.39711913
 -0.27273732  0.2648295  -0.21071516  0.14670198  0.15634133  0.05340655
 -0.02863289  0.45445618  0.26148018  0.25350136  0.09008774  0.1304304
 -0.25431693 -0.15886968]
[-0.14433543  0.04830179  0.12264293 -0.70049864 -0.0511898   0.28528506
 -0.05572621 -0.5961078   0.12742168 -0.01594578 -0.32686558  0.02198938
  0.21710595  0.06082892  0.10220445  0.20553756 -0.03384552 -0.3579447
  0.10774624 -0.37463874]
[-0.42657927 -0.02913638  0.02401372  0.34505218  0.26765293  0.06308811
  0.1657401   0.05769251  0.17412996  0.06527939 -0.03474946  0.06269348
  0.08821588  0.13552178  0.37877166 -0.09712165 -0.13190371 -0.2838615
  0.17208295  0.15647778]
[-0.02522129 -0.25038573  0.2049467  -0.13192898 -0.04325259 -0.00242943
 -0.36242995  0.0348768  -0.26753822  0.35277405  0.25448483  0.05941331
  0.3683883  -0.11355644  0.1207559  -0.30911282  0.42153925  0.17004643
 -0.34496644  0.5506561 ]
[-0.25772706 -0.09102876 -0.53281605 -0.47867444  0.4007382  -0.22825508
 -0.08340651 -0.16905628 -0.27693588 -0.23620178  0.38099343  0.31516713
 -0.27115345 -0.26237592  0.12403079  0.22619209  0.29126993  0.09585336
 -0.35998     0.3719205 ]
[ 0.3209523  -0.27897623 -0.03432588  0.12822348  0.30708697  0.1747823
 -0.11220544  0.09768846 -0.04988715  0.34891474 -0.18665327  0.36129868
  0.23413666 -0.49332288  0.157085    0.24544361 -0.17356366 -0.38198653
 -0.38369837  0.02194133]
[-0.19770221  0.3049726   0.48527178  0.51949644 -0.511447    0.20092735
 -0.40073884  0.07187555  0.04263841 -0.08417814 -0.16739573  0.21327797
  0.07488938  0.75069916  0.12198234  0.1686333  -0.07269508 -0.04070047
 -0.5075459   0.18250977]
[ 0.4455411  -0.0457546   0.55772907  0.35185322 -0.23014893 -0.00302428
 -0.03210882  0.10497476  0.63793194  0.25846827  0.26714304  0.2825043
  0.11291749  0.06809807 -0.26157317  0.05917573 -0.3814494   0.02531603
  0.05597598 -0.58197916]
[ 0.12330817 -0.19622879 -0.1172712   0.2973573  -0.6097819   0.37575474
  0.00357095 -0.05202829  0.40672866  0.3453363  -0.19529428 -0.06843296
 -0.28160754 -0.11610102  0.03762529 -0.18165894 -0.08550817  0.09051751
  0.0762329  -0.32379133]
[ 0.46901837 -0.05976886 -0.14101721 -0.29801384  0.32994437 -0.05983364
 -0.07769565  0.15050653  0.21629663 -0.2952838  -0.37670812 -0.22498687
 -0.14377433  0.2922357  -0.11557817 -0.18269299 -0.19731994 -0.1349564
  0.10493651  0.43781716]
[ 0.02059256  0.18944669 -0.42719963  0.08755738 -0.15536572 -0.3808012
 -0.15864964  0.42192182  0.22861642  0.05623522  0.12846027  0.26678
 -0.16858679 -0.6647023  -0.37015197 -0.38047227 -0.39299974 -0.4125582
 -0.02460467  0.16160698]
[-0.3468034  -0.244143   -0.43234047  0.47419026 -0.09111665  0.03196272
  0.32923988  0.140823    0.07249217 -0.24507219  0.07050513  0.19151358
 -0.26473653  0.03325157 -0.399311    0.2491118   0.38431686  0.04892686
  0.19655336 -0.43528417]
[-0.6011653   0.12946188 -0.43838143 -0.08476584  0.48431277  0.3069497
  0.14070278  0.51019746  0.04163536 -0.45839342 -0.29560792 -0.0380581
 -0.01151034  0.1260266  -0.07265791  0.3105425   0.43094537  0.2163896
  0.35331225  0.19678849]
[-7.1992584e-02  2.9763358e-02  1.2366752e-02  5.7722684e-02
 -5.4284424e-02  8.6517036e-02 -4.6044432e-02 -1.3947837e-01
 -8.1715152e-02  7.4829265e-02 -1.8183538e-03  5.0493647e-05
  5.4465499e-02 -1.5124371e-02  1.2920178e-01  4.3832760e-02
  3.6399592e-02  3.0655356e-02 -2.7275354e-02  1.0917774e-01]
layer 1 Activation
tanh
layer 2 Dense
20 40
[ 0.23448218  0.03797891  0.17313233  0.12070727 -0.00244435  0.19776738
 -0.39752138  0.09586817  0.18023403 -0.4340663   0.1372422   0.46808845
  0.08648507  0.24630418 -0.14680527  0.249409   -0.07566373 -0.11821125
  0.15241951  0.30897352 -0.09979001  0.21085271  0.19580553  0.30698094
 -0.03414055 -0.07988832 -0.11815015 -0.26490006 -0.0833877  -0.18335505
  0.02860848  0.41016763 -0.16489752  0.29600382 -0.17469053 -0.0271744
  0.05154773 -0.15178801  0.22062066 -0.21947664]
[-0.28202695 -0.01225134  0.07022667  0.2532179  -0.08681644 -0.16158062
  0.03050013 -0.15353246 -0.26950583  0.13686985  0.3003079  -0.16710375
  0.1459857  -0.15018554 -0.3048919  -0.14330484 -0.17957455  0.3467437
 -0.18401873  0.05459942 -0.11959028  0.08262722  0.31606552  0.29652107
 -0.21642183  0.0845174   0.24755369  0.2613808  -0.14269155  0.25163034
 -0.08105557 -0.02337273 -0.33144355 -0.1930479   0.01359191 -0.05310788
  0.02580165 -0.14362699  0.10525824 -0.25631335]
[ 0.22956535  0.03190884 -0.07891773  0.20025794 -0.22473232  0.06222978
 -0.04132236 -0.04585246 -0.3573229   0.2532883  -0.19457966 -0.21160756
  0.03023984  0.1620599  -0.11305139  0.06556529  0.08388085 -0.13174504
 -0.10301887 -0.2655745   0.16010773 -0.03240923 -0.22857626  0.13800085
  0.01754186 -0.16238077  0.00607997 -0.34497502  0.22788724 -0.18539047
 -0.09214441  0.02436783  0.4000462   0.10269774 -0.02368706  0.06762312
 -0.11186752 -0.20017923  0.16404963 -0.06720584]
[-0.05553064 -0.01947803  0.0416611  -0.10769518  0.08804639  0.08086859
  0.13154873  0.28641188 -0.02254865  0.05610586  0.07217181  0.01558396
 -0.00177566  0.24244834  0.20915759 -0.01028973 -0.00530108 -0.02256025
 -0.09953449  0.12287425 -0.31632397 -0.06897067  0.26180014  0.05260314
  0.24077152  0.11086134  0.29769295  0.117621    0.03058177  0.2265264
 -0.21460743  0.30971152  0.06075193 -0.36865026 -0.16961494 -0.2571473
  0.13388944  0.00448613  0.02150861  0.13061139]
[-0.19462936 -0.19278333 -0.00664746 -0.03828929  0.32176593  0.07963185
  0.27675816  0.11507393 -0.00117785 -0.08787473 -0.10308901  0.02365461
 -0.09535749  0.10555884  0.2182039  -0.23233561 -0.25739646  0.213275
 -0.3136941   0.03314834 -0.1277426   0.17825863 -0.2339591   0.12240755
 -0.03049714  0.07053629 -0.09925953 -0.08467571 -0.1306592  -0.07434145
 -0.10173228 -0.13760139  0.18279347 -0.07939629 -0.21321425 -0.08882263
 -0.00054193  0.07371707  0.07079565 -0.1741021 ]
[-0.24736159  0.01721836  0.29989162  0.00122836  0.22162971  0.17406675
 -0.0717417  -0.22450176 -0.21798672 -0.02563692  0.15055864 -0.15004534
  0.00612911  0.17292756  0.17169873  0.21629211 -0.19578615 -0.32220638
 -0.04807702  0.25589234 -0.02362623  0.17640354  0.32179543  0.29382238
 -0.19987471 -0.0650769  -0.27910408  0.04443226  0.24107596 -0.26039258
  0.20044224 -0.03093783  0.0908597  -0.18241464  0.19753897 -0.03470101
  0.08285893 -0.04978331  0.10441736  0.19480343]
[ 0.15032937  0.20204927 -0.04190898  0.18888581  0.13968904  0.00545632
 -0.11284162 -0.24163124 -0.22561438 -0.16137373  0.20437564 -0.16049647
  0.10677303  0.09629246 -0.18448879  0.22467622 -0.06779206  0.21282296
  0.21382491 -0.19312252  0.00893486  0.18563819  0.26595828 -0.13921027
 -0.23938365 -0.10302973 -0.08593622  0.13580757 -0.18940686  0.16564725
  0.06755571  0.13417509 -0.20491171  0.1891451   0.17509478  0.13315968
  0.3200709  -0.25737292  0.00890235  0.0401498 ]
[ 0.08793251 -0.0679232  -0.1751765  -0.12697412  0.16658339  0.26294023
 -0.09475175 -0.06992182  0.11508968 -0.2451785  -0.24393393  0.2026108
  0.16749099  0.1042206   0.0106719   0.17208326 -0.12102658 -0.21975484
  0.10702285 -0.06324738 -0.20369603  0.05382159  0.17509128 -0.06506181
  0.18547797  0.14856203 -0.01356369 -0.04945181 -0.27604157 -0.22867592
 -0.08656671  0.03904187  0.04493916 -0.0664125   0.21394777 -0.10122859
 -0.23035717 -0.00577467 -0.10109035  0.15858808]
[-0.00962698  0.26014036 -0.2518137  -0.18154733 -0.3116138  -0.15597579
 -0.07521575  0.02377781 -0.13860078  0.04073865 -0.09522921 -0.07224824
  0.12252697 -0.07698251 -0.20791855  0.07529132  0.18209603 -0.1341989
  0.2847991   0.03981244 -0.08851366  0.07334251 -0.24194488  0.28692937
  0.07537433 -0.26874623  0.05311051  0.02014251  0.02809636  0.03925402
  0.00253838  0.41355422  0.10742041 -0.28536057  0.10598245 -0.1244008
 -0.19859308  0.12111926  0.21551442 -0.0491427 ]
[-0.04074592  0.058831    0.18054968  0.03438434 -0.20891091  0.09542542
 -0.25508776  0.2882543   0.06991728  0.00796826  0.09533018 -0.13368864
 -0.18467972  0.11848923 -0.13891323  0.08206468  0.1575627   0.08061425
 -0.18569228  0.03555774  0.0932808   0.1468008   0.10722972  0.21885866
 -0.02481004 -0.30683002 -0.07878508  0.18714511  0.13834846  0.2944511
 -0.00539751 -0.03882711 -0.2244226  -0.12343745 -0.20582056 -0.12755826
 -0.01590933  0.05408846 -0.22643967 -0.02579461]
[-0.2135454  -0.05768308  0.24840401 -0.12386476 -0.23315907 -0.25182384
 -0.24518605 -0.05751014  0.2855506   0.14293884 -0.03012084 -0.0447541
  0.08757418 -0.13524158 -0.00861332 -0.14966732 -0.20966344 -0.15188773
 -0.1828642   0.19259429  0.22067599  0.2437841  -0.10089103  0.16731054
  0.2155045   0.19699538 -0.15260074 -0.00434141 -0.09345504 -0.22227164
  0.14683218  0.02760261  0.02724236  0.02045543  0.07963976  0.01525499
 -0.18030198  0.3203547  -0.2801315  -0.27001736]
[ 7.09474459e-02  1.47904262e-01 -1.72545165e-01  2.28508115e-01
 -1.12748283e-04 -2.03932762e-01  1.26870185e-01 -6.00581095e-02
 -2.06523836e-01  4.53841202e-02 -3.46962512e-02  9.46821794e-02
 -2.41166875e-01 -3.11069246e-02  3.94130759e-02 -1.09535560e-01
 -2.38640867e-02 -1.23703174e-01 -2.45295733e-01 -1.46049947e-01
  3.23603809e-01  2.02775255e-01  3.02373558e-01 -2.18171909e-01
 -3.12613994e-01 -6.03417009e-02 -3.17665488e-02  1.07006384e-02
  1.00719906e-01  6.56708926e-02  1.06147945e-01 -1.21345140e-01
  1.57071054e-01 -1.96136042e-01  1.45943776e-01 -7.31966347e-02
  9.81082693e-02  2.06933878e-02  3.11585099e-01 -3.35490964e-02]
[-0.04917553 -0.06094994  0.28306645 -0.26062143  0.33988157  0.19992146
  0.16021033 -0.03774146  0.32857868 -0.11963881  0.16146106 -0.24317163
  0.13729815  0.3094727   0.20389292  0.19411081  0.05779516  0.12013095
 -0.10094056  0.18180503  0.18288839 -0.10030237  0.04708008 -0.06999306
 -0.13464747  0.2509561   0.04616746 -0.11982173 -0.03966467 -0.18392593
 -0.19258884  0.19556108 -0.04559032 -0.1037333  -0.10563608 -0.09260483
  0.2977023   0.13512471  0.2405627  -0.0102391 ]
[ 0.25615433 -0.03969735 -0.07039123  0.38522565 -0.1468628   0.18043211
  0.07700042  0.25124675 -0.48908427  0.00779687  0.2426205  -0.17737338
  0.43960384 -0.07239912 -0.06655677  0.15875818  0.3613279  -0.11570448
  0.11616371 -0.00732378  0.27188575 -0.06143252  0.18157347 -0.15384792
  0.00686208  0.0235162  -0.1466785  -0.07082812 -0.11937664  0.06616095
  0.24765447  0.13442807  0.11330301  0.17289159 -0.14193793 -0.2740005
 -0.3272529  -0.39610568  0.14316934  0.32959715]
[ 0.01918506  0.03412271 -0.28495356  0.23509707  0.0956488  -0.07411179
  0.22924161 -0.04720382 -0.3632976  -0.34390584 -0.06393699 -0.45207748
  0.10268544  0.18596302  0.1784775   0.04421072  0.32638994  0.14388937
  0.2182607  -0.18824184  0.02854548  0.19776022  0.36432976  0.00489461
  0.1658711   0.00526928 -0.02986585  0.14386028 -0.12465159  0.0638373
 -0.03624976 -0.09292053  0.22258557 -0.05157259  0.18997322 -0.0422634
  0.06737954  0.02043949 -0.05671581  0.02153413]
[ 0.10043391 -0.09591845 -0.05543235  0.07780579  0.2536574   0.16200243
 -0.17547442 -0.14736398  0.05237063 -0.01910149  0.3188928  -0.19853474
  0.06135359  0.23563771  0.1436678  -0.1995042   0.11543284 -0.14293708
 -0.26591852  0.09265432  0.02225578  0.121246   -0.00579709  0.22866005
  0.2673654   0.10679997  0.18135844  0.17465162  0.08980921 -0.18778463
 -0.1058059   0.17136054  0.30112872  0.01122724  0.0170787  -0.19049655
  0.12505314  0.2579479   0.25602522 -0.12699838]
[-0.09329037 -0.00934776 -0.26736322 -0.05318588 -0.26839656  0.17128694
 -0.00383039  0.18191844 -0.14839627  0.08884525  0.09846457 -0.13496631
 -0.14327486 -0.07494628  0.02758979 -0.24483077  0.06516653 -0.05509243
 -0.07265463 -0.03235039  0.15698746  0.19620419 -0.0459036   0.07102529
 -0.10467366 -0.12817295  0.20246628 -0.2677349  -0.24070947 -0.02851336
  0.14263701 -0.11623363  0.20613615  0.09344125 -0.09558219  0.1731355
 -0.1439062  -0.20610648 -0.15693559 -0.02603701]
[-0.03403402  0.17375767  0.17465933 -0.20232631  0.0564772   0.30818346
 -0.29501656  0.14161284  0.01224508 -0.1688492  -0.23473398 -0.16475777
 -0.11714079  0.15156293 -0.04861327 -0.08126294 -0.153075   -0.14475442
 -0.22738835 -0.20331216 -0.10745184  0.16172566 -0.18786849  0.01191896
  0.01284343 -0.27373224 -0.29723147 -0.20427589 -0.2131314  -0.30323175
  0.05092516 -0.15807639 -0.01773531  0.0549911   0.26360527 -0.07751485
  0.04303243  0.38454494  0.06340441  0.10599788]
[-0.02454027  0.00249016  0.24914093  0.25344214 -0.11239593 -0.20300756
 -0.0201881   0.08271432 -0.02736433  0.22663298 -0.14751585 -0.10589618
 -0.13161874 -0.41495678 -0.42031422  0.16405521 -0.1008388   0.10764633
 -0.01422261  0.07178313 -0.17144358 -0.41149864  0.2912128  -0.16397138
  0.05066351  0.11684369  0.00673917 -0.09502643  0.22850807 -0.17408466
 -0.17839397 -0.06893927 -0.0585257  -0.1073732   0.02698357  0.01329516
 -0.1918872   0.16509321  0.13678788  0.11876452]
[-0.07245941  0.00323902 -0.03747749  0.14959465 -0.02255459 -0.14847298
  0.03769706 -0.19419481 -0.18903467  0.3235075  -0.13160107  0.3845557
  0.17117904 -0.03023197  0.00974079 -0.20071514 -0.2133258   0.06074829
 -0.14526898  0.22367705 -0.18155381 -0.27723417  0.10693619 -0.14683652
  0.04042174 -0.09227017  0.09531192  0.13355936 -0.08634447 -0.13063295
 -0.01038721  0.16722707  0.3387888  -0.19142967  0.16303983 -0.01320547
  0.20211568 -0.16242331  0.15404025  0.16275933]
[-0.02770946 -0.0520962  -0.03004564 -0.0310852   0.00243792 -0.00412731
 -0.04280253 -0.05194714  0.04157833 -0.01543384 -0.010103    0.04336597
 -0.02064593 -0.02367579  0.05198291  0.0132471  -0.01137541  0.02187004
 -0.00229119 -0.05380289  0.0505872   0.02977617 -0.00733455  0.00875153
  0.00356842  0.03529973  0.0072042  -0.02239192  0.02532276 -0.02382492
 -0.01238075 -0.04691777  0.04936706  0.10652835 -0.02354147  0.0870946
 -0.02395859 -0.01451271  0.01326232 -0.03436899]
layer 3 Activation
tanh
layer 4 Dense
40 20
[ 0.01192285  0.12783922 -0.22027476  0.18185575  0.05039445 -0.19898377
 -0.11238287  0.2296472  -0.14360334  0.14837363 -0.21453138 -0.02242971
 -0.0324464   0.09838799 -0.30730736  0.20462883 -0.03897135  0.06851722
  0.01110744 -0.16422531]
[ 0.10497234  0.09507555  0.1738788  -0.14155637 -0.04243756  0.00117141
  0.32862383 -0.01258955  0.20866579 -0.26839295  0.00339569 -0.07835454
 -0.19513206  0.13487826  0.23830771  0.00870262 -0.3315242   0.17851728
 -0.32931376  0.16600722]
[ 0.19741511  0.10722056  0.21819973  0.0231227  -0.28635392 -0.02886664
  0.01280299  0.07620287  0.02458289 -0.25441375  0.09313016 -0.1749047
 -0.16865177  0.12899026 -0.22651869 -0.21284865  0.08414686 -0.16017322
 -0.29439694  0.13936217]
[ 0.22484784 -0.17272021 -0.14195117 -0.01487523  0.14941102 -0.23769245
 -0.23506138  0.21627201  0.07926887 -0.41105816 -0.18411425 -0.3013245
  0.08940719  0.08610158 -0.04564149  0.1623416  -0.11692401 -0.18060665
 -0.06445447  0.03647014]
[-0.1342425  -0.2540724  -0.10293116  0.22586693  0.14363956 -0.27899614
 -0.27640536 -0.16419876  0.15825763 -0.16012792  0.15630864  0.17535894
  0.00751602 -0.10553881 -0.2785797  -0.13745433  0.30112958 -0.20137063
 -0.00720102 -0.07678146]
[-0.038485   -0.25126982  0.30175096  0.15734418  0.06898504 -0.02609221
  0.15399462 -0.02981594  0.084985    0.28624308 -0.18940285 -0.29839322
 -0.09224807  0.33189264 -0.30967256  0.02998669  0.20596051 -0.08119658
 -0.05915682  0.18011382]
[ 0.06100173  0.02732704 -0.0097373   0.10788631  0.10908949 -0.2312348
 -0.04187009  0.09320299 -0.06504199  0.06019346  0.18268907 -0.11084868
 -0.01643118 -0.23736572  0.28821996 -0.13472788 -0.22294295 -0.14481732
 -0.13759506 -0.2326683 ]
[-0.29224482 -0.16176748  0.05273978  0.00575585 -0.02559406  0.04834647
 -0.09274016 -0.21973027 -0.2891033   0.08835627  0.21958776 -0.23000342
  0.11928251 -0.13450277  0.01088918 -0.12902543 -0.05877234 -0.25797254
 -0.27139384  0.11349815]
[ 0.10560849  0.18092163  0.35492778  0.0683146   0.03478011 -0.07221064
  0.02431386 -0.04360928  0.07234357 -0.03810771  0.0977755   0.1898797
  0.12479405  0.01469269 -0.01240671 -0.3522314  -0.3158485   0.18974438
  0.29370117  0.2976478 ]
[ 8.3054170e-02 -1.3371097e-01 -2.3569307e-01  1.4257500e-01
 -1.1094456e-04  1.0788019e-01  5.6591041e-02 -1.0222123e-01
 -2.2308990e-01 -1.3993843e-01 -1.9754022e-01  2.2463918e-01
  2.7286496e-02  6.8945825e-02 -2.6656875e-01  5.5187371e-02
  6.8703122e-02  1.1417063e-01  1.9322877e-01 -1.9309823e-01]
[ 0.26482373  0.24575192 -0.04913161 -0.12388828  0.281378    0.13412997
 -0.1227501  -0.22245127 -0.2465573  -0.20889784  0.2424501  -0.09665028
 -0.01874724 -0.13202757  0.05528105  0.15536405  0.04885836 -0.34368986
 -0.23681009 -0.1565563 ]
[ 4.9176104e-03 -6.0847454e-02 -2.9214847e-01  1.3307062e-01
  6.3717067e-03 -2.3737408e-03 -2.9937699e-01 -1.7021316e-01
 -6.7137644e-02 -9.6437551e-02  1.5915401e-02  1.9987641e-01
  2.4426818e-01  2.7103502e-02 -1.6908686e-01  2.4532697e-01
  2.1281134e-01  2.7733025e-01 -1.5555421e-04 -9.2022583e-02]
[ 0.05093021 -0.27033958  0.20893216 -0.42544776 -0.3996     -0.12056796
  0.12951446 -0.1439531   0.03941284  0.0098386  -0.23655087 -0.19578873
  0.13287108 -0.06152355 -0.13565998  0.2290418   0.01176427 -0.1166309
 -0.15635204 -0.11146508]
[ 0.29860875 -0.24754052  0.1649678  -0.20964691 -0.06644298  0.07610144
 -0.23306884 -0.1442843  -0.05409195 -0.03034947  0.23570217  0.0678395
 -0.16548927 -0.01979241  0.21884274  0.20943053 -0.09363907  0.14761543
 -0.31586352 -0.0423272 ]
[ 0.07587877 -0.27564144  0.23863155 -0.01301153  0.08111783  0.15267527
  0.21225545 -0.03190023 -0.05540933  0.30795407  0.26705667  0.23052861
  0.12529291 -0.21568172 -0.10002203  0.22418208 -0.10724651 -0.07535415
  0.02546374 -0.20201445]
[-0.15304409  0.16668476  0.02216706 -0.08414121  0.11554299  0.21108027
 -0.1845288  -0.06200724 -0.23043147 -0.15183692 -0.31648007 -0.03710988
 -0.18422459 -0.2030841   0.16040748 -0.01425847  0.2338075   0.10473307
  0.10125513  0.35792625]
[-0.1562518   0.05766291  0.21800444  0.06750571 -0.16680346 -0.05973598
 -0.13532239  0.21695764  0.21536587  0.09220674  0.04419495 -0.31158054
  0.03862733 -0.2217824  -0.03875248  0.1822756   0.09324237 -0.24259408
 -0.31707206  0.2873452 ]
[-0.09118462 -0.03148882  0.1395271   0.14327428  0.12030709  0.12219399
 -0.01110574  0.23545344  0.02558865  0.11241469 -0.08911093  0.07486572
 -0.01991098 -0.0319846  -0.20092207 -0.14983687  0.3003362   0.04523697
  0.2029921  -0.00108427]
[-0.25746924  0.30613726 -0.2673465   0.11104271  0.06985082  0.25015348
  0.03765307 -0.23144165 -0.02225032  0.07774384 -0.27779692 -0.09415469
  0.12903585 -0.2567924  -0.21200906  0.06523952 -0.10016833 -0.01613284
  0.10708828  0.13449349]
[ 0.02306078  0.35042074 -0.09477502 -0.17552766 -0.13625385 -0.02194647
 -0.27869138  0.19557853 -0.18484823  0.18954259  0.02288944 -0.05137999
 -0.14693086  0.12759642 -0.03939949 -0.10098833 -0.1705556   0.30837834
 -0.19814998  0.04560025]
[-0.275764   -0.2455795  -0.1419087   0.2344148   0.02916216 -0.0178435
  0.03498179  0.18962032  0.20924602 -0.06402337 -0.08578867 -0.16640164
  0.16660461  0.02351809 -0.22422265 -0.13463037  0.144456   -0.13342562
 -0.15099487  0.03722064]
[-0.27159262 -0.31058216 -0.23958246 -0.18282497  0.31153697  0.06473131
  0.08207883 -0.02634284 -0.05403688 -0.00872231  0.41695404  0.07458194
  0.17916961  0.17315015  0.14978772  0.11037099 -0.14284272 -0.16735311
  0.20742603  0.25025052]
[-0.21169208  0.29267552  0.14275527  0.11259902  0.11109293 -0.27662408
  0.25918576 -0.08800712  0.23058401  0.21410052  0.18207106  0.2346348
  0.0823638   0.09343893 -0.24689531  0.25652257  0.10683878 -0.23575969
 -0.14360976 -0.01858751]
[ 0.05934662  0.02170147 -0.2201815   0.31633464  0.05406162 -0.11479197
  0.05239905  0.08118811  0.12177721 -0.32956225  0.288602    0.06811301
  0.23735818 -0.15384348 -0.01201683  0.213735   -0.13108863 -0.2322491
 -0.13165827  0.26054117]
[ 0.17393813  0.19309872 -0.09870115  0.19315049 -0.01117476  0.07952295
  0.16260305 -0.08309973 -0.12342825 -0.15942124  0.12323863 -0.02615099
 -0.2657222   0.15823828 -0.16620447 -0.15932293  0.07432417  0.01903261
 -0.16243172  0.08946811]
[ 0.153348   -0.2017916   0.2825918   0.10006327  0.16324028  0.01849264
  0.25350153 -0.04482656  0.06400554 -0.21533953  0.09041458  0.11992203
 -0.03909424 -0.04811812  0.23490468 -0.12048689  0.1101469  -0.06712536
  0.1041654   0.02316213]
[ 0.08498395 -0.10915022 -0.05651443  0.0800354   0.13774084  0.07597007
 -0.19881417 -0.0547877  -0.09464654 -0.20081775  0.2933006   0.11497691
  0.05997675 -0.02499642 -0.27808204 -0.06506809  0.05458923  0.1796522
 -0.12278497  0.09796968]
[ 0.19438225 -0.10553505  0.2721842  -0.03274112  0.19354199  0.02967951
  0.31437373  0.20413376  0.20810401  0.09516466  0.3540595  -0.16369416
 -0.06385171 -0.08759376  0.2422254  -0.17598352  0.22928236  0.03774538
 -0.11387084  0.17780325]
[-0.16641599 -0.17804784  0.12737392 -0.17430244  0.02323108 -0.05213267
 -0.17355898  0.0880318   0.12708089 -0.39649916 -0.12025365 -0.02589608
  0.12657379  0.2751353   0.15820096 -0.01611775 -0.02523216  0.06359785
 -0.20756999  0.22853087]
[ 0.05656837 -0.2540883   0.158921    0.3758902  -0.17649071 -0.21319208
 -0.07414186  0.23784406 -0.07018477 -0.04226188  0.16849068  0.23160204
 -0.2840052   0.16051118 -0.34776756  0.01224627  0.1244643  -0.09536041
  0.09319466  0.11016082]
[-0.14808153 -0.18348359 -0.14685676 -0.07078552  0.04093905  0.19714482
 -0.00900843 -0.1508207  -0.31158438  0.15445267 -0.21147154 -0.05401736
 -0.13490988  0.06119752 -0.17777163  0.03870276 -0.09116965 -0.15424219
  0.29581925 -0.13246898]
[ 0.06393538  0.32167238 -0.05387774  0.02917626 -0.25977752  0.04389562
  0.0652352  -0.02644977 -0.27215824 -0.04821274 -0.2548534  -0.03069467
 -0.15156728  0.30740967  0.20044981  0.14281343 -0.07375593  0.21854907
 -0.00419916  0.27192512]
[-0.01411729  0.04161315 -0.3673408   0.06553575  0.26784313 -0.08156215
  0.14537106 -0.05547451  0.2440675   0.01736851  0.00776818 -0.25114518
 -0.20929737  0.06032873  0.25456408  0.05848643  0.0597432  -0.1714394
  0.03048093 -0.21180236]
[ 0.00651443 -0.2734768  -0.12618536  0.11402332  0.07980992  0.08459228
  0.06203404 -0.12307675  0.2389137  -0.28517213  0.00751169 -0.00165038
  0.24376735 -0.2005621   0.04318281  0.06010076  0.09276772 -0.10710899
  0.0921575  -0.11641685]
[ 0.21462905 -0.26392514  0.28014046 -0.3127628  -0.11002708 -0.034686
  0.05302494  0.11635017 -0.08804159 -0.2143164  -0.01083552 -0.05075796
 -0.10548612 -0.16930631  0.25417355 -0.14553285  0.1113999   0.04518295
 -0.15230149 -0.24152587]
[-0.00288866  0.20399128 -0.16375215  0.11840563 -0.06634153  0.0289242
  0.16901442 -0.20281914  0.10273603 -0.19908883  0.03024526  0.22400272
  0.22389512 -0.11329747  0.26678967 -0.10520747 -0.2308295  -0.00274525
  0.18393312 -0.10311937]
[-0.0099353   0.02370684  0.16818023  0.04519027  0.13056624  0.22395125
 -0.19482806 -0.18813843 -0.21056934  0.05308355  0.43380377  0.21536955
  0.15961044 -0.16094004  0.28076127  0.00584162  0.12150154 -0.05853999
  0.12301766  0.14822765]
[-0.24984641  0.20976894 -0.16961509 -0.19183922  0.08798095 -0.01077918
  0.00465582 -0.07638662 -0.24933587  0.10162797  0.29923937 -0.01406153
  0.09957687  0.03175518 -0.03290965 -0.31561887  0.15652466  0.09691195
 -0.18356608  0.02173127]
[-0.13617563 -0.05016622 -0.3024439   0.15421093 -0.047959    0.05466755
  0.24108198 -0.12684599 -0.2335325  -0.12108167  0.06215929 -0.22766656
  0.14782451 -0.11069442  0.08262231  0.02405778  0.16717339  0.18411207
 -0.21800677  0.06846724]
[-0.20179354  0.0756093  -0.34180155  0.07978089  0.13666253  0.17071679
 -0.03730817 -0.17753746 -0.02009475  0.26692143  0.11986679  0.02413653
  0.00968255  0.18655688 -0.10199291  0.24402155 -0.05783992 -0.08864928
 -0.1989728  -0.279268  ]
[-0.00797015 -0.01164315 -0.04947092 -0.03257526 -0.00682539  0.02728269
  0.01311678  0.03548198  0.03271616 -0.03265404 -0.08820153  0.04591917
 -0.00430205 -0.03236751  0.0308949  -0.01482474  0.01625657  0.00791379
  0.03617309 -0.02268056]
layer 5 Activation
tanh
layer 6 Dense
20 1
[-0.04087126]
[0.05841582]
[0.07601925]
[0.01055917]
[0.00639975]
[-0.0159102]
[-0.01763482]
[0.00545713]
[-0.00341462]
[-0.08958946]
[0.13157244]
[-0.21200404]
[0.02834615]
[-0.01392026]
[0.00714843]
[0.15646617]
[0.00325865]
[0.12072899]
[0.16433997]
[-0.13219988]
[0.00430722]
