layers 7
layer 0 Dense
20 20
[ 0.32597762  0.2797019  -0.22574787 -0.21300381 -0.28418654  0.24212378
  0.29008508  0.21086922  0.26357386 -0.23150262 -0.01825434 -0.32022288
  0.35182056  0.12154736 -0.12990388 -0.26842386 -0.1981323   0.06615157
 -0.22290994  0.17770325]
[ 0.23452823  0.4051626   0.11265601  0.0640568  -0.3149701   0.15321787
  0.2582754  -0.20019725 -0.3459689   0.059936   -0.40835586 -0.31882375
 -0.11679675 -0.39328638 -0.11344636  0.25941774  0.21609403 -0.30836385
  0.0772818  -0.03244715]
[-0.25710458 -0.12271988 -0.38078514  0.1683666  -0.11856364 -0.21779087
  0.49522528  0.23019624  0.20895778  0.1947156   0.27231315 -0.23131497
  0.19100897  0.20598508 -0.3582599   0.19192852  0.09218202  0.33500755
 -0.327844    0.19700955]
[-0.15313599 -0.19978307 -0.05816778 -0.00876522  0.20859633  0.19741341
  0.31929207 -0.22390911 -0.34849703 -0.29361993  0.140444    0.02196413
  0.25517097  0.10815391 -0.2842175   0.05546312  0.09442151  0.05587074
 -0.01437351 -0.09939421]
[ 0.03247261 -0.2600908  -0.24117303  0.16269343 -0.13370183 -0.29640812
  0.24745508 -0.35204434 -0.24979223 -0.03001698  0.3838468  -0.352739
 -0.20262234  0.13981843 -0.254926   -0.22114807 -0.08123812 -0.21857758
 -0.07841422  0.13130325]
[ 0.17176169  0.01798713  0.16154218  0.08486846  0.22121918 -0.13295622
 -0.19267574  0.11705368 -0.21822792  0.18825495  0.28939164 -0.37797526
  0.47497487 -0.256613   -0.4402315  -0.05699798  0.21665883 -0.20365478
  0.30546594 -0.25694054]
[-0.35226303  0.32422456 -0.29208517 -0.27047515 -0.3323888  -0.4031213
  0.2817388  -0.08894372  0.423863   -0.41233507  0.17827033  0.15873581
  0.27077112  0.02409432  0.02554763 -0.08643629 -0.28107986 -0.14254224
 -0.17495243  0.11883566]
[ 0.07802615  0.12510572  0.3525081  -0.03916793 -0.07961666  0.22748893
 -0.34453726 -0.14390245 -0.03614988 -0.21219866 -0.08594364 -0.24119888
 -0.11228444  0.13958713  0.22029616  0.00873525 -0.34047887  0.22516842
 -0.27158546 -0.15071917]
[-0.06356337 -0.37228143  0.34162375 -0.1271172  -0.15067185 -0.07567903
  0.01408629  0.4631025  -0.15453355  0.02178193  0.43316117  0.32890826
  0.23708564  0.19001919 -0.3210198  -0.02534034  0.37879145  0.14687751
 -0.22091256 -0.14066142]
[ 0.15007217  0.2485617   0.24078272 -0.02351984 -0.27525428 -0.11017576
 -0.0393373   0.00402438 -0.08955788 -0.1057349  -0.09962855 -0.07954738
 -0.24865776 -0.01646837  0.32316625 -0.03762194  0.18227552  0.2812691
  0.33635876 -0.00148648]
[-0.22687817 -0.10425219  0.18654501  0.10320444  0.16181906  0.02516224
  0.21519275 -0.2487433   0.21681078  0.03158809 -0.10818399 -0.3685484
  0.13478562  0.02062308  0.14585364 -0.09370385  0.11622638 -0.07538957
  0.28616866  0.1477214 ]
[-0.10855975 -0.43293273 -0.11410852 -0.16812311 -0.02313716 -0.43211374
  0.23904832 -0.17634183 -0.11600646 -0.06773534  0.17831902 -0.00162967
  0.2725777  -0.18154219 -0.2521163  -0.37562275  0.2104819  -0.24956204
  0.17892812  0.01930828]
[-0.19402307 -0.13443887 -0.00325037  0.3800119   0.10823338  0.16909805
 -0.0752176  -0.20287341  0.05989524 -0.25229907 -0.37479705  0.1358764
 -0.2453952  -0.0421305   0.01109848 -0.26375365 -0.01732413 -0.19574434
  0.21802813  0.21679187]
[ 0.2442764  -0.14756033  0.10003971 -0.17816693 -0.09953617  0.22058326
  0.10565726  0.29121527 -0.10496077 -0.03667832 -0.2984238  -0.21663414
  0.15157509 -0.07792763 -0.02156036 -0.15039209 -0.05007454  0.42715526
  0.32405668  0.05273965]
[-0.39379123  0.14734128  0.2641699   0.24002172  0.2965246  -0.02240575
 -0.01324566  0.20628558 -0.33598584  0.02129749 -0.36315206  0.44433752
  0.5264581  -0.3391815  -0.17701745  0.072377    0.38717237 -0.39183772
  0.5018318  -0.348058  ]
[-0.22444817  0.03476226  0.14555958 -0.04701747  0.36488053  0.14664666
  0.23968148  0.3640771   0.2732272  -0.17264467  0.08892299 -0.13372436
 -0.04893452  0.27267715  0.35196778  0.24500558  0.20202145 -0.19725116
 -0.3768225   0.08370002]
[ 0.1841625  -0.112723    0.2362369  -0.15976085 -0.3000365   0.2914594
 -0.08198051 -0.10838734  0.1241198   0.03519981 -0.09758268 -0.05251305
  0.48357403 -0.23615718  0.32463282 -0.35408458 -0.17230895  0.12570995
  0.06403058 -0.28323108]
[ 0.14766748  0.0817808  -0.15686467  0.35503557  0.06275164 -0.43823844
  0.26023325 -0.10082483 -0.03001254  0.2685006  -0.20232823  0.42215133
 -0.11130407  0.15659566 -0.30268556 -0.11110674  0.40162072 -0.04150245
  0.18188983  0.01472868]
[-0.10857195 -0.26813447 -0.3281951   0.3259054  -0.1101928  -0.31548882
 -0.19688825 -0.10087015  0.31453052  0.28383958  0.06100046 -0.22195607
  0.25170958  0.16359493  0.34909415  0.14636931 -0.0658555   0.13481365
 -0.45103976 -0.03184956]
[ 0.12008262  0.33152747 -0.00779455  0.2511265   0.14028911 -0.19528395
 -0.34141523  0.4108889  -0.24297972  0.4509264  -0.21832749  0.15192866
 -0.2186795  -0.170549   -0.34410405 -0.0792302   0.2538888   0.0120916
  0.06577075 -0.00607139]
[ 0.02494782  0.03326631  0.02528342 -0.01106461  0.02625246  0.02030132
  0.07273342 -0.02756145  0.00388767 -0.01481017  0.02262512 -0.00451488
  0.01628419  0.01430984 -0.02585247 -0.04512361  0.00963185 -0.0060034
  0.02480843 -0.02936031]
layer 1 Activation
tanh
layer 2 Dense
20 40
[-0.10037623  0.1839908  -0.24286643  0.19880642  0.14048612 -0.22384195
  0.05697282 -0.27762026  0.17082287 -0.14427009 -0.10749604 -0.25782287
  0.09605959 -0.0245799   0.18101686 -0.18485239  0.3240996   0.13672021
  0.11471267 -0.28581125 -0.3207549   0.27188227 -0.11208124 -0.08088832
 -0.07335541 -0.04322555  0.08465564 -0.27160147 -0.06507632 -0.21756963
  0.29863247  0.19589397 -0.23437077 -0.18694934 -0.19009659  0.22795513
 -0.18275024  0.13295756  0.11652869  0.17926303]
[-0.21375896  0.06024556  0.25597963 -0.10447013  0.06779615 -0.0585386
  0.02061676  0.22552459  0.24874921  0.16849844 -0.19408159 -0.02702385
 -0.11083701  0.05738946 -0.01684953  0.07483023 -0.16242993  0.264213
 -0.0276531  -0.13163269 -0.2392995   0.20144187  0.02168747 -0.1822322
 -0.09573752  0.07270303 -0.29817578  0.29637516  0.0477862   0.06056123
  0.06490827 -0.06483508  0.23949774  0.05399993  0.04146813  0.22769946
  0.13285284 -0.21770218 -0.00130075 -0.09242432]
[ 0.12961832  0.05242661 -0.00739218  0.05097109 -0.007145   -0.21687172
 -0.00257647 -0.12260628 -0.08851831 -0.37765205  0.29047546  0.28903878
  0.02315504  0.02235196  0.27360982  0.27915674 -0.0189627   0.07931432
  0.21478266 -0.00252766  0.11871202 -0.1349608   0.09356065  0.02516143
  0.11193525 -0.13862279 -0.14130712 -0.21471788 -0.07389002 -0.09741568
  0.26570335  0.21414356 -0.29308477 -0.13620655  0.19014114  0.23123418
 -0.20778243 -0.08032431  0.051241   -0.2916541 ]
[ 0.12033438  0.20822346 -0.23470858 -0.10784364 -0.22775055 -0.26661536
  0.17169176 -0.17358938  0.06749552  0.11234004 -0.2186644  -0.2796955
 -0.02784907  0.2516557  -0.14063087 -0.27080712 -0.08839844 -0.2032183
  0.26879385 -0.29310834  0.18519658  0.02885087  0.20052607  0.2332683
 -0.02109597  0.01416134 -0.06065245 -0.24613656  0.18931939  0.28822654
  0.12362082 -0.12841982  0.24185123 -0.30900997  0.3707191   0.04569627
  0.06971691 -0.05884712 -0.16206376  0.07392019]
[-0.0717586   0.00633139 -0.20392948  0.27874714  0.32781976  0.1091973
 -0.277679    0.13957958 -0.22958452 -0.12792885 -0.16216879 -0.1285831
 -0.05448198  0.08290318  0.20870356  0.16219012  0.05252495  0.16547562
  0.29391745  0.07167352  0.03814771  0.02950208 -0.1388744   0.05460706
  0.19012026 -0.15638871  0.03505949  0.07263329 -0.07124934 -0.00315136
 -0.23051584  0.08625006  0.00862648 -0.03796475 -0.26559868 -0.21354732
  0.25721502  0.23175968  0.14874452  0.11037076]
[ 0.00898206  0.02131289  0.16976763  0.18297505 -0.05336248  0.03581858
  0.1734979   0.17279054 -0.11470512 -0.25267634 -0.11454121  0.1328931
 -0.03639139 -0.07691424 -0.11467871  0.16022885  0.00991399 -0.08388355
 -0.25534397  0.11800925  0.20528215  0.3718724   0.16115978  0.28814727
  0.10296218 -0.03494343 -0.07555424 -0.07699822  0.04316052 -0.39524978
 -0.240946    0.34820038  0.00131575  0.3560697   0.0748699  -0.09325415
  0.26779824 -0.1718613  -0.12876958 -0.10075746]
[-0.11355658  0.18849966 -0.17084579  0.28181922 -0.12314241 -0.36686203
 -0.3010122   0.08481598  0.24977018  0.16117501 -0.23689751  0.12053801
 -0.21360117  0.18783939 -0.19869864 -0.24550079 -0.26526803 -0.13500154
 -0.12530719 -0.08953725 -0.27826944  0.31966916  0.25900927  0.09673505
  0.2388414   0.0324855   0.24695274 -0.04981899  0.19793814  0.15170711
 -0.10087094  0.16198348  0.10235789  0.06065185  0.20100255  0.13170533
 -0.06163054 -0.33097282 -0.02720103 -0.27719855]
[ 0.2111603   0.06005185 -0.0512395   0.09873857 -0.11937158 -0.2679481
 -0.22751355 -0.02446244 -0.08028483 -0.1373817   0.11134557  0.32383505
  0.00334445  0.08944537  0.064201    0.25720716 -0.13402392 -0.03699194
 -0.29536822  0.05344395  0.11687948  0.08195744 -0.26961094  0.1906767
 -0.18178384 -0.03644219  0.26696366  0.24861193  0.24566044  0.03726275
  0.35165387 -0.03361345  0.08361597  0.03872415 -0.28563368 -0.27110818
  0.08105192  0.08077863 -0.00657566 -0.17967127]
[-0.10482423 -0.11900131  0.05466468 -0.14260985  0.10506045  0.22952206
 -0.12410364  0.13955162  0.27090478  0.11046793  0.11517523 -0.19273196
  0.04666973 -0.24072143  0.21557301 -0.18287697 -0.12339292  0.06151057
 -0.34954005  0.36715677  0.1407747   0.19303676 -0.26346236  0.14859706
  0.16913967  0.3905069   0.09537642  0.10693239 -0.23264863  0.09368688
  0.02016024 -0.14039709 -0.24958895  0.09607791  0.13257214  0.1376501
 -0.27323186 -0.01618693 -0.07827292 -0.04726385]
[-0.14282855  0.24992445 -0.2726305  -0.09980731 -0.28083324  0.17233144
  0.1151476   0.03918646 -0.11379199  0.04488903  0.00173819 -0.03686852
  0.13146274 -0.15448341 -0.25575197 -0.10095318  0.00785343  0.23871592
  0.11589664 -0.17521258 -0.18641761 -0.2963881  -0.01711391  0.2221336
  0.11472696 -0.00239307  0.0211104   0.08000907 -0.03915828 -0.10261123
  0.3502179   0.10877235 -0.15780658 -0.3046567   0.24231935  0.05996563
  0.16990496  0.11616267 -0.12097468 -0.2768594 ]
[-0.18508254 -0.00633493  0.07130693 -0.22006333  0.1441375  -0.1033791
 -0.26751268 -0.01606457 -0.09775467  0.10741324  0.00939836 -0.1875294
  0.15361361  0.332166    0.23236123 -0.19459867  0.19693217  0.13407728
  0.0444164   0.20812248 -0.03947499 -0.35608056 -0.11471614 -0.12256252
  0.07679382 -0.18659899  0.25851074 -0.11229051  0.15710676  0.12417443
  0.14661305 -0.10447065 -0.3213964  -0.22775881 -0.25433984 -0.05017506
  0.30672976 -0.08596271  0.27733088  0.31290823]
[ 0.11725999  0.13117096 -0.1546068   0.15886478 -0.01687601 -0.08670364
  0.06781702 -0.21521549  0.08498981 -0.2050557  -0.26058418 -0.14937776
 -0.0038245  -0.11136916  0.14267054 -0.10253546 -0.25630042 -0.26523525
  0.13178445 -0.28927115  0.3433375   0.00649879 -0.23109066  0.26758605
  0.04328066 -0.23983857  0.35142493 -0.26970845  0.2913978  -0.15251093
  0.12929535 -0.31244403  0.06541336  0.05347162  0.27787325 -0.00285471
  0.00316539 -0.07760999  0.26246306 -0.25539568]
[ 0.12375855  0.10550621 -0.16287227 -0.33053744  0.14177854  0.05811267
  0.02973481  0.29214346  0.06820587 -0.06044844 -0.20073085  0.24430454
  0.2035022  -0.18573648  0.02575468  0.220407   -0.06255592 -0.29903036
 -0.16473404  0.18323705 -0.00595109  0.00240007  0.13831577  0.10407621
 -0.09199761 -0.24478292  0.00936378 -0.2254847   0.4048159   0.18129374
 -0.1615382  -0.21693465 -0.04729453  0.07654598 -0.29159212  0.15165758
 -0.09563448 -0.2117423   0.1796689   0.25492832]
[ 0.29820165  0.2988941   0.14533243  0.19003524 -0.08810651 -0.25003794
  0.1573792   0.32002327 -0.17702666  0.14060612 -0.12402631 -0.19504738
  0.21895911 -0.1346296   0.18869373 -0.22889206 -0.04169974 -0.08412269
 -0.02780004  0.12919706  0.23029727 -0.10948242  0.22834514 -0.14128879
 -0.16397375  0.06913428  0.0670156  -0.3402573  -0.33932367 -0.30099854
 -0.038365   -0.12275045 -0.03176979 -0.1123168   0.00479462 -0.08063194
 -0.1384722   0.30418026 -0.07920633 -0.01254324]
[ 0.17946933  0.09326654  0.06364887  0.17503253 -0.01535379  0.31011066
 -0.16408338  0.06894488 -0.28995103 -0.2701962   0.10675489  0.08836378
 -0.06213595 -0.0514474   0.0151565   0.08332922  0.13205284 -0.02149388
 -0.20819065  0.23745312 -0.12546952  0.0159187  -0.13526233  0.20041822
  0.13322555  0.14478114 -0.2294749  -0.10936607  0.13183832 -0.24121143
  0.13123606  0.20024164  0.1915948  -0.13705267  0.22598095 -0.19555576
  0.12571101  0.13821836 -0.2873121   0.24725647]
[-0.13337274 -0.15733598  0.2684359  -0.19934003  0.01811932  0.3088182
  0.23189078  0.07263979  0.01007048 -0.02196945 -0.09907046  0.30006793
 -0.04073178 -0.18756229  0.21915     0.10363708  0.05276532 -0.12008586
  0.09309004 -0.30172348  0.16711599 -0.13411215 -0.02933985  0.21592699
 -0.33062795 -0.21393251  0.17963232 -0.2282397  -0.26187095 -0.23396036
  0.284888   -0.25356755  0.17198333  0.09310467  0.18664652 -0.18421394
 -0.09231817 -0.20136143  0.08465932 -0.16748607]
[-0.1592001  -0.15859449 -0.24895993 -0.02219383  0.06241903 -0.33280435
 -0.1396166   0.19293518 -0.03493913 -0.280049    0.11200108 -0.09718391
  0.17421895 -0.01399163  0.22194193  0.26070827 -0.17262249  0.19442502
  0.14947504  0.00655173  0.18977809 -0.19454177  0.15723732 -0.2678561
 -0.12222338 -0.32475138 -0.17569888  0.02412149  0.3286143   0.35378808
 -0.03076035 -0.26123092  0.16687062  0.00168905 -0.19553569 -0.08301722
  0.21350324  0.17777538 -0.23136142 -0.14524652]
[ 0.12586258  0.17335291  0.24424402  0.2140151  -0.24823038  0.29610032
 -0.01602662 -0.09681062 -0.30603546  0.04494624  0.08805905  0.02672099
 -0.03651344  0.03202843 -0.28232548 -0.14004253  0.05647627 -0.07982356
  0.21635753 -0.20408662 -0.21287668 -0.0422526   0.16523588 -0.1633823
  0.06446809  0.35043353  0.12026962 -0.07001149 -0.19846033 -0.20937896
  0.29823774  0.32462215  0.26635838 -0.34039223 -0.31488353  0.12047864
 -0.17009269  0.0084279  -0.22117992  0.09236563]
[-0.0286037   0.01240202  0.02816583  0.3888655  -0.24293399 -0.15962122
  0.04006586  0.1985719   0.23899014 -0.27945635 -0.18311822  0.12940992
 -0.2279583  -0.06798036 -0.18672282  0.2282926  -0.09068635 -0.17684226
 -0.11107692  0.03737534  0.30202675  0.20385201 -0.22615641 -0.07456601
  0.11694319 -0.38638058  0.15552066  0.14427802  0.3477017  -0.08719513
 -0.10073997 -0.26997063  0.26894057  0.09511474  0.01871981  0.04364711
  0.06875682 -0.15037005 -0.31731308 -0.07787783]
[ 0.1446493   0.08700882 -0.15094052 -0.09356678 -0.31416777  0.17302187
  0.03125872 -0.07390702  0.01712726 -0.16102308 -0.04891719 -0.11935126
  0.19205283  0.19356969 -0.1501263  -0.23488672 -0.02504253 -0.07984769
 -0.13478217  0.22650754  0.09233601 -0.01552075  0.20017076 -0.26831472
 -0.09428734  0.2997442  -0.12775908 -0.3047571  -0.13256264 -0.20412712
  0.27926704 -0.15510158 -0.30162486 -0.05862353  0.12423089 -0.2076099
  0.20590939  0.09410163 -0.25863644 -0.18810156]
[-0.01383806  0.01226436  0.00315756  0.04757327  0.01917826 -0.04034521
 -0.03152465  0.02992644 -0.0127051   0.04607441 -0.02920259  0.00125351
 -0.04029445  0.00458468  0.00645478  0.02756394  0.01775853 -0.01874343
 -0.01175315  0.04292103  0.00558371 -0.02108685  0.00680942 -0.07497388
 -0.01494277 -0.03286151 -0.06659502  0.00702136  0.0476557  -0.00704877
 -0.11308124 -0.01370732 -0.02634449  0.02860984 -0.02012241  0.00705367
 -0.0109415  -0.04254623 -0.01918638  0.03812466]
layer 3 Activation
tanh
layer 4 Dense
40 20
[ 0.12055001  0.3381744   0.08540913  0.3283017  -0.26225024 -0.2404347
  0.22643872  0.07037584 -0.12675455 -0.34614667  0.23231177 -0.23004572
  0.03326939 -0.0045166   0.23943959  0.09095419  0.2684344   0.17210369
 -0.1532536  -0.06882302]
[ 0.03571894 -0.19220605 -0.23461886 -0.03680893 -0.15328129 -0.17165898
 -0.24591379 -0.08855502 -0.21889034  0.04839364 -0.11273806  0.25006875
  0.14468811 -0.16956171  0.12908237 -0.25128227 -0.2557593   0.10011626
  0.09368364 -0.09537963]
[ 0.18410508  0.12921679  0.11276948 -0.00778194 -0.09977462  0.2542543
 -0.21666653  0.10748788 -0.09720363 -0.14929481  0.05786695  0.08322909
  0.27546042  0.05466007 -0.14692354 -0.15645677 -0.23072554 -0.00814483
 -0.21661057 -0.14337245]
[ 0.15611835 -0.03092889 -0.16006471 -0.14325082  0.19926104  0.09184584
 -0.18622565 -0.1283469  -0.04343538 -0.00863367 -0.23827359  0.20498146
  0.08194938  0.11661687 -0.10252129  0.11922223  0.01681801 -0.22057302
 -0.03393073  0.00291712]
[-0.10328338 -0.15161242 -0.2899502   0.08592867  0.17919901  0.19585657
 -0.00578999 -0.23602578 -0.18106374  0.00703945  0.06703456 -0.15260483
  0.1316338  -0.3041614   0.17505224 -0.16716994  0.26305783  0.21803032
 -0.07078218  0.09691036]
[ 0.01348771 -0.20352238  0.32409284  0.08635086  0.23466341  0.23602134
 -0.05049412 -0.09022147 -0.04376424  0.05574901  0.01015523  0.16564433
  0.19305196 -0.20303325 -0.17531548  0.14657974  0.1806727  -0.10882681
  0.12430187 -0.09271168]
[-0.09666068  0.14698523  0.27517384  0.07310286 -0.17237653 -0.25157216
  0.20632173  0.17835082 -0.29778102  0.29872546 -0.20958728 -0.17467003
 -0.1653831   0.2165869  -0.22955859 -0.26478332  0.14776592  0.08141056
 -0.30224904 -0.14010128]
[ 0.22119258  0.3437241   0.16550653 -0.27774233  0.05136928 -0.24021712
  0.02762809 -0.22050628 -0.03384905 -0.06418515  0.03494142  0.0805586
 -0.05878099 -0.20638463  0.2230037  -0.06569634  0.09541488 -0.1952054
 -0.20661098 -0.17533313]
[-0.2691349   0.29658422  0.22361769 -0.27260396 -0.09665948  0.12214645
 -0.29384583  0.1002849  -0.0183127  -0.0365148  -0.20653568 -0.28109336
 -0.2530377   0.11829757  0.1531779   0.23115128 -0.26819977 -0.20624842
 -0.23464718  0.11466926]
[-0.24309167  0.18797757  0.1800585  -0.1669034   0.11280899  0.26550823
  0.13829938 -0.26155797 -0.27147555 -0.08201634  0.1301165   0.24313495
 -0.21837322 -0.05604391  0.21848463 -0.19587065  0.22304338  0.08341347
  0.19863556  0.25493553]
[ 0.01881034 -0.04882951  0.2761335   0.4147556  -0.31882435  0.29134578
  0.15707438 -0.03043253  0.21588661 -0.31717777  0.15097645 -0.23323289
  0.21377163  0.24784687 -0.10698593 -0.3334347   0.16709515 -0.21525908
 -0.19554177  0.06477653]
[ 0.25875476 -0.00549145 -0.05653629  0.24783754  0.01723052 -0.05384548
  0.27656662  0.08547557  0.01572626 -0.12911348 -0.21050617 -0.11146179
 -0.13791306  0.08869451  0.24857093  0.2117918  -0.1276629  -0.22680469
  0.11404306 -0.06063427]
[ 0.01584147 -0.23839177  0.16360864  0.0970501  -0.33017677  0.24918032
 -0.30093637  0.08074649  0.20515205  0.0020871  -0.03937399 -0.15548395
 -0.33154646  0.13539082  0.04515662  0.05328746 -0.01203676 -0.09243493
 -0.20383057  0.03522217]
[-0.03971032 -0.21195039 -0.00802175  0.12600194 -0.32150245 -0.08018355
  0.10150056 -0.10407488 -0.04592623  0.08046922  0.26398915  0.26595595
 -0.05972816 -0.06556121 -0.2901239   0.24576958 -0.2226239  -0.24769796
  0.12783298  0.2213483 ]
[-0.04709029 -0.09464788 -0.27209818  0.21170174 -0.03828414  0.2700574
  0.12507617 -0.3057293  -0.33190572  0.0872721   0.13301966 -0.22293061
  0.04774438 -0.08548396 -0.04896622  0.21009922 -0.22393508  0.26182744
  0.19053762 -0.31273836]
[ 0.34865472  0.13621444 -0.31120795  0.25143364  0.31740665  0.13380468
  0.03425689  0.12234195 -0.25131148  0.09099138 -0.12731034 -0.13775788
  0.29869226 -0.19859584  0.3231721   0.34763807 -0.07569459 -0.18105644
 -0.27451774 -0.26901454]
[ 0.22493097 -0.2367177   0.31407273  0.03734044 -0.3000872   0.14461435
  0.09951966  0.15763173  0.01609218 -0.19408195  0.28235516  0.04511682
  0.12586507 -0.00250573 -0.25103447 -0.05307313  0.27486372  0.23590851
 -0.25626567  0.05185445]
[-0.08844916 -0.23933472 -0.29541108  0.1423016   0.01176925  0.3093809
 -0.24331984 -0.08298443 -0.07002567  0.09124035 -0.1008245   0.13091503
  0.30567673  0.08605032  0.22511303 -0.00237643  0.09702034 -0.04495407
 -0.02974797  0.00431189]
[ 0.03105075 -0.11973413 -0.20891608  0.1669969  -0.15056741  0.05466812
  0.10744411 -0.06964079  0.2832969  -0.23016949 -0.25747234 -0.12616387
  0.26329762  0.10680519  0.18558253  0.10512593  0.3021288   0.03252035
  0.04291535  0.24275297]
[-0.05768042 -0.24905758  0.2018874  -0.2445007  -0.23839206  0.1432422
 -0.2087306  -0.30473536  0.15038213  0.10243625  0.03971333  0.2834766
  0.16661729 -0.15567026 -0.20128132  0.3044683   0.01101775  0.0416338
  0.23811413 -0.06763554]
[ 0.27508003  0.17187047 -0.18308434  0.21913785 -0.10356797 -0.07652225
 -0.11523796 -0.33060116 -0.06269749 -0.00678424  0.07565486  0.03916336
  0.39444053  0.09522374 -0.09173933 -0.11081336  0.07947358  0.10749878
 -0.39076257  0.12573284]
[-0.04239395  0.00451083  0.13662358 -0.30261955 -0.24561465  0.11458257
 -0.26841345  0.12687996 -0.1103299  -0.20204441  0.09880213 -0.22765796
 -0.2365272   0.29600716 -0.15192972 -0.03785043  0.19468614  0.16517681
  0.1952944   0.20893021]
[ 0.22562914 -0.20053099 -0.21360956  0.08155417 -0.11557259 -0.04335019
  0.02667854  0.08784962  0.30121085  0.18718287  0.26283765  0.04095073
  0.25168663 -0.26636496 -0.0860617   0.19240859 -0.19690427  0.23142311
  0.1193217   0.2450084 ]
[ 0.24927725 -0.0866437   0.27887675  0.2978382   0.18579742  0.08998155
 -0.2122191   0.27076495 -0.21366584  0.09400383 -0.05576999  0.14003661
  0.2915378   0.3289344   0.0950545  -0.14858554 -0.10324042 -0.06883718
 -0.34095863  0.07841963]
[-0.2182501   0.2634314   0.1596669   0.07565627 -0.30278003 -0.13681662
 -0.31051818 -0.10061868  0.15399733  0.11351107 -0.23441161 -0.28639713
 -0.07955453 -0.01365664 -0.15521505  0.27448064 -0.19663377 -0.2553016
 -0.24276522 -0.00447549]
[-0.21669677 -0.05395835  0.38334402  0.17573452 -0.18941544  0.24966912
 -0.14174794 -0.08442318  0.24329352  0.17694126  0.16308294  0.11958903
  0.08752462  0.26227024 -0.2539311   0.27510473  0.05677408  0.29159072
  0.10661218 -0.05018976]
[ 2.7836922e-01 -5.4424413e-02  1.2782627e-01  4.2434145e-02
 -5.3313803e-02 -1.2545562e-01  2.7773672e-01  2.7894565e-01
 -2.7092434e-02 -2.8823826e-03  1.0953479e-01  2.6398752e-02
 -1.8902473e-02 -1.0533020e-01  3.4945500e-01 -2.7201000e-01
  1.6754702e-02  2.6672868e-02 -3.6510853e-03  2.5975751e-04]
[ 0.3206829   0.27651983  0.10746372  0.2668538   0.02684932 -0.06725508
  0.1887187  -0.23669237 -0.20434377  0.09431841  0.29042354  0.13203487
 -0.14226921 -0.2091424  -0.14994478 -0.11306076 -0.0424112  -0.06867861
 -0.24583532  0.15467755]
[ 0.30259252  0.2534431  -0.35807517 -0.00757564  0.21893127 -0.2951118
  0.2439805  -0.12598939 -0.05169963 -0.2985266   0.04383826 -0.28043488
 -0.30057782 -0.05823418  0.25264812 -0.2107723  -0.17337991  0.20810941
 -0.18835287  0.13625285]
[ 0.17997056 -0.24272835 -0.3056719   0.04632823 -0.31036574 -0.24601585
 -0.00117892  0.27666953 -0.15943596  0.25681382  0.23916152  0.18495926
 -0.15276858 -0.26139352  0.05719409 -0.04019587  0.1477376  -0.16423209
 -0.22454138 -0.21199767]
[-0.22836885  0.20125932  0.14369611  0.10399239  0.29206768  0.22530204
  0.01467785 -0.04232782 -0.24281524  0.15852569 -0.20498276 -0.29353806
 -0.2586357  -0.02421126  0.13225724 -0.11442112  0.08529662 -0.10865396
  0.29739416 -0.11519961]
[-0.25970432 -0.12177417  0.28237143 -0.09155539 -0.3461833   0.1342091
 -0.23611225 -0.12335013 -0.09299296 -0.22919644  0.23905613  0.14591959
 -0.09873761  0.20782384  0.18871814 -0.01708293 -0.03792152  0.05701298
  0.18382241  0.27236858]
[-0.12432027  0.29550657  0.18273002 -0.06519367  0.20416136 -0.10217763
 -0.03190752  0.23640668 -0.21216059 -0.12971199 -0.29990414 -0.08286668
  0.02058804  0.20972969 -0.03558318  0.25389382  0.2645866  -0.12388942
 -0.01082211  0.2992395 ]
[ 0.3403255   0.1481467   0.19794282 -0.31986734  0.06960123  0.07644296
  0.01169186 -0.24072047  0.05204305 -0.10122524  0.01228422 -0.28145996
 -0.02415285 -0.04416784  0.14266908 -0.09674252  0.03284845 -0.04619585
 -0.06043605 -0.08109465]
[-0.0245395  -0.0648889  -0.19644941  0.10169137  0.26583198 -0.2419665
 -0.07450105  0.17094146  0.01595227 -0.03018112  0.16513564 -0.30067256
  0.30734837 -0.26737255 -0.24206372  0.09849755  0.06978418 -0.13599098
  0.05992454 -0.22657572]
[ 0.10989373  0.00677421 -0.12776424  0.15977351 -0.01684749 -0.00940289
  0.03832864 -0.02480601  0.23246372  0.23294236  0.11149453 -0.04142017
 -0.3144998   0.08634252 -0.08973058  0.2878719   0.16301377 -0.15174513
  0.14432372 -0.10127762]
[ 0.13431072 -0.04203787 -0.06867244  0.23951492  0.19147156  0.09844981
  0.03654216 -0.1151461   0.19403255  0.01315445  0.23366904 -0.12009992
  0.13266635  0.09919032 -0.2619403   0.24800922 -0.00228696  0.12992547
  0.1337054  -0.05582962]
[-0.33248502 -0.00904429  0.24939702  0.17267801  0.09107809  0.16683163
 -0.21004507  0.15093982 -0.11543161 -0.11233961 -0.16501386  0.21596515
  0.30025393 -0.13587435 -0.10862292  0.06972924 -0.04770561 -0.1895886
 -0.12920865 -0.02852436]
[-0.09660565 -0.20400038 -0.11284342  0.24074134 -0.00605009 -0.16174912
 -0.14310427  0.20504516 -0.02803313 -0.03489877  0.07384461 -0.35060203
  0.05396025 -0.16586892  0.17639215  0.2059553  -0.17945401  0.11254777
  0.10592398  0.19280304]
[-0.29719207 -0.15983176  0.21764833 -0.09929651  0.08638969 -0.14215747
 -0.16500038  0.22733463 -0.20789447 -0.17468408  0.38776624  0.23161273
 -0.00504624 -0.11228155  0.07433454 -0.14396746 -0.24439923  0.00662008
  0.21115315 -0.41084987]
[ 0.02110598  0.01510404 -0.02547085 -0.05541793 -0.0057242   0.01057119
  0.00814174 -0.00557772  0.00428876 -0.01648718  0.01020296  0.00765602
  0.01363909 -0.01429024 -0.00995225  0.00461193 -0.01350704  0.00413766
  0.00628449  0.06646173]
layer 5 Activation
tanh
layer 6 Dense
20 1
[0.28940624]
[0.25966287]
[-0.30315924]
[0.31159562]
[-0.2935851]
[0.41538876]
[-0.07538978]
[0.16742472]
[0.02272572]
[-0.00140128]
[-0.38283315]
[0.17260778]
[-0.08980382]
[-0.3328207]
[-0.17264166]
[-0.1193232]
[-0.19326292]
[0.18700832]
[0.19772391]
[-0.00295963]
[0.0009769]
