layers 7
layer 0 Dense
20 20
[ 0.04741389  0.41481125  0.15362558 -0.34074396  0.26746735 -0.21391937
  0.2549667   0.25349084 -0.0236084  -0.25384432  0.11328343 -0.21934363
 -0.21435414  0.2685849  -0.2797709   0.01820286 -0.02117917 -0.1257329
  0.60305023 -0.17245549]
[-0.11834633 -0.0945368  -0.36506483 -0.68775904  0.38348106 -0.40253454
 -0.00248855 -0.27303064  0.45605457  0.30568436  0.38568935 -0.11859079
 -0.3449154   0.31613052  0.6432871   0.10495707 -0.69523716 -0.5520867
  0.24215963 -0.2533623 ]
[ 0.4828316   0.13873637  0.05184227 -0.6218052   0.4667458  -0.45091614
  0.27142724  0.40368247  0.01147712  0.21311204  0.2737629  -0.10540323
 -0.6783047   0.2360623   0.6454187  -0.39316028 -0.58312076  0.04852386
 -0.16245502 -0.21001396]
[-0.05652868  0.02968168 -0.24430141 -0.31241655  0.11269794  0.22337197
  0.06671758 -0.3466854   0.34809268 -0.21500373  0.19492838 -0.28428793
 -0.32429442  0.05647829 -0.21396554  0.1972704  -0.03884788 -0.40716308
  0.6488138  -0.15337348]
[-0.26955363  0.21240453  0.66919535  0.36946294  0.1128412  -0.2968784
 -0.07493992 -0.13962016 -0.21962762 -0.18329567 -0.41346022  0.5454476
 -0.10397759  0.16756661  0.01973684 -0.2002614   0.46371165  0.18303408
  0.19852707 -0.19891486]
[-0.43742782  0.04704359  0.6070761  -0.11275193 -0.32853875  0.71027726
 -0.40060714 -0.18591903 -0.48918954 -0.592858    0.02796517  0.3313066
  0.0801265  -0.6464829   0.02049352 -0.22493187  0.18721363  0.53581107
  0.27206758  0.05538043]
[-0.07393598 -0.41840753  0.02211575 -0.17117123 -0.07575149  0.06178507
 -0.08299333 -0.0039914  -0.24808575 -0.3290403  -0.3849813  -0.00135973
  0.3183281  -0.23659411 -0.14863746 -0.27849707  0.6228069   0.45004395
 -0.4370554   0.546271  ]
[-0.0038399  -0.2121864   0.1056267  -0.05688947  0.14873484 -0.3081319
 -0.1428294   0.13680212 -0.31180125 -0.01430274  0.21947356  0.27824458
  0.44575116 -0.21238683  0.1779809  -0.27327737 -0.09277228  0.00704894
 -0.54763955 -0.2112822 ]
[ 0.20947103 -0.41536787 -0.08563992  0.06494065 -0.4115614   0.09230004
 -0.32086378 -0.09745509 -0.10211668  0.08360143 -0.14769082  0.10099019
  0.02964177 -0.4663567  -0.46596313 -0.22666319  0.27527356 -0.08662271
 -0.6374222  -0.00807845]
[-0.35181525  0.32325286  0.35917363 -0.27143678  0.39769804  0.167671
 -0.25173405  0.0241727  -0.17535475 -0.27802595 -0.34750542 -0.1310441
 -0.17631955 -0.16014518 -0.0953033  -0.34118536  0.56297606  0.23726659
 -0.08565404  0.297969  ]
[-0.26349983  0.449231    0.20264006  0.27576622 -0.10423179  0.01286544
  0.13720518 -0.02567159 -0.11794732  0.30641705 -0.25897884  0.23685771
 -0.00216654 -0.16062939 -0.15676141 -0.18697445  0.05118253 -0.5028088
  0.02635388  0.13676655]
[-0.19253066  0.2149407   0.05915141  0.70258874 -0.5834734  -0.12230659
 -0.24960689 -0.03620312 -0.32427737  0.5098478  -0.1274279   0.7187217
  0.01606    -0.50770694  0.05983384  0.7207926   0.15406497  0.8296071
 -0.4864     -0.26358366]
[-0.12056555 -0.60185224  0.25138414  0.2996515  -0.4277604   0.06128441
 -0.11912446 -0.5534288  -0.26399395  0.50546193 -0.21996965  0.12848894
  0.312089   -0.4068876   0.19608839  0.21039267  0.28572527 -0.02857177
 -0.02859648  0.19224618]
[ 0.16879423 -0.44078872 -0.03928907 -0.22069152  0.47235048  0.09069133
 -0.02565895  0.21472332  0.33017382 -0.15953296 -0.3397197   0.00069166
  0.24052086 -0.21236819 -0.4635363  -0.18870841  0.255921    0.3208952
  0.03717538  0.29721642]
[-0.16512671 -0.16655011 -0.2147399   0.52806675  0.10087512  0.21722059
 -0.13456704 -0.21999642 -0.3678203   0.08267014 -0.08558153  0.2456096
  0.3024117   0.03553918 -0.32661712 -0.16693284 -0.28859308 -0.41782516
  0.04113446  0.27152255]
[ 0.17370617 -0.45222998  0.14060009  0.36232117 -0.38770512 -0.7141349
  0.19936652 -0.42736524  0.09095909  0.25042     0.04326474  0.56363416
  0.09613054 -0.17022039 -0.31854182  0.18554573 -0.597712    0.42162028
 -0.05990209 -0.24809885]
[-0.01451461  0.64354813  0.09034629 -0.38049057  0.39423     0.07855337
  0.15877748  0.8359022   0.92055655 -0.13471094  0.4305056  -0.18104024
  0.14027452  0.4781196   0.28168052 -0.12175099 -0.47548813 -0.47255206
  0.28043148 -0.41696173]
[ 0.03364522 -0.3467582  -0.6830949   0.11797851 -0.5236526  -1.0152501
  0.45073298 -1.2141969  -0.07563831 -0.15021615  0.23973648  0.10170932
  0.06175613  0.54952484  0.24455722  1.1648959  -1.3993715   0.0045534
 -0.10370031 -0.13305737]
[ 0.51002645  0.05282985  0.56754994 -1.2519592   0.08296178 -0.03555147
  0.32551503 -0.11005579 -0.04214201  0.0323156  -0.3733596  -0.5859101
 -0.44379082  0.15770127  0.43348333  1.183037    0.11491179  0.9142037
  0.04498053 -0.8061774 ]
[ 0.22740993  0.04630895 -0.8828591  -0.55414695  0.05027349  0.0568759
  0.3816823   0.06703839  0.5866578  -0.16258079  0.09862085 -1.167158
 -0.09767383  0.580549    0.535636   -0.41503838 -0.3662912  -0.93858755
  0.7918037   0.16660567]
[-0.03733313  0.12930462  0.05095693 -0.3512392   0.0165593   0.05283555
 -0.02661127  0.01453523  0.07237712  0.01624384  0.10126507 -0.16299538
 -0.30272183  0.03411839 -0.00878572 -0.06696798 -0.14735758 -0.14343274
  0.19528273 -0.04231738]
layer 1 Activation
tanh
layer 2 Dense
20 40
[-0.19845802  0.19048265 -0.2529779  -0.14684081 -0.07542434 -0.14155069
 -0.12554376  0.2061553   0.0311623   0.16134645 -0.02514464 -0.2033352
  0.17417699 -0.06796201 -0.16324432 -0.07503583 -0.05542604  0.0037215
 -0.2836634   0.26628786 -0.06422132  0.20263296 -0.03923765 -0.14313774
  0.19767158  0.0620181   0.2502206  -0.3670078   0.2055015   0.05176177
 -0.30665028  0.00272333  0.07405411 -0.18474215  0.18072526 -0.03479907
 -0.23973948  0.16878445  0.13356127 -0.22812586]
[ 0.08902236 -0.008242   -0.01740483  0.01286272  0.15732265  0.06532746
 -0.15409859 -0.16789939  0.2015959  -0.02621846 -0.30735353 -0.09166282
 -0.0072193   0.17645508  0.1576834   0.39581737  0.12395155  0.42141223
 -0.22905229  0.08229522 -0.0350366   0.28346962 -0.05815918  0.38186198
 -0.27269253 -0.1242741   0.13611825  0.26117015 -0.09894016 -0.0482895
  0.30168238 -0.16301039 -0.02928496 -0.2785465  -0.3198283   0.15284662
 -0.05667358  0.07002932 -0.08908428  0.08063825]
[ 0.19812718  0.2232868   0.04055712 -0.19694617 -0.16435844  0.02839739
 -0.00673962 -0.0319725  -0.02730695  0.3067469   0.01539368  0.03088947
  0.26951408  0.03199574  0.27282482  0.08388875 -0.08532507  0.19465221
  0.17827849 -0.06653105 -0.12100235 -0.01990319  0.32393563  0.1118451
  0.25525475 -0.04535308  0.0537292   0.40087837  0.11667566 -0.14035048
 -0.26285997 -0.0516965   0.29641667  0.05965362  0.26929703 -0.10100271
  0.06311117 -0.04677406  0.21699393 -0.1280515 ]
[-0.02460469  0.26879558  0.14189596  0.25982878 -0.26443413 -0.09584525
  0.15531282  0.40771258 -0.36545923  0.17429228  0.29046437  0.1664762
 -0.21419169 -0.26678395 -0.17394225 -0.07089669 -0.2024018  -0.19390222
 -0.09374671 -0.09938711  0.09656393  0.15409859  0.29340145 -0.31187922
  0.17104606  0.12810934  0.01321317 -0.11879976 -0.25439712  0.05548569
 -0.06512409  0.1533509  -0.01453733  0.1939295   0.3274067  -0.27191156
 -0.22258978 -0.1768571  -0.10589434 -0.0637302 ]
[-0.1618563  -0.00107127  0.11887272  0.01186286 -0.23521884 -0.08342712
 -0.17152941 -0.06626797 -0.08362729  0.1631603  -0.423408    0.15208657
 -0.05944528  0.19142148  0.51182663 -0.04236633 -0.23691788 -0.1442847
  0.13444893  0.01668944 -0.24800333  0.04998617 -0.38345262 -0.00296146
 -0.18337601  0.1961494  -0.07535782  0.25945187 -0.06138761 -0.2053263
  0.38956565  0.06027607 -0.00573182 -0.03180473 -0.26887035  0.07368422
 -0.12648527  0.10031825  0.09804002  0.1337857 ]
[ 0.11532106  0.01331449 -0.13889608 -0.11966407  0.06906602 -0.04666881
  0.26184696 -0.13018577 -0.17136043  0.08372562 -0.37609234  0.1459264
  0.2944784   0.18387742  0.32808176 -0.09906207  0.00268795  0.00831994
  0.31390825  0.1965101  -0.2368434   0.40065524 -0.37538028 -0.09944464
 -0.03311983  0.2541574  -0.26559392  0.76251775  0.16445914 -0.06834445
  0.1327312  -0.11727635 -0.09306727 -0.11308894 -0.02249934 -0.10985865
  0.12123621  0.08381245  0.21797834 -0.07260824]
[-0.10150991  0.08439583  0.3268707   0.28750607  0.11771109 -0.17259762
 -0.05463776 -0.41328046 -0.01631191  0.10915204  0.3027441   0.23563106
  0.1271008   0.21671018 -0.0843995   0.08313782  0.11784924  0.03167412
  0.10565941 -0.08294232 -0.01724328 -0.09722807  0.2962045  -0.02401243
 -0.2261205   0.11744236 -0.00116838 -0.24396476  0.38342324  0.07821555
 -0.14341266 -0.11994173  0.02505506  0.09902542 -0.15247983  0.08576807
 -0.03523909 -0.28371757  0.06493375  0.15648745]
[ 0.21362041  0.10849051  0.10169045  0.18642983  0.00470059  0.11676382
 -0.1123476   0.04583621  0.15817271  0.21408738 -0.16460587  0.05711439
 -0.29647017 -0.19601053  0.47413245  0.08904033 -0.2725885   0.37322482
 -0.14883322 -0.24693704 -0.33204713  0.29034278 -0.31367293 -0.042315
 -0.19490902 -0.01233644  0.04344643  0.13831374 -0.20910478 -0.30007613
  0.14845923 -0.23897853  0.19875     0.0742642  -0.35668895 -0.03254619
  0.11389771  0.30231294  0.03028225 -0.23454699]
[ 2.9856712e-01 -1.7685696e-01 -1.1670544e-01  1.9206668e-01
  1.0502492e-01 -2.4071483e-01  2.2831131e-02 -2.4597429e-01
 -1.6384834e-01  4.1241536e-01 -3.0777392e-01 -2.6120749e-01
  1.8672715e-01 -7.1329080e-02  2.6878023e-01  1.3157608e-01
 -2.5599772e-01  2.6984230e-01 -2.0691821e-01 -1.8513829e-01
  2.9264656e-03 -2.2875845e-02  1.6847065e-01  4.7129628e-01
  6.9480300e-02  4.3164083e-04  1.8398222e-01 -1.1998133e-01
  1.9063266e-01 -2.4102753e-01  3.4454829e-01 -3.1672174e-01
  2.0186053e-01 -1.5677799e-01 -1.1052395e-03  4.9394751e-01
  1.0087299e-01  6.5268770e-02 -5.7504777e-02  5.4919507e-02]
[-0.07349775 -0.01166613 -0.12348148  0.05548374  0.02375007  0.13025339
 -0.07907299  0.11000524 -0.23580797 -0.16236797  0.09285756  0.09580349
 -0.21538001 -0.2619364  -0.14516474 -0.05381373  0.01105826 -0.00915586
 -0.02088623 -0.01741206  0.01948947  0.06145481 -0.09586412  0.11060578
 -0.09232922 -0.08625312 -0.11989091 -0.15601514 -0.06938339  0.07689814
 -0.1699152   0.2821322  -0.01810842 -0.07071266 -0.11604419  0.13776298
  0.16328205 -0.00286546  0.04505355  0.01261721]
[ 0.03662882 -0.0931912   0.06459004  0.16208544 -0.17092459 -0.01516408
 -0.05920221  0.22850002  0.07369682  0.10072656  0.16749652  0.12470576
 -0.12335002  0.4042497  -0.03172776  0.34833705  0.09192673 -0.12353075
  0.04419365  0.11377244  0.10735231  0.06143039  0.12351017  0.24340157
  0.27105063 -0.04336777  0.11427422 -0.25946742 -0.04326266 -0.00283511
  0.06787239 -0.3020968  -0.0528116  -0.13500586  0.06598312 -0.19665779
 -0.05335522 -0.09407087  0.10621186 -0.1222113 ]
[ 0.01318964 -0.14570995  0.14116009  0.27348417 -0.35823804 -0.02615932
 -0.24760053  0.35633972 -0.00690666 -0.196933    0.44681928  0.26987118
 -0.07815324 -0.30013663  0.16359454 -0.0722414   0.04105838 -0.36723822
  0.01404274 -0.25476262 -0.03250099 -0.25113353  0.6220961  -0.38874173
 -0.30915576  0.01255299 -0.14986885  0.4067604  -0.03976438  0.27274758
 -0.36390275  0.15155263  0.16797328 -0.00708049  0.40808123 -0.5389334
 -0.18742745  0.09799787  0.27558458 -0.09239426]
[ 0.0215818  -0.15113924  0.05081823  0.00143086 -0.02115368 -0.1749844
  0.29233837  0.00280359 -0.12415921 -0.18940322 -0.35275298  0.11063007
 -0.24701633 -0.14946769 -0.26669014  0.1560149  -0.07311072  0.09120858
  0.09346997 -0.11017511 -0.04951978  0.16114563 -0.05823833 -0.15199699
 -0.13191655 -0.20829065 -0.01436009  0.0313416  -0.4338247  -0.02410422
  0.06386379  0.2800451   0.05672626  0.34200507  0.15566786 -0.3828555
 -0.15123653 -0.12242439  0.32816917 -0.0378296 ]
[-0.08161002  0.07670256 -0.06346858  0.10626934  0.06618143 -0.27437696
  0.00066675 -0.22547317  0.0781104  -0.07942495  0.05868653 -0.02926307
  0.08372586  0.33766967 -0.09402692 -0.04458183  0.12680562  0.00192383
 -0.10547898 -0.18086839  0.1550937   0.27138054  0.39061388 -0.03873
 -0.20847295 -0.14717948 -0.13474108 -0.39902297  0.1130615  -0.19518812
  0.07315401 -0.23498587  0.01465724 -0.10025027 -0.07903071  0.12447486
  0.10953771  0.00912732  0.10921223 -0.07293538]
[-0.00293872  0.24416754 -0.04170642  0.20481603 -0.22825274 -0.29116958
  0.09024038  0.22251505 -0.20350847 -0.17898083 -0.26536876  0.25602973
 -0.20857967  0.12965582 -0.12107483  0.04505613 -0.21921921 -0.14986742
 -0.13553569  0.01448917 -0.02007733  0.14027622  0.03395768 -0.11517531
 -0.24629901 -0.09553669  0.08375625 -0.4848359  -0.12723118  0.21471277
  0.2750097  -0.13852172 -0.20284632 -0.04061911  0.07283065 -0.01904145
 -0.21463825 -0.12315331  0.09708021  0.04484814]
[ 0.2149355   0.13685536  0.3080016  -0.23574705 -0.4899622   0.29440135
  0.30963346  0.08320062  0.12550022 -0.16933629  0.43507537  0.40532517
 -0.083667   -0.13874856 -0.00538876  0.13821048 -0.18773368  0.30416405
  0.24533023 -0.1082166   0.13965763 -0.08027687  0.5551665   0.05776621
  0.0849273  -0.13031323  0.01824464 -0.12289575  0.43873265 -0.13483222
 -0.07694585  0.3209654  -0.05871301  0.26889575  0.13419335 -0.36406103
  0.03157559 -0.08526594  0.04541064 -0.13169542]
[-0.00608982  0.11881416  0.16332003 -0.0349329  -0.27585536  0.06206412
 -0.1021019   0.16827205  0.06735267  0.236063   -0.41350776  0.2784948
 -0.04676734 -0.45564875  0.38930875 -0.00610311 -0.04517963  0.17821003
  0.02722638  0.02049002  0.02535205  0.04003934 -0.41863856  0.04605357
  0.13527386 -0.07991625 -0.01507392  0.61456954  0.04922561 -0.10709288
 -0.15556253  0.10859312  0.04447512 -0.09022965  0.21969323  0.01467596
  0.0178533   0.06304147  0.12363506 -0.0655507 ]
[ 1.2001044e-01  1.0520570e-01  2.2408432e-01  6.4465329e-02
 -2.8283519e-01  9.7707463e-03 -7.9013422e-02 -6.1748223e-03
  1.1929035e-01 -2.2132538e-04 -1.7524911e-02  4.6029261e-01
 -2.0949285e-01 -3.9749038e-01  5.0330383e-01 -1.7892140e-01
  1.2701553e-01  3.5308373e-01 -3.3801618e-01 -1.7918676e-01
 -1.7823987e-01  8.5930392e-02  3.4713289e-01 -5.2622175e-01
 -2.2897743e-02 -2.3797593e-01  9.9164620e-02  3.7074719e-02
  5.6437892e-01  2.2708027e-01 -1.8041807e-01  4.6064273e-01
  6.0300168e-02 -8.1963927e-02  5.6812060e-01 -4.2122304e-01
  1.7321533e-01 -3.3376426e-01  2.8732342e-01  1.6115232e-01]
[ 0.00169884  0.3111961  -0.34761593  0.02158389  0.25336683 -0.07765197
 -0.27302378 -0.4462651   0.19899969 -0.3451241  -0.08611392 -0.3351517
  0.5734107   0.10850334 -0.02167859  0.36294395  0.1403663   0.26382482
  0.12084296  0.07999299 -0.10721319  0.3892539  -0.02768399  0.71488655
 -0.36531666 -0.41687536  0.17924596  0.2704867  -0.05178718 -0.17686804
  0.3892897  -0.23421529 -0.06026745 -0.35672772 -0.32836193  0.46195084
  0.18968858  0.38501137 -0.28468207 -0.15316834]
[ 0.02334888  0.01319849 -0.20019959  0.10410549  0.16095886  0.0357593
 -0.03163144 -0.08314329 -0.1623171   0.04822875 -0.13075818 -0.02457976
 -0.04379661  0.05307495 -0.10928032  0.11400707 -0.11777098 -0.09194404
  0.19987601  0.31395802  0.04399949 -0.05863711 -0.3124199   0.04659459
  0.05752838 -0.14905013 -0.15481384  0.08444013 -0.40456957 -0.25007942
 -0.18364802 -0.01583119 -0.06903472  0.04375371  0.20834573 -0.07523335
 -0.14774568 -0.03787365  0.04682297  0.00492184]
[-0.05253536  0.00567909 -0.05999942 -0.02906462  0.17455122 -0.01944144
 -0.01700479 -0.22226976  0.10994379 -0.07851467 -0.03115815 -0.14385654
  0.08094238  0.23983125 -0.01736944  0.05186708  0.00503735  0.1895798
  0.03877685  0.17008078  0.0280504   0.18189944 -0.14179458  0.37960297
 -0.05373326 -0.01335668  0.13297814  0.12012233  0.06381145 -0.03142245
  0.34497738 -0.07654697 -0.05444075 -0.20094287 -0.08393621  0.39631793
  0.05642719  0.10284871 -0.18208897  0.02164179]
layer 3 Activation
tanh
layer 4 Dense
40 20
[-0.00818601  0.08740585  0.02466967  0.22230618 -0.04246049  0.01434985
  0.00081559  0.03259633  0.05620273  0.14414187  0.11376593  0.2021229
 -0.00023156  0.00871414  0.08877576  0.0610107  -0.14900765 -0.07858117
  0.22097805  0.07335391]
[ 0.03827799 -0.15476033  0.11513437  0.14422072  0.1511117   0.28317904
 -0.17177537  0.11900295  0.22255862 -0.04477197 -0.2050193  -0.27833658
  0.04368686 -0.11595189 -0.10155626  0.06473529  0.13355131 -0.10919512
  0.26311395 -0.19889858]
[ 0.03772181  0.15675879 -0.12750489 -0.13044208 -0.00518554 -0.18152465
 -0.05782436  0.09700374 -0.05531849  0.12345396 -0.10949739  0.2759439
  0.0149653  -0.24388327  0.05600664  0.03431874  0.14907661  0.08379278
  0.16315243  0.22077109]
[ 0.15198472  0.19007123 -0.22067192  0.2271044  -0.15271084 -0.21396005
  0.03268769  0.06240392 -0.07191069 -0.29836875 -0.04379163 -0.23766875
 -0.01114683 -0.16264062  0.03126042 -0.16079743  0.09154861  0.11729444
  0.15319304  0.27759844]
[-0.12247767 -0.29900673 -0.02016535  0.20387317 -0.11872791  0.05570035
 -0.05391628 -0.05177414  0.12005576 -0.09131193 -0.03146165 -0.00104329
 -0.12629007  0.33449802 -0.21353048  0.17441982  0.22405145  0.12613189
 -0.1286932  -0.16693155]
[ 0.07872823  0.10574464  0.20459476 -0.13210662 -0.01510277 -0.01960386
 -0.13016677  0.13335468  0.11539736  0.15233876 -0.28696895 -0.04352861
 -0.06693226 -0.04018065 -0.00625617  0.2100869  -0.17941718  0.13012333
  0.24799705 -0.1755291 ]
[ 0.18571408 -0.2206562  -0.15166348 -0.08762106  0.02180685  0.1969613
  0.21346742 -0.29610816  0.10705966 -0.10055941  0.21964577 -0.17218077
 -0.04830949 -0.00888355  0.08910318 -0.37222537  0.39066404  0.26522553
 -0.04063033  0.00736464]
[-0.09459221 -0.02790469 -0.27062055  0.18785061  0.17372511  0.16331488
  0.24397822  0.24309014  0.06217094  0.1361875   0.23175085 -0.14388111
 -0.23381935 -0.10360046  0.28410748 -0.13228285 -0.09948029 -0.08911356
  0.03092775 -0.18030034]
[ 0.02242745  0.11340203  0.19070113  0.00646048 -0.305527    0.06538279
 -0.3194245   0.05555005  0.11395828 -0.10266634  0.25891328  0.25107774
  0.23714909  0.20245546 -0.21031196  0.16531609  0.08193938  0.21397729
 -0.26304343  0.0943496 ]
[-0.1788526   0.12662484  0.21647832 -0.04843621 -0.25607073 -0.08589344
  0.05943194  0.10245976  0.02250394  0.2205519  -0.13171463  0.01164977
  0.03493335 -0.10851955 -0.27027094  0.203866    0.0405883  -0.25379986
 -0.1063664   0.25317347]
[ 0.30217248 -0.1797169   0.30311385  0.18457337 -0.14095336  0.18583249
 -0.12051248 -0.13503954 -0.13349353  0.13354847  0.08294774 -0.07043377
  0.07323702 -0.14599515 -0.01035594 -0.12007876  0.06067229  0.04259699
 -0.24234295 -0.11434089]
[-0.14872232  0.18489465  0.03647795  0.27447394 -0.11951231 -0.18180531
  0.16904172  0.02217044 -0.07235574  0.27170956  0.00532803 -0.10427388
 -0.09650557 -0.04920393  0.04754109 -0.28010008 -0.00366887 -0.06712373
 -0.09579601  0.04656826]
[ 0.16747354 -0.18321243 -0.3284982   0.2368374   0.06011251 -0.05147052
 -0.33224162  0.10935438 -0.05637656  0.0526306   0.00533598  0.09170969
  0.08764775 -0.0933644  -0.24566536  0.28398985  0.18480517 -0.1855259
  0.08093204 -0.12437484]
[-0.3842802  -0.30035478 -0.14162292  0.14879914  0.11747288 -0.18351388
 -0.3189011   0.17919236 -0.10411218 -0.1309679  -0.04579861  0.00746731
  0.03354548  0.3199601   0.24650839  0.2123277   0.24394576  0.0862667
  0.15756173 -0.24592358]
[ 0.17364518  0.43141487  0.13122913  0.17815411 -0.26073238 -0.05207403
 -0.10728403 -0.22937644 -0.1436504   0.34190527  0.04573316 -0.18388493
  0.27904692 -0.2450865  -0.03529123 -0.41395897 -0.02486808 -0.24905731
  0.02014248 -0.282779  ]
[ 0.01803943  0.00848368 -0.01493507  0.27734268  0.20283511  0.11355262
 -0.3902547  -0.02328166 -0.12690249 -0.19520743  0.22114353 -0.19482297
 -0.26749995 -0.04130533  0.06222617  0.2391542  -0.02436825  0.01326979
  0.15150987  0.11758915]
[ 0.25647703  0.10849331  0.2128111   0.15611683  0.09444777  0.0619163
  0.03194555  0.19901226 -0.15094998 -0.12411626  0.0898773  -0.23264028
 -0.05192117 -0.04844011 -0.20255208  0.15642668 -0.12552159  0.19369587
 -0.16091363 -0.02744951]
[-0.10332295  0.2916579  -0.12308264  0.12012694 -0.12906747 -0.03517676
 -0.15949549 -0.16771042 -0.08019543 -0.00848158 -0.0373252  -0.07664055
  0.11324219 -0.10343014 -0.07010301  0.17906846  0.07697301 -0.25807974
 -0.1393935  -0.08699366]
[-0.00697845  0.15951994  0.08971376 -0.10721672  0.03325801 -0.11971326
  0.05503474  0.24319997  0.18274899 -0.28209814  0.26070237 -0.16490248
  0.19895343  0.02268002 -0.22251017 -0.19511238 -0.00445163  0.06741937
  0.20557287 -0.26658374]
[ 0.02552232 -0.03798238  0.10858738 -0.0330588  -0.19098586 -0.09836208
  0.1583266  -0.09626538  0.17846106 -0.05782447  0.08631919  0.07046327
 -0.1091239   0.18811196 -0.27376348  0.05664308 -0.01323835  0.04571304
 -0.18775538 -0.14690639]
[ 2.5789839e-01 -3.1498423e-01 -6.1674640e-02 -2.1516414e-01
 -2.5500757e-01 -2.7932119e-01 -1.0151886e-04 -5.7913780e-02
  1.0077611e-01 -3.2493681e-02  1.0935699e-01 -9.7381482e-03
  2.5817049e-01 -1.0617996e-01  4.4705436e-02  1.4326160e-01
 -3.3303741e-02  2.6188913e-01  2.4322940e-02 -2.4670728e-01]
[ 0.13975725  0.29927725  0.0398471  -0.32366803 -0.22099696 -0.14147934
 -0.19554985  0.06805116  0.0768937  -0.0676226   0.07175527  0.0145694
  0.10293964  0.3406226  -0.28765497 -0.0865456  -0.00881354 -0.08911391
  0.04611704  0.17606859]
[-0.10798024  0.09565429  0.13574521  0.2411577  -0.2619953  -0.04713203
 -0.257462   -0.07254385  0.34010553  0.48576915 -0.1135729   0.0256772
 -0.19525816 -0.02068903  0.0866346  -0.15914667  0.18654674  0.02635302
 -0.24780338  0.06793505]
[-0.14747764  0.18999864 -0.11531668  0.07821272  0.11565664  0.17808506
 -0.26036018 -0.20288956 -0.1366115  -0.29736862 -0.22479591  0.25330642
 -0.02817581  0.15537697 -0.17574865  0.26999918 -0.1275779   0.1266157
 -0.07284721 -0.32707077]
[ 0.04381836 -0.04544776  0.20010819 -0.06699979 -0.2390559   0.05639026
  0.2424743  -0.209132    0.0260269   0.2938516  -0.17006688 -0.22869949
 -0.0959027   0.14863093  0.28516206 -0.08903041  0.31357765 -0.11832244
 -0.0365002  -0.0988714 ]
[-0.1870725   0.15877856  0.15244827 -0.25257793 -0.07765745  0.0960831
  0.20830503  0.18738742  0.07443615 -0.1895195  -0.2207593   0.14842142
  0.1080798   0.13677749 -0.02817325 -0.26396725 -0.16527651  0.06759271
  0.04865016 -0.13042915]
[ 0.19759291  0.07308055 -0.0628846   0.08424245 -0.06474849 -0.06968793
 -0.05235606  0.1355034   0.07736773 -0.05380088  0.18115336  0.04665488
 -0.11284963 -0.13984382 -0.07388914  0.04186376 -0.10859711 -0.03888738
  0.04598702  0.22731066]
[-0.23933616  0.13867582  0.02232654 -0.14507455 -0.03231264 -0.08781699
  0.03758546 -0.07136779 -0.02377764  0.05738632 -0.01251791  0.12683384
 -0.16907367 -0.20399813 -0.3422492  -0.24935062  0.18925923  0.4062521
  0.01288907 -0.41754094]
[ 0.10848231 -0.05370529  0.00330406  0.0710539   0.0278692   0.13292159
 -0.08053539  0.11227781 -0.1457079   0.02775893 -0.04869904  0.04251757
 -0.17221943 -0.07392889 -0.36037076 -0.10832088 -0.22058193  0.23511744
 -0.07879151 -0.09146328]
[-0.24932513 -0.3525343  -0.0612376   0.26214248 -0.18083522 -0.20973411
 -0.1473951   0.12093399  0.10582976  0.14442489  0.16064534  0.03705787
 -0.19876675 -0.16748905  0.32491723  0.01949836 -0.23071411  0.14536725
 -0.0778934   0.20666334]
[-0.15502371  0.21670401 -0.2684818  -0.2514256   0.09998632  0.23167741
 -0.3574161  -0.08605112 -0.1935108  -0.13593096 -0.17187229  0.11733803
 -0.11333642  0.20586884 -0.20084596  0.07630054 -0.0876357   0.04180618
  0.21699    -0.07181785]
[-0.11908539 -0.13775791  0.11946261  0.21112515  0.1544344   0.10025216
  0.14116728  0.16416635 -0.14921209  0.22183174  0.17116445  0.09325705
  0.13608575 -0.09772304 -0.13647828 -0.28790224  0.22569005  0.29278827
 -0.04460285  0.06296628]
[-0.21884769  0.45849583 -0.19975957 -0.12382596  0.00744625  0.1082577
  0.1790392  -0.00464439  0.20438494  0.07564255 -0.00353208 -0.04403514
 -0.26845872 -0.25926545  0.21272421 -0.08389729  0.12666117 -0.19565539
  0.24808513  0.19662224]
[-0.05951223 -0.28836364 -0.06778285  0.17685793  0.11151927 -0.17056118
  0.26154003 -0.08181142  0.14210248  0.01357404 -0.00706643  0.2119956
  0.03608658 -0.23942624  0.1544846  -0.12686329 -0.15114337  0.05250772
  0.05708636 -0.14728266]
[-0.06380412  0.1033097   0.34451643  0.01422311 -0.01993954  0.09378455
  0.01113403 -0.04686064 -0.18370728  0.38731506 -0.02737484 -0.01216373
  0.0210353  -0.0997171   0.10787039 -0.33604687 -0.11965831  0.39520785
  0.05390532 -0.03370387]
[-0.23721378  0.12472267 -0.25270674 -0.27366567  0.05678953 -0.01483809
 -0.15548447  0.25019184  0.08166263 -0.24520196  0.14007823  0.00807155
 -0.16565053 -0.15995075 -0.32022765  0.18905212 -0.20837998 -0.19177072
  0.04695165 -0.17126642]
[-0.1720915   0.12921876 -0.22103131  0.14921284  0.05551045 -0.12551011
 -0.08132846 -0.2553259   0.22281505 -0.13797767 -0.084842   -0.15216766
 -0.24753739  0.03925079 -0.4077141   0.00610632  0.13964625  0.1338451
  0.00119795  0.04817397]
[ 0.03729505  0.2310063  -0.01912823  0.00042756 -0.35324508  0.10573538
 -0.06096635 -0.07975368 -0.32018045  0.07867225  0.05252029  0.04302746
 -0.0288516   0.3610203  -0.23883119  0.22655532  0.06656417 -0.11269455
  0.05412673 -0.11612636]
[-0.00948984 -0.06539625  0.04265079  0.21988073  0.0384724   0.19460243
  0.2334668  -0.0334139  -0.04943725  0.15657343  0.0812695   0.17490926
  0.08656098 -0.11887772 -0.01694294 -0.16658017  0.1824662  -0.21497253
  0.12099005  0.11634165]
[-0.0133287  -0.03339484  0.3501963  -0.19426024  0.19644924 -0.11585969
 -0.03342345 -0.13111857  0.00420452  0.02945821  0.14565301  0.05817268
 -0.09336853 -0.08117022 -0.04356077  0.15759137  0.18031994 -0.09848911
  0.06005893 -0.01959291]
[-0.01290156  0.03849972 -0.03475684  0.00925279 -0.01675852 -0.0348643
 -0.07900833 -0.00981954  0.06015847 -0.06739418  0.08515818  0.01993535
 -0.02758416  0.01389979 -0.11578666  0.05167895  0.0417108   0.03569889
 -0.02247323 -0.06291751]
layer 5 Activation
tanh
layer 6 Dense
20 1
[0.01673736]
[0.08871577]
[0.05388494]
[0.00931919]
[0.01404197]
[-0.02662616]
[-0.19734892]
[-0.0011472]
[-0.00668204]
[0.13902149]
[0.03481155]
[-0.00549377]
[0.02803132]
[-0.09963156]
[-0.06625787]
[-0.19074431]
[0.01487654]
[0.09391522]
[0.0078938]
[-0.10576852]
[0.06928858]
