layers 7
layer 0 Dense
20 20
[-0.9595133  -0.82091886  0.32482642  0.82061183 -0.8136927   0.55673385
  0.53607523 -1.027154    0.691641    0.6544369   1.474644    1.5150054
  1.1807581  -0.18972977 -0.7322218   0.25462872  0.02766967  0.886066
 -0.83295614 -1.119181  ]
[-1.070462    0.57138765  0.03253904  0.8071236   1.9873943  -1.1974984
 -2.156984   -1.4013418  -1.3544729  -0.5237954  -0.22689542  2.013133
 -0.45953032 -1.6912024  -1.5672665   1.5813133  -1.9467186   2.645811
  0.17838784  0.9022847 ]
[-1.7038791   0.5489411  -0.05496751  0.33562323  1.6397452  -1.7067695
 -2.2882404  -1.7011515  -1.3784945  -0.9211276  -0.32495522  2.4038808
 -0.19039199 -1.7733921  -1.1668513   1.9974295  -2.142977    2.7466462
 -0.19074552  0.9926002 ]
[-1.1025705  -1.1261826   0.33327627  1.077436   -0.10190713 -0.09714093
 -0.08118973 -1.0681223   1.0503838   0.70725125  1.9539291   1.4139591
  1.0338414  -0.85897684 -1.394446    0.8394003  -0.2480016   1.3410612
 -1.122198   -1.4403138 ]
[-0.2684585   0.52367467 -0.9892632   1.2710263   1.036323   -0.20572154
  1.360863   -0.03979895 -0.35600558 -1.234987   -1.0354528  -0.3951243
 -1.5010772   0.88767135 -0.03956702  0.6822325   1.0503708  -0.27530757
  1.4428046   0.66881377]
[ 0.76787746 -1.3061925  -0.32588497 -0.2371973  -1.254562    0.72751224
  1.558923    1.354654    0.82254446  2.4550774   2.9992857  -0.93212646
  1.5453483   0.6738014   0.22149791  0.2590013   0.7191571  -1.0784733
 -2.1447995  -1.6149572 ]
[ 0.6821404  -1.1111679  -0.20145117 -0.00521071 -1.1824491   1.0937366
  2.1504738   1.0819889   1.0232384   2.4384716   2.8384356  -0.8754105
  1.5842053   0.6567995   0.16936544  0.9007354   0.9102379  -1.3301566
 -2.4677722  -1.5485697 ]
[ 0.7840921   1.5380125  -0.52217096 -1.6109828  -1.4979259   1.714295
 -0.08115623  1.1933947  -1.3427178  -1.0114307  -1.0044199  -1.0399282
 -0.2923461   0.41411173  1.4689642  -3.2104578   0.4936769  -1.9890112
 -0.02108197  1.2866677 ]
[-1.7284597   0.17030971 -0.7799007   1.9893322   1.2041049   2.9944906
  1.2789853  -0.14660914 -0.23761247  0.71730304 -0.5130936  -0.4425629
  0.3334592   1.9018656   0.9508933  -1.7465088   1.2557448   0.5799835
  0.28586093 -0.17207484]
[-0.19194624 -0.15366827  1.318122   -0.86128    -0.07186951  0.10378984
 -1.7149942  -0.53117     0.5729985  -0.59088194  0.42950687  1.2799208
 -0.03558147  2.2497268  -0.41257262 -0.11817334 -1.0495685  -0.40456194
 -0.5291166   0.05391777]
[-0.02731765  0.15984762 -1.1269689   0.16793829 -0.6092478  -3.4020333
 -0.6028861  -0.06909364 -0.26106444 -0.23386611 -0.19951236 -0.5115627
 -0.07160684  0.5370602  -0.6177652   0.09136572 -2.2878647   0.05346004
 -0.12644327  0.3900026 ]
[-1.7743472   0.0544     -0.5293264   2.203441    0.5940603   2.013167
  1.7186228  -1.5560259   0.12927195  1.015601    0.8578653   1.0911775
  0.73739547 -1.676044    0.7158515  -1.1569993   0.18927075 -0.07075644
  0.13780195 -1.2671123 ]
[-0.25446856  0.3945912  -0.8912819   0.9713626  -0.2933479   1.2439721
  2.120071   -0.10696791 -0.4585459  -0.6814824   1.029821    0.7923401
  0.07260505  0.01167042 -0.52495265  0.8376691   0.34736452 -0.7312963
  0.13513133 -0.23550895]
[-0.29457507 -0.01206972 -1.3620857   0.846865    0.00322706 -0.6558212
  0.23297343  0.7075009  -0.12528208  0.39227837 -0.39770436 -0.9266085
  0.19322039 -0.65707767  1.706112   -0.26922888 -0.35585448 -0.03742585
  1.2273513   0.08559579]
[-1.3823577   0.11723062 -0.1454885   0.07605345  2.6736915   1.289435
 -1.0744631  -0.08898471 -0.09829474 -2.939973   -0.87851703 -0.10733137
 -1.1595213  -0.8628848   1.2056118  -0.6710189   1.714419    0.7436347
  0.8463779   0.20940575]
[-0.8017995   0.22275019 -0.7645375   1.6480452  -0.57282305  1.9888573
  0.8979909   0.59478265  0.6849628   0.69901866 -0.69039387 -0.85599154
 -0.88852906 -2.7905307   0.05837656  0.59108186 -1.2396449   0.30873886
  1.0082128   0.3903484 ]
[-0.49642769  0.2602453  -2.933852    3.625406   -1.9481542  -2.1628516
  1.4078966  -1.0186719  -0.24863952  1.5353414  -0.42074504  0.33850768
 -0.93154925 -2.1622653   0.6643708   0.9407494   3.0307076   0.8327005
  1.8866991   0.816903  ]
[ 1.0078398  -0.0155922   0.46628478 -1.5261588  -0.8781106   0.43269446
  0.6671819   0.41349038  0.1585744   2.0800483   0.5114334  -0.86512434
 -0.3146681  -3.0020304  -1.2489066  -0.23042263  3.9378848   0.11001059
 -0.3868147  -0.13448642]
[ 1.2360886   0.1618172   0.90591806  0.22777717 -1.1464187   0.88103414
  2.3076696   0.13993864 -0.4357284   3.0255644   0.4233734   0.32777762
  1.4745305  -1.1425799  -0.29189858  0.79287124  0.5748319  -1.2323965
 -0.9501005  -1.2258564 ]
[ 0.2897658   0.5416573  -0.19411257 -1.9241302  -4.945707    0.76435006
 -0.87704116 -0.05900113 -0.92593753  0.9551676   0.08888502 -0.12766342
  1.63779     1.5008425   0.6333985  -1.613583    1.2005712  -0.35277396
 -1.1677804  -0.294936  ]
[-0.86321163 -1.5241249   1.0684661   0.37948737  1.0092005  -0.8426004
 -1.0841322  -1.6794329   1.2133235   1.0558164   2.9418097   2.4511695
  1.0396651  -0.71198803 -1.940846    1.7062801  -1.6933322   1.8076954
 -1.7354658  -2.6369894 ]
layer 1 Activation
tanh
layer 2 Dense
20 40
[ 0.08422442 -0.8698759  -0.8730007   1.0976439   0.32605502  0.24717396
  0.15369518  0.22820836 -0.75827247 -0.22133446  0.13738076  0.07779605
  0.6533359  -0.49728012  0.7394853   0.23804216 -0.2889305   0.33635044
  0.5368083  -0.08819256 -0.8576671   0.07597576  0.40658104 -1.1283195
  0.79832107 -0.30481863 -0.4767334   0.21236035  0.13132688  1.2647504
  0.3672553  -1.3287034   1.1413897   0.4915447   1.1832345  -1.1813378
  0.1583874   0.58567184  0.8197447  -0.39311182]
[ 1.3031726  -0.7821395   0.32243803  0.83443886  1.2847617   0.25288883
 -1.3496679  -0.64437646 -0.8338623  -0.98800004 -0.76703036 -1.5464787
 -1.0713497   1.2153643   1.1277745   1.2219374   1.0501899   0.24398917
  0.4816198  -0.2721177  -0.8801279   1.0312027   0.61624926 -0.49768516
  0.46732968 -0.9661204   1.4809982   0.47944775  0.44847074  0.31708297
  0.88352567 -0.5088731  -0.28625667  0.56574357  0.16992365 -0.39497188
 -0.80467385 -0.24757719 -0.7310828  -0.15220627]
[ 0.18127528 -0.04361138  1.1102877  -0.3637954   0.8098035   1.112661
  0.36096913  0.13518262  0.6749165   0.37287816 -0.08345103 -1.4105785
  1.1954536   0.8538304  -0.24259572  0.06442697 -0.79271847  0.64655757
 -0.4243176  -0.29431477 -0.13450092 -0.4228684  -0.1566843  -0.7441428
 -0.9255313   0.16724375 -0.29031843 -1.1225991   0.6137908   0.00359923
 -0.05931518 -0.5913465  -0.5291957   0.22077215 -0.31880125  1.677218
  0.09622324  0.42163965  0.31117514 -0.7589094 ]
[ 1.0481049   0.5096374  -0.81298906 -0.80379534 -0.71702814 -1.6563075
 -0.58755785 -1.6436492   1.601406    1.7641327  -1.6575152  -0.07343175
 -0.83986264  0.06245109 -1.3126646  -1.2202157  -1.4653226  -2.3596134
  0.38045654 -0.02940904  0.54461867 -2.0838416  -1.8368102  -0.7844938
 -1.5751413   0.7468215  -0.38736767 -1.57134    -1.0952436  -0.61480427
 -1.2481353   2.627301   -0.01847941 -2.2392716  -0.52725166  1.3780602
  1.6155412  -0.15085919  1.2618144   2.8447223 ]
[ 0.0994031   0.4759626   1.2671338  -1.1761404   0.1878375  -1.1855607
 -0.41895935  0.5635079   2.029067    2.03296    -1.1232218   0.33577716
  0.04660075  0.3466194  -1.7658606  -2.4442072  -1.9794261  -0.93185765
 -1.7344209   2.69813     0.75713146 -2.0252337  -0.34315324  0.5835699
 -1.8281064   0.2359073   1.1730647  -2.7588787  -2.2610226   1.6428957
 -1.2304771  -0.12598823 -2.1283357  -1.7576084  -1.9387482   1.5570984
  2.3936067  -0.6332243   2.4318779   0.11152029]
[ 0.9399712   0.13593547 -0.52559566  0.06810928 -0.5269671   2.6879542
  0.08760534  0.9271859  -1.4885539  -1.4908615   0.01725417  0.45705658
  0.32826966  0.01013335  0.9918667   1.2751573   1.3311678   1.742655
  0.5910279   0.25437552 -0.17506894  1.403797    2.0540817   0.41861647
  1.4620409  -0.68946356  1.4289232   0.90269667  0.7457226  -0.8450207
  0.79876226 -1.2224251  -0.99462235  1.7935615   0.9704808  -1.3329908
 -0.6917601   1.4709115  -0.45175788 -0.6329217 ]
[-1.3347151   0.4472253  -2.3977427  -0.71155345  0.9818514   0.3465041
  0.529603    1.0500689  -0.16983652 -0.2896069   0.76036084  0.6943606
 -0.2616744  -0.15054058  0.33080056  0.63281065  0.65527296 -0.36815467
 -1.7688951  -0.2152819   0.48888284  0.4560546  -0.16979098  1.8518006
  0.00783124  0.30545077  0.07089895 -0.41754     1.5578892  -1.0661349
  0.474406   -0.15880883 -0.00643553  0.11173613  0.33218265 -0.49802676
 -1.0091733  -0.71431315 -0.68368673  0.58803433]
[-1.3597748  -1.0111946  -0.823075    1.7928544   0.57983583  0.34669384
 -0.95253843  0.02278148 -0.8591451  -1.0508705  -0.7708165  -0.2587349
 -0.31715617  0.7402362   1.1275339   1.0635947   0.75975084  0.4139106
  0.96940154 -1.4304544  -1.3321427   0.55106676  0.5791386  -1.4309263
  0.90916705 -0.8676373   0.63037914  1.1293664   0.46420038 -0.24654219
  0.84828323 -0.22672722  0.593661    0.47914946  0.44393116 -0.3156054
 -0.32877436  0.03366363 -0.6710235  -0.6920491 ]
[-1.3303726   1.1713489  -0.482013   -0.82144606 -0.4432941   0.09898404
  1.712352    1.1738209   1.0422957   0.45219678  0.54750705  1.1596115
  0.23019974 -1.0348791  -0.608652   -0.8308078   0.02368976  0.6495451
 -1.0300756   0.5606769   0.8067455  -0.31709224 -0.42854062  0.84017223
 -0.99786574  0.6143908  -1.3989335  -0.43491378  0.5397712  -0.15944442
 -0.06387194  0.7358427   0.5538911  -0.43163133 -0.91360646  0.22839706
  0.07648912  0.46375424 -0.02082036  0.34066147]
[-0.1463276  -0.4508727  -1.1250738   1.4169145   1.0048646   0.5104466
 -0.56502694  1.1631947   1.3881668   1.5475347   0.59750247  1.0306963
  1.535552   -0.9869576  -1.654521   -0.98343253 -1.2738358  -0.09670766
 -0.28924343 -0.14516878  0.36326978 -0.6105965  -1.3531705   0.42456293
 -0.9864074  -0.36988553 -0.61755943 -0.92989343 -0.93914247 -1.4611882
 -0.03229649 -0.2703637   1.7459636  -1.6736672   0.44078207  1.418017
  1.2595607   2.8830645   1.2197993   1.7553711 ]
[ 0.28071767  0.17415117  0.44752052  0.10104741 -0.29054272  0.7775689
  1.2691306   0.64620525  0.8061943   0.6592405   0.50509816  1.518613
  0.34655526 -2.0807736  -0.8193459  -0.39966622 -0.4389781  -0.02593195
 -0.2535926   1.732324    0.06769313  0.00361701 -1.3879694   0.09362625
 -0.8118644   0.40695956 -2.0601792  -0.1425229  -0.8042091   0.8977133
 -0.20953166  0.0710633   0.52499187 -0.26153886 -0.7568908   0.14881733
  1.3567492   1.533457    1.2507061   0.6033628 ]
[ 0.7127712   0.81330884  0.19159871 -0.8237691  -0.23571473  0.5010585
  0.7500683  -0.02009946  1.1505725   1.2203584   1.0489866   1.0261736
  0.9947833  -1.6961665  -0.9508993  -0.9111128  -0.76663476  0.53140295
 -0.5035341   1.0469306   0.890993   -1.2081374  -0.86033946  0.47888938
 -1.5442706   0.42504832 -0.3960686  -0.5249018  -1.1634327   0.8483518
 -0.5383779   0.47665507 -1.0080655  -0.67904115 -0.6482381   0.25167128
  1.1162964   1.1782365   1.3638946  -0.40423968]
[ 0.81450415 -0.7267675  -0.38869706  0.5864251   0.17924564  0.84400463
  0.19060396  0.06688243  0.17611766  0.3079652   1.1114142   2.1312368
 -0.2777677  -0.48221368  0.06438141 -0.41386735  0.69167286 -0.04610704
  1.4602733  -0.66486037 -0.80564404 -0.14653552 -0.7269409   0.15682486
 -0.5816346  -0.91871905 -0.51721823 -0.25712344  0.43676716 -1.9532107
 -0.69910246  1.2951839   0.3779632   0.31326094 -0.6247295   0.594962
 -0.3261588   1.0367571  -0.267907    0.43387264]
[ 0.97420114 -0.60751134  1.4501853  -0.3472068  -0.7441816  -0.27654862
  1.270127   -0.02861972 -1.7864857  -1.5551676   0.8290478  -0.7713918
  0.41475904 -0.3047664   1.4884852   2.4779162   1.4532217   1.3526906
  0.272561   -1.4723134  -0.37322256  1.0933497   2.12524     0.16230127
  1.6319487  -0.00662495 -0.33704603  2.0119474   1.4556439   1.4207414
  0.41104355 -1.3295122  -0.7805438   1.626697    0.53207606 -1.2876042
 -1.8576484  -0.85214454 -2.2157965  -1.0070497 ]
[-0.08665073 -0.6933325  -0.20422558 -0.31567815  0.07463649 -0.29143307
 -0.04671381 -2.2325423  -1.4907691  -0.72385144 -0.67473936  0.51360595
 -1.0099303  -0.44504398  1.3063095   0.9595471   0.76133084 -1.1323123
  1.298158    0.55514306 -0.38374335  0.5064552   0.5397543  -1.05548
  0.30258405 -0.4795182   0.23188086  1.347829   -0.61044896  1.1139163
  0.4765739  -0.9623198  -0.51622915  0.3398519  -0.30162016 -0.5872818
 -0.33374387 -0.71552914  0.10307419 -1.0048535 ]
[ 0.8317282   0.72913706  0.10912727 -1.3667777  -0.6110215  -0.24360873
  0.63524485  1.018819    0.51995516  1.0870435  -0.11798432  0.5016497
  1.9557304  -0.4445034  -0.73518133 -0.79044306 -0.3416373  -0.50883365
 -1.2656007  -0.12001335  0.9418501  -0.22324444 -0.76862675  1.5510632
 -0.65067697  1.0685582  -1.5380218  -1.2972761   0.06653837 -0.14500463
 -0.73923063  0.8046928  -0.14963877 -0.6392338   0.03690832  0.04858454
  0.58092904  0.30987433  0.5783324  -0.08410405]
[-1.10142     0.35420904 -3.0539072  -0.920567   -0.01874012  0.8809926
 -1.1905965   0.07504724 -1.5161718  -1.527052   -1.0695528   0.37492493
  0.20521961 -0.03867459  1.2890824   1.8053784   1.425587    0.5778886
  0.6331573   0.872434   -0.00618667  1.5427542   1.7594726   0.5857484
  1.5100964   0.23590645  0.40867364  1.8592958   0.7018942  -0.05738687
  0.231974   -0.390648   -2.0123167   1.5542299   0.14664729 -1.2122711
 -0.5475683  -0.08625165 -0.47608304 -1.0973196 ]
[ 0.29804704  0.4516481   0.06854912 -0.6894294   0.0099891  -1.0761213
 -0.89905524 -0.27883524  0.02826677  0.84698945  0.63072056  0.8651629
 -0.00298822 -0.6354711   0.05846694 -0.20496085 -0.19809005  0.1382528
 -0.4084371   1.0223855   0.5951386  -0.30626607 -1.088634    1.6048406
  0.03965499  0.40368798 -0.8732402   0.1307127   0.01744008 -0.32131985
 -1.7155695   1.0381739  -0.7905252  -0.3018647  -1.6242809   2.1698174
  0.08467537  0.1323684   0.5691951  -0.57756907]
[-0.78252786 -0.02135216 -0.88496625  0.75963265  0.05449789 -0.94830626
 -0.7594043  -1.1013544  -1.2995176  -0.9498436  -1.4551015  -0.31663537
 -0.35272062  1.1878173   0.53772783  0.9585448   0.4321677  -1.4072865
 -0.21001546 -1.6740433  -0.19133563  0.917154    0.85385406 -1.0900048
  0.71299815  0.04132326  1.0630879   0.64231145 -0.8628196  -0.73406637
 -0.47764376 -0.08468295  0.04986152  0.20292103  1.4671458  -0.695861
 -1.026368   -1.5234197  -1.2464019  -0.2605771 ]
[-0.5344043  -0.31400517 -0.3206397   0.32642466  0.37632725 -0.46216106
 -1.6872749  -0.4838601  -0.38525853 -0.6435111  -0.96006775 -1.1958516
 -0.40153128  1.6831174   0.5345237   0.5398047   1.1550606  -0.43590277
  0.17001626 -0.1437643  -0.10610877  0.5136063   1.2514975  -0.5164644
 -0.01405165 -0.21701479  0.5365072  -0.00606666  0.14609489  0.8135423
  0.6930327  -0.2878988  -0.07090578  0.3454097   0.2720632  -0.99346083
 -0.40356526 -0.76826245 -0.25396344 -0.1461065 ]
[-0.05667773  0.94294345 -0.07127788 -0.9245419  -1.2278024   0.00986789
  0.46341205  0.32109264  1.0100808   0.73579067  0.31757596  0.54151577
  1.2180798  -0.653535   -1.17728    -1.8820164  -1.153457   -0.22143771
 -1.1133567   0.5544217   1.004534   -0.74280775 -0.30269036  0.85167
 -0.737957    1.2094234  -1.1875652  -0.9285155  -0.41491956 -0.24230686
 -1.5104717   0.7893237  -0.23989163 -0.9018333  -0.497718    0.65287435
  1.1036693   0.38563582  0.87431896 -0.02823382]
layer 3 Activation
tanh
layer 4 Dense
40 20
[-0.4705746  -0.12234715 -0.02418855 -1.0411539  -0.32061756 -0.52900803
  0.26223317  0.7123382  -0.5101969   0.25455368 -0.8666191   0.12254544
 -0.38276896 -0.7385035   0.5519258  -0.63370806  0.72903305  0.23700047
  0.00495728  0.02515378]
[-1.0801584   0.3856795   0.04499663  1.0423571   0.76765     0.7615778
 -0.5363053  -0.3769032   0.12704104  0.31229356 -0.1206554  -1.124995
  0.64691794  0.06247938 -0.33722398  1.3180656   0.07494754 -0.33913884
  0.4430979  -0.7929449 ]
[-0.5082472  -0.07704882  0.51824266 -0.7172412  -1.20943    -0.25108367
 -0.535084   -0.3127224   0.7743774   0.82085896 -0.70331234 -0.3289881
 -0.39640322  0.02865985 -0.05901882 -0.12011795  0.3083045  -0.4571062
  0.12612414 -0.58682626]
[-0.03881516 -0.5049753  -0.4930794  -0.1523716   1.2412525   0.3752834
  0.2900773   0.597996   -0.0636207   0.46524367  1.2779367   0.20385264
 -0.36394683 -0.04138711  0.19085433 -1.0592561   0.3184172   0.02715343
 -0.9771786  -0.09835168]
[ 0.46650684  0.05050417 -0.22698727 -1.3128221  -0.57792807  0.12063066
 -0.08746816  0.3930576  -0.0447443   0.07811537 -0.3834527   0.8590803
 -1.5860165  -0.48039615  0.56250346 -1.4256147   0.00866658 -0.80443037
  0.27667877  1.7669764 ]
[ 0.4463762   0.33412993  0.02080837 -0.06315886  0.33656633 -0.09672532
 -0.5918965  -0.4348922   0.05477694  0.34695354  1.796077    0.04907533
  0.166765   -0.05144247 -0.7523032   0.09870324  0.19290294  0.47118
 -0.62964755 -0.14780587]
[ 0.75419927 -0.03523402 -0.856327    0.5307421  -0.88173     0.6030755
 -0.47762266 -0.5707921   0.40378776 -0.11655412  1.0050695  -0.3443198
  0.57494897  0.24451663 -0.6864396   0.07396889  1.0901864   0.22889394
  0.14050345 -0.62181973]
[-0.7007985  -0.8954646   0.74113363  0.11525851  0.87442416 -0.08722182
  0.1556425   0.58826274  0.0832261   0.29039901  0.13762918  0.54336053
 -0.6094179   0.5375256  -0.02252958  0.53144526  0.00377363  0.18038666
  0.40303794 -0.38481236]
[-1.3950979  -0.55025584  1.7144183  -0.05575945 -0.20395683 -1.5128095
  2.1019428   1.2184755   2.2145333   1.0823445   1.0087162  -0.10244437
  0.42831933  0.4523264  -0.32055125  0.14841248  2.1209154   1.1278706
  1.8890235  -0.09824429]
[-1.5278779  -0.6798057   1.8977194  -0.11576798 -0.06264043 -2.3916023
  2.0562692   2.2757416   0.9692705   1.3955737   0.43419522 -0.27734783
  0.32037184  0.67524964 -1.5197587   0.72663116  2.428253    2.0838654
  2.0214896  -0.2677493 ]
[ 0.7473186  -0.99191576  0.06029585  0.03276544 -0.04610594 -0.14003804
 -0.6603627  -0.21929143 -0.31727272  0.6373951   0.9582985   0.15927686
  0.24643728 -0.91604334 -0.2840923  -0.6167348  -0.19569449  0.90703213
  0.71214443  0.11328118]
[-0.5347295  -1.6404923   0.00828774  0.1319289  -0.5369799   0.7809038
 -0.14327678 -0.3150512   0.32705626  0.6512078   2.6278768   0.15496339
  0.06128822 -0.05816616 -0.59064054  0.48876196  1.0509027   0.77668166
  1.2121421   0.01172549]
[-0.65917146  0.20606801 -0.12929857  0.46689814 -1.2285032  -0.5629059
  0.26321802  0.45873582 -0.23932156 -0.16038263 -0.32002094 -0.3526055
  0.881628    0.44184226 -0.23283848 -0.05624245  0.14511128 -0.12277679
  0.49182138 -0.6669037 ]
[-0.05302978  1.1984766   0.21619992 -0.1180161   0.58937496 -0.35560304
  0.20110296  0.65939176 -0.5419608  -0.56617755 -2.1377091   0.11550527
 -0.39630836  0.5686313   1.2558454   0.0289437  -0.48142952 -0.7386457
 -0.38349557  0.414523  ]
[ 1.2286929   0.43493325 -1.1832862  -0.4269375  -0.05715906  0.20062146
 -0.426685   -1.2085207  -0.8334759  -0.11454614 -0.9996343   0.3738715
 -0.35485154 -0.5994913   1.1748538  -0.5887441  -1.588892   -0.831702
 -0.27437276  0.66305995]
[ 1.6194423   2.0410764  -1.8075651  -0.27524486  0.91680205  2.226841
 -2.0601559  -1.7586471  -2.3950384  -3.6633353  -0.5239045   0.23226707
 -0.9956999  -1.4832405   1.4660903  -0.6965222  -2.4017687  -2.589294
 -2.1421638   0.2722146 ]
[ 0.98306054  0.9958391  -0.8645593  -0.18665417  1.2383157   0.1280237
 -1.4593449  -1.089979   -0.9334194  -0.2418597  -0.5562989   0.35243565
 -0.4135281  -1.9392465  -0.3379962  -0.5166872   0.20212647 -1.0267305
  0.18991221  0.5807183 ]
[ 0.59874296 -0.48289886 -0.38919547  0.27320352  0.18497258 -0.10088352
  0.05988515 -0.7310765  -0.01589372 -0.32648522  0.63358784  0.07149287
 -0.14128494 -0.19603245 -0.47059372  0.17730609  0.159306    0.7988502
 -0.26025328 -0.33131662]
[ 0.53963715 -0.45587146 -0.28398833 -0.6761156  -0.9496545  -0.11317532
  0.6016974  -0.2816041  -0.31824058  0.3219139  -0.6996805   0.9393124
 -0.65671134 -0.7186995   0.6669933  -1.4025823   0.0221957   0.73089236
  0.09800426  0.65321124]
[ 1.4746945e-03 -1.2372601e+00  4.3617570e-01  2.4090312e-01
 -1.6622629e+00  3.1423545e-01 -1.5898575e-01 -5.7300484e-01
  7.0134205e-01  1.1631790e+00  1.8672460e-01 -2.7706400e-01
  4.3347418e-01 -3.8165426e-01 -8.1799674e-01  3.7057015e-01
  4.0192342e-01 -8.8667348e-02  4.6708894e-01 -5.8781499e-01]
[-1.3662673   0.2812679  -0.36500332  1.2493072   0.6366577   0.48754105
 -0.17709628 -0.37928197  0.6090261  -0.04759905 -0.05224945 -0.9675897
  1.2615094   0.14150003 -0.7106729   1.4545311   0.27186033  0.10121822
  0.17907    -1.2360767 ]
[ 1.4546365   1.4343836  -0.9022792  -0.4619402   0.3052022   0.8044495
 -2.1641955  -1.0861044  -0.85874236 -0.34627464 -0.1451871   0.44726428
 -0.388304   -0.7985338   0.66341984  0.11670157 -0.15717639 -0.43928432
 -0.6454086   0.21297012]
[ 0.57575196  1.1683869  -0.5518691   0.36156133 -0.10462507  1.0936955
 -0.5379932  -1.9414649  -1.2517737  -0.9374082  -1.469066   -0.19045687
  0.14962925 -0.24597806  0.5932625  -0.2296265  -0.8901859  -0.48687977
 -0.7798661  -0.38545346]
[ 0.57258826 -0.717765   -0.27650848 -0.18187658 -0.64117575 -0.2240509
 -0.45417958  0.06374973 -0.12483672  0.25583035 -0.23142055 -0.06618171
 -0.16822623 -0.5937003   0.29500517 -0.07701832 -0.27639094  0.00441047
  0.8307473   0.20530342]
[ 1.0971377   0.3016725  -1.6796095  -0.0350713   0.43279606  1.8688719
 -1.2074683  -1.0528913  -0.8709597  -0.47983855 -0.07297751  0.48972794
 -0.25706092 -0.27166715  0.6591782  -0.19331272 -1.138935   -1.2712202
 -0.5883047  -0.09883589]
[-0.9515461   0.1300635  -0.11353379  0.8640008   0.8860294   0.8174208
 -0.23880899 -0.4020531   0.14427525 -0.1316542   0.39692095 -1.0873544
  0.9627486   0.4287566  -0.7941945   1.3584224   0.4301829   0.3224768
  0.40522638 -1.0443429 ]
[-0.13523872  0.20871823 -0.26480186 -0.06891516  0.868793   -0.07765163
 -0.5454471  -0.14425965  0.75368047  0.06386142 -0.9645488   0.03964222
 -0.03276346 -0.6321212  -0.10057019 -0.69971323  0.11643606  0.33762178
 -1.2843922   0.6009826 ]
[ 1.6674511   1.630007   -1.9889424  -0.16958298  1.0692853   2.0091865
 -2.1900384  -2.3391805  -2.2989788  -2.0097816  -1.2707713  -0.02881362
 -0.27302623 -1.5104556   0.8312181  -0.3956325  -1.8842721  -1.5829146
 -1.8753799  -0.04446277]
[-0.35763526  0.26889157 -0.55890524  0.30475378  0.69463843  0.31490937
 -0.32537082 -0.03432589 -0.69733757  0.19975883 -0.93739367  0.6372262
 -0.33725843 -0.772923    0.55099964 -0.7897408   0.17232288  0.23614803
 -0.10745634 -0.17658682]
[-0.22276552  0.03020895  0.19348341 -0.43489674 -0.42372134  0.19521914
  0.6327367   1.15313     0.13718304 -0.8148895   0.6181643  -0.42439908
 -0.03062609  0.7594428   1.1113354   0.07410883  0.05847739 -0.5233468
 -0.17088625  0.5041164 ]
[ 0.07835231  0.4749247   0.11132557 -0.7787937  -0.8024815  -0.42840585
 -0.5731665  -0.22114661  0.5059125  -0.4547341  -0.37591502  1.0162418
 -1.5741376  -0.66141564  0.507746   -1.3015394  -0.5388997  -0.6751417
 -0.6144405   1.1258855 ]
[ 0.03947637 -0.11274748  0.6124964   1.0231297   0.20885605 -0.22020672
  2.0677683  -0.00441084 -0.1628756   1.2225939  -0.12907535 -0.6047854
  1.1120827   0.6265056  -0.7726517   0.7593003   0.3238715   1.0946705
  0.2017439  -0.39638045]
[-0.77969366  1.2716796   1.464207   -0.21899694  0.68544054 -0.23718068
 -0.05135011  0.94645095  0.22573532 -0.02830871  1.6604593  -0.2660604
 -0.8388572   0.7495085   0.08482835 -0.11862522 -0.4073368  -0.4586742
 -0.24422407  0.20474626]
[-0.55685455  0.24959649 -0.39722088 -0.65589756  0.90153384  0.5210432
 -0.8198639  -1.4757428  -0.9926028   0.5611301  -0.24635345  0.47606635
  0.11513258 -0.23142748  0.5428043  -0.433623   -0.09976891 -0.14406183
 -0.6356753   0.42970282]
[-0.5632273   1.2028935   0.41616568 -0.604502    0.52673006 -0.38776317
 -0.1862487   0.08794113 -0.26687354 -1.1449869   0.98134744  0.47824332
 -0.12364847 -0.1164081   0.5102063  -0.19770166 -1.2088482  -0.7124165
 -0.25289553  0.27554023]
[-1.6270062  -0.89115727  0.27658254  0.17370237 -0.50036657  0.3566026
  1.025133    0.5721231   0.5705901   0.46868226  1.5902894  -0.2846535
 -0.3608946   0.98500866  0.6280036   0.29020488  0.8248119   1.0694519
 -0.7648996  -0.13640256]
[-0.5869029  -2.0173297   0.8817258   0.43768272 -2.7933736  -2.0451124
  0.53205264  0.8683231   1.1154727   1.2076862  -0.6794686  -0.52794117
  0.7177255   0.30479372  0.19301309  0.5046788   0.54385453  1.0917934
  0.73179865 -0.44662598]
[-0.17652512 -0.15652879  0.6936688  -0.19531734 -0.3992503   0.7566661
 -0.63036007 -0.22826366  0.74149656  0.63413376  0.5747248   0.25304073
 -0.54605955 -0.35762125 -0.44224483 -0.15094075  0.5759919  -0.23278776
 -0.44880825  0.44438803]
[-0.24433674 -0.6418374   1.3856345   0.10218898 -1.5936532  -0.21236506
  0.2957317  -0.13984859  1.2179085   0.7731611  -0.1256573  -0.26819146
  0.33171797  0.71908236 -0.23570564  0.31217042  0.36504722  0.60901755
  1.6595181  -0.08193068]
[-0.06080422  0.61138225  1.0954922   0.11831345  0.34113017 -0.39906973
  0.88976806  0.9584871   0.02962293 -0.23059703 -0.12274034 -0.1690258
 -0.9642184   0.54211265 -0.12707783 -0.56699884 -0.2549526  -0.0148808
  0.26072326  0.05710619]
[ 0.01043606 -0.12799221  0.10036963  1.0728548   0.48593152 -0.48964062
 -0.3941901  -0.61054003 -0.22895569  0.07390361  0.2852017  -1.0559645
  1.8936763   0.67907184 -0.7365191   1.6619359   0.07713767  0.70444477
  0.39474818 -1.1102889 ]
layer 5 Activation
tanh
layer 6 Dense
20 1
[-0.12527604]
[0.31659168]
[-0.28789645]
[0.58362544]
[0.52181005]
[0.26531953]
[-0.4942665]
[-0.41340274]
[-0.3190136]
[-0.44718593]
[0.07579955]
[-0.6030772]
[0.6067188]
[-0.00333488]
[-0.01157551]
[0.46055174]
[-0.42784968]
[-0.38513753]
[-0.40601477]
[-0.577042]
[1.2336974]
