layers 7
layer 0 Dense
20 20
[ 0.02294445  0.07173134 -0.19410583  0.1288622   0.08903714 -0.12084405
 -0.05179486  0.6492442   0.12010507  0.18504779  0.18146354 -0.30486047
 -0.09603915 -0.13430053 -0.15183666  0.24137732 -0.4346644  -0.02660115
  0.18263158 -0.13523799]
[ 0.28979677 -0.47777522  0.57238007  0.11411177  0.5868678  -0.5125519
 -0.21381742 -0.10897499 -0.03451978  0.11908583  0.08116752 -0.17527038
  0.38963786 -0.17300934  0.10891847 -0.02736885 -0.3002208   0.28478068
 -0.09442938 -0.22263901]
[-0.11039815 -0.02930555  0.1967775   0.02436473  0.03333556  0.04044924
 -0.3887972  -0.11818957  0.47324193  0.15800965  0.08649911 -0.1085396
  0.23998113 -0.03200702 -0.29820985 -0.09673106  0.44013909 -0.43984732
  0.10222765 -0.2521679 ]
[-0.06022043 -0.05108698 -0.06486846 -0.05117238 -0.23544095  0.1029307
  0.31422895  0.55375206 -0.01099551 -0.39699608 -0.2977301  -0.4138935
  0.22327238 -0.20424257  0.04649917  0.31951994  0.0392648  -0.06184872
 -0.11119238  0.16476166]
[-0.14802365 -0.05017084  0.08604869  0.00112895  0.15083794  0.24688387
  0.04092347  0.34367743  0.11363309 -0.11287925  0.29435962 -0.23111618
 -0.03009832  0.11563344 -0.46000287  0.04790487  0.456689   -0.31486008
  0.10211152 -0.03895468]
[-0.19174725  0.4964867  -0.1630201   0.28329203 -0.5255139   0.2409385
  0.35463527 -0.13559864 -0.4441461   0.45428202  0.24519919 -0.05419818
 -0.26639807  0.1338428   0.21693505  0.66144514  0.28296104  0.16245791
 -0.15054704 -0.18889774]
[-0.4208878   0.470642   -0.50063324 -0.00821189 -0.42272392 -0.23787892
  0.24194367  0.34388128 -0.46720648  0.2474173  -0.2339996   0.39665768
 -0.14322     0.41509777 -0.2542966   0.19651057  0.17700161  0.2415932
 -0.25388396  0.2783686 ]
[ 0.00644125 -0.2124327  -0.28993598  0.24135223  0.11731572 -0.1581662
 -0.01127242 -0.30417615 -0.19799958 -0.34665233 -0.42842102  0.42482072
  0.20883448 -0.02676209  0.20023431 -0.0889131   0.01962363  0.56318855
 -0.11927874  0.1494394 ]
[ 0.3843588   0.26227295  0.21332341 -0.314779    0.24118058 -0.05411123
 -0.27532682  0.1289845  -0.23782365  0.15046398  0.15839916  0.18804571
 -0.26481587 -0.24806209  0.6022269   0.34885633  0.3597927   0.43066972
 -0.06533033  0.04642848]
[-1.0310591   0.01984509 -0.09750078 -0.09600912  0.5705536  -0.4995959
  0.39206526 -0.14121497 -0.07217762  0.6214848  -0.07045088 -0.12113146
 -0.4721814   0.11589943  0.19323479 -0.80840737  0.16798559 -0.05234016
 -0.2566585   0.46700493]
[ 0.45395872 -0.2728485  -0.26987    -0.912345   -0.29803467 -0.5979579
 -0.08199221  0.03946463  0.44947964  0.35867652 -0.07894652 -0.04751306
 -0.68384564 -0.75513005 -0.33019882 -0.46669385  0.2698578  -0.37633458
 -0.587735    0.5561623 ]
[ 0.18372816  0.01021161  0.09241167 -0.1092226   0.45523715 -0.47548315
 -0.0245002   0.09947865 -0.19131377 -0.04507476 -0.05267143  0.15744379
  0.03130069  0.6944293  -0.01442119  0.37797752  0.35180956  0.40758687
 -0.24998757  0.09318812]
[-0.14532638 -0.04682368  0.28674296  0.07647949  0.28614393 -0.19645518
 -0.43422732 -0.21349694  0.2978377  -0.12559037  0.39308673  0.03465574
  0.17720973 -0.30138433 -0.04610246 -0.0219036   0.15547262 -0.18097113
  0.09539627 -0.46811906]
[ 0.33018947  0.0556496  -0.41862532 -0.0202568  -0.78925806  0.16910408
 -1.0971829   0.47884256  0.9089243  -0.9348693  -0.6172125   0.25407246
  0.57238513  0.28684518 -0.3876388   0.1273333  -0.14262865  0.22484794
 -0.18189262 -0.8306694 ]
[-0.36327323  0.65962595  0.35426772  0.52229476  0.41236952  0.26826775
  0.4273985   0.01310047 -0.06979652 -0.04421134  0.49089086 -0.3129955
  0.964484    0.51450074  0.5216188   0.46093315 -0.19043884  0.0827549
  0.16521141 -0.24723184]
[-0.17757526  0.19190866  0.15085155  0.05299999  0.6855456  -0.3093849
 -0.4125731  -0.42701846 -0.2176007  -0.10144581  0.26347792 -0.23027045
 -0.6351796   0.15321803  0.37667608 -0.22077012 -0.01970975  0.7246785
 -0.8479681   0.2400638 ]
[-0.11709148  0.05496202 -0.32879663 -0.29507655 -0.16427755  0.67625946
  0.52068144  0.3489977  -0.09624552  0.06732196  0.16346733  0.07529946
 -0.3149682   0.28406483 -0.15973876 -0.4195786  -0.4751173   0.01332555
 -0.0124996   0.21497408]
[ 0.66355306 -0.42606562 -0.43340492  0.64465415 -0.16628684 -0.09288111
 -0.05812905  0.22688307  0.02517952  0.02460113 -0.03650964 -0.23372781
 -0.3753231  -0.08489063 -0.28379995  0.17285168 -0.2057927   0.00547887
 -0.08842766  0.04394977]
[-0.24339594 -0.32201996 -0.6117317   0.39281654  0.09282376  0.16498473
  0.0502791  -0.12521394  0.01489738 -0.11456795 -0.01106513  0.46103927
 -0.37576208 -0.01776746  0.18103437  0.4414343  -0.18382098  0.05781679
 -0.20034766 -0.30531147]
[-0.12161505 -0.23061179 -0.26879978  0.06417269  0.24330558 -0.2712554
 -0.18412039 -0.19487303 -0.079908    0.03892999  0.04707921 -0.29018897
 -0.07049793  0.07893428  0.33271217  0.04745322 -0.5709271   0.7646818
  0.29649532 -0.3654279 ]
[ 0.17694132 -0.04366435  0.12019214  0.04328514 -0.0435489  -0.07623343
 -0.00683544  0.09046655 -0.09703116  0.04667038  0.09165951 -0.09407772
  0.0789353  -0.01366544 -0.13185775 -0.04795661 -0.04183789 -0.08448093
  0.05365817  0.00670117]
layer 1 Activation
tanh
layer 2 Dense
20 40
[-0.04256039 -0.33127272 -0.17942111 -0.37967262 -0.06126128 -0.0239068
  0.3554749  -0.22590111 -0.2965549   0.23752168  0.24401098 -0.22776666
 -0.22810207  0.47237527  0.03500524  0.40855616  0.01619688 -0.0749616
 -0.20325062  0.29833964 -0.16927822  0.51500124  0.03398976  0.10130392
  0.2628114   0.18297487  0.05576868  0.13917866 -0.10561055 -0.18877353
  0.08856186  0.27080506 -0.03615073  0.35605752  0.0842923   0.27738807
  0.3454932  -0.61808443 -0.07726955 -0.10898721]
[ 0.30833164  0.01306771 -0.0842178   0.12066612  0.02719279  0.08127797
  0.04182687  0.00232233 -0.30554053  0.20823912  0.20322478  0.14806905
 -0.14854896  0.09253836 -0.2737306  -0.21816522  0.07812748 -0.343262
 -0.2160384   0.04542823  0.3038541  -0.18336865  0.47101963 -0.11430363
  0.15451661 -0.17738521  0.1734877  -0.05984494  0.09002294  0.10483745
 -0.03154874 -0.20404595  0.11090045 -0.1831059  -0.27437094  0.05904664
  0.13412368  0.39256123  0.11872186  0.3616632 ]
[-0.01957259  0.0448667   0.19327104  0.25792563  0.02425251  0.30287796
  0.22993965  0.32513776  0.02491996 -0.02082875 -0.02923648  0.02961857
 -0.03470938 -0.06545801 -0.2522774   0.3520533  -0.06643179  0.10569119
 -0.1934752  -0.39655226 -0.1450085   0.30567706  0.43573216  0.03783095
 -0.16578798 -0.26330313 -0.3268731  -0.4209673  -0.3736491  -0.1075478
  0.15958948 -0.19889455 -0.13690694 -0.20098102 -0.41657507 -0.23846069
 -0.10751469 -0.00751907 -0.08427463  0.42630115]
[ 0.40724865  0.2754586   0.24270478  0.09827687 -0.520547    0.08627585
 -0.48033354 -0.02600983  0.24747154  0.35349873  0.05286854  0.20520255
  0.05742711  0.04424131  0.3229404  -0.02586435  0.20929171  0.31131366
 -0.04278418  0.15131481 -0.11189114 -0.10166714  0.29978353 -0.18706733
 -0.13895376 -0.23979641 -0.21366598 -0.07721204 -0.24143067  0.20568511
  0.17167282  0.3874701  -0.54680854 -0.08023231  0.03886967 -0.5126986
 -0.05133358  0.5156747  -0.54920596 -0.15575361]
[-0.0536065   0.10230161 -0.01295829 -0.06452513 -0.01697375 -0.2689723
  0.01189899  0.06358314 -0.01875224  0.08795829 -0.45734107 -0.25655705
  0.01239888 -0.10577223  0.13166776 -0.21966344 -0.05874175  0.0057041
  0.40432677 -0.55698246 -0.08904154 -0.14800006 -0.03676832 -0.31827042
  0.04129387 -0.09655666 -0.5222263   0.1707739   0.03716882  0.14002831
 -0.30310497  0.07444596  0.06050511 -0.14513738 -0.41560444 -0.1570156
  0.19167115 -0.04205265 -0.10790947  0.05018055]
[ 0.07417127  0.2871369  -0.02896117  0.2851435   0.22845004  0.10225028
 -0.22982354  0.15168129  0.141213   -0.0105127  -0.23520042  0.30645606
 -0.1140053  -0.16864672  0.16209398  0.15953511  0.31309748  0.21196738
 -0.35320848  0.38208705  0.04184547  0.18417738 -0.22755755 -0.34302205
 -0.18462083 -0.3006147   0.00958503  0.16505355  0.19997998  0.08584764
  0.19595933  0.02389838 -0.19470808  0.47548822  0.4642369  -0.45998564
 -0.13248233  0.16841008 -0.34706312 -0.08298698]
[-0.09529718 -0.11508079 -0.09566904  0.05232029  0.13431412 -0.00826413
  0.08817594 -0.14567842  0.02437753 -0.05687288 -0.15758245 -0.11395037
  0.35577628 -0.57628465 -0.23348899 -0.10357149 -0.1173703  -0.35067272
 -0.18869215 -0.17922693 -0.08557712 -0.17836843 -0.07114093  0.17302066
  0.06154123  0.15434803  0.1131408   0.08822963 -0.34155342 -0.01548937
  0.046654   -0.23638701  0.06745301 -0.01076278 -0.16219231 -0.03422267
 -0.3204199   0.68468857  0.2983489  -0.02836958]
[ 0.10175701 -0.19460148 -0.05037272 -0.30414638  0.22890015  0.02783655
  0.10703643 -0.14193428 -0.04071644  0.2865307  -0.15179083 -0.08493001
 -0.11154173 -0.30271173 -0.02883472 -0.1779209  -0.09848829  0.16228476
 -0.43075833  0.24451002 -0.02528561  0.25877124  0.15792109  0.32920408
  0.05128048  0.3934723   0.45366398 -0.1750147   0.04216092  0.15762198
  0.3210164  -0.20029263  0.2854625  -0.04415573  0.23398659 -0.17374186
  0.03731317 -0.05666782  0.2023077   0.00429872]
[-0.2124502  -0.20583524 -0.39416942  0.28725466  0.19622962 -0.11420508
  0.15319851  0.311758   -0.05380296 -0.16698995  0.07710487  0.07650481
 -0.19348004  0.10961252  0.08659576  0.24736343 -0.1921004   0.24048187
 -0.30804244  0.1850343  -0.07269377  0.3088644   0.33805725  0.00231298
  0.28211555  0.2916165   0.3308053  -0.1545784   0.28457573 -0.12062396
 -0.10060835 -0.05220977  0.04350183  0.4603644   0.22542809 -0.10635614
  0.3132428  -0.20492852  0.25785133 -0.176433  ]
[-0.36696061  0.29683176  0.29482383  0.23679549  0.02556988  0.18347394
 -0.07293034  0.09845896 -0.10787064  0.07980275 -0.18974371  0.00890996
  0.22510551 -0.45266333  0.05118255  0.1726143   0.13591687 -0.1564816
  0.4705122  -0.24618861 -0.22296831 -0.34619048  0.1523983   0.06202083
 -0.43895438  0.11966205 -0.1887246   0.01787981  0.0934172  -0.20751919
  0.04239086 -0.01992108  0.18051091 -0.17937659 -0.3638287   0.51673865
 -0.26655746  0.32081175  0.07090329  0.17052591]
[-0.07892978 -0.04180227 -0.0390556  -0.07143591  0.11026945 -0.24005815
  0.01459518 -0.05530726  0.09675696 -0.10296433  0.1667979   0.0922193
  0.08509564 -0.07378498  0.16739176 -0.11358668  0.04437605 -0.06749082
  0.0123     -0.12444673 -0.1209959   0.38691372  0.15622202 -0.14636716
  0.02896226 -0.39843357  0.23963007 -0.28008297 -0.07902917 -0.02955512
 -0.15368912  0.35587692 -0.12140571  0.27573723 -0.3068257   0.31161553
 -0.05422067  0.0567821  -0.40231144  0.38676524]
[ 2.0330113e-01  1.2238830e-01 -1.4342971e-01  6.6021189e-02
  5.7139985e-02 -1.6107094e-01 -3.6288437e-04  5.2405879e-02
 -3.4311771e-01  6.5188929e-02 -1.9730456e-01  3.1115803e-01
  3.0892608e-01  2.9530823e-01 -1.4954507e-01 -3.3973834e-01
 -7.1610771e-02 -1.6961725e-01 -2.1742728e-01  2.5915971e-01
  2.7759719e-01 -8.8943928e-02 -1.8135770e-01  2.0122851e-01
  1.7977821e-02  1.6984771e-01 -2.9984540e-01  2.4634677e-01
  3.5286826e-01  1.2750721e-01  9.5436230e-02  3.2457343e-01
 -3.9828983e-01  3.4243590e-01  4.3779418e-01 -3.5761157e-01
 -7.0016816e-02 -2.8015155e-01  1.4366059e-01 -3.9085200e-01]
[ 0.10073337 -0.10008257 -0.45630917  0.19864462 -0.22216591 -0.06774353
 -0.53011703 -0.1742705   0.15830638  0.26808736  0.42943922  0.16119541
 -0.2377832   0.39065063 -0.04543757 -0.04064199  0.44233277 -0.00806582
 -0.40764418  0.2780448  -0.30807045  0.264955    0.5147751  -0.0078754
  0.35960948  0.07764989 -0.24774283 -0.10242298 -0.17416184  0.01764003
  0.47783157 -0.5607495  -0.1627772   0.01679687  0.16026627 -0.14859632
 -0.0291958   0.16682433 -0.40916795  0.39230853]
[ 0.34021002  0.2603527   0.1165747   0.13014364 -0.20137629 -0.13288964
  0.02666171  0.24437182 -0.17284723 -0.11039296 -0.01552308 -0.01930528
  0.12127592 -0.30644697  0.26604316 -0.28432292  0.31939626  0.28676036
  0.08956558 -0.24852803  0.19759664  0.09862988  0.3176026   0.16858901
  0.08898454 -0.05923585 -0.33427966 -0.04152435  0.20950203 -0.25049576
  0.06393939  0.15862675  0.10868103  0.2069422   0.20326893 -0.1125859
  0.09040107 -0.22643371 -0.00211735  0.0691875 ]
[ 0.23081216  0.20325722 -0.18641591 -0.00407975 -0.43530634 -0.08125751
  0.11545442 -0.09357767  0.20757924  0.14492455  0.06864091  0.06632297
  0.23247738 -0.11084145 -0.3909158  -0.10197604 -0.10261129 -0.13281466
  0.33511415 -0.03397153 -0.08715015  0.00806264  0.301201   -0.0902648
 -0.11885998 -0.304836   -0.70044553  0.10015456  0.05422637 -0.03335175
 -0.09940041 -0.00075056 -0.25390965 -0.11991046  0.04249381 -0.23473078
 -0.10934594  0.2913797  -0.43206137 -0.01231934]
[-0.01066276  0.13602023  0.10065608  0.18626212 -0.25538024  0.2636694
  0.07299729  0.2585559  -0.04767342  0.02776589  0.1092503   0.21700865
 -0.22452089  0.26090503 -0.17432915 -0.3068409   0.45458317  0.41699323
 -0.08444632  0.05670718 -0.16067342  0.03343005  0.01776098  0.01277627
  0.29355747 -0.21522668 -0.15711826 -0.3100904   0.20813318 -0.00547017
  0.02977446  0.10588973 -0.21499354 -0.2168355   0.3410119  -0.3491614
  0.24979834  0.06556848 -0.44470966 -0.12534128]
[-0.34061444  0.11008385  0.31545419 -0.17027353  0.31175953  0.01400959
 -0.27776173  0.05702776 -0.125458    0.20359534 -0.38687304  0.02367316
 -0.08416219  0.3142361   0.03306153  0.26972824 -0.34253043 -0.31311044
  0.29458353 -0.22288638 -0.0664903  -0.2841809   0.13321656 -0.2652685
 -0.16131972  0.13402751 -0.1351331  -0.30319598  0.13400693 -0.0520381
  0.11776344 -0.01531371  0.2015161  -0.07012921  0.03175367  0.23032513
  0.33657774 -0.15867837  0.5733276   0.09572591]
[-0.06809846  0.3498084   0.1515833   0.39936307 -0.33842233 -0.2617589
 -0.11310902  0.18514258 -0.15856144 -0.11554555  0.06682745 -0.02563548
 -0.0490945   0.12066276  0.04130654 -0.3289413   0.18602586  0.00515508
  0.12879325 -0.34563452  0.00404034 -0.0742431  -0.09190834  0.15171167
  0.24258213 -0.35349965 -0.35091358 -0.13874796  0.00251114  0.12626305
  0.03961294  0.27680624  0.2367709   0.13827123  0.1361714  -0.06596227
 -0.2363074  -0.37890813 -0.02511021 -0.09646875]
[ 0.107722   -0.20793237 -0.12815365  0.34364027  0.07969115  0.31841075
 -0.05118841  0.16573925 -0.29452726  0.2458734   0.00389198  0.00060316
  0.2282672  -0.00693248 -0.17741673  0.26089868 -0.10898812  0.03428406
 -0.17754677 -0.19891323 -0.16022657 -0.13011777  0.2453816  -0.15738922
  0.26978946 -0.24786934  0.321631    0.08516793  0.21231332  0.28185877
  0.000796    0.20462155  0.00184357 -0.13835232 -0.30463165 -0.42212754
 -0.2381297   0.20760739 -0.2715197  -0.0854824 ]
[-0.36443833  0.18614659  0.45214847 -0.3762833   0.18640913 -0.08540623
  0.2538119   0.23701629 -0.19531998  0.2429572   0.06218433  0.12087021
  0.21512808 -0.23388697  0.14697465  0.31354344 -0.1646124   0.00965741
  0.37519974  0.06435713 -0.15744877 -0.04301294  0.12129272  0.04982566
 -0.29089776  0.11904103 -0.194095    0.09402302 -0.02707413 -0.2335935
 -0.01775654  0.18334524 -0.03722017 -0.48196173 -0.71395147  0.37455666
 -0.3984627  -0.17357509  0.530538    0.41880795]
[-0.10790243 -0.00159136 -0.14216244  0.02547889 -0.00686102  0.01730702
  0.07312851 -0.00154025  0.20989211  0.0318663   0.25860593 -0.08661067
  0.00195122 -0.0798898  -0.00567508  0.11153155 -0.008013   -0.0471668
 -0.07309572  0.23416696 -0.19298173  0.05043144  0.00227884  0.02897368
  0.14022872  0.05082114  0.12805742 -0.05304174 -0.00924349 -0.03935117
  0.02140814 -0.10720187  0.29957864 -0.04675544 -0.01215306  0.16809464
 -0.062998    0.11499394 -0.12204673  0.1056574 ]
layer 3 Activation
tanh
layer 4 Dense
40 20
[ 0.09572612  0.20603697 -0.11217614  0.1327008   0.09602612 -0.00742257
 -0.0245609   0.05616649 -0.301922   -0.08991814  0.3711892  -0.24135235
 -0.13685854 -0.20417874 -0.27273148  0.20695546 -0.19396214  0.1323301
  0.09498196 -0.05802874]
[-0.09000587  0.17394955  0.10188782  0.07242486 -0.27108702  0.02770611
  0.21169816 -0.4977231   0.0801844  -0.02209308 -0.06344578 -0.19141398
 -0.32440466  0.53753316 -0.2738858  -0.04528632  0.13653086  0.10895884
 -0.24334356 -0.26012737]
[ 0.09266877  0.16384444  0.10334889  0.03097362 -0.2984448  -0.10723607
 -0.06654905 -0.39024967  0.01533643 -0.3192122   0.24629924 -0.18667066
  0.17109506  0.28798598  0.1970303   0.15653221 -0.08074746  0.04555288
 -0.00578345 -0.15795481]
[-0.04324124 -0.04901361 -0.1288069  -0.09991584  0.22184359  0.0165874
 -0.07318735 -0.07031748  0.36094898  0.13459767 -0.32552224 -0.27662516
 -0.3521621  -0.1098011  -0.41297394 -0.03835528 -0.09166779  0.06755314
  0.27491724  0.18070512]
[-0.20189777 -0.36222497  0.0535391   0.00038219  0.02946394 -0.33010855
  0.19057918 -0.06031404 -0.261146    0.1225237  -0.12753095  0.20815042
  0.28866243 -0.08722732  0.23963809  0.1988639   0.28580004  0.04618316
  0.28320432 -0.29963294]
[ 0.03087772  0.17205097 -0.20157537  0.2893292  -0.28432998 -0.16494797
  0.08928645  0.35665923  0.18990268  0.055344    0.20419085  0.01905536
 -0.12929326  0.08287321  0.1295246   0.23923436  0.09404233 -0.26743057
  0.12756242  0.04847568]
[-0.04375404  0.00166669  0.1883332   0.15375724 -0.2686482  -0.01641225
  0.17311482 -0.07099416 -0.22382218  0.03351891 -0.02807815  0.4436512
  0.17541443 -0.12138268  0.2566566  -0.14266104 -0.08138983 -0.20009951
  0.01877593 -0.04598873]
[ 0.21003531 -0.18377271 -0.02582382  0.05044984 -0.0346632  -0.1236002
  0.29526895 -0.07260712 -0.07251124  0.1183682  -0.06934481 -0.24629654
 -0.16915886  0.16212633  0.07714934  0.12068103  0.21375868  0.03605409
  0.02063306 -0.19306372]
[ 0.07269194 -0.03356368  0.05950843 -0.07748681  0.09038825 -0.01370589
  0.19492473  0.1864488   0.08631194 -0.21492474 -0.15093455 -0.09099965
  0.05777444  0.04929355 -0.05782242 -0.09403707 -0.34295508 -0.06469364
 -0.15062954 -0.04283028]
[ 0.23085783  0.21561787 -0.16197689  0.08383917  0.108634    0.17050093
  0.20079249  0.249927    0.026034    0.05916174 -0.09460718 -0.25311765
 -0.04958401 -0.03519414 -0.06808827  0.11636483 -0.17362922 -0.20053934
  0.07513374 -0.2736216 ]
[-0.133802    0.2963403   0.07739833 -0.2082134  -0.11658157  0.06624179
  0.02399367  0.20125188  0.26137805 -0.24667323  0.10380676  0.12146693
  0.12899767  0.09369889 -0.11106807  0.2594024   0.21931612 -0.30755785
 -0.00284596 -0.13825266]
[-0.13170752  0.15622365 -0.08226158 -0.15712464 -0.0690078   0.06476863
 -0.03151393 -0.01966799  0.1199563   0.15834318 -0.08584426 -0.42783898
  0.00755965 -0.09683622 -0.09760668 -0.09114385  0.05089151  0.18707415
  0.14055878 -0.12066349]
[ 0.21580006  0.05210958  0.25418097  0.04287273 -0.2823964  -0.04780322
 -0.06033263 -0.36637086 -0.03806369  0.11725792  0.00113594 -0.4419174
  0.19008277  0.2630296  -0.19180018 -0.0397267  -0.1512685   0.04234083
 -0.3311404   0.28747696]
[-0.11660027  0.50083643  0.24564175 -0.412851    0.25816014 -0.03821426
 -0.29045573 -0.06274182 -0.2734655  -0.16137041  0.18704754 -0.3053851
 -0.11133684  0.03768986  0.20426628 -0.41981044  0.01522949  0.01331316
  0.32244936 -0.0558847 ]
[-0.05127173 -0.09941904 -0.33686656 -0.02566437  0.12724273 -0.12641075
  0.20406778 -0.37893254 -0.29456723  0.19715238  0.19824354 -0.10841248
  0.01152044 -0.34428474  0.15407866  0.07924501 -0.20425197  0.04938404
 -0.277034    0.2486006 ]
[-0.05090998 -0.09292714 -0.08738538  0.31066844  0.16105817  0.16143656
  0.16444181 -0.16348852 -0.31135547 -0.2494245   0.30601424  0.21317472
 -0.09409218 -0.24593173 -0.00819888 -0.13453461 -0.02390276 -0.3496978
 -0.16375467  0.20096274]
[ 0.04958973  0.44301915 -0.1492262  -0.0898254  -0.1762714  -0.20715636
 -0.06784288  0.34462684  0.10412551 -0.13869563  0.05358158 -0.10740941
 -0.2306632   0.00728403 -0.30096602  0.24454731 -0.06503556 -0.18145432
  0.37211347  0.05404799]
[-0.00864179  0.16439351  0.25831896 -0.30809784  0.1838989  -0.17659132
 -0.06530383  0.26394305  0.23673144  0.09495914 -0.16291887 -0.16800417
 -0.15355346 -0.15641172 -0.32101125  0.07719852  0.14415081 -0.08662542
  0.0928878  -0.0419952 ]
[-0.0024326  -0.18593162 -0.08918229 -0.20760684 -0.09723441 -0.1459576
  0.1622924  -0.59670734 -0.2825657   0.22514676 -0.18829177 -0.51729107
  0.10372026  0.56628     0.440885   -0.2430552   0.24675655  0.05167713
  0.19650388 -0.00166589]
[ 0.10222533 -0.01441933 -0.14345165  0.17319249  0.18905    -0.24864404
 -0.31018022  0.14811395 -0.08799276  0.08010814  0.12300319  0.08716311
  0.24670558 -0.3827435  -0.2405406   0.08434771  0.07354756 -0.19307643
 -0.04117228 -0.1955464 ]
[ 0.08999494  0.06630027 -0.22738698  0.1475512  -0.24744917 -0.06722531
 -0.01542528  0.1753491   0.05548238 -0.22371767 -0.02676987  0.13573812
 -0.19310133  0.06830126 -0.1531264  -0.20169471  0.12661573  0.33292884
  0.17701256  0.00382593]
[-0.2600363   0.21240883 -0.06474247  0.00113039  0.15866251 -0.06920554
 -0.2921843   0.3327462  -0.12260021  0.28090116 -0.06038763  0.4384241
  0.11995463 -0.3483492   0.07266004  0.22672434  0.16931513 -0.19945711
  0.25770244 -0.00834525]
[-0.12052376  0.07046701  0.16752487 -0.24977934 -0.246644    0.2448924
  0.20923766 -0.0125883   0.05111671  0.059534   -0.29804546 -0.15746768
 -0.33023226  0.05939123 -0.10132007  0.39103886  0.18145537 -0.35829172
 -0.10192104  0.12729852]
[ 0.15955256  0.18306135 -0.13955177 -0.10286591  0.0457808   0.01126602
  0.25524044  0.15596549 -0.1333768   0.03614528 -0.3011845   0.04468374
  0.17504933 -0.04746697 -0.16350174 -0.04805443  0.0885879  -0.15236321
  0.19026622 -0.20040545]
[-0.04533922  0.08939289  0.34601194 -0.30703756 -0.18602054  0.18518431
  0.22955175  0.3959729   0.12914556  0.40688762  0.07408667  0.26349613
 -0.14462514 -0.11357418 -0.1832684  -0.15862164  0.14652714 -0.23936883
  0.09529593  0.17640723]
[-0.21095096 -0.3376908  -0.07399283  0.00387452 -0.18051195  0.14942235
  0.11561865  0.17755763 -0.03244284  0.21153992  0.01561694  0.2571361
  0.3352399  -0.21581368  0.13086972 -0.06557892 -0.20979185 -0.01428048
  0.23295076 -0.20422284]
[-0.22943187 -0.02325823 -0.05926049 -0.23153563  0.07606083 -0.13467057
  0.28078583  0.07004655 -0.20986837 -0.12579527  0.15900268  0.3524707
  0.36429948 -0.4013195  -0.04503391 -0.05900507 -0.01888349 -0.26902556
 -0.3153843  -0.21451232]
[-0.4190983   0.31975278 -0.2201335  -0.04712385 -0.15249096  0.18129095
  0.04700238 -0.5249719  -0.26132315 -0.05427239  0.23702613  0.10711393
  0.2618836   0.15346718 -0.15509814 -0.3748927   0.12503473  0.24842286
  0.05296536  0.07920828]
[-0.07784465 -0.21656108  0.04259064 -0.2795194  -0.00913127 -0.4038043
 -0.08693382 -0.076157   -0.23634204  0.05200391  0.03672648  0.20898403
 -0.13636477  0.00803763 -0.16120403 -0.1030182   0.05007918  0.19241408
  0.1640135   0.27031016]
[-0.14540994  0.12008358  0.36974132 -0.09286503 -0.13230307 -0.08134275
 -0.12978604  0.02562311 -0.16709016  0.19327995  0.2189627   0.1648245
  0.05759455  0.20263313 -0.0729429  -0.03059527 -0.2907889   0.20674884
  0.25926706 -0.05173711]
[-0.2570176   0.1418158   0.0976432   0.14918213  0.08290339  0.09129363
  0.21691652  0.0329501   0.17667383  0.11025718  0.14416657  0.0574266
 -0.16077153 -0.32595488 -0.19905356  0.20424183 -0.10370691 -0.24905165
  0.08871282 -0.09282412]
[ 0.17736208  0.03643236 -0.20199773 -0.15752994  0.06320829  0.14769901
  0.24109554 -0.30464575 -0.2013328  -0.15730862  0.09010033 -0.0280821
  0.23231925  0.1252889   0.3388538   0.10466165 -0.21568222  0.32520622
 -0.12533416 -0.02490095]
[ 0.23980078 -0.22256626  0.03257762  0.01472605 -0.18245146  0.17704928
  0.00109757 -0.03208096  0.06140126 -0.03213065  0.11402935  0.22570865
  0.06506374  0.0516521  -0.07591926 -0.23318057 -0.1514245  -0.2786725
  0.13361505  0.1832461 ]
[-0.01654152 -0.207791    0.08949433 -0.13343063  0.25211084 -0.1897886
 -0.23492633  0.13434058  0.1934619  -0.08659372  0.3006512   0.34696296
 -0.05051526 -0.3331449   0.13575783  0.12202072 -0.0061781   0.1279643
  0.33438075 -0.1023035 ]
[ 0.18988723  0.11113849  0.21077004 -0.05416786  0.32600865 -0.36133513
 -0.15790835  0.34757552 -0.10499895 -0.17794365 -0.11751364  0.15342331
  0.0065261  -0.4849134  -0.34891215  0.10628863 -0.18175183  0.38191605
 -0.15195115  0.23734081]
[ 0.40793267 -0.42602903  0.21598586  0.09117302 -0.21134079 -0.01602562
 -0.2887355  -0.30287808 -0.11043449  0.00431776 -0.09593056  0.05091535
  0.32180715  0.2056772   0.36670217 -0.19014531 -0.16246311 -0.19825938
 -0.17872988  0.1488316 ]
[ 0.29611522 -0.14852461 -0.306729   -0.21452245  0.145067   -0.20284906
  0.02973875  0.2681636   0.25043544  0.01624218 -0.19555596  0.09124092
 -0.15153216 -0.34541753  0.21260044  0.01552659 -0.0217423   0.01828725
 -0.02999974  0.16879731]
[-0.3769856  -0.02976499 -0.2391242   0.02103605 -0.22447607 -0.22870022
 -0.10892765  0.3574941   0.24492365  0.00691876  0.00510017  0.17567897
  0.30124176  0.04344724 -0.44236335  0.3708535   0.15268025 -0.06375089
  0.02465421  0.24838151]
[ 0.0177853  -0.25281665  0.070608    0.16365696 -0.16142182 -0.11626315
  0.30961066  0.06558399  0.07061818  0.22151634  0.09172161 -0.1919841
  0.22846341 -0.20034812  0.28290632  0.0452765   0.0883245   0.03194039
 -0.13813609 -0.03462915]
[ 0.3417513  -0.3958774   0.12982757  0.37552968  0.07400664  0.37245104
 -0.1957716  -0.17041488 -0.15926498 -0.20550479 -0.29996467 -0.02617129
 -0.21552384  0.04007145  0.26538473  0.25399393  0.11558428 -0.38333768
 -0.26065093 -0.13949592]
[-0.05767203 -0.08146422  0.02990964  0.02181384 -0.0185165  -0.04570632
 -0.01389903  0.08589529 -0.02020681 -0.03474837 -0.03907895  0.04507066
  0.03731563 -0.04608376 -0.03953428 -0.00208302 -0.09486319 -0.1440045
 -0.0026308   0.03758035]
layer 5 Activation
tanh
layer 6 Dense
20 1
[0.00742301]
[-0.07990627]
[-0.00626682]
[0.05004985]
[-0.07721882]
[0.07555892]
[0.01385436]
[0.02847394]
[0.01136519]
[0.00922795]
[-0.02758099]
[0.12518609]
[0.18269217]
[-0.07855735]
[-0.16406779]
[0.1756085]
[0.03011041]
[0.16974476]
[-0.01504863]
[0.00024182]
[-0.00807841]
