layers 7
layer 0 Dense
20 20
[ 0.36600217 -0.17771694 -0.35226893 -0.13455243 -0.03243526 -0.03616519
  0.38248554  0.19781576  0.3348744   0.05508662 -0.09497298 -0.01775119
 -0.29521316  0.013396   -0.27382624 -0.16628593 -0.3026792  -0.32211915
  0.05237038 -0.01791706]
[-0.19378063  0.20815404 -0.07940935  0.20332928 -0.16127351  0.08036405
  0.03405215 -0.06420653 -0.35485175 -0.5968044  -0.32373318  0.1253564
 -0.18911888 -0.46728536  0.22060138  0.11870564 -0.4717408  -0.25900075
 -0.49096674  0.0949956 ]
[ 0.06426623 -0.43253496 -0.5569609  -0.39174393 -0.1838684  -0.11314383
 -0.10103123 -0.5166894  -0.07307834 -0.35837078 -0.4293463   0.38380328
  0.00875652  0.2548847  -0.35135803 -0.14864129  0.00896404  0.16929644
  0.16956764 -0.06645731]
[ 0.38715988  0.10642961  0.1511491  -0.08885507  0.32779753 -0.28333563
  0.09495435  0.12112957  0.01862916 -0.21695009  0.03526679 -0.29597226
  0.02438151  0.4625798  -0.4516829  -0.06713544 -0.25388798 -0.15694754
  0.11858451 -0.10208049]
[-0.13792674  0.05611312  0.04034491  0.13702664 -0.20491752 -0.30311984
 -0.22843882  0.02355686 -0.04544376  0.07307919  0.14171837  0.11330525
  0.11175218 -0.20029494  0.26832116 -0.2187941  -0.05224589  0.41507864
 -0.04064032 -0.25419927]
[-0.099509    0.34190327  0.23941243  0.16620383  0.24921927 -0.10638957
  0.23205853  0.07907528  0.40000826  0.40607288 -0.15322228 -0.18593317
 -0.06792156  0.49947706 -0.02271102  0.0411046   0.00669658 -0.07797822
  0.513067    0.20258825]
[-0.2785986  -0.11820719 -0.05578005  0.20006268  0.36268336  0.13897918
 -0.22041222  0.5168732   0.28110296  0.22221516  0.42726785 -0.22104362
 -0.15895921  0.0290117   0.3452767  -0.07099165  0.09887967 -0.125088
  0.43672058  0.25604117]
[-0.11507364  0.48290062 -0.3307278   0.214417    0.25952712 -0.0379646
 -0.37976062 -0.03552947  0.35935888 -0.28655893 -0.2363376  -0.05613378
 -0.01934384  0.19132812  0.30764216  0.00871133  0.32483706  0.49084547
 -0.2849673   0.45126337]
[-0.20705177  0.13537608 -0.18699947 -0.1660564  -0.281353    0.49794272
  0.20575646  0.03805204 -0.15054336 -0.04692662  0.2440994  -0.24851787
 -0.02764202  0.30687588 -0.2815124  -0.05516612  0.08568554  0.2768359
  0.03045294  0.21168938]
[ 0.4526938   0.3401668   0.14043352 -0.21164832  0.02971949 -0.0680555
 -0.3045162  -0.00341287 -0.10961986 -0.29403865 -0.20256887  0.40383306
 -0.5003704   0.05603869 -0.03571501 -0.3130472   0.31084     0.42571795
 -0.12494132  0.07431   ]
[ 0.33406454 -0.22203037 -0.20142177 -0.09100165  0.31508517 -0.08845768
 -0.15078087  0.38061073  0.2661605   0.0303466  -0.04938951 -0.32474175
  0.21941009  0.2847627  -0.36846086 -0.23189987  0.1096256   0.28460222
  0.38509107  0.07127205]
[ 0.35776356 -0.3503345   0.07963478  0.05945444  0.38523182 -0.58900917
 -0.10219974 -0.14154682 -0.5446739   0.10302032 -0.37067387  0.3951856
  0.1476171  -0.11714716  0.05394631  0.05214393 -0.56357515 -0.07171017
 -0.11569717  0.07905571]
[ 0.36553508 -0.12301357 -0.25595835  0.1897982   0.26779607 -0.1741266
 -0.25076225 -0.22651835 -0.04030116 -0.24390383 -0.02510082 -0.0319513
 -0.03662322  0.38266775  0.07542334 -0.02440258 -0.41713002  0.07989045
 -0.24744476 -0.09374881]
[-0.16299012  0.32906535  0.38846198 -0.34972486  0.14365324  0.11138862
  0.21585149  0.08184562 -0.4987479   0.61476725  0.12975919 -0.4179889
  0.2571264   0.1402285  -0.28279626  0.7669523  -0.00185431  0.17742829
  0.39628902 -0.2819018 ]
[ 0.01212404 -0.16881709 -0.0737199   0.49138504 -0.41551518 -0.27568337
  0.11707301 -0.11561523 -0.19810669  0.5796194   0.46445394  0.19611974
  0.27986872  0.22097345 -0.35503164  0.16065136 -0.10680837  0.19886844
 -0.40614128 -0.13357967]
[-0.7441517  -0.16955471  0.0233267   0.35032654 -0.7113646   0.2996403
 -0.13744965 -0.35611445  0.41457698 -0.66942865  0.69244236 -0.479054
 -0.02483664 -0.09657002 -0.75721836  0.57300925  0.6335563   0.38184968
 -0.01673732  0.50090575]
[-0.0683337  -0.12364429  0.34270343  0.11981935  0.23616403  0.20843889
  0.09328976  0.00343753  0.36523202 -0.29817042 -0.00550648 -0.17472172
 -0.22523604 -0.1867383  -0.12320706 -0.07536896  0.14947374 -0.22568934
 -0.20065325  0.1323769 ]
[-0.44826403  0.23069833 -0.09067058  0.2729606  -0.1242414   0.1702462
 -0.10650708 -0.20338507  0.05631351 -0.0184115  -0.24656574  0.52142483
  0.31854585  0.11811101  0.12068731 -0.31457198  0.04881702 -0.19955626
  0.29583102 -0.27779296]
[-0.36120924  0.00118879 -0.15557364 -0.24633358  0.4373865   0.00908379
 -0.03491874  0.21666454  0.3608712  -0.2612831  -0.09090596 -0.1132213
  0.19064608  0.3246333   0.00242802  0.0829084   0.16735552 -0.18998897
 -0.07521769 -0.12651993]
[-0.24455388  0.07087801  0.18696302 -0.1544511   0.43235162  0.01722594
 -0.2977893   0.36273986 -0.41973898  0.36570123 -0.04496112  0.10293766
  0.30989182 -0.43993065  0.09834947 -0.45998275 -0.3398356  -0.07768603
  0.17915566 -0.26504984]
[ 0.03439107 -0.08766378 -0.02254612 -0.03519672 -0.04391639 -0.04488198
  0.09305196  0.01655648  0.01816476 -0.03456346  0.04578476 -0.13018295
  0.00436202  0.05470007  0.00360717 -0.00130413 -0.03220558 -0.16625771
 -0.00029479 -0.07717855]
layer 1 Activation
tanh
layer 2 Dense
20 40
[-0.25565344  0.06329805  0.45253804 -0.1813995  -0.10748872  0.1627406
 -0.10315785  0.11012469 -0.20160381 -0.27278212 -0.2728365   0.43930265
  0.4116292   0.01284506 -0.25136998  0.03925817 -0.00790407  0.27755794
 -0.06397445 -0.26394555  0.23055232 -0.20681505 -0.27027658 -0.09988221
 -0.25066185 -0.04249693 -0.0377324  -0.1816159  -0.29720816  0.01015192
 -0.07989942 -0.00637125 -0.05067118  0.14363591 -0.20498139  0.15731613
  0.35315344  0.3197132   0.33971772 -0.0457924 ]
[-0.09748109  0.04180551 -0.3137513  -0.15372787  0.22489165  0.09537289
  0.08983405 -0.14319307 -0.00910914 -0.20053574  0.09508216  0.17505078
  0.01651919  0.28757066 -0.09468868  0.29137316 -0.17560631  0.30190372
  0.24157694  0.0115147  -0.01820333  0.02149376 -0.12342061 -0.23677635
  0.00461561  0.04585702 -0.06448743 -0.05499736 -0.18865435 -0.2331013
  0.27264664 -0.17132036  0.27367073 -0.0311555   0.11383838  0.24919993
 -0.03323408  0.20873566 -0.16323648  0.24208993]
[ 0.32496297 -0.22605318  0.2862775   0.135802   -0.02570194 -0.13654526
  0.12459014  0.18978176  0.03759548 -0.03259095  0.22033109  0.02711302
 -0.28674033 -0.14632823 -0.17703715 -0.06794206  0.07365364 -0.02109993
 -0.15346748 -0.26030937 -0.01758316  0.1729569  -0.26169413  0.3859415
 -0.0865097   0.14509173 -0.11960115  0.1768245   0.00938416 -0.29076958
  0.23976836  0.16552064  0.05602016  0.23584718 -0.10898667 -0.27327487
  0.11572739  0.20507015 -0.16897957 -0.16731557]
[ 0.19178896 -0.38028726 -0.33582547 -0.15595329  0.30495414  0.01791626
 -0.16080594 -0.257685    0.22114834  0.2944548   0.09145121  0.20604454
  0.01603383 -0.22675076 -0.12641303  0.19429615  0.35578555 -0.24688298
 -0.05788244 -0.27424228  0.18191364 -0.11793604 -0.28100774 -0.02359224
  0.14329243 -0.3397286  -0.15824759  0.09822817 -0.17097591 -0.2894328
 -0.16211575  0.12988845 -0.31289583  0.11515173 -0.02096284 -0.17996615
  0.26751688  0.00590375 -0.11440341  0.14409874]
[-0.18283758  0.27014166  0.02887839  0.25910252 -0.18351476  0.15534496
  0.13324842 -0.24448869 -0.07720468 -0.43173367  0.19154386  0.18680336
  0.1877992  -0.41046473 -0.23198812 -0.09717737 -0.18030256  0.03725698
  0.29199114  0.16307503  0.06032585  0.30136132  0.03554127  0.09814254
  0.2754214   0.1109374   0.243318    0.25688815 -0.26334625 -0.07850923
  0.12069106 -0.05698039  0.2024146   0.10201079 -0.13988405  0.08612471
  0.1338427   0.33135745  0.3815665   0.33724913]
[-0.05415923  0.01940648 -0.25081068  0.3717485   0.1464955  -0.11747709
  0.133334    0.31108803 -0.2702598  -0.22938864 -0.19044188  0.15241528
 -0.19497511  0.27068764  0.26150602  0.0727364  -0.1285602   0.29283118
 -0.01874656  0.18004051 -0.25769287  0.34622172 -0.03284995 -0.01663667
  0.2803857  -0.14335686 -0.19464192 -0.10591393 -0.24253628  0.11140035
  0.1094123  -0.01105884  0.09863397  0.13805762 -0.15939616 -0.14719407
 -0.23877549 -0.23542437 -0.26479143 -0.01847208]
[-0.24755916  0.2235893  -0.19867077 -0.24070175 -0.1416366   0.25473142
 -0.30154622  0.33566785  0.26806563  0.20880972 -0.15784621  0.0045386
 -0.06130616 -0.24111547 -0.23294918  0.00465688 -0.02845699  0.04287495
 -0.11673715  0.28756163 -0.28050065  0.23416689 -0.01467069  0.09756887
  0.04561634  0.10705714 -0.11856561  0.24173877  0.03940473  0.1530505
 -0.00640803 -0.3654448   0.01977765  0.14345005 -0.01757336  0.22243458
  0.08278888 -0.14308116 -0.03149861  0.3181793 ]
[-0.07017511  0.30871487 -0.01363346 -0.16638708 -0.37076056  0.25602186
  0.11522472 -0.2927071  -0.05303508 -0.05720335  0.07262476  0.15689659
 -0.21015583 -0.16961001 -0.0824445  -0.23038818 -0.39276356  0.08155255
  0.24020676  0.1871674  -0.28532228  0.4771211  -0.28429636  0.17054273
 -0.28283393  0.06338887  0.0945757  -0.04644008  0.31454578 -0.1283434
  0.09959924 -0.09650721 -0.15466866  0.2608176  -0.24247578 -0.08431394
 -0.12346414 -0.21165985 -0.00272793  0.15541098]
[ 0.07195187 -0.14051408 -0.13705093  0.20207457 -0.3749294   0.0649223
 -0.1254767  -0.28226298 -0.18071482  0.1014147  -0.30627343  0.0792026
 -0.01878138  0.08630339  0.09739642  0.00220076 -0.19821599 -0.21046424
  0.29587725  0.20651574 -0.06095501  0.02314961  0.119398    0.09658239
  0.33342034  0.15719292  0.18735734 -0.1602782  -0.42305413 -0.03719291
  0.14534996  0.01506786  0.3087616  -0.38233915 -0.2346789  -0.13546078
 -0.12215245 -0.38210377 -0.07254759  0.34727347]
[ 1.93323031e-01 -6.05680980e-03 -3.07337344e-01  2.04131246e-01
  2.43633658e-01 -6.48231581e-02  1.65856436e-01  1.14235193e-01
  3.19886774e-01 -2.72911876e-01  3.88757408e-01 -2.93933064e-01
 -1.15811080e-01 -1.97059736e-01 -3.14594090e-01 -1.17789119e-01
 -4.21499610e-01 -1.48399849e-04  4.43363655e-03 -2.88986359e-02
 -2.69904017e-01  1.00038022e-01 -5.33787012e-02  1.59735337e-01
 -6.23509027e-02 -1.88387688e-02  1.67905137e-01  3.17380190e-01
 -6.55022264e-02 -2.32101321e-01 -1.92412645e-01 -1.84639283e-02
 -2.43264943e-01  3.20255846e-01  6.42891079e-02  3.42332304e-01
  2.88210988e-01  1.74587265e-01 -6.94066510e-02  1.09577596e-01]
[ 0.05852913 -0.00462392 -0.04650072 -0.21213678  0.00304335  0.04943452
 -0.08736065  0.10617985 -0.2848272  -0.13198812 -0.01582664 -0.1832929
 -0.36746022  0.22208132 -0.09420882  0.18940943  0.22649178 -0.24274607
 -0.23800732  0.3214839   0.14240584 -0.00485868 -0.10318272 -0.04461609
 -0.47363168  0.09293853  0.37323648 -0.15586103 -0.20808412  0.24898507
  0.137609   -0.1340454  -0.10364488 -0.21686977  0.15323958 -0.19353431
  0.33320573 -0.30270123 -0.18376322  0.16110656]
[-0.16178128 -0.03955218 -0.06998926 -0.28417656  0.01527828 -0.09569613
  0.2236628  -0.26609313 -0.35091338 -0.14806129  0.19496047  0.14168128
  0.43600783  0.26063505 -0.03876596  0.14864005  0.25536782 -0.06855854
 -0.01271558 -0.16894935  0.32542685 -0.2520421   0.29086307  0.09089314
  0.14556699 -0.37200132  0.12424302  0.0093987  -0.02450103 -0.22606637
 -0.00460258  0.39039913 -0.47320712 -0.2184825  -0.01149691  0.34148222
 -0.2420484   0.07527532  0.3560176   0.1689588 ]
[-0.21545304 -0.24339028  0.2611721   0.19912171 -0.18165816  0.31814593
  0.01488097 -0.08740308  0.287667   -0.0798021  -0.1057734  -0.08155287
 -0.1266816  -0.22582279 -0.19337408 -0.2958104  -0.12715605  0.02714323
 -0.3540578   0.06853283 -0.26888418 -0.12571321  0.0930035  -0.20784411
 -0.01830517 -0.26772144  0.13382955  0.10072322 -0.05567976  0.11867784
  0.0288463  -0.24625468 -0.07526332  0.26063198 -0.11661138  0.35669458
 -0.10387285 -0.37183127 -0.24520814  0.0044134 ]
[ 0.04445937  0.13744774 -0.05831422 -0.06151828  0.04854165 -0.18868433
 -0.21712533  0.06529213 -0.37500376 -0.15842436 -0.00122258  0.15826981
  0.2883554  -0.01765726  0.16422376  0.333843   -0.03391766 -0.13488144
 -0.10179479 -0.17944759  0.19305459  0.15340279  0.25663847  0.29097608
 -0.05796852  0.08375125 -0.00239475 -0.00765403 -0.23327938  0.01247052
  0.08901109 -0.07704204  0.10882658  0.14897504  0.16967742  0.23251484
  0.16306859  0.11334606 -0.2763635   0.11412321]
[ 0.06630579  0.2745269   0.13644168 -0.18642282 -0.2561543   0.07810285
  0.116767   -0.11959362 -0.08335002  0.03518192  0.20621675 -0.02990409
 -0.18734124  0.25824273  0.22300886 -0.26054755 -0.13782991  0.3503219
  0.19037604  0.31011075  0.09998124  0.16213012 -0.02124667 -0.13265128
 -0.02184068 -0.1647619  -0.19019383 -0.11078418  0.26510975 -0.21930106
 -0.03249324 -0.16399154 -0.10711483  0.0489437   0.00987684 -0.22595121
 -0.28811377 -0.05992369  0.30745068  0.00468997]
[-0.03130474 -0.15029682 -0.14217563  0.24421439 -0.25924936 -0.15928032
  0.3044686   0.08896928  0.13982895 -0.2844667   0.06377148 -0.25539702
  0.32498798  0.06799249 -0.39773384  0.40128538 -0.17634442 -0.13802722
  0.11667137 -0.21760198 -0.05652632  0.10404122 -0.07586992  0.35832855
 -0.369004    0.02814642  0.41800523 -0.26150742  0.33552748  0.08730756
 -0.23092474 -0.30089647  0.06693981  0.04249896 -0.08943459 -0.30107367
 -0.07721752  0.00655933 -0.21273747 -0.35969788]
[-0.04874745  0.13969432 -0.16638382  0.26688784 -0.23382527  0.18721071
  0.11228168  0.08220346 -0.15957545  0.31981188  0.2494575   0.09064144
  0.09990521 -0.16823505  0.22137031  0.19576147  0.06690895 -0.18109049
  0.03895742 -0.01290214 -0.15542261  0.10705213 -0.05177892 -0.05521962
  0.20763774 -0.13920885 -0.06616312  0.14713043 -0.293067   -0.13931678
  0.3513974  -0.08165346  0.28372923 -0.12085318 -0.33389935 -0.024346
 -0.34624374 -0.3792328  -0.1248341   0.21296354]
[-0.02050689  0.15415807 -0.17454629  0.29705226  0.11107615 -0.05860911
  0.13300644  0.1765315  -0.25301415  0.03430007  0.15597898 -0.29503375
 -0.28522703  0.10956649  0.20035042  0.00398345  0.3158594  -0.13091718
  0.11787499  0.36819682 -0.10219134 -0.09955613 -0.19231202 -0.3627132
  0.19905381 -0.24912931 -0.21725088  0.17678264  0.25665998 -0.13436818
 -0.03670705 -0.2870881   0.11130258  0.17350003  0.15852237 -0.24826446
  0.20098786 -0.2966087  -0.24648546 -0.12982768]
[ 0.20727274  0.2102612   0.03212288 -0.22687246 -0.2996084   0.01061859
 -0.31446254  0.31034714  0.17013223  0.03301071  0.11591075  0.04580081
 -0.17283048 -0.12414695  0.35863087  0.0234043  -0.17694569 -0.10677174
  0.0239756   0.1381915  -0.00565691  0.12987098  0.08487532  0.23411639
 -0.08425275  0.4172147  -0.17983744 -0.20231982 -0.09214941 -0.20547915
 -0.2995181   0.18987003  0.3005181   0.20496556  0.30797288 -0.15177035
  0.13989349 -0.28601035  0.15710561  0.06158863]
[-0.15246268  0.0806508  -0.10437506 -0.24413826  0.18290576 -0.21396887
  0.13768609 -0.04299293 -0.26506022 -0.14831467 -0.18657108  0.20643008
 -0.34095117  0.08308683  0.03164453  0.14956102  0.14512195 -0.23845999
 -0.22398633  0.25990134 -0.29139185  0.2950213  -0.00342194  0.06822301
  0.09138268 -0.14898644  0.07916838  0.1185167  -0.35648224  0.26215452
  0.2995069  -0.03212598  0.09038421 -0.15857753  0.03989098 -0.09686645
  0.27304882 -0.41888112 -0.0566606  -0.14364   ]
[-0.04889487  0.02743158  0.08322654 -0.07025596 -0.03580132  0.07613097
 -0.10862773  0.04126973 -0.03337254  0.03159665  0.05402759  0.02781785
  0.04795604 -0.13079579  0.01037846 -0.11702526 -0.05845004 -0.0459916
 -0.00225231 -0.06146475  0.06322443 -0.06760507 -0.03186581  0.04812035
 -0.1362628   0.07064663  0.0507299   0.02022171 -0.01194616  0.07200679
 -0.05781576 -0.01501902  0.08243299 -0.00506975  0.14704594 -0.00928458
 -0.01744211  0.00235371  0.00732961  0.01744596]
layer 3 Activation
tanh
layer 4 Dense
40 20
[ 0.13681589  0.01691999 -0.14799578  0.0749428   0.13528584 -0.08974987
  0.1437102   0.19205733  0.06793351 -0.25854808 -0.06043596  0.19311683
 -0.00734663  0.09721442  0.17778197  0.14928046 -0.3906951  -0.23615174
 -0.00326493  0.02102078]
[-4.08635214e-02 -3.43417615e-01 -1.51608046e-02  3.82123850e-02
  9.50495899e-02  4.38960120e-02 -5.95780788e-03 -2.30808288e-01
 -1.07987255e-01  3.02321315e-01 -8.03569108e-02  2.34458014e-01
  2.42217124e-01 -4.27132212e-02 -1.06371447e-01  7.93311559e-03
  5.26934922e-01 -4.49886051e-04  2.11896583e-01 -1.16707429e-01]
[-0.3750445  -0.06625184 -0.14059897 -0.26201746  0.11034267  0.00695295
  0.04366658  0.13528167 -0.3188481   0.22973944  0.28735915 -0.08653019
  0.12723882  0.01622914  0.03529079 -0.32737565  0.05306068 -0.19470309
  0.13872227  0.12572421]
[ 0.33446577 -0.18787533 -0.1225006  -0.05997156 -0.05723865 -0.22772382
  0.1357825   0.1200984  -0.03276856 -0.06708331  0.22467062  0.02670862
 -0.3421353  -0.15527749  0.23218644 -0.24287277 -0.28812152  0.10050675
 -0.01763823 -0.24306643]
[ 6.0845569e-02  2.5586158e-01  2.0611000e-01  2.6788709e-01
 -3.3305052e-01  1.3545474e-01 -2.7657812e-04 -3.3762771e-01
  1.5494926e-01 -2.1756923e-01 -2.0014742e-01 -5.2384254e-02
 -1.6237159e-01 -2.2967368e-01  1.3006382e-02  1.3932649e-03
 -1.9234000e-01  2.3683013e-01 -2.6189712e-01 -2.0128590e-01]
[-2.3853493e-01  9.7970627e-02  2.7469983e-03  1.0350687e-01
  1.5756109e-01 -2.5305474e-01  1.3798586e-01 -1.7916559e-01
 -4.7977503e-02 -5.3316075e-02  3.2337964e-01  3.7761852e-02
  2.2555754e-01  7.3685147e-02 -2.3382038e-01 -4.6157059e-03
  1.7483486e-01 -2.3308566e-01 -2.0268266e-01 -5.8964535e-05]
[ 0.32863858 -0.17716718 -0.41093808  0.30576068 -0.22557922 -0.17099014
  0.00665714 -0.05251822 -0.35600376  0.2902909   0.09956182 -0.09065018
 -0.09133704  0.0543474   0.10552649 -0.28001094 -0.02405005  0.21562755
  0.31712466  0.21285227]
[-0.05331267  0.07119499  0.03670724  0.2096123   0.18735634  0.1947796
 -0.00674071  0.01109953 -0.21050356  0.02227996  0.25303036 -0.21330859
  0.12727371  0.37321633 -0.05715741  0.06968604  0.2605425  -0.20202568
 -0.11972625 -0.09625286]
[ 0.23513025  0.24603523 -0.24841383 -0.13559806 -0.12934607  0.15303826
  0.00939584 -0.17026147  0.07773526 -0.03210285  0.12286554  0.2992476
 -0.25277784  0.13423294  0.02939408  0.07465927 -0.41259032 -0.01731518
 -0.21764927 -0.23855   ]
[-0.16886087 -0.06047297  0.2823216   0.13000093  0.09510808 -0.1135328
 -0.00529125 -0.00912569  0.22388165 -0.10441447  0.11679269 -0.3394281
  0.14009793 -0.10600882  0.13257082  0.1811767  -0.06521916 -0.16977432
  0.03637679  0.01150951]
[ 0.35877326  0.05025648  0.06658977 -0.27553174  0.1889432  -0.30884254
 -0.18752071 -0.09123118 -0.03155     0.17183147 -0.2281046   0.35820186
  0.1800952   0.22724262 -0.20718472 -0.14594007 -0.22946893  0.30097184
  0.27744165 -0.19077641]
[-0.29435906  0.14226541 -0.3065888  -0.1874006   0.09527799  0.29799116
 -0.16581854 -0.17335267 -0.25905788 -0.17206122 -0.25891683 -0.2776838
  0.02116162 -0.16641383  0.08483297  0.08900713  0.05102611 -0.0623955
  0.17719488  0.00857612]
[-0.23468336 -0.34492084 -0.00965585 -0.35205463  0.14353412  0.14881715
 -0.02969697  0.11865415 -0.24493447 -0.11831779 -0.26970646 -0.11142045
  0.17342873 -0.07062829 -0.07490027 -0.21391745 -0.25649437 -0.24408723
  0.21152462 -0.3111014 ]
[ 0.1981759  -0.10421244  0.17393272  0.32145745 -0.01458846 -0.31816593
 -0.14367226  0.11127343  0.27184218  0.03686509 -0.00429069 -0.13320963
  0.00471751 -0.34185115  0.20750342 -0.03562099 -0.2761667  -0.22315288
 -0.0287002  -0.22606827]
[ 0.1989681   0.34043103  0.2563125   0.23183037  0.25615266 -0.13271739
  0.09240635 -0.13372219 -0.1696048   0.07183606 -0.13118605 -0.27063465
 -0.05549246 -0.19871484  0.0553873   0.14082251 -0.20567666 -0.05639622
 -0.12628122  0.01849869]
[-0.10207281 -0.3125268   0.03665626  0.1359698  -0.21289888  0.02403967
  0.04548441 -0.2072709  -0.01132588  0.24177656  0.1231292  -0.00279661
 -0.33156005  0.00094162  0.03320186 -0.2984198  -0.19001041  0.09715703
 -0.14378294 -0.15961096]
[ 0.05612534  0.3398284  -0.11186586  0.24321492 -0.35369456 -0.32667708
  0.13449287  0.28744406  0.27172288 -0.03573152 -0.35380682 -0.3246916
 -0.27610475 -0.20841242  0.28707767  0.28026882  0.30940086 -0.22808167
  0.20446864  0.09878228]
[ 0.25642735 -0.36416867 -0.13267696 -0.3172788  -0.04365563  0.00805869
  0.18089396 -0.2923776  -0.22327387  0.12175741  0.13560294  0.23888913
 -0.30531615 -0.33448794  0.18328995 -0.20735432  0.13752371 -0.24433456
  0.21563557 -0.23249052]
[ 0.07171944 -0.18210818  0.17313717  0.05801808  0.02567402  0.23542646
  0.11243487  0.31497657 -0.38230512  0.02606695 -0.15236948  0.18555157
 -0.30083779 -0.33168238 -0.07076883 -0.04025131  0.27475876 -0.11162727
  0.19771107 -0.10861891]
[ 0.3009525   0.3175224   0.04489031  0.05222837 -0.0183074  -0.01490429
  0.3350393  -0.0507433  -0.02105887 -0.18030593  0.04477615  0.30615142
  0.10304358 -0.14467828  0.00181113  0.35014147  0.11344019 -0.12821802
  0.31582475  0.13350385]
[-0.3179405  -0.11142225  0.13915548 -0.32692194  0.10861572 -0.12784228
  0.30584195 -0.12115014 -0.23291484  0.1525488  -0.26150432 -0.39613113
 -0.08088913  0.15948641  0.1700858   0.01530753 -0.03835346  0.1161672
  0.10132983  0.0070128 ]
[ 0.1284174   0.21366626  0.1481209   0.24113464  0.14625512 -0.18024434
  0.24068727 -0.07076181 -0.27063653  0.31423935  0.35731027  0.4004255
 -0.10646626  0.13166772 -0.16514628 -0.3135623  -0.0801022   0.4348749
 -0.1426878  -0.21678773]
[ 0.26394328 -0.19056852  0.17137092 -0.25602552 -0.11205755 -0.16473208
  0.1971734   0.2864777  -0.04096785  0.01989399 -0.09502853 -0.06299897
 -0.27222934 -0.10976714 -0.32176247 -0.1318647  -0.2356696   0.10158733
 -0.05190651  0.04923315]
[-0.26772955 -0.1722823   0.18691051 -0.26376066 -0.0404826   0.1906725
  0.21960092  0.03512432  0.3218457   0.12841626  0.14763977  0.2071938
 -0.10025326 -0.1289171  -0.09435454 -0.06337291 -0.28564414  0.15830944
 -0.21130405 -0.24044704]
[-0.10956401  0.2513555   0.09650833 -0.07498494 -0.00312727 -0.01873875
  0.13989757 -0.08137888 -0.03277204  0.10388464 -0.08569968  0.28186768
 -0.258707   -0.27866915  0.20678437  0.17677978 -0.32160142  0.07538559
 -0.03279186 -0.22396356]
[-0.23166022 -0.1728789   0.18156563  0.00436336  0.34051734  0.10479842
  0.2322479   0.06363084  0.19104566  0.22808598  0.15939164  0.14177792
  0.2983336   0.10533205 -0.31379968 -0.13641256 -0.21055362 -0.04330842
 -0.2431858  -0.17091936]
[-0.08219306 -0.21595182  0.03023152 -0.1442195  -0.2059129   0.14141956
 -0.09437129 -0.20033069  0.01936126 -0.19810417  0.00409624  0.23721944
 -0.28774258  0.36635953 -0.1496806  -0.15465392  0.10181206 -0.23868899
 -0.22699532  0.19251987]
[-0.02271952  0.01603446  0.00468044 -0.2074158  -0.10032572 -0.10665376
 -0.30935937 -0.00343935  0.24546884  0.04051876 -0.14414583  0.33014894
  0.09243333 -0.10734756 -0.02873316  0.28284878  0.2712767   0.2792737
  0.27390224  0.062929  ]
[ 0.1294563   0.12848943  0.15457048 -0.2527648  -0.2468251   0.16158001
  0.11156312 -0.17055628  0.313613   -0.07372651  0.2813199   0.26597887
 -0.1088947   0.17311631  0.22943282 -0.04778343 -0.05478138  0.11828973
  0.12689716 -0.07787166]
[ 0.08890734 -0.13411647 -0.24517325 -0.07459503  0.08759298  0.17434785
 -0.15261544 -0.2790957   0.29297748 -0.22566856  0.02398827 -0.05451567
  0.05486765  0.11687768 -0.22955775 -0.0913055  -0.117379   -0.24772398
 -0.06217349 -0.08021839]
[-0.01408965 -0.09563084 -0.17368552  0.4618785  -0.02889745 -0.06098211
  0.160059    0.18371078 -0.22765785  0.3190446  -0.07071539  0.1608007
 -0.16514991 -0.13726702 -0.23787437 -0.04533861  0.33574656 -0.21138206
  0.14309509  0.33322877]
[-0.08555566  0.25621432 -0.27172318 -0.23827013  0.19367371 -0.16291353
 -0.30109832 -0.04946708  0.01335602 -0.21162729 -0.16309501 -0.205499
  0.0515513  -0.26224658  0.13475268  0.1439828   0.13089609 -0.3096819
  0.13622257  0.22719593]
[-0.12034104 -0.23402753  0.00080634  0.03236407  0.18325208 -0.1938619
 -0.07118103 -0.17505932 -0.23202349 -0.11429232  0.31440702 -0.1707173
  0.07746271  0.24515133 -0.1619216   0.01059455  0.28876832  0.02457341
  0.00068235 -0.27929723]
[ 0.0938626   0.08648683  0.04227465  0.02738157 -0.15200742 -0.02314452
  0.12321422 -0.02498239 -0.16046917 -0.33989248  0.19277744  0.36400068
  0.27389064  0.24511665  0.08794781  0.11069848  0.00793113  0.00185612
 -0.12465248 -0.22516482]
[-0.19722456 -0.08601396  0.015731   -0.09144972 -0.10391236 -0.06591662
  0.34015244  0.19319609  0.18347195  0.16073823 -0.04896783  0.08159588
 -0.00849822  0.16874748 -0.21993415  0.02723349 -0.20054375  0.20769364
 -0.26202363  0.12190402]
[-0.00263381  0.04058976 -0.02589602 -0.37687188 -0.04440055 -0.16530988
  0.18566294  0.06048593 -0.18023787 -0.14197542 -0.3011058   0.12316376
  0.15256178  0.09556199 -0.1811675   0.22367892 -0.12089313 -0.10788525
  0.24352184  0.2891451 ]
[ 0.06472839  0.23054703  0.26583394 -0.22093989 -0.13416117  0.2535182
  0.2026321   0.0340772   0.21758968 -0.2924515  -0.02152165  0.03036617
  0.20366326 -0.13739154 -0.07244741 -0.24123888 -0.1593266   0.29004395
 -0.12936968 -0.11560799]
[-0.33609816 -0.25652045  0.01738213 -0.31098485 -0.1533908  -0.10737094
  0.01864651  0.2431547  -0.08921777  0.01220242  0.04684146 -0.03826217
 -0.10611147  0.10261654  0.17477956 -0.34460127  0.13769811  0.05010178
  0.2133427   0.1912524 ]
[ 0.17301644  0.2918949  -0.04171865 -0.33069092  0.22547677 -0.17191324
  0.3190836   0.04039228 -0.1991946  -0.04373843  0.03607966  0.17956169
  0.26486552 -0.08287792  0.2937226  -0.10229807  0.20020413 -0.23606089
 -0.29007152  0.16676778]
[ 0.22227283  0.10444184  0.1320482  -0.09588163  0.3156816   0.12387322
 -0.02138198  0.17317113 -0.23253897  0.34213775 -0.00075573 -0.13597207
 -0.01371238 -0.12730463  0.07037055  0.41581878  0.16627342  0.19102179
 -0.09328172  0.0493023 ]
[-0.07347345 -0.00835841 -0.02744166 -0.08037329  0.0500839   0.06068216
 -0.03586392 -0.06403083  0.02836884 -0.03182691  0.02777974 -0.0488108
  0.02880923  0.08100183 -0.04084129  0.00698246 -0.01028002 -0.02832043
 -0.00138899 -0.00162603]
layer 5 Activation
tanh
layer 6 Dense
20 1
[-0.20450138]
[0.0689322]
[-0.01363306]
[0.24274269]
[0.2879433]
[0.09705961]
[-0.02002611]
[0.00408612]
[0.25550628]
[0.06211915]
[0.21119668]
[-0.14644304]
[-0.29713017]
[0.21680792]
[-0.1913088]
[0.15042327]
[-0.06072924]
[-0.05565113]
[0.2982977]
[-0.01084728]
[0.0271187]
