layers 7
layer 0 Dense
20 20
[-0.05503348  0.14584649  0.4489648   0.25949904 -0.11595371 -0.22674386
 -0.26107907 -0.49479595 -0.19632229  0.02767933  0.3308704  -0.05598921
  0.12528208 -0.17228694 -0.03550814 -0.43055987 -0.06072674  0.00797548
 -0.35845008  0.16183859]
[-0.17475939 -0.3690392   0.5974993  -0.5232946  -0.19072023 -0.02544217
  0.36849788 -0.14451274 -0.17758098  0.17414996  0.08719661 -0.27219775
 -0.11582338  0.20504583 -0.34577665  0.00782622  0.25979444 -0.5989137
  0.02225385 -0.06216703]
[-0.46474534  0.30145922  0.09969087 -0.20993674  0.02871592 -0.43313268
  0.00196786  0.35956392  0.06570589  0.24926016 -0.15459776  0.03698925
  0.4511857   0.08982198  0.0832479  -0.18689191 -0.09827511 -0.05902127
  0.00970018  0.26565686]
[-0.45739755  0.47298098  0.01123703 -0.04193802  0.11307133 -0.17375726
  0.05629633  0.14007634 -0.42678028  0.2778117   0.40987146  0.0789142
 -0.12374198 -0.2661566  -0.19076286  0.19333012 -0.40051657  0.04903662
  0.1733542  -0.16612084]
[-0.24206845  0.173043    0.05917392  0.47647664  0.36781102 -0.092657
  0.15202533  0.17267562 -0.093859    0.01525518  0.15410645  0.07974461
  0.1179048  -0.0836373  -0.11274908 -0.22626899 -0.02046609  0.29804152
 -0.31242558  0.44211373]
[ 0.08670292  0.18456742 -0.33100656  0.12807326  0.27125573  0.51466185
 -0.17487133 -0.5518572  -0.07153556 -0.45869398 -0.29736528 -0.27156895
 -0.0089603  -0.23858568  0.3255547   0.0117443   0.07817385 -0.03444358
  0.02542477 -0.49091026]
[ 0.3282979   0.11200123 -0.17926186  0.47313064  0.12441118 -0.08712932
 -0.11190935 -0.2462018  -0.1914802  -0.16011906 -0.45965892 -0.34174424
 -0.3206135  -0.34893572  0.17786221  0.3446088  -0.17973518  0.04959873
  0.20015533 -0.03749752]
[-0.18932061 -0.24504976 -0.5772161  -0.39139166  0.21183263  0.2859104
  0.40788844 -0.22669542  0.07645193 -0.09101609  0.07656352 -0.06772145
 -0.14375286 -0.30999795  0.06225012 -0.00182641 -0.28123662  0.3981113
  0.48189557 -0.20891657]
[ 0.26511654  0.5732117  -0.6241053  -0.25226617  0.3931929  -0.4562425
  0.58821     0.36636713 -0.06860235 -0.12048058 -0.736129   -0.614044
 -0.22605601 -0.16476825  0.2681322   0.5502677  -0.37607238  0.28461757
  0.2854706  -0.9349911 ]
[ 0.6168008  -0.14491953 -0.43345094  0.22425218  0.19450642 -0.00251127
  0.29586506  0.57555443 -0.20134939 -0.09316691 -0.08672573 -0.10729295
  0.06568675  0.00272563 -0.09610627 -0.12172425 -0.20776197 -0.3565043
  0.00894949  0.16314366]
[-0.29272875 -0.27910295 -0.20189282 -0.24179132 -0.28118575 -0.01237679
  0.14019826  0.2817119   0.21531215  0.07713684  0.35592243 -0.13264082
  0.07654227 -0.04256289  0.0986152  -0.17087647 -0.21281898  0.38324428
 -0.18929903  0.15566722]
[-0.02293305  0.01696543  0.17117798  0.40001824 -0.5071091   0.42746633
 -0.45836058 -0.7917048   0.44351697 -0.19116524  0.671857    0.44733298
 -0.4579478   0.42044112 -0.21293731 -0.7615962   0.36350024 -0.9765572
  0.2530231   0.3204295 ]
[-0.08025324 -0.30855545  0.07086495 -0.4356273   0.19055937  0.25818262
 -0.07879708 -0.2054009   0.5086124   0.29608908 -0.00127035  0.19280362
  0.15333383  0.15799072  0.29434228 -0.15189993  0.47759566 -0.29816225
 -0.06118958  0.2787983 ]
[-0.6355273   0.21866556  0.38579327 -0.6933053  -0.5050135   0.08654001
 -0.16585313 -1.029345   -0.63441885 -0.3318451  -0.46966246 -0.34154597
 -0.03401294  0.10818899 -0.590795    0.16207968 -0.7039456   0.04053779
  0.01157367  0.3790607 ]
[ 0.37364048  0.78428817  0.13519531  0.8144229  -0.42442864  0.03115558
  0.18430908  0.0244429  -0.08697595  0.37568656  0.28192994  0.04035106
 -0.01051763 -0.06005963 -0.10046584  0.80522555 -0.0114876  -0.00444704
 -0.31037775  0.29637685]
[-0.3725524   0.4263613  -0.32381156 -0.6960787  -0.43236616 -0.18809839
  0.5090799   0.19520737  0.30960032 -0.9576017   0.42987844  0.3599174
  0.09348489  0.28844     0.35677132 -0.13548476  0.35212204  0.1469866
 -0.0833778   0.27069116]
[-0.0904947  -0.4814271   0.31999195  0.5220826  -0.37237066  0.36974755
 -0.5427621   0.4079017  -0.38753715 -0.15389617  0.3503564   0.33645245
  0.16563189  0.04663903 -0.55734354 -0.34459648 -0.12832944 -0.2768944
 -0.36596933  0.5572056 ]
[ 0.43510848 -0.5377194  -0.0101918   0.9032394   0.04189299  0.06592587
  0.28454855  0.4218881   0.22807236  0.6196651   0.6665239  -0.12450858
 -0.36252412  0.22014488  0.42988732  0.03754846  1.2216839   0.30706573
  0.07015391 -0.44491288]
[ 0.02974861 -1.1258507  -0.19757557 -0.78342956  1.0547206   0.0154194
 -0.5802133  -1.1161066   0.42616764  0.04300059 -1.1475154  -0.42920056
 -0.13444923 -0.14111799  0.6170989  -0.56662786  0.35035202 -0.7660224
 -0.21507402 -0.16872686]
[ 0.9491293   0.10052118 -0.8621618   0.2910465  -0.26360106  0.6107157
  0.5385053   0.5044873  -0.27409518 -0.44573572 -0.12266733 -0.31629953
 -0.3042802   0.22835982  0.14997262  0.35183874 -0.50495934  0.79199576
  0.29108143 -1.1325655 ]
[-0.16170515 -0.01528908  0.14192533  0.02122541  0.09835054 -0.03623511
 -0.17190607 -0.12729152 -0.04683409  0.01311801 -0.03831032  0.0221581
  0.12211727  0.04831547 -0.00626041  0.03516999  0.03993801 -0.14670837
 -0.10699269 -0.06150715]
layer 1 Activation
tanh
layer 2 Dense
20 40
[ 0.13290575 -0.21632478  0.372378   -0.2129769   0.06249504  0.05642727
  0.1008437  -0.09922416 -0.00913275  0.20681043 -0.28944182  0.09686427
 -0.17641875  0.06349534 -0.31822947  0.0474324  -0.0233747   0.32596734
 -0.34460932  0.01640748 -0.3751898   0.3618319   0.20776659  0.5019847
  0.35584792  0.1627907  -0.20476834  0.11029922  0.0537683  -0.28349927
  0.02648315  0.1080891   0.24932262  0.16501582 -0.37874076 -0.11971293
 -0.28092757 -0.21794097 -0.29474065  0.238862  ]
[ 0.13222623  0.07343459  0.38258728  0.2171045  -0.21772598  0.44005278
 -0.14517713  0.1633034   0.11843453 -0.05104192 -0.01015579  0.23391944
  0.27184093  0.04604469 -0.21017867  0.07936127  0.31554797  0.23471063
  0.08725407  0.4362668   0.11595165 -0.03649718  0.07629082 -0.10747061
  0.38451004  0.16398689  0.20225316  0.06825415 -0.09855223  0.6495552
  0.1359325  -0.2929035  -0.23481727  0.23024377 -0.01756787 -0.01553915
  0.23993431 -0.02568725 -0.12787329 -0.10728341]
[ 0.09968467  0.00221593  0.10561017 -0.25345218  0.03738535  0.24576268
 -0.22089835  0.18900058  0.2816952   0.24500857  0.18999536  0.34314817
  0.17318702  0.17665327  0.09693613  0.06486721 -0.5273365  -0.02626317
  0.07611835  0.23897782  0.2887002  -0.417549   -0.04249461 -0.3470897
 -0.64588135 -0.1532188   0.109634   -0.32049376  0.18899737  0.04972964
 -0.37088042 -0.05690851 -0.06082211  0.2380816  -0.08671264 -0.05208705
  0.03903918 -0.3318295  -0.10076392 -0.4944075 ]
[-0.22863585 -0.535281    0.5417467  -0.19951929  0.26693347  0.07186136
  0.04460252  0.11139676  0.5481536  -0.13647917 -0.10385466  0.20213026
  0.06230338  0.22856131 -0.48962182  0.3730172   0.12188356 -0.01499789
 -0.8207686  -0.19252929 -0.08132635  0.2995268   0.23650433 -0.2408744
 -0.39601287 -0.37397322 -0.03863498 -0.4162209   0.11676318  0.22335976
 -0.01479038 -0.32874677  0.37102246  0.22959238 -0.35451475 -0.29381633
 -0.13702157 -0.4885984  -0.39724886 -0.03199695]
[ 0.15559365 -0.0582029  -0.40977752 -0.23793143 -0.12313261 -0.23795873
 -0.05635995  0.14565377 -0.05271001 -0.02616894  0.06164977 -0.14488098
 -0.35227576 -0.04441586  0.14880861 -0.00292474 -0.12885168  0.03017346
 -0.0397202  -0.16229853  0.11331697  0.29816386 -0.07263188  0.5391206
  0.18036883 -0.0320699  -0.02516842  0.1958402   0.31691742 -0.0421792
 -0.01906969 -0.2376938  -0.06380393  0.04824845 -0.10711937  0.2800776
 -0.15446487  0.15037793 -0.06400944 -0.07598844]
[ 0.17524235 -0.0276555   0.10246175 -0.03410434  0.03396173 -0.08828519
 -0.20763706 -0.03777904 -0.09292703 -0.11956406 -0.24637654 -0.00070433
  0.07965058  0.10998697 -0.25282547 -0.18022059  0.07013898  0.11067317
 -0.11564364 -0.22409704 -0.06720939  0.1867423   0.13742015 -0.10598497
 -0.20595855 -0.16435795  0.17629616  0.09574366 -0.31938174 -0.17627044
  0.19578071 -0.04437784  0.21676356 -0.00982754 -0.25259757 -0.09958096
  0.14264648  0.04247023  0.14224428  0.45097965]
[-0.13695972 -0.35712147  0.13707195 -0.23918931 -0.01288132  0.1524344
 -0.22225563  0.11215103 -0.68130064 -0.1467644  -0.5161524  -0.31384262
  0.29834452 -0.22895452 -0.5030589   0.15670441  0.45392936  0.16419455
  0.09488066  0.32748088 -0.06634031  0.20006481  0.34418267  0.39396307
  0.30986032 -0.2638474  -0.13901417  0.3669781  -0.01605735 -0.19693108
 -0.03463269  0.04029509 -0.01835304 -0.16088861 -0.07901911  0.02856706
 -0.01334521  0.14820434 -0.14324701 -0.18030648]
[-0.2644055  -0.3476134   0.45925987  0.20554306 -0.16360816  0.26469526
 -0.07170837 -0.0536831   0.13965224 -0.12640955 -0.25901285 -0.40607348
 -0.12733924 -0.14399882 -0.24869505  0.28513166  0.15067075  0.40269917
 -0.3196769   0.32252955 -0.29967445  0.36061662  0.31072715 -0.16933383
  0.2803952  -0.2821278  -0.22230902  0.08806618  0.07545836  0.37392056
  0.15623602  0.01796864  0.2871267   0.08367629 -0.19851159 -0.10198129
  0.0247807   0.00929015 -0.19260766  0.01775892]
[ 0.11781924 -0.38901573  0.0821534  -0.0823469  -0.18879998 -0.151697
 -0.01964415 -0.24575026 -0.02830298 -0.07073299 -0.14579318 -0.18556648
  0.20357215 -0.47253087 -0.08549174  0.02452661 -0.16833934  0.16713376
  0.5636412  -0.21086104 -0.10637172  0.11921418 -0.17572811  0.5246075
 -0.31674355 -0.02964149  0.10364542  0.48104694  0.01648899 -0.2973487
  0.26057753  0.17054322  0.01866314 -0.20958766  0.16764326 -0.20366769
  0.15736102 -0.10314523  0.00948566 -0.34228048]
[ 0.01511031 -0.15217747  0.34038043  0.2801367  -0.00510121 -0.08556638
 -0.20982471  0.19061323  0.25438073 -0.09347834  0.28815818 -0.21232627
 -0.24968356  0.46457672  0.03430094  0.23404266 -0.32126528  0.1610359
  0.10162166 -0.02410383 -0.19076116  0.2929442  -0.05890136  0.00089181
 -0.16545925  0.0781401  -0.18450135 -0.04785605  0.14173089 -0.11105378
 -0.21484055  0.09854983 -0.32139876  0.00779779  0.37062788 -0.17051277
  0.00677407  0.13699865 -0.23188983 -0.29844204]
[-0.09068892 -0.5490462   0.47515842 -0.17451037  0.00573993  0.03700432
  0.02721993 -0.1383394   0.06106542 -0.00848444 -0.30301708 -0.21212706
  0.1499861   0.3263905   0.6144684   0.30251354  0.07414304 -0.11771449
 -0.03315683 -0.16178775 -0.19333225 -0.29657257  0.21357903 -0.3192935
 -0.5751254  -0.12517484 -0.01498927 -0.3186211   0.09277463 -0.21172695
 -0.02339208 -0.29995504 -0.07925425  0.23533575  0.08101156 -0.00482434
 -0.08148965 -0.14058866 -0.02897083 -0.08541327]
[-0.07573352 -0.5538177   0.407115    0.11723612  0.3090393  -0.0208934
 -0.13777325  0.20532693  0.27171454 -0.17199753 -0.00375053  0.26981765
  0.2591038   0.07862496  0.00695312 -0.0900376  -0.261395   -0.1580866
 -0.17347743  0.22733907  0.00167749  0.07034952  0.16176288  0.08719439
 -0.44442073  0.16631764  0.11626942  0.1575272  -0.26380542  0.01161622
  0.07586512  0.15102774 -0.3827046  -0.19602127 -0.1614545  -0.05764235
  0.0865561   0.03154328  0.00161402 -0.22888096]
[-0.271539   -0.0254483  -0.00119823 -0.01411068 -0.05370373 -0.02580192
  0.00100172  0.11734728  0.03630453  0.00579982  0.23877878 -0.06323296
  0.2186223  -0.05159496 -0.23891386 -0.2852158  -0.00353561 -0.25851968
 -0.01500629 -0.1153714  -0.15092614 -0.18321872  0.13353099  0.11419038
 -0.28336865  0.05509533 -0.11810546  0.32722998  0.03941579  0.22273271
 -0.02888094 -0.05769333 -0.03555377  0.07617696 -0.02005256 -0.26504084
  0.11901531  0.13203648 -0.18930829 -0.19809079]
[-0.123207    0.0631384   0.00308522 -0.05844755  0.02012126 -0.09687985
  0.14299445  0.23867638 -0.05518738 -0.07604171  0.0742133  -0.09635886
 -0.16077398  0.03512798  0.01986269 -0.12181627  0.07572462  0.10689486
  0.17893603  0.02393555 -0.18050987 -0.11238892  0.06697319  0.11433792
 -0.14283834  0.24703372 -0.13138832 -0.25287977 -0.21393713  0.20045231
  0.03817736 -0.20150557  0.0150239   0.07826705 -0.09878759  0.16314733
 -0.19990887  0.17811978 -0.04922435 -0.220516  ]
[-0.10479748  0.29482332  0.28051037 -0.2153156  -0.01794018 -0.33430475
  0.26898327  0.04116026 -0.23760432  0.14788595 -0.38800073 -0.1155637
 -0.16915752 -0.3694546  -0.08736563  0.02534716 -0.02399541  0.2780265
  0.2988499  -0.22363678 -0.2665295   0.19447035 -0.19197395  0.30714625
  0.22521575  0.17684144 -0.20641807  0.09778124  0.15085775 -0.4942873
  0.20941524  0.26990324 -0.35359427 -0.07793669 -0.02065086 -0.00944292
 -0.10630651 -0.01700588 -0.07860041 -0.34022522]
[-0.23093727 -0.14116773  0.18531619  0.18450801 -0.04202713  0.1670673
  0.1384296  -0.26343188 -0.07613083  0.0065626   0.24788569 -0.11229569
  0.09595929  0.09047283 -0.61723614  0.37077323  0.22243227  0.06180942
 -0.46993482  0.2764036  -0.06754238  0.14253724  0.05567692  0.19446637
  0.32615915 -0.14933026 -0.28615186  0.06768948  0.304277    0.09839161
 -0.1475224  -0.20715812  0.06760963  0.00061801 -0.21179843 -0.22202228
  0.03957492  0.21011814 -0.5356547  -0.36236253]
[-0.24195918 -0.42439592 -0.05637689  0.14194961 -0.47741744 -0.16313756
 -0.06309374  0.11745897 -0.02476439 -0.19019155 -0.31238848 -0.4139425
 -0.27166384 -0.45708445  0.3242843   0.3819269  -0.3946714   0.12699467
  0.0989889  -0.3979867  -0.09347154  0.21499944 -0.05818132  0.35899365
 -0.65761     0.10160976  0.00850706  0.01336782  0.22793597 -0.4355758
 -0.23858377 -0.09413087 -0.56362635  0.0217864  -0.1860395  -0.0148256
  0.14303617  0.23312019  0.05234626 -0.6803679 ]
[-0.23146176  0.11011211  0.25000292  0.06074899  0.06205461 -0.24892808
  0.08485837  0.10722119 -0.1755708  -0.08163644  0.0122059  -0.3844766
  0.07308894  0.25012156 -0.12723693  0.20853071  0.45790407  0.03819446
 -0.05190722  0.17836525 -0.07265888  0.34298244  0.12537682  0.18056875
  0.3617959   0.26457787 -0.03704486  0.10089085  0.1514225   0.40167212
 -0.06294809 -0.2667731  -0.14319901  0.00406995  0.09071705  0.05310338
  0.09538426 -0.15335515 -0.33576813  0.2573441 ]
[ 0.12645544 -0.00834849 -0.16426456  0.04801701  0.04552649 -0.16253808
  0.19756523  0.17976461  0.06544868 -0.16337977  0.15450531 -0.276146
 -0.16913274 -0.09254453  0.19674563 -0.20431156  0.31638885 -0.14727664
 -0.10771217  0.04727016 -0.01507236  0.33642522  0.30911714 -0.1860992
  0.19518507 -0.12328281  0.10147408  0.20482802 -0.35288286 -0.3522479
  0.08033229 -0.08573323  0.05855212  0.09916255 -0.33952186  0.09142064
  0.15897204  0.09185871 -0.13641296 -0.0485867 ]
[ 2.80388027e-01 -6.88831270e-01 -1.72194541e-01 -2.25205213e-01
 -1.33693501e-01  1.66546285e-01 -1.52048320e-01  1.71189591e-01
 -3.71513329e-02 -1.94955990e-01  2.86660284e-01  3.20798218e-01
  2.57137865e-01  6.07710406e-02  1.87882230e-01 -5.23964167e-01
 -7.09126115e-01 -4.20738846e-01  1.77887738e-01  1.97455540e-01
  5.02710700e-01 -6.76818907e-01 -1.12862386e-01 -1.98807523e-01
 -8.38849008e-01  2.21899673e-01 -7.87057430e-02 -1.99069187e-01
  1.18839666e-01 -9.21297148e-02 -1.11686036e-01 -4.82922373e-03
  1.93937507e-04  2.42556199e-01 -1.52659222e-01 -2.61829905e-02
  7.32731372e-02 -1.40642881e-01  2.20524147e-01  2.23541006e-01]
[ 0.01148092  0.22288057 -0.03441111  0.16334356  0.21466248  0.12598166
  0.13661955  0.06404105  0.10515468  0.00042119  0.29532424  0.03864402
  0.05184099  0.23668395  0.04714917  0.05052639 -0.23549457 -0.09520011
 -0.18521601  0.00514408  0.10558548 -0.00843654  0.00159299 -0.01744366
  0.00257286 -0.15170555  0.03421436 -0.24422191  0.038181    0.1831007
 -0.15004656  0.00379904 -0.1870598   0.04689132  0.01086602 -0.09921376
 -0.00766076 -0.04703035 -0.13098101 -0.26978755]
layer 3 Activation
tanh
layer 4 Dense
40 20
[-0.01207307  0.1453136  -0.2701431   0.07656962  0.00783192 -0.09640684
  0.12921493 -0.24112892  0.09697965  0.19927725 -0.09784804 -0.09524618
 -0.08982311  0.16483474 -0.05642932  0.20278554 -0.00398243 -0.20812811
  0.13228631 -0.45045003]
[-0.18033805 -0.0602406   0.05707914 -0.07476661  0.38847384 -0.12932758
  0.288449   -0.2380297  -0.2812414   0.10839015  0.01111248  0.6842564
  0.16753338  0.08249085 -0.07405623 -0.23555486 -0.02378377 -0.08372536
  0.11206216 -0.18223597]
[-0.01806474  0.01456602 -0.06821802  0.38445362 -0.01706325  0.08134997
 -0.27318427  0.24506457  0.18792996 -0.30090177  0.11480904 -0.41090757
  0.10558833 -0.06409863 -0.02424409 -0.35639003 -0.21812305  0.34285584
  0.16870414  0.31719276]
[-0.1448329   0.33049864  0.19546111  0.12929805  0.18217734 -0.10849774
 -0.31771016 -0.02595846 -0.20626795  0.00251605  0.29396912 -0.1511804
  0.16457155 -0.09938632 -0.27826557 -0.303406    0.11342434  0.1204647
  0.197308   -0.2073015 ]
[-0.30035448  0.14059258 -0.16339043  0.14206712  0.31555     0.16476975
  0.34500924  0.18938336 -0.16706906 -0.26837698 -0.01945227  0.23820516
 -0.09312859  0.0719633  -0.21710737 -0.01725962  0.03696551  0.02809316
 -0.16694252  0.10050635]
[-0.0186916   0.1755489  -0.07487556  0.44249535  0.3766459   0.21721643
  0.07136338 -0.17197566  0.17754029  0.2591567  -0.11934526 -0.20264876
 -0.1549417  -0.1163061  -0.05179325 -0.20192651  0.02266877  0.38969448
 -0.11287219 -0.17722923]
[-0.01961811  0.304516   -0.2786231   0.06734384  0.07900946  0.03312821
  0.13795768  0.04233016 -0.20478833  0.09996187  0.22046755  0.3669093
 -0.20006098  0.02336229 -0.13147394 -0.07607611  0.0266542   0.141102
 -0.05995102  0.09209514]
[ 0.03014299 -0.12482125  0.24091484  0.2632724  -0.16446964 -0.20039697
 -0.60672635  0.02923631  0.28632757 -0.03085441 -0.13732144 -0.13475156
  0.05117272  0.0461461  -0.20728078 -0.08308121 -0.03217331  0.01653154
  0.07277081  0.15931499]
[-0.02055604 -0.13928446  0.20119631 -0.20167017  0.14686969  0.09346271
 -0.56466174 -0.24269892  0.1300645   0.12328757 -0.28873858  0.11074373
 -0.03271258 -0.17780283 -0.29621527  0.05046516  0.24870186  0.3228711
 -0.06127095 -0.17716858]
[-0.14650808  0.03590396 -0.25026438  0.2605795   0.05419084 -0.18401337
 -0.2692661   0.19377773  0.10570306  0.27187806  0.03209397  0.3614878
 -0.03239158 -0.0832113  -0.20688403  0.07678191 -0.24499097 -0.15507841
  0.14187911  0.27317277]
[-0.12395229  0.24266198 -0.14563888  0.24540336  0.24565315 -0.23644654
  0.35406458 -0.23279758  0.33624563  0.34894598  0.18015406  0.19701234
  0.29466674  0.10225059 -0.07826766  0.15388279 -0.30540198  0.03623868
 -0.29995406 -0.27196953]
[ 0.11668857  0.2891392   0.01844159 -0.11200949  0.09020126  0.28486133
  0.11464709 -0.3995267   0.35932693 -0.27759898  0.15609083  0.07746761
  0.10904962  0.12035887 -0.20287962  0.18353784 -0.21063142 -0.1377184
  0.22639774 -0.02942638]
[ 0.06214712  0.19204012  0.3016903   0.26543453  0.21421805  0.33266932
  0.15274149 -0.29251122  0.15479681 -0.15624486  0.02917504 -0.30520695
  0.08767327 -0.14464037  0.20421124 -0.15494488 -0.25644702  0.06420188
 -0.18766372  0.13574702]
[ 0.04400152 -0.20347846  0.10877687 -0.00963908  0.40918714  0.09597519
 -0.07915356 -0.13723595  0.13920893  0.166001    0.13342239 -0.10121788
 -0.25225344 -0.2240302  -0.11176249 -0.1022237  -0.16894126  0.1243163
 -0.22888476 -0.15608457]
[ 1.4353651e-01  4.6771006e-03  1.1776850e-01  8.7087816e-03
 -2.5674900e-01 -1.3810059e-01 -1.9325998e-01  3.1219024e-02
 -1.5519674e-01 -1.6848125e-01  5.8843987e-05  1.9248283e-01
 -1.4101270e-01 -1.8522973e-01 -3.9128795e-01 -3.4597924e-01
  3.1556925e-01 -2.2808129e-01  2.5400412e-01  2.9655227e-01]
[ 0.1949652  -0.15548618  0.25193173  0.1874523   0.02764422 -0.26281196
 -0.3924648   0.06913814 -0.25788954  0.18271619  0.22467169 -0.14989193
 -0.18936697  0.10871819 -0.08584652 -0.17705026 -0.21900411  0.25582546
 -0.23824635 -0.35536185]
[-0.05589844  0.00224154  0.04105987 -0.09054243  0.19533327 -0.24483873
  0.60860425  0.14174515  0.03114504 -0.08537398 -0.03651889  0.09195489
 -0.21001732 -0.17784575  0.3534294  -0.4620458   0.02118738  0.2562144
 -0.2910661   0.0449711 ]
[-0.24168119 -0.06134373  0.23984785 -0.167312   -0.02406146  0.17104927
 -0.22098368  0.13052557 -0.33863595  0.01498463 -0.10670215 -0.07262183
 -0.07998893 -0.11841118 -0.10020003  0.05665139  0.05080086  0.31839034
  0.16394009  0.2587837 ]
[-7.28080571e-02 -2.83882618e-01 -3.36514473e-01 -1.12826906e-01
 -3.56766731e-01 -1.49996191e-01 -4.18030441e-01 -2.34364435e-01
  1.08181149e-01 -1.14166759e-01 -5.62576540e-02  1.54194042e-01
 -7.26129487e-02 -2.49932960e-01  1.58099398e-01 -2.10370362e-01
  9.91487468e-05 -3.39059472e-01  3.33925992e-01 -2.63110071e-01]
[ 0.26480204 -0.10324185 -0.09256317  0.41162995  0.21028577  0.3600537
  0.00113277 -0.03073395 -0.2562701  -0.15678328 -0.10547216  0.11385353
 -0.15038024  0.09775005  0.17180099 -0.3008073   0.03809918  0.15452407
  0.25196296  0.03084383]
[ 0.18471584  0.13975628  0.28647435  0.2501243   0.05018777  0.21807432
 -0.09408997 -0.43273124  0.04619995  0.01318824  0.15851577  0.21457292
 -0.20518753 -0.30708238 -0.08216307 -0.05057639  0.15431109 -0.3490444
  0.01431243  0.02908833]
[ 0.19909333 -0.12720992 -0.1036637  -0.42662272  0.19820596 -0.13884707
 -0.03834266  0.49579856 -0.3168701  -0.07725922  0.08110289 -0.12333454
  0.11226198 -0.19093402 -0.11901224  0.20990966  0.06605138  0.1747464
 -0.1096345   0.3521184 ]
[ 0.08545319  0.18946731 -0.07331924  0.0076141  -0.04489687  0.3196737
  0.05845915 -0.00490327 -0.16912845 -0.19639573 -0.10454399 -0.48864672
  0.07344564 -0.2505454   0.06267505 -0.09649681 -0.10167684  0.09142324
  0.03800413  0.25763598]
[-0.10931765  0.3416241  -0.11196995 -0.01785373 -0.2584363  -0.18411821
 -0.3976756   0.22507353 -0.15552492  0.2569849  -0.08524023  0.39056778
 -0.04017508 -0.25836557  0.1457595   0.3069527   0.16078994  0.0549705
 -0.21670747  0.15035506]
[ 0.12128171  0.3401178   0.2581592  -0.15731442  0.49321827 -0.09406461
  0.29613814 -0.3288942  -0.34269747 -0.05781789  0.00228626  0.5614216
  0.20675142 -0.08059452  0.34718096 -0.01999112  0.2949233   0.49613082
 -0.03725385  0.16695844]
[-0.00674462 -0.13709153  0.08159927  0.16098239 -0.11886518 -0.03879415
 -0.34150076  0.08015431  0.10488194  0.06549827  0.19769031  0.15389593
  0.09367444  0.05170063  0.04849988  0.05540868 -0.27514416 -0.22911887
  0.11891037  0.03299349]
[-0.02257936 -0.19268118 -0.00191796 -0.01105673  0.07275641 -0.15711528
  0.08513841 -0.16705416  0.09524447 -0.20634283  0.05559814  0.04626654
  0.2801784  -0.04803151 -0.1471494  -0.21008691  0.0584452  -0.11523595
  0.11207581 -0.2216523 ]
[ 0.03361445  0.24614552  0.08280844 -0.26244912 -0.08782567 -0.2159855
  0.2442003   0.21617669 -0.26994503 -0.36981866  0.08780399  0.04404191
 -0.19323437  0.08706135  0.36906627  0.08655442 -0.02020856 -0.25479433
 -0.04299627  0.04904846]
[ 0.20928714 -0.10342094  0.3129606   0.19640677 -0.32717338 -0.02335609
 -0.56246525 -0.15578374 -0.11569746  0.42673704 -0.28041938 -0.21084394
 -0.06647979 -0.02580491 -0.14497843  0.0966678  -0.3179699   0.13106318
  0.06156701 -0.11112951]
[ 0.06302584 -0.13234273 -0.09492263  0.17493483  0.20314817  0.01852462
  0.13239618 -0.12670626  0.12281498  0.275219   -0.1731379   0.18449007
  0.05622486 -0.09220523  0.11466931 -0.42018595  0.1908563   0.36923295
  0.11554194 -0.13088167]
[ 0.3002389  -0.02690562  0.09657321 -0.2674991   0.15127942 -0.2040368
  0.17403069  0.26138178  0.21654828 -0.27678803 -0.14528534 -0.07602678
  0.15515581 -0.22753915  0.24473044 -0.07178406 -0.11744522 -0.04943629
  0.12020193  0.1900364 ]
[ 0.04309332  0.4148048  -0.15283346 -0.15015002 -0.07492333  0.0226521
 -0.15704338 -0.10094187  0.06343511 -0.31766447  0.10184088  0.5752678
  0.03459789  0.21833545  0.05901425  0.03334148 -0.2606633   0.08061061
  0.27417308 -0.17097358]
[-0.30003673  0.00966968  0.16823213  0.08989788 -0.06609316  0.31849727
  0.57745564  0.25828892  0.1001545  -0.33108842  0.04630654 -0.46363682
 -0.10708632  0.10991336  0.10955853  0.19467783  0.2263978  -0.01912279
  0.11758772 -0.01078678]
[-0.03076322 -0.12306987 -0.17989366  0.19077253  0.2748232   0.20148805
 -0.20718391  0.11325958  0.20193703  0.20578736 -0.13819626  0.03356851
 -0.1715111  -0.18052283  0.01555994  0.0561712   0.33699337  0.06262895
 -0.05680142 -0.22593383]
[ 0.07036671 -0.27635512 -0.16752571 -0.1841662   0.18631744 -0.0332876
  0.14257938 -0.11140442 -0.09107879  0.2420166   0.1105426   0.17441528
  0.28879744  0.23226084  0.04469963 -0.40724623 -0.09145445  0.06797247
 -0.00324782 -0.00458137]
[-0.07999022 -0.23138314 -0.14945938 -0.18374282  0.15117389 -0.2838087
  0.4983198   0.06120805  0.25914258  0.21413001 -0.21953061  0.29346818
 -0.17679206  0.30904365  0.256534   -0.10622007 -0.17370804 -0.12019421
  0.02436988 -0.21774346]
[-0.18052623 -0.16474019  0.11503474  0.05688413  0.05155925  0.00228246
  0.05754073 -0.05275257 -0.00719569 -0.08722364 -0.31561005 -0.11410389
  0.10472078  0.01986893  0.07790796 -0.23069319  0.06780945 -0.11877874
  0.01647175 -0.12313636]
[ 0.00146064  0.39114454  0.03891059 -0.17346433  0.11777694 -0.00414713
 -0.10879976 -0.06202265 -0.10688735 -0.1879055   0.11917596  0.14752841
 -0.03534197  0.3612193   0.03023314  0.13213746 -0.34673345 -0.31460306
  0.14365385  0.22854944]
[-0.04456991 -0.29112577  0.10710753 -0.29660803  0.10351975  0.09212542
  0.03733817 -0.09485663  0.38464877 -0.11112538 -0.0500988   0.36610058
  0.20371105 -0.2762377   0.02292617 -0.12372631  0.25699395 -0.18019909
  0.2634534   0.23650965]
[ 0.15289786 -0.29940408 -0.12988426 -0.14722118  0.01131621  0.25746983
  0.56244093  0.01569818  0.33758247 -0.11878024  0.08251695 -0.43571243
  0.13478054  0.14554875  0.28064793 -0.05643265 -0.10714685 -0.25328776
  0.3319638  -0.15416966]
[ 0.03595478  0.0982655  -0.05752521  0.12834813  0.06595908 -0.0480173
 -0.111378   -0.12582624 -0.04014804  0.03646259 -0.02884137  0.23301518
  0.0105444   0.0196251  -0.06400408 -0.03337871  0.00274993  0.11539354
  0.0156963   0.04790901]
layer 5 Activation
tanh
layer 6 Dense
20 1
[-0.01153034]
[-0.09606235]
[0.00196836]
[0.17759216]
[0.12381224]
[-0.12368299]
[-0.03470334]
[-0.19294922]
[-0.11632513]
[-0.07135588]
[-0.00425842]
[0.07496831]
[0.00458323]
[0.02915115]
[0.1843256]
[0.19823302]
[0.01009238]
[0.19496751]
[0.05970247]
[0.03732752]
[0.03297061]
