layers 7
layer 0 Dense
20 20
[-0.2484945  -0.47340932 -0.38272002  0.5434145   0.22132927 -0.22414085
 -0.19819294  0.43212342  0.17324522 -0.22744805 -0.41653904  0.01803858
  0.30236235 -0.55197114 -0.19746028 -0.2811265   0.34271157  0.4846274
  0.5831738   0.12291268]
[-0.19670337 -0.24306926 -0.26561284 -0.32907337 -0.30755973  0.00633261
 -0.15620631 -0.2651587  -0.24664795 -0.25226384  0.10036117 -0.07070222
  0.16882157  0.24372274 -0.03186825 -0.32112962 -0.25692743 -0.26321018
  0.3660497  -0.05208999]
[-0.07107794 -0.23395123  0.3238452   0.275297    0.00860149 -0.20626058
  0.14794225  0.12109488 -0.1611917  -0.19734228  0.09325901 -0.35219887
 -0.2403941  -0.26403522 -0.34434485  0.3340389   0.2438392   0.3581103
 -0.13691139 -0.24734935]
[ 0.3424203  -0.60233957 -0.24568045  0.3283712  -0.21964543  0.18667911
 -0.40251368  0.6249851  -0.36348158 -0.16456024 -0.36275992 -0.11814969
 -0.4230667  -0.08506227  0.0657713  -0.43106884 -0.08387505  0.58228916
  0.23368168  0.39380115]
[-6.35406733e-01 -2.56417841e-02  1.25811234e-01 -7.53779352e-01
 -1.72795773e-01 -2.18335494e-01  5.12014687e-01  5.32515585e-01
 -2.30735925e-04  7.66033903e-02  2.43256420e-01  1.17786266e-01
  1.99887425e-01  4.49932069e-01 -2.91336358e-01  3.93382646e-03
 -5.17059378e-02  1.27979264e-01 -5.33916652e-02 -1.55032659e-02]
[-0.07709745  0.2506535   0.27214187 -0.25082546 -0.31709632 -0.24357897
 -0.10635093  0.31914127  0.19860446 -0.23714155 -0.1481222   0.25067616
 -0.23441523 -0.1018194   0.29418737  0.10108113 -0.34135345  0.23715216
  0.21634865 -0.29655993]
[-0.08521423  0.20104593  0.14853424  0.376832    0.35068053  0.13435537
 -0.16009794  0.03017578  0.03090554 -0.12793678 -0.16020727 -0.19581535
 -0.20830995 -0.16945235 -0.36737877  0.12992638 -0.28425962  0.1956389
 -0.147616    0.14770436]
[ 0.03784005  0.38486323 -0.38306805 -0.30779603 -0.16510902  0.22596706
  0.40973923 -0.02207501  0.10469472  0.4559978   0.32452315  0.07456578
  0.10255987 -0.27250737 -0.09193696  0.0658865  -0.24053365 -0.85206336
 -0.21649313 -0.20230402]
[-0.09016281  0.38626736  0.03795502 -0.0271566  -0.19895306 -0.38163486
 -0.15049832 -0.3140309  -0.23716125 -0.13125435 -0.0767419  -0.31080282
  0.41845044  0.48729128  0.5025447   0.21521853  0.04692709  0.12982787
 -0.08942488  0.24850716]
[-0.32964212 -0.00239836  0.5227076   0.3038457  -0.19935165  0.06348726
  0.50267065 -0.20884271  0.07216243 -0.2762276  -0.1197492  -0.07221944
  0.4945361  -0.6777556   0.78663725 -0.6341581   0.75280976 -0.02400781
  0.11493871  0.846539  ]
[-0.38214833  0.11698084 -0.5074545   0.33040738 -0.33295944  0.04909402
  0.262492   -0.1120029  -0.06338868 -0.14277422  0.82113487  0.11858497
 -0.6828435  -0.2619773  -0.04196369 -1.1433222  -0.5391302  -0.04109739
 -0.0047552   0.7749463 ]
[ 0.4665322   0.94247603 -0.4934622   0.0845854  -0.33929992  0.25394654
 -0.3136937  -0.74221295  0.52521497  0.2155316  -0.5162129   0.48740205
 -0.23979156  0.64157706  0.7944544  -0.09636982  0.14394099 -0.25649574
 -0.81545305  0.23567632]
[-0.17657351 -0.43238267  0.40700996 -0.981508   -0.4239821  -0.5559898
  0.05488598 -0.01636659 -0.11165967 -0.6501919  -0.2407386  -0.00683926
  0.4248034  -0.66939944 -0.9313952   0.08028133 -0.13730496  0.45342165
 -0.09701147 -0.1996114 ]
[ 0.0716453   0.10405482 -0.24511878 -0.13177246  0.9144882  -0.12215328
 -0.15881555 -0.02086914 -0.8677273  -0.35726666  0.1328152   0.35821104
 -0.3690481  -0.2126438  -0.08458982 -0.27535954  0.06926796 -0.14269905
 -0.08784664 -0.34954545]
[-0.04086177  0.08028647  0.3047357  -0.25044614 -0.03564323 -0.23118679
 -0.6331459  -0.07600453  0.26391292 -0.2679412  -0.31473744 -0.69691694
 -0.5623362   0.11571171 -0.8034195  -0.0809871  -0.13304342 -0.01214455
 -0.36766508  0.24318853]
[ 0.18325703 -0.19356494 -0.4636526  -0.15943259  0.35862377  0.34288946
  0.09088896 -0.88272554  0.6585063  -1.2613373  -0.32398772  0.51785946
  0.21152693  0.38594154  0.32755888  0.28814745 -0.58316976  2.0136132
 -1.181774    0.24523981]
[ 0.21045536  0.32599428  0.12181728 -0.33479366  0.8772499   0.41161957
 -0.17909645  0.00273683  0.03976563  0.9688307   0.35933813  0.25728104
 -0.04207761 -0.23356974 -0.540584    0.29691833  0.37843692 -0.8639323
  0.22359289 -0.04840119]
[ 0.96217304 -0.51077974 -0.50258183 -0.81391835 -0.8898771   0.3028032
 -0.2909168  -0.20149472  0.5175581   0.56016177  0.6148515   0.26238966
  0.51021665  0.5132017  -1.0025764   0.32917672 -1.0630503  -0.24775092
  0.09339908  0.4760181 ]
[ 0.49049607  0.06244254  0.29936707  0.06588837 -0.02068506  0.6235825
  0.43280795 -0.03696112 -0.30009165 -0.10093328 -1.1108903   0.46491194
  0.8539522   0.39137864  1.3449849   1.3036577   0.7032449  -0.07536484
 -0.04045073 -1.1078254 ]
[-0.0460197  -0.4693719   0.35657975  0.03359337 -0.21243615 -0.27651855
 -0.02757449  0.56942064 -0.7058461   0.26870787  0.09688558 -0.5321668
  0.26182988 -0.33934504 -0.24658333  0.31197417 -0.15698843 -0.93393105
  0.45094055 -0.08922087]
[-0.00695905 -0.3241185   0.14079988  0.20654747  0.07069878 -0.05228935
 -0.10217384  0.18015516 -0.10013824 -0.19033551 -0.17883329 -0.07520695
 -0.1486587  -0.132436    0.00142089 -0.154458   -0.00768703  0.39192662
  0.1454772  -0.01325573]
layer 1 Activation
tanh
layer 2 Dense
20 40
[ 0.29877362  0.24438119 -0.02858052 -0.16549939 -0.10429724 -0.11381016
  0.08067237 -0.35582608  0.14331992 -0.04828463  0.55984986 -0.6060477
 -0.9156572  -0.5186638   0.05935635 -0.01851833 -0.33711937  0.14243463
 -0.1481021  -0.67819005 -0.28884032  0.05033114 -0.4525722   0.20046909
 -0.34506777 -0.60212946  0.14037956  0.25585064 -0.25678498 -0.4522863
 -0.05093529 -1.094003   -0.49900526  0.3310693   0.6258362   0.17845845
 -0.42161438 -0.6257573   0.16150302 -0.24497022]
[ 0.03553635 -0.19860618  0.08641247 -0.4823176   0.56563455 -0.70560884
 -1.2769288  -0.5130036   0.32579377 -0.2838833  -0.3107556   0.6442711
 -0.61261654 -0.4410474   0.12844028 -0.09327623 -0.20341219  0.22235996
 -0.02762827  0.60537964  0.42375103 -0.22579119  1.001541    0.52777565
 -0.11532297  0.6715671  -0.38889977 -0.3220934   0.41164193 -0.5843302
 -0.13519639  0.27684233  0.23643701  0.35773972 -0.5275839  -0.16428876
 -0.07195892  0.3378685   0.02785248  0.31104845]
[ 0.14782806  0.15306637  0.17015858  0.2070125  -0.05774574  0.04599877
  0.2229744  -0.15768348 -0.22606699 -0.17740169 -0.03340017  0.1566292
 -0.04772344  0.31362438 -0.38654396 -0.3739389   0.08673859  0.06572658
  0.19324379  0.31621024 -0.416551    0.525863    0.29780778  0.28836104
  0.48318243  0.42755732  0.29558378  0.03633124  0.3457886   0.2865793
  0.3565533   0.6024745  -0.6776312   0.03423011  0.22832796 -0.11711679
 -0.42850906  0.22230421 -0.3748916   0.4859454 ]
[-0.15389423  0.58623475  0.24392034 -0.02730437 -0.10866034  0.12794876
  0.01258987 -0.09166723  0.5576224   0.21795216 -0.06204911  0.32530174
 -0.09689154 -0.3336044   0.22519498 -0.32508767 -0.10367306  0.3482729
 -0.02380817  0.3633106  -0.46382907  0.2155961  -0.07505992 -0.40097508
  0.12134832  0.01170762 -0.38329247  0.27002603 -0.05647697 -0.10419245
 -0.01315741  0.23369764  0.08757575 -0.30817604  0.11228152 -0.58234954
 -0.14711997  0.5911062  -0.3919128  -0.33840606]
[-0.29954043 -0.60933894  0.08332872  0.27940196  0.60997236 -0.22556438
 -0.15489471 -0.21641056 -0.4622614  -0.53132874 -0.02200461  0.7420085
 -0.51253164 -0.06088106  0.07494139  0.13753293  0.3169508   0.42640102
 -0.11898381  0.9612832  -0.17007372  0.8699567   0.19734254  0.95498157
 -0.486115   -0.11499603  0.00283963 -0.2554272   0.37495634  0.10483024
  0.5941009  -0.38072386 -0.6496514   0.02486884 -0.30552313 -0.5359833
 -1.1396967   0.45676026  0.20262344  0.5616307 ]
[ 0.27294806 -0.35843435 -0.24648972  0.05438544 -0.52132463 -0.11408509
 -0.36797768  0.11249077 -0.00250815 -0.19799952 -0.11580896 -0.14570667
 -0.4398832  -0.3197261   0.00317834  0.11026179 -0.06600789  0.611471
 -0.20199451  0.17429963 -0.5059377   0.51376086 -0.09901217 -0.34749568
 -0.09807934 -0.5367592  -0.49366194 -0.00303797 -0.11385146  0.06785596
 -0.34266162 -0.34091946 -0.5992587  -0.02882327  0.34584835 -0.21949773
 -0.6284397   0.11613705 -0.00939741  0.65146196]
[ 0.34647658 -0.05695489  0.30301484  0.11066074 -0.18875429  0.48727912
  0.25557244 -0.15438399 -0.05706286 -0.04209526 -0.12190351 -0.34418458
  0.06180315  0.38654003  0.28403753 -0.10331906 -0.13071482 -0.13457716
 -0.16372685 -0.01547154  0.3121237   0.39487553  0.35360676 -0.08905981
  0.33563772  0.2507372   0.24275918  0.2581063  -0.07745272 -0.11014755
  0.14027677  0.41858414 -0.11116094 -0.25943208  0.10657033  0.13330884
 -0.189226   -0.14609276  0.41787508  0.3105259 ]
[-0.34465387 -0.45502687  0.6258355  -0.00135326  0.5757335   1.3504387
  1.2479506   0.06458697 -0.6779641   0.76494384  0.05321063  0.28553256
 -0.646749    0.05916469 -0.37653592 -0.25386596  0.99604255 -0.56736493
  0.07540197 -0.5412778  -0.84129846  0.05226644 -0.41705024  0.56064963
  1.1719127   0.5596108   0.4048201  -0.4399466   0.25812465  0.3106939
  1.288303    1.1833893  -0.47141546 -0.20886819  0.44698548 -0.09161337
 -0.8617789  -0.36005652 -0.39991555  0.7019477 ]
[-3.68761957e-01  7.25030184e-01 -3.58013481e-01  1.23049915e-01
  1.17200310e-03 -1.04364109e+00 -2.07330614e-01  1.40162766e-01
 -1.75780222e-01 -3.76892954e-01  2.85632759e-01  2.81499345e-02
  1.41636923e-01  9.10953641e-01  4.55579549e-01 -2.14656249e-01
 -4.37029243e-01 -2.61265993e-01 -1.00145951e-01 -4.70461175e-02
 -9.44166705e-02 -9.01064813e-01  4.43501383e-01 -2.74993092e-01
 -5.76823592e-01  6.73486143e-02  2.31005698e-01 -2.15931073e-01
  5.09152353e-01 -3.98037076e-01 -4.34135228e-01 -1.59532487e-01
  1.39015400e+00  2.78510779e-01 -4.32601541e-01 -6.47528589e-01
  1.30755532e+00 -4.31996405e-01  5.18441975e-01 -5.39548516e-01]
[-0.11802468  0.08736044 -0.44840232 -0.00556922  0.19036147 -0.39399916
 -0.18460298 -0.14796855 -0.27326128  0.37252364  0.09725261 -0.48880136
  0.247038    0.02019898 -0.08166634  0.4321785  -0.0911225   0.46097085
 -0.09030057 -0.86812234  0.1502169  -0.36464006  0.5636075  -0.43473762
 -0.18217191 -0.5602572  -0.586019   -0.13122529  0.70749795 -0.3881379
 -0.2001813  -0.40343657  0.18799454  0.2259666   0.69246966 -0.15313792
  0.37086624 -0.07740853  0.27023843  0.17282313]
[-0.27814448 -0.27840963  0.08301829  0.46202493 -0.2501048   0.46684754
  0.1484017   0.65841997  0.4278245   0.58405125 -0.08538558  0.01745789
  0.29736197  0.48514733 -0.2094178   0.52845967  0.06922973 -0.45436993
  0.15357113 -0.15647374 -0.30833983 -0.13734816 -0.00812156 -0.08297223
  0.1352451   0.21691495 -0.46608284 -0.09715323 -0.45099083 -0.19962206
 -0.14891425  0.21969701  0.08892593 -0.50925124 -0.17615579 -0.3516976
 -0.08871166 -0.27937326  0.0853097   0.1574812 ]
[ 0.16730337  0.11463656  0.06224547 -0.11572904  0.03508564  0.09463301
 -0.8170689  -0.29919878  0.1389001  -0.29402798  0.26963764  0.33769074
 -0.48401812  0.09675245  0.27036718  0.67793506 -0.2201541   0.3838809
  0.2784709   0.40819365  0.6471797   0.39022776  0.277815   -0.35628855
 -0.5347389  -0.4673578  -0.08865263  0.00339164 -0.632179    0.19128586
  0.4147723  -0.764647    0.09593415 -0.05672201  0.7364105  -1.0874028
  0.30833185  0.04457452  0.382078   -0.34214598]
[ 0.63117355  0.35384497  0.3032539   0.18245591 -0.5897662   0.019876
  0.40771437  0.43276605 -0.03647636  0.14655904  0.26347244 -0.6039735
  0.86787486  0.44714728  0.41981226  0.13162182 -0.46755773  0.05880343
  0.43742847 -0.2406172   0.02448138 -0.04413314 -0.40773246  0.18456972
 -0.01789761  0.3286685   0.44491446  0.8001731  -0.2834331   0.14056188
  0.13122594  0.37392163  0.12616652 -0.2648279   0.29347023 -0.8041233
 -0.62951064 -0.01096733 -0.26981956 -0.09646597]
[-0.3505485   0.21755074 -0.01315665 -0.20902501 -0.10293842 -0.4459933
  0.17127252 -0.57989275  0.2869657  -0.67826355  0.2176104  -0.2876557
 -1.1095542  -0.4942144  -0.5583094   0.5773917  -0.47679606 -0.05761559
  0.08415291 -0.11917475  0.17355885  0.4267173  -0.25092587 -0.21521474
  0.3452627  -0.37077814 -0.30950198  0.59424305 -0.04816952  0.29628
 -0.41997766 -0.4891611  -0.32865176  0.41574857  0.6326111  -0.12632897
  0.04625447 -0.39859217  0.45654437  0.11120605]
[ 0.86124825  0.294602    0.36486018  0.69491327 -0.26330298  0.53350335
 -0.30996472 -0.71400696  0.07781906 -0.10477316 -0.12704666  0.05321375
 -0.57730937 -1.063013    0.38768932 -0.40697202  0.01978097  0.32450265
  0.07852273  0.27105808 -0.47452998  0.44003984 -0.26606804 -0.31612465
 -0.10193923 -0.16999857  0.05262291  0.3134154   0.01223053 -0.03546092
  0.8685774   0.394632   -0.41644877 -0.5654011   0.01734329 -0.6478113
 -0.77037215  0.7521302   0.0425529   0.06059923]
[ 0.22630875  0.15312687  0.62302375  0.4510715   0.10440122  0.07605147
  0.11993761  0.2249601   0.05799231  0.03853364 -0.01098719 -0.47748718
 -0.40960613 -0.16979194  0.06105816  0.90543795  0.03493224 -0.10653371
  0.28546706 -0.3240185   0.42940423  0.67769456  0.27197263 -0.13867271
 -0.07946043 -0.40463677  0.52273196 -0.0818586   0.12526537  0.08068179
  0.06764448 -0.13811186 -0.26052108  0.38924372  0.12761524 -0.21120127
 -0.8574711  -0.07894201 -0.34793693  0.05741277]
[-0.17287514 -0.19726315 -0.49359885  0.2282535   0.45568296  0.22008431
 -0.10098404 -0.52316505 -0.18001     0.1049416   0.08443288  0.6329704
  0.03319155 -0.11705632  0.59459424 -0.85428095 -0.19324766  0.5364526
  0.51715803  0.37115353  0.00163403 -0.04137248 -0.3689777  -0.056555
 -0.43582475 -0.45329794 -0.08963691 -0.5876649  -0.11261759 -0.12789275
  0.1804258  -0.10850264 -0.1241916   0.13856927 -0.21322492 -0.18457101
 -0.06796917  0.41609895 -0.36970717  0.65604806]
[-0.20602788  0.31330153 -0.31675065 -0.04424566 -0.02125109 -0.03297982
  0.48686177 -0.46001709 -0.4477523  -0.22307068 -0.52040243 -0.23259035
 -0.9757645  -0.07992166 -0.5056459   0.22952841 -0.11529821 -0.72777134
 -0.05657255  0.1301586  -0.8867102   0.501395   -0.45336983  0.05192799
  0.6884519   0.20559973  0.28415698  0.03712449  0.13128054  0.3408651
  0.20344019  0.53071916 -0.05087984 -0.33439827  0.15485068 -0.05406259
 -0.14371273  0.17133091  0.0861387  -0.6447277 ]
[ 0.09942053  0.62638295 -0.23861948 -0.35864642 -0.5077338   0.7928248
  1.0014849   0.1156573   0.56757516  0.8481082   0.02240917  0.0979973
  0.3051285   0.2519727   0.4168371  -0.83932215  0.48895502 -0.2692854
  0.34592643 -0.5084286  -0.2723813  -0.4112314  -0.8356756   0.08424156
  1.0491264   0.220274    0.45599037  0.02141371  0.3802499  -0.06411706
  0.41505337  0.93580675  0.657823   -0.20686609  0.13599122 -0.67315775
  0.3654931   0.23624422 -0.6121044  -0.18070537]
[-0.7589063   0.1987162  -0.3879462   0.03177961 -0.3016203  -0.17478853
  0.14060967 -0.03592498 -0.40172827  0.3050026   0.15497383 -0.19041374
  0.6586262   0.4725996   0.5147969  -0.6002735   0.24194355 -0.49316403
 -0.25599185 -0.18389003  0.08920288 -0.6103322  -0.3765592  -0.3773871
  0.03263718  0.67821825 -0.1246903  -0.13718417 -0.38986278  0.16759758
  0.00129546 -0.08593117  0.72097564  0.16299298  0.0149794  -0.10980239
  1.1732446   0.11197533  0.24187106  0.4348525 ]
[-0.13550663  0.0746735  -0.05851074  0.09448145  0.00413506  0.31872684
  0.5345209  -0.00128429 -0.33302438  0.19847761 -0.02260734 -0.06922048
 -0.26089498  0.00660101 -0.04418762 -0.1826533   0.30016628 -0.20851201
  0.05831638 -0.2331795  -0.54866403  0.1068918  -0.4147765  -0.18570092
  0.48474142  0.07257069  0.09740884 -0.03884334  0.20789573  0.24431579
  0.08478627  0.4177551  -0.24914728 -0.10595135  0.3638433   0.07694051
 -0.05640576 -0.03472118 -0.10886192  0.16589771]
layer 3 Activation
tanh
layer 4 Dense
40 20
[-0.49976918 -0.2527396   0.41702798 -0.02600273 -0.19697309  0.21876466
 -0.27124447  0.33414075  0.04552844 -0.04815054 -0.28729442 -0.0524319
  0.15614787  0.25194     0.18679936 -0.38615954 -0.5349117  -0.26966622
 -0.28878933 -0.09639347]
[ 0.49107468  0.2317891  -0.44860852 -0.37477955 -0.15967965 -0.28750718
  0.00825798 -0.23021214  0.08224005  0.40957722 -0.12727936  0.04195333
  0.18590789 -0.21111819 -0.4859075   0.29476961 -0.20177315 -0.06148901
 -0.2627786   0.160344  ]
[ 0.0856762  -0.28316307 -0.06757812  0.3080539   0.29364738  0.57606107
 -0.16097398  0.28787395 -0.1721277  -0.34895897 -0.15659237  0.03876329
  0.3262415  -0.31797272  0.43687078 -0.12894186 -0.13290435 -0.14038554
 -0.10497499 -0.355474  ]
[-0.29138735  0.10573342  0.08353797 -0.08644851 -0.26183403 -0.1022047
 -0.08366301  0.2508298  -0.04619595 -0.27277368 -0.38382986 -0.07685503
  0.21761604 -0.20039979  0.1836657  -0.05119263 -0.06974163  0.39951542
  0.32448536 -0.07842879]
[ 0.49437758 -0.02463953 -0.20136467 -0.09319063 -0.39801854  0.50142723
 -0.02397388  0.1064902   0.5073392  -0.10637155  0.17005125 -0.18718699
  0.04408907  0.34253785  0.4503092   0.36887768  0.16777006  0.01365071
  0.29674718  0.75748754]
[-0.03538804  0.05168153  0.54102486 -0.30481842 -0.22083348 -0.06169743
  0.08771627  0.06757396 -0.27174667 -0.41501266 -0.19113655  0.01962436
  0.5328615   0.21172492 -0.302122    0.10241079  0.2336212   0.14934875
  0.00239534 -0.5186434 ]
[-0.5019447   0.29263484  0.20589642 -0.38689923  0.11001406 -0.24602953
 -0.1690165   0.23831281  0.08231073 -0.5172528  -0.18509486  0.13376848
  0.07250293  0.3494533   0.21948712 -0.39186764  0.13273895  0.5364487
  0.22429466 -0.52055675]
[-0.08814824  0.21596156  0.09986386  0.31015384  0.18009675 -0.00698521
  0.09414693 -0.5346161   0.01197042 -0.2735412   0.5986114   0.37276292
 -0.44924974 -0.01577678 -0.32940772 -0.13631764 -0.00181339 -0.2299617
  0.257668    0.02090539]
[ 0.32657474  0.02408904  0.11938667  0.0606874   0.21958224 -0.20585114
 -0.03414311 -0.16797313  0.37373137  0.15187378 -0.12428716  0.2577933
 -0.22272596 -0.09984162 -0.0583589  -0.0448995   0.14588054 -0.2654279
  0.2221617   0.4470592 ]
[ 0.0776888   0.10929547  0.03911442 -0.11972425 -0.02187517 -0.09782569
 -0.01864717 -0.3746835  -0.08697622 -0.36955383 -0.32489488  0.56083024
  0.06737547 -0.13581902 -0.28742844  0.10091147  0.43793404 -0.17553501
 -0.35245267  0.06482692]
[-5.0318742e-01 -7.0101172e-02  3.0740413e-01  3.8778809e-01
 -3.3586461e-02 -5.6385860e-02 -3.3376381e-01 -1.3060512e-01
  1.5765229e-01  6.4852707e-02 -1.3495435e-04  3.7927228e-01
  2.2100495e-01 -4.0272310e-02  2.0780914e-01 -1.2757239e-01
 -8.1094831e-01  1.7419882e-01  2.6568225e-01  1.3985433e-01]
[ 0.23262043  0.07502748 -0.44957843  0.21708852 -0.43940747  0.22567333
  0.05660797 -0.27337882  0.19608167  0.05867423  0.13641097 -0.13981557
 -0.04236644 -0.25280133 -0.02682805  0.1476555   0.11716504 -0.03036835
  0.39391902  0.31270552]
[ 0.44593894  0.32870004  0.63242006 -0.09147456  0.4937322  -0.05226256
 -0.10015877 -0.39883402  0.17516679  0.5302379   0.12888336  0.27371076
 -0.3195999   0.50691736 -0.10918082 -0.13244994  0.28146216 -0.03303713
  0.3134151   0.19390747]
[ 0.34665194 -0.05820585  0.01794545 -0.20866314  0.05545829 -0.33336774
  0.19945751 -0.5009883  -0.0376726   0.13449043  0.5794234   0.24122503
 -0.5287352   0.34093368 -0.4440322  -0.20437787  0.23069228 -0.0887032
  0.07323047  0.16535366]
[ 0.3804244  -0.25196797 -0.23801328  0.04546008  0.08367866  0.04735548
  0.18751878 -0.40497708 -0.15164652 -0.02096019  0.10354523 -0.03927284
  0.06771752 -0.12520197  0.02990849  0.26459506 -0.1195726   0.09707676
  0.6191433  -0.03660902]
[-0.37850145  0.12622413  0.5081453   0.15712616  0.42450425 -0.07174152
 -0.29883245  0.19727561 -0.46668026 -0.286912    0.09603234  0.05513706
 -0.31559396 -0.7264224   0.18809894 -0.33193764  0.04425213 -0.21999376
 -0.71894497 -0.35443133]
[ 0.18757291 -0.28331944  0.33908767  0.2417308  -0.37257722 -0.15272981
  0.24656084  0.12176879  0.41195068 -0.19419761 -0.14633481 -0.03452641
 -0.27684006  0.37377676 -0.21959415  0.40672663  0.1491914   0.11078046
 -0.16032098  0.21555868]
[ 0.26843002  0.11010781 -0.6281604   0.08789207  0.5303227   0.16295539
 -0.34207162  0.2649813  -0.10594226  0.7100864   0.47831437 -0.13511023
  0.48339683  0.01736289  0.46930388 -0.08122519 -0.34112006  0.27593204
  0.9281143   0.28602824]
[-0.27562654 -0.27582005  0.20701985  0.18950436  0.11312616  0.17464995
 -0.0899519   0.3646029  -0.31134698  0.07608568  0.07586347 -0.26456863
 -0.14101729 -0.17198966  0.0934952   0.00558679 -0.5048396   0.08325301
 -0.29687667 -0.4623523 ]
[ 0.05586904 -0.24629046 -0.43759483 -0.16334443 -0.19698477 -0.11243825
  0.24080497  0.3904942   0.3104727   0.67941946  0.18279807 -0.12381972
 -0.09317166 -0.28470138  0.37104103  0.09847253 -0.12708007 -0.04904539
 -0.35717338  0.05975499]
[-0.05546652 -0.31319773 -0.03026203  0.02383353  0.52646816 -0.06579666
 -0.518433   -0.13413166 -0.04967717  0.456638   -0.25351053  0.0955402
  0.08260185 -0.4190389  -0.40528017 -0.57022077 -0.35556698 -0.5056542
  0.23954806 -0.37847167]
[-0.1297103  -0.30513403 -0.04833955 -0.22843361  0.2766027   0.23837194
  0.1325644   0.5034557  -0.5244299  -0.2722345  -0.3735074  -0.23031126
  0.5268309  -0.05513616  0.78907305  0.09056487 -0.41737908  0.22462322
 -0.5013035  -0.45660764]
[-0.520403   -0.45775142  0.01467474 -0.27546155  0.41443866 -0.2846185
 -0.5515551   0.31900632  0.573932    0.21101986 -0.22743756  0.3855871
 -0.2578587  -0.18305649 -0.12555882 -0.46753004  0.10533414 -0.6930761
  0.28202218 -0.25356084]
[ 0.01364983 -0.13513926  0.20109673 -0.22375269  0.1628918  -0.14035115
 -0.38877404  0.25813162  0.36863366 -0.26179853  0.05734048 -0.15897149
 -0.48361036  0.2842899  -0.01084763  0.43940088 -0.07363331 -0.30669793
 -0.29979795  0.23866986]
[ 0.01943246 -0.03388166  0.41448337 -0.0299553  -0.79015726 -0.30121124
  0.41995266  0.00213314 -0.04902056 -0.6899917  -0.01496592 -0.10892044
  0.17666206  0.2555353  -0.14552493 -0.01666815  0.8941666   0.36591136
 -0.5918274  -0.10752442]
[ 0.38022396  0.04559822  0.44690743 -0.7976626   0.18298924 -0.32408768
  0.07197382 -0.28535092  0.7287782   0.3719434  -0.02554956  0.61751676
 -0.1793599  -0.09712073 -0.23467286  0.36867395  0.06240651 -0.16759627
 -0.47284183  0.687226  ]
[ 0.09345672  0.15767056  0.19813752 -0.07057411  0.03598759 -0.18031558
 -0.41236466  0.26269844  0.22818108 -0.24781024 -0.44480813  0.14843109
  0.19994876 -0.04118387  0.14080249 -0.09521184 -0.18356784 -0.5274878
 -0.5835128   0.17982599]
[ 0.06414562  0.03217281 -0.1418641   0.01669065 -0.35689592 -0.2149207
 -0.06789453 -0.01276367 -0.4854244   0.41533604 -0.32086602  0.1471512
  0.10693139 -0.294985    0.18839715 -0.07330563  0.15158856  0.2993831
 -0.20635724 -0.36875072]
[ 0.5034447   0.00392084  0.05736422 -0.32579526  0.7765189   0.14638928
  0.38137886 -0.2652894   0.16173628 -0.22783487  0.22467297  0.15540127
 -0.17082988  0.03170247  0.4778021  -0.09255725  0.34696653 -0.23660734
 -0.23847654  0.3893278 ]
[ 0.18737811  0.24596657 -0.16044076  0.05566169 -0.26254073 -0.31868002
  0.2337832   0.16995546 -0.20807174  0.02653835 -0.27752233  0.02749682
  0.22256728  0.35259017 -0.01146706  0.11620174  0.26765847  0.5328518
 -0.5729297  -0.27392983]
[ 0.42122027  0.03469284  0.1413553  -0.15768662 -0.35613433  0.0618839
 -0.05472011 -0.1776759  -0.3735227  -0.42388016 -0.32083878  0.09114248
  0.36358163  0.25319305  0.3884393   0.15962556  0.26134512  0.06580631
 -0.3261474   0.03157917]
[ 0.7514247  -0.07811861  0.34026438 -0.5724541  -0.13509902 -0.09635031
  0.77152514  0.26538366  0.48976105 -0.65711564 -0.06789362 -0.13707338
 -0.01345525  0.37480384  0.04815626  0.50471276  0.42994717 -0.07719815
 -0.40557197  0.43667752]
[ 0.12564658  0.14933561 -0.08487189 -0.25147974 -0.35712174 -0.38519076
  0.1956537  -0.42012146  0.13539857  0.32113653  0.45298105  0.36810234
 -0.28915563 -0.7033611  -0.85377717 -0.22108626 -0.33624893  0.0159541
 -0.3453093   0.23507632]
[-0.31873932  0.21262297 -0.327953    0.4126335   0.07122994  0.18321863
 -0.37734926 -0.11680625 -0.03854647  0.31830975  0.37427834  0.00676481
 -0.4490112  -0.5948519  -0.05357861 -0.19992472 -0.23553534 -0.09389362
  0.23130535  0.13620384]
[-0.19207956  0.27679518 -0.3101253   0.21551786 -0.87362385 -0.02557409
  0.07229695  0.16423668 -0.30080566 -0.5427139  -0.07532589 -0.59773576
  0.19655682  0.1275597   0.6073018  -0.02687676 -0.42897794  0.35354385
 -0.44140056 -0.3447781 ]
[-0.22566241 -0.11221307  0.47759244  0.34960076 -0.2386427  -0.36763176
 -0.3081709   0.12900679  0.276385   -0.28310692  0.29924414 -0.04727809
 -0.05031154  0.63917243  0.04438654  0.04591956 -0.21160643 -0.07605089
 -0.00459056  0.2714705 ]
[ 0.09229946  0.6738957  -0.11234542  0.23112217 -0.43574318 -0.69209003
  0.09243689 -0.62385005 -0.22429445 -0.09732153  0.19694743  0.74843925
 -0.17137566 -0.11321302 -0.8384762   0.17787461  0.190982    0.20713851
 -0.16318817 -0.28083584]
[ 0.10806298 -0.0209707  -0.48526517 -0.02290376 -0.63853884  0.53131753
  0.47522002  0.11475492 -0.29778516  0.5185853  -0.28806925 -0.26210544
  0.31871352 -0.12414853  0.4401368  -0.04763711  0.39524108  0.22250646
  0.32591164 -0.01512642]
[ 5.72972186e-02  3.20636123e-01 -4.85417008e-01  3.62865865e-01
 -1.10550806e-01  6.83378312e-05 -3.60107541e-01 -2.79280066e-01
  1.95603073e-01  4.62022364e-01  2.31166668e-02  1.86597019e-01
 -1.83143355e-02 -5.40861078e-02 -1.32697299e-01 -8.98469165e-02
 -2.43569672e-01  1.70840416e-02  1.58984929e-01  5.38139403e-01]
[-0.19405785 -0.17517851  0.5785469   0.5777519  -0.08060083  0.418391
 -0.05225673  0.34758618  0.14461504 -0.24775039  0.02446318 -0.1648978
  0.03312388  0.40135995  0.33313388  0.16875504  0.19428837 -0.23020616
  0.3827893   0.21493492]
[ 0.17302185  0.05440113 -0.07049006  0.04035088 -0.45903188 -0.00329618
  0.17384906 -0.03601438 -0.08990989 -0.18310821  0.0633623  -0.00923312
  0.15874116  0.1211186   0.11786546  0.26139715  0.08224093  0.3193889
 -0.23909916  0.19531716]
layer 5 Activation
tanh
layer 6 Dense
20 1
[0.9134647]
[1.2880541]
[0.15245965]
[0.9543119]
[-0.7347799]
[1.0478586]
[0.8684575]
[-1.7765875]
[-0.967545]
[1.227182]
[1.1930724]
[-1.008798]
[1.0615511]
[-0.96397793]
[1.0739684]
[1.1189154]
[-0.6274209]
[0.7617254]
[1.6425854]
[0.88628924]
[0.6318046]
