layers 7
layer 0 Dense
20 20
[-0.31934178  0.2870196   0.2737156   0.16269526  0.1541263   0.11521311
 -0.23008665  0.26971206  0.619208    0.110657   -0.02865403  0.35617116
 -0.31438458 -0.12234345 -0.15129435  0.21519187 -0.7034492  -0.24494559
  0.52323097 -0.2454424 ]
[ 0.24295877 -0.08106641 -0.05227997  0.30193084  0.30942407 -0.11382126
 -0.8802664   0.26028952  0.2924811   0.33614925 -0.760424    0.13298854
 -1.2009708   0.10089223 -0.2776571  -0.08421677 -0.06164607 -0.36471894
 -0.5864493   0.09870706]
[ 0.24074349  0.03212943 -0.15288478 -0.3053013   0.34630552  0.09337421
 -0.95981735  0.6975101  -0.29138556  0.49569398 -0.58949447  0.41658613
 -0.7985527  -0.03532472 -0.05131301 -0.46928814 -0.18553121 -0.03451903
 -0.8965992   0.36966705]
[ 0.0325626   0.36987466  0.05812817 -0.2764345   0.3292097   0.32311612
  0.17876236  0.14324465  0.37489688 -0.39538136  0.29919052 -0.35785604
 -0.31347355 -0.1450586  -0.00632975  0.4169073  -0.14653726 -0.18444785
  0.10614828  0.0404114 ]
[ 0.34171087  0.30015764 -0.16806245 -0.0453567   0.31104615 -0.13539231
 -0.15094933 -0.20163576  0.30968252  0.32288522 -0.19082378  0.34366977
  0.22960748  0.00481833 -0.50794774 -0.0562932   0.40191144 -0.7223834
  0.02785226 -0.42890397]
[-0.70759     0.15543987  0.35913196  0.22330764 -0.02334142 -0.02744716
  0.5227144  -0.18365993  0.2681853  -0.5083336   0.3937862   0.24377123
  0.87444764  0.33467188 -0.20971888  0.6678752  -0.45311385  0.3285244
  0.77642846 -0.899848  ]
[-0.27665532  0.05169513  0.16417468 -0.26207206 -0.5169758  -0.40828252
  0.59240836 -0.7469649  -0.12090926 -0.4525108   0.68103176 -0.06921694
  1.0062679   0.285707   -0.13355844  0.27289647  0.02990383 -0.27410302
  0.60624474 -0.6332682 ]
[-0.27005675 -0.3364733  -0.01128997  0.1637319   0.43175268 -0.09155121
  0.11608848  0.18227936 -0.4908042  -0.44676906  0.39100882 -0.40617582
 -0.21970601 -0.2816911   0.61985767  0.0777516  -0.01861243  0.27274275
  0.05831504  0.34034777]
[-0.00352136  0.11961778 -0.7544966  -0.2195082   0.344077    0.21129835
  0.3335358  -0.62587494  0.6811418   0.37030736  0.34566256  0.00522963
  0.3436518   0.21497802 -0.46005887  0.04863993  0.37151253 -0.29790154
  0.36220217  0.6111063 ]
[-0.2367501   0.01496104  0.6501511   0.02603935 -0.3471882   0.04300375
 -0.49832246  0.24227531  0.26159003  0.5831424  -0.05139112 -0.32598612
  0.95936716 -0.7069892  -0.06048787 -0.3683615   1.1331316  -0.19630817
 -0.3705011   0.03847617]
[ 0.7754011  -0.210531   -0.62132305  0.23916338 -0.18121853 -0.18029492
 -0.7005851   0.8194172  -0.21341725 -0.08401496 -1.314625   -0.36228672
 -0.18434152  0.19048007 -0.7126869  -0.9859268  -0.27350646  0.16753674
 -0.8980172  -0.92749345]
[ 0.5479472  -0.893605    0.933369    0.36265853  1.1238884  -0.5225229
  0.254958    0.05528102 -0.71518713 -0.9761436  -0.33628792 -0.36281404
  0.66719824 -0.16037491  0.68657064 -0.06428749 -0.95191246 -1.143515
  0.38494736 -0.5042682 ]
[-0.27496988 -0.19045188  0.6542005  -0.29713368 -0.33182147  0.01594307
  0.19211237  0.23123889 -0.4802838  -0.29890972  0.2421498  -0.35184926
 -0.45367953 -0.45032302  0.08357271  0.01031298 -0.09707636 -0.52025265
 -0.11081143  0.02407155]
[-0.23826854  0.6565298  -0.39648348  0.560981    0.64029604  0.22899665
 -0.36719063  0.06554323  0.44211313 -0.4446089  -0.0088092  -0.404463
 -0.08763903  0.07695249 -0.06040901  0.2523832  -0.58522546  0.11573825
  0.21046218  0.4590302 ]
[-0.6583687   0.3689871   0.6197046  -0.27078214 -0.12612246  0.17604542
  0.42056212 -0.5292267  -0.13714154  0.31009534  0.81043893  0.04017561
  0.21725899  0.08189346  0.67641336  0.21509069  0.22173224 -0.3572846
  0.04640514  0.42452642]
[-0.7680197   0.58586425 -1.08535    -0.86456007 -0.19898318 -0.23157483
  0.5242062  -0.46919847 -0.3888282   0.36511797 -0.12026587  0.05360752
 -1.6650951   0.3139333  -0.36415294 -0.5198968   0.72568196  0.77503717
 -0.20435947  0.3521579 ]
[ 0.27887204 -0.49246827  0.07017561  0.09229939  0.07504299 -0.30901352
  0.13417745  0.4464118  -0.17243224  0.9454764   0.19716723  0.29747394
 -0.03859397 -0.1239771   0.37371597 -0.05543623 -0.224591   -0.26761037
  0.33396083 -0.34721133]
[ 0.0826336  -0.10357211 -0.5589712   0.05926877  0.4593854  -0.48174277
  0.30757943 -0.4424334  -0.42349494  0.08053271 -0.13214715 -0.29667225
 -0.72555166 -0.08160704 -0.24795184 -0.3452493  -0.6277067  -0.38399884
  0.15653062 -0.33232057]
[-0.24130966 -0.23988228  0.14381558  0.01573331 -0.08240198 -0.4839327
  0.34809494 -0.63612044 -0.34521735 -0.27727872  0.00619963  0.05489824
 -0.22036804 -0.20785858 -0.31589246  0.8875882   0.0373886  -0.2836036
  0.44030944  0.48272112]
[-0.20609394 -0.3406069  -0.57561743  0.15305626 -0.81815875 -0.07066805
  0.46337485 -0.34034723  0.5636426  -0.12702277  0.40045008  0.18870907
 -0.4592513   0.5537025   0.09932718  0.48464432 -0.09498794  1.3704219
  0.08067571  0.89899087]
[-0.05554925  0.11302915 -0.03600495  0.04722017 -0.03768074  0.12059192
 -0.18040718  0.08562327  0.08966189  0.00896275 -0.03571854  0.03817254
 -0.07138111  0.06255349 -0.06896253  0.14715135 -0.11844173  0.09681343
 -0.05025541 -0.09449175]
layer 1 Activation
tanh
layer 2 Dense
20 40
[-0.21076223  0.04824496 -0.25740412  0.20889668  0.27524856  0.3200353
 -0.37611645  0.31597558  0.19049646  0.2418553   0.02710264 -0.07277242
 -0.20364456 -0.10035717 -0.33933395 -0.18206164  0.23610494  0.23383205
 -0.3084644   0.29525825  0.07730377  0.33901757  0.21288177 -0.32365835
 -0.09083284  0.05996839 -0.1054794  -0.5534212   0.13007183 -0.12083465
 -0.07902171  0.04395713  0.03025184  0.21391466 -0.18016651 -0.03353642
  0.00443238  0.13756862  0.02948199  0.12486962]
[-0.25603202 -0.05719385 -0.0335793  -0.06223927 -0.30056763 -0.04122562
  0.07095257  0.37215847 -0.21970476  0.1060304  -0.16976905 -0.17469172
 -0.08345082  0.3216953  -0.01146792  0.01530504  0.11259685 -0.24329087
  0.06950026  0.18836538 -0.14404453  0.03733854  0.16253139  0.22383127
  0.093762    0.01326433 -0.14653738  0.35629633  0.01973734 -0.19996987
  0.24119046 -0.01010249 -0.12272801 -0.33309197  0.20325254  0.1899031
  0.09048573  0.22403975 -0.14546329 -0.24853253]
[ 0.3987686  -0.25358164  0.17111003 -0.0565965  -0.19848274  0.08982195
  0.5337242  -0.7648982  -0.36138368 -0.3789057  -0.21439886 -0.07488495
 -0.18446252  0.25055683  0.27925482  0.11538798  0.11285847  0.37931058
 -0.37395197 -0.21097289  0.7645127  -0.25530684 -0.11792122  0.02939083
 -0.24802291 -0.5341979  -0.07841471  0.1202837  -0.02485945  0.21903598
 -0.20806703  0.08817371  0.18327557  0.07859407 -0.5844004  -0.04925624
 -0.34183428  0.14627035  0.07082204  0.68848044]
[ 0.29473513 -0.07458211  0.11558029  0.18121248  0.18138388  0.19830164
 -0.3105639   0.07720457  0.0725062  -0.00116351  0.01702962 -0.07692319
 -0.03050225 -0.1191728  -0.2630143  -0.03887312 -0.2675411   0.03940977
 -0.28334352 -0.21970822 -0.26471525  0.03705012 -0.03144954 -0.4014786
 -0.0337249  -0.13356255 -0.33246064 -0.22390775 -0.20390256  0.02489311
  0.26351923  0.3744521   0.05216675  0.03602847  0.26874664  0.17426561
  0.27091345 -0.09635     0.0009306   0.24604444]
[ 0.2343227  -0.20111579 -0.15959534  0.0768299   0.22352533 -0.2774685
 -0.56189543  0.16160767 -0.09717601 -0.15347509  0.08462486  0.10998632
  0.07005931 -0.04021456 -0.3028162   0.1141765   0.14181806  0.38698336
 -0.02550629  0.00112879  0.22531189  0.23804176 -0.09128907 -0.19374889
 -0.19593601 -0.19509904 -0.06207108 -0.11140639 -0.14533713 -0.11252464
  0.3569816  -0.17189443 -0.14187518  0.06629876  0.05892495 -0.08680993
  0.01638503  0.18367323 -0.01202503  0.12658662]
[ 0.21752518 -0.23432043  0.09028014 -0.07507756  0.14386778 -0.04689723
 -0.11104936 -0.09242298 -0.0822834   0.16163556  0.10604568  0.12140732
 -0.20433828 -0.11330444  0.24349502 -0.05634057  0.08786032 -0.15285678
  0.3741538  -0.01725623 -0.1503807  -0.03766196  0.21151306  0.14696307
  0.10798252  0.1663089   0.20119883  0.05085519  0.04546741 -0.12544395
  0.04761493  0.06508595 -0.02209593  0.17339861 -0.00073266 -0.12168961
 -0.13187382 -0.1511203  -0.06287787 -0.27062324]
[-0.06889747 -0.27644843  0.25804675 -0.4059617  -0.09155815  0.07565152
  0.16661118 -0.15486075 -0.06682174  0.06729814  0.28260186  0.11541516
 -0.2649318   0.03789385  0.21542895  0.18186633 -0.446713   -0.3540168
 -0.08764473 -0.24228708  0.26693437 -0.12012102 -0.12934694  0.40844005
  0.04869231 -0.03516486 -0.2090598   0.23578127 -0.02769602  0.00511747
  0.21151838 -0.07465213  0.21720318  0.13256867  0.1990904   0.18798675
  0.16533008 -0.03311921 -0.01346852 -0.20223208]
[ 0.11325403 -0.0073105  -0.08855125  0.01028423  0.00506755  0.12712808
 -0.5747063  -0.03189415 -0.16133054 -0.3954185   0.02267856 -0.15579751
 -0.1429791  -0.36894524 -0.21655503  0.04327387  0.23647492 -0.04390799
 -0.09610742 -0.15978755 -0.29280606  0.44702503 -0.46646664 -0.32737237
 -0.18820383  0.12724845 -0.25974104 -0.66990066 -0.08485591  0.15804121
  0.06263072  0.0908661   0.40047708 -0.1614397  -0.5907089   0.07610651
 -0.29262087 -0.1049341   0.18645495  0.12998642]
[-0.29003882  0.05851551 -0.10512348 -0.12860332  0.23194301 -0.21754128
  0.00549852  0.08612796 -0.3159133   0.21926636  0.47154278  0.13938531
  0.00716559  0.0206437   0.20829433 -0.36294857 -0.02804369 -0.04686612
  0.35302544  0.00322704  0.21894251 -0.24893188  0.13323472 -0.20714654
  0.33901665 -0.24326204 -0.04161423 -0.21585108  0.3095937  -0.18899913
  0.13764037  0.23913632  0.20569155 -0.0331851  -0.13749847  0.40067974
  0.44172612  0.1859565  -0.23171945 -0.47616425]
[-0.162444   -0.07099754 -0.27275097  0.2771305   0.37716195  0.29856881
  0.16135915  0.46408728 -0.06846108 -0.23766108 -0.17807634  0.08517244
  0.04376308  0.09931454  0.1432757   0.17042355  0.07059268 -0.15290879
 -0.08230732  0.15306902 -0.1141785   0.05092131 -0.01877552  0.02098664
  0.14051305  0.06029201  0.14479312 -0.16187125  0.00286545 -0.10689846
 -0.54609066 -0.22186689  0.09758891  0.2712315   0.07419336 -0.13500111
  0.17874216  0.1202816   0.01213876 -0.4629973 ]
[ 0.07348463 -0.16224627  0.19694026 -0.04983989  0.01650041 -0.14973325
  0.16360824  0.17727907  0.04852407 -0.26642314 -0.26073372 -0.08084343
  0.02040952  0.3213356   0.49089062  0.11573946 -0.24915068 -0.21584369
  0.2897011  -0.15471102  0.519427   -0.20465955 -0.02401202  0.46503013
 -0.03076961  0.05746828  0.02740712  0.4607192  -0.10343263  0.17904854
 -0.42686713  0.15599826  0.25754693  0.23508589  0.27496573  0.05859283
 -0.10114436  0.18296027 -0.22647676  0.2462146 ]
[ 0.07472743  0.18194343  0.15225615  0.04927923 -0.06494873  0.5082955
  0.01741924 -0.00585897  0.35468116 -0.23160617  0.05861733 -0.150977
  0.1410898   0.28496692 -0.10863925 -0.16511038 -0.0965674  -0.23884565
 -0.10847691 -0.25504524  0.30718544 -0.34236547 -0.16932297  0.1885764
  0.02894259  0.18682413 -0.00508075  0.19147965 -0.13270116 -0.12037761
 -0.58036554 -0.04509732 -0.03295456 -0.16363095  0.3223729   0.14996843
  0.22505122 -0.09068898  0.20764022 -0.27128094]
[ 1.99351460e-01 -2.78133422e-01 -1.96028605e-01  5.44889234e-02
 -2.11640045e-01 -6.66726008e-02 -1.43086135e-01 -1.92396030e-01
  1.95729911e-01 -8.29655156e-02  1.87309366e-02  2.08968500e-04
  1.83174998e-01 -1.21617414e-01  7.71893486e-02  1.30737096e-01
  1.80949062e-01  2.86553472e-01 -1.88619718e-01 -2.73593664e-01
  2.85104096e-01 -1.50300890e-01  1.28849879e-01 -2.14992180e-01
 -1.34118989e-01 -2.67390292e-02 -5.50129339e-02  1.57118682e-02
 -2.62142181e-01  3.01681101e-01 -1.26099035e-01 -2.28047445e-02
 -1.43541172e-01  2.22712338e-01 -3.98716748e-01 -1.21607684e-01
 -4.29161817e-01 -3.41374502e-02 -6.30893782e-02  3.40657622e-01]
[ 0.00426648  0.35723722  0.32596946  0.25242463 -0.14242116  0.19961865
 -0.3040241   0.01055731 -0.18953493 -0.12063911 -0.1302708   0.04893158
 -0.14287028 -0.21344572  0.10882339  0.07566513  0.2018015  -0.03501445
  0.00346583 -0.06706716 -0.28241798  0.43199897 -0.08786377  0.16274233
 -0.12881778 -0.06796014 -0.00084954  0.1467335   0.14754176  0.10852677
 -0.04568374 -0.03669365 -0.06422441  0.39080587  0.34464428 -0.02166725
  0.2969527   0.01022431  0.04550058 -0.02678361]
[-0.11164677 -0.43890858  0.00203725  0.1015038  -0.1633723   0.03225418
 -0.37048486 -0.5790891   0.14334793 -0.4007681  -0.24588874  0.07218271
 -0.05033065  0.28953883  0.566637    0.09978275 -0.49540788  0.10798614
 -0.24690555 -0.2567803   0.4664106  -0.16025878  0.1490039   0.09067551
  0.02168541 -0.22750002  0.3663235   0.4991697  -0.08187841  0.2258086
 -0.05518815 -0.02726822 -0.20632482  0.38909298  0.15466712 -0.07438968
 -0.02976527 -0.12664819 -0.09472207  0.36093196]
[-0.27747095 -0.231307    0.19830279  0.08196938 -0.4194585   0.1516839
  0.2515939  -0.00234922  0.33065492  0.26339915 -0.4334741  -0.03113443
  0.09441485  0.20456465  0.22720729  0.4725017  -0.10684426 -0.353663
 -0.46286765  0.21916166  0.41273624  0.02325794  0.55749834  0.3917207
 -0.03198287 -0.06482499  0.23925507  0.58818525 -0.3210212  -0.03320834
 -0.23011485 -0.1576134  -0.23438275  0.01855821  0.6793995  -0.01291935
  0.15539332 -0.00868793 -0.03057379  0.10729156]
[-0.14711086  0.25036559 -0.0750412  -0.03734704 -0.16550967 -0.54806566
  0.42049986  0.14585328 -0.03163388  0.3702962   0.22923312 -0.02240742
  0.03368826  0.2597461   0.29610622 -0.12611227  0.16374789 -0.09841728
  0.11932076  0.47472334 -0.91462255 -0.56548065  0.10571094 -0.11277886
 -0.01766766  0.15288109 -0.07075505  0.14654289  0.26690614 -0.32057685
 -0.6094583   0.11870358 -0.40622443 -0.11079116 -0.2602328   0.37854332
  0.03784708  0.06320434  0.01575791 -0.50671035]
[ 0.03200576  0.37723365  0.36317277 -0.21886508 -0.18713857  0.07885019
  0.43397227  0.37429082 -0.02845457  0.30457854  0.29808322  0.08398831
 -0.19233099  0.32005242  0.43434522  0.0655192   0.45941612  0.0105994
 -0.06103086  0.14140292 -0.08600013 -0.1704489   0.15129976  0.4095786
 -0.075679    0.04101136 -0.16328281 -0.09422356  0.04685226 -0.06427582
 -0.24565071 -0.0911935   0.00136979 -0.0729578   0.39855197 -0.3258543
  0.3096233   0.05917252 -0.0904491  -0.28902334]
[-0.08605269 -0.3711406  -0.02779463 -0.11552643 -0.06826694  0.09341613
  0.1141706   0.19441502 -0.05280237  0.1127801   0.29884127  0.07114559
 -0.05213296  0.18089786  0.08812631  0.3375949  -0.06018198 -0.14599973
 -0.37904155 -0.07184785  0.33125862 -0.00109577  0.0119725   0.2552554
  0.05754039 -0.02445272  0.19010852 -0.13691358 -0.06126336  0.23876058
  0.35835102 -0.13725321 -0.12594953  0.09484143  0.33983332 -0.21817629
  0.12699702  0.00184006 -0.15863974  0.18336466]
[-0.18555303 -0.22778341  0.25269857 -0.17619397  0.1415059  -0.06698825
  0.13358179  0.15632232 -0.29647714  0.01117058  0.04896948 -0.00176107
  0.13438861  0.27322692  0.29161695 -0.1083988  -0.15486301 -0.08429506
  0.11603663 -0.24395616  0.00057643 -0.32584384  0.07817324  0.2592861
  0.21199304 -0.05100561  0.17133059  0.28025964  0.17110947 -0.31114793
  0.24734075  0.1332407  -0.04886786 -0.1705998   0.4787633   0.3816014
 -0.23982053  0.13641024  0.02509824 -0.24937217]
[-0.17347717 -0.03147132  0.05230494 -0.02573901 -0.08675874 -0.03998741
  0.03758805  0.02156178 -0.1871146   0.13353814  0.11680635  0.02920553
  0.0569506   0.17251591  0.08218116 -0.12418093 -0.01632612 -0.22752503
  0.22483957  0.02390006  0.01040583 -0.0042976   0.22115867 -0.0508946
  0.13271482  0.1083124   0.09261742 -0.11781573  0.20026322 -0.32155523
 -0.0244963   0.0777017  -0.13823377 -0.15435717  0.08341027  0.3374689
  0.16986068  0.06254088 -0.01838615 -0.5205647 ]
layer 3 Activation
tanh
layer 4 Dense
40 20
[ 0.10718732  0.20690951 -0.01675687  0.24146141 -0.06714965 -0.10184429
 -0.04867158 -0.18127547  0.46110144 -0.10053535 -0.16536617 -0.06264057
  0.2202763   0.03725692 -0.15378965 -0.08049484 -0.16899785 -0.11521099
 -0.02835283 -0.07055895]
[-0.24293703  0.11655768  0.13807611  0.00546261 -0.07809493  0.05319239
 -0.14752975  0.45223036  0.43508723 -0.2033216  -0.2547733   0.15819675
 -0.18673275 -0.08256369 -0.15612096 -0.22953424 -0.22552231  0.3902192
 -0.03319065 -0.14193451]
[-0.12158702 -0.2632886   0.17491552 -0.08178498 -0.19562717  0.22692496
  0.06381929  0.22937319 -0.11764796  0.12395787  0.006349    0.04795789
  0.1880279   0.0012864   0.13713717 -0.05144762  0.22064045 -0.14111656
  0.07027459 -0.14580987]
[-0.02655713 -0.17159371 -0.07162125 -0.17034039 -0.07048134 -0.12702121
 -0.10250323 -0.2338231   0.21135454  0.09812485  0.16020061 -0.26434472
  0.09359685 -0.10831653 -0.04958307 -0.36631823  0.00887106  0.04275247
 -0.20846823  0.20154302]
[-0.30128416  0.21193784  0.01294327 -0.05919654 -0.22777422 -0.2093377
  0.09871315 -0.07875713  0.23719962 -0.17619248 -0.13458079  0.11987929
  0.05059061 -0.09403382 -0.01583185 -0.14683612 -0.32307303 -0.077541
  0.228113    0.01248962]
[ 0.34860343  0.1742155   0.03101921 -0.26357463 -0.33094454  0.04101832
 -0.09345657 -0.01260067  0.20583622 -0.04302274 -0.2496858   0.15651116
  0.2257614  -0.35991848 -0.26243585 -0.2873653  -0.18443751 -0.04062896
 -0.07207499 -0.00879618]
[ 0.06602034  0.29549506  0.00400517  0.14814687  0.32036752  0.10679748
 -0.09381155  0.1513229   0.08708834  0.25043315  0.47796866 -0.14315309
  0.08474066 -0.02818074 -0.17484242  0.12070587 -0.11649087  0.14852153
  0.13393703  0.10707815]
[-0.2561071  -0.1587132   0.02247337 -0.27980784 -0.07962567 -0.05576124
 -0.17884901  0.16341783  0.3561127   0.08283654  0.03174424 -0.18348694
  0.13884209 -0.07569037 -0.02033603 -0.03702608 -0.35175192  0.2929191
 -0.06170367  0.18112037]
[ 0.20260574 -0.25847018 -0.1405544  -0.26459303 -0.04993976  0.15460101
 -0.09407205 -0.2280068  -0.21288945 -0.05839235 -0.17170694  0.1836618
 -0.03469899 -0.3967068   0.23532636 -0.09003741 -0.22734347  0.13363892
 -0.02182933  0.10573839]
[-0.2621382  -0.02306593  0.1410555   0.02560454  0.05807515  0.04092479
  0.20416425  0.07475311  0.13715762  0.09560276 -0.05136364  0.05357548
  0.16082802  0.12646389  0.29072988 -0.07438582  0.2209474   0.01628699
 -0.01617686  0.06024543]
[ 0.05331497  0.23511815  0.01949845  0.19743234  0.06041084 -0.10329008
  0.28449497  0.23028453 -0.13277838 -0.2720816  -0.3262339   0.18480584
  0.04667082 -0.04555586  0.19544095 -0.06344019  0.06200061 -0.06033167
  0.10870369  0.22533844]
[-0.04983149  0.10006443  0.07079219 -0.05135251 -0.06495921 -0.13488625
  0.13400142  0.02092918 -0.19865456 -0.13508174 -0.23982114  0.17812662
  0.22956346 -0.05528676  0.06232908 -0.0320795   0.03527006 -0.03140315
  0.04696527  0.01788852]
[ 0.03933055 -0.16284014  0.07782397 -0.00363007  0.18683212  0.00268305
  0.08811925  0.05961762  0.1453188   0.01680718 -0.07399547 -0.00775045
 -0.16788082 -0.07058284 -0.08696873  0.100526    0.23653667  0.02122819
  0.02903303 -0.00257475]
[ 0.14547168  0.25601435 -0.05427116 -0.07590314  0.20495145  0.2181549
 -0.07592148  0.09480301 -0.18154936  0.29856363  0.3154431   0.16377011
 -0.15911733 -0.10795832 -0.3120041   0.06508983  0.00957724 -0.05942808
 -0.0445744  -0.19440246]
[ 0.230594   -0.24648279 -0.10286926 -0.3218983   0.09208217 -0.15398122
  0.2182332   0.09848955 -0.43835622  0.24708763  0.33897164 -0.00881533
 -0.0091161   0.22767513  0.21382621  0.30257672  0.23404743  0.11031216
  0.12199353 -0.1314466 ]
[-0.13533062 -0.17342955  0.01111386 -0.21074417 -0.0847147  -0.07530851
  0.10921898 -0.13757662 -0.29427746  0.05591876 -0.15499292  0.03873272
 -0.09646213 -0.1331435  -0.18403792  0.13618931  0.07329719 -0.01496514
 -0.05263318 -0.21422496]
[ 0.08609694 -0.13080813 -0.31066254  0.07194708  0.14815488  0.02394222
 -0.184564    0.15558931  0.12658231 -0.17639744 -0.22617973  0.16232762
  0.17094457 -0.04127798 -0.02731099 -0.19301462 -0.2707631   0.00671909
 -0.15869577 -0.02397551]
[-0.11860634 -0.2439559  -0.02783126  0.15534732  0.00819937 -0.20776369
 -0.35372916 -0.29787415 -0.00722092 -0.19965683 -0.22971287  0.07105099
  0.12250993 -0.02669822  0.41356888 -0.02816779 -0.19654877 -0.04115139
  0.16986491  0.01060486]
[ 0.19366755  0.22945161  0.13201857  0.10445971 -0.29455182  0.02164654
 -0.1181934   0.33700937 -0.05849666 -0.11015249  0.16449594 -0.11566397
 -0.02506985  0.37973395  0.16716598 -0.02315795  0.08189218  0.14534232
  0.07825215  0.17040306]
[-0.04341392  0.12068002 -0.11053913  0.3122618   0.17995505 -0.08623631
  0.02297111 -0.09504255  0.10614395  0.09684012 -0.02590274 -0.28022993
  0.180467   -0.03976532 -0.06414369 -0.03004735 -0.11689574  0.38464007
 -0.16035753 -0.18124196]
[ 0.39764404 -0.38661355 -0.2553313  -0.05791976 -0.15080972  0.10113523
 -0.06618042 -0.40827605 -0.02389626  0.26703557  0.03939718  0.01616023
  0.16757418  0.16989817 -0.40572193 -0.12917772  0.04222924 -0.59251446
 -0.23054953  0.01833759]
[-0.23858221 -0.13621067 -0.22586112 -0.2814942  -0.31403303 -0.0250214
  0.06606467 -0.2648917   0.14132422 -0.27252975 -0.500179    0.2144255
 -0.19819716  0.17673735 -0.16677769  0.03037513  0.2488988   0.0657717
  0.13385135  0.00428953]
[ 0.14899886 -0.1263667   0.08847118 -0.16263242  0.0775231  -0.17970255
  0.0277914   0.1902528   0.11152409  0.27500522  0.11909278 -0.19393393
 -0.27412835  0.15393694  0.04930283 -0.0290854   0.35020754 -0.12935664
 -0.24632129  0.05608363]
[-0.13188368  0.26959667  0.16175902 -0.34401965  0.24505892 -0.1609844
  0.1280245  -0.04094184 -0.2207545   0.26620454  0.38712895 -0.25580585
  0.19196863  0.09046889  0.21303187  0.08447854  0.15481998 -0.2965511
 -0.18972275 -0.09031221]
[-0.13341887  0.05691438  0.18421817 -0.04893683 -0.03373308  0.10054738
  0.11023113  0.24217139 -0.14910626 -0.09148008 -0.20387891 -0.10758615
  0.15124932  0.13218254 -0.15469408  0.1344537   0.29575    -0.05461658
  0.10831083 -0.17964368]
[ 0.14393982 -0.03622186 -0.0329221   0.01881786 -0.143307    0.1233823
 -0.01884003  0.01776351  0.2085089  -0.05586966  0.07379296 -0.25836095
  0.06694924  0.03018026 -0.15337618 -0.1052248  -0.24813798  0.1438682
 -0.07973523 -0.08075539]
[ 0.19688572  0.07681484 -0.11803998 -0.14075354  0.19402884 -0.07233664
  0.11218622 -0.03295231 -0.17421503  0.15711583  0.12585907  0.04571265
 -0.15648791  0.02558417 -0.04615018  0.10007635  0.144151   -0.01334899
  0.07757313 -0.19880009]
[ 0.20622511 -0.00163007 -0.04841149 -0.10567173  0.1491238  -0.0841314
  0.16025656  0.10841423 -0.00307196  0.343228    0.43040085  0.10613287
  0.14425209 -0.04435305  0.17047642 -0.17447338  0.20828581 -0.09324444
  0.18036245  0.07297999]
[-0.14732116 -0.18307106  0.11450841  0.21119301 -0.18810682 -0.14730987
  0.08578815  0.20735502  0.14141373 -0.0125184   0.07530352 -0.04709322
 -0.16226026 -0.02399969 -0.17782022  0.04019327 -0.17177707  0.06267632
  0.13709427 -0.00965716]
[ 0.01531052  0.08934996 -0.27732417 -0.12554821 -0.10143109 -0.01111537
 -0.00534499 -0.23318113 -0.18255575  0.0982091   0.11251132 -0.06112763
  0.04277516  0.10127472 -0.02443271  0.11479474 -0.2985142  -0.12378587
  0.01703211  0.08743374]
[ 0.05205939 -0.09950946 -0.00116703  0.02068065 -0.17291145 -0.11752859
  0.06861738  0.09256934 -0.04987632 -0.3339639   0.18708976 -0.17491655
 -0.03784444  0.2689701   0.03150852  0.06681158 -0.03094037 -0.42250308
  0.13561657 -0.04111229]
[ 0.00448473  0.16224116  0.07574673  0.13065445  0.00572522  0.13052417
 -0.0312083   0.07572095 -0.13128841 -0.04561752 -0.04645797 -0.07165147
  0.21220912  0.24299648  0.16294186 -0.04657345  0.16162886 -0.04152702
 -0.02799072  0.25202635]
[ 0.04990922  0.20463343  0.10836973  0.13360359 -0.10578315 -0.0748032
  0.17803182  0.04617765  0.07279028 -0.25335196 -0.24115156 -0.14528975
 -0.04136167  0.2709479  -0.03753304 -0.19092242 -0.29540494 -0.15031523
  0.0875705  -0.1913554 ]
[-0.32313377 -0.02516655 -0.11162009 -0.5090755  -0.14214987 -0.03801021
  0.33473957 -0.35401738 -0.08386394  0.00069557  0.14541538  0.25164393
  0.12138678  0.0885968   0.15774308  0.17140743  0.20131369 -0.0477584
 -0.19114904 -0.03064356]
[-0.09221115 -0.28788796 -0.27920812 -0.46033597  0.18603022  0.1462761
 -0.0387814   0.34323323 -0.02106154  0.0863293  -0.04002772 -0.14816128
  0.01804198 -0.04403113 -0.06283728  0.06741688  0.13726732 -0.14879815
 -0.02003289  0.12786011]
[ 0.07283619 -0.00751912  0.24287716  0.10441864  0.11178869  0.02606749
 -0.03989995  0.2536963  -0.10775667  0.02956379 -0.00044816  0.15855472
  0.13673489 -0.06659366  0.01106364 -0.04757902  0.2676448   0.07467416
  0.03252789  0.22192355]
[-0.23056759  0.39857486  0.1399432  -0.06571119  0.18485442  0.07602292
  0.01853237  0.0298403   0.3231315  -0.07213736 -0.08662405 -0.35480115
 -0.26697865 -0.31129992 -0.04299587 -0.03893582  0.16486482 -0.0726834
 -0.04793159 -0.21623485]
[-0.05850402 -0.03786807  0.10297934 -0.07855199  0.07547202  0.02663459
 -0.08038207  0.11369575 -0.00039701  0.13677752  0.17185867  0.18259439
 -0.07708255 -0.14298528 -0.19300663 -0.07647247  0.03342988 -0.10155942
  0.15034239  0.13593145]
[-5.3591069e-02 -1.4162029e-01 -6.7924522e-02  2.8692950e-02
 -9.9425890e-02  1.7755006e-02  1.9164139e-04 -1.1397559e-01
 -3.3357888e-03 -9.0870932e-03  1.6082766e-02 -2.9942632e-02
 -2.7206352e-01 -7.5483499e-03 -2.9305374e-02 -1.7594993e-02
 -1.8779624e-02  1.1220940e-02 -8.4185325e-02  1.2722781e-01]
[ 0.08996074 -0.29329705 -0.2154018  -0.15995514 -0.17013824  0.01201576
 -0.05014085 -0.49220517 -0.13595955  0.14997096 -0.04508857  0.15126559
 -0.12863424 -0.01809779  0.17283237  0.17634545 -0.09717269 -0.26271972
  0.16515805  0.12024122]
[ 0.02770873  0.04805891  0.22934343  0.09618489 -0.01311174 -0.01758521
  0.02501798  0.19202995  0.05158427 -0.06249278  0.07156708  0.0154209
 -0.0297392   0.07732873  0.04212888 -0.11040854  0.13958539 -0.17651436
 -0.03387275 -0.03645393]
layer 5 Activation
tanh
layer 6 Dense
20 1
[0.06609323]
[-0.02879955]
[0.01054992]
[0.09083533]
[-0.03361832]
[0.00300826]
[-0.03196971]
[-0.1038425]
[0.0133551]
[-0.1193931]
[0.08815657]
[0.01423502]
[-0.01354279]
[-0.01716472]
[0.00936766]
[-0.00655695]
[0.02707637]
[-0.11348896]
[0.0097263]
[0.01016311]
[0.03763315]
