layers 7
layer 0 Dense
20 20
[ 0.23904142 -0.12180437 -0.4762813   0.3368669  -0.189001    0.23484455
 -0.28124702  0.10686459  0.3919684  -0.25704953  0.48991352  0.168886
  0.15990321  0.00132065 -0.22180735 -0.31513613 -0.04132934 -0.19749282
 -0.27853218  0.06026128]
[-0.06887971 -0.1132422  -0.14622754 -0.08893313 -0.0450311  -0.02219594
 -0.76509404 -0.3589441   0.45430732 -0.5079643   0.17727971 -0.34495878
  0.07360915 -0.51215935 -0.05561524 -0.36765677 -0.44344825  0.02210912
  0.03650146  0.18908265]
[ 0.14227384 -0.14216566 -0.23232724  0.4886173  -0.05082217 -0.04004887
 -0.02932092 -0.3005679   0.18230781 -0.5271572   0.00130719 -0.3422766
  0.25862184 -0.04404144 -0.074733   -0.6664183   0.23349427  0.31273022
  0.24515468 -0.09414436]
[ 0.20739514 -0.20275813 -0.5662574   0.5368671  -0.29372224  0.17977044
 -0.4236069  -0.12300536  0.14860556 -0.11708515  0.39973527 -0.09408414
  0.35658002 -0.10062987 -0.51556396 -0.16006432  0.0064373  -0.17229055
 -0.1157942   0.4089303 ]
[-0.26582137  0.03417301 -0.05385887 -0.25998    -0.31878    -0.4196017
  0.05934491 -0.65695643 -0.5622408  -0.22181632 -0.20363525 -0.20370835
  0.06139663  0.0698536   0.01793018 -0.08217861 -0.2536045   0.06638376
  0.10766289  0.06146625]
[-0.36554286  0.08904123 -0.3175727   0.07596095  0.01461804 -0.44647333
  0.34441084  0.17041686 -0.52212554  0.16177689 -0.4682017   0.36715904
 -0.24883334  0.50684184  0.43621406  0.12574944  0.3960777  -0.3437751
 -0.3012188   0.07693314]
[-0.02855447  0.06409878 -0.3418786  -0.34736404 -0.35310268  0.14048915
  0.04302838  0.28836375 -0.44285476  0.16481428 -0.21138002  0.37618667
 -0.40889975  0.17286086  0.42102373  0.53193665 -0.21495564 -0.34420863
 -0.55063343  0.05909882]
[-0.35694897  0.12435488  0.40997627 -0.61617064 -0.18506734  0.00344932
  0.37225816  0.16190647  0.08596245  0.07786282 -0.50654787  0.14878835
  0.1558322   0.1710111  -0.31143907 -0.3318342  -0.2429323  -0.36107674
  0.04102205  0.09976715]
[ 0.3442391   0.06555205  0.20963822 -0.17090401  0.25553307 -0.3103124
  0.512783   -0.2285514   0.12083992  0.4617242  -0.20038055  0.2564249
 -0.5131255   0.27170405  0.40201303 -0.07344312 -0.05678488  0.03001385
 -0.06864434 -0.00306077]
[-0.06034442  0.2786805  -0.35274896  0.26504782 -0.09738737 -0.1704184
 -0.02457567 -0.5324136  -0.334313   -0.06416336  0.34937972  0.02063588
  0.49812183 -0.2044601   0.4777433   0.095107   -0.45260727  0.02158592
  0.04673672 -0.10527027]
[ 0.22968693  0.10916474 -0.14413494 -0.04764594 -0.0352153  -0.22094034
 -0.07261592 -0.11656877  0.53534913  0.12392021  0.3016105  -0.18970536
  0.08038028  0.26783186  0.122019   -0.2254822   0.12456532 -0.13776629
 -0.3003145  -0.06796358]
[-0.16458826  0.18353105  0.3954406  -0.22764724 -0.42919248 -0.3673256
  0.37658352  0.35377124 -0.68100494  0.62665224 -0.17232785 -0.3926457
 -0.2898086   0.13385494  0.5878605   0.50106424  0.36632836  0.04737778
 -0.10635881  0.1211153 ]
[-0.12370498  0.00286624 -0.00194215 -0.24557644  0.26783848  0.01674642
  0.39017773 -0.28286377  0.05393563  0.42323196  0.05776652 -0.33726767
  0.20601198  0.18848522  0.45968387  0.22070324  0.11576683  0.49106923
 -0.05147792 -0.23592708]
[-0.01668286 -0.1881025  -0.3492251   0.26901892 -0.31529742 -0.0940767
  0.06431096 -0.09663789 -0.35701838  0.29949638  0.23970915 -0.05797066
  0.24310483 -0.06542807  0.43407804  0.01640142 -0.453844   -0.3625698
 -0.05803093 -0.19472177]
[ 0.04941246  0.6521781   0.0423088   0.26231942 -0.22581127 -0.3480579
 -0.01795662 -0.11414889  0.29932088 -0.3508256   0.08501515 -0.23782165
  0.0970724   0.33191887 -0.07001442 -0.5411276   0.24336548 -0.4103823
  0.25808302 -0.0081159 ]
[ 0.2652346   0.5427199   0.02882804 -0.29260594 -0.2502877  -0.34533462
  0.7206975   0.18241683 -0.2830649   0.48756295 -0.31840232 -0.24532637
 -0.04924876  0.01554442  0.1942479   0.45099816  0.49367556  0.62417567
 -0.43680507 -0.07863832]
[ 0.04740021 -0.41723457  0.1770563   0.08817317 -0.07550552  0.11334955
 -0.78641057 -0.14026201  0.20696546 -0.39232606  0.211894    0.116484
 -0.2579706  -0.26869744 -0.61435175 -0.07228735 -0.36596167  0.18214685
  0.00690995  0.43698755]
[-0.23642066  0.06181737 -0.12846135  0.09949628  0.4159255   0.43101963
  0.20390844  0.34504893  0.08782811  0.1618935   0.23975202  0.5846779
 -0.35303843  0.4626357  -0.40671924  0.44110292  0.8791932   0.8182878
 -0.45032775 -0.15730372]
[ 0.16556303 -0.3910172  -0.14957418 -0.1811461   0.12138844  0.6339796
 -0.14417635  0.8839481  -1.0400034  -0.25997937  0.22259754 -0.03336268
  0.1661854   0.06788277 -0.16171695 -0.09483507 -0.8307568   0.19070047
 -0.70671815  0.13294739]
[-0.24226567  0.08816488 -0.05501387 -0.37084678  0.73220164  0.42176175
 -0.771017   -0.24523446  0.8479968  -0.17711195  0.20817028  0.15404254
  0.16525017 -0.24204712 -0.487453   -0.26298314 -0.69976    -0.8837256
  0.06263212  0.02832924]
[ 0.10089262 -0.12060265 -0.1949009   0.23962717 -0.05852069  0.04196237
 -0.03008448  0.03761325  0.09280021 -0.07407115  0.17142254 -0.07503776
  0.11660939 -0.14489678 -0.0179922  -0.12620486 -0.03878993 -0.02270395
 -0.11149722  0.16075522]
layer 1 Activation
tanh
layer 2 Dense
20 40
[ 0.06198447 -0.40458563  0.10086275 -0.001535   -0.32724205  0.11762322
 -0.26929012  0.04417507 -0.08314498  0.02769417  0.05729384  0.16101395
 -0.13051245 -0.1608951   0.1178562   0.26963466 -0.02783749  0.12001644
  0.04166819  0.10684038  0.01891603 -0.10047568  0.07223929 -0.2887819
  0.27521327 -0.22989371 -0.23875315 -0.015929    0.3288778  -0.00968399
 -0.03490524  0.05434997  0.03414943 -0.47993293  0.02820507  0.18289573
 -0.14688872 -0.48273292 -0.10260079  0.18973354]
[-0.39267462  0.2616696   0.17035575 -0.13964379  0.22769547 -0.00322914
  0.20135331  0.25393987 -0.1137415  -0.1061373   0.0147935   0.06190667
 -0.05633498  0.03996168  0.23677783 -0.06946136 -0.00453536  0.34198064
  0.04789248  0.03513441  0.20269752  0.1845617  -0.72040385  0.22209075
 -0.53410107 -0.10605471  0.06756832  0.23770177 -0.08422109 -0.2233023
  0.0216777  -0.03094284  0.14206028  0.2430039   0.28619692  0.28487724
  0.23667288  0.11501938  0.13585253  0.12013502]
[-1.2652197e-01  4.7356138e-01 -3.4973890e-01  1.0179578e-01
 -8.3952025e-02  2.5640512e-01  2.1297823e-01  2.9980108e-02
  3.2707164e-01 -1.1700470e-01 -3.7483400e-01  7.8131258e-02
 -3.0854088e-01 -1.3869621e-01  9.0700015e-02  2.0240979e-01
 -8.3065972e-02  9.8855497e-05  2.2601095e-01 -7.9902411e-02
 -1.8444356e-01 -2.6972196e-01 -1.8834314e-01 -3.1186545e-02
 -7.7333502e-02  1.4115277e-01 -1.6466925e-01  3.8586089e-01
  1.4530070e-01  3.9711416e-02  2.8618068e-01  2.9023219e-02
  2.7028415e-02  5.2321529e-01  2.4734113e-01 -2.4358420e-02
  2.2109547e-01  2.5029147e-01  1.2672298e-02 -2.2372553e-01]
[ 0.35576552 -0.4574845   0.27191645  0.08813522 -0.24036026  0.21802828
  0.07529341  0.27426043  0.01439649  0.5451794   0.0700684   0.43375713
 -0.0694204   0.06042593  0.17798474  0.20583802  0.40443754 -0.356312
 -0.28316417 -0.02359914  0.18224019  0.29264298  0.4189528  -0.38833705
  0.47628355 -0.26629728 -0.16462725 -0.40005133  0.10983866 -0.01671611
 -0.22519659  0.31210187 -0.17539722 -0.17301561 -0.25763798 -0.06228054
 -0.315154   -0.23730087 -0.23418003 -0.18322434]
[-0.16698359 -0.01644909  0.04567678 -0.20547281 -0.02197558 -0.17534895
  0.05231685 -0.3667515  -0.29330307 -0.11494052 -0.05626013  0.09632353
  0.12361762  0.17369905 -0.01153091  0.02967792  0.0257986  -0.07809988
 -0.10217459 -0.03727913  0.16427332 -0.07941636 -0.24658664 -0.22320351
 -0.26825178  0.12890957 -0.0597779  -0.10518323 -0.17112325  0.25807974
 -0.21687387  0.00168721  0.19755624  0.02387087  0.02981956  0.21278737
  0.20743626  0.32966843 -0.18377909  0.25804055]
[ 0.08953088 -0.28582305  0.2821096   0.21755968 -0.01581789  0.16902098
  0.23036325  0.17098008  0.06609433  0.19936658 -0.14114062  0.09835421
 -0.074242   -0.25479558 -0.09066811 -0.2555386  -0.13800333 -0.19037549
 -0.08565179  0.17663555  0.08787509 -0.49805316  0.45588252 -0.03987307
  0.02422408 -0.19742426  0.25893086 -0.01352727 -0.00422568 -0.06046396
 -0.24008575  0.21936977 -0.2517387  -0.05275093 -0.11944868 -0.07947139
 -0.05501828 -0.05845286 -0.30999145 -0.29350418]
[ 0.10449559  0.16435595 -0.24529088 -0.18956317  0.3596352  -0.15116122
  0.04099797  0.507496   -0.00129049 -0.46370378 -0.25598088 -0.0143861
 -0.73996735 -0.0328127   0.19383258  0.04720309 -0.15341793  0.15533672
 -0.04683037  0.00788128 -0.5032151  -0.25612295 -0.3261367   0.21741712
 -0.809748   -0.06458406  0.55095726  0.26576072 -0.37004417  0.14671108
  0.05561805 -0.33219495  0.05085863  0.1480527  -0.03641133  0.13870071
  0.03950354  0.33591232 -0.25228244  0.18744221]
[-0.16020438  0.05814359 -0.29359335 -0.08782822 -0.09683461  0.21647839
  0.25967884 -0.09810261 -0.03956245 -0.07052857 -0.10233519  0.11553162
 -0.2366344   0.18180732 -0.04170277  0.10537062 -0.00784944 -0.23030213
 -0.16464482 -0.08488932  0.05624488 -0.13762124  0.50816506  0.13355333
 -0.11372241 -0.07645102  0.02390249 -0.11447994 -0.01023134  0.10536674
  0.13639323 -0.14631791  0.16634549 -0.21222056  0.35074794  0.31519476
 -0.14283474 -0.23904914 -0.02556926 -0.12179917]
[-0.08421153 -0.4667743   0.03618558  0.08658034 -0.48185462 -0.3270237
 -0.02009046  0.10450585 -0.27194515  0.25429192  0.17876506  0.04236473
  0.5260566   0.0324453  -0.27145287 -0.09188107 -0.06503109  0.14930695
  0.03621645  0.02983355 -0.15383126 -0.3525628  -0.6389979  -0.14044927
 -0.22287032  0.2242874  -0.3754828  -0.4527939  -0.0255453  -0.20194869
 -0.1592119   0.37910482 -0.04870046 -0.0746908  -0.2506107  -0.16985849
 -0.24543922 -0.07127526 -0.614937   -0.3946548 ]
[-0.24662918 -0.17036052 -0.03493202 -0.00563671  0.19098519  0.22867791
 -0.25480124 -0.01499928  0.21571286 -0.08166905 -0.28844392 -0.17453082
  0.23878852  0.07135068  0.03916333  0.13206773  0.02394327 -0.08218038
  0.21191476 -0.2370014   0.06097977 -0.2850563  -0.06956225  0.28404278
 -0.27926165  0.08031491  0.1705119   0.04091653 -0.2335437   0.16977847
  0.17134656 -0.2977135   0.3020609   0.263185    0.2698186   0.09506088
 -0.10379701  0.19601266 -0.04760363  0.03151784]
[-0.15259524 -0.3501748   0.18213168 -0.04237588 -0.31266773  0.2133156
 -0.06331224  0.2330741  -0.10270203  0.32690558 -0.1477295  -0.09706505
  0.1328805  -0.2801657   0.0309633  -0.30746776  0.45297548  0.12235456
  0.07821669 -0.09998998 -0.03774916  0.11009694  0.0224728  -0.00108676
  0.49830976 -0.02913441 -0.33689508 -0.32873854  0.24378946 -0.30048838
 -0.07399192  0.44519848  0.002397   -0.11417429 -0.30096412  0.1058232
  0.20360169 -0.26772597  0.28843513  0.2026903 ]
[-0.08467601  0.29981512  0.16287972 -0.02260147 -0.00899149  0.01910347
  0.23558897 -0.02134202  0.20620853 -0.27999786 -0.32337856  0.08923917
  0.07749711  0.19340736 -0.23070334  0.22779013 -0.0291966   0.0195144
  0.03910424  0.1270508  -0.0324257  -0.10111054  0.1865997  -0.03893875
  0.07639357 -0.00975893  0.06761522 -0.19268772  0.00975948 -0.25213373
 -0.00955944 -0.07212862 -0.04844281  0.22887585  0.06172713  0.02268573
  0.3268957   0.13228971  0.07974678  0.12123654]
[ 0.0719382  -0.32594693 -0.15113255 -0.30906138  0.1681816  -0.40839082
  0.049175   -0.39296666  0.30140853  0.27028382 -0.16642371  0.61915964
 -0.26219916 -0.21967708  0.33965328 -0.1500049   0.20887819  0.07343993
 -0.15790439  0.08971509 -0.18616237  0.23418084  0.2854661  -0.09098852
  0.46654424 -0.23506097  0.10123007 -0.1244865   0.02940512  0.19578391
  0.10354963  0.28560883 -0.1585915  -0.05756325  0.01279505  0.27106526
 -0.37816438 -0.25610086  0.10302921 -0.1399511 ]
[-0.04205596 -0.07778385 -0.11298541 -0.07189786 -0.04060291  0.15835227
  0.10693405  0.33209026  0.2084729  -0.1275448   0.11629339  0.03242818
 -0.28749734 -0.16113834 -0.3723564   0.05510876 -0.16080402  0.12803078
  0.10777377  0.37397543  0.02939416 -0.42063698 -0.17244181 -0.01291491
 -0.3857158   0.0217472  -0.18791258  0.12871194  0.07783783 -0.02235881
  0.1798328  -0.18218964  0.05479607  0.00437539  0.29742438  0.02100833
  0.48321632 -0.11347963  0.0623587   0.04335641]
[-0.05607401  0.23172526 -0.3361548  -0.08685972  0.57600766  0.2442023
  0.00090054  0.2731043  -0.27742365 -0.29533014 -0.0149924  -0.16633147
 -0.02633536 -0.17188269  0.68289435  0.32608607 -0.38279322 -0.13808069
  0.2973696   0.18257734 -0.7418155   0.6288438  -0.02411349  0.24069084
 -0.5085913  -0.2081757   0.37719524  0.6674718  -0.22985567  0.2851705
 -0.10100789 -0.32970953  0.4194703   0.13389538  0.14026262 -0.12481653
 -0.28855082  0.02042687  0.36821148  0.22411305]
[-0.04058156  0.13559124  0.12265223  0.13447641  0.21973486 -0.00096056
 -0.12010542  0.31113225  0.05596799  0.21661559  0.09030435  0.00375812
 -0.11035731  0.1523779   0.10658063  0.03992723  0.06886786  0.03603
  0.00650565  0.00946971 -0.21698734 -0.29527828  0.54006565  0.17583972
  0.28361434 -0.01299309 -0.10474972  0.1679991  -0.07052084 -0.09921065
 -0.30075094  0.20765018 -0.1802969  -0.1345757  -0.22127134 -0.09876251
  0.14248991 -0.12059988 -0.02282716 -0.18891369]
[ 0.08236405  0.08539156 -0.33274397 -0.034706    0.43399858  0.2599575
  0.05826134  0.4473698  -0.01909016 -0.13948064  0.30228305  0.06190898
 -0.59372246  0.14061104  0.19316526  0.09969556 -0.2431859   0.1874976
  0.01119352 -0.29864445 -0.23089081  0.1350535   0.00452647 -0.07709114
  0.35326964  0.20266677  0.60639155  0.5918009   0.05104942  0.09385642
  0.10925686  0.08986549  0.2633828  -0.21812154 -0.18790455  0.03378049
 -0.22849295 -0.19004312 -0.1983381   0.15650892]
[ 0.1353661   0.21111822 -0.42016894 -0.07923415  0.3913357   0.25725365
  0.3355912  -0.1991519   0.25703296  0.15051104 -0.1453705  -0.15590762
 -0.3575917   0.28993186  0.28164387  0.09414704 -0.00889311  0.15481631
  0.15546851  0.18261246 -0.2637722  -0.12504534  0.417971    0.33993512
  0.18399526  0.19161507  0.40906176  0.2871257   0.02273612  0.3255945
 -0.05363342  0.04473246  0.05275769 -0.13217217  0.22277896  0.24299231
  0.02329246 -0.02465194  0.15629582  0.12024312]
[ 0.16626368  0.29026896 -0.11891418 -0.01068216 -0.12402904 -0.24150789
 -0.19350898  0.1408475   0.00584326 -0.13812208 -0.27308297 -0.29208395
  0.13621368  0.21404949  0.3497436  -0.23694299 -0.14729244  0.06900561
  0.028861    0.21320559 -0.2870087   0.3390266  -0.5072056   0.16659363
  0.04505    -0.17552498 -0.01818845 -0.08680443 -0.1365897  -0.01641469
  0.24004078 -0.28600872  0.01495944 -0.06511521  0.21370661 -0.2097387
 -0.22419949 -0.10663242  0.20194261 -0.15966435]
[ 0.1053079  -0.27061808 -0.06130417 -0.03102373  0.02311121  0.15681215
 -0.15057069  0.0967433   0.27031142  0.03722402  0.31655663  0.2390816
 -0.02010914  0.13544534 -0.37399247 -0.21300898  0.13891488 -0.06370511
 -0.45239672  0.03720737  0.18477717  0.2624563  -0.10637148 -0.02688221
  0.251512   -0.24153426  0.11031366 -0.39068446 -0.10057044  0.0653687
 -0.06434675  0.35759705  0.054308   -0.16523476 -0.05429874 -0.14461263
  0.05214548  0.16979042 -0.19801885 -0.17741877]
[ 7.84049779e-02 -1.90982297e-01  1.40261590e-01  1.02303743e-01
 -7.40489364e-02  4.89339745e-03 -9.75197777e-02 -3.16961221e-02
 -4.79950681e-02  3.68116856e-01  1.20053791e-01  1.32485077e-01
  1.05531476e-01 -8.95419717e-02 -1.09635182e-02 -4.06170376e-02
  1.76455379e-01 -8.03246498e-02 -1.59657806e-01 -1.12075005e-02
 -4.82037626e-02 -4.56417054e-02  1.31327689e-01 -1.29369885e-01
  2.54422903e-01 -3.09871212e-02 -8.13649371e-02 -1.56342030e-01
  1.62460521e-01 -1.18473090e-01 -2.59723933e-03  1.70807481e-01
 -6.87999576e-02 -3.09333473e-01 -1.34344399e-01  5.62355490e-05
 -1.66005969e-01 -2.69031078e-01 -1.07507305e-02 -6.78436160e-02]
layer 3 Activation
tanh
layer 4 Dense
40 20
[-0.23975952 -0.16298555  0.00859611 -0.18504947  0.03182362 -0.03577134
 -0.2025483  -0.09298278 -0.06299371 -0.04769858  0.01960394 -0.2604556
 -0.02162469 -0.28482047  0.33863282  0.12840867  0.20061111 -0.05319394
  0.1941563   0.23425868]
[ 0.25889924 -0.00232423 -0.32660875  0.07139605  0.15199624  0.24178061
  0.3083206   0.10900047 -0.0723453   0.24396844  0.25366372  0.27146804
 -0.2816393  -0.08575632  0.05138198 -0.04419478 -0.21993111  0.24819754
 -0.2040499  -0.3648263 ]
[-0.33044687 -0.14112777  0.02787137 -0.22102688  0.07590071 -0.11070339
 -0.19343299 -0.25762925  0.05951555 -0.17941459 -0.26708892 -0.16665035
 -0.12251234 -0.32167065 -0.07201757 -0.0506594  -0.25712842 -0.26599324
 -0.07634529  0.21990457]
[ 0.16266982  0.04020984 -0.0348484   0.05407085  0.2762152  -0.01701877
  0.12225688 -0.2389219  -0.09533744  0.10107994 -0.23137784 -0.08894959
  0.16743125  0.3598064   0.04974712  0.20741506 -0.1338928  -0.0500934
 -0.02114416 -0.16043347]
[-0.02797336  0.19256347  0.27902713  0.03906551 -0.3193776   0.28852436
 -0.07694615  0.11469905 -0.35681814  0.30345848  0.28316364 -0.10240174
  0.03197668  0.23693798 -0.21380858  0.1033832  -0.10400045 -0.01134868
 -0.24282193 -0.30261588]
[-0.3676507  -0.27231705  0.12403823 -0.20123975 -0.08672608 -0.03273017
  0.03795247 -0.01666013 -0.22413021  0.30713406 -0.16605136  0.13901381
  0.00936244 -0.27660343  0.13200921  0.12548783  0.19500197  0.30519104
  0.11694472 -0.2557293 ]
[-0.16034976  0.03149596 -0.39937288  0.08072409  0.02482319  0.08237866
 -0.02654512 -0.12888189 -0.32320762 -0.06595999  0.12312256 -0.23631719
 -0.13088186 -0.0645939   0.03470917  0.03514529 -0.12464675 -0.10678216
  0.14511578 -0.3112811 ]
[ 0.12533669 -0.179458   -0.04415491  0.12426728 -0.03727879 -0.24938923
 -0.26185295 -0.33787274 -0.4088316   0.22306752  0.23392183 -0.05249947
 -0.31868592 -0.43548092  0.28524402 -0.25613162 -0.0602173   0.1389339
 -0.04656335  0.21119349]
[-0.0616213   0.2642333   0.01056968  0.19676216 -0.15732555  0.34130013
  0.22767879  0.23853646 -0.3458125   0.09202153 -0.23945458  0.00929767
  0.13445634 -0.08296319  0.05248145  0.04341786  0.00450501 -0.09984812
 -0.19684349 -0.07239249]
[-0.28789607 -0.23289339 -0.17826198 -0.00888246 -0.05584139 -0.18002625
 -0.17520422 -0.36676285 -0.27183902 -0.22984722 -0.3197184  -0.14114712
  0.22469449 -0.15785705  0.4375788   0.10115781  0.14471455  0.33762857
  0.03597441  0.2160241 ]
[-0.26358193  0.14218462 -0.00410511  0.09346137  0.06414464 -0.00699545
 -0.3392608   0.22168592  0.21975042  0.07994061 -0.320767    0.18497881
 -0.01582922 -0.12125105  0.27224982 -0.12656747  0.13731657 -0.08456812
  0.35900697  0.10576931]
[ 2.80647445e-02 -7.96970278e-02  6.76413476e-02 -8.02482665e-02
 -9.76630673e-02 -3.62627506e-01 -3.00503641e-01 -3.43647957e-01
 -3.57111543e-01 -8.86716545e-02 -1.21002167e-01 -1.56071950e-02
 -1.13676064e-01  1.97242742e-04 -1.01209156e-01 -7.09235519e-02
  8.72555450e-02  5.84619083e-02  3.01101714e-01  7.10138753e-02]
[ 0.2594954  -0.11352719  0.28252327 -0.20163286  0.35393998  0.15384306
 -0.14504546  0.31158873  0.24347    -0.07764652 -0.1454832   0.12272472
  0.07015977  0.10913303 -0.2166647   0.28321704  0.21901818  0.27735588
 -0.31111816 -0.05361933]
[ 0.01328475  0.12447411  0.15009062 -0.09147613 -0.19994017  0.02689202
  0.25089103  0.02209695  0.04093202 -0.03421227  0.15152471 -0.09521224
  0.26169503  0.3620878   0.1049808   0.27449527  0.11023037 -0.13533148
  0.08621623 -0.08402452]
[-0.16391367 -0.22522339 -0.18715948  0.31009093 -0.17532825 -0.09602765
 -0.08263725 -0.14139403  0.16019638  0.0854716  -0.02176536  0.09781041
  0.10902489 -0.20564021  0.16608742 -0.31894058  0.01820909  0.22511978
  0.22553635 -0.09452638]
[ 0.24103709 -0.09123004 -0.1479803  -0.28991485  0.14012533 -0.00172336
 -0.10775235  0.02603392 -0.21565203  0.17534463 -0.18759345 -0.03606645
  0.1766388   0.04963211  0.12718152 -0.22031379  0.10615882 -0.22111857
 -0.09012529  0.12871748]
[-0.41036296 -0.01421284  0.23732603  0.30746526  0.16374135 -0.3323691
  0.1509646  -0.30305505 -0.15078346  0.08361772 -0.33526376 -0.20955205
  0.06886812  0.08236262  0.3726463   0.09239543 -0.01454629 -0.14694881
 -0.04689638  0.14168996]
[ 0.33866608  0.04574225 -0.08634654 -0.01687352 -0.0820309  -0.05167978
  0.27296537  0.02606624  0.1036002   0.03572192 -0.24239531 -0.17581114
 -0.1727368   0.07955053  0.04355962 -0.15833989 -0.06132594  0.04281196
 -0.0625736  -0.10703221]
[ 0.15305644  0.26320273 -0.10517064 -0.13283548 -0.04589831  0.03560764
  0.02597689  0.02820845  0.24624713  0.10048928  0.14312501 -0.16343625
 -0.16620223 -0.22102255 -0.11825198 -0.04169991 -0.06487235 -0.16228686
 -0.39843678 -0.12775147]
[-0.08399559 -0.2397492  -0.1332156   0.07394347 -0.05721501 -0.05753344
  0.10795991 -0.01472829  0.17699799 -0.15176696 -0.16469784  0.10319167
  0.21938546 -0.01549169  0.00291259 -0.33406824 -0.03947933  0.13214986
 -0.1556232  -0.18175285]
[ 0.15734214  0.02911561  0.13951324 -0.2306944   0.2791212   0.15135339
  0.03251373  0.27891725 -0.28474545 -0.1173535  -0.00740324  0.04259132
 -0.08478781 -0.2363141   0.18426456  0.05515982 -0.22876918 -0.27330258
 -0.20103218 -0.13132763]
[ 0.0561167  -0.0020515  -0.22442959 -0.03635828 -0.14554225  0.08914211
 -0.1456007  -0.02554601  0.0580019   0.02924072 -0.15838364  0.2039573
 -0.14768104 -0.21977787  0.0595721  -0.22968748  0.12145931 -0.20203488
  0.3005737  -0.23574695]
[-0.4157824  -0.10730696 -0.3513299  -0.12334865 -0.21472634 -0.0097067
 -0.33982292  0.21788086 -0.16041271  0.22303653 -0.19281022  0.2008915
  0.07535531 -0.24152677  0.22957921  0.17612973 -0.30121687  0.00266536
  0.28234017  0.16308925]
[ 0.01578177  0.18199088 -0.12747078 -0.17360546 -0.16753511  0.36560756
  0.17404144  0.13791661  0.04962949  0.10508201  0.10285395 -0.24036255
 -0.189747    0.16277064  0.08358693 -0.18796976 -0.11849518 -0.0756302
  0.00744705 -0.11234591]
[ 0.17723902 -0.33225375  0.09177396 -0.20240483  0.14596258 -0.29019162
 -0.17732063 -0.23858781 -0.31847554  0.07826734  0.01834952  0.07646317
 -0.19210622 -0.41126224  0.25129586  0.34289986 -0.2276431   0.02061328
  0.25112185  0.26375255]
[ 0.20699355  0.23076528 -0.27697065  0.10970561  0.00165295  0.11643406
  0.15978038  0.10491101  0.04406225 -0.08577152  0.14318936 -0.04863923
 -0.00072909  0.0374577   0.20063406 -0.04023733 -0.00752027  0.07007439
 -0.25907412 -0.07468996]
[ 0.06307405 -0.01296132 -0.04153547  0.12431522 -0.35407397  0.12045722
 -0.12558341 -0.12815192 -0.46054348  0.1726742   0.14705116  0.14107773
 -0.16038015  0.10137352 -0.32908076  0.09061838  0.00441738  0.02545093
 -0.02755287 -0.2693037 ]
[ 0.15862198  0.20347138 -0.25788462 -0.35770395 -0.12792872  0.0138877
  0.15489657  0.304667   -0.5039185   0.3570867  -0.14984572 -0.08199134
  0.34012747  0.08785042 -0.28496504 -0.34107527  0.12763177 -0.16458344
  0.18547653 -0.4999077 ]
[-0.1355943  -0.03085023  0.27486056 -0.19150381 -0.02501751 -0.22356008
  0.24133804  0.13795951 -0.02120431  0.03464674 -0.26657268  0.01195894
 -0.19485256 -0.06989259  0.36052826  0.32569098  0.17813191  0.2508144
  0.01685591 -0.01348504]
[ 0.0915845  -0.06445084 -0.10060211  0.07009459  0.07953249  0.34781957
  0.17616437  0.22617489 -0.2373045   0.10915449  0.04253174 -0.3080398
 -0.10056834  0.3246371  -0.10619909  0.08844477 -0.18599062 -0.03484274
 -0.2521598   0.07419161]
[ 0.14213422 -0.02657123 -0.10255706  0.04011686  0.08968503 -0.12544931
 -0.01589838 -0.11045627 -0.0006345   0.04135358 -0.03548836  0.23271464
  0.11548733  0.10298318 -0.09190962 -0.07589906 -0.05261933  0.24698012
 -0.2627603  -0.23865193]
[-0.12198858 -0.19771937  0.13921091 -0.19100761  0.06141597 -0.23402785
  0.22153567 -0.14593264 -0.06660261 -0.15941626 -0.11143102 -0.00764394
  0.21487285 -0.05487858 -0.05321327  0.25444424 -0.16775577 -0.2513873
 -0.07547347  0.36961633]
[ 0.21113028  0.1356405   0.20134275 -0.30407345 -0.25033075  0.08411916
  0.12783314  0.0603588   0.22513096  0.33309636 -0.10289087  0.19876955
 -0.07088783 -0.09295367 -0.16373841  0.00604774  0.06118005 -0.29646337
 -0.20526302 -0.09522093]
[-0.07700513  0.17407686  0.05042022  0.063094   -0.25564876  0.06810332
  0.32778192  0.22542475  0.20951025  0.09157944 -0.08139484  0.20674373
  0.1186128   0.4171714  -0.3571868  -0.2575936  -0.14951546  0.14155473
 -0.33287066 -0.17039624]
[-0.04275152 -0.03924672  0.05635477 -0.3014355  -0.01320001  0.3056965
  0.12569939  0.2769598  -0.21544702 -0.07465019  0.17758787  0.12960193
  0.04754268  0.04380653 -0.2853408   0.00235773  0.19859524 -0.1950747
 -0.36726645 -0.17208576]
[-0.03550775 -0.05321303  0.05448486  0.2194867  -0.02114283 -0.28963712
 -0.12613045 -0.32862306 -0.35968864  0.07603145 -0.07671027  0.2461118
  0.24219814 -0.27431098 -0.00052944 -0.00230888  0.15526281  0.02615836
 -0.17779474 -0.01886631]
[-0.09900976  0.15448451  0.07619478  0.06907531 -0.06185285  0.14627542
  0.11178134  0.0339495   0.01036774 -0.24544859  0.29766834  0.08055492
 -0.11699335  0.36782762 -0.30317044  0.22470757  0.0207612   0.14573443
 -0.3398374  -0.2909173 ]
[ 0.37355325  0.12093242 -0.13967547 -0.07571264  0.30986688  0.26815537
  0.35191554  0.2530058  -0.23526974  0.06911052  0.26329306 -0.2679882
  0.04623709  0.10444483 -0.23664866 -0.20701474  0.07955986 -0.04808519
 -0.307085   -0.32319325]
[-0.05547101 -0.1102082   0.04903482  0.06967536 -0.130881    0.22113432
  0.15752657 -0.20650782  0.10606675  0.07484176  0.2040888  -0.19889252
 -0.14533423  0.18529335  0.09895549  0.26787865  0.1042279  -0.03115406
  0.15197603 -0.32006678]
[-0.2702545   0.14413175  0.24766867 -0.09203629 -0.14332455  0.06889042
 -0.00566305 -0.05639546 -0.24973907  0.10765813 -0.05191113 -0.17083895
 -0.10451154 -0.0471735   0.15076205  0.13638283 -0.23101066 -0.02368619
  0.13779947 -0.23803677]
[-0.06993224 -0.06292724  0.04844337  0.03263092  0.0263659  -0.07219843
 -0.06910552 -0.04260768 -0.00825936 -0.04471138 -0.0772761  -0.00103922
 -0.02981259 -0.14248578  0.10999039  0.06169311  0.0070742   0.01914701
  0.10159562  0.0681017 ]
layer 5 Activation
tanh
layer 6 Dense
20 1
[-0.05537187]
[-0.2099573]
[-0.03764715]
[-0.00912291]
[-0.08443429]
[-0.41854462]
[-0.187637]
[0.05656077]
[-0.00441533]
[0.15665597]
[0.21633619]
[-0.00057691]
[-0.00528597]
[0.13946271]
[0.17355984]
[-0.01358722]
[0.00136652]
[0.00496923]
[-0.19856459]
[-0.27882114]
[0.00709789]
