layers 7
layer 0 Dense
20 20
[ 0.15341657 -0.15698178  0.3775548   0.07447463  0.09281796  0.00496054
  0.19294852  0.00046787 -0.28534925  0.29275012  0.01490809  0.10447485
  0.06897438 -0.00071326 -0.09654088  0.02387022 -0.07977377 -0.05085415
  0.08551028  0.1231134 ]
[ 0.09337766  0.1014015   0.08950777 -0.24991588  0.11826725 -0.13944358
 -0.38200617 -0.39255947 -0.11693515 -0.36675814 -0.11634855  0.22587135
  0.10167052  0.04548527  0.06238117 -0.13384105 -0.20708789 -0.26498827
 -0.14591105  0.09036971]
[ 0.33764383  0.11125214 -0.10963195 -0.24684143  0.09259854 -0.31983632
 -0.2863648  -0.36807045  0.0276767   0.269294   -0.25591913 -0.2037007
  0.31068724  0.17034183 -0.2338652  -0.14180097 -0.23743938 -0.07138114
 -0.352987   -0.04775578]
[-0.17744708 -0.01186577  0.01414823 -0.21913637  0.3430244  -0.30646256
  0.08049047  0.16955887 -0.22426823 -0.0325414  -0.33478284  0.01628043
  0.2727286  -0.37572262  0.3324659   0.06704662  0.21938692  0.38621873
  0.29715237  0.16475946]
[-0.18116164 -0.36455885 -0.35511127 -0.05077961 -0.24549587 -0.38459924
 -0.12278452  0.06420297  0.15967071 -0.16071142 -0.01315177 -0.2848333
  0.42123178  0.15367787  0.36070198 -0.30746385  0.31977972 -0.25304604
  0.07448651 -0.12802958]
[-0.25139827  0.5157881  -0.50564367  0.15353517 -0.02236668  0.12365481
  0.3904195   0.39937335 -0.04686306  0.18752891 -0.38732234  0.22007903
  0.3081729  -0.37192783 -0.44185254  0.23651952  0.06315725  0.00109919
  0.3093211  -0.5323502 ]
[ 0.12106311  0.19809811 -0.23698166  0.03184482  0.153102    0.55098677
 -0.05177824  0.5180385  -0.38864103 -0.00965969  0.02463154 -0.35075185
 -0.03134637 -0.14742988 -0.2798952   0.03728016  0.12201477 -0.10779522
 -0.13181952 -0.4621449 ]
[ 0.31768948  0.04749446  0.28353536  0.0734371  -0.30858347  0.3070256
 -0.13828546 -0.12394599 -0.32539678  0.09924865 -0.11872304 -0.3037884
 -0.27246073  0.16287048  0.2755668   0.22515473  0.254794    0.34328753
 -0.06711461  0.14353418]
[ 0.17838721 -0.23910016 -0.18245277  0.19967738 -0.20333596 -0.24421404
  0.30239192 -0.37890917  0.00233388 -0.05835307  0.21724656  0.07875729
 -0.03364406 -0.22085577 -0.3128543   0.3404806   0.00150908 -0.41095856
 -0.2279134   0.2968682 ]
[ 0.09034964  0.12615697  0.2897097   0.47351825 -0.12979463  0.12777802
 -0.02105879  0.17330275 -0.3556136   0.04918696 -0.03258798  0.03525963
  0.02557378  0.2115637   0.03963843  0.15642579  0.3443474  -0.05690713
 -0.5394883  -0.2421767 ]
[ 0.01511489 -0.18553911  0.37269953 -0.17509376  0.2875149   0.17828839
  0.04940671 -0.2948982  -0.1839799  -0.13253137 -0.23051527  0.20509422
  0.42660916  0.14287104  0.18233812 -0.33107695  0.18744524 -0.4015667
 -0.29124013  0.38045132]
[-0.08231865 -0.2522133   0.0081168   0.02193991  0.41143677  0.1311018
  0.62354356 -0.2893505  -0.37199408 -0.08375122  0.21162249 -0.05309266
  0.27862796  0.35778654 -0.13879693 -0.3877284  -0.20680872  0.0645881
  0.4548362   0.17649081]
[ 0.0496348  -0.36673304 -0.06780772  0.28398117 -0.16661565 -0.04521002
  0.07639232 -0.25335258  0.10055366  0.4088497   0.16914052  0.08036394
  0.28218332  0.1884879   0.2921537  -0.16026595 -0.21218489  0.14023988
 -0.2962936  -0.10619713]
[ 0.26640755 -0.48347256  0.13542973  0.40220776 -0.03620436  0.27056023
  0.22716746  0.23654231  0.10687809 -0.2984351   0.07116677 -0.01051936
  0.175175   -0.33649087  0.23191534 -0.02408679  0.28597337 -0.09996065
 -0.05714862  0.11977077]
[-0.39354149  0.00620196  0.26838207 -0.3955494  -0.3128325  -0.27126312
  0.18455413 -0.40246597 -0.39172018  0.46221745 -0.20056376  0.27728495
 -0.0861202  -0.03824189  0.07836211 -0.03433959  0.314396   -0.18640174
 -0.2952004  -0.07301042]
[ 0.15553686 -0.07705759 -0.12550373 -0.2237984   0.08430317 -0.33019683
 -0.0848084  -0.24589923  0.2821876  -0.05411964 -0.06236681 -0.10758751
 -0.01606355 -0.1475173   0.05494227 -0.2679364  -0.01366651  0.10127667
  0.04977362  0.14997798]
[ 0.0240879  -0.35992053 -0.09775192 -0.48255086 -0.11729186  0.09566115
  0.39835426  0.04222068 -0.10599751 -0.32625565 -0.11463191  0.02256876
  0.41627315 -0.3589034   0.32610968 -0.322711   -0.135389    0.02351719
 -0.19791418 -0.30410302]
[ 0.34472552  0.35803753  0.29567832 -0.49015796  0.18756007 -0.51139396
 -0.24826425 -0.31963554 -0.34553885  0.6188189  -0.36675742  0.54432416
 -0.3723637   0.33361474  0.3419429   0.3435759  -0.46029246  0.41060248
  0.15010472  0.17903396]
[ 0.1882117   0.01154273 -0.40571412 -0.20148672 -0.02509634  0.52642304
 -0.49893743  0.69880766  0.04199068  0.19421312  0.19511029  0.14449836
  0.22716327 -0.38203192  0.38534886 -0.18613845  0.23316127  0.14812225
  0.22831461 -0.25641903]
[ 0.2580605  -0.14635761  0.6263847  -0.41682693 -0.23070277 -0.40742132
 -0.48814648  0.22461914  0.34491694 -0.16220018  0.23817843  0.39805046
 -0.18266594 -0.49494386 -0.04828046 -0.06246959  0.21956478 -0.3012735
  0.22030365  0.16396351]
[ 0.02798718  0.00972412 -0.08567084 -0.05902207 -0.02183296  0.07661551
 -0.07886269 -0.05864741  0.0315275   0.02789372 -0.02514821  0.02843705
 -0.04233336  0.05312062  0.00531281 -0.01205568 -0.04361275  0.01277768
  0.02596498 -0.07358462]
layer 1 Activation
tanh
layer 2 Dense
20 40
[ 0.11250217 -0.08344638 -0.2658973  -0.28040504  0.28412735  0.05921396
 -0.12150737 -0.16249661 -0.29862827  0.44871163 -0.20678855  0.17439026
  0.09462257  0.09854709  0.19199142  0.2488239   0.26971862 -0.26590547
 -0.24038862  0.14825983 -0.02947257 -0.28358003  0.25077114  0.24230613
  0.26724702  0.05736555  0.23180103  0.17134982  0.13557172 -0.06632899
  0.14374807  0.32181764  0.2078195   0.12554367  0.07279414 -0.22650005
  0.20926838  0.02611875 -0.27312908  0.06314972]
[-0.0506745  -0.11202519  0.25045773 -0.17346524  0.37142727  0.03865903
  0.08190304  0.18704064  0.14047346  0.2705807  -0.12071621  0.03686526
  0.14047967 -0.0100018   0.1799574   0.2971759   0.14751542  0.0957446
  0.40306637  0.16190109 -0.07874122 -0.1343919   0.21634823 -0.23327143
 -0.07968649  0.31448233  0.07088077 -0.28056055  0.11263029  0.30336446
  0.09320813 -0.28801295  0.10680968  0.07130449 -0.2473237   0.06132959
 -0.04233465 -0.23216766 -0.39695522  0.26622102]
[-0.12347554 -0.1682818  -0.24277173 -0.05960784 -0.24069573 -0.1698105
 -0.01858609  0.16443732 -0.06468264  0.39933783  0.27031127 -0.05638874
 -0.27067137 -0.13253818 -0.2829062  -0.24098991  0.03421177  0.32100123
  0.09073773  0.12758602  0.00162231 -0.00256836 -0.312054   -0.24988548
  0.38723192  0.08715442  0.2356104   0.13350847 -0.12400182  0.13952145
 -0.07125614  0.0679782  -0.19490765 -0.19893399 -0.24215262  0.17253013
  0.37252846 -0.08701421  0.1669832   0.21765411]
[ 0.38242793  0.24797513 -0.09074638  0.04363037 -0.09201575 -0.13645133
 -0.23581249 -0.07894546  0.16185263  0.45907494  0.02323445 -0.24670163
 -0.22901364  0.3978286   0.18940982 -0.23493266  0.03056975 -0.00796509
  0.03260279  0.37412506  0.11588902 -0.06415221  0.42845014  0.15661561
 -0.10336962 -0.04241231 -0.4733707   0.3652365  -0.18955387 -0.01211405
 -0.6124787  -0.05690115 -0.12244795  0.15457433 -0.31462917 -0.22509955
 -0.2708277   0.06161402  0.19057809 -0.21107027]
[-0.05170247 -0.38669908  0.18815388 -0.01927966  0.1373105  -0.12711754
 -0.29471937  0.2621805   0.07706099 -0.14520921  0.2603554   0.2641685
 -0.13371228 -0.33369777  0.05519012 -0.07523371 -0.22151862 -0.06438099
 -0.27460185  0.06258365  0.20403612  0.08316118 -0.20878372 -0.19282348
  0.03714701 -0.0931378  -0.12987176 -0.09504174  0.26350588  0.18469714
  0.03066345  0.12862773  0.20901264  0.18755133 -0.31361806  0.10333216
  0.2666702  -0.11661752  0.16927436  0.26675323]
[ 0.11084934 -0.21157269 -0.32069555 -0.21758705 -0.22338355  0.18284747
  0.12993562 -0.23881234  0.26110014  0.13398744  0.11294052 -0.23258184
 -0.20113721  0.2853595   0.00254105  0.33567405 -0.2692906   0.26017696
  0.15776283 -0.21714984 -0.23916042 -0.29530916  0.02671705 -0.03051964
 -0.21283734 -0.28189087  0.12138572 -0.14734414 -0.09444872  0.02178382
 -0.32841298 -0.12605712  0.11866698  0.01170727  0.27742368  0.04254039
 -0.35108003 -0.2627394   0.23002744 -0.32936794]
[-0.17041989  0.16586468 -0.09758121 -0.18467017 -0.05018651  0.29751784
  0.30081412  0.18165697  0.32727417 -0.26491737  0.03895264 -0.03621811
 -0.26152664 -0.00219138  0.01958953 -0.2117614  -0.2711475  -0.24816951
  0.10750069 -0.20883094 -0.12092435  0.33116826  0.23624688  0.3001135
  0.08602782 -0.28020802 -0.17868313  0.01398089 -0.0113729  -0.03475209
 -0.04926252 -0.24679397  0.04255135 -0.23596375  0.24591747 -0.20368108
 -0.01564433  0.22962308  0.36814538  0.2932954 ]
[ 0.3314181   0.19141251 -0.22722243  0.08166065  0.21677028 -0.04515184
 -0.1690039  -0.07217745  0.17678101  0.3331121  -0.049209   -0.11179874
 -0.16979817  0.15988745  0.19823205 -0.11545554 -0.26577574  0.19387786
 -0.3151417  -0.29884225 -0.2182578  -0.26731586 -0.32860446  0.1584833
 -0.22228907  0.28069335 -0.05518063 -0.01000615 -0.22092399  0.17437261
  0.16153374  0.34453374  0.20885918  0.15696794 -0.06202813  0.24545728
 -0.1493246   0.16985561  0.18825586  0.01320109]
[ 0.18141039 -0.10545176 -0.06226958 -0.14972919  0.20895958 -0.12525702
 -0.2905332   0.1369841   0.26025385  0.13233638  0.23319475  0.19947106
  0.26439834  0.14955527  0.0260855   0.03853679  0.15641367 -0.23935178
 -0.03081353 -0.33851752 -0.07975799  0.09984996 -0.29464117  0.15143289
  0.07469556  0.0531175  -0.21222454  0.06609784 -0.22975262 -0.19556077
  0.11388293  0.04252742 -0.20859276 -0.08122459  0.02806201 -0.11638714
 -0.00061203  0.10943248 -0.0440155   0.03143596]
[ 0.19271806 -0.17161328  0.08661893 -0.19495109 -0.18132453  0.01385494
 -0.296883    0.16675285  0.20080326 -0.2760016   0.17543931  0.23510689
  0.3763345  -0.10631018 -0.06795177 -0.04428726 -0.19289911 -0.306264
  0.33568907  0.21877316  0.2397858  -0.23680644 -0.23795307  0.18995537
 -0.18678781  0.28005168  0.322982   -0.22745994  0.04772964  0.25690317
  0.08264158 -0.07024741  0.157417    0.03139148  0.18063192  0.00303998
  0.23951231 -0.02424803 -0.16732447  0.11094706]
[ 0.34154242 -0.10088757 -0.00338354 -0.2117087   0.12705237  0.20171276
 -0.2819663   0.23693328 -0.15049228  0.01775032  0.26028162  0.20934449
 -0.16956009  0.02220626  0.3359334  -0.09389213 -0.14122048 -0.04657093
 -0.1039695  -0.155448    0.16738018 -0.04791657 -0.19272605 -0.10504686
  0.01540346 -0.04273772 -0.2401378  -0.03356406  0.20831585 -0.01577374
 -0.4099443  -0.25246298 -0.21443148  0.0826491   0.18956012 -0.10846425
 -0.01928245 -0.09886737  0.24527346  0.1656696 ]
[-0.23472011 -0.36665347 -0.18862711  0.28012398 -0.01557595 -0.00734761
 -0.19590537  0.0981836  -0.09575288 -0.1465839   0.01418502 -0.21065375
  0.17233169  0.13311264 -0.2587752  -0.01077502  0.3095742  -0.29573533
  0.12794268 -0.19936556  0.15472998 -0.29152858 -0.00826766  0.0788492
  0.2654343   0.2628039   0.14370833  0.11221491  0.13224356 -0.28065526
  0.3291303   0.01473231 -0.11393033  0.27966774 -0.00410867  0.15437432
 -0.07335322 -0.01135551 -0.10423252  0.18259074]
[ 0.21898451 -0.21257871 -0.05640504 -0.06094182  0.2395618   0.23396082
 -0.08486303 -0.07238673  0.21249318 -0.23037085  0.06092679  0.09993838
  0.2141843   0.18875316 -0.11745025  0.01439647  0.05326898  0.03515331
 -0.28041804  0.10312569 -0.12150414  0.10009     0.0919175   0.10700694
 -0.14409867  0.04125064 -0.07995752  0.04101037 -0.2605608   0.13024682
  0.2543557  -0.10747665 -0.18117331  0.23332939  0.24466468 -0.32132864
 -0.104255    0.042873    0.4556762   0.17138414]
[ 0.27159065 -0.13060617 -0.18827781  0.17468227 -0.11362924 -0.07877781
  0.0395831   0.2428342   0.14217547 -0.4942527  -0.23316826  0.23612286
 -0.23739092  0.11005213  0.34902573  0.2354415  -0.19314311 -0.06265978
  0.23533657  0.2765611  -0.09837951  0.2904518   0.10929179 -0.00275288
 -0.0204581   0.26033142 -0.03685691  0.15675566 -0.1101991   0.03041908
 -0.1496472  -0.23901582  0.3503065   0.13108364  0.10348638 -0.02056228
  0.16325846  0.15247265 -0.14522341  0.07766894]
[-0.27410844 -0.26646474 -0.08101498 -0.0683596  -0.26442084 -0.07423208
 -0.11015531  0.17373386  0.40074137  0.13126585  0.17899491  0.12254671
  0.20357585 -0.11713943 -0.07719064 -0.25999224 -0.0242872   0.00617558
 -0.3240954  -0.25472954 -0.24819575  0.30396885  0.21609166  0.31913364
 -0.07549067  0.34695324 -0.14094573 -0.15233321  0.29958406 -0.09627257
  0.00932019 -0.22708413  0.29127857 -0.221344    0.22866555 -0.00393183
  0.25656298 -0.00893215  0.01438008 -0.3234789 ]
[-0.22232917  0.28284714 -0.3342851   0.150658   -0.02431585  0.25698438
 -0.21749811  0.3431189  -0.06604839  0.17000346 -0.31495115  0.20651539
 -0.21828468  0.03947031 -0.11751121  0.18386455  0.33506495 -0.13456103
  0.20561998 -0.08169854 -0.12215649  0.1144356   0.22642562 -0.04039821
 -0.23624484  0.05676481 -0.12235443 -0.09062017  0.2808786   0.06211365
  0.0549031  -0.10949297 -0.11585961  0.36078376 -0.21812023  0.25564462
  0.27512565  0.00759218 -0.27562997  0.0924007 ]
[ 0.33609223  0.1413236   0.23691936  0.10710815  0.03522121  0.25181136
  0.22481945 -0.02592254  0.01749664  0.32490385  0.27596703  0.08902485
  0.04315446  0.37389678 -0.02832261 -0.06309962 -0.27660272  0.20903262
  0.25625765 -0.26403892 -0.36472508  0.02282661  0.1409334   0.09564111
  0.0435144  -0.2905662   0.20997809  0.3452978  -0.2523011  -0.30969056
 -0.49093586 -0.2649513  -0.11776298 -0.11764921  0.26231351 -0.03176849
  0.16568674 -0.21651663  0.03421442  0.04419341]
[-0.2893105   0.10946202 -0.41953224 -0.2471735   0.0561938   0.17445579
  0.07859593 -0.28174433  0.32828534 -0.06015707 -0.2683332  -0.19489437
 -0.12827416 -0.26696864 -0.03464817 -0.03280049 -0.12085423  0.18073833
 -0.22898489  0.22599484 -0.11681183 -0.26868713  0.17839247  0.18204416
 -0.3749867   0.1950023   0.23124917 -0.07227294  0.28264087  0.00247756
 -0.1522954   0.07082641  0.33005562  0.1024739   0.18406458  0.17638603
 -0.309651    0.17796063 -0.04463226  0.2312304 ]
[-0.17965287 -0.08888006  0.11673897 -0.11055493 -0.12651356  0.1883761
  0.3132381   0.03522213  0.12033015  0.10035862 -0.07713657 -0.28827026
  0.25011674  0.18902755  0.13649929  0.16891311  0.18432575 -0.23130001
  0.0442424   0.18574545  0.25643983  0.06064276 -0.06188054 -0.06908022
 -0.29229268  0.23084746  0.00923585 -0.24948338  0.16705206 -0.139099
  0.2019322   0.11298922  0.20367089 -0.0732292  -0.08817963 -0.23134342
 -0.02120403  0.0228919  -0.22317535 -0.06346923]
[ 0.00747597  0.12541795  0.12183908 -0.16076188 -0.10889814  0.0410512
  0.04521837 -0.20279469 -0.3367615  -0.24743465  0.13833793  0.05956325
  0.27353004 -0.17210388  0.02847782 -0.27276886 -0.02699214 -0.22179437
  0.01168878  0.27184904  0.17043984  0.14573728  0.00509465 -0.11988886
  0.10039648  0.01004781  0.06934527 -0.0792127   0.14005975 -0.11090966
 -0.12278127 -0.27747312 -0.29900733  0.01353454 -0.1501901   0.1098353
  0.04457542 -0.2699092  -0.2967741   0.00746161]
[ 0.00055104 -0.12228582 -0.03076405 -0.00726937 -0.02088072 -0.00728043
 -0.05250886 -0.02065108  0.01034347  0.0405608  -0.04689456 -0.03135311
  0.02285792 -0.03454192 -0.06240529 -0.03112724  0.05090796  0.00146065
 -0.03276351 -0.04423581 -0.03189727 -0.00529464 -0.02705177 -0.00660616
 -0.00955317  0.02807663  0.04115573  0.00349201 -0.00302113 -0.00666837
  0.07234056  0.03014343  0.00992393  0.0023153  -0.00343819 -0.00367261
  0.01826599 -0.01243028 -0.03962242  0.01225065]
layer 3 Activation
tanh
layer 4 Dense
40 20
[ 0.17691967  0.29058287  0.140882    0.097473    0.3326404   0.30245152
  0.07125001 -0.16996251 -0.24240826 -0.37817368  0.0804919  -0.00625029
 -0.01844929  0.24452569 -0.22805092 -0.28581125 -0.02756317 -0.24725959
 -0.38519338 -0.18546215]
[-0.13781926  0.14725366  0.02679742 -0.2556126   0.10292128  0.06138034
 -0.33206093 -0.090547   -0.33417705 -0.18133838  0.13540226  0.2638564
  0.06537643 -0.29056096 -0.21791145  0.29011157  0.28398803  0.18823947
  0.13428572 -0.23576723]
[ 0.00901076 -0.16466813 -0.18894975 -0.10763719  0.06357698  0.16817988
 -0.26968277 -0.22183008  0.04344865  0.37747884 -0.19651605 -0.23994589
 -0.1625402   0.23552963  0.08924939  0.3083669   0.0490337   0.11027753
 -0.22652023  0.17877446]
[-0.18025969 -0.20121469 -0.10943161 -0.14228643  0.17991512 -0.10760933
 -0.19704013 -0.07764478 -0.0405574   0.15320374 -0.00916061 -0.24439609
 -0.3030215   0.11492281 -0.02768412 -0.2338704   0.23977435  0.21497063
 -0.1307696   0.22270982]
[-0.20507084  0.10771448 -0.08339044 -0.33214948 -0.19831759  0.21979317
 -0.21111879  0.03573542 -0.05936359 -0.03991097 -0.12582599 -0.30521014
  0.05465575 -0.27952725  0.2436741  -0.04401534  0.20278978  0.20127258
  0.06328599  0.22930403]
[ 0.30877987 -0.36351714  0.11962109  0.2463742   0.1225735   0.02365672
  0.30372533 -0.21295027 -0.01813441  0.03684583  0.25294563  0.08034517
  0.0649659   0.2253012  -0.1492759   0.1631683   0.26464498 -0.12607276
  0.18336476 -0.20163937]
[-0.19384502 -0.26860175 -0.01299925 -0.17095347 -0.25151733  0.1670044
 -0.33499554 -0.06941784 -0.10234276  0.32680163 -0.21425186 -0.08056359
  0.07852903  0.2422802   0.0741885  -0.23426272  0.13724166  0.1977351
 -0.23641188  0.1981383 ]
[-0.3352265  -0.04342709 -0.252266   -0.21764423 -0.13478929 -0.04207069
 -0.25335765  0.1603013  -0.22690497  0.09990127 -0.00187348 -0.15192969
 -0.0170978  -0.20630413  0.03343146  0.12937562 -0.20885488  0.20992133
  0.06722844 -0.18261786]
[ 0.04577099  0.3136597   0.00643252 -0.22030473 -0.02158365  0.15830636
 -0.15242817  0.02407634  0.15522979  0.10571664 -0.02751315 -0.1026809
 -0.2334081   0.2569332   0.04261043 -0.04747136  0.10312602 -0.18343537
  0.39983925 -0.24277705]
[-0.15620087 -0.22649729 -0.22798859  0.1118433   0.15503925  0.26183847
  0.23386534 -0.04730413  0.02683431 -0.34629765 -0.16168337 -0.24635305
  0.00042277 -0.02347548  0.28047013  0.28168303  0.12205461 -0.14536102
 -0.35645914  0.11465839]
[ 0.34418407  0.20274319  0.24501264  0.17065279  0.3149227  -0.24067166
  0.07519124  0.15692794  0.2770845  -0.17526643  0.22475657 -0.22920421
  0.03927427 -0.03030635  0.1895323   0.22247218  0.28541493  0.03619373
  0.2100007  -0.24856171]
[-0.16633432  0.27917486  0.15553434 -0.11876195  0.2516397   0.06534636
  0.24897346  0.08252238 -0.19466868  0.28821832  0.06725974 -0.2596586
  0.0070522  -0.22396524  0.03879419 -0.2749961   0.2251878   0.32792395
  0.03450268 -0.3203863 ]
[ 0.23058365  0.2881882   0.0193491  -0.1640597  -0.27438334  0.2105604
  0.33210787  0.11347583 -0.17830993 -0.08247818  0.20022176 -0.13599172
 -0.16156287 -0.05617899 -0.20207484 -0.08071546 -0.2419411   0.04792337
  0.36356106 -0.13168493]
[-0.0424384   0.0447311   0.16979726  0.04489631  0.29298624 -0.1802633
 -0.03901321  0.09030362 -0.16932401 -0.27989814  0.20058233 -0.18559137
  0.20614274 -0.2927425  -0.2519798  -0.24099903  0.08356521 -0.11598018
 -0.35494906 -0.25194865]
[-0.03653242  0.07495695 -0.12987685 -0.12892596  0.21431334 -0.14301683
 -0.14050005  0.1586761  -0.22658801 -0.22440043  0.16297922  0.31963256
  0.35544214 -0.2628587  -0.04506821  0.2244056  -0.23119156 -0.3214555
 -0.02878726  0.04908292]
[-0.08252076  0.00506365  0.26540223 -0.12978992 -0.15351556  0.1117994
  0.20108482  0.20757242 -0.20330821  0.14500938  0.1277878  -0.03686277
  0.2970481  -0.20738465 -0.09319378 -0.00211601  0.06179158  0.10277039
  0.1796525   0.2441607 ]
[-0.20990044  0.18105118 -0.17102309  0.15420721 -0.01616291  0.11091118
  0.2877868  -0.01543435  0.14348097 -0.03815388 -0.23909461 -0.22064939
 -0.06368612  0.11588802  0.12020245  0.17123806  0.2123159   0.24188817
  0.00883313  0.1871664 ]
[ 0.18956853 -0.12667422 -0.24352312 -0.2472823   0.11540456  0.08191374
  0.03711156 -0.17567036 -0.11335113 -0.19689454 -0.10783963 -0.01263807
  0.23358323 -0.17027809  0.05406466  0.366274    0.14050548 -0.07834949
 -0.07102834  0.27751902]
[-0.24707839  0.14334667 -0.25046787  0.08837404 -0.20232056 -0.01237715
 -0.03015242  0.23800386 -0.09889588 -0.32407117 -0.30231366 -0.05000046
  0.05509661  0.33357447  0.24682672 -0.01034571 -0.3402989   0.03267706
  0.17372583  0.06284043]
[-0.09222628  0.17503     0.21328773  0.02996702 -0.16540259  0.17760618
  0.01711017  0.19875254 -0.10325319 -0.03100704 -0.03532024  0.2927743
  0.21948369  0.31862018  0.10159952  0.0102198  -0.260981    0.05353351
 -0.09471893 -0.24669778]
[-0.08853208  0.12749319  0.20579761  0.22119147 -0.03415974 -0.1993807
  0.1288631  -0.17764783  0.0905983   0.02290679 -0.00945607  0.32502475
 -0.37134486 -0.1634868  -0.12708184  0.24613175 -0.16974819  0.26220888
  0.30772707  0.15415074]
[ 0.21900712  0.09655353  0.03424024  0.0090784   0.03090747  0.21194114
 -0.2579752   0.02082653 -0.19782653  0.2811217   0.05076344  0.04452928
 -0.27008694  0.17357366  0.05569565  0.260494    0.02341744  0.03568143
  0.04334723 -0.08786063]
[-0.09942226  0.21020187  0.18054672  0.06497289  0.36392546  0.1438587
 -0.20716116 -0.13073994 -0.25799537 -0.18030605 -0.00476049 -0.15220873
  0.26749662  0.19983353  0.3385749  -0.23985337  0.13632688 -0.12661803
 -0.24881634 -0.3589907 ]
[-0.16432309  0.15851216  0.07220857 -0.00470892  0.11336686 -0.03703187
 -0.17985153 -0.07255696  0.00710774  0.09453518  0.12163842 -0.02689582
 -0.18286863 -0.28867653  0.26349142  0.21847688 -0.21764112  0.07716317
  0.14992924 -0.08201846]
[ 0.25809425 -0.26344278  0.29049692  0.24571021  0.15691335  0.04312353
  0.10181655  0.20047444  0.06024174  0.17792939 -0.06142687 -0.10368147
 -0.09347548  0.252993   -0.2069858   0.12680519  0.22455567  0.31448475
 -0.43301502 -0.19676434]
[ 0.17805932  0.29787505 -0.03430161 -0.27795672 -0.1358152   0.03183469
  0.2864228  -0.09903304  0.02403585  0.27827206 -0.20059873  0.25092933
 -0.0907329  -0.21442947  0.06761912 -0.14289609 -0.13495396 -0.04764614
  0.32497153  0.33143944]
[-0.02417144  0.10035731  0.01593261 -0.15281335 -0.19617867 -0.29209113
  0.22283225  0.2600846  -0.0328903  -0.17144708  0.17999382 -0.0825571
 -0.2506401   0.18631126  0.23598406  0.31319502  0.02649345  0.19090739
  0.2150246   0.3550817 ]
[ 0.17450279  0.24757865  0.22345449 -0.11299646  0.01792926  0.25479898
 -0.30878106 -0.020942    0.2676489  -0.28353864  0.1912982  -0.20993389
  0.22750859 -0.06961155  0.25389227  0.18517259  0.17540708  0.1635546
 -0.26259547 -0.19823486]
[ 0.25640628  0.16017687 -0.2808568   0.22489129  0.02634161  0.00662075
  0.04017847  0.07126936 -0.16517447 -0.16477892 -0.26723897  0.10923986
 -0.25269347  0.0492682   0.16570681  0.1877286   0.23708126  0.10502711
  0.43265292 -0.14230052]
[ 0.23238273  0.03385427 -0.2589873   0.09322363  0.15482126  0.27543938
 -0.17266966 -0.22631443 -0.1954676   0.17118184 -0.0619906  -0.03809466
  0.07809773 -0.20826738 -0.05480897  0.00957779  0.25640556 -0.18588527
  0.08147218 -0.18707444]
[ 0.13687748 -0.2514145   0.01152819  0.23064487 -0.11368916  0.26704538
  0.33894607  0.2567842   0.23167202  0.33494565 -0.30872643  0.03181971
  0.03707586 -0.00039546  0.10228074  0.108135    0.28517267 -0.10797787
  0.3448793   0.20952402]
[ 0.02537829 -0.24388127 -0.27156323  0.28900474  0.10615731  0.31953704
  0.19403075 -0.18866694 -0.05306246 -0.08022081  0.18879388  0.17113984
 -0.254811   -0.23476778 -0.20023781  0.17209943  0.00819322 -0.25409713
  0.30474165 -0.16888562]
[-0.20927021  0.2074101  -0.37827978 -0.1830226  -0.27332512  0.2428339
  0.21344411 -0.1055328   0.0303925   0.30098617  0.13040508 -0.17718394
  0.07593456  0.04034774  0.26034123 -0.173563    0.11497606 -0.201894
  0.37317002  0.21984628]
[ 0.01771878  0.12048048  0.14902374 -0.1712812  -0.28229654  0.06298222
  0.07234598 -0.33097726 -0.04127636 -0.2534885  -0.23217985  0.06409941
 -0.15580426  0.15234582 -0.02829137 -0.0439483   0.15656872  0.20407788
  0.14555047  0.21348332]
[ 0.227792    0.324115   -0.14816338 -0.24917234  0.06248579 -0.30372545
 -0.31022388 -0.08560841  0.1230825  -0.08361223  0.06034934  0.1793472
  0.12260763 -0.20614089  0.24581878  0.3436622   0.32757348  0.02592208
 -0.23525487 -0.23209347]
[-0.25540274 -0.28516194 -0.2312426   0.14498325 -0.10561433  0.13036318
  0.30289143 -0.27180034  0.21668592 -0.25471756  0.04365109 -0.03218509
  0.1756282   0.20176874  0.25611594 -0.12519948  0.13017987 -0.16989312
  0.09463205  0.11612072]
[-0.04998619  0.06000382 -0.25150415  0.32065487  0.18965761 -0.19317836
 -0.01136202 -0.24670573  0.31745726  0.08118692  0.3273935   0.2602677
 -0.17552976  0.17996088  0.17080235 -0.174138   -0.04201113  0.24958707
 -0.21237603 -0.13162713]
[-0.20441483  0.0756667  -0.19770466  0.21974078 -0.11964495 -0.00634867
  0.2966239   0.13744041  0.33824798  0.21608098  0.15591466 -0.02313554
  0.04475716  0.14375897  0.24764822 -0.2042894   0.18081678 -0.24567494
 -0.10894391 -0.31419793]
[ 0.2415903  -0.131651    0.21980672  0.23132908  0.14125946  0.07149885
 -0.30625024  0.21195555  0.2988093  -0.01815896 -0.13227075  0.05075832
 -0.25814414 -0.03138577 -0.32100466 -0.31602415  0.14339499 -0.30730665
  0.03362331 -0.21465681]
[-0.2429743   0.11146472 -0.01054841  0.03098426 -0.15064296  0.00706118
 -0.08928689 -0.18937917  0.3554985   0.28810862 -0.30598122  0.19765756
  0.11641879  0.32704866  0.03788121 -0.2120052  -0.13878325 -0.07971237
 -0.16846544 -0.29351097]
[ 0.03616699 -0.00647193 -0.01528634 -0.0231038  -0.01562621  0.02383015
  0.01139704  0.0167607   0.04670026  0.00215512 -0.02033079  0.03471448
 -0.0468531  -0.00229423  0.01563888 -0.03491292 -0.00084636 -0.00037514
  0.01152787 -0.00302087]
layer 5 Activation
tanh
layer 6 Dense
20 1
[-0.23647325]
[0.2021244]
[0.31659633]
[0.2917577]
[-0.13416173]
[-0.05635774]
[-0.32527]
[-0.07908563]
[-0.14188743]
[0.27202606]
[0.19542055]
[-0.21009712]
[0.14428177]
[0.19088133]
[-0.11374793]
[0.03987718]
[0.01561364]
[-0.3487817]
[0.312418]
[0.22728857]
[-0.03726583]
