layers 7
layer 0 Dense
20 20
[-0.37565348  0.36600128  0.42994094  0.39871874  0.0159109  -0.02521766
  0.15827802 -0.07614668  0.3342116  -0.50908834  0.23695472 -0.08115622
 -0.2670703   0.1573884   0.24461415 -0.35233545  0.03962922 -0.19779594
 -0.27775908 -0.07930709]
[-0.15206298  0.02819525  0.10958368 -0.03888202 -0.49015462  0.65770817
  0.05333595 -0.07606509  0.09340179 -0.33342364  0.18724757 -0.40219453
 -0.26028174  0.27072194  0.19048837  0.0462235  -0.21083641 -0.0918671
 -0.3038389  -0.06913048]
[-0.06856651  0.36372757 -0.06035794 -0.1539148   0.23896196  0.06440252
  0.3285457  -0.074195    0.12654355  0.04250625 -0.02744956  0.12388004
  0.1260079   0.3801251   0.44085273  0.40993866 -0.32872257 -0.4202192
  0.24596708  0.18563043]
[ 0.13551329 -0.21067972  0.35697496 -0.27824542  0.05574824 -0.056175
  0.02163932 -0.15436982 -0.05283897  0.07298817  0.25825068  0.06260408
  0.29083258  0.08753454  0.05406753 -0.21406521  0.23124062 -0.25953278
 -0.16294257 -0.14785028]
[ 1.6189265e-01 -1.4881550e-02  3.7022990e-01  3.5212237e-01
  2.1134017e-01 -1.9933211e-02 -1.8751132e-01  2.6498348e-01
 -2.4751294e-01 -2.5795901e-02 -1.6081643e-01  2.1975385e-01
 -2.6291463e-01  2.4110281e-01  1.9775131e-01 -8.6562522e-02
  1.6032209e-01  2.8431433e-01  2.5416329e-04 -6.7593148e-03]
[ 0.32381305  0.15720826  0.05713319 -0.08856842 -0.11678662 -0.4776247
 -0.43025026  0.08381689 -0.33577257 -0.3709317  -0.09561021 -0.29654688
 -0.13389279 -0.27973217  0.0057741   0.23695546  0.5292941   0.34196135
  0.19043748 -0.13952085]
[ 0.33612502 -0.11546756 -0.04169466  0.5184412   0.25245425 -0.5009826
 -0.25126156  0.13007718 -0.05438729 -0.39834255 -0.18356441 -0.00562256
  0.37982973  0.18139589 -0.05707286 -0.03401058  0.21776651  0.5005945
  0.43779615  0.06278449]
[-0.06793386  0.01456192 -0.10115686 -0.40473425  0.15843375  0.33258623
 -0.04719703  0.08425275 -0.28231192 -0.14993267 -0.10166736 -0.24606907
  0.2276455   0.02327164 -0.03565155  0.1570068  -0.43306592  0.25098982
  0.1377762   0.2791497 ]
[-0.35042638  0.00168841  0.39950913 -0.0490257  -0.01172288  0.11020405
 -0.13727902  0.3125654   0.3486308  -0.24850145  0.02077533  0.09649613
 -0.2435478  -0.0660328  -0.0155975   0.0278412   0.14269742 -0.00042946
  0.35461742  0.33658633]
[ 0.07753717  0.4320844  -0.25816306  0.10666779  0.22760722  0.42811173
 -0.36947468  0.38852254 -0.2518047  -0.07954083  0.2672591  -0.18205643
 -0.13296112  0.18681176  0.19081624 -0.30114773 -0.21888234  0.34382927
  0.1275955   0.24017549]
[ 0.13728735 -0.07071412 -0.34494954  0.27972928 -0.11317077  0.04302653
 -0.14654256  0.13399176 -0.29776895 -0.00440626  0.37515247 -0.02450425
  0.17012785 -0.11005385 -0.4030353  -0.54769033 -0.01073991  0.4401611
 -0.58696187  0.10229457]
[ 0.03724392 -0.25085825 -0.17446247 -0.13370556 -0.7470494   0.633483
 -0.18547559  0.24299945 -0.50768775  0.10457737 -0.23021716 -0.2840165
  0.23723948  0.04216834 -0.42189428  0.74996996 -0.33899316  0.3311154
 -0.09695954 -0.17758074]
[ 0.36312822 -0.24188864  0.13476795 -0.1543669  -0.09832441  0.41837505
  0.43657112  0.3749947   0.2742841   0.01008359  0.34063977  0.25872844
  0.04495172  0.0922327   0.35287738 -0.12302394  0.12499137  0.29215914
  0.16630046 -0.27623633]
[-0.42015386  0.07510956  0.03604499  0.43822518 -0.43232363 -0.39549637
 -0.1531504  -0.6558562   0.51200527 -0.43072626  0.0824606   0.1934424
 -0.42416832 -0.16426791 -0.38208088  0.31007773  0.15141353 -0.14465915
 -0.17791978 -0.1935086 ]
[-0.2553478   0.2920382   0.04919508  0.11796427  0.5459607   0.6753113
 -0.03800862  0.86398566 -0.16363774 -0.17702095  0.28066447  0.18382743
 -0.35374346  0.26833367  0.6530298   0.8630112   0.74737406 -0.7724923
 -0.09351702  0.2689506 ]
[-0.01732076  0.35496026 -0.5539143   0.4092766   1.0297973  -0.2706419
 -0.35629085  0.62004423  0.36418003 -1.0256437  -0.31757283  0.2685036
 -0.38331595 -0.16010797 -0.02149802 -0.4405297   0.1512233   0.24546678
  0.6266127   0.408672  ]
[ 0.2976109   0.4190998  -0.09830457 -0.26465932  0.204324   -0.36847484
  0.00218596  0.09926102 -0.26715454  0.49742302  0.08696055 -0.23023209
  0.12874155 -0.07316235  0.12594762  0.22117417  0.36728802 -0.14669566
 -0.17670009 -0.0585748 ]
[ 0.45954126 -0.2840013   0.1765399  -0.24213803  0.5166275   0.14834297
  0.40710956  0.4217124  -0.14055203  0.15146796 -0.48329693 -0.35259163
 -0.01362943  0.27682504  0.5637342  -0.26678395 -0.2661177   0.42687923
 -0.11434618  0.36786482]
[ 0.2123451  -0.60362405 -0.23538052  0.36735705 -0.10455357 -0.17153992
 -0.05665642 -0.2691185  -0.2020469   0.08990616 -0.00667528  0.43974388
  0.43467665 -0.2593968  -0.19277246 -0.67533267 -0.14717452  0.13264622
 -0.21061306 -0.20936786]
[ 0.24664478 -0.44437405 -0.2529854  -0.07902054 -0.6246757   0.5706578
  0.13040157 -0.21225242  0.11157939 -0.14915931 -0.32414055  0.01116118
  0.24444179 -0.04453323  0.11955041  0.20802058 -0.67799973 -0.30340454
 -0.15018511 -0.15128617]
[-0.00881379  0.06803148  0.0391788   0.04518158 -0.21825604  0.03119719
  0.01013723 -0.00717233  0.06223837 -0.13307534  0.14312239  0.00123165
 -0.02519234 -0.04319738 -0.03607964 -0.06296111 -0.02833386 -0.05704409
  0.01655073 -0.00288431]
layer 1 Activation
tanh
layer 2 Dense
20 40
[ 0.10630158 -0.24242277 -0.23967771 -0.33385763  0.15768234 -0.10410165
  0.19253922  0.1947369  -0.122671   -0.2731239   0.22315538 -0.09312265
  0.01238353  0.10898082  0.04181055 -0.04413378 -0.2299178  -0.03706075
  0.01341134  0.08814694 -0.12129791 -0.1488282   0.02695802  0.11795807
 -0.07549383  0.12992486  0.26677418 -0.31969813  0.16195425  0.00968072
 -0.04043712  0.07905453 -0.27775547 -0.19956559  0.0173738   0.02317168
 -0.00405391  0.02246029  0.21267869 -0.09304581]
[ 0.16931656 -0.0991196   0.04110196  0.12452582  0.11628783 -0.32661387
 -0.1947572   0.09771395  0.1683093  -0.21431142  0.3003373  -0.30381006
 -0.18593714  0.20804423 -0.16568768 -0.31503576  0.12771742 -0.21122847
 -0.02489156 -0.11485808  0.13861248  0.15637805  0.09150795  0.2775389
 -0.18077108 -0.00564395 -0.32448006 -0.05916049  0.02621714 -0.09744366
  0.3243635  -0.21883385  0.03734465  0.0265155  -0.05152785 -0.24403939
  0.19213277  0.23268226 -0.04133382  0.26061627]
[-0.28792417  0.02257343  0.01532496  0.2192232   0.3221049   0.0364635
  0.03922135  0.11507495 -0.32058334  0.02383789  0.02251223 -0.1749927
 -0.00635356  0.06027356 -0.26743388  0.26552135  0.171425    0.01508033
  0.2640824   0.06243597 -0.07031791  0.1416974   0.13935263 -0.22534356
 -0.09075893 -0.02768847  0.04585587 -0.00797698 -0.09817538 -0.25072873
 -0.00839822  0.00758809  0.15184288 -0.31142467  0.07353662 -0.13915129
 -0.18941438 -0.27644646  0.05547221  0.04270905]
[-0.16411154  0.09870425  0.09441276  0.19352996  0.09757866  0.2036986
  0.31279173 -0.23857862 -0.40749535 -0.16129892  0.34466195 -0.1661698
 -0.0840458   0.407249    0.12095066  0.12526791 -0.13241763 -0.28510052
 -0.11562664  0.09839544  0.16215995  0.28872174  0.10896511  0.04767294
 -0.05292749  0.0535024   0.13375047  0.25657967  0.06328383  0.2514101
  0.09114463  0.06162039 -0.07411763  0.07086927  0.30674735  0.04076147
  0.18599066  0.0760917  -0.21468893 -0.14009361]
[-0.3315995  -0.5430017  -0.2695361   0.06057492 -0.13172442  0.01541461
 -0.34403628 -0.25844565  0.06450853  0.09600857  0.046239   -0.33591205
 -0.30013078 -0.28409493  0.3220425  -0.37396908  0.02202886 -0.23628455
 -0.11954307  0.25289842 -0.02318349  0.215262    0.01440605 -0.4366097
 -0.33934468 -0.263109   -0.0060652  -0.25642624  0.12578812  0.06701678
  0.13443473  0.19637899  0.27235788 -0.02683675 -0.09887848 -0.27722427
  0.24852967 -0.1007918   0.12477802 -0.04098706]
[-0.28339526 -0.41225097 -0.24606332  0.25859287 -0.09913845  0.04034774
  0.0029437   0.37992358  0.11909983  0.05421745 -0.03662964 -0.10580587
  0.10820854  0.17160742  0.1780755  -0.16378191  0.244587    0.02500252
  0.19633296 -0.03493496 -0.07921432 -0.0108775  -0.3934166  -0.20393397
 -0.2063293   0.27069846 -0.26817125 -0.15904056 -0.0092349   0.12357482
  0.05534671  0.02158954  0.1047768  -0.07415807  0.234595   -0.11641657
 -0.14549667 -0.16652077  0.3262844  -0.18871991]
[ 0.04894041  0.13355991 -0.01499894 -0.27651343 -0.01925754 -0.04037862
  0.062323    0.27180955  0.21586454  0.04368825  0.01131683  0.07302098
 -0.22249131 -0.23579144 -0.03183423 -0.11705989  0.07295058  0.16214788
 -0.17828359  0.21183965 -0.03431284 -0.3272451  -0.03557276 -0.00381436
  0.26836357 -0.19549568 -0.28471702  0.10780235 -0.2728105  -0.29527977
  0.1809538   0.05164403  0.04324039 -0.29765248  0.05874296  0.02524241
 -0.0159659   0.09538742  0.0574378  -0.3404336 ]
[ 0.07222461 -0.4549206  -0.03333881 -0.08385738 -0.15206696  0.13621347
  0.04853255  0.251107    0.3363358   0.12158944  0.23562048  0.2984055
  0.0011287  -0.05135536  0.05235784  0.09950574  0.11773884 -0.12030365
  0.07622582  0.18632446 -0.11086002  0.25209853 -0.24184376 -0.15516035
  0.16320513 -0.20748198  0.00739272 -0.15962766  0.09508627  0.2799069
  0.08765157  0.00663989  0.05753789  0.32149938 -0.08101167  0.09643156
  0.2406427  -0.08272588  0.17385153  0.10009437]
[-0.14444867  0.43186235  0.02760978 -0.09813166  0.05021668  0.17614926
 -0.17905875 -0.17233527 -0.00638056 -0.02946967 -0.07394294  0.15538801
  0.04819228  0.03203537 -0.08314541  0.06552977  0.18893544 -0.04188452
  0.08702665  0.06650013  0.25718886  0.17878756  0.05329024  0.2565201
  0.10923539  0.04636759  0.20469242  0.45037505  0.08262417  0.20624663
  0.0616737  -0.14838897 -0.25820458  0.0919615   0.01744829 -0.17920332
 -0.19040148  0.15552199  0.07529802  0.31010407]
[-0.22681321 -0.22590311  0.04450151 -0.16557045 -0.08860873  0.01531818
  0.23838606 -0.19225632  0.21018925  0.05863168  0.16145627 -0.0224656
  0.2203245  -0.41016215 -0.08988121  0.03853019 -0.13820522 -0.15692566
  0.23103453  0.24441797 -0.32927516  0.21195477 -0.0684979  -0.04124106
  0.02218632  0.15847021  0.05445773 -0.46046838 -0.28720516  0.06713839
  0.13570115 -0.2727422  -0.24879745 -0.11576841  0.2905664  -0.24504034
 -0.06322882 -0.01811535  0.30628505 -0.02922693]
[-0.00292528  0.12483841 -0.23664138  0.4115465  -0.2619031  -0.03528301
  0.08948415 -0.04470725  0.16799192  0.12352942 -0.03093502 -0.2665257
  0.0415049   0.4597083  -0.1988069  -0.2888973   0.13401838 -0.34907994
 -0.11507218 -0.25907773 -0.01686253  0.25033846 -0.3006366   0.09778851
  0.06609719  0.45926055 -0.08163423  0.16728494  0.1632316  -0.01525963
 -0.1048179  -0.00356533 -0.08818021  0.18978515  0.1150144   0.13488068
 -0.04628089 -0.18927209  0.29920828  0.19982895]
[ 4.9590841e-03  3.8007122e-01  9.9481739e-02  2.0991327e-01
  3.1610772e-02 -3.9493009e-02 -1.5883775e-02 -3.0377445e-01
  1.4140284e-01  1.3109942e-01 -1.8349908e-01  2.1008551e-01
 -2.1089761e-01  1.5279526e-01  2.1533765e-01  6.4598378e-03
  1.7612283e-01 -1.4577945e-01  1.0352802e-02  1.5787680e-01
  7.5080395e-02  3.6755599e-02  1.2910683e-01  1.5525517e-01
  1.5894690e-01  1.6548428e-01  2.1298383e-01  1.7948272e-02
 -1.1185289e-01 -1.6674833e-01 -1.7504033e-04  4.6205621e-02
  2.9360076e-02 -3.2837430e-01  4.9389713e-02 -4.6375602e-02
 -1.2875371e-02  2.2802718e-01  2.4184306e-01 -1.4909232e-01]
[-0.132401    0.29660287  0.12654333 -0.14735757  0.15615174 -0.19024868
 -0.0596864   0.32032982 -0.01088443  0.02249038  0.08603991 -0.02428448
 -0.36427858 -0.11582813  0.12673576  0.15201692 -0.03016063 -0.03575497
  0.02758097  0.18807429 -0.0763451  -0.00156172  0.08855914  0.23678258
  0.13141912  0.32811588  0.1782481   0.42544824  0.21588181 -0.03716096
 -0.03248221  0.36019677 -0.11102125  0.10069692  0.28577673 -0.00395701
 -0.00761796 -0.04706426  0.19438268 -0.19218864]
[ 0.12130335 -0.13882199  0.00742601  0.06453756  0.27848625  0.12075444
 -0.02502167 -0.03489403  0.08944684  0.10553646  0.16639899  0.17734568
 -0.06561752  0.358929   -0.21050732 -0.12271965  0.15398361  0.05854276
 -0.01205757  0.14076723  0.17562293 -0.10546484  0.09593669 -0.23431817
  0.01284035 -0.13376848 -0.28833303 -0.1803014   0.05037454  0.02709096
  0.04722909 -0.23075779  0.01318924  0.05050624  0.1545973   0.05100061
  0.02121204 -0.10859256  0.116226   -0.19791128]
[-0.13420853 -0.15314507 -0.0834306  -0.13447635 -0.08788056  0.13783854
 -0.01432717 -0.17839606  0.11616467  0.24915755 -0.01027598  0.01099021
 -0.4058414  -0.09262446  0.21433088 -0.02228837  0.08908563  0.07973998
  0.28254583 -0.23675612 -0.09505657 -0.20166503 -0.3112415  -0.10882056
  0.09255715 -0.0943109  -0.24400425  0.01556573  0.26060274  0.20007657
  0.16416737 -0.14297235  0.11450586  0.09386059 -0.00393315  0.12384237
 -0.08338141  0.13589352  0.358013   -0.13243246]
[-0.2935227  -0.15657891 -0.09051798  0.12703335  0.19692929  0.1157426
  0.3196702   0.03736261  0.02459275  0.3601733  -0.01404631  0.1420912
 -0.09231412 -0.08161072 -0.11764073 -0.38790685 -0.03615189 -0.0033147
 -0.13098812 -0.11453238  0.18202227  0.19287471 -0.18817708  0.36881468
  0.13714975 -0.01170682 -0.4189414  -0.13023147 -0.24120386 -0.09834787
  0.00785124  0.22669247 -0.15506436  0.13179092  0.27009583  0.09567686
 -0.08811806  0.12891309  0.34548312 -0.32873362]
[ 0.10545728  0.16190845  0.01195439  0.098165   -0.24112734  0.25217587
  0.16586626 -0.30391347  0.0300896  -0.01263447 -0.03198155  0.13459507
 -0.03098409 -0.01109241 -0.00622414 -0.09014926 -0.00946661  0.30592874
  0.25405225  0.18270905  0.25122836  0.2488186   0.26125532 -0.36043838
  0.22182763 -0.18591496 -0.13504933  0.28679287 -0.19733515  0.1036133
  0.2880859   0.19761516 -0.10108703  0.13791727 -0.2222107  -0.06125481
 -0.18717599 -0.2275139   0.2888038   0.28055394]
[-0.08725686 -0.44735637  0.11269666 -0.22551642 -0.07792033 -0.08226435
 -0.03206718  0.35202506  0.0116093  -0.02504745  0.18794431 -0.19307083
 -0.00913401 -0.20885918 -0.24704283 -0.06466597  0.01189177  0.1065109
 -0.05574547 -0.25665498 -0.24274978 -0.34241104  0.1555554  -0.03706988
  0.14490928  0.1068766  -0.10155355 -0.33174992  0.14430219 -0.03999631
  0.23033595 -0.09152856 -0.29606697 -0.39970642  0.00699969 -0.05054622
  0.02660551 -0.06637447 -0.12079358 -0.34720334]
[-0.13739672  0.09345806 -0.07571034 -0.16763948 -0.08512368 -0.10526036
  0.13011703 -0.21001829  0.37246782  0.04873222  0.2875577  -0.06562839
 -0.29564464  0.04181652  0.41501465 -0.1960738  -0.12877902 -0.19297332
  0.30077612 -0.07644957  0.15852055 -0.07787362  0.18413651 -0.01789717
 -0.20210098  0.26171118 -0.13869508 -0.22026375  0.09752591  0.12066741
 -0.13128045 -0.20412105  0.09860566  0.06338613 -0.21515277 -0.143595
 -0.05488916 -0.0878254  -0.03181101  0.08009151]
[ 0.0949965  -0.1625275  -0.16790381 -0.20662668  0.28102925  0.13386102
  0.02999544  0.08994377  0.11713167 -0.04441783  0.28811684  0.05742333
 -0.18327922  0.12225311  0.01973406  0.12220084 -0.07697842 -0.21956724
 -0.07012486  0.2459311  -0.16122052 -0.28376332  0.14448468 -0.08800076
 -0.04335011 -0.20588998 -0.09867328 -0.33707073  0.2036169   0.14640762
 -0.02184479 -0.09994689  0.09428453 -0.05672158 -0.12681167 -0.04855741
  0.2846164  -0.14545192 -0.1114175   0.04707988]
[-0.02329694  0.07204324  0.04385183  0.05053689  0.03411296  0.1251906
  0.09401396 -0.01775113 -0.11033788  0.01176434  0.00120317  0.09189103
  0.10824052  0.21313606 -0.07100765  0.1029693   0.12601933 -0.08421886
  0.0386412  -0.0382284   0.03171047  0.01635408 -0.02878314  0.00124774
 -0.00574993 -0.00167162 -0.06255215  0.12875423 -0.011789   -0.07710914
  0.02073884  0.00390944  0.0012248  -0.00826475  0.06240999  0.00893429
  0.01682352 -0.00879292  0.00769211  0.02835737]
layer 3 Activation
tanh
layer 4 Dense
40 20
[-0.2969073   0.23663116 -0.00974167 -0.07521244 -0.31691206  0.2576473
  0.06360391  0.13328776  0.26975352 -0.13958657 -0.23147789 -0.23890124
  0.04782016 -0.10869178  0.02425315  0.14465225 -0.17946264 -0.28074834
 -0.03219779  0.07355109]
[-0.23067267 -0.32723382 -0.1190293   0.05728465 -0.30360556 -0.17029357
  0.3323484  -0.06527078 -0.01888667 -0.35607284  0.20767875 -0.02292402
  0.0895005  -0.07714196 -0.14574966 -0.10383389  0.26413658 -0.21876377
 -0.16984549 -0.17027475]
[-0.29273173 -0.2842904  -0.2974459  -0.13545154  0.14246625  0.13978808
 -0.23842958 -0.19948895  0.2843587  -0.18132061  0.1382785   0.255063
 -0.21543805  0.22489041 -0.10749731  0.047027   -0.03610749 -0.10237394
 -0.1711808   0.26898813]
[ 0.27338898 -0.24592635 -0.16006602  0.21164806 -0.13333611  0.00841087
  0.19915153  0.06736805 -0.0524375   0.08388723  0.01225269 -0.31508186
 -0.01524946 -0.2925169   0.19101836  0.21769199 -0.02361778 -0.23357725
 -0.01711943 -0.21402836]
[ 0.153735    0.1497802  -0.18845184 -0.19447748 -0.1606111   0.19594531
  0.09344984  0.15878724  0.06702612  0.11770828 -0.04213727  0.0735467
  0.21055394  0.00352174  0.06470068  0.344162    0.3715393  -0.20073071
 -0.14700204  0.23946935]
[-0.14751078  0.07670154 -0.08673575  0.1113543  -0.16017008 -0.05655403
  0.08613425  0.02211907  0.16806102  0.23747008  0.16520229  0.02408326
 -0.2577597  -0.13917643 -0.24420494 -0.01651929 -0.11453096 -0.12741904
 -0.13588363  0.07353611]
[-0.32034945  0.16987151  0.19949381  0.15915811  0.25148624 -0.19749007
  0.15129174  0.04364765 -0.04339048  0.2782625  -0.16967125  0.16339016
  0.05031956  0.2551774   0.1156446   0.1789108   0.27985656 -0.21506716
  0.27190474 -0.23846342]
[ 0.08439856 -0.13565573 -0.15875074  0.10804328  0.18315688 -0.18321301
  0.168639    0.10075866  0.16259067  0.24890113  0.09647273 -0.30017725
 -0.10967004 -0.28344455  0.13482752 -0.14949998 -0.2111608   0.19973806
  0.24938704 -0.10668346]
[ 0.23080397 -0.20717074  0.31502283 -0.11626671  0.25701356 -0.06529491
 -0.0312186   0.09500649 -0.09586997  0.14159717 -0.25267637 -0.04242968
 -0.14716181  0.03188802  0.2729271   0.02072374 -0.2508067   0.25988525
  0.09084621 -0.35300818]
[ 0.06227951 -0.13656753 -0.13788772 -0.1647896   0.26198992 -0.1061409
 -0.0490033   0.14097217 -0.10209195  0.19337003  0.04498528  0.1447351
  0.06478962 -0.04974607  0.03780832 -0.13404448  0.00667743  0.29701725
 -0.25562036 -0.19555737]
[ 0.22988199  0.12562665 -0.01698011  0.27100912  0.07538252 -0.28394634
  0.0075905  -0.23334691  0.17751797  0.19480707  0.00383501 -0.01157756
 -0.04859091 -0.02056431 -0.20571229  0.01725478 -0.03855539 -0.11592837
  0.27596956 -0.21969563]
[ 0.00169656  0.01338555 -0.2667629  -0.15599601 -0.17074868  0.03414644
 -0.15730077  0.3031882  -0.21075785  0.0389086   0.0481857   0.28797463
 -0.14921828  0.1595315  -0.13905548 -0.1954961   0.01699395  0.01884655
 -0.1797851   0.15833089]
[-0.15683158 -0.02074764  0.10798497 -0.06950181 -0.01963909 -0.2623991
 -0.10374149 -0.21105298 -0.00227788 -0.12678978 -0.13218886 -0.04320003
 -0.09636309  0.17700249  0.03858192  0.24863815  0.23495965 -0.31806704
  0.03280009  0.16099468]
[-0.33593482  0.08546175  0.11643254 -0.17246637  0.23304032  0.3042487
  0.32978785  0.19722855  0.08069807 -0.06442993  0.05526716 -0.20628309
 -0.04091081  0.00427099 -0.22226326  0.2556983  -0.00456274 -0.11050126
 -0.15360771 -0.2152952 ]
[ 0.01819325 -0.16395175  0.39663747 -0.04327589 -0.16712588  0.30970678
 -0.08816789 -0.277052   -0.08442007  0.286346    0.16793326  0.21251231
 -0.20054519  0.04859699  0.3390138  -0.14824392 -0.37029028  0.2687156
  0.18210989 -0.10150219]
[-0.05556325  0.18177833 -0.39117217  0.348502   -0.32692343 -0.23699552
 -0.12080793  0.33087635  0.21509965 -0.2497813   0.27198404  0.21789347
 -0.29402584 -0.18892008  0.07360402  0.23162864 -0.16944654 -0.34281644
 -0.0093     -0.11391176]
[ 0.2557383  -0.20884745  0.01346841  0.00579873 -0.16699548 -0.2472326
 -0.05203357  0.17123766  0.10974901 -0.0790722  -0.13597062 -0.22545892
 -0.10284899  0.02390911 -0.2112889   0.1902171  -0.29420245 -0.15077123
 -0.2536962  -0.18021989]
[-0.06064377  0.21598317 -0.15126511 -0.29385826  0.04190892  0.13565242
 -0.19079764  0.16003358  0.15221393  0.03408277  0.06735167  0.22094889
  0.10427215 -0.0705217   0.23127079 -0.19514239  0.19853999  0.15260781
 -0.13891959 -0.06364439]
[ 0.04349322  0.14352511  0.3515496  -0.01371407 -0.1376034  -0.18260637
  0.19578119 -0.19578986  0.23873083  0.13042852  0.37499565 -0.08733064
 -0.02844548  0.05140201  0.07120883  0.337305   -0.18848674 -0.04783013
  0.12909444  0.26750556]
[-0.06245255  0.16407327  0.36433166 -0.10317864  0.05837284  0.1601559
  0.11641239 -0.36181402  0.20766836  0.05187543  0.1963807   0.02592324
 -0.20748998  0.13557994  0.18032157  0.01866999  0.03371242  0.13465033
  0.18467377  0.21768783]
[ 0.18870325 -0.4291679   0.2681926   0.35307083  0.2405978  -0.33000344
  0.24038325 -0.14042537  0.22838253 -0.20512226  0.20307238 -0.22883606
  0.05218618 -0.10199816  0.11961464  0.09580731  0.13124987  0.06216887
 -0.23722757  0.21753474]
[ 0.12134241 -0.14517038 -0.23314255 -0.2381785   0.01449713  0.03016737
  0.2939262  -0.13348855 -0.167056    0.03415076  0.11037681  0.07483495
 -0.10894274  0.29698715 -0.01854039 -0.18556234 -0.01700262  0.28511077
 -0.06938899  0.2661858 ]
[-0.10321636  0.22802098 -0.12562533 -0.17656592  0.21889701 -0.3063369
 -0.00827029 -0.21235882 -0.10475929 -0.07000598  0.31458014 -0.17624843
 -0.04308581 -0.14049202  0.16083434  0.0624283  -0.08297336 -0.33115476
 -0.24068108  0.1435828 ]
[-0.35120952 -0.375235    0.13161674 -0.30390826  0.03276742 -0.18404436
 -0.31751972  0.0095617   0.10660633  0.17743392 -0.08280204 -0.03773611
 -0.00260503 -0.36692742  0.10270794  0.09746625  0.30080244 -0.25846803
 -0.06519566  0.1120175 ]
[ 0.07302617  0.07283293 -0.38566908  0.13741699 -0.18026344  0.03397717
 -0.300712   -0.00966959 -0.01697175  0.1785438  -0.02247483  0.01580215
  0.06151434  0.30471763  0.02817307 -0.2819917   0.23341486 -0.1502272
 -0.18422535  0.11260769]
[-0.06335308 -0.3632082  -0.21299113  0.05382089  0.12986234 -0.12415184
 -0.33385995  0.02153546  0.01035047 -0.23085709 -0.21345371 -0.04507788
  0.063293   -0.04065191 -0.12160233 -0.25608206  0.02542909  0.21589452
 -0.0638193  -0.13219053]
[-0.25531203 -0.16947515 -0.20460576 -0.01139666 -0.13141286 -0.13874865
 -0.291856   -0.2392378   0.12614848 -0.2225389  -0.04850151  0.32720107
  0.28856975 -0.19473305  0.22224815 -0.15109332 -0.12200766 -0.10581734
 -0.09517857  0.03551099]
[ 0.11087685 -0.18237036 -0.05306711 -0.0575556   0.16196834 -0.04807178
  0.20856763  0.2736054  -0.19999935 -0.29068625 -0.26035234  0.14887181
 -0.06634115  0.10198316 -0.25535575  0.2593237   0.186539   -0.27299494
 -0.08067128 -0.16968587]
[-0.04712586  0.05846247  0.15937255 -0.1978641   0.15983164 -0.2659295
  0.09219948 -0.17792939  0.05316833 -0.15287186 -0.12402329  0.10534884
  0.18617241 -0.24503255  0.19629028  0.00254038 -0.2767342  -0.07371961
  0.13279578  0.20912755]
[ 0.04839601  0.11630921  0.05720223  0.22023454 -0.15370579  0.25743747
  0.19356014  0.15434527  0.02335153  0.23785576 -0.15281992 -0.1172362
 -0.34628022 -0.00043229  0.21280386 -0.31623745 -0.16623527  0.14205325
  0.1288662   0.01914578]
[ 0.00337466  0.01785419  0.28247148  0.09256522 -0.09846884 -0.2822654
  0.18761863 -0.1471487  -0.21581466 -0.11351694 -0.11583885 -0.06502607
  0.33459195  0.20368138 -0.34702235 -0.12615928  0.08475824  0.21604519
  0.05443883 -0.03403401]
[ 0.2577393  -0.08756159 -0.37483397 -0.16859643 -0.15882301 -0.11548221
 -0.11329543  0.15849888  0.09943949 -0.06514662  0.09397425  0.07674018
 -0.22996517 -0.25045836 -0.17553854 -0.0512163   0.06140521 -0.04157621
 -0.11630636 -0.20701179]
[ 0.26172963  0.10241913  0.31889006  0.0870329  -0.09429518 -0.11739755
  0.266315    0.08058548  0.27150705  0.10215341  0.07272993 -0.1679606
 -0.12754485  0.24315912 -0.0161675  -0.0907172  -0.13321392  0.19569871
 -0.2560101   0.43431166]
[ 0.4001019  -0.20650107  0.19685204  0.09096503  0.15371922  0.159065
 -0.1886302   0.11311872  0.04797574  0.25974387  0.01074767 -0.30375424
  0.1579401  -0.28967288  0.2473094   0.18510051 -0.23686278 -0.23369958
 -0.20529613  0.11108287]
[-0.11592681  0.20119664 -0.05534729  0.22244279  0.20909007 -0.09047043
 -0.3373496   0.31077167 -0.00915433  0.15825388  0.12259185  0.1568398
 -0.07190751  0.03582685 -0.06926521 -0.15732427  0.15787391  0.18528414
 -0.05559042 -0.32351974]
[-0.24373911 -0.03464101 -0.06528822  0.0790848   0.04110919  0.14311011
  0.03634705  0.2862172  -0.150479   -0.28864348  0.10330648  0.05214282
  0.00955387  0.09486664  0.16717097  0.1278573  -0.13298024  0.09793331
 -0.14091392  0.01525271]
[ 0.23330607  0.0336484   0.30431873 -0.03425036 -0.21701233 -0.17681582
 -0.04309857 -0.18258789 -0.24200925 -0.15307683 -0.09311937 -0.2644773
 -0.14211656  0.11242815 -0.07071736 -0.14284217 -0.02472184 -0.05266842
  0.22960348 -0.01914034]
[ 0.1542467  -0.16488254 -0.15858848  0.05538138 -0.04441201 -0.08683625
 -0.02251523 -0.07828425 -0.11458185  0.23805875  0.04987286 -0.18875399
 -0.1323167  -0.31412086  0.15973347  0.02137509  0.15246472 -0.07701483
 -0.1010369  -0.10354567]
[-0.07883697  0.29986435  0.10483332  0.152053    0.02124533  0.26334676
  0.10390031  0.24076715 -0.00717235  0.4058969   0.29185918  0.03989278
  0.03024614  0.06268808 -0.08299483 -0.20540857 -0.19676618  0.27643925
  0.06552462 -0.17466764]
[ 0.30403155 -0.32967797  0.07749813  0.04701362  0.06189103 -0.19743551
  0.275342   -0.11693013 -0.06226248 -0.0520003  -0.03060758 -0.33303833
  0.1249871   0.33018675  0.11102831  0.23017567  0.06948235 -0.30385268
 -0.14167444 -0.21506314]
[ 0.02609467 -0.00939175  0.12340823  0.01507846 -0.00859861  0.01427639
  0.0357029   0.04744857 -0.00872624 -0.02723669  0.03789935 -0.01162305
 -0.0369743   0.05705433 -0.04517821  0.0092312  -0.04665647 -0.06319454
 -0.04111717  0.01098546]
layer 5 Activation
tanh
layer 6 Dense
20 1
[0.0996739]
[0.09316904]
[0.00289805]
[-0.01782885]
[0.00541205]
[-0.00965062]
[0.15276718]
[-0.09880169]
[-0.01663216]
[-0.10554645]
[-0.06628699]
[0.10865361]
[0.01087444]
[-0.04616482]
[0.06900652]
[-0.05853017]
[-0.12409682]
[-0.12392619]
[-0.18236153]
[0.01388802]
[-0.03538109]
