layers 7
layer 0 Dense
20 20
[-0.00794718 -0.4405623   0.58977306  0.47635624 -0.17458193 -0.01468765
 -0.5003224  -0.18000022 -0.6398443  -0.35224545 -0.24816649 -0.3141079
  0.23999746  0.09431607 -0.25962925  0.14994974  0.09134138  0.23468281
 -0.24750432 -0.07451042]
[ 0.01796669  0.2985145   0.33647972 -0.14406158 -0.295918   -0.3787675
 -0.25053948  0.21996677  0.12158716  0.23638189 -0.3263067  -0.32843438
 -0.30176517  0.00946376  0.15349227 -0.15363245 -0.28410837  0.37792057
  0.14956951  0.2813645 ]
[-0.00666863 -0.38439843 -0.10033661  0.10314327  0.2386306   0.37307763
  0.00528964 -0.15610132  0.1282652  -0.2777825  -0.2785272  -0.2845706
  0.0455229   0.24868578  0.38364834  0.05640757 -0.14391625 -0.3597002
  0.20997465 -0.36188126]
[-0.01838504 -0.05291576  0.8416424   0.5994137   0.3910364  -0.31415027
 -0.6595915  -0.19746375 -0.77790475 -0.4586624   0.27054578 -0.3468963
 -0.04120371 -0.41195938 -0.21548575 -0.10531212  0.24268748  0.32716084
 -0.11003113 -0.17274727]
[ 0.03744426 -0.12972109 -0.2529298  -0.21532714 -0.53120023 -0.13667256
  0.2314368   0.28476766  0.17786974 -0.3732314   0.5437226   0.5647557
 -0.45512637 -0.26968777  0.01630379 -0.24558    -0.13270545  0.24947776
 -0.02293578 -0.36303046]
[ 0.35744846  0.15148234  0.32682824  0.09932208 -0.1632442  -0.13710439
 -0.13900408  0.07256424  0.13881958  0.02587223  0.32407725 -0.25149456
  0.37665093 -0.34325832 -0.15601526  0.2676552  -0.11048108 -0.37626436
 -0.07400462  0.03694794]
[ 0.34504175 -0.18955818 -0.14610958 -0.14816421  0.08026043 -0.221257
 -0.2461085  -0.15090576 -0.34092048 -0.29285398  0.14835757  0.2577194
  0.08987966  0.03194121 -0.07720318  0.09294486  0.18409318 -0.31738657
  0.05987075  0.07185063]
[ 0.3215207   0.22197552 -0.39106187 -0.34581724  0.5837333   0.04375524
  0.47551277  0.34540766  0.5552205   0.59520406 -0.3491208   0.12955278
  0.4592059  -0.364005    0.5111824  -0.15877198 -0.50283533 -0.15984544
  0.76174253  0.05299484]
[-0.11457564 -0.2774954   0.4770613   0.01058655 -0.03140099  0.44102296
 -0.39593112 -0.21498936  0.6368505   0.07781161 -0.32846743 -0.19541682
 -0.57316923 -0.36882332 -0.1701381  -0.05411655  0.67398405 -0.7587006
 -0.17120682 -0.32336992]
[-1.1267927  -0.23460084  0.00525932 -0.8780852   0.18268703 -0.10722387
 -0.30146962 -0.68736196  0.04563282  0.05819855  0.10407157 -1.3822867
  0.21065459  0.12192841 -0.3322661   1.0686396  -0.48550656 -0.3316736
 -0.11442884  0.5491386 ]
[-0.01176487  0.4787885   0.10272817 -1.0636765  -0.54021025  1.1174172
  0.03835541  0.49061564  0.07424716 -0.1228468  -1.0625513  -0.12186955
 -1.4021419  -0.26022506  0.12040999  0.79280496 -0.17933181  0.3353576
 -0.13262406  0.93091   ]
[ 0.7459806   0.63793755  0.47807318 -0.33457464  1.3335052   0.00905733
  0.4859835  -0.08349027  0.69492006  0.8776003   0.07079197 -0.4368285
 -1.0208023   0.35000473  0.7732535   0.8023932  -0.9040721  -0.6649278
  0.6809903  -0.03470685]
[-0.60654104 -0.62016314 -0.1804142   0.4500073  -0.8101412   0.32048374
  0.02900092  0.16193043 -0.21602532  0.1449834  -0.26109996  0.681464
 -0.02787028 -0.29782933 -0.55720097 -0.3613685   0.4711439  -0.08845858
 -0.16319194  0.44878447]
[ 0.32851803 -0.1605874   0.3295334   0.60784775 -0.3035821  -0.15684476
 -0.19360898  0.55583394 -0.40549222 -0.05246778 -0.45859477  0.5908514
  0.04421334  0.32163864 -0.21270883 -0.14443819  0.04849143  0.10471198
 -0.09746657  0.09240828]
[-0.24692877 -0.37352666  0.1321741   0.3159817   0.30685866 -0.7613356
  0.32012957 -0.11796942 -0.1489763  -0.22823678  0.31748113 -0.3274266
  0.47003365 -0.4528434   0.47751835 -0.43601456  0.06681576  0.22665446
 -0.20439468  0.6438614 ]
[ 0.71565247  0.09105965 -0.0593613   0.17300044  0.90799385 -0.25394323
 -0.29927993  0.81135315 -1.7846216   1.1698364   0.6911991   0.14557151
  0.50889903  0.45394123  0.9107295   0.17630406 -0.7881538   0.11573446
  0.59978706  0.8230716 ]
[ 0.22711709  0.69006026 -0.38493538  0.00995468  0.41119096  0.00885813
  0.18343927  0.6424138   0.1955101   0.3240338   0.11409482  0.22199455
 -0.19256476  0.32988048  0.17900376  0.34634867 -0.1413645  -0.07869471
  0.25413635 -0.12041669]
[ 0.8050124   0.1116637   0.3068672   0.42471173 -0.25649977  0.9501801
 -0.19296995 -0.1348159   0.21693145 -0.06775674  0.6743176   0.4410392
 -0.2893065   0.09913329  0.32501006 -0.9309415   0.7968126   0.6833575
 -0.16305481  0.14671558]
[ 0.1802246  -0.7807936  -1.0681645   0.79354537  0.8752209  -0.49974957
 -0.04199618 -1.0728606   0.14849317 -0.10694289  1.111386    1.011632
  1.6769009   1.1801547  -0.25824332  0.24577181  0.15149224 -0.7967792
 -0.17266662 -1.3967886 ]
[-0.4671015  -0.35187316  0.3453071   0.4011057  -0.39870343  0.5624221
  0.07517402 -0.48225257  0.1245966  -0.37165186 -0.5116143   0.2050389
  0.6124831  -0.32768312 -0.5964727  -0.3879446   0.743333    0.05011097
 -0.26697344 -0.5370532 ]
[ 0.05636157 -0.20623985  0.55938864  0.0609157  -0.13992919 -0.06251026
 -0.37028947 -0.24332629 -0.6283939  -0.31826404 -0.09077512 -0.20415641
  0.01595522  0.05823116 -0.2224515   0.06823266  0.13975605  0.5676502
 -0.41677383  0.10351416]
layer 1 Activation
tanh
layer 2 Dense
20 40
[-0.29484934  0.33311304 -0.79578656 -0.10069504  0.7362447  -0.4832125
  1.0291115  -0.14248677 -0.37469143 -0.99015075 -0.3932761   0.02172867
  0.37540275 -0.36857176 -0.5901515   0.03582059  0.55796456 -1.0250195
  0.17606322  0.29412508  0.00309122 -0.01272374 -0.07955769  0.4220106
  0.5193045  -0.8668301   0.7943498   0.1729527   0.01061258  0.46105134
 -0.07097208  0.40871418 -0.71937233  0.67017496  0.6851085   0.41007888
 -0.46186474  0.61356753  0.13906172 -0.22078088]
[-0.6891865   0.4879485  -0.36528453  0.26251766  0.97973645 -0.36694178
  0.44438565 -0.00751497  0.12696761 -0.1065258   0.01644744 -0.04546579
 -0.29261905 -0.0992366  -0.5718611   0.05158705 -0.19866826 -0.3501114
 -0.45593244 -0.11092129 -0.17669724 -0.01925146 -0.5765485  -0.04865707
  0.23256963 -0.30501089 -0.04107631  0.28010046  0.09436514  0.21572389
 -0.13983336  0.8410088  -0.31013283  0.3797857  -0.9981523  -0.8327168
  0.23454739  0.5077778   0.18520983 -0.4858938 ]
[ 0.33221677 -0.25302896  0.46037742 -0.37630656 -0.28877506 -0.03232244
 -0.8490328  -0.19581465 -0.17000449 -0.44059154  0.02266134 -0.36840978
 -0.29636002 -0.0791776  -0.03856284  0.18012117 -0.06104508 -0.5458244
  0.38000458 -0.07587656  0.64098006  0.11671716  0.13694155  0.1594916
 -0.19597687  0.08512852  0.11971977 -0.07367469  0.23577486  0.03941919
  0.5307594   0.41344193  0.1940155  -0.06978882 -0.48647335  0.02933962
 -0.17233138  0.15105553  0.36310396  0.13964768]
[ 0.4868055  -0.21323676 -0.16851331  0.05869666 -0.5134232   0.47881982
 -0.11273941  0.09282335 -0.00663377  0.33173704 -0.00614631  0.10330229
  0.24029416 -0.06337067  0.4247942   0.333841    0.04262761 -0.07599058
  0.04087234  0.23818557 -0.27269754  0.10155675  0.75253695  0.05374779
  0.56727713  0.14089231  0.36618054  0.03309001 -0.33388492  0.53965586
  0.03209499 -0.49415728 -0.11588799  0.1307524   0.5296121   0.670516
 -0.32311863  0.18040746  0.15374322  0.13317324]
[-0.825709   -0.5316756  -0.9301087  -0.08324504 -0.5087714  -0.4127165
  0.90850186  0.15888064 -0.3770277   0.30313033 -0.36462554  0.18046883
 -0.0928487   0.1252525   0.5438419  -0.03750901  0.9311803  -0.7628948
  0.26020285 -0.342867   -0.1955817   0.15070608  0.32797548  0.08948286
 -0.08541428 -1.0502775   0.6649864   0.45864433 -0.5091483   0.85449344
  0.3279662   0.34858468 -0.3085166   0.7131124   0.30123922  0.2566534
 -0.7108121   0.6031145   0.07402571 -0.2904172 ]
[ 0.4342596  -0.08048012  0.47662395  0.18717699  0.1188242   0.15472859
 -0.32925126  0.15711547  0.05731972 -0.61865485 -0.08092044  0.20843187
 -0.8402201   0.37638128 -0.10180677 -0.05562036 -0.52741337  0.05026043
  0.03563609 -0.1735012  -0.34072566 -0.5385911  -0.38878495 -0.04404021
  0.5674673   0.3129005  -0.27993685  0.27766445 -0.22139305 -0.45279366
 -0.41250935  0.22242902  0.19478337 -0.01979484 -0.11838118 -0.5342928
  0.08331517 -0.14919315 -0.29156554  0.3344959 ]
[-0.1436579   0.56472176 -0.12968932  0.01002934  0.17082842 -0.32087266
 -0.1295722   0.4313969  -0.5184418  -0.04433117 -0.4733825   0.44749272
  0.05279637  0.63498795 -0.5380028  -0.33066827 -0.01412589  0.18824707
  0.23378846  0.51463014 -0.10386306 -0.13562636 -0.5833067   0.15290254
 -0.43674344 -0.08787435  0.28927574  0.25038484  0.02547455  0.2985891
  0.26417693  0.16780822 -0.19994982  0.19939946  0.5157606  -0.4484255
 -0.155111   -0.05480152 -0.631792    0.09397349]
[-0.02599332  0.56473696  0.36295518 -0.06894966  0.75176585 -0.21985139
  0.48687485 -0.12674963 -0.67217666 -0.62585    -0.56984967  0.15586188
 -0.18718459  0.29450193 -0.36024    -0.02607207 -0.03045469 -0.5765962
  0.22254938  0.00995538 -0.38092452 -0.33344752 -0.31153652  0.15432951
  0.1224241  -0.9863914  -0.16507615 -0.00136886 -0.31699035  0.17392547
 -0.09401082  0.02229189 -0.1878828   0.19804364 -0.08395135 -0.5416829
 -0.11031691  0.03759486 -0.03988339 -0.2296447 ]
[-0.50104433  0.5018547  -0.23704654 -0.12232672  0.38245308 -0.57290757
  0.37163892  0.68437546 -0.8376915  -0.5423613  -0.66251576  0.41887847
 -0.41370377  0.14749701 -0.13603652 -0.6108775   0.55989695 -0.29783827
  0.373209    0.23293492 -0.33406606 -0.86070347 -0.33358443  0.14278935
 -0.1860098  -0.73787415  0.76105773  0.27102426 -0.16033018  0.16575685
  0.18239564  0.36862203 -0.45007747  0.34041703  0.54321826  0.17419052
 -0.70880145  0.878372   -0.8287981   0.2808334 ]
[-0.11041448 -0.01941271 -0.7155417  -0.13274202  0.49380574 -0.21381283
  0.41640523  0.48070243 -1.0312701  -0.45511496 -0.40657857  0.30776805
 -0.74399066  0.6429458  -0.11823106 -0.63907087  0.45523813 -0.41782722
  0.42568207 -0.07126645  0.25443447 -0.14264357 -0.4558079   0.596377
 -0.46759653 -0.9014112   0.53117514  0.34558558  0.03754637  0.12453511
  0.34425262  0.41076395 -0.3294508   0.6358249   0.74474764  0.03545472
 -1.0086563   0.8641413  -0.3760858   0.08741838]
[-0.41193205 -0.457511   -0.65580463  0.15867841 -0.14089477 -0.2931884
  0.33191937 -0.17852937  0.03035176  0.24506392 -0.15798558 -0.14907575
  0.5878888   0.22566463 -0.02078087  0.15315448  0.68668014 -0.4210817
  0.3362522   0.12821695 -0.36579734  0.13141266  0.34968904 -0.12210935
 -0.17417578 -0.42241287 -1.1259545  -0.1920494   0.19155394  0.58548146
 -0.46093816 -0.09947304 -0.16939776  0.28517547 -0.36024895  0.00304445
 -0.3798009   0.23017143  0.24697742 -0.22797136]
[ 0.18612754 -0.6658133  -0.128335    0.16099676 -0.5517686   0.28233713
  0.2197026   0.19670646  0.66433394  0.16905259  0.7369352  -0.02506616
  0.01846345  0.24975434  0.26614323 -0.2152607  -0.24504682  0.40143612
 -0.65235084 -0.40026835 -0.6962881   0.12666374 -0.6407802  -0.3693799
  0.8970563   0.09489777  0.14794332 -0.34792885 -0.2649094   0.15722445
 -0.06414364 -0.8754582  -0.22622956  0.10865106 -0.11950823 -0.46154857
  0.30801174 -0.5793934  -0.2435418  -0.8269251 ]
[ 0.1715573  -0.3057379   0.1736957  -0.05073081 -0.23058479  0.21228467
 -0.05487761 -0.05581325 -0.43205306  0.48901677 -0.20869467 -0.32193735
 -0.09375692  0.58211935  0.27795142 -0.24195169  0.15411323  0.06601612
  0.23098838  0.24188831 -0.4019649  -0.4083891   0.22290285 -0.25238073
 -0.18503492 -0.10007685  0.13710268 -0.09407973  0.03325547 -0.6467113
  0.07221568 -0.5554079   0.15602553  0.14628659  0.2260879   0.13995886
  0.02012139 -0.33296135 -0.01136716 -0.10280262]
[-0.25664237 -0.05970957 -0.16849343 -0.1437211   0.1536792   0.20414709
  0.16227995  0.12125288  0.3134511   0.06180687  0.01710856  0.05346434
  0.11924759 -0.28178957 -0.25184327  0.08936699  0.04311522  0.19398989
 -0.20421657  0.11284949  0.03268218  0.39679638  0.9053195  -0.21974061
 -0.2732092   0.12379506 -0.40197     0.1665251   0.15164761  0.41405386
  0.20395833  0.3888253  -0.2402375   0.1929863  -0.14526837  0.03961304
 -0.18265842  0.47561175  0.280052    0.01178032]
[-0.17308915  0.47173074 -0.280275    0.08740513  0.24785303 -0.51020426
  0.03541884  0.3026441  -0.17944293  0.4672953  -0.49396375  0.14255737
  0.14608726  0.21489024  0.07275549 -0.0412144   0.2123767  -0.1926758
  0.02007209  0.20215671 -0.4061458  -0.30737197 -0.2315694   0.193489
 -0.34346947 -0.5005397   0.09703132  0.49954623  0.07910556  0.97667545
 -0.42802787  1.2482721  -0.6437275  -0.31284046 -0.10195291 -0.42866856
 -0.4494707   0.46323022 -0.25393885 -0.6223896 ]
[-0.4354335   0.00273081 -0.49725452 -0.02689363  0.013755   -0.22227249
  0.35463163 -0.17274283 -0.20640855 -0.48847276 -0.37586126 -0.20161451
  0.13074276  0.2293278   0.04062255  0.1137971   0.7047538  -0.42655584
  0.13627559  0.36765933  0.3424238  -0.26218835  0.23383027 -0.2768075
 -0.00757778 -0.1846742   0.26183385 -0.43712312 -0.17799222 -0.52898324
  0.12838134  0.04639034 -0.294846    0.45297304  0.24825783 -0.06484692
 -0.04846255  0.26913065  0.22839563  0.02233141]
[ 0.7381922  -0.39666218  0.6625543  -0.26105267 -0.36754876  0.21527295
  0.00652304  0.06938037  0.7937728   0.41125146  0.48583013 -0.15229714
 -0.04490417 -0.24693651  0.73522073  0.00303998 -0.2659985  -0.15099706
 -0.15927438  0.02419618 -0.30016464 -0.01408695 -0.26528618 -0.42274854
  0.38734654  0.5007451  -0.8833979   0.3497234   0.09204128  0.05299233
 -0.17387716 -0.69029576  0.7714259  -0.68498164 -0.2038058   0.32417154
  0.7781355  -0.8361857   0.31614885 -0.15019253]
[ 4.72965270e-01  8.28383148e-01  7.62443021e-02 -3.96751915e-04
  5.11475682e-01  2.72613794e-01 -8.46891403e-01 -2.65039410e-02
 -1.06331386e-01 -5.34488142e-01 -3.11803669e-01 -3.48621458e-01
  4.75176334e-01 -5.88357151e-02 -2.73998290e-01 -4.88977581e-02
 -5.18521607e-01  8.87634084e-02  2.82531828e-01  5.65197647e-01
  1.40927598e-01 -1.60337836e-01  1.74139082e-01  7.75540471e-02
  1.92039594e-01  1.15944356e-01 -2.46761367e-02 -8.43654126e-02
  1.46179527e-01  2.41572261e-01  1.67877629e-01  6.29777670e-01
 -6.01212420e-02 -6.41149998e-01 -4.09477174e-01  1.64341465e-01
 -1.35345146e-01 -2.01208800e-01  4.94829044e-02 -3.54782939e-02]
[-4.1826910e-01  3.5576275e-01 -6.5393716e-01 -9.2886433e-02
  3.1173608e-01 -3.0828622e-01  6.1202937e-01  7.0767802e-01
 -7.9758453e-01 -4.9239683e-01 -4.5563048e-01  1.0820651e+00
 -7.6435709e-01  9.0347058e-01 -6.2080000e-02 -5.5060714e-01
  5.0945991e-01 -2.4613826e-01  4.4017968e-01  1.2317139e-03
 -7.4583572e-01 -7.1735990e-01 -4.5678467e-01  2.8998810e-01
 -2.5899637e-01 -1.4685277e+00  1.3990666e+00  7.7870709e-01
 -4.6053174e-01  3.0272108e-01  6.1410032e-02  2.9845646e-01
 -8.4026664e-01  7.0221180e-01  5.9554976e-01 -1.1801381e-02
 -3.3598068e-01  8.5483295e-01 -5.7837057e-01 -4.5207864e-01]
[ 0.58176315  1.1307775   0.30068654 -0.09088439  0.82304096  0.54371035
 -0.40897602 -0.06664838 -0.3540618  -0.6794874  -0.41088647 -0.22381061
 -0.5335898   0.26010144 -0.48181012  0.12664351 -0.9370363  -0.5985241
 -0.03922987  0.25089145  0.19956627  0.19398473 -0.6402139   0.792496
 -0.08714128 -0.15291993  0.40503818  0.06731539 -0.09613039 -0.10775979
 -0.23633926  0.7590111   0.2195157  -0.46607584 -0.5235297  -0.4718919
 -0.1244105   0.04450252 -0.05517678  0.23423928]
[ 0.36693048 -0.31708452  0.45244125  0.12514138 -0.33184087  0.33645335
 -0.511092   -0.6169821   0.73399585  0.29785046  0.5157581  -0.3229565
  0.36072928 -0.41737384  0.19631718  0.5545981  -0.3813802   0.25664875
 -0.43504584 -0.21046484  0.05827344  0.58290493  0.34418598 -0.47163856
  0.33902356  0.5725793  -0.4353668  -0.25217074  0.02011522 -0.30700842
 -0.4638253  -0.16399945  0.43386585 -0.49718806 -0.3800094   0.07760435
  0.5545552  -0.5975884   0.6847277  -0.06337895]
layer 3 Activation
tanh
layer 4 Dense
40 20
[-0.38105133 -0.19505477  0.18654723 -0.334628    0.21619557 -0.21498506
 -0.17837007  0.02991072 -0.11355884 -0.03566999 -0.02655544  0.47312015
 -0.06672221 -0.22439003 -0.12937522  0.3902928   0.22033924 -1.0761638
 -0.594436    0.41260833]
[ 0.45018718 -0.17698328  0.22927625 -0.56348264  0.3506557  -0.07071898
  0.8128191  -0.49804017 -0.23944831 -0.16434206  0.16089843  0.34826514
 -0.25688055  0.07481072 -0.2819838  -0.40546295  0.46604478  0.48858577
  0.24956016  0.05620522]
[-0.08926677 -0.25913993 -0.01565235 -0.54913944 -0.19163452 -0.03776096
 -0.13961293  0.15294647  0.20012313 -0.33837444  0.12066218  0.8064799
 -0.24279486  0.0992933   0.10151901  0.29010403  0.56979066 -0.53251934
 -0.19218603  0.2509852 ]
[-0.36749834 -0.10574158  0.05120864  0.14775765  0.06827087  0.2101535
 -0.3540695   0.01611034 -0.11519347  0.4624068   0.31924033 -0.06028635
 -0.06536057 -0.2788444   0.1701161   0.1213213  -0.12336039 -0.07599131
  0.08751035 -0.01134704]
[ 0.34254244  0.23643762  0.38582447 -0.30033484 -0.1925027   0.20154043
  0.46743512 -0.14418894 -0.41462693  0.01642022  0.46124083 -0.0036406
 -0.4891542   0.17160292  0.07067949 -0.47865412  0.3734802   0.5487684
  0.28844962 -0.05230134]
[-1.6253743e-01 -3.0528322e-01  4.8980996e-01 -3.6019480e-01
  4.0874392e-01  1.7077063e-01  4.8731568e-01  4.6399513e-01
 -6.6182747e-02 -4.4935290e-04  1.6199346e-01  4.5078319e-02
 -3.3814409e-01  4.1081437e-01 -4.6785828e-02  2.5220862e-01
  1.6114604e-01 -8.5634708e-01 -1.1667485e-01 -3.0952847e-01]
[ 0.1466341  -0.010217    0.30226922  0.41420949 -0.05303511  0.3188342
 -0.36637178 -0.06860176  0.094902    0.25135627 -0.18877053 -0.3174874
  0.02857732  0.24556278  0.19025151 -0.06437358 -0.36283576  0.7509889
 -0.11469547 -0.11596671]
[ 0.8967745   0.36936355 -0.39608797  0.42581162 -0.26636454  0.15110196
  0.65422684 -0.3706221   0.14652473  0.5491354  -0.5132462  -0.3563727
 -0.21880162  0.04265147 -0.9877738   0.22154212 -0.08324827  0.36125073
  0.47630942  0.30291405]
[-1.7073497   0.02790679 -0.14950572  0.31881893  0.20391537 -0.27300927
 -1.0665436   0.27570677  0.61617565  0.06459294  0.05584669  0.27155557
 -0.16316265  0.7052329   1.3143196   0.07248992  0.4847495  -0.21718058
 -0.63418806 -0.596471  ]
[-0.32786125  0.30331752 -0.12264059  0.3382393   0.23791169  0.21573547
 -0.2816707   0.2330474   0.27982885  0.44720313 -0.11486245  0.6758902
  0.24326569 -0.05118413  0.52154756  0.26079768  0.03811818 -0.04592611
 -0.72211677 -0.25770807]
[-0.652739    0.3162459   0.31751373  0.41758704  0.54606557  0.0268599
 -1.1405028  -0.06293411  0.03188719 -0.16430332  0.14623839 -0.21437994
  0.22973154  0.3541564   0.6629298   0.16156183  0.4163719  -1.0954328
 -0.5486999   0.00301269]
[ 0.56438214  0.367195   -0.41364586  0.27129784 -0.5807241   0.40984002
  0.3348454  -0.42449304  0.46471387  0.4692275  -0.6298775  -0.13410452
  0.14603907 -0.56731653 -0.42794177 -0.25157726  0.04861402 -0.20346583
  0.23702924  0.29445276]
[-0.40419295 -0.1887185   0.45913985 -0.0198534   0.38593623 -0.59003246
 -0.47120345  0.02030549  0.24926634 -0.01282125  0.30287954 -0.30950633
  0.34446332  0.16641128  0.35497656 -0.03210441 -0.2846429  -0.2645567
 -0.29106408  0.05883414]
[ 0.38588247  0.19405642 -0.08766454  0.46705428 -0.3764102   0.5484914
  0.35022074 -0.23299842  0.08520305 -0.00363529 -0.55163366 -0.03768258
 -0.50114894  0.11152508 -0.610097    0.11439632  0.15388896  0.0555596
  0.24013254  0.13012376]
[ 0.23923145  0.17443791  0.0588963   0.23095348 -0.09368028 -0.54552424
 -0.72117764  0.16918366  0.31176677  0.22289237 -0.19949359  0.16615336
  0.38920197  0.05359753 -0.13200195  0.07227056  0.14229764 -0.2747817
 -0.3764823   0.23090246]
[-0.54264474 -0.25527027  0.3014638  -0.30918267  0.3872874  -0.6066372
 -0.33147174  0.13956967 -0.11672357 -0.3821797  -0.06675534  0.49558142
  0.23242149  0.19269936  0.6170926   0.30134183 -0.12826195 -0.54923123
 -0.30814213 -0.39991674]
[ 0.51774484  0.0839019  -0.18518274  0.61148685 -0.21095033 -0.11821841
  0.8855242   0.42261147  0.20215002  0.39258203 -0.3307578  -0.8506533
  0.5277215   0.46459672 -0.62167263 -0.17354742 -0.5410671   1.0977958
  0.33586887 -0.44088414]
[-0.25877136 -0.08236652 -0.30631283 -0.20416953  0.34780532  0.17810126
  0.14989015  0.04044124  0.1822003   0.18990688  0.21710353  0.33827302
  0.24517769  0.4332162   0.2661334   0.03913384  0.32735217 -1.3846737
 -0.45208114 -0.01541124]
[ 0.6255685   0.39927712 -0.2069114   0.1698133  -0.47897485 -0.14257534
  0.68430036 -0.08110575 -0.00933153  0.49694794 -0.1245379  -0.3337299
 -0.14036049 -0.15771076 -0.84392005 -0.21240075  0.04722426  0.13844992
  0.16364993  0.47407448]
[ 0.47418353  0.18690568  0.00767734 -0.01485244 -0.27711228 -0.11588783
  0.72132385 -0.12703136 -0.1368422   0.503498   -0.38052315  0.460688
 -0.08467441 -0.4646031  -0.14558786 -0.10143176  0.02387071  0.18070604
  0.62942135  0.61258703]
[ 0.1938467  -0.23495007  0.08707549 -0.32850692  0.06684249  0.10181226
  0.34653232  0.08906931 -0.16028522 -0.18924402  0.10972518 -0.34526867
 -0.09703436 -0.00276875 -0.24899189  0.01973677  0.2922038   0.16355799
  0.2652271   0.18352567]
[-0.3185039  -0.5203461   0.24328104 -0.05123071  0.4910214  -0.22255336
 -0.02398605 -0.12185463  0.15436983 -0.17450732  0.00760422  0.06586272
  0.22641729  0.42226854  0.6021642  -0.2664728  -0.2071757  -0.28293285
 -0.49506035 -0.24252278]
[-0.1934265  -0.16992058  0.03093219 -0.09155165  0.25928092 -0.1948033
  0.43652302  0.32831874  0.47335455 -0.35612646  0.10329328  0.1721629
  0.51363766  0.56575865  0.06583139  0.35183975 -0.25323603  0.4882496
  0.10597084 -0.51488626]
[ 0.26175278  0.3143961  -0.06814198 -0.4371006  -0.23155425  0.79342586
  0.12751083 -0.10798163  0.00240243  0.29753518  0.2822734  -0.05581939
  0.03374042 -0.32296556 -0.38199165 -0.2025062   0.032621   -0.02502561
 -0.08142124  0.5755176 ]
[-0.22055006  0.17488162 -0.40636882  0.18842535 -0.21482329 -0.28720054
 -0.5916019   0.02194684  0.32789037  0.08436488 -0.00702474  0.10148378
  0.33555627  0.13059925  0.55922705 -0.07367726 -0.17158009 -0.72859925
 -0.02591409  0.07681508]
[-0.2313519  -0.6660073   0.3058103  -0.21556367  0.98370254  0.08901526
 -0.85696805 -0.25542098  0.41333768  0.37520596 -0.09924602  0.6856045
 -0.67476916  0.01129948  0.35422477  0.7392673   0.47332755 -1.0171769
 -0.3177614  -0.19303557]
[ 0.6356535   0.36723873 -0.11016881 -0.07208596 -0.5892489   0.64349586
  0.3821512  -0.09370044 -0.17304671  0.5640339  -0.20136541 -0.11481056
 -0.3330544  -0.30997512 -0.4952867   0.361423   -0.13698405  0.36497808
 -0.02640002  0.27117184]
[ 0.60220593  0.5072257  -0.23492558  0.2631013  -0.30066335  0.26774067
  0.21853544 -0.34695214 -0.12278476  0.28887597  0.13814686 -0.03949387
 -0.32910773 -0.09290988 -0.37571064 -0.16471183  0.2920654   0.2823356
  0.12349829  0.20194943]
[ 0.09860895 -0.27440262  0.38615566 -0.24197441  0.25534773 -0.12604155
  0.2193048   0.09221542 -0.1058866  -0.2110878  -0.17523775  0.1527857
 -0.2754184  -0.14077356  0.1471622   0.03687961  0.17052883 -0.0127742
 -0.08634091 -0.02800863]
[-0.46380216  0.18333347 -0.12507208  0.11200386  0.0108982   0.427024
  0.2899933  -0.12658976 -0.19975501  0.13055104  0.40856716 -0.4920936
 -0.1295847   0.09288083 -0.08551314 -0.20886648 -0.08448766  0.6083501
  0.11140729  0.38420683]
[ 0.27807483  0.16844547 -0.06368151  0.06387157 -0.3546704  -0.19765414
  0.40674382 -0.04234139  0.12434725 -0.14951077  0.01143696 -0.08857006
  0.12479996 -0.15486474 -0.5456201  -0.03355322  0.01563895  0.12634583
 -0.06075838  0.32865626]
[ 0.23195326  0.03068486  0.4907394  -0.47310188 -0.17768079 -0.09172539
  0.4262559  -0.24449429 -0.4131321  -0.36842877  0.46612734 -0.2788431
 -0.42449245 -0.09371323 -0.0865298  -0.31275693  0.03799604  0.91744876
  0.90776896  0.00857254]
[-0.08528319 -0.09688891  0.06018335 -0.07622389  0.20806915 -0.17061692
 -0.42686725  0.0314746   0.14206877  0.22047669  0.11444446  0.43315673
 -0.39183268  0.0603264   0.13866109 -0.00120179  0.38351893 -0.7534762
 -0.37722412 -0.02929579]
[ 0.21008027 -0.01956329 -0.04667396  0.29087743 -0.21701013  0.3740549
 -0.25323367 -0.11562034  0.2557201   0.0953759  -0.30424947 -0.64433867
 -0.13109256  0.07063552 -0.22078867 -0.14662683 -0.18715696  0.5142693
 -0.06195224 -0.22455052]
[ 0.5221229   0.02175132 -0.6150326   0.19309556 -0.3519592   0.2608405
  0.08753502 -0.07111836  0.26871234  0.26761162 -0.49580964  0.45978445
 -0.4125662  -0.5003761  -0.24557374  0.13591123 -0.13444757  0.27607346
  0.10045654 -0.05021747]
[ 0.5898671  -0.22925429  0.273569   -0.303179    0.7548396  -0.00205172
  0.29758492  0.2282825   0.03734249 -0.19444077  0.29167375 -0.35316077
  0.01089489  0.06880578 -0.3707716   0.24549182 -0.46095398 -0.04837409
  0.19767477 -0.5122734 ]
[-0.60265976  0.16747269  0.6644339  -0.20703249  0.3347197   0.1078918
 -1.3803747  -0.49345878  0.24044885  0.00338313  0.19387911  0.57812476
 -0.14254647 -0.05715023  0.13945733  0.15111874  0.40659195  0.03697095
 -0.33990687 -0.19885062]
[ 0.3175481  -0.20022528 -0.44157168  0.10763207 -0.47191337  0.30575082
  0.6821898   0.42210728 -0.16134296 -0.27674785 -0.31029555 -0.42794248
  0.22405353 -0.03743633 -0.30667508 -0.3212302  -0.5187951   1.0260539
  0.42815337 -0.18566322]
[-0.7134387  -0.3576565   0.51819927 -0.14114672  0.48612326 -0.41182384
 -0.5305739   0.26867017 -0.22587527 -0.3333069   0.22231312  0.3093516
  0.09977195  0.41610387  0.47039098 -0.16837378  0.00891402 -0.3203564
 -0.43892777 -0.3560493 ]
[ 0.0443095   0.05462544 -0.33585945 -0.19161646 -0.21934333  0.4329028
 -0.02032016 -0.07650961 -0.00855423 -0.09338655  0.04600528  0.06318534
  0.04722391 -0.01759317 -0.4667977  -0.01151824  0.07164838 -0.38012862
  0.04429082 -0.22188997]
[-0.54532266 -0.1915627   0.25051606 -0.12680791  0.25578144 -0.32516596
 -0.45913613  0.07357292 -0.13514026 -0.28145325  0.16779917  0.2790879
  0.1554027   0.12079791  0.5823274  -0.01896261  0.0304267  -0.33763978
 -0.32930118 -0.15697142]
layer 5 Activation
tanh
layer 6 Dense
20 1
[1.6766119]
[-1.5802311]
[1.3902059]
[-2.2412949]
[1.4093301]
[-1.4923421]
[1.4805791]
[1.5917838]
[-2.3294015]
[-1.1158129]
[1.2430049]
[-2.1472113]
[1.872914]
[1.2795656]
[-1.8052883]
[-2.2779417]
[-2.527446]
[2.358813]
[1.3042803]
[-1.4529186]
[1.0135026]
