layers 7
layer 0 Dense
20 20
[-0.33267668 -0.21886458  0.94350135  0.357451   -0.30388865 -0.4900269
  0.16011474 -0.8831073   0.6417872   0.31534913  0.28633854 -0.04955136
  0.34844434  0.01283328 -0.19895373 -0.02373962  0.3937136  -0.41716406
  0.42266044 -0.4793898 ]
[ 0.01426543 -0.17707738  0.13671695  0.12958723 -0.15327923 -0.87822324
  0.56927025  0.22613607  0.259604    0.1874842   0.33422053 -0.5669285
  0.19871171 -0.16938822  0.15802523 -0.30880928  0.38936082 -0.62308526
 -0.21517718  0.29726475]
[ 0.16690648 -0.21725957 -0.13119444 -0.41379902 -0.2851444  -0.5449806
  0.5265655   0.7873282  -0.46071205  0.28743663  0.26619768 -0.61324674
  0.48392552 -0.22532353  0.28392375 -0.29719937 -0.05904325 -0.6446292
 -0.3757648   0.00984111]
[ 0.1102891  -0.32629156  0.19786066  0.41612077  0.14468399  0.13444419
 -0.24049981 -0.35197696  0.47514898 -0.00118544  0.36257502  0.49120557
  0.21482097  0.15973623 -0.35458374 -0.30388957 -0.32836953  0.17482083
  0.08511316 -0.28390095]
[-0.30761886  0.20013733 -0.0616872  -0.28465798  0.11899938  0.14885479
  0.16411217 -0.2110052   0.29912707  0.23226222 -0.14822744  0.21656696
 -0.16632181  0.0764776   0.3906197  -0.57807195  0.23886    -0.16303319
 -0.19967762  0.17533258]
[ 0.16016044 -0.17921098  0.49160767  0.20448472  0.5665329   0.77681834
 -0.6665759  -0.79228055  0.44387034 -0.35670152 -0.530575    0.24982892
 -0.5119504   0.10092983 -0.24726269  0.11281768 -0.10783006  0.79950815
  0.1427144  -0.18184434]
[ 0.34737965 -0.22708449  0.3051137   0.23396562  0.57583433  0.65491533
 -0.65088624 -0.9314854   0.04630527 -0.380664   -0.2795769   0.14352341
 -0.6677342   0.46747738 -0.52536184  0.4278034  -0.241266    0.67957366
  0.22104461 -0.05280598]
[-0.33373064  0.50873333 -0.5429483  -0.13514821 -0.2871068   0.1875186
  0.09236854  0.22354965 -0.25471523 -0.11931336 -0.68132305 -0.24213892
 -0.18061256  0.19658317 -0.24048226 -0.16117127 -0.15489663 -0.35837176
 -0.1612816   0.44876632]
[-0.0508218  -0.1515411  -0.11483406 -0.04799276  0.5625672  -0.44373652
 -0.12636302 -0.36631393  0.21841468 -0.33728108 -0.33600208  0.04116759
 -0.11788077  0.17489083 -0.2446893  -0.5036057   0.42747113  0.16223113
 -0.13149452 -0.3254357 ]
[ 0.14676252 -0.08243782  0.16837113 -0.0078371   0.532022   -0.7251539
  0.6467446  -0.25370565 -0.41316834 -0.53355914 -0.41611698 -0.3361223
 -0.66140383  0.5163681  -0.21677746 -0.6825606   0.17797768 -0.2451504
  0.28298396  0.05555144]
[ 0.36027682  0.49961627  0.0737097  -0.4517204  -0.34373072 -0.04664866
 -0.10007385 -0.24814224  0.0543962   0.1669077   0.11305033 -0.8606374
  0.6496855  -0.16707702  0.726365    0.08270542 -0.7003508  -0.12491876
  0.5736407  -0.38561407]
[-0.37620738 -0.14062265 -0.21657918  0.20182842  0.11087897  0.16621786
 -0.28286728  0.05783697 -0.10541026 -0.46050817 -0.44257933 -0.04338729
 -0.2261676  -0.39596754  0.32752758 -0.39413297 -0.06495411 -0.55966836
  0.41272807  0.14548847]
[ 0.11536524 -0.10419139  0.20988925 -0.28765547 -0.17735276 -0.36477616
 -0.31719306  0.16910824  0.21295336 -0.2611421   0.06845364 -0.3584359
  0.21557753  0.01658508 -0.20593326 -0.45611066 -0.19774441 -0.4876266
  0.28983995  0.04753727]
[ 0.01024656 -0.09800009  0.28275415 -0.22630735 -1.1479266   1.0253547
 -0.4770891   0.60717875  0.7808389   0.31486386 -0.884303   -0.12942922
  1.1316934  -0.73935014  0.14275783 -0.37536994 -0.32143003 -0.01740327
 -0.7851514   0.01706501]
[ 0.09661121  0.05115416  0.35005245  0.67995983  0.22107989  0.07489017
  0.42955342 -0.33741271 -0.08856672  0.2739278   0.49705645  0.6390787
 -0.23804402 -0.16019134 -0.8366281  -0.1807133   0.5578243   0.60357696
 -0.2482902  -0.39774722]
[-0.3725309   0.69492614  0.13965988  0.3431536   0.38744646 -0.06644801
 -0.04761355 -0.4226535   1.1258619  -0.4002544   0.13287137 -0.12145501
  0.20223725 -0.09336373 -0.77195853  0.1930056  -0.26018634 -0.33685198
 -0.69965804  0.39286834]
[ 0.10658702 -0.11619066  0.6194255  -0.14664239 -0.139124    0.24911973
 -0.3115751  -0.97060513  0.31476927  0.04949798 -0.38446808  0.54355186
  0.41201153  0.36667794 -0.2157696  -0.48826063 -0.10056812 -0.17905743
  0.2665346   0.3161441 ]
[-0.36167443 -0.22700891 -0.05949197  0.09062683  0.29601634  0.00156706
  0.23179226 -0.05865247  0.10624731 -0.18361716  0.64794654 -0.2499969
 -0.17324582 -0.23269068  0.06378287  0.81772953  0.14488329 -0.0735543
  0.37896007  0.42913613]
[ 3.04602534e-02 -6.28704250e-01  1.96621008e-02 -3.16959135e-02
  4.53925990e-02  1.95147470e-01 -2.37381190e-01 -1.11058317e-02
 -1.33971944e-01 -1.15573838e-01 -1.82169676e-01 -1.43624814e-02
 -1.11277610e-01 -2.81364292e-01  2.70603597e-01 -8.71687662e-05
 -1.20118469e-01 -6.33663177e-01  4.15483862e-01 -1.16978765e-01]
[ 0.19300103  0.12361337  0.12202515  0.02948435  0.06041289  0.04637185
 -0.05493483  0.13485059 -0.74176145 -0.42273405 -0.4111721  -0.05097452
 -0.12595667 -0.14839785 -0.24174431  0.31367114 -0.00413015 -0.3541097
  0.2159739   0.39551204]
[ 0.01673231 -0.04789237  0.15152957 -0.03559775 -0.08161311 -0.00807025
 -0.02136769 -0.12838887  0.12539177  0.16833508  0.30391708  0.0306397
  0.24591689 -0.08263784 -0.11756746  0.06917988 -0.04569368  0.09943456
  0.06044303 -0.1482536 ]
layer 1 Activation
tanh
layer 2 Dense
20 40
[-1.04403999e-02 -1.14116579e-01  1.74695119e-01  5.92619739e-02
 -6.83288276e-02  1.11943096e-01 -2.06448197e-01  3.23950350e-01
 -8.96822438e-02  1.38186574e-01 -4.17954028e-01 -1.05756305e-01
  3.17756355e-01  2.13425100e-01 -1.56293422e-01  2.13778272e-01
 -1.00194730e-01 -2.14167759e-01 -4.06720966e-01 -2.39491966e-02
 -2.59965956e-01  2.23016262e-01 -1.14229739e-01  7.82768428e-03
 -1.88859016e-01 -3.05822236e-04 -1.53713763e-01 -1.91151023e-01
  2.38549322e-01  7.65199885e-02  9.21883713e-03 -3.42499852e-01
  3.19036573e-01  4.47845310e-02 -2.91413546e-01  2.38953233e-01
 -2.08463266e-01  2.81665623e-01 -2.56546229e-01  1.50541991e-01]
[ 0.01237772  0.02273146 -0.13409778 -0.27424705 -0.43112385  0.08101695
  0.24651565  0.03276894 -0.23247291  0.21316569  0.23100951  0.2609661
  0.03226481 -0.15111612  0.2302446   0.13873793 -0.17092822 -0.134678
 -0.1628645   0.2982858  -0.2378266  -0.22810896  0.2159363  -0.01290089
 -0.13766424 -0.16125703  0.06937097  0.22854054  0.07914871 -0.26168102
 -0.07174941  0.02139145  0.18676388  0.01678865  0.15398522 -0.15650947
  0.3021721  -0.12054325 -0.21627507  0.05670607]
[ 0.22739725  0.13385727 -0.25901017 -0.12472624  0.4122225   0.09388764
  0.29899535  0.30593982 -0.38098326 -0.22559562  0.00785692  0.46467462
 -0.21193776 -0.2500556  -0.00150804 -0.19006196  0.00924243 -0.35015047
 -0.27978998 -0.2771172  -0.40102696  0.38344505  0.31067163  0.1086115
  0.58010554 -0.26658833  0.33617848  0.40183896 -0.21854201  0.09806505
  0.02731896 -0.29357246 -0.17767996 -0.11367861 -0.21484908 -0.27091387
 -0.03377547 -0.56545943 -0.21090887  0.49053016]
[-0.06199921  0.2808066  -0.08686158 -0.19564691  0.14766447  0.04001115
  0.24338013 -0.26440996 -0.07372428 -0.28665346 -0.12091924 -0.22205546
  0.4603866  -0.17860642  0.251618    0.17122689 -0.3343812  -0.17220663
 -0.15240037  0.3138436  -0.12239478  0.39342976 -0.23184673 -0.00109348
  0.16522415 -0.08916254  0.18828736 -0.0322228   0.07945196 -0.14657743
  0.09157464 -0.25835744  0.20993324  0.12563504  0.1540645  -0.07206653
 -0.03462973 -0.3876032  -0.24912119  0.300783  ]
[-0.09063154  0.22627564 -0.36339062  0.29685187 -0.31874606  0.05650553
  0.23872007 -0.18117699  0.1133424  -0.3532931  -0.06974292 -0.07920003
 -0.16385388  0.1948229   0.47152373  0.06456722  0.12207304 -0.03585185
  0.17451958  0.09154694 -0.25774986 -0.01218339 -0.27042717  0.41670612
 -0.19407535  0.16005304 -0.07459342 -0.31098065  0.08391574 -0.18505567
  0.23178397  0.22062974  0.2126413   0.10658386  0.26280046 -0.24416834
  0.3749281  -0.26644555 -0.0755218  -0.136192  ]
[-0.04216108 -0.34174332  0.04337018 -0.27150574  0.17786983  0.0654689
 -0.28293392  0.01129698  0.2272604   0.3574784   0.03027751  0.24927552
  0.19326335 -0.09867601  0.15778147  0.13573022 -0.39241338  0.24707906
  0.45245457 -0.15204065  0.22013034 -0.10816339  0.10624492 -0.5004433
  0.05923394  0.09741206  0.568714    0.36931178 -0.18489191 -0.21819323
  0.18398693 -0.4268864  -0.21103033 -0.08196742  0.04674009  0.27675524
 -0.68910587  0.27763894 -0.08335506  0.29410043]
[-0.1434762  -0.46451044  0.11521257  0.3842127   0.24269386  0.31279674
  0.11419949 -0.25742435  0.46385553 -0.45454845 -0.1787404   0.27356717
  0.12514408  0.23421794  0.28367588 -0.4005889  -0.36473668  0.01825695
 -0.56815934  0.30954012  0.33484674  0.18322149 -0.04101367  0.08938731
  0.0561446  -0.00549084  0.13686085 -0.12428422  0.04694706  0.04816959
 -0.08526046  0.45517975  0.13261797 -0.22731629  0.44600472  0.0185051
  0.14091213  0.51937526  0.29236966 -0.11298146]
[-0.4102432  -0.5161588  -0.3309713   0.26910502 -0.14598559  0.44270086
 -0.47509545  0.07625491  0.07501622  0.70610446 -0.10212792 -0.40675238
  0.17699128  0.12713142 -0.23324491 -0.22840363 -0.40754744  0.42968714
  0.01989703 -0.1673483   0.20338519 -0.86802685 -0.13108528 -0.5481788
 -0.09700689  0.20802432  0.32924843  0.35837105 -0.10505302 -0.6203442
 -0.04320989  0.08067161  0.35932463  0.08661643  0.72686654  0.25957364
 -0.29908252  0.3943723  -0.22653659 -0.48023337]
[ 0.41783443 -0.07768899  0.10746326 -0.01950306 -0.09166718  0.33774006
 -0.0418509   0.2557573  -0.02091153 -0.25479499  0.00782229  0.34386533
 -0.04434452 -0.04617552 -0.2738457   0.3121492  -0.12159892 -0.3864347
  0.5410863  -0.26379403 -0.48318356  0.20522429  0.27453828 -0.21326776
  0.36036935  0.08787175 -0.00998345  0.09252094 -0.2700443   0.37385607
 -0.18495601 -0.1441946   0.23668669 -0.28277206 -0.19245881 -0.17969814
  0.2952013  -0.7132832   0.2729396   0.07872546]
[-0.03095855 -0.27387697  0.15548195 -0.39035967 -0.20133255  0.10015978
  0.1176255  -0.24230602  0.39542338  0.23492639  0.05736465 -0.02759785
  0.14238556  0.11223063  0.16981837  0.19033958 -0.300693   -0.29395258
  0.1468884   0.04059732 -0.12900263 -0.31228116  0.70238924 -0.12572947
 -0.02701367  0.18419316  0.0869696   0.03178575 -0.09266964  0.19828689
 -0.01934315  0.039819   -0.33241004 -0.33497313  0.02436393 -0.00997407
  0.05221928 -0.187576   -0.1485309  -0.15534095]
[-0.22349636 -0.22364153  0.34303313 -0.35225186  0.1137499  -0.26124763
  0.21235417  0.22603448  0.10000996 -0.6840441   0.25280157  0.47869003
  0.39529756  0.2959003   0.21190375  0.06146656 -0.14323571 -0.47894886
  0.2178257  -0.37093073  0.23443371  0.60522175  0.00660133 -0.2567112
 -0.5649771  -0.05192573 -0.09361887 -0.15424652  0.03586509 -0.11299686
  0.03513636 -0.2573293   0.25390202 -0.05245615  0.18933564  0.24513407
  0.20682208  0.34494483 -0.18225445  0.20409968]
[ 0.4378094   0.07974438 -0.02697852 -0.11458797 -0.3405442   0.09213719
 -0.15355407 -0.10908398  0.5119418   0.31135067 -0.09162587  0.28090844
  0.36231405  0.0376772   0.3861684   0.22949019 -0.2754663  -0.0287569
 -0.2866944   0.16072415 -0.38168737 -0.18616314  0.05446955  0.41750294
  0.24053487 -0.25121906  0.310658    0.08308478  0.43873197  0.11604819
 -0.14609973  0.04606094 -0.19902933 -0.37842315 -0.0376403  -0.2520616
 -0.19303557 -0.4714336   0.11506828  0.07282704]
[ 4.82349783e-01 -4.82973874e-01  3.81993711e-01 -5.93362570e-01
  6.31755292e-02  1.75227210e-01 -4.31617588e-01 -2.30886906e-01
 -3.31032485e-01  2.03420475e-01 -1.97666302e-01 -2.07275823e-01
 -2.60069489e-01 -4.60897148e-01 -4.15992528e-01  8.57769996e-02
 -2.94034243e-01 -9.38720554e-02  4.05338407e-01 -8.27517286e-02
 -3.17319155e-01 -1.03505604e-01  3.75497878e-01 -5.42122304e-01
  3.49259347e-01 -4.59595442e-01  9.79743199e-05  9.61611196e-02
  1.58039793e-01  1.84681550e-01  2.76634954e-02 -3.33988100e-01
 -1.27586737e-01  1.86991587e-01 -1.04663484e-01  3.40664834e-02
  1.59001444e-02 -1.31928131e-01 -4.94849943e-02  3.40225369e-01]
[-0.12101823  0.46847102 -0.32751673  0.22719581 -0.1750736  -0.57087934
  0.0546236  -0.05353544  0.09367052 -0.08234835 -0.01672711  0.10875981
 -0.08875229 -0.41875917  0.21203965  0.02863137 -0.03314943  0.3042876
 -0.28848282  0.25943354  0.24452822 -0.00392563 -0.00202174  0.35682243
 -0.30563888  0.11752863 -0.44373038 -0.12035383 -0.12896186  0.43536732
  0.22870803  0.16763808  0.09313756 -0.20475176 -0.19278309  0.01275876
  0.19614443  0.00361044  0.12676695  0.01076447]
[-0.39386147 -0.15619619  0.24174364 -0.14938685 -0.10187442  0.2874116
 -0.46566013 -0.14826337  0.03175803  0.36139688 -0.29808685  0.03917743
 -0.18247278 -0.06415062  0.19229876  0.10520715  0.5346938   0.2141316
  0.33208975 -0.04526755  0.05657749 -0.62007993  0.01012404 -0.16339272
  0.17191432  0.32038832  0.00807103 -0.01020018  0.10124604 -0.00645531
 -0.35886726 -0.01136197 -0.15582323  0.62457776  0.3093016  -0.0143523
  0.00831219  0.00911351 -0.06017245 -0.01449246]
[-0.11263945 -0.74861157 -0.11273563 -0.15519251  0.03715673  0.47319588
 -0.18430403  0.07612995 -0.18634541 -0.374122   -0.10247386  0.26192567
 -0.26319554 -0.3123876  -0.07071096 -0.15730484 -0.29918995 -0.20462447
  0.20467202 -0.11548631  0.39156762  0.33240128  0.24137685 -0.24272388
 -0.6059936   0.30566594 -0.29172307  0.22589089  0.12739694 -0.12942766
  0.04670282  0.5416991  -0.40038282  0.37653205 -0.22467741 -0.15879059
 -0.23176318  0.56758887 -0.07437404 -0.31511906]
[ 9.27096829e-02  4.06900883e-01 -3.35999578e-01  1.38238475e-01
  7.65569657e-02 -1.85673475e-01  5.61679006e-01 -3.33311230e-01
  4.75460559e-01 -6.86750561e-02  5.54090023e-01 -1.51201174e-01
 -4.62274194e-01  1.30313039e-01 -6.85157925e-02 -2.97636986e-01
 -3.35853934e-01  2.30627432e-01  2.63941735e-01 -6.28213435e-02
 -2.06552625e-01  1.25890270e-01 -2.78559804e-01  1.91404730e-01
 -2.35855311e-01 -2.49147728e-01  2.43827507e-01 -1.17851734e-01
 -6.15891255e-02  6.14431202e-02 -1.65566951e-01  9.56425890e-02
 -9.39290449e-02 -8.56931090e-01  1.17988139e-02  1.84532061e-01
  5.41229844e-01  7.80408904e-02 -3.64614534e-04  1.25235785e-03]
[ 1.70412231e-02 -4.37583864e-01  3.77447188e-01 -1.67577237e-01
  1.04185157e-01  2.45416775e-01  5.63872695e-01 -7.08170310e-02
 -7.85816014e-02 -1.33271158e-01  3.21463227e-01 -7.77977034e-02
  1.37206540e-01  1.48884103e-01  1.53719679e-01 -2.63754249e-01
 -4.59577858e-01 -1.96992189e-01 -1.06276814e-02 -1.38535183e-02
  2.87063718e-01  1.79658517e-01  2.04759747e-01 -3.52454954e-05
  1.92570835e-01  4.08192664e-01  8.63192379e-02 -1.14568993e-01
  2.76890904e-01  2.92514384e-01  1.72110107e-02  2.01993242e-01
 -1.69288933e-01 -2.34933585e-01 -2.22965837e-01  2.03758046e-01
  1.13110065e-01  5.38943708e-01  2.92940348e-01  1.35099187e-01]
[-0.34336603  0.5174802  -0.2590717  -0.05168644 -0.53406525  0.3205483
 -0.29176483 -0.13434619 -0.30409023  0.09840819  0.15202372  0.17723674
  0.01090599  0.28853858  0.0500395   0.36808074  0.38509512  0.20144653
 -0.29303336  0.40035474  0.05469456  0.28544173  0.08922973  0.5284448
  0.46743476  0.43021733 -0.24286762 -0.35138553 -0.29244724 -0.05488127
 -0.3642485  -0.21786335  0.10991323  0.21655762  0.03860492 -0.13238528
  0.2858154   0.22392072 -0.24062498  0.26511413]
[ 0.2440697   0.05835183 -0.07889283  0.00375532  0.09222995  0.05613191
 -0.06135885 -0.12138647 -0.18891484 -0.1846873   0.35997343  0.19787742
 -0.613454   -0.37271842 -0.16639496  0.11086366  0.20761417  0.44494516
  0.29503298  0.19577551  0.37542024  0.15234971 -0.16184902 -0.13543451
  0.16602306 -0.19626124 -0.19142741 -0.0516477   0.06394622  0.07764564
 -0.03289663 -0.14320251  0.22257312 -0.09321577  0.26392677 -0.10225336
  0.40211245  0.20620954 -0.03324639 -0.23017049]
[ 7.55174309e-02 -1.41596803e-02 -2.54163072e-02 -4.93277423e-02
 -4.19544578e-02  1.85403898e-01 -2.20279908e-03 -3.72020751e-02
  1.11922018e-01  6.39917707e-05 -5.91156855e-02  1.79019800e-04
  2.23706722e-01  1.23156011e-01  8.25983733e-02  1.13349453e-01
 -1.89332031e-02 -9.31121409e-02 -3.84498611e-02 -1.28544820e-02
 -1.58377066e-01  4.27542068e-02  4.24702018e-02  1.27680534e-02
  1.03401728e-01  1.11319482e-01  6.27793148e-02  1.05518736e-02
  3.84550206e-02 -5.30621856e-02 -1.12280995e-02 -7.48973861e-02
  3.48635428e-02  4.88767140e-02 -3.44276205e-02 -5.13936169e-02
 -1.69450000e-01 -1.28282204e-01 -3.05357426e-02  1.17060296e-01]
layer 3 Activation
tanh
layer 4 Dense
40 20
[ 0.36604804 -0.08400289  0.30703038 -0.16187832 -0.20227757  0.01769267
  0.17953162  0.03175586  0.02548557  0.07945452  0.15986285  0.01523349
 -0.24703188 -0.09624919  0.31146768  0.04980313 -0.34944794 -0.01938849
 -0.08115433 -0.3204018 ]
[-0.4421246   0.44666603  0.11755498 -0.22444881 -0.21989952  0.001839
  0.4469682  -0.0789176  -0.0249973  -0.14069492 -0.12118419  0.32564586
 -0.24168576 -0.34273842 -0.1463503  -0.30009416 -0.16422127  0.03635104
 -0.2583206   0.2657885 ]
[ 0.07791762 -0.30563658  0.11363217  0.09100692  0.14353155 -0.22092284
  0.25915244 -0.1393681  -0.09323777  0.03569164 -0.11017907 -0.19824784
  0.06839166  0.05413193  0.12035408  0.17373288 -0.10434359  0.250026
  0.14794013 -0.20559983]
[-0.2416328   0.35786137 -0.02200481 -0.07370482 -0.32658297  0.01644608
  0.30691645  0.02875506  0.06879721  0.1928088  -0.52725583  0.17824726
  0.26190448 -0.0909353   0.15766986 -0.08468477  0.31260267  0.2936121
  0.18810336  0.11946826]
[ 0.1759051  -0.1325646   0.01011207  0.17638578  0.0407904   0.12719831
 -0.13483259  0.18765776  0.11499646  0.1159827   0.2612804   0.08048648
  0.0916172  -0.25283685  0.17196941  0.23792595  0.1580892  -0.19326138
 -0.18698072 -0.03172115]
[-0.01206104 -0.12320399 -0.3277954  -0.12671402  0.30560836 -0.5402773
 -0.1865322  -0.039214    0.2488139   0.1225806   0.05970776 -0.25100496
 -0.26867223 -0.01747995  0.06931034 -0.06452832  0.32893357  0.17190202
  0.51121366  0.09245575]
[ 0.28708577 -0.25030848 -0.18050642  0.3532465   0.00240734  0.401721
 -0.18712296 -0.17818867 -0.04487428  0.00097765 -0.02617722  0.41358197
  0.13927074  0.16655771  0.40459836 -0.25865662 -0.32626444 -0.03588154
 -0.16263445 -0.0947773 ]
[-0.26254627 -0.21423331  0.148138   -0.29698494 -0.20625795  0.33669555
 -0.00808435  0.04140991  0.06531152 -0.02875422  0.23386937 -0.07041417
 -0.06789908 -0.36156583 -0.18223107  0.10073241  0.3747732   0.1695867
 -0.33292857 -0.08490067]
[-0.18975876  0.41424394 -0.10477147  0.06245541 -0.1319807  -0.05884439
 -0.14605173  0.3402997  -0.08308055 -0.24222985 -0.3748462   0.36663476
 -0.01597524  0.36408186  0.18138056 -0.00563151 -0.09357494  0.07498476
  0.25210705  0.22487172]
[-0.19413435  0.11129205 -0.3359841   0.22046266 -0.3801794  -0.47951442
  0.01583711  0.24552932  0.15119065  0.01041517 -0.18304496 -0.2708233
 -0.27131045  0.33127078 -0.4808357   0.3774595  -0.14270698  0.0728313
  0.25628474 -0.05948   ]
[ 0.367285   -0.26486832 -0.08493984 -0.05405984 -0.11614311 -0.00144171
 -0.15161711 -0.04745236  0.14163272 -0.02666396  0.4398112   0.02375416
  0.13154067 -0.12309677  0.28948888 -0.11295115 -0.44460586  0.08109815
 -0.0675746   0.10801343]
[-0.02174796 -0.3819967   0.25685674  0.16117887  0.22613406 -0.08283149
 -0.35736522 -0.3274808   0.15471312  0.37527037  0.3898049   0.18206404
 -0.1184675  -0.33483592  0.18492854 -0.14153112  0.21976924  0.35441726
 -0.11879602 -0.15964714]
[-0.3614067   0.05469296  0.06526625 -0.1753512   0.30201617 -0.23525716
  0.32139993  0.4084607   0.0581352   0.28675073 -0.46718612  0.29999128
 -0.121535    0.05199008  0.20333007 -0.00221488  0.43561494 -0.18012172
  0.19678314 -0.09695559]
[-0.31629863  0.43960983  0.07511953  0.10035901  0.22323121  0.09806255
  0.28322333  0.09648366  0.17470613  0.40618157  0.02867825  0.31164742
  0.001875   -0.11007     0.31621993 -0.30438727  0.30132344 -0.1713425
  0.29146597  0.2020334 ]
[-0.07069529 -0.06195978 -0.01892213 -0.26892745  0.2222014   0.09997173
  0.18773657 -0.03314177 -0.29469725 -0.09240183  0.20593779  0.30956182
 -0.17068231 -0.21967973  0.03662455 -0.35675278  0.06432036  0.09089215
 -0.02266426  0.2289366 ]
[-0.03345754  0.11716993 -0.35711095  0.21581522  0.1041113  -0.36224845
  0.21542943 -0.31457245  0.00249872 -0.11726532 -0.44998872  0.19023977
 -0.34346467  0.09804592 -0.17842306 -0.04992665  0.2806614   0.18453094
 -0.05827704 -0.14861867]
[-0.25095755  0.13800532 -0.04921086  0.03167992 -0.34418738  0.20752776
  0.1493375   0.07043812  0.09474745  0.01002201  0.13752761 -0.30969232
  0.08442239  0.39648345 -0.21517725 -0.377227   -0.04643764 -0.20129584
 -0.25267515  0.09615438]
[-0.27196434 -0.12849005 -0.41073966  0.08063443 -0.24244584  0.27389258
  0.04038562  0.3865412   0.11837501  0.26245418 -0.09710061  0.16916665
 -0.3554403   0.47076228 -0.24953645  0.05513264  0.07404149 -0.19549891
 -0.05831802  0.4502518 ]
[ 0.29304278 -0.07390466  0.22695716  0.24421403  0.26015082 -0.22959258
 -0.45112303  0.03771555  0.11469182  0.05399534  0.47560194 -0.3018936
  0.21715909 -0.19270703 -0.2514943   0.3329594   0.02286336  0.22979623
 -0.29630896 -0.27608967]
[ 0.03860262 -0.19141348  0.10159386 -0.05153918 -0.27757487  0.4991734
 -0.12054656 -0.35723814  0.35601842  0.09678228 -0.12218012  0.07571195
  0.11278237  0.36546358 -0.20314294 -0.34125477  0.01524578  0.1671632
  0.17684415  0.17801966]
[ 0.18190666  0.13940981  0.3243188   0.11499009  0.21351168  0.49067292
 -0.27320126 -0.09862911  0.12734796 -0.03998418  0.25186777 -0.35069984
  0.28520885  0.4416274  -0.24622881  0.22716492  0.28446013  0.2605343
  0.18435694  0.11993314]
[-0.21731961 -0.01295691 -0.09439588  0.27886784  0.37587172  0.41132873
  0.07332765 -0.43585098  0.064496    0.03428045  0.42450863  0.28295037
 -0.05528935  0.05868975  0.46293107 -0.29127106  0.05007012 -0.2681717
 -0.3579668  -0.18820548]
[ 0.44442987 -0.02578154 -0.25799352  0.10132224  0.27426854 -0.01954329
  0.29915115  0.18147166  0.18227378  0.23474135  0.34630206 -0.0851931
 -0.16744821 -0.25040862 -0.05861023  0.12606387 -0.20744486 -0.04028271
  0.16848822 -0.17762451]
[-0.29317778  0.04288537  0.17778216 -0.11307239 -0.29499662  0.12065008
  0.08934635 -0.44546357 -0.01386526  0.118726   -0.08757794  0.19053029
 -0.0264502  -0.1276217   0.19597869 -0.11481983 -0.27173954  0.1537933
  0.24989322  0.28969   ]
[-0.08441973  0.31621352 -0.14970538 -0.13451329 -0.19622377 -0.3478195
  0.31712618  0.07709616  0.03053064  0.04597262  0.03031429 -0.01588165
 -0.34450763 -0.08703683 -0.10068864 -0.29906115 -0.33276296  0.11422481
 -0.17851609 -0.12937622]
[-0.39734977  0.01851067  0.07774061 -0.01876341  0.24500035 -0.35323668
 -0.08770753 -0.07457703  0.17747042  0.08993512 -0.40124452  0.03780266
  0.16222754 -0.08935557 -0.1597722  -0.0963005   0.51568466  0.2591119
  0.25505814  0.18307923]
[ 0.18623173  0.2697599   0.12963296 -0.17276408 -0.1897397  -0.23747587
 -0.13892363  0.1481449   0.05903662  0.14310665  0.18352053  0.3776248
 -0.05773949  0.063438   -0.15098013 -0.12061749 -0.21116251  0.0595709
 -0.12321742  0.05684714]
[ 0.09936363 -0.27731842 -0.13652596  0.20869285 -0.01529756 -0.1174618
 -0.05761988  0.3881752  -0.16332728  0.13472389 -0.10012244  0.01417606
 -0.20123823 -0.16983593 -0.07616274  0.16370256  0.16625783 -0.07394658
 -0.27463448 -0.30207494]
[ 0.10966618  0.04572327 -0.32132417 -0.24757916 -0.14005356  0.11454647
 -0.02482523  0.10039904  0.1680772  -0.2014212   0.07827773  0.12017177
  0.03041019  0.03903689  0.29996356  0.05652069  0.10916415 -0.25673276
  0.06447449  0.31063277]
[ 0.06107911 -0.22812846 -0.12252088 -0.01039195 -0.15509942  0.32429388
  0.34656855  0.0562389  -0.02633445 -0.01568788  0.17231934 -0.20880342
 -0.17406599 -0.6609712   0.34351686 -0.12355931 -0.2996765  -0.11904372
 -0.15575463 -0.25894022]
[ 0.01340303 -0.05100986 -0.03280363 -0.06549815  0.05176044  0.12771295
 -0.21138752 -0.14393207 -0.37520155  0.03133898  0.16249108  0.15950128
 -0.12001276 -0.22828728  0.0119716   0.17166245  0.35238728 -0.10653017
 -0.1356755  -0.11422684]
[ 0.07380565 -0.27942187 -0.15534352 -0.35536316 -0.15131423  0.21195486
 -0.33004227 -0.23293844  0.11205144 -0.10524874 -0.05985896 -0.23734921
  0.40351954  0.3147918   0.1007005  -0.01772016  0.16519652 -0.11591128
  0.4573301   0.16828874]
[-0.22097312 -0.2938101  -0.08902295 -0.0928234  -0.08598252  0.4406426
 -0.2655422   0.20508526  0.01486735  0.03562696 -0.0882885   0.15175907
  0.29377392  0.11376151  0.09719764 -0.1967876   0.22160554 -0.20702834
  0.0914427  -0.13648702]
[ 0.13453595 -0.0414785   0.1376607  -0.24255683  0.24985313 -0.14425454
 -0.11440881  0.23166233 -0.10307007  0.06046395 -0.43538588 -0.26864672
 -0.27494514  0.1461132  -0.28930786 -0.28277943  0.21257316 -0.22378138
 -0.07300656  0.06631683]
[ 0.04859946  0.09276457  0.02580001 -0.12483932  0.23588395 -0.05143651
 -0.1809127   0.46889615  0.12405946 -0.03166791  0.11415025 -0.08279712
  0.26035184  0.78582233 -0.05925818 -0.03107433  0.25727233  0.05260824
  0.21203719  0.21050082]
[-0.10088754  0.1677742   0.08388337 -0.23379797 -0.01253673 -0.21743253
 -0.35471106  0.52301174 -0.12184131 -0.03155869  0.17198348 -0.05292132
  0.01377964  0.06116731  0.11163805  0.27065766  0.25578272 -0.06634156
  0.35158813 -0.1593707 ]
[ 0.39299962 -0.33642605  0.24303435  0.17766534  0.19028716  0.14835958
 -0.0758922  -0.43687424  0.11955053  0.24956675  0.6009105  -0.263719
  0.39725015 -0.3025757  -0.17978735 -0.10133382 -0.3983558   0.08175993
 -0.16918197  0.28198728]
[ 0.1368387   0.2124289   0.22506884  0.25676832  0.3354345   0.34655866
 -0.61772215  0.23562407 -0.2501218  -0.04726866  0.3673827  -0.39866287
  0.3155436   0.1611885  -0.18107605  0.33501813 -0.12123333  0.09717534
  0.30274692  0.23925988]
[ 0.23382668 -0.07956092  0.14551988 -0.12834999  0.0946644   0.24500114
  0.3178356  -0.13518414 -0.00116511 -0.3147467   0.2109781   0.12209462
 -0.18210767 -0.05340023  0.27982625  0.15291616  0.12698127  0.33935457
 -0.24278836 -0.2221968 ]
[-0.00526325  0.15684469 -0.19498183 -0.03374886  0.24676448 -0.17891237
  0.57118946 -0.19334872  0.00998231 -0.43522352  0.24241094  0.08111501
 -0.32568768 -0.7341711   0.02869169 -0.080045   -0.1544629  -0.04013098
 -0.23532018 -0.00218147]
[-0.00430551  0.05546304 -0.04881549  0.03469489  0.02242198 -0.16395481
  0.16105996  0.08935065  0.00402185  0.02928773 -0.10573105  0.1336696
 -0.07716157 -0.03884598 -0.03238041 -0.0974943   0.09527355 -0.02084993
  0.0387983   0.05593368]
layer 5 Activation
tanh
layer 6 Dense
20 1
[0.1228528]
[-0.26815036]
[-0.08395327]
[-0.0197173]
[-0.453972]
[-0.3474123]
[0.30369538]
[0.27108097]
[0.00873295]
[0.01827559]
[0.16460158]
[0.51093173]
[-0.3934758]
[0.23570059]
[-0.38965428]
[-0.4683841]
[0.2993205]
[0.00042638]
[0.36070773]
[0.3383948]
[0.18220067]
