layers 7
layer 0 Dense
20 20
[-0.06814186  0.0940553  -0.0396064  -0.20942064  0.11827432  0.2892635
  0.2223724  -0.08250897  0.14271191 -0.15814336 -0.0613973   0.09035633
 -0.00286204  0.27956516 -0.29425976 -0.11659323 -0.21423118  0.12581784
 -0.15074024  0.12221577]
[-0.24056861  0.3838026  -0.3955221  -0.4064372   0.47422868  0.07961427
  0.41768992 -0.41064882 -0.09133089  0.06981418 -0.29350355  0.25672266
 -0.20163006 -0.3427065  -0.6406151  -0.40217143 -0.14400408 -0.06780063
 -0.28355238 -0.02836422]
[-0.25773168  0.65181047 -0.01812815  0.14055812  0.1350412  -0.14233904
  0.29595786  0.31077364 -0.31801343  0.22634284 -0.6227819   0.05201753
  0.12318179  0.23189485 -0.6311732  -0.05782744  0.0152845  -0.5072847
 -0.15051337  0.4624472 ]
[ 0.05343053 -0.10398652 -0.12880151  0.14368209 -0.01362392 -0.23566236
 -0.01659672 -0.2561008   0.08268462  0.33188453 -0.07824334 -0.26748922
  0.20767865 -0.17579429 -0.23462577 -0.08600556  0.14585963 -0.2936026
  0.05497358  0.42964   ]
[ 0.17456438 -0.07283211  0.08580539  0.17425334  0.17743188  0.08158746
  0.00087655 -0.40627563  0.29432     0.2743034   0.07934495  0.23571908
 -0.07305966 -0.2505412  -0.1961348  -0.18556355 -0.23111913  0.00786868
 -0.07917216 -0.22722688]
[-0.18131243  0.15501724  0.33392292  0.4938699   0.28788808  0.32930216
  0.04290941  0.38382497  0.7245082   0.07327913 -0.05137187  0.06049586
  0.42246225  0.3871714   0.29433805 -0.01767167 -0.25914475  0.60118145
  0.15447697 -0.18476196]
[-0.25915712 -0.22074577 -0.13668726  0.282646   -0.2947129   0.5660846
  0.13815543  0.41514     0.5732355   0.24195981  0.06276702 -0.4206098
  0.00736469 -0.17952074  0.02014719  0.02633781  0.09807324  0.44123206
 -0.11859301 -0.0131706 ]
[ 0.4032464  -0.45657036  0.18787634 -0.21690711 -0.41126752 -0.11745761
 -0.7710099  -0.31480414  0.12072961 -0.01832307  0.22381765  0.39884117
  0.02678811  0.22336628  0.3807229   0.510627    0.04291267  0.27193427
 -0.40993565 -0.4436609 ]
[ 0.09891379 -0.52662855  0.2968637   0.45730665 -0.06126    -0.47417644
 -0.4821112  -0.14308384  0.10151417  0.29865053 -0.17447226  0.09459556
  0.19565745  0.09366462  0.5066262  -0.1503993   0.4504192   0.14477362
 -0.37128636  0.22442383]
[ 0.04936501  0.32512936  0.344608   -0.16445714 -0.15170443  0.1761581
 -0.1938484   0.1322343   0.14129141 -0.18967736  0.02951277 -0.2945758
 -0.09953383  0.2696227   0.0805177   0.18306793  0.12963733 -0.04637852
  0.16404726  0.27339584]
[-0.2887639   0.32543182 -0.01356729  0.12618124 -0.03481264 -0.06306534
  0.06575952 -0.07260182  0.20948583 -0.15449138 -0.02822822  0.30410522
 -0.25781378 -0.24604237  0.34222198  0.13073128 -0.03335636 -0.13327679
 -0.07686824  0.07147507]
[-0.18077129 -0.35158885  0.29711455 -0.05515596 -0.09842665  0.03946626
  0.04062564  0.54166484 -0.04945662  0.23055224 -0.18416204 -0.27411747
  0.29070282  0.21012329  0.18271592  0.3049424  -0.0967168  -0.19387104
  0.16805327  0.07514684]
[-0.0218659   0.43308488 -0.05194925 -0.4614619   0.27645636 -0.04564856
  0.11681967 -0.13332798  0.41651884  0.04307359 -0.09005068 -0.38202035
 -0.21759863  0.03488724 -0.49080467  0.3517981  -0.26469466  0.28918684
  0.38136023 -0.19256116]
[ 0.18561593 -0.07773628  0.13040611 -0.15771957 -0.11726502 -0.12617606
 -0.01850974 -0.10906053 -0.00934552  0.3213543  -0.43616876 -0.46276167
  0.06896265 -0.18556431 -0.32339352  0.12724973 -0.252414    0.01425588
 -0.16725019  0.21059272]
[-0.10146441 -0.16531876 -0.3867967  -0.32193357 -0.12126981  0.09658691
 -0.1761385  -0.58428204 -0.24372017 -0.37212127 -0.24178098  0.3261207
 -0.42875692 -0.10053042 -0.19013199  0.5782145  -0.3054636   0.06752191
  0.10631151  0.3660048 ]
[ 0.07717525  0.5920413  -0.0945358  -0.31762815 -0.03900051 -0.22608255
  0.7583335  -0.14921033  0.18515898  0.4240243   0.22327897 -0.48276728
 -0.2730683  -0.21271017 -0.8901427  -0.746111   -0.5164322  -0.59247667
  0.0368026   0.52605623]
[ 0.009107    0.2479576   0.31728825  0.47097555 -0.04736916  0.04807491
  0.06062325  0.09931401 -0.07723007 -0.27872747 -0.08360101  0.42376834
 -0.38925838 -0.12694764  0.3680353   0.0635713  -0.10032076 -0.34865332
 -0.45227864 -0.50462866]
[-0.07149569  0.22975661 -0.5943481   0.20351818 -0.25845742  0.44957262
  0.11568031 -0.03732769  0.5123303  -0.53959525  0.33582336  0.16258195
 -0.00106504  0.08988621 -0.20915097  0.31265256  0.12903225  0.35747463
 -0.47637913 -0.39212704]
[ 0.5486187   0.33265486 -0.11025693 -0.19417667 -0.23044233 -0.56097114
 -0.15206373  0.33940426  0.5097834   0.14109962  0.18546344  0.4873592
  0.23386107  0.21139362 -0.19367191  0.12460313  0.26855236  0.20126195
  0.06158184 -0.12300921]
[-0.33441317 -0.0812574   0.24442978 -0.03001126 -0.00740901  0.38698617
 -0.39462465 -0.34179348  0.15857366 -0.52433664  0.30922642  0.05840879
 -0.56246275 -0.1906746   0.4125469   0.03588837  0.09839534  0.41982532
 -0.35657448 -0.2848133 ]
[-0.15468498  0.27171573 -0.14655678 -0.09069274  0.08744742 -0.00108337
  0.31095067  0.07149603  0.06034436  0.12832579 -0.15797752 -0.06578559
 -0.11230457  0.06454815 -0.08551282 -0.34754092 -0.13987963 -0.1393331
  0.14115927  0.41643342]
layer 1 Activation
tanh
layer 2 Dense
20 40
[-0.01240299 -0.177943    0.1531897   0.2752148  -0.1586506   0.19312935
  0.15466408 -0.06279359  0.2853885  -0.10654878 -0.23532     0.07010796
  0.10027578 -0.23886535  0.06822333  0.2530128  -0.1270907  -0.24804172
 -0.06124081 -0.25953177 -0.129488    0.0617605  -0.08507514 -0.19208877
  0.05235144  0.22185212  0.3264536   0.15138313 -0.17149204 -0.10273076
  0.0033396  -0.1956241   0.16464604 -0.21409978 -0.11219727  0.2976284
  0.04178898  0.17444475 -0.04211751 -0.1059802 ]
[ 0.28032103 -0.1250947   0.09922095 -0.08954415  0.17540188 -0.3254756
 -0.098946    0.16025183  0.09244133  0.14924237  0.2553911  -0.03118323
  0.29711083 -0.3471076  -0.06090062  0.10538094  0.14830506  0.1239681
  0.16213071  0.0095581   0.00770068 -0.02700988 -0.10219599  0.03597063
  0.02374713  0.1475147   0.11892691  0.14420725 -0.1632589  -0.06664556
  0.358829   -0.06089434  0.26646063 -0.05153825  0.16352923  0.25019076
  0.16631387  0.10623403  0.2114519  -0.05277981]
[-0.1660279  -0.21351178  0.29917863  0.08381312 -0.02444192 -0.13535534
  0.038303    0.24437042  0.06754515  0.23668574 -0.06610405 -0.26834762
  0.11670494  0.07914755 -0.47980073 -0.21062633 -0.13780694  0.04258261
 -0.24659665  0.21998732 -0.08109865  0.15326165  0.23415811  0.21022533
 -0.01326953 -0.33172825 -0.22223054 -0.30635577  0.05017207  0.25938016
 -0.28295222  0.00654615 -0.28137323 -0.01279791 -0.38701203 -0.24002543
  0.05109639 -0.0079367   0.21314532  0.12634832]
[-0.14155062 -0.04096825 -0.35132957 -0.03741826  0.01978476 -0.4175586
 -0.04413866  0.16341755  0.08151815  0.0067226  -0.21170242 -0.2088936
  0.17777885 -0.2306926  -0.04656072 -0.07393008 -0.04952125  0.07932116
 -0.12864909  0.20258489 -0.05236316  0.12335061  0.0850437  -0.09639271
  0.15725754  0.06435701 -0.22583911 -0.33243224  0.21994914  0.02244238
  0.17745873 -0.1461509  -0.04212074 -0.181211    0.20514312  0.18251869
  0.02727901 -0.08730361 -0.07180066 -0.13702942]
[ 0.2423804  -0.08108574 -0.11009715 -0.06872139  0.1283301   0.22084554
  0.19888683  0.2443786   0.14672706 -0.14925484  0.31719166 -0.00287791
 -0.29383805  0.01665236  0.04003929  0.30343974  0.14261363  0.09562877
  0.16224146 -0.11088983 -0.17113951 -0.20462623  0.29862404  0.16014548
  0.06937741 -0.05435746  0.21089597 -0.20497644 -0.1473955   0.02750595
 -0.03291733  0.14933006  0.19246724  0.2202749  -0.05268335 -0.09074306
 -0.11387631  0.00321465  0.2251942  -0.02526138]
[ 0.14537439  0.20011488  0.2380331   0.1421404  -0.00986374 -0.18704128
 -0.14627622 -0.22134618  0.05804917 -0.12709256  0.02892238  0.17339006
  0.02986423  0.17018867 -0.3026788  -0.23390453 -0.06378182  0.05312158
  0.15463021 -0.13228112  0.15690453  0.10068806  0.21522722  0.08749033
 -0.21294816 -0.0192987   0.24724063  0.02281201  0.12750922 -0.20132326
 -0.08270725 -0.11380781  0.14096919 -0.05713518  0.0614394  -0.2262706
  0.09665982  0.32007396  0.14218372  0.04015173]
[ 0.1566744   0.34387746 -0.17547272 -0.26545137  0.36076862 -0.07937917
  0.11290776  0.25813827  0.12333235 -0.26632765  0.25914976 -0.256206
 -0.22284369  0.06808516  0.2584709  -0.09572984 -0.07312647  0.10586978
  0.2775853  -0.02604257  0.06040008 -0.01527073 -0.03163219  0.06199906
  0.13346721 -0.0668145   0.31196797 -0.08940876 -0.01446871  0.05888614
  0.33989498 -0.05829767  0.33034393  0.17351726  0.2666702  -0.0525449
  0.17317013 -0.26063156  0.11350694 -0.1919776 ]
[ 0.33431047 -0.42976028 -0.15151837 -0.02651246  0.00319815 -0.10509606
  0.32106742  0.1102018  -0.18566982 -0.05302241 -0.02048926  0.05354491
  0.0675521  -0.1265125   0.1438741   0.22673972 -0.18857312 -0.07578395
 -0.2783207   0.1011368  -0.2105906   0.14539987  0.24125232  0.11414214
 -0.10085566 -0.09023777  0.10568609 -0.08144671 -0.12990965 -0.11883326
  0.16785264  0.12946162 -0.14962198  0.0725738  -0.02196654 -0.09884121
 -0.13539083 -0.18011062  0.17637357 -0.1263661 ]
[ 0.10626966  0.14540084 -0.307789   -0.02748548 -0.24306425 -0.21983755
 -0.09974422  0.07199156  0.18316415 -0.08820914 -0.13782346  0.338892
  0.20459661 -0.20792566  0.04980719 -0.16108568 -0.01432731  0.01557912
  0.07319406  0.5090672   0.03938273  0.06142364  0.00902391 -0.25364196
 -0.04646794 -0.07300894  0.00565414  0.05992081  0.09683761  0.1853073
  0.07041822  0.15677427 -0.21342902  0.01493088  0.0558524  -0.1887369
 -0.31131783 -0.08448011 -0.13444579 -0.19792806]
[ 0.17552671 -0.36559913  0.05363151 -0.32831243  0.25209764 -0.22898696
  0.13341574 -0.07803489  0.08738958  0.11074924 -0.15921293 -0.22881825
  0.16843538  0.08784734  0.07562538  0.19947806  0.19583854  0.00168562
  0.26081175  0.15025288  0.28629956  0.2140223   0.13429284 -0.04434449
 -0.03631324  0.09053816  0.09907688 -0.14165078 -0.05126325 -0.13997208
  0.2678086   0.1389023   0.18994117  0.25247428 -0.28312004 -0.03995841
 -0.0841599   0.07703892  0.32222566  0.04795901]
[-0.00700875 -0.03971525 -0.1965131   0.10537332 -0.14328621  0.05105999
 -0.25089198  0.0871554   0.07107256 -0.14776757  0.13020179  0.38461518
  0.28613496 -0.21293893 -0.23898372 -0.27975383  0.12355196  0.09996795
 -0.08463074 -0.08504563  0.0797866  -0.16557197 -0.24244973  0.22511768
  0.25200906  0.06987321 -0.22886401 -0.18441914  0.1154398  -0.1785861
  0.07072906  0.2163826   0.14448774 -0.43803278  0.0742224   0.07608072
 -0.16135252 -0.11385583  0.26829472  0.38228357]
[-1.71301454e-01 -1.65911559e-02 -1.61659624e-02 -2.01117292e-01
 -3.14977802e-02  2.40370613e-02  2.16307580e-01  2.93813765e-01
  1.59326017e-01 -1.77731931e-01  1.40966415e-01  1.42981291e-01
 -3.79033387e-02 -2.74439126e-01 -2.26333603e-01  3.01644895e-02
 -2.59513617e-01  9.24060717e-02 -1.73981339e-01  5.63931093e-02
  3.26493204e-01  2.01192841e-01  3.66544612e-02 -3.20995182e-01
 -2.32722402e-01 -1.85259916e-02  2.05646798e-01 -3.23972732e-01
 -8.06986764e-02  2.76050121e-01 -1.30294919e-01 -8.19606483e-02
  5.30950390e-02  2.71764380e-04  3.20921808e-01  2.62654901e-01
 -1.92053169e-01  1.00597046e-01 -1.09065786e-01  9.79807824e-02]
[ 0.13920036  0.02651089 -0.06509043  0.01369398 -0.0132597   0.16139108
 -0.03912424  0.0316499   0.22593784 -0.2122874  -0.31554097 -0.31907967
 -0.29959396  0.02622807  0.03926869 -0.09888435 -0.31576836  0.14811347
 -0.1881027  -0.03833642  0.06245997 -0.09614161 -0.2524793  -0.2886731
 -0.02426215 -0.22980079  0.00747449 -0.15547544  0.26709336 -0.30211672
 -0.30055058 -0.18291946  0.21186946  0.12234889  0.07209324  0.18948376
  0.10088604  0.15037394 -0.1373454  -0.16281925]
[ 0.26932603  0.15995136  0.08271933  0.14689508  0.06423765 -0.23236214
  0.2211098  -0.22903806  0.1370895   0.00125559  0.09787545 -0.04051344
  0.08459046  0.11158147 -0.07443944  0.13673083  0.01011335  0.08885414
  0.13155182 -0.01601232  0.00228256 -0.21212216  0.08603848 -0.08870058
  0.2723763  -0.08189283  0.04766062 -0.39451456  0.19664773 -0.08319663
 -0.261522   -0.13976532 -0.04772165 -0.08129513  0.04111998 -0.26568693
 -0.12568907 -0.37186298 -0.12294972  0.104731  ]
[-0.39917842 -0.2550446   0.28217968 -0.04485432  0.09571505 -0.06427079
  0.09537531 -0.25794822  0.13607414  0.0162838   0.00165632  0.04382448
  0.25883964  0.0723258  -0.28928444  0.00610353 -0.31654924 -0.25884908
 -0.09856346  0.183209    0.15868413  0.16475707  0.02370351 -0.16569152
 -0.2817314   0.2362494  -0.3308205  -0.05820156 -0.04988458  0.1951081
 -0.6090773   0.2516687  -0.21435139  0.07332177 -0.03779534 -0.02127183
 -0.25257072 -0.09623795  0.09834178  0.14516059]
[-0.10497392  0.12059835  0.04731308 -0.09999439 -0.06123898 -0.00448517
  0.21264058 -0.14063191  0.17952123  0.09440587  0.05599718  0.2741971
 -0.01696838  0.08897024 -0.04141445  0.08633286  0.0054878   0.28860554
 -0.12471163  0.08182912  0.21225767  0.27612248  0.04119723 -0.05043574
  0.28568074  0.01464355 -0.00234494 -0.27581358 -0.2529004   0.15876785
 -0.14381409 -0.04634572 -0.19795094 -0.16195503 -0.1302371   0.12191757
 -0.07784937 -0.1489611   0.2434977  -0.21247911]
[ 0.1754383  -0.2555083   0.27108583  0.2241251   0.18411486 -0.02157879
  0.18930817  0.06260974  0.20878886  0.03878915  0.07104027  0.20728116
 -0.20015723 -0.25325146 -0.14848243 -0.01657797 -0.30793113 -0.17080007
  0.02321707  0.02466648  0.20036905  0.11689966 -0.00630296 -0.13602546
 -0.04810151 -0.0248436   0.07135826 -0.15257625  0.21520406 -0.27721334
 -0.04791818  0.01754347 -0.24329603  0.00255021 -0.08424187 -0.2418321
 -0.02403514  0.04513451 -0.28072697 -0.24628505]
[-0.11241591  0.09460329  0.18647847  0.24950132 -0.3226623  -0.19727683
  0.21417537 -0.05407263  0.0526065   0.2734881   0.0275674   0.36837608
  0.43063474 -0.46616298 -0.33856648 -0.15302482 -0.12985706 -0.18225932
 -0.14990845  0.47638202  0.13098422  0.27019724  0.14684592  0.1073038
 -0.25043434 -0.03952328 -0.4570674  -0.16708657  0.37600562  0.00755275
 -0.14201537  0.19781531 -0.03479988 -0.08592601  0.05483023 -0.41001102
 -0.45838636 -0.0982414  -0.00920517 -0.00856538]
[ 0.3833708  -0.05785557  0.00485146 -0.28068092  0.34958154  0.03466021
  0.12976189 -0.0846018  -0.23130856 -0.30351827 -0.05457987  0.32827342
 -0.3038474   0.1446044  -0.07801459  0.26318708 -0.08363443  0.00212406
  0.37252992  0.21140884  0.14056395  0.20989104  0.06784048  0.11848909
  0.10546637 -0.0732603  -0.04325967  0.29148418 -0.1638887   0.17329036
  0.3269748  -0.04934902  0.01851791  0.34015965  0.3321458   0.17436196
 -0.01835024  0.3188574  -0.27095428 -0.06062805]
[ 0.17019613 -0.00908961 -0.09067369 -0.28944066  0.45229778  0.0169711
 -0.08893853  0.03383162 -0.16331452 -0.01959253 -0.12287403 -0.40237233
 -0.12837802  0.3624506   0.24825318 -0.22650495  0.14544387  0.20358832
  0.35137236 -0.29161114 -0.26514924  0.03215569  0.08602399  0.10140321
  0.2039699  -0.1554921  -0.08360803  0.31094792  0.13720746  0.0964507
  0.12285379 -0.10557935  0.00600503  0.32730612 -0.3275774   0.39883676
  0.19502066  0.14744751 -0.01273196 -0.24046817]
[ 0.08510897  0.03846874 -0.00682855 -0.02357781  0.18403718  0.11690821
  0.04295719  0.00127825 -0.00961479  0.0135409  -0.01480234 -0.06809096
 -0.05083925  0.21228075  0.06828391  0.05515929  0.01619831 -0.04124103
  0.06941799 -0.2681162  -0.03677534 -0.03302022  0.05494208  0.0568633
 -0.03079721 -0.00431766  0.10382877  0.13939027 -0.02120522 -0.01477135
  0.14423788 -0.07056875 -0.00635925 -0.01325275  0.02368457  0.12239584
  0.25497475  0.04627544 -0.04533416 -0.05528283]
layer 3 Activation
tanh
layer 4 Dense
40 20
[-0.30731136  0.01739091 -0.28888807 -0.71571463  0.21808355 -0.22194198
 -0.13430592  0.06873292  0.13631994  0.31661856 -0.15648277 -0.06301379
 -0.03882108  0.01487217 -0.1580729   0.09428576  0.2538442  -0.17642292
  0.14404014  0.02468552]
[-0.06343161  0.02188539  0.11969703 -0.30386156  0.04640029  0.24112666
  0.03246247  0.15532696 -0.01697078 -0.27028617 -0.23203601  0.15845466
 -0.0920832   0.19603111 -0.18312743 -0.21394302 -0.01439647  0.25642228
  0.28973827  0.13695826]
[ 0.22557992 -0.06442246 -0.20109461  0.19528292  0.27930048  0.2367094
  0.09163112 -0.15284228  0.26979524 -0.05447523  0.04076049 -0.02005396
  0.17200893  0.05677358  0.19277495 -0.18877578  0.16058972 -0.04719019
 -0.28589177  0.06208851]
[-0.15343459 -0.07097925  0.2284251   0.30093327  0.05968971  0.03561639
 -0.15150155 -0.17387481 -0.22858924  0.20221317  0.262833   -0.18813759
  0.25216764 -0.02207952  0.06467491 -0.35227963  0.21156378  0.10840297
 -0.12889807  0.2237988 ]
[-0.12796375 -0.19146137 -0.17612484 -0.4560814   0.19888641 -0.19167969
  0.32590252  0.32277495 -0.0859209   0.13211101 -0.37421843  0.32976335
 -0.12038773 -0.14053673  0.03056514  0.33939824 -0.23937532  0.02401685
 -0.03009813 -0.1937404 ]
[-1.67443022e-01 -1.15692437e-01  1.87085308e-02 -3.08433115e-01
  2.82821476e-01 -6.45907596e-02  2.72074968e-01  1.06487311e-01
 -1.65475279e-01 -1.59447521e-01  2.16201007e-01  6.84519485e-02
 -2.90777892e-01 -2.63119906e-01  1.00486495e-01  1.50461197e-01
  1.43784761e-01 -1.31508961e-01 -1.35696769e-01 -9.43457853e-05]
[-0.11188531  0.10490834 -0.16977656  0.18450925 -0.0962433   0.21579444
 -0.10274766  0.09003469 -0.00219391  0.01173474 -0.31273335  0.04454033
  0.05887999 -0.09366492  0.00346357  0.1376412  -0.14616832 -0.09032448
 -0.2979319   0.10903131]
[-0.150161   -0.20776859  0.25307426 -0.18433844  0.1960849  -0.04074144
  0.04677097  0.15048428  0.17583025  0.12927668  0.07224518  0.05990875
  0.09363929 -0.16404384 -0.01605129  0.04318826  0.00091728 -0.2529713
 -0.20715082  0.03209035]
[-0.04638847  0.48114485  0.13830091  0.3579624  -0.16468172 -0.08899517
  0.20936462  0.06057828  0.13287728  0.16642654  0.17956224  0.21701707
 -0.36675513  0.20774224  0.0254244  -0.1549599   0.26249832  0.12840621
 -0.2834678   0.08512983]
[ 0.22074169 -0.03163537 -0.2124814   0.48358798 -0.11243053  0.00834679
 -0.05883883  0.06641892  0.19078077  0.05757972  0.1782028   0.1460621
  0.14570498  0.21763997 -0.05994567 -0.1810261   0.14674059  0.2453894
  0.16654417  0.01471038]
[ 0.08486711  0.1576677   0.02552036 -0.18826963  0.14949496  0.20206323
  0.02437769 -0.29746085 -0.04403834 -0.00846281  0.06522817 -0.26595658
  0.1962808   0.18309638 -0.06812997  0.2551422   0.0005763   0.10416223
  0.26075053 -0.07064565]
[ 0.18519047  0.26763    -0.0590285   0.2836436   0.24025905  0.3116475
  0.20619039 -0.30600062 -0.28629687  0.24711373 -0.11742219  0.22736172
 -0.2758434   0.33707315 -0.31587622  0.12932296  0.17763919 -0.23023918
  0.28963163 -0.05265045]
[ 0.04998641  0.24197055  0.20337202  0.23869394  0.1303053   0.22663611
 -0.03476705 -0.10782186 -0.25058016  0.06078371 -0.02889346 -0.25884467
 -0.26235494  0.19588569 -0.22145315 -0.30853024  0.16815062 -0.27105108
 -0.01798483 -0.20844346]
[ 0.27535114 -0.15974282  0.08532293 -0.2713494  -0.1412509  -0.01830125
  0.25874135  0.03879604  0.29130915  0.1373289  -0.00033655  0.19526045
  0.029681   -0.11456393  0.3095386   0.2578439  -0.1713662   0.06664549
  0.05325671 -0.08686587]
[-0.06745948 -0.2560909   0.19429485 -0.32689685  0.29886383 -0.1890085
  0.15440112  0.00595341  0.08463943  0.08539424  0.11775329  0.01317902
 -0.2878562  -0.13425939  0.17698693  0.15667397 -0.26843306 -0.20602585
 -0.03066199  0.03497444]
[ 0.20275551 -0.06023747  0.1235451  -0.4573197   0.3192585   0.1446198
 -0.2658051  -0.06835967  0.03485479  0.22143295 -0.02218922  0.16344397
 -0.230715    0.02007674 -0.00288688 -0.08447299 -0.11320057 -0.11542248
  0.02487783 -0.3773266 ]
[ 0.04956327 -0.01888523  0.08279549 -0.33433434 -0.02145481  0.34764835
  0.30419725 -0.04483283  0.16122732 -0.21101476 -0.02060941 -0.17030497
 -0.14919409  0.15318628 -0.12383752 -0.12036221 -0.16991638 -0.2660952
  0.13555187  0.1683325 ]
[ 0.0567405  -0.06152132  0.2540264  -0.25786135  0.01062903  0.23577298
  0.09180889 -0.10423917  0.20914373 -0.09674323 -0.19776052 -0.03006673
 -0.01086075 -0.22282775  0.03348472 -0.10317662 -0.36906904  0.10334062
  0.05913351  0.04441876]
[-0.17478195 -0.18770185 -0.27127588 -0.10267822 -0.07992103  0.13193528
  0.23906034  0.08564322  0.1674371   0.12268724 -0.05303863  0.1607404
  0.0141101  -0.09113432  0.3074076  -0.19160284  0.12207592  0.22505212
  0.23141466  0.24779803]
[ 0.23308618 -0.17678729 -0.01546069  0.50848997 -0.1385114  -0.21017522
  0.21460903  0.21917799 -0.0527061  -0.03383001  0.07780391 -0.05018565
 -0.22089677  0.2765288  -0.23968379 -0.15920979  0.21557859  0.14408076
 -0.16399425  0.01446422]
[-0.20195863  0.10631815  0.14494699  0.3356691  -0.07319027 -0.21188465
 -0.17569233 -0.14687808  0.00708655 -0.29314584  0.14520511 -0.06172221
  0.15596662  0.06846365 -0.18165189 -0.37800902  0.09504297 -0.01400784
  0.097153   -0.10945427]
[ 0.17256027 -0.23034875 -0.17398316  0.72736126  0.02249769  0.13408335
  0.06048481  0.17751773  0.10721842  0.00516058  0.12735975 -0.24655087
  0.3858236   0.03975794 -0.12541914 -0.0247284   0.11124371  0.17178153
  0.09772471  0.08983865]
[ 0.1108017   0.20080094 -0.05443727 -0.00295878  0.12697516  0.13353217
 -0.01010099  0.23928693 -0.15777105  0.14929165  0.03896427 -0.16012461
 -0.17274731 -0.02078618  0.15958977  0.19563472  0.03789821 -0.00606215
  0.09546787 -0.01400919]
[-0.18685997 -0.5476989   0.23661143 -0.3114261  -0.19488348  0.2730589
 -0.1403507  -0.22744545  0.12426392  0.16716214 -0.23445472 -0.08113661
  0.16277944  0.1733112   0.0597828   0.26962095 -0.03057221  0.13600421
  0.1739474  -0.07474522]
[ 0.17218333  0.10341437 -0.06083942 -0.2858715   0.1755524   0.31038347
 -0.24886066 -0.10824472 -0.2164411   0.0821973  -0.30998105 -0.04008484
  0.0290389  -0.31158516 -0.08069748  0.11430768  0.02417537 -0.18979727
 -0.09838643 -0.36073464]
[-0.07933223  0.15450065  0.1274298   0.02651453 -0.11237646  0.02499098
 -0.24220309  0.20848049 -0.22742163 -0.08276536  0.20140147  0.05071478
  0.22225527 -0.01010767 -0.19476838  0.01765767  0.03948711  0.041223
  0.06440536 -0.03718201]
[ 0.00657053  0.15655135  0.00638631 -0.16273628  0.11106773 -0.0616266
 -0.06284536  0.1718928   0.29404256 -0.20749386  0.14240548 -0.11915428
  0.02748833 -0.30547252  0.20471416  0.38230482 -0.35208213 -0.2773711
  0.0788004   0.1740296 ]
[ 0.33741227 -0.39323595 -0.14523779 -0.22866933 -0.21400727  0.29734135
  0.03073731 -0.21889625  0.26252687  0.15481389  0.00374202 -0.00118789
  0.18618777 -0.20807202  0.36700284 -0.18220511 -0.18015164  0.13955902
  0.25688764  0.10128814]
[ 0.23620526  0.01274079 -0.29182294 -0.01901766  0.07547269 -0.09938265
  0.17616363 -0.07770671 -0.10800253  0.27615994  0.12008006 -0.19670138
 -0.21722022  0.30193081 -0.10525876  0.03761302 -0.08584408 -0.1272895
 -0.23420295  0.09745613]
[ 0.19105811 -0.22314586  0.22100191  0.03967912  0.19805668 -0.12740459
  0.2962972   0.25876862  0.24709496  0.12181473 -0.0500063   0.10060442
  0.06388835  0.13625124 -0.09782969 -0.21010637  0.01540381  0.07188705
 -0.03892425  0.18727233]
[-1.7415397e-01 -9.4634511e-02  4.1699905e-02 -3.4745908e-01
  2.1608557e-01  1.0923705e-02 -2.4932705e-02 -2.1073121e-01
  1.4916284e-01  1.9502856e-01  2.6899630e-01  1.3594677e-01
 -9.5641494e-02  4.2457014e-02  1.9329767e-01 -1.4662795e-01
  3.3358965e-04 -2.0741493e-01  3.2765150e-01  2.8847373e-01]
[ 0.18547304  0.09494899  0.11631627  0.09614381 -0.06265394  0.07346642
 -0.2279943   0.01724472 -0.18183827  0.14658359  0.11818919  0.21652108
 -0.14888717  0.2652921  -0.13353856 -0.08108748  0.22359504  0.07137028
  0.11585485 -0.07059394]
[-0.17010897  0.09489886  0.20722151 -0.16820675  0.38274387 -0.02077935
 -0.25643912 -0.23422016 -0.03991612 -0.05029749 -0.15502147  0.17505938
 -0.2271265  -0.18331236  0.12732169 -0.00606412 -0.39303958  0.10451017
  0.21162334  0.0184789 ]
[-0.2893657  -0.365336   -0.1396603   0.05239325  0.17605329  0.03482715
 -0.0794544   0.05755962  0.16983174 -0.10030624 -0.24792024 -0.2683471
  0.2559705   0.01450833  0.13353126 -0.19019191 -0.00371679  0.2409582
  0.25998756 -0.2286883 ]
[-0.2109502   0.01239099  0.27262968 -0.14694929  0.08569694  0.00185974
 -0.06936131  0.1658219  -0.18849424  0.29388195  0.08405187  0.07439053
  0.24097933 -0.03283156 -0.14910257 -0.20341052 -0.14416896 -0.14873217
  0.2391469   0.01168892]
[-0.3134759   0.11343244 -0.29667312 -0.33735317  0.35143232 -0.24712785
  0.24527435 -0.11798734  0.3768103   0.21010342  0.18210179 -0.17480204
  0.20702058 -0.01790532  0.17863354  0.21259555 -0.26476914  0.26997122
  0.0943565  -0.27751875]
[-0.21996447 -0.29329282  0.06915157 -0.5120955   0.0673828  -0.12518585
  0.00695036  0.15633191  0.261716   -0.1303139   0.1322133  -0.34401953
  0.16367573  0.05184485  0.09745938 -0.04398336 -0.11208289  0.19161648
  0.07611694 -0.24690609]
[-0.04436323  0.03798668  0.20293398 -0.03588227  0.3317279   0.11555626
 -0.19215    -0.14629461  0.07070114 -0.06215783 -0.11452103  0.02957403
 -0.04080037 -0.22599113  0.3204508  -0.14052592 -0.04642113  0.25035402
  0.10578328 -0.11709599]
[ 1.5506329e-02 -2.0275491e-01  5.8216727e-05  1.6124380e-01
 -1.7063221e-01 -5.8961727e-02 -8.8905543e-03 -1.0274727e-02
 -1.8027534e-01 -1.7248546e-01 -2.5218639e-01  2.6812917e-01
 -2.4409729e-01  1.5473510e-01 -3.5869861e-01  4.9571162e-01
 -1.2011864e-02 -1.4880843e-01 -1.2085519e-01 -8.1062511e-02]
[ 0.16229022  0.0469842   0.09807318  0.3114446   0.04817918 -0.15005557
  0.03309797 -0.26713142 -0.32339725  0.10404099 -0.13201964 -0.19331768
  0.3012821  -0.15151751 -0.15643914  0.09358652  0.1582351  -0.02545472
  0.07509261 -0.06426761]
[ 0.01228152 -0.02014194  0.05533265 -0.295639    0.04528547 -0.06074367
 -0.04777227 -0.05229567 -0.01798608 -0.05503589  0.0532783  -0.04841385
  0.04705366  0.05227974  0.11644003  0.03921989 -0.08737575  0.0558442
 -0.07884568  0.02783396]
layer 5 Activation
tanh
layer 6 Dense
20 1
[0.09508358]
[-0.01555825]
[-0.03207003]
[0.113822]
[-0.02134578]
[-0.03022385]
[0.01011993]
[0.02488222]
[-0.13984488]
[-0.01884914]
[0.01620366]
[-0.01849832]
[0.03203152]
[0.27532658]
[0.28024042]
[-0.01679518]
[-0.30231625]
[0.0258528]
[-0.10480474]
[0.01288207]
[0.12021989]
