layers 7
layer 0 Dense
20 20
[-0.21874562  0.18017103 -0.03064244 -0.2179908  -0.25392714  0.22234266
 -0.1670754   0.13567585 -0.20268172 -0.04173008 -0.15154466 -0.18370156
 -0.25739434  0.01872233  0.2498656  -0.09072797 -0.2278857   0.164936
  0.6068701   0.1465507 ]
[-0.24843188  0.21775542 -0.07957502 -0.21880284  0.35491976  0.09552749
 -0.17434886  0.2974279  -0.28526607  0.03612119 -0.11805286 -0.35253808
  0.07768066 -0.03003232  0.4145305  -0.1946658  -0.16545942  0.2808339
 -0.25082707 -0.27884564]
[ 0.09808287 -0.22687271  0.22194517 -0.06277546  0.02261607 -0.17760919
 -0.20508039  0.23763523  0.19685969  0.27638963  0.30034938 -0.34948435
  0.1638128  -0.34557763 -0.14172961  0.14865538 -0.32332194 -0.05475121
  0.33493307  0.22695504]
[-0.05641922 -0.39938626 -0.43120998  0.07091104  0.02673965  0.03814973
 -0.308619    0.2984901   0.37322578 -0.16916586 -0.29611033 -0.07214835
  0.34495768 -0.10750578  0.12345684  0.07350488 -0.06269036  0.3252539
  0.6387124  -0.2538279 ]
[-0.11044389  0.08981884  0.18434499  0.37085143  0.12270376 -0.2450467
 -0.11006465 -0.21541864 -0.20318116  0.24073994  0.01230589  0.11955114
  0.36130175 -0.00858637  0.34621388  0.03810249 -0.11053751  0.13700648
 -0.1290998  -0.41796115]
[ 0.23899716  0.25617975 -0.10142361 -0.366684   -0.26504472 -0.24790923
 -0.27758834 -0.22303736  0.06900525 -0.12994334 -0.11697306  0.2306385
  0.34235322  0.4056572  -0.08699711 -0.05490637 -0.10413171  0.33735472
 -0.01996395  0.17401354]
[-0.067156   -0.05749005  0.00143564  0.0841741   0.13933174  0.22325456
 -0.05885069 -0.38230568  0.2457793   0.26760533  0.23766263 -0.04268644
 -0.268555   -0.1014766  -0.03197261  0.3129688   0.07850233  0.055809
 -0.18873803 -0.11582918]
[-0.13745457 -0.11162484  0.3487416   0.2109943   0.15216252 -0.08343606
 -0.099446    0.0933124  -0.01425941  0.23516269  0.253119   -0.08463566
  0.14762029 -0.11403606 -0.4641535   0.20658433 -0.39155877 -0.30741778
 -0.21139996 -0.2061759 ]
[ 0.03451649  0.06733137 -0.0387651  -0.13148412  0.09720393  0.12337881
 -0.29512456 -0.20495707  0.411138   -0.1059196  -0.5103754  -0.10510018
  0.08224818  0.09967669 -0.31309825  0.10760785  0.5000502  -0.09510515
 -0.47691175  0.00275392]
[-0.03438261  0.10297003  0.25083143  0.25102448  0.12312023 -0.02256225
  0.2997578  -0.3924273   0.21677686 -0.1639249  -0.11675514 -0.1606101
  0.28874826  0.16739565 -0.2762784   0.16331525 -0.27924666 -0.1462622
  0.0211348  -0.11958295]
[-0.32033476  0.30350304  0.1362229   0.2640578  -0.02808311 -0.19980915
 -0.3602678   0.17354706  0.15693548 -0.10282741 -0.31575277  0.21024124
 -0.08339871  0.2983354   0.28595346 -0.09994744  0.38419765  0.4087333
  0.00107484 -0.06610249]
[-0.0172316  -0.46559528  0.07320207 -0.24486242  0.45568296 -0.3386796
  0.21958241 -0.08238139  0.19167921  0.16419013  0.3023251   0.2554581
 -0.14083166 -0.33436897 -0.23148517  0.20062399  0.17957282  0.05772151
 -0.06500089  0.21294439]
[ 0.0016219   0.18069218 -0.45302925  0.07140031  0.2014262  -0.02235353
  0.43275073  0.4433245   0.22257952 -0.15976897 -0.21844544  0.22199278
 -0.36421847  0.20100324  0.05601275 -0.48690024  0.31779343 -0.24354672
  0.02121326  0.05051928]
[ 0.6399428   0.08746168  0.4077943  -0.5409633   0.21045972  0.03311343
 -0.31773677  0.4659646   0.6149296   0.74805355 -0.5576594   0.6198732
  0.18931308 -0.7936048  -0.1611355   0.32900968  0.4979     -0.27909097
  0.01239571 -0.36231542]
[ 0.6702523  -0.7187791  -0.0126171  -0.27325168 -0.46335626  0.3735026
  0.09683041  0.06021116  0.301445   -0.10072812  0.14399154  0.3220658
  0.6471354  -0.29299772 -0.14356609 -0.5133663  -0.08529909  0.34549356
 -0.15183178 -0.2687048 ]
[-0.18554132  0.34516826  0.5234814   0.6361896   0.12366618 -0.5388938
  0.04092671  0.62975705 -0.6212154  -0.5548095   0.1460366   0.25287667
  0.6826715  -0.63482493 -0.4789881   0.6170606   0.3391498  -0.36706907
 -0.36339372 -0.38613895]
[-0.03755674  0.01999303  0.02442124  0.07355294 -0.06789808  0.2518419
 -0.24802364  0.2964645  -0.31079346 -0.11231642  0.04227934 -0.13111554
 -0.16332307 -0.35768995  0.19909798 -0.06897767 -0.24412373  0.08502168
  0.08078399  0.02806334]
[-0.13789825  0.34057245  0.22141254  0.35749134  0.06085191  0.3733562
 -0.02293148 -0.40977192  0.11122223 -0.6143327   0.12928908 -0.15320203
  0.38033852  0.4352261  -0.28000754 -0.31969255 -0.16536282 -0.33083704
  0.21162869  0.17301024]
[ 0.12947328  0.15030965 -0.26074204  0.07217553 -0.2996903  -0.4916081
 -0.00390774  0.12538894 -0.15537554 -0.1600301  -0.14001039 -0.11625072
 -0.10578168  0.2508351   0.07166675  0.28212917  0.01598854 -0.353762
 -0.23960868  0.25177476]
[ 0.00124235  0.28133917 -0.36327878 -0.02726228 -0.15552053  0.436068
 -0.02027649 -0.1755089  -0.26414198  0.0493159  -0.44143057 -0.16124658
 -0.16726708  0.03985674  0.33023515 -0.38618216 -0.17459427  0.09772973
  0.00533627  0.3337773 ]
[ 0.05432501 -0.02596279 -0.15779199  0.04303934  0.0159891  -0.04767435
  0.0062059  -0.06720319  0.06342044  0.01508807 -0.04305828 -0.07363969
 -0.01728863  0.04610236  0.06308719  0.01515182  0.00210784  0.07424195
  0.27353492  0.07622258]
layer 1 Activation
tanh
layer 2 Dense
20 40
[ 3.28087397e-02  1.98148340e-01 -9.56493318e-02 -1.99668810e-01
  1.24316454e-01 -1.04428202e-01 -2.65619636e-01 -1.97286204e-01
 -1.97725132e-01  5.72033636e-02  1.15871266e-01  1.23846598e-01
  1.84915829e-02 -4.27683443e-02  6.34743199e-02  1.73863828e-01
 -2.53409729e-04 -1.01570532e-01  1.03247225e-01  1.86655089e-01
  2.69039989e-01 -1.05631292e-01 -3.28625441e-01 -2.93000676e-02
 -1.12625487e-01 -3.87057737e-02 -2.40354598e-01 -9.13790092e-02
  1.00453347e-01 -6.52915463e-02 -3.21254611e-01 -2.12664247e-01
 -7.50753060e-02 -1.27400586e-03  2.15317413e-01  1.41762197e-01
 -1.20353103e-01 -2.19851837e-01  1.65324822e-01  1.94195971e-01]
[-0.44557104  0.10419577 -0.07012855  0.09180374 -0.01388096 -0.22219987
 -0.04411283  0.07817764 -0.05389491 -0.15510662  0.2547371  -0.09401153
  0.153846    0.08958139  0.08552809 -0.10722429 -0.16412565 -0.0213044
 -0.15664516 -0.26038855  0.14109376 -0.16961078 -0.15632136 -0.31079963
 -0.25950348  0.04028149  0.3468911  -0.14739831  0.09386296  0.36920676
  0.2877002  -0.2848274   0.13151078  0.02315351  0.14010866 -0.2988748
  0.14648977  0.25944826 -0.1253811  -0.27988282]
[ 0.02019317 -0.41056028  0.2151104  -0.06227664 -0.3042608  -0.30498862
 -0.28137487 -0.16673805  0.09812634  0.41565335  0.3159104  -0.20866126
 -0.34115016 -0.04614471  0.37923583  0.06411465  0.06090159  0.20074797
  0.01785717 -0.022106    0.26771832  0.19212389 -0.20760442  0.0793274
  0.25052425  0.30728805  0.27402094  0.06017455  0.16485934 -0.3344468
  0.41210088 -0.05008887  0.06335501  0.18496351  0.10332949 -0.21689889
  0.47367385  0.1411906  -0.5192846  -0.5595982 ]
[-2.0460384e-01  2.7935442e-01  2.5035825e-01 -2.2153382e-01
  3.0021045e-01 -6.7461796e-02  3.0774420e-01  2.2790374e-01
  6.0179017e-02  3.0170417e-01  9.3365915e-02 -4.3599024e-02
  2.5936499e-01 -1.0828862e-01  1.5896833e-02 -2.2877386e-01
 -1.6583195e-01  2.1293163e-02 -3.9464349e-01 -5.5026484e-01
  2.7169850e-02 -2.2324438e-01 -6.4119346e-02  4.3910098e-01
  3.6934289e-01  1.5206937e-01  1.5709151e-01 -1.2051518e-04
 -5.3327288e-02 -1.4523506e-01  9.1814540e-02  2.5549829e-01
  2.1617025e-01 -2.9953519e-01  3.0589288e-01 -2.4231258e-01
  8.7772429e-02  7.7649383e-03 -2.1266187e-02 -1.7688587e-01]
[-1.5377657e-01  6.3281029e-02  8.5658997e-02 -2.9771262e-01
 -1.7413484e-01 -6.4787805e-02 -3.5144448e-01  2.9258749e-01
  7.5565167e-02  1.1438336e-01 -2.2658063e-01  4.8508984e-03
 -2.0239063e-01  3.7062004e-02  1.4415167e-01 -1.9242276e-01
 -2.1828417e-01 -7.2999530e-02 -1.3051993e-01 -2.7296057e-01
 -7.0599087e-02 -3.2784313e-01  2.8789413e-01 -1.2691818e-01
  7.1097054e-03 -1.1661509e-01  6.9516234e-02  1.3107187e-01
 -1.8653134e-02 -2.8122965e-02 -7.8218959e-02 -7.2449417e-05
  1.2754756e-02  2.7213704e-02 -1.6567490e-01 -2.1421573e-01
 -1.7402339e-01  1.9635507e-03 -1.4464476e-02  4.9370565e-02]
[ 0.1081855  -0.08670049  0.05076056  0.36013895 -0.08662567  0.4173948
 -0.51787764  0.17517215  0.26204824  0.10405653 -0.01487723  0.20699887
  0.11468769 -0.52686244  0.00554859  0.38483304  0.17662421 -0.01352901
 -0.0453936   0.44248486 -0.15293898  0.18788671  0.1865851  -0.09768285
  0.20286171 -0.37947333 -0.27383295  0.11830454  0.12940328  0.13749725
 -0.29133508  0.42982775 -0.04677211 -0.23469779 -0.35838908  0.2474986
  0.17709272  0.12589243  0.2041026   0.15467882]
[ 0.04348226 -0.03439733  0.0783508  -0.13634393  0.00318492  0.1664971
  0.03151017  0.07408592  0.35535163  0.23783933  0.00453119  0.19700032
  0.1220527  -0.17332418 -0.18583468 -0.07740025  0.1437354  -0.16698955
  0.04174331 -0.17745875  0.02216241 -0.08254953 -0.13067894  0.04404432
  0.13474593  0.06245491  0.02905865 -0.05878333 -0.10849837  0.31455895
  0.10165466  0.1709118   0.23480481 -0.07814896 -0.15501386 -0.05241571
  0.07109065 -0.04191921  0.07045268  0.17281634]
[-0.05822418 -0.31487718 -0.0105467  -0.14398102  0.20580904 -0.24514616
 -0.14834869 -0.40445158 -0.36888826  0.2254574  -0.03526353  0.27915508
 -0.11643548 -0.00818844 -0.01393541 -0.05986952 -0.05861071 -0.2807791
 -0.14994608 -0.34451076  0.12453131  0.19629537  0.15215002 -0.35760653
  0.21949935  0.22192506  0.18137692  0.11038909 -0.00199088  0.00344522
  0.10029749 -0.03803646 -0.25950605 -0.13477038  0.3449836   0.18172204
  0.16510926 -0.33120865  0.03458774 -0.05383207]
[-0.1331199  -0.15024607  0.18038188  0.02342603  0.07628345 -0.11448979
 -0.28746504 -0.07895052 -0.13872302 -0.10564627 -0.20880044 -0.18187085
  0.31969193 -0.36140126 -0.07476933 -0.02612087 -0.15039074 -0.19083557
 -0.01589435  0.39997536 -0.40069568 -0.10299184  0.29888263 -0.08662318
 -0.36482605  0.33413386 -0.0783115   0.0344892   0.06460466  0.00914464
 -0.00655696 -0.33572343  0.04457     0.13471553 -0.3791591  -0.06289802
 -0.34429514 -0.09116654  0.13869186  0.20128527]
[-0.11994447 -0.13551874 -0.01591084 -0.2166334  -0.00940454  0.21383409
 -0.5438329  -0.3674844   0.044087   -0.32845038 -0.2756534  -0.16415237
  0.09784904 -0.3479678  -0.03450797 -0.1394415  -0.29318365 -0.01129731
  0.24034558 -0.16936837 -0.15120159 -0.18497314  0.40025914 -0.2810798
 -0.16259986  0.14061588 -0.22377361 -0.14347261  0.27143356  0.24117659
  0.01712839 -0.11565653  0.05921174  0.23105955  0.04752779  0.26479515
 -0.28566304  0.11359434 -0.03748723  0.07195685]
[ 0.38184085  0.04465937  0.07927401  0.20540008  0.40703747  0.07419537
  0.25974786 -0.03884533  0.43683285  0.2749605   0.12066054  0.15096441
 -0.25021845 -0.08736961  0.37708294  0.07606281  0.02043747  0.2395402
 -0.23317906 -0.00543475  0.07071198 -0.05155976 -0.05755677 -0.12884355
  0.41012344  0.07113677 -0.26720992  0.08712248  0.25513354  0.21376537
 -0.03855774  0.03300928  0.20240556 -0.14818923 -0.07727969 -0.05846685
  0.37916684  0.01488246 -0.2777136   0.00954014]
[-0.06597535 -0.29668093 -0.05475352  0.10888368 -0.11572917 -0.27163664
 -0.2810477  -0.1865966  -0.3119786   0.23919554 -0.04861989  0.3352942
  0.21075441 -0.1913111   0.07194574  0.14060572 -0.0074981   0.0781904
  0.28555915 -0.13675818 -0.29980326  0.01211582  0.03364034 -0.34008604
  0.02723464  0.0074491   0.00526154 -0.21911041 -0.28347427 -0.23954912
  0.03861711 -0.01202341 -0.05085894  0.20622724  0.20888382 -0.2416632
  0.08634554 -0.07699893 -0.19217934  0.15221542]
[ 0.37978032 -0.19724736 -0.28397018 -0.17287609  0.43715703  0.0908688
  0.02689537 -0.11465446  0.05456224  0.2234711   0.24234983  0.35477933
 -0.39664993  0.08289805 -0.13751149  0.24197078  0.31358975 -0.3038389
  0.0375053   0.00160493 -0.01988196  0.18551019 -0.39094454  0.10627601
  0.32582337  0.05116804  0.11417794  0.19529721 -0.02863931 -0.31322193
  0.16482353 -0.15935606  0.06691328 -0.11386435 -0.17349635 -0.10412804
  0.3773435   0.03133976  0.12578726 -0.37559664]
[-0.10204714  0.36593089  0.09614898  0.08131839  0.18535237  0.2613191
  0.1504977   0.27607405  0.29324454 -0.33125234  0.32401025 -0.12318093
  0.24936572  0.15653656  0.05778312  0.13645414  0.17023861  0.08014505
 -0.01390564 -0.06350242 -0.02809568  0.05132461 -0.1476738  -0.03065127
 -0.07145663 -0.13551603  0.22198944 -0.1803695   0.1371861   0.40814662
  0.04407555  0.50172293  0.03043401 -0.270157   -0.29160863 -0.32991627
 -0.07883057 -0.11837899  0.11523242  0.10016212]
[ 0.1833094   0.14062072  0.10705855 -0.25357965 -0.01041351  0.14674458
 -0.2326425   0.00692501 -0.06077903 -0.30197847 -0.35696512  0.22088246
  0.18640766  0.14057696 -0.20912723  0.06943663  0.274761   -0.13583378
 -0.01177828  0.31738317 -0.0370298   0.29350215  0.06937628 -0.39931577
 -0.21048659 -0.04131063  0.18425056 -0.10117786  0.02043884  0.24082169
 -0.0506103  -0.08676822 -0.4011215   0.01272721 -0.12914303 -0.23762375
 -0.08479994  0.14945418 -0.07347114  0.32270244]
[-0.30398056 -0.11356524  0.14818572 -0.20757304 -0.07333247 -0.03446161
 -0.04645312 -0.23892005 -0.4612079   0.05505709 -0.07981546 -0.03966689
 -0.05611084  0.4043657   0.159433   -0.07508525 -0.20384513  0.13384658
 -0.28105757 -0.35813043  0.06182995 -0.18811609  0.25702146  0.2058069
  0.2047954  -0.14068553  0.26366234  0.19037253 -0.0029272   0.11755881
 -0.27995068 -0.04403441 -0.07829568 -0.15409213  0.23746696 -0.01667065
 -0.1358536   0.17782716 -0.13930006 -0.32930025]
[-0.01208393 -0.1775612   0.11039369 -0.3994323   0.07201041 -0.19009279
 -0.17904359 -0.30927706 -0.2028896   0.07078947 -0.2406755  -0.01427356
  0.3716888  -0.15504408 -0.4726589   0.04179716 -0.1330184   0.03829285
  0.01002599 -0.25031123  0.07392836  0.29464924  0.4746256   0.13028938
 -0.02480139 -0.16207111  0.0430349  -0.07783175  0.20335329 -0.07010265
 -0.24170405 -0.16512708 -0.13136518  0.06198626  0.23434544 -0.25929847
 -0.18141922  0.13289374 -0.05278707 -0.18926263]
[ 0.09967732 -0.21229705  0.05062528 -0.0134531   0.2809908   0.21336605
  0.18684722  0.03876535 -0.11741924 -0.23059766 -0.20701224  0.28360036
 -0.09371223 -0.14003268 -0.00886348  0.11840913 -0.11866149  0.11214184
 -0.21356538 -0.13856599  0.02471795  0.44604835  0.04464851  0.19996803
  0.14455947  0.19999608  0.19161211  0.39500162  0.01710059 -0.01695862
 -0.16387393 -0.10152015 -0.24136958 -0.1409793   0.2426613   0.18931693
 -0.07641686  0.27668312 -0.22125468  0.05987768]
[-0.00354009 -0.03548659  0.32612234  0.12995939  0.2513675   0.02857867
  0.2807119  -0.08767162 -0.01416107  0.06996037 -0.13436432 -0.14858612
  0.17369987  0.3144682  -0.35843927 -0.21412386  0.23771738 -0.15570581
  0.1093761   0.15199648 -0.27111283  0.56346893 -0.2200567  -0.3110721
 -0.05969982  0.01300169  0.02844009 -0.07417982 -0.21721262  0.2682473
 -0.51313084  0.15599102 -0.37258944 -0.10407195 -0.08948421 -0.25650623
  0.00455974 -0.1370493   0.19334362 -0.11648202]
[-0.21099941 -0.02055105  0.14774065 -0.05399443 -0.08719578  0.08171512
 -0.06201311  0.2515412  -0.10837612 -0.13343151 -0.17502539 -0.21979056
  0.10160357  0.11246539  0.15479714 -0.03260659  0.2357083   0.01766459
 -0.30582875  0.05857961  0.3171853   0.1362173  -0.25478682 -0.0405903
 -0.05943856 -0.20335916 -0.06509589  0.4211263   0.06676506  0.43672115
  0.05095549 -0.12850486 -0.27043688 -0.07367186  0.07594379 -0.26554158
  0.0705817   0.30521274 -0.1529551  -0.07431738]
[-0.02588946  0.15798348  0.06512411 -0.02992753  0.05160023 -0.05381739
  0.08938177 -0.00258569  0.01352261 -0.05133273 -0.06249708  0.02306598
  0.00319392  0.11906168 -0.1296386   0.08862581  0.04746626 -0.09756665
 -0.01108947  0.13754296 -0.08071704  0.2487501   0.00815718 -0.1442452
 -0.07811394  0.02816578  0.06130696  0.08895063  0.00465836  0.01858765
 -0.28826815  0.03216887 -0.18232484 -0.04105883 -0.01017179 -0.00536007
 -0.08647776  0.01972126  0.10673858  0.09379084]
layer 3 Activation
tanh
layer 4 Dense
40 20
[ 0.14385794  0.10524949  0.23658247 -0.13265122 -0.338655   -0.23988691
  0.02402462 -0.00730245 -0.22625999 -0.30584672  0.25830653 -0.010694
  0.06243308 -0.13499045  0.11860474  0.21877813 -0.03859096 -0.31530783
 -0.0547418  -0.25597274]
[ 0.03063652 -0.3108611  -0.29110456  0.11740311 -0.18361187 -0.09262202
  0.19389778 -0.2551112  -0.14305837  0.22891356  0.3003587  -0.02999954
 -0.24128722  0.11473102  0.03094982 -0.14584368 -0.01599098  0.02536146
  0.33284125  0.17185377]
[ 0.00110028 -0.24299449 -0.10186921 -0.09275689 -0.11422764  0.24609694
  0.06115998  0.08881409  0.12055355 -0.10736446  0.23968111 -0.19117825
 -0.2857788  -0.27438408 -0.11140737  0.1241258   0.11824237 -0.07831918
 -0.15243092  0.3025941 ]
[ 0.05212767  0.20377493 -0.20870617 -0.2380717   0.02358503  0.04035283
  0.18203814 -0.07097062 -0.2879983   0.0432716   0.19203193 -0.10947525
 -0.23643982 -0.06258392 -0.04392624 -0.01003413 -0.3654637   0.22789265
  0.17891791  0.02168052]
[ 0.132063   -0.14781955 -0.16373567  0.03579131 -0.2844555  -0.12493011
 -0.10690503  0.06074947 -0.12946834 -0.2754525   0.23696509  0.08332896
  0.01958715 -0.46088234  0.04339359  0.05614225 -0.121224    0.2324866
  0.15147255  0.27521318]
[ 0.17474966  0.17784318 -0.26308098 -0.10522851  0.00244636  0.28417096
  0.13488154 -0.09688081 -0.25936586 -0.13576062  0.20185006  0.06068952
 -0.3692621  -0.26797992 -0.37286425 -0.30952182 -0.35961273 -0.02835997
  0.14166193 -0.07670578]
[-0.25471547 -0.23685594  0.43816966 -0.25570932 -0.30530164 -0.10847025
  0.31976238  0.07965842  0.33678037  0.24614674  0.01781942  0.16118218
 -0.1756051  -0.07652942  0.1935186   0.06613788 -0.00389983 -0.26134387
  0.26290214  0.03666166]
[ 0.3936578  -0.25657743  0.18238656  0.02305346  0.07638874 -0.09626199
 -0.06446829  0.11137675 -0.12348124  0.29581317 -0.0016683   0.04079633
  0.1882459   0.07319552  0.14063142 -0.2629824  -0.02291532 -0.04977424
  0.33364213  0.26283863]
[ 1.9071719e-01  7.8057520e-02 -1.2432535e-01  2.6487771e-01
  2.9413587e-01 -4.6995386e-02  6.1767241e-03  2.3966646e-02
 -3.4036842e-01  2.7959445e-04  3.1688276e-01 -2.3105071e-01
 -1.7187062e-01 -3.4831408e-01 -1.3298699e-01 -3.2377604e-01
  9.0828337e-02  9.9935271e-02  2.9076469e-01 -1.8608244e-01]
[ 0.16855556  0.3260252   0.4359409  -0.16805956 -0.28353533 -0.17510524
  0.21306765  0.05077546  0.40865996 -0.2732878  -0.15682161 -0.16455296
 -0.30048117  0.01633772 -0.03580665  0.10623489  0.31734303  0.01146311
 -0.22157595  0.10585307]
[-0.00439248  0.26777208  0.19773787  0.20555066  0.10925984 -0.2730148
  0.15786646  0.11882094 -0.15886548  0.23869477 -0.00232674  0.05074093
 -0.24167623 -0.24091221 -0.22140402  0.01439145 -0.174312   -0.12678286
  0.34461355 -0.15172882]
[-0.07536606  0.05603578  0.05269699 -0.03120706 -0.22489312  0.25440878
  0.02934368 -0.29790542 -0.28858924 -0.07317932  0.29397628 -0.1728
  0.203464   -0.24366789  0.11086207  0.2088822   0.17548543 -0.01920446
 -0.07822303 -0.03610744]
[-0.15985058 -0.24057448 -0.29347     0.19867402  0.21326958 -0.15102668
 -0.14777441 -0.02461065 -0.09210208  0.32413986 -0.18771037 -0.28511685
 -0.27596965 -0.16034457 -0.18142024 -0.2351904  -0.08401174  0.01288888
  0.23240606 -0.06723057]
[-0.39861253 -0.14610653  0.35930645  0.03911728  0.01588249 -0.35396972
 -0.09049065  0.13806407 -0.15513147 -0.12589431 -0.23589799 -0.24233432
 -0.42883137  0.1791287  -0.02522874  0.12149962  0.22045131  0.0777713
  0.31138575  0.10629988]
[ 0.06624112  0.3009931   0.17373063  0.08706044  0.08133075 -0.20518103
  0.20108864  0.01049241  0.0820305   0.086013   -0.0352116   0.2752844
  0.05521071  0.155228    0.1620754   0.08809102  0.17762311 -0.03460699
  0.38836136  0.21121186]
[ 0.07392142 -0.17445631 -0.28705913  0.0471122  -0.18394375  0.2871474
  0.17696634 -0.04019357  0.00860197 -0.26556504  0.21810502 -0.12242007
 -0.0993583  -0.3295519  -0.07158897 -0.00812618 -0.18745548 -0.18148874
 -0.18510504  0.05400393]
[-0.04579031 -0.01029987 -0.24558556 -0.26814547 -0.3060024  -0.00439302
  0.1285343   0.02582199 -0.24154219 -0.1721115  -0.20970474  0.31447104
 -0.15266807 -0.16020663  0.17632024  0.03023364 -0.3708253   0.21912666
  0.05169912 -0.18576546]
[ 0.10738049  0.25538087 -0.15666284 -0.03488008 -0.00811794 -0.33537385
 -0.00911247 -0.13342917  0.18554679  0.2081012  -0.16658878 -0.14415318
  0.13357939 -0.16016445  0.21725388 -0.21670716 -0.12955245 -0.09193034
 -0.13858308  0.07071454]
[-0.09863344  0.12446367 -0.225925    0.01298832  0.21317238 -0.20233397
 -0.28935227 -0.12110972 -0.29612947 -0.13260353  0.11625736  0.13805093
  0.24998192  0.3211163   0.06690127  0.09472499 -0.06378131  0.00541691
  0.00804034 -0.42425263]
[ 0.22192976 -0.31796783 -0.2224049  -0.2953285  -0.21286277  0.02533423
 -0.09602714  0.12781172 -0.18321128 -0.17264804  0.13488011  0.0836858
 -0.0070661  -0.07949566 -0.06057985 -0.04336246 -0.1778525   0.20416744
  0.14294524 -0.39609465]
[-0.04753353  0.35437387 -0.01015377  0.03218362  0.17734642 -0.24052748
  0.24039201 -0.19368815 -0.05912969  0.01818803  0.12671901  0.27396223
 -0.19724114 -0.07030189  0.2813006   0.28353602 -0.01530534  0.2670672
  0.28159094  0.18861715]
[-0.32166097 -0.11355241  0.03664164 -0.29384673 -0.11647591  0.2689001
 -0.274009   -0.27359268 -0.26172313 -0.20746659 -0.22529306  0.03836492
 -0.07983828 -0.10151292  0.27635983  0.24404281  0.13530305 -0.07696892
  0.05509403  0.08730549]
[-0.20701732 -0.28325313 -0.27850726  0.15068792  0.28662553  0.07004492
 -0.22873509 -0.15242623  0.19367702 -0.07647928 -0.13569492  0.24282697
  0.39604065  0.05085142  0.01681231 -0.169925    0.1374552   0.14614196
 -0.2509816  -0.08512241]
[-0.11327922  0.10585436  0.32733962  0.20706211 -0.16859165  0.31239405
 -0.07047279 -0.13108987  0.23617683  0.09930507 -0.04297515 -0.03037603
  0.10666775  0.15062022  0.1105267  -0.05261356 -0.33367515  0.15332113
  0.34298286 -0.24638274]
[ 0.27345258  0.36390612  0.19877341  0.1729488  -0.3428504  -0.02555086
 -0.09587479 -0.13047105  0.24540387 -0.05868135 -0.10361197  0.16276872
 -0.3694002   0.08147129  0.05497695  0.15880306 -0.02881162  0.20337571
  0.32997423  0.0745253 ]
[ 0.04018073 -0.04875388  0.2224396   0.04648492  0.06150737  0.2932488
  0.01872778 -0.13994096  0.14622593 -0.3115215  -0.31562757  0.13308987
  0.29313624 -0.11487047 -0.37351337  0.39077595  0.1795212  -0.15583394
 -0.23511647 -0.16498445]
[-0.14223607 -0.05664484  0.18451141 -0.2062638   0.2599339  -0.0137525
 -0.19446015 -0.27391762  0.05456059 -0.1483762   0.22895674  0.10789013
 -0.26848504 -0.02886896  0.06929289  0.18007472  0.06560166  0.11676273
 -0.29723966  0.34874463]
[ 0.0977718   0.00605918 -0.14393476 -0.36267635 -0.30912527  0.18274494
 -0.07563508  0.00613075  0.08028957  0.11919381  0.06599209 -0.20029691
 -0.32970944  0.23731029 -0.13842075  0.21709546 -0.03075309  0.22766055
  0.11168239 -0.2042034 ]
[-0.20151661 -0.06570107  0.10247555  0.27002892  0.08260927 -0.19163011
  0.21327177  0.10449841 -0.11379324  0.08633939 -0.19725224 -0.16745158
  0.09740208  0.19883059 -0.19826971 -0.03958206  0.20101765  0.23284599
  0.11379516 -0.33826613]
[ 0.02425051 -0.27144003 -0.2830823  -0.10163846 -0.08281997 -0.0953657
  0.25052616 -0.01008047  0.17777035  0.302462    0.29905078 -0.03040625
 -0.0251124   0.32959408  0.18052696 -0.04859947 -0.15867004 -0.02777749
  0.26138508  0.08144616]
[-0.14656714  0.39335638 -0.15124018  0.3375391   0.16951536 -0.08961876
  0.12038615  0.22794545  0.43866035  0.11004243 -0.14807583 -0.07409557
  0.08186129 -0.2876523  -0.26593548 -0.01823999 -0.1369558   0.33539334
  0.01356731 -0.16705017]
[-0.06762518 -0.14947262 -0.17601891  0.25484005 -0.15151428  0.10218307
 -0.2002917  -0.01614812  0.22110225 -0.08002926  0.09916604  0.24498893
  0.04993243 -0.4280922  -0.13833389  0.15529111 -0.18770187 -0.14177157
  0.23760615  0.17144985]
[ 0.29725143  0.23868747  0.30195537  0.21001825 -0.09514581  0.16378464
  0.05718294 -0.00888047 -0.1790784   0.25666666 -0.2823301  -0.2828768
  0.25448802  0.10560196  0.22409256 -0.19686507  0.1652831  -0.11445224
  0.00537553 -0.24314521]
[-0.04409021  0.0528074   0.1954143  -0.11523832  0.24034473  0.01846414
 -0.03960777 -0.02575964  0.19396906 -0.09469333 -0.10903277  0.11814103
  0.37624875  0.36728957  0.11310949 -0.27253875  0.10514116  0.05400062
 -0.1116609  -0.2587602 ]
[-0.21646015  0.21084288  0.01157969  0.28726187 -0.1819036   0.05806694
 -0.16476725 -0.16526039 -0.08158565 -0.04893547 -0.13155788 -0.00201852
 -0.10443395  0.32162446  0.3510454   0.31946254  0.2721909  -0.20282662
  0.00700815  0.04784552]
[ 0.24055876  0.09813783  0.03725033 -0.2194926  -0.10516969  0.0564649
 -0.16217363 -0.03562785 -0.14243266 -0.10743426 -0.12782653  0.19400755
  0.36049652  0.41965345 -0.37329927 -0.21728508 -0.01673452 -0.11496551
  0.25771222 -0.43116772]
[ 0.06174556  0.24288714 -0.16992976  0.25646433 -0.23157774 -0.14496213
  0.17615335 -0.10090201  0.23432517 -0.18729022 -0.16137853  0.07387637
 -0.2327257  -0.15532835  0.13825317  0.12884443 -0.169588   -0.20853199
  0.12383198  0.22474556]
[ 0.0461573   0.10338149 -0.10174096 -0.21618094 -0.16067125  0.27001417
  0.044499    0.03312968 -0.22659402  0.33081317  0.10439587  0.04666511
  0.1688477  -0.00331311 -0.1304272   0.04756336  0.24510773 -0.1496752
 -0.00684582  0.17572832]
[ 0.14881238 -0.22040682 -0.19323008 -0.21264915 -0.05611262  0.1813972
  0.12237064 -0.16035609  0.09526816  0.11025067 -0.03672822 -0.2996228
 -0.3422263   0.18328206  0.08329277 -0.31353125 -0.256352    0.11571822
 -0.27455297  0.21466891]
[-0.05864196 -0.32607144 -0.11295277 -0.20251554  0.14932978  0.15154345
  0.09975823  0.24157767 -0.36379513 -0.2592732  -0.19932309  0.13759121
 -0.01368919 -0.06684336 -0.12700291 -0.23581389 -0.29566965 -0.26338226
  0.1336928  -0.42483637]
[-0.05905515 -0.05850353 -0.00782708 -0.07708821 -0.04930462 -0.0369442
 -0.00093614  0.02606316 -0.01097054 -0.04140555 -0.01342797 -0.01621153
 -0.07759111 -0.03056176 -0.08856857  0.02042117  0.03605978  0.02725279
 -0.0821682   0.03889203]
layer 5 Activation
tanh
layer 6 Dense
20 1
[-0.39225715]
[0.39612392]
[0.16405275]
[-0.3272259]
[-0.33943543]
[-0.07469531]
[0.29711115]
[-0.01820946]
[0.15775412]
[-0.31862888]
[-0.0313137]
[0.00564467]
[-0.0668228]
[-0.13059509]
[0.01103655]
[-0.12121892]
[0.20414649]
[0.00682608]
[-0.18439414]
[0.11223365]
[0.0738551]
