layers 7
layer 0 Dense
20 20
[-0.3317491  -0.22268838 -0.29020673 -0.40785083 -0.1434795   0.47674638
 -0.12707734  0.43069682 -0.16919261 -0.11986214 -0.30724952 -0.24075386
 -0.06955398 -0.30957732  0.40387627  0.37051958 -0.30219334 -0.5186705
  0.21919222 -0.15529074]
[-0.2581986  -0.02442683  0.06668849 -0.51584595 -0.07162248  0.03009783
  0.17191748  0.2651431  -0.26599157 -0.02638405  0.12797336  0.22985196
  0.0171447   0.13619229 -0.269283   -0.11694635 -0.2582113   0.03073808
 -0.25195757 -0.27660048]
[ 0.08001571  0.20628595  0.267797   -0.17417642  0.26629275  0.08638362
  0.12739699 -0.41400355 -0.20394425 -0.26421502 -0.26066852 -0.05787473
  0.1592663  -0.2980554  -0.23188479 -0.09266126 -0.05734627 -0.2619843
 -0.30761817 -0.54041636]
[-0.07695817  0.21571615 -0.34141576 -0.61631304 -0.38532037  0.16764168
 -0.00085833 -0.25420308 -0.3517942   0.16064724 -0.08615544 -0.14001644
 -0.05474361  0.3493475   0.15540008 -0.38330114 -0.34059343  0.2922626
  0.02756779  0.09942355]
[-0.0216198   0.09289724 -0.3762751  -0.1809739  -0.3584114   0.27655423
 -0.2522485  -0.26323158 -0.18468998 -0.32007393 -0.33885616  0.27150217
  0.04840394  0.20381597  0.26964158 -0.243265   -0.21370934 -0.3197038
  0.06442348 -0.07018731]
[ 0.17527333 -0.1198085   0.34467873  0.17411825 -0.45510742 -0.01315355
 -0.40063444 -0.03672511  0.00990698  0.15286951  0.25286394  0.02734915
 -0.33791807  0.16735247 -0.05277494  0.06782446  0.06860158  0.2715405
 -0.1028083   0.01144256]
[ 0.00050778 -0.22655016 -0.18021359  0.00943721 -0.10767429  0.48505923
 -0.4089683   0.43754634  0.27497643  0.24187633  0.17960395 -0.2300571
 -0.22256656  0.25022313  0.28105104  0.01284763  0.04028768  0.28063288
  0.11947615  0.0288512 ]
[ 0.17544757 -0.28329894  0.12301026  0.13845277 -0.3169767   0.0029803
 -0.30969828 -0.22165819 -0.21988544  0.22101808  0.13185427 -0.24590144
  0.18265432  0.19336939  0.09238811  0.29249915  0.24055739  0.37874398
 -0.5278969   0.32213745]
[ 0.45080864 -0.06044055 -0.15755555 -0.09499232  0.08738121  0.20818761
  0.18850318  0.09240907 -0.00951859 -0.40121725 -0.21162824 -0.25828817
 -0.00657604 -0.336191    0.0857757   0.37606174  0.09925418 -0.30012763
  0.06900077 -0.31356734]
[ 0.3314192  -0.6975103  -0.203499    0.17807157  0.06290909  0.34936482
  0.07820768 -0.15958947  0.00811709 -0.4368059  -0.49929214 -0.09095775
 -0.02615907 -0.05682471 -0.5567571  -0.01430845  0.24957246  0.13263269
 -0.29960138  0.18855053]
[-0.3839878  -0.19660135  0.14317673 -0.24131855 -0.278709    0.13794936
  0.12549195 -0.05455175 -0.38377008 -0.12277022  0.24311975  0.5301631
  0.25858447  0.73956716  0.36085802  0.52864933 -0.34319344 -0.10473897
 -0.1298992  -0.16399118]
[ 0.20661394 -0.38754308 -0.13356371  0.3491416   0.14083421  0.2953916
 -0.38223615  0.31722462 -0.25691745 -0.00796747  0.20520365  0.04686066
  0.31733966 -0.29097208 -0.33935016 -0.16621934 -0.32782036 -0.17810246
  0.08301007 -0.1362638 ]
[-0.10654888 -0.30466437  0.03388678  0.44933924 -0.24275792  0.3320961
  0.49394378 -0.03210719 -0.26909092 -0.09723428  0.41103995  0.37420157
 -0.33255154 -0.12639554  0.1368427   0.32630047  0.42321756  0.20638815
  0.23796204 -0.10875147]
[-0.74439     0.450319    0.71577454  0.1455728  -0.20049849  0.49895266
  0.12139587 -0.16038753 -0.01545323  0.48354352  0.09857181  0.03470372
  0.34762532  0.35743627  0.6435599   0.29695347  0.24052641 -0.26006618
 -0.10558575 -0.5347723 ]
[-8.8710070e-02  2.0446387e-01 -3.6511561e-01 -4.1380563e-01
  1.2806678e-01 -5.3383005e-01 -3.4290770e-01  2.6231399e-02
  3.3896640e-02 -1.7251375e-01 -5.0090867e-01 -7.5284082e-01
 -6.4307734e-02 -7.3845607e-01  2.6304720e-02 -1.5264256e-01
  3.4781927e-01 -4.2450330e-01 -7.5998658e-05  5.0895512e-01]
[ 0.1672647   0.32726038  0.57981986  0.00378622  0.43759862  0.00225778
 -0.17426753 -0.07493015 -0.37865716 -0.19171654 -0.41011828  0.10764983
  0.3575548   0.45690128  0.29348293 -0.13958196 -0.16543816  0.09398134
  0.21134771 -0.26498315]
[-0.2349585  -0.3685626  -0.2298809  -0.20352164  0.3651798   0.21770003
 -0.15696442  0.08703182 -0.31940117  0.40883482 -0.16779609 -0.06023273
 -0.4588053   0.20850056 -0.0025375  -0.5063993  -0.29552767  0.0672458
 -0.15150067 -0.20337665]
[-0.28669187  0.10143375 -0.21098818 -0.18196657  0.1802012  -0.3266392
 -0.18632463  0.33658788 -0.24511303 -0.26690936  0.31531063  0.06621756
 -0.08833174  0.34416744 -0.27100515 -0.02296142  0.29135743  0.23415282
  0.3894449   0.08708289]
[ 0.07158276 -0.11511566 -0.1849593   0.48046866  0.01857149 -0.12286522
 -0.3314844   0.17093097  0.0557313  -0.14584199  0.25172806  0.20035148
 -0.0811481  -0.17950964 -0.08442293  0.18553774  0.08985232  0.21932104
  0.13012965 -0.31050408]
[ 0.47705597  0.23739895  0.30281854  0.6381686   0.00457957 -0.01125243
 -0.2460902  -0.00583682  0.40528044 -0.15957874  0.20083107  0.07609179
 -0.16534631  0.03330957 -0.121166   -0.1256827   0.19696213 -0.02351397
  0.07632867  0.064811  ]
[-1.3035390e-01 -4.9824629e-02  4.5544936e-04 -2.4425410e-01
 -2.8799584e-02  4.1786738e-02 -6.4047866e-02  5.4877937e-02
 -5.3152580e-02 -2.2007331e-02 -1.8114053e-01 -8.0733811e-03
 -2.1751368e-04  9.8488815e-02 -1.1979075e-01 -3.8743842e-02
 -2.1644970e-02 -6.8197809e-02  1.1735541e-01 -3.2821827e-02]
layer 1 Activation
tanh
layer 2 Dense
20 40
[-0.02930868 -0.10277265 -0.04312411  0.20120771  0.12036804 -0.1575466
 -0.23999004 -0.0176652  -0.22772245 -0.02295755  0.15755512 -0.06683391
  0.12944518  0.3537252   0.13083082 -0.08751195  0.34949735  0.00345822
  0.39328608  0.3178909  -0.00081883 -0.11110459  0.13296184 -0.10860908
  0.11763202 -0.16431981 -0.3003852   0.0041656  -0.24743554 -0.03493429
  0.16323148  0.17999858  0.33696327 -0.12193009  0.4879081   0.05295791
 -0.33420852  0.04383922  0.17071882  0.30900136]
[ 0.2561447  -0.05487435 -0.185907   -0.22748785 -0.2956741   0.21702011
  0.26492438  0.00745866  0.03674012  0.03735734 -0.02610683  0.17340061
  0.05513515 -0.37327507  0.15033837  0.24292445  0.17832126  0.10039351
 -0.04594821 -0.2685559  -0.1163533  -0.05794785  0.3041693  -0.27223724
  0.08580855 -0.10431086 -0.1273212   0.11837111  0.12005042 -0.24217385
  0.15198615 -0.1866199  -0.16697481 -0.04135785 -0.001013   -0.21440718
  0.19172405 -0.07195769  0.35135263  0.04661279]
[-0.18691309 -0.08710384 -0.00325014 -0.35210225 -0.18092228 -0.32729524
 -0.14051464 -0.08115456 -0.05640448  0.15233897  0.03829363  0.12629703
  0.20771545  0.16194694 -0.07508464 -0.29826766  0.07972202 -0.30819827
 -0.22339015 -0.22995016  0.03345482 -0.00284664 -0.3721897   0.20396292
  0.27123308  0.2667204  -0.00300249 -0.25215387 -0.2762714   0.34289637
  0.40569782  0.23187442  0.11975628  0.01785156 -0.24017113 -0.07945803
 -0.15102424 -0.1548336  -0.18816666 -0.09975205]
[-0.0595077   0.2128382  -0.06562313 -0.41878647 -0.07170659  0.10916337
  0.10265566 -0.11935133 -0.36544675  0.19239542 -0.01579352 -0.17945473
  0.18477005  0.6337478   0.0820348  -0.33545512  0.47863802 -0.31408077
  0.11446761 -0.22685021 -0.10516513 -0.00218121  0.0267338   0.05774586
 -0.04494898 -0.19832936 -0.23092814  0.02482328 -0.05807746 -0.2934332
 -0.00393781 -0.09826752 -0.23186772 -0.04844425  0.1324973   0.10275103
 -0.30068874 -0.11078526 -0.04057438 -0.21949615]
[-0.38695037 -0.18726413  0.20235543  0.33389     0.1543878   0.04491376
 -0.07278422  0.28493607 -0.22795954 -0.29784143 -0.31602815 -0.29363304
 -0.31263155  0.4130319   0.05861867  0.10994925 -0.21713014 -0.29836202
  0.2273358   0.10899528 -0.07588766  0.20417967  0.15483044  0.25755244
  0.12208791  0.24687645 -0.31530976 -0.12862134  0.30979505  0.22587477
 -0.21972263  0.06853639  0.16602197 -0.33254156  0.00365978  0.12022536
 -0.22533043 -0.20386025  0.2725418   0.1777423 ]
[ 0.24173486 -0.08599486 -0.12468636 -0.0399819  -0.03962347 -0.06268998
  0.02642201  0.01880228 -0.1616016   0.05513939 -0.08676616  0.20548744
  0.0321338  -0.22633035  0.08510907  0.00659796  0.25635743  0.11017407
  0.15240008 -0.14293894 -0.14786972  0.11866675 -0.10801214  0.02877393
 -0.16543175  0.20954472  0.15314241 -0.23580328  0.04958652 -0.08833193
 -0.25162566 -0.10753448  0.20800658 -0.24805999 -0.26489162  0.17463973
 -0.28859624 -0.02895281 -0.04926573 -0.13626973]
[-0.09390777 -0.07370361 -0.25737903  0.05327962 -0.10148936  0.17451441
  0.25021017  0.1226434   0.13399625  0.22445834 -0.25633347  0.23306127
 -0.1789477  -0.14918144  0.22423032 -0.19514807 -0.04875872 -0.2719427
  0.06999169  0.18865085  0.11968679 -0.25546068 -0.27911338 -0.38067397
  0.22124347 -0.3213005   0.04523106  0.02957508 -0.08462665  0.11875188
 -0.14904486  0.05402356 -0.03410555  0.13815874  0.01570186  0.14313346
 -0.05034076 -0.10626078 -0.18772234 -0.19041395]
[ 0.01450804  0.11729664 -0.22952425  0.00538431 -0.27275866 -0.10672483
 -0.13016874 -0.13637029 -0.21533069  0.03252033 -0.19067061  0.07185795
  0.02446148 -0.15075429  0.08195696 -0.15184131 -0.10870733  0.23405233
  0.31373823 -0.2266704   0.15003249  0.03312799  0.2902721   0.1409138
  0.25949523 -0.02465695  0.16894703  0.1379179  -0.03535219 -0.29759386
  0.24175313 -0.00644614  0.26250634 -0.00254978 -0.2611388  -0.13834062
  0.22619595 -0.16662015 -0.07711115  0.11081187]
[-0.19146547  0.11189168 -0.08290446  0.1575877   0.00709338 -0.16507658
 -0.29681027  0.13854662  0.28460604  0.02096306 -0.10344871  0.2401148
  0.11186416  0.12936625 -0.09552577 -0.05813622  0.3421837   0.00846425
 -0.03775383 -0.01074008 -0.10045274 -0.09358121 -0.28437477 -0.08755697
  0.07887056 -0.14390601  0.05350501  0.29264954  0.40011272  0.00359699
  0.12433214  0.11279237  0.04274289  0.39635044  0.23132269 -0.2853908
  0.03943281  0.05329869  0.3079879  -0.11631932]
[ 0.05051867  0.06246175 -0.09387109 -0.4009445  -0.15886962  0.20633253
  0.04290112 -0.08493286  0.06306581  0.02937009 -0.00746352 -0.09902503
 -0.12276763  0.3902575  -0.09380822 -0.16816331  0.36675918 -0.19886857
  0.09950075 -0.4095675  -0.1441267   0.1582847  -0.06212975 -0.16957326
  0.05384181  0.23485753  0.00167226 -0.23454343  0.33616626 -0.29120064
  0.10220574  0.00310174  0.11830241 -0.19046149 -0.43866315  0.11477799
 -0.15949693 -0.28870684  0.0282693   0.02328687]
[ 0.22627759  0.06110753  0.1038643  -0.0623239   0.02301603 -0.34995148
 -0.12742211 -0.29232198  0.28757802 -0.30473667 -0.01411118 -0.10516464
 -0.23663414  0.08049453 -0.25549483 -0.3847524   0.29659235 -0.22985226
 -0.2748052   0.12655039  0.02812029  0.23192148  0.16347027 -0.06677789
 -0.14070453 -0.05378378 -0.23641199 -0.18469782 -0.2524803  -0.11335054
 -0.16471687 -0.13881138  0.23309915  0.13328145 -0.3077084   0.18034628
  0.25476128  0.17103353 -0.10671134 -0.04053877]
[ 0.15318689 -0.36426017 -0.18488665  0.02532286  0.01480091 -0.02905047
 -0.20989439  0.02859686  0.22659187 -0.17201683 -0.18481937  0.26006222
  0.07786773  0.16826093 -0.29508048  0.14227211  0.42253363  0.07923142
 -0.24545096  0.0759272   0.35732287 -0.07412534 -0.27777904 -0.3751069
  0.2717415   0.07901812 -0.07891284 -0.33240044 -0.4136369   0.02149156
 -0.0812637  -0.2026785  -0.05716727 -0.2658525  -0.0805715   0.0519158
 -0.11016914 -0.18723601 -0.337944    0.3649621 ]
[-0.10928845  0.02123127  0.15670295 -0.12439242 -0.04792282 -0.3469014
  0.17919554 -0.28735054 -0.0923281   0.07759113  0.08105585 -0.13753355
  0.30842295 -0.08102304  0.07273442 -0.12391032  0.07795054 -0.3523004
  0.13441892 -0.16568616 -0.18566583 -0.13980073 -0.43677488 -0.05097163
  0.10469303 -0.00842564  0.14792989  0.07345792  0.04186608  0.20250657
  0.26244947  0.22321232  0.25138843 -0.23812714 -0.1382958   0.18632141
 -0.2535896   0.17985785  0.18935284  0.02715252]
[-0.31762478 -0.19224782  0.07854246  0.07835825 -0.03540839  0.04234222
  0.3226253   0.1342666  -0.29097807 -0.36390707 -0.02014153 -0.00348786
  0.24257602 -0.22278236 -0.14808056  0.18763681  0.23127872  0.00107618
 -0.5456102  -0.02327915  0.01535824 -0.11861    -0.2964425  -0.4832373
 -0.14412421 -0.15301941 -0.26426426 -0.41174826 -0.3363009  -0.39529487
  0.09185196  0.05901986 -0.14286235  0.0864183  -0.31155542  0.11252615
  0.28353187  0.18198633 -0.00732894 -0.04380417]
[ 0.3185999  -0.28815988  0.15995987 -0.26012823 -0.24471226 -0.2568915
  0.43982288  0.03432095  0.36111295 -0.21976064  0.01613013  0.3237465
 -0.09082884 -0.24310772 -0.1667136   0.07170554  0.16652986 -0.3384965
 -0.14369266  0.09918129 -0.1977962   0.11139665  0.22350125  0.04700432
 -0.24729401  0.39935756  0.06122908 -0.22685987 -0.09742549  0.06667388
  0.01395411  0.04114369 -0.11349995 -0.17542428 -0.15675987  0.26195958
 -0.18055062 -0.15988582 -0.26466098 -0.4102444 ]
[-0.09595583  0.05276975 -0.15388511 -0.38968256 -0.20050848  0.14926092
  0.2889366  -0.3378577   0.15408678 -0.17984556 -0.12849681 -0.23058274
 -0.02050463 -0.15114729 -0.25760114 -0.37931123  0.33764684 -0.00907411
 -0.10741819  0.3286409  -0.13821478 -0.28058216 -0.04778825  0.26476878
 -0.11794497  0.08335261  0.15254417 -0.104818   -0.52114403 -0.02485308
  0.0633504   0.3012862  -0.1681593   0.2897056   0.10810798  0.04069723
 -0.2006921  -0.06080682 -0.28302103  0.03645253]
[ 0.31988516  0.16579653 -0.2397327  -0.29600754 -0.01687312  0.05401422
  0.10137951 -0.3044235   0.1904049   0.30679825 -0.00823248 -0.37105334
  0.12181687  0.41423595  0.08367814 -0.2208335  -0.15908048 -0.23255657
 -0.08817077 -0.27175862 -0.14834042 -0.21133089  0.36958224  0.36040553
 -0.09077457 -0.302214   -0.10982574 -0.08952859 -0.0414301   0.26967666
 -0.21039158 -0.01266504  0.2175326   0.16673917  0.21903805 -0.26376897
 -0.12521441  0.01438487  0.22007662 -0.26717508]
[ 0.071073    0.1368248  -0.14606433  0.21302463  0.04341494  0.12826402
  0.24275875  0.06498356 -0.09121621  0.07355417  0.181297   -0.22483933
 -0.02479918  0.32093793  0.18475434 -0.21023253  0.25269082  0.17290755
  0.24901788 -0.13581675  0.16207273 -0.11116051 -0.1319788   0.15021303
  0.1861982   0.2710075  -0.09688661  0.23617241 -0.06750086 -0.11800981
 -0.22838534  0.25120687  0.14016873 -0.21875578 -0.16921413 -0.0220397
  0.18610035  0.14940234 -0.22339295 -0.11065686]
[ 0.2049416   0.27268556 -0.1568216  -0.26646742 -0.1343868   0.28464544
 -0.30045307 -0.17396343 -0.12943062 -0.01910222 -0.18260781  0.20938693
 -0.34471643 -0.29342782  0.02170544  0.03825263 -0.34518293 -0.23679087
 -0.14145327  0.0214863  -0.09178333  0.1922484  -0.24016057  0.08539841
  0.05795982 -0.11506257  0.35481966 -0.02217572  0.2352534   0.19791377
 -0.2805935  -0.22564533  0.14630349  0.07421388  0.05857522 -0.02879973
  0.08323175 -0.01709376 -0.01173175  0.40162635]
[ 0.1311051  -0.16325153 -0.05425885  0.24931969 -0.17185393  0.06488077
  0.1215697  -0.14460588 -0.25092658  0.24961378  0.08254632  0.27545848
  0.2710291  -0.27106577  0.09732519 -0.04365997 -0.32776436  0.1264461
 -0.02575271  0.0181959  -0.00411107  0.14117332  0.09958014 -0.10764419
  0.19059971 -0.20908813 -0.1213474   0.3114023  -0.22422902  0.06037541
  0.25860664  0.30374342  0.219051   -0.24510533  0.13600352  0.1361237
  0.14715716 -0.3306994  -0.18737303  0.04003194]
[-0.12733512 -0.00970595 -0.01962637  0.03054089 -0.02109043  0.05476115
  0.00578551  0.02989408 -0.04718027 -0.00750147  0.01974761  0.13976519
  0.06026076 -0.12426739 -0.0204496   0.13857573 -0.10836869  0.02974463
 -0.01813383 -0.05827828 -0.00303104  0.04389675 -0.04383927 -0.0217248
 -0.06741484  0.01112295  0.06458837  0.06829614  0.1063943  -0.03615154
 -0.04255242 -0.03421515 -0.07013042 -0.04030921  0.05309998 -0.01922609
  0.04643445 -0.00266837  0.0789939   0.11672871]
layer 3 Activation
tanh
layer 4 Dense
40 20
[-0.1253203   0.05913401  0.06717144  0.08415142  0.11209299 -0.3169366
 -0.28644627  0.2086836   0.1586531  -0.28350243 -0.08461597  0.04483431
 -0.24219424 -0.09407786  0.0752551   0.08431344  0.32405376  0.08940355
 -0.12493899 -0.23394267]
[-0.10860404  0.04329316 -0.03456637  0.17710756 -0.09286699  0.11604263
  0.04461053  0.01945569 -0.11033832  0.15010066  0.15741871  0.01845337
 -0.02393529  0.27260128 -0.1472349  -0.07242627  0.25898296  0.19910544
  0.26045188 -0.30042833]
[-0.19579656 -0.06837783 -0.14607519 -0.1593909  -0.17323078 -0.0489144
 -0.00547254  0.20458528  0.19857639 -0.2047323   0.2681692  -0.24409339
  0.05747833  0.00033779 -0.15356916  0.33609852 -0.19282703  0.07565381
  0.18749306 -0.11203585]
[ 0.13895166  0.13783328  0.15730642 -0.36381975 -0.29102698 -0.14477263
  0.15977994  0.20841685 -0.00388748 -0.28968313 -0.15276802 -0.099292
 -0.37124228 -0.07145597  0.00393687  0.12963322 -0.34814426  0.25012243
  0.3145047   0.13511157]
[-0.1503615   0.31101432 -0.20432758  0.23451734 -0.21484001 -0.04236595
 -0.11428778 -0.1359351   0.00478392 -0.05227996  0.080353   -0.06049954
  0.3049525  -0.20888492 -0.2666976  -0.23921168 -0.13221818 -0.03321392
 -0.16289076 -0.03366428]
[-0.17524043 -0.16210246 -0.17215392  0.27636948  0.06876399  0.01848386
 -0.34815106 -0.0085262  -0.22485328  0.20573238  0.11308074  0.2520778
  0.11322533 -0.25296187  0.07649747 -0.22494295  0.10636053  0.27692562
  0.11677474  0.268088  ]
[-0.15225522 -0.20274495 -0.242559   -0.08108018  0.02045796  0.07099876
  0.11216775 -0.15292326  0.3175361  -0.29152635 -0.18013537  0.27650458
 -0.08876085  0.16966014  0.14575326  0.3346356   0.12183974 -0.24105926
 -0.1056973   0.24902038]
[ 0.16061775 -0.07241352  0.25405207 -0.23883463 -0.31736404 -0.15429103
  0.06542635  0.16351026  0.1426887   0.04801283 -0.04377532  0.25877446
 -0.16252504  0.10934573 -0.1327828   0.28227532 -0.04550543  0.22341621
  0.16518065  0.09102962]
[ 0.12323355  0.01618376  0.07636321 -0.0416019   0.3266913  -0.2703863
 -0.03664879 -0.13484122 -0.01935341 -0.0801565  -0.2762952   0.0642134
 -0.2338478   0.07197139 -0.24932851  0.18256386  0.21801592  0.1048352
 -0.23793174 -0.14646338]
[ 0.23510487  0.2923957   0.18753985 -0.22278649 -0.13797414  0.18302208
 -0.22938307  0.00687097 -0.39733127  0.21504034  0.24287164  0.18647899
 -0.13505371 -0.20856312  0.22642565  0.12123701  0.19193456 -0.15127067
 -0.2268383   0.23538879]
[-4.08513807e-02  7.80028701e-02 -6.13328144e-02  2.10060135e-01
 -1.95733860e-01 -1.33193331e-02 -2.50613630e-01  4.39810492e-02
 -2.84308791e-01 -1.17801882e-01  6.07341565e-02 -1.82705708e-02
 -1.82831690e-01  1.45545289e-01 -6.89138994e-02 -2.68947682e-04
  2.03836307e-01 -1.22766145e-01 -1.12605654e-01  1.33420661e-01]
[ 0.24280475 -0.25249738 -0.00643426  0.29717126 -0.2000957  -0.17251186
 -0.24177974 -0.10847131 -0.06236627 -0.12677608 -0.01942299  0.14369465
  0.08668973  0.17241494  0.13205677  0.2140808  -0.15206122 -0.10414649
  0.07098505  0.14983356]
[-0.25151527  0.08091965  0.15339188 -0.04807118 -0.14706254  0.12301737
 -0.2058156   0.1870976  -0.2110773   0.22551396  0.06366572  0.22751689
  0.27809018  0.00613962 -0.34061584  0.32792634 -0.1453834  -0.2760942
 -0.1526279   0.22162442]
[ 0.3043062  -0.11365924  0.10545018  0.20696093 -0.2395405   0.10924822
  0.09005307 -0.19896717 -0.21494     0.05567037 -0.17050679 -0.08356268
 -0.13250633  0.1179413  -0.28232208  0.13496482 -0.12207218 -0.22062089
 -0.18660615 -0.41869354]
[ 0.18116504  0.19097215  0.262486   -0.27600184 -0.24127027 -0.18676935
  0.10692472  0.22489688  0.15953793 -0.32546318 -0.11047196  0.03245089
  0.153576    0.1543322   0.2916813   0.0436932   0.15531194  0.07532408
  0.24121322  0.04873213]
[-0.09300809  0.2552141  -0.18274613  0.04216217 -0.1647907  -0.14726275
 -0.2513483  -0.26041594  0.20268634  0.15891643 -0.0217592   0.15572695
 -0.2953467   0.06225753  0.22296025  0.22424147 -0.29115558  0.34130043
 -0.15275504  0.24878007]
[ 0.22805318 -0.22666484  0.02033491 -0.02819895  0.0105039   0.17607993
  0.05579191 -0.25198525 -0.0040322   0.14873931  0.11096688  0.01554796
 -0.21378562  0.04944851  0.22318543 -0.28468436  0.10496935 -0.13181046
 -0.22122079  0.02417024]
[-0.3250377   0.11513398  0.14356162  0.22954287 -0.01781583 -0.25410977
 -0.04926232 -0.3249696  -0.3479139   0.1820861  -0.25600886 -0.11476745
  0.04851511  0.13603641  0.05767066 -0.20253953 -0.12082466  0.27054584
 -0.11477678  0.2142782 ]
[ 0.2619346   0.15722649  0.366903    0.17647466 -0.17702125 -0.10509531
  0.25642398  0.09106743 -0.08593551  0.26377052 -0.07429276  0.33022895
  0.00980395 -0.01830796  0.25595143  0.13907734  0.26483518  0.07084256
 -0.04695224 -0.3719106 ]
[-0.18890288  0.26489145 -0.25210345  0.10882991  0.1276235  -0.2310496
 -0.09695299  0.01063552  0.06217131 -0.03621203  0.21453832  0.33356753
 -0.01424213  0.21067493 -0.27873322  0.00515314 -0.04928666 -0.07132183
  0.03963653 -0.2475734 ]
[ 0.03403539 -0.05433762 -0.1540501   0.33598813 -0.19073698 -0.12619336
  0.18705443  0.14531     0.3330087  -0.1374341   0.23399806 -0.36924046
  0.0919953  -0.03522277 -0.23043184 -0.14221096 -0.14454567  0.10273419
  0.03124905 -0.25491688]
[ 0.17390676 -0.23131399  0.15768175  0.14522909 -0.25414443  0.04182518
  0.12968956 -0.01619984  0.2977805  -0.13196388  0.07353522 -0.13434002
  0.22478004 -0.16579467  0.05803238  0.0352059   0.218458    0.25301751
 -0.01860497  0.25352547]
[-3.12221497e-01  2.93063164e-01 -1.07598118e-01 -3.03780824e-01
 -2.89156497e-01 -8.50194395e-02 -2.79647171e-01 -2.94952479e-04
 -3.09227049e-01 -3.32099229e-01 -1.09391816e-01  1.90342233e-01
  9.97354686e-02  1.12954579e-01 -3.80494781e-02 -1.96163371e-01
  3.91291976e-01 -2.84100890e-01  3.64114225e-01 -2.64605522e-01]
[ 0.17312501  0.19225314  0.00253696  0.21340013 -0.2339607  -0.16039419
 -0.24166     0.06553576  0.18804716 -0.09597761  0.13845688 -0.1816229
  0.16326582  0.07452298  0.08659039 -0.31429553  0.29366145 -0.28228125
 -0.2567049  -0.19820184]
[-0.0731207   0.21520667  0.28562334  0.1375983   0.10495743 -0.06811419
  0.00240369 -0.13604316  0.0093772  -0.15797928  0.00400645 -0.06410654
  0.22550899  0.11216081 -0.04644188 -0.14607966  0.1279368   0.01386236
  0.10002664 -0.17864433]
[ 0.24535662 -0.14773943 -0.22795275  0.11311813 -0.03634342 -0.0295092
  0.08826993  0.24820668  0.30924135  0.24156252  0.16116568 -0.16773571
  0.1604323  -0.18991207  0.34023207  0.12157258  0.19503316  0.3096089
 -0.28821442 -0.29202655]
[ 0.11812045 -0.18553469 -0.130102   -0.08216231 -0.02711719 -0.16615435
 -0.23654328 -0.2395588   0.1804126   0.13320264  0.18860756  0.00640779
  0.03867257 -0.08190221  0.10318509 -0.0289642   0.18115713  0.1690683
 -0.3068628   0.03073694]
[ 0.2896526  -0.06240418  0.12951492  0.1844747  -0.29685012  0.11551829
 -0.15202707  0.12455877 -0.18652341 -0.07246491  0.07094646  0.05492165
  0.02986418 -0.0271767  -0.11400931 -0.08450343 -0.07834924 -0.1233417
  0.29602548  0.3347343 ]
[ 0.04571418 -0.02667462 -0.04784011  0.10955901 -0.294442    0.21991049
  0.2232826   0.03683337  0.02120631  0.31765044  0.11875635  0.12760484
  0.11129139  0.21276079  0.13926221 -0.1636685  -0.3181846   0.23546483
  0.16520177  0.02589088]
[-1.2358248e-01  3.2158434e-01  1.4102787e-01  1.6127072e-01
  3.3010554e-01 -8.4675550e-02  2.0879915e-02  5.2421056e-03
  2.6562342e-01 -2.3470785e-01 -1.7181338e-01 -1.4253247e-01
  1.4645736e-02 -1.4519367e-01  5.5629294e-02 -2.5524229e-02
  1.1186334e-01  2.4113347e-01  8.5922904e-05  1.1596493e-01]
[ 0.01198786  0.03798565  0.1229234  -0.07798484  0.18214436 -0.0838514
  0.2582819  -0.01379938 -0.10734627 -0.3323757   0.06183219 -0.1750662
 -0.19955741 -0.28100675  0.07019595  0.20758273  0.213942    0.05157902
 -0.2679339   0.22839354]
[ 0.2340135   0.10187459  0.24547288 -0.03368563  0.16945118  0.3153617
  0.10961168  0.1887273  -0.29741785 -0.0500637   0.15788738 -0.04793411
  0.2607237  -0.18117341 -0.2773292   0.13568671  0.25770533  0.04682784
 -0.16109481  0.00970887]
[-0.2160954   0.26053724  0.20848897 -0.05460158  0.23285861  0.12106398
 -0.24116787  0.2120109   0.09238699  0.00830163  0.16933103 -0.19938774
 -0.13646823 -0.1407945  -0.104542    0.00668348 -0.05643416  0.2111197
  0.26099366 -0.29343888]
[-0.0582726   0.21855754  0.242055    0.09210623  0.38219294 -0.01062933
  0.06331818 -0.18697497  0.04765229 -0.19051324  0.08878729  0.22646467
  0.21577308  0.11116787  0.03471292 -0.03539928  0.03559027 -0.04390242
 -0.07535031 -0.01417101]
[ 0.24928823  0.31536874  0.33372572 -0.23855533 -0.2612092  -0.18380919
 -0.08161281 -0.2422296  -0.24231395 -0.2394525   0.08155686 -0.1949822
 -0.00345834  0.25466496 -0.26465988 -0.32809815  0.10875401 -0.08751006
 -0.02167592  0.09574312]
[-0.22529298  0.1928305   0.25907844 -0.3526982   0.12220759 -0.13478535
  0.21048091  0.01168629  0.26211715 -0.00734456  0.13959263 -0.06888852
  0.02057697 -0.14501138  0.1441118   0.14850907 -0.34495154 -0.16108695
 -0.07790259  0.11232319]
[-0.1678431   0.01837252  0.23368552 -0.30059856 -0.10663673 -0.17327377
  0.3055503  -0.25956777  0.23068683 -0.03826379  0.08193831 -0.19476709
  0.17341404  0.06979702  0.09693699  0.17020825  0.26104385 -0.21215072
  0.2668531   0.27637777]
[ 0.0663463   0.17915992  0.15325946 -0.35684103  0.16681354 -0.15936881
 -0.01538847  0.07844414 -0.07528704  0.02936354 -0.3103035  -0.04813599
 -0.14563179  0.0106056  -0.1251734  -0.2893146  -0.34667674 -0.1873758
 -0.08705803  0.20387268]
[ 0.32294905 -0.05610824  0.24937047  0.05320831 -0.0225095  -0.04717978
  0.02313197  0.02585498 -0.18828946 -0.12090011 -0.15262602  0.15758923
 -0.1881337   0.1690288   0.2771494  -0.1375291   0.01299594  0.27071464
  0.29614526  0.19146611]
[ 0.30543888 -0.24262625  0.13911797  0.20851924  0.10492941  0.06423681
  0.05427681  0.065658   -0.27408335  0.08552823  0.14154764 -0.24278826
 -0.08215405 -0.2548305  -0.06782635 -0.25875816  0.00212181  0.28384706
 -0.0111075   0.1582708 ]
[ 0.00060348 -0.0661221   0.05517318  0.0366584  -0.05238677 -0.00798398
 -0.00536291 -0.02687447 -0.03523667  0.01165971  0.01058269  0.01646577
 -0.00151932  0.01805978  0.03512496  0.00125065 -0.0236304   0.03888807
  0.00365313  0.05990307]
layer 5 Activation
tanh
layer 6 Dense
20 1
[-0.26258367]
[-0.38762426]
[0.1872008]
[-0.04589371]
[-0.37272272]
[0.2908904]
[0.00012383]
[0.01063395]
[-0.07810192]
[-0.28547445]
[0.00534455]
[0.1033276]
[0.0055243]
[0.00268746]
[0.11499642]
[-0.24281952]
[-0.24076045]
[0.30231604]
[-0.36397824]
[-0.33565673]
[0.02855394]
