layers 7
layer 0 Dense
20 20
[ 0.22190648 -0.2075745   0.26507038  0.5079884  -0.5525074   0.23118585
 -0.32930705 -0.5443846  -0.47423404 -0.12408467 -0.13576858  0.2811634
  0.28714612 -0.4479414   0.5435437   0.39113796 -0.22806379  0.5719904
 -0.2701835   0.38460067]
[ 0.7350077  -0.15592137  0.64750385 -0.36812422 -0.07993612  0.3208969
 -0.64373356  0.7980075  -0.4189183   0.0552797   0.70729667  0.05959927
  0.56359494  0.23139746  0.15371466  0.24541974  0.29824007  0.05528259
 -0.36187553 -0.45808348]
[ 0.74608076 -0.6048914   0.9473288   0.24536534 -0.1566339  -0.14657038
 -0.82512     0.6450814  -0.3385957  -0.58538693  0.41087386  0.1988233
  0.7773956   0.00914178  0.01214685 -0.2595198  -0.04195834  0.06765854
 -0.5196899  -0.28076097]
[ 0.81592464 -0.42006528  0.07976966 -0.22323401 -0.66839653 -0.26295942
  0.01432756 -0.0143026  -0.5798626   0.23672266  0.4567829   0.39866847
 -0.07775677 -0.5472075   0.20624712  0.09238061 -0.51188326  0.44068134
  0.3495974   0.21451995]
[ 0.24174777  0.14153078 -0.33145538 -0.504438   -0.02217794 -0.28816643
  0.6647185   0.42741027  0.06667346  0.02751467 -0.25771707 -0.1812371
  0.13284452  0.40289152 -0.23817204 -0.09612565  0.2526868  -0.46165967
 -0.31576407  0.5336704 ]
[-0.2665616   0.4721385  -0.1764105   0.42562374  0.22426356  0.24090835
  0.43462366 -0.40912405  0.23995432  0.08549656 -0.26324567 -0.08701608
 -0.5226238  -0.6974036   0.1603309   0.19574288 -0.01688972 -0.15252374
  0.81223553  0.1288344 ]
[ 0.22568692  0.1539182  -0.59181654  0.04294799 -0.26999766 -0.06786774
  0.42399004 -0.6872936  -0.07576897  0.6471794  -0.25965986 -0.4295413
 -0.24562785 -0.00678033  0.23075074  0.5535678   0.10005049 -0.5014429
  0.4077555   0.01620248]
[-0.7597132   0.04944034  0.05427004 -0.39814612  0.6286982  -0.03527397
  0.38109994 -0.7375445   0.891157   -0.39108717 -0.6894678  -0.79366714
 -1.279631   -0.2802393  -0.57228696 -0.544258    0.3184307  -1.133982
 -0.28527603  0.41972703]
[ 0.06714648  0.0116804  -1.2224326   0.08303431  0.07126719  0.02849947
 -0.14609009  0.23170596  0.6122954  -0.72541535 -0.0601038  -0.26709238
 -1.431642   -0.2440719  -0.00590145 -0.23920065 -0.74117106 -0.39166492
 -0.4852365   1.1551669 ]
[ 0.88305485  0.09577545 -1.4795322  -0.01176871 -0.05782016 -0.26372048
 -0.15771823  0.07493057 -0.14062071  0.32945654 -0.5847589   0.5957208
 -0.40064684  0.16998412 -0.13017893  0.00177858 -0.20203575 -0.02896611
 -0.25137162 -0.25057706]
[ 0.0044436  -1.3366526  -0.47455245 -0.52609867  0.06012632 -0.04793072
 -0.17424954  0.16438736 -0.12153892 -0.77565026  0.6049073  -0.01802205
  0.90062207  0.79809076 -0.0739201  -0.07429145  0.04199057  0.11390284
 -0.7758797   1.5084405 ]
[ 0.98164505  1.0548695   0.60446656 -0.2179766   0.14159867 -0.22684935
 -1.0421783   0.84875804  0.0474799  -1.1217579   0.13450927  0.01366271
 -0.7626752  -0.10898001  0.34532875  0.64438516 -1.3562145   0.6612079
 -0.2583495  -0.18213838]
[-0.26985404  0.19883448  0.03448531 -0.06978118  0.30126816 -0.49983686
  0.468182    0.21043886  0.35564733  0.02801404  0.04664293  0.01824869
 -0.38527676  0.600405   -0.151848   -0.6416293   0.3105003  -0.6297294
 -0.7385915   0.1840182 ]
[-0.6589549   0.02305036  0.31141204  0.29111776  0.22337864  0.19614856
  0.56892043  0.17215556  0.01099707  0.40607154 -0.00919992  0.311375
  0.59895706  0.4481844  -0.30514944 -0.45142412 -0.13047402  0.08642653
  0.82107943 -0.6895414 ]
[ 0.31610695 -1.0861042   0.46745947 -0.32621774  0.14214931 -0.7929508
  0.31420782  0.23021998 -0.01632147 -0.16145398  0.34369695  0.08255963
 -1.430335    0.92157805  0.18725927  0.66544867  0.04297098  0.14542325
  0.9866219  -1.5809642 ]
[-0.07381576  0.21673024  0.6187331  -0.2863772  -0.41268864 -0.3556998
 -0.04942851  0.7704766   0.03587316  0.30505803  0.07659668  0.505341
  0.96354467  1.5835612  -0.5339872   0.16435179  0.4169584  -0.09893443
  0.27705345 -0.9423442 ]
[ 0.5920825  -0.02809061  0.05767073  0.15091857 -0.08744334 -0.17342795
 -0.17090982 -1.2875787   0.39252013  0.06818609  0.11230054 -0.02845958
  0.9450058   0.36115128 -0.63786155 -0.24412152 -0.72810024 -0.18902291
  0.8403245  -0.52964896]
[-0.05311863 -0.1272864   2.1989622  -1.2006571   0.2903768  -1.2423078
 -0.953963   -0.47445068  0.14019948 -0.92453897  0.86661977 -0.62400705
  0.79102284 -1.6795206   0.8462348   0.6282722  -0.07509018  0.00841498
 -0.03926323  2.3505607 ]
[ 0.23724677  2.5333068  -0.07187866  0.59269685  0.01192005  0.8270894
 -0.22129522 -0.31571677  0.05500106  0.92517877 -0.5220223  -0.03385885
  0.03368929 -1.8858619  -0.7192364  -0.7068191  -0.06977941 -0.0154852
 -0.3313173  -0.7487334 ]
[-0.96858656 -1.5878468  -1.3532009   0.9171904   0.4363514   0.26501626
  0.7633093  -3.700012    0.11939313  0.49816698 -0.45278966 -0.31141534
 -0.7864914  -1.8143768  -0.34862533 -0.20299292 -0.05290044 -0.63193464
  0.9266386   0.45928717]
[ 0.50142384 -0.2082666   0.3176662   0.11971951 -0.46822855  0.06825624
 -0.22576463  0.2037828  -0.55786806  0.12473625  0.40376583  0.5573496
  0.5351563  -0.20557792  0.4783847   0.4221722  -0.2429209   0.65605485
  0.26047355 -0.18254478]
layer 1 Activation
tanh
layer 2 Dense
20 40
[ 0.3176819   0.70623976  0.49798     0.0939643  -0.05950358 -0.28504732
  0.08176788 -0.65300214 -0.8773719   0.2704251   0.47628084 -0.8649997
  0.08476398  0.09829248 -0.1525294  -0.20125353 -0.26423997  0.63077223
  0.21141222  0.40758133  0.4437444  -0.19445547 -0.66878504  0.6839301
  0.39519826 -0.10542154  0.60601133  0.52238905 -0.6522993   0.1912752
 -0.32286015  0.7710007  -0.69853675  0.00633072 -0.56811506  0.1975603
  0.40635648  0.28775677 -0.44146416  0.37920484]
[ 0.12107401  0.14523266 -0.02974964 -0.35138482 -0.36336333  0.3394497
  0.4406552  -0.6056676  -0.26203945 -0.00556565  0.5814958   0.00104268
  0.5077847   0.31057268 -0.38845694 -0.55601615 -0.63277495  0.663101
  0.52681535  0.37009647 -0.16393454 -0.59057236 -0.07586605 -0.22827609
  0.17199454 -0.11410835  0.01578977  0.32584304 -0.74381906 -0.16994907
  0.3504957   0.04434656 -0.85364014 -0.97871476  0.27480388  0.67082244
  0.689566   -0.04655035 -0.4062786   0.15080772]
[ 0.34823802 -0.01814141 -0.5549441   0.4419171   0.0918439   0.7951808
  0.43102852  0.18601823 -0.6063626  -0.10465822 -0.09816434 -0.51527506
 -0.09668171  0.27989283 -0.3352502  -0.19371858 -0.9991939   0.69864345
 -0.2634596   1.082987   -0.41487637 -0.55731076 -0.85279757  0.17416273
  0.18059969 -0.76085365  0.86559206  0.95121115 -0.9920878   0.18681288
  0.6444061   0.3088208   0.21412708 -1.2771313  -0.17090748 -0.25159356
 -0.29266664  0.57741886 -0.719691    0.19742928]
[-0.09559314  0.24514042 -0.26387066 -0.59808266 -0.3998401  -0.35275868
  0.31848603  0.11799067 -0.05836173  0.64512724  0.61427176  0.48853534
  0.7927463   0.58693486  0.06928216 -0.2752074  -0.20505784 -0.33085588
  0.40106496 -0.10094523  0.17740391  0.552944    0.90204304 -0.08741377
  0.2783319  -0.1599356  -0.30163193 -0.28874177 -0.082752   -0.15343072
 -0.18355948 -0.25074637 -0.25537714  0.49413353  0.613403    0.3179734
  0.71200716 -0.42900595  0.00496947 -0.21513495]
[ 0.28213453 -0.40258917 -0.4176186   0.27952674  0.13783279  0.27539504
  0.28080723  0.31443295  0.22503132 -0.08087163 -0.2704574   0.6663494
 -0.6963156  -0.16804324  0.42879605 -0.04360111  0.35854822 -0.34126452
 -0.44315815 -0.09592929 -0.27187973  0.36062717  0.07349139 -0.44649243
  0.16200094  0.31296557 -0.22281125 -0.32521692  0.45303437  0.07428053
  0.20160204 -0.7261204   0.25086185  0.20570262  0.52792734 -0.10228639
 -0.39234918 -0.60486895  0.3692924   0.28103077]
[-0.40593487 -0.27720454  0.09050762 -0.20598868 -0.464077    0.05440245
  0.61628985  0.2565826   0.14465086  0.3189484   0.18792471  0.83275795
  0.45478874  0.3641687   0.21878344 -0.05010959 -0.16182847  0.06902453
  0.48950443 -0.0105199  -0.01791469  0.04364557  0.45063683 -0.11658775
  0.0562605  -0.2504576  -0.11322068  0.13032942  0.04709707 -0.42412856
 -0.37972334 -0.5192947  -0.19759832  0.02011727  0.36702353  0.62105507
  0.27047187 -0.41007695  0.06325569 -0.57822293]
[-0.50156486 -0.35139978  0.31867838 -0.09437632 -0.4341804  -0.04390486
 -0.41933185  0.29933998 -0.02069905  0.43463665 -0.05623027  0.3597019
 -0.5029238   0.10698333  0.03531376 -0.18887006  0.3022019  -0.1776744
 -0.22802967 -0.414951   -0.10302658  0.5581726   0.40641463 -0.3211537
  0.1182179   0.08842915 -0.50019187 -0.37955236  0.4219628   0.34186035
 -0.41698405 -0.23681274  0.08663028  0.7827002  -0.6445976  -0.41161996
  0.1670675   0.4257018   0.19451053 -0.21763283]
[ 0.11709949  0.10512294  0.6390551   0.00990915  0.17139998 -0.25635427
 -0.22834095 -0.21724054 -0.34450004 -0.35698938  0.06642038 -0.3373578
 -0.428444    0.07790266 -0.13575104  0.7002547  -0.4304694   0.77067524
  0.22554815  0.70301896 -0.23080675 -0.3216587  -0.7874799   0.2181716
  0.01388968 -0.66713727  0.60191137  1.1085823  -0.7878974   0.50890946
  0.25586048 -0.12919894 -0.6929994  -0.35622332 -0.33278206  0.07929169
  0.75094646  0.09614322 -0.7281441  -0.3684816 ]
[ 0.09891102 -0.713814   -0.08262367 -0.326954    0.0166116   0.3055108
 -0.32933334  0.11897729  0.4415071  -0.22644255 -0.04959879  0.11528192
  0.15796807 -0.1038942   0.39757615  0.20796911  0.14728929 -0.2827359
  0.10825587 -0.36330178 -0.22437759  0.5349063   0.03489329 -0.5748873
 -0.22237442  0.48119593 -0.30913314 -0.26843733  0.4705317   0.5560775
  0.25134915 -0.8590552   0.42655167 -0.44146428  0.52197635  0.23810203
  0.11189465 -0.0815332   0.34876075 -0.23556687]
[-0.6860879   0.14587493  0.09319475 -0.03025393 -0.4479974  -0.02517474
  0.50941247  0.2629348   0.0354315   0.5335115   0.6365307  -0.16428427
  0.63040864  0.5977208  -0.02308806 -0.07139984  0.23471044  0.04752661
  0.09191608  0.26270267 -0.37671077 -0.09101215  0.6608035   0.4041704
  0.09976388  0.01537568 -0.34870598  0.30608568  0.0513217  -0.0483308
 -0.22147156  0.39868122  0.17213902  0.48748404  0.21397926  0.3577172
  0.807024    0.10001225 -0.16412447 -0.6719925 ]
[ 0.2271403   0.20403893  0.0882538   0.4420251   0.35589957 -0.6261194
 -0.33309436 -0.15783082 -0.75061655 -0.03070213 -0.2912636  -0.7950486
 -0.08168421 -0.15775572  0.01677107  0.3140292  -0.02613269  0.03191172
 -0.36516017 -0.00204204  0.01816858 -0.34909493 -0.76757306  0.33210093
 -0.01789144  0.12448306  0.57054687 -0.36074525  0.19434838 -0.4498441
 -0.39293435  0.18011495  0.26891056 -0.19822976 -0.25809303 -0.47526783
 -0.7191306   0.48134276 -0.10654556  0.11593796]
[ 0.02832765 -0.17441987 -0.18874227 -0.47507253 -0.4466405  -0.8863972
  0.13666895 -0.43731055 -0.29790413 -0.1798839   0.14411947  0.05415694
  0.22087589  0.31536078 -0.01473546  0.12948483 -0.26897582  0.3711261
  0.31923145  0.4737543   0.20671396  0.21984847  0.22609718  0.43523028
  0.10176686 -0.31267416  0.30905765  0.06252307 -0.49604604 -0.34221452
  0.00570467  0.15706578 -0.7968317   0.40229085  0.02861758  0.44123614
  0.37149593 -0.33744672 -0.4201011  -0.44534418]
[ 0.4157477   0.2161024   0.03590933  0.41085488 -0.56561506  0.5676184
  0.6566403   0.02231765 -0.43581235  0.58378655  0.59672624  0.15926349
  0.37654632  0.66295546 -0.43638864  0.0425855  -0.9430087   0.9877152
 -0.20872578  1.1324735   0.07729761  0.15964136 -0.3661818   0.31988293
  0.08947303 -0.67068774  0.5066717   1.0222058  -0.7245542   0.11785857
  0.03512848  0.27069712 -0.76969874 -0.26604983 -0.42898685 -0.04417375
  0.4470431  -0.10445254 -1.029228   -0.419915  ]
[ 0.00318551  0.14236455  0.20005958 -0.51192653 -0.01273212  0.0869556
 -0.72045124 -0.47162738 -0.46625552  0.03858639 -0.17884846 -0.5846517
 -0.44716117 -0.3946216   0.13285238  0.93568707 -0.24152336  0.6551364
  0.69338095  0.48988223 -0.2964387   0.23203021 -0.47638947 -0.07262992
  0.05149443 -0.17424926  0.381529    0.880189   -0.73251826  0.7581166
  0.49672964 -0.0872712  -0.50252753 -0.1111018  -0.11846241  0.41249803
  1.3883      0.04694744 -0.43659157 -0.46254528]
[ 3.7562054e-01  7.9262145e-02  2.4007975e-01  5.5840743e-01
 -2.0279312e-01  1.5491939e-01  3.2806676e-02  2.3392225e-02
 -3.6324325e-01  1.8919604e-01 -6.5657467e-02 -1.3319470e-01
  2.8245085e-01  9.5297687e-02  3.8230639e-02 -1.7970222e-01
 -2.1147430e-01  3.6116236e-01 -9.0579845e-02  3.3952162e-01
  6.1284226e-01 -6.1580863e-02 -7.0992196e-01  4.8519632e-01
 -1.3173246e-01 -1.3731806e-01  1.0787423e+00  7.6229995e-01
 -9.9586926e-02 -4.8616728e-01 -1.0772352e-03  5.9115368e-01
 -2.7233362e-01  7.1776770e-02 -2.1070719e-01 -6.1747348e-01
 -8.1293955e-02  2.3659390e-01 -4.9501306e-01 -1.9482936e-01]
[ 0.08373174  0.02708448 -0.04628156  0.74001867  0.06249535  0.17854236
 -0.14063042 -0.14395393  0.08095975 -0.15398791  0.17354025 -0.33401272
  0.04810627 -0.29257298 -0.12721427 -0.0027889  -0.44935405  0.21026845
 -0.46444017  0.34287405  0.5750332   0.5908208  -0.6968997   0.25959677
 -0.21660149 -0.44798157  0.7446283   0.824626   -0.40140182 -0.11848535
  0.19342136 -0.05528541 -0.45753247 -0.04763405  0.25950003 -0.84086066
 -0.07029012  0.33054405 -0.49577707 -0.6436114 ]
[-0.31185848 -0.36654487 -0.18176496  0.35983258  0.28822175  0.1830774
  0.13786404  0.21399015  0.4366362  -0.12284453 -0.31650782 -0.17846218
 -0.06710257 -0.16409022  0.46370977  0.12645464  0.28859696 -0.33411902
 -0.23564956  0.39022154 -0.30423608  0.3747241  -0.0242397  -0.43089384
  0.06240109  0.56182504  0.3125013  -0.07435445  0.3924476   0.24021165
  0.44064423 -0.67615265  0.14796168  0.14507726  0.4703043  -0.12005901
 -0.36971194  0.02182274  0.11741011 -0.4096094 ]
[-0.14775597  0.6385473   0.08122442  0.43725592  0.09685949 -0.75290406
  0.458128   -0.14351378 -0.88481003  0.14662634  0.41888463 -0.22540799
  0.04718453  0.32006067 -0.820889   -0.4611024  -0.6933483   0.43014795
 -0.3214436   0.8616854   0.6079078  -0.27934715 -0.45458254  0.25338787
 -0.09629531 -0.6541924   0.04426813  0.17300196 -0.46144125 -0.7023437
 -0.24662834  0.9938339   0.03279469  0.13836777 -0.5682049  -0.10215066
 -0.3745904   0.28605437 -0.6494341  -0.0891365 ]
[-0.14158368 -0.24413277 -0.3644953  -0.3168918  -0.38312516  0.6584701
  0.4835747  -0.12311412  0.26960534  0.52978414  0.38308012  0.1653253
  0.49442616  0.3873026   0.09393923  0.30118468 -0.25806612  0.36106896
 -0.1217368   0.10055215 -0.06073293  0.6224271   0.03703376 -0.14286275
  0.251059   -0.07240026 -0.06223268 -0.17222548 -0.5091737   0.47916287
  0.5478105  -0.21651468 -0.27121544  0.1849956   0.20754455 -0.06213846
  0.42267215 -0.4958977  -0.5701073  -0.48517293]
[ 0.39925563 -0.33399022  0.11763333  0.6481568   0.17093354 -0.13259734
  0.02190443 -0.03903117  0.5591287   0.01177805 -0.8617327  -0.23398615
 -0.31990135 -0.07447723  0.5073148  -0.18282108  0.91088766 -0.7796019
 -0.56900036 -0.8523531  -0.00121741 -0.21274434 -0.19390215  0.03357843
 -0.09743156  0.60978293  0.13955107 -0.6759242   0.57335585 -0.49689305
  0.3970909   0.0778591   0.69913006 -0.06867703  0.55168647 -0.4407017
 -0.8155474   0.3706184   0.57300836  0.77629566]
[-0.07355298  0.6353711   0.12929644  0.49758607 -0.04688663 -0.41130707
  0.18285315 -0.21743932 -0.5229602   0.3215613   0.22293481 -0.3872526
  0.00442422  0.23589209 -0.4551452  -0.38369116 -0.44392526  0.28131706
 -0.11837588  0.6002353   0.29336017 -0.29664126 -0.29361445  0.42835855
  0.14755175 -0.36091852  0.06546298  0.14170341 -0.39127788 -0.40663418
 -0.4737442   0.8600934  -0.17934586  0.21498798 -0.6725897  -0.0759612
 -0.36119446  0.25000864 -0.42682043  0.05050513]
layer 3 Activation
tanh
layer 4 Dense
40 20
[ 0.24043615  0.14352728  0.0389228   0.48346362 -0.2421968  -0.10850853
  0.31765297 -0.13368674  0.08436117  0.36443993  0.01037887 -0.5723498
 -0.25027153 -0.04285214  0.08014644  0.10629639  0.04287492  0.32258534
 -0.09515579  0.4017457 ]
[-0.66498864 -0.46314743  0.7216477   0.39264685  0.21604988  0.8659984
  0.06295475 -0.4608393   0.45390627  0.17527047 -0.67690843  0.3848829
  0.6293288  -0.10658307  0.524331   -0.42913416  0.44223866 -0.15496364
  0.01061178 -0.16873305]
[-0.49380443 -0.6091251   0.5523884  -0.11121652  0.23733917  0.4960105
  0.24155879 -0.03256457  0.06160219  0.36056513 -0.419329    0.44000882
  0.21106817 -0.02159924  0.08208721 -0.09289463  0.39920908 -0.06285291
  0.1243257   0.34806344]
[-0.40457284 -0.2584779  -0.09051334  0.29644078  0.410368    0.48275068
 -0.01306327 -0.15365422  0.43784252  0.0410774  -0.3487331   0.16984488
  0.14731212  0.18536751  0.04528443 -0.5064387   0.31297773 -0.308868
 -0.6662048   0.10170099]
[-0.02692438 -0.31010115 -0.08250277  0.07154187 -0.17985722  0.3540677
  0.14362615  0.1796439   0.24520954  0.3784834  -0.2329567  -0.19331348
 -0.16715986  0.25865495  0.30840313 -0.12629633  0.15256739  0.18014166
 -0.07239198  0.20272961]
[ 0.34972212  0.2737765  -0.39432365 -0.02566156 -0.27082384 -0.72064394
  0.25986242  0.23757659 -0.2907915  -0.27789956  0.54091406 -0.5248778
 -0.22514893  0.07722996 -0.6968646   0.329523   -0.07538616  0.23129864
  0.32835716  0.10748651]
[-0.08352602 -0.2677006  -0.07788511  0.09800971  0.01750548  0.4924474
 -0.44682044 -0.3600627   0.05160641 -0.295522   -0.1692229   0.1769691
  0.1524916   0.19633171  0.27108073  0.11664621  0.10080143 -0.21344781
 -0.14192617 -0.3910619 ]
[ 0.43778658  0.22680156 -0.64979243 -0.01338238  0.17519215 -0.26382884
 -0.2706266   0.13283084 -0.16454218 -0.6424295   0.04296467  0.03488367
 -0.11012892  0.49546248  0.2552736  -0.5072143   0.06151225 -0.01396334
 -0.03729117 -0.19170311]
[ 1.4020562   0.12851213 -1.2042592  -0.8556972   0.453739   -0.25153166
 -0.56477165  0.13767458 -0.30308688 -0.4674965   0.3384594  -0.3898797
 -0.4960937   0.49750784  0.11813391  0.02165525 -0.32524142  0.17044564
  0.1399717  -0.0267677 ]
[-0.5319245  -0.1091228   0.18940805  0.03201352  0.10436737  0.20585293
 -0.1250918  -0.20981415  0.2062806  -0.23146448 -0.26859653  0.3339116
  0.39331952 -0.01555179  0.24484757 -0.2149055  -0.23499086 -0.28931713
 -0.14024699 -0.12475937]
[ 0.13854319  0.15256228 -0.24588642  0.3256885  -0.66908914 -0.35322812
  0.0626493   0.07016503  0.21953082 -0.29632348  0.24276341 -0.33452097
  0.11501738 -0.36153764  0.12988284  0.6080189  -0.14837134 -0.03701996
  0.224676   -0.07277033]
[ 0.91808736  0.15500508 -0.2234871   0.37527403  0.46536312 -0.44838136
 -0.52666396 -0.25351185 -0.03477358 -0.52633446  0.09823418 -0.04623205
 -0.32063422 -0.1012056   0.18176828  0.12469469 -0.26472512 -0.06527084
  0.56038064 -0.17918257]
[ 0.3475947   0.5238251  -0.6120364  -0.07126358 -0.47549757 -0.40765205
 -0.1391657  -0.14232162  0.04202818 -0.23942348  0.49876446 -0.10456943
 -0.08321762 -0.17812708 -0.1521331   0.37980622 -0.06275935 -0.08398013
  0.02756418 -0.03652931]
[-0.18261512 -0.10340008 -0.2000144  -0.01915325  0.09150962  0.11327995
 -0.27957633 -0.33338177  0.03334553 -0.16576652 -0.00563735  0.10845059
  0.2113541  -0.298564    0.24618109  0.1482665   0.26660663 -0.04173274
  0.02004552 -0.4454524 ]
[ 0.8929244   0.28033727 -0.8851137  -0.29473072  0.05764829 -0.24702074
  0.19612178  0.3128096  -0.2112707   0.04723351  0.3461308  -0.07466532
 -0.46558037  0.18749598 -0.02239324  0.0022736  -0.33899137  0.08059746
  0.0214427  -0.19642775]
[ 0.53386235 -0.05158933 -0.5556816  -0.3067885  -0.27059236 -0.23285972
  0.3391145   0.11183352 -0.05979753  0.1631672   0.19086047 -0.23725039
 -0.33195153  0.11829036 -0.00935762  0.13411152 -0.33224243  0.17032214
 -0.14329243  0.6175807 ]
[ 0.16047989 -0.10064153 -0.29183716 -0.1229816   0.61892223  0.03189172
  0.3997102   0.3034809  -0.30639932 -0.15737727 -0.05378556 -0.05879368
 -0.00872063  0.2790111  -0.25233594 -0.03286881 -0.6542205   0.4839318
  0.20964858 -0.28822863]
[-0.5353461  -0.03723013  1.1175764   0.22116838 -0.71734667 -0.05833115
  0.26218367 -0.5704665   0.28156143  0.40604356 -0.14836511 -0.00613469
  0.11624657 -0.22498901  0.38355353  0.303689    0.72395587 -0.59186447
 -0.08270373  0.0322277 ]
[ 0.04701651  0.46610022 -0.27683207 -0.18472831 -0.21908887 -0.6400872
 -0.33638406 -0.13798091 -0.07471989  0.17073883  0.1412616  -0.00368588
 -0.23649746 -0.35754052  0.14436308  0.7448925  -0.20131011  0.02770989
  0.44389182  0.24320994]
[ 0.05129131  0.0218471   0.31066453  0.381618   -1.058299    0.00469011
  0.13328522 -0.16018195  0.09215983  0.2828669   0.06910589  0.04351505
  0.1414011   0.06353451  0.32811692  0.3721338   0.21741576 -0.23387438
 -0.01554446 -0.00785156]
[-0.0249795  -0.2636203   0.00475008  0.18483537 -0.31806788  0.6068038
 -0.24767204 -0.36561987  0.7901583  -0.06152369 -0.3904749   0.62410855
  0.09027763 -0.57720536  0.18324608  0.03577206  0.42373514 -0.33795765
 -0.02942475 -0.2155016 ]
[ 0.7008541   0.08749112 -0.68269104  0.080698   -0.13328515 -0.36250833
  0.00272983 -0.00850551 -0.2013942  -0.37354115  0.26862684 -0.29849723
 -0.23028322 -0.13426489  0.2562374   0.324662   -0.19029988 -0.28730264
  0.12811297  0.04450475]
[ 0.12121165 -0.1002313   0.08259105 -0.59677505  0.6753179  -0.09940996
 -0.4383895   0.13563561 -0.0622256  -0.49920636 -0.02335956 -0.26224545
  0.05247779 -0.05894359  0.32921052  0.26405007 -0.18409622  0.09329261
  0.47200626 -0.35539025]
[-0.37848246 -0.4231872   0.11748575 -0.06196471 -0.24457586  0.36820868
 -0.07536054 -0.33474723  0.72904766  0.19694893 -0.45796573  0.42488402
  0.35743642 -0.2817378  -0.0545269  -0.28979838  0.5324513  -0.5580022
 -0.01432361 -0.20978396]
[-0.30283183 -0.31093845 -0.10998179 -0.14363045  0.07045602  0.26011628
  0.1732903   0.13793817 -0.02286177  0.0069026   0.02691795  0.07681874
  0.2436561   0.11128392 -0.0586046   0.28871128 -0.13433878 -0.17447214
  0.00052973  0.14065884]
[ 0.34099528  0.33099598 -0.44725147 -0.28257185  0.33999354 -0.14903146
  0.3634114   0.27278313 -0.592259    0.23078668  0.23983799  0.02861334
 -0.32026762  0.2213989  -0.22858202 -0.22216594 -0.48697054  0.40823874
  0.14903994  0.28223947]
[ 0.39281812 -0.03117629 -0.12908019  0.27056524 -0.6078109   0.3224563
  0.13379346  0.10000984  0.14538836  0.4747499  -0.29950705 -0.06046959
 -0.23660985 -0.12467486  0.03440971 -0.6129646   0.33057997  0.28810185
 -0.825399    0.70096207]
[-0.36434194 -0.08016433  0.04677162  0.05781528 -0.8258271   0.17947523
  0.21480328 -0.21346697  0.39774942  0.3094258  -0.29075283  0.4789285
 -0.07175815  0.11342093 -0.1367993  -0.06050489  0.5748262  -0.51474285
 -0.27872917  0.30978745]
[ 0.65136975 -0.18760808 -0.74027383 -0.10200713  1.0135142  -0.01348931
 -0.08751924  0.33154708 -0.46354914 -0.00839126  0.26437607 -0.51915884
 -0.45627168  0.5311382  -0.5865261  -0.12752984 -0.7075478   0.48750815
  0.17993204 -0.24314551]
[-0.0498247   0.3078786  -0.03606496 -0.20876981  0.2685984  -0.39670926
  0.11964832  0.0254024  -0.06714088  0.23941202 -0.00800508  0.01562195
  0.12431135  0.02458966  0.05213486 -0.17326534 -0.08914433  0.0600737
 -0.11822389 -0.09870102]
[-0.00566215  0.4625087  -0.30074984 -0.26534307 -0.20574526 -0.36882147
  0.18957238  0.1305302  -0.26949927  0.06147642  0.5137997  -0.92293423
 -0.49155578  0.07663041  0.10432383  0.415798   -0.13078879  0.11626036
 -0.16212188  0.11725552]
[-0.252736   -0.26196307  0.46646124  0.16578393 -0.40342876  0.8269141
 -0.32421172 -0.43897137  0.12262052  0.03286845 -0.06908262  0.6928129
  0.35049328 -0.05390099  0.3381511   0.20597999  0.68053323 -0.25226253
  0.14637919  0.10564388]
[-0.07686462 -0.2033304  -0.6005194  -0.4180531   0.8627062   0.3368929
 -0.02393506  0.24312097 -0.3797121  -0.11351908  0.09896955 -0.26385742
 -0.05267324  0.7195488  -0.11755663 -0.4558603  -0.56455594  0.4060899
 -0.14401163 -0.44906616]
[ 0.5627138  -0.28778195 -0.1944205   0.0015451   0.4821167   0.18605314
 -0.79052925  0.08460056  0.17103007 -0.2351689  -0.23215486  0.12913245
  0.03123305  0.4336311   0.1628091  -0.19317189  0.06781563 -0.3186368
 -0.00656139 -0.80033773]
[ 1.0369974   0.517528   -0.7584635  -0.22502182  0.25808367 -0.50488526
  0.05070566 -0.05837308 -0.01126947 -0.14676483  0.61498797 -0.43513995
 -0.2956807  -0.10764157 -0.01351223  0.49560434 -0.19141169 -0.00928093
  0.25355342 -0.1258412 ]
[ 4.8493306e-04  4.3489978e-01  1.7142950e-01  1.0025862e-03
 -3.4877896e-01 -5.8325690e-01 -3.7992978e-01 -9.1437884e-03
 -1.2031748e-01  2.2763214e-01  3.9366370e-01 -1.8347543e-01
 -4.2540824e-01 -3.8077894e-01 -1.9078110e-01  7.2129273e-01
  1.2061377e-01  3.7931582e-01  2.5429371e-01 -5.2988897e-03]
[-0.29449415  0.10244837  0.48137954 -0.20098226 -0.7290622  -0.43695864
  0.14653897  0.11705844  0.04292066 -0.01129981  0.46391302 -0.18782572
  0.19931802 -0.27177072  0.04120987  0.46077937 -0.24802162  0.10954842
  0.17093521  0.3865976 ]
[-0.224082   -0.2753226   0.10095284  0.18392651  0.0488585   0.37027887
  0.0885468  -0.06779911  0.28192496  0.30210826 -0.23981032  0.34959936
  0.05218269  0.03569531  0.10712051 -0.2333805   0.40311044 -0.05435442
 -0.5642687   0.13081001]
[ 0.55755305  0.14081667  0.12474873  0.18417527  0.8504904   0.06224287
  0.3271457   0.652697   -0.24694648 -0.06416856  0.14487928  0.3322718
 -0.230123    0.24933273 -0.17589451 -0.00977585 -0.8281434   0.2674361
  0.03583891 -0.20790054]
[-0.2979254   0.0554608   0.05434895  0.10558617 -0.02504092  0.07530034
  0.29875213 -0.02747735 -0.33290926  0.35441813  0.3314974  -0.29192638
 -0.14445393 -0.06060717 -0.02775333  0.10833953 -0.37615156 -0.0192784
  0.3151359  -0.1342094 ]
[-0.16842239 -0.37001646  0.53811175  0.13126913  0.16418993  0.7011114
 -0.18377963 -0.03873407  0.25719118 -0.05383473 -0.3215445   0.23891246
  0.17818779  0.12221039  0.3089492  -0.23558344  0.07130448 -0.07789212
 -0.05822919 -0.08969022]
layer 5 Activation
tanh
layer 6 Dense
20 1
[0.16445503]
[-0.13207093]
[-0.14568356]
[0.08940715]
[0.3611106]
[0.49406183]
[-0.05402649]
[0.14052422]
[-0.07017317]
[-0.0281644]
[-0.19307911]
[-0.00277529]
[-0.0369023]
[0.03458303]
[0.00270827]
[-0.05897437]
[-0.12030472]
[0.10210889]
[-0.08579455]
[-0.08398844]
[0.27746114]
