layers 7
layer 0 Dense
20 20
[-0.09097933  0.18236127  0.3248063  -0.11107183  0.08880366 -0.04017058
  0.14044534  0.29648837  0.38902554 -0.17059466 -0.24493267  0.29321107
  0.37250352 -0.28483778  0.04058748 -0.22950529 -0.09451554 -0.00501899
  0.25465202  0.35272336]
[ 0.19142413  0.16361044  0.33807158 -0.07967836  0.26743966 -0.17933656
 -0.21016349 -0.03833959 -0.50522804  0.07743744 -0.17120476  0.08312511
  0.15718193  0.319819   -0.29894856 -0.14207828 -0.07851603  0.19782524
  0.11162498  0.09068265]
[ 0.35369027  0.28401902  0.24514392  0.08071923  0.13964705 -0.24663644
  0.27712727  0.12388904 -0.07245176 -0.07511935 -0.31410688  0.4258466
  0.3107267   0.24958809  0.13595347  0.23774458  0.0796193  -0.33974394
 -0.17414472  0.4714938 ]
[ 0.255977   -0.28289878 -0.06591719  0.26818618 -0.0930324   0.02752306
 -0.29329613  0.13921985 -0.28970245 -0.32717183 -0.15389813  0.31508774
 -0.3699993   0.10468483  0.11186957  0.13834685  0.05624288  0.2519384
 -0.06120961 -0.0145986 ]
[-0.09280229  0.21694121 -0.2166183  -0.11714435  0.01120651 -0.31797817
  0.0743873   0.3335486   0.09905785 -0.21333908  0.2669659   0.06099908
  0.06938031  0.1954714   0.37588882 -0.42753148 -0.23487884 -0.05135475
 -0.32756895 -0.04697797]
[-0.21121392  0.08904015 -0.22374605  0.31026715 -0.06979609  0.3105957
  0.11559824 -0.10763821  0.24252202  0.312428   -0.01332779  0.02258421
  0.14894667  0.01147878 -0.4420376  -0.03491464 -0.13233791  0.22888374
 -0.08403094  0.16235597]
[-0.12494494  0.32117134 -0.06728709 -0.30190286  0.1415856  -0.2859873
  0.35298097 -0.10749862  0.33126187 -0.0041313   0.1978746   0.19079475
 -0.05230427  0.15289687 -0.3559357  -0.00930792  0.11925489 -0.01649282
  0.1724567  -0.03271446]
[-0.18932144 -0.00933671 -0.36943188 -0.16048035  0.05000797 -0.38548258
  0.13344665 -0.08264789  0.19021562  0.00049251  0.28831097  0.0100243
 -0.2722105   0.09875812  0.12554502  0.01374748  0.24651937  0.05793184
  0.18624867  0.3628661 ]
[-0.20961642 -0.04383139  0.10275172 -0.2687441  -0.16890849  0.15066293
 -0.0926411  -0.12157276 -0.02263911 -0.17470871 -0.06514204 -0.03643682
 -0.11332689 -0.17229252  0.02709819 -0.02250908  0.12411857  0.10752992
  0.35221684 -0.23222363]
[-0.1005836  -0.14576927  0.09064136  0.5023072   0.22289252  0.4886822
 -0.34282354 -0.28221416 -0.21882182 -0.05721677 -0.27118498  0.2813342
  0.26041728 -0.11111575 -0.12672131 -0.2488248  -0.38071668 -0.18157703
 -0.05685112  0.45739964]
[-0.08591525  0.34136048 -0.30437303  0.37434497 -0.4358668  -0.17992559
 -0.3298005  -0.33604744 -0.32900304 -0.24783337  0.1119756   0.2249438
 -0.266509   -0.47385278 -0.26777717 -0.22285908  0.04300252 -0.22852175
  0.11234345 -0.18846191]
[ 0.12227114  0.45550668  0.06966084  0.0465529  -0.5204199  -0.09030153
  0.44969776 -0.04485601  0.22742787 -0.1665697  -0.20025499 -0.45480308
 -0.27614334  0.07983709  0.4530472  -0.05227684  0.03649033  0.01234114
 -0.2873108   0.16587979]
[ 0.15711907 -0.34344938 -0.22444661 -0.09267617  0.02908195  0.35729542
  0.12150021 -0.34919646  0.10247242  0.26794547 -0.14758761 -0.180454
 -0.17519939 -0.17643552 -0.01126401  0.08806344  0.33322218  0.18801658
  0.26503342 -0.2526022 ]
[-0.10599925  0.12845397 -0.07384261 -0.18657266 -0.1291847   0.33158067
 -0.13701732 -0.26557225  0.40911472  0.4384561  -0.04557123  0.09607895
  0.42296836  0.05411491  0.1205567  -0.21199279 -0.03593056  0.05430629
  0.28494158  0.09765022]
[ 0.18678026 -0.14318053 -0.07134613 -0.29137278  0.00988372 -0.08214077
 -0.33251256  0.38194716  0.11366343 -0.22631912 -0.31470013 -0.4276858
  0.14033245 -0.04878154  0.39160728 -0.32259163 -0.27714357 -0.34988028
  0.27923635 -0.0084696 ]
[ 0.3736463   0.12050878 -0.13579746  0.00658496  0.62460303 -0.00608105
 -0.43586206  0.38281107  0.07538649 -0.5073987   0.17012033 -0.00800066
  0.31620887  0.09915008 -0.0786016   0.10372525  0.07726242 -0.26081094
  0.13455147 -0.37684157]
[ 0.35459307 -0.05965938  0.32749447  0.31197882 -0.29917634 -0.29988292
 -0.3693447   0.18654661 -0.07979532 -0.4592679  -0.1017433   0.11535393
  0.09584709  0.36260426 -0.08941136  0.18192433 -0.13739926  0.24807508
  0.34405306  0.24369726]
[ 0.23422554 -0.28337705  0.27013457 -0.25710872  0.32216418 -0.56651837
  0.1465597  -0.29730362 -0.02676109 -0.19524541 -0.02953524  0.13250929
 -0.23983288 -0.26582304 -0.02129845 -0.25671965 -0.11968267  0.36192542
 -0.08883982 -0.39722165]
[-0.18320984 -0.09685265  0.1572301  -0.22921622  0.2426172   0.22312553
  0.26917815  0.3497864  -0.10735216 -0.0927742   0.39501417  0.1245321
  0.29786766  0.04010765  0.33634835  0.14591932  0.33068198 -0.24801695
 -0.24330825 -0.23964816]
[ 0.3573252   0.16973522 -0.3078455  -0.33982852 -0.00101808  0.44190913
 -0.15038642 -0.25296926 -0.04413621 -0.18016091  0.24671729  0.04216377
 -0.22391659 -0.32746655 -0.19265512 -0.25158167 -0.3001401  -0.30948344
  0.24169178 -0.18264513]
[-0.03598939  0.04951755  0.04420317 -0.01629916  0.0132983   0.06927394
  0.05123518  0.02261573  0.04056465  0.02171926 -0.01821727 -0.0039492
 -0.05059588 -0.04977372 -0.03003389  0.06182888 -0.04492065  0.07454143
 -0.03911854 -0.02274704]
layer 1 Activation
tanh
layer 2 Dense
20 40
[ 0.3317954  -0.07996456 -0.03596113  0.11569408  0.04895923  0.02671098
 -0.08661958 -0.18410419  0.10248377 -0.03550027  0.14623721  0.29964915
  0.16750371  0.1858473   0.20865189  0.1861646   0.28320584  0.29715878
 -0.1572891  -0.1339878   0.1061749   0.1816416  -0.23297164 -0.11100885
  0.13938376  0.17760284  0.03880031  0.09099002  0.17269257  0.27115637
 -0.1318963   0.24088341  0.09007038 -0.02623812  0.1346889   0.093316
 -0.04576493 -0.03470858 -0.17101108 -0.2101429 ]
[ 0.2611109  -0.15147056  0.01550352 -0.14401457 -0.10342273  0.05901479
  0.25969377 -0.30614904 -0.38838854  0.15449804 -0.1259568  -0.08055394
  0.20652491  0.28489515  0.04290659  0.19263841 -0.3269327  -0.35200822
 -0.2183405   0.31367823 -0.01987638  0.38465038  0.25549874 -0.05083746
  0.19115001 -0.06711815 -0.01416634 -0.1604145   0.25223023 -0.41687256
  0.1555657   0.10030793  0.00083147  0.07798723  0.25300914 -0.27965525
  0.3151307  -0.36592978  0.24533114 -0.12310918]
[ 0.0115529   0.09861943  0.15674338  0.16819763 -0.19020534  0.25007185
 -0.01180211  0.05617446  0.10361402 -0.30282447 -0.27311763 -0.2677464
 -0.06552639 -0.26155877 -0.05867679  0.08747107 -0.11831637  0.08422579
  0.17004596 -0.12238048 -0.22747804 -0.25560537 -0.25291473  0.16246574
  0.2511786   0.03085098 -0.16295679 -0.25658935  0.2803305   0.06628155
  0.2616536  -0.14330745 -0.23062697 -0.27125183 -0.19729722 -0.1765979
  0.35471073 -0.2964977  -0.0617833  -0.3016984 ]
[-0.16779405  0.18020841 -0.07916881  0.04257547  0.28582996 -0.03855219
  0.26251787  0.12994066 -0.01496969 -0.04477006  0.25573766 -0.01144429
  0.10441823  0.24003537 -0.3097299   0.03700161 -0.04875702 -0.14354548
  0.11375682 -0.329269    0.13607068  0.04761968 -0.02982311  0.22270362
 -0.3202869   0.24937353 -0.3065089  -0.33640742 -0.18794492 -0.18435702
 -0.26717654  0.13117053 -0.08190528 -0.33187196  0.22615108  0.11451125
  0.05482078  0.06524856 -0.04130706  0.21695827]
[-0.47464752 -0.08881973 -0.24915005 -0.06887192  0.07064028  0.16322328
 -0.15275358 -0.1688017  -0.2439846  -0.27936646  0.15548354 -0.25364086
 -0.11669654  0.17517717  0.09235665 -0.11130302 -0.12758195  0.13341443
  0.09213647 -0.11918008  0.02499162 -0.10903057 -0.33385494 -0.19473583
 -0.06849644 -0.26451918  0.00929141 -0.22253679  0.07994436  0.02760387
 -0.05404599  0.15836586  0.13841964 -0.25388876 -0.05000157 -0.20959678
 -0.16778117 -0.09954663 -0.31165114 -0.02261039]
[-1.7701621e-01  8.9121833e-02  1.2383818e-03 -1.3017678e-05
 -1.2965778e-02  2.3717374e-01  2.9900450e-01 -3.8756537e-01
 -5.1918525e-02  4.3712658e-01  2.2522435e-01  1.7556688e-01
 -8.7881841e-02 -1.8858971e-01  1.4227176e-01 -2.7407208e-01
  1.6629311e-01 -3.2796377e-01 -1.5483510e-01  1.8980068e-01
  8.0130594e-03 -8.4589459e-02  2.3134112e-01 -1.5840212e-01
 -1.6179371e-01 -9.3503267e-02 -3.5124722e-01  2.7176046e-01
 -1.2852079e-01 -3.2372662e-01  2.3137496e-01 -1.4937580e-02
 -4.2881325e-02  2.0449230e-01  6.3398503e-02 -1.1818878e-01
 -3.9527621e-02 -9.3602717e-02  1.9902328e-02 -3.4129897e-01]
[-0.26108474  0.01324251  0.20211898 -0.29858208 -0.05219623  0.3095048
  0.06328981 -0.29446033  0.26541892 -0.09149143  0.07017831  0.03042892
  0.09344514  0.01387564  0.22837958  0.34344035  0.04107198  0.03980191
 -0.13837908  0.10822403 -0.26980874 -0.19322535  0.25515243 -0.13526335
 -0.1801133   0.38814545 -0.16231334 -0.23286217 -0.08294552 -0.13178965
 -0.09433026  0.15975532  0.12306064 -0.28565943  0.32910025 -0.07520116
 -0.26129228  0.3031808   0.01470407  0.33493027]
[-0.27341518  0.3425522   0.11516559  0.30813062 -0.10317479  0.15414685
  0.00281474  0.09142408 -0.1941998   0.1411102  -0.11399937  0.2541334
  0.1381637   0.14069284 -0.02089123  0.05092388 -0.2121407   0.22403485
  0.09107714  0.04985077  0.24955416 -0.00718254  0.05388548  0.297614
  0.07675879  0.3356087  -0.03461155 -0.00762933 -0.00873036  0.2801944
  0.2209147   0.2113701   0.23382539  0.08442527  0.0986826  -0.16693237
 -0.15400586  0.19685195  0.14775428 -0.17898986]
[ 0.07253529  0.22374703 -0.03840438  0.3110924  -0.05933355 -0.07666407
  0.04055639  0.16048881  0.20908214 -0.18519911 -0.24217562  0.2410346
 -0.08555888 -0.03479639  0.11704309  0.30602705 -0.32115504 -0.31187096
  0.3030409  -0.12233766 -0.03765191  0.30008525  0.15325564  0.12977576
  0.18928829  0.28480572  0.29169834  0.1621321   0.00200585 -0.02257856
  0.05105602  0.13368568 -0.21834184  0.04729214  0.26319906 -0.00823618
 -0.28376943 -0.36499393 -0.05489767 -0.16146776]
[ 0.13540019 -0.18163313  0.3125113   0.09754346 -0.18796195  0.25818425
 -0.18543439 -0.33337134 -0.13336022 -0.13544714  0.18464725 -0.2401515
  0.06303047 -0.24112856 -0.12094723  0.36992645 -0.00692602 -0.281287
 -0.33483538 -0.01198069 -0.01645915 -0.02046914  0.10057713 -0.23838346
 -0.3277167   0.224226   -0.00479855 -0.00543473  0.23119223 -0.35295984
  0.15802507 -0.25414675  0.37686348  0.21840599  0.01797331 -0.24878584
  0.04802096 -0.10227178 -0.31394768 -0.01613389]
[-0.00602918  0.09065674 -0.00507911 -0.12785454 -0.27346838 -0.23919298
  0.02405633  0.23686717 -0.13883476  0.12392655  0.18124323  0.12793773
 -0.28153962  0.00492135 -0.30195415  0.06068277 -0.2943861   0.04538888
 -0.03961227 -0.27462587  0.26369193 -0.1617687   0.20301977  0.22559378
 -0.07599895 -0.06847768  0.1886865   0.23135409  0.202731    0.00183455
  0.1646644   0.07575534  0.23965563 -0.3125422   0.12290034 -0.14920105
  0.18271895  0.16669944  0.01996548  0.01431569]
[-0.216981   -0.24815816 -0.01466691  0.1186845  -0.24848057 -0.23951608
  0.0544511  -0.10209014 -0.28095186  0.14470133  0.02619291  0.21386895
  0.1864244   0.04574236  0.19407544  0.01259014  0.25201127  0.13143072
  0.32223547  0.20216583  0.08765071 -0.370086    0.32550323 -0.20203339
 -0.22681713 -0.26236165  0.09755396  0.06830841  0.22782196  0.11328151
  0.12890008 -0.18010578  0.14447927 -0.1268417  -0.10141098 -0.29620108
  0.24986593  0.03562948  0.24784409 -0.1712168 ]
[-0.01489375  0.23222093  0.11676953  0.3026343   0.10825723  0.24092205
 -0.16854982 -0.27340198  0.00729783  0.29265186  0.14580631 -0.06115557
  0.23411335 -0.193692    0.08298944 -0.07312471  0.09839615  0.0965805
  0.29365093 -0.22411196 -0.3123392  -0.12083961 -0.05293179 -0.25437692
  0.11976764 -0.15837628 -0.00197272 -0.00835905  0.13810702  0.04149204
  0.11352217  0.07200143 -0.3022729  -0.09056243 -0.11097371 -0.08925895
  0.26991248 -0.2678951   0.25824153  0.20450796]
[-0.13812967  0.12971249  0.15628628 -0.05233999  0.11812008 -0.05453195
 -0.30118147 -0.05159857  0.17656516 -0.2738322   0.25888985  0.13965791
  0.15304522 -0.12296979 -0.02104619  0.34880415 -0.3008857   0.07643262
 -0.07647575 -0.07785347  0.11009177  0.15563191  0.05790612 -0.07284459
 -0.11311007 -0.13050777  0.1484551   0.20204678  0.06954965 -0.11250982
  0.18988878 -0.24529095 -0.34959456 -0.23877849  0.1374976   0.23218672
 -0.07701473 -0.04660947 -0.10661543 -0.25085747]
[ 0.26138878  0.06011393 -0.28196537  0.12620659  0.13699278  0.01333083
  0.27614337 -0.2972327   0.16533145 -0.28771675  0.08925205  0.01564447
 -0.11845944  0.33402526 -0.27086803  0.0922903   0.22035213 -0.07686099
 -0.13538721 -0.2172806  -0.05012111 -0.13497357 -0.0726743   0.09917937
 -0.21563336 -0.03820897  0.09361928 -0.22231007  0.01057184 -0.05938154
 -0.12053213  0.40019175  0.1472794  -0.13633822 -0.29400873 -0.18604824
  0.15951867 -0.2106726  -0.28764609  0.01540095]
[-0.06440357  0.15269677 -0.21754108 -0.1419091   0.10156389  0.25789717
 -0.07490374 -0.03918541 -0.0576834   0.18504553 -0.14566661 -0.10884181
  0.10304283 -0.00084142  0.2828239  -0.08966573 -0.24796821 -0.04613608
 -0.28935847  0.04087544 -0.26277882 -0.22804171  0.23583049 -0.1697501
 -0.2090526   0.2685334   0.22222029  0.28566548 -0.11034747  0.2697359
 -0.1020869   0.00604665  0.2400852   0.04519788  0.11107882 -0.20162456
 -0.08025386  0.06654624 -0.24272898  0.21996517]
[ 0.1577693  -0.08015706 -0.01025523 -0.1438444  -0.18457657  0.20108555
 -0.01125217  0.00508517  0.14784607 -0.07085928  0.24602364  0.03059661
  0.11617309  0.14720348 -0.17064916  0.05798561  0.2029889   0.0914188
  0.23993921 -0.1303924   0.05401346  0.18957102  0.1069183  -0.10435548
  0.01525657  0.16141997  0.17256735 -0.234745    0.0290376  -0.02940143
  0.24481498 -0.2362602  -0.20029365  0.11517479  0.01331515  0.0495631
 -0.3235774   0.22600478 -0.07816338  0.23393197]
[-0.15060462 -0.05925766  0.31625336  0.30401623 -0.2818657   0.3177145
 -0.10007709  0.19527604  0.11768737 -0.32305527 -0.19256723 -0.25645542
 -0.30390057  0.11118051  0.04702198 -0.1507459   0.27366325  0.16286425
  0.11758169 -0.19922516 -0.04437767  0.29584408 -0.10463406 -0.2658197
  0.16439034  0.38871714 -0.14433844 -0.0127112   0.27345505  0.08023071
 -0.045441    0.11620481 -0.23225461 -0.25869548  0.07958902  0.178117
 -0.08616345  0.15353964 -0.29234344  0.3570524 ]
[-0.03651963 -0.21911734  0.16056092  0.31007805  0.27496698  0.2560287
 -0.06203953  0.19508408 -0.2600073   0.00351434  0.06858595 -0.04724533
 -0.23754877 -0.00536177  0.31383324  0.08684447  0.06810884  0.2039206
  0.15966782  0.07681037  0.29185462 -0.26587102 -0.31298494 -0.0314475
  0.05832475  0.33728126  0.28749436  0.2597677   0.04839953  0.21962138
 -0.22148935  0.08524116 -0.22769697 -0.18287756 -0.14775461  0.32104227
  0.02370932 -0.21688537 -0.11792123 -0.00365113]
[-0.25331116  0.08118092 -0.16877554  0.09340418  0.03791017  0.03613819
  0.25388318  0.1936596   0.17991187  0.06298199 -0.04243998  0.292643
 -0.24797906 -0.13573901 -0.12975065 -0.19285734  0.0375446  -0.29759586
  0.22117575  0.0631678   0.1651629  -0.00760268  0.3381008   0.0294178
 -0.14752837 -0.15481135 -0.28067794  0.27569434 -0.08174804  0.08006648
  0.14261828 -0.06991791 -0.30447918 -0.10966804  0.02454917 -0.15165968
  0.21186462 -0.35196963  0.12671426 -0.21173777]
[ 0.03017951 -0.02891902 -0.00933926  0.04720464  0.02194646 -0.02113809
 -0.01288366  0.02367885  0.06331485  0.06163432  0.01108631 -0.01385717
 -0.00433334  0.0072047   0.02035326  0.05325229 -0.02111427  0.02503812
  0.04409175 -0.03149407 -0.08268557 -0.04515711  0.05073523  0.03220426
  0.02430586 -0.00676564 -0.02125953 -0.02913521 -0.02036877  0.02028093
  0.04299451  0.03123056 -0.03771627  0.02626469 -0.01819475 -0.02872806
 -0.01301854  0.02511111  0.00075805 -0.00494415]
layer 3 Activation
tanh
layer 4 Dense
40 20
[-0.16668022  0.1326793   0.27893046  0.2777196  -0.23001616  0.08059657
 -0.20829998 -0.12341641 -0.27863932 -0.28007007 -0.28769755  0.27250838
  0.31200933  0.13811344  0.02055633  0.28244206 -0.27251145 -0.08543893
 -0.2587019   0.28976983]
[-0.21458305  0.27671576 -0.27040017  0.16679743 -0.33609876 -0.07923535
  0.08310171 -0.0543229   0.09428459  0.22440885 -0.17178915  0.28298816
 -0.18343814  0.07039483 -0.09262065 -0.30819255  0.34320438  0.2711909
  0.00738733  0.15084149]
[ 0.12452783  0.07877728  0.20762403  0.13693096  0.14330685 -0.0370902
 -0.31491017 -0.01805697 -0.00181962 -0.17868912  0.1988518  -0.04920292
 -0.10521344  0.05291292  0.28267503  0.02413166 -0.3074672  -0.0163909
 -0.02604154 -0.09180039]
[ 0.09681183 -0.07503428  0.09208712  0.26010197  0.20731318  0.13832153
 -0.18645905  0.02503583 -0.2594958   0.23728347  0.3428113   0.04891528
 -0.06533551  0.3093821  -0.08547115 -0.24769805  0.09665883 -0.16987194
  0.11918853  0.1922841 ]
[-0.29395467 -0.22002974  0.00791365 -0.2632347   0.14542492 -0.21319675
 -0.21878386 -0.0299417  -0.10872583 -0.1555086  -0.15212144  0.03911266
 -0.2919721  -0.24864575 -0.22532523  0.16978621  0.19271423 -0.02921871
 -0.08707124 -0.29212317]
[ 0.17640123 -0.29159784 -0.03868347 -0.0398598  -0.23528719  0.1819255
 -0.00326918 -0.18026088 -0.10540474  0.30856648 -0.08105053 -0.1814546
  0.04089021  0.18920878  0.3286776  -0.27192542  0.23457198 -0.1967485
 -0.31233594  0.29970664]
[-0.3818736  -0.32479542 -0.13758565  0.15982114  0.06053805 -0.05384814
 -0.30331725 -0.01826024 -0.3091683  -0.2737308   0.00915025 -0.19021706
 -0.25516778  0.1586328   0.156338    0.0882953   0.2498066   0.2682752
  0.20294212  0.34755015]
[-0.3457028  -0.04972453  0.11104212 -0.07439794  0.16875586  0.18796602
 -0.23451558  0.37085244 -0.03227544 -0.08677924 -0.182365    0.00129643
 -0.0121598   0.05198932  0.12653045  0.1105286  -0.1923084   0.10312233
  0.19808191 -0.34187827]
[-0.29666626 -0.12634207  0.011894   -0.24189278 -0.23527549 -0.03058438
  0.18098573 -0.01625133 -0.11704135  0.19826047  0.32712194  0.25753298
 -0.18098594 -0.2741342   0.22377312  0.15304722  0.18726358 -0.07341588
 -0.21974662  0.04087464]
[-0.18746409 -0.25111562 -0.19579403  0.31476268  0.05375668 -0.20891614
 -0.13623118 -0.28856364  0.3870449   0.21526705 -0.33582756  0.26524973
  0.22028597 -0.07485652  0.0860332   0.24862427  0.18343562  0.21654709
  0.00078271  0.09378155]
[-0.18534774 -0.08363589 -0.11701124  0.08094671  0.24764451  0.18941417
  0.23490855 -0.01499553 -0.1794405  -0.13522545  0.00069736 -0.24202822
  0.1415942  -0.16432492 -0.15124606  0.13585691  0.26746958 -0.08169026
 -0.2586772   0.04940684]
[-0.25041696 -0.0645555   0.05247471 -0.16957122 -0.04104212 -0.18019743
 -0.00196991  0.13620368 -0.2861072  -0.24876475  0.14419983 -0.20001397
  0.09779611  0.0648208   0.00754989  0.07678376 -0.10179777  0.12598649
 -0.0098645  -0.00160078]
[ 0.03389619 -0.14690417  0.18822028 -0.14972252 -0.03103915 -0.25587577
  0.13571562  0.31463203 -0.10162508  0.07731503 -0.25042808 -0.09490319
  0.09403565 -0.15279633  0.0018762  -0.21408783 -0.09123413  0.23249498
  0.04823251  0.15845542]
[-0.05741872  0.03358254 -0.18657725 -0.15867582 -0.23309541 -0.12476201
 -0.00116716 -0.09543521 -0.05563916 -0.38264287  0.24272639  0.14956735
 -0.28349033 -0.23285884 -0.14937179  0.04403545 -0.16723557 -0.08130466
 -0.3375356  -0.26964062]
[-0.19117486 -0.20528063 -0.11118157  0.29699737  0.32202333  0.2825242
 -0.24488898 -0.05189394 -0.20676298  0.18292251 -0.06272256 -0.13800393
 -0.14679803 -0.12248026 -0.1818665   0.12404502  0.00392412  0.15409642
  0.0646831   0.24500889]
[ 0.26851264 -0.07594696 -0.03450294  0.08028201  0.13370052  0.00420569
  0.2755078   0.19895935 -0.1763896  -0.29191822  0.05360606 -0.1220196
 -0.06618442  0.3099494  -0.10299274 -0.13597772 -0.33350244 -0.2426433
  0.14763522  0.20701851]
[ 0.08431351  0.25999895 -0.23863296 -0.28100696 -0.27455887  0.09610403
  0.20949303  0.00804962  0.11710444  0.27578437 -0.2058964  -0.1460364
  0.1353471  -0.06254828  0.22259599 -0.19052108  0.09627541  0.1949404
  0.21686395 -0.08785923]
[ 0.28760472  0.1078788  -0.18036088 -0.25251982 -0.1667816   0.15851638
 -0.3366772   0.09525961 -0.13819969  0.15311447 -0.04988528  0.20092902
 -0.04157528 -0.16438928  0.25617716 -0.22562818  0.01272823  0.0691025
  0.06700952  0.03391825]
[ 0.088793   -0.18320516 -0.27925602  0.0493387  -0.18016656 -0.06837879
 -0.03056424 -0.11530879 -0.2514887  -0.14817472  0.17205134 -0.01417266
 -0.06838169 -0.14552848 -0.04715516 -0.09582095  0.05815046  0.07811531
  0.17832388  0.24259572]
[-0.07760333 -0.1635744  -0.22583346  0.15690781  0.2665523  -0.06148204
  0.05504623 -0.03342928  0.02701547  0.12656322 -0.32619303 -0.10337991
  0.04445493  0.15396333  0.16961697  0.17826656 -0.08372355  0.32127064
  0.32440126 -0.12820566]
[ 0.12990354 -0.13617414  0.21662155  0.13966946 -0.11671557 -0.05522768
 -0.28507462 -0.01501477 -0.09814276  0.05857604 -0.34232324 -0.09089242
 -0.13794772 -0.04464034 -0.02892213 -0.13239579 -0.06249816  0.10070439
 -0.04112599 -0.21899185]
[ 0.11701863 -0.05810791  0.20201051 -0.02696567  0.20162798 -0.04580782
 -0.19253412 -0.24865566 -0.36035287 -0.1474765  -0.3166063  -0.15257311
 -0.1721481   0.24252304  0.01568795 -0.2020858  -0.254353   -0.27241796
  0.20065229  0.21517153]
[-0.1997781  -0.3167548   0.01509731  0.10197696 -0.05805054 -0.0992985
  0.23831254 -0.07322981  0.15854979  0.23029847 -0.15947525 -0.092181
 -0.09125042 -0.06369696 -0.15886453  0.22259788 -0.03806281  0.01481186
  0.15722898  0.03829576]
[-0.14403062  0.06593265  0.38226202 -0.19050738 -0.20608577  0.21103911
 -0.19774176 -0.09848941  0.15118371  0.02708219  0.20328902 -0.07656759
 -0.12534468 -0.1888612  -0.23429829 -0.18031076  0.2910526   0.19201405
 -0.31890363 -0.13668771]
[-0.0690463  -0.2496268  -0.28413033 -0.22024615 -0.07504649  0.11314461
 -0.25400877  0.19950415 -0.04986338  0.0310089   0.02354486  0.05106944
  0.26445243 -0.00966903 -0.19818303  0.16418017 -0.15543762 -0.11744297
 -0.26475754 -0.3269915 ]
[-0.2879846   0.03533312  0.37337607 -0.12162065 -0.17432092  0.03636498
  0.25265542 -0.11940312 -0.21580489  0.05442069 -0.04541991  0.2767201
  0.16792697  0.38858443 -0.09486064 -0.10814563  0.1835525  -0.43224922
 -0.17901061 -0.17372927]
[ 0.2858662  -0.14634621  0.08615413 -0.2782913  -0.16003963 -0.03874967
 -0.29387584 -0.20407403  0.1997967   0.25962248  0.10616553 -0.00121174
 -0.12806027  0.04228865  0.07869646  0.00771636 -0.23286046 -0.07437756
 -0.22664492 -0.15035264]
[ 0.24022673 -0.03690415  0.01501118  0.03685755 -0.2095714  -0.14942692
  0.23668696 -0.17503728 -0.21594492  0.23993678 -0.2761066   0.130237
 -0.24693316  0.04308487  0.08145633 -0.14728671 -0.14509131  0.11516561
 -0.23094831 -0.01354486]
[ 0.19543645  0.12709598 -0.18298829  0.23788685 -0.20612484  0.0081493
  0.14185819 -0.24358594  0.16512531 -0.16089578  0.27505672 -0.04161508
 -0.16209586 -0.18799105  0.16419116 -0.17457342 -0.23013641  0.17901336
 -0.13868971  0.34064025]
[ 0.28284633 -0.02595859 -0.04399732  0.20964736 -0.07521161  0.3522647
  0.09508088 -0.0119539  -0.2271533  -0.01476824  0.20455971 -0.3251462
  0.12496836  0.17153455 -0.2305215  -0.18239476 -0.00721605  0.0329823
  0.14467481  0.00324503]
[-0.15616746 -0.24233592 -0.21659212  0.25824967  0.13593209  0.20291926
 -0.07997952  0.28459424 -0.16940549 -0.05137604  0.01731459  0.14117603
 -0.3301042  -0.1528751   0.12053774  0.21273685  0.06464659 -0.14457287
 -0.1292588   0.10251857]
[-0.01408942 -0.20626709  0.24931656 -0.07249748  0.00478896  0.09304017
 -0.07511957 -0.11556657 -0.15814483  0.003816   -0.07796202  0.29884556
  0.24294493  0.18785395 -0.2847863  -0.05608986  0.07023591  0.00544006
  0.00572195 -0.21002376]
[ 0.09302719  0.01937699  0.02805065 -0.0960598   0.25972587 -0.05634677
  0.09467745  0.17591381  0.30894482 -0.18132757  0.03875984  0.22231644
 -0.28110102 -0.27132452  0.28552568  0.30203125 -0.15216608  0.08605826
 -0.23145157 -0.27526492]
[-0.15093976 -0.0483837  -0.08258156  0.32667297 -0.2504513  -0.15677722
  0.25497615  0.24965972  0.16188279  0.2472845  -0.09918324 -0.15630887
 -0.23943704 -0.21172531 -0.12585989  0.1929621  -0.22868627 -0.2720852
 -0.22677846 -0.0934822 ]
[ 0.21391766  0.17171852  0.11434783  0.23614796 -0.20951965 -0.08908016
 -0.20596735 -0.22113709  0.2325924  -0.08441087 -0.1525402   0.21220936
 -0.30378786  0.06438178  0.3488634  -0.15944993 -0.28113678  0.19132763
  0.05022414  0.2931628 ]
[ 0.09894862 -0.06592848 -0.18357144 -0.00548196 -0.03625595  0.01986508
 -0.20609263 -0.08518383 -0.15156041 -0.05944606  0.02814597  0.17300141
 -0.01038006  0.10506302  0.04155265 -0.19057834  0.07869355 -0.04989503
  0.08360238  0.01252654]
[ 0.13154824 -0.10544811 -0.07054189  0.10185364  0.29930064  0.0096351
 -0.1582104  -0.09688794  0.08676903 -0.24215002  0.21599586 -0.00610071
 -0.18065763  0.21198532  0.11802613 -0.2569326  -0.05744794 -0.03070718
 -0.25461942 -0.19923218]
[ 0.01598248  0.30761594 -0.11209613 -0.27361992 -0.20303504  0.26678765
  0.1847863  -0.10153195  0.00771742  0.1483437  -0.19182026 -0.10612099
  0.06335761 -0.05962751  0.35420156  0.17376678  0.17825697  0.23252593
 -0.2654811  -0.1091813 ]
[-0.3456877   0.08333445  0.04352664 -0.03706977  0.00420267 -0.05960505
 -0.3110647  -0.16267034 -0.1717222   0.00100032 -0.17208523  0.07309922
  0.12693796 -0.19250116  0.0940006  -0.16457236 -0.06004576 -0.24302405
  0.10183395  0.08492576]
[-0.23354179  0.25528327 -0.17047194 -0.34752166 -0.285179    0.10835414
  0.00321711 -0.05029501 -0.31051505 -0.08258686  0.11081114  0.18039107
 -0.04383828  0.24492306  0.2027948   0.06849652 -0.31158838  0.10467803
 -0.09115418 -0.06351688]
[-0.04268917 -0.0020552  -0.01779552 -0.02179487 -0.00491592  0.01124548
 -0.03902093  0.00073443 -0.00596948  0.00778087 -0.00231665  0.0240104
  0.02690632 -0.01705999 -0.01338384  0.0109189  -0.00034894  0.00752857
 -0.00515121  0.04838759]
layer 5 Activation
tanh
layer 6 Dense
20 1
[-0.06900095]
[-0.09162588]
[0.15302528]
[0.07970395]
[-0.17797942]
[-0.42105794]
[0.0812644]
[-0.00891166]
[0.08465512]
[-0.3486101]
[0.11410087]
[0.00295345]
[-0.00997381]
[0.33503747]
[0.39260286]
[-0.32674578]
[0.47975263]
[-0.11619697]
[-0.0068727]
[-0.17864983]
[0.00453809]
