layers 7
layer 0 Dense
20 20
[-0.00960327 -0.31694198 -0.41059017  0.2962019  -0.05205536  0.10584146
 -0.11766841  0.35240892 -0.33230278 -0.41444972 -0.08902919  0.077645
  0.18643592 -0.59005404  0.12023754 -0.12786691 -0.171033    0.22017075
 -0.3881821   0.5783183 ]
[ 0.32966775 -0.25812125 -0.02281913 -0.10117662  0.13474768 -0.35352474
 -0.15255319  0.04393902 -0.3602898  -0.06402758 -0.05417138  0.19765687
 -0.09514329 -0.13847803  0.35069335 -0.3410623   0.14132744  0.2171092
  0.09626594 -0.0031482 ]
[-0.1100263   0.0135625  -0.22667758  0.289411    0.18043017  0.3265561
 -0.04255283 -0.15828662 -0.00886205 -0.19984984  0.12106609 -0.08484626
 -0.2569611  -0.04544517  0.23936296 -0.33227706  0.23088366  0.22343528
 -0.01922953 -0.08653626]
[ 0.11414013  0.06903937  0.10585298 -0.04535151  0.33817887 -0.47802094
  0.09436526  0.6466585  -0.3409677  -0.31172562 -0.25151736  0.5247834
 -0.3545275  -0.4475131  -0.2960403   0.67148477 -0.07660042 -0.06592532
 -0.22631338  0.64530694]
[-0.1930104  -0.23645505  0.32386336  0.05449605  0.2693297  -0.46296486
  0.5235444   0.23127753 -0.7814434   0.13086149 -0.14554188  0.32585993
 -0.17891078 -0.03360864 -0.02166116  0.14786309  0.14281431  0.20763218
 -0.3063087  -0.3440292 ]
[ 0.12677401 -0.11774021 -0.15909652 -0.02260581 -0.07275879 -0.14632916
  0.24289083  0.25511712  0.07237661 -0.15751244  0.3851533   0.13831395
  0.28313762 -0.37613675  0.24245948 -0.3472756   0.17270833  0.23795873
 -0.16616203 -0.2189717 ]
[-0.31416503  0.35784358  0.31071246  0.12285876 -0.20020543 -0.33107138
 -0.25173473  0.3086655  -0.26136523  0.12839359 -0.24961601 -0.06784856
 -0.20144878 -0.0982095   0.3810975  -0.0846588   0.03925705  0.32845533
 -0.3398703  -0.25960112]
[ 0.1323675   0.46173733  0.27735183  0.00763184 -0.32819152  0.11315494
 -0.269576   -0.32103354  0.6182827   0.02504312  0.18383451 -0.49927673
  0.01015041  0.3637558   0.6322378  -0.00598169 -0.280765   -0.57064277
 -0.05218521 -0.33303094]
[-0.09581075  0.00379373  0.6067978   0.2666093   0.9440644  -0.26559752
  0.66815126  0.35340598  0.05357654  0.084189   -0.2992834  -0.11959483
 -0.22514603  0.04656737  0.15900594  0.13805792  0.4633681   0.37297368
 -0.30805147  0.3162908 ]
[ 0.15116955  0.0387063  -0.40801775 -0.00846077  0.13881938  0.36218467
  0.185998   -0.2259      0.43183345 -0.12154169 -0.15233198  0.1678159
 -0.7298076  -0.17152633 -0.629538    0.0857795  -0.05313741  0.37103373
  0.30376738  0.04846994]
[-0.17362653 -0.29967186 -0.06617955  0.4558303   0.15766461  0.15238054
  0.12733191  0.19265616 -0.3196924  -0.23932205  0.1781858   0.22517766
 -0.40137994  0.25830996  0.01903451  0.04657417 -0.47800738  0.18516655
  0.2587303   0.09992672]
[ 0.345446    0.4421381  -0.0309887  -0.53544873  1.1410769   0.8403648
 -0.3068196   1.8172884   0.20116574  0.9854879   0.1048549  -0.63171107
  0.91158694 -0.00634469  0.32965177 -0.23778301  0.19738692 -0.52719474
  0.72054607  1.1885446 ]
[ 0.23555245  0.1487316   0.27860636  0.12933022 -0.3710464   0.23243022
  0.5882713   0.14816044  0.00881194  0.2303719   0.41466776  0.22812726
 -1.1326274   0.14152928  0.20848547 -0.11403244  0.19004759  0.2870999
 -0.46166888 -0.81071407]
[ 0.8209834  -0.27291733 -0.7051356  -0.10144296  0.28328368 -0.02209901
  0.21154507 -0.01371234  0.4722997  -0.22203457  0.06256965 -0.01721061
  0.26521775 -0.2034314  -0.38569826 -0.14467578 -0.36242414  0.26550838
  0.26921645 -0.21481036]
[ 0.04911565  0.0408199  -0.34388283  0.6079922   0.42600942 -0.01793237
  0.19233444 -0.07583624 -0.15000416 -0.4617625   0.12521313  0.24166566
 -0.21579045  0.281818    0.2718086   0.11874146 -0.49574715  0.21437146
  0.210275   -0.00552251]
[ 0.23849957  0.91513574 -0.3587124  -0.28868425 -0.6420319   0.6538463
 -0.5803033   0.8202605   0.72687274  0.9412884  -0.2390241  -0.5899984
 -0.01046766  0.0936594  -0.08947407 -0.37690037 -0.2392139  -0.18817222
  0.5070683  -0.43976238]
[ 0.02674805  0.34342402 -0.22008924 -0.30261278 -0.4246118  -0.43800905
 -0.3251864  -0.6493202  -0.39015114 -0.1947734  -0.6776241  -0.551959
  0.36658582  0.0697872   0.02231643  0.08094775 -0.5526084  -0.5664783
 -0.07682782 -0.08730522]
[-1.0874264   0.48601985  1.1093738   0.4845058  -0.19974323  0.24844056
 -0.1987763   0.4043632   0.02542889 -0.19039744  0.13136238  0.18744099
  0.7610704   0.22042729  0.7438891   0.5116257   0.17331529  0.31061697
 -0.15322919  0.01248484]
[-0.07292487 -0.18882285 -0.1880377  -0.8155008  -0.44082472  0.19374563
  0.5091358  -0.3660019   0.42784533 -0.04529349 -0.6917537   0.17842457
  0.22179638  0.11244524 -0.3621872  -0.41649696  0.622221    0.2223955
 -0.94328004  0.00742782]
[-0.38442737 -0.6165281   0.09354935  0.5924449  -0.08959726 -0.03959096
  0.3686533  -1.2588209   0.76213306 -0.2768293   0.3670161   0.40414995
 -0.07931725  0.22352014 -0.14511655  0.46886346  0.5051027   0.23275189
 -0.7270048   0.07681964]
[-0.15123504 -0.04759483 -0.06244397 -0.02389898  0.10156348 -0.16384143
  0.11668079  0.29702014  0.02429701 -0.23563956  0.03817669  0.16115782
  0.07093226 -0.24095728 -0.25256622  0.32240555 -0.06677327  0.18781267
  0.00781168  0.41834736]
layer 1 Activation
tanh
layer 2 Dense
20 40
[-0.18046743  0.38580218  0.10252821  0.34264925 -0.08052099 -0.34551212
  0.3660602  -0.04271266 -0.6194791   0.05104402 -0.26185942 -0.15960753
  0.31792822  0.1644458   0.39118034 -0.17452194  0.11285233 -0.15110768
  0.4820962  -0.38919583 -0.26034725  0.25703454 -0.26221773  0.04111795
 -0.06156178 -0.3380113  -0.33010194  0.32463393  0.16201873  0.16167416
  0.5213083   0.46071386 -0.34819898 -0.11951176  0.01683612  0.078012
  0.27360165  0.09542323  0.09663431  0.16319281]
[ 0.15634312  0.72687066 -0.08531733  0.65462875  0.4045538   0.01963505
  0.15437628 -0.7966427  -0.42057613  0.3029715   0.10703277 -0.21991435
 -0.37277308 -0.16076751  0.39596933  0.18568726 -0.06350189  0.0354671
  0.30819473 -0.50223815  0.06801072 -0.01065804  0.25434685  0.32050797
 -0.13312152 -0.27867073  0.20566384 -0.28846398  0.19002981  0.28236187
 -0.56121516 -0.5932132  -0.08119634  0.4380569   0.33205327  0.13309969
 -0.2515885  -0.18679973 -0.29132056  0.39459246]
[ 6.67725384e-01  3.53024751e-01 -1.30801693e-01 -9.36369896e-02
  3.41290683e-01  6.15370512e-01  1.16905347e-01  2.32436806e-01
  2.51544416e-01  9.47232693e-02 -2.13951301e-02  4.07638103e-02
 -5.23686707e-02  3.89439046e-01  1.76165864e-01 -1.49010360e-01
  7.79172813e-04 -1.45786162e-03  1.22140974e-01 -1.46918312e-01
  1.25817165e-01 -5.54124832e-01 -2.48784512e-01 -4.44317400e-01
 -3.81294116e-02 -4.28063095e-01  3.51654857e-01  5.41279793e-01
  1.17129587e-01 -7.59796128e-02 -4.17332113e-01 -4.83316224e-04
  7.35018924e-02  2.63666183e-01  1.47696704e-01 -6.24964774e-01
  1.04181252e-01 -1.18821912e-01 -3.93071502e-01 -1.15967661e-01]
[ 0.71546334 -0.29898453  0.09223425 -0.3137028   0.77271956 -0.07400368
 -0.49727598  0.3243528   0.80687946 -0.2374003  -0.22149014  0.25085327
  0.82262146 -0.2804072  -0.18412937 -0.2529656  -0.59978414 -0.39228687
  0.47577685  0.46194515  0.54822403 -0.2238951  -0.09192406  0.0332978
  0.41394606 -0.7799666   0.25934482 -0.30531266  0.09613082 -0.38561702
 -0.15408453  0.57388127  1.1136926  -0.5393064  -0.5683877  -0.27203247
  0.06665988 -0.02143617  0.1394081  -0.14919221]
[-0.28405282  0.10675129 -0.16206273 -0.31151843 -0.42961428  0.62924933
  0.05846469  0.12569128 -0.5232437  -0.3397038   0.18387079 -0.01479835
  0.10043021 -0.1583964  -0.03914688 -0.04923721 -0.07977409 -0.4511094
  0.1421216  -0.06559218 -0.27961224  0.12922043 -0.38508713 -0.30273128
  0.19088979 -0.10675615  0.04526961  0.33983377  0.44934142  0.12338031
  0.31662136  0.49738023  0.0151567  -0.10128938  0.04642671 -0.2645599
  0.21745996 -0.37521172 -0.24042916  0.07027029]
[ 0.05746429  0.88882256 -0.24019243  0.01691047  0.42618582 -0.2118165
  0.35022542 -0.43787754 -0.54922485  0.17278306  0.22670792  0.07136909
  0.5629514   0.18588187 -0.18750246  0.2277276   0.0112991   0.5653045
  0.538654   -0.00697573  0.2005911   0.12167247 -0.10738237  0.24439195
  0.14864103 -0.33903548  0.09926544  0.13455631 -0.34109557  0.31929356
 -0.34765282 -0.25671425 -0.21342066  0.12935565  0.35846666  0.48972356
  0.1605943  -0.13831829 -0.0356294   0.18378063]
[-0.13662553 -0.34698835 -0.32483605 -0.43634883 -0.94566745  0.43305752
 -0.22677079  0.21770997 -0.15788005  0.03651002  0.0907593  -0.3315246
 -0.1184664   0.08366565 -0.40301445  0.48050413  0.4335791  -0.18063128
  0.12371472  0.2980852  -0.0715728  -0.07945592 -0.48414204 -0.42493144
  0.0423334  -0.07732485 -0.26171714  0.727823   -0.13997121  0.11798457
  0.14037853  0.6988327  -0.13371341 -0.37081912 -0.43036783 -0.60102576
  0.60841954 -0.18151808 -0.09076235 -0.10286861]
[ 0.11166409  0.37284407 -0.21624038  0.02149544 -0.36848575  0.7177891
 -0.00632117  0.28324535 -0.97503716  0.07109563  0.00613558  0.307865
 -0.09399239  0.20038915  0.14579603  0.02810128 -0.03881028 -0.25136444
 -0.36238778 -0.06846793  0.21678169  0.01035884 -0.43629444 -0.3543247
  0.1421677  -0.09704588  0.13097706  0.32821763  0.30629042 -0.09482571
 -0.0306652   0.25178933  0.05321091 -0.27373564  0.1628676  -0.43606558
 -0.2118787   0.3550543   0.47822052 -0.406278  ]
[-0.43929452 -0.22292073 -0.41212878 -0.23290831 -0.21830438 -0.2181653
  0.3566815   0.25671995 -0.06256083  0.38752037  0.41205776 -0.11889353
  0.68804383  0.15548933 -0.18210138  0.11486682  0.3004089   0.49714234
  0.36460003  0.2143357  -0.16841942 -0.05831078 -0.20259744 -0.22194381
  0.35570312 -0.10588621 -0.323794    0.48880616 -0.013465    0.08891597
 -0.17225744  0.18929249 -0.3484326   0.08517004 -0.26759493  0.20984799
  0.5065302  -0.4600433  -0.39706886 -0.08887019]
[-0.21687059  0.6852203  -0.30584118  0.5443029   0.3854923  -0.37668028
  0.3223411  -0.40033415 -0.07971777  0.39219886 -0.14676392 -0.07637408
 -0.03589591  0.22773145  0.34080458  0.2296713  -0.24058555  0.44389737
  0.10042346 -0.2868461  -0.19513662  0.09004158 -0.1659927   0.33713973
 -0.34379637  0.2686027  -0.06568596 -0.02596281  0.16962373  0.2890497
 -0.34163585 -0.42909047 -0.20811245  0.5706602   0.11049576  0.12032015
 -0.1669759  -0.24602576 -0.1709416  -0.03484338]
[ 2.7117041e-01 -5.9933957e-02 -1.1151054e-01 -6.7137048e-02
 -1.5360482e-01  6.5686464e-02 -1.8038177e-01  7.2132170e-02
  3.4566775e-02  1.4127435e-01  3.7452573e-01 -1.6438833e-01
  6.8598723e-01 -2.3918998e-01 -5.4416440e-02  8.9747615e-02
  7.2176144e-03  2.9852468e-01  2.7390647e-01 -2.8187725e-01
  2.5742468e-01 -2.1289629e-01 -3.0384690e-02  1.0554177e-02
  6.7587024e-01 -3.5702440e-01  1.3871099e-01  5.4226047e-04
 -1.8051897e-01 -2.6853043e-01  1.0902542e-01  4.0819371e-01
  3.7604624e-01 -4.7661632e-01 -3.0576503e-02  5.5328496e-02
 -4.7693786e-01 -1.0156908e-01  2.2643006e-01 -3.7208888e-01]
[ 0.34804183 -0.43186784  0.8529124  -0.30987522  0.2746973  -0.02707084
 -0.42304814  0.43287477  0.03327338 -0.5809212  -0.5349813   0.42611116
  0.03721767 -0.44366083 -0.2907957  -0.5142097  -0.55946743 -0.20200914
 -0.33925927  0.58083516  0.29919958  0.17152372 -0.7080911  -0.12616935
  0.07732245  0.07380365 -0.12272914  0.2922943   0.11714236 -0.8471528
  0.2031023  -0.06680784  0.05043168 -0.56926435 -0.42947116 -0.37983993
 -0.30059367  0.72807574  0.6904329  -0.20297259]
[-0.2339504   0.09986081 -0.08411799 -0.09691237 -0.07567596 -0.09816568
  0.1641667   0.06984458  0.01454206  0.17275222  0.29652572 -0.00617947
 -0.25336114  0.13082926  0.41383955  0.41642186  0.5721316   0.15657267
 -0.1052046  -0.02532907  0.08703082  0.00406277 -0.3127147  -0.01958662
 -0.09114575  0.12245822 -0.4046481   0.01819975 -0.07551952  0.2867833
 -0.3449402  -0.36798736 -0.48280573  0.25710124  0.41541746  0.15481222
 -0.45984894 -0.4791431  -0.48738825  0.3878907 ]
[ 0.1368105   0.17454602 -0.32379773  0.20273149  0.0375602   0.36031988
 -0.03697671  0.2437283   0.41753685  0.35698062  0.06106283 -0.51132965
  0.2178293   0.08089567  0.3842739   0.15936396  0.07769683  0.31139466
 -0.1239244  -0.25642794  0.02537667 -0.00664082  0.11169772 -0.01413481
  0.08863701 -0.45738158  0.1262699  -0.27658218  0.19403067  0.18110867
 -0.60065454 -0.1755653   0.30694333 -0.03522941  0.40961015 -0.20270813
 -0.11039369  0.00827343 -0.53344905  0.03680615]
[ 0.41812107 -0.04182725  0.03660053  0.34250742  0.43514574  0.41205814
 -0.12475137 -0.19242728 -0.11655548 -0.04917123 -0.03224209 -0.01156102
  0.14106527  0.1856637   0.06168455  0.1388046  -0.40420184  0.32673073
  0.13492283 -0.21924357  0.21893568 -0.4047059  -0.547901   -0.0397969
 -0.14440945 -0.5134345   0.1844458  -0.04565856  0.29019082  0.1466466
 -0.2909334   0.3505455   0.59664196  0.21449043 -0.4495576  -0.01800179
  0.2843007   0.12335835 -0.00382566 -0.43200216]
[-0.02675646 -0.30565307 -0.03223948  0.22239593 -0.08770182  0.27493975
 -0.25803998  0.17087005 -0.38459164 -0.23844168 -0.23104839  0.32785243
 -0.03315593 -0.26135397 -0.0981136   0.07291163 -0.4036569  -0.26021025
 -0.04784822  0.29844728 -0.16811784 -0.04551931 -0.02837007 -0.26828092
 -0.25591522 -0.44133732 -0.00363461 -0.34910786  0.40485308 -0.34914833
  0.11479549 -0.00490857  0.8881256  -0.4389713   0.02671154  0.0502065
 -0.15337238 -0.03265679  0.03756151 -0.09049435]
[-0.01730047  0.1371842   0.11154781 -0.37889794 -0.605646    0.22645676
 -0.1174826   0.2936927  -0.26832122  0.05034428 -0.0675521  -0.14994334
  0.151243   -0.10757107  0.12959388  0.37884757  0.4614484   0.5034907
 -0.19136718  0.03625193  0.02380781 -0.05945557 -0.10705269 -0.19690064
  0.11956178 -0.01981376 -0.01146749  0.46808642  0.04765422  0.08814093
 -0.5837322  -0.317578   -0.14559259  0.0845874  -0.22785701  0.07868157
  0.24650617 -0.23026429  0.0554944  -0.41148505]
[ 0.41215718  0.009083    0.6389742  -0.4469881  -0.3008069   0.3772972
 -0.34738103  0.55529964 -0.61604816 -0.68953717 -0.51105714  0.46706814
 -0.22465104 -0.03388648 -0.3029914  -0.5285982  -0.32692894 -0.07642324
 -0.38523114 -0.00604173  0.53269964 -0.35351992 -0.42934588 -0.347757
 -0.5001845  -0.07722589  0.40030515  0.12575641 -0.18353514 -0.7359494
  0.00314483  0.40067208  0.02406004 -0.6135092  -0.60674983 -0.6097707
  0.22349352  0.57133746  0.36069748 -0.571968  ]
[-0.03262302  0.6030764   0.07938112  0.37857354  0.1536879  -0.28203958
  0.02485991 -0.37044072 -0.49405032  0.30960745  0.05526141  0.00073648
  0.2697392   0.09539271  0.43547574  0.2102855   0.01469866 -0.4492168
 -0.2777593  -0.20699596 -0.4390769  -0.26137903 -0.03845296  0.02911568
  0.27442425  0.11120634  0.0135682  -0.28805277  0.4730303   0.39837927
  0.5559932   0.12360427 -0.35951927 -0.2167186   0.5019566   0.0611132
  0.09083557 -0.13241315 -0.14325163 -0.2911445 ]
[ 0.27140775 -0.5429643   0.42547312 -0.57262707 -0.10615669  0.20213425
 -0.34522223  0.31913483 -0.6319791  -0.61245704 -0.4503769   0.17623664
 -0.27962655 -0.57883346 -0.3713206  -0.8001067  -0.04390729  0.09015357
 -0.3596734   0.3553161   0.5085899   0.21912584 -0.37212253 -0.13293228
 -0.35481864  0.2864804  -0.20609556  0.22059843 -0.3462118  -0.59127504
 -0.03760456  0.04352741  0.28085095 -0.3000584  -0.45996797  0.22452426
  0.22057612  0.50954425  0.4381547  -0.28336746]
[ 0.16252835 -0.22492954  0.51827556 -0.22615516  0.05771303  0.03866606
 -0.14629233  0.20145075 -0.2398074  -0.40158826 -0.35945874  0.46062118
 -0.13887744 -0.2546893  -0.14520952 -0.5403723  -0.29155725 -0.05779925
 -0.33364043  0.15578254  0.23849604  0.26375023 -0.30356216 -0.1404893
 -0.18626437 -0.00938142 -0.00393589  0.10752552 -0.05497692 -0.41400525
 -0.00396573 -0.11047081  0.0164137  -0.1396573  -0.1478471  -0.0889847
 -0.05395126  0.52809614  0.5736643  -0.16013482]
layer 3 Activation
tanh
layer 4 Dense
40 20
[ 0.16668682  0.5172336  -0.0771457   0.13462606 -0.4881378  -0.10877955
  0.16354449  0.2253869   0.20828456  0.36526975 -0.18868382 -0.04844925
  0.10792056  0.01340406  0.08408827  0.3376519   0.07229131 -0.38876194
 -0.10985161 -0.12728246]
[-0.09727722 -0.27730694 -0.03286706  0.68168867 -0.64196783 -0.21106826
 -0.25182453 -0.13229169 -0.6421372  -0.4016441   0.3856187  -0.13815917
 -0.78918093  0.7574681   0.83678806  0.3312008   0.13401683 -0.19303983
 -0.20480992  0.25329816]
[ 2.8946528e-01  5.5813439e-02  3.4904960e-01 -4.5489120e-01
  3.8934532e-01  3.9256850e-01  4.0031323e-01 -1.4972085e-05
 -1.6796571e-01  2.6240528e-01  6.7401402e-02  2.8396574e-01
  1.8162794e-01 -1.2030306e-01 -2.2752109e-01 -3.7842825e-01
  3.5977656e-01 -6.7358814e-02 -1.5472007e-02 -2.6817873e-01]
[-0.40588576 -0.06290183 -0.13677126  0.52508324 -0.5645045  -0.02505003
  0.11559773 -0.10780473 -0.09443334 -0.39613125 -0.12263881 -0.07502063
 -0.2864603   0.60089016  0.5243779   0.4014019   0.19894601 -0.5079769
 -0.3771379  -0.04142872]
[ 0.3363329  -0.04781692  0.07635067 -0.29568955 -0.23154092  0.13128746
  0.14001013  0.2889748  -0.5172292   0.38422486 -0.0093492   0.13921092
 -0.31823617 -0.18899086  0.04095925  0.13387169  0.33249953 -0.2096858
 -0.11653019 -0.02650603]
[ 0.099897    0.50334287 -0.04291721  0.19192539  1.1708989   0.02690261
 -0.06888608  0.20683411  0.18500194 -0.17600583 -0.6066555   0.12257665
  0.5125381   0.02408779  0.25718606  0.43437833  0.30691358 -0.23200758
 -0.31238434 -0.3600179 ]
[-0.519203   -0.30589578 -0.12451144  0.4868319   0.03118018 -0.70895135
 -0.11515196  0.16893029 -0.02100695  0.04944272  0.29846698  0.16000974
 -0.28125262  0.6391427   0.0489672   0.11248376  0.0189941   0.10372246
 -0.17873627  0.43797314]
[ 0.61527044  0.09478056 -0.2475628  -0.5527818   0.3278134   0.59898984
 -0.05243095  0.18428399  0.41328326  0.23670208 -0.06341691 -0.25340766
  0.01387171 -0.1319032  -0.68769073 -0.14169541  0.43391517  0.37507498
  0.1993484  -0.2796111 ]
[ 0.02828544 -0.03990089 -0.27578318  0.16239484 -0.9368066  -0.1250245
 -0.2943417   0.19837849 -0.6644396   0.30381837  0.487037   -0.30484784
 -0.7682304   0.15111417 -0.6477462   0.63864297 -0.02418993 -0.68847096
 -0.36299926 -0.19959043]
[-0.50620604 -0.11600438  0.13608767  0.48333    -0.30502507 -0.70088524
 -0.25352445 -0.07448958 -0.03027869 -0.28527743 -0.01797031 -0.13393715
  0.15667029  0.6600767  -0.2589556   0.12625653 -0.34397256 -0.01107885
  0.02837782  0.4283825 ]
[-0.3190541   0.4403733   0.05665567  0.38366362  0.14771932 -0.33024153
 -0.4377492  -0.5064945   0.34435067 -0.42176116  0.16143917 -0.16230877
 -0.17513217  0.05239783 -0.16938053  0.29123527 -0.19379632  0.4132208
 -0.48373082  0.47607252]
[ 0.44886133 -0.42393297  0.21729493 -0.07948192 -0.06507366 -0.13943785
  0.33355206  0.03912914 -0.26130643  0.42167982  0.32438925  0.39656708
  0.05188313 -0.27490318 -0.19181721 -0.14109571  0.433275   -0.4826436
  0.05298679 -0.52706003]
[ 0.12817624  0.4315748  -0.20659482  0.13373846  0.5051305  -0.05924749
 -0.09084361 -0.00532707  0.46720278 -0.28331763 -0.44215935  0.12159159
  0.58114225 -0.05778842 -0.2106221  -0.01523731 -0.28815928  0.05037064
 -0.14945762 -0.06771746]
[-0.41051078  0.08238516 -0.2325352   0.39776778 -0.15666468 -0.4063553
  0.20582783 -0.18373391  0.17691611  0.11356613  0.27766994 -0.23829514
  0.15238374  0.5125982   0.17620249  0.0600861  -0.05650235 -0.06961016
  0.10990732  0.18503252]
[-0.13345045  0.44996533 -0.01571254  0.33820978  0.06774246 -0.09804325
  0.18928106  0.09632439 -0.3308263  -0.42891824 -0.25140065 -0.12425717
 -0.1368991   0.1977373  -0.0509703   0.23365629 -0.32438973 -0.21595524
 -0.8166647   0.39666185]
[-0.56545055 -0.03689385 -0.43203437  0.5784878  -0.52726376 -0.32127282
 -0.08167396 -0.15032183 -0.10735083 -0.1965911  -0.00490017 -0.45415223
 -0.02439761  0.25634235  0.08815815  0.22649154  0.11244758  0.3006081
  0.04700526  0.5719903 ]
[-0.49065134 -0.08190301 -0.12517507  0.71269447  0.4154988   0.23270342
 -0.06686904 -0.22475708  0.10305734 -0.47682288  0.41781622 -0.11841313
  0.0937042   0.5343419  -0.08382247 -0.0831252   0.13253272  0.35484228
 -0.26801932  0.6473638 ]
[ 0.06392702  0.42508122 -0.21503356 -0.21340404  0.02923873 -0.41380006
 -0.20189497 -0.2296513   0.04079772 -0.22508739  0.00667206 -0.28679314
  0.4325117  -0.03150631 -0.04624848  0.3273672   0.09972379  0.30463913
 -0.35465336  0.02866296]
[-0.26698712 -0.19258927 -0.2919324   0.35583332  0.09675859 -0.50848603
 -0.3631991  -0.3836442  -0.18410593 -0.19332686 -0.39334598  0.1898554
  0.23285544  0.4080549   0.02516115  0.22157718 -0.3367249  -0.12054204
 -0.24744615  0.29978597]
[ 0.11361431  0.41863835  0.04650767 -0.50987977  0.28396338  0.44495755
  0.282165   -0.15232253 -0.07495217  0.17506807  0.16330299  0.23435582
  0.37728965 -0.63954914 -0.10607742 -0.34299034 -0.20631354  0.22141576
 -0.08315924 -0.3233466 ]
[ 0.23663285  0.6135203   0.08163138 -0.34345388  0.07554266  0.72592616
 -0.07502369  0.07967864 -0.14826025  0.43395594  0.08282401  0.11433148
 -0.0566892  -0.15560605 -0.19373378 -0.13191463  0.32754636 -0.19727615
 -0.1292281  -0.49049214]
[ 0.41041264  0.14037621  0.09266121 -0.41962534 -0.19512223  0.35577127
 -0.07779351  0.33853158 -0.22798651  0.14321852  0.33924022  0.11592472
 -0.20885889 -0.02294675  0.00714598  0.03373744  0.23687142  0.2637124
  0.21019925 -0.23196715]
[-0.5483572   0.0632413  -0.16718738  0.23094502 -0.95753974 -0.39390156
 -0.12368681 -0.1956106  -0.38444915  0.02149448 -0.04914863 -0.06992422
 -0.43770492  0.7245872  -0.3536117   0.26354137 -0.25952697  0.14285217
 -0.2379463   0.47774476]
[ 7.4474543e-02 -4.1894409e-01 -6.6114496e-04  1.7395219e-02
 -7.4132574e-01 -2.6234740e-01 -2.6023856e-01 -1.6763601e-01
 -6.1179048e-01 -7.5610667e-02  3.7656972e-01 -2.0922965e-01
 -4.8576397e-01 -2.9118899e-02  4.8100501e-01  1.2244173e-02
 -1.9803125e-01 -6.3730814e-02 -1.7175749e-01  1.6896580e-01]
[-0.31770098  0.2834219  -0.11549744  0.18371518  0.26394245  0.04715243
 -0.4373948  -0.24659462  0.2600328  -0.37819993 -0.0913228  -0.43948674
  0.21997973  0.6013382  -0.25046965  0.02977635 -0.42581907 -0.10704386
 -0.44880706  0.16128623]
[-0.10524965 -0.7468017   0.40905434  0.10389896 -0.53340304  0.30865026
  0.26750246  0.09540877 -0.21820566 -0.1411676   0.41241977 -0.0889789
 -0.34983414  0.02551858  0.25833413  0.02958008  0.17908971 -0.00428777
  0.11946905 -0.2603071 ]
[ 0.21288225  0.48789746 -0.24624038  0.32834098 -0.17729369  0.03925817
 -0.13790075 -0.2455426  -0.24711524  0.22586173 -0.3074643  -0.34344533
 -0.01935872  0.04923711  0.26211604  0.40210563 -0.15781423 -0.23748904
 -0.3761426   0.07530827]
[ 0.07790845  0.00409027  0.18376361  0.17241098  0.8724641   0.13383578
 -0.31763533 -0.0070233   0.10451859 -0.23452157  0.1794292  -0.06128496
  0.48016095 -0.20821594 -0.04439707 -0.15962878  0.28882822  0.39813796
  0.43875173 -0.1863307 ]
[-0.19382639  0.3864115  -0.19513297  0.21301012  0.34576127 -0.1724406
  0.32960477 -0.24201602 -0.2520513  -0.21832079 -0.43883735 -0.01864807
 -0.02457044  0.3020581   0.32152182  0.03423003 -0.23353791 -0.28772867
 -0.1459064   0.29254782]
[-0.8313657   0.09707557 -0.05357381  0.78443825 -0.29426432 -0.5434492
 -0.41038576 -0.22192723  0.09797773 -0.44637993  0.34983784 -0.2424299
 -0.35503677  0.6370942  -0.07650435 -0.12709579 -0.3928108   0.07152149
  0.20235568  0.7661361 ]
[-0.23741417 -0.30669725 -0.05476984  0.05706047 -0.38657776  0.13114221
  0.15293069  0.20607649 -0.02179368 -0.27536818  0.42088765  0.38274303
 -0.23260443 -0.12531514  0.39030316 -0.70291686 -0.07283412 -0.19125189
  0.80313283  0.15423475]
[-0.10634746  0.41866922  0.17183523  0.17620566  0.9630847  -0.42992872
 -0.00523018  0.28023535  0.34935513  0.14370029 -0.4059695   0.05038581
  0.48526087 -0.00711733  0.02706818 -0.31698942 -0.31281433  0.00593273
  0.23166916  0.01337298]
[ 0.09895243  0.6276672   0.12326849 -0.36960363 -0.29325622 -0.3383293
  0.15474027  0.24457301 -0.02411776  0.56993264 -0.6972376   0.28368467
 -0.22363918 -0.19602716 -0.36828232  0.32839677 -0.18122312 -0.66631866
 -0.03969898 -0.06946887]
[-0.4429642   0.29538468  0.27486062  0.11125401  0.14651126 -0.22768892
 -0.352782    0.09462024 -0.35913908 -0.22501773 -0.04494782 -0.4292639
  0.08442853  0.2515275  -0.2333628   0.36366084 -0.26642224  0.01364811
 -0.62050724  0.10443993]
[-0.53876704  0.47209603 -0.09241811  0.7077885   0.07380811 -0.04148374
  0.1948437   0.33591607 -0.41864896 -0.07535776 -0.11829565  0.21084416
 -0.43241674  0.58200985  0.45199433  0.40699494  0.04812852 -0.01372305
 -0.739227    0.5075516 ]
[-0.1706483  -0.2739228   0.31420264 -0.07089946 -0.5537665  -0.5832069
 -0.13540888 -0.00334398 -0.19162697 -0.1501868   0.47444078 -0.15994278
 -0.58757144 -0.29582042  0.01844718 -0.20016906  0.19004416  0.3714609
 -0.48187038 -0.30225515]
[ 0.039035   -0.12751247 -0.16731305  0.14825106  0.7349035  -0.3069064
 -0.07935824 -0.3628331  -0.17916629 -0.09222542 -0.12644465  0.31772813
  0.3247389   0.02873003 -0.49665278 -0.1520006  -0.20589778  0.0388337
  0.17782517  0.1657763 ]
[ 0.47871983 -0.28785706  0.3603289   0.08766591  0.08171628  0.14094946
  0.19067033  0.3056691   0.1641912   0.14993247 -0.10072854  0.37573078
  0.06721652 -0.529597   -0.11338942 -0.13699514  0.45272306 -0.29878488
  0.20829694 -0.33350912]
[ 0.564888    0.03066538  0.37792715  0.09964763  0.4210717   0.02990109
  0.0419485   0.59730023 -0.09899557  0.13010173 -0.21141526  0.17604007
  0.2435049  -0.4962251  -0.01233513 -0.38309664  0.39324078 -0.46011737
  0.3569277  -0.36645612]
[-0.537971   -0.22202909 -0.19786711  0.3888101  -0.5151093  -0.49200183
 -0.41642088 -0.13264711 -0.44210926 -0.4752032   0.22174431 -0.06877381
 -0.10982815  0.5670519   0.3564166  -0.05508563 -0.1321747   0.15612964
  0.09937537  0.6060803 ]
[ 0.2615708  -0.21985035  0.12934168 -0.19264276  0.14330752  0.12334585
  0.07214237  0.24428308 -0.0725731   0.1679898   0.08075214  0.07839395
  0.0080146  -0.2692535   0.05284504 -0.07201703  0.1569677  -0.12033568
  0.07539794 -0.20756538]
layer 5 Activation
tanh
layer 6 Dense
20 1
[-0.725423]
[-0.11798877]
[0.6266649]
[0.3609921]
[-0.98991495]
[0.4242089]
[0.8409479]
[0.42956334]
[-0.67487067]
[-0.5352376]
[0.77449405]
[0.7702524]
[-1.537496]
[0.09430168]
[0.13509484]
[-0.72383404]
[0.440113]
[-0.8941351]
[0.47295395]
[0.26546967]
[0.31971508]
