layers 7
layer 0 Dense
20 20
[-0.1626957  -0.10108883 -0.25665575 -0.34807968  0.2045786   0.10708904
  0.08050277  0.15323088  0.06550971  0.01342993 -0.2743586   0.26490676
  0.1250891   0.32675663  0.21076322  0.20199117 -0.12150783 -0.23446214
  0.06006668 -0.06438204]
[-0.46447086 -0.17808464 -0.00279249 -0.18871994  0.13632448 -0.7425865
 -0.28196177  0.37876177  0.3763593   0.10365738  0.44098055  0.24495399
 -0.48724562  0.4166658  -0.02964094 -0.45170656  0.48067233 -0.22109708
 -0.41580048 -0.5917125 ]
[-0.40972388  0.24124524  0.06658757 -0.33315966  0.08217105 -0.07964279
 -0.33326077  0.33866635  0.42670983 -0.02379174  0.80456835  0.1406811
 -0.34587675 -0.2764425   0.0580042  -0.35870236  0.43889531  0.05413647
 -0.22470662 -0.5053238 ]
[-0.07865823  0.01876943 -0.25662404 -0.37411034  0.00517844  0.1955342
  0.05496947  0.23476031 -0.12568566  0.01245076 -0.06942084 -0.20833059
  0.19580242 -0.13308935 -0.20377018 -0.25747046  0.19564551  0.30287075
  0.08259809 -0.01609982]
[-0.18901134 -0.3080758  -0.23406959 -0.3275214   0.11523086 -0.31500757
 -0.0118997   0.299305    0.31205583  0.42740822  0.29191914  0.12503265
  0.0227019   0.24546258 -0.2903414   0.31492186  0.15300234 -0.00836381
 -0.34763578  0.4104698 ]
[-0.02591842  0.05059707 -0.3183859   0.49734044 -0.5112941   0.28290206
 -0.0651838  -0.33832166 -0.1784117  -0.10452713 -0.27457637  0.19388242
  0.16156556  0.01080842 -0.32678705  0.10232131 -0.09205887 -0.09778169
  0.53065944  0.03359092]
[ 0.16498987 -0.16390672 -0.4447366   0.5047043  -0.04267141  0.43949547
  0.08642222 -0.34801856 -0.25322714 -0.01380056 -0.5434028   0.29360205
  0.1191823   0.30836415  0.03457093  0.21826583 -0.39277244  0.23327523
  0.14407879  0.0991684 ]
[-0.04087787  0.34622136  0.09994916  0.3131972   0.16736478  0.46953365
  0.35343307  0.23249106 -0.30799866 -0.16686204  0.47445944 -0.02451401
  0.44880322 -0.39958978  0.16375925 -0.20914364  0.12563516 -0.04880316
  0.3113451  -0.16865854]
[-0.41865367  0.02704233 -0.43456638 -0.36195198 -0.15100002 -0.38310733
  0.09486556  0.11220693 -0.20801386 -0.13333753  0.18907046 -0.25773802
  0.07212279 -0.27013487  0.06956962  0.09854069  0.37736294  0.07421957
 -0.25014728  0.4038884 ]
[-0.15692967 -0.26917803 -0.47801852  0.10062006 -0.0090497  -0.3636123
  0.04508156 -0.08692633 -0.24125125  0.16303173 -0.83275545  0.0398777
  0.4964036  -0.5692628  -0.2134117   0.40871692  0.50597435 -0.10966745
 -0.13257349 -0.18232322]
[-0.4961848  -0.4422947  -0.3024806  -0.16121969 -0.7139475   0.02952944
  0.4783242   0.1691896  -0.56148285  0.88824874  0.05128593 -0.51684445
  1.1766063  -0.15010048  0.24240513 -0.21351172 -0.3887483   0.47375906
 -0.10707673 -0.73764557]
[-0.68131703 -0.4262394  -0.01687014  0.05442773 -0.16225657 -0.86944705
  0.05982701 -0.02405486 -0.5125441   0.4297223   0.5488843   0.19689341
 -0.3854117  -0.09517941 -0.47940722  0.50726193  0.55370826 -0.7865729
 -0.50549716  0.31031266]
[ 0.24789692 -0.05704942  0.45557114  0.79901046  0.11229812  0.65745825
 -0.14917563  0.03616869 -0.4148785   0.11592247 -0.24671367  0.28886515
  0.07768344  0.5471842  -0.8201502   0.05304532 -0.23929106 -0.17513396
  0.06742413  0.2377845 ]
[-0.12310325  0.04029541  0.660022   -0.25162578 -0.36975425 -0.12954707
 -0.07600402 -0.05769397 -0.34281084 -0.22415885 -0.18052283 -0.15659872
 -0.20809491 -0.11402009 -0.04006684 -0.10921341 -0.1312127   0.3679051
 -0.07623594 -0.1915067 ]
[ 0.38477787 -0.21749619 -0.39004287 -0.25601    -0.14876625 -0.25181818
  0.26505047 -0.09232048 -0.11895172 -0.3885401  -0.1709211  -0.37030146
 -0.17016622 -0.18280736  0.11136224  0.19582996 -0.0738508   0.24303892
 -0.12535216 -0.25825843]
[-0.19479005 -0.07691661 -0.73316    -0.7189278  -0.03746339 -0.8318451
  0.2872754  -0.34933925  0.15723267 -0.50671303  0.4676797   0.16845308
 -0.18225558 -0.6969283   0.15110776  0.22309265  0.13943623  0.02247761
 -0.22892097 -0.3091351 ]
[ 0.37818053  0.2525588  -0.00366914 -0.09437753 -0.07723557 -0.20808494
 -0.15687715 -0.25129515  0.2681635   0.28707424  0.3247201   0.15477364
 -0.16643056 -0.5285393   0.30535862 -0.30813503  0.09883863  0.27910426
  0.23088397 -0.17013736]
[ 0.5284731   0.29410788  0.14766155  0.19361942  0.5611112  -0.03651296
  0.10142832 -0.32431096  0.00963438  0.47313705  0.8786778   0.30250594
 -0.09246563  0.67016906 -0.13324465 -0.17032158  0.00445619  0.2661568
 -0.1656765  -0.20683515]
[ 0.16634561  0.7842138   0.222319   -0.07044023  0.96982116 -0.15922241
 -0.00475494 -0.4413243   0.7184099  -0.7110199  -0.49712318  1.0568353
 -0.16775964 -0.2544525   0.09161689  0.01036636  0.48659483  0.15226038
 -0.44360504  0.42860928]
[ 0.89485526  0.48460767  0.1839988   0.60536766  0.3109152   0.8301418
 -0.31167743 -0.08363777  0.22434427  0.08424622 -0.9419877  -0.0667578
  0.3544339   0.09823512  0.30375797 -0.23817113 -1.1481118   0.47110614
  0.41183814 -0.30463016]
[ 0.0438018   0.00890026  0.1102784  -0.11550441  0.07603677 -0.07131899
 -0.04129165  0.02577312 -0.01364111  0.00114823 -0.05961769  0.01194255
 -0.15286823  0.08057923  0.03111624  0.12417945 -0.06719567  0.07397731
 -0.0199953   0.16737081]
layer 1 Activation
tanh
layer 2 Dense
20 40
[ 0.33586746  0.02288344  0.02838928  0.22827843  0.16917849 -0.19361497
 -0.42748287 -0.0911162  -0.5757456   0.15359636 -0.02083254 -0.00945548
  0.0910109  -0.05026228 -0.11414751 -0.12873317  0.27987102  0.21778402
 -0.17139107  0.18255225  0.43147802  0.27467278  0.19972466 -0.16274725
  0.03654327  0.13040143 -0.09643407  0.29733354  0.20068872  0.22572947
  0.14534172 -0.09594508  0.12861718 -0.11830508  0.17941913 -0.0592283
 -0.15282501  0.02773817 -0.02440963 -0.27035004]
[ 0.337394   -0.01676536  0.13853887  0.04322859  0.0348038  -0.37520772
 -0.19725469  0.19942284 -0.39136487  0.4315391   0.05053153 -0.00325716
  0.08219264 -0.11184417  0.04493145  0.07329193 -0.19979924  0.11331269
  0.02226855  0.26799464  0.64572245  0.15048216  0.0030347  -0.19824457
 -0.06706496  0.04157204  0.01084947  0.04995281  0.13152365 -0.23356272
 -0.10582779  0.15361609  0.26707852  0.34912    -0.27637583  0.25747386
  0.12372165 -0.04315582  0.0144477   0.30602592]
[-0.30925494  0.3222191   0.29215983  0.00551873 -0.2763903  -0.10623622
 -0.33576515  0.26774934  0.24796538 -0.18073352 -0.09831937 -0.30164132
 -0.15087682  0.14436021 -0.12006554 -0.4398883  -0.08591545  0.2041379
  0.0205704   0.28380814  0.5471358  -0.11183898 -0.03133817  0.37746623
  0.06602306  0.11283542  0.03497251  0.2414669   0.2972085   0.07889824
  0.15431449  0.08334844  0.3596624   0.25608978  0.15222174 -0.1249261
  0.05313776 -0.02312438  0.30711505  0.02276823]
[ 2.83777773e-01 -2.22409219e-02  9.84347519e-03 -1.21830456e-01
  8.74729380e-02 -1.93920895e-01 -1.90221131e-01 -8.56571794e-02
 -2.03059569e-01 -1.73824817e-01 -2.51145512e-01 -1.75260473e-02
 -2.54044205e-01  7.50138015e-02  5.79093408e-04 -6.19239807e-01
  2.64754653e-01  2.47063130e-01 -4.34936404e-01  7.62282386e-02
  5.53278290e-02 -2.62526423e-01 -1.42886207e-01  1.46234846e-02
  2.76263893e-01 -3.14898074e-01  2.37516891e-02  1.86891556e-01
  3.30286846e-02  6.01230413e-02 -2.36377865e-01 -1.61268428e-01
 -1.96518540e-01  1.38948217e-01  1.49879441e-01 -6.02779575e-02
 -3.42393160e-01 -2.58170664e-01  8.79286751e-02  1.31883338e-01]
[-0.03413394  0.10459048 -0.06475125  0.30822474 -0.11752138 -0.392937
 -0.38252047 -0.06704355 -0.46917367  0.1439054   0.0207263   0.03326637
  0.5852584  -0.2832409  -0.24915248  0.24354392  0.18495277 -0.02371651
 -0.00678965  0.24464357  0.3552866   0.10471924 -0.06983289 -0.0515453
  0.018115    0.29577035 -0.21646056  0.15968294 -0.07170691 -0.04969559
 -0.09362601 -0.07846882  0.1266832   0.0860263  -0.10821567 -0.10333691
 -0.2894939  -0.3234627   0.05707313  0.2077883 ]
[ 0.5350601   0.04543008 -0.08848165  0.3972931  -0.31020054 -0.2566422
 -0.22638735 -0.14483114  0.32670435  0.23157828 -0.02456955  0.35551643
 -0.39792156 -0.11294673 -0.15064001 -0.5054878  -0.24265674  0.0964703
 -0.0583693   0.29211843 -0.23451208  0.19847664 -0.1955654   0.45277223
 -0.12371051 -0.2857442   0.10751445  0.7548476   0.5421352  -0.07175715
 -0.17838839  0.1629249   0.04200264  0.29322472 -0.14759962  0.07949661
 -0.07352463 -0.22338755  0.23208433  0.00634759]
[ 0.09983268 -0.00298428 -0.23981594 -0.0440869  -0.05303317 -0.04553743
 -0.26825207 -0.08009074  0.08638866  0.1978534   0.06796946  0.04069219
  0.11914486 -0.09668403  0.04483635 -0.06812631  0.04128081 -0.33684853
 -0.23542309 -0.11605562 -0.14710528 -0.1382121  -0.14040062  0.08987841
 -0.22606945  0.07962386  0.00408181 -0.00809766  0.19499908  0.04790471
  0.07455747 -0.19759429 -0.16813178 -0.12476046  0.12374544 -0.16056567
  0.3519898  -0.21522176 -0.01124471 -0.17946509]
[ 0.22557072 -0.25552726 -0.1011368  -0.13134652  0.31234822  0.32138026
  0.09833597 -0.18917988  0.25663868 -0.26902878 -0.11557062 -0.22878194
 -0.05537957  0.06438313 -0.02643343 -0.07416132  0.04162709 -0.26580846
  0.24057694  0.14369063 -0.12170684 -0.2058833  -0.22483458 -0.06429777
 -0.04255648 -0.09100758 -0.03792388  0.17950769  0.03319513  0.01202207
 -0.15705574 -0.14609334 -0.104298   -0.06648552 -0.10435903 -0.03274275
  0.08450402 -0.12348618 -0.03278119 -0.08273958]
[-0.19296074  0.11768765  0.16733441  0.18686457 -0.18650599 -0.26153684
 -0.09276854  0.27144668 -0.27672422  0.04604105  0.23942095 -0.1323505
  0.07551786  0.45718583 -0.09208038  0.01980718  0.08039209 -0.12323595
  0.20857882 -0.16350234  0.10269025  0.16176037  0.01217746 -0.3871371
  0.38541862  0.34818354 -0.10675163  0.18348007 -0.16018042  0.17920971
 -0.02864775  0.3576636   0.23070024 -0.174618    0.04654078 -0.18653108
 -0.16483259 -0.03779703  0.11624966  0.23521829]
[ 0.20319927  0.23826031  0.06363896 -0.08335681  0.12654918  0.4433256
 -0.18408482 -0.24225731  0.09439309 -0.3910722   0.30239564  0.2667085
 -0.28707752  0.25108033  0.03021162  0.31091684 -0.01016666  0.08009288
 -0.09078012 -0.05900805 -0.24363159  0.15986164 -0.15425295  0.29832193
 -0.02030521 -0.24340177  0.23004647 -0.07048414  0.07924735 -0.21181695
  0.05818762 -0.25580212 -0.14553435 -0.28147772  0.39673492 -0.13121553
  0.13819754 -0.07676189 -0.49238417 -0.08093815]
[ 0.22877347  0.15557295 -0.2066765  -0.20188123  0.04899476  0.14372315
  0.4237366   0.1536345   0.0066615   0.10101336 -0.2357836  -0.40097824
  0.319008    0.17013417  0.0853837   0.4150214  -0.20207417 -0.3360858
  0.01572314 -0.45208296  0.07989491  0.26306048  0.20484677 -0.333898
 -0.5590414  -0.15220997 -0.08280056 -0.5350799   0.39364314 -0.03531431
  0.16147135  0.04105708  0.177079   -0.47896126 -0.023241   -0.3195556
 -0.14166272  0.26396814  0.08058225  0.05234106]
[-0.2149285   0.00641882 -0.04170272  0.33956623  0.06328589 -0.25895494
 -0.24992406 -0.21825989  0.01524022  0.30633345 -0.02693457 -0.33584127
 -0.16043429 -0.05155261 -0.17070058 -0.10429703  0.09516715 -0.15546769
  0.09300901  0.26818386  0.31373864 -0.15404837  0.15472001 -0.27726936
  0.13546562  0.25120386 -0.1091659   0.06835881 -0.2881487  -0.17782985
  0.42917088 -0.10692368  0.21592773 -0.12738942 -0.2642578   0.2544081
  0.07330601 -0.19225994  0.13004628 -0.15777494]
[-0.04300463 -0.07418913  0.02204917 -0.11281695  0.2606865   0.25889334
  0.09614465 -0.2679961   0.0821149  -0.13628748  0.23092803  0.27863786
 -0.06624363  0.41110837  0.13571502 -0.23066245  0.0214372   0.0652675
 -0.07477933 -0.26450002 -0.05742799  0.13135108 -0.04288294  0.03212932
 -0.3446848  -0.21436355 -0.04505908  0.23349974 -0.06673205 -0.12941733
  0.1001742  -0.01502379  0.06947767  0.12518553  0.11673328 -0.15457796
  0.08228666  0.18161784 -0.21123141  0.01375188]
[-0.17846209 -0.24173476 -0.14505513  0.34835786 -0.25260368 -0.15641029
 -0.45028794 -0.292583   -0.08765373 -0.38163418  0.10637576  0.08138327
 -0.20008352  0.4098462  -0.35856792 -0.19685365  0.08633802  0.24817096
 -0.3016143   0.2808394  -0.2666173   0.25229213 -0.18343194 -0.12082464
  0.13130563 -0.10956617 -0.2666397   0.35601765  0.14695422 -0.12213609
 -0.10655092 -0.13066292 -0.3937906   0.03508057  0.05428031  0.29006094
 -0.13453144 -0.28066042 -0.09005582  0.16515324]
[ 2.5879958e-01  1.3238542e-01 -1.8244033e-01 -1.8214414e-01
 -2.2026412e-01 -1.6095683e-02 -2.5016192e-02  5.8407407e-02
 -4.2429660e-05  2.2945927e-01 -2.1701282e-01  1.9716091e-01
 -3.9992681e-01 -3.0659197e-02 -1.9848133e-02  2.5433707e-01
 -2.8569156e-01  1.0884213e-02 -2.8116882e-02 -2.6474106e-01
 -8.7235356e-03 -3.1626818e-03 -2.6190838e-01 -7.2496070e-04
  1.2238416e-03  1.7385235e-02 -1.8348226e-01  2.5967586e-01
  1.3995973e-02 -1.2612551e-01 -4.9533997e-02  7.2085977e-02
 -6.8466544e-02  1.3741341e-01  1.6277542e-02 -3.1142035e-01
 -3.3449450e-01  2.5780749e-01  3.3877072e-01 -8.0300122e-02]
[-0.18659768 -0.00712796 -0.24192296  0.08668739 -0.31063247  0.0693775
  0.0102616   0.03792085 -0.1486513  -0.26708838 -0.27845094  0.2765599
  0.29968047 -0.23462774 -0.27258307 -0.23407266 -0.15318054 -0.10230204
  0.06403231 -0.08127806 -0.02154507 -0.16226672 -0.01087462  0.05761118
  0.04275849  0.08956694  0.08734104 -0.03916589 -0.24216293  0.32901695
  0.16865003 -0.08636905  0.05720305  0.07786474  0.00332634 -0.28985107
 -0.01262764 -0.06647931  0.07847868 -0.08774548]
[-0.53134406 -0.2111768  -0.05690535  0.16853066  0.0833456   0.01638308
  0.34021455  0.3835965  -0.2742823  -0.31465134 -0.0695978   0.25235394
  0.14291944 -0.21460104 -0.14632332  0.1207481  -0.27976152 -0.12282678
 -0.04852444 -0.01278906  0.10568719 -0.02726289  0.2545239  -0.5240004
  0.4173663   0.11830465 -0.06921969 -0.3701691  -0.01933782  0.27276754
 -0.2600419  -0.04291029  0.03342912 -0.07416783 -0.22950271  0.24138306
 -0.07635449  0.21407907  0.03014905 -0.18339016]
[ 0.2767328   0.22697882 -0.11431585 -0.06932506 -0.12073457  0.15206768
  0.04463756  0.07376308  0.40971792  0.11488307  0.06280897 -0.2329557
 -0.15633453  0.15444344  0.11034875 -0.12806512  0.24817698  0.22657764
 -0.24539137  0.03723137 -0.13529946 -0.10128856  0.0363546  -0.07432851
 -0.18713422 -0.1012602   0.10294653  0.2873007   0.01760083 -0.13058777
 -0.23866946 -0.01157662 -0.00868225  0.01317585 -0.18529464 -0.1360972
 -0.01629415  0.21941313  0.3197449   0.20957376]
[ 0.44096184 -0.108499    0.22937799 -0.32667392 -0.19356981  0.06430076
 -0.4929103  -0.09988954 -0.06545465  0.02824658 -0.06554925  0.00789049
  0.08215337  0.15054072 -0.02254383 -0.32456267  0.20612638 -0.2974534
 -0.01537786  0.22908214 -0.194498    0.1309523   0.07869239  0.259799
 -0.28184322  0.2143042  -0.23260935 -0.05130171  0.2251125   0.0135103
 -0.01833166 -0.06489204 -0.18030003  0.14404535 -0.15238735  0.0821853
  0.09801346  0.2574421   0.04238107  0.11308493]
[-0.27491617 -0.02010323  0.01533816  0.15224084  0.3060953   0.01264311
 -0.00922462 -0.09874807 -0.15408517 -0.21854213 -0.11045447 -0.13682951
  0.05370293  0.22858475 -0.11483189  0.10929076 -0.01666082  0.32053944
 -0.10447302  0.0799948  -0.0254468  -0.26714194  0.02683279 -0.33310375
  0.3642071   0.25548783 -0.09257041 -0.32656607 -0.03899131  0.15415804
  0.00529258 -0.20646228  0.11162956  0.04091093 -0.1903025  -0.00040228
 -0.07692366 -0.28832987 -0.04793267 -0.09990009]
[-0.07879272  0.07220144 -0.0321367  -0.0395943   0.10263314  0.12857963
 -0.09756897 -0.02535582  0.02183441 -0.08687318  0.02948163  0.13126539
 -0.11525021  0.18354353  0.05423605  0.12226266  0.05546837  0.0745757
  0.11539939  0.04099394  0.01769983 -0.04336606  0.00206991 -0.02927863
  0.23744069 -0.06724387  0.04443332  0.17170562  0.05914028 -0.14099662
  0.07156301  0.00987316  0.05662487  0.110605   -0.08801749  0.1301102
  0.04615543  0.02018827 -0.0642562   0.11490635]
layer 3 Activation
tanh
layer 4 Dense
40 20
[ 0.33344063  0.16241464 -0.19862625 -0.16223837  0.33177292 -0.18843766
  0.19691165  0.10464899 -0.09362833  0.20644045 -0.25713384  0.12303111
 -0.03045906  0.10428791  0.21274991  0.17556183  0.23890796 -0.28751233
 -0.23789878 -0.24327794]
[ 0.2537933   0.03121151  0.2573918   0.04420564  0.08806799  0.07606082
  0.12020357 -0.11341571  0.17061    -0.04781977  0.24590781  0.25200468
 -0.08313321 -0.37156653  0.02818039 -0.14698787 -0.14225255  0.00597031
 -0.1922445  -0.20278388]
[-0.01546165 -0.1738219   0.02859484 -0.1735516  -0.20755517 -0.28408504
 -0.16260204  0.09299183 -0.19570243 -0.17503132  0.18099321  0.20832008
 -0.14467466  0.27769867  0.14076854  0.1828486  -0.15801175  0.1925722
 -0.19391748 -0.29333404]
[-0.3026852   0.02845047  0.12073678  0.12735917 -0.01809788 -0.3260178
 -0.01073918  0.06316586  0.07267435 -0.2399034   0.02972414 -0.07002398
 -0.15371546 -0.168876    0.05157548 -0.08526664  0.14447463 -0.3139592
  0.19586685 -0.17258322]
[-0.0943639   0.08044048  0.26818815  0.16378698 -0.26370206  0.25420663
 -0.17360261  0.11820699  0.04014239 -0.13797706 -0.13346133  0.16722003
  0.04317687  0.02057143 -0.12532923 -0.00400818  0.20610866  0.05600537
  0.03052696  0.04325207]
[ 0.04241024  0.10898101  0.13648555  0.09524171  0.31654724 -0.20604633
  0.0699569   0.31595367  0.08026868 -0.2196275  -0.22245461  0.14826514
 -0.14921668  0.16978812 -0.22418761  0.04112336  0.20293112  0.17720035
 -0.00088686  0.09108628]
[ 0.02185633  0.00346892  0.10454674  0.03609995  0.10254472  0.11867134
 -0.10904061 -0.32638738 -0.03544538 -0.11702073  0.07637575 -0.20248242
  0.26978692  0.13389835 -0.04348199 -0.13145776 -0.18958876  0.08522116
  0.39100552  0.12311327]
[-0.16948909 -0.13193028  0.10216458  0.27840668 -0.4806089  -0.17407876
 -0.16761751 -0.11956679 -0.01265371 -0.18467028  0.31437165  0.10650997
  0.07282825 -0.02113071 -0.06131973 -0.03613081  0.129225    0.03707064
  0.3611905  -0.41125634]
[ 0.26693493 -0.41322824  0.24642292 -0.13500737  0.18967772 -0.11808003
  0.00228176  0.49674034  0.07591125 -0.00759048 -0.29600233 -0.03618967
 -0.18585065 -0.06361551  0.29147425  0.03752425  0.24220529 -0.03179189
  0.03332059  0.35806763]
[ 0.01866084 -0.17406748 -0.08173079  0.13876738 -0.0821246   0.11638083
  0.37678966 -0.08338263  0.38538727  0.34442538 -0.13965     0.13661961
 -0.13657561 -0.11104945  0.05699433  0.05841445  0.0081481  -0.20825827
 -0.14512639 -0.35297278]
[ 0.08440296  0.23768084  0.26042488 -0.23601128  0.08978236  0.05375794
 -0.35713786  0.2171346   0.07729103 -0.02116156  0.02029054 -0.00848804
  0.20220272 -0.1334051   0.06325836 -0.12262893 -0.01745636  0.00749874
  0.14765362  0.25327283]
[-0.1880467  -0.27101132  0.28165543  0.00668443 -0.16391268  0.00216371
  0.10515718 -0.20330615  0.00586135  0.00657713 -0.20950274  0.13073836
  0.22424237 -0.30639973 -0.25113145  0.09017315  0.27441972 -0.01770716
 -0.253286    0.40763608]
[-0.09705654 -0.10097156 -0.21123758  0.03222831 -0.2067699  -0.12685703
  0.00720667 -0.331415   -0.1614066   0.02066805  0.04629716 -0.337667
 -0.22309159  0.26230595  0.13106187 -0.05688423  0.05344428  0.13766117
  0.09019285 -0.10197426]
[ 0.23099206 -0.21033388  0.32050568  0.07312261 -0.24806927 -0.30469206
  0.23234847  0.11203299 -0.13503875 -0.20025547  0.09557925  0.07181849
  0.17119963 -0.01398059 -0.10384052  0.16562846  0.03867806 -0.10263641
 -0.20539713  0.12156279]
[ 0.1791825  -0.457741    0.12752457  0.08021188 -0.23138575  0.12644131
 -0.28933537 -0.064279   -0.11986036  0.1596355  -0.234789    0.12131794
 -0.12865253 -0.11281186 -0.1826947   0.19776681  0.18841054  0.20001468
 -0.14524893  0.20508584]
[ 0.06461438 -0.12994906  0.39608243 -0.06324776  0.26250577 -0.20133854
  0.16086222  0.06946114 -0.1947414  -0.26399922 -0.28110155 -0.20824817
  0.2521452   0.05758341  0.00227945  0.14198285 -0.03130027  0.00075662
  0.17249276 -0.15520287]
[-0.11686207  0.23601972 -0.14052399 -0.08466139 -0.14588863 -0.3363003
  0.0630421   0.01448066  0.2685755   0.0107291  -0.01482646  0.10519844
  0.10681777  0.09763094 -0.0860345   0.13575378 -0.07656775 -0.120801
 -0.07108609  0.11169389]
[-2.0803700e-01  2.5561470e-01  2.4531212e-01 -1.7539608e-01
  1.6403940e-01 -2.3957075e-01 -1.6495149e-01  1.5226619e-01
 -5.9550919e-05  7.0625663e-02  2.5946248e-02 -1.8466683e-01
 -1.4496872e-01  4.3396699e-01 -2.8499069e-02 -4.5145724e-02
  1.5087822e-01 -3.2151103e-01 -1.4248322e-01  1.2632875e-01]
[ 0.03428228 -0.19340706  0.2655453   0.31160957  0.2080312  -0.12922879
  0.32683966  0.10901576 -0.02332416 -0.241119   -0.17832652 -0.05951858
  0.09333565  0.08185392  0.28226596 -0.29286486 -0.07668851 -0.11063763
  0.30713758  0.14065182]
[-0.31858903 -0.11225576  0.06331874  0.1677673   0.19272459 -0.03553394
  0.26283687  0.04110095 -0.25763175  0.0159218   0.00322119  0.43350685
  0.26381782  0.2613289   0.08458728  0.12333352  0.01658858 -0.26965633
 -0.2279284  -0.14287329]
[-0.08485634 -0.05009129  0.23088211  0.04339947  0.03972512  0.055962
 -0.25468498 -0.10154723  0.2951573  -0.06436498  0.29533207 -0.16394275
 -0.04992939  0.10051657  0.15611982 -0.09328266  0.2388588  -0.18975674
  0.1303308  -0.2796206 ]
[ 0.03920953  0.21975613 -0.1473603  -0.13710502 -0.12354421  0.17646725
  0.00346981  0.0051853   0.03094774  0.2834708  -0.24090055 -0.06027869
 -0.02639756 -0.18933032  0.20866229  0.19694085  0.13129298 -0.08357007
 -0.2758734   0.01447308]
[-0.17007993  0.20519558 -0.20376149  0.03433385  0.1629205  -0.26518425
  0.01161984 -0.15066361 -0.06649307  0.16252628  0.10079905 -0.01184229
 -0.09886085 -0.1304944   0.10418111  0.01539816  0.24590151  0.03216979
  0.16479392 -0.07775259]
[ 0.04403533  0.30636594 -0.23048751  0.24817964  0.10785095  0.13300797
 -0.1487977   0.085719    0.33895844  0.33128607 -0.01996662  0.12165008
 -0.00386683  0.20621492  0.13770172 -0.13049376 -0.28146026 -0.22013001
  0.06642552  0.22066307]
[-0.25267345  0.26385152  0.35185093 -0.08323072 -0.2144877   0.27329856
  0.02464174 -0.3038474  -0.3476003  -0.02964614  0.19103841 -0.2954311
 -0.11119102 -0.11261297  0.20097691  0.06082661 -0.01909628 -0.31255165
  0.00797396  0.3682917 ]
[-0.2804602  -0.09734293  0.06530213  0.29827172 -0.30957717 -0.21783671
 -0.04879521 -0.10792581  0.31699398  0.02652761  0.06490194  0.09883595
  0.11932456 -0.04337294 -0.4077516   0.10456239 -0.09472763 -0.15047134
  0.28824222 -0.12863   ]
[ 0.13333042  0.16940431  0.08564422  0.08914586 -0.03191343  0.2538454
 -0.3455446   0.0804912   0.20534039 -0.15210506 -0.06068067 -0.06478059
  0.00572863  0.13767898 -0.01230121  0.30413887 -0.19224614  0.11673524
 -0.0009086   0.05190198]
[-0.18119463  0.08753203  0.20348838  0.04092897  0.07599481 -0.2371981
 -0.09333333 -0.01820407  0.19833528  0.12263068  0.10915868  0.10504681
 -0.04032912  0.13472681 -0.2879001  -0.05419589 -0.01602535 -0.36627972
 -0.42378533  0.37422538]
[ 0.16833082 -0.25175914 -0.12643784 -0.02374926  0.00543985 -0.32306498
  0.07170045  0.20726383 -0.11660056  0.31731904  0.23064187  0.3839705
  0.16481346 -0.17525193 -0.13616635 -0.24589081 -0.22861919 -0.13037707
 -0.04839026 -0.17570205]
[ 0.04709332  0.2777753  -0.431784   -0.14590354  0.22108808 -0.12075107
 -0.05561678 -0.054017   -0.15605612 -0.2255451  -0.02769183 -0.11057148
  0.04796325  0.3283818   0.0661694   0.13486545  0.07630788  0.03999773
  0.24036697 -0.19927214]
[-0.02097944 -0.10528456 -0.02657364 -0.03327899 -0.11156052 -0.17446361
  0.10965441 -0.162042   -0.22507614  0.15606284  0.22247116 -0.04634545
 -0.06284347 -0.07769836 -0.1610839   0.23436366 -0.27356777  0.12061808
  0.0892469   0.03373435]
[-0.18657544 -0.19842099  0.13679925  0.04217397 -0.03896664  0.03167596
  0.03292957 -0.03448224  0.15991157  0.20104939 -0.17335153  0.26465276
 -0.03453052 -0.23181716 -0.2546304  -0.09858835  0.08399531 -0.24415089
 -0.11488173 -0.11211638]
[ 0.22153623 -0.27369887  0.3093936   0.1896142   0.06391276 -0.15724565
 -0.26854467 -0.22480795 -0.04190054 -0.14744115  0.07611656  0.08128081
  0.1317988  -0.22973412 -0.04549198  0.21179582  0.1007027  -0.28012955
  0.24975386  0.10032496]
[-0.2513528  -0.02221997  0.10113592  0.2100709  -0.11959673  0.2648709
  0.27338913  0.10345291  0.2636451   0.13942254 -0.04864605 -0.02027189
  0.08073444  0.2876432   0.25872034  0.14709708  0.2727819  -0.35642588
 -0.10282456  0.12940024]
[ 0.3161161   0.07856276 -0.22923362  0.21870038  0.19640301 -0.08594152
  0.0661023   0.27376506 -0.22434737 -0.10125866  0.08265153 -0.17315573
 -0.19839339 -0.08461667  0.13130061 -0.0827442   0.23698758  0.34841654
  0.05306907 -0.03021602]
[-0.16582017 -0.02841694  0.24966495 -0.08272626 -0.26007345 -0.01263123
  0.36606675  0.08191478  0.11578427 -0.00683848 -0.11392081  0.03535882
 -0.25252068  0.2886801   0.2132426   0.05952142 -0.19094758 -0.27991557
 -0.23488195  0.21918727]
[-0.15360956 -0.29280123 -0.01952831 -0.10622561 -0.18158722  0.05300492
 -0.2571489   0.24365409  0.15716456  0.16842915 -0.20802656  0.08688909
  0.1675922  -0.05655421 -0.09096269 -0.00109112  0.23446944  0.15410851
  0.0913728   0.05416204]
[ 0.2210546   0.04990093 -0.15469837  0.09574478  0.23916918 -0.2608854
  0.18608734 -0.09958562  0.07357682  0.29379058 -0.01541987 -0.03544909
  0.29066992  0.32944423 -0.01203919  0.25609624 -0.00264374  0.17231163
 -0.07220858  0.07599998]
[-0.01727088 -0.16428226 -0.14559835  0.06835541 -0.23793046  0.1465334
 -0.19968987  0.04338138  0.26850605  0.35107383  0.2237782   0.21477602
  0.18853289  0.1313099  -0.10906769  0.06671224 -0.15393169 -0.15125166
 -0.15132846 -0.32547098]
[-0.05632315  0.26950172  0.11704808 -0.02724519  0.0280065   0.18173575
 -0.13993897  0.09209887 -0.302785    0.21930553  0.09338076  0.13955753
  0.09176268  0.0552494   0.06380346 -0.16729738 -0.10939214  0.11056355
 -0.0781991  -0.03270678]
[-0.15132254  0.04400048  0.14283614  0.05399855  0.01688582  0.00248874
  0.02822467  0.05812036 -0.00790868  0.00400376  0.06792098 -0.0259757
  0.01844839 -0.09347779  0.00961842  0.00366972 -0.00739006 -0.05825271
 -0.11227278  0.1360579 ]
layer 5 Activation
tanh
layer 6 Dense
20 1
[-0.13422574]
[-0.03465828]
[-0.11460272]
[-0.01062438]
[0.00029628]
[0.03470336]
[-0.01373548]
[0.0940087]
[-0.0045196]
[-0.12473127]
[0.11471193]
[0.00827906]
[-0.00518119]
[-0.01858683]
[0.00034975]
[-0.00079279]
[0.02770027]
[-0.08387914]
[-0.1026279]
[0.16687399]
[-0.02432418]
