layers 7
layer 0 Dense
20 20
[ 0.07634284 -1.8197944   0.6638256  -0.7437827   0.05909785 -0.24612738
 -0.6649324   1.0005587  -0.22775312 -1.1355126   0.5586866   0.94505656
 -1.2118036   0.14450996 -0.17512563 -0.3155796  -0.23374698 -0.41871303
  0.5472065  -0.5378397 ]
[-4.4708238e-03  2.3308037e-01 -3.5018510e-01 -4.2302701e-01
 -3.9003694e-01 -2.1820407e-02 -1.7910804e-01 -4.4289649e-01
 -7.4346666e-04  3.1616879e-01  7.6574546e-01 -1.1236138e+00
  7.9042655e-01 -5.4789048e-01 -1.2024498e-02 -7.6741970e-01
 -3.5256961e-01 -6.8096620e-01 -5.5664957e-02 -5.4381293e-01]
[-0.48694807 -0.38511968 -0.03136915  0.15496613 -0.463818   -0.19990072
 -0.21670772 -0.67685926 -0.3496507   0.34191173  0.38773704 -1.1524928
  0.7635228  -0.18780583 -0.17340699 -0.6588655  -0.13381022 -0.7949151
  0.21616648 -0.04255475]
[-0.18372792 -0.75608426  0.47633895 -0.04110596 -0.08842895 -0.54488575
  0.19858494 -0.31019983 -0.48833293 -0.3908818   0.7006481   0.2407323
 -0.41610444 -0.09520781 -0.17161281 -0.1495617  -0.48641464 -0.83928883
  0.2125449   0.06746238]
[ 0.08583751 -0.4837558  -0.27807248 -1.1656353   0.30449364 -0.6076928
 -1.058733    0.85886186  0.40710846  0.13477625  0.33164987  0.55102646
  0.39556167 -0.11491331  0.34432444 -0.01871959  0.12276445  0.23738994
 -0.21107885  0.14795049]
[-0.3075752  -0.32915545 -0.06370293 -0.47602412  0.7704075   0.22234046
 -0.24620315  0.34728265  0.3131014   0.25993806  0.00142816  1.1635838
 -0.47279444 -0.07959594 -0.04511909 -0.03832568 -0.1701187  -0.10460792
  0.07304331  0.4786917 ]
[ 0.15051985  0.15458815 -0.216308   -0.00589276  0.6111792   0.07874015
  0.400641    0.29594314 -0.17691435 -0.22674406 -0.31133363  0.645293
 -0.6801488   0.40479168 -0.3746377   0.05636108  0.17613076  0.27330557
  0.07062331  0.24527566]
[ 0.39593408  0.4944132  -0.37487322  0.7416506   0.21621561  0.61687857
  0.36198485 -0.01999229  0.13895854  0.03960313 -0.5788841  -0.13208397
 -0.21760446  0.8174464   0.08870067  0.27276787  0.7375881   0.41344756
 -0.31656817  0.3350619 ]
[ 0.3904627  -0.5170085  -0.01104985  0.36461008  0.7795496   0.49806544
 -0.778149    1.1055264  -0.02777691 -1.2807163  -0.42364147  0.4411523
  0.07899085  0.43313494  0.05808194  0.48396707  0.15559016 -0.14578755
  0.50917697  0.03171609]
[-0.1785234   0.33516562  0.03055168  0.7801082   0.27803022  0.5168264
 -0.5300542   0.7065402  -0.60269356 -0.66773635 -0.45797846  0.10765126
 -0.30988717 -0.02142971  0.13463429  0.5876908  -0.25974858  0.33975115
  0.07567851 -0.36813244]
[ 0.542521    0.3803911  -0.38474125  0.4911734  -0.505526   -0.7288362
  0.3492587  -0.4823567   0.52217686  0.18815391  0.01661846  0.13848253
  0.50890017 -0.02625953  0.47442248 -0.27554    -0.0939206   0.02551108
 -0.08711597  0.6240586 ]
[ 0.31608102  0.35601428  0.174378    0.5199291   0.07313126  0.20407394
 -0.6808434   0.8356778  -0.33820087 -1.3893068  -0.02903479 -0.25943232
  0.34120345  0.45137927 -0.27060238  0.79468185  0.3603502   0.5697391
 -0.34783417 -0.10804673]
[ 2.7585486e-01 -4.0411103e-01 -1.3918695e-01 -6.1297256e-01
 -3.0287262e-04 -3.5057145e-01 -2.2650331e-03  4.7070551e-01
 -3.3746436e-01 -5.0258195e-01  4.2303216e-02  1.2509097e-01
 -4.5332462e-01  8.7478064e-02  3.4681132e-01  6.2369790e-02
 -1.4501318e-01  8.1389368e-02  3.4081918e-01  4.7022611e-01]
[ 0.36104494  0.05285506  0.37281686 -0.20087288 -0.24597955 -0.7297374
 -0.21547925  0.15555131  0.12967579 -0.08057933 -0.23957059 -0.32714865
  0.13588095 -0.4156788   0.7961859   0.32607448 -0.37240973  0.72978383
  0.7055537   0.44539168]
[-1.2607552  -0.07381534  0.4864197   0.22852461  0.7168503   0.34388867
 -0.10466133 -0.26936123 -0.75146616 -0.1751752   0.14303087  0.52127266
 -0.88500345 -1.2345768  -0.05228715  0.08693331  0.83266    -0.34684366
  0.4238161  -1.0269593 ]
[ 0.1762265  -1.0684136   0.09304117 -0.56587136 -0.72568625 -0.65753746
 -0.3971289   0.01854351  0.13995825 -0.7921136   1.4188854   0.05289908
 -0.56911385 -0.29961222  0.38506168  0.06679987 -0.00326249 -0.24348211
  0.60437024 -0.3710991 ]
[ 0.5559696  -0.88132167  0.39022726 -0.55774313 -0.16944364 -0.4702603
 -1.0917473   1.1658168   0.01620732  0.00400774  0.22317179  0.12458316
  0.0057212   0.37407085  0.44298202  0.57872474  0.13895476  0.5907701
 -0.15041208 -0.31952348]
[ 0.03883867 -0.31014457  0.5945318  -0.60279393  0.04152574 -0.15134506
  0.6323889  -0.05571133  0.31309354  0.5590446   0.16767518  0.02657408
  0.08231341  0.30681917 -0.46027783 -0.5903543   0.52446556 -0.80267763
 -0.4556048  -0.11275077]
[ 0.07880923  0.42519733  0.17283694  0.03771503  0.18022144  0.45465112
  0.01579366  0.49870348  0.03974679 -0.08287003 -0.329364    0.02879305
  0.12673332  0.9516118   0.06444798 -0.38789606 -0.41755903  0.5038352
 -0.5069167   0.10758254]
[ 0.06560564 -0.29967985  0.37614372  0.5547511   0.02419215  0.6010898
  1.1040866  -0.43774953 -0.07159941 -0.3250167  -0.44971234 -0.55314434
 -1.0170313   0.42109638 -0.1402619   0.22945558  0.2404187  -0.00626471
  0.37602428 -0.15265328]
[-1.5870950e-01 -1.1085278e-01  1.7929295e-01 -1.2615080e-01
 -1.2883450e-01 -2.5428364e-01  1.5533361e-01 -2.4075989e-01
 -2.5055831e-04  2.2005688e-01  3.1519437e-01  1.6330734e-01
 -5.4447357e-02 -3.1884822e-01 -3.7808716e-01 -2.8448081e-01
 -3.0338904e-01 -4.2355251e-01  2.7095476e-01 -2.5784120e-01]
layer 1 Activation
tanh
layer 2 Dense
20 40
[-0.3502502   0.3055638  -0.02455251 -0.13255483  0.16070956  0.0131089
 -0.04585893  0.18142216  0.17134202  0.06519041 -0.40036157  0.02771891
 -0.01528302 -0.41280094  0.11164935  0.46632788 -0.28513017 -0.34269455
 -0.29596654 -0.10272402  0.16146626 -0.13105036  0.18112826 -0.19746275
  0.02062368 -0.13125849 -0.2713958  -0.60358745  0.07529712  0.4237273
 -0.22999677 -0.39952508  0.10118245  0.34602144  0.3232994   0.09080276
  0.10968252 -0.16232832 -0.11566135 -0.40085366]
[ 0.6024624  -0.281898   -0.29543826 -0.47954562  0.48521367 -0.2204574
  0.05849438 -0.99967825 -0.2073648   0.47813582 -0.5043535  -0.44865042
 -0.761748    1.1673034  -0.38415885 -0.35389358  0.45804146  0.35516813
  0.8225658   0.06640062 -0.7617579  -0.4669051  -0.11403498 -0.0642173
  0.3304319  -0.4231771  -0.17045395  0.4823546   0.5933611  -0.5227008
 -0.41627753 -0.5879979   0.23699318  0.7038201  -0.91244245  0.84370244
  0.11045904  0.4160914   0.46351156  0.34787735]
[ 0.33715516 -0.29994512  0.21752754  0.35659018  0.03284745 -0.5221083
  0.45704278 -0.32313743 -0.15300164  0.27880937  0.3481156   0.00550699
  0.38991076  0.01583865  0.4710285   0.12961097  0.0160542   0.28773656
  0.63064003  0.02194709  0.35856315 -0.12305394  0.11945268  0.20808545
  0.07697859  0.403026    0.1410356  -0.31931332  0.08013853 -0.10231709
  0.7530998   0.2580647  -0.3907121   0.02466318  0.25633767  0.06186565
  0.15269743  0.0250415   0.08121964 -0.15084241]
[ 0.18173268  0.441261    0.08350879 -0.21594049 -0.26398805 -0.3273248
  0.36022556  0.20565285 -0.11533286 -0.46879286 -0.75811726 -1.0258
 -0.7724589  -0.00234729 -0.13255462 -0.84331536  0.02904957  0.0667823
  0.5613225  -0.06216792 -0.3720232  -0.10915476  0.04036327  0.037212
 -0.16043063 -0.5954404   0.4014637   0.41411048  0.35508394  0.13180313
  0.57662946 -0.31873903  0.1564567   0.18079041 -0.20218761  0.13139983
 -0.14902478 -0.35051885  0.06719295 -0.45646438]
[ 0.07588759  0.15149821 -0.31742063 -0.2803483   0.5079076  -0.38214883
 -0.54373735 -0.07717229  0.31133768 -0.56037015  0.1084211  -0.32361966
 -0.2023943  -0.3407815  -0.4332589   0.27810866  0.28992325  0.14218494
 -0.66038394 -0.0299968   0.5879625   0.17833135 -0.02416013  0.339923
  0.07175913 -0.0823453   0.4855452   0.4689187   0.02741091  0.71736115
  0.2951125   0.44945326 -0.8264839  -0.80323696  0.05632648  0.4380785
 -0.01599002 -0.51778567  0.14215596  0.09496071]
[ 0.4460845   0.34874606 -0.2220836  -0.35995165  0.56370586  0.00152755
  0.37058258 -0.19336826  0.41071627 -0.35353118 -0.12138544 -0.63941705
 -0.47470444  0.04452848 -0.5997771  -0.00147166  0.15916304  0.06772571
  0.8113135   0.02691422  0.13929303  0.27044067  0.25721774  0.23760805
 -0.30076596 -0.72423023  0.62626797 -0.05064294  0.01458954  0.28396827
  0.81980336  0.2983414  -0.6489678  -0.5730187   0.21679756  0.62568754
  0.20724414 -0.04194108  0.10235204  0.24831016]
[ 0.02667484 -0.00487489 -0.09231856 -0.09738421 -0.19191398  0.21064642
  0.5861129   0.2998957   0.32003924  0.01089279  0.38327366  0.73631024
  0.21468863 -0.5824339  -0.608372   -0.10090408 -0.10896709  0.40425125
  0.46728298  0.07278645  0.33390278 -0.10388098  0.3878498   0.37157622
 -0.24526915  0.43613252 -0.5165912  -0.02228146 -0.05739981 -0.02681802
 -0.5533116   0.15518108  0.2974092  -0.5804847  -0.35740572 -0.00852584
 -0.22879119 -0.43726796  0.19061963  0.69859457]
[ 0.17590398 -0.2833191   0.15179357 -0.5852241  -0.5338173   0.05052484
 -0.5334674   0.28967538 -0.14844194 -0.11074478 -0.6574646  -0.559825
 -0.41727176 -0.01197745  0.5175282   0.3837367   0.24708994  0.5710703
 -0.82679486  0.11508223  0.2159957   0.17609476  0.15141316 -0.46097854
 -0.04549609 -0.2787996   0.49681947 -0.12382514  0.2683577   0.25613987
  0.46546292 -0.2947222  -0.5417889  -0.01617023  0.4509729   0.266691
  0.06496414 -0.16723666  0.04175659 -0.2519592 ]
[ 0.53513926 -0.2394181   0.17504351  0.06526576 -0.25783283  0.11723382
 -0.06205199  0.2640238   0.19252175 -0.16930486 -0.05338416  0.7030331
  0.4576151   0.7565934   0.11778503  0.01265678  0.08090924  0.14309837
  0.41331944 -0.08861391 -0.10780013  0.103771    0.05484047 -0.30439362
  0.17299348 -0.27272213 -0.21492516 -0.20768668  0.01876083  0.08958431
 -0.4070329  -0.5107254   0.15766415  0.38827068 -0.37222034  0.57296085
  0.15534082  0.21159837  0.26329947  0.24045496]
[ 0.38614133 -0.02152594  0.0624906   0.10151369  0.20657629 -0.34458765
  0.29893357 -0.29582933  0.1301445  -0.06242605  0.31187758  0.90279055
  0.4380702   0.7897581  -0.1021252  -0.17477146 -0.27612153 -0.09066958
 -0.03218883 -0.07668009  0.44717053  0.20633417  0.15576063  0.3330624
 -0.08438449  0.23692115 -0.10541618  0.2566541  -0.35079312 -0.17299783
 -0.12324852 -0.10424426  0.30270156  0.16903615 -0.6118092   0.23907095
 -0.28280976  0.20990437  0.1162466   0.58670485]
[-4.7396573e-01 -8.9812666e-01 -2.8663966e-01 -4.1537741e-01
 -2.2532488e-01  7.7001326e-02 -1.9515060e-01  2.0716722e-01
 -2.7714267e-02 -1.6819076e-01  2.8941292e-01  6.0785377e-01
  5.7747340e-01  6.0185906e-02  8.3964127e-01 -2.1757019e-01
 -7.3165908e-02  2.5990245e-01  6.3121103e-04  1.2654181e-01
 -7.5545669e-02 -2.5324667e-01 -4.3995252e-01 -4.2473549e-01
  1.0342621e-01  4.8563147e-01  2.7837193e-01  1.3541222e-01
 -3.7614387e-01 -1.2429097e-01  3.1957882e-03 -3.7028289e-01
  1.9247952e-01  2.5050229e-01  5.0188273e-01 -3.1077588e-01
  2.2427183e-01 -1.8575870e-01 -2.0858519e-01 -8.5549682e-02]
[-0.1807917  -0.0538421  -0.09565116 -0.34847158  0.12980948 -0.15597476
 -0.48584598  0.1408114   0.302914   -0.42315543  0.232837   -0.25873244
  0.11260954  0.02388658 -0.12260526  0.33690974  0.09211567  0.04041493
 -0.69999206  0.2747008   0.36913878 -0.18156385  0.13060433 -0.26711896
 -0.57320654 -0.05407772  0.28795525  0.23077367 -0.2075876  -0.0247399
  0.26576316 -0.35429722 -0.09921223  0.13231921  0.33257216 -0.23204996
  0.06219678 -0.40329495  0.2511323  -0.38692102]
[ 0.23403622 -0.3894097  -0.4772718  -0.3347484  -0.2606629  -0.33060214
 -0.30644605  0.07110524 -0.24888024 -0.06189393 -0.14734328  0.43407202
  0.34929183  0.494509    0.0379088   0.38261956  0.46728292 -0.1313507
 -0.37776852  0.31084982 -0.09338941 -0.3878922  -0.10164607 -0.02190008
 -0.06760284  0.12526196 -0.26198134  0.6490156   0.2757287  -0.19569594
 -0.68385506 -1.2020135   0.4160843   1.2010792  -0.04023998  0.31083927
 -0.01807299  0.4304711  -0.19229066  0.78889596]
[ 0.4107899  -0.44890252  0.23513578 -0.1417485  -0.20006128  0.35789296
  0.55198556  0.28895938  0.41222742 -0.37133375 -0.9495293   0.00335224
 -0.43771717  0.04276904  0.56346625  0.13696136 -0.26166376  0.10080343
  0.14918722 -0.27453738  0.21222621 -0.17551936  0.12432861  0.14678743
 -0.08840799 -0.6454258  -0.12383349  0.08064775  0.6524865  -0.2690988
 -0.08618811 -0.4210991  -0.8729031   0.37583575  0.56470376  1.0360368
  0.23962767 -0.28871873  0.13520718 -0.40137374]
[-8.22274163e-02  5.59990108e-01 -1.12396888e-01  2.19321206e-01
  2.23883726e-02  4.84857969e-02 -4.39852923e-01 -1.06461212e-01
  1.95066212e-04 -2.21908957e-01 -4.83671755e-01 -4.09538001e-02
 -8.59734893e-01 -4.74455595e-01  1.63672104e-01 -6.72854036e-02
 -4.57879573e-01  4.64382693e-02 -6.70183599e-01 -2.66724657e-02
 -2.05311745e-01  2.30616674e-01  1.17272865e-02 -2.66863853e-01
  2.95545787e-01 -5.85424714e-02 -4.07742530e-01 -1.22186653e-01
 -1.16071500e-01 -3.96008305e-02 -6.03874564e-01 -3.05411756e-01
 -6.71285996e-03  2.07819685e-01 -2.55771250e-01  1.30042478e-01
 -2.61297911e-01 -1.90139208e-02  5.18615656e-02  3.29773910e-02]
[-0.47196123  1.0465485   0.08083504  0.24645486 -0.03411612 -0.06499416
 -0.5521203  -0.18338999  0.17886244  0.4579994  -0.14075702 -0.569189
 -0.9657321  -0.69866824  0.07131635  0.10647969 -0.6229167  -0.2507313
 -0.6250991   0.01179543  0.020572    0.04054109  0.16440803  0.12835458
  0.15601008  0.03327051 -0.18762939 -0.14963381 -0.04422759 -0.385873
 -0.09753782  0.07864646  0.3391523  -0.17538938 -0.03178787 -0.49703264
 -0.19055864  0.15755622 -0.2741461   0.04791546]
[ 0.11787058  0.18072774 -0.15185821 -0.17734918  0.5266458  -0.31108072
  0.11695409 -0.14880729 -0.11875799 -0.21974798 -0.56428784 -0.41325653
 -0.06104344 -0.06892759 -0.2833171  -0.2574997  -0.05141498 -1.1040723
  0.13779213 -0.2380066   0.12554467 -0.10317333 -0.0588602   0.04021338
 -0.2662973  -0.58460236  0.27946943  0.07106826  0.8063905  -0.17555612
  0.11966186 -0.49739876 -0.21337147  0.38053915 -0.06887995  0.3968469
  0.17679115  0.17741874  0.7493143   0.04099703]
[ 0.26657557  0.58836406  0.23370494  0.3819927   0.02202813 -0.13447604
  0.2285751  -0.25628048  0.1571665  -0.06240736 -0.5476128  -0.24850874
 -1.0261286   0.02020952  0.04107898 -0.4890254  -0.09934719 -0.07702153
 -0.44202083 -0.12470497 -0.5412651  -0.23231314  0.22473165 -0.12591316
 -0.10109222 -0.18659215 -0.02999036  0.26067737  0.3232651  -0.28165323
 -0.20690666 -0.40183508  0.23844291  0.5209403   0.24115226  0.5349501
 -0.44058225 -0.23760475  0.13944447 -0.21423236]
[-0.09282105  0.3773435   0.08920948 -0.02445607 -0.07887766  0.03813254
  0.00669928 -0.16874017 -0.15864016 -0.04739057  0.35191858 -0.51744354
 -0.44694537 -0.44621548  0.22891276 -0.4999261  -0.07076104  0.17598464
  0.01920352 -0.14772975 -0.00111576 -0.15579388 -0.28526682  0.38380828
 -0.04575041  0.45810053 -0.2483696  -0.14256659 -0.24480954 -0.05989443
 -0.3386774  -0.31719935  0.4308374  -0.37821448  0.19548137 -0.3087559
 -0.05027647  0.1368353   0.01745564 -0.4905813 ]
[ 0.27991602 -0.21495938  0.25936317  0.29036003 -0.31022036  0.21771085
  0.23996444  0.02891603  0.2959919   0.33871463  0.10976823  0.4084892
 -0.23755199  0.09915438 -0.00991218  0.00304767  0.13164444  0.55923367
  0.27012998  0.30258104 -0.21085063 -0.19874163  0.03001142  0.12199121
 -0.19693092 -0.38856366 -0.6823417  -0.55637634 -0.06601486  0.05338534
 -0.62413025 -0.12574555  0.26029983  0.02480107  0.29463458  0.03082201
  0.15944633  0.5010908   0.07298297 -0.10768685]
[-0.23156254 -0.665596    0.14217591  0.4818732  -0.2968139  -0.36603796
  0.06041389 -0.12886673 -0.24423991  0.33667266  0.5453712   0.21654855
  0.3132397   0.17690054  0.32630405 -0.11515278 -0.02378772  0.52417177
  0.22243616 -0.04429317  0.03438132  0.00385666 -0.06399066 -0.08200818
  0.06643727  0.49119037  0.21754222  0.0563325  -0.48495242 -0.09293248
  0.11905112  0.36702585  0.247518   -0.07012505  0.1737979  -0.2932433
  0.15318915  0.24252921 -0.534975   -0.03668744]
layer 3 Activation
tanh
layer 4 Dense
40 20
[ 0.38693994  0.21654765  0.01463172 -0.16366898 -0.27693048  0.01628006
 -0.23978083  0.29889837 -0.19368647 -0.02877652  0.03207719 -0.00660804
  0.40830347 -0.270002    0.06422202  0.1862545  -0.36027545 -0.07819722
 -0.6118154  -0.22352521]
[-0.1886946  -0.69972384 -0.05102225  0.31253675 -0.15875047  0.3222944
 -0.36164367  0.1449973  -0.26035243 -0.22445351 -0.06621499 -0.28914514
  0.5495463  -0.38840827 -0.2851176   0.06122479  0.3092183   0.6694433
  0.6086441   0.50475675]
[-0.32177636 -0.1683847  -0.03193885 -0.44528192  0.17672038 -0.18096916
  0.10751117 -0.45091143  0.14357786 -0.25902197  0.05347865  0.48124588
 -0.24396902 -0.15894464  0.06114989 -0.13501899 -0.19668067  0.30670294
 -0.2959198   0.16329212]
[-0.6020838  -0.02510482  0.07083402 -0.28111976  0.37657568 -0.6060303
  0.6502592  -0.03987726 -0.1839123   0.17409405  0.02864208  0.09436387
 -0.20945163 -0.32640457 -0.07580327  0.08377158  0.11465905  0.10103302
 -0.16319469  0.06249171]
[ 0.1981298  -0.33793598 -0.11443026  0.2840787  -0.152913    0.2285757
 -0.0609283   0.06435668  0.155267    0.3172162   0.11331221 -0.24196157
  0.45336407 -0.24067488  0.34158167  0.32299972  0.14561649  0.33951837
  0.36832002 -0.3942115 ]
[-0.19513278  0.0964879  -0.239457    0.33066452  0.29317778  0.02095855
 -0.337532    0.00356717 -0.36410615 -0.09454118  0.3066785   0.2916777
 -0.13019581 -0.06890189 -0.14187877  0.10658287  0.2492408   0.24174863
  0.14674722 -0.07892608]
[ 0.34102052  0.40536556 -0.048975    0.00603822 -0.1633096  -0.20378247
 -0.185797   -0.25423464 -0.21269423  0.19638035  0.07778765  0.3015975
 -0.11271659  0.01442271  0.16483441 -0.40753952 -0.5138414  -0.06156716
 -0.46455187  0.23026194]
[ 0.25087613 -0.3556219  -0.18096732  0.08056752 -0.3730348  -0.06298275
 -0.02908524 -0.08115487 -0.12018703 -0.48666766  0.15723218  0.46984842
 -0.4667014  -0.19989076 -0.22081305 -0.15978903  0.5295762  -0.07049564
  0.2615916   0.17515089]
[-0.17412698 -0.17006329 -0.13492133 -0.095066   -0.06124366  0.26836476
  0.04333776 -0.00320818 -0.18239781 -0.15283234 -0.20682211 -0.14917803
  0.25876296 -0.25410917  0.1831786   0.22783217  0.06796271  0.08362401
  0.21065193 -0.10312241]
[-0.42318627  0.16846365  0.01885687 -0.40763494  0.3482522  -0.397981
  0.3094129   0.04238517  0.16462281  0.0683622   0.3667648  -0.15018749
  0.09139131  0.31809017  0.21230377 -0.17253163 -0.11387278 -0.28779483
  0.10507954  0.08067119]
[-0.18075562 -0.47797912  0.5517775  -0.00836243  0.79307806  0.28395686
  0.69618315 -0.62421095 -0.5303248  -0.18931001  0.16034187 -0.04231834
  0.5815653   0.45605218 -0.16966486  0.06883854  0.29379222  0.09809083
 -0.07159127  0.23235314]
[ 0.09700493  0.18889378 -0.32589418 -0.28650647  0.85756385  0.3100948
  0.19081214 -0.16270979  0.24766386  0.1720415   0.29762042 -0.449849
  0.01872624 -0.16290371 -0.31947353 -0.23539227  0.64603966  0.18625538
  0.4438541  -0.09578386]
[-0.24001928 -0.40739274 -0.23247926  0.21503937  0.83364433  0.703587
  0.6374746  -0.24580602 -0.3162499  -0.28033805  0.3671059  -0.14490816
  0.10940856  0.34372675 -0.5660541   0.04552744  0.52916855 -0.3143817
  0.13236387 -0.23054598]
[ 0.31159508  0.51087886  0.14179972 -0.45411134 -0.08534626 -0.3202507
 -0.12251642 -0.19435157  0.6536719   0.47635004  0.2142843  -0.6806195
  0.32336217  0.2750787   0.5950887  -0.41192228 -0.18585728 -0.34563258
 -0.41407263 -0.13198064]
[-5.1703364e-02 -5.9027180e-02  4.2974210e-01 -3.9990368e-01
 -9.0649140e-05 -6.3882697e-01 -2.3661267e-02  1.4574090e-01
  3.8343349e-01 -1.6877156e-01 -2.6223975e-01  5.3657722e-01
 -5.1772267e-01  5.2362019e-01 -3.4640327e-01 -9.3020305e-02
 -2.0466225e-01 -3.6450553e-01 -4.2842990e-01 -5.9665209e-01]
[ 0.12428562 -0.2126625   0.1893106   0.23835054 -0.01537556  0.08093144
 -0.14051178 -0.15901732  0.08358796 -0.40470737 -0.10780042 -0.3272116
 -0.04475474  0.11831518 -0.35458004  0.5093726  -0.14456312  0.3216847
 -0.417795   -0.42726263]
[ 0.3733654   0.03123875  0.1786384   0.09661761 -0.00730176  0.16598062
 -0.15470359  0.00919216 -0.0141473  -0.00725479  0.21594578 -0.47231412
  0.20569082  0.29551965  0.1372201   0.17731418 -0.5081515  -0.41169807
 -0.5536889  -0.12750323]
[-0.27563307  0.18848963  0.54414696  0.01500658  0.5509335   0.13735412
  0.5623408   0.19799449 -0.3924209  -0.38563085  0.09582163 -0.22178386
 -0.12809868  0.52204865 -0.33641046 -0.3079867  -0.14787179 -0.63527036
 -0.5983825   0.07988201]
[-0.12081985  0.5446255   0.12736917  0.17373057 -0.32483986 -0.2003155
 -0.38375744  0.2802895  -0.01540245  0.55489206 -0.40482822  0.5297687
  0.21708125  0.37011552  0.6096919  -0.4847219  -0.41891432 -0.17702329
 -0.23370595  0.15088998]
[ 0.08814796 -0.1218029   0.10846652 -0.4921238  -0.08658585  0.15740754
  0.17430921 -0.04655899  0.02437705  0.22922331 -0.00693227 -0.27729258
 -0.04417415  0.17487085 -0.18739606  0.06985827 -0.07239741  0.05754296
 -0.0979111   0.07573802]
[ 0.6657714  -0.4679513   0.00141743  0.23488043  0.41324067  0.4088403
  0.28444216 -0.25430682  0.11950716 -0.12896603 -0.25577357 -0.15616405
 -0.23842213 -0.31261533 -0.10965115 -0.07951745  0.40475267 -0.05727632
 -0.15637548 -0.33991086]
[ 0.16521348 -0.1438863   0.0366195   0.35310674  0.2315144  -0.01398592
 -0.09828518 -0.1866902  -0.50298494  0.0575259  -0.22580542  0.16623186
 -0.0295126  -0.27821824 -0.12617423  0.22943525  0.45049065  0.23544203
 -0.05567412 -0.2733483 ]
[ 0.0511364  -0.10021579 -0.02426269  0.03459269  0.05544963  0.14625107
 -0.15624622  0.1514775  -0.20353365 -0.14397372  0.25797486  0.19790396
  0.14674744 -0.27659023 -0.04043206 -0.02886207 -0.02718882 -0.0805095
  0.23447329 -0.07598076]
[-0.14555922 -0.06693406 -0.24692172  0.13433692 -0.08814774  0.11310347
  0.2837548  -0.05240918 -0.33362782  0.23952003 -0.09180864 -0.30504158
  0.19799958 -0.17735054  0.05071035  0.2257689   0.24070689  0.13337351
  0.19455343 -0.05593128]
[-0.24536657 -0.05103625 -0.05734773 -0.3877516   0.09063615 -0.21630879
  0.03317473  0.37568757 -0.00130014  0.34305948  0.0361908  -0.00547346
  0.17822483  0.3730263  -0.1536242  -0.00576066  0.2726019  -0.11781059
 -0.20777853 -0.28351632]
[ 0.12969421 -0.5387136   0.12643428  0.18228413  0.51380986 -0.06659655
  0.38283736 -0.14037783 -0.2780799  -0.28244692  0.34736705 -0.14115357
  0.21860668  0.5581594  -0.47466758  0.19073352  0.56171125  0.07739539
  0.18002503  0.00985903]
[ 0.6449058  -0.5807834   0.47371292  0.32071862 -0.54570717  0.5476142
 -0.1887966  -0.25681978 -0.23306164  0.05250157 -0.49617788  0.3662689
 -0.26461095  0.38986978  0.39668268  0.22301514 -0.2743522  -0.44117042
  0.02805654 -0.4568175 ]
[ 0.33069766  0.1256965   0.4342446  -0.03317888 -0.3747205   0.04613503
  0.07992333 -0.05192813  0.10156129  0.56989455 -0.20357871 -0.05073315
  0.2208958   0.1420602  -0.29163787 -0.22723928 -0.07459781 -0.06693473
 -0.34710354  0.35465217]
[ 0.10533234  0.12553172 -0.5208861  -0.3294232  -1.0047361  -0.27257153
 -0.58287656  0.2503523   0.20690832  0.5086599   0.18928075  0.01556874
 -0.04622529 -0.38128686  0.01467836  0.4593979  -0.63762873  0.5158687
 -0.35650688 -0.42346373]
[ 0.08116427 -0.47712597  0.23561418  0.3460949  -0.22417817  0.17200425
  0.06448574  0.05201991 -0.38997325  0.05257377 -0.3220947   0.02956592
 -0.23182599 -0.0315079  -0.15753426 -0.13109441 -0.20719571 -0.24741861
 -0.07584962  0.09469901]
[ 0.40840983 -0.39505407  0.30318788  0.09817384 -0.01493543  0.22624238
 -0.15017252 -0.27352798 -0.33090103  0.08836239 -0.05053504  0.23885559
 -0.24369776  0.00922954  0.2936014   0.25645554 -0.39723793 -0.07932726
 -0.4507472  -0.3078398 ]
[ 0.18590438 -0.05724897  0.05334716  0.2654756   0.7721281   0.09243978
  0.57715404 -0.02289779 -0.5678443  -0.19340165 -0.30087683  0.22655295
 -0.08442939 -0.15494478  0.18334873 -0.05441565  0.07239269  0.01941457
  0.33866665 -0.05546953]
[-0.57997406 -0.10810307  0.06299372 -0.24639103  0.5007896  -0.28879276
  0.11050124 -0.2850853   0.25128976  0.04045713  0.12724555 -0.2982263
  0.42599678 -0.3511309   0.130294   -0.22138812  0.14949231 -0.2400105
  0.73956275  0.5545568 ]
[-0.19462755  0.0505986  -0.26496822 -0.2936046  -0.7553646  -0.32274327
 -0.3423368   0.14387761  0.26262453  0.31477425  0.4023154  -0.49121106
 -0.06614857  0.5754529  -0.17032927 -0.3956767  -0.28839687 -0.08535211
 -0.16144893 -0.492005  ]
[-0.19847643 -0.13680802 -0.2934754  -0.03957173 -0.30195752  0.12723188
 -0.10477994 -0.04284542  0.24931549 -0.5738066  -0.3300432   0.34289744
 -0.51754355  0.22400649 -0.23324233 -0.17821406 -0.13050048 -0.24972752
  0.10661556 -0.37663785]
[ 0.10298247  0.49478853 -0.1596811  -0.13384867 -1.0862561  -0.06011841
 -0.617466   -0.04058528  0.27315214  0.42532733 -0.16742562  0.1396217
  0.03256986 -0.13321276  0.40753436 -0.150144   -0.5197325   0.4069157
 -0.25155395 -0.528744  ]
[ 0.32299304 -0.28061005  0.03338184  0.18590322  0.22513503 -0.01094195
 -0.09745    -0.2845729  -0.02057651  0.11727475 -0.14810887  0.2249069
 -0.02031856  0.11403476 -0.05499374 -0.21913168 -0.41266137 -0.49084082
 -0.3941263  -0.31911308]
[-0.18129383 -0.02703095 -0.02620618 -0.29822445  0.3843447   0.00068288
  0.06010808 -0.12184807  0.36539245  0.43121305  0.08916201 -0.36949837
  0.05003412  0.2582424   0.06289928 -0.05725544 -0.49312317  0.19406708
  0.1062993  -0.2269797 ]
[ 0.284763    0.21335196 -0.32659525 -0.10924728 -0.52127635  0.357265
 -0.46717855  0.12795849 -0.18784726  0.14179261  0.18301414 -0.1107559
  0.303273   -0.41665453  0.27499557 -0.17675543  0.04362369  0.6774579
 -0.04420807 -0.00555286]
[-0.11233524  0.02386593 -0.2842149  -0.18278238  0.20881806  0.43566945
  0.05960596 -0.12710899 -0.2344904   0.5551312   0.22071117 -0.13488124
  0.19177495  0.03569866 -0.1561021   0.07528273  0.521441    0.38392088
  0.41192096  0.14826179]
[ 0.18199617  0.18800387  0.3167421  -0.29394788  0.45371902 -0.22139595
  0.3855493  -0.07339385  0.06451315  0.02936675 -0.08025488  0.08843227
 -0.21167833  0.21694806  0.02621236 -0.06288964 -0.00846494 -0.27814537
 -0.03887751 -0.10323147]
layer 5 Activation
tanh
layer 6 Dense
20 1
[0.45001802]
[0.43108588]
[0.7377821]
[-0.13597706]
[-0.94630504]
[-0.6890966]
[-0.88258266]
[0.08949606]
[0.41333252]
[0.68076026]
[-0.6077777]
[0.29071692]
[-0.82475126]
[0.8500113]
[0.6506888]
[-0.22772156]
[0.21655548]
[-0.31837723]
[0.12212548]
[-0.34640417]
[0.49741864]
