layers 7
layer 0 Dense
20 20
[ -0.5846799444737538 0.35818045597249204 0.20853121737206073 -0.5320907833535502 0.6295874088554984 -0.30029312829426075 0.31731058787382976 -0.2842791962217053 -0.7086710524811098 -0.4365321824827047 -0.762797238048538 0.012840791493687873 -0.023452099232559222 0.11455688823605721 -0.4495893197729063 0.37634511728629383 0.872404916866713 0.4625963251557422 -0.04989620687578898 0.9166489054637817 ]
[ -0.20494319299443686 0.2729125887628569 -0.20369613741700313 -0.27357587199261624 -0.2262199362924358 -0.08635849017529992 0.009991976894182956 -0.1411708879307317 0.26482082832349907 -0.07371482258082841 0.29304175382855085 0.21696397831799913 -0.3123280546099871 0.2824260043129827 -0.37599922439834305 -0.2187657153149035 -0.06976790288821211 -0.35625734510000906 0.3286877609329192 0.2293144203263366 ]
[ 0.10128953502283393 0.3278498703215039 -0.3341059264645677 0.21323404564667606 0.007363117280760734 -0.2774079057538588 -0.18627257921605705 0.3108140157875282 -0.1582853626425826 -0.19781875193882062 -0.13930851593421845 -0.37527467590485997 -0.2440310821329188 -0.24696231235015148 0.06989548073832275 0.34916288822154207 0.05274697780371433 0.12978684226549864 0.11960184405721516 -0.2671990996866161 ]
[ -0.12733140202602192 -0.15316845463210782 -0.34136672287376085 -0.2142414367867575 0.4658275690114681 -0.04840199127347039 -0.5292078760741568 -0.48592009355133736 0.0986806777172353 -0.4095463156530229 -0.824580578011803 0.026567523771213228 -0.2721482247119052 -0.32275101662489264 0.38630800866518467 0.4073038487482119 0.12681379037273077 -0.1820973915747799 0.4276163302667639 0.7997083264470476 ]
[ 0.02140263493768463 -0.13707414417385388 -0.36187753257501876 -0.19006583105033217 0.6322913191994168 0.487227469131843 0.8927041497714191 0.030792902900740247 0.23531827264256153 -0.6252565275690982 -0.19528679754134726 -0.11373942679574583 -0.11953258014273317 -0.07197266459426213 0.7132957572709937 0.3345832315435308 0.03683179718678123 0.4920371553177633 -0.8827849521082739 0.26221083290366026 ]
[ -0.34945985863957724 -0.14989945123879828 0.2866568730848177 0.12047630124246055 -0.021205758664619944 0.1562141333045657 -0.20646526742973162 0.026945862827442227 -0.37812211311232796 0.19590199243831746 -0.02222550142267405 -0.17946166273562372 0.09550704295484963 -0.05088985718195526 -0.30817487751856315 -0.14727745519282887 0.01043437844093531 -0.2964075846170464 -0.2919813033847246 -0.1705133149964233 ]
[ -0.3849067919119613 0.3823750625105279 -0.2666797096794409 -0.3148778923617421 -0.1705236883656534 -0.1908296979440927 -0.035489331539575605 -0.30133285291840406 -0.3646844898773913 0.3651286179971445 -0.06916960937115078 -0.31651602375446297 -0.23397435809110045 -0.13412543283145847 -0.2563808198566602 -0.23822089995304063 0.15266196748180053 -0.33064836224543487 0.08845154486499843 -0.0949674628290139 ]
[ 0.12924490810650618 0.09219846686167393 -0.20571137217462704 0.1868295930707212 0.24304772001890068 -0.2684085290464172 0.4513136815160097 0.8360216581252616 0.40131326819997937 0.5311808217168665 0.39510130497411994 0.033358143010548374 -0.1013770075822954 0.18483058270073102 -0.394516058616222 0.09731323224897814 -0.15632866179725732 0.4693093300669734 0.19878494391182375 -0.2452898917415678 ]
[ -0.9581502001532279 0.007882714718396735 -0.3042214581090461 -0.9117373913670331 0.6283101642997656 -0.13317312140953486 0.7566303930097914 0.4443097596294947 -0.3204125257367473 -0.9196748517534735 -0.3089337115134407 0.3156994929147672 -0.16982430968876513 -0.5308420846070588 0.5721363816566654 0.5336675117539899 -0.06345839390977066 0.8431782818434383 0.20757696979456794 0.6341108703514892 ]
[ 0.02008912620932518 0.6105023556062585 0.23499328882174844 0.029297427503489983 0.28746979642966713 -0.11036244640145525 -0.4474910175258151 0.27201071782449177 -0.006034173952654176 -0.02400232527281861 0.11431689771824902 -0.09059216492622339 0.1621825631289225 0.8886197968065139 -0.2243600622956285 0.16733669171257187 -0.27951080669740114 -0.21465796412411925 -0.3887215028755879 0.1851070296675735 ]
[ -0.06436967034055216 -0.4575591543580421 0.20240389345693455 0.2121378171486649 0.36296270207518194 -0.6384581143440082 -0.05062970526303028 -0.21608543481883197 -0.24577811749925707 -0.14250973767186412 0.0673982586515418 0.7414365754373409 0.4949522703440914 0.22066451528056896 0.2564021248190456 0.07211644827914995 -0.16933206909028434 -0.44001885691211656 -0.44515847585742097 -0.3476114331649921 ]
[ -2.5520084515093155 -1.4874172937170353 -0.00153386548030441 -1.720758418366791 -0.6135355231743042 1.746527501577856 0.7579967172726588 0.8671386431323914 0.8453153416595094 -0.7052740422606223 -0.396312501354622 -0.6654637305331393 0.7024857984687526 1.1729611541642624 -0.04526190562440586 -0.6442612480337186 0.4283606562891782 -0.5630047489008245 -0.6474765148550454 -0.9766888269138294 ]
[ 0.5002070340160668 0.07855461806804798 0.39491755647260407 -0.3648248572060889 -0.0339179475749947 -0.10289419482638558 1.0336581727378582 0.13131324446046555 0.0949867590823774 -0.15280230047282634 0.5779134333450978 0.7309139011258515 -0.07477382552593939 -0.05034803938532343 -0.30021626107783617 0.3423622672422355 0.4222378331222438 0.3693050036211348 -0.3782377291865651 -0.2637727750432088 ]
[ -0.24971779078190276 0.15224215479403916 0.009617821498812879 0.15224247093945567 -0.342100451029202 -0.347118614004038 0.0745710397203889 0.17174419979533326 0.5991689441063706 -0.1256467194003307 0.12448834699001647 0.2040021767136639 0.5727411961602029 0.03664000720934699 0.4333147655933991 0.24687779851828376 0.2181845151374221 0.5260885023606513 0.6620497724761899 0.27892535910490196 ]
[ -0.02810348387376037 -0.005967398832478621 -0.750058107739446 -0.06284430759671297 0.21800733846980044 -0.02988100046619765 0.4841858542440245 -0.20518493351304715 0.3057452610447033 -0.38895090948992794 0.0056908124203701085 0.13007232490857001 0.11399482977690525 -0.6310111206709367 -0.7383496249193933 -0.18552733171881466 0.21638129093629946 -0.29886060251015534 -0.23934930948265506 -0.049337415300227054 ]
[ 0.4712859030382333 -0.9462258829303821 1.3252855222628803 -0.15654536318658496 -0.5475976498497821 0.6502764927446681 0.46527661312308377 0.45622775247304265 1.3849964500547123 0.6757948743037911 1.0444092866600254 -0.7981961572768821 1.1091026593531192 0.570058100127457 -1.4202216715009182 0.05486963641628096 1.0272929485163194 0.08996488380805945 -0.23524793362871158 -1.0187962825384942 ]
[ 0.3535184727026896 -0.6301620675355998 0.4391235349213712 0.625255871083682 0.8082744170944041 0.4890799825601862 0.2529902184706053 0.3812177439916255 0.2139349849097253 0.5199858355268783 0.3945861974677899 -1.0229513609565208 0.21219704600758635 -0.2953188941957174 0.44370339135824705 0.30591388615634585 0.1886285088869223 -0.7074974519922621 -0.4939128517951177 0.0030852219974105083 ]
[ 0.10289597898595855 -1.1271495811584593 0.3487495553467755 -0.7339119185027141 -0.1193238290286908 1.2619673463455954 -0.022136539601966786 0.06855655649302525 -0.7737978950333769 -0.15238471598170356 0.15126941214901066 0.5822071998961592 -1.259893786889484 -1.1469960839923883 -0.32296514616376165 0.345048634852062 0.058622478684107096 -0.6981669373301937 -0.07950613469528217 0.06567110654644363 ]
[ 0.10809183927989988 0.3808894750664342 0.9131064165238888 -0.5514623106820916 -0.5225492712425917 0.9270480525507645 0.15151064548989668 -0.21595125652271732 -0.01739280455801636 0.35134628444490285 0.21524951116152197 -0.8897276719480264 -0.8860052589119168 0.6612375561866682 0.28387429385080937 0.3068052960187025 -0.4801764176922154 0.8510692137961332 0.21669535857701935 0.3686406790358201 ]
[ 0.4955031255364361 0.8889026488235273 -0.22877462291053108 0.2617007440742818 -0.17311613968113856 -0.6954407801825824 -0.3383921672580064 0.36996367387043483 -0.9913463695917107 0.8092123671455893 0.28161109047688854 0.27170834028296886 -0.6718150485877998 -0.5654578532358094 0.2900977288069893 0.5146958405407108 0.470326421517045 0.30467078567324296 0.3891010975973563 0.5369219849508062 ]
[ -0.17689549744512287 0.25852117279811165 -0.04377769554546449 -0.07726909025594984 -0.037872532505034244 -0.04411917991495732 -0.3580050221070139 -0.5087576587949044 -0.08296472561099683 -0.31990846954859575 -0.3591354117394665 0.1390254728015029 -0.02597122439392023 -0.010928164523138505 0.057014462704720735 -0.16777609592624926 -0.06507007461279965 -0.20532922493883501 0.13710904094531925 0.25566219383711675 ]
layer 1 Activation
tanh
layer 2 Dense
20 40
[ -0.28109392005837636 -0.4938673063676897 0.0027733443983339553 -0.5152734769041698 0.10888628927580282 -0.3066353205049885 -0.03411654059909289 -0.13340667922936617 0.5723226576586663 0.10899635795656774 0.3480962132471042 0.3892470439919284 -0.41345089911983934 0.14302932771155208 0.34014383339088405 -0.5300382297934191 0.02826034467864825 -0.038019193161316904 0.21550035976223916 -0.2109802336784352 0.49256402927408244 1.0095689877555443 -0.598818534216926 -0.016983993651566696 -0.35514463054514367 -0.059050492002079354 -1.0085071588874415 0.008364034739893124 -0.0366757498162653 -0.0701620050925577 -0.27529382266016716 -0.09245678571130855 0.05945702695551076 -0.3340095668044723 0.163439053313821 -0.016624468164734212 0.15131354779793826 0.6006255681383283 0.10270537257011089 0.31948566194534217 ]
[ -0.007971152969265724 -0.27445059126740823 0.20503804773536383 -0.4872278053987858 0.16030180586712012 -0.11021250567057624 0.7703164423396118 -0.2599505666192069 -0.027776067423115884 -0.09567121226517951 -0.04605103709571294 0.23618227991873264 -0.12178222180681803 0.3461574146923401 0.5093973025332927 0.4296657505996826 -0.4555703836234678 0.48198555649002317 0.31003788010556604 0.7496041755198782 0.1534390938981363 0.6171672399383303 -0.23609255458603542 -0.30466169121324366 -0.40998904675258957 0.7526265079359774 0.01411096936201013 0.19530974968206763 -0.10440656523095541 0.41576468993550086 -0.07322890391083539 0.16997058101270784 0.4664910613292365 0.13517604671025168 -0.32794526871022817 0.3655757301670284 0.07623828379569908 0.5431441484853992 0.008620872947258605 0.1281880429140441 ]
[ -0.2039593181659524 -0.6586152743484622 -0.08506146231448147 -0.19146298711887755 -0.08467599505937842 0.04434512681312943 0.07027458107325237 0.6855803994396189 -0.20829378530375234 0.05979928837010696 0.07519161649546517 -0.1204694773506048 -0.10667859243482412 -0.481385011371503 0.46357254646058715 -0.4197905697588869 0.1436059921956785 -0.10431020689350748 0.431347696508783 -0.5154504824158274 -0.29929676460056814 0.06335702204265783 -0.4543121251461763 0.8097133095908335 -0.3404307363389527 -0.28696844192278315 0.1610867983847349 0.054802167409399125 -0.33738675272727914 -0.1904876166661318 -0.03320961394928713 0.15078355759933412 -0.5489965101594715 0.04931116481591502 -0.049197295585311114 -0.2531139425303031 0.13469571093785615 0.558484687527688 0.6697640085827704 0.14315672351604963 ]
[ -0.35654005763586716 -0.48359084265266766 -0.20103907274979238 0.30626973531744267 0.1564657208517015 0.02596316178422084 0.09616662245857345 -0.46926593163790437 0.15108730827656547 -0.2657096482491922 -0.0666513188810643 -0.648938980592212 0.2320576397017568 0.18611741894632633 -0.1802292421699234 -0.3390382597352724 0.015274088184673457 -0.05935799162918022 0.34379046270390484 0.42293184658084776 0.3763815241471026 0.2786241020165152 -0.6833797840052911 0.43470960129452435 0.13504382507157361 -0.05461039708827639 -0.22207387547798527 0.4515372324187893 -0.4800052134951803 -0.23233485685600336 0.05368963133509098 0.29788988065691363 0.4906713864809966 -0.48849467867371227 -0.6849491189787074 0.5055426008547561 0.34367325226239265 -0.26175412771780143 -0.081101271150302 -0.1589186195298833 ]
[ 0.13079036492444185 -0.17373203702114726 -0.04280288705062237 0.38734744607742366 -0.17335637834408665 0.4929463013679007 -0.4317252834596388 -0.5480122128277932 0.06529185497163122 0.1274850779837784 -0.05315095068212077 0.06726612596981899 0.16970671323233102 -0.21578863498000442 0.1460099509776776 -0.33091571743587733 -0.9788887276433804 0.4366189566657529 -0.05935190801423574 0.22163732607113282 -0.4907705120478772 0.18356003676627244 0.21168695133226662 -0.3579924531018107 0.48607249485205406 0.8067448301318566 -0.11275189436673701 0.2753254906912894 -0.2610647738012148 0.4635345564003442 -0.22903732380545722 0.13745515600329797 -0.23530389817353445 -0.017674350177068494 0.011989969650823027 0.25599608590226086 -0.04476095879136074 -0.051395680945230365 -0.5048683000961764 0.20594653691209577 ]
[ -0.3836509051623117 0.3124062683042006 0.26336028939008277 0.28883862412453315 -0.06643921569264526 -0.1517749032656231 -0.6101976188996053 0.4504390497664167 -0.44977398298756466 -0.1730623724891022 0.5221043289909131 -0.30412703994503015 -0.29619599781238 -0.6508712728186623 -0.46683820872119147 -0.31487004137197244 -0.07049959620442434 -0.1231967188437997 -0.2056975159983186 -0.3840488405010916 -0.843322057726485 -0.7737345309309689 0.6137083695125201 -0.1272940361310309 0.4140363172027917 -0.752613960949201 -0.0917329021748788 -0.2914706007348356 -0.0811156808303137 -0.6863281186143416 0.07451109986782779 0.16414295599726828 -0.4182726636198927 0.3460071811439529 -0.02293030753864426 -1.207342003706696 -0.11074519242841759 0.20560642723502104 -0.09174421650253095 0.1599530965192551 ]
[ -0.14587438822771223 0.2970544656397103 -0.2945077128780816 0.2904749292100013 0.3039334224204618 0.061539488654069156 0.09314862810214841 -0.6443593422925578 0.4244179064090692 0.0756135766271829 0.4288099590792177 0.12310956136465738 0.09831410748223078 -0.3832638705753163 -0.30708266828930914 -0.2637136690795352 -0.10873653420057704 0.07232350176427008 -0.2332521366137441 -0.07250204260277064 -0.5479594186717294 0.8254861651163945 0.14173711002603068 -0.17887504575056867 -0.18678606741227713 0.6923713769042459 0.14658029356117191 -0.2675330777681504 0.26515198494689723 0.32490288714013055 -0.40018563175003724 -0.17971395449661812 0.24222657732859706 0.21752453136364178 0.29412605815153126 0.32546422701880245 0.1233300002408128 -0.3469097150739312 -0.49806114238195603 0.49022191271897186 ]
[ -0.6331788131166691 -0.26059593531776054 0.15856010482731114 -0.025856147422807826 0.9353472449256879 -0.6182721574163451 -0.30620584143254914 -0.20232642996200154 0.830534998732614 0.7148041902482267 0.8796359279984725 -0.06821367838533275 -0.4006386411564242 -0.07793659569939013 0.227600774931596 0.22055763615599897 0.11651351084243672 -0.4293386246473007 -0.4603985202760102 0.3039968970117988 -0.7402072891084571 0.26478551562213287 0.24072088067381217 0.3862837704561688 -0.09045983633527295 0.06170224278133934 0.13777573796465278 -0.3752243562355219 0.8593229325115487 0.592164437723837 -0.9223866769432949 0.33443082670359725 0.3212693397537943 -0.09274853104919631 0.6174249968122382 0.22469084924113825 -0.16122284492082525 -0.46582593799573174 0.2807754954463712 0.6415795318462298 ]
[ -0.3708287468984785 0.2432964869276422 0.060048218621937745 0.4501343557495493 0.06097572774042548 0.12227679437708358 -0.6189318421875577 -0.46886756013368824 0.18904634472902793 0.30782945940215783 0.27711029803613546 -0.5558173214947004 -0.12893368300349234 0.0514274011390285 0.25095823661206046 -0.5413469500145682 -0.1590020043497101 -0.37505128045418257 -0.07341734643818343 -0.15951279091541817 -0.025348553825758378 0.13272436206904611 -0.1271823881118966 0.9226280775797072 0.274152412288353 -0.08824201030457883 -0.0025440635120709603 -0.3012050847601286 -0.08786943338431569 0.20831518938678195 0.05020413389600272 -0.15274477776038226 -0.23675940784737481 0.04730169470141919 0.4569156643563691 -0.21746810503641206 -0.11619724442711668 0.024782095359085585 0.16676596055424636 0.5618545234763273 ]
[ -0.4395350421678609 -0.5930424680241122 -0.4297997215746364 -0.44333379915846655 0.675282593822157 -0.21270364773852088 0.5887844994534991 -0.10725511661442338 -0.04372673644698876 0.33888762208710027 0.3533125397279947 0.1395663707290724 0.11905730451512285 0.189207424310134 0.11902277845744712 -0.10414554308471399 -0.020046735167248215 0.08112862832029413 0.004520879201717199 -0.17226232735029562 -0.31269525931176756 0.866766185017241 -0.38086173684390306 0.23637737624512659 -0.7520079321092749 -0.6190716595750734 -0.36293731450975986 0.09928137964713919 0.40419101177011024 0.3385309952842138 -0.008580513895925387 0.17429578093437534 -0.01584108330249051 -0.15871644662800663 0.07537112572154683 -0.00204732373459641 0.13382712891077775 -0.1088155896322129 0.36919741736495476 0.45583036663059506 ]
[ -0.24682805985338532 -0.04185534822627323 0.1699830275326981 -0.39055489201049604 0.2133487208860215 -0.5064624787868937 0.007126657725065535 -0.2794405664819278 0.41793117957604753 0.48887094367327 0.11941640209114325 -0.3349042638086576 0.09841047451336389 0.2848863973873768 0.296750118458387 -0.16540694590397198 0.14556988581369826 -0.23013067178824134 -0.090653285409324 0.11001940793052066 -0.2744726386526701 0.5375367702250703 -0.3777014760521801 0.5202799259612 -0.2339801095163249 -0.578581273538295 0.39450029955463745 0.03397603242425753 0.07880671979825919 0.055029341044840765 -0.4845245564180811 0.04779997543323587 0.08085680200546616 0.17959605187077468 0.49569144613971905 0.21684863293167003 -0.3282089333707361 -0.48350118682801174 0.2923972057630884 0.8147281261068003 ]
[ 0.00478024670898641 0.37410925606613027 -0.09179652534642961 -0.21174238783323313 -0.589416607464079 0.20307545036333732 0.18026234890606976 0.3007051563586674 -0.19533612753592672 -0.051073011590842814 -0.2867361153819544 0.34407918404287996 -0.14706623720202394 0.7278901502671322 -0.36718235340944577 0.7207331242100747 0.5129490662964 0.15460650292289252 -0.10123322997752071 0.6684181596083112 0.34384860530747474 -0.15624814488144756 -0.11700636240515007 0.048697971607177 0.2767090208502052 0.20820926751908805 -0.5051222735060206 0.6651602136561904 -0.3842615776623971 0.11539788827028376 -0.38222411643907983 -0.11556458988285304 -0.09483094804825133 0.0271734690303059 0.024438318867013135 0.3293266273929423 0.33156618900487744 -0.5867097229952453 -0.09183362684159624 -0.23481409073251355 ]
[ -0.20208657997416418 -0.20220567748527873 -0.005901200230112959 0.9274002222939943 -0.1313605541611279 0.03519968980112177 -0.6903731302467276 0.024139326233751812 -0.45990490378037235 -0.2009250660642597 0.34839404428056364 -0.41703305179522504 -0.38766789227262677 -0.7844716467026007 -0.19160443415180795 -0.13527071616155353 0.6165162000519485 -0.3310998499011075 0.4705507151297075 0.48842849603669264 0.41633177131930316 -0.5660194760167365 -0.3070298086929702 0.5958555981492676 0.9056409780451341 0.27864000143807727 0.8766601781700619 -0.1040976964968563 0.0830905085306138 -0.057719531839161564 0.06567930253217204 0.1643149010483367 -0.7109049856990198 -0.08019101277176524 0.12757970726341347 0.09729789774931477 -0.24863249609181975 -0.12725457996360548 0.2818259775498081 -0.057421242628866255 ]
[ -0.1433942625007412 -0.13512406811328181 0.035014840849165056 0.39989457372699155 -0.5949829187978386 -0.05943805002609579 -0.2307426847009517 0.9236732463166515 -0.041817482858581285 0.14441175973096612 0.33619100804929203 0.17185653939523068 0.09686318265033762 -0.0638024018198547 0.35778794138162395 0.34268113802017125 0.12836050316949632 -0.22918633444661604 0.025042697035752792 0.29267557485254314 0.20172141776245822 -0.45515613822478623 -0.03550791888720423 0.5276777722130377 -0.1385551140254266 -0.5036535214107767 1.0510054408290117 -0.023597267965783934 0.19367528957135063 0.00709418600569126 0.11661353843719202 0.12648735601905947 -0.5275736236295026 -0.3671085659935259 0.10622795962185538 -0.08453157462042248 0.21247808569485585 0.5652348519008662 0.320080507196002 0.4113566924942653 ]
[ 0.5437565739515154 0.17208207438644535 -0.03527436430912262 0.06433036379385192 -0.043704603340887285 0.17570759170283662 0.8282938456963148 -0.3465122132333401 0.04627214705072163 -0.43159953209528606 -0.6580482070901124 0.7812176447597463 0.009762429438257196 0.3221992309887993 -0.12472327702773052 0.5157653118865606 -0.2566115403831718 0.7137226284192439 -0.058094058495084686 -0.02867063882475403 0.2913426442185678 0.5252108174540895 0.39685319302856475 -0.5021011929849991 -0.3438502404211214 0.19057343898752813 0.44713933928924265 0.00524785533233493 -0.399709985904405 0.1399666779068617 0.10233673127464311 -0.4129382774232209 -0.23738355980200834 0.277927809059867 -0.44066827579470846 0.5953729769371753 0.24937273789161876 -0.040231030407736366 -0.14582490848657276 -0.6556663990344089 ]
[ -0.15078283578871227 -0.20625434460979916 -0.05963685587572328 -0.25470690437110816 0.29408201313054755 0.25712718282803454 0.5033342235393055 0.09682373361770596 -0.06456656477987692 0.12427388673621412 0.20772533458468048 0.25943646658572883 0.012870163161072111 -0.011724806309928656 0.5607276082114564 -0.4088194141802823 0.2876287944228356 0.16844826186842374 0.16268840957324843 -0.4273383311264085 -0.03201959706799799 -0.1165079525159891 -0.17716539526104222 -0.22224593557548752 -0.4582014428689236 0.07390172560730235 0.5217403821270826 0.34704187625699245 0.11067020848598183 0.3559497984146762 0.20614365786075112 0.09394679307631033 -0.1998686320590951 -0.07719277544557843 -0.2330135680265855 0.27281529274416366 -0.07853851750054423 0.061987204615378336 -0.30500224245395 -0.14267532540264774 ]
[ 0.2542853957576101 -0.050859509333553904 -0.015913897506754204 0.14185862731056964 0.06531271007676255 -0.15432473705239125 0.016197438650353762 -0.6277245688653557 -0.32114159131456627 0.10368934988508557 -0.019282711972806874 0.0715756575488768 -0.1326637358700112 -0.21556287177732827 0.517167957482493 -0.6358477291250826 -0.038674764958183845 0.4934917238888926 -0.2300087907871256 -0.33947123248785943 -0.18355583404826314 0.018601112044473504 0.20096021017633756 0.11030821443876596 0.048913240060677446 0.1444063201265348 -0.28955517645573575 -0.2584057396262867 0.26939249950249705 0.09482367490980734 0.07697116459733756 -0.2559588651425666 0.3515453733156689 0.047684446965970385 0.043460499154825555 0.08301527541353981 -0.07998125930387485 0.3293104689349235 -0.08868845564577907 0.09199557568763019 ]
[ -0.12248555394370167 -0.062453386577443176 0.20626077863704112 -0.22338013769805745 -0.3570472015467641 0.06376771833912576 0.46394715083846266 0.30705453644694897 0.18288889599176844 0.06610652560654494 0.05520989955520173 0.7677737695066532 0.061253506670040245 0.03240632386410784 0.2471932973975264 0.5084631761990607 -0.060006186729597094 0.012579270976864568 0.31159555108894904 0.35583714822450657 -0.0313659018501688 0.07524832583326369 0.3602955208032932 0.3520939343286737 -0.5801406299225775 0.3705515005055107 0.6573279534837922 0.042926068603952997 0.2419333542601855 -0.44300103124428397 -0.33666655845534116 -0.21931159713592457 -0.41363286566251684 -0.031104408468613908 -0.12331847427505098 -0.1658580104515596 -0.24559346173897184 -0.19573220882803732 -0.1588095098835501 0.28628943298273135 ]
[ 0.14130340345584813 -0.0948972249493836 -0.0878146448790537 0.06954483294024516 0.5376786854069636 0.11264334443451482 0.8798426607252319 0.32156899834170466 -0.1608556256502894 -0.0633060149058329 -0.007012977830095341 0.19329308695477607 0.019546971858211463 0.33316864340584906 0.16630311015939664 0.06248797202522617 0.8173299672526421 0.050247207910806245 0.3718844428270318 0.0950664854637689 0.6483749240416261 0.05834592500866287 -0.19781358496940157 0.7254199811040054 -0.3392254121379558 -0.21431654662118843 -0.26732545332159874 -0.26495205994542576 0.0057904467242222485 -0.1486401962529849 -0.1618286600509096 0.2319335931287081 -0.009584675624595591 -0.3345381209700867 0.4368340841273431 -0.22255602454816886 0.09352492082589707 0.05742011875619612 -0.007989430825171564 0.04790499512249973 ]
[ 0.7724207035422632 -0.06333204670166932 -0.35534868350232507 0.18219836288755448 -0.3213232372779378 0.1271104904607987 0.9927248308091572 -0.35394070334322636 -0.21312359342058873 -0.23249633540247888 -0.4999288208491495 0.3802753116903395 0.24774395350870984 -0.434928136552362 0.17467655966565032 0.011824796336137061 -0.25559884147635487 0.7553764632834404 0.018938510306337513 -0.02256627593478968 -0.26843876622869356 0.03863411848533743 0.629022630156839 -0.6398481295653144 -0.39868847334535534 0.7540367753049202 0.22971927357639899 0.20827583363361796 -0.4254859628561785 -0.25226517344011534 0.48959587812668276 0.28679775557672943 -0.5448058917277298 0.06675440781978172 0.2674480363733701 0.1377059827982309 0.48801130419075733 0.7501803179041351 -0.6940658498372427 -0.9777126646050928 ]
[ 0.40323050483327333 -0.025105091006607252 0.06878763735073762 0.14915566807140732 -0.5610573480872677 0.3049146567081529 0.22634951107912046 0.1401231782805792 -0.5723863134925606 -0.4295241381888664 -0.5054093162488914 0.32233862192925533 0.17438259259660863 0.03849633647761622 0.05413988066779076 -0.030965222556736952 -0.026975208186818755 0.342577115050399 0.18521331972911756 -0.20447192289991842 0.49068264131494727 -0.36864467506005627 0.09007598773256055 -0.29879705004011775 -0.07477978963088443 0.25874221249032 -0.17047080660041017 0.284992945686097 -0.5328552570322826 -0.5465490704879573 0.7071793209707367 -0.07056567581941539 -0.31597984191664513 -0.023839615811514392 -0.36398388165729945 -0.19575254665916159 0.40511284752136684 0.3837864339199322 -0.13978929278731284 -0.6783161967369626 ]
layer 3 Activation
tanh
layer 4 Dense
40 20
[ -0.225701307439249 -0.002895191798055153 0.3483810366150723 0.00860821457136664 0.2870479980792526 0.37628568137749363 -0.3299997550858779 0.40221296134386886 0.1417031194346125 -0.09211959482558196 0.2768476359243735 0.5601240157341546 -0.09197589764172255 0.3385851331492339 -0.3615998197611682 0.24902578280506402 0.4567987785354037 -0.18956784930507253 -0.01957777228774356 -0.4238482943137218 ]
[ -0.11532485550970899 0.28161115672933507 0.21457195199620874 0.1565667477100073 0.23569166205482112 0.06448924154830736 -0.4207946212317269 0.032300163159349575 0.22348368428942553 -0.34619951561045575 0.32516304649901967 0.14180031616899935 0.2753160108837264 -0.20117796385907682 -0.45736702459339856 0.23574227495436914 0.017207197068335844 0.0665232698575843 -0.21913190672655278 0.2046907993521516 ]
[ -0.30715826242773214 0.1134301689209321 -0.05888912794967211 0.11441707504940962 -0.2385511025615459 0.20524202317498935 -0.06757410366616284 -0.09635743561693469 0.03925221529066649 0.13690515624727714 -0.16907404803507464 -0.05497797722602824 0.05933455635111239 -0.3339900718040834 0.08501893005379015 0.09723071563948922 -0.20496020289844544 -0.0118156607986346 -0.004952792751444532 0.2149019940373074 ]
[ -0.1242182345361465 -0.10560638245769641 0.5846134855716089 -0.317035610525802 0.3876654965486273 -0.24630620475241324 -0.6004545719557763 0.33020235279849436 -0.19573861023077646 -0.0007848786239371564 0.40088556606637965 -0.18885416943083827 0.33579987791665405 -0.03687991459035315 0.29177567835442697 0.45097777732090966 0.38551381860374156 -0.141511013670916 0.10899475755898125 0.4282578878211548 ]
[ -0.017115348571211993 -0.16169959123750946 -0.17890068069368414 0.3408124796514254 -0.17427663884030786 0.11023921292913944 0.15057894102650213 -0.1712485670236702 -0.08427654552879559 -0.43948128420105104 -0.1879296468195219 -0.23859912472967018 0.1052305170058293 -0.4060359881036421 0.13833944339631662 -0.6900820176976539 -0.30924696643840377 0.47692929825524844 0.4293637751232587 0.11549379823973177 ]
[ 0.1913540953878823 -0.21618409445525152 0.3181620754190566 -0.2103175547338986 0.1195553870886989 0.23888578036686828 -0.265134601956811 0.12205597103891226 0.413029085021093 0.05946665290096384 0.2881898124750068 0.27936875481204587 -0.14425944569270222 0.1949644434638963 -0.09711182860133227 0.26950489990677723 0.27575608357310666 -0.4659134420171631 0.31038635217369 -0.2556837813993787 ]
[ 0.04653279427284494 -0.1896630809693275 -0.16736844659721 0.18747933374718434 0.019857915370161877 0.5103528487359491 -0.12632140952375534 0.20921647758568043 -0.3149545311742746 -0.48011528331250364 -0.5998391432273819 0.6808406831936806 -0.047366533575997474 0.2595957865462733 0.14229715949858146 -0.3763213896153444 0.00238710992109492 -0.4733961432777495 -0.44484812011234776 -0.6694789237247162 ]
[ 0.029903105098418915 -0.0687581079107505 0.6528584855191397 -0.5280063202804584 0.03773275526989656 -0.3520972725640002 0.2194258674255282 -0.03919333154176381 0.0019813849882537515 -0.12733299931910907 -0.32566099395218906 -0.30685015264526405 0.15290213886071446 0.01349097834775785 -0.18275971714468744 0.6212076001507555 -0.23661899425835922 -0.21899204787476473 -0.41598955297028445 0.28335724098358833 ]
[ -0.0482228137540515 0.12087249596675788 -0.1348618461683812 0.23883256996892654 0.12101529286307365 -0.3265660064620615 0.09724894329407645 0.05300089623067193 0.0984919171875108 0.05092298909929149 -0.07458295160931111 -0.3837345367353936 0.3132600950164899 -0.4336187863140914 0.30863920111773463 -0.3963175712359775 -0.48400221501392776 -0.041597444915125674 0.21091573944110092 -0.06761627367457 ]
[ -0.10864088323967032 -0.26156186724469016 -0.10771114855914499 0.38313807644069575 -0.42176129896585124 -0.3162083974519183 -0.052626312383994775 -0.3049281625497304 -0.14144593891840365 0.0053717729199942105 -0.06390066730401289 -0.1791923896179056 -0.036495356076076485 0.20420981777717756 0.3872870752315561 -0.27000302882030947 -0.2052962979018418 0.3534728440403637 0.05462065159201254 0.39321484091875447 ]
[ -0.0016673497062615662 0.08713595874028957 -0.2710436028866725 0.18631382966612062 0.008641191356323458 -0.0056723103663521915 -0.0262193129617576 -0.0954611509099536 0.16420675338496948 0.08703157433308138 -0.0188146510873071 -0.18480516967116506 0.3736065068824255 0.05347865601055529 0.15915953860229404 -0.07548831044267573 -0.4036281587697159 0.6609767548544143 0.30702638708564467 0.20277326973617646 ]
[ 0.4322635680879168 -0.10380879714113272 -0.03595792425264384 -0.1764415540492778 -0.14764498559512168 0.16990549840321123 0.16154755770361784 -0.18240340793693777 -0.15824548786803033 -0.058485379430962874 -0.059883049748390094 0.3169791012085584 0.23005912427561995 -0.19151310900818302 0.11063468170150272 -0.17429248926701843 0.4352979937759814 -0.35101741135112635 -0.15060458396687001 -0.08080025120548874 ]
[ -0.0009479127109954159 -0.22495010250995792 0.17948313297558047 -0.21364869814004983 0.08037057051012368 -0.1245190221589359 -0.16824574990233254 0.149270565955582 -0.21030350565077008 0.20622633560478615 0.0596454398326841 0.042594184360580475 0.23220803906334236 0.31053396518603643 0.04631487150036511 0.10498342670960867 0.27851584913375704 -0.02791640867359512 0.10578533089734721 -0.20893709433835536 ]
[ -0.05135017670464739 0.17560216907464452 -0.4148171326039542 0.07207018263695411 -0.008207842912526783 0.06255770461114142 -0.09058495437688917 0.010908914202471129 -0.09944222430876944 -0.0018121042764101547 -0.05065554087541389 0.5037899079024029 -0.05781340330408005 -0.33708291176257976 -0.042957013720948664 -0.454047728128249 -0.35097567964330617 0.21355730294320574 0.08323490269785257 -0.2367126760313303 ]
[ -0.05148177003468169 0.21897371725335393 -0.2501335336026832 0.16448262524738858 -0.1798477175152414 0.22426257291817422 0.4265770373505451 -0.23314971190963962 -0.10650822390180154 -0.1197028866064853 -0.08975706276960001 0.19023500417247152 -0.17384628481769265 0.07487773493626997 0.3497054713317398 -0.06856538256474977 0.08217812626978178 -0.013014894899597472 0.2234060171925234 -0.19696109839330425 ]
[ 0.1716745064570299 -0.07067677670453479 0.5713774500693186 0.5180362476382783 -0.0033435672778371825 0.17901913962212307 -0.4413750109723067 0.012774888902442974 -0.028872909580583975 0.19101270800681167 -0.5070055886801202 0.4877858279690953 0.5515036144951511 -0.22128139674145245 -0.14478313652236194 0.030499845914913885 -0.40802928098480246 -0.4458691388412503 -0.5360259880870107 -0.26990797408575423 ]
[ 0.16929890044378806 0.012076808161627511 0.17826940371037345 0.019836016323902163 0.010018415882361511 -0.31024495635528243 -0.1436824696578554 -0.33985731564977995 -0.32502890110293226 0.13996034111796032 -0.047765604956897474 -0.34392200025897207 -0.020107010106531577 -0.1977861721706027 -0.2825076628344354 0.5271960276854827 0.26398422687707823 -0.012460256101195045 -0.25626833904161145 0.39604777988968487 ]
[ -0.17890471141567874 -0.39147960880170896 -0.23978869298825253 -0.05111721008883839 -0.0962424315610891 -0.08597976622076924 -0.3088567712221396 0.10835260444940954 0.08551701888802325 -0.09426485623622992 -0.00756531039021952 0.3915517596827037 -0.2631927914864511 0.05613688708015964 -0.15724717751694428 -0.10899848827620884 0.021633933962348466 -0.2612651066395849 -0.1472380561644659 -0.42198993191161416 ]
[ 0.2273911396390246 -0.07884554871888008 0.13986743003879043 -0.009053034328459475 -0.11104290230800853 0.19999539037747727 0.02294912193293733 -0.1177578275681489 -0.22551802689500947 0.4465086168072216 -0.012850182376608793 0.015657402328183544 0.22409320952517198 0.27039754615290923 -0.29415557287390925 0.06108831104561768 0.09442662353458967 0.15044866355425052 0.20347351862216984 -0.16364303180814968 ]
[ -0.016326339355304167 0.3741330658764266 -0.04984530038734603 0.41589476442592754 -0.3600582909247331 -0.08152834774291129 -0.29066203737576096 -0.08050601484999434 0.1550464079352182 0.322626614295185 -0.35078685756048045 -0.1021914025695152 0.3975781881250845 -0.27250403338419976 0.2752229543329905 0.0871166230657662 -0.5133755926288787 -0.21268244164990027 -0.442924867311323 -0.20329665451186904 ]
[ 0.21426704642979838 -0.041238461511296134 0.30750349480924166 -0.5735075305776048 -0.10071190065507492 -0.051676378938766414 -0.11043821054660968 0.16680554040291562 -0.35931386643397295 0.5986962210342816 0.4530678596581166 -0.012330892729667014 -0.1458504117944734 0.1149145978215777 -0.6938070250546107 0.14275378904616615 0.33001523219735335 -0.3183766310191441 0.20864539640289 0.03218157343493826 ]
[ 0.21091225154916096 -0.11099896063491423 -0.7806218009211983 0.35238460241130065 -0.02127411783721042 0.0879003379567009 0.0440119808432211 -0.17537585210620246 -0.37821974418159454 0.160562599175059 -0.08972815526979763 0.13710028039265143 0.1606925885222163 -0.10709534971522962 0.4560720980991861 -0.7133365537728434 -0.19392242871531756 0.14669981176091618 0.5750339827545158 0.21199680183812142 ]
[ -0.14807006754717236 -0.12087147959546152 0.33622588284868365 -0.09661962194436065 0.3832108717094718 0.4332399832459238 -0.3980916347550175 0.30914278310584187 -0.1269678613230535 -0.45702448333405415 -0.01730977468714335 0.3235956489859324 -0.19881827110221936 0.3176493782099714 0.10367829762639502 0.349114192248241 -0.23247611262989562 0.21695533792195779 -0.34402612575207653 0.12968174278039357 ]
[ 0.08724230337528206 0.13821588870343005 -0.06163577497801336 -0.0443262828641385 -0.11535107147080927 -0.21218753180490002 0.2305783686887155 -0.538605930962461 0.11414219671772222 0.24215862103324678 0.05391948501092237 -0.6820162847730842 -0.28999270238404257 -0.10869899322508017 0.3018078979831234 0.21481117459817156 -0.27533704424059324 0.08737181561239335 0.39629992943193587 0.37752070922367525 ]
[ 0.33916018207217763 0.14399338266362027 0.36745544642326067 -0.10718187622126579 -0.11370677440861816 -0.1457433599366208 -0.5686850250634384 -0.32326518970639306 0.3409736667532987 -0.17610001517413545 0.4170055777169903 -0.32057566321480924 0.34899144388029074 0.019941817631510796 0.013497382922743306 0.510983260702237 0.011908066164086172 0.27647298360986894 -0.0408067221212306 0.4365516099590137 ]
[ -0.20500623137114574 0.2714009529766168 -0.12587726550626419 0.03051564191232746 0.3235521161274267 0.21531495117576863 0.009274405249566645 0.4009458540756224 0.06002390870906361 0.055404976257157776 0.41881895839269523 0.5925236939458673 0.5013665863377444 0.40307126122112824 0.38753648188317275 -0.5089544139424488 0.1496084431091146 -0.009715349442458719 -0.20920111684970533 -0.5444508919306128 ]
[ 0.19478782213415133 0.43118854576184085 0.029839868340361918 -0.08558009381167637 0.3189991138196042 -0.1943827577921997 -0.4057259811122965 0.18683057494873628 0.15459645607182132 0.25634557303660943 0.09803765044633639 0.08109947188664944 0.2003866242150756 0.31230870212385214 0.4463119343200253 0.3720116896336685 -0.07962254804043682 0.2430994072468258 -0.5390525885376587 0.333217428983391 ]
[ 0.16599241686895014 -0.28593417774669705 0.23402793074896885 0.11296584612579012 -0.12386405380741772 -0.31809477228974253 0.20310919382868584 -0.27507778892378015 0.10535765023595195 0.3900360509257386 0.14919351487576424 0.10029707580324117 0.1859426236574909 -0.05643749868277773 0.06308902857272523 0.22637325815614326 0.1571645561747746 -0.565295806354948 -0.07037620522721448 -0.1664753005402224 ]
[ -0.16866625793928372 -0.09198094936867654 -0.22173912367162413 0.3634318977299354 -0.28777088101133197 -0.03423474521318029 0.23220168484801365 0.182746785724363 -0.06026905907899296 -0.2684691184186278 -0.2537699435001528 -0.31690822528206963 -0.11240188584679967 -0.4069003858331204 0.3958104050015575 -0.16737324630006584 0.07682824998284063 0.3895741025198229 0.08729252307141669 0.3103436198966775 ]
[ 0.1924801760528357 0.2821951419346275 -0.009874035686005209 0.21447387045001431 -0.007346063471208673 -0.1212803149169297 0.038453538188568434 -0.058351444920460085 0.10415556135840373 -0.08138149544492117 0.2818478417622016 0.09377026656738101 0.19579672573798512 -0.32903498880447446 0.4826510876129153 -0.48742067384844784 -0.3028487172264639 0.13694591686706556 0.22661680130885412 0.007536465217457304 ]
[ -0.1453147372381475 -0.010888067715820895 0.0634450373418269 -0.5256752835776888 -0.12761805713161933 0.4406838718725888 0.14776047715495944 0.26653006219944797 0.07153461639469823 0.03841625873878759 0.1957322281176621 0.5595770033849212 -0.05881565397757428 0.4136671788115616 -0.6675405276301318 0.5444273529875329 0.2592969875418114 -0.010176687710066384 0.27250595467571975 -0.15988157427579835 ]
[ 0.01396817488622883 0.2410428139042228 0.12922292765408752 -0.08789667962048206 -0.3461236228716294 0.11151307749555626 -0.01566377623878551 -0.04209679939224007 -0.19344484495065148 0.1899248647586682 -0.1703888450069412 -0.13282560838816648 0.09501925698171722 0.3337863591444381 0.2685673267159487 0.07334773798111698 0.048167594032566846 -0.10215567918011008 0.22199661567406687 -0.07685925774506706 ]
[ 0.17633717307062063 -0.06604146484411329 -0.497688155029557 0.5931844967055255 0.04588030991294563 0.15861296827723687 0.24884302557869814 0.3433092551315783 -0.1634906860207327 0.2174639256284739 0.07692248209207835 0.005283801231332157 -0.14171773611559121 -0.2372198747165058 0.03791060398053323 -0.4378984781162306 -0.3881453520592764 0.3738985768920973 -0.06740428898195377 -0.33051724714041547 ]
[ -0.3911007024861476 -0.09485143234421907 0.16401916491058827 0.05753528862932877 0.11007707007554003 0.03777686893415013 0.03912393021460596 -0.11779050228639569 0.35405092648499276 -0.3711221187029094 -0.12918756212307111 0.16195699751418946 0.20682600210434848 -0.17025037336016308 -0.1104118707053545 -0.2298653965741438 0.03077660129695689 0.1640869232055464 0.06398739384206359 -0.01583039598189468 ]
[ 0.10749455493688648 0.1067663688992829 -0.09252025330721071 0.10315012346526709 -0.28016250646480995 -0.3707567917896129 -0.0881764896421153 0.1479964851446946 -0.03897186335469618 -0.32689412881942953 0.14111039762236138 -0.10548849100336867 -0.13420839256947925 0.07078092132157608 0.3646790149009084 -0.10897506015460746 -0.20637327145303833 0.5751283070842039 0.24422519706425075 0.30360111142286517 ]
[ 0.16514058739708326 -0.273752353061572 -0.6059759728058991 0.25947468620495723 -0.07037426652556757 0.43826173662867535 0.11227053040886312 0.28172000192939767 -0.5532429752501925 -0.06488967877591507 0.28649187854828934 0.06757730138799668 0.18396096963678482 -0.025607761428623005 0.6420871568793228 -0.6760961752505157 -0.20624264769070796 0.051332122871227494 0.0924831787881503 -0.21209736358225603 ]
[ 0.3136937802495879 -0.24180900706105404 -0.06082556580113707 -0.0373720890968979 0.13127354431451446 0.09866515571546493 0.22170944705278464 0.1716697769726367 -0.23166746612976818 0.25995947790593454 -0.227679312583559 0.07701877014226866 -0.13706804196586617 0.30608844832944426 -0.10079208587246792 0.08908045710397174 0.07818954918671307 -0.04382642752729111 -0.0012579698804114747 -0.20682808721309354 ]
[ 0.14128559069700614 -0.23108540318468176 0.2456999252654003 -0.41897678320648 -0.20881823032383245 0.31929748124754503 0.37641458964339997 0.15399332586769962 -0.1807921302802358 0.3775433724838594 0.31570043210754795 0.16249861325481998 -0.1290998004240157 0.24815842645324515 -0.20136361225693505 0.3224207435491457 0.05671245650475185 -0.27228758178737567 0.41195300920657124 -0.07653323412321802 ]
[ -0.1390949482658554 0.37453089637745385 0.1768987904843129 0.23167348114753403 -0.1348139099254997 -0.30377625607458025 0.4328028876115282 -0.49111702717192024 -0.07102523838690157 0.23590484590289437 -0.49066022042575014 -0.4680759664850455 -0.28224898341369825 0.2010065799175918 0.11440172354747777 0.0223902911485038 -0.13244174514445167 -0.2321360747721332 -0.14123723430092436 0.4707383643504559 ]
[ -0.12178225942906529 0.23952309261842428 -0.23682993056824472 0.4372298257204452 0.12887284413435332 -0.46244804218504526 -0.09967237174419423 0.02877438534782022 -0.0725812782247767 0.11195817338016321 0.09272057302084556 -0.21127094334720717 0.18528342450347338 -0.30234394479246485 0.23934398951040214 -0.30372051583709553 -0.31210633645310665 0.1093928649919599 0.3716220263624919 0.10205717316367106 ]
[ 0.013121185399490119 0.029854393433412854 0.13287325820151777 -0.3205643196361005 0.07219097156211014 0.09861121744101811 0.035410214211339386 0.042420761311574004 0.11955118402274925 0.07651948571959391 0.12941927331856312 0.22960408662285908 -0.12071185260639032 0.18667716113008398 -0.33051058514802784 0.2122028009126721 0.19617215355537063 -0.23425976356368672 0.03534378488232379 -0.08883555034066587 ]
layer 5 Activation
tanh
layer 6 Dense
20 1
[ 0.01961139215716621 ]
[ -0.033817757977478706 ]
[ -0.43308146445229934 ]
[ -0.4796583530015264 ]
[ -0.039463549366733235 ]
[ -0.12283474631934906 ]
[ 0.1667845697925258 ]
[ -0.046587190070001706 ]
[ -0.03158638615811767 ]
[ 0.061254266364582664 ]
[ 0.1433400066892849 ]
[ -0.4168940167855864 ]
[ -0.0669546872919448 ]
[ 0.5305736086574148 ]
[ -0.2998418713171035 ]
[ -0.808302812885868 ]
[ 0.416465437570187 ]
[ -0.3116098338947968 ]
[ 0.34331231870079343 ]
[ 0.29028496753280564 ]
[ 0.266379411168868 ]
