layers 7
layer 0 Dense
20 20
[-0.08064539  0.34632587  0.06076621  0.2133222  -0.05928457  0.1567973
  0.04800745  0.02604695  0.10541084 -0.08062014  0.0259966   0.54713655
 -0.15905592  0.06307419 -0.15947236 -0.45465317 -0.23542927 -0.17226517
 -0.01068807 -0.18955302]
[-0.41275284  0.12095434  0.55410045 -0.49544016 -0.38032064 -0.1325613
 -0.23671284 -0.21693122  0.13717553  0.36268485 -0.6599885   0.41231173
  0.27216968 -0.06739864 -0.3640029  -0.11779563  0.57591665  0.20394559
  0.14356658 -0.46705413]
[-0.5990624   0.26863027  0.17471749 -0.3258981   0.28483823 -0.5425511
 -0.49479005 -0.5384159  -0.25406933  0.3393168  -0.21258493  0.49073404
  0.3084588  -0.0424863  -0.77592087 -0.00340655  0.13964204  0.24639437
 -0.29058397 -0.11923891]
[ 0.15438513  0.25702113 -0.10142305 -0.25640532 -0.14526772 -0.18041226
  0.07663208  0.21187088  0.02412269  0.10089166  0.28676704  0.2763595
  0.26864246 -0.51771885  0.21919249  0.1428629   0.28993645 -0.141264
  0.4677904   0.23244391]
[-0.3445152   0.37150967  0.25983202  0.01234013 -0.10817711 -0.11776065
 -0.48497093 -0.37298474  0.17483388 -0.24795946 -0.05296968 -0.09912511
 -0.28558913  0.1110284   0.17564464 -0.28141773 -0.11061096  0.03012159
  0.37771335  0.18323612]
[ 0.5702264   0.16659592  0.05625714  0.2153819   0.385733    0.16220583
  0.14300595 -0.07215362  0.11244223 -0.41150478  0.8883506  -0.33434838
  0.22460704 -0.23352616  0.46992183  0.21827653 -0.5503224  -0.32318896
  0.4940108   0.3152857 ]
[ 0.00978202 -0.3814537  -0.14089705 -0.06686463  0.16762103  0.08823673
  0.23345403  0.05596391  0.04197336 -0.505934    0.45154056 -0.28594977
  0.03480778 -0.15304013  0.6559523   0.32652628 -0.8204052  -0.02472395
  0.16944519  0.15384023]
[-0.01762011 -0.13130182 -0.37585258 -0.01578411  0.37690303  0.10192129
 -0.17249857  0.33523005  0.259317   -0.2041735   0.12281307 -0.42325237
  0.01735324  0.41977936 -0.17229922  0.24919675 -0.10742392  0.3072442
 -0.45307994  0.28487852]
[-0.00166674  0.06845648 -0.01208845  0.26087767 -0.42470816 -0.2195104
 -0.20797239 -0.13431326  0.24290478 -0.05655963 -0.01528874  0.00442652
 -0.1608183   0.5145098  -0.26922488  0.20555566  0.6788821   0.02634957
  0.29360637  0.37254906]
[ 0.14251852 -0.3587174  -0.29936498 -0.24482587  0.13743888  0.3025741
  0.21439613  0.43369505 -0.12331226 -0.41836637  0.64171404 -0.3458063
  0.32049498  0.6485743   0.33322716  0.40780684 -0.0376913   0.35349444
 -0.0346403  -0.11287445]
[-0.6194961  -0.383003    0.6561598   0.79331166 -0.47156495 -0.0637955
 -0.58698547 -0.08740199  0.343768   -0.652564    0.66368175  0.1693744
  0.32127896 -0.09149786  0.03587884  0.25871325  0.07227457  0.86220086
  0.03937972 -0.00289113]
[-0.20100802 -0.11065084  0.8495515  -0.17768537 -0.29675695 -0.08570261
 -0.2876484  -0.3301763   0.17577901 -0.65905607 -0.26015207  0.4711061
 -0.08440815  0.09052978  0.05741924  0.3386849   0.03313258 -0.5417544
 -0.13051505  0.12859668]
[-7.1777868e-01 -9.1127861e-01  7.0898420e-01  3.5235994e-02
  2.2126897e-04  2.1479841e-02  7.7131099e-01 -4.0156391e-01
  2.0090127e-01 -2.6094908e-01  6.1942750e-01 -4.1962013e-01
 -1.3420232e-01 -3.7453845e-01  4.5145595e-01  5.9645653e-01
 -9.0844661e-01 -5.1851952e-01 -5.7855964e-01 -7.8854576e-02]
[ 0.08833791 -0.29621008  0.06696501  0.09499284 -0.04458024  0.0966344
  0.26490456  0.34086943 -0.37985668 -0.03363271  0.28683352  0.30123186
  0.1262369   0.06147039  0.19500639  0.10891126 -0.10916663  0.27306753
  0.26468664 -0.0495322 ]
[-0.15322478 -0.425947    0.04789881 -0.31362212  0.33453035  0.31518885
 -0.03089057  0.09620672 -0.37624857  0.427635   -0.11441153  0.07051434
 -0.20457461  0.03130559 -0.29021436 -0.16698192 -0.13291302 -0.0928496
 -0.04187815 -0.38049132]
[ 0.0084515  -0.10524312 -0.38116533 -0.3977576  -0.5474939  -0.63347375
 -0.24116647 -0.23533416 -0.77165425 -0.18156098 -0.77670604  0.44051477
 -0.7315755   0.94419426 -0.7064664   0.13106811  0.5926136   0.8582864
  0.79092336  0.68144745]
[ 0.56194955  0.01100384 -0.6067157  -0.34126216 -0.17946227 -0.07083076
 -0.24330121  0.45040044  0.00683718  0.33500862 -0.31270164  0.48138675
  0.44443166 -0.2602354   0.39237687 -0.12430656  0.55718184  0.52467835
  0.19824192 -0.00321732]
[-0.2706568   0.05339861  0.30246416  0.42868775  0.54753166 -0.38184017
 -0.18129866 -0.21122901  0.68351597  0.6413443  -0.5571563  -0.5400739
 -0.30171362 -0.8309519  -0.28062648 -0.40764654 -0.0599202  -0.0518132
 -0.00621039  0.38203037]
[ 1.0636892   1.0842237  -0.45357037 -0.5478132   0.4543333   0.2969607
  1.0081782  -0.26188478  0.26190004 -0.08690737 -0.8287267  -0.32630348
 -0.6302251   0.1929971   0.4873703   0.45102713 -0.21405853 -1.2785587
 -0.26388165 -0.47585425]
[ 0.5347598   0.4509259  -0.76897657  0.8055496   1.293024    1.13611
  0.9887192   0.25843564 -0.07658706 -0.00976022  0.7630642  -1.2070516
  0.61115146 -0.46883664  0.33891842 -0.44629645 -0.92417985  0.56116664
 -0.98951805 -0.71097326]
[-0.02085401 -0.00350286  0.0012254  -0.22003809  0.08879168 -0.02350132
  0.01773116  0.03272611  0.01727426  0.05009569  0.07658802  0.12787402
 -0.06659278 -0.15422633 -0.0075793  -0.07307165 -0.01826593 -0.05518269
  0.01558209  0.05056499]
layer 1 Activation
tanh
layer 2 Dense
20 40
[ 0.327771   -0.22935788  0.397066    0.06302829  0.10934699  0.14052157
  0.00637779  0.46624473  0.14371109  0.16440962  0.4788255  -0.43288997
 -0.32994217 -0.46200424  0.17217736 -0.25206104 -0.4059758  -0.3639635
 -0.21731082  0.04150295  0.11035631  0.16172388 -0.37935886 -0.03345761
  0.39302275  0.26200017  0.07477152 -0.02299686  0.12604277 -0.01497782
  0.11795556 -0.07956436  0.05372117 -0.03313699 -0.20614065 -0.42445168
  0.15254746  0.2652268   0.18016885 -0.32186902]
[ 0.17626604 -0.15033197  0.1065217   0.0464819  -0.08497351 -0.06865798
 -0.39936724 -0.15590358 -0.07819248  0.00268823  0.2225446  -0.37015852
  0.05915898 -0.35486522  0.08782595  0.11278224  0.17269383  0.11549098
 -0.18599653  0.418903   -0.01106166  0.34666714 -0.20305936 -0.05464392
 -0.22924814  0.02101788 -0.27881485  0.25826615  0.3913512  -0.25745144
 -0.20210138 -0.01796376  0.0713976  -0.08148082  0.01309851  0.19487496
  0.4292361  -0.05641536  0.4773963   0.2148196 ]
[-0.53675306  0.2558961  -0.42970082  0.02305719 -0.03580491  0.01252471
 -0.1505285  -0.25237605 -0.19214062  0.27151835 -0.12618276 -0.0824862
 -0.01773499  0.0302534  -0.08739007  0.41369876  0.42367333  0.18767153
  0.01936835 -0.19706881 -0.02965294 -0.25090927  0.59120053 -0.16210103
 -0.21925221 -0.0454286   0.271874   -0.4798213  -0.03758497  0.37216142
 -0.03979149 -0.14138007 -0.40803796  0.09575817  0.01627814  1.1026453
 -0.253371   -0.2742944  -0.24717145 -0.0644335 ]
[-0.01680681 -0.02664408 -0.07739824  0.02799226  0.05575977  0.11120138
  0.08860566 -0.05075399 -0.12873745 -0.24963701  0.21465404 -0.19809361
  0.15546276 -0.25467128  0.22779237  0.22621933  0.16846353  0.01171323
 -0.15831539 -0.3272529  -0.3117119  -0.2887466   0.17977367  0.3259493
  0.1575049   0.27220896  0.26523694  0.40994114  0.11571156  0.48395428
  0.28271076 -0.01559225 -0.11027139 -0.1901752  -0.13048464  0.37093654
 -0.04948381  0.19581011  0.0029121  -0.65370953]
[ 0.02257026  0.1336416   0.41172352  0.04619875 -0.16022497 -0.1501135
 -0.04086144  0.26175863  0.23240696 -0.07116205 -0.2133586  -0.1800963
 -0.28370786  0.09675029 -0.22720262 -0.28209534 -0.36474705 -0.05618583
 -0.42043883  0.07429715 -0.15581332 -0.08135606 -0.0485254   0.0528415
  0.1722153   0.17772669  0.02349462  0.20186995  0.10886427  0.11020345
 -0.14566126 -0.12876157  0.31385982 -0.19250193  0.23272967  0.01073348
  0.28651905 -0.3472496   0.06850124  0.10699807]
[ 0.32894897  0.00203675  0.16782549  0.21996287  0.18563743 -0.33243442
 -0.14093009  0.06488404  0.15280074 -0.32301566 -0.22336967  0.27132013
 -0.09404679  0.08111054  0.0378949  -0.05709868 -0.21577908 -0.24995476
 -0.20289755  0.15720084 -0.25242195 -0.17728604  0.1792967   0.02552673
  0.04880455  0.01869866 -0.19639483  0.31328064  0.02967525 -0.20699988
  0.24516597 -0.1943866   0.13410978 -0.20402633  0.21774171 -0.46446735
 -0.22833051 -0.08069209 -0.14520569 -0.11138364]
[ 0.2579232   0.2202316  -0.12651938 -0.11125036 -0.26165774 -0.33886313
  0.03854784  0.48410365  0.11788722 -0.5506241   0.01156468 -0.2513716
 -0.3805822  -0.3415252   0.46540174  0.02336299  0.12136576 -0.13593695
 -0.55235684  0.37558356  0.2540167  -0.436661    0.10807735  0.03035637
 -0.03376538  0.23353624 -0.27136752 -0.36788487 -0.00125417 -0.19430336
 -0.31948933  0.06706522  0.49802288  0.1691432  -0.10331167 -0.36398998
  0.11415151  0.17979228  0.03273078  0.24425098]
[ 0.31616992 -0.00366225  0.0192141  -0.19492947  0.4881039  -0.30824608
 -0.03787706  0.03142671  0.07356908  0.32204115 -0.23849134  0.04458572
 -0.45288774 -0.02212563  0.3284821  -0.08795499 -0.26755777  0.21755686
  0.14183395 -0.20809147  0.05583908  0.02522455  0.13427058 -0.09374959
 -0.09893821  0.04261496  0.06098295  0.6183512  -0.10405775 -0.2664992
  0.0756418   0.26953688 -0.03210929 -0.28458315  0.00306456 -0.12885755
 -0.12496239  0.19602403  0.00590456 -0.18604563]
[-0.17057595  0.00721695  0.2264746   0.22615008  0.01576522  0.1835888
  0.28313547  0.15326354  0.27942076 -0.03542266  0.11847366 -0.2797913
 -0.09103556 -0.22106564 -0.02007984  0.24376668 -0.0333858   0.05066814
 -0.04585928  0.09162362 -0.03004543 -0.11747272  0.36675814  0.66376764
 -0.13487138 -0.05839384  0.0950268   0.25716808  0.21283929  0.2495087
 -0.05526808  0.15700306  0.09593551  0.19157147  0.09589425  0.1515434
  0.22914688 -0.05310225 -0.15128659 -0.2993968 ]
[ 0.04071731 -0.23122573  0.06827476 -0.08682631 -0.09213289  0.07476663
  0.27143395  0.07349143  0.27870044  0.02105134 -0.02818278 -0.05662195
 -0.07973957  0.04700516 -0.37936375 -0.15504286 -0.06316346  0.10813703
 -0.27240098 -0.23281729 -0.07856529  0.219887    0.01389623 -0.40648115
  0.16368128  0.02274188 -0.04014056 -0.2045184   0.18822521  0.07549667
  0.19432335  0.1488181  -0.08787552  0.21277897  0.14012103  0.3154418
 -0.10658345  0.15541698 -0.15520687  0.1485122 ]
[-0.20887001  0.19913435 -0.34763798  0.02028324  0.15173079 -0.5399148
  0.29293936  0.37315953  0.13420796 -0.18908523  0.25758037  0.5591599
 -0.46248636  0.17810112  0.78387755 -0.30539033  0.253543    0.13132147
 -0.11399025 -0.42715943 -0.36208603 -0.08457119 -0.05401727  0.30374914
 -0.08562697 -0.21995121  0.1480461   0.3086518  -0.41621545 -0.26683763
  0.37782863 -0.04955104 -0.04076475 -0.20861799 -0.26838952 -0.25228885
 -0.2638397   0.15454632 -0.4357895  -0.2560231 ]
[-1.24856256e-01 -5.73549211e-01 -2.00399444e-01 -1.09761305e-01
 -5.76219372e-02  2.12807387e-01 -3.97603929e-01 -1.43685222e-01
 -4.18295652e-01  2.12141186e-01 -2.29748964e-01  2.88567811e-01
  3.26043993e-01  4.29496579e-02 -3.26642960e-01  6.40782192e-02
  1.68671817e-01 -4.54668738e-02  1.90774128e-01  1.95252985e-01
 -2.02961848e-04  4.80361134e-01 -2.47720256e-01 -5.72901905e-01
  1.47635475e-01  9.22554061e-02  3.40659469e-01 -1.39987335e-01
 -2.81428933e-01  9.75867212e-02  2.99497724e-01 -7.10896309e-03
 -2.95141004e-02  5.25852107e-02  2.87343591e-01  3.16760659e-01
 -2.20808342e-01 -3.98292579e-02  3.41641277e-01 -2.70808786e-01]
[-0.00463279 -0.05012003  0.00733974  0.1779387   0.09674384 -0.28199494
 -0.07235383  0.09199032 -0.20467633  0.11666168 -0.17410018  0.21374334
 -0.32648334 -0.14136755  0.3876894   0.06717663 -0.02110928 -0.1707033
 -0.02699954 -0.0998656   0.0140695   0.03718326 -0.22154984  0.06510082
  0.23609462 -0.04392088 -0.06677432  0.49828422 -0.09747551  0.05034508
 -0.18221016  0.06469252  0.1616004   0.0410401  -0.12540363  0.18668695
  0.30099398  0.2877714  -0.05324394 -0.15831347]
[ 0.26790377  0.2219269   0.05299449  0.06544805 -0.00137886 -0.0188348
 -0.10225742  0.11725048 -0.07139386  0.16407757 -0.21702492 -0.02368916
 -0.12207977 -0.23897174  0.09002942  0.14983828 -0.33472288  0.19097805
  0.5445851  -0.13260849 -0.13266279 -0.03107679 -0.00092886 -0.14878936
 -0.12841657  0.10575849  0.24223012  0.3672317  -0.25505695 -0.2578473
  0.12621549  0.07347222 -0.0818902   0.05383165  0.03219163 -0.88932025
 -0.12628083  0.02676472  0.0165596  -0.03529527]
[-0.14122166 -0.07577361 -0.155789    0.10354707 -0.06497651 -0.21713206
 -0.25727147 -0.05986431  0.19585684 -0.12045231  0.18440653 -0.13672467
 -0.26906472  0.13438275  0.31324375 -0.01360465 -0.10376481  0.03373425
 -0.1345719   0.24022642 -0.06455301  0.21088469 -0.22909813  0.14222491
 -0.03687718 -0.05754364  0.09496995 -0.24642676 -0.06408976  0.11225006
 -0.15410857 -0.04197053 -0.00456542 -0.03593718 -0.00448269 -0.3529131
  0.03424121 -0.04928418 -0.22831042  0.07691125]
[-0.3041725   0.10026848  0.0960618  -0.0027788  -0.1701777   0.02578359
  0.0435669   0.08641513 -0.20577343  0.25902447  0.04533161  0.05945282
 -0.17072165  0.10807545  0.1580896   0.14521235  0.11250085 -0.157964
  0.42651495 -0.1371288  -0.07687742 -0.20953052  0.16351879  0.13485345
 -0.00845323 -0.0463938   0.07799445 -0.4590405   0.16000436  0.1250971
 -0.01578584 -0.1781519   0.22302085  0.04721295  0.20155665 -0.40453517
  0.07472959  0.07421043  0.03172056 -0.01854936]
[ 0.2531705  -0.1770555  -0.03729157 -0.08675787  0.01786842  0.20219165
 -0.13954392 -0.02430794 -0.54805106  0.11390152 -0.12579869 -0.13294639
 -0.12196681  0.25095287 -0.14571485  0.35565543  0.06847294 -0.03899406
  0.35912904  0.15594883  0.05854061  0.44421852 -0.43180156 -0.21041557
  0.17158239  0.05921495  0.10255715  0.23466305  0.26843756  0.38729942
  0.20920126 -0.02311792 -0.17009157  0.2660596   0.02029225 -0.06282797
 -0.23663872 -0.08245548  0.08277885 -0.49762133]
[ 0.2837035  -0.05171528 -0.30994424  0.1934609   0.1868728  -0.3364426
  0.595676   -0.2842196  -0.52788687  0.02737776 -0.22751172  0.39900976
  0.31798428 -0.07610509 -0.00631462 -0.20699427  0.11664987  0.07454324
  0.16197933 -0.36791244 -0.3738307   0.07229972 -0.42602882 -0.29984796
 -0.08636358  0.11875135  0.14782324  0.92806816 -0.46063688  0.02579868
  0.18040258  0.2963821  -0.44045538 -0.34003514 -0.18760632 -0.08505095
  0.06324357  0.30420566  0.05881951 -0.53446084]
[ 0.06465145 -0.33119     0.08658245  0.29142305  0.22215834  0.18296087
 -0.03994168 -0.11305795 -0.44357306  0.1281365  -0.07628515  0.20455599
  0.14596562  0.00621736 -0.01950902 -0.06841379 -0.07868261 -0.29530054
  0.35843167  0.22755913  0.2651466  -0.08108926  0.22486287 -0.31946057
  0.35592884  0.02242492 -0.11979608 -0.33239686 -0.13187249 -0.15615876
  0.15239689 -0.06110882 -0.3226791  -0.1693747   0.06390118  0.41242477
 -0.22020794 -0.19626634  0.28065467 -0.07750844]
[-0.08533027  0.02866668  0.0580719  -0.01388641  0.01405958  0.04358237
 -0.00141648 -0.317403   -0.35621884  0.36080095  0.20973122 -0.16451098
  0.2965684   0.13899879 -0.23750071 -0.0271825   0.23049662 -0.3409358
  0.18040459  0.15228978 -0.09649508 -0.00951335 -0.18039834  0.2857772
 -0.00112513  0.359811   -0.32298923 -0.19559091  0.06052323  0.27495944
  0.02222633 -0.1986042  -0.5175985   0.04575348 -0.22403514  0.21706818
 -0.20219208 -0.14315812  0.10624585 -0.1946895 ]
[ 2.3582093e-02 -2.0818454e-01  5.2991815e-02 -3.7515093e-02
  3.1325787e-02  6.4621083e-02 -1.2835619e-01  9.9586517e-02
  3.7021174e-03  2.0601659e-01  1.0643372e-01 -1.4876900e-04
 -5.0049662e-03 -5.9459321e-02  7.3280931e-02  2.7425868e-02
  4.3394454e-02 -2.3370285e-01 -3.0341148e-02  1.8154600e-01
  7.5108007e-02  4.5691457e-02 -1.3690916e-01 -8.4866226e-02
  1.8257537e-01 -5.7956427e-02  1.7717570e-01 -2.6789495e-01
 -5.4309763e-02  2.6215268e-03  2.9031800e-02  3.6935661e-02
  6.6715360e-02  7.7405624e-02  4.1024121e-03  3.2561043e-01
  5.2940518e-02  8.4889784e-02  5.0738331e-02 -8.8613965e-02]
layer 3 Activation
tanh
layer 4 Dense
40 20
[-0.03082906 -0.05317964 -0.1331072  -0.29328367  0.30865747  0.2736823
 -0.20466466  0.15845905 -0.23930117 -0.09169175  0.39454064  0.03084782
 -0.2652189   0.03229894  0.23754498 -0.04005605  0.07358481 -0.22464527
 -0.34635928  0.02515213]
[ 0.03858499 -0.06552437  0.23345824  0.30669472 -0.17340894 -0.16505964
 -0.05617182 -0.06864688  0.01959885  0.1574913   0.26342142  0.13997735
 -0.04820511  0.34553978 -0.20291469 -0.2604954   0.02645278 -0.2561525
  0.20146945  0.08671446]
[ 0.15696868 -0.15890144 -0.25605848  0.00163242 -0.12823655  0.3267769
  0.20127416 -0.0359391  -0.01816584  0.40206617  0.11357341 -0.08492083
 -0.0994307   0.09508251  0.10269278  0.43216503 -0.23858383  0.25869727
  0.00795283 -0.15382947]
[ 0.16152222 -0.09012038  0.13487996  0.32714748  0.27448025  0.09884147
 -0.06958096 -0.07840033  0.21413371  0.04435194  0.01941502 -0.04246375
  0.00049678 -0.13398424  0.14742145  0.23323597 -0.11210888 -0.3295446
 -0.06560811  0.18381232]
[-0.04333895 -0.1876567   0.18680778 -0.20214155  0.10876216 -0.15728404
 -0.08825836  0.11040867 -0.18547949 -0.30863807  0.04770276 -0.05246831
 -0.16220012 -0.13481541 -0.03502312  0.1694183   0.3282989  -0.1872614
 -0.09784459  0.1992331 ]
[ 0.03446721 -0.24200018 -0.08823919 -0.11533327 -0.0706958   0.03125235
  0.11397402 -0.2573741  -0.12616098  0.33517808  0.12925765 -0.18136474
  0.02492294 -0.00067132  0.27048638 -0.09118829 -0.20884442  0.08024722
  0.18628225  0.24556069]
[ 2.6961219e-01 -2.2654471e-01 -1.1877402e-01  1.7605306e-01
  1.4884058e-01  1.9284193e-01  5.0717361e-02 -2.0350890e-01
 -2.1917924e-01  2.7674058e-02 -4.1774932e-02  6.4450406e-02
 -2.0599689e-01  5.3734738e-01  3.0221252e-02 -2.1145539e-01
  3.0326098e-01  1.2176833e-01 -1.6563651e-01  4.7962769e-04]
[-0.01850136  0.32071877 -0.00452197  0.1437036   0.21702431 -0.1292803
  0.226614    0.31676602 -0.02350673  0.16310197  0.01836465 -0.0544299
  0.19924463  0.05288515  0.24187638  0.19421856  0.12230586  0.11389846
  0.01064599  0.02194975]
[-0.16690533  0.26357985 -0.31829673 -0.13184929 -0.18785314  0.1521367
 -0.17698176  0.29801977  0.12065973 -0.03635646  0.24537414 -0.12163769
 -0.2281921   0.3519283  -0.00176851  0.12170391 -0.23597099 -0.22376202
  0.24358012 -0.03609814]
[ 0.04978438 -0.29053804  0.11357017 -0.24826935  0.12645324 -0.2336187
 -0.07262727 -0.13367356  0.01899913  0.10902926  0.00731715  0.08419373
  0.11387072 -0.1066664   0.05947081  0.06132246  0.03029533  0.00508599
  0.14526485  0.09764168]
[ 0.16226166 -0.11000576  0.06878787  0.2166145  -0.21490058 -0.03665038
  0.2087906   0.19982448  0.06268311  0.10241006  0.04406372 -0.17968458
 -0.1402203  -0.34592006 -0.00484837  0.04577588  0.24436724  0.19108279
  0.29514617 -0.26152548]
[ 0.43647996 -0.10566891  0.33797848 -0.2875482  -0.13561472 -0.42865458
 -0.08099318  0.07582157  0.14471833 -0.31400758 -0.14109854  0.21688715
  0.15125342  0.39105344  0.14610493 -0.0516913  -0.1082186   0.21477425
 -0.49936882 -0.17866632]
[-0.2907129  -0.29900816  0.22785598 -0.03194639  0.15390988  0.13466373
  0.00786407 -0.35054222  0.12284176  0.04955753 -0.01258989 -0.21250477
 -0.11089423  0.06506707 -0.09148926 -0.27418825 -0.04606819  0.16953832
  0.1024356  -0.2897312 ]
[-0.12486422 -0.25103205  0.00396117 -0.01539755 -0.06337771 -0.27753118
  0.09277575 -0.32870755  0.1340103  -0.15014993  0.01986491 -0.2432731
 -0.2029003   0.6355241  -0.21845058  0.00957821  0.09248168  0.10102444
 -0.34551805  0.09269024]
[ 0.3480074  -0.06392531 -0.24410467  0.40185854  0.05357528 -0.36312413
  0.06785359  0.11849089  0.06842464 -0.3002824  -0.03065556 -0.08292102
 -0.14283933 -0.42366898  0.160805    0.00640859 -0.13231872  0.06403068
  0.04449643 -0.01898474]
[-0.26166347 -0.16414759  0.04429961  0.38636053 -0.32735193 -0.24315616
  0.07942781 -0.1510401   0.005269    0.30850384 -0.22410482  0.08945749
 -0.00392144 -0.47073865 -0.16172107 -0.03711397  0.27917755 -0.27852112
 -0.00368978 -0.04790329]
[-0.285818   -0.17419575  0.30201703  0.13035509  0.04632026 -0.22255579
 -0.09787495  0.02060127 -0.09787046  0.11838514 -0.15815766  0.15960003
 -0.17919214 -0.45379403 -0.3550676  -0.10999686  0.09512948 -0.2246814
  0.3182854   0.01784269]
[-0.01073412 -0.15273575  0.31148592  0.08922667 -0.24931861  0.19618447
  0.00365153 -0.1287789  -0.09025007 -0.02212556 -0.1608679  -0.03893929
  0.01600411  0.4490507  -0.16357438  0.17564178  0.20106111 -0.09843709
  0.1181398   0.18082842]
[ 0.41164038  0.07049151 -0.00686513 -0.07176449  0.22337916  0.0091011
 -0.24630964 -0.3324486  -0.13463567  0.36605194  0.03489909 -0.2355954
 -0.17263095  0.172332   -0.29769892  0.19644672  0.17280115  0.1679732
 -0.20290364  0.066974  ]
[ 0.21416174  0.14661601 -0.27540654 -0.11001512 -0.25500464 -0.18986568
 -0.15879475  0.14468706 -0.01854908  0.3505282  -0.18002687  0.2890314
  0.10597931 -0.33120254  0.27613202 -0.12781228 -0.25379062  0.17722538
  0.26263112 -0.02028153]
[-0.39601675 -0.3683364   0.1336789  -0.23552324  0.06555951  0.07687423
 -0.05821815 -0.05574002 -0.07513865  0.23804028 -0.01632921  0.10665885
  0.2995935  -0.09592342 -0.04084186  0.17891252 -0.20339584 -0.2360975
  0.17448592  0.00495534]
[ 2.2489443e-01 -1.3642825e-01 -2.5630942e-02 -1.9501045e-01
 -1.8288361e-02  3.0031693e-01 -3.4407068e-02 -6.9777630e-02
 -1.4569412e-01 -6.0835611e-02  2.5151539e-01 -4.7098823e-02
 -2.4147756e-01 -1.6688769e-01  4.2027703e-01 -1.2594277e-01
  1.5896888e-01 -3.4185991e-04 -1.2741104e-01 -1.1434316e-01]
[-0.16374342 -0.1649947   0.14925861  0.42046922  0.06825992 -0.19050317
  0.1928007  -0.2660001   0.15252718  0.2129436  -0.08312657  0.08158867
  0.05185114  0.2834416  -0.21068221 -0.01446833  0.0084977  -0.13086163
  0.1358226  -0.34429207]
[-0.00715996 -0.36366677  0.00157649  0.40680754  0.02852185  0.05495788
 -0.26539534  0.0813819   0.01828353  0.04610299 -0.29919657 -0.08803038
  0.23112555  0.28491253  0.20133233 -0.15591174 -0.16026875  0.27679
 -0.23582563  0.11426945]
[-0.0451177  -0.16423453 -0.04822415 -0.3511279   0.09680841 -0.05615041
 -0.17145076  0.09166366 -0.25087163 -0.10594638  0.14255506 -0.00859938
 -0.32443956 -0.12589288 -0.04589937  0.00482358  0.21624658  0.20743726
  0.16388927  0.10891762]
[-0.1121562   0.09537636 -0.20203441  0.02367842  0.06219096  0.08990723
 -0.11482377  0.02172972 -0.01309247 -0.19077837  0.21014288 -0.23382424
  0.12008436 -0.36684546 -0.02414087 -0.00491696 -0.15652826  0.07693407
 -0.09853691  0.31245485]
[-0.17825015 -0.03279408  0.1794096  -0.11569127 -0.12254819 -0.1955333
 -0.25582054  0.11943188 -0.09556915 -0.12953153 -0.0772767   0.05121678
  0.0157465  -0.39960247 -0.07805035  0.07656411 -0.06271065 -0.20689507
 -0.28463235 -0.19419047]
[ 0.22255275 -0.08229095  0.36963242  0.15679297  0.12787706  0.37290934
 -0.24537936 -0.1918391  -0.24781995 -0.04473041 -0.04557473  0.11668748
 -0.04884506  0.36429295 -0.07595324 -0.00553447 -0.2085773  -0.15184331
 -0.12923177 -0.28205007]
[-0.342796    0.09531822  0.04233323  0.25550073 -0.05491681  0.3449001
 -0.02343043  0.03154248  0.1324097   0.22627094  0.28254536  0.0650715
  0.09505139 -0.09373724  0.03079574 -0.13107786  0.09134115 -0.2019101
  0.30405393  0.0069351 ]
[ 0.17059153 -0.20174229 -0.02841385  0.1970103   0.08917669  0.2387869
 -0.15460272 -0.30950224 -0.32129025 -0.13456732 -0.16142851  0.05690273
  0.1484675  -0.33575305 -0.18768118  0.24409395 -0.19645104  0.00834784
  0.17168859 -0.15886153]
[ 0.24677141 -0.02017872  0.19499247 -0.1185961   0.02224584 -0.08336224
 -0.25173736 -0.04939032  0.29024208 -0.25727588 -0.27315277 -0.1368622
  0.38682127 -0.18759274 -0.11782356  0.21522975 -0.17619273 -0.04507773
 -0.27634886  0.26328316]
[ 0.1520166   0.07472198 -0.11292062 -0.24686736 -0.04184927  0.12382916
 -0.25027418  0.04577637  0.18006665 -0.19273576 -0.12357456  0.10951278
  0.17720383  0.08873762  0.18289949  0.0810904   0.18149747  0.15249108
 -0.0950916  -0.06467872]
[ 0.06481291  0.37171727 -0.28714958  0.12287619  0.2237041  -0.08157577
 -0.19614545  0.2072534  -0.18916163 -0.06713436  0.04867321 -0.21040271
 -0.18880428  0.05830397 -0.01206107 -0.18893658  0.2521259   0.06103225
  0.29229063 -0.10671432]
[-0.2131101  -0.28409994  0.03067706 -0.04957488  0.2064052  -0.25311193
 -0.17290454 -0.2630318   0.09368836  0.25145993  0.22068162  0.1192029
 -0.13561852 -0.07386526 -0.02725979 -0.17077948  0.13882406  0.11407796
  0.39704192 -0.02167876]
[-0.24014519 -0.09920207  0.12940545 -0.1504243  -0.21072514  0.01561354
 -0.0766123   0.02786998 -0.08831037  0.20812353  0.26459628  0.12855312
  0.2568788   0.09782175 -0.24540555  0.04249988 -0.03080561 -0.05622668
  0.02645643  0.18978782]
[-0.42426562 -0.00556995 -0.3590828  -0.03095604  0.21602532 -0.25843865
 -0.24007277 -0.04529738 -0.21479645 -0.42950174 -0.0220123   0.0166645
 -0.00840242  0.06253036  0.18607283  0.06288187 -0.16296509 -0.03360253
  0.11667665  0.05958271]
[ 0.08176132  0.24760406 -0.12532547  0.24928416  0.14360611  0.347044
  0.00498268  0.14807864  0.14259893  0.26639083 -0.01604827  0.18861876
  0.1424832  -0.07053214  0.03059709  0.09642622  0.2724515   0.25181052
  0.24657878  0.04824949]
[ 0.12877552  0.2769388   0.09855612  0.02417432  0.21201423  0.00146678
  0.16078225  0.2603918  -0.24823223 -0.15380104 -0.22097379  0.03061547
 -0.1127487  -0.1511378  -0.11863709  0.35748464 -0.1980792   0.16752075
 -0.17372751  0.07119071]
[-0.39776722  0.03984305 -0.03978256 -0.2298848   0.05020383  0.03775601
 -0.13383588  0.09723543  0.2297506   0.29949686  0.178646   -0.06651251
  0.19152907 -0.43646824 -0.20922668 -0.05088372  0.13303821  0.19658577
  0.15725358 -0.12557484]
[-0.06561556  0.32932425 -0.30941746 -0.13053556  0.03539153 -0.08397726
  0.16098021  0.00440258 -0.00125623  0.34512097  0.17256357 -0.12228757
 -0.08385611  0.54532415  0.12309437  0.02758244  0.01949005 -0.00244865
  0.25310856 -0.04680324]
[-0.02848028 -0.05771646 -0.07877153 -0.06758895  0.01635807 -0.10763539
  0.09197921  0.12103859 -0.00331895 -0.02075466 -0.07890301 -0.06750716
 -0.00400756 -0.23040037  0.05357625 -0.13225107 -0.0501735   0.00956432
  0.07922062 -0.0142396 ]
layer 5 Activation
tanh
layer 6 Dense
20 1
[-0.08262429]
[-0.09469169]
[-0.07826917]
[0.06846726]
[0.00274414]
[-0.08995655]
[0.02840616]
[0.14837721]
[0.00058245]
[-0.11278477]
[-0.03800577]
[-0.00426264]
[-0.01066328]
[0.09832177]
[-0.01723382]
[0.00941253]
[0.00462293]
[0.01161705]
[0.06399117]
[0.00659682]
[0.04496376]
