layers 7
layer 0 Dense
20 20
[-0.2302418   0.13209338 -0.30901596  0.05066724  0.28275248  0.20696957
 -0.12999001  0.12606943  0.02276625  0.31633452 -0.15383337  0.26054877
 -0.16685484  0.18185884  0.36130148  0.41405693 -0.31516716  0.44776803
  0.436384   -0.09908613]
[ 0.28419614 -0.05718988  0.29406157 -0.03211221  0.25497782  0.20619382
  0.2037371  -0.03575134  0.40145576 -0.46281067 -0.40054375 -0.23085237
  0.02372623 -0.60953057  0.32355234  0.34855682 -0.284265    0.55748236
 -0.4026843   0.01201333]
[ 0.31728715  0.4592848  -0.404559   -0.15501603 -0.2573579   0.18670043
  0.05586339 -0.44575125  0.3479809  -0.43420357 -0.3502085   0.15158527
  0.00438077 -0.52503866  0.034795    0.08501203  0.41266856  0.22689377
 -0.36916187  0.33921573]
[-0.23497915 -0.13236333 -0.11301734 -0.23806813 -0.09649655 -0.22986704
  0.13235632  0.20247935  0.3318683  -0.168091   -0.22439665  0.05388719
  0.09767885 -0.20109096 -0.07587606  0.32441387 -0.05223681  0.11836749
  0.06563824 -0.2693902 ]
[ 0.15264465 -0.14841825 -0.24167101  0.26301387  0.21866523  0.13099103
 -0.06043789  0.06657477  0.10052641  0.03897563 -0.24764132 -0.3758305
  0.29287273 -0.22878139  0.02984708  0.48576978  0.08358391 -0.03363686
  0.5268865  -0.30296716]
[-0.00159054  0.19478497  0.55142456 -0.49140716 -0.5017062  -0.55533403
 -0.29222912 -0.03639114 -0.08873545  0.2308985   0.38225958 -0.02796723
 -0.2875714   0.4632317  -0.5247428  -0.05211456 -0.02635221 -0.08906817
  0.79873735 -0.17451619]
[-0.6206059   0.16447479  0.1830581  -0.34971035 -0.477007   -0.42346278
 -0.5211965   0.42750818 -0.36926496  0.39214522  0.21395954  0.5252556
 -0.6448823   0.5376616  -0.31262496 -0.34179977 -0.46458808 -0.6354058
  0.6109207  -0.6590374 ]
[ 0.16898349  0.05604536  0.16786964 -0.2364793   0.10498616 -0.00742472
  0.04782328  0.29934922  0.38592976 -0.31485665  0.10861611  0.09976313
 -0.11356334 -0.22417867 -0.26839694 -0.14356232 -0.2541072  -0.0603161
 -0.14829953  0.14582486]
[ 0.2877485   0.12701015 -0.63842183 -0.20352897  0.29705244 -0.27514106
 -0.3090199  -0.04303159  0.1310321   0.09445937 -0.12153333  0.03151799
  0.09669203  0.21251789  0.17610022  0.24690056  0.16802672  0.1700854
  0.18410228 -0.02854603]
[ 0.34141955  0.04109019  0.5448418   0.22562708  0.2966812   0.12391684
 -0.3229841  -0.4878593   0.3039381   0.02092272  0.0056655  -0.37137124
  0.10204793 -0.21207416 -0.41462284 -0.22743143 -0.01115383 -0.15289629
 -0.266106    0.2564914 ]
[ 0.11856423  0.02708521  0.1718768   0.00674941 -0.16146322 -0.11589696
 -0.2809346   0.10994185 -0.15242077 -0.01296626  0.19542924 -0.5145623
  0.21671958 -0.4461301  -0.42421335 -0.10987963 -0.20519377 -0.22152698
  0.22245984 -0.01396392]
[ 0.09826631  0.07871052 -0.1511659   0.10288762  0.04302104  0.38942266
 -0.18821485  0.1463129   0.01475407  0.14898363  0.13797984 -0.05137585
 -0.00376561  0.14034465 -0.12001113 -0.15801115 -0.14740849 -0.2921091
  0.05581482 -0.05090112]
[-0.5108315   0.18621925  0.09470716 -0.22008726 -0.30871442 -0.15539216
  0.0497846  -0.35902905  0.08931386 -0.24891734  0.23733532 -0.19699122
 -0.20046948  0.352303    0.20186412 -0.10530328  0.0168861   0.18464586
  0.04777023 -0.2598071 ]
[ 0.00379616  0.422028    0.22382078  0.02143328  0.11854483 -0.19456632
 -0.32031587 -0.10918891  0.20620969  0.02873078 -0.06746339 -0.23994268
 -0.16820912 -0.2004648   0.35392955 -0.3055297   0.11232439  0.01398414
 -0.05740987  0.27589875]
[ 0.05770492  0.2417536  -0.05476573  0.3430558   0.07260229  0.29451177
 -0.04059817 -0.2942112   0.26143938 -0.10218105  0.18055962  0.03234475
  0.03898171 -0.03501996  0.2644032   0.07465959 -0.1523401   0.3692292
  0.08062639  0.0611704 ]
[-0.13586588 -0.15315539 -0.23005424  0.25676316  0.3587719   0.08581741
 -0.31283066 -0.08382579  0.00307728  0.44930488  0.13696833  0.3246683
 -0.17005375  0.06378075  0.16289899  0.36910275 -0.20717108 -0.21321277
  0.0718563  -0.00307826]
[-0.27550337 -0.03678964 -0.40087098 -0.07825493 -0.1875087  -0.18626018
  0.5004083  -0.15864865  0.23469763 -0.01161093 -0.43785033  0.01026584
 -0.33909678  0.2846452  -0.05709242  0.07508522 -0.18416792  0.33026767
 -0.04431757  0.1372867 ]
[-0.32334667 -0.13583845 -0.59857374 -0.21427168  0.26020253 -0.20043561
 -0.12107053  0.1301422   0.3067116  -0.08107112 -0.06111511 -0.09548642
 -0.53723013  0.7062203   0.51466763  0.30249885 -0.12363815  0.06564209
  0.28327256  0.14062004]
[-0.40266323  0.06436405 -0.3850636  -0.12551615 -0.29996642 -0.31728926
 -0.04482495  0.4061567  -0.45720363  0.16419968  0.26443765  0.01764232
 -0.35036704 -0.31526056 -0.05387175  0.26359722  0.0162567   0.3111741
  0.24710038 -0.02263893]
[-0.1180407   0.16580658  0.20217843 -0.19359942 -0.275235   -0.23795189
  0.1884641  -0.03423352 -0.19692166 -0.05711532  0.27934802  0.32733613
 -0.2201994  -0.45777315 -0.24442375 -0.18535614  0.25269485  0.39200732
 -0.21156453 -0.17262712]
[ 0.11370154  0.13936152  0.18410489 -0.00865768 -0.07302953 -0.07953548
 -0.16520335  0.00369    -0.02711502  0.07073633 -0.02390728 -0.01451108
 -0.03653877 -0.14254595  0.07196297 -0.06384502 -0.03084542 -0.06763204
  0.04736901 -0.01021296]
layer 1 Activation
tanh
layer 2 Dense
20 40
[ 0.08804585 -0.02992783  0.00647807  0.10076065  0.03126198  0.18554784
 -0.0672648  -0.03488301  0.18267365 -0.01656277 -0.00281446 -0.19737077
  0.04319612  0.22015406 -0.22514363 -0.09595485  0.00199499 -0.06781935
  0.00496611  0.17660452 -0.11502526 -0.13541383  0.29020151 -0.14733645
 -0.186891   -0.09051224 -0.11603355  0.21667014 -0.20492862  0.08438766
  0.14698392 -0.07310784  0.06617674  0.01015127 -0.11701544  0.00117417
  0.22778417  0.18354115 -0.03138446 -0.0971871 ]
[-0.09205204  0.02784198 -0.19200316 -0.03986568 -0.06463415  0.20109539
  0.0982292  -0.02025761 -0.11845145  0.19134338  0.00630427  0.03909877
 -0.17593963  0.26664695  0.3101248  -0.00437537  0.05982856  0.08045512
 -0.10131849 -0.03453111 -0.09465798  0.0784603   0.35940087 -0.24848518
 -0.21082576 -0.08031458 -0.02725491 -0.02844351 -0.04099197  0.24564824
 -0.12952144 -0.0837419  -0.12157661  0.19060908  0.12000014 -0.22702463
 -0.20643438  0.07414063 -0.12644136 -0.10097656]
[ 0.0958204  -0.09994946 -0.04315029 -0.00242542 -0.11502049  0.25972995
  0.0574538   0.07995259  0.08282441  0.19685051  0.17746691  0.14562252
 -0.10597398 -0.03733758  0.04109685  0.06833868  0.19789608 -0.08023108
 -0.18144754  0.0819005   0.11095904 -0.10900909  0.48993564 -0.30808288
  0.10832799  0.24386112  0.13615936  0.13345803  0.20677015  0.22058733
  0.10396665 -0.22455199  0.1251609   0.09567109 -0.08079551  0.07209104
  0.07574189 -0.17097862 -0.34414968 -0.02110211]
[-0.15047443  0.22110362 -0.17650867  0.02131392  0.0882047   0.1887984
  0.09790317  0.16305132 -0.02483828  0.05746425  0.17279111  0.11941519
 -0.08753049 -0.26983005 -0.12665594  0.15027119 -0.01483154 -0.03471496
  0.09101902  0.06812584  0.04005459  0.13576517 -0.26420715  0.01875799
 -0.07472522 -0.26744756  0.04422551  0.12007001  0.08634184 -0.17187652
  0.35811907 -0.35696322  0.06277769 -0.11145487 -0.08375414 -0.0016626
 -0.05548985 -0.10331313 -0.14956723 -0.08644151]
[-0.25163007  0.2143923  -0.0362481  -0.06453136  0.07757404 -0.12211745
  0.05810491 -0.08925956  0.06813838  0.12789732  0.33145726 -0.01221663
  0.10401798 -0.00991656 -0.16070205 -0.03434253 -0.25887513  0.04625775
 -0.25088656 -0.07539847  0.19034855 -0.06930344 -0.26484036 -0.18616323
  0.02589019 -0.04464104 -0.3399307   0.3767041   0.17733872 -0.22734043
 -0.0693114  -0.21231166  0.18581028  0.03567964 -0.1957316   0.20314936
 -0.13976179 -0.03825282 -0.03565704 -0.1299739 ]
[-0.01864676 -0.130087    0.01572151 -0.0104956  -0.13601767  0.36797073
  0.23969291 -0.11448085  0.0955293   0.10731637  0.04489344  0.03739299
  0.01736667 -0.05059801  0.03276396 -0.04459146  0.17454346 -0.06446728
 -0.11417148  0.05402961 -0.00745766 -0.06503173 -0.0611727  -0.09709606
 -0.02978723 -0.22233821 -0.02660394  0.20897254 -0.04860032  0.08941847
 -0.04321494 -0.00898502 -0.1011349  -0.167187   -0.00358865 -0.1139908
 -0.04120013 -0.01412232  0.37476072 -0.07324851]
[ 0.07693401 -0.02029978 -0.09261798  0.08311661  0.06767616  0.08820374
 -0.03599729 -0.18612033 -0.10539688  0.07819603  0.25566015 -0.1487827
 -0.09153259  0.20519336 -0.17952384  0.01539832 -0.15115313  0.19645469
 -0.15346082 -0.12398587  0.13803303  0.15081888 -0.07343888  0.08552391
  0.16881765 -0.3032435  -0.12578411 -0.12059553 -0.16007587  0.17840317
  0.24448608  0.16225782 -0.22181359 -0.0245042  -0.07601088 -0.12657681
 -0.18711375 -0.10538762 -0.05005556 -0.05271232]
[-1.85699791e-01 -1.82311580e-01 -2.14941856e-02 -7.75130093e-02
  1.72236368e-01  1.44444853e-01  1.67663991e-01  1.02874294e-01
  1.22452460e-01  1.27273425e-02 -1.95300549e-01 -2.20670149e-01
 -1.05761334e-01 -1.07202403e-01  5.28735109e-04  2.01078117e-01
  2.41313487e-01 -5.92972338e-02  2.35307589e-01  8.57846513e-02
 -2.25951403e-01 -1.21517025e-01 -1.91049680e-01 -1.73083656e-02
  2.34663207e-02 -1.49548307e-01 -3.66140306e-02 -1.89089164e-01
 -8.93045738e-02  1.76002905e-01 -2.66805261e-01 -2.28643621e-04
 -1.77602708e-01 -1.50478318e-01 -2.01054573e-01  2.17948303e-01
 -1.29442021e-01  1.64278865e-01  1.38769686e-01  2.26186559e-01]
[ 0.15921228 -0.03430925  0.1093857   0.06933501  0.11596028  0.12264449
 -0.04971902 -0.07948793  0.26346108 -0.06255148  0.24857052  0.08740608
  0.02691812  0.17650159 -0.09797616 -0.24966499  0.13584223 -0.09094197
 -0.07435022  0.3272874   0.12886547 -0.06468827 -0.16747655 -0.07475881
 -0.10090023  0.03967815  0.18026143  0.24173324  0.11931404  0.02600538
  0.10250649 -0.06241772 -0.12780099 -0.15088259 -0.00721292 -0.14693134
 -0.09705359  0.01116075  0.19901927  0.17702864]
[ 0.25835422 -0.1319968   0.07180315 -0.06551168  0.04636188  0.17149466
 -0.01915724  0.02835216 -0.13795504 -0.17714642 -0.12034255 -0.13394776
  0.07334594 -0.03311531 -0.09119811  0.05210312  0.06325267 -0.06599487
 -0.03299245 -0.0691672   0.10272885 -0.17903435 -0.39011428  0.13109474
  0.02468283 -0.12513463  0.10369228  0.04866942  0.08823741  0.11386969
  0.0925469   0.20606467 -0.16597544 -0.05442044 -0.18370911  0.17446828
  0.11294498 -0.0138608  -0.09063497  0.00063568]
[-0.01650447 -0.06153679  0.00140857  0.17752168  0.04906217  0.0184493
 -0.0422786  -0.2566938  -0.08118866 -0.0179637  -0.02577801  0.22354934
 -0.14938442  0.23079634 -0.0346153  -0.08009035  0.08416495  0.04428802
  0.00993477 -0.08545904 -0.1087674  -0.05724882  0.08433717 -0.14063896
  0.0357008  -0.31678647  0.09706642 -0.2146129  -0.13290882  0.11776863
 -0.00539692  0.04798762 -0.20166901 -0.2627754   0.04195382 -0.11779049
  0.08046463  0.06527203 -0.02704133 -0.04107051]
[ 0.0052671   0.15151303 -0.25827432  0.00817943  0.20401846 -0.05458802
  0.19522336 -0.01508548  0.03857441 -0.12123801 -0.20174251 -0.18704665
  0.11869168 -0.0396528   0.07868006 -0.13784207 -0.246847    0.09941868
 -0.08939967  0.32076713 -0.13490763 -0.2314596  -0.01514674  0.14752394
 -0.03907906  0.11995723 -0.09021874  0.0631818  -0.21384233 -0.19835526
 -0.09373982 -0.16456811  0.09904585  0.01277686 -0.21177007  0.10343085
 -0.10679156  0.20302442 -0.10306493 -0.04797417]
[-0.11180138  0.5124078  -0.11918729  0.14168346  0.20345278 -0.19195436
 -0.1605782  -0.08821768  0.01209721 -0.30119914 -0.10661142  0.04651748
 -0.18860784 -0.18938819  0.15211624 -0.23295476  0.06451957  0.09390943
  0.00882988  0.20071839  0.02377343  0.18640855 -0.04642119 -0.11039304
 -0.08839194 -0.09053875 -0.15887801 -0.17572303  0.2245376  -0.09749164
  0.08390655  0.20355454 -0.02354545 -0.17207734  0.11123329 -0.01300456
 -0.23568891 -0.1790882   0.01710861  0.085451  ]
[ 0.03233995  0.26584634  0.14681739  0.07474919 -0.00294282 -0.06756435
 -0.08108891 -0.1916109  -0.16852053 -0.06917381 -0.21212026 -0.21180035
  0.19282426  0.17137012  0.05631126  0.29205313  0.04981447 -0.05927444
  0.04282807  0.09153496 -0.06140187 -0.04113166 -0.28671315 -0.18392079
 -0.08363337 -0.13534564  0.06461941  0.23954858 -0.20284393 -0.08820464
 -0.07864865  0.04943317 -0.25721133  0.01588099 -0.10219655  0.0716624
 -0.1491535   0.27532595  0.2807567   0.03114687]
[ 0.10255128 -0.21010044  0.08219074 -0.06420792  0.01995564  0.31904417
  0.0363759   0.00143914 -0.11545652 -0.1507135   0.00912394 -0.3249406
 -0.1463329  -0.00990948 -0.01697572 -0.19765817  0.19026595 -0.03703423
 -0.26974794  0.10701711  0.11103746  0.05811575 -0.20450214  0.0739722
  0.09833423 -0.15160747  0.05668098 -0.17772804  0.24423447 -0.03082168
  0.19852349  0.05266846 -0.03241169  0.2348707  -0.11553562 -0.03363874
  0.17480315 -0.07959428 -0.20728648  0.1861099 ]
[-0.30051562  0.19759482  0.06600294  0.20684275 -0.04330705 -0.06588032
  0.04622411  0.12302633  0.19599877  0.11861368 -0.13428119 -0.3146721
 -0.04476921 -0.2927503   0.05265682  0.1043116   0.1325852  -0.08148735
 -0.12407524  0.26526093  0.06355295  0.17151803 -0.5365196   0.33926824
 -0.05930357 -0.21283762  0.07181891  0.11074682 -0.04121893 -0.14397778
  0.25495017  0.06843186  0.21799102  0.2786405   0.13076614 -0.2318709
  0.21837874  0.20121987  0.15192877  0.00115983]
[ 0.02556082 -0.08500507 -0.11089523  0.14837612 -0.08050622  0.03607173
 -0.03584471  0.09507611  0.02706171  0.20712768 -0.13814017  0.19546278
 -0.15931301  0.09330177 -0.10337503  0.2015522   0.0882076  -0.1750989
 -0.07036301  0.20978054  0.11267132  0.31800187  0.02304495 -0.22448505
 -0.02342647 -0.21565878 -0.02482687  0.01301741 -0.07597784 -0.04641478
 -0.11803874 -0.07954177 -0.27715862 -0.06269202 -0.01943521 -0.03011088
 -0.19150943  0.44657922  0.07882878  0.1682425 ]
[-0.10210621 -0.00864255 -0.13184579 -0.05455403 -0.08488326  0.03887518
 -0.19897851 -0.06496113 -0.18840909 -0.1586065   0.22625169  0.16861008
  0.17172356 -0.2527723  -0.13617314 -0.33007964  0.06714314 -0.04045874
  0.27014554  0.01767881 -0.25945088  0.02705334 -0.44618502 -0.0192673
 -0.0596735  -0.16328713 -0.01829119  0.12986174 -0.01552732  0.01312339
  0.03566981 -0.14717    -0.03263874 -0.23223317  0.07814804  0.15534739
  0.14194188  0.23900372  0.30315742 -0.23170999]
[ 0.1949407   0.04229761 -0.07942199  0.19127502 -0.00273515 -0.06832089
 -0.14500432 -0.07667127  0.0525741  -0.18431306 -0.13332374  0.06388011
  0.2493372  -0.1748746   0.02773724  0.00667599 -0.13940632  0.05346683
  0.01524403 -0.08650939 -0.00309108 -0.1538531  -0.53802013  0.16567898
  0.11930613  0.01551946  0.05628882 -0.10806528  0.07491863 -0.2826332
  0.03904619 -0.0181183  -0.07819571 -0.02479702 -0.11764755 -0.14701505
  0.07795368  0.19842826  0.0866625  -0.10074701]
[-0.02042793  0.24021046  0.12141047  0.18979494  0.34794736  0.16506109
 -0.09743649 -0.03428842 -0.06675539  0.1949177   0.20130715  0.01055511
 -0.23155588 -0.04675902 -0.10279201 -0.11974987 -0.03858132 -0.12596548
 -0.24622351 -0.25589427 -0.0039181  -0.0210523   0.23133716  0.11525758
  0.03735342 -0.04324744 -0.04235117 -0.12747929 -0.01244891  0.15072522
 -0.06614212  0.14770567 -0.09929663  0.00598677 -0.15612946 -0.11654802
 -0.2818923   0.21902215  0.04851664  0.13952921]
[-0.04961979 -0.11000904 -0.04622941 -0.02453435  0.01609525 -0.02297028
  0.05023346 -0.00780533  0.12353913 -0.08289748  0.15097064 -0.03067145
  0.13330401 -0.01095968  0.02166568  0.19525738  0.03120764  0.0570269
 -0.04514959 -0.04380811  0.22411294  0.08289319 -0.2518712   0.05710753
 -0.06975824 -0.03779892 -0.03617881 -0.04541145  0.10687225 -0.06608793
  0.10945207  0.0313823  -0.02146258  0.07717147 -0.00876997 -0.05032857
  0.02896149  0.18281052  0.27540156  0.00910678]
layer 3 Activation
tanh
layer 4 Dense
40 20
[ 0.16841453 -0.19258854  0.20190305  0.11399239  0.2586028  -0.08863942
 -0.00063341  0.08434379 -0.07598622 -0.27026576 -0.03142288  0.2615906
  0.25122976  0.22750542 -0.13088334  0.13483997 -0.08015085  0.15848288
  0.0284476  -0.02575678]
[-0.19271697  0.01698066 -0.34740907  0.08321944 -0.29633492 -0.27442738
  0.16662209 -0.09135157 -0.20812815 -0.12783782 -0.23510966  0.18637574
  0.00315165 -0.17902333  0.02349764 -0.07941809  0.04983316 -0.01531814
 -0.10316014 -0.07474405]
[-0.02147952  0.02237866 -0.1542216   0.20269941 -0.14909434  0.16261818
  0.02227267 -0.11845528  0.10545538  0.12569013 -0.21963723  0.10679605
 -0.20698208  0.03249396  0.12197277  0.06830445 -0.19603395  0.0406812
  0.04142012  0.03453868]
[-0.16633266  0.11515555 -0.17836536 -0.24683075 -0.28357917 -0.03963153
  0.06659863  0.04214164  0.04138522 -0.02934141 -0.0653483   0.070531
 -0.03763367  0.0589016  -0.01555565 -0.24093881  0.29332995 -0.04122581
  0.10481933 -0.12582178]
[-0.16342941  0.0329868  -0.06920768 -0.03554397 -0.09703902  0.2012371
  0.04814156 -0.1077332   0.03162669  0.22785884  0.22126429 -0.05194417
  0.19826947  0.07574034 -0.15070829  0.07054946  0.04888959 -0.12010089
  0.17190571 -0.0999811 ]
[ 0.2761951  -0.08844949  0.19190879 -0.18921594  0.01411543 -0.23550847
  0.25948673 -0.21181759  0.20419139 -0.04814916 -0.04402151  0.21669748
 -0.13295828  0.02620241  0.09789663  0.03389599 -0.28099832  0.01554379
  0.04897166 -0.19481543]
[-0.02315686 -0.05422544 -0.31504804  0.08849106  0.16565706  0.01602102
 -0.11147855  0.23172748  0.11612013 -0.08758236 -0.05644276 -0.08795876
 -0.02468075  0.07117385  0.10356144  0.06052794 -0.16996866  0.02360072
  0.24882385  0.01917257]
[-0.01930038 -0.17088486 -0.03242731 -0.02326423  0.18871649 -0.09916419
  0.05324735  0.10601241  0.01656018  0.02048254 -0.00364549  0.11087631
  0.15019378 -0.01856005 -0.05390453 -0.10178217 -0.19838384  0.03713074
 -0.02025382 -0.01571497]
[-0.05053411 -0.09216785  0.18200023  0.16728456 -0.10046209 -0.06192973
 -0.03052567  0.18646522 -0.04974666  0.20174885 -0.11637282  0.08714111
 -0.00877423  0.15467384 -0.23050927 -0.01174463  0.11155368  0.31850448
  0.02980451  0.13464402]
[ 0.08620906 -0.10462437 -0.00704581 -0.2178725   0.04074147  0.08357235
 -0.07703981  0.01615917  0.12173942 -0.3998078  -0.11002986  0.0243785
  0.21791735 -0.15247272 -0.16110583  0.02146177  0.00751436  0.15631491
 -0.08115435 -0.21365322]
[ 0.215088    0.04325678  0.30927753  0.17157029 -0.22585897 -0.23569138
  0.0134761   0.02484326  0.17722106  0.10720543 -0.12292328 -0.28373265
  0.06553142  0.26592422  0.02948923 -0.03265994  0.14100145  0.15127045
  0.11648927 -0.16349973]
[ 0.3309354  -0.25120363  0.03985722  0.18456995  0.07569324  0.36150843
  0.12122054  0.03544378 -0.18111193 -0.42394802  0.279593    0.0537254
  0.03600615  0.11221334  0.27799702  0.07115007 -0.21799898  0.03795354
 -0.28330716 -0.09370518]
[-0.13030763  0.2272787  -0.07414366  0.12493265 -0.08778531  0.06125424
  0.04506477 -0.17014371  0.05790268  0.2015052   0.1097708   0.30383354
 -0.06050067  0.08805915  0.22152956  0.16583043  0.25163913  0.17426234
 -0.20793693  0.3518033 ]
[-0.09300432 -0.3621043   0.15346722 -0.11049861 -0.01797193 -0.1820668
 -0.07718897  0.22518092 -0.0855667  -0.09384361  0.06145058 -0.17593385
  0.05842979 -0.03864065  0.23104289 -0.0620978  -0.2784645  -0.10594641
  0.17948493  0.09432399]
[ 0.0195272   0.07102012  0.18193007  0.03329372  0.20025556  0.12818907
 -0.04841127  0.1197129  -0.01338481  0.01567099  0.02889198  0.25965172
  0.2141378   0.20826824 -0.08596326  0.2642926   0.21540497 -0.03262645
  0.01283389  0.01866938]
[-0.32228455  0.09860606 -0.30333343 -0.17033915  0.08534569  0.11031009
  0.07626608 -0.20315164  0.04680034 -0.11316208  0.02758932 -0.19893913
  0.20095663 -0.2150113   0.04007757 -0.14036308  0.29651728 -0.02939476
  0.19715574 -0.13302296]
[ 0.13385725 -0.00031689 -0.07434732  0.2341757  -0.00595855 -0.17781025
  0.04566883  0.12026771 -0.0917989  -0.1601717   0.11702102  0.15177819
 -0.26101124  0.15247464  0.26117754 -0.07060319  0.09895199  0.16611212
  0.29092538 -0.04066725]
[-0.11453896  0.16291244 -0.17738295  0.11866492  0.15213418  0.01550593
 -0.0545716   0.24008866 -0.13761994 -0.0026166   0.08545277  0.17611787
 -0.19441968 -0.07442759 -0.12323938  0.1822122   0.16934209 -0.14205039
 -0.18564504  0.3246428 ]
[-0.28278393 -0.05144482 -0.10965677 -0.02155685  0.05504276  0.04420621
 -0.26534504  0.13877213  0.01220586 -0.0852732   0.04166106  0.03204956
  0.3279542   0.15739672  0.00415019  0.11493212  0.17218024  0.07820435
 -0.1335712   0.12591119]
[ 0.05187188  0.29268107  0.07613616  0.14897433 -0.21896873  0.22369282
 -0.05187039 -0.08358549 -0.09109123  0.19468772  0.2761535  -0.25629926
 -0.0925854  -0.11382778  0.09105229  0.03131912  0.30484936 -0.03071907
 -0.10941413  0.25741103]
[ 0.05699969  0.20259553 -0.0666965   0.04278935  0.19415757  0.05414006
 -0.00184338  0.15124585 -0.13816872 -0.09283818  0.17239383  0.07439838
 -0.10158084  0.06163368 -0.00040506  0.08919268  0.35769126  0.19946739
  0.23227577  0.19745915]
[-0.09862962  0.01731399  0.04227974  0.256252   -0.04921858 -0.18181413
 -0.07938478 -0.08884148  0.1577529  -0.00450777 -0.17339702  0.19053863
 -0.22751796  0.30520508 -0.0837546   0.05975209  0.06767625 -0.10357817
  0.08160879 -0.03814073]
[ 0.3207151  -0.32201093  0.292636    0.08636685  0.24455021 -0.14476919
  0.09774522  0.15602544  0.06450588 -0.35314465 -0.1866783   0.1929435
 -0.09689641  0.15272026  0.17761123 -0.05630562 -0.36949772 -0.04235922
  0.05830565 -0.22909567]
[-0.171463    0.20143193 -0.331708    0.03220521  0.10560922 -0.14574507
 -0.21924987  0.09348259 -0.09978154  0.13741037 -0.0730374   0.17436221
  0.00381017  0.17970078  0.17992835 -0.00404856 -0.12654571  0.03737796
  0.23135267  0.05855905]
[-0.11997677 -0.16029185  0.20506455  0.03669176  0.00551081 -0.07653754
 -0.12052707 -0.0555574   0.20335172 -0.12001447 -0.08569107 -0.02459851
 -0.1342028   0.01139216  0.1701601   0.08734973  0.0061867  -0.12349083
 -0.22422019  0.04350141]
[ 0.09377049 -0.23003107  0.19184078 -0.02786445  0.06484205 -0.06483172
  0.13608839 -0.24428795 -0.07594093 -0.30758628  0.14291777  0.22408009
 -0.00849397 -0.05421823 -0.06344976 -0.16955751 -0.05201047 -0.02914876
 -0.13137771  0.23575233]
[ 0.19211523 -0.04660676  0.16561848  0.16487025  0.16635285 -0.12048858
 -0.04248637 -0.19654442  0.10656914 -0.07316767 -0.01515615 -0.1794746
 -0.04364951 -0.2250951  -0.00216443  0.05147853 -0.18394156 -0.19255617
 -0.12573616  0.08539376]
[ 0.1655345   0.12969346  0.14911458 -0.2224043  -0.3706398  -0.05026489
 -0.18208015  0.17476429 -0.03911748  0.20817685  0.01989643  0.1194359
 -0.18256181  0.15375116 -0.07788689 -0.17910595  0.00617684 -0.0676832
  0.03760652  0.02099297]
[ 0.10507282  0.00166935 -0.23619212 -0.18265422  0.11350495  0.28016493
 -0.15881841  0.13372631 -0.10746798 -0.0372633   0.17535017 -0.25109267
 -0.20515767 -0.05005603  0.03815043 -0.08540992 -0.1627714   0.01065501
 -0.02225594  0.2167888 ]
[ 0.17898175 -0.33421832  0.22354627  0.2934315  -0.18152888  0.20378982
 -0.05100848 -0.16327994 -0.01103048 -0.25427508  0.26027185 -0.21853842
 -0.1014179   0.0524289  -0.05568796  0.15734923 -0.2527592  -0.3613126
  0.09113037  0.15613142]
[ 0.14617866  0.22889178 -0.1348216  -0.1379686  -0.05217705  0.07458635
 -0.06200112 -0.24691406  0.00201529  0.16219197 -0.09709293 -0.11512829
  0.11533469  0.2254042   0.04732705 -0.10782041  0.04029298  0.04380605
 -0.0977482   0.02656564]
[-0.15564086  0.14329512 -0.17944565  0.15266506 -0.2399103   0.03747633
  0.03847178  0.1071147   0.13496055  0.10666517  0.18897216 -0.09382218
 -0.22142062 -0.1449663   0.16211757 -0.02277971  0.13942426 -0.06059977
 -0.01388759 -0.05227638]
[ 0.36295292 -0.09616385  0.06974082 -0.07948155 -0.12613748  0.10021185
 -0.09015732  0.06313693  0.01021736 -0.04720809  0.11886584  0.09023945
 -0.16652888  0.02897697 -0.04595947 -0.01161974 -0.23767133 -0.04442832
 -0.24559     0.27217498]
[-0.28973046  0.05432583 -0.09549142 -0.14819802  0.2569471  -0.07679177
  0.11902295 -0.06398676  0.03827531  0.23318578 -0.02220417 -0.05454797
 -0.11711721  0.2633576  -0.26411808 -0.06161288  0.0600116  -0.08220455
 -0.04574209 -0.01805478]
[-0.08493763 -0.06101267 -0.24240382 -0.23945501 -0.16492984  0.02400412
 -0.18529776  0.14901163  0.08737154 -0.2996669  -0.00555537 -0.14892182
 -0.00768502  0.26100484 -0.00333199  0.03455515  0.03141233  0.0700485
  0.09590132  0.02208062]
[-0.09738417 -0.0470053  -0.10376292 -0.24846576  0.14995463 -0.21834382
 -0.14765745  0.17847134 -0.09708711  0.04132986  0.00116458 -0.06249315
  0.26884186 -0.10682484  0.10825404 -0.07004722 -0.0012773  -0.00492294
  0.01681451 -0.02794765]
[-0.17923766 -0.21375538  0.01911986 -0.02883169  0.29282367  0.18697217
  0.05803206  0.05088784 -0.2030578  -0.24254102 -0.15431483 -0.01126579
 -0.2234185  -0.13550192 -0.12445079  0.14296836  0.2502241   0.04308624
 -0.23930275  0.08053567]
[-0.33971745  0.19327594 -0.2684144   0.16475233 -0.06913941 -0.13572767
  0.09234806 -0.13086513  0.15982258  0.27370134 -0.04158137 -0.16514546
  0.15337689 -0.13005961  0.2511544  -0.12981579  0.24238808  0.09703159
  0.1717737  -0.01476607]
[-0.2697798   0.21015678 -0.32726613 -0.08289022  0.06872475  0.1500078
  0.03075778  0.16831252  0.06450661  0.3062582  -0.18293339 -0.00967996
  0.21829404  0.01088569  0.02226131  0.03021754  0.09855438 -0.20709732
  0.17293553  0.15211965]
[-0.1347599  -0.08305244  0.12673898 -0.0296824   0.10185152 -0.27333477
 -0.06200405 -0.02826072  0.05038781  0.10781574  0.0599599  -0.1226358
 -0.13324483 -0.04211918 -0.01754868  0.03116648 -0.07337638  0.24231805
  0.22442083 -0.0855805 ]
[-0.07571373  0.1311077  -0.07985249  0.02449439  0.02806778 -0.06228445
  0.00383171  0.00947362 -0.04743903  0.04985115  0.02256375 -0.00315775
 -0.05068686  0.07795882 -0.00232272 -0.03154881  0.11121735 -0.00397055
  0.11331943 -0.05355475]
layer 5 Activation
tanh
layer 6 Dense
20 1
[-0.11304552]
[0.16102079]
[0.08265988]
[0.00123607]
[-0.04339606]
[0.00663641]
[-0.01727459]
[0.0086048]
[-0.02069139]
[-0.09613757]
[0.02407857]
[0.01057196]
[0.02542756]
[-0.01909126]
[0.00133243]
[0.00039896]
[-0.1102535]
[-0.00609127]
[-8.353323e-05]
[0.0173325]
[0.00846078]
