layers 7
layer 0 Dense
20 20
[-0.06174026  0.19677965  0.47726595  0.37147593 -0.24361078 -0.03225059
  0.32852048 -0.13089457  0.37914082  0.19769087 -0.30968273  0.32679817
 -0.02604099  0.14577267 -0.0155771   0.05217968 -0.25870442 -0.29511678
 -0.32868695 -0.03546306]
[ 0.28364563  0.10362101 -0.0289298  -0.0798995  -0.55863106 -0.30785337
 -0.22243856 -0.13725913  0.133529    0.18574381  0.1663624   0.20355326
  0.02633168 -0.20790067 -0.04659063 -0.09231406  0.23146361 -0.04138578
 -0.36685237  0.16749828]
[ 0.11820735 -0.10175408  0.0290849  -0.11420167  0.04908859  0.18263209
  0.29350287  0.2944063   0.34730157 -0.00356291 -0.03938451 -0.24647902
  0.24330525  0.3184361   0.0410556  -0.01257062 -0.37441373 -0.17609133
 -0.2564463  -0.42999613]
[ 0.13675478 -0.35014743 -0.00597533 -0.3082507   0.2505826  -0.30407408
  0.00336095  0.23455113  0.16540432 -0.06686168 -0.27419594 -0.31953415
  0.20661853 -0.19420072 -0.3158235  -0.24934864 -0.26531437  0.38698062
 -0.16976869 -0.16642223]
[-0.271557    0.32290986 -0.08731572  0.22022082  0.00881266  0.26778463
 -0.08494022  0.01704971 -0.1440897   0.02185603 -0.370953   -0.3198025
 -0.33077925  0.02330582 -0.37265038 -0.1891351  -0.39419767  0.18569745
 -0.24306515  0.3750493 ]
[-0.39535645 -0.10369485  0.01451822  0.16271944 -0.00552211 -0.38337544
 -0.02644804 -0.53934646  0.1566762   0.25654075 -0.41999573  0.23968345
  0.15614082  0.0845425   0.11636375  0.15537257 -0.20194083  0.05287876
  0.01624745  0.22487214]
[-0.16172554 -0.0979015  -0.18231058  0.38706455  0.10676305 -0.28541332
  0.04349887  0.17826809 -0.2683973   0.27266288 -0.13145104  0.25333318
  0.36090505 -0.10171908 -0.37917885  0.05765893  0.1836799   0.09543863
 -0.10923307 -0.00998474]
[ 0.30296662  0.157766    0.30812627 -0.2482974   0.26923788  0.42199254
  0.0219902  -0.255781    0.17523302 -0.22886585 -0.00993753 -0.35229486
  0.05834168 -0.04177474 -0.18400204 -0.35077944  0.04515807  0.00534183
 -0.08045827 -0.14535716]
[-0.00625602 -0.29147655 -0.19842097  0.0272652  -0.09076817 -0.15624166
  0.05587781 -0.3173984  -0.19971466  0.01819121  0.1322346  -0.1120953
 -0.01715386  0.3081527  -0.05743926  0.04531619  0.17868511  0.17819609
  0.38721764 -0.02445736]
[ 0.38547835  0.048126    0.27102908  0.25826505  0.08018317  0.15526687
 -0.20957933 -0.3053978   0.301452    0.28826615 -0.2958839   0.04421556
 -0.19142562 -0.30654567 -0.45518652 -0.16414265  0.46612194  0.2488928
  0.12877366  0.22392845]
[-0.23561603 -0.2472814   0.14230023 -0.23609386  0.45980725 -0.3336612
 -0.16207013  0.11487864  0.19807163 -0.17451148  0.3286761  -0.11816594
  0.13766576  0.13811643 -0.2750531  -0.11245605  0.06852015  0.0989806
  0.24978577 -0.07183517]
[ 0.3239221   0.1241168   0.43334362 -0.39337754 -0.08381695 -0.27387413
 -0.2701561  -0.10948563 -0.16665651 -0.19736166 -0.32965246 -0.07084455
 -0.3514037   0.16426885  0.18188544 -0.24600188 -0.533372    0.14466262
 -0.28580865 -0.07345761]
[ 0.05355703  0.1359083  -0.03065484  0.01617123  0.27375802 -0.09342139
 -0.02561638 -0.16696148  0.16246216  0.05059898 -0.27267307 -0.22362949
  0.25023678 -0.37153822  0.05785771  0.19739313  0.2965638   0.20474352
 -0.13508366  0.27940857]
[-0.00547283 -0.15780692  0.33891264  0.05199106 -0.25504544  0.05298652
 -0.37243375 -0.20741445 -0.2309157   0.18499887  0.29429272 -0.23072879
  0.0056986   0.46478423 -0.07616782  0.19057593  0.30220923 -0.06188221
 -0.01169405 -0.00421469]
[-0.2423938  -0.17536418 -0.35036805 -0.07197066 -0.13814715 -0.3739167
 -0.31226858 -0.20480785  0.46956187 -0.31030443 -0.11625122 -0.24825945
 -0.06054322  0.01580804  0.33604825 -0.2243797  -0.2502205  -0.18185465
 -0.04453628 -0.28437468]
[-0.349347   -0.19462495 -0.29081854  0.18428467  0.33228794 -0.20471057
 -0.18191645  0.15074134 -0.04127372 -0.17135325  0.05140309  0.37661928
  0.12828472 -0.04396811 -0.02582913 -0.07855491 -0.13610502 -0.20367151
 -0.2774831  -0.38834646]
[-0.32542264 -0.11194583  0.33567843  0.10377806 -0.27358162  0.13556151
 -0.23177789  0.26036018  0.2870368  -0.02806352  0.2111034   0.2601724
  0.05760017  0.21852286 -0.2900405  -0.09478082 -0.10937309 -0.06149726
  0.23122676 -0.30515426]
[ 0.25820717 -0.2673514  -0.26233125  0.21895339 -0.17924136 -0.38306946
  0.31965622  0.0392248  -0.21513645 -0.21889152 -0.03896924  0.36292592
 -0.2181585  -0.37292928  0.5100258   0.07269698 -0.41355383 -0.33438826
  0.22794466 -0.38944817]
[-0.39167807 -0.10488904  0.2805405  -0.04527354  0.1740568   0.0897475
 -0.05723425 -0.15661192  0.43330106 -0.06261732 -0.3370511  -0.38251752
  0.27397     0.09358186 -0.29534122 -0.20297688  0.10420602  0.33744583
 -0.29723132  0.27680102]
[ 0.30283347 -0.14548177 -0.3367768   0.13406105 -0.263818   -0.23174939
  0.32396093  0.34296745 -0.13200775  0.32527664  0.38221896 -0.04250714
 -0.32576942 -0.04355871  0.30522946  0.01653566  0.10253815 -0.00047445
 -0.21890695 -0.44650257]
[-0.01212413 -0.00734878 -0.00389173  0.02702415 -0.06252833 -0.05426098
 -0.01230416  0.00404568  0.0508673  -0.08097664  0.00278167  0.02957629
  0.01424704  0.00049018 -0.01265413 -0.0016503  -0.00025681 -0.00052598
 -0.00414142  0.00384185]
layer 1 Activation
tanh
layer 2 Dense
20 40
[-0.00583621  0.12572336 -0.16553527  0.17279738 -0.00491418  0.24051882
  0.22061685 -0.04325236 -0.01447531 -0.09754188 -0.23381487 -0.09580296
 -0.00711699  0.09430742  0.2560864  -0.3117285  -0.0475379  -0.08913109
  0.01762147 -0.12379754 -0.23428401  0.36118236 -0.21877499  0.04545057
  0.18815677 -0.01081323 -0.23090918 -0.19388495  0.23088372 -0.11771552
  0.16243996 -0.26440302  0.0417043  -0.26387185 -0.01582545  0.03425378
 -0.04246393  0.07004274 -0.15504661  0.20470613]
[-0.10528796 -0.10292157 -0.13874616 -0.1081011  -0.05474713 -0.28335395
 -0.18514125 -0.31542227  0.14255974  0.1993289  -0.04109271 -0.11897969
 -0.18590003 -0.0465991   0.0637412   0.13248745 -0.11556965 -0.06800054
  0.06916549 -0.09535586  0.33132103 -0.02217904 -0.05497304 -0.17065652
  0.00999147 -0.14724785 -0.14007212  0.06058155  0.05257665 -0.15932798
  0.23925503  0.14432134  0.08491081  0.06421149  0.33900163  0.15518977
  0.21938609  0.1968129   0.12677972  0.18734367]
[ 0.24492411  0.03113405  0.06023182 -0.03742292 -0.13608707  0.07610133
  0.02581856 -0.11574204 -0.3170654   0.04836624 -0.11959443  0.15105693
  0.35647827  0.19070256  0.21211384 -0.15855853 -0.06177093 -0.05019239
 -0.23677972 -0.15840927  0.08533141 -0.13360533 -0.02028638  0.28174022
  0.31322894  0.1935172   0.12492434 -0.01861319  0.2780585   0.22650306
  0.23034805 -0.14727688 -0.30681765 -0.3678152  -0.21644308 -0.28981704
 -0.31110772  0.13867241  0.21903186  0.06212049]
[-0.02022199 -0.12682861  0.1542747  -0.16634949 -0.0949036   0.01855729
 -0.04842371  0.23168293  0.30944932  0.06457473 -0.1508432  -0.25972944
  0.1962395  -0.10235677  0.08412751  0.14492397  0.2681054  -0.00106598
  0.16201489 -0.04023109 -0.05907705  0.2506106  -0.14828013  0.07719392
  0.22330104  0.12253566  0.08115511  0.0084054  -0.04227253  0.16366042
 -0.1269546   0.3118091   0.28209305 -0.00789817  0.10534819 -0.28640357
  0.06116374 -0.02031153 -0.04539604  0.07017144]
[-0.2170008   0.03437476  0.3258081  -0.17860638 -0.09865627  0.31691033
 -0.2737127   0.1646227  -0.2894787  -0.16267653 -0.29095992 -0.16228063
  0.12697138  0.00916313 -0.03287857 -0.08842578  0.3245983  -0.27597037
 -0.19306149  0.17866293 -0.03085725 -0.2061226  -0.14782049 -0.07813172
 -0.0102254  -0.18683138  0.02332818 -0.1921917   0.06431572  0.04725492
  0.14877011  0.2837813  -0.1231136   0.25705197  0.20432456  0.28495672
  0.02996049  0.10458702 -0.32026345  0.02628579]
[ 0.11893934  0.1374056  -0.2151283   0.26657408 -0.10067084  0.29556754
  0.15690088 -0.1718796   0.03363502  0.13429485  0.21564822  0.21766716
 -0.00842189 -0.34480196  0.27036068  0.21168424 -0.15607078  0.29014346
  0.02914331  0.2554291   0.13475016 -0.04303152  0.3692587  -0.13153172
  0.3007125   0.00403048 -0.2105129  -0.1250011   0.0868669   0.07373272
  0.30527726 -0.06050493 -0.01999211 -0.13314354 -0.06764731 -0.19421917
  0.07018584  0.11553185 -0.03132648  0.22377422]
[ 0.12392576  0.20753828 -0.30961892  0.08881929 -0.26692644  0.01522777
 -0.13668323 -0.16312505  0.10812201 -0.05408073 -0.32380843  0.12908445
  0.2753023  -0.12760307 -0.19348934 -0.06306729  0.14017513 -0.05769037
  0.10862118 -0.20049317 -0.09487359  0.4543627   0.29020014 -0.00852782
  0.2371618  -0.06126321  0.21226993  0.06315126 -0.26988006 -0.29536596
 -0.14821768 -0.08546413 -0.16577823  0.03162898  0.08146732 -0.22630453
 -0.16724432  0.14607932 -0.20239848 -0.04488269]
[ 0.06866352 -0.09480949 -0.06051515  0.25488454  0.07442481  0.14490308
  0.27975905  0.2629449  -0.13497026  0.10457634 -0.01729121  0.1710614
  0.09104016 -0.14693621  0.02720093 -0.08312026 -0.15410775  0.00659078
  0.15533458 -0.08165922 -0.22085221 -0.01808355  0.04406381 -0.28112194
 -0.09218689  0.01852857  0.18129094 -0.14322789  0.18442076  0.08543471
 -0.01145942  0.20229276  0.26896623  0.22411984  0.23284073 -0.1561208
 -0.31410927  0.04017588  0.28034034 -0.30376142]
[-0.15131941  0.17081659 -0.03902664 -0.23613608 -0.21448219  0.05255247
 -0.28375223  0.12876587 -0.2895515  -0.17569238  0.18186252 -0.37677032
  0.20968051 -0.16636235 -0.04287871  0.05452812  0.21781862 -0.3216587
 -0.33478782 -0.08059305 -0.36634803  0.07038588 -0.01045925  0.16596642
 -0.02956645 -0.08163098  0.05796612 -0.08903799 -0.14665306 -0.3511435
 -0.19191791  0.19882143 -0.05467133 -0.07352345 -0.1154266   0.20014895
 -0.10232992  0.306399    0.26781952 -0.18162696]
[ 0.29138216 -0.1463526  -0.3018395  -0.06146126 -0.25757444 -0.22908506
 -0.32419285  0.09989607  0.07869986 -0.27291527 -0.25785026 -0.27888238
  0.27013788 -0.11375629  0.22559728  0.1968045   0.07256859 -0.16243383
  0.12976329  0.18092535  0.08898304 -0.01544069  0.12138955 -0.03926338
 -0.25294435  0.26542658 -0.18230663 -0.0457153  -0.2520048  -0.19851696
 -0.04762428  0.1132855  -0.24911124 -0.2614697   0.05246328 -0.05865074
  0.05192994 -0.32266825  0.3151254   0.19800682]
[-0.10032591  0.22293027 -0.2260948   0.079379    0.29279035 -0.01715511
 -0.12787074  0.02913901  0.14863732 -0.06917537  0.00403113  0.22342728
 -0.01488119 -0.23029035 -0.26328024  0.16760248 -0.22914036  0.03368205
 -0.1893743  -0.11850955  0.10760723 -0.13636032 -0.1781691  -0.19295241
  0.09897843  0.1064724   0.04199535 -0.06719092  0.16370015 -0.10575245
  0.10189634  0.18161047 -0.13691792 -0.03169383 -0.10508605  0.07874534
  0.22079355 -0.06188542  0.01581365  0.08541113]
[-0.266251   -0.14984801  0.05135105  0.01679573 -0.03357347 -0.11132368
 -0.12871307  0.19590335  0.29912958 -0.1395798  -0.47026327  0.14885792
  0.24802218  0.3004364  -0.23392428  0.19606505 -0.00997181 -0.16254054
  0.04679659  0.1813182   0.11361029 -0.05602387  0.21218204 -0.13698086
  0.21304631 -0.04380107 -0.11878469 -0.02392932 -0.15021954 -0.07088543
 -0.27057317 -0.07508267 -0.11321767 -0.18478984 -0.02932937  0.03384732
 -0.28534076  0.07431203  0.17903596  0.21043177]
[-0.08047361 -0.14019454 -0.12716262  0.09287135  0.16870548  0.14723706
 -0.10714443  0.08374206  0.16476215 -0.10013817 -0.06984985  0.05976678
 -0.04367051  0.10897741  0.1109987   0.08925049  0.12487645 -0.05921821
  0.2539054   0.03915816  0.201423   -0.21413696  0.14993334 -0.28616253
  0.15959151  0.21542186  0.02035559 -0.1145678  -0.09069765  0.18185213
 -0.17088678 -0.0169267  -0.08538046  0.14236468 -0.11037958  0.2750411
  0.31321353  0.31397805 -0.0889657  -0.14132799]
[ 0.4037408  -0.23278433 -0.20315692 -0.16991974 -0.3248072  -0.09785825
  0.03983046  0.11585487 -0.20080222  0.10002232  0.04311783  0.39625868
 -0.074016   -0.12677473  0.10774732  0.02603029 -0.25310704  0.33838782
 -0.19369897  0.14454876 -0.07490905 -0.17160767 -0.16080433  0.25956514
  0.05583198  0.42643327  0.24669743  0.30429068 -0.10812218  0.07176317
  0.18818659  0.06076368 -0.0401946  -0.17958848 -0.26720276  0.29294655
 -0.11284886  0.11977321 -0.08185217 -0.24895494]
[-0.24247523 -0.01819906 -0.0036916   0.28869566  0.24883623 -0.03878618
  0.2922029  -0.24058898  0.3202576  -0.15082054  0.2088041   0.10650653
 -0.16511263 -0.13940549 -0.22561632  0.11186527 -0.00428635 -0.3482689
 -0.3571412   0.07755102  0.31899443  0.18359716  0.08097114 -0.17842515
 -0.37965187  0.04261145  0.31068277  0.01447947  0.21420132 -0.09042262
 -0.06306506 -0.20540828 -0.01261101  0.13760693 -0.18655013 -0.097255
 -0.08517582  0.20445791  0.1006809   0.05657107]
[-0.1440067  -0.1531386   0.07554626  0.00216885  0.02586372  0.04407027
  0.16945174  0.17693876  0.38390946  0.37559453 -0.01664314  0.14419483
  0.09059764  0.18832211  0.25520632  0.00985412 -0.28484538 -0.07164998
 -0.24706954 -0.0318427   0.21885204  0.11337625 -0.15053454 -0.24692822
 -0.3094423  -0.15376216  0.1885825   0.28401786 -0.17228842  0.04699995
 -0.13290764  0.04521424  0.20916578 -0.27511165 -0.02960062  0.01400879
  0.05461302 -0.1252044  -0.23095675  0.06338631]
[ 0.1434702  -0.08703803 -0.23955064  0.12367707 -0.07386016  0.26379883
  0.08333715  0.22630386 -0.25237602  0.14849667  0.14417964  0.0391809
 -0.20934969  0.18206213 -0.08030546  0.11523058  0.17652315  0.2531739
  0.36438596  0.08208396 -0.17747393  0.23703223  0.35136864  0.27083305
  0.15643182 -0.00744149  0.04079603  0.06969807  0.16922505 -0.01887154
  0.26941547 -0.02064289  0.29870218  0.26664168  0.275846    0.10480147
 -0.28260502 -0.15212709  0.04199887 -0.01562252]
[-0.13865504 -0.17994843  0.18821132  0.2305761   0.1372415  -0.11995742
 -0.22467981 -0.18288428 -0.19840594 -0.21342385 -0.11880145  0.02999293
 -0.01766104  0.25883666  0.37600628  0.34728354  0.3809529  -0.10252269
  0.18149133  0.05176695  0.21515338 -0.3664874   0.18530963 -0.12099274
  0.43079013  0.17545223  0.02989929  0.24747388  0.09760636 -0.1588182
 -0.23440124  0.26601645 -0.03335538  0.13829014 -0.08562673 -0.15312959
 -0.0477677  -0.35811365 -0.0914451   0.16324596]
[-0.02803004  0.16765493  0.25680417  0.23728593 -0.02219047 -0.2337776
 -0.13682343 -0.15800165  0.0425354   0.00501501  0.15157546  0.01827701
  0.2652536   0.08104538  0.09520024  0.0014828   0.01387986 -0.206752
  0.0088983   0.06912435  0.29855514  0.28884158 -0.15236463  0.02593765
 -0.2239873   0.09246787  0.13664313  0.12928769 -0.1986303   0.25168923
  0.17558585  0.27186748 -0.24034184 -0.08903085 -0.11434612 -0.02060574
 -0.13697271  0.05098885  0.0837262  -0.27505964]
[-0.03492711  0.13249198  0.11245552  0.25371522 -0.0428757   0.31876716
 -0.37899137 -0.28630984 -0.42579493 -0.11129797  0.37043387  0.12330814
 -0.2533509  -0.02914704 -0.01435235 -0.1101011  -0.08143818  0.00147985
  0.2852435   0.22190371 -0.02645765 -0.4967658  -0.05413389  0.2205403
  0.29275152  0.06782428 -0.3375971  -0.15822123 -0.24485137  0.25709313
 -0.14645696  0.19298814 -0.2747195  -0.179735    0.04404938  0.16933343
  0.35700622 -0.15801078 -0.10019781  0.21341172]
[-8.1013106e-02  2.8347421e-02 -2.8360508e-02 -3.6486063e-02
  1.4034402e-02  4.4356389e-03 -1.5616967e-02  2.1292446e-02
  2.0554359e-03  2.2323910e-02  3.5753347e-02 -2.6446406e-02
  2.9401205e-02  4.2068549e-02 -2.7416589e-02  1.3092756e-01
 -1.7787244e-02 -8.7850541e-02 -1.6325422e-02 -7.8360820e-03
 -1.9926520e-02 -5.4037399e-03 -2.0158619e-02  7.5324625e-03
  9.4398856e-05  1.3854113e-02 -1.2509917e-03  1.1561742e-02
 -2.0478919e-02 -2.8911714e-02 -3.3457980e-02 -1.3493108e-02
 -2.0481013e-02  1.2447814e-02  7.3216218e-03 -5.7083354e-03
 -9.3676208e-05  1.6000269e-02  8.9558132e-02 -4.2619463e-03]
layer 3 Activation
tanh
layer 4 Dense
40 20
[-0.15470646 -0.2882308   0.03639491  0.34287024  0.26191473 -0.33555517
 -0.12109531 -0.11451844 -0.13052234  0.25349897  0.21916224 -0.24493957
  0.00518442 -0.18648197  0.23820348 -0.1181635  -0.28182375 -0.0359314
  0.3576198   0.22771552]
[ 0.09787802  0.1828222   0.23636317  0.10673925  0.08304813  0.20765479
  0.33662286  0.22245598 -0.20003319 -0.1228007   0.02006138  0.3292783
  0.04631212  0.21164335  0.15447125  0.1504962  -0.12624429  0.1982505
 -0.23355466  0.22138695]
[-0.28845227  0.03809292  0.27706665  0.18512252 -0.18764201 -0.15648371
  0.3165381  -0.08453883  0.07422355 -0.2975516  -0.2962374   0.03578613
  0.30085295 -0.01414869  0.23374768 -0.21247217 -0.1009545  -0.06915635
 -0.14029607 -0.06752177]
[-0.16859423 -0.05897572  0.04244045  0.14118943  0.01938505  0.13710487
  0.36145598 -0.13148154  0.00893233 -0.11432026 -0.05018646  0.29914048
 -0.22648051  0.1010906   0.11748359  0.17713045  0.1791172  -0.02638371
  0.29032806  0.03428381]
[ 0.1035201  -0.24593224 -0.28740796 -0.26909795  0.04039371  0.24501497
 -0.28503907 -0.00584026  0.08406414  0.03849038  0.12516569  0.3232504
  0.06713583  0.30959082  0.10978047 -0.0533707   0.2883899  -0.07405324
 -0.26332334 -0.02576075]
[-0.10658698 -0.10403908 -0.2916834  -0.16125154 -0.23431773 -0.3433463
  0.0361893   0.10205558 -0.17686349 -0.10062456 -0.09903792 -0.08370864
  0.27073136  0.21654938 -0.21516956  0.2145634  -0.09631543  0.01304051
  0.2688557   0.02291045]
[-0.08932819 -0.23563947  0.15901244 -0.3447437   0.20149028 -0.03636168
 -0.1509513   0.20270467  0.23587525 -0.02416307 -0.08714398 -0.06716567
  0.27813452  0.17834207  0.13205023 -0.13844591  0.18646426  0.2520716
  0.02469679 -0.2809215 ]
[ 0.09183958 -0.00498591 -0.2935559  -0.05509476 -0.01690538 -0.0807941
  0.01843187 -0.01908672  0.088912    0.05415151  0.14034103 -0.02119382
 -0.21207565  0.26492193 -0.12043127 -0.29212594  0.00318387  0.04996222
 -0.19445473 -0.06761351]
[-0.21086687  0.1310826  -0.24412443 -0.17461835 -0.02475445  0.20537354
 -0.29291674 -0.2492784   0.06296786 -0.16234584 -0.06278123  0.1937605
 -0.05177063  0.13726446 -0.2955387  -0.22132996  0.06778821  0.23957978
 -0.17355104 -0.25001934]
[-0.03485398 -0.3112633  -0.2538548  -0.30167988 -0.30273542 -0.0206472
 -0.09938399 -0.3056822   0.11710692  0.14077759 -0.04123783  0.13034065
  0.22376561  0.26902527  0.10811537 -0.09150122  0.14783089  0.21537565
  0.05747957 -0.14329074]
[-0.31932455  0.28356743 -0.30641076 -0.21424676 -0.25486222 -0.16124652
  0.03216653  0.24208672 -0.31489256  0.31724083  0.23942605 -0.27317452
 -0.14233337 -0.15523915 -0.3480507   0.15843278  0.2872746  -0.03114861
  0.22094935 -0.03644842]
[-0.16687948 -0.3034951  -0.02852603  0.01023586 -0.01352881  0.14537236
  0.26912323 -0.27852783 -0.11795137  0.2340567   0.02941298  0.3426433
  0.21167547  0.13006519  0.28268102 -0.00671194  0.13778785  0.06290723
  0.05429065  0.04232556]
[ 0.28663903 -0.16882579 -0.10476144  0.2817163  -0.03715474 -0.12681544
  0.0631304   0.04245499 -0.03610622  0.00591396  0.29482192 -0.15205517
  0.01519251  0.11357128  0.27870995  0.07825792  0.22391114  0.33294472
 -0.25173607  0.2985553 ]
[ 0.3402226  -0.07752895  0.06532478  0.03093123 -0.19812411  0.26550928
  0.2509932  -0.27879173  0.16269135  0.08302867 -0.10854656 -0.07407831
  0.05635562  0.00641645  0.26144135  0.23163733 -0.09818879  0.05576383
 -0.08333205 -0.07133657]
[ 0.04415334 -0.15857968  0.25847661  0.13583793 -0.21890293 -0.25738043
  0.19381803 -0.11905508  0.18345179 -0.12227901 -0.14828801  0.2214987
  0.10831081 -0.29589933  0.18233405 -0.18956764 -0.30217865 -0.22600457
  0.10714243 -0.1641676 ]
[ 0.06090197  0.25517437  0.01312573  0.01195386 -0.21274626  0.0678578
 -0.25523284  0.10061938  0.3301113  -0.23874216  0.32456073 -0.2639126
  0.12009674  0.03261142 -0.20673335  0.139951    0.04058252  0.25587997
 -0.09117785 -0.02006128]
[-0.14077772 -0.23470859  0.22633749  0.29891452 -0.156849   -0.1131564
 -0.06904582  0.25963545 -0.28182456 -0.02298409  0.00462941  0.11062773
  0.31289428  0.20835346  0.10022376 -0.20952113  0.06031916  0.11614391
 -0.17554325 -0.2737966 ]
[-0.13518672 -0.31233546  0.29850033  0.00325665 -0.04697369 -0.2541007
 -0.2803491  -0.3580607  -0.15331867  0.06630649 -0.03134273  0.1137891
 -0.18107401  0.29593584 -0.00778737 -0.18199366 -0.21240483 -0.14564568
  0.32139826 -0.23893164]
[-0.13834538 -0.16369064  0.02406677 -0.18285988 -0.22722036 -0.31343514
  0.31549272  0.22227973 -0.07478191  0.01727004 -0.17772244 -0.01130692
 -0.2548237   0.30483803 -0.3224566   0.14822006  0.20816155 -0.2012956
  0.17064638 -0.33452404]
[-0.05059561 -0.09865423  0.18891895 -0.06836543  0.004926    0.00220019
 -0.02942933 -0.06595045 -0.0713357   0.3316802   0.02529221 -0.16832788
  0.37562132 -0.17349829 -0.04524605  0.22776006 -0.05293967  0.04252036
 -0.04894417  0.08971114]
[-0.30425552 -0.26769558 -0.17256536  0.00432315  0.01595119 -0.06069277
 -0.18455859  0.18476197 -0.14458025  0.11657601 -0.07372098  0.21369933
  0.20664217 -0.07163819 -0.34432814 -0.08951563  0.24342142  0.01546501
 -0.09336296  0.27836275]
[ 0.06111474 -0.16188264 -0.22782768 -0.3010369   0.42560714  0.00591483
 -0.22723903  0.16948596  0.08561473  0.262008    0.07936393  0.07900472
  0.14429109  0.11758459  0.22893812  0.02887229 -0.02931097 -0.13898386
 -0.16822775 -0.30463818]
[-0.12398715 -0.3361115  -0.25414902 -0.05279306  0.0392307  -0.13572742
 -0.23216029  0.07633432 -0.27066046  0.07322504  0.13468814  0.31219578
  0.23323722 -0.23166603 -0.24495882 -0.00500259  0.23419741  0.2849774
  0.22963163 -0.30420807]
[-0.20964637  0.05276605 -0.06396117  0.3621422  -0.22125006 -0.14183462
 -0.25845322 -0.04670585 -0.17640258 -0.03184405 -0.05328624 -0.19193412
 -0.1921692  -0.3280546  -0.0880588  -0.0026728  -0.11631007 -0.05652173
 -0.08410804 -0.03527569]
[-0.18254243 -0.14894097  0.07465544  0.15281285 -0.05709865 -0.01803692
  0.16947947  0.21779072  0.07087898 -0.11365458  0.30572414 -0.0520027
  0.25929895  0.29675415  0.02059638  0.26651174 -0.07613233  0.34197882
 -0.06195691 -0.19566813]
[-0.05535032  0.06440965  0.14772055  0.08151804 -0.23898284 -0.15997906
  0.06688194 -0.33102876  0.01221419  0.19067918  0.2336218  -0.25218982
 -0.07973554 -0.05730215  0.26982203  0.04624733 -0.02344525  0.04878766
 -0.23427622  0.01238432]
[ 0.06731889 -0.08290383  0.20906284 -0.06107379 -0.16052227 -0.12669863
 -0.23724897 -0.31714782 -0.13652906  0.02470347 -0.06107163  0.09980426
 -0.08327538  0.06986047  0.07483552 -0.100803   -0.24321602  0.0717644
  0.17591977 -0.16916019]
[ 0.19880687 -0.09316943 -0.11277732 -0.18211032 -0.08874826 -0.13758083
  0.17965831  0.18732394 -0.06135154  0.19594146  0.25164607  0.04434429
  0.09237671  0.00687102  0.12552074 -0.22210635 -0.18713127 -0.08049263
  0.00919854  0.16265741]
[ 0.06213648  0.0163677  -0.12718417  0.14686948  0.07778615 -0.23269059
 -0.0873462  -0.15079467  0.22878522  0.12295303 -0.00483673 -0.07891949
  0.15503752  0.09346428  0.12846757 -0.11115799 -0.15020429 -0.26402587
  0.08471858  0.32771945]
[-0.11432528 -0.06991838  0.16066088  0.06886393 -0.06826334 -0.22820535
  0.25604445  0.05049376 -0.0839584   0.12636995  0.2242956   0.11972385
 -0.05051019 -0.2430666   0.2139959  -0.12893422 -0.16337524 -0.29820037
 -0.18195623 -0.08822032]
[-0.07791461 -0.16102786  0.15766159  0.20902069  0.22392935 -0.25643426
 -0.131081    0.13316363 -0.2505047   0.17438468  0.28012833  0.06465545
  0.17339057 -0.2904704   0.12916991 -0.00146547  0.14495003 -0.24902041
  0.26219857 -0.12667915]
[-0.11308636  0.15576538 -0.133468    0.22661076 -0.09119005 -0.09653518
  0.13736683 -0.15000813  0.16538516  0.02750466  0.11664216  0.03349781
 -0.12333085  0.2221625  -0.17811333  0.30763426  0.02540926  0.09487598
  0.12163328  0.05450209]
[-0.19148497 -0.22311577 -0.09012569 -0.21376367  0.20965375 -0.21401757
 -0.25025988 -0.06559556 -0.0710229   0.07874079 -0.16140847 -0.14555487
 -0.30853257  0.0365532  -0.09590265 -0.12022458  0.07962122  0.01189347
  0.19942926 -0.2067239 ]
[-0.05277129  0.03454367  0.0985117  -0.41954488 -0.01625822 -0.2071274
  0.20618322  0.2251277   0.26938254 -0.2118219  -0.17448305  0.18976974
  0.22741306 -0.2193208  -0.04319055  0.01251968 -0.14491251 -0.16721636
 -0.20017861 -0.27972203]
[-0.08920674  0.11183727  0.09293044 -0.05335294 -0.1604813  -0.24644843
  0.27861878  0.13197833 -0.03807616 -0.20175755  0.32033965 -0.20585804
  0.03383236  0.37555927 -0.29327697 -0.18850851 -0.13907719 -0.15235665
 -0.20762259  0.15346014]
[-0.25632533 -0.05770681 -0.09239592 -0.0314079  -0.00817954  0.03408825
  0.02366265 -0.3463175   0.28032914 -0.02864871  0.16162099 -0.21703559
 -0.01266577 -0.07599942 -0.3328398  -0.10287226 -0.0964306   0.07171891
 -0.19487722  0.03462905]
[-0.33936626  0.07127752 -0.25227392 -0.11472145 -0.01037869  0.0215217
 -0.17579155  0.06839328  0.03610515 -0.09778572  0.09754952 -0.2794552
 -0.2484846   0.10271872  0.25880033 -0.04277574  0.04870867  0.20401317
  0.10330299 -0.27587625]
[ 0.30123717 -0.0138111  -0.284859    0.11022556  0.15162297  0.12143354
 -0.17546794 -0.14232998  0.25419092 -0.24684405  0.09235798 -0.3390661
 -0.03661744  0.27338123 -0.15462513  0.05882036  0.24907497 -0.13690378
  0.10826968 -0.02192916]
[ 0.19532724 -0.07534222  0.20664439  0.24971956 -0.3260835  -0.1057914
 -0.03275013  0.02053042 -0.23510148  0.04221931  0.05301853 -0.3017154
 -0.290831    0.2564711   0.30152848  0.19038242 -0.21724     0.15686285
 -0.0263836  -0.24421002]
[-0.05107356  0.12869455  0.15003568 -0.14210004 -0.05092431  0.2027144
 -0.26092234 -0.08226766  0.19251221  0.20821673  0.07561394  0.19530329
 -0.01449651 -0.00884852  0.14156437  0.07380454  0.22202975 -0.15671788
  0.06173678 -0.10121352]
[ 0.0399387   0.0234057  -0.01551404 -0.0049571  -0.00950475  0.01158844
  0.02119177  0.00112145  0.00798747 -0.0025475   0.0054368  -0.01441593
  0.02535549 -0.00668814 -0.02195479 -0.00523809  0.00613655  0.02023823
 -0.00477626 -0.01991232]
layer 5 Activation
tanh
layer 6 Dense
20 1
[-0.2758353]
[-0.34477946]
[0.09768101]
[-0.16656284]
[-0.41079628]
[0.3364724]
[-0.25704613]
[0.25967643]
[-0.04180039]
[-0.14350584]
[-0.24207631]
[-0.16921304]
[-0.08001827]
[-0.09675963]
[0.10791057]
[-0.00401219]
[-0.03255041]
[-0.14136466]
[-0.12959076]
[0.41116405]
[-0.01850577]
