layers 7
layer 0 Dense
20 20
[-0.32340154  0.33903372 -0.2027436   0.08797198 -0.1993589  -0.17202032
 -0.3272202  -0.19926657 -0.4103826   0.2129932  -0.25991184 -0.23179093
 -0.097047    0.1464401   0.43365008 -0.14978725  0.15715665 -0.10162131
  0.16032864 -0.6687678 ]
[ 0.25512728  0.2948     -0.3352188  -0.3776085  -0.07481703  0.259485
 -0.15294403  0.13298158 -0.15616226  0.5449627  -0.25204676 -0.09230013
  0.01222302  0.158375    0.12249935 -0.09806301  0.21781549  0.43471453
 -0.38571408  0.32077438]
[-0.04366186 -0.23351678  0.17951302  0.24324521 -0.56123865 -0.13392463
  0.37849784  0.13527343 -0.0904662   0.4680872  -0.12818043 -0.1109823
  0.12548286 -0.03745441  0.06903125 -0.03154199  0.55162543  0.68171805
 -0.38812026  0.08584543]
[-0.28243074 -0.1588475  -0.13679357 -0.28535703  0.06025628  0.34613466
  0.27409017  0.02196526  0.15629637 -0.3006616   0.28561297  0.25556847
  0.05294389 -0.03185355 -0.19274329  0.2142496   0.18210411 -0.3243631
 -0.22685884  0.04319676]
[-0.20920019 -0.06585299  0.05122669  0.14335681 -0.2924441   0.30013442
  0.04313876 -0.00753313 -0.06068129 -0.01503511  0.12496249  0.01583411
  0.07675672  0.19152093 -0.20012945 -0.1189032  -0.34471738 -0.02162359
 -0.09310994  0.26064265]
[ 0.25588706  0.2553422   0.5283493   0.0090369   0.24078597 -0.37635952
 -0.13112968  0.25703564  0.1440345  -0.53209317  0.11554737 -0.21356714
 -0.04394114 -0.0383051   0.0381233   0.11814193 -0.58208996 -0.6365152
  0.5102426  -0.5946823 ]
[ 0.27540267  0.1980184   0.00162868 -0.01226503  0.7208517   0.20635556
  0.18773125 -0.360152   -0.37714365 -0.09958024 -0.3845073   0.353018
  0.39509532  0.43025798 -0.04405471 -0.30754614 -0.23258498 -0.55713344
  0.0487241  -0.23044015]
[ 3.6800277e-01 -1.3053103e-01  4.4683728e-02 -1.8924834e-01
 -1.9983301e-01 -1.5900183e-01  2.2396666e-01  6.5761976e-02
  2.6262233e-01 -1.9942045e-01 -3.7191993e-01 -2.2298667e-01
  2.6096076e-01  3.9045021e-01 -3.3513859e-01 -4.6228051e-01
 -6.8109948e-06  2.9577324e-01  9.9563830e-02  2.2454688e-01]
[ 0.2982806   0.34291884 -0.19492851 -0.20511857  0.08549593  0.25568166
 -0.22949149 -0.03366502 -0.03368873  0.23353453 -0.25783008  0.36728778
 -0.19940308 -0.01187036  0.25644878 -0.21499217 -0.0088815   0.13506304
 -0.04571896  0.13275917]
[ 0.5704603   0.4509372   0.30246305  0.40077257 -0.56023276  0.19368446
 -0.04683757  0.34699705  0.08466754  0.18566018 -0.57575035 -0.13571644
  0.10838816 -0.01910002 -0.24749982  0.41646817 -0.5268503  -0.2363635
  0.17248432  0.0774674 ]
[ 0.2017302  -0.36011326  0.36206144 -0.1305922  -0.33550063  0.12401989
 -0.28461736  0.25295186 -0.6163617  -0.2284595   0.20185563  0.1872169
  0.14372586  0.22327866  0.16177003 -0.18346918 -0.46375352 -0.23296633
 -0.05699793  0.4611517 ]
[-0.22276974  0.88698006  0.31232232 -0.4052794  -0.3177483   0.26166654
 -0.359961   -0.763493    0.38487664 -0.8219718  -0.13327879  0.22453079
  0.5169932   0.03700221 -0.22024721  0.05780581 -0.12192377  0.6305725
 -0.11270139  0.10651465]
[ 0.05737903  0.24624893  0.24331433  0.1124927  -0.00527875  0.2317968
 -0.41544032  0.12666115 -0.16870497 -0.27851585  0.45171258 -0.08373468
  0.03887746 -0.08658732 -0.3446546   0.25076896  0.3288453  -0.06686743
  0.24757048  0.04170551]
[ 0.19899328  0.13366663  0.39262986  0.2936664  -0.4294943   0.4582197
 -0.0129207  -0.04311031  0.27904913  0.33440602 -0.22695075 -0.01861107
  0.17615646 -0.09491105 -0.40667114  0.22674629 -0.23092031 -0.3503961
 -0.11258499 -0.01421738]
[-0.3346817   0.51440257  0.49329868  0.14268698 -0.26587006 -0.06946289
  0.13043098 -0.3743499   0.06695473 -0.2563737   0.18522587  0.33099008
  0.40098894 -0.14003508  0.06187917  0.09891459  0.15853149 -0.39834842
  0.15776286  0.1009875 ]
[-0.18920338  0.57570136 -0.26144245 -0.01390751 -0.11164392 -0.335164
 -0.60199755 -0.6203597   0.10665147 -0.8356912   0.3961144   0.44001198
  0.3037498   0.16717298  0.15969124  0.04763995  0.69967294  0.31524986
  0.10409312  0.522725  ]
[ 0.20302361  0.27333757 -0.10554848  0.09698686  0.14698167 -0.12005604
  0.04337614 -0.18460748 -0.0183546   0.36952403 -0.12794454 -0.21803309
 -0.4163083   0.11524905  0.03932088  0.27080563  0.11242967 -0.22609505
 -0.12516613 -0.39431038]
[-0.549579   -0.8199508  -0.8279893  -0.1342692   0.23174259 -0.5226937
 -0.2525219   0.17242478 -0.42310178 -0.6881133  -0.03907448  0.08762835
 -0.5133057   0.3506686  -0.27964693 -0.65417117  0.4775933  -0.06707016
 -0.6391166   0.12011173]
[-0.5393162   0.00129309 -0.5082081  -0.25256747  0.22162504 -0.6118022
  0.34163284  0.13145345  0.8749455   0.23868454 -0.4208097  -0.5410682
 -0.6023267   0.7483306  -0.68199086 -0.6528494  -0.03558452  1.1437768
 -0.23856981 -0.66213894]
[-0.1222715   0.23315454 -0.08660953 -0.09786723 -0.12347289 -0.05616611
  0.6041271  -0.07635255  0.18805234  0.1528428  -0.0045684   0.03202201
 -0.18362992  0.47660324  0.26829955 -0.07075168 -0.27643612 -0.61734414
  0.18435481 -0.5359888 ]
[-0.06253214  0.04782078  0.08855802  0.00292232 -0.01241532  0.0704784
 -0.04044715 -0.02864334  0.03222846 -0.00555792  0.05231566  0.05623215
 -0.04486373  0.01890517 -0.00766592 -0.01856076  0.12474347  0.08237179
 -0.01609094 -0.08652915]
layer 1 Activation
tanh
layer 2 Dense
20 40
[ 0.3068308  -0.05387852 -0.06383657  0.28214127 -0.25672486  0.41528225
  0.34489357 -0.5110596   0.01475876  0.35517865  0.05819978  0.27187067
  0.11056694  0.23230979 -0.21995378  0.1453343   0.09157729  0.17653508
  0.5165938   0.234743   -0.24772213 -0.17587905 -0.06389146 -0.02773925
  0.32709992 -0.2200936  -0.2618773   0.2041037  -0.18690233  0.28648898
  0.22082692  0.10002314  0.13480404  0.0492396  -0.1780623   0.29913127
  0.11106171  0.41328493 -0.36634916  0.05326954]
[ 0.19931324 -0.38849074 -0.03760516 -0.10774592 -0.23671438  0.45527983
  0.02562728 -0.38195527  0.2393528   0.11800718  0.36866203 -0.15895206
  0.18881483  0.02417691  0.10584375 -0.18585162 -0.24995351  0.17931661
 -0.16513321  0.50414836 -0.2668387   0.00875444  0.11583096  0.2706298
  0.34292707  0.21173143  0.28778672  0.25946072 -0.08428391 -0.22547214
  0.32164913 -0.24540111 -0.12470429 -0.04955983  0.0115311  -0.14255561
  0.1177129  -0.2232567  -0.10368728 -0.08263238]
[ 0.4181793  -0.08717991 -0.10495906  0.09011341 -0.3468991   0.56966466
 -0.05214218  0.13738121  0.40037242 -0.3177635   0.2016336   0.10955998
  0.24564013  0.02934975 -0.39385307  0.08164054  0.6597369  -0.25435865
 -0.14930372 -0.00338507  0.19776945 -0.26895726 -0.27875334 -0.23286259
  0.26974332 -0.44322664  0.20002712  0.11654973 -0.31588867  0.22885618
 -0.04306413  0.05956674 -0.362714   -0.03560735  0.03185303 -0.01468471
 -0.25139207  0.29612133  0.04174352  0.28003576]
[-0.3042831   0.0266385  -0.19399129  0.17487007 -0.13676064  0.21934961
  0.06843604 -0.1252066   0.1167062  -0.2640396   0.01289728 -0.15167533
 -0.02080136  0.10798889 -0.2800131   0.2708978   0.23914939 -0.0065056
 -0.35887557  0.25638288  0.29385164 -0.09101988  0.21223222 -0.29774424
 -0.10016375 -0.17838456 -0.25384253  0.18500872 -0.15670322 -0.10963885
 -0.19493465 -0.02194108 -0.20087579  0.12498232 -0.02286828  0.1449942
 -0.13625826  0.06541114  0.00230271  0.12981781]
[ 0.15595649  0.30705833 -0.11221467 -0.27447572  0.07940146  0.00408589
  0.02275076 -0.24809678 -0.08128232  0.19208531 -0.31125817 -0.13779904
 -0.12929635 -0.06524747  0.380118    0.17380565 -0.10329671 -0.05535054
 -0.32384375 -0.41900855  0.10051727  0.26539338  0.28542233  0.13607527
 -0.14283636 -0.01377893 -0.0270105   0.0334382   0.04858365  0.02512326
  0.01158567  0.30426648  0.00092275  0.01123957 -0.3376939  -0.00520517
  0.10870404 -0.03324963  0.09522153  0.24462639]
[ 0.37338015 -0.3014404   0.03518546  0.18826729 -0.19153728  0.48340002
  0.0813781  -0.3853641   0.3042447  -0.11623915  0.12498841 -0.10347337
  0.3192085   0.15253638 -0.2576094  -0.25019303  0.16091675 -0.01960175
 -0.25688744  0.30031836 -0.33656996  0.06455451  0.10775115 -0.39989105
  0.26525298 -0.23907682  0.22748482 -0.01912611  0.13109656 -0.15050133
 -0.31388074  0.16160426  0.14877099  0.07889477 -0.14372124 -0.1066363
  0.2076541   0.17469025  0.11223359 -0.09049943]
[ 0.16845319 -0.23634678  0.0196544   0.02982417  0.23628399 -0.11355671
 -0.05124449 -0.22318643 -0.19652045 -0.04813772  0.20714082  0.16875409
 -0.1067759  -0.2146083   0.09012108 -0.17894977 -0.00896766  0.3264761
 -0.03302966  0.25319824 -0.19272843 -0.00878223 -0.16906999 -0.32302696
 -0.02366519  0.18825893 -0.19174659  0.0136841   0.15401933  0.26293224
  0.263961   -0.14302957  0.34598407 -0.41285113 -0.25107387 -0.18701321
  0.19465943  0.00294803  0.20396163 -0.3929906 ]
[ 0.10626832 -0.15418424 -0.11097742 -0.19173536 -0.38691017 -0.2372823
 -0.00258357 -0.11159669  0.20241083 -0.04506281 -0.28878927  0.07963757
 -0.17158866 -0.21954523  0.18955363 -0.02544917  0.38088715  0.02673431
  0.03400665 -0.37091833 -0.13183339  0.08598598 -0.21335264 -0.41865402
 -0.17061248  0.07905502  0.00757896 -0.12716861  0.05462807  0.24005406
  0.34474635  0.31397626 -0.14417097  0.05116004 -0.07259367  0.29481077
  0.25690594  0.28004575 -0.18930301  0.1675302 ]
[ 0.22563593  0.33104733 -0.08398861 -0.28060254  0.11407858  0.24510236
  0.22993098 -0.14512461 -0.05971424 -0.1243578   0.09880321  0.08007623
  0.11865028  0.11206306 -0.31354514  0.22094768 -0.3077907  -0.02193988
 -0.29475442  0.60656506 -0.2415256  -0.39421102  0.17724426 -0.00378035
 -0.204753    0.28963405  0.01388346  0.0969954   0.5439179   0.33465785
  0.36723232  0.00076414  0.1242067  -0.4382755  -0.02896048  0.22081442
  0.34437853 -0.2178721   0.15302561 -0.09735869]
[ 0.14459983 -0.02148069  0.3341089   0.04692462 -0.17531025 -0.07797708
 -0.16471668 -0.1781262   0.28919736 -0.6089707   0.38255218  0.2346493
  0.05013572 -0.21812584  0.07216781 -0.12837991  0.3855487   0.1679881
 -0.12072305  0.3669048  -0.16717373  0.20920369 -0.7397339  -0.68598837
  0.16677384  0.48287487 -0.37084225  0.14801806  0.5202863   0.1844372
  0.40574703  0.26519632  0.17204957 -0.3550324  -0.2160581   0.2733802
  0.6045595   0.49123415  0.23870501  0.31340802]
[ 0.10444254 -0.04312261 -0.12072986 -0.01930533  0.28140268  0.10353719
 -0.20250176  0.32878143 -0.09428564  0.2249623  -0.33434013  0.10031267
  0.24241482  0.10381    -0.44702682  0.12972686  0.01883226 -0.2388115
 -0.22147897 -0.63093036  0.38247728  0.12784997  0.45730495  0.31713113
 -0.07688952 -0.13641365  0.26381314 -0.4118761  -0.35215303  0.11981745
 -0.15995339  0.09352467  0.07181384 -0.01488925  0.36831373  0.08770777
 -0.4784174  -0.18779193 -0.3203276   0.2275809 ]
[-0.2829542  -0.21144831  0.1620756  -0.1628759   0.02035319  0.14843218
 -0.23774841  0.08185668  0.38483387  0.11942672  0.12868379 -0.2738987
 -0.03425739  0.22633143 -0.01824015 -0.06780767  0.30369633  0.08466401
 -0.09015571 -0.15888177 -0.04881543  0.09587177  0.0995402  -0.00183801
 -0.22359248 -0.25361648  0.2870431   0.10233036 -0.23213403  0.10256451
 -0.11995487  0.2270195   0.01494684  0.21259418  0.3168351  -0.08910459
 -0.1292026  -0.17913659  0.02744786  0.27528626]
[ 0.05721869  0.17700112 -0.12380943  0.49158776  0.06875966 -0.01426924
  0.21241975  0.01677912  0.35901597  0.12557857 -0.0339873   0.03061922
  0.44810253 -0.03587205 -0.5171465  -0.3686954   0.35819328 -0.23874722
  0.32045403  0.18794656 -0.20594606  0.23241483  0.34871563 -0.02366868
  0.18272488 -0.24716765  0.32387465  0.03238223 -0.14281127  0.09491158
  0.17784128  0.02351587 -0.42700022 -0.12048703  0.2703577   0.05583801
 -0.42342484  0.12155178  0.08623803 -0.1746436 ]
[-0.2457252  -0.02480161 -0.34374905 -0.23925436 -0.20277034 -0.2161844
 -0.19163993 -0.01012621 -0.1664109  -0.17923045  0.27269483 -0.08896288
  0.07825193 -0.00583459  0.4065322   0.15448496 -0.2342888  -0.1359323
  0.16930093  0.02853702  0.03536343 -0.1793932   0.08258393  0.10343175
 -0.10497618 -0.02112656 -0.3632346   0.0991061   0.20465432 -0.08566127
  0.30548188  0.05054198 -0.05189026 -0.03117697 -0.03945823 -0.27621263
  0.13908951  0.0588593   0.1459593  -0.02934288]
[ 0.1882621  -0.4010956   0.36078224  0.12870288  0.09277931  0.00353631
 -0.1759046   0.14866453  0.2910425  -0.07327656 -0.13646334  0.19232313
  0.20000173  0.01145203  0.30761218  0.05945772  0.11336952 -0.07563238
 -0.18017729 -0.2845304   0.39158222  0.2671701  -0.04721476  0.28631002
  0.01036829 -0.19141641 -0.15187322 -0.07397829 -0.2372618  -0.06064221
  0.06091823  0.01586588  0.00132651  0.2152991   0.19254391  0.29742613
  0.21632521  0.13548501 -0.06212914  0.47412628]
[-1.1971321e-01 -1.8537965e-01  2.4326439e-01 -2.5810003e-01
 -1.0110728e-01  3.5897866e-01  1.1747189e-02  1.8492346e-01
  4.1469225e-01 -3.0909586e-01  3.7777197e-01  5.4407235e-02
  1.1041531e-01 -9.8675467e-02 -3.4357721e-01  2.9850504e-01
  5.4586932e-02 -3.8654837e-03  1.4614095e-01  1.4504610e-01
  1.8829697e-01  3.0693931e-03 -1.1417517e-02 -1.9840534e-01
  4.0412579e-02  2.6010487e-02  3.0777141e-01  2.5654548e-01
  2.2491273e-01 -6.0030904e-02 -2.5154686e-01 -1.3090883e-01
 -2.0688176e-01 -1.9234259e-01 -2.0578413e-01 -8.9135848e-02
  1.4014402e-04 -1.2572284e-01 -6.1004970e-02  1.0976047e-01]
[ 0.16205531  0.28870144  0.19934075  0.09347498  0.2841864   0.14362992
  0.01781711  0.27258652 -0.19031475  0.00955561 -0.270474   -0.01027572
 -0.38319165  0.07769561 -0.05652785  0.01071613 -0.44816786 -0.38502583
  0.03877063 -0.16696568  0.25823462 -0.27187678  0.18110119  0.6509213
 -0.2497524  -0.18237418  0.25871634 -0.05250863 -0.14594066  0.15188307
 -0.12334324 -0.1001798   0.29879907 -0.12977885  0.17408611 -0.13464811
 -0.4193212  -0.19951154  0.18515053  0.2489282 ]
[-0.16980833  0.2855542  -0.5765433  -0.16405629  0.34458402 -0.08860622
 -0.18470898 -0.09570921 -0.42131633  0.26076868  0.16145357  0.08765423
 -0.02647533 -0.04592878 -0.30982977  0.23794375 -0.10802909  0.10570598
  0.10265511  0.51326877 -0.3736316  -0.39440835 -0.06891709  0.15142617
 -0.04675947 -0.22570556  0.2757476   0.17952305 -0.22231232 -0.21801527
 -0.14214869 -0.45995015  0.17190431 -0.26287973  0.22234239 -0.20628996
  0.2710371  -0.27443567 -0.00818058 -0.26109254]
[ 0.05324876 -0.33483273  0.2104868   0.22600542 -0.28503084 -0.07494073
  0.16761301  0.00148408  0.19278824 -0.19489954 -0.13261029  0.30033255
  0.15317969 -0.20794342 -0.15635593 -0.22212282 -0.03233487  0.18019976
  0.03450882  0.24675919 -0.10427446  0.04516276 -0.06844623 -0.03739502
  0.3038357   0.12777965  0.18301395  0.30215472 -0.01077121 -0.26466203
  0.06692928 -0.02481365 -0.0719182   0.00375618  0.09535392 -0.14415818
 -0.09380177  0.18276419  0.04070303  0.23231436]
[-0.10778616  0.09983195 -0.02423816  0.8049814   0.25464413  0.2602224
 -0.10287449 -0.29489446 -0.5044351   0.39488906  0.07513688 -0.10770293
  0.33457667  0.25689095 -0.52513486  0.2750011   0.165598   -0.11130469
  0.29985714 -0.08938637 -0.47255427  0.03109157 -0.15915547 -0.02695649
  0.06236986 -0.09329356  0.29765713  0.03141337 -0.77939254 -0.16892159
  0.004335    0.10865263 -0.06161135  0.4668012  -0.05783952 -0.38099107
 -0.61237335  0.18194921 -0.17883965  0.08503035]
[ 0.08828156 -0.06799737  0.10967986 -0.12752384 -0.01429292 -0.05453604
 -0.04252652  0.09761857  0.16211958 -0.02402773 -0.0700352   0.08781873
  0.0143174   0.03057795  0.05085318 -0.02528768 -0.08360531  0.00310289
 -0.18044023 -0.1267965   0.03673869  0.03941409  0.10771895  0.04889459
 -0.08572578  0.13568817  0.03486454 -0.03316133  0.0764521  -0.05529265
  0.06314624  0.01358724  0.06598984 -0.04515999  0.00230067 -0.04239256
 -0.01113089 -0.0856031   0.05380779  0.02466136]
layer 3 Activation
tanh
layer 4 Dense
40 20
[ 0.29532045  0.03023479 -0.09206041 -0.08544461  0.18825606  0.07550432
  0.17343247 -0.03849806  0.18558176  0.33645156  0.05283229 -0.00372248
  0.20274745  0.197677   -0.08696828 -0.14739929  0.12790959 -0.08947743
  0.23471652  0.08179732]
[-3.1050694e-01  3.1246838e-01 -1.3185656e-01  1.4966258e-01
  1.1030144e-01 -2.8482065e-01  2.6444155e-01 -1.9512130e-01
 -2.9466921e-01 -6.1004184e-02 -1.4874919e-01  1.4777137e-01
 -9.0794630e-02  1.6455482e-01 -1.9339916e-01  1.6379665e-01
  1.8816966e-01 -4.7891816e-01  1.6837521e-04  1.2470914e-01]
[ 0.20396592 -0.23965017  0.22892985 -0.06268459  0.28196764 -0.06877697
  0.3261689   0.07426497  0.2424711   0.31557676  0.23455733 -0.17133081
 -0.10894956 -0.34027728 -0.07498067  0.25043207 -0.30792773  0.13629803
 -0.01008871 -0.0272552 ]
[-0.10708891  0.10249601  0.27378777 -0.42715803 -0.12422461  0.07424575
 -0.14997001 -0.15949008 -0.03169131  0.16981618 -0.2548288  -0.19736736
 -0.11470688  0.23880276  0.39058542  0.27496624  0.1259556   0.08618522
 -0.07333179  0.34865668]
[-0.12854636 -0.14260744  0.0258063   0.11832721 -0.27508983  0.21440998
 -0.14827633 -0.2584915   0.23537871 -0.2586761   0.2726659   0.04338876
 -0.05402993 -0.10609827 -0.26351157 -0.23654534 -0.13153231  0.00883342
  0.27553818 -0.28348896]
[ 0.01692832  0.07125167 -0.19771153  0.00802644 -0.1575577   0.04400567
  0.13909157  0.15214722  0.2949208   0.13355987 -0.2789691   0.1889501
 -0.30741584 -0.02485747 -0.1408304  -0.08547039 -0.09737327 -0.3149869
  0.29797155  0.40206775]
[ 0.04114817  0.13890931 -0.13593622 -0.33589268 -0.2675003  -0.21488234
  0.2110743  -0.10516254  0.05930517 -0.06990782  0.13918062  0.12235814
  0.10304639 -0.06575087  0.09786075 -0.01580059  0.26124594 -0.05051139
 -0.19026937  0.24062052]
[ 0.10402658 -0.36829457  0.28473395  0.246035    0.39129528  0.1479318
 -0.16562404 -0.26839325 -0.14031778 -0.07295074 -0.23863748  0.3358972
  0.25333405  0.07727697  0.02811501 -0.25807968  0.32802805 -0.01843304
  0.17388734 -0.34588915]
[ 0.5384573  -0.1916763   0.05390415  0.02362572  0.32945862  0.21514621
 -0.00892866  0.35466743 -0.00826326  0.01939502  0.16653414  0.10953469
  0.4046723  -0.36154184  0.32838216  0.28904215 -0.17693457  0.459713
  0.21677642 -0.09675154]
[-0.12748392  0.39243457  0.00397825 -0.04320981  0.06723642 -0.01371718
 -0.32410145  0.05957155  0.01314716 -0.25637504 -0.03920786 -0.26601073
 -0.16982259  0.15920585  0.22549902  0.15503544 -0.1355113  -0.5005102
  0.07975341 -0.20200372]
[ 0.20508157  0.05077201 -0.30887702 -0.13442647 -0.19453095 -0.05993726
  0.3033303  -0.10943519  0.04774883 -0.16657409  0.11398736 -0.13748987
  0.25942734  0.146319    0.14656675  0.07730635 -0.08194387 -0.13891639
  0.26059842  0.2650171 ]
[-1.7642833e-01  8.2331367e-02  4.9930692e-02 -3.3261636e-01
  8.3340570e-02 -8.5481383e-02  1.9077723e-01  1.7132743e-01
  2.5507227e-01  2.9261306e-01 -1.8053310e-01  2.3188349e-04
 -1.5966237e-02  1.2581590e-01 -1.7460853e-02 -1.6732854e-01
  2.2954182e-01  3.0966690e-02  9.5694721e-02  1.6824834e-02]
[ 0.34481993  0.3584142  -0.2634705  -0.0077378   0.08188812  0.21741372
  0.01657224  0.2787303   0.14796208  0.09528442  0.28772786 -0.14941072
 -0.19707392 -0.12900816 -0.21368973  0.04892686 -0.14931948 -0.19290489
 -0.18538605  0.25656706]
[ 0.06182559  0.3147913  -0.16837656 -0.15238485  0.10482614 -0.02192963
 -0.16333292 -0.27586243 -0.30694377 -0.02918859 -0.21595506 -0.07207787
 -0.25218746  0.29552194 -0.05922582 -0.12988016 -0.21376601 -0.32339594
 -0.23644666 -0.17890762]
[ 0.17974737  0.06672934  0.31357938 -0.05174217  0.31258678 -0.14676616
  0.06939495  0.00876054  0.02197446 -0.24384838  0.3321012  -0.00900043
  0.3903214  -0.3798838  -0.06595442 -0.06351922 -0.06611437  0.24725682
 -0.15353003 -0.20052019]
[-0.32299086 -0.11606481  0.12617157 -0.27890104 -0.06518628 -0.03535071
 -0.05940709 -0.13520895  0.03392509 -0.14692573  0.34300217 -0.20895702
  0.0295999   0.26708403  0.1083932   0.07191877 -0.25357762 -0.40010324
  0.12751313 -0.0286753 ]
[ 0.19492479 -0.2629465  -0.19743082 -0.49322543 -0.07453062  0.27565667
  0.33048725  0.2192988   0.26416674  0.2538547  -0.17473266 -0.17890738
 -0.27149448 -0.00217717  0.42517403 -0.12188376 -0.18543589  0.3013665
 -0.01805527 -0.11306366]
[ 0.13524373 -0.25111365 -0.14776953  0.17179848 -0.09590367 -0.21889944
  0.29459167  0.3019836   0.28697944  0.07433639  0.1832456  -0.17131953
  0.20882358 -0.12220813  0.10691556 -0.32833466 -0.2733303   0.1591986
 -0.08730034  0.02115801]
[ 0.11527827  0.26196954 -0.2427641  -0.20337026 -0.28717193  0.09018973
  0.03228725 -0.10933293 -0.12084173 -0.292172    0.32133982 -0.2663604
 -0.11227849 -0.05696796  0.3193542  -0.10736851  0.26540577 -0.15907869
 -0.27424654 -0.02115893]
[-0.2902088   0.28139624 -0.37491706 -0.06659166 -0.3132002  -0.26108593
  0.07043911  0.15939383 -0.16465005  0.02391995 -0.13921958 -0.29386136
  0.28670898 -0.09190848 -0.18199208 -0.11128005 -0.20472077 -0.20821168
  0.16122529  0.22929318]
[ 0.17586215  0.09746801  0.21162243  0.29481497  0.45501262  0.21790822
 -0.01041675  0.11891222 -0.24400318  0.10158944 -0.03911192  0.08277013
  0.03375498 -0.2288005   0.02722123 -0.12694345  0.16471115  0.33130378
  0.17592105 -0.04990659]
[-0.1690742  -0.00781841  0.3214063   0.107588    0.18485099  0.2988416
 -0.11762007  0.10143173  0.06780366  0.23496756  0.09822703 -0.07168117
 -0.07085934  0.22319323 -0.17443602 -0.15662844 -0.02827915  0.274849
 -0.06855127  0.05261766]
[ 0.2968729   0.00461523  0.23346157 -0.0714381   0.06362876 -0.03931486
  0.12145767 -0.30917108  0.21084213 -0.09289534 -0.29568598  0.08293532
 -0.13691084 -0.3665472  -0.09489232  0.03620118 -0.05679519 -0.23490629
  0.20190902 -0.09055603]
[ 0.11087234 -0.05008171  0.226548    0.2207867  -0.26547828 -0.15069465
 -0.4695626  -0.2711341   0.0584966  -0.03225699 -0.12606204  0.18592463
 -0.32736865 -0.07290038 -0.24438773 -0.30576655 -0.12156212 -0.17370018
  0.35905036 -0.01165918]
[ 0.39001188 -0.19676092 -0.20471977  0.08172429  0.12670778 -0.18805557
  0.2614144  -0.00143156  0.07903197  0.25422585  0.11317484 -0.308278
 -0.05801722 -0.05135725  0.10484762  0.0703274   0.04690427 -0.15137558
 -0.02652832 -0.04295637]
[ 0.15240066 -0.2580387   0.13604125  0.3108398   0.29230785 -0.38885194
 -0.16619955  0.252572   -0.19386336  0.00823162  0.1321089   0.15302826
  0.07244556  0.22633722 -0.06940632 -0.09136763  0.24112795  0.03215339
 -0.21163957 -0.17170411]
[-0.13848759  0.19733442  0.20633811 -0.03134285 -0.20770533  0.04816869
 -0.15137619 -0.18556364  0.2792963  -0.298674   -0.05659332  0.03708243
 -0.28637785 -0.08878703 -0.02768252 -0.31906173 -0.16321269 -0.4744266
  0.33247533  0.3698799 ]
[ 3.40413690e-01  2.92404771e-01 -3.29869717e-01 -5.93469888e-02
 -3.31922114e-01 -3.71305555e-01 -1.09400086e-01  2.70216137e-01
  1.91022187e-01 -2.57956621e-04  9.03868973e-02 -3.19825023e-01
  1.49205789e-01  3.70820761e-01  4.06630756e-03 -1.77794546e-01
  1.97280690e-01 -2.55447067e-02 -1.56770498e-01 -8.12387317e-02]
[ 0.05637154 -0.01080537 -0.23442663 -0.17198387  0.04071482 -0.34271747
  0.28866816 -0.05551609 -0.27470282  0.2277693  -0.14997916  0.15148021
  0.24361919 -0.19885606 -0.13293256  0.11208387 -0.21296094  0.23052351
  0.09281719 -0.20102285]
[ 0.3038767   0.13940191 -0.31508723 -0.02757682 -0.1999369   0.21663852
  0.33070153  0.125529   -0.1524011  -0.2267258   0.17011833  0.14904666
  0.05644548  0.0819464   0.06532525  0.14552061  0.03447107 -0.16143541
  0.12447678  0.05663764]
[ 0.15208709  0.19229065  0.02355132 -0.20978303  0.08844128 -0.30164403
  0.23622306  0.1880185  -0.01581562  0.06744272  0.250461    0.09199186
  0.14522119  0.32507887 -0.18758114 -0.06344958 -0.04184191 -0.16814469
 -0.28300172  0.23568296]
[ 0.0762365  -0.02499447  0.1606586  -0.05658773  0.39811134  0.04052044
 -0.03156411 -0.30364913 -0.2529987   0.0827431   0.04424685  0.25820372
  0.02406872  0.27623215  0.28433686  0.13728279 -0.14631033  0.1380418
 -0.11771836  0.27688798]
[ 0.02643627 -0.26748085 -0.2129137   0.2050378  -0.07537284 -0.03153951
  0.20749018 -0.24694772  0.20546669 -0.05103212 -0.11433123  0.25041357
  0.16221254  0.22108978 -0.32757148  0.2058971  -0.00690684  0.22842053
  0.06261052 -0.21504223]
[ 0.15159954 -0.01061124  0.32474336 -0.08040599  0.02904997  0.07937893
  0.04985267  0.05694473 -0.23167606 -0.31026372 -0.09759412 -0.2981305
 -0.09661279 -0.2234596   0.253219    0.05159541  0.0979682  -0.07629746
 -0.17370288  0.13115153]
[ 0.12470392  0.07700738  0.09074054  0.17099264  0.13125147  0.11851216
 -0.3115766  -0.06902058 -0.23880592 -0.1920664  -0.19362639  0.01367438
  0.03811534 -0.1177586   0.2736705   0.29112098  0.04955076 -0.00700417
  0.23745184  0.04506936]
[ 0.18699361 -0.04186828 -0.09370311  0.00385779  0.18149899  0.27183905
  0.33700684  0.16150007 -0.06357566 -0.08583353  0.19156204  0.0613819
  0.27069283 -0.1063975  -0.07695904 -0.16724819  0.0322429   0.52323824
 -0.44174546 -0.00857255]
[-0.01207091  0.1375297  -0.23906608 -0.02460242 -0.05172139 -0.4230465
  0.34391442  0.32805273  0.19371869  0.02611562  0.03282403 -0.08001698
  0.3065108   0.28218132  0.08157822  0.11022314 -0.08744108  0.12429884
 -0.3006372  -0.20050284]
[-0.02322197 -0.38319674 -0.23306933 -0.22787727 -0.04978167 -0.13599879
  0.10539667  0.30223998 -0.17818974  0.31812033  0.28553918  0.21742004
 -0.07896308 -0.10392901  0.4229832  -0.06702874 -0.20624441  0.48015425
 -0.29054374  0.18827732]
[-0.23635493 -0.29714283 -0.03680763 -0.10774076 -0.14794175 -0.07064018
  0.18126473  0.10643321 -0.2397186  -0.14614806  0.08161948  0.26489598
  0.21752049 -0.19422342 -0.12165193 -0.346432   -0.20505095  0.31259343
  0.37337583 -0.09091034]
[ 0.24625254  0.13730252  0.20313069 -0.1063631   0.09611733 -0.07354325
 -0.17900541 -0.33789027  0.08397334  0.07594243 -0.3360221   0.12525682
 -0.08903039 -0.26004356  0.29766342 -0.01706241  0.10797865  0.3364495
 -0.07512679  0.00730691]
[ 0.05374449 -0.06941091  0.02997179  0.0308829   0.11244716  0.04117044
  0.06394815  0.02702746 -0.00061117  0.03842549 -0.06588499 -0.02444565
  0.02379026 -0.00835906  0.0355711  -0.0311436   0.04715347  0.07662301
  0.00015341 -0.05916892]
layer 5 Activation
tanh
layer 6 Dense
20 1
[0.12538485]
[0.03953242]
[0.37768134]
[-0.00729424]
[-0.25103173]
[0.34258872]
[0.08843131]
[0.18685107]
[-0.03408417]
[0.23070663]
[0.00725403]
[0.20739765]
[0.42417228]
[-0.09568997]
[0.1855229]
[0.01427013]
[0.02222653]
[-0.17280607]
[-0.12842797]
[-0.33031625]
[0.00274881]
