layers 7
layer 0 Dense
20 20
[-0.0064107   0.48777506 -0.03339021  0.10842003 -0.02364752  0.53782606
 -0.27549133  0.13860856 -0.69721115  0.14034513  0.4644957   0.06768345
 -0.3605608  -0.28553826  0.55128765 -0.36364254  0.33944386 -0.36741173
 -0.6177969   0.10673575]
[-0.1440035  -0.00612395 -0.10791913  0.0614113   0.6582089  -0.41129008
 -0.29361153 -0.751372    0.68926424 -0.0117591  -0.12706909  0.1599395
  0.00841433 -0.21754874  0.6249138  -0.05644671  0.14635101  0.04080531
 -0.29368928  0.39470854]
[-0.44610092  0.5369375   0.05886015  0.42146227  0.41610727 -0.2877801
  0.25585046 -0.7766046   0.10481497 -0.16568989 -0.03732817 -0.31729352
  0.01393849 -0.4526402   0.16699192  0.0229437   0.07014062 -0.65668213
  0.28717425  0.31437305]
[-0.23330373  0.42622447 -0.45904902  0.02601405 -0.01816587  0.6031539
  0.20651276 -0.1410269  -0.3029779   0.0397952   0.41717362 -0.1762449
 -0.2085196   0.01362832  0.36832023  0.04626191  0.31647938 -0.3332611
 -0.24860126 -0.41483086]
[ 0.34094045  0.2579756  -0.5925567  -0.12613778 -0.12781405  0.5132242
 -0.06453221 -0.25071988  0.7455667   0.6872031  -0.3404849   0.00505743
 -0.26732028  0.30386093  0.37172788 -0.23979238  0.07750244  0.0943471
  0.44861457  0.08188185]
[ 0.12547521 -0.25342315 -0.04814039 -0.4225008  -0.48050153  0.4253873
  0.11098873  0.66253656 -0.7860879  -0.370817    0.33735707  0.07283576
  0.5735803  -0.10897411 -0.5321977   0.36029157 -0.48146272  0.09855399
 -0.22963807 -0.6812335 ]
[ 0.12319964 -0.14867537 -0.00105404  0.2336729   0.01470262  0.3855047
  0.36662418  0.4351868  -0.5570724  -0.18054724  0.05570787  0.34320447
  0.37239218  0.20312305 -0.4890747   0.23181042 -0.36936176  0.49387208
  0.19749336 -0.1570203 ]
[-0.57725704 -0.49570563  0.06859811 -0.09949928 -0.72613627 -0.46037573
 -0.09889065 -0.14188775  0.16790444 -0.00360087  0.09546711 -0.18995246
  0.45160183 -0.06180249 -0.5553551  -0.20786814 -0.3299479  -0.08186957
 -0.5156182   0.11546747]
[-0.00423528  0.0178175   0.39970416 -0.01844748 -0.8519089   0.27785656
  0.06417315  0.00707087  0.22219867  0.5466318  -0.47363493 -0.46616253
 -0.5866833   0.10546745  0.21604663  0.31193906 -0.42096844  0.1399008
 -0.9328814   0.23048952]
[ 0.5678517   0.56084114 -0.1012819  -0.47659948 -0.8742143  -0.39801705
 -0.19198312  0.11778048  0.7758539   0.10141446  0.35329735 -0.40894023
 -0.47004274 -0.7686114  -0.32854494  0.7872216  -0.5515488  -0.45846018
  0.38493633 -0.78010285]
[-0.16563675 -0.60918236 -0.90134704 -0.8931447   0.15162994  0.43359336
 -0.33572552 -0.8777599   0.22135642 -0.19102861 -0.03295209  0.5100413
 -0.19098538 -0.08286615  0.22782174  0.56735384  0.5074903  -0.74386865
  0.20982389  0.64361835]
[ 0.09573252 -0.18102027  0.49258098  0.47238886 -0.22053622  0.06624859
  0.718369   -0.49962854 -0.6157722  -0.16263272 -0.709697    0.32335573
 -0.9536476   0.19750552 -0.7706546  -0.54030144  0.11761858  0.39195734
 -0.42993146 -0.11011231]
[ 0.4197227  -0.03962769  0.06199853  0.06839735  0.05380276 -0.37043253
  0.24758796  0.1280118   0.44376954  0.6401908   0.15424623 -0.53982395
 -0.1572931  -0.12545364  0.24320681  0.27016124 -0.26976705 -0.31197968
 -0.30330482  0.26027334]
[ 0.30304202 -0.46559152  0.6095952   0.7275243   0.9400868   0.19844715
  0.59183466  0.84343576 -1.0424278  -0.12847564 -0.1016961   0.47920394
  0.43914378  1.2782874  -0.5564458  -0.69225395  0.10756786 -0.36821622
 -0.00600644  1.0388086 ]
[ 0.8999833  -0.62715316  0.9387847   0.7462287  -0.04948517 -0.00181072
  0.21535514  1.7098718  -0.08431719  0.24628654  0.0455797  -0.27971977
  0.06765892 -0.20883496  0.08783886 -0.5652529  -0.9331422  -0.5318205
 -0.00895222 -0.74579716]
[ 0.17097412  0.7320728   0.02330992 -0.824416    0.7611363  -1.4124607
 -0.10719842 -0.08536903  0.5086451   0.6559101  -0.3449879  -0.64889467
 -0.22558527 -0.36574647  0.09840418  0.7528327   0.05276375  0.11711707
 -0.34972978  0.4079492 ]
[ 0.10788376 -0.77411324 -0.1408175   0.02327304  0.49408075 -0.31105658
 -0.29563215  0.01164669 -0.33018014  0.79470515  0.5541334   0.34005538
 -0.6158991   0.48756713 -0.80531585  0.20539007  0.5166558   0.23236701
  0.75891715 -0.9700587 ]
[-0.29355782 -0.32286942  0.1303237   0.6226963  -0.14104019  0.41239548
 -0.43224654 -0.21897347 -0.1619758   0.05433983  0.07463164 -0.39158943
  0.10568906 -0.00403187  0.79831463 -0.11755785 -0.12039401  0.68600196
  0.23544487 -0.1322934 ]
[-0.54885745  0.87811327  0.4689347   0.54570764  0.03464324 -0.3729363
  0.12893206 -0.47467545 -0.282915   -0.1173448  -0.36748284  0.45108968
  0.24876596  0.24378736 -0.2908332  -0.2790562  -0.19692947  0.0842999
  0.0706037  -0.10660004]
[-1.8183042e-01 -1.7085028e-01  9.9858016e-02  1.5584458e-01
 -8.6596400e-01  9.3111642e-02  2.3580458e-02 -1.3958935e-01
 -5.4630041e-01 -1.4961289e-01  7.7923983e-01  1.3680573e-01
  8.9734703e-01  1.5267710e-02 -4.4475019e-02  1.1924322e-01
 -1.3590290e-01  7.7509426e-04 -6.8621242e-01  5.0961677e-02]
[ 0.10256832  0.23890962 -0.271259   -0.02550113  0.2713139   0.38951686
  0.21012494  0.08248835 -0.08368995 -0.20372176 -0.06435339  0.11364507
 -0.02856259 -0.11839309  0.43993512 -0.0118146   0.10361159 -0.04707809
  0.11206353 -0.10546826]
layer 1 Activation
tanh
layer 2 Dense
20 40
[-0.14585668  0.14218056  0.17773978  0.325182    0.02318294 -0.13166744
 -0.56387043 -0.08713546 -0.44337475  0.03350996  0.41584635 -0.3323201
  0.02825689  0.05751146  0.23949659 -0.07194199 -0.3682539  -0.17859885
  0.32708615  0.0563072   0.05622432  0.7595648   0.70505875 -0.22783282
 -0.09968022  0.06955206  0.26022774 -0.15864314  0.12011391 -0.04915022
 -0.15889952  0.09247818  0.07465208 -0.5864494   0.19904011 -0.31235233
 -0.03182591  0.4763075   0.04572477 -0.6283606 ]
[-0.1443472   0.69717526  0.12446161 -0.02514787  0.31208655  0.22122574
 -0.2470998   0.18226178  0.60170895  0.18161051 -0.29671374  0.0739186
 -0.0121523   0.16296366 -0.2377746   0.19724907  0.16784857  0.1079485
  0.21181671  0.35709023  0.1277653  -0.52939564 -0.11599322 -0.06267984
  0.12027592 -0.09239021 -0.03315212 -0.06352849 -0.36972624  0.84347063
 -0.46102628 -0.15339682  0.02841815 -0.31825215  0.29521236 -0.41450658
  0.47093704  0.22375892  0.03688589 -0.2173941 ]
[ 2.46523440e-01 -1.78607538e-01 -4.88014579e-01 -9.92774367e-02
 -5.30858636e-01  1.67737007e-01 -2.43279323e-01  2.42446244e-01
  2.75611244e-02  4.88473415e-01  5.14170289e-01  9.99677405e-02
  3.36719841e-01 -1.17311947e-01  3.14145625e-01 -1.85352772e-01
 -3.00635368e-01 -2.80184805e-01  2.88550049e-01  2.16163576e-01
 -8.05057168e-01  1.22066796e-01 -5.14708221e-01 -4.46565636e-02
 -8.18454146e-01 -1.35915011e-01  4.17610019e-01  3.41917306e-01
  5.17888889e-02 -6.14775941e-02 -3.69795144e-01  4.40811247e-01
  2.03390747e-01  3.84724230e-01 -2.07775310e-01  1.89415380e-01
 -5.08872449e-01  2.20085874e-01 -2.03711055e-02  2.71415280e-04]
[-0.18583584 -0.6652996   0.40038973 -0.05467003 -0.91607964  0.12828776
  0.20653115  0.51286095 -0.14743847  0.5186915   0.719089   -0.14281493
  0.10882524 -0.16439213 -0.01808902 -0.5269868  -0.33096942 -0.33502212
  0.42486152 -0.33284786 -0.5184296   0.5383143  -0.6324317   0.6668428
 -0.5344032  -0.15147339  0.34497708  0.3552179  -0.13762726 -0.0521114
 -0.4478528   0.3575788   0.22361645  0.41177994  0.02715561 -0.02995981
 -0.7724401  -0.14320067  0.3194967   0.34517452]
[ 0.03850928 -0.87086457  0.6058051   0.4016283   0.3246545   0.38990006
 -0.26510173  0.14861664  0.4628723   0.18553482  0.2752993  -0.19412145
  0.29447562 -0.17039539 -0.10403265 -0.8177577   0.09255609 -0.1936011
 -0.10569245 -0.2676195   0.32560536 -0.25896952 -0.00129116 -0.19778788
 -0.17560752 -0.206383    0.23250386 -0.13622795 -0.03323501 -0.02881795
  0.2236172   0.31973755  0.15798928  0.00597902 -0.23245066  0.07878995
 -0.80151975 -0.4534521   0.29428104 -0.65178466]
[ 0.12215633  0.06350052  0.10810395 -0.04169964 -0.14721449  0.08615693
  0.14043105 -0.28124693  0.48045927 -0.17398584  0.32429683  0.26865363
 -0.46931893 -0.2388065   0.07795867 -0.64206505 -0.06423866 -0.17336984
 -0.15273063 -0.20874923  0.44491896  0.12861787 -0.31152695  0.2828403
  0.12178458 -0.25034955 -0.48088136 -0.29664314 -0.17119528  0.12784064
  0.11509819 -0.06937789 -0.12557752 -0.810834    0.0610422  -0.07225268
 -0.12721117  0.16129056  0.06050484  0.33784655]
[ 0.07457529 -0.12651592  0.1419251  -0.11079426 -0.14848314  0.01742542
  0.2595628   0.37488222  0.25669554  0.38334176  0.04365179  0.15571019
 -0.25197262  0.17911449  0.2417767   0.05082167  0.11661541 -0.19242513
  0.06767114 -0.13999328 -0.39763492  0.25252038 -0.36900488 -0.05519672
 -0.1376039   0.24989586  0.11938284  0.0022467  -0.18828224  0.41382733
  0.00498057  0.0386944  -0.0557118  -0.13879624  0.08804434 -0.17028527
 -0.03353827  0.29303148  0.22807617 -0.2789856 ]
[-0.22360837  0.07209927  0.17670798  0.13981141 -0.8709432   0.1532944
  0.32399943  0.05264485 -0.25151798  0.13320851  0.2919006  -0.30908725
 -0.17395702  0.03399682 -0.20425893 -0.36610788 -0.4346123  -0.1360707
  0.57212144 -0.11842281 -0.7162357   1.1903726  -0.556757   -0.66607594
 -0.44298655 -0.16241834  0.2033095   0.5311074   0.28891072 -0.03708557
 -0.76301485  0.61356074  0.12549624 -0.6005055   0.34788612 -0.46078652
 -0.48576188  0.33065942  0.3507515  -0.25903773]
[-0.11532129  0.74855095 -0.10191889 -0.4888466  -0.07983028  0.23509498
  0.37170574 -0.01937     0.18145803 -0.04978736 -0.03265213  0.01628823
  0.08819362  0.12712486  0.1969366   0.44457144 -0.08020639  0.40679097
  0.11974454 -0.14327255 -0.04146774  0.15339369  0.18703182 -0.6404681
  0.14835536 -0.13238135 -0.26828527 -0.35358125 -0.06904599 -0.05691971
 -0.14988409  0.21233925 -0.2606205   0.11031175  0.1430778  -0.292238
  0.5300406   0.2411593   0.08942886  0.06223773]
[-0.18063657 -0.05219759 -0.04855723 -0.03495295 -0.11272535 -0.16802514
  0.30699706 -0.47691968  0.03779389  0.18240362 -0.4043716   0.3184926
  0.15864213  0.10301866 -0.15713549 -0.50128466  0.15048163 -0.04061349
  0.26546493 -0.5815309   0.1141296  -0.26322255 -0.02722342 -0.5220728
  0.06338323 -0.25753555 -0.05648375 -0.4075471   0.3401111   0.07302849
 -0.64867777 -0.2837748  -0.07180625  0.09033041  0.23357162 -0.25946486
  0.08361057  0.18354253  0.00902854 -0.23152636]
[-0.13876356  0.03955575  0.32009396 -0.16091388  0.37499076  0.1375577
  0.1278021   0.22412562  0.12804505  0.27773985  0.04293926  0.21096556
  0.37187797 -0.05246232 -0.3034602  -0.02370136 -0.2057391  -0.43023187
 -0.00407576  0.2834529   0.32889804 -0.12318943  0.2018075   0.9710263
  0.20221797 -0.06642943  0.54164535  0.06367707  0.4488407  -0.04312799
 -0.07144777  0.16037172 -0.15163629 -0.17978358  0.05673825  0.2689292
  0.03538993  0.21566267  0.03190311  0.40896073]
[-4.9723089e-01 -2.8378701e-01  2.4561095e-01 -2.4350032e-01
 -1.0220002e-01  5.4389078e-02  2.4817380e-01  2.2201748e-01
  2.9790789e-01  2.4136946e-01 -1.4470783e-01  2.3157677e-01
  9.6623898e-02 -2.3104635e-01  3.5043348e-02  4.3021183e-02
 -3.5508174e-02  2.2667487e-01  1.8845988e-02 -8.3663613e-03
 -9.4242275e-02  2.0473294e-01  2.0005800e-01 -2.5227442e-01
 -4.4693708e-02 -8.3753049e-02 -4.4811821e-01  2.4863419e-01
  8.7907523e-02  2.3416130e-01  5.3563845e-01  8.4288098e-02
 -1.4536896e-01 -4.1014969e-04  1.9301443e-01 -5.3493287e-03
  7.3549412e-02 -9.3437709e-02  4.4819787e-02  2.9933253e-01]
[-0.15630363 -0.2502528   0.04782858 -0.14441599 -0.06260789 -0.2659514
  0.3796837   0.2178705   0.04203366  0.36095163 -0.2611538  -0.05817048
 -0.22921792  0.11055832  0.02198431  0.44260997 -0.15204005  0.08275719
  0.35783672  0.01820523 -0.16483995  0.02004704  0.05319157 -0.08483036
  0.01179983 -0.18256308 -0.21931887 -0.11317147  0.2548509   0.02199424
 -0.01749221 -0.01959899 -0.11496135  0.08920398 -0.024555   -0.1884153
  0.21334936  0.40495804  0.19146335  0.6313813 ]
[ 0.14768714 -0.7058153   0.366779   -0.11292639 -0.1529696   0.01451523
  0.37719238 -0.26513535 -0.02356663  0.4023982   0.41066036  0.1560717
 -0.00693595 -0.11973215 -0.03919854 -0.53226405  0.04380554  0.10019424
  0.09967689 -0.96414137 -0.06216858 -0.20745258 -0.22491938 -0.33481
 -0.09162965 -0.12515399 -0.15955229  0.1330125  -0.15894935  0.31084242
  0.19527848  0.11490711 -0.08961522  0.20195386  0.34988648 -0.12236923
 -0.5701707  -0.29371276  0.12937254  0.04547504]
[-0.11934946  0.33160153  0.27843183 -0.30329737 -0.23805302 -0.05350814
 -0.09608478 -0.47778052  0.05238524 -0.01505824 -0.3372909   0.35843045
 -1.1806934   0.05601263 -0.00654299  0.05222853  0.12042912  0.312796
  0.13472578  0.17051898  0.34079295  0.07307335 -0.99723756  0.13063528
  0.55303544 -0.10492097 -0.17715755 -0.02808341 -0.60140944  0.06562285
 -0.5093852  -0.00486293  0.0787928  -0.51637876  0.02321894 -0.46126628
  0.15861566 -0.08666518  0.18672203  0.23711294]
[-0.14692135  0.5857316  -0.4864783  -0.25188044  0.5842641  -0.12687501
 -0.22908235 -0.14726925  0.18374017 -0.28183272 -0.6987569   0.23592192
  0.11583899 -0.09428561 -0.15928824  0.26011762  0.09909634  0.220886
  0.00710276  0.19980912  0.32725456 -0.55917335  0.620869   -0.23455799
  0.14869522  0.02147535  0.10197222 -0.20454632  0.12210732 -0.21232548
  0.24382654 -0.3281155  -0.26083535  0.28397563 -0.16347499  0.16958506
  0.56165427 -0.26467526  0.06851514 -0.29959366]
[-0.20690067 -0.5014552   0.27879992  0.22005653  0.31547523 -0.2919125
 -0.02168614 -0.17240201  0.41014883 -0.5010728   0.15674064  0.15857095
 -0.09604874 -0.10544194 -0.18344958 -0.34298167  0.18115887  0.24546619
 -0.25229803  0.10958686  0.12011703 -0.03566658  0.12010545  0.16598462
  0.07229005  0.05701735  0.16859068 -0.27311882  0.05014161  0.17300764
  0.6371593  -0.04105042 -0.00849449 -0.12825683  0.04323399  0.08152384
  0.15446462 -0.58396256 -0.30450523 -0.25834417]
[-0.17435342 -0.01994013  0.11563934 -0.05172623  0.14039917  0.20718873
  0.37397563  0.10058464 -0.16648272 -0.03833187 -0.1410075   0.07833128
 -0.10621029 -0.09478802  0.17728929  0.15100184 -0.6040679  -0.32702616
  0.33183143 -0.07803964  0.4420701   0.26017964 -0.05410939 -0.20363803
  0.42772594 -0.09043961  0.1658975  -0.28629255 -0.16088307 -0.3353517
 -0.02054492  0.37914497 -0.24624039  0.29954693  0.15081804 -0.07109583
 -0.1836303   0.0175635  -0.22341599 -0.21550708]
[ 0.06656644 -0.2932871   0.4877598   0.35399988  0.66091204  0.00744672
 -0.47712418  0.1812172  -0.13657257  0.06784619  0.20481145  0.32042873
 -0.01919693 -0.24438109 -0.17883404  0.07911583  0.07269126 -0.10855345
 -0.15527037  0.57504237 -0.08376765 -0.06017102  0.4534453  -0.66859794
  0.18783087 -0.03022087  0.17892298  0.03171366  0.32532576  0.059869
  0.5155092   0.1316994  -0.21481095  0.4699638   0.23035678 -0.13795815
 -0.44636834 -0.11409493 -0.01451968 -0.58278185]
[-0.05113774  0.15770513  0.23247695  0.1117438  -0.15424019 -0.02683975
  0.7586803  -0.17138162  0.07608716 -0.19646765 -0.22193255 -0.07969805
  0.30528006  0.20548643 -0.49250674  0.08065717  0.2865004   0.25630316
 -0.2227706  -0.9895593   0.22358932 -0.5197924  -0.6514132  -0.2782743
 -0.114378    0.05500908 -0.79442966  0.07589095  0.14777361  0.03283396
 -0.06989276 -0.7545905   0.33427605 -0.3470859  -0.0672048  -0.1062671
  0.30941033 -0.25915936  0.233131    0.7416164 ]
[-0.07465122 -0.23194082  0.34774756  0.12001067  0.23115106  0.08348874
 -0.34166667 -0.1580442   0.28139463  0.04776578  0.2033535  -0.05122215
 -0.34502408 -0.07988403 -0.08712699 -0.19349675 -0.09885268 -0.05796177
 -0.17953384  0.30170614  0.16797754  0.02412924  0.02913006  0.30293542
 -0.0008575   0.02071509  0.27223226 -0.07958586 -0.2211494   0.58489
  0.3126035   0.2027082   0.04551811 -0.29904616  0.08078275 -0.06156664
 -0.08473232 -0.09998325 -0.0089137  -0.23609899]
layer 3 Activation
tanh
layer 4 Dense
40 20
[-0.08302663  0.02590787  0.02883598  0.29876462 -0.06681845 -0.1161761
 -0.2758873  -0.19262217 -0.10558762 -0.23865095  0.15549506  0.23622806
  0.22043529  0.16863559 -0.09036907  0.14900783 -0.19591331 -0.33641425
 -0.32462364  0.17713481]
[ 0.2286528  -0.8470161   0.7306577  -0.6435622   0.14223443  0.00197097
 -0.26395425  0.00146438 -0.54863274 -0.05370518  0.0455976  -0.49229082
 -0.14880839 -0.25710213 -0.1254872  -0.32962903  0.05812744 -0.21622579
  0.12250241 -0.2494333 ]
[-0.43277788  0.44226143 -0.10108884  0.41131747 -0.35918096  0.17752516
  0.23119679 -0.30826846 -0.09935429 -0.10679992 -0.45668572  0.10583434
 -0.0370247  -0.14960247  0.38078365  0.35214213  0.16319318  0.16395749
 -0.10377837  0.38181353]
[-0.33089003  0.11952636 -0.12292792 -0.01348136 -0.2275741   0.19108611
  0.05077977 -0.16968128  0.17516537  0.02308272  0.06909705  0.11411572
 -0.06441008 -0.35082027  0.42043096 -0.00201441  0.134018    0.37662134
  0.04996731 -0.10396369]
[-0.22027783 -0.19301493 -0.34934226 -0.20742367 -0.2272595  -0.14837685
 -0.17844011  0.23590085 -0.37031478 -0.22962025  0.12224784 -0.17523023
 -0.18487778  0.24488626  0.22569835  0.05285203 -0.00632283 -0.28305483
  0.12498011 -0.38837388]
[-0.22541627  0.14597198  0.08726937  0.414203   -0.08580966 -0.12816313
 -0.2263358  -0.18570551 -0.05320838 -0.03298268 -0.12906626  0.16280988
 -0.12926771  0.15349035  0.11500102  0.16497321 -0.18157907 -0.18997148
 -0.16576584 -0.17275819]
[ 0.04243688  0.0316674  -0.10979056  0.12400019  0.51773715  0.01713623
  0.09902547 -0.06414416 -0.20509343  0.12991036  0.11094047 -0.18729247
  0.3764549  -0.26150888 -0.34010342 -0.06553093 -0.12005217  0.1380574
 -0.18003389  0.01007771]
[ 0.20350243  0.22689147  0.13985837  0.31982806  0.05236511  0.32845667
 -0.22324719  0.04479303  0.30056143  0.16206358  0.30073792  0.0771496
  0.13386641  0.12089333 -0.19960436  0.26806244  0.2258853  -0.07258734
 -0.05309236  0.17802292]
[ 0.1231707   0.05045893 -0.13712525 -0.30927467 -0.35172778 -0.20956264
 -0.3261851  -0.2398116  -0.19189432 -0.18521224 -0.34459877 -0.19585437
 -0.3042376  -0.31007683 -0.04257887 -0.04885781  0.00081569  0.22169012
  0.05130731 -0.25873512]
[-0.30701405  0.21894287  0.05553114  0.0623333  -0.3289267  -0.05202786
 -0.42855808  0.17697057  0.21072105  0.1994078   0.08045624  0.04537677
 -0.1771797   0.0166724   0.40225044  0.22194968  0.02902743  0.00453532
 -0.28025112  0.1950042 ]
[ 1.21335246e-01  3.99619341e-04 -3.71745557e-01  7.45104432e-01
 -3.51568460e-01  4.40974325e-01  2.63491124e-01 -3.32170688e-02
  4.32597995e-01  3.74478191e-01 -1.03339590e-01  1.09168664e-01
  2.61390269e-01  7.47702569e-02  3.31235796e-01  9.68095148e-04
 -1.13524146e-01  1.62365437e-01 -3.17005754e-01  2.08566375e-02]
[ 0.20501384  0.02541826  0.07641187 -0.3843875  -0.12205852  0.05894782
 -0.26846159  0.17092247 -0.07797896 -0.1386975  -0.08457297 -0.1571643
 -0.20295301 -0.1117212  -0.05770294 -0.04589565 -0.11489639 -0.27793452
  0.22529942 -0.30805954]
[-0.23722206  0.04517617 -0.21604069 -0.1524809   0.3207132   0.2574226
  0.31137118 -0.08904101  0.17512769  0.08978441  0.40682197 -0.00222301
  0.31931493 -0.18325004 -0.3262603   0.11743665  0.22938994 -0.00143286
 -0.11811613  0.02934828]
[ 0.02350762  0.25404128  0.07039692  0.22096853 -0.16051649 -0.25337657
 -0.13448592  0.16834822 -0.17760201 -0.05698554  0.18710808  0.32523602
  0.17903939  0.045343    0.27529553 -0.02318862  0.24966079  0.06025155
 -0.28231287 -0.06634842]
[ 0.20825931 -0.23339163  0.12919748  0.20747723  0.06628518  0.06460386
 -0.01879959 -0.00979738  0.22929515 -0.06456032  0.15819533 -0.15917663
  0.22372949  0.4282966  -0.14315026  0.03492272 -0.1338394  -0.06402595
 -0.08366736 -0.08944528]
[ 0.09872105 -0.25153318  0.2228173  -0.5763428   0.32479054  0.07378142
 -0.07475567 -0.01114988  0.19435056 -0.00763987 -0.08007842 -0.19839664
  0.41487387 -0.21033336 -0.2509753   0.17338592 -0.15326573 -0.12421593
  0.25576356  0.03661111]
[ 0.10061417 -0.30572203 -0.19728242 -0.2567126  -0.22067286 -0.32858443
 -0.16129634  0.08389555 -0.10226306 -0.07600554  0.1969635  -0.19853114
 -0.4176255  -0.45904365 -0.05321042 -0.20195048 -0.30357906  0.23199897
  0.22076595 -0.22484435]
[ 0.2598674  -0.27045083  0.0619413  -0.51124346  0.11011735 -0.00496698
 -0.10182266  0.05227162 -0.07585021 -0.13032296  0.15235673 -0.14299615
 -0.17019425 -0.23234512 -0.14068802 -0.16955271 -0.37679     0.10089094
  0.07901078 -0.22563098]
[-0.359098    0.12254772  0.43016607  0.06450638  0.316488    0.2731915
 -0.04710238  0.0297906   0.1868778   0.31062305  0.05472154 -0.00322374
  0.34006393  0.20497769 -0.13622735  0.18534876  0.0457803  -0.0472887
 -0.0403045   0.24233676]
[-0.3701854  -0.2466677   0.1747771   0.47472957 -0.25371855  0.08497832
 -0.15893583  0.30713284 -0.09112503 -0.41222626 -0.06099503  0.03103454
  0.07009178  0.5183587  -0.10289157 -0.21186107 -0.17897706  0.09485804
  0.15985453  0.05182573]
[ 0.1280134  -0.2507084  -0.28825155 -0.04131983 -0.22444427 -0.23980656
  0.1745227  -0.05395627 -0.38871598 -0.16739886 -0.42063767 -0.03225409
 -0.20261504 -0.12658843  0.05241594 -0.39000204 -0.21295461  0.17893305
  0.05695759 -0.10233822]
[-0.1923026   0.27810735  0.27370375  0.17160189  0.0020326   0.08336358
  0.11724772  0.2431263   0.25374156  0.3472198  -0.20467311  0.47957516
 -0.03707119  0.13143086 -0.03068698  0.10103689  0.04313507 -0.2131109
 -0.13315995  0.125192  ]
[-0.13946423  0.2552416  -0.17234462  0.03928557  0.31722525 -0.06833664
  0.09849404  0.59168154  0.23083486 -0.38023347  0.3671096  -0.09933613
  0.1835513   0.26633707  0.34125012 -0.43804088 -0.11556299 -0.13244179
 -0.0244706  -0.29203257]
[ 0.11422806  0.01419344 -0.18954135  0.4492702  -0.20125179  0.06514909
  0.08625587  0.26098588  0.33888257 -0.434873   -0.10628658  0.21951151
  0.13204888  0.21253526  0.40894634 -0.08265704  0.11420393  0.21637467
 -0.09352808 -0.07356396]
[ 0.21018277 -0.17174453 -0.06774752 -0.50442135  0.08443975 -0.20370975
 -0.16773982  0.16213922 -0.26805636 -0.24864464 -0.23424159 -0.34736282
 -0.62362635  0.39432475 -0.124975   -0.12890942 -0.20932257 -0.06213529
  0.45876056 -0.08767086]
[ 0.21194212  0.1040016  -0.00779295 -0.20629032 -0.05543222 -0.2412298
 -0.03512793  0.15451242  0.06133664 -0.11684346 -0.06415596  0.06123504
  0.19557351  0.05799896  0.10172951  0.16255172  0.21417135 -0.12628905
 -0.2024075  -0.16448742]
[-0.35754243  0.20448162  0.1501553   0.17023873 -0.2481425   0.02436114
 -0.21347575  0.36234474  0.45120513 -0.11660719 -0.25029147  0.28965187
  0.15391298  0.21480377  0.06214363 -0.05140987 -0.06914476 -0.05117742
 -0.0720797   0.288366  ]
[ 0.15488508  0.5321729   0.15897836  0.18972614  0.08810841  0.11049519
 -0.01065723 -0.06608723  0.3082049   0.21247512  0.12266251  0.21461016
  0.16167915  0.10024482 -0.04062079  0.22607134 -0.08831743 -0.28461125
 -0.5177696   0.31892002]
[-0.28341183  0.15760157 -0.00109876 -0.23069696  0.06799086  0.18581061
  0.39374402  0.25349274 -0.0984935   0.02725209  0.1882966   0.20548049
  0.5586301  -0.13188958  0.12830436  0.08267474  0.34304756 -0.42960083
  0.40015805  0.14948499]
[-0.24524893 -0.12065315  0.03279839  0.10238605 -0.49162474  0.04158784
 -0.35438773  0.05687245 -0.06464072  0.09635735 -0.2054816   0.07933909
 -0.11310311 -0.38270727  0.6148118  -0.12334255  0.16229087 -0.16535065
 -0.01873265 -0.22746794]
[ 0.24594182  0.45954934 -0.265602   -0.03670726 -0.10363821 -0.15373757
  0.09581663  0.3506096   0.14018187 -0.45216247 -0.201721    0.00818944
 -0.21676691 -0.2835079   0.40500358 -0.25256622  0.09030809 -0.5523954
 -0.14772983 -0.23507257]
[-0.4129386   0.04521975  0.18171957  0.2693853  -0.21872298  0.25533453
 -0.19896367  0.01689588  0.24933177  0.08571113 -0.1427369   0.24548997
  0.04853752  0.38571516  0.23616134  0.4216227   0.06778146 -0.261258
 -0.03800952 -0.0820137 ]
[ 0.14299494  0.38617975 -0.15930173  0.0140059  -0.17550434  0.10796621
 -0.3139324  -0.2698484   0.12748314  0.11254808 -0.03141667 -0.03676184
  0.32294545  0.0148578  -0.05126894  0.02900938  0.25343344  0.24814065
 -0.37144706  0.35700154]
[-0.06046842  0.47784334  0.08548494  0.29288784  0.18231535  0.0798757
 -0.15735102 -0.18907416  0.04144346 -0.2770454   0.5936924   0.18058228
 -0.22292186  0.30349833 -0.2773145   0.09342223 -0.14134593 -0.31297764
  0.10834657  0.08308185]
[-0.21436836 -0.33662578  0.01698862  0.02463922 -0.03767565  0.11794692
  0.0820943   0.14674728  0.12870516  0.24989398 -0.22089404 -0.04261698
  0.03386992 -0.3009762   0.08041343 -0.00612945 -0.24578753  0.26325652
  0.11959296 -0.04031007]
[ 0.05042199  0.07816917 -0.23040362 -0.1847436   0.14569406  0.04064229
  0.04331267  0.25379723  0.1595057  -0.13710774  0.47580323 -0.15220805
 -0.31440046  0.10354607  0.3520159  -0.09437805 -0.02247988  0.11716708
  0.06921519  0.33881035]
[ 0.42094114 -0.10095567  0.39262214 -0.89937156  0.12391997  0.16577482
  0.00294396  0.18702242 -0.47290155 -0.41027278 -0.17843169 -0.28453988
  0.05202734 -0.3327612  -0.01198479  0.10423722 -0.1997167  -0.0060575
  0.3690889  -0.30516732]
[-0.29042476 -0.1462369   0.28321925 -0.08382606  0.18276045 -0.17570056
  0.07645912  0.27888387 -0.11462811  0.26595283 -0.25615156  0.32515773
  0.35070893  0.39158344 -0.42014223  0.31178567 -0.19001138  0.3396031
 -0.03887481  0.18590008]
[-0.09137637  0.09080945 -0.0247845   0.11417805  0.06598908  0.13702984
  0.12528512 -0.04726871  0.15937784  0.29816362  0.01604094  0.12269273
  0.16787551 -0.1423139  -0.19448642  0.13308637 -0.08916132  0.10090902
 -0.24913135 -0.02993914]
[ 0.38204724 -0.42396292  0.07409351  0.00314644  0.07551982  0.24703062
 -0.00496717 -0.32157457  0.01386097  0.44461915  0.00155266 -0.11817935
  0.0119031  -0.4960477  -0.29367676 -0.01012847  0.05436504 -0.09714311
  0.20206583  0.10949747]
[-0.09277597  0.011616   -0.00970841  0.16538619 -0.22851591 -0.00482541
 -0.10725923  0.00569427  0.06311657 -0.11257516 -0.23933509 -0.09797496
 -0.12903126  0.07525676  0.24209382  0.00085059 -0.03560479  0.053171
 -0.19324596 -0.14438206]
layer 5 Activation
tanh
layer 6 Dense
20 1
[-0.07996102]
[0.04697948]
[-0.18188925]
[0.04427388]
[-0.2459842]
[-0.02984529]
[0.02385323]
[0.06489959]
[0.13604738]
[-0.18427943]
[0.16938446]
[-0.02214689]
[-0.03817328]
[0.1136726]
[-0.11760676]
[-0.05755381]
[0.00556096]
[-0.01906041]
[-0.00220192]
[0.0296138]
[0.02903504]
