layers 7
layer 0 Dense
20 20
[ 0.34238315  0.46414655  0.42684525 -0.43598807 -0.2956824  -0.50213706
  0.10463757  0.35988998  0.13917178  0.31689137 -0.30587    -0.04134659
  0.37901062  0.1402147   0.06894863 -0.00730583 -0.01216753 -0.16767623
 -0.27385107 -0.14063859]
[-0.33682042 -0.14257325 -0.17706399 -0.26107123 -0.00574659  0.29642668
  0.25389513  0.68302643  0.3113759  -0.03420569 -0.15642779 -0.26116645
  0.12037352  0.08238803 -0.09537744  0.24262048  0.22380967  0.11447369
 -0.13967675 -0.371741  ]
[-0.3168953   0.25359327 -0.56178194  0.0228276  -0.12943456  0.6469069
 -0.3461175   0.80657905  0.02621763 -0.46564686  0.08279433 -0.11658859
  0.18977243  0.11188702  0.4380606   0.43427968 -0.14481655  0.07725514
  0.09918798 -0.34389767]
[ 0.4348425   0.3060206   0.14279073 -0.2591346   0.05612604 -0.4609626
 -0.2975271   0.2371656   0.01413795  0.24107815 -0.35474178 -0.11624616
 -0.16212407 -0.33266044  0.01707723 -0.14272508  0.02990111  0.27799705
  0.11721233  0.35483095]
[ 0.14666314  0.20537707  0.23172255  0.05360258 -0.06761423 -0.33982757
 -0.37111443 -0.15216857  0.30059874 -0.25054553  0.3490195  -0.04226336
 -0.3761808   0.15019105  0.20676428 -0.04700458  0.10819833  0.22874717
 -0.15894967  0.17251264]
[-0.09026736 -0.21897481  0.4327754   0.12624016 -0.04389849 -0.51958185
  0.45107165 -0.52911705 -0.3618854   0.1960391  -0.22954708 -0.34445757
  0.45061755  0.36692092  0.13809822  0.21623631 -0.26959383  0.04872574
  0.47510624  0.0302287 ]
[ 0.41035056  0.10194322  0.02206342  0.4973402   0.18396205 -0.4281839
  0.35142294 -0.53786963 -0.29444608  0.5680844  -0.25275323  0.28954548
  0.16448514  0.39451396  0.1457281  -0.01940067 -0.426379   -0.26682287
  0.15004088  0.27526358]
[-0.15370306 -0.17327592  0.18747765  0.4406925  -0.34053314 -0.14015758
  0.15926568 -0.5109977   0.20400207  0.2967666  -0.07234257 -0.14164507
  0.3399109  -0.19601986  0.03491906 -0.3384016   0.17267302 -0.09646539
  0.04466937 -0.38324574]
[-0.18302098 -0.04146401  0.39664537 -0.21892856  0.39109206 -0.80152506
  0.24692602 -0.15653175 -0.16238137 -0.10570202 -0.20597534  0.24094327
  0.3653183  -0.5672014  -0.32415363 -0.18470158 -0.381891    0.4817175
  0.42421925 -0.84991115]
[ 0.30902803  0.51804113 -0.60617036  0.4317136   0.3074378  -0.08961265
  0.7176328   0.12254394 -0.11849316 -0.38671306  0.7310521   0.3035013
 -0.44733295  0.3864126  -0.68293226 -1.3830079   0.40865356  0.22148404
  0.43606693 -0.22816858]
[-0.6531717  -0.3230815  -0.7561651   0.22400743 -0.40393704 -0.53797966
 -0.00322032  0.66288656 -0.5453643   0.08265853 -0.26662257  0.41998193
 -0.5423883   0.9859762  -0.5447944   0.9194703   0.7573842  -0.42967966
 -0.2962558  -0.55793446]
[ 0.42422384 -0.29519495  0.08762938  0.40118033  0.16707945 -0.1777486
 -0.5960797  -0.10345669  0.41196924  0.35576636 -0.15748957  0.01870372
  0.26848766  0.16851252  0.36787766 -0.16598922 -0.31333676 -0.3060714
 -0.4253994  -0.04269479]
[-0.3758219  -0.08430525 -0.07226819 -0.2842699   0.13617703 -0.4980249
  0.32157695  0.10264657 -0.5140596   0.28110263  0.47968408  0.15528756
  0.2829162   0.08620039  0.316307    0.12076852 -0.18111193  0.16327016
  0.2560522  -0.5782516 ]
[-0.35729814  0.34887075  0.52364427  0.5913553  -0.12855268  0.19851373
 -0.28295502 -0.46151972  0.7375159  -0.1396613  -0.22638108 -0.4756376
  0.25436524 -0.00321759  1.2506416   1.0662308   0.10469555  0.63296545
 -0.06142455  0.86383617]
[ 0.80935687  0.2629316   0.32512558 -0.36103135  0.27544644  0.02907996
  0.0834997   0.0595554   0.6872173  -0.14007038  0.36373544  0.52936244
 -0.28387937 -0.63986343 -0.41113326  0.15463765 -0.45721465  0.6094871
  1.0632994   0.33203846]
[-0.2047767  -0.5982949  -0.04130503  0.2640708  -0.79291815 -0.6052806
 -0.03393887 -0.47159967 -0.4593354   0.3526722   0.7347423   0.5338123
 -0.3440827  -0.05099705 -0.41965857 -0.07277136  0.41265225 -0.10572999
 -0.21271062 -0.2601161 ]
[ 0.7932659  -0.314787   -0.07444962  0.45597544 -0.06479006 -0.2662782
 -0.34161773 -0.33115587  0.21067642  0.27969435 -0.19346948 -0.04409894
 -0.5835866  -0.07429452  0.14461187  0.45869702  0.49021572 -0.43268418
 -0.39757392 -0.40118524]
[-0.0358863  -0.7235673   0.10951402 -0.67644423  0.21674436 -0.3487767
  0.17065164 -0.17069638 -0.0726802  -0.10503867  0.04577785  0.30512318
  0.00761221 -0.06336942 -0.08251687 -0.2344789   0.27926293  0.17728002
 -0.31089675  0.24743076]
[ 0.26303917  0.29898408 -0.10042936 -0.1759931   0.2154294   0.0397381
 -0.07409035 -0.6823676   0.02361059  0.4434613  -0.23060532 -0.07786962
 -0.09681742  0.1050811   0.16559772 -0.672675   -0.11502004 -0.08841629
  0.00119857 -0.16363016]
[ 0.2368206  -0.31831485 -0.3905331   0.26552275  0.16658744  0.4426151
  0.30652884 -0.30982387 -0.27732494  0.4214369  -0.28059226  0.15641277
  0.81929284  0.00829658 -0.16645941  0.25151917 -0.10478488 -0.07035626
 -0.03736501 -0.42346776]
[-0.02396509  0.2019596   0.13637146 -0.20219496  0.0785282   0.03187212
 -0.17167844  0.2232405   0.03594049 -0.10784836 -0.12301805 -0.09664812
 -0.02279095 -0.01531263 -0.08536589  0.11581538  0.12161918  0.02734869
  0.05799728  0.16714399]
layer 1 Activation
tanh
layer 2 Dense
20 40
[-0.11305346  0.01459903 -0.5393639   0.20006034 -0.14154616 -0.36814535
  0.03363067 -0.3045824   0.13106821  0.19891219 -0.31417426 -0.36581424
  0.03545073  0.20359457  0.31096467  0.41305107  0.60644096  0.06829626
 -0.46914014  0.30160257 -0.49623477  0.24301422  0.05786724 -0.07464293
  0.0090728  -0.09499653 -0.29081547  0.5187352  -0.38698447  0.42386714
  0.09195062 -0.06680885  0.13475879 -0.16044326  0.24345927  0.19145434
  0.06359284  0.2737071  -0.49614602  0.22328115]
[ 0.11880055 -0.42226008  0.29240665  0.13000971 -0.27461156  0.3694729
  0.18875684 -0.33139235  0.03770804  0.21280198 -0.15518136  0.5746213
 -0.21760814 -0.11416751 -0.1721764  -0.46726578  0.33434072  0.06914808
  0.13884962  0.310892    0.29058966 -0.20088166  0.17802928  0.35702723
  0.10108384  0.14182886 -0.31746218 -0.27372628  0.4520393   0.05183844
  0.11939607  0.24898428  0.16900802  0.3793935  -0.03868398 -0.13353412
 -0.41450694 -0.13056713 -0.35109267  0.05492191]
[-0.34926787  0.07422399  0.43458584  0.53273124 -0.00116246  0.17885712
  0.03753255 -0.25175953 -0.6566534  -0.12808207 -0.43400523 -0.3723842
  0.34083563  0.17726299 -0.1472186  -0.29906526  0.11345578  0.06301258
  0.12412404 -0.18816592 -0.20266344 -0.18841062  0.20921263  0.0095134
 -0.30594617 -0.22651893 -0.10675142  0.08317564 -0.05588036 -0.03977355
 -0.08547439  0.1962172   0.11898058 -0.13408004  0.21364333 -0.01268301
 -0.32388526  0.26129264 -0.260539    0.10089364]
[-0.32756457  0.65800965  0.15085158 -0.23552261  0.1860516  -0.35797894
 -0.19013557 -0.08015405  0.1692654  -0.1432192  -0.1434336  -0.43095064
  0.00213052 -0.21173292  0.44984913  0.13861842  0.20391865 -0.32056576
 -0.09495265 -0.22687054  0.1931751   0.10021671 -0.36097816 -0.20684126
  0.43872064  0.45546877  0.01322485  0.2072295   0.11424895  0.07771837
  0.16743982  0.02073289  0.02694221 -0.5681758   0.11111795  0.02078816
  0.15767951  0.03464422  0.46055976 -0.25807688]
[ 0.1621479  -0.04387044 -0.03786782  0.21815316  0.06094387  0.19154592
  0.23693994  0.39628637 -0.4055806   0.10157257  0.33004284  0.02394358
  0.15331174  0.01013749 -0.11069377 -0.13331313 -0.03065829  0.42886245
 -0.0720458   0.3556708  -0.23287326 -0.07615674  0.07265616  0.10433087
 -0.06423448 -0.20218097  0.13996504  0.34439975 -0.1491251   0.24266654
  0.02608867  0.1718829  -0.09234513  0.15580145  0.0826662  -0.26917225
 -0.11665715 -0.18612264 -0.02572148  0.20668037]
[-0.25410196 -0.06828514 -0.46349895  0.08754622 -0.01071269  0.3354695
  0.17383887 -0.06547885 -0.0185078  -0.12434155 -0.23000531 -0.319839
 -0.38125488  0.07078109  0.33989808 -0.04910778  0.4037377   0.13905878
  0.3497602   0.07271808 -0.50053144  0.22505306  0.13577907  0.4214903
  0.16495124  0.06919125  0.20989847  0.02641994  0.13177723 -0.21451753
  0.09036811 -0.20477526  0.19694509 -0.3330048  -0.20875832  0.12646882
 -0.25853464  0.00193711 -0.20379323  0.15778273]
[-0.12523471  0.3559587  -0.47668463 -0.22910307 -0.08845329 -0.07071014
 -0.05990387  0.21957108 -0.01308951 -0.07599319 -0.08937993  0.3144528
  0.01271578 -0.17257231  0.03210573 -0.06526474  0.3044643   0.48736888
  0.1629822  -0.23067166  0.07082438 -0.15277858 -0.25162357  0.36361426
 -0.06502405  0.20620994  0.27050418  0.08992095 -0.24768788  0.20610568
 -0.11707742 -0.00411069  0.18264835  0.2073235  -0.32081267  0.20821153
 -0.36901975 -0.18789667  0.1041179   0.10595535]
[ 0.18697725  0.38392305 -0.24704315 -0.140812   -0.04533112  0.29560813
  0.36276135  0.1773184   0.42836872  0.53270763 -0.14830703  0.24962042
 -0.4247845  -0.2971343  -0.40095174 -0.3164618  -0.15169854  0.56622326
  0.10097024 -0.2691592   0.22050482 -0.25840232  0.62552726 -0.19630738
  0.17900415  0.3619079   0.1749744   0.12450345  0.1632991  -0.25347793
 -0.01880112  0.5873772  -0.1537984  -0.09223081 -0.02954272 -0.30438623
  0.12429451  0.31156746  0.5075891  -0.07619743]
[-0.14340359 -0.13557018  0.14930364  0.57570255 -0.06460737  0.00498663
 -0.16107386 -0.37926108  0.02781179  0.4085142  -0.29713804  0.05458002
  0.31486136 -0.19528563  0.01118124  0.07520162  0.12409084  0.24732006
  0.28414604  0.5685926  -0.12203256 -0.03962653 -0.17140396  0.31062892
 -0.12391695 -0.45180762 -0.0437823  -0.22010459  0.00556329 -0.03733231
 -0.27445307 -0.21680492  0.09106268 -0.05750404  0.3005757  -0.05941922
 -0.19734162 -0.01271542 -0.21165489 -0.02229868]
[-0.05790443 -0.08945388 -0.05635061  0.051035    0.35725003 -0.1736032
  0.19625868  0.16486081  0.02760214 -0.27983448  0.2100974   0.00051193
 -0.02246686 -0.08255779 -0.02064252  0.22481185 -0.09230287 -0.36915097
 -0.3879948   0.03499326  0.1932558   0.18352851  0.06975685  0.04565627
 -0.3405187  -0.18121679 -0.3329497   0.1612842   0.07151698 -0.00363054
 -0.27668592 -0.14045386  0.05744798  0.0862036   0.3341796  -0.05284943
  0.2953074  -0.14116989 -0.27794918 -0.2128973 ]
[-0.18204962  0.11265858  0.20535137 -0.4632868  -0.2304485   0.12396307
 -0.11841864 -0.05324353  0.05890312  0.20656961  0.13228345  0.363101
 -0.36253273 -0.2770819   0.25188544 -0.28712127  0.29372454  0.26721853
  0.44454545 -0.36213404  0.05877231  0.00914157  0.3236076   0.02921158
  0.1115211  -0.22375724  0.11892506 -0.12889019  0.21449983 -0.1242356
  0.24710096  0.32929423  0.01862733  0.20398043 -0.05715949  0.01908535
 -0.20444408 -0.21623853 -0.00612544 -0.19660677]
[ 0.15726626  0.14182521 -0.19905716 -0.13302687 -0.22519945  0.08951612
 -0.13370971 -0.16963564  0.22724716  0.28819007 -0.28225616 -0.40668106
  0.11279897 -0.13610417  0.02121181  0.20689863  0.23971245  0.09081574
 -0.1454881   0.0409922   0.25163028  0.04337782 -0.20562036 -0.08373202
  0.21615168  0.0597237  -0.02871644  0.5592078  -0.15478727  0.01258736
 -0.05827854 -0.30792823  0.33058873 -0.01374503 -0.00102609 -0.28427842
  0.16643742 -0.1257375   0.16823702 -0.00357547]
[-0.17848693 -0.11148227  0.25224414  0.29380605 -0.33101857  0.21631968
  0.21277605  0.09268699 -0.80205256  0.13737294  0.12477817  0.1958332
 -0.39154452 -0.05259385 -0.3873853  -0.0275025  -0.08488352  0.25666243
  0.19436118 -0.08474755  0.33549747  0.13880558 -0.19808576 -0.10264321
 -0.29097185 -0.1704986   0.05377484  0.06666291  0.3327955  -0.38773257
  0.31810477  0.04728358 -0.02674533  0.27061257 -0.37625048 -0.11812375
 -0.36246732  0.17529646 -0.37223262  0.34537503]
[-0.27425656  0.15436773  0.09314706 -0.03677897 -0.19319679  0.35508302
 -0.05309381  0.26041114  0.286142   -0.41686535  0.563621    0.07368976
 -0.11618936 -0.12811896 -0.13883393  0.10019064 -0.05426327  0.05174287
  0.25336444 -0.5618949  -0.04691534 -0.2086437  -0.01609179 -0.15019101
  0.21347469  0.37429276 -0.04040974 -0.22898977 -0.19982123 -0.38003168
  0.0326318   0.17215426  0.05715766 -0.06504992  0.0418932   0.15680262
  0.5892464   0.23639129  0.22787216 -0.23834178]
[-0.5486335  -0.38959286  0.6599023   0.07179745  0.30595323 -0.1360448
 -0.04811497  0.25464672 -0.09227371 -0.49941382 -0.29378757  0.22576481
  0.5635127  -0.07069177 -0.29149234 -0.14816527 -0.42423698 -0.5593298
 -0.3259031   0.3510213  -0.4327788   0.14484726 -0.6951077  -0.14373744
  0.05843571 -0.06926812  0.12484307 -0.4279612   0.47428644  0.07258277
  0.05070219 -0.24571377  0.18439932 -0.3037647   0.02547712 -0.13103321
  0.23793572  0.25462145 -0.49970412  0.1546519 ]
[ 0.06852054  0.54749864  0.40462422 -0.33538526  0.35272187 -0.33130348
 -0.1184264  -0.3011271  -0.2277391  -0.08929149 -0.20480624  0.2127691
  0.23223782  0.54169    -0.2766924   0.07567392  0.02038667 -0.14617501
 -0.3107583   0.20651974 -0.30011168  0.1687242  -0.45463148 -0.37470907
  0.59049475  0.33969086 -0.41509438 -0.3996639   0.7227063   0.13873973
 -0.3135595  -0.74631137 -0.2319039  -0.40614736  0.3367877   0.45112446
 -0.04885253  0.5157582  -0.18543807 -0.01670774]
[-0.07359795  0.3533585  -0.13677512 -0.31569853 -0.18980213 -0.16892332
  0.04420008  0.0417716   0.21682733 -0.2108981   0.13144153  0.07022296
  0.24018702  0.11374895  0.19552481  0.0948621  -0.04858838 -0.05947534
  0.23945719 -0.43857452  0.00306408 -0.24685656  0.28357357 -0.33942562
  0.33745039  0.12266275 -0.15638272  0.00718774  0.2590378  -0.25441015
  0.01690135 -0.23650832 -0.20903951 -0.09884078 -0.22094476  0.13862847
  0.30015606  0.29141682  0.4256859   0.22763422]
[-0.12494661 -0.12387059  0.0821132   0.4992087  -0.02301902  0.368534
  0.21421185 -0.441866   -0.24525945  0.69118005 -0.20024574  0.03466341
  0.29464665  0.11490851 -0.10849351 -0.12125957  0.1896339   0.2794305
  0.00879669  0.11948415  0.09591953  0.30241024 -0.10516239  0.15270877
 -0.6021247  -0.11539125 -0.3101831  -0.20982032  0.23121844  0.26802057
 -0.06133514  0.02093267 -0.04891161  0.05965274  0.35771692  0.15449288
 -0.65722495  0.12232273 -0.3903805  -0.03241601]
[ 2.9013371e-01  3.9192832e-01 -5.3476859e-02 -1.7905903e-01
 -3.3613327e-01  2.2884904e-01  1.9304939e-02 -1.4295790e-01
 -3.6437366e-02  4.4879290e-01 -4.5777425e-01 -5.1870994e-02
 -3.5082683e-02 -3.9430773e-01 -1.4941184e-01  9.0274520e-02
  3.3638284e-01  3.9346275e-01  1.8589538e-01  1.0041740e-01
  2.2127099e-01  6.5832630e-02  7.9303466e-02  4.2621586e-02
  2.7615893e-01 -2.6653343e-01 -9.6396625e-02  1.4777552e-01
 -1.0079052e-02 -8.5577123e-02  1.2864386e-01 -1.2357821e-01
  3.0450243e-01  1.7529020e-01 -3.1588844e-04  2.5223572e-02
 -4.6571699e-01 -2.4876721e-01 -2.9495201e-01  1.8995997e-01]
[-0.14684913 -0.28041157 -0.2407283   0.02903875 -0.1296015  -0.00669691
 -0.07768934 -0.24903856  0.24201724 -0.17879064 -0.20182905  0.12145638
 -0.03602343  0.1940018  -0.08995869 -0.06422617  0.00916197  0.10673799
  0.22146626 -0.0330358  -0.41359916  0.19092359 -0.25933403 -0.04129187
 -0.46351528  0.05162236  0.20360628  0.03369841 -0.06819115  0.28797007
 -0.09285159 -0.22806633  0.13992992  0.01827688  0.34942746  0.13830243
 -0.03367172  0.32981786 -0.3736806   0.07606184]
[ 0.18453807 -0.14366445 -0.08903521 -0.01608454  0.09590912 -0.01885471
  0.04067102  0.0842634   0.3492557   0.01606526 -0.30595827  0.12736239
  0.00160601  0.05574974 -0.10378476 -0.00469214  0.14055693 -0.0405854
 -0.24072416  0.13740888 -0.15483057 -0.01161216 -0.0157355  -0.13400158
 -0.1013038   0.00757147 -0.13042584 -0.14676796  0.00681141  0.0571646
 -0.14004576  0.0891403  -0.0587856  -0.05895379  0.34929517 -0.00100567
  0.15543422  0.19094442 -0.08076592 -0.0252324 ]
layer 3 Activation
tanh
layer 4 Dense
40 20
[-0.05899998  0.07542121 -0.2852563  -0.0970499   0.22577927 -0.3269186
 -0.31099537  0.26277772 -0.00931829 -0.4439522  -0.11717046  0.11154065
  0.10227168  0.3883725   0.12464637  0.02582521 -0.21364409 -0.16126028
  0.24498363 -0.2140192 ]
[-0.02933121 -0.27403846  0.03888968 -0.29470363  0.01043049 -0.49906033
 -0.03043098  0.16472656 -0.16547142 -0.24788015 -0.02140198 -0.09919263
  0.16845773  0.3594819  -0.06994811  0.0335499  -0.35117304 -0.11669438
 -0.32749358  0.03052786]
[-0.10296895  0.05683734  0.28548524 -0.20222948 -0.14959961 -0.21620403
  0.5196488  -0.24506338 -0.2069133   0.18284026  0.22021514 -0.22230683
  0.19526522 -0.16036026 -0.35703272  0.09235461  0.44710112  0.07485717
  0.15734538  0.6127963 ]
[-0.11336959  0.3010497   0.17125772 -0.04277221 -0.12935467  0.04225506
 -0.02530437 -0.20897128  0.14641486  0.33166346  0.20773625  0.17288531
 -0.11811867  0.13055894  0.1769358   0.21395311  0.32726493 -0.08372907
  0.1001632  -0.37576407]
[ 0.25727522 -0.05261391  0.60071915 -0.02031423 -0.24859081 -0.22210759
 -0.02041853 -0.10997552 -0.17190313  0.11528517 -0.05338845 -0.00277198
 -0.15875475  0.043833   -0.3495684   0.13171975 -0.0117473   0.1938085
  0.16247305  0.2876746 ]
[ 0.04841928  0.04832653  0.14643599  0.30401677  0.13688596  0.06305707
 -0.05910416 -0.18969284  0.0723883   0.02322327  0.22530693  0.27159983
  0.203802   -0.13421147  0.21299875  0.24013944 -0.04766719  0.1641567
  0.3240107   0.11886761]
[-0.13702537 -0.29750803 -0.22460322  0.05281596  0.01518335 -0.05909169
 -0.02555995 -0.00306346 -0.01489625 -0.06910045 -0.27060115  0.14083084
 -0.11312832 -0.01625232 -0.0247038  -0.01261191  0.00232216 -0.27819994
  0.24952796 -0.12558475]
[ 0.16887431  0.2197565   0.2763717  -0.17281495 -0.1659179  -0.10079826
 -0.23971267 -0.17311245 -0.19460565  0.28556064 -0.2226953  -0.52519983
  0.2706432  -0.07907135 -0.24505778  0.17210104 -0.14777794  0.1736978
  0.34054917 -0.1336369 ]
[ 0.21015435 -0.09687933 -0.4268794  -0.00899849 -0.2377359   0.18544394
 -0.22388513 -0.22513042  0.15509644 -0.24975027 -0.18564329 -0.3010512
  0.08783504 -0.22584136  0.39926675 -0.15307742 -0.3096067   0.25350866
  0.00357636 -0.2558473 ]
[-0.02030069  0.04544813 -0.11202925  0.37619793  0.1632554  -0.3380508
  0.16632308 -0.20902452  0.1325593  -0.40152365 -0.22583047  0.37369183
  0.24650607  0.05860833  0.40552256 -0.12112806  0.11519621 -0.2265125
 -0.07613557 -0.19736695]
[-0.2891117  -0.21543323 -0.08317593 -0.4424301   0.28289253  0.3181211
 -0.13202007  0.06445797  0.05644558  0.33446065 -0.19116    -0.5469581
  0.3317663  -0.12930599 -0.34275043 -0.10672561  0.00426853  0.07773642
 -0.1562032   0.20456868]
[-0.03273877 -0.09296915 -0.33742645 -0.07848272 -0.05804121  0.07671708
  0.04240701 -0.16023262 -0.29465368 -0.1441411  -0.15599053  0.06685278
  0.03065402  0.11843817 -0.02885263  0.3005611   0.05482437 -0.1562196
  0.2763332  -0.10897055]
[ 0.05443394 -0.2897702   0.08648442 -0.1550746  -0.09456301 -0.07318161
 -0.00342655 -0.14606886 -0.19116233  0.13346331  0.34372294  0.13041735
 -0.28331956 -0.27893767  0.09855282 -0.07872551  0.2853543   0.06171364
 -0.24486324  0.3593763 ]
[-0.101776    0.19809514  0.21488816 -0.24931823 -0.13636819  0.01700032
  0.26814148  0.35204032 -0.04169341 -0.08999281 -0.2070813   0.5611403
 -0.1301276  -0.29802656 -0.12815182 -0.03282093  0.05105271 -0.27426112
 -0.04055545  0.44133034]
[ 0.00836341  0.20951357  0.02088352  0.2402456   0.10143135 -0.03462796
 -0.08127163  0.21091133  0.12894107  0.43123186 -0.2975986  -0.17308827
  0.30413193 -0.03963074  0.19829978 -0.01377405 -0.36265665 -0.17742272
 -0.37159038 -0.2507657 ]
[ 0.13793391  0.31499663 -0.06188596  0.06285506 -0.1522258  -0.10814362
  0.00758974  0.09629539  0.13329506  0.07694034 -0.16932598 -0.38966247
  0.07732343 -0.00142506 -0.09967203  0.24554767 -0.08122543  0.00795936
 -0.41188687  0.02941791]
[-0.19109733  0.19367744 -0.13527083  0.39931604  0.09191109  0.27796403
 -0.15632945 -0.36099422 -0.09416832 -0.11728238 -0.2912535   0.07821634
 -0.0267387   0.38048658  0.21042988 -0.23701485 -0.30869073 -0.04061209
  0.0021866  -0.2628094 ]
[ 0.05454805 -0.09037986 -0.23850198  0.22794023  0.32715473 -0.2716168
 -0.06694026 -0.27339196  0.19768147 -0.34336573 -0.29294944  0.36939958
  0.10247464  0.14388192  0.12150406  0.07461009  0.19431093  0.01248707
 -0.03958111 -0.3869015 ]
[ 0.03747391  0.2307607  -0.1904466   0.01891674  0.2265749  -0.37867886
  0.27916768 -0.319399    0.2373903   0.17564894 -0.1918553  -0.26273334
  0.3565045   0.13411875 -0.17034052 -0.06701452  0.15978976  0.06686904
 -0.12604359 -0.17876439]
[ 0.08847348 -0.09406079  0.12645082  0.33777216 -0.06769569 -0.16177751
 -0.28525475  0.04025255 -0.18831219 -0.17297933 -0.0731307   0.33552328
 -0.18981151  0.03502119 -0.19363406  0.11470633  0.39359543  0.23798667
 -0.27770087  0.092452  ]
[ 0.32913128  0.17075692  0.01161813 -0.3367794   0.4049236  -0.41607147
 -0.04737993  0.03686221 -0.25124085  0.18628807  0.06035164 -0.07834471
  0.28789672  0.4248263   0.08092289 -0.27151883  0.0615497   0.12082077
  0.16197184  0.03693871]
[-0.18868902  0.22680765  0.10329033  0.05897607  0.01228552 -0.04407578
  0.34937227 -0.2013256  -0.1189858   0.10736192 -0.3198348   0.21116678
 -0.12335905 -0.31928185 -0.13578214 -0.03285361 -0.21558326 -0.28091836
  0.03409001 -0.09241225]
[-0.08377429  0.16912562 -0.0286923  -0.23115024  0.2281967  -0.18546636
 -0.16717438  0.08907862  0.13429089 -0.13585056 -0.3203628  -0.1247308
  0.22030446  0.11895037  0.3395982   0.06164168 -0.15098101  0.25896552
  0.22415411 -0.17057484]
[-0.10637511 -0.37995628  0.09605794  0.34732437  0.24556367  0.5168603
 -0.171632   -0.31784627 -0.05151785  0.19689955 -0.17004146  0.5087159
 -0.16084555  0.08413267 -0.04225325  0.10612751 -0.11276054  0.01559759
  0.07543855  0.02878448]
[-0.11988177  0.05024778  0.11854518 -0.13340084 -0.05682573 -0.09590967
 -0.11786938 -0.12468593  0.07959034 -0.18900995  0.1772627  -0.24141496
  0.23829329 -0.16562168 -0.11751185  0.2154433  -0.3576062  -0.14885643
 -0.01957634  0.5453802 ]
[-0.07629791  0.08737717  0.13148925 -0.2630081  -0.21434078 -0.09132195
 -0.08875328 -0.24358702  0.27654585  0.08751588  0.1259928  -0.15736252
  0.28543746  0.08170763  0.04046404 -0.04700733 -0.38594845  0.17589173
  0.19699778 -0.04207066]
[-0.18565515  0.13781989 -0.44113255 -0.21027736  0.04582028 -0.05765563
  0.16951077  0.23762819 -0.20288862  0.18430935 -0.10642273 -0.27116278
  0.19952834  0.10113697 -0.05533843 -0.18801925  0.18978891 -0.16583776
 -0.11132964 -0.18230735]
[ 0.31468353  0.19541816  0.09537773  0.11323962  0.09584286 -0.07554188
 -0.21039653 -0.2034623   0.10485346  0.02696986 -0.03867885  0.15206257
 -0.05306848  0.15054023  0.06910194 -0.02857461  0.0315645   0.26739535
 -0.13885407 -0.44934255]
[ 0.27632985  0.34949768 -0.12376606 -0.08030275 -0.12758859 -0.3102994
  0.37205058 -0.39214742  0.08347731 -0.2164239   0.03624477  0.09778141
 -0.07747275  0.16682275 -0.03731134 -0.06178776  0.00172883  0.23189901
  0.04516922  0.3090072 ]
[ 0.06278926  0.05121631 -0.26977375  0.26013416 -0.1109482   0.42545706
 -0.17453915 -0.09667934  0.05034354 -0.06014716 -0.07976729  0.18389435
 -0.18787569 -0.12537995  0.19123274  0.01815924 -0.12467178 -0.05350175
 -0.13767114 -0.07098027]
[ 0.07676131 -0.22539634 -0.30161482  0.05704052  0.17519158 -0.13241601
  0.08723598  0.02547098  0.15751189  0.29663125 -0.3592275  -0.26962414
  0.11546318 -0.29783067 -0.20691684  0.21600829  0.12180532  0.01385548
 -0.12723689 -0.16351162]
[ 0.07189383  0.04588886 -0.05518125  0.15095401  0.08739982  0.02717686
 -0.37548965  0.10728202  0.29126808 -0.05986972 -0.32311633 -0.21603197
  0.21681672 -0.13371718  0.07152925 -0.00950128  0.13315651 -0.1310306
  0.2987594  -0.13391036]
[ 0.36129287  0.13753794 -0.17902942  0.02477416  0.13620518  0.37463853
 -0.07608417 -0.23533633 -0.01920661  0.25334826 -0.15589987 -0.00992151
 -0.24696933 -0.16012941  0.2852571   0.23076238 -0.11199345 -0.25693884
  0.18350022 -0.03443721]
[-0.23625192 -0.08769509 -0.6409266  -0.21947151  0.25069195 -0.17388529
 -0.0254152   0.15427345  0.08424061  0.08743615 -0.20042755  0.10789224
 -0.11108752 -0.11246537  0.11883257  0.15859067  0.19777559  0.187224
  0.33486873  0.0249364 ]
[-0.00049529 -0.12898573  0.259062    0.15224017 -0.41427192 -0.14971943
 -0.29216704 -0.07132498  0.1545776  -0.35063657  0.19506858  0.01191305
 -0.13986574 -0.21646808  0.27925843 -0.25156498  0.18062322  0.20890857
  0.1823765  -0.00836015]
[-0.06408543 -0.01430568  0.04852607 -0.22356597 -0.21594861  0.13091198
  0.29143175 -0.21902847  0.04887778 -0.06386059 -0.11218263 -0.10716931
  0.09881138 -0.19343051  0.06642324  0.2151567  -0.38646197  0.19500202
 -0.19445857  0.27587628]
[-0.3512562   0.20582071  0.34520972 -0.24578409 -0.26936847 -0.0953011
 -0.23391914  0.14096579  0.38744396  0.32107365  0.2555641  -0.29201362
  0.30281505  0.14219138 -0.09621005 -0.19563356 -0.20965414 -0.22022231
 -0.20965004 -0.07003199]
[-0.06789885 -0.0196682   0.4772395   0.20671889 -0.21714321 -0.42833373
 -0.20646699  0.12981878  0.07030837 -0.3373443   0.27229184  0.22181387
 -0.28828347 -0.24028488  0.13922922  0.01198319 -0.04586474 -0.33585617
  0.07932572  0.50352526]
[ 0.2213214  -0.15176499  0.17556556 -0.43349984  0.1850676  -0.11726887
 -0.25140387  0.3564159   0.23274769 -0.34200752  0.26305228 -0.04889763
  0.4290429   0.0153862  -0.3282779   0.1586451  -0.3202627  -0.1616602
  0.14770862  0.13370606]
[-0.085768    0.3113804  -0.1706885   0.29029095  0.08891855  0.08536188
  0.17274576 -0.11470062  0.18768427  0.09697889 -0.26076418  0.3502959
 -0.18464784 -0.28778955 -0.13406523 -0.14802614  0.10612891  0.15965812
  0.09734791 -0.08648219]
[ 0.01133759  0.06041083 -0.08144247  0.10729942 -0.16962329  0.09827524
 -0.13007417  0.01565393  0.08656673 -0.14147526 -0.09887914  0.0442175
 -0.11785423 -0.03695178  0.11902528  0.02427473 -0.04869064  0.00062447
  0.09375078 -0.06051926]
layer 5 Activation
tanh
layer 6 Dense
20 1
[0.00550463]
[0.00587872]
[0.00310757]
[0.08012991]
[-0.23385303]
[-0.07793469]
[-0.10048098]
[0.05367647]
[0.02708403]
[0.15010238]
[0.0162753]
[0.01617036]
[-0.19469461]
[-0.00453967]
[0.11730964]
[-0.02676965]
[-0.21789455]
[-0.01437884]
[-0.11583636]
[-0.09623064]
[0.06914134]
